[UNK]	0
[PAD]	0
[CLS]	0
[SEP]	0
[MASK]	0
,	-3.79285
de❅쎯	-3.95505
.	-4.12703
、	-4.26226
shi❄쎯	-4.69898
han❄쎯	-5.03548
wei❄쎯	-5.18778
zai❄쎯	-5.41466
ji❂쎯	-5.48641
zhong❁쎯	-5.56765
ren❂쎯	-5.60251
yu❃쎯	-5.61786
you❃쎯	-5.7772
(	-5.81306
deng❃쎯	-5.8811
xian❄쎯	-5.96571
zhi❄쎯	-6.01885
:	-6.02047
yu❂쎯	-6.02626
zhi❁쎯	-6.05114
;	-6.05741
)	-6.06648
yi❃쎯	-6.071
cheng❂쎯	-6.09367
《	-6.12434
zhong❁쎯guo❂쎯	-6.13668
ji❁쎯	-6.17771
yuan❂쎯	-6.21345
da❄쎯	-6.2253
shang❃쎯	-6.23204
yi❁쎯	-6.23628
huo❄쎯	-6.2434
xin❁쎯	-6.26682
sheng❃쎯	-6.32117
you❂쎯	-6.34606
li❄쎯	-6.34775
jia❁쎯	-6.3603
dao❄쎯	-6.37527
“	-6.38146
jiang❁쎯	-6.3938
fu❄쎯	-6.39677
xiang❁쎯	-6.40389
shi❂쎯	-6.41868
dui❄쎯	-6.47915
da❄쎯xue❂쎯	-6.48515
le❅쎯	-6.49033
”	-6.4966
si❄쎯	-6.50433
xi❁쎯	-6.52089
xing❄쎯	-6.5251
gong❁쎯	-6.52559
yi❄쎯	-6.53508
jian❁쎯	-6.5612
ji❄쎯	-6.56792
qi❂쎯	-6.57377
ming❂쎯	-6.57663
hou❄쎯	-6.58156
bei❄쎯	-6.59522
qu❁쎯	-6.60988
li❃쎯	-6.61874
jian❄쎯	-6.62354
jing❁쎯	-6.65652
fu❂쎯	-6.68269
ji❄쎯shu❂쎯	-6.68329
gao❁쎯	-6.68514
hua❁쎯	-6.68881
gong❁쎯zuo❄쎯	-6.69049
gu❃쎯	-6.70174
yan❂쎯	-6.70546
bu❂쎯	-6.70583
zi❃쎯	-6.70719
bing❁쎯	-6.71449
xiao❃쎯	-6.71941
guan❃쎯li❃쎯	-6.72745
dan❄쎯	-6.73104
gong❁쎯si❁쎯	-6.73346
er❂쎯	-6.73478
jin❁쎯	-6.73554
yu❄쎯	-6.73604
yan❂쎯jiu❁쎯	-6.74698
shi❁쎯	-6.75288
qing❁쎯	-6.75669
shan❁쎯	-6.76252
xia❄쎯	-6.76326
hui❄쎯	-6.77259
chu❁쎯	-6.78093
zhuan❁쎯qiu❁쎯	-6.78239
shui❃쎯	-6.78617
nan❂쎯	-6.78692
bu❄쎯	-6.78729
suo❃쎯	-6.81732
lu❄쎯	-6.82185
zhang❃쎯	-6.82272
na❄쎯	-6.82714
chong❂쎯	-6.83551
·	-6.83592
feng❁쎯	-6.83962
zuo❄쎯	-6.84564
wu❃쎯	-6.85176
쎃	-6.85673
sheng❁쎯	-6.8627
쎂	-6.87797
jun❁쎯	-6.89
chan❃쎯pin❃쎯	-6.89857
san❁쎯	-6.89869
qi❃쎯qiu❁쎯	-6.9024
he❂쎯	-6.90317
qi❃쎯	-6.91513
ju❄쎯	-6.92369
-	-6.92497
》	-6.92593
si❁쎯	-6.92919
quan❂쎯	-6.92944
de❂쎯	-6.93791
zhen❄쎯	-6.93888
sheng❁쎯chan❃쎯	-6.94365
jiao❁쎯	-6.95082
xiang❄쎯	-6.95457
dai❄쎯	-6.95463
zi❄쎯	-6.95849
yong❄쎯	-6.95999
yang❂쎯	-6.96381
liu❂쎯	-6.96476
qian❂쎯	-6.97186
wen❂쎯	-6.97387
ling❂쎯	-6.97954
mo❄쎯	-6.99309
xian❄쎯gong❁쎯si❁쎯	-7.00237
쎁	-7.00302
mu❄쎯	-7.01005
zhou❁쎯	-7.01209
jiao❁쎯yu❄쎯	-7.01497
duo❁쎯	-7.01931
xue❂쎯yuan❄쎯	-7.02595
lin❂쎯	-7.02633
zheng❁쎯	-7.0318
jin❄쎯	-7.03491
ke❄쎯	-7.04272
ye❃쎯	-7.05751
gong❁쎯cheng❂쎯	-7.063
xi❄쎯	-7.07393
xie❂쎯	-7.07586
shu❄쎯	-7.08526
xing❂쎯	-7.08797
hong❂쎯	-7.08879
ping❂쎯	-7.09464
ta❁쎯	-7.09625
da❂쎯	-7.09972
tian❁쎯	-7.09988
jing❁쎯ji❄쎯	-7.1102
쎄	-7.11579
zhong❁쎯xin❁쎯	-7.11729
an❁쎯	-7.11866
cong❂쎯	-7.12186
liang❂쎯	-7.12815
guan❁쎯	-7.13469
zhang❁쎯	-7.13564
yin❁쎯	-7.1367
fu❂쎯wu❄쎯	-7.14139
zhi❃쎯	-7.14179
shu❁쎯	-7.14181
bi❄쎯	-7.14389
wang❂쎯	-7.15684
/	-7.16269
lai❂쎯	-7.16363
wu❂쎯	-7.16763
qiu❂쎯	-7.17059
jie❂쎯	-7.17397
yi❂쎯	-7.17423
wen❂쎯hua❁쎯	-7.18376
ma❃쎯	-7.1879
tong❂쎯	-7.18832
fa❁쎯zhan❃쎯	-7.1894
ben❃쎯	-7.21119
tang❂쎯	-7.21131
wei❄쎯yu❂쎯	-7.21638
er❄쎯	-7.21758
shou❃쎯	-7.21882
shi❃쎯	-7.22174
xue❂쎯	-7.22979
cun❁쎯	-7.23063
dong❁쎯	-7.23153
lian❂쎯	-7.23224
ke❃쎯	-7.23242
guo❂쎯jia❁쎯	-7.23463
xi❄쎯tong❃쎯	-7.23663
xue❂쎯jiao❄쎯	-7.24577
jiu❄쎯	-7.25709
쎅	-7.25971
she❄쎯	-7.27085
ke❁쎯	-7.27781
tou❂쎯	-7.28755
fen❁쎯	-7.28934
guo❂쎯ji❄쎯	-7.28981
jiu❃쎯	-7.29533
yi❁쎯gan❄쎯	-7.29627
wei❁쎯	-7.29775
you❄쎯	-7.30848
du❄쎯	-7.31358
jie❄쎯	-7.31441
,zai❄쎯	-7.31534
gan❁쎯	-7.32081
huang❂쎯	-7.32507
zhu❃쎯yao❁쎯	-7.3255
dian❄쎯	-7.33026
zhao❁쎯	-7.33143
hai❃쎯	-7.33206
she❄쎯ji❄쎯	-7.3321
shen❁쎯	-7.34126
mei❃쎯	-7.34207
zhe❃쎯	-7.34393
chen❂쎯	-7.34655
ceng❂쎯	-7.35377
fa❃쎯	-7.35505
jing❄쎯	-7.35656
jie❁쎯	-7.36154
yue❄쎯	-7.36213
ba❁쎯	-7.36803
zhi❂쎯	-7.37338
hang❂쎯	-7.3792
pian❁쎯	-7.38088
guang❁쎯	-7.3812
guo❂쎯	-7.38152
shu❃쎯	-7.38672
zhu❁쎯	-7.38801
fei❁쎯	-7.38851
ying❁쎯	-7.39014
()	-7.39239
쎆	-7.39715
shou❄쎯	-7.40326
long❂쎯	-7.40587
zhu❄쎯	-7.41014
bao❃쎯	-7.41162
jiao❄쎯	-7.42475
ban❄쎯	-7.42538
tu❂쎯	-7.42771
hu❂쎯	-7.43279
jin❄쎯hang❂쎯	-7.44165
an❄쎯	-7.44653
,shi❄쎯	-7.4481
sha❁쎯	-7.44956
ben❄쎯	-7.45479
》、《	-7.45578
hua❂쎯	-7.45734
wu❄쎯	-7.45815
bi❃쎯	-7.46579
wang❃쎯	-7.4662
"	-7.47125
zhan❄쎯	-7.47614
ci❂쎯	-7.47635
lv❄쎯	-7.4795
dou❁쎯	-7.4845
shang❃쎯hai❃쎯	-7.49059
lan❂쎯	-7.49099
su❄쎯	-7.49694
neng❂쎯	-7.49883
fang❁쎯	-7.5024
yao❁쎯	-7.50261
she❄쎯hui❄쎯	-7.5031
zheng❄쎯fu❃쎯	-7.50319
쎈	-7.50763
xian❁쎯	-7.51081
mo❂쎯	-7.51252
qi❄쎯	-7.51272
ge❂쎯	-7.5172
.”	-7.52701
bai❂쎯	-7.52743
jiang❄쎯	-7.52897
cong❂쎯shi❄쎯	-7.53306
jing❃쎯	-7.53339
nian❂쎯	-7.53684
qing❄쎯	-7.54104
zui❄쎯	-7.54288
dao❃쎯	-7.54416
quan❂쎯guo❂쎯	-7.55207
ti❂쎯gong❁쎯	-7.55451
men❂쎯	-7.55579
쎇	-7.55624
쎁쎀	-7.56036
bo❂쎯	-7.56584
wai❄쎯	-7.56734
dong❄쎯	-7.56843
zhen❁쎯	-7.57006
ju❄쎯you❃쎯	-7.571
jian❄쎯she❄쎯	-7.57336
zheng❄쎯	-7.57474
qiu❁쎯	-7.57774
bian❄쎯	-7.58254
ru❄쎯	-7.5852
di❄쎯	-7.58597
jian❄쎯zhu❂쎯	-7.58848
ke❁쎯ji❄쎯	-7.5897
ru❂쎯	-7.58988
xiang❄쎯mu❄쎯	-7.59436
guan❃쎯	-7.60234
tai❄쎯	-7.6038
bei❃쎯jing❁쎯	-7.61245
wan❂쎯	-7.61397
dan❁쎯	-7.6157
zu❃쎯	-7.61708
wang❃쎯luo❄쎯	-7.61962
ri❄쎯	-7.62264
wu❁쎯	-7.62303
yi❃쎯ji❂쎯	-7.62625
qi❁쎯	-7.62845
mei❂쎯	-7.63048
yi❄쎯shu❂쎯	-7.6368
shang❁쎯	-7.63799
guo❄쎯	-7.63853
wei❂쎯	-7.64176
cha❁쎯	-7.64675
chu❄쎯	-7.64722
ce❄쎯	-7.64897
ban❃쎯	-7.65007
dian❃쎯	-7.65183
hu❄쎯	-7.65389
zhu❃쎯	-7.65544
fang❂쎯	-7.65917
le❄쎯	-7.65937
er❃쎯	-7.66024
jiao❁쎯xue❂쎯	-7.66059
ke❁쎯xue❂쎯	-7.66083
ze❂쎯	-7.66968
jiao❃쎯	-7.67321
xin❄쎯xi❁쎯	-7.6763
),	-7.67684
zu❃쎯zhi❁쎯	-7.67815
hao❂쎯	-7.67925
huan❂쎯jing❄쎯	-7.68132
shi❄쎯jie❄쎯	-7.68235
wei❁쎯yuan❂쎯hui❄쎯	-7.6853
,yi❃쎯	-7.69031
mian❄쎯	-7.69688
bian❁쎯	-7.70147
ren❂쎯min❂쎯	-7.70188
te❄쎯	-7.70247
liang❃쎯	-7.70272
fa❁쎯	-7.70393
bao❁쎯	-7.70713
can❁쎯jia❁쎯	-7.70905
bao❄쎯	-7.71252
tian❂쎯	-7.71531
bei❃쎯	-7.71969
qu❄쎯	-7.72674
mu❃쎯	-7.7273
lei❄쎯	-7.72753
ge❄쎯	-7.73206
bei❁쎯	-7.73336
kou❃쎯	-7.73545
ping❂쎯fang❁쎯mi❃쎯	-7.74374
xie❃쎯	-7.74391
tong❁쎯	-7.74944
de❅쎯qu❁쎯	-7.75083
hua❄쎯	-7.75174
ai❄쎯	-7.75314
”.	-7.75459
chuan❂쎯	-7.75728
,bing❁쎯	-7.75853
shi❄쎯chang❃쎯	-7.76268
shi❃쎯yong❄쎯	-7.77431
쎉	-7.77634
che❁쎯	-7.78137
cheng❁쎯	-7.78217
pi❂쎯	-7.78247
se❄쎯	-7.78475
qian❁쎯	-7.78554
du❂쎯	-7.78734
biao❁쎯zhun❃쎯	-7.78983
jia❃쎯	-7.79194
tong❁쎯guo❄쎯	-7.79257
xue❂쎯sheng❁쎯	-7.79267
jiang❃쎯	-7.79417
shuang❁쎯	-7.79852
re❄쎯	-7.7988
song❄쎯	-7.79984
lao❃쎯	-7.8012
han❂쎯	-7.80401
zhi❄쎯liang❂쎯	-7.80559
gong❁쎯neng❂쎯	-7.80663
yuan❄쎯	-7.80746
sui❄쎯	-7.80834
sheng❁쎯huo❂쎯	-7.80841
cheng❂쎯shi❄쎯	-7.81015
ge❁쎯	-7.81217
ke❃쎯yi❃쎯	-7.81552
bi❄쎯qiu❁쎯yu❂쎯	-7.82287
ju❂쎯	-7.82813
jue❂쎯	-7.82967
shen❂쎯	-7.83043
zhao❄쎯	-7.83194
쎁쎂	-7.83293
yong❁쎯you❃쎯	-7.83781
ye❄쎯	-7.84222
cheng❂쎯wei❄쎯	-7.84909
cha❂쎯	-7.85357
jian❃쎯	-7.85547
qiao❂쎯	-7.85583
yan❃쎯	-7.85849
gong❁쎯qiu❁쎯	-7.85868
ba❃쎯	-7.86223
gang❁쎯	-7.87016
jian❁쎯fa❁쎯	-7.87433
hang❂쎯zheng❄쎯	-7.87512
gui❁쎯	-7.87641
nv❃쎯	-7.87812
mei❃쎯guo❂쎯	-7.87937
shan❁쎯dong❁쎯	-7.87993
she❄쎯bei❄쎯	-7.88352
hao❃쎯	-7.88862
zong❃쎯	-7.89234
yun❂쎯	-7.89551
gai❁쎯	-7.89604
bo❁쎯	-7.89839
fu❃쎯	-7.89914
a❁쎯	-7.90084
ji❂쎯qiu❂쎯	-7.90299
bai❃쎯	-7.90325
you❁쎯xiu❄쎯	-7.90617
peng❂쎯	-7.90733
luo❁쎯	-7.91096
diao❄쎯	-7.91251
geng❁쎯	-7.91279
ju❁쎯	-7.91537
yi❁쎯yuan❄쎯	-7.91723
ban❁쎯	-7.91793
》:“	-7.92185
duan❄쎯	-7.9291
la❁쎯	-7.93062
qin❂쎯	-7.9308
ka❃쎯	-7.93143
zu❂쎯	-7.93222
wei❃쎯	-7.93735
cai❂쎯	-7.93922
!	-7.93935
nong❂쎯qiu❁쎯	-7.9405
gong❄쎯	-7.94544
bing❄쎯	-7.94588
pu❃쎯	-7.95352
mi❃쎯	-7.95496
di❄쎯yi❁쎯	-7.95527
yue❁쎯	-7.95575
jin❃쎯	-7.96131
yin❂쎯	-7.96232
yin❃쎯	-7.96425
chang❂쎯	-7.96538
qi❂쎯ta❁쎯	-7.97089
ci❃쎯	-7.97519
chi❁쎯	-7.97521
ren❂쎯,	-7.97558
hang❂쎯qiu❁쎯	-7.97559
ni❃쎯	-7.97589
dian❄쎯zi❃쎯	-7.98024
liu❄쎯	-7.98225
pai❂쎯	-7.98255
yan❁쎯	-7.98526
yong❃쎯	-7.98563
ge❄쎯chong❂쎯	-7.9881
zuo❄쎯wei❄쎯	-7.98841
ying❁쎯yong❄쎯	-7.99136
gou❁쎯	-7.99283
ni❂쎯	-7.9947
ding❄쎯	-7.99566
ya❄쎯	-7.99792
zhong❁쎯xue❂쎯	-7.99963
jing❁쎯ying❂쎯	-8.00253
wo❃쎯	-8.00466
chao❂쎯	-8.00677
zhuang❄쎯	-8.00698
gen❁쎯	-8.00803
jiao❁쎯shi❁쎯	-8.00884
쎂쎀	-8.00905
mai❄쎯	-8.00997
di❂쎯	-8.01073
xue❂쎯xi❂쎯	-8.01095
kan❁쎯	-8.0116
huo❂쎯dong❄쎯	-8.01469
ting❁쎯	-8.01613
mao❂쎯	-8.01688
jiao❁쎯tong❁쎯	-8.01733
zhi❁쎯chi❂쎯	-8.01874
nong❂쎯	-8.01916
,wei❄쎯	-8.01937
ren❂쎯yuan❂쎯	-8.02035
chuan❁쎯	-8.02622
zhong❁쎯de❅쎯	-8.02652
ying❂쎯	-8.02987
ya❁쎯	-8.03005
zhong❁쎯yang❁쎯	-8.03446
rong❂쎯	-8.03446
tou❂쎯zi❁쎯	-8.03522
ge❃쎯	-8.03848
.zai❄쎯	-8.03961
cai❄쎯	-8.04187
xian❂쎯	-8.04244
gu❄쎯	-8.043
zuo❄쎯pin❃쎯	-8.04415
yin❁쎯le❄쎯	-8.04521
tu❃쎯	-8.04964
chao❁쎯	-8.05243
fei❄쎯	-8.0542
ting❂쎯	-8.05421
yao❄쎯	-8.05877
xian❁쎯jin❄쎯	-8.05916
shi❂쎯jian❁쎯	-8.06021
zhe❄쎯jiang❁쎯	-8.06408
di❁쎯	-8.06646
ruan❃쎯jian❄쎯	-8.06781
ti❂쎯	-8.06985
xiao❄쎯	-8.07056
lie❄쎯	-8.07755
hui❂쎯	-8.07838
xiao❁쎯	-8.07978
zhu❂쎯	-8.08404
ri❄쎯ben❃쎯	-8.08501
lun❂쎯	-8.09002
she❂쎯	-8.09192
you❂쎯xi❄쎯	-8.09258
jiu❃쎯dian❄쎯	-8.09332
,ta❁쎯	-8.0943
kong❄쎯zhi❄쎯	-8.09461
tan❂쎯	-8.0962
zhong❁쎯gong❄쎯	-8.10205
dang❁쎯	-8.10233
——	-8.10441
ci❄쎯	-8.10662
an❁쎯quan❂쎯	-8.10899
ku❁쎯	-8.11482
han❃쎯	-8.11892
bao❁쎯gua❁쎯	-8.12976
～	-8.13011
ren❂쎯.	-8.13014
ta❃쎯	-8.13102
pan❂쎯	-8.13206
xing❁쎯	-8.13209
pin❃쎯pai❂쎯	-8.13298
fan❄쎯	-8.13372
xu❁쎯	-8.13565
huo❃쎯	-8.13639
shuo❁쎯	-8.13754
).	-8.14087
lv❃쎯	-8.1411
hei❁쎯	-8.1489
쎃쎀	-8.14954
yao❂쎯	-8.15168
she❄쎯qu❁쎯	-8.15211
dan❁쎯wei❄쎯	-8.15242
juan❃쎯	-8.15428
—	-8.1548
tao❂쎯	-8.15599
xia❂쎯	-8.15726
min❂쎯	-8.15814
deng❃쎯.	-8.15823
xiu❁쎯	-8.15946
jian❁쎯shi❃쎯	-8.16295
wen❂쎯xue❂쎯	-8.16489
chuan❂쎯tong❃쎯	-8.1653
chang❃쎯	-8.16552
an❁쎯dong❁쎯	-8.16675
gan❄쎯	-8.16752
xi❄쎯lie❄쎯	-8.16789
xie❂쎯hui❄쎯	-8.16818
deng❁쎯	-8.16977
chong❂쎯dian❃쎯	-8.17031
cao❃쎯	-8.17696
lou❂쎯	-8.18127
zhi❂쎯qiu❁쎯	-8.18297
xie❄쎯	-8.18356
쎁쎅	-8.1863
chi❂쎯	-8.18646
gan❃쎯	-8.18693
lian❄쎯	-8.18751
xing❂쎯cheng❂쎯	-8.18808
chun❁쎯	-8.19057
jie❂쎯gou❃쎯	-8.19379
cai❃쎯yong❄쎯	-8.19661
zhe❄쎯	-8.20102
huo❄쎯de❂쎯	-8.2014
zong❁쎯	-8.20304
쎁쎁	-8.2036
xiao❁쎯shou❄쎯	-8.20573
qing❂쎯	-8.20619
xiao❃쎯xue❂쎯	-8.21435
fan❃쎯	-8.21483
e❄쎯	-8.21658
xian❄쎯dai❄쎯	-8.22162
xi❃쎯	-8.2226
feng❄쎯	-8.22344
kuai❄쎯	-8.22936
zong❁쎯ge❃쎯	-8.23066
guo❃쎯	-8.23096
gui❁쎯hua❂쎯	-8.23125
jiang❁쎯su❁쎯	-8.23207
zhao❂쎯ming❂쎯	-8.23221
la❄쎯	-8.23421
li❄쎯shi❃쎯	-8.23806
si❄쎯chuan❁쎯	-8.24181
yan❄쎯	-8.24401
rou❄쎯	-8.24457
xian❄쎯ren❂쎯	-8.24503
mi❄쎯	-8.24595
xu❄쎯	-8.2471
hui❁쎯	-8.24777
wang❄쎯	-8.24795
li❃쎯lun❄쎯	-8.2515
yang❃쎯	-8.25227
”,	-8.25258
?	-8.25338
ji❁쎯gou❃쎯	-8.25414
cai❂쎯liao❄쎯	-8.25566
cai❃쎯	-8.2562
,qi❂쎯zhong❁쎯	-8.25898
쎁쎆	-8.26171
zi❄쎯ran❂쎯	-8.2634
wan❃쎯	-8.26341
zi❁쎯	-8.2635
zhi❄쎯liao❂쎯	-8.26363
gong❁쎯yi❄쎯	-8.26368
tiao❂쎯	-8.26757
fu❁쎯	-8.26865
쎁쎈	-8.27206
huan❄쎯	-8.27254
chu❁쎯ban❃쎯	-8.27545
qu❃쎯	-8.27722
xiang❃쎯	-8.27908
jiu❄쎯shi❄쎯	-8.28144
bao❃쎯hu❄쎯	-8.28301
ju❃쎯	-8.28536
lv❃쎯you❂쎯	-8.28597
e❂쎯	-8.28643
tun❁쎯	-8.28777
bu❄쎯fen❁쎯	-8.29219
쎅쎀	-8.29438
lu❂쎯	-8.29868
ji❁쎯xie❄쎯	-8.30071
he❄쎯	-8.30128
chan❃쎯qiu❁쎯	-8.30265
min❂쎯zu❂쎯	-8.30282
ge❃쎯zuo❄쎯	-8.3042
zi❁쎯yuan❂쎯	-8.30559
xiang❁쎯guan❁쎯	-8.30583
xin❄쎯	-8.30932
chun❂쎯	-8.3099
su❁쎯	-8.31063
pei❂쎯xun❄쎯	-8.31112
yun❃쎯dong❄쎯	-8.31328
ning❂쎯	-8.3169
song❁쎯	-8.32344
chu❂쎯	-8.32549
쎄쎀	-8.3283
gai❄쎯	-8.32978
shi❂쎯,	-8.32995
shang❁쎯wu❄쎯	-8.33171
xiu❄쎯	-8.33197
hou❄쎯,	-8.33278
ying❃쎯xiang❃쎯	-8.33496
ao❄쎯	-8.33726
na❄쎯rong❂쎯	-8.33812
jia❁쎯gong❁쎯	-8.33857
guo❂쎯na❄쎯	-8.33899
ruo❄쎯	-8.34049
dian❄쎯ying❃쎯	-8.34301
jia❁쎯ru❄쎯	-8.34311
fang❄쎯	-8.34453
cheng❂쎯li❄쎯	-8.34591
lu❃쎯	-8.34613
fang❁쎯mian❄쎯	-8.35037
fang❁쎯fa❃쎯	-8.35201
qiu❁쎯wu❄쎯	-8.35378
gang❃쎯	-8.35448
tie❃쎯	-8.35531
zhi❁쎯yi❁쎯.	-8.35573
shan❄쎯	-8.36024
ji❁쎯ben❃쎯	-8.36424
gei❃쎯	-8.36494
tui❄쎯	-8.36714
zhi❄쎯zuo❄쎯	-8.36931
gao❁쎯ji❂쎯	-8.37136
qin❁쎯	-8.37137
zhu❃쎯ren❂쎯	-8.37141
ku❄쎯	-8.37224
ban❄쎯gong❁쎯shi❄쎯	-8.37306
chong❁쎯	-8.37318
zheng❄쎯zhi❄쎯	-8.37463
xiang❁쎯gang❃쎯	-8.37642
fen❃쎯	-8.37771
yuan❃쎯	-8.37782
ji❁쎯chu❃쎯	-8.38057
,dan❄쎯	-8.38237
cheng❂쎯li❄쎯yu❂쎯	-8.38282
”、“	-8.38292
lin❂쎯chuang❂쎯	-8.3851
you❁쎯	-8.38721
mi❂쎯	-8.38813
zhuan❃쎯	-8.39035
dang❃쎯yuan❂쎯	-8.39142
.《	-8.39204
jie❃쎯	-8.39274
zhi❂쎯wu❄쎯	-8.3934
bu❂쎯tong❂쎯	-8.3939
qun❂쎯	-8.39432
ya❂쎯	-8.39714
yong❄쎯yu❂쎯	-8.39733
xue❂쎯hui❄쎯	-8.3977
pin❃쎯	-8.39828
lun❄쎯wen❂쎯	-8.39911
huan❂쎯	-8.3995
zhan❁쎯	-8.40029
.ta❁쎯	-8.40102
lei❄쎯xing❂쎯	-8.40139
jiao❁쎯shou❄쎯	-8.40188
chuang❄쎯xin❁쎯	-8.40193
zi❄쎯ji❃쎯	-8.40355
man❄쎯	-8.40439
kong❃쎯	-8.40485
zao❃쎯	-8.40556
ren❂쎯wu❄쎯	-8.406
chi❄쎯	-8.40738
pai❄쎯	-8.409
lun❄쎯	-8.40917
+	-8.40918
chuang❄쎯zuo❄쎯	-8.41132
fen❁쎯xi❁쎯	-8.41419
,qi❂쎯	-8.41647
tang❁쎯	-8.41755
jun❄쎯	-8.41791
mei❃쎯shu❂쎯	-8.42013
shang❁쎯qiu❁쎯	-8.42148
gui❄쎯	-8.42277
zhong❁쎯,	-8.4235
gong❁쎯zuo❄쎯,	-8.42441
po❄쎯	-8.42537
xue❂쎯shu❂쎯	-8.42554
zhi❄쎯zao❄쎯	-8.4277
me❅쎯you❃쎯	-8.42806
gen❁쎯ju❁쎯	-8.43389
xuan❂쎯	-8.43433
mao❄쎯	-8.43587
jia❄쎯	-8.43725
guo❄쎯cheng❂쎯	-8.43777
dang❃쎯	-8.43965
dai❄쎯biao❃쎯	-8.44103
qing❁쎯nian❂쎯	-8.4432
zhuan❁쎯jia❁쎯	-8.44482
ding❁쎯	-8.44503
san❃쎯	-8.44679
cun❁쎯wei❁쎯hui❄쎯	-8.44685
li❄쎯yong❄쎯	-8.44741
zhuang❁쎯	-8.45057
zhuan❁쎯	-8.45121
niu❂쎯	-8.45152
쎆쎀	-8.45228
ran❂쎯	-8.45231
chu❄쎯li❃쎯	-8.45267
qi❂쎯zhong❁쎯	-8.45289
yi❁쎯xue❂쎯	-8.45418
ding❃쎯	-8.4547
kong❁쎯	-8.45797
qi❄쎯che❁쎯	-8.46232
”de❅쎯	-8.46272
yi❁쎯chong❂쎯	-8.46581
chan❃쎯	-8.46641
sui❂쎯	-8.46673
cao❁쎯zuo❄쎯	-8.46848
,you❃쎯	-8.4691
ti❂쎯gao❁쎯	-8.47216
fan❂쎯	-8.47255
neng❂쎯li❄쎯	-8.47367
zheng❁쎯shi❄쎯	-8.47465
xuan❃쎯	-8.47652
wei❄쎯sheng❁쎯	-8.47668
zhan❃쎯	-8.47747
fu❂쎯jian❄쎯	-8.47839
bing❃쎯	-8.47987
wo❃쎯们	-8.47998
yun❃쎯	-8.48127
liao❄쎯	-8.48131
zhong❁쎯guo❂쎯gong	-8.48354
yong❄쎯hu❄쎯	-8.48445
,you❂쎯	-8.48604
xi❂쎯	-8.4868
wen❁쎯	-8.48858
pei❄쎯	-8.48882
sheng❁쎯wu❄쎯	-8.49244
❃쎯	-8.49265
ren❂쎯cai❂쎯	-8.49495
zuo❃쎯	-8.49861
bu❃쎯	-8.49953
na❃쎯	-8.50101
chong❂쎯yao❁쎯	-8.50245
yan❂쎯jiu❁쎯suo❃쎯	-8.5064
xing❄쎯neng❂쎯	-8.50881
zhong❁쎯wen❂쎯	-8.50884
cheng❂쎯gong❁쎯	-8.50902
chan❃쎯sheng❁쎯	-8.5129
biao❃쎯	-8.51362
xun❂쎯	-8.51393
jie❁쎯kou❃쎯	-8.51541
쎂쎅	-8.51638
zhi❁쎯yi❁쎯	-8.51648
chu❁쎯ban❃쎯she❄쎯	-8.51833
tan❄쎯	-8.51902
shao❁쎯	-8.51984
zhu❃쎯cha❁쎯	-8.52241
쎁쎄	-8.52313
meng❄쎯	-8.52385
de❅쎯yi❁쎯chong❂쎯	-8.52535
zhong❁쎯hua❂쎯	-8.52728
hua❁쎯xue❂쎯	-8.53052
shen❄쎯	-8.53393
xiao❃쎯shuo❁쎯	-8.53585
ta❁쎯们	-8.53592
kao❃쎯	-8.53755
qie❁쎯	-8.54031
쎁쎃	-8.54137
zao❄쎯	-8.54197
ke❁쎯yan❂쎯	-8.5428
jie❂쎯ge❃쎯	-8.54466
gan❄쎯ren❂쎯	-8.54682
ji❁쎯de❅쎯	-8.54805
ji❄쎯suan❄쎯ji❁쎯	-8.54826
li❂쎯	-8.54832
xian❃쎯	-8.54879
yi❁쎯ban❁쎯	-8.54901
fa❁쎯biao❃쎯	-8.55048
di❄쎯er❄쎯	-8.55091
,er❂쎯	-8.55315
fang❁쎯shi❄쎯	-8.55526
쎁쎇	-8.55756
lei❂쎯	-8.55846
......	-8.55941
ke❄쎯hu❄쎯	-8.56114
dou❁쎯shi❄쎯	-8.56132
xuan❁쎯	-8.56351
shi❄쎯yi❁쎯gan❄쎯	-8.56439
lang❂쎯	-8.5646
ji❄쎯hua❂쎯	-8.56483
dun❄쎯	-8.56574
ya❃쎯	-8.56628
dan❁쎯ren❂쎯	-8.56775
ying❃쎯	-8.5681
fu❄쎯ze❂쎯	-8.56917
shu❁쎯fa❃쎯	-8.57005
wang❃쎯zhan❄쎯	-8.57033
zui❄쎯da❄쎯	-8.57072
kang❁쎯	-8.5712
da❄쎯xing❂쎯	-8.57141
liang❃쎯gan❄쎯	-8.57468
rui❄쎯	-8.57497
duo❃쎯	-8.57516
wen❂쎯ming❂쎯	-8.57664
kuan❁쎯	-8.57734
shi❄쎯zhi❃쎯	-8.57747
shi❄쎯yi❁쎯chong❂쎯	-8.57784
guo❁쎯	-8.57813
zhi❃쎯dao❃쎯	-8.57864
yin❄쎯	-8.57963
쎁쎉	-8.58201
fu❄쎯zhu❃쎯ren❂쎯	-8.58375
suan❁쎯	-8.58593
fo❂쎯	-8.58735
wen❄쎯ti❂쎯	-8.58754
shan❁쎯xi❁쎯	-8.58846
jiang❁쎯xi❁쎯	-8.58915
dou❄쎯	-8.58939
chong❂쎯qing❄쎯	-8.58979
tuo❁쎯	-8.59294
cang❂쎯	-8.59332
shao❃쎯	-8.59417
쎁쎀쎀	-8.59604
jiao❁쎯liu❂쎯	-8.59653
sun❁쎯	-8.59659
yi❃쎯jing❁쎯	-8.60223
can❁쎯	-8.6045
jian❄쎯kang❁쎯	-8.60607
:“	-8.60874
*	-8.60993
hen❃쎯	-8.61069
xun❄쎯	-8.61258
cheng❁쎯wei❄쎯	-8.61317
lou❄쎯	-8.61319
miao❄쎯	-8.61383
ping❂쎯si❄쎯	-8.61452
gong❁쎯zuo❄쎯.	-8.61467
luo❄쎯	-8.61558
wan❂쎯cheng❂쎯	-8.61589
kang❄쎯	-8.61822
ba❄쎯	-8.62545
que❄쎯	-8.62691
duo❁쎯chong❂쎯	-8.62773
cheng❂쎯guo❃쎯	-8.62838
you❃쎯guan❁쎯	-8.62856
yun❂쎯nan❂쎯	-8.62859
chu❁쎯sheng❁쎯	-8.62911
xiong❂쎯	-8.6295
xu❁쎯yao❁쎯	-8.62989
xiong❁쎯	-8.63023
zhi❁쎯shi❂쎯	-8.63147
쎂쎄	-8.63192
shou❁쎯ru❄쎯	-8.63268
shu❄쎯ju❁쎯	-8.63284
shi❂쎯pin❃쎯	-8.63284
zu❃쎯cheng❂쎯	-8.63288
ben❃쎯shu❁쎯	-8.63811
shi❄쎯yi❁쎯jia❁쎯	-8.6388
bin❁쎯	-8.63972
xiang❂쎯	-8.6419
wa❃쎯	-8.64219
shun❄쎯	-8.64227
shen❁쎯zhen❄쎯	-8.64324
de❅쎯yi❁쎯gan❄쎯	-8.64409
shi❂쎯shi❁쎯	-8.64515
rang❄쎯	-8.64578
wan❁쎯	-8.64928
mo❂쎯shi❄쎯	-8.65019
duan❃쎯	-8.65079
chuang❄쎯jian❄쎯	-8.65423
fang❁쎯xiang❄쎯	-8.65471
shu❁쎯hua❄쎯	-8.65491
×	-8.65574
qiang❁쎯	-8.65696
shan❃쎯xi❁쎯	-8.65854
an❁쎯xi❁쎯	-8.65918
zhe❄쎯gan❄쎯	-8.66133
gu❁쎯	-8.66533
shou❁쎯	-8.66564
쎃쎂	-8.668
fan❁쎯	-8.66976
xue❃쎯	-8.67099
ru❃쎯	-8.67157
fei❁쎯chang❂쎯	-8.67229
si❄쎯wan❁쎯	-8.67313
cheng❂쎯yuan❂쎯	-8.67411
po❁쎯	-8.67484
xin❁쎯wen❂쎯	-8.67498
gong❁쎯lu❄쎯	-8.67678
gong❁쎯li❃쎯,	-8.67699
chuang❁쎯	-8.68101
cang❁쎯	-8.6816
juan❁쎯	-8.68399
can❁쎯shu❄쎯	-8.6883
jing❁쎯shen❂쎯	-8.68888
sheng❁쎯tai❄쎯	-8.68909
man❃쎯	-8.68956
mu❄쎯qian❂쎯	-8.68971
bu❂쎯duan❄쎯	-8.69122
shi❂쎯yan❄쎯	-8.69425
>	-8.69435
.gong❁쎯si❁쎯	-8.69698
쎈쎀	-8.69705
xuan❁쎯chuan❂쎯	-8.6979
ge❄쎯lei❄쎯	-8.69884
ta❁쎯de❅쎯	-8.69887
yin❂쎯hang❂쎯	-8.69933
shu❃쎯yu❂쎯	-8.70055
)、	-8.70151
chu❁쎯sheng❁쎯yu❂쎯	-8.70252
dian❄쎯shi❄쎯	-8.70472
fa❁쎯xian❄쎯	-8.70541
jia❁쎯xie❂쎯hui❄쎯	-8.70629
jin❄쎯ru❄쎯	-8.71044
yao❁쎯qiu❂쎯	-8.71279
--	-8.71377
quan❂쎯mian❄쎯	-8.71735
zi❄쎯dong❄쎯	-8.71824
ying❁쎯yu❃쎯	-8.71848
zou❃쎯	-8.71981
dian❄쎯yuan❂쎯	-8.71982
gai❃쎯ge❂쎯	-8.72048
zhan❁쎯de❅쎯	-8.72194
gai❃쎯	-8.7223
쎂쎂	-8.72466
zi❄쎯ji❃쎯de❅쎯	-8.72613
ling❃쎯yu❄쎯	-8.72628
,nan❂쎯,	-8.72686
,shi❃쎯	-8.72983
qing❂쎯kuang❄쎯	-8.72984
ju❄쎯chi❁쎯	-8.73026
tong❂쎯shi❂쎯	-8.73028
die❂쎯	-8.73184
tiao❂쎯jian❄쎯	-8.73302
si❁쎯xiang❃쎯	-8.73315
쎇쎀	-8.73368
hou❂쎯	-8.73388
dao❁쎯	-8.73483
shi❄쎯you❂쎯	-8.73516
ben❄쎯yu❄쎯	-8.73698
sai❁쎯	-8.73715
쎁쎂yue❄쎯	-8.73787
hun❂쎯	-8.73923
pei❂쎯yang❃쎯	-8.74001
mian❄쎯ji❁쎯	-8.74014
ge❂쎯ming❄쎯	-8.74262
ji❂쎯qi❂쎯	-8.74287
chang❁쎯	-8.743
bei❄쎯ping❂쎯wei❄쎯	-8.7436
hu❁쎯	-8.74459
she❄쎯shi❁쎯	-8.74475
pin❃쎯chong❂쎯	-8.74536
yi❁쎯xie❁쎯	-8.7472
ling❃쎯dao❃쎯	-8.75119
an❁쎯zhou❁쎯	-8.75334
dong❄쎯wu❄쎯	-8.75691
xue❂쎯ke❁쎯	-8.75749
zu❂쎯qiu❂쎯	-8.75774
du❂쎯li❄쎯	-8.75813
shi❂쎯ji❁쎯	-8.75844
jian❄쎯li❄쎯	-8.75894
jia❁쎯ting❂쎯	-8.75969
ying❂쎯xiao❁쎯	-8.76002
ma❂쎯	-8.76054
nong❂쎯min❂쎯	-8.76065
yu❃쎯yan❂쎯	-8.76313
shi❄쎯ji❄쎯	-8.76352
zhang❃쎯ji❁쎯	-8.76423
kuang❄쎯	-8.76551
cao❂쎯	-8.76647
ke❄쎯cheng❂쎯	-8.76768
pi❁쎯	-8.76799
쎁쎀yue❄쎯	-8.76921
xian❄쎯you❃쎯	-8.77298
shi❂쎯yong❄쎯	-8.77349
chou❂쎯	-8.77372
lei❄쎯xing❂쎯:	-8.77386
xi❄쎯bao❁쎯	-8.77582
sheng❁쎯yu❂쎯	-8.77685
ying❄쎯	-8.7775
bi❃쎯jiao❄쎯	-8.77785
qian❃쎯	-8.7784
lve❄쎯	-8.77866
xian❁쎯sheng❁쎯	-8.78022
wen❂쎯jian❄쎯	-8.78133
bie❂쎯	-8.78217
gan❁쎯bu❄쎯	-8.7843
,wei❄쎯yu❂쎯	-8.78623
dang❃쎯wei❁쎯	-8.78668
shi❂쎯xian❄쎯	-8.78795
fa❁쎯sheng❁쎯	-8.7881
nan❂쎯jing❁쎯	-8.7881
zuo❄쎯yong❄쎯	-8.7894
.gai❁쎯	-8.79295
bu❄쎯men❂쎯	-8.79419
xian❄쎯cheng❂쎯	-8.7943
te❄쎯se❄쎯	-8.79492
can❁쎯yu❃쎯	-8.79702
biao❁쎯	-8.7976
,zhu❃쎯yao❁쎯	-8.79813
si❃쎯	-8.79815
fa❃쎯lv❄쎯	-8.79824
sai❄쎯	-8.79899
duan❁쎯	-8.7996
쎃쎅	-8.80017
tong❃쎯	-8.80041
shui❃쎯ping❂쎯	-8.80064
bai❄쎯	-8.80153
쎂쎃	-8.80273
qiu❂쎯dui❄쎯	-8.80317
tie❃쎯lu❄쎯	-8.80606
wei❄쎯yi❁쎯ben❄쎯	-8.80631
zui❄쎯da❄쎯de❅쎯	-8.80712
gao❁쎯deng❃쎯	-8.8092
cheng❂쎯xu❄쎯	-8.80959
dou❃쎯	-8.81029
wo❃쎯guo❂쎯	-8.8103
쎄쎅	-8.81061
en❁쎯	-8.81074
~	-8.81257
de❅쎯fang❁쎯	-8.81675
bang❁쎯	-8.81825
cui❄쎯	-8.8223
xian❃쎯shi❄쎯	-8.82314
qu❁쎯yu❄쎯	-8.82315
fan❄쎯wei❂쎯	-8.82371
tao❄쎯	-8.82402
jing❁쎯yan❄쎯	-8.8253
nai❄쎯	-8.82844
yun❄쎯	-8.82851
deng❃쎯jiang❃쎯	-8.82901
nai❃쎯	-8.82931
bing❄쎯du❂쎯	-8.82941
guan❁쎯xi❄쎯	-8.8323
cu❄쎯	-8.83265
hu❂쎯nan❂쎯	-8.83355
er❂쎯tong❂쎯	-8.84115
can❂쎯	-8.8414
chang❄쎯	-8.84357
jin❁쎯rong❂쎯	-8.84411
xing❂쎯shi❄쎯	-8.84597
ruan❃쎯	-8.84741
xian❁쎯hou❄쎯	-8.84765
dong❁쎯bei❃쎯	-8.84768
leng❃쎯	-8.84931
jian❁쎯zhan❃쎯	-8.85139
》deng❃쎯	-8.85189
dui❁쎯	-8.85243
yi❁쎯liao❂쎯	-8.85287
gui❃쎯	-8.8529
lao❂쎯	-8.85449
teng❂쎯	-8.85619
guan❄쎯	-8.85674
jin❁쎯shu❃쎯	-8.85747
da❂쎯dao❄쎯	-8.85784
》(	-8.85841
zheng❄쎯ce❄쎯	-8.85921
cun❂쎯	-8.85947
쎉쎀	-8.86026
lian❂쎯ge❃쎯	-8.86037
niao❃쎯	-8.8605
wei❁쎯yuan❂쎯	-8.86056
쎂쎆	-8.8617
dian❄쎯nao❃쎯	-8.86308
shi❄쎯qiu❁쎯	-8.8635
feng❁쎯fu❄쎯de❅쎯	-8.86419
biao❃쎯xian❄쎯	-8.86524
nao❃쎯	-8.86561
%	-8.86678
nong❂쎯cun❁쎯	-8.86685
zuo❄쎯zhe❃쎯	-8.86821
bu❂쎯neng❂쎯	-8.86885
tie❁쎯	-8.87024
gu❃쎯dai❄쎯	-8.8712
shi❁쎯fan❄쎯	-8.87223
suo❃쎯you❃쎯	-8.87285
guo❂쎯na❄쎯wai❄쎯	-8.87428
an❁쎯zhuang❁쎯	-8.87458
min❃쎯	-8.87624
liao❂쎯ning❂쎯	-8.87662
jing❁쎯guo❄쎯	-8.87668
hu❃쎯	-8.87726
shui❄쎯	-8.87883
shi❂쎯dai❄쎯	-8.87959
xu❂쎯	-8.88078
ben❄쎯xi❄쎯	-8.88288
ren❂쎯kou❃쎯	-8.88372
zhi❂쎯jie❁쎯	-8.88454
kong❁쎯jian❁쎯	-8.88534
zi❁쎯liao❄쎯	-8.88541
zhi❂쎯hang❂쎯	-8.88557
an❁쎯fan❄쎯	-8.88638
쎂쎈	-8.88668
gong❄쎯tong❂쎯	-8.8868
fa❂쎯	-8.88685
xuan❃쎯ze❂쎯	-8.88731
liao❂쎯	-8.89063
nuo❄쎯	-8.89278
he❂쎯nan❂쎯	-8.89349
yuan❂쎯gong❁쎯	-8.89471
.zhu❃쎯yao❁쎯	-8.89484
de❂쎯dao❄쎯	-8.89639
ying❁쎯guo❂쎯	-8.89716
zhuo❂쎯	-8.89774
zhuang❁쎯shi❄쎯	-8.90355
jian❃쎯ce❄쎯	-8.90458
zhang❄쎯	-8.9065
》,	-8.90727
jie❁쎯dao❄쎯	-8.90775
yi❁쎯zhi❂쎯	-8.90779
chu❁쎯xian❄쎯	-8.90868
,dui❄쎯	-8.91102
chu❃쎯	-8.9116
ping❂쎯jie❄쎯	-8.91311
gong❁쎯wan❂쎯	-8.91347
ha❁쎯	-8.91375
xi❁쎯nan❂쎯	-8.91415
shang❃쎯de❅쎯	-8.9169
di❄쎯san❁쎯	-8.91729
gu❄쎯shi❄쎯	-8.91754
bi❄쎯qiu❁쎯	-8.91847
dun❁쎯	-8.91933
chu❁쎯sheng❁쎯,	-8.92227
zhi❁쎯jian❁쎯	-8.92435
de❅쎯“	-8.92478
hui❄쎯yi❄쎯	-8.92583
zi❁쎯xun❂쎯	-8.92759
쎁.	-8.92844
chi❃쎯	-8.9292
he❂쎯xin❁쎯	-8.9299
zhu❄쎯ce❄쎯	-8.93052
wo❄쎯	-8.93139
he❂쎯nan❂쎯sheng❃쎯	-8.93142
jian❃쎯cha❂쎯	-8.93391
zhong❁쎯yi❁쎯	-8.93566
yi❁쎯ci❄쎯	-8.93755
hui❄쎯yuan❂쎯	-8.93829
shi❂쎯fen❁쎯	-8.93976
zeng❁쎯	-8.94137
de❂쎯guo❂쎯	-8.94199
mao❄쎯yi❄쎯	-8.94214
zhe❄쎯chong❂쎯	-8.94375
xi❁쎯bei❃쎯	-8.94597
an❁쎯gao❄쎯	-8.94658
ji❃쎯	-8.94711
hang❂쎯zhou❁쎯	-8.94776
ku❃쎯	-8.95111
quan❂쎯qiu❂쎯	-8.95173
chuang❄쎯ban❄쎯	-8.95177
,ke❃쎯	-8.9536
duo❃쎯zhi❄쎯	-8.95405
쎂쎀쎀	-8.95422
zhe❄쎯xie❁쎯	-8.95436
shao❄쎯	-8.95651
gua❁쎯	-8.95656
shu❂쎯	-8.95735
shao❃쎯nian❂쎯	-8.95735
ji❁쎯guan❁쎯	-8.96142
ming❂쎯cheng❁쎯	-8.96288
ai❁쎯	-8.96417
mian❂쎯	-8.9652
shi❂쎯jian❄쎯	-8.9656
biao❃쎯mian❄쎯	-8.96631
jiao❁쎯cai❂쎯	-8.96698
tu❃쎯de❅쎯	-8.96779
you❂쎯yu❂쎯	-8.96874
tan❁쎯	-8.97292
zhi❁쎯yi❁쎯,	-8.97364
heng❂쎯	-8.97381
쎂쎁	-8.97454
ming❄쎯	-8.97458
fang❃쎯	-8.97543
zhi❄쎯li❄쎯yu❂쎯	-8.97682
fa❃쎯guo❂쎯	-8.97683
cheng❂쎯dou❁쎯	-8.97764
ji❁쎯ji❂쎯	-8.97895
wen❄쎯	-8.97996
lv❄쎯se❄쎯	-8.98117
,ru❂쎯	-8.98218
kuo❄쎯	-8.9827
yu❂쎯le❄쎯	-8.98383
쎃쎆	-8.9841
mian❃쎯	-8.98452
gong❁쎯li❃쎯	-8.98529
chong❂쎯zhi❂쎯	-8.98802
,ji❂쎯	-8.98802
gong❁쎯zuo❄쎯zhe❃쎯	-8.98821
jie❄쎯shao❄쎯	-8.98915
jie❃쎯jue❂쎯	-8.99002
shi❁쎯gong❁쎯	-8.99052
gui❁쎯mo❂쎯	-8.9925
pu❃쎯tong❁쎯	-8.993
zhi❂쎯gong❁쎯	-8.99366
tui❁쎯an❁쎯	-8.99414
쎁쎁yue❄쎯	-8.99443
,you❄쎯	-8.9994
yun❃쎯shu❁쎯	-8.99947
dang❁쎯dai❄쎯	-9.00101
gui❄쎯zhou❁쎯	-9.00191
zhu❃쎯chi❂쎯	-9.00236
wan❂쎯quan❂쎯	-9.00307
tui❁쎯	-9.00497
feng❁쎯ge❂쎯	-9.00821
hao❄쎯	-9.00943
cuo❄쎯	-9.0112
jian❁쎯du❁쎯	-9.01208
ben❃쎯ke❁쎯	-9.01263
yi❃쎯shang❃쎯	-9.01297
cui❁쎯	-9.01298
ke❂쎯	-9.01372
gong❁쎯shang❁쎯	-9.0166
sheng❁쎯zhang❃쎯	-9.01673
,jiang❁쎯	-9.0176
guan❁쎯yu❂쎯	-9.01991
chuang❄쎯zao❄쎯	-9.02222
shen❂쎯jing❁쎯	-9.02407
an❁쎯da❄쎯	-9.02465
bao❁쎯zhuang❁쎯	-9.02872
kai❃쎯	-9.02881
zhan❄쎯zheng❁쎯	-9.03009
zhi❁쎯ming❂쎯	-9.03044
,bu❂쎯	-9.03119
liang❄쎯	-9.03138
们	-9.03267
duo❁쎯nian❂쎯	-9.03317
bei❃쎯jing❁쎯shi❄쎯	-9.03333
guo❂쎯jia❁쎯ji❂쎯	-9.03584
yi❃쎯lai❂쎯	-9.03584
meng❁쎯	-9.03608
쎂쎇	-9.03671
shou❂쎯	-9.038
pei❄쎯tao❄쎯	-9.03875
zun❁쎯	-9.04191
yun❃쎯hang❂쎯	-9.04203
neng❂쎯gou❄쎯	-9.04274
an❁쎯hui❁쎯	-9.04419
long❁쎯	-9.04513
fa❁쎯hang❂쎯	-9.04655
xiao❄쎯guo❃쎯	-9.04782
,cong❂쎯	-9.04913
ye❃쎯shi❄쎯	-9.04978
xing❂쎯xiang❄쎯	-9.05063
zhan❄쎯lve❄쎯	-9.05113
shou❃쎯ji❁쎯	-9.05254
fan❃쎯ying❁쎯	-9.05267
suan❄쎯	-9.05514
wu❃쎯han❄쎯	-9.05597
quan❂쎯cun❁쎯	-9.05664
bao❃쎯xian❃쎯	-9.05686
sheng❁쎯,	-9.05795
lian❂쎯jie❁쎯	-9.0581
쎄쎈	-9.0583
ou❁쎯	-9.05895
쎃쎃	-9.05989
yong❁쎯	-9.06027
lei❃쎯	-9.06088
=	-9.06095
ren❂쎯shi❄쎯	-9.06135
zhi❄쎯du❄쎯	-9.06153
kuai❄쎯su❄쎯	-9.06201
jie❄쎯zhi❂쎯	-9.0622
sen❁쎯	-9.06316
ci❁쎯	-9.06466
yan❂쎯fa❁쎯	-9.06467
pan❄쎯	-9.0654
wu❄쎯li❃쎯	-9.06664
lao❂쎯dong❄쎯	-9.06673
huo❂쎯	-9.06704
chan❂쎯	-9.06905
shan❁쎯qu❁쎯	-9.07034
fei❂쎯	-9.07067
fang❄쎯ru❄쎯	-9.07142
sheng❁쎯ming❄쎯	-9.0733
pao❁쎯	-9.07352
wei❄쎯le❅쎯	-9.07364
xu❃쎯duo❁쎯	-9.07426
min❂쎯jian❁쎯	-9.07461
yi❁쎯qi❃쎯	-9.07501
fu❂쎯shi❄쎯	-9.07535
miao❂쎯shu❄쎯	-9.07543
❄쎯chan❃쎯dang❃쎯	-9.07551
,huo❄쎯	-9.07557
zha❁쎯	-9.07623
chuan❂쎯bo❁쎯	-9.07726
fu❄쎯jiao❁쎯shou❄쎯	-9.07778
ou❁쎯zhou❁쎯	-9.07854
fen❁쎯bu❄쎯	-9.07915
tian❁쎯jin❁쎯	-9.08202
hu❂쎯bei❃쎯	-9.08506
hu❂쎯bei❃쎯sheng❃쎯	-9.08662
shu❄쎯xue❂쎯	-9.08709
gao❁쎯su❄쎯	-9.08817
쎅쎀쎀	-9.08923
kuan❃쎯	-9.08968
ji❁쎯chang❃쎯	-9.09047
zui❄쎯gao❁쎯	-9.09103
dai❁쎯	-9.09391
hua❁쎯gong❁쎯	-9.09452
huo❄쎯zhe❃쎯	-9.09465
de❅쎯chong❂쎯yao❁쎯	-9.09529
ren❂쎯们	-9.0959
chuang❄쎯	-9.09852
xu❃쎯	-9.09885
shi❄쎯yan❄쎯	-9.09909
she❄쎯ying❃쎯	-9.09931
》shi❄쎯	-9.09966
zhai❄쎯	-9.1005
bang❁쎯zhu❄쎯	-9.10144
xian❄쎯dai❄쎯hua❁쎯	-9.10236
he❂쎯bei❃쎯	-9.10314
gong❄쎯han❄쎯guo❂쎯	-9.10636
pa❄쎯	-9.1067
diao❁쎯	-9.10723
zhou❂쎯	-9.10977
liu❃쎯	-9.10984
shi❂쎯ji❄쎯	-9.11149
gou❃쎯	-9.11357
❁쎯fan❄쎯da❄쎯xue❂쎯	-9.11368
bao❂쎯	-9.1144
sa❄쎯	-9.1146
de❅쎯fa❁쎯zhan❃쎯	-9.11503
an❁쎯hui❁쎯sheng❃쎯	-9.1153
run❄쎯	-9.11609
quan❂쎯bu❄쎯	-9.11654
gao❁쎯zhong❁쎯	-9.11679
hu❂쎯nan❂쎯sheng❃쎯	-9.1182
wen❁쎯du❄쎯	-9.11858
.qi❂쎯	-9.11862
pin❂쎯	-9.11864
fen❁쎯bie❂쎯	-9.12099
hang❂쎯kong❁쎯	-9.12119
lian❂쎯xu❄쎯	-9.12123
jiao❁쎯yi❄쎯	-9.12125
yan❂쎯jiu❁쎯yuan❂쎯	-9.12449
yuan❂쎯liao❄쎯	-9.12471
xin❁쎯li❃쎯	-9.12606
,yu❃쎯	-9.12614
ju❁쎯min❂쎯	-9.1265
fen❁쎯wei❄쎯	-9.12773
qie❃쎯	-9.12848
쎀	-9.12916
zheng❄쎯xie❂쎯	-9.13131
ying❂쎯yang❃쎯	-9.13308
bo❂쎯shi❄쎯	-9.13311
na❄쎯cun❂쎯	-9.13392
zi❄쎯zhi❄쎯qu❁쎯	-9.1342
쎂쎀쎀쎆nian❂쎯	-9.13478
shou❄쎯dao❄쎯	-9.13778
dai❄쎯shu❃쎯yu❂쎯	-9.13842
jie❄쎯ge❂쎯	-9.13973
feng❁쎯fu❄쎯	-9.13983
ying❁쎯wen❂쎯	-9.14019
zhe❃쎯,	-9.14083
zheng❃쎯	-9.1422
liang❂쎯hao❃쎯de❅쎯	-9.14316
chuang❂쎯	-9.1446
gong❁쎯gong❄쎯	-9.145
min❂쎯zheng❄쎯fu❃쎯	-9.14505
ni❄쎯	-9.14576
you❁쎯zhi❄쎯	-9.14754
zhao❂쎯ming❂쎯de❅쎯	-9.15014
bu❂쎯ke❃쎯	-9.15131
zhe❄쎯yi❁쎯	-9.15143
ke❄쎯ti❂쎯	-9.15226
san❁쎯gan❄쎯	-9.15277
ming❂쎯cheng❁쎯:	-9.15379
,zhong❁쎯guo❂쎯	-9.15467
jiao❄쎯wan❂쎯	-9.15512
shuo❄쎯shi❄쎯	-9.15601
ji❄쎯neng❂쎯	-9.15729
쎂쎉	-9.15763
jue❂쎯ding❄쎯	-9.15986
xiu❁쎯xian❂쎯	-9.16046
chen❁쎯	-9.16085
shi❂쎯shang❄쎯	-9.16184
ru❂쎯he❂쎯	-9.1648
qing❃쎯	-9.16485
ji❁쎯jian❁쎯	-9.16615
,gu❄쎯	-9.16669
쎃쎀쎀	-9.16711
》《	-9.16765
쎂쎀쎀쎈nian❂쎯	-9.16875
fang❁쎯bian❄쎯	-9.1691
ji❂쎯bing❄쎯	-9.17001
》.	-9.17002
bang❄쎯	-9.1707
mu❄쎯biao❁쎯	-9.17105
hang❂쎯wei❄쎯	-9.17226
❄쎯	-9.17265
duo❁쎯ci❄쎯	-9.17303
ban❄쎯gong❁쎯	-9.17324
°	-9.17423
sheng❃쎯ji❂쎯	-9.17458
,zi❄쎯	-9.1747
zha❂쎯	-9.17571
쎆쎄	-9.17626
wen❃쎯ding❄쎯	-9.17645
jian❁쎯fa❁쎯qu❁쎯	-9.17675
xing❄쎯de❅쎯	-9.17687
cu❁쎯	-9.17841
.xian❄쎯ren❂쎯	-9.17873
gua❄쎯	-9.17932
zi❄쎯you❂쎯	-9.17958
zong❁쎯ge❃쎯xing❄쎯	-9.18052
쎂쎀쎁쎀nian❂쎯	-9.18121
mang❂쎯	-9.18146
yi❁쎯xue❂쎯yuan❄쎯	-9.182
xian❄쎯wei❁쎯	-9.18217
pin❃쎯zhi❄쎯	-9.18223
dian❄쎯li❄쎯	-9.18247
,yong❄쎯	-9.18263
sen❁쎯lin❂쎯	-9.18339
she❄쎯you❃쎯	-9.1837
쎂쎀쎀쎀	-9.1846
hui❄쎯ji❄쎯	-9.18474
shang❄쎯	-9.18555
'	-9.18569
ju❄쎯le❄쎯bu❄쎯	-9.18623
kui❂쎯	-9.18725
chao❃쎯	-9.18862
an❁쎯chang❃쎯	-9.18868
cu❄쎯jin❄쎯	-9.18909
te❄쎯zheng❁쎯	-9.18923
,ju❄쎯you❃쎯	-9.18924
shu❄쎯zi❄쎯	-9.18952
ji❂쎯cheng❂쎯	-9.19012
yi❂쎯dong❄쎯	-9.19022
xin❁쎯jiang❁쎯	-9.19122
yan❂쎯jiu❁쎯yuan❄쎯	-9.19215
pi❁쎯zhun❃쎯	-9.1934
de❅쎯chu❄쎯	-9.19405
bai❂쎯se❄쎯	-9.19546
yu❂쎯yi❁쎯ben❄쎯	-9.19611
jian❄쎯cheng❂쎯	-9.19697
pei❂쎯	-9.19746
jun❁쎯shi❄쎯	-9.19815
jing❃쎯guan❁쎯	-9.19957
tong❁쎯xin❄쎯	-9.20018
li❃쎯nian❄쎯	-9.20023
man❃쎯zu❂쎯	-9.20025
ren❂쎯lei❄쎯	-9.20047
me❅쎯	-9.20109
ren❄쎯zheng❄쎯	-9.2022
쎃쎈	-9.20244
dong❁쎯nan❂쎯	-9.20279
zuo❄쎯jia❁쎯	-9.20318
huan❂쎯bao❃쎯	-9.20334
yi❁쎯ji❂쎯	-9.20396
chong❂쎯yao❁쎯de❅쎯	-9.20458
shu❁쎯chu❁쎯	-9.20506
xun❄쎯lian❄쎯	-9.20513
sun❃쎯	-9.20525
gao❃쎯	-9.20644
pang❂쎯	-9.20672
shang❁쎯pin❃쎯	-9.20797
luo❂쎯	-9.2087
ling❃쎯	-9.20871
dai❄쎯li❃쎯	-9.20875
zong❃쎯mian❄쎯ji❁쎯	-9.20979
쎇쎅	-9.20983
zuo❃쎯you❄쎯	-9.21069
fen❁쎯zi❃쎯	-9.21104
he❂쎯bei❃쎯sheng❃쎯	-9.21289
chang❂쎯jian❄쎯	-9.21518
,suo❃쎯yi❃쎯	-9.21867
쎂쎀쎀쎇nian❂쎯	-9.21889
jie❂쎯mu❄쎯	-9.21929
쎆쎀쎀	-9.21979
tun❂쎯	-9.22022
fang❂쎯de❅쎯chan❃쎯	-9.22034
te❄쎯bie❂쎯	-9.22402
cheng❂쎯zhang❃쎯	-9.22409
qun❂쎯yin❂쎯	-9.22429
han❂쎯guo❂쎯	-9.2247
su❄쎯du❄쎯	-9.22777
biao❃쎯shi❄쎯	-9.22839
bu❂쎯tong❂쎯de❅쎯	-9.22901
쎃쎄	-9.22954
zhai❁쎯	-9.22966
,ju❄쎯	-9.23042
de❅쎯zhuan❁쎯qiu❁쎯	-9.23059
쎂쎀쎀쎅nian❂쎯	-9.23097
gong❁쎯ju❄쎯	-9.2319
du❂쎯zhe❃쎯	-9.23193
tong❄쎯	-9.23209
dang❄쎯	-9.23361
wen❂쎯yi❄쎯	-9.23547
쎂쎀쎀쎉nian❂쎯	-9.236
lai❂쎯zi❄쎯	-9.23666
che❃쎯cun❄쎯	-9.23847
zu❃쎯ge❃쎯	-9.2386
mei❂쎯ben❄쎯	-9.23878
zeng❁쎯jia❁쎯	-9.23972
wei❄쎯“	-9.23975
ke❁쎯xue❂쎯yuan❄쎯	-9.2405
xian❄쎯zai❄쎯	-9.24088
shi❂쎯yan❄쎯shi❄쎯	-9.24535
mou❂쎯	-9.24556
fen❄쎯	-9.24685
gong❄쎯you❃쎯	-9.24838
shi❄쎯pin❂쎯	-9.24865
jian❁쎯chi❂쎯	-9.24883
,hou❄쎯	-9.24899
miao❂쎯	-9.2494
쎈쎀쎀	-9.25168
ji❁쎯chu❃쎯shang❃쎯	-9.25174
yin❁쎯wei❄쎯	-9.25389
na❄쎯bu❄쎯	-9.25589
ce❄쎯huo❄쎯	-9.25608
쎃쎇	-9.25764
쎁gan❄쎯	-9.2578
dang❃쎯yuan❂쎯,	-9.2584
xia❄쎯,	-9.25864
kao❃쎯shi❄쎯	-9.25954
xiao❃쎯qu❁쎯	-9.26064
zhu❃쎯guan❃쎯	-9.26065
ji❄쎯lu❄쎯	-9.26118
ke❁쎯ji❄쎯you❃쎯	-9.26156
shu❁쎯ru❄쎯	-9.26179
ren❂쎯he❂쎯	-9.2624
yuan❄쎯jiao❄쎯	-9.26281
quan❂쎯shi❄쎯	-9.26385
shou❁쎯cang❂쎯	-9.26451
xi❁쎯an❁쎯	-9.26602
na❄쎯meng❁쎯gu❃쎯	-9.26665
ji❁쎯jin❁쎯	-9.26672
te❄쎯dian❃쎯	-9.26688
zhuan❁쎯men❂쎯	-9.26739
diao❄쎯cha❂쎯	-9.26747
tai❁쎯	-9.26859
jian❁쎯fang❄쎯	-9.26871
qiong❂쎯	-9.26884
bo❂쎯wu❄쎯guan❃쎯	-9.26911
wei❄쎯zhu❃쎯	-9.26966
,ye❃쎯shi❄쎯	-9.26988
,bei❄쎯	-9.27049
yi❁쎯sheng❁쎯	-9.27099
,yi❃쎯ji❂쎯	-9.27361
de❅쎯zhu❃쎯yao❁쎯	-9.2739
ㄧ	-9.2746
you❃쎯xiao❄쎯	-9.27552
yi❁쎯shi❁쎯	-9.27555
bian❁쎯ji❂쎯	-9.27629
shi❂쎯li❄쎯	-9.27634
le❅쎯jie❃쎯	-9.27748
wei❄쎯zhi❄쎯	-9.27755
chui❂쎯	-9.27796
hui❄쎯hui❄쎯yuan❂쎯	-9.27808
쎅쎅	-9.28182
ji❄쎯suan❄쎯	-9.28197
wai❄쎯ke❁쎯	-9.28338
yi❄쎯da❄쎯li❄쎯	-9.28371
da❂쎯zao❄쎯	-9.28419
du❃쎯	-9.28429
shi❄쎯wei❁쎯	-9.28452
쎄쎀쎀	-9.28554
she❄쎯zhi❄쎯	-9.28643
zhi❁쎯you❃쎯	-9.28683
nu❃쎯li❄쎯	-9.28703
zan❄쎯	-9.28842
bao❃쎯zhang❄쎯	-9.28874
se❄쎯cai❃쎯	-9.2893
da❄쎯xiao❃쎯	-9.29015
xi❁쎯bu❄쎯	-9.29053
feng❂쎯	-9.29111
zhe❂쎯xue❂쎯	-9.29178
yun❃쎯ying❂쎯	-9.29457
wo❁쎯	-9.2948
ce❄쎯liang❂쎯	-9.295
cheng❂쎯dan❁쎯	-9.29523
bi❄쎯xu❁쎯	-9.29556
쎆쎅	-9.29587
<	-9.29946
ce❄쎯shi❄쎯	-9.29995
dong❁쎯fang❁쎯	-9.30004
kong❄쎯	-9.30027
′	-9.30135
zhi❄쎯jin❁쎯	-9.30174
bi❃쎯sai❄쎯	-9.30233
hun❁쎯	-9.3026
fu❂쎯you❃쎯	-9.30361
zhao❃쎯	-9.30404
zi❁쎯jin❁쎯	-9.30453
wu❂쎯xian❄쎯	-9.30661
zai❁쎯	-9.30772
tou❄쎯	-9.30818
ting❃쎯	-9.30823
gui❁쎯fan❄쎯	-9.30951
,zhong❁쎯gong❄쎯	-9.31001
zui❄쎯jia❁쎯	-9.31028
hai❄쎯	-9.3111
tong❃쎯yi❁쎯	-9.31297
dian❄쎯chi❂쎯	-9.31394
yi❃쎯lai❂쎯,	-9.31479
zhi❄쎯neng❂쎯	-9.31583
zhi❁쎯hou❄쎯	-9.31763
shi❃쎯jian❄쎯yu❂쎯	-9.31765
an❄쎯zhao❄쎯	-9.31823
ye❁쎯	-9.31936
bi❂쎯	-9.32049
tong❁쎯chang❂쎯	-9.32083
fu❂쎯zhuang❁쎯	-9.32199
que❁쎯	-9.32368
tu❁쎯	-9.32404
,tong❂쎯shi❂쎯	-9.32496
cun❁쎯min❂쎯	-9.32567
meng❃쎯	-9.32636
bo❁쎯li❂쎯	-9.32673
you❄쎯cheng❁쎯	-9.32787
쎂쎀쎀쎄nian❂쎯	-9.32792
yun❃쎯yong❄쎯	-9.32804
chao❁쎯guo❄쎯	-9.32812
zhao❂쎯	-9.32879
da❄쎯lu❄쎯	-9.33036
rong❂쎯liang❂쎯	-9.33069
gao❁쎯jiao❄쎯	-9.33092
ou❃쎯	-9.33176
shi❄쎯jian❄쎯	-9.33231
dan❄쎯you❂쎯	-9.33253
bao❃쎯jian❄쎯	-9.33286
yi❁쎯nian❂쎯	-9.33344
wu❄쎯liu❂쎯	-9.33396
ping❂쎯jun❁쎯	-9.33402
gong❁쎯li❃쎯.	-9.33471
sang❁쎯	-9.33474
gu❃쎯fen❄쎯you❃쎯	-9.3372
quan❂쎯xian❄쎯	-9.33789
tai❄쎯yang❂쎯	-9.33824
wa❁쎯	-9.33853
gou❄쎯	-9.33883
jing❄쎯zheng❁쎯	-9.34013
xue❂쎯li❄쎯	-9.34339
cheng❂쎯xian❄쎯	-9.34348
meng❂쎯	-9.34392
xue❂쎯zhe❃쎯	-9.34421
feng❁쎯jing❃쎯	-9.34494
hai❃쎯nan❂쎯	-9.34558
zheng❃쎯gan❄쎯	-9.34713
chu❁쎯kou❃쎯	-9.34817
zhong❁쎯shan❁쎯	-9.34849
ta❄쎯	-9.3493
zhuan❁쎯ji❂쎯	-9.34941
’	-9.34999
yi❂쎯qi❄쎯	-9.35052
fang❁쎯mian❄쎯de❅쎯	-9.35148
kou❄쎯	-9.35179
di❄쎯si❄쎯	-9.35207
,ye❃쎯	-9.35226
zi❄쎯ran❂쎯cun❁쎯	-9.35264
dian❄쎯shi❄쎯si❄쎯	-9.35394
ying❄쎯pan❂쎯	-9.35471
jia❁쎯jiang❄쎯	-9.35475
zhuang❁쎯bei❄쎯	-9.35491
bing❁쎯mu❄쎯	-9.35544
hei❁쎯se❄쎯	-9.35759
zhuang❁쎯zhi❄쎯	-9.35903
qu❃쎯de❂쎯	-9.35948
xiang❁쎯dui❄쎯	-9.35953
shang❃쎯shi❄쎯	-9.36058
xin❄쎯hao❂쎯	-9.36065
ce❄쎯hua❂쎯	-9.36074
bao❃쎯chi❂쎯	-9.36075
wu❄쎯zhi❄쎯	-9.36104
zi❁쎯chan❃쎯	-9.3621
gan❃쎯ran❃쎯	-9.36245
xiang❁쎯dang❁쎯	-9.36304
da❄쎯liang❂쎯	-9.36353
쎂쎀쎀쎀nian❂쎯	-9.36429
tong❃쎯ji❄쎯	-9.36463
cheng❂쎯shou❂쎯	-9.36515
cheng❂쎯qu❁쎯	-9.3659
...	-9.36594
diao❄쎯zheng❃쎯	-9.36622
쎄쎂	-9.3667
hai❃쎯yang❂쎯	-9.36711
miao❃쎯	-9.36855
ya❄쎯zhou❁쎯	-9.36899
쎉쎈	-9.36911
chen❂쎯yang❂쎯	-9.36967
yi❁쎯dai❄쎯	-9.37007
쎃쎁	-9.37066
rou❂쎯	-9.37129
biao❃쎯yan❃쎯	-9.37152
);	-9.37235
쎂.	-9.37327
gao❄쎯	-9.37333
shou❃쎯shu❂쎯	-9.37402
쎄쎃	-9.37407
da❄쎯dao❄쎯	-9.37475
dao❃쎯yan❃쎯	-9.37479
zhuan❁쎯ke❁쎯	-9.37749
gong❁쎯ying❁쎯	-9.37836
you❃쎯zhao❁쎯	-9.37902
ge❁쎯qu❁쎯	-9.37937
pu❄쎯	-9.38024
쎄쎆	-9.38055
yi❁쎯ke❁쎯	-9.38101
gun❃쎯	-9.38161
dang❃쎯jiao❄쎯	-9.38196
dong❄쎯hua❄쎯	-9.38227
nin❂쎯	-9.38533
dian❄쎯hua❄쎯	-9.38554
qiu❂쎯ben❄쎯	-9.3863
shang❃쎯,	-9.38719
dong❃쎯shi❄쎯	-9.38762
bi❄쎯shu❁쎯zhang❃쎯	-9.39016
bian❄쎯hua❁쎯	-9.39095
bu❄쎯dui❄쎯	-9.39143
jin❄쎯hang❂쎯le❅쎯	-9.39424
yao❄쎯wu❄쎯	-9.39437
zong❄쎯	-9.3946
kuo❄쎯ge❃쎯	-9.39809
chang❂쎯yong❄쎯	-9.39809
tian❁쎯ran❂쎯	-9.39827
hu❄쎯lian❂쎯wang❃쎯	-9.39972
xia❁쎯	-9.40109
,nan❂쎯,han❄쎯zu❂쎯	-9.40149
yin❂쎯duo❁쎯	-9.40221
chong❂쎯da❄쎯	-9.40265
zhuang❄쎯tai❄쎯	-9.40268
su❄쎯zhi❄쎯	-9.40312
mian❃쎯fei❄쎯	-9.40342
,yin❁쎯	-9.40349
you❃쎯ji❁쎯	-9.40353
piao❁쎯	-9.40419
《zhong❁쎯guo❂쎯	-9.40548
zong❃쎯jing❁쎯li❃쎯	-9.40572
ren❂쎯de❅쎯	-9.40575
gui❁쎯ding❄쎯	-9.40632
zhou❁쎯shi❄쎯	-9.40694
ding❄쎯wei❄쎯	-9.40712
wen❂쎯zi❄쎯	-9.40744
쎃쎉	-9.40798
luan❄쎯	-9.40804
hen❃쎯duo❁쎯	-9.40833
pen❁쎯	-9.40964
duo❁쎯gan❄쎯	-9.41042
shi❄쎯wu❄쎯	-9.41071
guo❂쎯wu❄쎯yuan❄쎯	-9.41129
qiang❂쎯	-9.41217
zhao❂쎯zuo❄쎯	-9.4123
ti❂쎯chu❁쎯	-9.41276
xiang❃쎯shou❄쎯	-9.41331
쎂쎀쎀쎃nian❂쎯	-9.41426
xian❁쎯wei❂쎯	-9.41501
de❅쎯yan❂쎯jiu❁쎯	-9.41516
tian❁쎯xia❄쎯	-9.41521
e❂쎯luo❁쎯si❁쎯	-9.41647
bian❃쎯	-9.41665
mou❃쎯	-9.41675
li❄쎯liang❂쎯	-9.41795
nv❃쎯xing❄쎯	-9.41833
da❁쎯	-9.4192
you❄쎯er❂쎯wan❂쎯	-9.41921
zhen❃쎯	-9.41952
.xue❂쎯jiao❄쎯	-9.41984
pan❁쎯	-9.42132
wen❂쎯zhang❁쎯	-9.42339
bao❄쎯gao❄쎯	-9.42373
jian❃쎯cheng❁쎯	-9.42386
xian❁쎯jin❄쎯de❅쎯	-9.42388
tai❄쎯ping❂쎯	-9.42522
de❅쎯zhi❄쎯	-9.42631
san❁쎯nian❂쎯	-9.42644
man❄쎯hua❄쎯	-9.4274
te❄쎯shu❁쎯	-9.42889
wen❃쎯	-9.43044
su❁쎯zhou❁쎯	-9.43062
jian❃쎯yan❄쎯	-9.43066
「	-9.43096
쎁쎀쎀쎀	-9.43135
zuo❄쎯la❄쎯yu❂쎯	-9.43206
zhi❁쎯jian❁쎯de❅쎯	-9.43225
」	-9.43251
xiao❁쎯fei❄쎯zhe❃쎯	-9.43348
yi❃쎯xia❄쎯	-9.43386
(jin❁쎯	-9.43409
fen❁쎯lei❄쎯	-9.43611
ban❄쎯xue❂쎯	-9.43633
ming❂쎯,	-9.43693
yue❄쎯du❂쎯	-9.43724
,yin❁쎯ci❃쎯	-9.43769
tu❂쎯shu❁쎯	-9.43965
zhong❃쎯liu❂쎯	-9.4397
ya❁쎯li❄쎯	-9.44
gong❁쎯ji❁쎯	-9.44002
dong❁쎯xi❁쎯	-9.4406
hong❂쎯se❄쎯	-9.44204
fu❂쎯wu❄쎯.	-9.4423
dong❃쎯	-9.44293
xi❄쎯tong❃쎯de❅쎯	-9.44306
suo❁쎯	-9.44349
jing❁쎯ji❄쎯xue❂쎯	-9.44433
kan❃쎯	-9.44475
pi❂쎯fu❁쎯	-9.4448
zheng❃쎯ben❄쎯	-9.44483
nian❄쎯	-9.44522
tong❂쎯zhi❄쎯	-9.44657
zhuan❁쎯li❄쎯	-9.44663
geng❁쎯de❅쎯	-9.4477
dui❄쎯yu❂쎯	-9.44824
kao❄쎯	-9.44844
zheng❁쎯chang❂쎯	-9.44862
liu❂쎯hang❂쎯	-9.44885
gou❄쎯wu❄쎯	-9.4491
ren❄쎯	-9.44929
cun❁쎯wei❄쎯yu❂쎯	-9.4506
wai❄쎯xing❂쎯	-9.4507
fa❁쎯bu❄쎯	-9.4513
chuang❄쎯qiu❁쎯	-9.45259
cai❂쎯wu❄쎯	-9.45299
yi❁쎯zhi❁쎯	-9.4533
yan❃쎯yuan❂쎯	-9.45369
ti❂쎯sheng❁쎯	-9.45431
chong❁쎯fen❁쎯	-9.45493
jie❄쎯shao❄쎯le❅쎯	-9.45639
yan❃쎯chu❁쎯	-9.45642
쎂쎀쎀쎂nian❂쎯	-9.45709
qiao❄쎯	-9.45775
zhang❃쎯sha❁쎯	-9.45845
ao❂쎯	-9.45856
xin❁쎯de❅쎯	-9.45904
,cheng❂쎯wei❄쎯	-9.4596
ke❃쎯neng❂쎯	-9.46095
쎈yue❄쎯	-9.46144
lian❂쎯xi❄쎯	-9.46174
mei❄쎯	-9.46317
쎁쎉쎉쎇nian❂쎯	-9.46388
쎂gan❄쎯	-9.46406
쎆쎆	-9.46454
ying❃쎯shi❄쎯	-9.4647
kun❁쎯	-9.46543
쎃gan❄쎯	-9.46554
tiao❄쎯	-9.46558
suo❃쎯zai❄쎯de❅쎯	-9.46618
ming❂쎯.	-9.46642
ban❄쎯shi❄쎯chu❄쎯	-9.46644
쎄쎄	-9.46788
wei❄쎯lai❂쎯	-9.46806
cheng❂쎯du❄쎯	-9.47041
ˋ	-9.47095
jiao❁쎯yu❄쎯bu❄쎯	-9.47123
,bao❁쎯gua❁쎯	-9.47182
(),	-9.47185
쎆쎈	-9.47251
jiao❄쎯zhang❃쎯	-9.47413
xun❄쎯su❄쎯	-9.47455
ti❁쎯	-9.47581
zao❄쎯xing❂쎯	-9.47621
,jiao❁쎯tong❁쎯	-9.47725
kuo❄쎯liang❂쎯	-9.47788
,ke❃쎯yi❃쎯	-9.47796
nv❃쎯zi❃쎯	-9.47959
xi❃쎯huan❁쎯	-9.4806
》zhong❁쎯	-9.48094
yi❁쎯qie❁쎯	-9.48248
jie❁쎯shou❄쎯	-9.48414
kong❁쎯qi❃쎯	-9.48457
wei❂쎯hu❄쎯	-9.48461
ken❃쎯	-9.48529
ti❂쎯gong❁쎯le❅쎯	-9.48573
mie❄쎯	-9.48653
쎃-	-9.48658
shi❂쎯wu❄쎯	-9.48679
쎄gan❄쎯	-9.4878
na❄쎯zhi❄쎯	-9.48849
liang❃쎯chong❂쎯	-9.4886
mei❃쎯rong❂쎯	-9.4892
쎄쎇	-9.4892
pai❁쎯she❄쎯	-9.49069
zhu❄쎯zhai❂쎯	-9.49102
yi❁쎯yao❄쎯	-9.49107
ge❁쎯shou❃쎯	-9.49149
jie❃쎯fang❄쎯	-9.49205
cun❂쎯zai❄쎯	-9.49238
nan❂쎯bu❄쎯	-9.49287
쎇yue❄쎯	-9.49299
xing❂쎯tai❄쎯	-9.49346
pin❂쎯lv❄쎯	-9.4942
쎉yue❄쎯	-9.49495
peng❂쎯you❃쎯	-9.49589
쎁쎉쎉쎈nian❂쎯	-9.49599
lan❃쎯	-9.49878
hua❁쎯wan❂쎯	-9.49915
jie❃쎯fang❄쎯jun❁쎯	-9.49958
쎂쎀쎀쎁nian❂쎯	-9.49974
lang❃쎯	-9.5
geng❁쎯jia❁쎯	-9.50025
yin❄쎯du❄쎯	-9.50174
zhong❄쎯	-9.50293
chuan❂쎯shuo❁쎯	-9.50347
zhan❃쎯shi❄쎯	-9.50358
,er❂쎯qie❃쎯	-9.50393
bao❃쎯zheng❄쎯	-9.50438
jing❁쎯dian❃쎯	-9.50538
tu❁쎯chu❁쎯	-9.50634
cai❂쎯zheng❄쎯	-9.50723
gai❃쎯bian❄쎯	-9.50812
,yong❁쎯you❃쎯	-9.50877
bei❃쎯bu❄쎯	-9.50914
ji❂쎯shi❂쎯	-9.50965
ji❂쎯ke❃쎯	-9.51106
huan❄쎯zhe❃쎯	-9.51108
ji❁쎯zhi❄쎯	-9.51123
tuo❂쎯	-9.51232
jing❁쎯pin❃쎯	-9.51356
ㄨ	-9.51361
zhuan❁쎯qiu❁쎯de❅쎯	-9.5142
kua❄쎯	-9.51421
zui❃쎯	-9.51449
쎅쎂	-9.5153
ji❄쎯xu❄쎯	-9.51555
tou❂쎯ru❄쎯	-9.51706
ren❄쎯wei❄쎯	-9.51739
yan❂쎯jiu❁쎯hui❄쎯	-9.51763
wei❁쎯yuan❂쎯,	-9.51771
she❄쎯li❄쎯	-9.51773
wei❄쎯zhu❃쎯,	-9.51803
쎅%	-9.5184
쎁쎉쎉쎅nian❂쎯	-9.51928
zhuan❁쎯yong❄쎯	-9.51938
xiao❄쎯li❄쎯yu❂쎯	-9.51944
쎂-	-9.52009
kuo❄쎯ying❁쎯	-9.52037
pei❄쎯zhi❄쎯	-9.52087
na❂쎯	-9.52104
li❄쎯,	-9.52128
shan❁쎯shui❃쎯	-9.52203
ming❄쎯ming❂쎯	-9.52286
cheng❂쎯ji❁쎯	-9.52383
쎅yue❄쎯	-9.52424
shen❁쎯ben❄쎯	-9.52686
han❄쎯xie❂쎯	-9.52687
zhun❃쎯	-9.52776
》shi❁쎯:“	-9.52894
jin❄쎯nian❂쎯lai❂쎯	-9.52953
tu❂쎯shu❁쎯guan❃쎯	-9.53022
쎈쎅	-9.5307
zhang❃쎯wo❄쎯	-9.53078
nen❄쎯	-9.53126
shi❄쎯zheng❄쎯fu❃쎯	-9.53208
da❄쎯sai❄쎯	-9.5321
pai❁쎯	-9.53287
fu❄쎯you❃쎯	-9.53323
dang❁쎯shi❂쎯	-9.53334
zu❃쎯jian❄쎯	-9.53453
ping❂쎯fang❁쎯	-9.53508
ye❃쎯you❃쎯	-9.53537
ti❄쎯	-9.53572
쎁.쎅	-9.53622
ren❂쎯wen❂쎯	-9.53632
zheng❄쎯zhou❁쎯	-9.53652
qing❁쎯dao❃쎯	-9.53734
huang❂쎯di❄쎯	-9.53833
wei❂쎯xiu❁쎯	-9.53843
쎁쎅쎀	-9.53853
zang❄쎯	-9.5386
fa❁쎯zhan❃쎯de❅쎯	-9.53918
xi❄쎯ju❄쎯	-9.54052
nan❂쎯bei❃쎯	-9.54054
piao❄쎯	-9.54186
han❂쎯liang❂쎯	-9.54225
,zui❄쎯zhong❁쎯	-9.54275
de❅쎯xia❄쎯	-9.54281
쎆쎇	-9.5436
you❁쎯shi❄쎯	-9.5437
.“	-9.54393
-쎂	-9.54502
dao❄쎯lu❄쎯	-9.54508
you❃쎯xian❄쎯ze❂쎯	-9.5451
neng❂쎯yuan❂쎯	-9.54744
yi❂쎯zhi❃쎯	-9.54783
ren❂쎯gong❁쎯si❁쎯	-9.54822
,xian❄쎯ren❂쎯	-9.54823
shuo❄쎯	-9.54867
쎅쎆	-9.54928
xin❁쎯xing❂쎯	-9.55112
,ze❂쎯	-9.55158
,nv❃쎯,	-9.55226
bu❂쎯shi❄쎯	-9.55427
fang❁쎯an❄쎯	-9.55436
yuan❂쎯li❃쎯	-9.5546
de❅쎯ji❁쎯ben❃쎯	-9.55467
dui❁쎯qiu❂쎯	-9.55566
shi❄쎯zai❄쎯	-9.5561
chuan❂쎯》:“	-9.55685
shi❂쎯er❄쎯	-9.55752
ceng❂쎯ren❂쎯	-9.55766
kuo❄쎯yong❄쎯	-9.55811
gui❁쎯ge❂쎯	-9.55984
sui❁쎯	-9.56114
gao❁쎯du❄쎯	-9.56155
xian❄쎯shi❂쎯	-9.56177
ba❂쎯	-9.56208
,zhe❄쎯	-9.56215
can❁쎯kao❃쎯	-9.56223
gong❄쎯xian❄쎯	-9.56234
쎁쎉쎉쎆nian❂쎯	-9.56314
jie❃쎯shi❄쎯	-9.56387
hai❃쎯ba❂쎯	-9.56459
zhi❁쎯dao❄쎯	-9.56467
shi❄쎯yi❃쎯	-9.565
zhen❁쎯dui❄쎯	-9.56506
dou❁쎯you❃쎯	-9.56579
쎄쎉	-9.56592
xie❂쎯diao❄쎯	-9.56652
tao❁쎯	-9.56837
guan❃쎯li❃쎯ju❂쎯	-9.56885
dang❁쎯de❅쎯	-9.56951
shu❁쎯cai❄쎯	-9.56985
shuo❁쎯ming❂쎯	-9.57078
,jing❁쎯	-9.57157
er❄쎯ji❂쎯	-9.57277
hui❁쎯fu❄쎯	-9.57316
shen❁쎯ru❄쎯	-9.57371
zhan❄쎯dou❃쎯	-9.57439
wu❃쎯dao❃쎯	-9.57452
쎉쎉	-9.57482
쎁쎉쎉쎉nian❂쎯	-9.57484
쎇쎆	-9.57495
zi❄쎯dong❄쎯hua❁쎯	-9.57596
zhou❄쎯	-9.57618
‘	-9.57661
er❂쎯bu❂쎯	-9.5779
shi❂쎯jian❁쎯:	-9.5781
yan❂쎯se❄쎯	-9.57905
쎈쎆	-9.57962
fan❁쎯yi❄쎯	-9.57987
huang❂쎯se❄쎯	-9.58034
chong❂쎯xin❁쎯	-9.58043
yin❃쎯jin❄쎯	-9.58051
lao❃쎯shi❁쎯	-9.58117
yi❁쎯ding❄쎯	-9.58118
ye❃쎯.”	-9.5813
,ta❁쎯们	-9.58236
jian❃쎯dan❁쎯	-9.58265
jian❄쎯ding❄쎯	-9.58275
gu❄쎯ding❄쎯	-9.58293
쎅쎈	-9.58328
xu❁쎯qiu❂쎯	-9.58344
,tong❁쎯guo❄쎯	-9.58355
쎁쎉쎉쎂nian❂쎯	-9.58357
、zhong❁쎯guo❂쎯	-9.58392
,gai❁쎯	-9.58482
zhang❃쎯,	-9.58571
:쎁	-9.58591
wen❂쎯wu❄쎯	-9.5877
zheng❁쎯zai❄쎯	-9.58823
cun❂쎯chu❃쎯	-9.58852
nie❄쎯	-9.58941
tan❄쎯suo❃쎯	-9.58987
mai❃쎯	-9.58992
shen❃쎯	-9.59001
쎁쎂쎀	-9.59178
쎆yue❄쎯	-9.59278
lv❄쎯hua❁쎯	-9.59331
쎉쎅	-9.59363
zhan❃쎯lan❃쎯	-9.59413
ru❂쎯guo❃쎯	-9.59423
yuan❂쎯xing❂쎯	-9.59436
bang❃쎯	-9.5945
.you❂쎯yu❂쎯	-9.59463
huang❁쎯	-9.59486
dui❄쎯wai❄쎯	-9.59534
xi❁쎯shou❁쎯	-9.59642
wu❂쎯fa❃쎯	-9.59679
zheng❃쎯ge❃쎯	-9.59711
de❅쎯xin❁쎯	-9.59718
hua❄쎯jia❁쎯	-9.59741
ji❂쎯ben❄쎯	-9.59927
cheng❁쎯hao❂쎯	-9.59942
diao❄쎯jie❂쎯	-9.59976
gu❄쎯wen❄쎯	-9.59989
li❄쎯ren❂쎯	-9.60044
qi❃쎯qiu❁쎯.	-9.60063
hai❂쎯zi❃쎯	-9.60121
.ci❃쎯	-9.60209
zhu❃쎯bian❁쎯	-9.60323
쎅쎃	-9.60334
dong❄쎯tai❄쎯	-9.60361
she❄쎯ji❄쎯、	-9.60424
ju❃쎯ban❄쎯	-9.60515
xi❁쎯wang❄쎯	-9.60521
shi❄쎯fan❄쎯	-9.60541
쎁쎉쎉쎃nian❂쎯	-9.60574
쎃yue❄쎯	-9.60577
cheng❂쎯ben❃쎯	-9.60582
tong❁쎯xun❄쎯	-9.60716
er❄쎯shi❂쎯	-9.60771
쎁쎉쎉쎄nian❂쎯	-9.60777
zuo❄쎯chu❁쎯	-9.60829
zui❄쎯xin❁쎯	-9.60863
쎄-	-9.60872
ˊ	-9.60903
qi❃쎯dong❄쎯	-9.60961
su❄쎯liao❄쎯	-9.60975
yan❂쎯zhi❄쎯	-9.60987
tao❂쎯ci❂쎯	-9.61011
ji❄쎯nian❄쎯	-9.61068
gou❃쎯cheng❂쎯	-9.61088
dan❄쎯bai❂쎯	-9.61096
jiao❁쎯shou❄쎯,	-9.61138
yi❁쎯yang❂쎯	-9.61153
ren❂쎯ben❄쎯	-9.61168
xian❃쎯ka❃쎯	-9.61348
dong❄쎯li❄쎯	-9.61389
xie❁쎯	-9.614
fo❂쎯jiao❁쎯	-9.6161
fu❄쎯gai❄쎯	-9.61617
zai❄쎯xian❄쎯	-9.61861
xiao❁쎯fei❄쎯	-9.61883
lian❂쎯meng❂쎯	-9.61953
ai❄쎯qing❂쎯	-9.61962
qi❂쎯xia❄쎯	-9.61965
dong❁쎯guan❁쎯	-9.61978
xiang❁쎯hu❄쎯	-9.61985
da❄쎯jia❁쎯	-9.62059
jiao❃쎯se❄쎯	-9.62126
duo❁쎯xiang❄쎯	-9.62128
deng❄쎯	-9.62213
shu❄쎯liang❂쎯	-9.62223
lian❃쎯	-9.62223
yi❁쎯jia❁쎯	-9.62237
ying❁쎯xiong❂쎯	-9.62269
yu❄쎯fang❂쎯	-9.62306
dang❃쎯zu❃쎯	-9.62338
쎅-	-9.62389
huai❂쎯	-9.62443
kuo❄쎯yong❄쎯yu❂쎯	-9.62528
zhi❄쎯pin❃쎯	-9.6257
da❄쎯shi❁쎯	-9.62597
,cong❂쎯er❂쎯	-9.62639
fa❁쎯hui❁쎯	-9.62674
sheng❃쎯wei❁쎯	-9.62678
hao❃쎯de❅쎯	-9.62704
ji❁쎯kan❁쎯	-9.6271
쎈쎈	-9.62721
bian❁쎯zhi❄쎯	-9.6281
쎉쎆	-9.62832
lun❄쎯tan❂쎯	-9.62928
ce❄쎯yu❄쎯	-9.62969
쎁쎉쎉쎀nian❂쎯	-9.62977
han❄쎯she❄쎯hui❄쎯	-9.63035
쎅쎄	-9.63064
lang❄쎯	-9.63077
,shu❃쎯yu❂쎯	-9.63135
de❅쎯li❃쎯	-9.63151
bin❁쎯guan❃쎯	-9.63251
zhuang❁쎯xiu❁쎯	-9.63251
yin❄쎯shua❁쎯	-9.63309
hun❂쎯ge❃쎯	-9.63364
zuo❄쎯la❄쎯zai❄쎯	-9.63409
wai❄쎯guan❁쎯	-9.63425
zhi❄쎯ding❄쎯	-9.6344
ge❃쎯cheng❂쎯	-9.63462
pu❂쎯	-9.63534
shi❁쎯ren❂쎯	-9.63566
reng❂쎯	-9.63672
bu❂쎯fu❄쎯	-9.63699
qiao❃쎯	-9.63716
jing❄쎯na❄쎯	-9.63727
wan❂쎯jia❁쎯	-9.63903
ben❄쎯yan❄쎯	-9.6393
zai❁쎯pei❂쎯	-9.63941
yi❄쎯zhi❄쎯	-9.64063
chu❄쎯yu❂쎯	-9.64084
쎃.	-9.64125
zhu❂쎯jian❄쎯	-9.64136
zheng❄쎯quan❄쎯	-9.64144
yuan❂쎯su❄쎯	-9.64181
wan❂쎯lin❂쎯	-9.64266
dui❄쎯xiang❄쎯	-9.64272
zui❄쎯hou❄쎯	-9.64288
cheng❂쎯fen❁쎯	-9.64289
jie❁쎯chu❄쎯	-9.64298
bian❁쎯xie❃쎯	-9.64336
cheng❂쎯zhen❄쎯	-9.64411
ji❂쎯zhong❁쎯	-9.64466
xiang❂쎯xi❄쎯	-9.64472
de❅쎯li❄쎯shi❃쎯	-9.64489
shao❃쎯shu❄쎯	-9.64566
jing❃쎯qu❁쎯	-9.64646
ha❁쎯er❃쎯bin❁쎯	-9.64662
jian❄쎯yu❂쎯	-9.64666
su❂쎯	-9.64742
쎅쎇	-9.64827
han❄쎯zu❂쎯	-9.64927
can❁쎯yin❃쎯	-9.65013
min❂쎯zhu❃쎯	-9.65044
yi❁쎯bu❄쎯	-9.65048
shui❃쎯li❄쎯	-9.65109
zhou❁쎯wei❂쎯	-9.65143
de❅쎯xiao❃쎯	-9.65473
guai❄쎯	-9.65501
----------------	-9.65535
zhe❂쎯	-9.65625
ju❄쎯ben❄쎯	-9.65715
hui❃쎯	-9.65789
zui❄쎯zao❃쎯	-9.6586
zhen❁쎯zheng❁쎯	-9.65872
di❃쎯	-9.65873
zhong❁쎯jian❁쎯	-9.65887
ping❂쎯wei❄쎯	-9.65898
ren❂쎯sheng❁쎯	-9.66007
fu❂쎯ge❃쎯	-9.66009
wei❁쎯yuan❂쎯、	-9.66028
pi❄쎯	-9.66041
zuo❄쎯zhan❄쎯	-9.66104
gong❁쎯yuan❂쎯	-9.66212
guo❂쎯tu❃쎯	-9.66215
geng❁쎯ming❂쎯	-9.66288
ji❁쎯、	-9.66293
쎄yue❄쎯	-9.66294
hui❄쎯yuan❂쎯,	-9.66298
shi❄쎯na❄쎯	-9.66303
,bing❁쎯qie❃쎯	-9.66374
gong❁쎯jian❁쎯	-9.66387
qie❁쎯cheng❂쎯	-9.66423
fu❄쎯shu❁쎯ji❄쎯	-9.66516
쎂yue❄쎯	-9.66544
ju❁쎯zhu❄쎯	-9.66718
zhang❃쎯jiang❁쎯	-9.66782
guan❃쎯li❃쎯、	-9.66927
huang❂쎯jin❁쎯	-9.66939
man❂쎯	-9.66972
nuan❃쎯	-9.6702
ben❁쎯	-9.67065
duo❁쎯nian❂쎯lai❂쎯	-9.6707
쎇쎂	-9.67073
ban❃쎯ben❃쎯	-9.67091
.쎉	-9.67206
zhan❄쎯shi❄쎯	-9.67235
zai❃쎯	-9.67243
shi❃쎯zhong❁쎯	-9.67245
lan❄쎯	-9.67249
zou❄쎯	-9.67249
,zhan❁쎯de❅쎯	-9.67272
zhou❁쎯bian❁쎯	-9.67279
xian❄쎯xiang❄쎯	-9.67296
yu❄쎯mi❃쎯	-9.67337
gao❁쎯ke❁쎯ji❄쎯	-9.67439
xing❂쎯,	-9.67561
yuan❂쎯,	-9.67607
chuan❂쎯mei❂쎯	-9.67639
chu❄쎯li❃쎯qi❄쎯	-9.67651
du❂쎯te❄쎯de❅쎯	-9.67657
qing❁쎯dai❄쎯	-9.67669
zu❂쎯qiu❂쎯yun❃쎯	-9.67688
mu❄쎯de❅쎯	-9.67744
wan❂쎯shan❄쎯	-9.67751
zhong❃쎯	-9.67865
ge❂쎯shi❄쎯	-9.67943
fu❄쎯nv❃쎯	-9.67986
zong❁쎯jiao❁쎯	-9.6802
yi❁쎯tiao❂쎯	-9.68109
dang❃쎯zhi❁쎯bu❄쎯	-9.68211
cheng❁쎯hao❂쎯.	-9.68266
yuan❄쎯zhang❃쎯	-9.6829
-쎁	-9.68324
san❁쎯jiao❃쎯	-9.68331
lv❄쎯shi❁쎯	-9.68337
chong❂쎯liang❂쎯	-9.68354
shi❄쎯ji❂쎯	-9.68415
-쎄	-9.6848
,ran❂쎯hou❄쎯	-9.68481
xiao❄쎯yi❄쎯	-9.6852
xiao❃쎯shi❂쎯	-9.68723
beng❄쎯	-9.68764
cheng❁쎯wei❄쎯“	-9.6878
tui❁쎯jin❄쎯	-9.68817
zi❁쎯ben❃쎯	-9.6909
jia❁쎯ju❄쎯	-9.6918
hui❄쎯hua❄쎯	-9.69191
zhuo❁쎯	-9.69217
te❄쎯xing❄쎯	-9.6926
fen❁쎯zhi❁쎯	-9.69283
yi❃쎯hou❄쎯	-9.69349
zhu❃쎯ti❂쎯	-9.69414
tui❁쎯chu❁쎯	-9.69439
❁쎯	-9.69463
jiang❁쎯jun❁쎯	-9.69472
yan❃쎯chang❄쎯	-9.69498
%,	-9.69527
ge❃쎯bing❁쎯	-9.69537
gong❃쎯	-9.69629
.ceng❂쎯ren❂쎯	-9.69696
shuo❄쎯shi❄쎯xue❂쎯	-9.69751
de❅쎯ren❂쎯	-9.6976
jian❁쎯,	-9.69786
cun❁쎯,	-9.69797
yin❁쎯su❄쎯	-9.69804
》deng❃쎯.	-9.6983
wu❃쎯si❄쎯	-9.69848
,yi❁쎯	-9.69861
jin❄쎯yi❁쎯bu❄쎯	-9.69876
fang❂쎯zhi❄쎯	-9.70076
shi❄쎯qu❁쎯	-9.70168
you❄쎯ming❂쎯	-9.70197
zong❃쎯ren❂쎯kou❃쎯	-9.70214
.쎇	-9.70319
suo❃쎯shu❃쎯	-9.70332
xun❂쎯huan❂쎯	-9.70341
zhuan❄쎯	-9.70426
,rang❄쎯	-9.70461
yi❁쎯xi❄쎯lie❄쎯	-9.70542
mo❂쎯xing❂쎯	-9.70552
lai❄쎯	-9.70553
hou❄쎯de❅쎯	-9.70635
쎁쎉쎉쎁nian❂쎯	-9.70807
zi❄쎯zhu❃쎯	-9.70845
ge❂쎯ming❄쎯dou❃쎯	-9.70893
liang❂쎯shi❂쎯	-9.70905
yi❃쎯“	-9.70908
wu❃쎯qi❄쎯	-9.70915
shi❄쎯yi❁쎯ming❂쎯	-9.70935
ke❄쎯fang❂쎯	-9.7096
fu❄쎯jin❄쎯	-9.70984
.mu❄쎯qian❂쎯	-9.71033
쎆쎃	-9.71105
〕	-9.71143
xiao❃쎯xing❂쎯	-9.71216
yang❃쎯zhi❂쎯	-9.71258
쎆gan❄쎯	-9.7127
si❁쎯te❄쎯	-9.71312
wen❂쎯xian❄쎯	-9.71322
huo❃쎯che❁쎯zhan❄쎯	-9.71347
jian❄쎯li❄쎯le❅쎯	-9.71382
jun❁쎯qu❁쎯	-9.71384
ji❄쎯nan❂쎯	-9.71387
cheng❂쎯jiu❄쎯	-9.71391
jie❂쎯guo❃쎯	-9.71441
si❄쎯gan❄쎯	-9.71492
shao❂쎯	-9.71494
qi❃쎯lai❂쎯	-9.71572
shi❄쎯fou❃쎯	-9.71592
.쎆	-9.71642
shou❄쎯yu❂쎯	-9.71668
xiang❁쎯zhen❄쎯	-9.71687
lian❂쎯suo❃쎯	-9.71751
dong❁쎯bu❄쎯	-9.7184
ge❃쎯li❃쎯	-9.7186
zhong❁쎯bu❄쎯	-9.71952
jian❁쎯ren❂쎯	-9.71967
zhi❁쎯shi❄쎯	-9.71973
gan❁쎯long❁쎯	-9.71982
niu❃쎯	-9.71985
yuan❂쎯.	-9.71995
zhi❃쎯hui❁쎯	-9.72032
eng❁쎯dao❃쎯shi❁쎯	-9.72037
ji❄쎯yi❄쎯	-9.7205
shi❂쎯hang❂쎯	-9.72158
jing❁쎯li❄쎯	-9.72178
tian❁쎯jin❁쎯shi❄쎯	-9.7218
gai❃쎯zao❄쎯	-9.72237
ceng❂쎯jing❁쎯	-9.72277
chong❂쎯zi❃쎯	-9.72337
,gong❁쎯si❁쎯	-9.72372
jie❂쎯neng❂쎯	-9.72375
쎂.쎀	-9.72427
zhu❄쎯yi❄쎯	-9.72453
mian❄쎯xiang❄쎯	-9.72456
yi❂쎯chong❂쎯zhi❂쎯	-9.72465
shou❃쎯ci❄쎯	-9.72468
qian❄쎯	-9.7248
jing❁쎯chang❂쎯	-9.72503
gai❄쎯nian❄쎯	-9.72514
쎆쎂	-9.72547
che❃쎯	-9.72556
xi❁쎯ban❁쎯ya❂쎯	-9.72561
shui❃쎯ku❄쎯	-9.72626
mei❃쎯gan❄쎯	-9.72686
tu❂쎯xiang❄쎯	-9.72749
mo❂쎯ni❃쎯	-9.72751
dui❄쎯wu❃쎯	-9.72777
xi❃쎯cheng❁쎯	-9.72867
pei❄쎯ge❃쎯	-9.72901
hong❂쎯jun❁쎯	-9.72908
she❄쎯ji❂쎯	-9.72931
,mei❃쎯	-9.72933
xi❁쎯cang❂쎯	-9.73102
duo❂쎯	-9.73117
xie❃쎯zuo❄쎯	-9.73137
°C	-9.73266
han❂쎯you❃쎯	-9.73275
쎅gan❄쎯	-9.73341
tui❃쎯	-9.73375
&	-9.73437
zhen❃쎯duan❄쎯	-9.73463
an❁쎯zhou❁쎯shi❄쎯	-9.73538
nang❂쎯	-9.73594
guan❁쎯jun❁쎯	-9.73685
ji❄쎯qiao❃쎯	-9.73687
쎂쎀쎁쎁nian❂쎯	-9.73735
cun❁쎯dai❄쎯shu❃쎯	-9.73851
ni❃쎯de❅쎯	-9.73856
qing❁쎯shui❃쎯	-9.73884
mi❄쎯du❄쎯	-9.73935
gai❃쎯shan❄쎯	-9.74001
shao❃쎯xu❃쎯	-9.74039
de❅쎯sheng❁쎯huo❂쎯	-9.7406
쎁쎉쎈쎈nian❂쎯	-9.74147
chong❁쎯man❃쎯	-9.74182
seng❁쎯	-9.7422
you❃쎯yi❁쎯	-9.74312
yi❁쎯zuo❄쎯	-9.7433
de❅쎯shi❂쎯hou❄쎯	-9.7439
zai❄쎯ci❃쎯	-9.74393
ran❃쎯	-9.74421
ji❁쎯dan❄쎯	-9.74463
jin❄쎯cheng❂쎯	-9.74477
fa❃쎯gui❁쎯	-9.74493
쎁-	-9.74638
쎅쎉	-9.74643
qiao❁쎯	-9.74685
ji❂쎯lin❂쎯	-9.74694
she❂쎯ma❅쎯	-9.74701
yin❁쎯pin❂쎯	-9.74719
wei❁쎯shu❁쎯ji❄쎯	-9.74719
zeng❄쎯	-9.74748
zi❁쎯ge❂쎯	-9.74792
shou❃쎯jie❄쎯	-9.74795
jiu❄쎯qiu❁쎯	-9.74822
qing❁쎯hua❂쎯	-9.74891
juan❄쎯	-9.74922
쎁yue❄쎯	-9.75029
ping❂쎯heng❂쎯	-9.75089
,shi❄쎯yi❁쎯jia❁쎯	-9.75142
jiao❁쎯xue❂쎯ban❁쎯	-9.75143
ji❂쎯wei❄쎯	-9.75182
keng❁쎯	-9.75216
yuan❁쎯	-9.75234
da❄쎯bu❄쎯fen❁쎯	-9.75251
guo❂쎯wai❄쎯	-9.75255
gong❄쎯chan❃쎯	-9.75431
an❁쎯bo❁쎯	-9.75484
bo❁쎯fang❄쎯	-9.75531
zhou❂쎯cheng❂쎯	-9.75554
yan❂쎯ge❂쎯	-9.75564
chuan❂쎯shu❁쎯	-9.75584
xie❂쎯yi❄쎯	-9.75633
da❄쎯xue❂쎯sheng❁쎯	-9.75678
ta❁쎯们de❅쎯	-9.75697
yan❂쎯、	-9.757
guan❁쎯zhu❄쎯	-9.75777
xian❄쎯zhi❄쎯	-9.75822
xin❁쎯pian❁쎯	-9.7583
sha❄쎯men❂쎯	-9.75859
dao❄쎯le❅쎯	-9.75973
z	-9.76035
ren❂쎯gong❁쎯	-9.76043
fu❄쎯qin❁쎯	-9.761
gao❁쎯xiao❄쎯	-9.76152
wu❄쎯qiu❁쎯	-9.76162
jie❁쎯duan❄쎯	-9.76239
쎁쎉쎈쎉nian❂쎯	-9.76252
de❅쎯da❄쎯xing❂쎯	-9.76264
chang❃쎯shang❃쎯	-9.76455
dao❃쎯ru❄쎯	-9.76529
jin❄쎯kou❃쎯	-9.76543
쎄쎁	-9.7655
gan❁쎯su❄쎯	-9.76565
zhi❂쎯jing❄쎯	-9.76595
yuan❂쎯ming❂쎯	-9.76632
쎇쎈	-9.76641
쎀.쎀	-9.76693
po❄쎯huai❄쎯	-9.76701
.cong❂쎯	-9.76702
_	-9.76709
shan❃쎯	-9.76716
ye❃쎯.	-9.76894
yi❄쎯shu❂쎯jia❁쎯	-9.76907
tu❂쎯pian❁쎯	-9.77003
pei❄쎯jian❄쎯	-9.77134
xian❄쎯wei❄쎯	-9.77147
.ben❃쎯shu❁쎯	-9.77156
쎀.쎅	-9.77171
duo❁쎯mei❂쎯ben❄쎯	-9.77308
mao❁쎯	-9.77341
shan❄쎯zhang❃쎯	-9.77372
jia❁쎯na❂쎯da❄쎯	-9.77408
zong❃쎯shou❁쎯ru❄쎯	-9.77445
di❄쎯wu❃쎯	-9.7749
sui❂쎯zhao❁쎯	-9.775
hai❃쎯jun❁쎯	-9.77516
ying❃쎯pian❁쎯	-9.77529
chuang❄쎯yi❄쎯	-9.77645
fa❁쎯ming❂쎯	-9.77657
ao❁쎯	-9.7767
wei❂쎯yi❁쎯	-9.77688
ren❂쎯jun❁쎯chun❂쎯	-9.77742
,wu❂쎯	-9.77745
zao❃쎯ji❁쎯	-9.77747
feng❁쎯xian❃쎯	-9.77765
chi❂쎯xu❄쎯	-9.77805
gong❁쎯han❃쎯	-9.77864
쎁쎉쎈쎄nian❂쎯	-9.77934
.쎂.	-9.77952
che❄쎯	-9.78101
쎁쎉쎈쎅nian❂쎯	-9.78142
dou❃쎯zheng❁쎯	-9.78156
,ceng❂쎯	-9.78156
shen❃쎯ji❄쎯	-9.78159
ze❂쎯ren❂쎯	-9.78304
쎉쎇	-9.78313
zhi❃쎯biao❁쎯	-9.7835
zhu❃쎯xi❂쎯	-9.78424
na❄쎯ke❁쎯	-9.78464
shu❁쎯·	-9.78506
yin❁쎯ci❃쎯	-9.78551
zi❄쎯shen❁쎯	-9.78631
fu❄쎯hui❄쎯zhang❃쎯	-9.78734
shou❃쎯duan❄쎯	-9.78777
yi❁쎯wei❄쎯	-9.78811
쎂.쎅	-9.78815
dian❄쎯qi❃쎯	-9.78816
yi❁쎯ming❂쎯	-9.78863
jin❄쎯xiu❁쎯	-9.789
zeng❁쎯zhang❃쎯	-9.78994
ge❄쎯xiang❄쎯	-9.78997
guo❂쎯min❂쎯dang❃쎯	-9.79118
pao❃쎯	-9.79198
chang❃쎯suo❃쎯	-9.79223
que❄쎯ding❄쎯	-9.79228
fu❄쎯ju❂쎯zhang❃쎯	-9.79372
-쎃	-9.79414
jiang❄쎯du❄쎯	-9.79441
shi❄쎯ren❂쎯min❂쎯	-9.79442
bao❃쎯cun❂쎯	-9.7954
xie❂쎯zhu❄쎯	-9.79552
xi❁쎯fang❁쎯	-9.79555
chan❃쎯pin❃쎯de❅쎯	-9.79556
de❅쎯qiu❂쎯	-9.79576
bian❄쎯li❄쎯	-9.79594
yang❂쎯xian❄쎯	-9.79614
zhun❃쎯bei❄쎯	-9.79635
쎃nian❂쎯	-9.7974
jin❄쎯bu❄쎯	-9.7975
shui❃쎯dao❄쎯	-9.79771
ke❁쎯、	-9.79809
jiu❁쎯	-9.79905
zhe❄쎯yang❂쎯	-9.79908
dong❄쎯zuo❄쎯	-9.80054
yang❃쎯hua❁쎯	-9.80087
bu❂쎯xiu❄쎯gang❁쎯	-9.80088
fen❁쎯bian❄쎯lv❄쎯	-9.80091
쎅쎁	-9.80204
hang❂쎯dong❄쎯	-9.80214
yuan❂쎯yin❁쎯	-9.80214
❄쎯chan❃쎯dang❃쎯,	-9.80266
quan❂쎯sheng❃쎯	-9.80311
bao❄쎯dao❄쎯	-9.80312
dian❄쎯fen❃쎯	-9.80327
ge❃쎯tong❂쎯	-9.80375
na❄쎯de❅쎯	-9.8054
hua❄쎯mian❄쎯	-9.80568
xian❄쎯chang❃쎯	-9.80586
qi❃쎯hou❄쎯	-9.80588
fang❃쎯zhi❁쎯	-9.8062
pian❁쎯,	-9.80635
biao❁쎯zhi❄쎯	-9.80686
ji❄쎯zhe❃쎯	-9.807
wang❃쎯shang❃쎯	-9.80723
zi❄쎯wo❃쎯	-9.80731
kuo❄쎯da❄쎯	-9.80755
fen❂쎯	-9.80777
deng❁쎯ji❄쎯	-9.80795
di❄쎯yi❁쎯gan❄쎯	-9.80808
ni❂쎯ya❄쎯	-9.80869
dong❁쎯jing❁쎯	-9.80882
쎁쎉쎈쎇nian❂쎯	-9.80951
chan❃쎯liang❂쎯	-9.80953
yang❂쎯guang❁쎯	-9.81162
kong❁쎯diao❄쎯	-9.81287
,dan❄쎯shi❄쎯	-9.81299
lv❃쎯hang❂쎯	-9.81326
shang❃쎯xia❄쎯	-9.81327
mian❄쎯ji❁쎯쎃	-9.81347
ji❁쎯dian❄쎯	-9.81368
guo❂쎯min❂쎯	-9.81374
fu❂쎯she❄쎯	-9.81396
chou❁쎯	-9.81434
wei❁쎯yuan❂쎯.	-9.81445
zao❄쎯cheng❂쎯	-9.8151
jian❃쎯shao❃쎯	-9.81552
(쎁)	-9.81573
):	-9.8166
shang❁쎯biao❁쎯	-9.81692
quan❂쎯li❄쎯	-9.81733
ben❄쎯zhi❄쎯	-9.81737
zhi❂쎯neng❂쎯	-9.81749
nian❂쎯qing❁쎯	-9.81774
ji❂쎯lin❂쎯sheng❃쎯	-9.81955
쎁/	-9.82009
hei❁쎯long❂쎯jiang	-9.82013
ru❄쎯xuan❃쎯	-9.82222
shu❄쎯ma❃쎯	-9.82251
gong❁쎯ren❂쎯	-9.8235
fei❃쎯	-9.82382
tui❁쎯dong❄쎯	-9.82411
min❂쎯guo❂쎯	-9.82423
an❁쎯bo❁쎯dian❄쎯	-9.8244
tu❃쎯rang❃쎯	-9.82445
sou❁쎯	-9.82496
xiong❁쎯di❄쎯	-9.82515
kuo❄쎯zhan❃쎯	-9.8253
fen❁쎯chi❁쎯	-9.82622
li❃쎯gong❁쎯	-9.82693
dou❄쎯fu❃쎯	-9.82724
shi❄쎯yi❁쎯kuan❃쎯	-9.82766
”deng❃쎯	-9.82775
dian❄쎯ya❁쎯	-9.82781
pen❂쎯	-9.82835
cai❂쎯neng❂쎯	-9.82943
sheng❁쎯cun❂쎯	-9.83058
luo❁쎯ma❃쎯	-9.83087
de❅쎯zhen❄쎯	-9.83088
쎁쎉쎈쎆nian❂쎯	-9.83125
ming❂쎯xian❃쎯	-9.83189
fu❄쎯shu❃쎯	-9.83222
jiang❁쎯nan❂쎯	-9.83259
fan❃쎯ying❄쎯	-9.83274
shi❂쎯nian❂쎯	-9.83322
cheng❂쎯ren❂쎯	-9.83332
ping❂쎯mian❄쎯	-9.83405
bu❄쎯、	-9.83405
na❃쎯xie❁쎯	-9.83412
da❄쎯sha❄쎯	-9.83569
ai❂쎯	-9.83594
zui❄쎯zhong❁쎯	-9.83594
zao❁쎯	-9.83596
쎄.	-9.83684
du❂쎯shu❁쎯	-9.83688
fu❄쎯shu❁쎯ji❄쎯、	-9.83718
쎀°C	-9.83802
ying❁쎯yong❄쎯yu❂쎯	-9.83879
mei❃쎯nian❂쎯	-9.8389
wei❁쎯ji❁쎯	-9.83898
bei❁쎯jing❃쎯	-9.83931
,jiu❄쎯	-9.8396
niao❄쎯	-9.8397
ao❄쎯da❄쎯li❄쎯ya❄쎯	-9.83981
쎆쎉	-9.84007
you❁쎯hua❁쎯	-9.8401
mei❃쎯li❄쎯	-9.84016
zhang❃쎯、	-9.84048
dian❄쎯lu❄쎯	-9.8405
쎇쎃	-9.84051
fu❄쎯ge❃쎯	-9.8409
zeng❁쎯jiang❄쎯	-9.84108
you❃쎯xian❄쎯	-9.84172
ju❂쎯ju❂쎯zhang❃쎯	-9.84173
quan❃쎯	-9.84318
huan❁쎯	-9.84324
yi❄쎯shi❂쎯	-9.84326
ping❂쎯gu❁쎯	-9.84365
wan❂쎯shan❄쎯de❅쎯	-9.84412
di❄쎯쎁	-9.84576
dang❄쎯an❄쎯	-9.84602
bi❄쎯shu❁쎯	-9.84646
dian❄쎯ji❁쎯	-9.84686
,xing❂쎯cheng❂쎯	-9.84743
쎇쎇	-9.84796
gong❁쎯lv❄쎯	-9.84797
huan❃쎯	-9.84893
gan❁쎯su❄쎯sheng❃쎯	-9.84895
ang❂쎯	-9.84911
xin❁쎯li❃쎯xue❂쎯	-9.84954
lin❂쎯qiu❁쎯	-9.8506
xiang❁쎯ying❁쎯	-9.85095
fu❃쎯zhu❄쎯	-9.85109
,qie❃쎯	-9.85145
쎅.	-9.85165
xiang❁쎯tong❂쎯	-9.85216
si❃쎯wang❂쎯	-9.85224
jiang❄쎯di❁쎯	-9.85271
gui❁쎯lv❄쎯	-9.85277
ji❁쎯yu❂쎯	-9.85297
chu❁쎯zhong❁쎯	-9.85302
de❅쎯mian❄쎯	-9.8531
li❄쎯de❅쎯	-9.85369
ban❄쎯fa❃쎯	-9.8537
❁쎯sheng❃쎯	-9.85395
fen❁쎯guan❃쎯	-9.85517
fei❁쎯ji❁쎯	-9.85592
xun❁쎯	-9.85614
geng❃쎯	-9.85662
jia❁쎯zu❂쎯	-9.85667
gao❁쎯ji❂쎯gong❁쎯	-9.85721
.ben❃쎯	-9.85745
xin❄쎯xi❁쎯hua❁쎯	-9.85794
kuang❂쎯	-9.85819
,geng❁쎯	-9.85975
yi❁쎯pian❁쎯	-9.85986
쎂쎀쎁쎂nian❂쎯	-9.85993
쎀쎈	-9.85996
cheng❂쎯xin❄쎯	-9.86018
zhi❄쎯cheng❂쎯	-9.86019
bu❂쎯hui❄쎯	-9.86087
shu❁쎯ji❄쎯	-9.86144
si❁쎯fa❃쎯	-9.86232
huan❁쎯ying❂쎯	-9.86238
yi❄쎯yuan❂쎯	-9.8625
nian❂쎯du❄쎯	-9.86271
lian❂쎯ge❃쎯hui❄쎯	-9.86299
cheng❂쎯xiang❁쎯	-9.86346
chao❂쎯xian❁쎯	-9.86372
da❄쎯lian❂쎯	-9.86408
zhai❂쎯	-9.86414
,xian❁쎯hou❄쎯	-9.86494
yin❃쎯qi❃쎯	-9.86604
guan❁쎯cha❂쎯	-9.86776
)shi❄쎯	-9.86864
chui❁쎯	-9.8688
dian❁쎯	-9.86884
jun❁쎯dui❄쎯	-9.87026
shou❄쎯hou❄쎯	-9.87164
yan❂쎯chong❂쎯	-9.87201
gong❁쎯zuo❄쎯de❅쎯	-9.87206
jian❄쎯yi❄쎯	-9.87241
suo❃쎯yi❃쎯	-9.87427
쎉쎄	-9.87436
yuan❂쎯shi❃쎯	-9.87443
bing❁쎯qie❃쎯	-9.87454
fang❄쎯zai❄쎯	-9.8748
bian❄쎯cheng❂쎯	-9.87504
jian❁쎯ce❄쎯	-9.87573
nian❂쎯jian❁쎯	-9.87591
shu❁쎯kuo❄쎯	-9.876
,hao❂쎯	-9.87698
li❄쎯zi❁쎯yuan❂쎯	-9.87821
weng❁쎯	-9.87865
qing❁쎯song❁쎯	-9.8789
an❄쎯jian❄쎯	-9.87908
jiang❃쎯.	-9.87945
ming❂쎯dai❄쎯	-9.87986
un❂쎯nan❂쎯sheng❃쎯	-9.87998
.xian❄쎯wei❄쎯	-9.88044
gou❃쎯zao❄쎯	-9.88053
,yi❄쎯	-9.88147
,ba❃쎯	-9.88238
wan❂쎯qu❁쎯	-9.883
bei❃쎯fang❁쎯	-9.88377
tui❁쎯jian❄쎯	-9.88443
쎂쎀쎁쎀	-9.88476
zi❁쎯xun❄쎯	-9.88484
nan❂쎯fang❁쎯	-9.8852
jiao❄쎯wei❄쎯	-9.88559
shui❂쎯	-9.88562
,neng❂쎯	-9.88633
fen❁쎯zhong❁쎯	-9.88675
.쎄	-9.88748
zhong❁쎯xin❁쎯、	-9.88757
.zhe❄쎯	-9.88863
zhi❂쎯shu❃쎯	-9.88939
cun❄쎯	-9.89082
tong❂쎯nian❂쎯	-9.89145
deng❃쎯jiang❃쎯.	-9.89182
hao❂쎯hua❂쎯	-9.89212
쎈쎂	-9.89218
fu❄쎯mu❃쎯	-9.89239
zhuan❁쎯zhao❂쎯	-9.8925
yi❁쎯ding❄쎯de❅쎯	-9.89263
lao❃쎯nian❂쎯	-9.89386
쎇쎄	-9.89468
ri❄쎯chang❂쎯	-9.89493
xia❄쎯zai❄쎯	-9.89577
che❁쎯liang❄쎯	-9.89617
liu❂쎯dong❄쎯	-9.89699
mian❄쎯ji❁쎯쎁	-9.89721
zhe❃쎯.	-9.89734
〔	-9.89887
mei❃쎯shi❂쎯	-9.89917
shi❄쎯li❄쎯	-9.89937
shi❄쎯yi❁쎯suo❃쎯	-9.89939
ju❃쎯hang❂쎯	-9.89965
fen❁쎯bu❄쎯yu❂쎯	-9.89995
gong❁쎯yu❄쎯	-9.90038
luan❃쎯	-9.90085
wu❁쎯ran❃쎯	-9.90089
ju❄쎯bei❄쎯	-9.90134
ling❂쎯ren❂쎯	-9.90293
tan❃쎯	-9.90303
quan❂쎯wei❁쎯	-9.90375
yong❄쎯pin❃쎯	-9.90401
쎈gan❄쎯	-9.90403
kui❄쎯	-9.90471
dian❄쎯qi❄쎯	-9.90566
bao❁쎯han❂쎯	-9.90619
fei❁쎯hang❂쎯	-9.90645
,mu❄쎯qian❂쎯	-9.90681
zhe❄쎯li❃쎯	-9.90721
bi❄쎯qiu❁쎯hou❄쎯	-9.90789
san❃쎯wen❂쎯	-9.90848
shi❁쎯ge❁쎯	-9.90948
wu❃쎯nian❂쎯	-9.91021
chang❂쎯wei❁쎯	-9.91212
jing❁쎯xin❁쎯	-9.91254
de❅쎯jiao❁쎯xue❂쎯	-9.91271
min❂쎯xiao❃쎯zu❃쎯,	-9.9128
chuang❄쎯shi❃쎯	-9.91284
bian❁쎯ma❃쎯	-9.91317
ai❃쎯du❄쎯de❅쎯tu❂쎯	-9.91325
jia❁쎯re❄쎯	-9.91364
si❁쎯wei❂쎯	-9.91386
jie❂쎯guo❃쎯yi❃쎯ba	-9.9139
i❃쎯du❄쎯de❅쎯tu❂쎯s	-9.91391
ben❃쎯shu❄쎯ju❁쎯l	-9.91393
fa❁쎯she❄쎯	-9.91394
ai❂쎯yuan❂쎯yu❂쎯b	-9.91398
hu❄쎯ju❁쎯wei❄쎯zhu	-9.91407
/////.",(){(	-9.91455
쎁쎀쎀쎀쎀쎈쎀쎁);});	-9.915
n❃쎯..("	-9.91501
yi❁쎯xue❂쎯hui❄쎯	-9.91527
deng❃쎯de❅쎯	-9.91534
jiao❁쎯yan❂쎯shi❄쎯	-9.91553
.”《	-9.91821
쎀쎇	-9.91829
yi❁쎯zhi❄쎯	-9.91885
dan❁쎯yuan❂쎯	-9.91887
yi❁쎯liu❂쎯de❅쎯	-9.91905
tong❁쎯dao❄쎯	-9.91935
쎂쎀shi❄쎯ji❄쎯	-9.92063
biao❃쎯da❂쎯	-9.92133
,wo❃쎯们	-9.92136
쎁쎂쎈	-9.92147
zhu❄쎯chong❂쎯	-9.92164
gan❄쎯xing❄쎯	-9.92198
xing❄쎯han❄쎯	-9.9221
gong❁쎯zuo❄쎯;	-9.92252
feng❁쎯wei❄쎯	-9.92268
gu❃쎯dian❃쎯	-9.92306
쎀쎆	-9.9231
hei❁쎯long❂쎯	-9.92413
qie❄쎯	-9.92512
gou❃쎯jian❄쎯	-9.92533
tu❄쎯	-9.92562
shi❄쎯gu❄쎯	-9.92565
zuan❁쎯	-9.9268
zu❃쎯cheng❂쎯de❅쎯	-9.92715
han❂쎯shu❄쎯	-9.92791
san❁쎯da❄쎯	-9.92888
cheng❂쎯li❄쎯de❅쎯	-9.92931
zhi❁쎯hou❄쎯,	-9.92971
long❄쎯	-9.92981
zhua❁쎯	-9.9302
xiao❄쎯lv❄쎯	-9.93057
liang❃쎯ce❄쎯	-9.93221
qing❁쎯hai❃쎯	-9.93225
zai❄쎯zhi❂쎯	-9.93229
zhu❃쎯ren❂쎯、	-9.93417
le❄쎯dui❄쎯	-9.93425
yi❁쎯xiang❄쎯	-9.9344
fu❄쎯ze❂쎯ren❂쎯	-9.93477
ping❂쎯yuan❂쎯	-9.93618
ren❃쎯	-9.93632
zhong❁쎯yi❁쎯yao❄쎯	-9.93642
xing❂쎯rong❂쎯	-9.93658
zong❃쎯bu❄쎯	-9.93773
guan❁쎯yin❂쎯	-9.93803
chang❂쎯wei❁쎯、	-9.93807
da❄쎯dui❄쎯	-9.93856
xin❁쎯ji❄쎯shu❂쎯	-9.93869
xian❁쎯hou❄쎯zai❄쎯	-9.93888
tuo❃쎯yuan❂쎯	-9.93921
쎇쎉	-9.93998
shou❁쎯lu❄쎯	-9.94001
dai❄쎯shu❃쎯	-9.94025
,shu❃쎯	-9.94028
yi❁쎯duan❄쎯	-9.94034
yi❁쎯pi❁쎯	-9.94149
pin❂쎯dao❄쎯	-9.94195
kan❁쎯dao❄쎯	-9.94237
zuo❄쎯wu❄쎯	-9.94244
xiao❃쎯zu❃쎯	-9.94251
di❂쎯ren❂쎯	-9.9426
feng❁쎯fu❄쎯,	-9.94272
쎈쎇	-9.94316
zi❃쎯,	-9.94394
zuo❄쎯yong❄쎯.	-9.94399
zhuan❃쎯huan❄쎯	-9.94399
shou❃쎯dou❁쎯	-9.94417
xing❂쎯zhuang❄쎯	-9.94557
zhong❁쎯yao❄쎯	-9.94655
,jia❁쎯ru❄쎯	-9.94709
da❄쎯hui❄쎯	-9.94756
kang❄쎯ri❄쎯	-9.94758
쎀쎉	-9.94793
de❅쎯chan❃쎯pin❃쎯	-9.94851
wei❂쎯sheng❁쎯su❄쎯	-9.94872
jian❁쎯ta❄쎯	-9.94889
jue❂쎯ce❄쎯	-9.94895
yong❄쎯de❅쎯	-9.94903
mou❃쎯xie❁쎯	-9.94911
sa❁쎯	-9.94971
shan❁쎯xian❄쎯	-9.94982
,dang❁쎯	-9.95014
fen❁쎯hui❄쎯	-9.95018
zhu❄쎯li❃쎯	-9.95045
da❂쎯yin❄쎯	-9.9509
wei❁쎯hui❄쎯	-9.95212
kuai❄쎯le❄쎯	-9.95283
ling❄쎯yi❁쎯	-9.95299
zhe❄쎯shi❄쎯	-9.95328
gong❄쎯xiang❃쎯	-9.95357
쎀쎃	-9.95358
쎆.	-9.95397
qiu❂쎯jie❂쎯	-9.95404
le❅쎯yi❁쎯gan❄쎯	-9.95411
dang❃쎯yuan❂쎯.	-9.95548
cai❂쎯jing❁쎯	-9.9556
lu❄쎯jun❁쎯	-9.95602
bi❃쎯li❄쎯	-9.95665
she❄쎯qiu❂쎯	-9.95666
gao❁쎯duan❁쎯	-9.95756
쎉쎂	-9.95806
nong❂쎯zuo❄쎯wu❄쎯.	-9.95807
shou❃쎯pi❁쎯	-9.95817
che❁쎯zhan❄쎯	-9.95832
쎁쎉쎈쎂nian❂쎯	-9.95858
,que❄쎯	-9.95878
nong❂쎯zuo❄쎯wu❄쎯	-9.95901
fang❂쎯wu❁쎯	-9.95904
mian❄쎯ji❁쎯쎄	-9.95913
jiao❁쎯shou❄쎯.	-9.95919
gao❁쎯ceng❂쎯	-9.95938
da❄쎯yin❂쎯	-9.95955
mei❃쎯li❄쎯de❅쎯	-9.96004
zai❄쎯bei❃쎯jing❁쎯	-9.96023
chen❄쎯	-9.96027
gai❃쎯wei❄쎯	-9.96097
shen❁쎯qing❃쎯	-9.96128
can❁쎯jia❁쎯le❅쎯	-9.96134
fa❁쎯yu❄쎯	-9.9624
eng❁쎯dao❃쎯shi❁쎯.	-9.96245
hu❄쎯dong❄쎯	-9.96297
hui❂쎯:“	-9.96353
()shi❄쎯	-9.96377
qing❄쎯li❄쎯	-9.96394
ji❄쎯zai❄쎯	-9.964
deng❃쎯ji❂쎯	-9.96415
,fang❄쎯ru❄쎯	-9.96432
qi❃쎯,	-9.96501
jing❁쎯li❃쎯	-9.96561
de❅쎯qu❁쎯de❅쎯	-9.96602
an❄쎯li❄쎯	-9.96636
fen❁쎯gong❁쎯si❁쎯	-9.96651
dang❁쎯xuan❃쎯	-9.96653
qi❃쎯ben❄쎯	-9.96681
li❃쎯jie❃쎯	-9.96683
xian❃쎯zhao❂쎯	-9.96696
xue❁쎯	-9.96757
,yi❁쎯ban❁쎯	-9.96757
hu❄쎯li❃쎯	-9.96764
luan❂쎯	-9.96783
fa❃쎯xue❂쎯	-9.96784
bao❄쎯》	-9.96821
fang❃쎯wen❄쎯	-9.96859
ji❁쎯,	-9.96902
cheng❁쎯“	-9.96903
쎇쎀쎀	-9.96905
zhao❄쎯pian❁쎯	-9.96922
,fu❂쎯	-9.96954
de❅쎯tie❃쎯	-9.96956
shui❃쎯liang❂쎯	-9.97004
kui❁쎯	-9.9704
kao❃쎯ru❄쎯	-9.97047
mo❂쎯ju❄쎯	-9.9706
po❂쎯	-9.97201
sui❁쎯ran❂쎯	-9.97203
』『	-9.97286
sheng❁쎯xue❂쎯li❄쎯	-9.97305
dao❄쎯de❂쎯	-9.97305
nian❂쎯ling❂쎯	-9.97378
shi❂쎯wu❃쎯	-9.97384
ji❄쎯liang❂쎯	-9.9741
gao❁쎯dang❄쎯	-9.97425
duan❁쎯kou❃쎯	-9.97477
jian❁쎯kong❄쎯	-9.97496
suo❃쎯zai❄쎯	-9.97518
쎁쎉쎈쎃nian❂쎯	-9.97531
,li❄쎯ren❂쎯	-9.97554
nan❂쎯,	-9.97618
ke❁쎯li❄쎯	-9.97632
long❃쎯	-9.97663
zuo❄쎯le❅쎯	-9.97715
쎀쎁	-9.97801
zuo❄쎯chu❁쎯le❅쎯	-9.97832
yuan❂쎯ze❂쎯	-9.97865
shi❄쎯gan❄쎯	-9.98099
★	-9.98104
neng❂쎯liang❂쎯	-9.98143
zhi❄쎯hui❄쎯	-9.98208
jing❄쎯tou❂쎯	-9.98216
chong❂쎯lei❄쎯	-9.98233
.qi❂쎯zhong❁쎯	-9.9827
lu❄쎯yin❁쎯	-9.98278
yong❄쎯lai❂쎯	-9.98279
쎃쎀쎀쎀	-9.98293
zhang❃쎯chun❁쎯	-9.98308
yi❁쎯ju❁쎯	-9.98315
ren❄쎯shi❂쎯	-9.9832
fu❄쎯duo❃쎯	-9.98344
쎀쎅	-9.98353
gong❁쎯hui❄쎯	-9.98407
ming❂쎯xing❁쎯	-9.98423
li❃쎯shi❄쎯	-9.98486
쎀쎂	-9.98491
chi❁쎯zi❃쎯	-9.98518
quan❄쎯	-9.98524
쎁쎈쎀	-9.9853
zhu❃쎯ren❂쎯,	-9.98569
wang❁쎯	-9.98626
xi❂쎯guan❄쎯	-9.98636
you❃쎯xiao❄쎯de❅쎯	-9.98649
yi❃쎯cheng❂쎯wei❄쎯	-9.98717
쎁쎉쎈쎀nian❂쎯	-9.98744
xin❁쎯jia❁쎯po❁쎯	-9.98793
gan❁쎯zao❄쎯	-9.98833
ji❁쎯yin❁쎯	-9.98854
sheng❁쎯dong❄쎯	-9.9888
&;	-9.989
.쎂、	-9.98906
dai❄쎯lai❂쎯	-9.98948
li❃쎯nian❄쎯,	-9.98999
():	-9.99094
yu❃쎯wen❂쎯	-9.99097
gong❁쎯jin❁쎯	-9.9912
cao❁쎯	-9.9915
쎁쎆쎀	-9.99192
rong❂쎯yi❄쎯	-9.99286
쎁nian❂쎯	-9.99331
ge❄쎯gan❄쎯	-9.9934
-쎅	-9.99387
er❄쎯nian❂쎯	-9.99527
jiu❄쎯hui❄쎯	-9.99594
shi❄쎯“	-9.996
ji❁쎯bu❄쎯	-9.99605
%.	-9.99612
ce❄쎯lve❄쎯	-9.99623
,nan❂쎯	-9.99666
geng❁쎯xin❁쎯	-9.99683
rong❂쎯ge❃쎯	-9.99706
,gong❄쎯	-9.9975
jun❁쎯jun❁쎯	-9.99764
ji❁쎯rou❄쎯	-9.99844
,xian❄쎯you❃쎯	-9.9989
ye❄쎯ben❄쎯	-10.0001
zhu❃쎯zhi❄쎯	-10.0008
zhuang❄쎯,	-10.0008
kuang❁쎯	-10.0008
xing❄쎯fu❂쎯	-10.0016
wei❄쎯xing❁쎯	-10.002
bian❁쎯yuan❂쎯	-10.0023
ji❁쎯gan❄쎯	-10.0029
suo❃쎯wei❄쎯	-10.0029
mian❄쎯dui❄쎯	-10.0032
zheng❄쎯shu❁쎯	-10.0035
xiao❃쎯er❂쎯	-10.004
xiang❄쎯jiao❁쎯	-10.0041
huo❄쎯jiang❃쎯	-10.0052
han❄쎯ping❂쎯	-10.0054
kuo❄쎯yi❂쎯	-10.0055
zhang❃쎯du❄쎯	-10.0058
wei❁쎯xian❃쎯	-10.0058
ming❂쎯:	-10.006
ge❃쎯jin❁쎯	-10.0062
ji❁쎯guang❁쎯	-10.0066
er❂쎯qie❃쎯	-10.0075
쎈쎄	-10.0078
ren❂쎯min❂쎯bi❄쎯	-10.008
,you❂쎯yu❂쎯	-10.0082
di❄쎯yi❁쎯ci❄쎯	-10.0083
lai❂쎯yuan❂쎯	-10.0085
°C,nian❂쎯jiang❄쎯	-10.0085
cheng❂쎯le❅쎯	-10.0086
jiang❄쎯da❄쎯de❅쎯	-10.0086
re❄쎯dai❄쎯	-10.0088
쎁쎉쎇쎈nian❂쎯	-10.0091
gai❁쎯cun❁쎯	-10.0092
li❄쎯shi❃쎯shang❃쎯	-10.0103
ling❃쎯yu❄쎯de❅쎯	-10.0104
쎅쎀쎀쎀	-10.0106
gu❃쎯piao❄쎯	-10.011
zei❂쎯	-10.0111
shen❄쎯zhi❄쎯	-10.0122
chuang❄쎯li❄쎯	-10.0126
hou❄쎯lai❂쎯	-10.0135
쎈쎉	-10.0136
you❃쎯yi❁쎯gan❄쎯	-10.0137
qian❂쎯shen❁쎯	-10.0137
qing❁쎯chun❁쎯	-10.0139
zui❄쎯ju❄쎯	-10.0142
mo❂쎯fan❄쎯	-10.0142
zong❃쎯tong❃쎯	-10.0146
dian❄쎯shi❄쎯ju❄쎯	-10.016
da❄쎯jie❁쎯	-10.0165
쎁쎉쎈쎁nian❂쎯	-10.0169
de❅쎯zhi❃쎯	-10.017
hai❃쎯wai❄쎯	-10.0173
guo❂쎯dao❄쎯	-10.0179
zhang❄쎯ai❄쎯	-10.0181
qiang❃쎯	-10.0182
.dan❄쎯	-10.0182
nan❂쎯chang❁쎯	-10.0184
dai❄쎯shu❃쎯yu❂쎯y	-10.0189
쎆-	-10.019
she❄쎯ji❄쎯shi❁쎯	-10.019
jiang❄쎯you❂쎯	-10.0197
dan❄쎯bai❂쎯zhi❄쎯	-10.0201
li❃쎯shi❄쎯zhang❃쎯	-10.0207
cheng❂쎯shi❁쎯	-10.0215
xian❃쎯cun❂쎯	-10.0219
zai❄쎯yu❂쎯	-10.0219
you❃쎯yi❄쎯	-10.0225
gao❁쎯xin❁쎯ji❄쎯sh	-10.0234
ming❂쎯jia❁쎯	-10.024
ji❂쎯qiu❂쎯you❃쎯	-10.0249
ai❄쎯hao❃쎯zhe❃쎯	-10.0249
guang❁쎯xue❂쎯	-10.025
ji❂쎯ke❃쎯.	-10.0266
you❁쎯zhi❄쎯de❅쎯	-10.0267
mu❃쎯qin❁쎯	-10.027
zhuang❄쎯kuang❄쎯	-10.027
bu❄쎯wei❄쎯	-10.0273
xiang❁쎯cun❁쎯	-10.0276
cun❁쎯,shu❃쎯yu❂쎯	-10.0277
li❃쎯,	-10.0278
xing❂쎯hao❂쎯	-10.0283
dian❄쎯zhan❄쎯	-10.0284
guo❂쎯you❃쎯	-10.0291
da❄쎯qiao❂쎯	-10.0292
si❄쎯nian❂쎯	-10.0292
ge❄쎯de❅쎯	-10.0293
di❄쎯guo❂쎯	-10.0293
,yin❁쎯wei❄쎯	-10.0299
sheng❂쎯	-10.0308
zhi❁쎯fu❄쎯	-10.031
huang❂쎯he❂쎯	-10.0313
cai❃쎯se❄쎯	-10.0315
쎃.쎅	-10.0316
du❁쎯	-10.0318
mo❂쎯fa❃쎯	-10.0331
zhi❁쎯,	-10.0336
hu❁쎯xi❁쎯	-10.034
jing❁쎯yan❄쎯,	-10.034
zhi❁쎯fang❂쎯	-10.0343
zhi❁쎯qian❂쎯	-10.0347
mi❄쎯feng❁쎯	-10.0354
ning❂쎯bo❁쎯	-10.036
xian❄쎯lu❄쎯	-10.0365
yin❃쎯shi❂쎯	-10.0366
si❄쎯da❄쎯	-10.0367
ji❁쎯ceng❂쎯	-10.0372
fei❁쎯zhou❁쎯	-10.0373
gong❁쎯she❄쎯	-10.0375
cai❃쎯qu❃쎯	-10.0375
xiu❁쎯gai❃쎯	-10.0378
men❄쎯	-10.0379
kun❁쎯chong❂쎯	-10.0385
zha❄쎯	-10.0387
du❂쎯te❄쎯	-10.0387
jun❁쎯wei❄쎯	-10.039
ju❄쎯le❄쎯bu❄쎯.	-10.0393
ji❁쎯hu❁쎯	-10.0394
쎂쎅쎀	-10.0405
ji❁쎯gou❃쎯.	-10.0409
an❁쎯xian❄쎯	-10.0411
쎁.쎂	-10.0411
you❃쎯《	-10.0412
tu❁쎯po❄쎯	-10.0414
bai❃쎯nian❂쎯	-10.0416
bi❄쎯qiu❁쎯,	-10.0416
jian❄쎯pan❂쎯	-10.0418
gong❁쎯dian❄쎯	-10.0422
zheng❄쎯fa❃쎯	-10.0426
di❄쎯쎂	-10.0427
shou❄쎯ming❄쎯	-10.0429
chu❁쎯le❅쎯	-10.0432
zheng❃쎯li❃쎯	-10.0436
shu❁쎯ji❂쎯	-10.0438
wen❁쎯quan❂쎯	-10.0454
gan❄쎯ben❄쎯	-10.046
―	-10.0462
yan❂쎯dan❄쎯	-10.0471
liang❂쎯hao❃쎯	-10.0473
쎇.	-10.0473
쎀쎀	-10.0477
gong❁쎯bu❄쎯	-10.0483
ru❂쎯ci❃쎯	-10.0494
wei❄쎯zhu❃쎯de❅쎯	-10.0498
쎀×	-10.0503
zhi❁쎯cheng❁쎯	-10.0505
1	-10.0506
wo❃쎯们de❅쎯	-10.0515
bie❂쎯shu❄쎯	-10.0518
guan❁쎯xin❁쎯	-10.0522
cha❄쎯	-10.0531
li❄쎯xue❂쎯	-10.0535
diao❄쎯wei❄쎯	-10.0535
shi❂쎯ba❁쎯	-10.0541
xing❄쎯、	-10.0542
qia❄쎯	-10.0562
dao❃쎯zhi❄쎯	-10.0567
xian❄쎯zhang❃쎯	-10.0567
쎉쎃	-10.0568
zhi❄쎯li❄쎯	-10.0582
jian❄쎯you❃쎯	-10.0584
gong❁쎯an❁쎯	-10.0586
jian❁쎯guan❁쎯	-10.06
pi❂쎯lin❂쎯	-10.0612
qun❂쎯ben❄쎯	-10.0613
nan❂쎯zi❃쎯	-10.0613
tong❁쎯yong❄쎯	-10.0621
duo❁쎯nian❂쎯de❅쎯	-10.0625
:쎂	-10.0629
fu❂쎯wu❄쎯qi❄쎯	-10.0636
hang❂쎯tian❁쎯	-10.0636
hao❂쎯:	-10.0639
yi❁쎯tuo❁쎯	-10.0647
쎀%	-10.0648
jian❄쎯shen❁쎯	-10.0652
쎈쎃	-10.0653
sao❃쎯	-10.0666
deng❃쎯zhi❂쎯.	-10.0667
xiao❃쎯mai❄쎯	-10.0669
shou❃쎯xian❁쎯	-10.067
pai❂쎯lie❄쎯	-10.0673
wen❂쎯wu❄쎯bao❃쎯	-10.0674
shi❄쎯xue❂쎯wei❄쎯.	-10.068
er❂쎯cheng❂쎯	-10.0681
zhong❁쎯xin❁쎯,	-10.0693
dai❄쎯biao❃쎯da❄쎯	-10.0694
duo❁쎯jia❁쎯	-10.0696
guo❄쎯qu❄쎯	-10.0698
쎆쎁	-10.0702
bu❂쎯zu❂쎯	-10.0702
shi❁쎯ci❂쎯	-10.0709
chong❂쎯shi❄쎯	-10.071
ming❂쎯wei❄쎯	-10.0714
tu❂쎯an❄쎯	-10.0722
jing❃쎯dian❃쎯	-10.0728
de❅쎯gu❄쎯shi❄쎯	-10.0733
jian❄쎯zao❄쎯	-10.0736
xia❄쎯she❄쎯	-10.0737
쎁쎉쎅쎈nian❂쎯	-10.0737
chu❂쎯le❅쎯	-10.074
,de❅쎯chu❄쎯	-10.074
zong❃쎯gong❁쎯si❁쎯	-10.0746
ren❂쎯jiao❁쎯	-10.0746
gou❄쎯mai❃쎯	-10.0748
wei❄쎯zhu❃쎯yao❁쎯	-10.0749
,bing❁쎯zai❄쎯	-10.0751
rao❄쎯	-10.0754
lan❂쎯zhou❁쎯	-10.0754
guo❃쎯shi❂쎯	-10.0756
san❁쎯shi❂쎯	-10.076
yi❁쎯tao❄쎯	-10.0763
ˇ	-10.0763
zai❄쎯mei❃쎯guo❂쎯	-10.0766
rong❂쎯liang❂쎯:	-10.0768
.li❄쎯ren❂쎯	-10.0768
cuo❄쎯shi❁쎯	-10.0769
di❄쎯liu❄쎯	-10.077
xin❄쎯yu❄쎯	-10.077
yan❃쎯yi❄쎯	-10.0774
mian❄쎯ji❁쎯yue❁쎯	-10.0774
m2	-10.0775
yao❄쎯pin❃쎯	-10.0776
fan❄쎯wei❂쎯na❄쎯	-10.0779
zhong❁쎯wen❂쎯xi❄쎯	-10.0782
you❃쎯xie❁쎯	-10.0783
xue❂쎯wei❄쎯	-10.0787
dai❄쎯you❃쎯	-10.0789
쎂쎀쎁쎃nian❂쎯	-10.0791
feng❁쎯jing❃쎯qu❁쎯	-10.0794
chao❁쎯ji❂쎯	-10.0795
zui❄쎯wei❄쎯	-10.0796
jin❄쎯sheng❁쎯	-10.0797
fu❄쎯zhu❃쎯xi❂쎯	-10.08
yi❁쎯liu❂쎯	-10.0817
”wei❄쎯	-10.0817
cun❁쎯、	-10.0825
zhan❃쎯jian❁쎯	-10.0825
zhi❂쎯cheng❁쎯	-10.0828
shu❄쎯ju❁쎯ku❄쎯	-10.0831
ming❂쎯ren❂쎯	-10.0831
,“	-10.0831
zhu❃쎯ren❂쎯.	-10.0836
zou❃쎯xiang❄쎯	-10.0843
쎀.쎁	-10.0848
sheng❁쎯ji❂쎯	-10.085
xiang❁쎯jie❂쎯ge❃쎯	-10.086
huai❄쎯	-10.0863
)、《	-10.0866
qu❁쎯wei❁쎯	-10.0868
chui❂쎯zhi❂쎯	-10.087
zhang❃쎯.	-10.0872
he❁쎯	-10.0874
fu❃쎯dao❃쎯	-10.0876
zhu❃쎯ben❄쎯	-10.088
qian❂쎯hou❄쎯	-10.0883
쎀쎄	-10.0889
guan❁쎯jie❂쎯	-10.0889
you❄쎯er❂쎯	-10.0891
wei❄쎯ke❄쎯hu❄쎯	-10.0892
ta❁쎯shi❄쎯	-10.0892
qu❃쎯de❂쎯le❅쎯	-10.0892
쎁쎉쎇쎉nian❂쎯	-10.09
han❃쎯jia❁쎯	-10.091
bu❂쎯yao❁쎯	-10.0911
zu❃쎯cheng❂쎯.	-10.0914
,fu❄쎯	-10.0916
》de❅쎯	-10.0923
shang❃쎯you❃쎯	-10.0933
wei❄쎯zhu❃쎯.	-10.0933
cong❂쎯shu❁쎯	-10.0953
xin❄쎯yong❄쎯	-10.0953
zhuan❁쎯ti❂쎯	-10.0959
shang❁쎯mao❄쎯	-10.0961
jian❄쎯cai❂쎯	-10.0968
쎂쎂쎀	-10.0969
bu❄쎯ju❂쎯	-10.0969
.쎈	-10.0971
cha❂쎯xie❂쎯	-10.0974
zhan❄쎯yi❄쎯	-10.0974
xun❂쎯zhao❃쎯	-10.0977
gu❃쎯gan❁쎯	-10.0979
zhang❁쎯)	-10.099
liao❄쎯jiu❃쎯	-10.0991
kan❁쎯wu❄쎯	-10.0995
bu❂쎯zai❄쎯	-10.0996
ye❃쎯jin❁쎯	-10.1003
bu❂쎯de❂쎯	-10.1003
zhi❃쎯zai❄쎯	-10.1011
mai❂쎯	-10.1013
shen❁쎯fen❄쎯	-10.1014
dong❄쎯man❄쎯	-10.102
liu❂쎯liang❂쎯	-10.1022
/쎂	-10.1024
fu❂쎯zhou❁쎯	-10.1024
xie❂쎯pian❁쎯	-10.1026
gao❁쎯ya❁쎯	-10.1034
shu❁쎯fa❃쎯jia❁쎯	-10.104
hua❁쎯、	-10.1041
la❄쎯jiao❁쎯	-10.1044
de❅쎯fang❁쎯shi❄쎯	-10.1051
、gao❁쎯	-10.1051
dian❄쎯liu❂쎯	-10.1052
shui❃쎯ni❂쎯	-10.1057
zheng❃쎯xing❂쎯	-10.106
de❅쎯da❄쎯	-10.1061
si❄쎯zhou❁쎯	-10.1067
de❅쎯de❅쎯fang❁쎯	-10.1068
gang❁쎯tie❃쎯	-10.1072
zuo❄쎯hao❃쎯	-10.108
xie❃쎯guan❃쎯	-10.108
nu❄쎯	-10.108
hun❂쎯ning❂쎯tu❃쎯	-10.1081
can❁쎯ting❁쎯	-10.1081
zu❁쎯	-10.1087
xian❄쎯ren❂쎯min❂쎯	-10.1088
zai❄쎯quan❂쎯guo❂쎯	-10.109
jian❁쎯fa❁쎯de❅쎯	-10.1093
zhong❁쎯wai❄쎯	-10.1095
bai❂쎯tang❂쎯	-10.1095
jiang❃쎯shu❄쎯le❅쎯	-10.1095
jian❁쎯qiu❁쎯	-10.1098
xiao❄쎯ying❁쎯	-10.1102
2	-10.1103
jia❁쎯ju❁쎯	-10.1111
meng❄쎯xiang❃쎯	-10.1115
pu❂쎯tao❂쎯	-10.1117
yi❃쎯wei❄쎯	-10.1122
hua❂쎯dong❁쎯	-10.1125
dang❁쎯nian❂쎯	-10.1129
fen❁쎯bu❄쎯zai❄쎯	-10.1143
ji❄쎯》	-10.1145
an❁쎯pai❂쎯	-10.1147
(쎃)	-10.1151
(xue❂쎯ming❂쎯:)	-10.1152
meng❁쎯gu❃쎯	-10.1153
ying❁쎯gai❁쎯	-10.1156
rao❂쎯	-10.1157
,chang❂쎯	-10.1157
sheng❁쎯wu❄쎯xue❂쎯	-10.1157
shi❂쎯san❁쎯	-10.1158
gong❁쎯zhu❃쎯	-10.116
,xian❄쎯zai❄쎯	-10.116
”han❄쎯“	-10.1168
lan❂쎯se❄쎯	-10.1174
hou❄쎯ji❁쎯	-10.1174
xue❂쎯yuan❂쎯	-10.1175
guo❂쎯li❄쎯	-10.1178
fen❁쎯pei❄쎯	-10.1184
gui❁쎯ze❂쎯	-10.1189
ge❃쎯fei❂쎯	-10.1192
qu❁쎯dong❄쎯	-10.1206
de❅쎯tu❂쎯	-10.1209
yi❂쎯chan❃쎯	-10.1216
nian❂쎯dai❄쎯	-10.122
xing❃쎯	-10.1229
쎁)	-10.1237
zheng❄쎯ming❂쎯	-10.1238
huo❄쎯wu❄쎯	-10.1241
de❅쎯fu❂쎯wu❄쎯	-10.1247
쎇gan❄쎯	-10.1247
xiang❄쎯su❄쎯	-10.1248
ming❂쎯zi❄쎯	-10.1249
xing❄쎯zhi❄쎯	-10.1249
쎇-	-10.125
gai❃쎯jin❄쎯	-10.1251
wan❂쎯zheng❃쎯	-10.1255
qu❁쎯,	-10.1257
wei❄쎯zhi❁쎯	-10.1264
jia❂쎯	-10.1268
yi❄쎯ren❂쎯	-10.1268
qiao❂쎯liang❂쎯	-10.1271
huo❄쎯de❂쎯le❅쎯	-10.1277
shou❄쎯quan❂쎯	-10.128
zhui❄쎯	-10.128
shi❄쎯jue❂쎯	-10.1281
quan❂쎯guo❂쎯ge❄쎯	-10.1284
mian❃쎯yi❄쎯	-10.1284
da❄쎯zhuan❁쎯	-10.1287
su❁쎯lian❂쎯	-10.1299
yi❄쎯cha❁쎯	-10.1301
fei❄쎯yong❄쎯	-10.1301
ji❂쎯xing❄쎯	-10.1303
wu❃쎯han❄쎯shi❄쎯	-10.1309
jian❁쎯zhi❂쎯	-10.1313
de❅쎯guo❄쎯cheng❂쎯	-10.1315
zhao❃쎯dao❄쎯	-10.1317
kao❃쎯cha❂쎯	-10.1318
yi❁쎯dian❃쎯	-10.1325
yuan❃쎯cheng❂쎯	-10.134
dai❄쎯biao❃쎯zuo❄쎯	-10.134
quan❂쎯xin❁쎯	-10.1345
liu❂쎯cheng❂쎯	-10.1345
fan❄쎯zui❄쎯	-10.1345
zheng❄쎯zhuang❄쎯	-10.1348
ping❂쎯guo❃쎯	-10.1356
jian❁쎯she❄쎯	-10.1363
(-)	-10.1364
bian❄쎯li❄쎯,	-10.1365
wan❂쎯mei❃쎯	-10.1366
(쎁쎉쎀	-10.1371
bing❁쎯bu❂쎯	-10.1376
shua❁쎯	-10.1377
a❁쎯er❃쎯	-10.1382
ling❃쎯xian❁쎯de❅쎯	-10.1386
xia❂쎯qu❁쎯	-10.1386
zhu❃쎯yan❃쎯	-10.1391
da❂쎯jian❁쎯	-10.1393
chai❂쎯	-10.1396
hun❄쎯	-10.1396
jiao❁쎯huan❄쎯	-10.1405
you❃쎯“	-10.1407
쎂쎀쎀쎉	-10.1409
he❂쎯lan❂쎯	-10.1409
ji❁쎯qi❄쎯	-10.141
ke❃쎯jian❄쎯	-10.141
can❁쎯mou❂쎯	-10.1411
zhi❁쎯neng❂쎯	-10.1412
jiu❄쎯ke❃쎯yi❃쎯	-10.1412
gong❁쎯qiu❁쎯wan❂쎯	-10.1414
hua❂쎯ren❂쎯	-10.1418
du❄쎯jia❃쎯	-10.1428
fa❃쎯zhi❄쎯	-10.1431
huo❄쎯bi❄쎯	-10.1434
gao❁쎯wen❁쎯	-10.1435
xie❃쎯ye❄쎯	-10.1441
feng❄쎯huang❂쎯	-10.1444
n	-10.1446
.zi❄쎯	-10.1458
pu❃쎯bian❄쎯	-10.146
shi❄쎯ren❂쎯	-10.1462
bi❃쎯yu❄쎯	-10.1463
yi❁쎯bu❄쎯fen❁쎯	-10.1464
zai❄쎯ci❄쎯	-10.1467
쎁쎉쎄쎉nian❂쎯	-10.1474
jiao❁쎯lian❄쎯	-10.1475
×쎂	-10.1475
zhen❁쎯shi❂쎯	-10.1477
jing❁쎯mi❄쎯	-10.1481
gou❁쎯tong❁쎯	-10.149
zu❃쎯zhi❁쎯bu❄쎯	-10.149
de❅쎯jing❁쎯ying❂쎯	-10.1494
lao❂쎯dong❄쎯li❄쎯	-10.1501
ke❃쎯da❂쎯	-10.1503
tu❂쎯xing❂쎯	-10.1507
gui❃쎯dao❄쎯	-10.1513
mi❄쎯ma❃쎯	-10.1523
sheng❁쎯cheng❂쎯	-10.1524
chu❁쎯zi❄쎯	-10.1526
ren❂쎯qi❂쎯zhong❁쎯	-10.1531
shi❂쎯liu❄쎯	-10.1534
qu❁쎯shi❄쎯	-10.154
hang❂쎯qiu❁쎯de❅쎯	-10.1546
-쎆	-10.1546
kang❁쎯fu❄쎯	-10.1547
.ceng❂쎯	-10.1551
de❅쎯she❄쎯ji❄쎯	-10.1555
zhong❁쎯xi❁쎯yi❁쎯	-10.1555
er❃쎯ji❁쎯	-10.1557
shou❁쎯ji❂쎯	-10.156
yuan❂쎯chuang❄쎯	-10.1565
hua❁쎯xu❄쎯	-10.157
bao❄쎯kan❁쎯	-10.1571
shuai❄쎯	-10.1571
xiang❃쎯you❃쎯	-10.1573
zhuan❃쎯yi❂쎯	-10.1575
yue❄쎯lai❂쎯yue❄쎯	-10.1577
liang❃쎯nian❂쎯	-10.1579
gang❁쎯qin❂쎯	-10.1584
qiu❂쎯yuan❂쎯	-10.1592
shao❄쎯xing❄쎯	-10.1608
chang❄쎯pian❁쎯	-10.1617
hua❁쎯sheng❁쎯	-10.1617
te❄쎯dian❃쎯:	-10.1621
fa❁쎯dong❄쎯ji❁쎯	-10.1631
chu❁쎯lai❂쎯de❅쎯	-10.1632
eng❁쎯dao❃쎯shi❁쎯,	-10.1633
ce❄쎯ding❄쎯	-10.1634
chuan❄쎯	-10.1644
shang❃쎯wang❃쎯	-10.1645
yuan❂쎯zi❃쎯	-10.1649
쎁쎀-	-10.1649
,jing❁쎯guo❄쎯	-10.1653
shi❂쎯da❄쎯	-10.1656
zhu❄쎯:“	-10.1659
quan❂쎯ben❄쎯	-10.1661
fu❄쎯zhu❃쎯ren❂쎯、	-10.1667
().	-10.167
ceng❂쎯zai❄쎯	-10.1671
zhong❁쎯you❃쎯	-10.1671
cai❃쎯gou❄쎯	-10.1677
ju❁쎯wei❁쎯hui❄쎯	-10.1685
li❄쎯ben❄쎯	-10.1685
yun❃쎯zuo❄쎯	-10.1688
guan❃쎯dao❄쎯	-10.1689
ji❂쎯ju❄쎯	-10.1691
,ci❃쎯	-10.1692
,ceng❂쎯ren❂쎯	-10.1694
chai❁쎯	-10.1697
shen❁쎯du❄쎯	-10.1702
zhao❁쎯sheng❁쎯	-10.1702
zuo❄쎯qiu❁쎯	-10.1706
쎀.쎂	-10.1714
shi❃쎯yong❄쎯de❅쎯	-10.1714
gong❁쎯an❁쎯ju❂쎯	-10.1723
bing❃쎯cheng❂쎯	-10.1729
chuan❂쎯》	-10.1737
쎅)	-10.174
xue❂쎯ji❁쎯jin❁쎯	-10.1745
yin❃쎯dao❃쎯	-10.1746
liang❃쎯ci❄쎯	-10.1746
jue❂쎯dui❄쎯	-10.1747
gu❄쎯ke❄쎯	-10.176
,zong❃쎯	-10.176
bian❁쎯,ju❄쎯chi❁쎯	-10.1761
zhao❄쎯ming❂쎯	-10.1763
dai❄쎯kuan❃쎯	-10.1767
xing❄쎯ge❂쎯	-10.1771
qi❃쎯xiang❄쎯	-10.1772
쎁、	-10.1773
tou❄쎯ming❂쎯	-10.1773
ben❄쎯xian❄쎯	-10.1777
min❂쎯ying❂쎯	-10.178
ming❂쎯yu❄쎯	-10.1783
cheng❂쎯xing❂쎯	-10.1784
yang❃쎯sheng❁쎯	-10.1784
zai❄쎯zhe❄쎯li❃쎯	-10.1788
)ren❂쎯.	-10.179
pin❁쎯	-10.1791
yue❄쎯nan❂쎯	-10.1795
le❅쎯.	-10.1807
쎁쎉쎆쎄nian❂쎯	-10.1807
yang❂쎯zhou❁쎯	-10.1807
쎉쎀쎀	-10.1808
shou❃쎯fa❃쎯	-10.1808
bian❄쎯xing❂쎯	-10.1811
ji❂쎯qi❂쎯ta❁쎯	-10.1814
man❃쎯yi❄쎯	-10.1821
gong❁쎯si❁쎯de❅쎯	-10.1822
.ta❁쎯shi❄쎯	-10.1823
yi❁쎯jian❄쎯	-10.1823
ban❄쎯yan❃쎯	-10.1824
cong❁쎯	-10.183
bing❄쎯ren❂쎯	-10.183
liu❂쎯xue❂쎯	-10.1831
jiao❁쎯hui❄쎯	-10.1837
gong❁쎯nong❂쎯	-10.1841
tang❂쎯dai❄쎯	-10.1842
hen❄쎯	-10.1844
yu❁쎯	-10.185
(.)	-10.1854
geng❁쎯duo❁쎯	-10.1859
hua❁쎯hui❄쎯	-10.1859
de❂쎯dao❄쎯le❅쎯	-10.1862
、xin❁쎯	-10.1863
sou❁쎯suo❃쎯	-10.1865
tong❂쎯bu❄쎯	-10.1868
×쎁	-10.1868
wen❂쎯ming❂쎯:	-10.1878
쎁쎉쎇쎀nian❂쎯	-10.1878
jin❄쎯chu❁쎯kou❃쎯	-10.1878
zhuan❄쎯xie❃쎯	-10.1879
xin❁쎯jian❄쎯	-10.1881
qiu❁쎯dan❁쎯wei❄쎯	-10.1889
kong❁쎯jun❁쎯	-10.1893
de❅쎯zuo❄쎯yong❄쎯	-10.1897
쎁쎉쎆쎃nian❂쎯	-10.1906
ji❁쎯jian❁쎯,	-10.1919
tiao❁쎯zhan❄쎯	-10.1922
geng❁쎯duo❁쎯de❅쎯	-10.1925
hua❂쎯ren❂쎯min❂쎯	-10.1927
you❃쎯yi❁쎯ding❄쎯	-10.1929
ying❃쎯xiang❄쎯	-10.1931
bi❃쎯ji❄쎯ben❃쎯	-10.1932
,zhang❃쎯	-10.1935
bu❄쎯zhang❃쎯	-10.1936
xia❄쎯de❅쎯	-10.1937
duo❁쎯wei❄쎯	-10.1943
(쎁쎈	-10.1944
yin❃쎯qi❃쎯de❅쎯	-10.1946
쎅nian❂쎯	-10.1947
chong❁쎯ji❁쎯	-10.1949
yi❃쎯chong❂쎯zhi❂쎯	-10.1949
han❄쎯qi❂쎯ta❁쎯	-10.1949
jiang❃쎯shu❄쎯	-10.1951
yi❄쎯jian❄쎯	-10.1954
mei❃쎯zhou❁쎯	-10.1954
zu❃쎯cheng❂쎯,	-10.1956
tian❁쎯de❅쎯	-10.196
dan❄쎯jia❁쎯peng❂쎯	-10.1965
yi❂쎯chang❂쎯	-10.1966
shi❁쎯sheng❁쎯	-10.1966
ci❁쎯ji❁쎯	-10.197
duo❁쎯shu❄쎯	-10.1981
bo❂쎯shi❄쎯xue❂쎯	-10.1982
”shi❄쎯	-10.1985
mian❄쎯fen❃쎯	-10.1986
wen❁쎯zhou❁쎯	-10.1986
di❄쎯qi❁쎯	-10.1986
shi❂쎯bie❂쎯	-10.1986
쎂)	-10.1987
ran❂쎯hou❄쎯	-10.1988
ye❂쎯	-10.1995
zhu❂쎯bu❄쎯	-10.1997
zhi❄쎯li❃쎯	-10.1998
》、《zhong❁쎯guo❂쎯	-10.1998
feng❁쎯guang❁쎯	-10.2003
dui❄쎯fang❁쎯	-10.2009
wu❃쎯gan❄쎯	-10.2012
xin❁쎯qu❁쎯	-10.2013
an❂쎯jiu❁쎯sheng❁쎯	-10.2015
li❄쎯yi❄쎯	-10.2021
si❁쎯tan❃쎯	-10.2026
.dang❁쎯	-10.2027
han❃쎯fang❂쎯	-10.2031
shu❄쎯zhi❁쎯	-10.2037
bai❃쎯xing❄쎯	-10.2046
mian❄쎯ji❁쎯쎅	-10.2048
xi❃쎯cheng❁쎯,	-10.2054
.zhe❄쎯chong❂쎯	-10.2056
-쎈	-10.2063
gao❁쎯pin❃쎯zhi❄쎯	-10.2066
xiao❁쎯hua❁쎯	-10.2067
쎁쎉쎇쎆nian❂쎯	-10.2069
jiao❃쎯ban❄쎯	-10.2085
yong❄쎯tu❂쎯	-10.2087
(쎁쎉쎁	-10.2091
쎂쎀쎁쎁	-10.2092
diao❁쎯ke❄쎯	-10.21
,wo❃쎯	-10.2101
zhi❄쎯yu❂쎯	-10.2102
na❄쎯han❂쎯	-10.2103
.ta❁쎯de❅쎯	-10.2106
xi❄쎯tong❃쎯、	-10.2106
(쎂)	-10.2109
”(	-10.211
fa❁쎯qi❃쎯	-10.2113
yin❃쎯yong❄쎯	-10.2113
mian❄쎯ji❁쎯쎂	-10.2117
zhi❃쎯ding❄쎯	-10.2121
xian❄쎯jin❁쎯	-10.2123
hua❁쎯dan❄쎯	-10.2123
ren❄쎯zhen❁쎯	-10.213
ning❂쎯xian❄쎯	-10.2132
yi❃쎯qian❂쎯	-10.2137
guan❁쎯shang❃쎯	-10.2137
ling❃쎯xian❁쎯	-10.2145
ji❁쎯gou❃쎯,	-10.2151
xian❄쎯zhuang❄쎯	-10.2153
liu❄쎯nian❂쎯	-10.2156
zhen❄쎯dong❄쎯	-10.216
shu❁쎯song❄쎯	-10.216
da❄쎯li❄쎯	-10.2161
yu❃쎯zhou❄쎯	-10.2163
》han❄쎯《	-10.2164
mei❂쎯tan❄쎯	-10.2164
di❄쎯yi❁쎯chan❃쎯	-10.2166
tou❁쎯	-10.2175
gan❃쎯jue❂쎯	-10.2176
zi❁쎯shen❁쎯	-10.2179
jiang❃쎯shi❁쎯	-10.218
zhun❃쎯que❄쎯	-10.2181
wei❄쎯jing❁쎯	-10.2182
ben❃쎯pin❃쎯	-10.2184
ren❂쎯wu❄쎯.	-10.2184
jun❁쎯you❃쎯	-10.2185
er❂쎯cheng❂쎯.	-10.2188
ban❄쎯dao❃쎯	-10.219
쎁hao❂쎯	-10.2191
]	-10.2194
fan❄쎯dian❄쎯	-10.2199
bao❁쎯gua❁쎯:	-10.2203
de❅쎯fang❁쎯fa❃쎯	-10.2207
zi❄쎯ran❂쎯ke❁쎯	-10.2213
shi❄쎯mei❃쎯guo❂쎯	-10.2213
chuan❂쎯bo❂쎯	-10.2214
.”qing❁쎯	-10.2215
ping❂쎯lun❄쎯	-10.222
gong❁쎯si❁쎯.	-10.2221
ji❄쎯sheng❁쎯	-10.2221
》zhong❁쎯de❅쎯	-10.2221
:쎁.	-10.2223
xin❁쎯zang❄쎯	-10.2225
long❂쎯tou❂쎯	-10.2227
fang❄쎯she❄쎯	-10.2229
qi❃쎯cha❁쎯	-10.2234
jing❁쎯ying❁쎯	-10.2236
.tang❂쎯	-10.2236
ping❂쎯fang❁쎯gong	-10.2236
//	-10.2237
han❂쎯shou❄쎯	-10.224
jie❁쎯shou❁쎯	-10.2242
fang❂쎯zhi❃쎯	-10.2244
±	-10.2252
huo❂쎯dong❄쎯,	-10.2256
yi❁쎯fa❃쎯	-10.2264
jing❁쎯zhi❄쎯	-10.2265
zheng❄쎯fu❃쎯zhu❄쎯	-10.2275
yang❂쎯shi❄쎯	-10.2276
yuan❂쎯zhu❄쎯	-10.2277
chuan❂쎯ji❁쎯	-10.2277
mo❂쎯te❄쎯	-10.2279
kun❁쎯ming❂쎯	-10.228
lei❄쎯si❄쎯	-10.2285
ma❃쎯ke❄쎯si❁쎯	-10.2285
shi❂쎯de❅쎯	-10.2289
ye❃쎯ke❃쎯yi❃쎯	-10.229
shi❃쎯yong❄쎯.	-10.2294
bo❂쎯shi❄쎯sh	-10.2296
ban❄쎯li❃쎯	-10.2299
jiao❄쎯qu❁쎯	-10.2301
,tong❂쎯nian❂쎯	-10.2308
sao❃쎯miao❂쎯	-10.2309
jiang❁쎯qi❂쎯	-10.2311
xiao❁쎯fang❂쎯	-10.2313
pi❁쎯fa❁쎯	-10.2313
mu❃쎯,qi❂쎯zhong❁쎯	-10.2315
ㄢ	-10.2319
dian❄쎯lan❃쎯	-10.2325
---	-10.2326
ke❁쎯xue❂쎯yu❃쎯	-10.2327
yuan❂쎯、	-10.2329
jing❄쎯sai❄쎯	-10.233
dou❁쎯hui❄쎯	-10.2331
yi❃쎯you❃쎯	-10.2332
chuang❁쎯kou❃쎯	-10.2344
luo❄쎯yang❂쎯	-10.2348
.ta❁쎯们	-10.2355
chuan❂쎯gan❃쎯qi❄쎯	-10.2359
zong❃쎯xian❄쎯	-10.2365
she❄쎯xiang❄쎯	-10.2368
ke❄쎯,	-10.2372
gong❁쎯guan❁쎯	-10.2375
wu❃쎯zhuang❁쎯	-10.2375
gong❄쎯xian❄쎯.	-10.2376
diao❁쎯su❄쎯	-10.2379
.쎃、	-10.2385
tao❃쎯lun❄쎯	-10.2385
bao❁쎯zi❃쎯	-10.2386
guan❃쎯xia❂쎯	-10.2387
da❄쎯jiu❃쎯dian❄쎯	-10.2387
jie❂쎯shu❄쎯	-10.239
chu❁쎯tu❃쎯	-10.2391
zai❄쎯yi❁쎯qi❃쎯	-10.2396
쎁쎀fen❁쎯zhong❁쎯	-10.2396
geng❁쎯hao❃쎯de❅쎯	-10.2398
쎂쎀쎀쎇	-10.2398
xiang❁쎯si❄쎯	-10.2407
yi❁쎯suo❃쎯	-10.2412
ju❄쎯dao❄쎯	-10.2412
cai❂쎯zhi❄쎯	-10.2413
da❄쎯duo❁쎯shu❄쎯	-10.2415
kou❃쎯qiang❁쎯	-10.2423
yi❄쎯wei❄쎯	-10.2428
dong❁쎯nan❂쎯ya❄쎯	-10.2429
hua❁쎯de❅쎯	-10.2431
ying❄쎯jian❄쎯	-10.2432
chong❂쎯jian❄쎯	-10.2444
wei❂쎯yi❁쎯de❅쎯	-10.2445
you❂쎯ji❁쎯dui❄쎯	-10.2445
/쎃	-10.2447
wo❃쎯de❅쎯	-10.2448
zhu❃쎯ying❂쎯	-10.2449
zhang❃쎯pian❁쎯	-10.245
he❄쎯se❄쎯	-10.2451
nan❂쎯han❄쎯zu❂쎯	-10.2453
ma❃쎯tou❂쎯	-10.2454
ruo❄쎯gan❁쎯	-10.2456
zhu❃쎯ban❃쎯	-10.246
kun❄쎯	-10.2461
dang❃쎯de❅쎯	-10.2462
쎇쎁	-10.2462
da❄쎯qi❃쎯	-10.2462
cheng❁쎯zhi❁쎯	-10.2467
de❅쎯ge❄쎯chong❂쎯	-10.2468
kuai❄쎯jie❂쎯	-10.247
zhi❃쎯shu❄쎯	-10.2472
쎈-	-10.2472
zi❁쎯zhi❄쎯	-10.2476
chuan❁쎯yue❄쎯	-10.2481
jiao❁쎯shi❄쎯	-10.2482
쎁쎉쎇쎅nian❂쎯	-10.2482
gu❃쎯cheng❂쎯	-10.2482
niang❂쎯	-10.2487
wu❃쎯shu❂쎯	-10.2488
ka❁쎯	-10.2491
ba❁쎯li❂쎯	-10.2493
qing❄쎯yin❁쎯	-10.2493
wang❃쎯wang❃쎯	-10.2499
nong❂쎯min❂쎯shou	-10.25
❁쎯ru❄쎯zhu❃쎯yao❁쎯	-10.2502
ye❄쎯ya❁쎯	-10.2503
❂쎯	-10.2503
zuo❃쎯you❄쎯,	-10.2504
niu❃쎯yue❁쎯	-10.2504
si❁쎯·	-10.2504
쎂쎀쎁쎂	-10.2504
zai❄쎯jiao❄쎯	-10.2505
nv❃쎯ren❂쎯	-10.2509
fa❃쎯ren❂쎯	-10.2509
wang❃쎯ye❄쎯	-10.2514
jing❁쎯yan❂쎯	-10.2519
.ju❁쎯	-10.253
\	-10.2531
xiang❄쎯zheng❁쎯	-10.2532
shen❁쎯shou❄쎯	-10.2536
fu❂쎯wu❄쎯,	-10.2537
de❅쎯xing❂쎯shi❄쎯	-10.2537
xing❄쎯qu❄쎯	-10.2537
chu❁쎯ban❃쎯she❄쎯:	-10.2538
ying❂쎯qiu❁쎯	-10.2539
jiao❄쎯jiang❄쎯	-10.2542
qu❁쎯.	-10.2543
de❅쎯qi❃쎯qiu❁쎯	-10.2545
xiu❁쎯fu❄쎯	-10.2548
wu❄쎯pin❃쎯	-10.2553
sang❄쎯	-10.256
쎈쎁	-10.256
.쎃.	-10.2561
chu❁쎯ji❁쎯	-10.2562
shui❃쎯zhong❁쎯	-10.2567
xiao❃쎯shuo❁쎯《	-10.2581
jing❃쎯cha❂쎯	-10.2587
xian❄쎯ji❂쎯	-10.259
pi❁쎯zhen❁쎯xing❂쎯	-10.2597
gao❁쎯da❂쎯	-10.2598
xuan❂쎯zhuan❃쎯	-10.2601
luo❂쎯ji❂쎯	-10.2602
huo❂쎯dong❄쎯.	-10.2606
wei❄쎯:	-10.2608
liu❂쎯tong❁쎯	-10.2611
xin❁쎯cheng❂쎯	-10.2612
|	-10.2615
san❁쎯chong❂쎯	-10.2616
lu❄쎯、	-10.262
쎁쎉쎆쎅nian❂쎯	-10.2629
""	-10.2632
》huo❄쎯	-10.2636
.qing❁쎯	-10.2638
ao❄쎯yun❃쎯hui❄쎯	-10.2638
dian❄쎯xin❄쎯	-10.2639
,xi❁쎯	-10.264
zhu❃쎯yao❁쎯shi❄쎯	-10.2644
man❄쎯xing❄쎯	-10.2647
ceng❂쎯ci❄쎯	-10.2647
lun❂쎯dun❁쎯	-10.2647
che❁쎯jian❁쎯	-10.265
쎂쎀쎀쎈	-10.2651
zhi❁쎯yao❁쎯	-10.2651
lan❂쎯mu❄쎯	-10.2652
shu❄쎯mu❄쎯	-10.2655
yi❁쎯chang❃쎯	-10.2657
you❁쎯ya❃쎯	-10.2662
jie❁쎯jin❄쎯	-10.2664
쎅fen❁쎯zhong❁쎯	-10.2668
zong❃쎯jie❂쎯	-10.267
guan❁쎯jian❄쎯	-10.267
jiao❃쎯du❄쎯	-10.2673
tai❄쎯guo❂쎯	-10.2676
shi❂쎯nian❂쎯dai❄쎯	-10.2676
shou❃쎯xi❂쎯	-10.2681
quan❂쎯zhou❁쎯	-10.2682
quan❂쎯ri❄쎯zhi❄쎯	-10.2682
qun❂쎯dao❃쎯	-10.2683
ge❄쎯jie❄쎯	-10.2687
wai❄쎯guo❂쎯	-10.2689
tiao❁쎯	-10.2701
:쎃	-10.2702
gan❃쎯shou❄쎯	-10.2709
dai❄쎯tou❂쎯ren❂쎯	-10.271
xu❁쎯ni❃쎯	-10.2713
de❅쎯chan❃쎯	-10.2713
kun❄쎯nan❂쎯	-10.2713
wan❁쎯qu❁쎯	-10.2714
yuan❂쎯xing❂쎯,	-10.2715
fang❂쎯jian❁쎯	-10.2715
mo❄쎯yuan❂쎯	-10.2716
jin❁쎯tian❁쎯	-10.2717
shui❃쎯guo❃쎯	-10.2722
yi❄쎯yuan❂쎯,	-10.2723
zhong❁쎯zhuan❁쎯	-10.2725
쎁.쎀	-10.2725
gang❃쎯wei❄쎯	-10.2726
chou❃쎯	-10.2734
jian❃쎯jie❄쎯	-10.2734
te❄쎯chong❂쎯	-10.2742
jin❄쎯dai❄쎯	-10.2744
shu❄쎯shi❂쎯	-10.2744
shen❃쎯ding❄쎯	-10.2745
jian❃쎯jie❄쎯:	-10.2746
pei❄쎯bei❄쎯	-10.2747
ren❂쎯shu❄쎯	-10.2753
dan❄쎯shi❄쎯	-10.2753
yi❁쎯xia❄쎯	-10.2754
jiao❁쎯yu❄쎯ju❂쎯	-10.2761
dang❁쎯qian❂쎯	-10.2762
,cu❄쎯jin❄쎯	-10.2763
kong❄쎯gu❃쎯	-10.2767
nan❂쎯,han❄쎯zu❂쎯,	-10.277
xue❂쎯、	-10.2773
吗	-10.2773
duo❁쎯pian❁쎯	-10.2774
qing❁쎯xin❁쎯	-10.2775
na❄쎯wai❄쎯	-10.2783
huo❂쎯xing❄쎯	-10.2786
ping❂쎯si❄쎯.	-10.2788
쎁쎉쎅쎆nian❂쎯	-10.2789
tang❄쎯	-10.2792
yi❃쎯xi❁쎯	-10.2796
qing❁쎯chao❂쎯	-10.2797
mian❄쎯ji❁쎯쎆	-10.2801
》yi❁쎯shu❁쎯	-10.2801
ji❄쎯cheng❂쎯	-10.2802
ke❁쎯ke❁쎯zhang❃쎯	-10.2807
쎁쎉쎆쎂nian❂쎯	-10.2807
shi❂쎯shi❂쎯	-10.2809
fa❃쎯yuan❄쎯	-10.281
hui❄쎯yuan❂쎯、	-10.2811
duo❄쎯	-10.2812
yi❁쎯fu❂쎯	-10.2816
jian❁쎯guan❃쎯	-10.2818
chang❃쎯de❅쎯	-10.2823
nan❂쎯nv❃쎯	-10.2824
you❃쎯suo❃쎯	-10.2824
de❅쎯shi❂쎯jian❁쎯	-10.2824
ta❄쎯zhan❃쎯	-10.283
jie❄쎯zhi❄쎯	-10.2831
che❁쎯cheng❂쎯	-10.2831
쎁쎉쎆쎈nian❂쎯	-10.2831
teng❂쎯tong❄쎯	-10.2832
ge❄쎯ji❂쎯	-10.2833
shi❄쎯yi❁쎯dao❄쎯	-10.2838
han❃쎯shang❁쎯	-10.2843
sui❄쎯.	-10.2843
bu❄쎯bu❄쎯zhang❃쎯	-10.2843
,ti❂쎯gao❁쎯	-10.2861
ga❁쎯fei❁쎯	-10.2861
de❅쎯yu❄쎯	-10.2864
dian❃쎯xing❂쎯de❅쎯	-10.2864
zhuan❁쎯zhu❄쎯yu❂쎯	-10.2866
.쎃	-10.2873
ー	-10.2876
hui❂쎯dao❄쎯	-10.2877
you❃쎯:	-10.2878
jiao❁쎯shou❄쎯、	-10.2885
lao❃쎯ren❂쎯	-10.2888
yue❁쎯:“	-10.2892
ting❂쎯che❁쎯	-10.2898
-쎉	-10.2902
fa❁쎯dian❄쎯	-10.2903
hong❁쎯	-10.2906
.song❄쎯	-10.2907
ming❂쎯que❄쎯	-10.2913
ge❄쎯da❄쎯	-10.2913
.ru❂쎯	-10.2915
chun❁쎯qiu❁쎯	-10.2917
you❂쎯hua❄쎯	-10.2919
jiang❃쎯li❄쎯	-10.292
fu❂쎯wu❄쎯de❅쎯	-10.2921
yao❁쎯qing❃쎯	-10.2922
shuang❃쎯	-10.2922
yue❁쎯:‘	-10.2928
bu❂쎯liang❂쎯	-10.293
zhang❃쎯an❁쎯	-10.2932
쎁쎁쎀	-10.2933
ling❄쎯	-10.2935
di❄쎯er❄쎯jie❄쎯	-10.2936
(yuan❂쎯	-10.2949
,fu❂쎯you❃쎯	-10.2954
hou❄쎯zai❄쎯	-10.2959
song❄쎯dai❄쎯	-10.2961
kuang❄쎯wu❄쎯	-10.2961
fang❁쎯shi❄쎯:	-10.2962
jiang❄쎯hua❁쎯	-10.2966
hong❂쎯wai❄쎯	-10.2969
ba❁쎯xi❁쎯	-10.2973
mi❃쎯,	-10.2975
di❂쎯zheng❄쎯	-10.2975
you❃쎯shi❂쎯	-10.2977
wei❁쎯tuo❁쎯	-10.2978
shao❃쎯nv❃쎯	-10.298
,xian❄쎯wei❄쎯	-10.299
de❅쎯ying❁쎯yong❄쎯	-10.2993
,jia❁쎯	-10.2995
wu❂쎯xi❁쎯	-10.3005
ta❁쎯zai❄쎯	-10.3006
ben❄쎯ji❁쎯	-10.301
yi❂쎯shi❄쎯	-10.3011
liu❂쎯chuan❂쎯	-10.3016
mu❄쎯ma❃쎯	-10.3018
zhuan❃쎯hua❁쎯	-10.302
쎁쎉쎆쎀nian❂쎯	-10.3022
zai❄쎯《	-10.3031
gu❄쎯zhang❄쎯	-10.3038
wang❃쎯you❃쎯	-10.3039
lu❄쎯,	-10.3041
.쎂	-10.3041
qi❃쎯qiu❁쎯,	-10.3047
sheng❁쎯ya❂쎯	-10.3047
ju❄쎯qing❂쎯	-10.305
xiao❃쎯huo❃쎯	-10.305
dong❄쎯yuan❂쎯,	-10.3052
huang❂쎯jia❁쎯	-10.3053
,zui❄쎯hou❄쎯	-10.3054
jiao❄쎯zuo❄쎯	-10.3054
qing❂쎯gan❃쎯	-10.3057
an❃쎯	-10.3062
diao❄쎯yan❂쎯	-10.3064
jie❁쎯kou❃쎯:	-10.3064
wang❂쎯chao❂쎯	-10.3065
,ta❁쎯de❅쎯	-10.3067
wei❂쎯rao❄쎯	-10.3073
()、	-10.3079
jian❁쎯cha❂쎯	-10.3079
zai❄쎯guo❂쎯na❄쎯	-10.3084
zheng❄쎯zhi❄쎯bu❄쎯	-10.3086
zuo❄쎯zhe❃쎯:	-10.3087
tong❂쎯yang❂쎯	-10.3091
xia❄쎯xia❂쎯	-10.3092
❄쎯chan❃쎯dang❃쎯.	-10.3093
yi❁쎯ben❄쎯hua❁쎯	-10.3093
)han❄쎯	-10.3093
huo❃쎯shan❁쎯	-10.3093
ning❂쎯xia❄쎯	-10.3095
ding❄쎯cha❁쎯	-10.31
zhu❄쎯su❄쎯	-10.3101
wan❂쎯zheng❃쎯de❅쎯	-10.3107
tong❃쎯zhi❄쎯	-10.3112
da❄쎯lou❂쎯	-10.3114
de❅쎯ji❁쎯chu❃쎯	-10.3118
er❂쎯cheng❂쎯de❅쎯	-10.3122
die❁쎯	-10.3127
chuan❂쎯di❄쎯	-10.3127
、xiao❃쎯	-10.3134
』	-10.3137
jing❁쎯hua❂쎯	-10.3137
:《	-10.3145
si❁쎯ma❃쎯	-10.3146
ao❄쎯men❂쎯	-10.3148
da❄쎯de❅쎯	-10.3148
쎂쎅쎆	-10.3152
ke❃쎯zuo❄쎯wei❄쎯	-10.3154
mei❃쎯wei❄쎯	-10.3163
de❅쎯zhi❃쎯:	-10.3167
di❂쎯jian❄쎯	-10.3168
ye❃쎯ke❃쎯	-10.3168
bian❁쎯ju❄쎯	-10.317
zhong❁쎯deng❃쎯	-10.3173
xiang❁쎯gu❁쎯	-10.3174
dian❃쎯xing❂쎯	-10.318
shan❁쎯qu❁쎯.	-10.3182
cui❃쎯	-10.3183
(ru❂쎯	-10.3186
,jian❄쎯zhu❂쎯	-10.3187
bu❂쎯shao❃쎯	-10.3192
pu❃쎯ji❂쎯	-10.3196
de❅쎯li❃쎯xiang❃쎯	-10.3198
fang❁쎯yan❂쎯	-10.3207
shi❄쎯wu❄쎯suo❃쎯	-10.3209
쎉쎁	-10.321
,bu❂쎯duan❄쎯	-10.3211
tian❁쎯jia❁쎯	-10.3213
de❅쎯yi❁쎯bu❄쎯	-10.3214
lian❄쎯xi❂쎯	-10.3214
쎅ke❄쎯	-10.3219
yan❂쎯,	-10.3221
ji❁쎯shen❁쎯	-10.3224
jie❁쎯dai❁쎯	-10.3225
[	-10.3225
hou❄쎯wei❄쎯	-10.3226
bing❄쎯、	-10.3227
yi❁쎯shi❄쎯	-10.323
“”	-10.3233
,ni❃쎯	-10.3238
shu❁쎯zhong❁쎯	-10.325
chang❄쎯xiao❁쎯	-10.3251
da❄쎯yue❁쎯	-10.3253
chang❂쎯zhou❁쎯	-10.3253
cong❂쎯er❂쎯	-10.3256
yu❄쎯ce❄쎯	-10.3256
tai❄쎯zi❃쎯	-10.3262
he❂쎯liu❂쎯	-10.3263
,duo❁쎯	-10.3266
dian❄쎯dong❄쎯	-10.3267
guan❁쎯fang❁쎯	-10.3269
xuan❄쎯	-10.3271
qing❂쎯bao❄쎯	-10.3273
-쎇	-10.3275
lai❂쎯dao❄쎯	-10.3282
chu❁쎯lai❂쎯	-10.3283
guo❄쎯lv❄쎯	-10.3284
》duo❃쎯zhi❄쎯	-10.3291
qiu❁쎯ji❁쎯	-10.3293
쎀.쎃	-10.3296
mai❄쎯ke❄쎯feng❁쎯	-10.3298
da❄쎯liang❂쎯de❅쎯	-10.3299
hui❄쎯ji❄쎯shi❁쎯	-10.3301
suo❃쎯you❃쎯de❅쎯	-10.3305
fang❂쎯hu❄쎯	-10.3306
.hou❄쎯	-10.3307
쎁쎉쎇쎂nian❂쎯	-10.3308
쎁쎉쎆쎉nian❂쎯	-10.3308
xuan❁쎯bu❄쎯	-10.3308
guo❁쎯zhong❁쎯	-10.3319
she❄쎯bei❄쎯,	-10.3325
dui❄쎯zhang❃쎯	-10.3335
fu❄쎯bu❄쎯	-10.3338
shuang❁쎯fang❁쎯	-10.3339
shui❃쎯dian❄쎯	-10.334
chu❁쎯,	-10.3344
yi❂쎯chuan❂쎯	-10.3349
jiao❄쎯da❄쎯	-10.3353
zhi❂쎯ze❂쎯	-10.3358
hua❂쎯sheng❁쎯yu❄쎯	-10.3366
,xia❄쎯	-10.3373
jiu❄쎯du❂쎯yu❂쎯	-10.3374
#	-10.3378
sheng❁쎯li❃쎯	-10.3378
da❄쎯fu❁쎯	-10.3381
ju❄쎯ji❂쎯	-10.3382
yuan❄쎯shi❄쎯	-10.3383
shang❁쎯hai❄쎯	-10.3384
wang❂쎯guo❂쎯	-10.3384
shan❁쎯mai❄쎯	-10.3385
xiang❁쎯wei❄쎯	-10.3389
feng❁쎯qing❂쎯	-10.3389
zhuan❁쎯xue❂쎯li❄쎯	-10.339
han❄쎯jie❁쎯	-10.339
de❅쎯gong❁쎯zuo❄쎯	-10.3399
bie❂쎯ming❂쎯	-10.3399
li❄쎯dai❄쎯	-10.3401
,쎀쎀쎀	-10.3403
she❄쎯ji❄쎯,	-10.341
gong❁쎯jiao❁쎯	-10.3417
xi❁쎯yin❃쎯	-10.3417
gai❁쎯jiao❄쎯	-10.3426
you❁쎯liang❂쎯	-10.3429
ke❃쎯gong❁쎯	-10.3432
ping❂쎯si❄쎯,	-10.3433
쎂쎀쎀쎅	-10.3436
ya❁쎯suo❁쎯	-10.3443
pian❁쎯.	-10.3447
●	-10.3449
xuan❃쎯shou❃쎯	-10.3449
ben❃쎯shen❁쎯	-10.345
na❃쎯gan❄쎯	-10.3451
,qing❁쎯	-10.3451
re❄쎯qing❂쎯	-10.3452
kang❁쎯xi❁쎯	-10.3454
kuan❁쎯dai❄쎯	-10.3455
yan❂쎯hai❃쎯	-10.3457
chu❄쎯chu❄쎯	-10.3459
you❁쎯mei❃쎯	-10.3459
gang❃쎯kou❃쎯	-10.346
chu❄쎯,	-10.346
de❂쎯·	-10.3463
shui❄쎯wu❄쎯	-10.3463
tu❂쎯liao❄쎯	-10.3463
sun❃쎯shi❁쎯	-10.3465
shui❃쎯chu❄쎯li❃쎯	-10.3472
tu❁쎯ran❂쎯	-10.3472
yan❂쎯jiu❁쎯sh	-10.3476
kou❃쎯wei❄쎯	-10.3481
xi❄쎯qu❁쎯	-10.3486
ling❃쎯dao❃쎯xia❄쎯	-10.3488
jiu❃쎯nian❂쎯	-10.3488
mao❂쎯ze❂쎯dong❁쎯	-10.349
shang❃쎯mian❄쎯	-10.349
guo❂쎯wang❂쎯	-10.3495
yuan❂쎯jian❄쎯	-10.35
wen❂쎯lian❂쎯	-10.3502
cun❁쎯ren❂쎯	-10.3503
fa❁쎯dong❄쎯	-10.3505
ben❃쎯de❅쎯	-10.3508
쎁쎉쎅쎅nian❂쎯	-10.3508
ji❂쎯jiao❁쎯shi❁쎯	-10.3512
쎈yue❄쎯can❁쎯jia❁쎯	-10.3515
,you❄쎯cheng❁쎯	-10.3517
guan❁쎯ce❄쎯	-10.3518
ju❂쎯bu❄쎯	-10.3519
shu❃쎯biao❁쎯	-10.3523
nao❄쎯	-10.3524
niu❂쎯rou❄쎯	-10.3528
guang❁쎯xu❄쎯	-10.3533
、da❄쎯	-10.3533
쎄.쎅	-10.3533
ji❁쎯fu❁쎯	-10.3535
shi❄쎯min❂쎯	-10.3535
ling❄쎯wai❄쎯	-10.3536
lu❄쎯xian❄쎯	-10.3546
shi❄쎯:	-10.3549
shi❄쎯jia❁쎯	-10.3557
쎅쎀ke❄쎯	-10.3558
sheng❃쎯ren❂쎯	-10.3558
mei❃쎯yi❁쎯gan❄쎯	-10.3562
fu❁쎯ren❂쎯	-10.3563
shang❃쎯bu❄쎯	-10.3567
fu❂쎯yuan❂쎯	-10.3568
dao❃쎯dan❄쎯	-10.3568
shu❁쎯yuan❄쎯	-10.3569
you❂쎯ji❁쎯zhan❄쎯	-10.3576
shi❁쎯du❄쎯	-10.358
xiang❁쎯lin❂쎯	-10.3581
chu❁쎯ji❂쎯	-10.3584
si❁쎯kao❃쎯	-10.3584
kou❃쎯jing❄쎯	-10.3587
lang❄쎯man❄쎯	-10.3587
wu❃쎯jin❁쎯	-10.3596
yi❁쎯shi❁쎯,	-10.3597
hen❂쎯	-10.3602
yi❁쎯kuai❄쎯	-10.3603
qiu❁쎯yu❂쎯	-10.3608
,jiu❄쎯shi❄쎯	-10.3609
hu❂쎯jiao❁쎯fen❃쎯	-10.361
dan❁쎯wei❄쎯.	-10.3622
cao❃쎯yuan❂쎯	-10.3623
쎄쎀쎀쎀	-10.3626
쎉-	-10.3626
쎁쎉쎆쎆nian❂쎯	-10.3627
fa❁쎯da❂쎯	-10.3629
na❄쎯she❄쎯	-10.3632
yi❁쎯ceng❂쎯	-10.3642
xiu❁쎯jian❄쎯	-10.3643
jia❁쎯meng❂쎯	-10.3645
xin❁쎯hua❂쎯	-10.3645
chi❁쎯jian❁쎯	-10.3653
zhu❃쎯ji❁쎯	-10.3653
jiao❁쎯hui❄쎯chu❄쎯	-10.3655
bao❃쎯hu❄쎯qu❁쎯	-10.366
sui❂쎯ji❁쎯	-10.3664
ai❄쎯guo❂쎯	-10.3666
mo❂쎯kuai❄쎯	-10.3668
han❄쎯yu❃쎯	-10.367
ke❁쎯pu❃쎯	-10.367
liao❂쎯xiao❄쎯	-10.3675
si❄쎯ji❄쎯	-10.3679
bo❅쎯	-10.368
,nian❂쎯	-10.3687
shi❄쎯cha❁쎯	-10.3688
xiang❁쎯xin❄쎯	-10.369
li❄쎯cheng❂쎯	-10.3692
you❂쎯xi❄쎯zhong❁쎯	-10.3699
tao❃쎯	-10.3702
jie❄쎯mian❄쎯	-10.3703
zui❄쎯chu❁쎯	-10.3708
xiang❁쎯lian❂쎯	-10.3721
yang❁쎯	-10.3721
?”	-10.3723
,ru❂쎯guo❃쎯	-10.3723
chong❂쎯,	-10.3724
.xian❄쎯you❃쎯	-10.3729
ben❄쎯na❄쎯	-10.3733
yi❁쎯zhang❁쎯	-10.3734
“san❁쎯	-10.3739
shi❂쎯jia❁쎯	-10.374
yong❃쎯yuan❃쎯	-10.3753
fen❁쎯xiang❃쎯	-10.3753
min❂쎯xiao❃쎯zu❃쎯	-10.3753
cun❁쎯ren❂쎯.	-10.3753
cha❁쎯wu❄쎯	-10.3759
jin❃쎯mi❄쎯	-10.3759
,ta❁쎯shi❄쎯	-10.376
ai❃쎯	-10.376
yi❁쎯dui❄쎯	-10.376
xi❁쎯la❄쎯	-10.3762
cheng❂쎯ban❄쎯	-10.3762
fa❁쎯zhan❃쎯,	-10.3763
쎉gan❄쎯	-10.3768
wang❃쎯ka❃쎯	-10.3768
ye❃쎯bu❂쎯	-10.3771
xing❄쎯jian❄쎯	-10.3773
yan❂쎯qiu❁쎯	-10.3774
you❃쎯ren❂쎯	-10.3775
shan❁쎯de❅쎯	-10.3775
ze❂쎯shi❄쎯	-10.3777
guan❁쎯nian❄쎯	-10.3778
qi❄쎯cai❂쎯	-10.3781
chan❃쎯pin❃쎯.	-10.3782
→	-10.3786
쎁쎉쎅쎉nian❂쎯	-10.3788
쎁쎀gan❄쎯	-10.379
!”	-10.3791
shu❄쎯kong❄쎯	-10.3795
xiang❃쎯ying❁쎯	-10.3797
쎁쎀ke❄쎯	-10.3799
쎅、	-10.3804
lian❂쎯bang❁쎯	-10.3807
hua❂쎯bei❃쎯	-10.3807
hou❄쎯ren❂쎯	-10.3808
hui❄쎯yuan❂쎯.	-10.3814
bian❁쎯cheng❂쎯	-10.3816
ye❃쎯sheng❁쎯	-10.3816
qiu❂쎯chang❃쎯	-10.3819
shen❂쎯hua❄쎯	-10.382
pei❂쎯yu❄쎯	-10.3823
de❅쎯he❂쎯xin❁쎯	-10.3824
쎁쎉쎇쎇nian❂쎯	-10.3825
”“	-10.3826
miao❂쎯shu❄쎯:	-10.3826
zhe❁쎯	-10.3827
li❃쎯de❅쎯	-10.3828
leng❃쎯que❄쎯	-10.383
zhu❄쎯ru❄쎯	-10.3834
、fu❄쎯	-10.3835
쎁쎃쎀	-10.3837
cai❂쎯fu❄쎯	-10.3845
ban❄쎯jun❁쎯	-10.3849
zhan❃쎯xian❄쎯	-10.3851
li❄쎯zi❃쎯	-10.3851
er❃쎯·	-10.3853
lan❂쎯qiu❂쎯	-10.3853
tan❄쎯tao❃쎯	-10.3854
jiang❄쎯diao❄쎯	-10.3855
.er❂쎯	-10.3857
yi❂쎯biao❃쎯	-10.3859
zhi❂쎯wu❄쎯.	-10.386
.ru❂쎯guo❃쎯	-10.386
bian❄쎯li❄쎯.	-10.386
nong❂쎯du❄쎯	-10.3862
ling❂쎯shou❄쎯	-10.3866
shou❃쎯jia❁쎯	-10.3869
yan❃쎯zou❄쎯	-10.3869
쎁쎉쎅쎇nian❂쎯	-10.3873
zong❃쎯ben❄쎯	-10.3876
zhi❄쎯shang❃쎯	-10.3878
zhi❂쎯fa❃쎯	-10.3878
xuan❃쎯yong❄쎯	-10.3881
쎁쎉쎅쎄nian❂쎯	-10.3883
mi❄쎯qie❁쎯	-10.3884
qi❂쎯shi❂쎯	-10.3885
bu❂쎯zhi❁쎯	-10.3889
쎁쎉쎇쎄nian❂쎯	-10.3892
pu❂쎯sa❄쎯	-10.3893
ke❃쎯xuan❃쎯	-10.3906
cha❁쎯cao❂쎯	-10.3913
jie❃쎯du❂쎯	-10.3913
di❄쎯zi❃쎯	-10.3913
deng❃쎯deng❃쎯	-10.3918
de❅쎯jing❁쎯shen❂쎯	-10.3926
yan❂쎯shen❁쎯	-10.3932
ping❂쎯shen❃쎯	-10.394
shi❄쎯yi❁쎯bu❄쎯	-10.3943
fu❄쎯ke❁쎯	-10.3951
geng❁쎯shi❄쎯	-10.3951
dai❄쎯ma❃쎯	-10.3952
feng❄쎯xian❄쎯	-10.3952
hui❄쎯chang❂쎯wu❄쎯	-10.3954
di❄쎯쎃	-10.3958
dan❄쎯hua❁쎯	-10.3959
ze❃쎯ma❅쎯	-10.396
쎁쎀쎀%	-10.396
“zhong❁쎯guo❂쎯	-10.3963
shan❁쎯po❁쎯	-10.397
sheng❁쎯huo❂쎯de❅쎯	-10.3981
jian❁쎯shui❃쎯	-10.3982
shao❃쎯liang❂쎯	-10.3984
zhang❃쎯cheng❂쎯	-10.3985
yi❁쎯dao❄쎯	-10.3991
쎃)	-10.3995
쎁쎉쎀	-10.4001
ju❄쎯qiu❂쎯	-10.4009
jia❁쎯zhang❃쎯	-10.4009
ke❃쎯kao❄쎯	-10.4013
cheng❂쎯yu❃쎯	-10.4014
shang❃쎯ji❂쎯	-10.4016
sheng❁쎯.	-10.4018
cun❁쎯shu❃쎯yu❂쎯	-10.4019
,te❄쎯bie❂쎯shi❄쎯	-10.402
lai❂쎯shuo❁쎯	-10.4021
xi❁쎯lu❄쎯	-10.4024
(,)	-10.4024
ban❃쎯kuai❄쎯	-10.4026
zhang❁쎯jia❁쎯	-10.4028
ti❂쎯cai❂쎯	-10.4028
chang❄쎯dao❃쎯	-10.4028
san❁쎯guo❂쎯	-10.4031
cun❁쎯peng❂쎯	-10.4031
ou❁쎯mei❃쎯	-10.4031
쎂쎀쎀쎆	-10.4037
na❄쎯mi❃쎯	-10.4046
zhu❃쎯chi❂쎯ren❂쎯	-10.4047
mou❃쎯yi❁쎯	-10.4051
ren❂쎯zhi❂쎯	-10.4051
gao❁쎯kao❃쎯	-10.4051
ri❄쎯ji❁쎯	-10.4055
yu❂쎯lei❄쎯	-10.4056
xia❄쎯you❂쎯	-10.4057
qian❁쎯nian❂쎯	-10.4059
nan❂쎯xing❄쎯	-10.4062
fen❁쎯jiao❄쎯	-10.4063
deng❃쎯ling❃쎯yu❄쎯	-10.407
bu❂쎯guo❄쎯	-10.4073
cha❂쎯xun❂쎯	-10.4073
쎇yue❄쎯can❁쎯jia❁쎯	-10.4074
zhi❁쎯shi❂쎯chan❃쎯	-10.4078
ren❄쎯ke❃쎯	-10.4081
han❂쎯gai❄쎯	-10.4081
xi❄쎯jun❁쎯	-10.4083
.jiu❃쎯dian❄쎯	-10.4084
na❃쎯ma❅쎯	-10.4092
zui❄쎯hao❃쎯de❅쎯	-10.4092
yue❁쎯쎁	-10.4095
chang❂쎯wu❄쎯li❃쎯	-10.4096
fu❄쎯zhu❃쎯ren❂쎯,	-10.4096
쎁쎂쎀쎀	-10.4098
jia❁쎯yi❃쎯	-10.4101
yi❁쎯ji❁쎯	-10.4102
hui❄쎯zhang❃쎯	-10.4103
si❄쎯liao❄쎯	-10.4103
쎂쎄쎀	-10.4107
ji❄쎯shu❂쎯、	-10.4114
shu❃쎯xing❄쎯	-10.4121
bo❂쎯shi❄쎯hou❄쎯	-10.4129
dao❄쎯da❂쎯	-10.413
ren❂쎯qun❂쎯	-10.4135
jiao❄쎯gao❁쎯de❅쎯	-10.4135
luo❂쎯xuan❂쎯	-10.4135
de❅쎯zong❁쎯ge❃쎯	-10.414
쎄)	-10.4141
쎁,	-10.4142
yuan❂쎯lai❂쎯	-10.4142
cheng❂쎯yuan❂쎯、	-10.415
guang❁쎯pan❂쎯	-10.415
、dian❄쎯zi❃쎯	-10.4152
;쎃	-10.4154
qian❂쎯wang❃쎯	-10.4155
wu❃쎯shi❂쎯	-10.4155
zuo❄쎯fa❃쎯	-10.4157
≤	-10.4165
fu❄쎯yu❂쎯	-10.4166
,sui❄쎯	-10.4171
jian❁쎯fa❁쎯、	-10.4174
fang❁쎯zhen❁쎯	-10.4174
qu❁쎯xian❄쎯	-10.4179
yu❃쎯yin❁쎯	-10.4182
diao❄쎯ru❄쎯	-10.4184
shi❄쎯yi❁쎯wei❄쎯	-10.4185
chu❁쎯de❅쎯	-10.4187
,shen❄쎯zhi❄쎯	-10.4187
ming❂쎯jiao❄쎯	-10.4188
sheng❁쎯zhi❂쎯	-10.4189
qi❄쎯、	-10.419
you❁쎯xiu❄쎯de❅쎯	-10.4192
.wei❄쎯le❅쎯	-10.4192
gei❃쎯yu❂쎯	-10.4192
dian❄쎯ying❃쎯《	-10.4193
.yin❁쎯	-10.4195
,zhe❄쎯shi❄쎯	-10.4195
,zhi❁쎯chi❂쎯	-10.4196
shi❄쎯zheng❄쎯	-10.42
li❂쎯mi❃쎯	-10.4201
mo❃쎯	-10.4201
쎈.	-10.421
bei❄쎯yong❄쎯	-10.4214
nan❂쎯lu❄쎯	-10.4217
chu❁쎯shen❁쎯	-10.4221
huo❃쎯ban❄쎯	-10.4221
zhu❄쎯ce❄쎯zi❁쎯	-10.4222
tai❄쎯yuan❂쎯	-10.4222
쎃쎂쎀	-10.4228
mu❃쎯.	-10.4233
zi❄쎯zhi❄쎯xian❄쎯	-10.4235
guan❄쎯che❄쎯	-10.4236
zhou❁쎯ji❁쎯	-10.4237
zhe❄쎯yang❂쎯de❅쎯	-10.424
,shi❄쎯yi❁쎯suo❃쎯	-10.4242
shi❂쎯zi❄쎯	-10.4243
zou❁쎯	-10.4245
dong❁쎯lu❄쎯	-10.4245
jing❁쎯xi❄쎯	-10.4246
jin❁쎯jiang❃쎯	-10.4246
de❅쎯yi❁쎯suo❃쎯	-10.4247
deng❃쎯jiang❃쎯,	-10.4247
si❄쎯shi❂쎯	-10.4252
yi❃쎯qi❂쎯	-10.4254
qu❁쎯zheng❄쎯fu❃쎯	-10.4254
de❅쎯zuo❄쎯pin❃쎯	-10.4255
xue❂쎯jiao❄쎯.	-10.4264
ling❂쎯huo❂쎯	-10.4264
duo❁쎯shao❃쎯	-10.4264
bi❄쎯qiu❁쎯sheng❁쎯	-10.4269
luo❃쎯	-10.4269
ge❃쎯ge❂쎯	-10.4272
qi❃쎯qiu❁쎯de❅쎯	-10.4273
bian❄쎯chong❂쎯	-10.4273
jia❁쎯wan❂쎯	-10.4275
shu❂쎯lun❄쎯wen❂쎯	-10.4279
mao❂쎯dun❄쎯	-10.428
gan❃쎯qing❂쎯	-10.4281
sui❄쎯de❅쎯	-10.429
dong❄쎯yuan❂쎯	-10.4291
ke❁쎯xue❂쎯jia❁쎯	-10.4291
dai❄쎯ling❃쎯	-10.4293
shi❂쎯si❄쎯	-10.4294
bu❃쎯chong❁쎯	-10.4295
xi❁쎯xian❄쎯	-10.4296
jiao❁쎯cha❁쎯	-10.4298
mei❃쎯tian❁쎯	-10.4299
shuo❄쎯shi❄쎯sh	-10.43
ti❂쎯chu❁쎯le❅쎯	-10.4303
nai❃쎯zhi❄쎯	-10.4303
쎁쎉쎅쎃nian❂쎯	-10.4305
○	-10.4306
hui❁쎯huang❂쎯	-10.4308
.쎁쎂	-10.4313
jie❃쎯shi❄쎯:	-10.4313
yi❁쎯shou❃쎯	-10.4317
쎉.	-10.4317
gong❁쎯xiao❄쎯	-10.4319
jiao❁쎯jie❄쎯	-10.4322
shun❄쎯li❄쎯	-10.4324
re❄쎯ai❄쎯	-10.4324
.wo❃쎯们	-10.4326
ni❁쎯	-10.4326
bao❃쎯liu❂쎯	-10.4329
mu❄쎯lu❄쎯	-10.433
tong❂쎯xue❂쎯	-10.433
xi❄쎯shu❄쎯	-10.4331
guo❄쎯du❄쎯	-10.4331
mei❄쎯li❄쎯	-10.4331
zuo❄쎯dao❄쎯	-10.4336
zhu❄쎯zao❄쎯	-10.434
qi❃쎯shi❄쎯	-10.4346
tui❁쎯chu❁쎯de❅쎯	-10.4349
mou❃쎯chong❂쎯	-10.435
쎆)	-10.4351
chong❂쎯chong❂쎯	-10.4352
ga❂쎯	-10.4352
wai❄쎯yu❃쎯	-10.4354
zhi❁쎯lu❄쎯	-10.4356
shi❁쎯,	-10.4357
fu❄쎯bu❄쎯zhang❃쎯	-10.4359
.yi❁쎯ban❁쎯	-10.436
쎁쎉쎇쎃nian❂쎯	-10.4361
jie❂쎯chu❁쎯	-10.4362
le❅쎯“	-10.4365
quan❂쎯qu❁쎯	-10.4366
guan❁쎯guang❁쎯	-10.4366
,nan❂쎯lin❂쎯	-10.4369
ma❅쎯	-10.4369
,er❂쎯shi❄쎯	-10.4371
de❅쎯na❄쎯rong❂쎯	-10.4371
guan❃쎯li❃쎯han❄쎯	-10.4377
li❃쎯lun❄쎯yu❃쎯	-10.4378
pei❄쎯you❃쎯	-10.4379
yun❃쎯xu❃쎯	-10.4385
、bai❂쎯	-10.4385
.쎁쎈	-10.4387
,cai❃쎯yong❄쎯	-10.439
hai❃쎯an❄쎯	-10.4391
sun❃쎯shang❁쎯	-10.4391
쎀hao❂쎯mi❃쎯,kuo❄쎯	-10.4392
guo❂쎯hua❄쎯	-10.4394
che❃쎯cun❄쎯:	-10.4395
yi❄쎯,	-10.4398
rang❄쎯ren❂쎯	-10.4402
zhong❁쎯xiao❃쎯	-10.4402
bu❂쎯dao❄쎯	-10.4407
ji❄쎯shu❂쎯han❄쎯	-10.4408
:zhi❁쎯chi❂쎯	-10.4409
,tong❂쎯shi❂쎯ye❃쎯	-10.441
qi❃쎯qiu❁쎯jia❁쎯	-10.4417
dan❄쎯huang❂쎯	-10.4421
gao❁쎯shan❁쎯	-10.4421
you❂쎯ke❄쎯	-10.4424
li❃쎯mian❄쎯	-10.443
,yuan❂쎯ming❂쎯	-10.4431
qing❁쎯xi❁쎯	-10.4437
zong❃쎯ju❂쎯	-10.4441
wan❂쎯cheng❂쎯le❅쎯	-10.4441
pin❃쎯wei❄쎯	-10.4442
xia❄쎯shu❃쎯	-10.4445
shui❄쎯shou❁쎯	-10.4447
の	-10.4454
shi❄쎯yan❃쎯	-10.4456
xin❁쎯nong❂쎯cun❁쎯	-10.4462
te❄쎯ding❄쎯	-10.4466
(쎁).	-10.4467
hu❄쎯xiang❁쎯	-10.447
li❄쎯.	-10.4474
nan❂쎯hai❃쎯	-10.4476
ben❄쎯xing❂쎯	-10.4483
ben❄쎯chong❂쎯	-10.4496
lian❂쎯hua❁쎯	-10.4498
er❂쎯cheng❂쎯,	-10.45
guai❄쎯shou❄쎯	-10.4502
duan❃쎯pian❁쎯	-10.4502
shui❃쎯,	-10.4503
re❄쎯shui❃쎯	-10.4505
shang❃쎯sheng❁쎯	-10.4505
ding❄쎯zhi❄쎯	-10.4505
а	-10.4506
nong❂쎯chang❃쎯	-10.4506
ze❃쎯yang❂쎯	-10.4508
xin❁쎯xian❁쎯	-10.451
,xue❂쎯jiao❄쎯	-10.4511
,sheng❁쎯yu❂쎯	-10.4511
lian❂쎯sai❄쎯	-10.4512
le❄쎯qi❄쎯	-10.4515
ri❄쎯bao❄쎯	-10.4517
bi❄쎯mi❄쎯	-10.4526
wei❁쎯hai❄쎯	-10.4528
qi❄쎯,	-10.4529
guan❄쎯che❄쎯zhi❂쎯	-10.4534
mian❄쎯shang❃쎯	-10.4537
zhou❁쎯nian❂쎯	-10.4538
di❄쎯ba❁쎯	-10.4538
de❅쎯ji❄쎯shu❂쎯	-10.4542
zuo❄쎯pin❃쎯《	-10.4542
hen❃쎯da❄쎯	-10.4543
wu❄쎯ben❄쎯	-10.4548
she❄쎯bei❄쎯、	-10.4551
ren❂쎯wu❄쎯,	-10.4553
ben❃쎯ke❁쎯xue❂쎯	-10.4554
chu❁쎯chu❄쎯	-10.4555
hu❄쎯,	-10.4557
li❃쎯xiang❃쎯	-10.4558
xiao❁쎯chu❂쎯	-10.4558
mei❂쎯kuang❄쎯	-10.456
lian❂쎯ge❃쎯guo❂쎯	-10.4561
sheng❁쎯jiang❁쎯	-10.4561
ji❁쎯xing❂쎯	-10.4563
mo❄쎯dun❁쎯	-10.4564
jie❂쎯jing❁쎯	-10.4569
.ci❃쎯wai❄쎯,	-10.4571
gu❄쎯ben❄쎯	-10.4571
nv❃쎯hai❂쎯	-10.4574
,gao❁쎯	-10.4577
shi❃쎯shang❃쎯	-10.4578
zhi❁쎯dui❄쎯	-10.4579
su❄쎯gong❁쎯lu❄쎯	-10.4582
bi❄쎯mian❃쎯	-10.4583
dong❁쎯lin❂쎯	-10.4589
han❄쎯fa❁쎯zhan❃쎯	-10.459
fen❁쎯ju❂쎯	-10.4591
zhu❃쎯jiao❁쎯	-10.4592
dan❄쎯sheng❁쎯	-10.4592
deng❃쎯zhi❂쎯	-10.4593
shi❄쎯yi❁쎯	-10.4594
gan❁쎯cao❃쎯	-10.46
qing❁쎯xi❃쎯	-10.4601
cuo❄쎯wu❄쎯	-10.4601
,cheng❂쎯li❄쎯yu❂쎯	-10.4603
quan❂쎯xin❁쎯de❅쎯	-10.4607
shen❁쎯shang❃쎯	-10.4608
chao❁쎯shi❄쎯	-10.4608
yao❃쎯	-10.461
jiang❁쎯xian❄쎯	-10.4613
쎁쎂gan❄쎯	-10.4614
、xi❁쎯	-10.4614
fang❂쎯yu❄쎯	-10.4615
mei❃쎯ci❄쎯	-10.4616
zhong❁쎯nan❂쎯	-10.4617
min❂쎯su❂쎯	-10.4618
zui❄쎯zao❃쎯de❅쎯	-10.4619
guang❁쎯dian❄쎯	-10.4619
μ	-10.4621
li❃쎯pin❃쎯	-10.4621
,zhe❄쎯chong❂쎯	-10.4621
쎂쎀쎀쎃	-10.4625
guo❂쎯jia❁쎯dui❄쎯	-10.4627
zhu❄쎯fang❂쎯	-10.4628
.쎁、	-10.4629
le❅쎯yi❁쎯	-10.4631
kong❃쎯bu❄쎯	-10.4631
chan❃쎯zhi❂쎯	-10.4634
guo❂쎯fang❂쎯	-10.4635
she❄쎯ding❄쎯	-10.4638
shu❁쎯hua❄쎯jia❁쎯	-10.4641
jing❁쎯ben❄쎯	-10.4648
쎂쎄xiao❃쎯shi❂쎯	-10.465
di❄쎯er❄쎯ci❄쎯	-10.4653
fan❃쎯hui❂쎯	-10.4664
hou❄쎯du❄쎯	-10.4669
ン	-10.4669
qiu❁쎯you❃쎯xian❄쎯	-10.4674
jia❁쎯shang❃쎯	-10.4679
qing❁쎯dao❃쎯shi❄쎯	-10.4681
dong❁쎯nan❂쎯bu❄쎯	-10.4681
쎁.쎈	-10.4681
,ju❄쎯chi❁쎯	-10.4681
hun❁쎯yin❁쎯	-10.4685
feng❁쎯shan❁쎯	-10.4687
shi❂쎯qi❁쎯	-10.4693
xue❂쎯yan❂쎯jiu❁쎯	-10.4694
kuang❄쎯chan❃쎯	-10.4695
liao❂쎯fa❃쎯	-10.4696
쎂nian❂쎯	-10.47
wai❄쎯,	-10.4701
shi❂쎯ji❁쎯de❅쎯	-10.4703
nu❃쎯	-10.4705
xing❄쎯,	-10.4706
쎁쎉쎆쎇nian❂쎯	-10.4708
fang❁쎯fa❃쎯.	-10.4714
shou❃쎯fu❃쎯	-10.4715
chong❁쎯dian❄쎯	-10.4723
guan❁쎯yin❁쎯	-10.4724
hu❂쎯luo❂쎯bo❅쎯	-10.4724
zhi❄쎯yao❄쎯	-10.4728
쎁쎅쎀쎀	-10.4729
zhu❃쎯ban❄쎯	-10.4731
dian❃쎯ji❁쎯	-10.4731
ji❂쎯bie❂쎯	-10.4733
:쎄	-10.4735
zu❂쎯zi❄쎯zhi❄쎯	-10.474
sui❄쎯,	-10.4742
shu❁쎯niu❃쎯	-10.4746
jiu❁쎯cuo❄쎯	-10.4748
hui❁쎯se❄쎯	-10.4748
cheng❂쎯yuan❂쎯.	-10.4749
chong❂쎯liang❂쎯:	-10.4749
ping❂쎯xian❄쎯	-10.4754
fan❄쎯wei❂쎯:	-10.4755
qiu❂쎯zhang❃쎯	-10.4758
xi❁쎯sheng❁쎯	-10.4764
xi❁쎯bei❃쎯bu❄쎯	-10.4765
xi❃쎯ai❄쎯	-10.4767
qu❃쎯chu❁쎯	-10.4771
san❁쎯ji❂쎯	-10.4771
qi❃쎯xi❁쎯	-10.4773
,shu❃쎯yu❂쎯shan❁쎯	-10.4773
shi❄쎯wo❃쎯guo❂쎯	-10.4773
zhong❁쎯yuan❂쎯	-10.4775
cheng❁쎯hua❁쎯	-10.4776
shen❃쎯pan❄쎯	-10.4777
bei❃쎯song❄쎯	-10.4777
,xi❁쎯lin❂쎯	-10.4778
zui❄쎯di❁쎯	-10.4784
kao❃쎯he❂쎯	-10.4785
mao❄쎯xian❃쎯	-10.4787
fang❁쎯fa❃쎯,	-10.4788
fan❁쎯chao❃쎯	-10.4788
xue❂쎯shi❄쎯	-10.4791
jiao❁쎯yan❂쎯	-10.4792
fu❂쎯li❄쎯	-10.4793
bian❁쎯zhao❂쎯	-10.4794
zhu❃쎯dong❄쎯	-10.4794
bie❂쎯ren❂쎯	-10.4799
ma❁쎯ma❁쎯	-10.48
ren❂쎯jun❁쎯	-10.4801
yi❁쎯kuan❃쎯	-10.4801
zhi❄쎯leng❃쎯	-10.4806
,ji❁쎯ji❂쎯	-10.4809
,can❁쎯jia❁쎯le❅쎯	-10.4811
쎁.쎆	-10.4812
qian❂쎯lie❄쎯	-10.4813
cheng❂쎯bao❁쎯	-10.4815
de❅쎯ming❂쎯zi❄쎯	-10.4816
huan❂쎯jie❂쎯	-10.4817
fa❁쎯chu❁쎯	-10.4817
zhu❁쎯rou❄쎯	-10.4823
huang❂쎯shan❁쎯	-10.4824
xia❄쎯bu❄쎯	-10.4825
bai❂쎯yun❂쎯	-10.4825
,wei❄쎯le❅쎯	-10.4829
rong❂쎯qi❄쎯	-10.4829
xiao❃쎯chi❁쎯	-10.483
xing❄쎯.	-10.4832
qu❁쎯、	-10.4833
nan❂쎯jing❁쎯shi❄쎯	-10.4836
wu❄쎯chong❂쎯	-10.4838
nian❂쎯ping❂쎯	-10.4839
gao❁쎯yuan❂쎯	-10.4841
geng❁쎯wei❄쎯	-10.4845
jian❄쎯zhu❂쎯wu❄쎯	-10.4846
zhuan❃쎯bian❄쎯	-10.4855
cun❁쎯.	-10.4858
ge❄쎯guo❂쎯	-10.4867
you❃쎯geng❁쎯de❅쎯	-10.4873
fa❂쎯men❂쎯	-10.4882
,dong❁쎯lin❂쎯	-10.4883
쎀.쎈	-10.4883
ji❄쎯·	-10.4884
guan❄쎯chuan❁쎯	-10.4889
ju❄쎯yuan❄쎯	-10.4889
.”song❄쎯	-10.4889
yin❁쎯xiang❁쎯	-10.4906
duo❃쎯jiao❁쎯	-10.4906
lei❄쎯bie❂쎯	-10.4918
biao❃쎯zhang❁쎯	-10.4922
,shi❄쎯zhi❃쎯	-10.4936
.zuo❄쎯wei❄쎯	-10.4938
dong❄쎯mai❄쎯	-10.4938
li❄쎯ji❂쎯	-10.494
dang❁쎯jin❁쎯	-10.4941
gong❄쎯qing❁쎯	-10.4942
i	-10.4944
jia❁쎯su❄쎯	-10.4946
mo❄쎯li❄쎯	-10.4948
kao❃쎯bi❄쎯	-10.4956
fan❂쎯ce❄쎯	-10.4956
쎈)	-10.4956
쎃ke❄쎯	-10.4965
jing❁쎯xuan❃쎯	-10.4966
da❄쎯yu❂쎯	-10.4966
lei❄쎯bie❂쎯:	-10.4967
.xian❁쎯hou❄쎯	-10.4968
she❄쎯bei❄쎯you❃쎯	-10.497
a❂쎯	-10.4977
bo❁쎯lan❂쎯	-10.4978
an❁쎯fan❄쎯de❅쎯	-10.4984
se❄쎯ze❂쎯	-10.4985
hua❂쎯qiao❂쎯	-10.4985
fa❁쎯jue❂쎯	-10.4985
zong❁쎯zhi❃쎯	-10.4988
.yong❄쎯yu❂쎯	-10.4989
❁쎯cao❃쎯ben❃쎯	-10.4992
zhu❃쎯yao❁쎯you❃쎯	-10.4992
shui❃쎯chan❃쎯	-10.4993
ri❄쎯jun❁쎯	-10.4999
shi❂쎯ben❄쎯	-10.5
쎂hao❂쎯	-10.5001
ju❄쎯da❄쎯	-10.5001
qi❁쎯nian❂쎯	-10.5001
ke❄쎯si❁쎯	-10.5004
quan❂쎯shu❁쎯	-10.5008
.quan❂쎯cun❁쎯	-10.5009
,gen❁쎯ju❁쎯	-10.5013
cheng❂쎯li❄쎯le❅쎯	-10.5014
쎁쎉쎃쎅nian❂쎯	-10.5016
쎁쎉쎇쎁nian❂쎯	-10.5017
rui❄쎯shi❄쎯	-10.5018
쎁쎉쎄쎅nian❂쎯	-10.5019
jiao❁쎯yu❄쎯ting❁쎯	-10.5022
쎅～	-10.5022
zhong❁쎯duan❁쎯	-10.5025
hou❄쎯bei❄쎯	-10.5028
guang❁쎯gu❃쎯	-10.5031
zhong❁쎯yu❂쎯	-10.5033
tian❁쎯qi❃쎯	-10.5033
zhi❃쎯de❅쎯shi❄쎯	-10.5034
zhi❁쎯ma❂쎯	-10.5039
zhu❃쎯ren❂쎯gong❁쎯	-10.504
nan❂쎯song❄쎯	-10.5041
,shen❁쎯shou❄쎯	-10.5044
wu❄쎯li❃쎯xue❂쎯	-10.5046
quan❂쎯shen❁쎯	-10.5046
jie❃쎯jue❂쎯fang❁쎯	-10.5051
jian❄쎯,	-10.5052
fa❁쎯biao❃쎯lun❄쎯w	-10.5053
pu❁쎯	-10.5054
쎀쎀쎀쎀	-10.5056
shen❂쎯bi❄쎯	-10.5057
ren❂쎯kou❃쎯쎂	-10.506
shui❄쎯wu❄쎯ju❂쎯	-10.5063
nu❂쎯	-10.5063
ben❃쎯zhao❁쎯	-10.5063
yuan❂쎯nian❂쎯	-10.5066
qi❂쎯quan❂쎯,	-10.5067
,hou❄쎯lai❂쎯	-10.5072
gan❁쎯shi❄쎯	-10.5073
jing❁쎯cai❃쎯	-10.5074
xi❁쎯nan❂쎯bu❄쎯	-10.5076
fen❁쎯zi❃쎯liang❂쎯	-10.5077
yi❁쎯ri❄쎯	-10.5078
ben❃쎯gong❁쎯si❁쎯	-10.5078
chu❁쎯xie❃쎯	-10.5082
xian❄쎯cun❂쎯	-10.5082
jia❁쎯xiang❁쎯	-10.5084
》,《	-10.5086
chuan❂쎯cheng❂쎯	-10.5087
shi❄쎯wei❄쎯le❅쎯	-10.509
chan❃쎯qiu❁쎯hua❁쎯	-10.509
li❄쎯zu❂쎯	-10.5094
.xian❄쎯zai❄쎯	-10.5094
ba❁쎯nian❂쎯	-10.5096
yi❂쎯min❂쎯	-10.5097
tong❂쎯shi❂쎯ye❃쎯	-10.5101
wen❂쎯,	-10.5101
kang❄쎯ri❄쎯zhan❄쎯	-10.5102
nan❂쎯yi❃쎯	-10.5115
wen❂쎯hua❁쎯de❅쎯	-10.5116
tu❂쎯jing❄쎯	-10.5117
tie❃쎯lu❄쎯ju❂쎯	-10.5127
na❄쎯you❃쎯	-10.5127
dao❃쎯shi❁쎯	-10.5127
,shi❄쎯yi❁쎯gan❄쎯	-10.513
xian❁쎯hou❄쎯ren❂쎯	-10.5132
zhi❁쎯xiang❁쎯	-10.5134
ying❂쎯de❂쎯	-10.5136
de❅쎯shi❂쎯hou❄쎯,	-10.5139
zhen❁쎯kong❁쎯	-10.5139
쎁쎉쎅쎂nian❂쎯	-10.514
qian❂쎯yan❂쎯	-10.514
shao❃쎯jiang❁쎯	-10.5141
dai❄쎯ti❄쎯	-10.5141
fan❂쎯zhi❂쎯	-10.5143
chu❁쎯yan❃쎯	-10.5147
sui❄쎯dao❄쎯	-10.5148
xiang❄쎯shang❃쎯	-10.5151
fang❁쎯xing❂쎯	-10.5157
wu❂쎯shu❄쎯	-10.5163
yu❂쎯shi❄쎯	-10.5164
dian❃쎯ya❃쎯	-10.5164
zui❄쎯duo❁쎯	-10.5167
zhong❁쎯xin❁쎯.	-10.5167
dian❄쎯ci❂쎯	-10.5171
-쎀쎁	-10.5172
,zhi❄쎯li❄쎯yu❂쎯	-10.5174
yi❁쎯ben❃쎯	-10.5179
zui❄쎯hao❃쎯	-10.518
,tong❁쎯chang❂쎯	-10.5181
mu❄쎯zhi❄쎯	-10.5183
fu❄쎯zhu❃쎯ren❂쎯.	-10.5187
,yin❁쎯er❂쎯	-10.5191
la❁쎯si❁쎯	-10.5192
wai❄쎯bu❄쎯	-10.5196
cai❂쎯chan❃쎯	-10.5197
you❂쎯yong❃쎯	-10.52
ming❂쎯chao❂쎯	-10.5204
ji❂쎯zhi❂쎯cheng❁쎯	-10.5208
쎁쎉쎆쎁nian❂쎯	-10.5209
nan❂쎯ren❂쎯	-10.5211
rui❄쎯dian❃쎯	-10.5211
peng❂쎯cun❁쎯	-10.5213
gan❃쎯dao❄쎯	-10.5215
쎂,	-10.5217
zhen❄쎯wei❄쎯yu❂쎯	-10.522
ji❁쎯jin❁쎯hui❄쎯	-10.5224
xin❁쎯shang❃쎯	-10.5226
huan❂쎯rao❄쎯	-10.523
zong❃쎯gong❁쎯	-10.523
쎁쎄쎀	-10.5231
fen❁쎯jie❃쎯	-10.5232
liu❂쎯yu❄쎯	-10.5233
ding❄쎯dian❃쎯	-10.5236
chao❂쎯yang❂쎯	-10.5238
deng❃쎯duo❁쎯	-10.5239
you❃쎯hao❃쎯	-10.5244
te❄쎯bie❂쎯shi❄쎯	-10.5244
qing❂쎯jie❂쎯	-10.5245
shang❁쎯cheng❂쎯	-10.5251
shan❁쎯shi❄쎯	-10.5253
gao❁쎯qing❁쎯	-10.5256
tan❃쎯ke❄쎯	-10.5257
si❁쎯lu❄쎯	-10.5258
jiang❄쎯da❄쎯	-10.5259
heng❁쎯	-10.5261
zuo❄쎯qu❁쎯	-10.5265
yi❁쎯kao❄쎯	-10.527
zhao❁쎯pin❄쎯	-10.5273
、huang❂쎯	-10.5276
fen❁쎯bian❄쎯lv❄쎯:	-10.5278
쎁쎀쎀ke❄쎯	-10.5278
bie❂쎯ming❂쎯:	-10.528
bo❁쎯chu❁쎯	-10.5284
쎁쎉쎅쎀nian❂쎯	-10.5286
xi❃쎯ju❄쎯	-10.5286
liu❂쎯shui❃쎯	-10.5287
ju❄쎯da❄쎯de❅쎯	-10.529
da❄쎯chen❂쎯	-10.5291
huang❃쎯	-10.5292
bai❃쎯yu❂쎯	-10.5292
mu❃쎯,	-10.5293
gong❁쎯neng❂쎯:	-10.5294
gao❁쎯su❄쎯gong❁쎯	-10.5295
xian❁쎯jin❄쎯gan❄쎯	-10.5295
zhi❁쎯jian❁쎯,	-10.5296
fan❃쎯dui❄쎯	-10.5298
de❅쎯te❄쎯dian❃쎯	-10.5298
nin❂쎯de❅쎯	-10.5299
bei❃쎯lu❄쎯	-10.53
zi❄쎯hang❂쎯	-10.53
wu❄쎯zi❁쎯	-10.5302
hu❄쎯wai❄쎯	-10.5302
di❄쎯san❁쎯jie❄쎯	-10.5304
、shui❃쎯	-10.5305
you❂쎯ci❃쎯	-10.5306
gong❁쎯lv❄쎯:	-10.5306
yuan❂쎯wei❄쎯	-10.5307
dan❄쎯xing❄쎯	-10.5309
yan❃쎯jing❁쎯	-10.5309
xiao❁쎯shi❁쎯	-10.5309
hai❃쎯na❄쎯wai❄쎯	-10.531
quan❂쎯shi❄쎯jie❄쎯	-10.532
shuo❄쎯shi❄쎯y	-10.5335
shi❂쎯ji❄쎯shang❃쎯	-10.5336
jin❄쎯shi❄쎯	-10.5336
shu❂쎯yu❃쎯	-10.5343
dao❃쎯yu❃쎯	-10.5344
ren❂쎯da❄쎯	-10.5344
쎁쎉쎃쎄nian❂쎯	-10.5347
wei❁쎯sheng❁쎯wu❄쎯	-10.5355
mu❄쎯cai❂쎯	-10.5356
wai❄쎯guo❂쎯yu❃쎯	-10.5356
kong❃쎯zi❃쎯	-10.5357
da❄쎯men❂쎯	-10.5359
ke❃쎯fen❁쎯wei❄쎯	-10.536
pin❄쎯	-10.5363
.gen❁쎯ju❁쎯	-10.5365
wang❂쎯zi❃쎯	-10.5372
쎃쎆쎀	-10.5377
qing❁쎯ji❂쎯	-10.538
san❁쎯xing❁쎯	-10.5386
,zhu❄쎯ce❄쎯zi❁쎯	-10.5391
zheng❄쎯fu❃쎯fu❄쎯	-10.5391
xin❁쎯ying❃쎯	-10.5394
.wei❄쎯yu❂쎯	-10.5395
can❄쎯	-10.5395
zhi❁쎯zhong❁쎯	-10.5403
쎂쎀쎀쎄	-10.5405
xiao❃쎯yu❂쎯	-10.5406
,shi❂쎯xian❄쎯	-10.5407
쎁쎉쎅쎁nian❂쎯	-10.5407
deng❁쎯lu❄쎯	-10.5408
zhi❁쎯yuan❂쎯	-10.5412
li❄쎯run❄쎯	-10.5415
ji❄쎯、	-10.5415
shan❁쎯、	-10.5418
zhao❂쎯you❃쎯	-10.5418
dong❁쎯bei❃쎯bu❄쎯	-10.5419
pan❄쎯duan❄쎯	-10.5422
shi❃쎯de❂쎯	-10.5426
sheng❃쎯shi❄쎯	-10.5426
ben❃쎯dou❃쎯	-10.5429
shui❃쎯jing❁쎯	-10.543
zeng❁쎯zhi❂쎯	-10.5432
ran❂쎯shao❁쎯	-10.5433
....	-10.5435
deng❃쎯deng❃쎯.	-10.5438
ding❃쎯ji❂쎯	-10.5441
쎆nian❂쎯	-10.5444
jun❄쎯gong❁쎯	-10.5446
nian❂쎯chan❃쎯	-10.5447
zong❃쎯li❃쎯	-10.545
xin❁쎯chan❃쎯pin❃쎯	-10.5451
de❅쎯yao❁쎯qiu❂쎯	-10.5451
mian❄쎯ji❁쎯쎇	-10.5451
zhi❁쎯xian❄쎯	-10.5453
chou❄쎯	-10.5454
dan❁쎯wei❄쎯,	-10.5456
kuang❄쎯shan❁쎯	-10.5458
zhen❁쎯zhu❁쎯	-10.5462
shi❄쎯yong❄쎯	-10.5472
fang❂쎯shui❃쎯	-10.5474
wai❄쎯mao❄쎯	-10.5474
ben❄쎯zhang❃쎯	-10.5475
che❄쎯de❅쎯	-10.5483
chao❂쎯liu❂쎯	-10.549
zuo❄쎯yong❄쎯,	-10.5491
、dang❃쎯zu❃쎯	-10.5492
er❄쎯ci❄쎯	-10.5496
xue❂쎯yuan❄쎯fu❄쎯	-10.5497
jiao❁쎯shi❁쎯,	-10.5502
nan❂쎯yang❂쎯	-10.5504
shi❂쎯dai❄쎯de❅쎯	-10.5504
liu❄쎯shi❂쎯	-10.5505
쎂쎀nian❂쎯	-10.5507
rong❂쎯ye❄쎯	-10.5513
guan❄쎯mu❄쎯	-10.5516
zhu❃쎯liu❂쎯	-10.5517
shi❄쎯fang❄쎯	-10.552
c	-10.5522
hen❃쎯hao❃쎯de❅쎯	-10.5523
,bian❄쎯	-10.5524
(huo❄쎯	-10.5524
hua❁쎯ge❃쎯wu❄쎯	-10.5529
wen❄쎯ti❂쎯,	-10.553
la❄쎯shi❂쎯	-10.5533
de❅쎯bian❄쎯hua❁쎯	-10.5533
.mu❄쎯qian❂쎯,	-10.5535
쎈쎀nian❂쎯dai❄쎯	-10.5535
《zhong❁쎯hua❂쎯	-10.5538
shang❁쎯hui❄쎯	-10.5539
ju❃쎯ban❄쎯de❅쎯	-10.5539
jing❁쎯shen❂쎯,	-10.5542
tui❄쎯xiu❁쎯	-10.5546
,you❄쎯ming❂쎯	-10.5551
reng❂쎯ran❂쎯	-10.5551
,nai❃쎯	-10.5552
deng❃쎯)	-10.5553
yi❃쎯shang❃쎯de❅쎯	-10.5554
ke❃쎯yong❄쎯	-10.556
de❂쎯yi❃쎯	-10.5562
chu❁쎯ren❂쎯	-10.5566
shan❁쎯zhen❄쎯	-10.5566
beng❁쎯	-10.5567
nv❃쎯er❂쎯	-10.5568
xiang❃쎯xiang❄쎯	-10.5569
guan❁쎯yuan❂쎯	-10.557
bu❂쎯yong❄쎯	-10.5577
bu❄쎯,	-10.5579
min❂쎯fa❃쎯yuan❄쎯	-10.558
gui❁쎯zhang❁쎯	-10.5584
chu❁쎯sheng❁쎯de❅쎯	-10.5587
,jie❁쎯	-10.5587
you❁쎯mei❃쎯,	-10.5588
shi❄쎯ri❄쎯ben❃쎯	-10.5591
tang❂쎯、	-10.5592
yong❄쎯zuo❄쎯	-10.5592
쎀～	-10.5594
,si❄쎯chuan❁쎯	-10.5597
de❅쎯she❄쎯hui❄쎯	-10.5599
zu❃쎯guo❂쎯	-10.5601
jin❄쎯gong❁쎯	-10.5604
lv❄쎯xian❁쎯	-10.5609
ke❁쎯shi❄쎯	-10.5609
hui❄쎯zhan❃쎯	-10.5612
zhuan❁쎯zhi❂쎯	-10.5612
jiao❄쎯da❄쎯de❅쎯	-10.5614
zhi❁쎯bu❄쎯	-10.5625
mian❄쎯ji❁쎯쎈	-10.5626
shang❁쎯chang❃쎯	-10.5629
qing❁쎯·	-10.5639
chan❃쎯yu❂쎯	-10.564
쎆쎀쎀쎀	-10.564
----	-10.5643
na❄쎯,	-10.5643
jian❁쎯chi❂쎯yi❃쎯	-10.5644
qian❁쎯ke❄쎯	-10.5645
쎁/쎂	-10.5647
er❂쎯zi❃쎯	-10.5648
bian❄쎯jie❂쎯	-10.565
,quan❂쎯cun❁쎯	-10.5651
hu❄쎯xing❂쎯	-10.5652
ping❂쎯ding❄쎯	-10.5652
gong❁쎯qing❃쎯	-10.5652
dan❁쎯qu❁쎯	-10.5653
ca❁쎯	-10.5656
fa❁쎯zhan❃쎯you❃쎯	-10.5659
,zuo❄쎯wei❄쎯	-10.566
,yan❂쎯	-10.566
jing❁쎯yan❄쎯.	-10.5661
jian❁쎯fa❁쎯you❃쎯	-10.5661
zhuan❄쎯ke❄쎯	-10.5666
da❄쎯duo❁쎯	-10.5678
shi❄쎯guo❂쎯na❄쎯	-10.5679
zong❃쎯shi❄쎯	-10.568
쎁ren❂쎯,	-10.568
-쎀	-10.5683
yao❁쎯su❄쎯	-10.5685
gu❃쎯li❄쎯	-10.5687
、qing❁쎯	-10.5688
xia❄쎯lai❂쎯	-10.5688
fu❄쎯jian❄쎯	-10.5691
chuan❁쎯xian❄쎯	-10.5691
쎁쎀%	-10.5694
shan❁쎯lu❄쎯	-10.5696
(쎂	-10.5699
쎁쎆쎀쎀	-10.5701
bian❄쎯bu❄쎯	-10.5704
hao❃쎯,	-10.5704
쎅°C	-10.5704
qi❂쎯shi❄쎯	-10.5712
mei❂쎯gui❁쎯	-10.5714
》juan❃쎯	-10.5714
zong❃쎯shu❄쎯	-10.5717
xia❄쎯jiang❄쎯	-10.5718
쎁쎈쎆	-10.5718
kong❁쎯zhong❁쎯	-10.5721
zhu❃쎯zhang❁쎯	-10.5723
te❄쎯se❄쎯de❅쎯	-10.5724
ren❂쎯jian❁쎯	-10.5726
guan❁쎯xi❄쎯.	-10.5727
ping❂쎯mi❃쎯	-10.5728
ji❂쎯ke❁쎯yan❂쎯	-10.5733
quan❂쎯zhen❄쎯	-10.5734
gui❄쎯lin❂쎯	-10.5734
ji❁쎯chuang❂쎯	-10.5736
kou❃쎯fu❂쎯	-10.5737
mei❃쎯yi❁쎯	-10.5738
wen❄쎯ti❂쎯de❅쎯	-10.574
shang❃쎯shu❄쎯	-10.5746
de❅쎯guan❁쎯xi❄쎯	-10.5748
ren❂쎯da❄쎯chang❂쎯	-10.5749
쎅쎁쎂	-10.5753
tong❂쎯yi❁쎯	-10.5754
yu❄쎯suan❄쎯	-10.5756
xue❂쎯bao❄쎯	-10.5758
hai❃쎯shang❃쎯	-10.5767
chong❂쎯.	-10.5774
gong❁쎯wei❁쎯	-10.5775
sui❄쎯shi❂쎯	-10.578
shi❄쎯xue❂쎯wei❄쎯	-10.5781
kao❃쎯gu❃쎯	-10.5783
da❂쎯ji❁쎯	-10.5783
ceng❂쎯duo❁쎯ci❄쎯	-10.5783
huo❄쎯qu❃쎯	-10.579
,zhi❃쎯	-10.5792
쎁쎂쎅	-10.5793
yan❂쎯jiu❁쎯han❄쎯	-10.5794
shi❄쎯jing❁쎯	-10.5795
dai❄쎯zhao❁쎯	-10.5796
wang❃쎯shi❄쎯	-10.5797
pi	-10.5799
(gong❁쎯yuan❂쎯	-10.58
wei❄쎯sheng❁쎯bu❄쎯	-10.5801
ke❄쎯yun❃쎯	-10.5803
cun❂쎯zai❄쎯de❅쎯	-10.5805
cheng❂쎯ming❂쎯	-10.581
quan❂쎯mian❄쎯de❅쎯	-10.5814
di❄쎯yi❁쎯jie❄쎯	-10.5815
huang❂쎯hou❄쎯	-10.5817
yuan❄쎯zhang❃쎯,	-10.5817
,gong❄쎯you❃쎯	-10.582
ji❁쎯lei❃쎯	-10.5821
li❃쎯dian❄쎯chi❂쎯	-10.5823
lao❄쎯	-10.5824
wai❄쎯jiao❁쎯	-10.5824
tu❃쎯dou❄쎯	-10.5826
쎁쎈쎅	-10.5829
)(	-10.583
zhi❂쎯dao❄쎯	-10.583
qian❁쎯mi❃쎯	-10.5833
qian❁쎯yue❁쎯	-10.5835
(bao❁쎯gua❁쎯	-10.5836
gan❁쎯jun❁쎯	-10.5837
쎄쎈쎀	-10.5839
bao❃쎯an❁쎯	-10.5839
qiu❁쎯ling❂쎯	-10.5839
kuang❁쎯jia❄쎯	-10.5845
zhai❃쎯	-10.5845
wei❂쎯chi❂쎯	-10.5845
gui❄쎯zu❂쎯	-10.5846
jia❁쎯jing❄쎯	-10.5847
liang❃쎯da❄쎯	-10.5847
ming❂쎯xian❃쎯de❅쎯	-10.585
yi❁쎯bai❃쎯	-10.5852
zhu❃쎯yao❁쎯yi❃쎯	-10.5853
cheng❂쎯wei❄쎯le❅쎯	-10.5854
xue❂쎯shuo❄쎯shi❄쎯	-10.5854
wu❄쎯shi❂쎯	-10.5855
shuo❁쎯,	-10.5855
xiong❂쎯hou❄쎯de❅쎯	-10.5858
que❄쎯bao❃쎯	-10.5861
qu❁쎯na❄쎯	-10.5862
쎁.쎄	-10.5862
ke❄쎯tang❂쎯	-10.5866
mu❃쎯dan❁쎯	-10.5868
shi❂쎯qiu❁쎯	-10.587
qi❁쎯zi❃쎯	-10.587
shai❁쎯	-10.5873
yi❁쎯xian❄쎯	-10.5873
,bei❃쎯lin❂쎯	-10.5883
ji❄쎯nan❂쎯shi❄쎯	-10.5885
ming❂쎯qing❁쎯	-10.5885
xi❁쎯lin❂쎯	-10.5887
que❁쎯fa❂쎯	-10.5887
jian❃쎯ji❂쎯	-10.5887
gong❁쎯shi❄쎯	-10.5888
shi❄쎯yi❁쎯ben❃쎯	-10.5893
fu❄쎯jia❁쎯	-10.5894
quan❂쎯cheng❂쎯	-10.5898
fa❁쎯jiao❄쎯	-10.5901
can❃쎯	-10.5902
zong❄쎯guang❁쎯	-10.5902
duan❃쎯xin❄쎯	-10.5902
hua❂쎯nan❂쎯	-10.5905
о	-10.5907
ben❃쎯shu❁쎯shi❄쎯	-10.5909
shu❁쎯xie❃쎯	-10.591
mei❃쎯ri❄쎯	-10.591
chang❂쎯zhu❄쎯	-10.5911
san❁쎯wei❂쎯	-10.5912
da❁쎯pei❄쎯	-10.5913
shi❂쎯jiu❃쎯	-10.5915
de❅쎯li❃쎯lun❄쎯	-10.5915
jiao❁쎯dao❃쎯	-10.5918
yi❄쎯wai❄쎯	-10.5919
huo❂쎯dong❄쎯de❅쎯	-10.5919
zhu❃쎯dao❃쎯	-10.592
zhi❁쎯shi❂쎯,	-10.5921
cheng❂쎯shi❁쎯.	-10.5922
tou❂쎯bu❄쎯	-10.5924
.쎀쎇	-10.5926
yan❂쎯jiu❁쎯》	-10.5927
guo❁쎯lu❂쎯	-10.5932
mei❃쎯xue❂쎯	-10.5933
jie❂쎯hun❁쎯	-10.5935
shi❂쎯hou❄쎯	-10.5937
tong❂쎯ming❂쎯	-10.5937
ning❂쎯bo❁쎯shi❄쎯	-10.5939
ai❄쎯hao❃쎯	-10.594
hui❄쎯li❃쎯shi❄쎯,	-10.5943
xuan❃쎯ju❃쎯	-10.5945
jiao❁쎯xue❂쎯lou❂쎯	-10.5947
❁쎯li❃쎯,hai❃쎯ba❂쎯	-10.5948
、xiao❁쎯shou❄쎯	-10.5951
fen❃쎯mo❄쎯	-10.5956
pei❄쎯fang❁쎯	-10.5958
jia❁쎯ren❂쎯	-10.5958
mei❃쎯hao❃쎯	-10.596
ci❂쎯hui❄쎯	-10.596
yu❂쎯ci❃쎯	-10.5961
zhong❁쎯zui❄쎯	-10.5964
hai❃쎯guan❁쎯	-10.5964
ping❂쎯an❁쎯	-10.5965
di❁쎯wen❁쎯	-10.5967
wen❂쎯shu❁쎯	-10.5969
cheng❂쎯li❄쎯,	-10.597
yi❁쎯tian❁쎯	-10.597
ba❃쎯wo❄쎯	-10.597
de❅쎯dai❄쎯	-10.5971
min❂쎯ban❄쎯	-10.5976
cong❂쎯xiao❃쎯	-10.5976
dian❄쎯、	-10.5976
xing❂쎯qi❃쎯qiu❁쎯	-10.5985
-쎁쎀	-10.5987
fu❄쎯dan❄쎯	-10.5987
she❄쎯bei❄쎯de❅쎯	-10.5988
qu❄쎯pi❂쎯	-10.5988
◎	-10.599
shi❄쎯jie❄쎯ge❄쎯	-10.599
zong❃쎯tou❂쎯zi❁쎯	-10.5994
zhang❃쎯;	-10.5994
fu❂쎯wu❄쎯、	-10.5997
la❁쎯ji❁쎯	-10.5997
.fen❁쎯bu❄쎯yu❂쎯	-10.5999
she❄쎯li❄쎯de❅쎯	-10.6
gen❁쎯ju❁쎯de❅쎯	-10.6002
miao❂쎯xie❃쎯	-10.6002
bian❁쎯hao❂쎯	-10.6003
liang❃쎯mian❄쎯	-10.6003
xin❁쎯sheng❁쎯	-10.6013
guan❄쎯gai❄쎯	-10.6014
bi❁쎯	-10.6018
qin❄쎯	-10.602
de❅쎯yi❁쎯kuan❃쎯	-10.6023
”;	-10.6025
tiao❂쎯li❄쎯	-10.6025
cai❃쎯ji❂쎯	-10.6025
li❃쎯wei❄쎯zhi❄쎯	-10.6026
qi❃쎯dian❃쎯	-10.6029
shou❃쎯ce❄쎯	-10.6029
fang❂쎯chan❃쎯	-10.603
wo❃쎯shi❄쎯	-10.6036
jie❁쎯tou❂쎯	-10.6038
ying❂쎯de❂쎯le❅쎯	-10.6038
zhong❁쎯shu❁쎯	-10.6039
guang❁쎯ce❄쎯	-10.604
shi❁쎯bai❄쎯	-10.6042
quan❂쎯fang❁쎯	-10.6044
qu❁쎯ren❂쎯min❂쎯	-10.6047
chang❂쎯gui❁쎯	-10.6049
su❂쎯cheng❁쎯	-10.6059
yu❂쎯yun❂쎯nan❂쎯	-10.6059
bing❁쎯zai❄쎯	-10.6061
fa❁쎯sheng❁쎯de❅쎯	-10.6061
yuan❂쎯yu❂쎯	-10.6065
쎇)	-10.6066
ceng❂쎯wei❄쎯	-10.6068
쎁쎉쎃쎃nian❂쎯	-10.6068
shen❄쎯tou❄쎯	-10.6072
ji❁쎯hui❄쎯	-10.6073
.tong❂쎯nian❂쎯	-10.6073
xue❂쎯sheng❁쎯de❅쎯	-10.6073
shui❃쎯xian❄쎯	-10.6074
qiu❁쎯jie❄쎯	-10.6075
shu❁쎯hua❄쎯yuan❄쎯	-10.6075
ji❁쎯jing❁쎯	-10.6076
qi❂쎯quan❂쎯	-10.6077
bei❁쎯mian❄쎯	-10.6077
mo❂쎯shi❄쎯,	-10.6077
jie❄쎯zhi❂쎯.	-10.6078
wei❄쎯ji❁쎯chu❃쎯	-10.6079
chang❂쎯chang❂쎯	-10.6083
yi❁쎯fen❄쎯	-10.6089
gao❁쎯su❄쎯zhi❄쎯	-10.6089
.zhe❄쎯xie❁쎯	-10.6089
쎁쎇쎀	-10.6092
ci❂쎯dian❃쎯	-10.6093
xi❁쎯ce❄쎯	-10.6098
yi❁쎯lei❄쎯	-10.6101
bian❁쎯hao❂쎯:	-10.6102
yi❁쎯shi❂쎯	-10.6108
te❄쎯yue❁쎯	-10.6108
gong❁쎯yin❂쎯	-10.6109
de❅쎯tong❂쎯shi❂쎯,	-10.6113
tu❃쎯mu❄쎯	-10.6115
mo❄쎯xi❁쎯ge❁쎯	-10.6116
ren❂쎯qi❃쎯	-10.612
shan❁쎯hu❂쎯	-10.612
lan❂쎯ya❂쎯	-10.6126
ke❃쎯yong❄쎯yu❂쎯	-10.6129
wei❄쎯yi❁쎯	-10.6129
jian❄쎯jiao❄쎯	-10.613
gong❁쎯li❄쎯	-10.6132
cha❁쎯yi❂쎯	-10.6133
dang❃쎯zong❃쎯	-10.6134
men❂쎯hu❄쎯	-10.6142
.min❂쎯guo❂쎯	-10.6142
hong❂쎯yang❂쎯	-10.6144
gong❁쎯zuo❄쎯shi❄쎯	-10.6145
yu❃쎯qi❂쎯ta❁쎯	-10.6145
tian❁쎯shi❃쎯	-10.6146
fu❂쎯wu❄쎯yu❂쎯	-10.6146
shi❁쎯qu❄쎯	-10.6153
ju❂쎯zhang❃쎯	-10.6155
rou❄쎯zhi❄쎯	-10.6155
shu❄쎯bai❃쎯	-10.6158
fan❃쎯she❄쎯	-10.6158
ji❂쎯bing❄쎯de❅쎯	-10.6158
she❄쎯ji❄쎯de❅쎯	-10.6159
jin❄쎯bu❄쎯er❄쎯	-10.6161
zong❁쎯se❄쎯	-10.6163
yin❃쎯liao❄쎯	-10.617
xi❄쎯tong❃쎯,	-10.6172
yong❄쎯shui❃쎯	-10.6176
fen❁쎯lie❄쎯	-10.6177
.쎂쎀쎀쎈nian❂쎯	-10.6177
jiao❁쎯nang❂쎯	-10.618
lin❂쎯shi❂쎯	-10.6183
.tong❂쎯shi❂쎯	-10.6184
shui❃쎯mian❄쎯	-10.6184
zi❃쎯、	-10.6185
shi❄쎯xue❂쎯wei❄쎯,	-10.6185
tou❂쎯zi❁쎯zhe❃쎯	-10.6186
zhang❃쎯da❂쎯	-10.6187
kan❁쎯wu❄쎯shang❃쎯	-10.6189
,zhe❄쎯xie❁쎯	-10.6194
guo❂쎯chan❃쎯	-10.6196
zhan❄쎯,	-10.6196
gao❁쎯xin❁쎯	-10.6196
shu❁쎯,	-10.6199
ji❄쎯shi❄쎯	-10.6199
bao❄쎯zha❂쎯	-10.6199
xian❄쎯ren❂쎯.	-10.62
qi❂쎯jian❁쎯	-10.6201
,xiang❄쎯	-10.6203
ben❃쎯ke❁쎯sheng❁쎯	-10.6205
zhe❄쎯bu❄쎯	-10.6208
fou❃쎯	-10.6208
,zhe❄쎯jiang❁쎯	-10.6209
yang❂쎯chuang❁쎯	-10.621
dong❁쎯ce❄쎯	-10.6211
wan❂쎯ju❄쎯	-10.6215
и	-10.6218
,bei❃쎯	-10.6219
hei❁쎯bai❂쎯	-10.6219
zhi❁쎯chu❁쎯	-10.622
he❂쎯tao❂쎯	-10.6221
zong❃쎯jian❁쎯	-10.6226
shu❁쎯》	-10.6228
mei❃쎯guan❁쎯	-10.623
jin❁쎯ri❄쎯	-10.623
쎁쎉쎄쎈nian❂쎯	-10.6232
쎉쎀%	-10.6234
shao❄쎯jian❁쎯	-10.6235
jia❃쎯ji❁쎯	-10.6238
zhuo❂쎯yue❄쎯	-10.6239
(쎁	-10.6241
,xian❄쎯yi❃쎯	-10.6243
ji❂쎯yi❃쎯shang❃쎯	-10.6244
wa❁쎯jue❂쎯	-10.6248
ji❁쎯ben❄쎯	-10.625
bu❂쎯yi❂쎯	-10.6251
suo❁쎯xie❃쎯	-10.6257
쎃쎅쎀	-10.6261
yin❃쎯cang❂쎯	-10.6263
wei❄쎯qi❂쎯	-10.6263
jian❃쎯dan❁쎯de❅쎯	-10.6263
,yao❁쎯	-10.6266
ke❁쎯zhu❃쎯ren❂쎯	-10.6272
zhuan❁쎯xiang❄쎯	-10.6273
쎁쎉쎃쎀nian❂쎯	-10.6275
tai❄쎯du❄쎯	-10.6275
,fen❁쎯bie❂쎯	-10.6276
han❄쎯zi❄쎯	-10.6279
ren❂쎯yi❄쎯	-10.6281
dai❄쎯xie❄쎯	-10.6283
li❃쎯yi❂쎯	-10.6285
dang❃쎯zu❃쎯zhi❁쎯	-10.6286
jiao❄쎯gao❁쎯	-10.6287
liang❃쎯ren❂쎯	-10.6287
쎂쎀fen❁쎯zhong❁쎯	-10.6289
qi❃쎯dao❄쎯	-10.629
쎁쎉쎄쎃nian❂쎯	-10.6292
guan❁쎯bi❄쎯	-10.6293
ting❂쎯zhi❃쎯	-10.6295
you❁쎯dian❃쎯	-10.6299
yi❁쎯qun❂쎯	-10.6299
cai❃쎯yong❄쎯le❅쎯	-10.6302
fen❁쎯san❃쎯	-10.6303
xi❄쎯jie❂쎯	-10.6304
zhi❁쎯liu❂쎯	-10.6309
you❁쎯yue❄쎯	-10.6313
xiao❁쎯xi❁쎯	-10.6315
fa❁쎯hang❂쎯de❅쎯	-10.6316
fa❁쎯song❄쎯	-10.6317
gong❁쎯wu❄쎯yuan❂쎯	-10.6317
kan❁쎯cha❂쎯	-10.6318
tu❂쎯zhong❁쎯	-10.6319
xiang❁쎯you❂쎯	-10.6323
ying❂쎯zao❄쎯	-10.6325
(쎁쎉쎂	-10.6325
mei❃쎯nv❃쎯	-10.6325
chang❂쎯shi❄쎯	-10.6326
jiao❁쎯tang❂쎯	-10.6326
ji❂쎯zhong❁쎯xue❂쎯	-10.6332
dui❄쎯shou❃쎯	-10.6334
han❄쎯guan❃쎯li❃쎯	-10.6334
zhong❁쎯xing❂쎯	-10.6335
qi❃쎯zhi❄쎯	-10.6336
zhu❃쎯jiang❃쎯	-10.6337
hui❂쎯zu❂쎯	-10.6341
bu❂쎯yi❄쎯	-10.6341
wu❂쎯xian❄쎯dian❄쎯	-10.6343
an❁쎯da❄쎯ke❄쎯hu❄쎯	-10.6346
mo❄쎯nian❂쎯	-10.6346
yi❁쎯si❁쎯lan❂쎯	-10.6347
쎄nian❂쎯	-10.6348
tai❂쎯	-10.6349
、she❄쎯hui❄쎯	-10.6349
tong❂쎯ren❂쎯	-10.635
wei❄쎯nin❂쎯	-10.6356
ping❂쎯xuan❃쎯	-10.6358
biao❃쎯ming❂쎯	-10.636
쎁쎉쎄쎆nian❂쎯	-10.6361
de❂쎯yu❄쎯	-10.6362
bu❂쎯duan❄쎯de❅쎯	-10.6365
wen❁쎯xin❁쎯	-10.6365
쎇.쎅	-10.6366
duo❁쎯yuan❂쎯hua❁쎯	-10.6366
tong❁쎯guo❄쎯le❅쎯	-10.6366
쎁쎅fen❁쎯zhong❁쎯	-10.6368
、guo❂쎯jia❁쎯	-10.6369
qiu❁쎯ren❂쎯shu❄쎯	-10.637
wei❄쎯zong❁쎯zhi❃쎯	-10.6372
yan❂쎯jiu❁쎯shi❄쎯	-10.6372
xi❁쎯an❁쎯shi❄쎯	-10.6373
쎁쎉쎃쎈nian❂쎯	-10.6374
hou❄쎯han❄쎯shu❁쎯·	-10.6374
niao❃쎯lei❄쎯	-10.6375
cang❂쎯shu❁쎯	-10.6375
dang❁쎯zhong❁쎯	-10.6376
dao❃쎯hang❂쎯	-10.6376
qi❃쎯shi❄쎯qiu❁쎯	-10.6378
bao❄쎯jing❃쎯	-10.6378
chong❃쎯	-10.6379
shi❄쎯ye❃쎯	-10.6379
fa❁쎯biao❃쎯xue❂쎯	-10.6379
xin❁쎯xie❃쎯guan❃쎯	-10.638
shang❁쎯jia❁쎯	-10.6383
gong❁쎯qing❃쎯,	-10.6383
ri❄쎯yu❃쎯	-10.6386
nan❂쎯xian❄쎯	-10.6386
dai❄쎯dong❄쎯	-10.639
dou❁쎯neng❂쎯	-10.639
xing❂쎯de❅쎯	-10.6392
han❄쎯fu❂쎯wu❄쎯	-10.6393
wei❄쎯he❂쎯xin❁쎯	-10.6398
heng❂쎯yang❂쎯	-10.6402
hao❃쎯ping❂쎯.	-10.6402
de❅쎯shi❄쎯jie❄쎯	-10.6405
쎀.쎆	-10.6409
bao❃쎯xiu❁쎯	-10.641
ii	-10.6413
mian❂쎯hua❁쎯	-10.6413
jian❃쎯yi❄쎯	-10.6415
guan❁쎯,	-10.6415
ji❄쎯jie❂쎯	-10.6416
jian❁쎯de❅쎯	-10.6418
zhu❃쎯jiao❃쎯	-10.6418
lu❄쎯yu❃쎯	-10.6419
gu❄쎯gong❁쎯	-10.642
),zi❄쎯	-10.642
,quan❂쎯	-10.642
quan❂쎯cheng❁쎯	-10.6422
chang❂쎯wu❄쎯fu❄쎯	-10.6423
you❃쎯le❅쎯	-10.6423
쎅쎀쎀ke❄쎯	-10.643
fan❃쎯fu❄쎯	-10.6436
zhang❄쎯fu❁쎯	-10.6436
gao❁쎯xie❃쎯ya❁쎯	-10.6436
ji❁쎯xiang❁쎯	-10.6437
hang❂쎯wei❁쎯hui❄쎯	-10.6437
쎁쎅ke❄쎯	-10.6439
deng❁쎯chang❃쎯	-10.6439
guang❁쎯ming❂쎯	-10.644
de❅쎯zhu❃쎯	-10.6444
fu❄쎯chan❃쎯ke❁쎯	-10.6444
zi❁쎯zhu❄쎯	-10.6449
쎂～	-10.6452
jian❄쎯she❄쎯de❅쎯	-10.6459
ke❄쎯ren❂쎯	-10.6464
shi❂쎯ke❄쎯	-10.6466
shuang❁쎯he❂쎯	-10.6466
ke❃쎯chi❂쎯xu❄쎯	-10.6468
xian❃쎯shi❄쎯qi❄쎯	-10.6469
ban❁쎯fa❁쎯de❅쎯	-10.647
fa❁쎯sheng❁쎯zai❄쎯	-10.6472
tong❁쎯hua❄쎯	-10.6474
ming❄쎯ling❂쎯	-10.6475
zhe❄쎯shi❄쎯yi❁쎯	-10.6476
ming❂쎯pai❂쎯	-10.6476
쎁쎀쎈	-10.6483
mi	-10.6488
de❅쎯yin❁쎯le❄쎯	-10.6488
de❅쎯dian❃쎯	-10.649
li❄쎯ya❄쎯	-10.649
bao❃쎯dan❄쎯	-10.6491
kang❄쎯zhan❄쎯	-10.6494
dian❃쎯,	-10.6496
yue❄쎯쎂쎈ri❄쎯	-10.6497
chu❁쎯xian❄쎯zai❄쎯	-10.6497
de❅쎯bu❂쎯tong❂쎯	-10.6498
si❄쎯yang❃쎯	-10.6502
jiong❃쎯	-10.6507
nian❃쎯	-10.6509
xie❂쎯zuo❄쎯	-10.651
dan❄쎯tou❂쎯	-10.6511
쎀-	-10.6511
shi❂쎯xi❂쎯	-10.6512
shui❃쎯fen❁쎯	-10.6514
jia❄쎯shi❃쎯	-10.6516
,shi❄쎯you❂쎯	-10.6517
쎁쎀nian❂쎯	-10.6532
huo❂쎯li❄쎯	-10.654
zi❄쎯zhi❄쎯zhou❁쎯	-10.6541
bu❂쎯bian❄쎯	-10.6543
xiao❁쎯hao❄쎯	-10.6543
ying❁쎯ji❂쎯	-10.6545
chang❃쎯jing❃쎯	-10.655
,yi❁쎯gan❄쎯	-10.6552
、bei❃쎯jing❁쎯	-10.6553
xin❁쎯xing❄쎯	-10.656
guo❂쎯ji❄쎯hua❁쎯	-10.6562
jiang❁쎯shi❄쎯	-10.6565
de❅쎯xue❂쎯sheng❁쎯	-10.6566
hua❁쎯jiao❁쎯	-10.6566
쎁.쎁	-10.6568
jiu❄쎯you❃쎯	-10.6569
cheng❂쎯pin❃쎯	-10.6572
de❅쎯fa❁쎯zhan❃쎯,	-10.6573
yin❃쎯ru❄쎯	-10.6574
qu❁쎯bie❂쎯	-10.6577
쎃쎀ke❄쎯	-10.658
쎁～	-10.6582
di❄쎯jiu❃쎯	-10.6585
ji❂쎯jiang❁쎯	-10.6586
～쎁	-10.6587
3	-10.6591
shi❄쎯shi❂쎯	-10.6591
li❄쎯zhi❄쎯	-10.6592
zi❄쎯zhi❄쎯	-10.6593
nong❂쎯hu❄쎯	-10.6595
shi❁쎯de❅쎯	-10.6596
fen❁쎯wei❂쎯	-10.6608
qu❂쎯	-10.6609
gua❃쎯	-10.6622
xiang❁쎯ji❄쎯	-10.6622
쎉)	-10.6623
hua❁쎯ban❄쎯	-10.6624
you❂쎯qi❂쎯	-10.6629
gan❄쎯xing❄쎯hua❁쎯	-10.663
yan❃쎯bian❄쎯	-10.6631
dan❁쎯du❂쎯	-10.6634
,mei❃쎯guo❂쎯	-10.6635
fang❂쎯、	-10.6638
you❁쎯mo❄쎯	-10.6639
le❅쎯da❄쎯liang❂쎯	-10.6641
bao❃쎯bao❃쎯	-10.6642
mian❄쎯ban❃쎯	-10.6642
guan❃쎯、	-10.6645
、li❃쎯	-10.6646
fa❃쎯》	-10.6652
zu❁쎯lin❄쎯	-10.6652
lai❂쎯xi❁쎯ya❄쎯	-10.6654
zai❄쎯ri❄쎯ben❃쎯	-10.6654
kuai❄쎯,	-10.6654
mian❄쎯ji❁쎯wei❄쎯	-10.6655
san❁쎯deng❃쎯	-10.6658
shi❂쎯yi❁쎯	-10.6662
mi❃쎯.	-10.6663
ti❂쎯qu❃쎯	-10.6668
bai❃쎯huo❄쎯	-10.6674
-쎂쎀	-10.6674
diao❄쎯liao❄쎯	-10.6674
shi❂쎯ji❁쎯,	-10.6677
dong❁쎯hai❃쎯	-10.668
diao❄쎯zhi❄쎯	-10.668
shi❄쎯mu❄쎯qian❂쎯	-10.6681
si❁쎯li❄쎯	-10.6683
쎈hao❂쎯	-10.6683
yin❃쎯qing❂쎯	-10.6684
,fu❄쎯ze❂쎯	-10.6684
shi❄쎯cong❂쎯	-10.6685
wen❁쎯zhou❁쎯shi❄쎯	-10.6687
huo❄쎯guo❂쎯jia❁쎯	-10.6689
li❄쎯jing❁쎯	-10.6691
shou❃쎯gong❁쎯	-10.6693
、dan❄쎯	-10.6697
dan❄쎯gao❁쎯	-10.6698
.쎂쎀쎀쎆nian❂쎯	-10.6698
chang❂쎯wu❄쎯	-10.6702
yi❁쎯gan❄쎯ren❂쎯	-10.6707
yin❃쎯ling❃쎯	-10.6707
jing❁쎯》	-10.6709
ji❁쎯huo❄쎯	-10.6711
min❂쎯zheng❄쎯	-10.6714
wu❂쎯ji❁쎯	-10.6715
hong❂쎯guan❁쎯	-10.6718
g	-10.6721
zhen❃쎯liao❂쎯	-10.6722
-쎁쎈	-10.6722
zi❃쎯gong❁쎯si❁쎯	-10.6723
de❅쎯ceng❂쎯	-10.6724
rang❄쎯ta❁쎯	-10.6724
yue❄쎯쎁쎅ri❄쎯	-10.6727
xi❁쎯hu❂쎯	-10.6728
zhuan❁쎯ji❂쎯《	-10.6729
kuan❁쎯du❄쎯	-10.6731
,yu❂쎯shi❄쎯	-10.6733
pin❂쎯lv❄쎯:	-10.6736
ri❄쎯yi❄쎯	-10.6739
huang❂쎯gua❁쎯	-10.6741
jin❁쎯nian❂쎯	-10.6742
te❄쎯dian❃쎯shi❄쎯	-10.6743
te❄쎯shu❁쎯de❅쎯	-10.6743
bai❃쎯du❄쎯	-10.675
,jian❃쎯cheng❁쎯	-10.675
shi❄쎯chang❃쎯de❅쎯	-10.675
.yin❁쎯wei❄쎯	-10.6751
kuang❄쎯qiu❁쎯	-10.6757
fu❂쎯hao❂쎯	-10.6758
;쎂、	-10.6761
wei❁쎯shu❁쎯ji❄쎯、	-10.6762
de❅쎯guan❃쎯li❃쎯	-10.6763
she❄쎯zai❄쎯	-10.6764
xi❄쎯ni❄쎯	-10.6765
chu❁쎯xian❄쎯de❅쎯	-10.6767
nan❂쎯chao❂쎯	-10.6767
.”ming❂쎯	-10.6768
、yan❂쎯	-10.6773
zai❄쎯zhe❄쎯	-10.6774
min❃쎯gan❃쎯	-10.6777
neng❂쎯li❄쎯,	-10.6777
lian❂쎯zai❄쎯	-10.6778
xi❁쎯sheng❁쎯.	-10.678
niu❂쎯nai❃쎯	-10.6781
you❁쎯liang❂쎯de❅쎯	-10.6782
duo❁쎯nian❂쎯sheng	-10.6785
jie❂쎯ke❄쎯	-10.6787
zheng❄쎯quan❂쎯	-10.6787
she❄쎯ji❄쎯yu❃쎯	-10.6794
dao❄쎯jiao❁쎯	-10.6797
"="	-10.6798
bi❄쎯qiu❁쎯.	-10.6802
hua❁쎯zhuang❁쎯	-10.6805
you❂쎯ji❁쎯	-10.6805
wei❂쎯yi❁쎯yi❁쎯	-10.6806
쎃～	-10.6807
ji❄쎯fa❃쎯	-10.6808
》ren❂쎯wu❄쎯	-10.681
ying❄쎯hua❁쎯	-10.6812
,jiang❁쎯su❁쎯	-10.6813
shi❄쎯xiang❄쎯	-10.6814
ke❃쎯yi❃쎯zai❄쎯	-10.6819
ju❄쎯ben❃쎯	-10.682
jian❁쎯zhi❄쎯	-10.6822
.yin❁쎯ci❃쎯,	-10.6822
쎁쎉쎄쎇nian❂쎯	-10.6833
yan❂쎯zhang❃쎯	-10.6834
ying❁쎯ge❂쎯lan❂쎯	-10.6835
chan❃쎯de❅쎯	-10.6836
bu❄쎯jian❄쎯	-10.6836
bao❄쎯bu❄쎯	-10.6837
lai❂쎯shuo❁쎯,	-10.6838
(쎄)	-10.6838
-쎁쎂	-10.6839
yi❄쎯ming❂쎯	-10.684
yi❁쎯chu❄쎯	-10.6841
쎃.쎀	-10.6842
bao❄쎯zhi❃쎯	-10.6845
,shou❄쎯	-10.6845
ji❂쎯《	-10.6848
ban❁쎯de❅쎯	-10.6849
쎁쎀쎅	-10.6852
zhu❃쎯li❄쎯	-10.6853
rong❂쎯jie❃쎯	-10.6855
.jing❁쎯guo❄쎯	-10.6856
rao❃쎯	-10.6857
liang❃쎯an❄쎯	-10.6857
xin❁쎯ling❂쎯	-10.6858
jing❁쎯ling❂쎯	-10.6858
ming❂쎯wei❄쎯“	-10.686
bao❄쎯fa❁쎯	-10.6862
ta❁쎯ren❂쎯	-10.6863
dong❁쎯ji❄쎯	-10.6863
.’”	-10.6863
lian❂쎯luo❄쎯	-10.6864
-)	-10.6868
,me❅쎯you❃쎯	-10.687
,jin❄쎯	-10.6871
.zhe❄쎯shi❄쎯	-10.6872
xiao❃쎯qi❃쎯qiu❁쎯	-10.6873
ben❃쎯tu❃쎯	-10.6875
shen❃쎯he❂쎯	-10.6878
jiao❁쎯wei❁쎯	-10.6879
.쎂쎀쎀쎉nian❂쎯	-10.6882
yue❄쎯쎂쎅ri❄쎯	-10.6884
nuo❄쎯mi❃쎯	-10.6885
쎁쎉쎃쎇nian❂쎯	-10.6886
ma❃쎯li❄쎯	-10.6887
zhuang❄쎯da❄쎯	-10.6887
쎂.쎁	-10.6888
ye❃쎯jiao❄쎯	-10.689
mo❄쎯yu❂쎯	-10.689
fu❂쎯ling❂쎯	-10.6894
chao❁쎯yue❄쎯	-10.6895
”,“	-10.6896
.you❄쎯	-10.6897
fei❁쎯ying❂쎯li❄쎯	-10.6897
ling❂쎯qing❄쎯	-10.6904
qi❃쎯le❅쎯	-10.6907
chu❄쎯mu❄쎯	-10.6908
xia❄쎯ji❄쎯	-10.6909
”)	-10.691
le❄쎯wan❂쎯	-10.6912
liu❂쎯xia❄쎯	-10.6913
gai❁쎯shu❁쎯	-10.6915
(쎁쎈쎉	-10.6916
mu❃쎯;you❃쎯lin❂쎯	-10.6916
yue❄쎯쎂쎀ri❄쎯	-10.6917
hen❃쎯shao❃쎯	-10.6919
pai❂쎯ming❂쎯	-10.692
bei❃쎯mei❃쎯	-10.6921
(xian❄쎯	-10.6925
tong❂쎯lei❄쎯	-10.6929
a❁쎯la❁쎯bo❂쎯	-10.6931
luan❃쎯xing❂쎯	-10.6933
pa❂쎯	-10.6933
zhen❁쎯cha❂쎯	-10.6934
chong❃쎯wu❄쎯	-10.6935
ming❂쎯ci❂쎯	-10.6943
gan❁쎯rao❃쎯	-10.6946
쎀.쎄	-10.6947
×쎄	-10.6947
–	-10.6948
xue❂쎯xue❂쎯li❄쎯,	-10.6948
qi❃쎯ren❂쎯	-10.695
guo❁쎯na❄쎯	-10.6951
yan❃쎯yuan❂쎯,	-10.6952
.sui❂쎯zhao❁쎯	-10.6956
ba❃쎯ta❁쎯	-10.6961
te❄쎯chan❃쎯	-10.6962
zheng❄쎯wu❄쎯	-10.6963
zong❃쎯cai❂쎯	-10.6966
ling❃쎯dao❃쎯de❅쎯	-10.6967
〈	-10.6972
.쎄.	-10.6975
bing❃쎯cheng❂쎯“	-10.6976
pu❂쎯tao❂쎯jiu❃쎯	-10.6978
zi❃쎯se❄쎯	-10.6979
yue❄쎯쎁쎈ri❄쎯	-10.698
:쎅	-10.6984
rong❂쎯ru❄쎯	-10.6984
bao❃쎯wen❁쎯	-10.6984
fan❂쎯hua❂쎯	-10.6988
ming❂쎯zhu❁쎯	-10.699
ai❁쎯ji❂쎯	-10.699
jian❁쎯rong❂쎯	-10.6991
shang❃쎯you❂쎯	-10.6993
e❂쎯ding❄쎯	-10.6997
man❄쎯man❄쎯	-10.6997
jia❁쎯dian❄쎯	-10.6998
chong❂쎯fu❄쎯	-10.7
ke❁쎯zhi❂쎯wu❄쎯	-10.7001
mo❄쎯ren❂쎯	-10.7001
hou❄쎯qin❂쎯	-10.7005
wen❁쎯nuan❃쎯	-10.7006
xu❂쎯zhou❁쎯	-10.7007
yi❄쎯si❁쎯	-10.7008
di❄쎯쎄	-10.7008
bi❃쎯ming❂쎯	-10.7009
wan❄쎯	-10.701
qi❄쎯guan❁쎯	-10.7011
zhi❂쎯de❂쎯	-10.7012
lu❄쎯》	-10.7015
jin❃쎯biao❁쎯sai❄쎯	-10.7016
xia❄쎯mian❄쎯	-10.7016
shou❃쎯dong❄쎯	-10.7016
shou❄쎯yu❂쎯“	-10.7017
xi❄쎯ren❄쎯zheng❄쎯	-10.7018
:‘	-10.7019
.tong❂쎯shi❂쎯,	-10.7019
la❁쎯ding❁쎯	-10.702
ye❃쎯cheng❁쎯	-10.7021
;fu❄쎯ze❂쎯	-10.7022
dong❄쎯,	-10.7024
bao❃쎯wei❄쎯	-10.7028
hai❃쎯shui❃쎯	-10.7033
gan❄쎯guo❂쎯jia❁쎯	-10.7033
shen❃쎯pi❁쎯	-10.7034
쎅ping❂쎯fang❁쎯	-10.7034
di❄쎯yi❁쎯jia❁쎯	-10.7037
gui❁쎯fan❄쎯hua❁쎯	-10.7037
chan❃쎯pin❃쎯you❃쎯	-10.7037
jie❂쎯cheng❂쎯	-10.7037
.gai❁쎯cun❁쎯	-10.704
cao❃쎯ben❃쎯	-10.7044
sheng❄쎯	-10.7045
쎁쎉쎈쎉	-10.7045
;쎁	-10.7046
hua❂쎯xia❄쎯	-10.7046
ke❄쎯guan❁쎯	-10.7051
ti❂쎯shi❄쎯	-10.7052
xue❂쎯ming❂쎯	-10.7053
er❂쎯de❂쎯ming❂쎯.	-10.7054
zhong❁쎯du❂쎯	-10.7056
xing❄쎯jiang❄쎯	-10.7056
yu❂쎯qiu❁쎯	-10.7058
shang❄쎯shu❁쎯	-10.7064
na❄쎯xin❁쎯	-10.7065
jia❁쎯li❃쎯	-10.7065
zhi❁쎯wu❄쎯	-10.7065
bu❄쎯hang❂쎯	-10.707
jia❁쎯kuai❄쎯	-10.7074
ji❄쎯》:“	-10.7075
ru❂쎯jin❁쎯	-10.7078
、shang❃쎯hai❃쎯	-10.7081
si❄쎯bei❃쎯	-10.7082
mian❄쎯ji❁쎯da❂쎯	-10.7084
bei❄쎯shou❄쎯yu❂쎯	-10.7085
.hou❄쎯lai❂쎯	-10.7085
shou❁쎯yi❄쎯	-10.7086
tang❂쎯shan❁쎯	-10.709
쎂.쎄	-10.7095
shou❁쎯gou❄쎯	-10.7097
fan❁쎯jia❁쎯	-10.71
zhi❁쎯zi❃쎯	-10.7106
pen❂쎯de❅쎯	-10.7106
huo❄쎯yun❃쎯	-10.7107
shi❂쎯zhan❄쎯	-10.7107
jiang❁쎯hu❂쎯	-10.7108
jian❁쎯gong❁쎯	-10.7108
de❅쎯qian❂쎯shen❁쎯	-10.7109
hang❂쎯xing❁쎯	-10.7109
chuan❂쎯ran❃쎯	-10.7111
xin❁쎯shi❄쎯ji❄쎯	-10.7111
lu❄쎯shang❃쎯	-10.7112
≥	-10.7113
si❁쎯ling❂쎯bu❄쎯	-10.7114
zhuan❁쎯jia❁쎯,	-10.7115
ming❂쎯·	-10.7115
cuo❁쎯	-10.7115
.”tang❂쎯	-10.7116
ti❂쎯ming❂쎯	-10.7116
,nian❂쎯ping❂쎯	-10.7117
.쎄、	-10.7118
ming❄쎯yun❃쎯	-10.7118
쎁쎀yu❂쎯	-10.7119
er❄쎯ren❂쎯	-10.712
ye❃쎯hui❄쎯	-10.7122
.쎂쎀쎀쎇nian❂쎯	-10.7126
de❅쎯wang❃쎯luo❄쎯	-10.7128
shui❃쎯ping❂쎯de❅쎯	-10.713
yan❁쎯si❄쎯	-10.7135
xie❂쎯dai❄쎯	-10.7136
guang❁쎯ze❂쎯	-10.7136
(han❂쎯	-10.7138
zhi❄쎯jin❁쎯,	-10.7139
ru❂쎯:	-10.7139
hang❂쎯shi❃쎯	-10.7139
jian❁쎯chuang❄쎯	-10.7143
fen❁쎯pei❄쎯dao❄쎯	-10.7147
zhong❁쎯duan❄쎯	-10.7148
yi❁쎯yang❂쎯,	-10.7151
fa❁쎯zhan❃쎯.	-10.7153
mian❄쎯ji❁쎯쎁쎀	-10.7154
jiang❄쎯,	-10.7155
jiang❄쎯lie❄쎯	-10.7158
zhi❄쎯》	-10.716
chang❂쎯nian❂쎯	-10.7162
dou❁쎯ke❃쎯yi❃쎯	-10.7172
ping❂쎯hang❂쎯	-10.7173
.쎀쎉	-10.7174
shang❃쎯ying❄쎯	-10.7175
jiao❁쎯jie❄쎯chu❄쎯	-10.7177
yu❃쎯guan❃쎯li❃쎯	-10.7179
dian❄쎯shi❄쎯ju❄쎯《	-10.7181
shuo❁쎯:“	-10.7182
deng❃쎯jiang❃쎯;	-10.7187
yin❃쎯fa❁쎯	-10.7189
yu❂쎯jia❁쎯	-10.7189
《xin❁쎯	-10.719
、zhang❁쎯	-10.719
zheng❄쎯fu❃쎯te❄쎯	-10.7197
jing❄쎯mai❄쎯	-10.7197
hui❄쎯zhu❃쎯xi❂쎯	-10.7199
shi❄쎯shi❄쎯jie❄쎯	-10.7203
bo❂쎯lan❃쎯hui❄쎯	-10.7205
ci❃쎯wai❄쎯	-10.7205
he❂쎯kou❃쎯	-10.7206
yi❃쎯nan❂쎯	-10.7206
huo❂쎯po❁쎯	-10.7207
xiang❁쎯、	-10.721
.쎁쎉쎄쎉nian❂쎯	-10.7212
jiao❁쎯yuan❂쎯	-10.7213
zun❁쎯xun❂쎯	-10.7214
쎀)	-10.7214
si❄쎯hu❁쎯	-10.7217
que❄쎯ren❄쎯	-10.7221
ding❄쎯ji❁쎯	-10.7223
.shan❄쎯zhang❃쎯	-10.7223
jiu❃쎯long❂쎯	-10.7227
jian❁쎯feng❁쎯	-10.7229
pai❂쎯shui❃쎯	-10.7229
ding❃쎯duan❁쎯	-10.7231
hui❄쎯yi❄쎯shi❄쎯	-10.7232
kao❃쎯sheng❁쎯	-10.7235
fu❄쎯zhi❄쎯	-10.7237
xuan❃쎯yu❄쎯	-10.7238
gu❃쎯jin❁쎯	-10.7238
zuo❄쎯ci❂쎯	-10.7238
.쎂쎀쎀쎅nian❂쎯	-10.7238
wai❄쎯ke❂쎯	-10.7239
rang❄쎯ni❃쎯	-10.7239
er❂쎯you❄쎯	-10.724
zhong❁쎯xin❁쎯de❅쎯	-10.7241
hui❂쎯gui❁쎯	-10.7243
bian❄쎯de❂쎯	-10.7243
zhuang❁쎯pin❃쎯	-10.7244
xiang❁쎯cai❄쎯	-10.7245
bu❂쎯jiu❃쎯	-10.7247
ci❄쎯hui❄쎯yi❄쎯	-10.7249
ling❄쎯yi❁쎯gan❄쎯	-10.7255
wei❄쎯an❁쎯da❄쎯	-10.7269
ren❄쎯ding❄쎯	-10.7269
wu❂쎯ren❂쎯	-10.7269
쎁쎉쎃쎂nian❂쎯	-10.7271
dan❁쎯wei❄쎯:	-10.7271
zu❃쎯zhi❁쎯de❅쎯	-10.7277
xian❄쎯yi❃쎯	-10.7278
guan❁쎯dian❃쎯	-10.7281
er❂쎯ke❁쎯	-10.7282
ru❄쎯kou❃쎯	-10.7283
quan❂쎯zhang❃쎯	-10.7283
mei❃쎯shu❂쎯jia❁쎯	-10.7284
chan❃쎯shu❄쎯	-10.7284
shi❂쎯xian❄쎯le❅쎯	-10.7286
can❂쎯ji❂쎯ren❂쎯	-10.7287
jian❁쎯qi❃쎯	-10.7292
dian❄쎯zu❃쎯	-10.7295
du❂쎯li❄쎯de❅쎯	-10.7296
de❅쎯yi❄쎯si❁쎯	-10.7301
gan❃쎯ying❁쎯	-10.7304
yan❂쎯tao❃쎯hui❄쎯	-10.7304
nong❂쎯li❄쎯	-10.7309
xi❄쎯zhu❃쎯ren❂쎯	-10.7309
zui❄쎯xiao❃쎯	-10.7311
yuan❂쎯liao❄쎯:	-10.7313
쎈쎀쎀쎀	-10.7314
dui❄쎯cheng❁쎯	-10.7316
hai❃쎯yu❄쎯	-10.7319
yan❄쎯shou❁쎯	-10.732
ke❃쎯shi❄쎯	-10.7322
fang❁쎯shi❄쎯,	-10.7323
jian❄쎯she❄쎯,	-10.7323
ban❁쎯zhu❃쎯ren❂쎯	-10.7324
쎂ren❂쎯,	-10.7324
.sheng❁쎯yu❂쎯	-10.7326
bian❁쎯wei❁쎯	-10.7327
shi❄쎯guo❂쎯jia❁쎯	-10.7328
wai❄쎯shang❁쎯	-10.7329
쎂쎀쎁쎄nian❂쎯	-10.733
ju❂쎯、	-10.7331
na❃쎯li❃쎯	-10.7333
yin❄쎯xiang❄쎯	-10.7333
bian❁쎯qu❁쎯	-10.7336
ming❂쎯shi❁쎯	-10.7336
jin❄쎯bu❄쎯san❁쎯	-10.7338
zhi❃쎯nan❂쎯	-10.7339
.zhong❁쎯gong❄쎯	-10.7341
쎃hao❂쎯	-10.7345
shan❁쎯cun❁쎯	-10.7345
ji❁쎯he❂쎯	-10.7346
tou❂쎯ying❃쎯	-10.7354
zhan❄쎯zhang❃쎯	-10.7355
ren❂쎯wei❄쎯ben❃쎯	-10.7355
qing❁쎯re❄쎯	-10.7356
ceng❂쎯huo❄쎯	-10.7357
jian❄쎯guo❂쎯	-10.7358
dui❄쎯yuan❂쎯	-10.7363
jiang❃쎯,	-10.7364
li❄쎯shi❃쎯de❅쎯	-10.7365
xi❄쎯,	-10.7365
chuan❂쎯dong❄쎯	-10.7367
,bu❂쎯fu❄쎯	-10.7368
jie❂쎯ri❄쎯	-10.7368
ji❁쎯dong❄쎯	-10.7369
wan❃쎯ji❁쎯	-10.7371
shou❁쎯fei❄쎯	-10.7373
xu❄쎯shu❄쎯	-10.7375
ne❅쎯	-10.7378
chuang❄쎯li❄쎯yu❂쎯	-10.7383
de❅쎯gai❄쎯nian❄쎯	-10.7388
쎁쎉쎄쎀nian❂쎯	-10.739
gong❁쎯zi❁쎯	-10.7392
bin❁쎯ke❄쎯	-10.7392
tou❂쎯,	-10.7394
zhe❃쎯de❅쎯	-10.7395
she❄쎯ke❁쎯	-10.7397
hui❄쎯li❃쎯shi❄쎯	-10.7403
da❄쎯li❃쎯	-10.7403
hei❁쎯an❄쎯	-10.7405
shu❁쎯ji❄쎯、	-10.7406
jian❄쎯she❄쎯、	-10.7406
.”(쎂).	-10.7406
zhi❂쎯li❄쎯	-10.7409
hu❄쎯,you❃쎯	-10.741
peng❁쎯ren❄쎯	-10.7415
bing❁쎯ru❄쎯	-10.7415
huo❄쎯quan❂쎯guo❂쎯	-10.7416
ke❁쎯yuan❂쎯	-10.7417
qing❁쎯chu❃쎯	-10.7418
yan❂쎯an❁쎯	-10.7422
chen❁쎯ji❁쎯	-10.7423
ji❁쎯du❁쎯jiao❁쎯	-10.7424
yan❂쎯jin❃쎯	-10.7424
liu❂쎯ben❄쎯	-10.7426
jin❃쎯lin❂쎯	-10.7427
jia❁쎯yong❄쎯	-10.7428
쎁쎉쎈쎇	-10.7434
chu❁쎯xi❂쎯	-10.7435
feng❁쎯shi❁쎯	-10.7436
yao❄쎯cai❂쎯	-10.7436
gu❃쎯fen❄쎯zhi❄쎯	-10.7438
ran❂쎯liao❄쎯	-10.7438
di❄쎯si❄쎯jie❄쎯	-10.7445
pao❂쎯	-10.7445
jiang❁쎯hui❄쎯	-10.7449
쎁쎉쎈쎅	-10.745
qing❂쎯xu❄쎯	-10.745
fang❁쎯xiang❄쎯:	-10.7452
chao❂쎯ting❂쎯	-10.7452
yuan❄쎯zhang❃쎯.	-10.7454
쎁%	-10.7459
jing❃쎯de❂쎯zhen❄쎯	-10.746
gen❁쎯ben❃쎯	-10.7462
ji❁쎯de❅쎯.	-10.7465
yi❃쎯hou❄쎯,	-10.7472
ping❂쎯gu❃쎯	-10.7474
wu❃쎯da❄쎯	-10.7475
shi❄쎯zhang❃쎯	-10.7475
쎁쎉쎈쎆	-10.7475
zhe❄쎯kuan❃쎯	-10.7477
sai❄쎯shi❄쎯	-10.7479
hu❄쎯dan❁쎯wei❄쎯.	-10.7479
guan❃쎯li❃쎯ben❄쎯	-10.748
wang❃쎯you❂쎯	-10.7482
neng❂쎯li❄쎯.	-10.7484
mei❂쎯hua❁쎯	-10.7485
yan❂쎯fa❁쎯、	-10.7489
yi❁쎯ren❂쎯	-10.7493
deng❃쎯guo❂쎯jia❁쎯	-10.7494
sheng❁쎯yuan❄쎯	-10.7495
li❃쎯lun❄쎯han❄쎯	-10.7498
you❂쎯qi❂쎯shi❄쎯	-10.7501
,pi❂쎯lin❂쎯	-10.7502
jiao❁쎯qu❁쎯	-10.7504
fei❄쎯shui❃쎯	-10.7504
、nan❂쎯	-10.7504
shan❄쎯yu❂쎯	-10.751
,쎁쎈	-10.7511
xiao❃쎯jie❃쎯	-10.7514
jie❂쎯,	-10.7516
feng❁쎯yu❃쎯	-10.752
쎇nian❂쎯	-10.7522
쎀쎀mu❃쎯,	-10.7524
song❄쎯·	-10.7525
zhen❁쎯cheng❂쎯	-10.7526
you❄쎯you❃쎯	-10.7526
ni❃쎯ding❄쎯	-10.753
zheng❁쎯que❄쎯	-10.7533
bin❁쎯hai❃쎯	-10.7533
kou❃쎯,	-10.7535
long❂쎯yan❂쎯	-10.7537
,dong❁쎯	-10.7541
de❅쎯ren❂쎯wu❄쎯	-10.7544
gai❃쎯bian❁쎯	-10.7545
쎅.쎅	-10.755
sao❁쎯	-10.755
an❁쎯suan❁쎯	-10.7551
di❄쎯yi❁쎯bu❄쎯	-10.7553
yi❁쎯fang❁쎯	-10.7557
wei❄쎯she❂쎯ma❅쎯	-10.7559
xing❄쎯ji❂쎯bing❄쎯	-10.7559
jiu❄쎯neng❂쎯	-10.756
fa❁쎯re❄쎯	-10.757
wu❂쎯lun❄쎯	-10.7572
bai❃쎯mo❄쎯	-10.7573
xing❂쎯huo❄쎯	-10.7575
쎂ci❄쎯	-10.7575
shi❄쎯qing❂쎯	-10.7576
de❅쎯jiao❃쎯du❄쎯	-10.758
,shi❃쎯jian❄쎯yu❂쎯	-10.7585
shao❃쎯er❂쎯	-10.7586
zhen❁쎯jun❁쎯	-10.7588
duo❁쎯ceng❂쎯	-10.759
yue❄쎯쎁쎀ri❄쎯	-10.7592
sheng❃쎯bu❄쎯ji❂쎯	-10.7594
shang❃쎯le❅쎯	-10.7597
guang❁쎯xian❁쎯	-10.7597
.쎂쎀쎁쎀nian❂쎯	-10.7598
쎂.쎂	-10.7601
su❄쎯jiao❁쎯	-10.7602
dan❁쎯yi❁쎯	-10.7605
lin❂쎯jin❄쎯	-10.7606
shan❁쎯,	-10.7607
(yi❃쎯xia❄쎯jian❃쎯	-10.7609
lv❃쎯hang❂쎯she❄쎯	-10.761
jin❁쎯gang❁쎯	-10.7611
li❄쎯fa❃쎯	-10.7612
gu❃쎯fen❄쎯	-10.7612
쎁쎉쎃쎉nian❂쎯	-10.7613
zuo❄쎯pin❃쎯.	-10.7613
peng❃쎯	-10.7614
,ye❃쎯you❃쎯	-10.7614
huo❃쎯jian❄쎯	-10.7617
,shan❁쎯dong❁쎯	-10.7621
jue❂쎯yuan❂쎯	-10.7621
qing❁쎯hua❁쎯	-10.7626
쎃쎀fen❁쎯zhong❁쎯	-10.7628
jiu❄쎯zai❄쎯	-10.7628
xie❂쎯shou❃쎯	-10.763
쎃、	-10.7631
sha❄쎯	-10.7633
,dui❄쎯yu❂쎯	-10.7634
jie❂쎯zhi❃쎯	-10.7634
jie❁쎯rang❃쎯	-10.7634
she❄쎯xian❄쎯	-10.7635
tong❁쎯feng❁쎯	-10.7636
zhi❄쎯an❁쎯	-10.7636
,huo❄쎯de❂쎯	-10.7637
shun❄쎯xu❄쎯	-10.7637
xian❄쎯xing❄쎯	-10.7637
zhan❃쎯chu❁쎯	-10.7639
ri❄쎯bao❄쎯》	-10.764
;쎄	-10.7641
xue❂쎯jiao❄쎯,	-10.7642
lv❃쎯ke❄쎯	-10.7643
,you❂쎯qi❂쎯	-10.7643
sha❁쎯hai❄쎯	-10.7643
fen❁쎯bie❂쎯wei❄쎯	-10.7644
nong❂쎯yao❄쎯	-10.765
jian❁쎯ban❄쎯	-10.7653
zeng❁쎯jia❁쎯le❅쎯	-10.7655
xiang❁쎯wei❄쎯yu❂쎯	-10.7656
da❄쎯lu❄쎯de❅쎯	-10.7656
zhu❃쎯ban❄쎯de❅쎯	-10.7656
dong❁쎯feng❁쎯	-10.7658
qian❁쎯mi❃쎯,	-10.7658
xue❂쎯jiao❄쎯、	-10.7659
chuo❄쎯	-10.7659
yong❄쎯fa❃쎯	-10.766
zong❃쎯hu❄쎯shu❄쎯	-10.7661
jue❂쎯de❂쎯	-10.7664
chu❄쎯.	-10.7669
yu❄쎯dao❄쎯	-10.767
い	-10.7673
tie❃쎯dao❄쎯	-10.7675
bu❄쎯shou❃쎯:	-10.7685
xing❁쎯ji❂쎯	-10.7685
da❄쎯gui❁쎯mo❂쎯	-10.7687
pu❃쎯tong❁쎯gao❁쎯	-10.7688
yao❄쎯yong❄쎯	-10.769
zheng❁쎯mian❄쎯	-10.769
tong❂쎯hang❂쎯	-10.7691
lei❄쎯:tu❂쎯shu❁쎯>	-10.7692
shu❁쎯jin❁쎯tie❁쎯	-10.7695
pei❁쎯	-10.7696
qu❁쎯.wei❄쎯yu❂쎯	-10.7697
lie❄쎯shi❄쎯	-10.7698
、gu❃쎯	-10.7699
\\	-10.7699
tai❄쎯shan❁쎯	-10.7701
quan❂쎯zi❄쎯dong❄쎯	-10.7701
ne❅쎯?	-10.7701
chu❃쎯cun❂쎯	-10.7703
de❅쎯yi❄쎯shu❂쎯	-10.7706
쎁쎀쎂쎄	-10.7707
.zhe❄쎯gan❄쎯	-10.7709
run❄쎯gu❃쎯	-10.7713
쎁.쎃	-10.7716
huo❃쎯tui❃쎯	-10.7717
shao❄쎯huan❄쎯	-10.7722
dan❁쎯wei❄쎯、	-10.7723
jie❂쎯zou❄쎯	-10.7725
yi❂쎯zhi❂쎯	-10.7726
hua❂쎯fen❁쎯	-10.7733
gong❁쎯min❂쎯	-10.7737
dang❃쎯zu❃쎯shu❁쎯	-10.7738
hao❂쎯ma❃쎯	-10.7741
xu❃쎯ke❃쎯zheng❄쎯	-10.7741
you❁쎯shi❄쎯,	-10.7741
-쎁쎆	-10.7741
zong❃쎯zhan❁쎯de❅쎯	-10.7744
ling❃쎯xiu❄쎯	-10.7749
(ji❂쎯	-10.7753
lv❂쎯	-10.7753
qin❁쎯zi❄쎯	-10.7755
hong❂쎯qi❂쎯	-10.7755
liu❄쎯gan❄쎯	-10.7757
chang❂쎯lv❄쎯	-10.7758
ji❂쎯ge❃쎯	-10.7761
,ying❁쎯wen❂쎯	-10.7766
wei❂쎯wu❂쎯er❃쎯	-10.7768
xi❃쎯gan❁쎯cheng❁쎯	-10.7772
bo❂쎯wu❄쎯yuan❄쎯	-10.7773
yi❃쎯bei❃쎯	-10.7774
yuan❄쎯zhang❃쎯、	-10.7776
nv❃쎯,	-10.7777
chu❁쎯bu❄쎯	-10.7781
),fu❂쎯jian❄쎯	-10.7783
fu❂쎯ke❃쎯yi❃쎯	-10.7784
ge❁쎯ci❂쎯	-10.7784
dong❁쎯han❄쎯	-10.7784
sha❁쎯mo❄쎯	-10.7788
ying❃쎯xiang❃쎯.	-10.7791
le❅쎯ta❁쎯	-10.7791
,you❃쎯shi❂쎯	-10.7795
xing❄쎯neng❂쎯:	-10.7797
dian❄쎯si❄쎯	-10.7799
쎁쎉쎃쎁nian❂쎯	-10.78
yi❁쎯ran❂쎯	-10.7801
쎁쎉쎃쎆nian❂쎯	-10.7801
쎄쎅쎀	-10.7804
yuan❂쎯ben❃쎯	-10.7804
yin❃쎯shui❃쎯	-10.7806
쎁ci❄쎯	-10.7807
,you❂쎯qi❂쎯shi❄쎯	-10.7808
she❄쎯ji❁쎯	-10.781
rong❂쎯zi❁쎯	-10.7811
zu❃쎯zu❃쎯zhang❃쎯	-10.7814
dian❄쎯ti❁쎯	-10.7814
jian❁쎯gu❄쎯	-10.7814
jiu❃쎯ba❁쎯	-10.7816
yue❄쎯쎂쎆ri❄쎯	-10.7818
zhen❁쎯jiu❃쎯	-10.7818
.quan❂쎯shu❁쎯	-10.7822
ti❄쎯dai❄쎯	-10.7827
、wu❃쎯	-10.7829
guo❄쎯de❅쎯	-10.7829
쎂%	-10.7832
ji❄쎯shu❂쎯you❃쎯	-10.7832
.쎁.	-10.7833
si❄쎯zhi❁쎯	-10.7833
wu❃쎯dai❄쎯	-10.7836
ren❂쎯can❁쎯	-10.7837
cai❂쎯hui❄쎯	-10.7837
shui❃쎯liang❂쎯쎁	-10.7838
jing❄쎯ji❄쎯	-10.7844
yi❄쎯zuo❄쎯“	-10.7845
bai❃쎯jia❁쎯	-10.7846
yu❂쎯쎂쎀쎀쎉nian❂쎯	-10.7849
쎃ren❂쎯,	-10.7851
di❄쎯shi❂쎯yi❁쎯	-10.7854
qing❁쎯shan❁쎯	-10.7855
lao❁쎯chu❁쎯	-10.7856
dian❃쎯.	-10.7857
an❁쎯de❂쎯	-10.7857
,duo❁쎯ci❄쎯	-10.7857
zhi❂쎯jiao❁쎯	-10.7858
jing❁쎯mei❃쎯	-10.786
nian❂쎯,	-10.7861
fan❃쎯ying❄쎯le❅쎯	-10.7864
jin❄쎯zhan❃쎯	-10.7872
jin❄쎯qu❃쎯	-10.7874
gong❁쎯neng❂쎯,	-10.7874
ㄐ	-10.7875
quan❂쎯yi❄쎯	-10.7877
쎁쎁gan❄쎯	-10.7881
bu❂쎯dan❄쎯	-10.7885
shou❁쎯suo❁쎯	-10.7885
xian❄쎯shang❃쎯	-10.7885
(쎂쎀쎀	-10.7886
jian❁쎯hua❁쎯	-10.7888
tong❁쎯su❂쎯	-10.7889
쎃쎀nian❂쎯	-10.7889
『	-10.7889
ming❂쎯qing❄쎯	-10.789
lie❄쎯che❁쎯	-10.7894
hua❄쎯yuan❄쎯	-10.7899
miao❂쎯zu❂쎯	-10.79
qing❁쎯gong❁쎯	-10.7902
san❁쎯ci❄쎯	-10.7903
(jian❃쎯cheng❁쎯	-10.7904
쎁-쎂	-10.7908
쎅gong❁쎯li❃쎯	-10.7911
lin❂쎯pian❁쎯	-10.7913
쎂쎀쎀ke❄쎯	-10.7913
gan❁쎯cheng❁쎯	-10.7918
zao❂쎯	-10.7918
liu❂쎯lan❃쎯	-10.7919
cai❄쎯yao❂쎯	-10.792
shai❄쎯	-10.792
pian❁쎯lun❄쎯wen❂쎯	-10.7921
bei❃쎯mian❄쎯	-10.7924
pin❃쎯pai❂쎯.	-10.7928
nan❂쎯du❄쎯	-10.7928
nv❃쎯zhu❃쎯jiao❃쎯	-10.7929
sui❂쎯shi❂쎯	-10.7929
〉	-10.7931
de❅쎯dong❁쎯xi❁쎯	-10.7935
,bu❂쎯guo❄쎯	-10.7936
dui❄쎯bi❃쎯	-10.7941
쎂쎁shi❄쎯ji❄쎯	-10.7942
,ju❄쎯xian❄쎯	-10.7942
/쎄	-10.7943
miao❂쎯hui❄쎯	-10.7944
ding❄쎯ju❁쎯	-10.7945
dai❁쎯ji❁쎯	-10.7948
da❄쎯jiang❃쎯	-10.7948
dang❃쎯zheng❄쎯	-10.7949
zai❁쎯hai❄쎯	-10.7951
da❄쎯dou❄쎯	-10.7951
jing❁쎯que❄쎯	-10.7956
quan❂쎯xiang❁쎯	-10.7958
gong❄쎯ji❄쎯	-10.7959
zhi❄쎯zuo❄쎯de❅쎯	-10.796
shang❁쎯juan❁쎯	-10.796
di❄쎯wu❃쎯jie❄쎯	-10.796
dian❄쎯gong❁쎯	-10.7961
zui❄쎯jin❄쎯	-10.7962
hen❃쎯kuai❄쎯	-10.7963
deng❃쎯ren❂쎯	-10.7965
pian❁쎯、	-10.7965
han❄쎯xian❂쎯	-10.7965
jin❄쎯bu❄쎯jiang❃쎯	-10.7967
de❅쎯mu❄쎯de❅쎯	-10.7976
ce❄쎯hui❄쎯	-10.7984
yi❂쎯ji❄쎯	-10.7984
hui❂쎯yi❄쎯	-10.7985
tian❁쎯tang❂쎯	-10.7987
zhi❁쎯xu❁쎯	-10.7987
α	-10.7988
wei❄쎯chang❂쎯	-10.7989
zhao❁쎯shang❁쎯	-10.7989
zhong❁쎯cheng❂쎯	-10.799
shi❂쎯yu❂쎯nian❂쎯	-10.7992
쎁쎈쎈	-10.7993
ling❂쎯jian❄쎯	-10.7995
shi❂쎯jian❁쎯na❄쎯	-10.7996
yi❁쎯hao❂쎯	-10.7996
zhu❄쎯she❄쎯	-10.7998
kao❄쎯jin❄쎯	-10.7998
ji❂쎯》	-10.7999
shui❃쎯yu❄쎯	-10.8002
(쎃	-10.8009
pin❂쎯kun❄쎯	-10.8009
fen❁쎯mi❄쎯	-10.8009
yu❃쎯yan❂쎯xue❂쎯	-10.8011
shu❄쎯li❄쎯	-10.8014
jiao❄쎯hao❃쎯de❅쎯	-10.8015
da❄쎯tang❂쎯	-10.8015
xiao❃쎯shuo❁쎯,	-10.8016
da❄쎯cheng❂쎯	-10.8019
fang❁쎯mian❄쎯,	-10.802
zong❃쎯hui❄쎯	-10.8021
yi❁쎯zhong❁쎯	-10.8022
shou❃쎯,	-10.8024
xian❄쎯ren❂쎯,	-10.8024
mian❄쎯bao❁쎯	-10.8024
yi❁쎯lu❄쎯	-10.8025
▁	-10.8025
yuan❂쎯xian❄쎯	-10.8027
zhu❁쎯duo❁쎯	-10.8027
,shou❄쎯dao❄쎯	-10.8027
sheng❃쎯ke❁쎯ji❄쎯	-10.8028
lian❂쎯xiang❃쎯	-10.8031
da❄쎯da❄쎯	-10.8033
rong❂쎯yu❂쎯	-10.8033
bing❁쎯qiu❂쎯	-10.8034
쎀.쎇	-10.8034
you❁쎯hui❄쎯	-10.8035
yi❂쎯zu❂쎯	-10.804
”zi❄쎯	-10.804
ben❄쎯xian❄쎯le❅쎯	-10.8045
zhi❁쎯ming❂쎯du❄쎯	-10.8046
tao❂쎯hua❁쎯	-10.8047
hua❁쎯wen❂쎯	-10.8048
zhi❁쎯shang❃쎯	-10.8048
mo❄쎯li❃쎯	-10.8051
qian❂쎯jin❄쎯	-10.8052
shu❄쎯zhi❂쎯	-10.8055
,zhu❃쎯	-10.8055
suo❃쎯zhang❃쎯	-10.8061
wu❃쎯di❄쎯	-10.8063
cheng❂쎯jiao❁쎯	-10.8066
shuan❁쎯	-10.8066
yang❂쎯qing❄쎯qi❄쎯	-10.8066
luo❂쎯bo❅쎯	-10.807
jun❁쎯yi❁쎯	-10.8072
yong❄쎯yao❄쎯	-10.8074
zhen❃쎯zhi❄쎯	-10.8079
bi❃쎯sai❄쎯zhong❁쎯	-10.808
쎂gong❁쎯li❃쎯	-10.8082
ke❄쎯hu❄쎯de❅쎯	-10.8082
^	-10.8082
ci❂쎯shan❄쎯	-10.8083
jian❁쎯ku❃쎯	-10.8084
ke❄쎯zuo❄쎯	-10.8084
de❅쎯gu❄쎯shi❄쎯.	-10.8087
shi❁쎯wen❂쎯	-10.8089
biao❁쎯zhun❃쎯de❅쎯	-10.809
bu❄쎯la❄쎯	-10.8091
.쎁쎁	-10.8091
liao❂쎯cheng❂쎯	-10.8093
jun❁쎯ke❃쎯	-10.8093
jiao❁쎯zhi❂쎯	-10.8094
shi❁쎯cong❂쎯	-10.8094
shan❁쎯chu❂쎯	-10.8095
na❃쎯yang❂쎯	-10.8095
jing❄쎯jie❄쎯	-10.8098
xian❁쎯feng❁쎯	-10.8101
쎁쎉쎄쎁nian❂쎯	-10.8103
zhi❄쎯xu❄쎯	-10.8104
mo❄쎯si❁쎯ke❁쎯	-10.8106
hao❃쎯you❃쎯	-10.8107
yu❃쎯qi❂쎯	-10.8109
zhang❃쎯tu❂쎯	-10.8109
shan❁쎯shang❃쎯	-10.8111
fu❄쎯he❂쎯	-10.8115
si❃쎯hou❄쎯	-10.8115
bu❄쎯zhou❄쎯	-10.8116
lu❃쎯xun❄쎯	-10.8117
.쎂쎀쎀쎄nian❂쎯	-10.8117
yi❁쎯zu❃쎯	-10.8117
ji❂쎯xiang❂쎯	-10.812
qi❃쎯cao❃쎯	-10.8121
ti❂쎯chu❁쎯de❅쎯	-10.8123
xiang❄쎯mu❄쎯de❅쎯	-10.8123
yue❄쎯쎈ri❄쎯	-10.8124
쎃gong❁쎯li❃쎯	-10.8125
ju❄쎯chi❁쎯zhen❄쎯	-10.8126
,ye❃쎯ke❃쎯yi❃쎯	-10.8127
fei❁쎯lv❄쎯bin❁쎯	-10.813
ou❃쎯xiang❄쎯	-10.8131
ke❃쎯ai❄쎯	-10.8133
jian❃쎯suo❃쎯	-10.814
쎅쎀쎀mi❃쎯	-10.814
liang❃쎯tiao❂쎯	-10.8143
bian❁쎯jie❄쎯	-10.8147
duan❄쎯lian❄쎯	-10.8147
tian❂쎯jing❄쎯	-10.8148
deng❃쎯duo❁쎯gan❄쎯	-10.8151
sai❄쎯ji❄쎯	-10.8155
gai❃쎯ming❂쎯wei❄쎯	-10.8158
da❄쎯zhan❃쎯	-10.8158
deng❃쎯te❄쎯dian❃쎯	-10.8162
쎁쎉쎄쎂nian❂쎯	-10.8162
ci❂쎯qi❄쎯	-10.8167
zhu❁쎯bao❃쎯	-10.8168
piao❁쎯liang❄쎯	-10.8168
ke❃쎯kou❃쎯	-10.8169
shi❂쎯kong❁쎯	-10.8169
zuo❃쎯you❄쎯.	-10.8172
xia❂쎯gu❃쎯	-10.8174
zuo❄쎯jia❁쎯xie❂쎯	-10.8175
wu❂쎯xu❁쎯	-10.8177
,yi❁쎯zhi❂쎯	-10.818
xi❁쎯yang❂쎯	-10.818
ban❃쎯、	-10.8181
da❄쎯qing❄쎯	-10.8183
zhi❂쎯xian❄쎯	-10.8184
de❅쎯zhi❄쎯liang❂쎯	-10.8185
쎆.쎅	-10.8192
ji❁쎯lei❃쎯le❅쎯	-10.8194
jin❁쎯shan❁쎯	-10.8196
쎁쎀쎆	-10.8198
xin❄쎯yang❃쎯	-10.8201
、zhe❄쎯jiang❁쎯	-10.8201
di❂쎯piao❄쎯	-10.8203
guan❁쎯xi❄쎯,	-10.8203
de❅쎯wei❁쎯	-10.8204
tian❁쎯ran❂쎯qi❃쎯	-10.8204
dui❄쎯qi❂쎯	-10.8205
qu❃쎯dai❄쎯	-10.8205
chu❁쎯dao❄쎯	-10.8206
zhi❁쎯qi❃쎯guan❃쎯	-10.8208
jia❁쎯zhou❁쎯	-10.8209
de❅쎯wen❄쎯ti❂쎯	-10.8212
zhi❁쎯chu❄쎯	-10.8213
ya❄쎯chong❂쎯	-10.8214
gao❁쎯er❃쎯fu❁쎯	-10.8214
se❄쎯,	-10.8215
shi❁쎯zi❃쎯	-10.8215
cheng❂쎯jie❁쎯	-10.8215
mo❄쎯duo❁쎯	-10.8216
ban❃쎯)	-10.8218
xing❄쎯shi❄쎯	-10.822
kuo❄쎯jian❄쎯	-10.8223
wei❁쎯wei❁쎯yuan❂쎯	-10.8223
xi❁쎯ya❄쎯	-10.8223
dai❁쎯yong❄쎯	-10.8224
ke❄쎯fu❂쎯	-10.8226
쎉hao❂쎯	-10.8227
,nan❂쎯yu❃쎯	-10.823
mei❃쎯shu❂쎯guan❃쎯	-10.8232
kou❃쎯gan❃쎯	-10.8233
,han❄쎯zu❂쎯,	-10.8233
xing❂쎯.	-10.8235
mao❃쎯	-10.8235
guo❂쎯yu❃쎯	-10.8239
cheng❂쎯nian❂쎯	-10.8239
zheng❄쎯wei❁쎯	-10.824
lin❂쎯suan❁쎯	-10.8242
shan❁쎯ding❃쎯	-10.8243
lei❃쎯ji❄쎯	-10.8244
wen❂쎯ben❃쎯	-10.8244
jiu❄쎯du❂쎯	-10.8246
쎈ping❂쎯fang❁쎯	-10.8247
쎁ren❂쎯	-10.8247
xin❁쎯yi❁쎯dai❄쎯	-10.8249
yue❄쎯쎁쎂ri❄쎯	-10.825
xing❂쎯si❄쎯	-10.825
ge❃쎯zi❁쎯	-10.8251
de❅쎯jie❄쎯ge❂쎯	-10.8251
hu❂쎯tong❂쎯	-10.8254
,nu❃쎯li❄쎯	-10.8254
fu❄쎯duo❃쎯de❅쎯	-10.8255
ji❄쎯you❃쎯	-10.8257
yi❄쎯zuo❄쎯	-10.8259
kong❄쎯zhi❄쎯qi❄쎯	-10.826
yue❄쎯쎁쎆ri❄쎯	-10.8262
gong❁쎯li❃쎯chu❄쎯,	-10.8263
qi❂쎯qian❂쎯shen❁쎯	-10.8263
jing❃쎯se❄쎯	-10.8265
qian❂쎯,	-10.8268
쎂、	-10.827
ting❁쎯、	-10.8272
ya❄쎯re❄쎯dai❄쎯	-10.8273
쎁liang❃쎯	-10.8273
쎁쎉쎄쎄nian❂쎯	-10.8273
ji❁쎯qi❄쎯ren❂쎯	-10.8274
jing❁쎯guo❂쎯jia❁쎯	-10.8275
shi❂쎯yan❂쎯	-10.8275
yu❂쎯쎁쎈	-10.8276
shen❁쎯ke❄쎯	-10.8276
jing❁쎯du❄쎯	-10.8276
zhu❄쎯ce❄쎯biao❃쎯	-10.8282
juan❃쎯,	-10.8285
ge❃쎯zuo❄쎯she❄쎯	-10.8285
bei❃쎯ce❄쎯	-10.8287
jin❁쎯pai❂쎯	-10.8288
cong❁쎯ming❂쎯	-10.8289
zi❃쎯·	-10.829
si❄쎯fang❁쎯	-10.8291
qian❁쎯mo❄쎯	-10.8292
an❁쎯ji❁쎯suan❁쎯	-10.8293
du❂쎯wu❄쎯	-10.8294
bai❃쎯ge❃쎯	-10.8294
ji❄쎯shu❄쎯	-10.8295
yuan❂쎯you❃쎯	-10.8296
nian❂쎯lai❂쎯,	-10.8296
bai❂쎯cai❄쎯	-10.83
bing❁쎯zu❃쎯zhi❁쎯	-10.83
쎂쎀쎀mi❃쎯	-10.83
gong❁쎯yi❄쎯pin❃쎯	-10.8301
pi❂쎯jiu❃쎯	-10.8302
wen❄쎯ti❂쎯.	-10.8305
qiu❂쎯gou❄쎯	-10.8308
te❄쎯you❃쎯de❅쎯	-10.8308
zhong❁쎯ji❂쎯	-10.8308
gen❁쎯zong❁쎯	-10.831
de❅쎯duan❄쎯	-10.831
cao❃쎯de❅쎯	-10.8312
wu❄쎯liao❄쎯	-10.8314
tong❂쎯meng❂쎯	-10.8314
zi❄쎯yuan❄쎯	-10.8316
쎂.쎈	-10.8316
jing❁쎯ju❄쎯	-10.8317
lun❄쎯shu❄쎯	-10.8319
쎀*	-10.8319
de❅쎯yuan❂쎯ze❂쎯	-10.832
neng❂쎯li❄쎯de❅쎯	-10.8321
fa❁쎯bing❄쎯	-10.8321
jiang❃쎯zhang❁쎯	-10.8326
zhi❁쎯suo❃쎯	-10.8328
le❄쎯qiu❂쎯	-10.8332
niao❄쎯bing❄쎯	-10.8334
н	-10.8335
쎃%	-10.8336
de❅쎯mu❄쎯biao❁쎯	-10.8337
、hong❂쎯	-10.8338
,shan❄쎯zhang❃쎯	-10.8338
ㄣ	-10.8338
li❄쎯ru❂쎯	-10.8341
쎁쎈쎄	-10.8341
gao❁쎯fen❁쎯zi❃쎯	-10.8342
sheng❁쎯de❅쎯	-10.8342
xiu❁쎯ding❄쎯	-10.8342
fu❄쎯yin❄쎯	-10.8342
fang❁쎯bian❄쎯,	-10.8344
.쎀쎀	-10.8344
lai❂쎯yuan❂쎯yu❂쎯	-10.8345
ke❄쎯la❁쎯	-10.8347
xia❂쎯qu❁쎯na❄쎯	-10.8351
yi❁쎯shi❁쎯.	-10.8351
、sheng❁쎯chan❃쎯、	-10.8353
yu❂쎯쎂쎀쎁쎀nian❂쎯	-10.8355
leng❃쎯shui❃쎯	-10.8356
shi❄쎯dian❃쎯	-10.8358
li❃쎯xiang❃쎯de❅쎯	-10.8359
liu❂쎯lan❃쎯qi❄쎯	-10.8359
qie❁쎯pian❁쎯	-10.8361
wei❁쎯shu❁쎯ji❄쎯.	-10.8362
ye❃쎯jiu❄쎯shi❄쎯	-10.8364
qi❄쎯jian❄쎯	-10.8365
li❄쎯fang❁쎯mi❃쎯	-10.8366
쎁쎉쎂쎉nian❂쎯	-10.8366
jian❁쎯tong❁쎯	-10.8367
jiang❃쎯xue❂쎯	-10.8368
쎅mi❃쎯	-10.837
hui❂쎯shou❁쎯	-10.8371
xi❁쎯han❄쎯	-10.8374
yi❁쎯jiu❃쎯jiu❃쎯	-10.8374
jiang❃쎯”	-10.8375
shen❁쎯bao❄쎯	-10.8381
.쎀쎈	-10.8382
bai❃쎯lin❂쎯	-10.8382
쎀hao❂쎯mi❃쎯	-10.8382
suan❄쎯fa❃쎯	-10.8384
dan❁쎯bao❃쎯	-10.8384
gui❄쎯yang❂쎯	-10.8385
ji❄쎯gong❁쎯	-10.8385
men❂쎯hu❄쎯wang❃쎯z	-10.8388
zhe❄쎯ci❄쎯	-10.8392
nong❂쎯qiu❁쎯bu❄쎯	-10.8393
chuan❃쎯	-10.8397
쎁쎈쎉	-10.8399
》shi❄쎯you❂쎯	-10.8401
dang❁쎯gui❁쎯	-10.8401
jie❂쎯yue❁쎯	-10.8401
dao❃쎯shang❃쎯	-10.8402
、an❁쎯dong❁쎯	-10.8404
cu❄쎯nian❂쎯	-10.8404
ji❄쎯wei❁쎯	-10.8406
》)	-10.8406
yin❁쎯xiang❃쎯	-10.8407
yin❁쎯yang❂쎯	-10.8409
:쎉	-10.8412
hen❃쎯you❃쎯	-10.8412
jing❄쎯dian❄쎯	-10.8415
zi❄쎯mu❃쎯	-10.8416
.zhe❄쎯li❃쎯	-10.8416
쎈%	-10.8418
,jie❂쎯ge❃쎯	-10.8419
dao❄쎯guang❁쎯	-10.8419
zhu❄쎯yin❁쎯:	-10.8419
shi❂쎯ren❂쎯	-10.842
쎆ping❂쎯fang❁쎯	-10.842
ji❁쎯nian❂쎯	-10.8422
ying❄쎯du❄쎯	-10.8422
yin❁쎯zi❃쎯	-10.8424
fa❁쎯zhan❃쎯han❄쎯	-10.8424
si❁쎯ren❂쎯	-10.8425
huo❂쎯yue❄쎯	-10.8428
bu❃쎯chang❂쎯	-10.8429
,zhe❄쎯gan❄쎯	-10.843
zai❄쎯yi❁쎯gan❄쎯	-10.8433
jing❁쎯ji❄쎯shi❁쎯	-10.8433
hu❂쎯bo❂쎯	-10.8434
ren❂쎯kou❃쎯쎃	-10.8439
dan❄쎯shui❃쎯	-10.844
gai❃쎯cheng❁쎯	-10.844
jie❄쎯jian❄쎯	-10.8442
qiao❂쎯zhen❄쎯	-10.8442
zhi❁쎯wai❄쎯	-10.8444
jin❁쎯huang❂쎯se❄쎯	-10.8444
bo❂쎯ke❄쎯	-10.8445
gui❁쎯ding❄쎯de❅쎯	-10.8446
%%	-10.8447
xi❁쎯shi❄쎯	-10.8447
ma❃쎯er❃쎯	-10.8447
、si❄쎯chuan❁쎯	-10.8448
xiao❄쎯li❄쎯	-10.8451
gun❄쎯	-10.8451
shu❁쎯》:“	-10.8452
cun❁쎯na❄쎯	-10.8454
쎅hao❂쎯	-10.8455
wei❁쎯bo❁쎯	-10.8456
liu❂쎯suan❁쎯	-10.8456
she❄쎯xiang❄쎯ji❁쎯	-10.8457
feng❁쎯ge❂쎯de❅쎯	-10.8461
xin❁쎯ren❂쎯	-10.8466
()de❅쎯	-10.8469
;zai❄쎯	-10.847
bu❄쎯zhi❄쎯	-10.847
han❃쎯、	-10.8474
guan❁쎯bu❄쎯men❂쎯	-10.848
pai❁쎯mai❄쎯	-10.8485
jiao❁쎯cheng❂쎯	-10.8487
ping❂쎯wei❄쎯“	-10.8488
쎂쎀-	-10.8489
tuo❃쎯	-10.8489
fen❁쎯cheng❂쎯	-10.8493
cang❂쎯zu❂쎯	-10.8494
쎀mu❃쎯,	-10.8494
쎁쎈쎇	-10.8496
suo❃쎯zuo❄쎯	-10.8499
zao❃쎯nian❂쎯	-10.85
yan❂쎯zheng❄쎯	-10.85
jiang❃쎯jie❃쎯	-10.8503
bian❄쎯yi❂쎯	-10.8503
sheng❁쎯chou❁쎯	-10.8507
deng❃쎯na❄쎯rong❂쎯	-10.8509
deng❃쎯ce❄쎯yu❄쎯	-10.851
jia❁쎯da❄쎯	-10.8512
bing❄쎯bian❄쎯	-10.8513
gong❁쎯qiu❁쎯qu❁쎯	-10.8513
《》	-10.8514
de❅쎯ban❄쎯xue❂쎯	-10.8515
zheng❁쎯ke❁쎯ji❂쎯	-10.8516
zun❁쎯chong❂쎯	-10.8518
ㄥ	-10.852
gong❁쎯xiao❁쎯	-10.852
,chong❁쎯fen❁쎯	-10.8523
zhi❄쎯shao❃쎯	-10.8523
jia❁쎯peng❂쎯	-10.8524
li❄쎯yu❂쎯	-10.8524
fang❁쎯cheng❂쎯	-10.8526
xian❄쎯tiao❂쎯	-10.8527
jian❁쎯ju❄쎯	-10.8529
jiang❃쎯shou❄쎯	-10.853
ke❁쎯wei❁쎯	-10.853
ban❄쎯dao❃쎯ben❄쎯	-10.8531
you❃쎯li❄쎯	-10.8534
,bi❄쎯qiu❁쎯yu❂쎯	-10.8534
ke❁쎯yuan❄쎯	-10.8534
shi❄쎯zhi❃쎯zai❄쎯	-10.8536
gu❁쎯niang❂쎯	-10.8538
nan❂쎯hai❂쎯	-10.8538
,chu❂쎯	-10.8539
ji❄쎯shi❂쎯	-10.8542
xiang❄쎯mu❄쎯.	-10.8542
wan❂쎯,	-10.8549
mo❄쎯,	-10.855
쎈쎀쎂.쎃	-10.8551
an❄쎯mo❂쎯	-10.8552
ti❂쎯gao❁쎯le❅쎯	-10.8554
de❅쎯yan❂쎯fa❁쎯	-10.8554
sun❃쎯hai❄쎯	-10.8555
chong❂쎯xiu❁쎯	-10.8556
huang❂쎯se❄쎯,	-10.8562
ji❄쎯si❄쎯	-10.8564
shao❁쎯jian❁쎯	-10.8568
de❅쎯yi❁쎯jia❁쎯	-10.8568
de❅쎯zhen❃쎯zhi❄쎯	-10.8569
lie❄쎯ru❄쎯	-10.8572
zhu❁쎯gao❁쎯	-10.8572
ke❁쎯da❄쎯xue❂쎯	-10.8573
fang❄쎯qi❄쎯	-10.8577
.’	-10.8578
zhan❄쎯chang❃쎯	-10.8581
zhi❃쎯ling❂쎯	-10.8581
zhi❁쎯zhong❁쎯,	-10.8585
rang❃쎯	-10.8589
si❁쎯ji❁쎯	-10.859
xian❃쎯de❂쎯	-10.8591
yuan❂쎯dai❄쎯	-10.8595
wen❂쎯hua❁쎯,	-10.8597
she❄쎯ji❄쎯han❄쎯	-10.8597
gong❁쎯neng❂쎯.	-10.8599
yi❂쎯xing❄쎯	-10.86
mian❂쎯yang❂쎯	-10.8604
cai❂쎯liao❄쎯de❅쎯	-10.8611
,zhi❁쎯you❃쎯	-10.8611
jian❄쎯she❄쎯han❄쎯	-10.8611
bing❄쎯zheng❄쎯	-10.8612
pei❄쎯song❄쎯	-10.8617
ren❂쎯xin❁쎯	-10.8618
di❄쎯shi❂쎯	-10.8618
er❄쎯shi❂쎯nian❂쎯	-10.8621
sheng❁쎯ri❄쎯	-10.8622
rou❂쎯ruan❃쎯	-10.8624
lin❂쎯xia❄쎯	-10.8626
bei❃쎯da❄쎯	-10.8627
ji❁쎯qing❂쎯	-10.8627
lai❂쎯dian❄쎯	-10.8634
fan❄쎯zhi❃쎯	-10.8635
ji❂쎯cheng❂쎯.	-10.8635
she❁쎯	-10.8637
cheng❂쎯yuan❂쎯,	-10.8638
yan❃쎯ke❁쎯	-10.8639
nan❂쎯ce❄쎯	-10.8639
ni❃쎯ren❂쎯	-10.8642
qian❂쎯wei❄쎯	-10.8642
cheng❂쎯nuo❄쎯	-10.8643
wan❂쎯mei❃쎯de❅쎯	-10.8643
、lin❂쎯	-10.8643
hai❃쎯xia❂쎯	-10.8644
mu❃쎯.quan❂쎯cun❁쎯	-10.8645
hui❄쎯you❃쎯	-10.865
sheng❃쎯na❄쎯	-10.8652
fo❂쎯shan❁쎯shi❄쎯	-10.8652
ge❁쎯ge❁쎯	-10.8654
gui❁쎯hua❂쎯、	-10.8654
gong❁쎯ting❂쎯	-10.8655
han❄쎯ji❄쎯shu❂쎯	-10.8661
si❄쎯、	-10.8662
bao❂쎯mo❂쎯	-10.8665
zhen❄쎯jiang❁쎯	-10.8667
lin❂쎯zhong❁쎯	-10.8668
guan❁쎯.	-10.8669
ji❁쎯fa❁쎯	-10.8669
zhi❁쎯wei❄쎯	-10.867
kua❄쎯yue❄쎯	-10.8672
guo❃쎯shu❄쎯	-10.8673
yuan❃쎯xiao❁쎯	-10.8676
min❂쎯yong❄쎯	-10.8678
mian❄쎯qian❂쎯	-10.8678
you❂쎯tian❂쎯	-10.868
hao❃쎯ping❂쎯	-10.8681
jie❄쎯zhi❂쎯de❅쎯	-10.8683
xin❁쎯xiang❁쎯	-10.8686
de❅쎯xu❁쎯qiu❂쎯	-10.8686
쎀.쎀쎀	-10.8688
zuo❄쎯wen❂쎯	-10.869
lei❂쎯da❂쎯	-10.8692
yong❄쎯tu❂쎯:	-10.8692
jian❄쎯pi❂쎯	-10.8692
te❄쎯zhang❃쎯	-10.8692
gao❄쎯su❄쎯	-10.8695
xiao❁쎯du❂쎯	-10.8697
jing❁쎯xiao❁쎯	-10.8697
、shang❁쎯wu❄쎯	-10.87
chan❃쎯quan❂쎯	-10.8702
zai❄쎯jin❁쎯	-10.8703
쎂쎅ke❄쎯	-10.8703
de❅쎯yi❁쎯xie❁쎯	-10.8705
fu❄쎯》:“	-10.8705
bu❂쎯shou❄쎯	-10.8706
tian❁쎯kong❁쎯	-10.8706
,bei❃쎯yu❃쎯	-10.8709
shi❄쎯jiao❃쎯	-10.8711
zhong❁쎯xi❁쎯	-10.8712
de❅쎯yuan❂쎯yin❁쎯	-10.8712
zhe❄쎯lei❄쎯	-10.8714
dui❄쎯ying❁쎯	-10.8715
쎆ren❂쎯,	-10.8715
xiang❁쎯chuan❂쎯	-10.8717
ping❂쎯shi❂쎯	-10.8717
bai❂쎯se❄쎯,	-10.8717
bei❁쎯”	-10.8718
(yue❁쎯	-10.8719
chou❂쎯jian❄쎯	-10.872
jin❄쎯hua❁쎯	-10.8724
jian❄쎯quan❂쎯	-10.8725
li❃쎯cai❂쎯	-10.8725
tang❃쎯	-10.8725
su❁쎯wei❂쎯ai❁쎯	-10.8726
he❂쎯suan❄쎯	-10.8727
ji❄쎯da❄쎯xue❂쎯	-10.8728
kuo❄쎯pei❄쎯qi❄쎯	-10.8728
wei❂쎯er❃쎯	-10.8732
(쎄	-10.8734
쎈쎀%	-10.8735
cang❁쎯chu❃쎯	-10.8736
tu❁쎯qi❃쎯	-10.8737
shou❂쎯xi❁쎯	-10.8739
yue❁쎯wei❄쎯	-10.874
yi❄쎯yu❂쎯	-10.8741
shan❁쎯gu❃쎯	-10.8745
,xian❁쎯	-10.8747
-쎁쎁	-10.8747
hui❄쎯li❃쎯shi❄쎯、	-10.875
gong❁쎯si❁쎯zai❄쎯	-10.8754
wen❃쎯ding❄쎯de❅쎯	-10.8755
kuang❄쎯chuang❂쎯	-10.8757
wo❃쎯gong❁쎯si❁쎯	-10.8759
.dan❄쎯shi❄쎯	-10.876
hua❂쎯zhong❁쎯	-10.8761
zhi❂쎯da❂쎯	-10.8762
.tong❁쎯guo❄쎯	-10.8764
you❃쎯xu❃쎯duo❁쎯	-10.8764
nve❄쎯	-10.8765
(쎆	-10.8765
ban❄쎯fa❃쎯》	-10.8767
shi❂쎯yu❂쎯	-10.8767
,hai❃쎯ba❂쎯	-10.8767
wan❂쎯yi❄쎯	-10.8768
mi❄쎯ji❂쎯	-10.8768
yi❁쎯du❄쎯	-10.8769
zhou❁쎯qu❁쎯	-10.8769
kan❁쎯tan❄쎯	-10.8772
ji❁쎯shi❂쎯	-10.8774
쎅ren❂쎯,	-10.8774
su❁쎯zhou❁쎯shi❄쎯	-10.8774
guan❃쎯li❃쎯xue❂쎯	-10.8776
wu❂쎯se❄쎯	-10.8778
ka❃쎯pian❁쎯	-10.8778
xi❄쎯tong❃쎯:	-10.8778
feng❁쎯jian❄쎯	-10.8781
huo❄쎯qi❂쎯ta❁쎯	-10.8781
de❅쎯xin❁쎯xing❂쎯	-10.8781
yue❄쎯쎂쎁ri❄쎯	-10.8782
zhong❁쎯shen❁쎯	-10.8783
zhong❁쎯ji❁쎯	-10.8783
bi❃쎯ci❃쎯	-10.8785
yue❄쎯쎃쎀ri❄쎯	-10.8785
fu❄쎯lian❂쎯	-10.8788
qiu❁쎯wei❄쎯zhu❃쎯.	-10.8789
xiang❃쎯yao❁쎯	-10.8791
dui❄쎯mian❄쎯	-10.8791
de❅쎯si❁쎯xiang❃쎯	-10.8793
、qi❄쎯che❁쎯	-10.8793
hun❁쎯li❃쎯	-10.8795
ren❂쎯zhi❂쎯yu❂쎯	-10.8797
jian❄쎯zhi❄쎯	-10.8799
,zhe❄쎯li❃쎯	-10.88
qi❂쎯xia❄쎯de❅쎯	-10.88
zi❃쎯.	-10.88
ge❃쎯fei❂쎯shi❄쎯	-10.8802
yue❄쎯쎂쎃ri❄쎯	-10.8803
yue❄쎯쎅ri❄쎯	-10.8805
duo❁쎯bu❄쎯	-10.8807
hai❁쎯sou❄쎯	-10.8807
jiao❁쎯yi❄쎯suo❃쎯	-10.8809
wai❄쎯biao❃쎯	-10.881
er❂쎯yan❂쎯	-10.8815
shou❂쎯lian❄쎯	-10.8816
te❄쎯pin❄쎯	-10.8817
lun❄쎯》	-10.8822
,cheng❁쎯wei❄쎯	-10.8822
shi❂쎯xun❄쎯	-10.8823
bu❂쎯tong❂쎯,	-10.8824
jing❄쎯qiu❁쎯	-10.8825
feng❁쎯yun❂쎯	-10.8826
xue❂쎯jia❁쎯	-10.8827
de❅쎯de❅쎯tu❃쎯de❅쎯	-10.8829
shu❁쎯ji❄쎯.	-10.8832
da❄쎯lian❂쎯shi❄쎯	-10.8833
xiang❁쎯tan❂쎯	-10.8833
lu❄쎯kou❃쎯	-10.8834
yu❂쎯쎂쎀쎀쎈nian❂쎯	-10.8834
쎂-쎃	-10.8835
niang❄쎯	-10.8838
peng❄쎯	-10.8838
de❅쎯zuo❄쎯yong❄쎯.	-10.884
hu❂쎯die❂쎯	-10.8841
zhang❃쎯yue❁쎯	-10.8848
shi❂쎯pu❃쎯	-10.8852
mai❃쎯mai❄쎯	-10.8854
bian❄쎯yu❂쎯	-10.8854
bu❂쎯gui❁쎯ze❂쎯	-10.8856
she❄쎯bei❄쎯han❄쎯	-10.8856
.zhao❂쎯you❃쎯《	-10.8857
fu❄쎯ze❂쎯quan❂쎯	-10.8858
shuo❁쎯hua❄쎯	-10.886
de❅쎯shi❂쎯ji❄쎯	-10.8862
shi❄쎯qiu❁쎯de❅쎯	-10.8863
cun❁쎯zhen❄쎯	-10.8863
wu❂쎯mao❂쎯	-10.8865
ru❄쎯zhu❄쎯	-10.8865
ke❁쎯zhang❃쎯	-10.8868
chu❁쎯ban❃쎯de❅쎯	-10.8869
zai❄쎯zhe❄쎯gan❄쎯	-10.887
chi❃쎯lun❂쎯	-10.887
yan❂쎯ge❂쎯de❅쎯	-10.8872
yue❄쎯쎂쎇ri❄쎯	-10.8875
wen❂쎯shi❄쎯	-10.8876
zao❁쎯dao❄쎯	-10.8878
yi❄쎯qi❃쎯	-10.8883
lu❄쎯zhi❄쎯	-10.8883
zong❁쎯zhi❃쎯,	-10.8886
(ji❂쎯qiu❂쎯)	-10.8888
de❅쎯zui❄쎯xin❁쎯	-10.8892
chu❁쎯zi❁쎯	-10.8897
duo❁쎯ming❂쎯	-10.8898
tiao❂쎯wen❂쎯	-10.8898
zu❃쎯zhang❃쎯	-10.89
gu❃쎯、	-10.8901
nv❃쎯sheng❁쎯	-10.8903
jiao❄쎯hao❃쎯	-10.8904
sheng❁쎯hua❁쎯	-10.8906
xing❂쎯hao❂쎯:	-10.8906
xie❂쎯bing❃쎯	-10.8907
gong❁쎯yong❄쎯	-10.8908
xiang❁쎯jiao❁쎯	-10.891
jie❂쎯shi❂쎯	-10.8914
.쎁쎉쎈쎂nian❂쎯	-10.8915
ben❄쎯xi❄쎯,	-10.8915
.sui❁쎯ran❂쎯	-10.8916
bian❄쎯ya❁쎯qi❄쎯	-10.8917
ben❃쎯ren❂쎯	-10.8917
jian❁쎯cai❃쎯	-10.8921
,zuo❄쎯zhe❃쎯	-10.8922
de❅쎯xin❄쎯xi❁쎯	-10.8923
ci❂쎯xing❄쎯	-10.8925
cheng❂쎯bao❃쎯	-10.8925
yu❃쎯she❄쎯hui❄쎯	-10.8926
cheng❂쎯li❄쎯hou❄쎯	-10.8926
jian❁쎯chi❂쎯“	-10.8928
ken❃쎯ding❄쎯	-10.8929
m	-10.8929
han❄쎯guo❂쎯jia❁쎯	-10.8932
chuang❁쎯jiang❁쎯	-10.8933
zi❄쎯xue❂쎯	-10.8936
tong❂쎯hua❄쎯	-10.8937
、chen❂쎯	-10.8938
xin❁쎯si❄쎯jun❁쎯	-10.8938
guan❁쎯zhi❄쎯	-10.894
,ge❄쎯	-10.894
shi❂쎯wei❄쎯	-10.8941
yi❁쎯ding❄쎯yao❁쎯	-10.8944
xiu❄쎯li❄쎯de❅쎯	-10.8944
р	-10.8944
zhi❂쎯dao❃쎯	-10.8945
,na❄쎯rong❂쎯	-10.8945
zhang❃쎯jian❁쎯	-10.8945
xin❄쎯fang❃쎯	-10.8947
zhan❄쎯guo❂쎯	-10.8947
hu❄쎯dan❁쎯wei❄쎯	-10.8947
chu❁쎯pin❃쎯	-10.8947
shi❂쎯qiu❁쎯you❃쎯	-10.8948
di❁쎯yu❂쎯	-10.895
yin❁쎯xiao❄쎯	-10.895
xiong❂쎯hou❄쎯	-10.8951
jian❁쎯shi❄쎯	-10.8952
mu❄쎯de❅쎯shi❄쎯	-10.8953
쎉쎀nian❂쎯dai❄쎯	-10.8954
xue❂쎯xi❄쎯	-10.8956
de❅쎯wei❄쎯zhi❄쎯	-10.8956
bian❄쎯huan❄쎯	-10.8957
pie❁쎯	-10.8958
(qi❂쎯zhong❁쎯	-10.8959
long❂쎯shan❁쎯	-10.8959
wei❄쎯zhu❃쎯ti❂쎯	-10.896
zi❄쎯cheng❂쎯li❄쎯	-10.8961
you❂쎯yuan❂쎯	-10.8962
pi❁쎯zhun❃쎯,	-10.8962
yue❄쎯쎂쎂ri❄쎯	-10.8963
ce❄쎯,	-10.8964
yan❃쎯jing❄쎯	-10.8965
zhi❁쎯shou❃쎯	-10.8965
mian❃쎯dian❄쎯	-10.8965
쎂쎀yu❂쎯	-10.8966
zuo❄쎯biao❁쎯	-10.8968
wei❄쎯qi❃쎯qiu❁쎯	-10.897
쎇쎀nian❂쎯dai❄쎯	-10.8971
lu❄쎯mian❄쎯	-10.8973
ju❄쎯mu❄쎯	-10.8974
,shi❃쎯de❂쎯	-10.8976
,sui❂쎯	-10.8976
de❅쎯hua❄쎯	-10.8976
fen❃쎯si❁쎯	-10.8978
zhen❄쎯,	-10.8981
쎀.	-10.8983
fa❃쎯yu❃쎯	-10.8985
“wu❃쎯	-10.8985
chen❂쎯lie❄쎯	-10.8987
-쎁쎅	-10.8989
nan❂쎯tong❁쎯	-10.8989
쎂쎀ke❄쎯	-10.899
wei❄쎯yu❄쎯	-10.899
쎁쎀ke❄쎯,	-10.8995
hen❃쎯gao❁쎯de❅쎯	-10.8996
chong❁쎯tu❁쎯	-10.8998
ao❄쎯yun❃쎯	-10.9003
yan❃쎯yuan❂쎯.	-10.9006
qian❁쎯li❃쎯	-10.9008
hui❄쎯suo❃쎯	-10.9008
she❄쎯hui❄쎯xue❂쎯	-10.9012
jian❁쎯xin❁쎯	-10.9013
de❅쎯gong❁쎯neng❂쎯	-10.9017
zhuan❁쎯jia❁쎯.	-10.9018
ao❄쎯lin❂쎯pi❁쎯	-10.9018
zao❃쎯zai❄쎯	-10.9021
mian❄쎯ji❁쎯:	-10.9023
de❅쎯suo❃쎯you❃쎯	-10.9026
qie❁쎯duan❄쎯	-10.903
xian❄쎯(jin❁쎯	-10.903
ling❃쎯dao❃쎯ren❂쎯	-10.9032
mian❄쎯qiu❂쎯	-10.9032
can❁쎯bian❁쎯	-10.9033
shen❁쎯chu❄쎯	-10.9038
jia❁쎯qing❄쎯	-10.9042
ba❁쎯jiao❃쎯	-10.9042
yan❂쎯xu❄쎯	-10.9042
zhuan❁쎯ren❂쎯	-10.9045
jian❁쎯li❃쎯	-10.9046
ding❃쎯bu❄쎯	-10.9047
,bing❁쎯yi❃쎯	-10.9049
쎁쎂-	-10.9049
.ling❄쎯wai❄쎯,	-10.905
su❄쎯song❄쎯	-10.9052
de❅쎯ai❄쎯qing❂쎯	-10.9052
쎁쎆쎈	-10.9055
gu❃쎯dong❁쎯	-10.9057
쎁쎀yue❄쎯,	-10.9057
jiao❄쎯zhang❃쎯,	-10.9058
ju❄쎯《	-10.906
ai❄쎯de❅쎯	-10.9061
yue❄쎯쎁쎇ri❄쎯	-10.9062
gong❁쎯da❄쎯xue❂쎯	-10.9066
yuan❂쎯shi❄쎯	-10.9068
wei❁쎯xie❂쎯	-10.9068
nan❂쎯mian❄쎯	-10.9069
huo❃쎯che❁쎯	-10.9069
ao❄쎯de❅쎯li❄쎯	-10.907
yu❂쎯쎂쎀쎀쎅nian❂쎯	-10.9072
you❂쎯xi❄쎯《	-10.9072
zhang❃쎯zheng❁쎯	-10.9076
쎁쎀쎀mi❃쎯	-10.9077
shi❁쎯zi❁쎯	-10.9077
da❄쎯ming❂쎯	-10.9077
jing❁쎯fei❄쎯	-10.9078
wei❁쎯mi❃쎯	-10.908
ge❂쎯ju❂쎯	-10.9083
bing❄쎯shi❄쎯	-10.9083
yi❄쎯cheng❁쎯	-10.9086
zao❄쎯yi❄쎯	-10.9087
jiang❄쎯lie❄쎯de❅쎯	-10.9087
hu❂쎯hu❄쎯	-10.9089
shang❃쎯shi❄쎯ji❄쎯	-10.9089
yuan❂쎯zi❄쎯	-10.909
san❁쎯xia❂쎯	-10.9091
you❄쎯chong❂쎯	-10.9094
qi❃쎯fu❂쎯	-10.9099
.쎂쎀쎀쎂nian❂쎯	-10.91
shi❄쎯quan❂쎯guo❂쎯	-10.9101
zhi❁쎯shi❂쎯han❄쎯	-10.9101
de❅쎯yi❁쎯shou❃쎯	-10.9103
jie❄쎯da❄쎯zhan❄쎯	-10.9104
chuang❄쎯kan❁쎯	-10.9105
yue❄쎯쎂쎄ri❄쎯	-10.9106
zui❄쎯hou❄쎯yi❁쎯	-10.9107
peng❂쎯zhang❄쎯	-10.9107
fa❃쎯xue❂쎯yuan❄쎯	-10.9107
zhi❁쎯zhu❄쎯	-10.9109
suo❃쎯shu❃쎯fen❁쎯	-10.9109
쎂ping❂쎯fang❁쎯	-10.911
qian❂쎯ji❁쎯	-10.9111
zhi❁쎯ming❂쎯de❅쎯	-10.9114
bu❄쎯zhu❃쎯ren❂쎯	-10.9115
fu❂쎯yong❄쎯	-10.9116
쎁쎃쎅	-10.9118
е	-10.9121
zhong❁쎯ri❄쎯	-10.9121
zhi❄쎯jin❁쎯ren❂쎯	-10.9122
yi❄쎯you❃쎯	-10.9122
,zai❄쎯jiao❄쎯	-10.9123
ge❄쎯you❃쎯	-10.9124
da❂쎯cheng❂쎯	-10.9125
qu❁쎯wei❄쎯yu❂쎯	-10.9131
la❄쎯xie❂쎯	-10.9134
de❅쎯zui❄쎯jia❁쎯	-10.9134
,chi❁쎯	-10.9139
qu❁쎯hua❂쎯	-10.9139
mian❄쎯lin❂쎯	-10.914
쎅ke❄쎯,	-10.914
쎁쎂yue❄쎯ren❂쎯	-10.9141
tian❁쎯wen❂쎯	-10.9144
xian❄쎯zai❄쎯de❅쎯	-10.9145
fu❄쎯suo❃쎯zhang❃쎯	-10.9147
rong❂쎯mao❂쎯	-10.9148
lv❄쎯de❅쎯	-10.915
duo❁쎯ren❂쎯	-10.9151
bei❄쎯bu❃쎯	-10.9153
fang❂쎯fu❃쎯	-10.9153
fu❄쎯shi❄쎯zhang❃쎯	-10.9159
jie❄쎯zhu❄쎯	-10.9164
fu❄쎯zhu❃쎯bian❁쎯	-10.9166
(쎁쎉쎃	-10.9167
、fu❂쎯wu❄쎯	-10.9168
,zhe❄쎯yang❂쎯	-10.9169
zai❄쎯qi❂쎯	-10.9171
zhuang❁쎯jia❃쎯	-10.9176
,quan❂쎯mian❄쎯	-10.9176
ji❁쎯su❄쎯	-10.9179
fo❂쎯shan❁쎯	-10.9181
bing❄쎯li❃쎯	-10.9182
ji❂쎯guan❄쎯	-10.9182
yu❂쎯쎂쎀쎀쎆nian❂쎯	-10.9182
qiu❁쎯na❄쎯	-10.9189
shi❄쎯yin❁쎯wei❄쎯	-10.919
、san❁쎯	-10.9192
(-	-10.9195
lian❄쎯ai❄쎯	-10.9196
huang❂쎯he❄쎯se❄쎯	-10.9199
nan❂쎯ning❂쎯shi❄쎯	-10.92
,bang❁쎯zhu❄쎯	-10.9202
can❁쎯jian❄쎯	-10.9202
ben❄쎯hui❄쎯	-10.9203
jie❄쎯quan❂쎯guo❂쎯	-10.9205
bu❄쎯fen❁쎯.	-10.9207
deng❄쎯xiao❃쎯	-10.9208
dao❃쎯xiang❄쎯	-10.921
qin❂쎯ben❃쎯	-10.9211
di❂쎯dian❄쎯	-10.9212
de❅쎯dai❄쎯biao❃쎯	-10.9213
,xie❂쎯	-10.9216
su❄쎯zao❄쎯	-10.922
chi❂쎯you❃쎯	-10.9221
xu❄쎯lie❄쎯	-10.9222
쎃ren❂쎯	-10.9229
yu❃쎯fa❁쎯zhan❃쎯	-10.9229
yue❄쎯쎁쎉ri❄쎯	-10.9232
yi❁쎯ban❄쎯	-10.9232
zhi❁쎯xia❄쎯	-10.9232
han❄쎯de❅쎯qu❁쎯	-10.9234
、yang❂쎯	-10.9235
de❅쎯jiao❃쎯se❄쎯	-10.9238
쎂.쎃	-10.9238
li❂쎯mi❃쎯,kuan❁쎯	-10.9239
∶	-10.924
hong❂쎯zao❃쎯	-10.9241
쎁쎅ri❄쎯	-10.9241
xing❄쎯ming❂쎯:	-10.9244
jing❁쎯tong❁쎯	-10.9246
shu❄쎯:	-10.9247
zhi❂쎯wei❄쎯	-10.9247
xia❂쎯쎁gan❄쎯cun❁쎯	-10.9252
ru❄쎯men❂쎯	-10.9253
bing❁쎯qi❄쎯	-10.9254
nong❂쎯ji❁쎯	-10.9254
mu❄쎯er❃쎯	-10.9256
쎁쎃쎆	-10.9256
쎁쎅쎀ke❄쎯	-10.9259
,you❃쎯de❅쎯	-10.9259
zheng❁쎯cha❁쎯	-10.9261
a❁쎯gen❁쎯ting❂쎯	-10.9261
gong❁쎯si❁쎯yi❃쎯	-10.9261
ran❂쎯qi❃쎯	-10.9265
yi❁쎯lai❄쎯	-10.9265
zhi❃쎯shi❄쎯	-10.9267
쎁쎁쎂	-10.9268
nian❂쎯jian❁쎯,	-10.9271
쎃ping❂쎯fang❁쎯	-10.9273
)deng❃쎯	-10.9274
shen❃쎯cha❂쎯	-10.9275
da❄쎯suan❄쎯	-10.9277
ren❂쎯xing❄쎯hua❁쎯	-10.9277
mei❃쎯shu❂쎯shi❁쎯	-10.9278
ying❁쎯li❄쎯	-10.9282
yang❃쎯zhi❂쎯qiu❁쎯	-10.9283
di❄쎯yi❁쎯ren❂쎯	-10.9284
쎂쎀쎀쎂	-10.9285
tong❂쎯yi❄쎯	-10.9287
쎁쎀쎂	-10.9289
de❅쎯jing❁쎯ji❄쎯	-10.9289
er❄쎯shi❄쎯	-10.929
xi❃쎯cheng❁쎯qie❁쎯	-10.9294
ke❃쎯yi❃쎯shuo❁쎯	-10.9296
gong❁쎯du❂쎯	-10.9297
쎂/	-10.9301
zhen❄쎯zhang❃쎯	-10.9301
qian❂쎯jing❃쎯	-10.9302
lei❄쎯xing❂쎯de❅쎯	-10.9306
jiao❁쎯yu❄쎯xue❂쎯	-10.9313
qian❁쎯ding❄쎯	-10.9313
.쎁쎀	-10.9315
shi❂쎯san❁쎯nian❂쎯	-10.932
xu❄쎯》:“	-10.932
xue❂쎯shi❄쎯xue❂쎯	-10.9323
yan❁쎯cao❃쎯	-10.9323
,쎁쎉쎈쎄nian❂쎯	-10.9323
zhou❁쎯ci❁쎯shi❃쎯	-10.9324
jiang❃쎯xiang❄쎯	-10.9326
er❃쎯si❁쎯	-10.9326
jie❃쎯xi❁쎯	-10.9327
ri❄쎯,	-10.9329
chu❄쎯zhang❃쎯	-10.933
쎁쎉쎉쎉	-10.9332
min❂쎯yin❂쎯	-10.9334
,ye❃쎯ke❃쎯	-10.9336
ge❁쎯wu❃쎯	-10.9336
di❄쎯liu❄쎯jie❄쎯	-10.9337
bi❃쎯li❄쎯shi❂쎯	-10.9339
yue❄쎯쎆ri❄쎯	-10.9342
쎀.쎉	-10.9342
zhi❃쎯chu❁쎯	-10.9343
.....	-10.9345
qing❁쎯mo❄쎯	-10.9346
sha❁쎯ren❂쎯	-10.9346
jin❄쎯pao❁쎯	-10.9348
,dai❄쎯shu❃쎯	-10.9349
yi❃쎯chun❂쎯	-10.9349
que❁쎯xian❄쎯	-10.935
ban❄쎯zhu❃쎯ren❂쎯	-10.935
wei❄쎯ci❃쎯	-10.9351
chong❂쎯zu❃쎯	-10.9354
feng❁쎯shui❃쎯	-10.9356
.xia❂쎯	-10.936
ma❂쎯zui❄쎯	-10.936
xun❁쎯zhang❁쎯	-10.936
zheng❁쎯qi❄쎯	-10.9361
yu❃쎯:	-10.9362
ka❃쎯la❁쎯	-10.9362
duo❁쎯yuan❂쎯	-10.9364
,bi❃쎯	-10.9369
qi❃쎯lai❂쎯,	-10.937
fa❃쎯shi❁쎯	-10.9372
ying❁쎯er❂쎯	-10.9373
shui❃쎯shang❃쎯	-10.9376
dui❄쎯hua❄쎯	-10.9377
qie❁쎯ge❁쎯	-10.9378
xi❃쎯huan❁쎯de❅쎯	-10.9379
shan❁쎯lin❂쎯	-10.938
쎀쎀쎀	-10.9384
zheng❄쎯、	-10.9385
dan❁쎯chun❂쎯	-10.9386
jiao❁쎯wang❃쎯	-10.9386
ban❁쎯,	-10.9386
yue❄쎯쎁쎁ri❄쎯	-10.9387
ju❁쎯shi❄쎯	-10.9388
yi❁쎯mian❄쎯	-10.9389
bao❃쎯bei❄쎯	-10.9389
xiang❁쎯bi❃쎯	-10.9389
hou❄쎯you❄쎯	-10.9394
fan❂쎯hua❂쎯de❅쎯	-10.9395
,ri❄쎯ben❃쎯	-10.9396
you❁쎯jiu❃쎯de❅쎯	-10.9397
jian❁쎯yuan❂쎯	-10.9397
cang❁쎯ku❄쎯	-10.9398
che❄쎯xiao❁쎯	-10.9402
zhi❂쎯zhu❁쎯	-10.9402
ying❁쎯dang❁쎯	-10.9402
zhi❁쎯yi❄쎯	-10.9403
,qing❃쎯	-10.9403
gong❁쎯ban❄쎯	-10.9404
ju❄쎯le❄쎯bu❄쎯,	-10.9406
,yong❄쎯yu❂쎯	-10.9407
pin❃쎯pai❂쎯,	-10.9407
zhui❁쎯	-10.9409
wai❄쎯,fu❂쎯	-10.941
le❅쎯xu❃쎯duo❁쎯	-10.9412
hui❂쎯jia❁쎯	-10.9415
wei❁쎯shu❁쎯ji❄쎯,	-10.9415
fu❄쎯zi❃쎯	-10.9415
yi❁쎯bian❁쎯	-10.9419
bao❄쎯》、《	-10.9424
wei❄쎯dao❄쎯	-10.9424
yi❄쎯cha❁쎯.	-10.9425
jiu❄쎯xiang❄쎯	-10.9425
long❂쎯men❂쎯	-10.9425
.쎂쎀쎀쎃nian❂쎯	-10.9427
shi❄쎯gen❁쎯ju❁쎯	-10.9429
zai❄쎯wo❃쎯guo❂쎯	-10.9429
you❃쎯hen❃쎯duo❁쎯	-10.943
mian❄쎯ji❁쎯쎉	-10.9432
gai❃쎯zhi❄쎯	-10.9432
si❄쎯mian❄쎯	-10.9434
xin❁쎯xi❁쎯lan❂쎯	-10.9435
deng❃쎯dai❁쎯	-10.9436
bu❄쎯shu❃쎯	-10.9436
ci❃쎯shu❁쎯	-10.944
ren❂쎯jun❁쎯geng❁쎯	-10.944
,dou❁쎯	-10.9443
jing❁쎯yan❄쎯de❅쎯	-10.9444
xie❃쎯zi❄쎯lou❂쎯	-10.9445
she❄쎯wai❄쎯	-10.9447
gai❁쎯gong❁쎯si❁쎯	-10.9447
lei❄쎯、	-10.9448
ren❄쎯zhi❁쎯	-10.945
xue❂쎯bo❂쎯shi❄쎯,	-10.945
an❁쎯zhi❄쎯	-10.9451
shi❄쎯zhu❃쎯ren❂쎯	-10.9451
mi❃쎯,jian❄쎯zhu❂쎯	-10.9453
tang❂쎯chao❂쎯	-10.9457
ding❄쎯zi❁쎯chan❃쎯	-10.9458
fa❃쎯ding❄쎯	-10.9459
.쎂쎀쎁쎃nian❂쎯	-10.9461
zui❄쎯xin❁쎯de❅쎯	-10.9461
kuo❄쎯zhang❁쎯	-10.9462
ming❂쎯liang❄쎯	-10.9464
shi❁쎯.	-10.9464
fu❂쎯pin❂쎯	-10.9466
nian❂쎯de❅쎯	-10.9469
.쎁쎉쎈쎄nian❂쎯	-10.9474
”cheng❁쎯hao❂쎯.	-10.9476
:쎀쎀	-10.9476
you❃쎯nong❂쎯hu❄쎯	-10.9477
bu❂쎯xing❄쎯	-10.9477
tu	-10.9478
bing❄쎯de❅쎯	-10.9479
yu❂쎯쎂쎀쎀쎇nian❂쎯	-10.9479
da❄쎯tong❂쎯	-10.948
mo❁쎯	-10.9484
,fang❄쎯	-10.9487
fu❄쎯chu❄쎯zhang❃쎯	-10.9487
、quan❂쎯guo❂쎯	-10.9488
men❂쎯,	-10.9489
xing❄쎯ming❂쎯	-10.949
쎁쎉쎈쎃	-10.9491
쎅쎀ke❄쎯,	-10.9494
,ji❁쎯bu❄쎯	-10.9496
ju❂쎯dang❃쎯zu❃쎯	-10.9496
chu❁쎯xian❄쎯le❅쎯	-10.9496
mo❂쎯shou❄쎯	-10.9498
de❅쎯tong❂쎯shi❂쎯	-10.95
mo❄쎯yuan❂쎯.	-10.95
fa❁쎯xian❄쎯le❅쎯	-10.9501
yi❁쎯xin❁쎯	-10.9503
sheng❃쎯dao❄쎯	-10.9504
쎈ren❂쎯,	-10.9504
ben❄쎯de❅쎯	-10.9506
yi❄쎯yuan❂쎯.	-10.9509
lv❃쎯ge❃쎯jin❁쎯	-10.951
mo❄쎯zi❄쎯	-10.9512
,xi❁쎯yu❃쎯	-10.9515
쎄ren❂쎯,	-10.9516
shen❃쎯mei❃쎯	-10.9517
ti❂쎯gong❁쎯zui❄쎯	-10.9518
ji❁쎯dai❁쎯	-10.9518
shu❁쎯ru❄쎯fa❃쎯	-10.9518
,dang❁쎯shi❂쎯	-10.9518
shi❄쎯wai❄쎯	-10.9519
se❄쎯su❄쎯	-10.9519
bian❄쎯shi❄쎯	-10.952
zao❄쎯zhi❃쎯	-10.9521
de❅쎯jian❁쎯fa❁쎯	-10.9521
hua❁쎯ji❁쎯	-10.9521
yi❁쎯shu❁쎯	-10.9522
쎁ping❂쎯fang❁쎯	-10.9524
wo❄쎯er❃쎯	-10.9527
da❄쎯zhan❄쎯	-10.9527
shan❁쎯yao❄쎯	-10.9529
:zhong❁쎯guo❂쎯	-10.953
fu❃쎯shi❂쎯	-10.953
fu❄쎯shi❄쎯	-10.953
;(	-10.9531
mu❄쎯,	-10.9531
shui❃쎯zhi❄쎯	-10.9532
jue❂쎯shi❄쎯	-10.9533
zhi❄쎯fu❄쎯	-10.9535
gong❁쎯shui❃쎯	-10.9536
쎁쎇쎆	-10.9536
zi❄쎯wei❄쎯	-10.9537
chu❁쎯chang❃쎯	-10.9537
fu❄쎯xing❄쎯	-10.9539
쎁쎉shi❄쎯ji❄쎯	-10.954
chong❁쎯zu❂쎯	-10.954
.(쎂)	-10.9541
ai❄쎯xin❁쎯	-10.9542
shuang❁쎯chong❂쎯	-10.9542
cong❂쎯ci❃쎯	-10.9542
”zhi❁쎯	-10.9545
yu❃쎯shi❂쎯jian❄쎯	-10.9545
mo❂쎯ca❁쎯	-10.9547
te❄쎯·	-10.9548
chuang❃쎯	-10.9552
zhi❁쎯jia❁쎯	-10.9552
wu❂쎯qiong❂쎯	-10.9553
bu❂쎯xu❁쎯yao❁쎯	-10.9554
zheng❃쎯qi❂쎯	-10.9555
tui❁쎯hang❂쎯	-10.9559
xue❂쎯bo❂쎯shi❄쎯	-10.956
zui❄쎯you❃쎯	-10.9561
쎄ping❂쎯fang❁쎯	-10.9562
li❃쎯shi❄쎯,	-10.9562
jiao❁쎯shi❁쎯.	-10.9564
tao❄쎯fang❂쎯	-10.9566
с	-10.9567
bi❄쎯yao❁쎯	-10.9568
쎀mo❄쎯xiang❄쎯su❄쎯	-10.9568
li❁쎯	-10.9569
wei❄쎯sheng❁쎯ju❂쎯	-10.957
hang❂쎯,	-10.957
de❅쎯biao❃쎯	-10.957
gong❁쎯fu❁쎯	-10.9571
쎆hao❂쎯	-10.9573
zui❄쎯gao❁쎯de❅쎯	-10.9574
yi❁쎯liao❂쎯xi❄쎯	-10.9575
yue❄쎯쎂쎉ri❄쎯	-10.9577
쎁쎉쎇쎉	-10.9579
jian❄쎯li❄쎯de❅쎯	-10.9579
쎁쎀yue❄쎯sheng❁쎯,	-10.9579
ji❁쎯li❄쎯	-10.9579
lai❂쎯yuan❂쎯:	-10.958
duo❁쎯yang❂쎯	-10.9584
yong❄쎯shu❁쎯	-10.9584
wei❄쎯guo❂쎯jia❁쎯	-10.9585
hai❃쎯bin❁쎯	-10.9588
chuang❁쎯hua❁쎯	-10.959
tou❂쎯chan❃쎯	-10.9592
.쎁쎉쎈쎅nian❂쎯	-10.9593
nan❂쎯ning❂쎯	-10.9596
yue❄쎯kan❁쎯	-10.9596
guan❃쎯wei❁쎯hui❄쎯	-10.9597
shou❁쎯huo❄쎯	-10.9604
wu❄쎯,	-10.9605
l	-10.961
xiao❄쎯guo❃쎯.	-10.9615
zi❄쎯ben❄쎯	-10.9615
shi❄쎯dui❄쎯	-10.9616
gan❃쎯dong❄쎯	-10.9616
shi❃쎯qi❂쎯	-10.9616
da❄쎯gang❁쎯	-10.9617
dou❁쎯zai❄쎯	-10.9618
chu❁쎯ban❃쎯.	-10.9619
,yi❃쎯“	-10.962
diao❄쎯shi❄쎯	-10.962
,sui❁쎯ran❂쎯	-10.962
can❁쎯guan❁쎯	-10.9622
yuan❂쎯nian❂쎯(	-10.9624
jiu❃쎯jiang❁쎯	-10.9624
,sui❂쎯zhao❁쎯	-10.9626
zhi❄쎯ji❄쎯	-10.9629
yun❁쎯	-10.963
ming❂쎯cheng❂쎯	-10.9632
chang❃쎯,	-10.9635
di❄쎯쎅	-10.9636
dan❁쎯mai❄쎯	-10.9637
qian❂쎯li❄쎯	-10.9637
、bei❃쎯	-10.9643
shi❃쎯》	-10.9644
yong❁쎯zheng❁쎯	-10.9644
쎅gong❁쎯li❃쎯,	-10.9645
yu❃쎯fa❃쎯	-10.9645
zhi❁쎯xing❁쎯	-10.9647
zhan❄쎯dian❃쎯	-10.9651
de❅쎯shi❄쎯qing❂쎯	-10.9653
yue❄쎯쎁쎄ri❄쎯	-10.9653
wu❃쎯chang❁쎯	-10.9655
zou❃쎯jin❄쎯	-10.9655
chu❁쎯guo❁쎯	-10.9656
huan❄쎯xiang❃쎯	-10.9657
lie❄쎯wei❄쎯	-10.9658
xiang❁쎯jie❁쎯	-10.9659
qing❄쎯le❄쎯	-10.9661
(qu❄쎯	-10.9664
jie❃쎯fang❄쎯hou❄쎯	-10.9664
qian❂쎯duan❁쎯	-10.9664
”,shi❄쎯	-10.9665
,na❃쎯	-10.9665
di❄쎯wang❂쎯	-10.9666
yong❄쎯hu❄쎯de❅쎯	-10.9666
nian❂쎯qing❁쎯de❅쎯	-10.9667
쎁쎀쎁	-10.9668
wen❂쎯shi❃쎯	-10.9669
bing❁쎯fei❁쎯	-10.967
yue❄쎯쎉ri❄쎯	-10.967
mei❃쎯ren❂쎯	-10.9672
guang❁쎯xian❄쎯	-10.9673
hun❄쎯fa❃쎯	-10.9674
zai❄쎯na❄쎯de❅쎯	-10.9677
wei❄쎯zhu❃쎯ben❄쎯	-10.9678
dong❁쎯xian❄쎯	-10.9681
tong❁쎯guo❄쎯dui❄쎯	-10.9685
hua❁쎯niao❃쎯	-10.9688
tong❃쎯cheng❁쎯	-10.9689
쎁쎂yue❄쎯,	-10.9692
zhan❄쎯.	-10.9692
,mei❃쎯nian❂쎯	-10.9694
,can❁쎯yu❃쎯	-10.9695
nan❂쎯jian❁쎯	-10.9698
huo❄쎯de❂쎯zhe❃쎯	-10.9701
yun❃쎯dong❄쎯hui❄쎯	-10.9702
쎁liang❃쎯,	-10.9705
xuan❂쎯lv❄쎯	-10.9705
ye❃쎯neng❂쎯	-10.9707
ling❂쎯hun❂쎯	-10.9707
zao❄쎯yin❁쎯	-10.9708
hai❁쎯	-10.9711
le❅쎯《	-10.9712
zhun❃쎯ze❂쎯	-10.9714
xi❁쎯zhou❁쎯	-10.9717
shou❃쎯hu❄쎯	-10.9718
、wang❂쎯	-10.9718
da❄쎯fang❁쎯	-10.9719
rou❂쎯mao❂쎯	-10.9721
qi❃쎯fen❁쎯	-10.9723
zhi❃쎯tong❄쎯	-10.9724
《guan❁쎯yu❂쎯	-10.9725
feng❁쎯kuang❂쎯	-10.9731
bi❃쎯hua❄쎯	-10.9732
xian❁쎯ming❂쎯	-10.9733
xian❁쎯tian❁쎯	-10.9736
zhang❃쎯da❄쎯	-10.9737
쎁쎉쎉쎃	-10.9739
쎀°	-10.974
peng❂쎯zhen❄쎯	-10.974
fu❂쎯zhou❁쎯shi❄쎯	-10.9742
xiao❃쎯kuai❄쎯	-10.9742
shi❄쎯jie❄쎯bei❁쎯	-10.9742
wei❄쎯zhi❃쎯	-10.9743
shun❄쎯jian❁쎯	-10.9746
tu❃쎯er❃쎯qi❂쎯	-10.9747
meng❁쎯gu❃쎯zu❂쎯	-10.9748
duan❃쎯ji❁쎯	-10.9749
yi❁쎯ben❄쎯	-10.975
chan❃쎯shu❄쎯le❅쎯	-10.975
yu❃쎯、ding❄쎯yu❃쎯;	-10.9753
ru❄쎯wu❃쎯	-10.9755
ge❃쎯li❃쎯de❅쎯	-10.9755
chu❃쎯meng❂쎯	-10.9755
yue❄쎯쎁쎃ri❄쎯	-10.9756
ji❂쎯xian❄쎯	-10.9757
lu❄쎯xu❄쎯	-10.9757
쎉ping❂쎯fang❁쎯	-10.9757
쎄ren❂쎯	-10.9758
bu❄쎯la❁쎯	-10.9761
bei❄쎯yu❄쎯wei❄쎯	-10.9762
(쎁쎅	-10.9769
う	-10.9769
zhu❁쎯hai❃쎯	-10.9771
dan❄쎯qi❄쎯	-10.9771
ji❂쎯da❄쎯de❅쎯	-10.9774
쎁쎉쎂쎇nian❂쎯	-10.9777
jiu❄쎯zhi❃쎯	-10.978
zheng❄쎯wei❄쎯	-10.9781
ma❁쎯	-10.9781
shen❁쎯bian❁쎯	-10.9782
mo❄쎯duan❁쎯	-10.9783
yi❃쎯dong❁쎯	-10.9783
shi❁쎯du❄쎯:	-10.9783
qi❃쎯yuan❂쎯yu❂쎯	-10.9786
jia❃쎯zhuang❄쎯	-10.9787
fen❁쎯lei❄쎯:	-10.9787
quan❂쎯jiao❄쎯	-10.9791
li❄쎯ben❄쎯qing❄쎯	-10.9793
ju❄쎯chi❃쎯	-10.9794
bu❂쎯jue❂쎯	-10.9798
jin❄쎯ji❁쎯nian❂쎯	-10.9799
gui❁쎯ge❂쎯:	-10.9799
dui❄쎯ce❄쎯	-10.9799
de❅쎯yu❃쎯yan❂쎯	-10.9802
qiang❃쎯jiu❄쎯	-10.9803
di❄쎯yi❁쎯ming❂쎯	-10.9806
쎅쎀mi❃쎯	-10.9807
jian❄쎯shang❃쎯	-10.9808
ㄒ	-10.9809
tou❄쎯guo❄쎯	-10.9811
ben❃쎯ji❁쎯	-10.9812
,쎁쎉쎈쎅nian❂쎯	-10.9813
gan❁쎯、	-10.9813
jie❄쎯de❅쎯	-10.9815
da❂쎯zao❄쎯de❅쎯	-10.9815
쎇쎅쎀	-10.9816
de❅쎯han❄쎯zu❂쎯	-10.9819
ge❃쎯zuo❄쎯,	-10.982
gu❃쎯lao❃쎯de❅쎯	-10.982
tian❁쎯zi❃쎯	-10.9823
dui❄쎯ta❁쎯	-10.9824
chang❃쎯suo❃쎯.	-10.9826
mang❃쎯	-10.9826
쎁쎉쎂쎈nian❂쎯	-10.9827
ke❁쎯,	-10.9828
,ye❃쎯jiu❄쎯shi❄쎯	-10.9828
feng❁쎯ge❂쎯,	-10.983
jin❃쎯zhang❁쎯	-10.9832
ru❂쎯xia❄쎯	-10.9833
jing❁쎯cheng❂쎯	-10.9835
xiu❁쎯yang❃쎯	-10.9836
pin❃쎯pai❂쎯de❅쎯	-10.9838
fu❂쎯diao❁쎯	-10.9838
qian❂쎯feng❁쎯	-10.9845
xiang❄쎯qian❂쎯	-10.9846
zheng❁쎯yi❄쎯	-10.9849
kui❄쎯yang❂쎯	-10.9851
da❄쎯zhi❄쎯	-10.9852
nan❂쎯shan❁쎯	-10.9852
shang❄쎯wei❄쎯	-10.9854
feng❁쎯xian❄쎯	-10.9855
ji❄쎯shi❁쎯	-10.9856
.쎁쎉쎉쎇nian❂쎯	-10.9857
zhi❃쎯dao❃쎯yuan❂쎯	-10.986
zhen❁쎯gui❄쎯	-10.9862
gang❁쎯guan❃쎯	-10.9864
nan❂쎯lin❂쎯	-10.9866
yue❄쎯쎃ri❄쎯	-10.9867
you❄쎯jiao❄쎯	-10.9871
yi❁쎯tong❂쎯	-10.9872
nian❂쎯lai❂쎯	-10.9873
ke❃쎯rong❂쎯na❄쎯	-10.9877
.쎁쎉쎈쎈nian❂쎯	-10.9881
tai❄쎯kong❁쎯	-10.9883
:쎀.	-10.9884
、liu❂쎯	-10.9885
yi❄쎯hui❄쎯	-10.9888
%%*/	-10.989
jian❄쎯jian❄쎯	-10.9891
sai❁쎯er❃쎯	-10.9896
zhao❁쎯shou❁쎯	-10.9897
ji❄쎯nian❄쎯guan❃쎯	-10.9897
jian❁쎯yu❄쎯	-10.9898
guan❃쎯zhang❃쎯	-10.9899
de❅쎯zi❄쎯ran❂쎯	-10.9899
qing❁쎯chu❂쎯	-10.9899
zhi❁쎯.”	-10.9899
xian❃쎯wei❁쎯	-10.9899
jia❁쎯shui❃쎯	-10.9899
wan❃쎯nian❂쎯	-10.99
;《	-10.9901
gu❃쎯ke❁쎯	-10.9901
쎂쎈ri❄쎯	-10.9903
,bei❃쎯jing❁쎯	-10.9909
zu❃쎯ji❂쎯	-10.991
yan❃쎯chang❄쎯de❅쎯	-10.991
.쎁쎉쎉쎂nian❂쎯	-10.991
jie❃쎯jue❂쎯le❅쎯	-10.991
de❅쎯te❄쎯se❄쎯	-10.9911
shu❁쎯dian❄쎯	-10.9914
ji❁쎯fen❁쎯	-10.9915
suo❃쎯jian❄쎯	-10.9916
,gu❄쎯cheng❁쎯	-10.9917
yao❂쎯gun❃쎯	-10.9918
bing❄쎯,	-10.9919
pin❃쎯.	-10.9922
쎁.쎇	-10.9924
wen❂쎯xue❂쎯jia❁쎯	-10.9925
fang❃쎯zhen❁쎯	-10.9926
de❅쎯you❂쎯xi❄쎯	-10.9928
pian❄쎯	-10.993
shi❃쎯liao❄쎯	-10.9931
ji❁쎯li❃쎯	-10.9932
da❄쎯huo❃쎯	-10.9933
guan❃쎯li❃쎯you❃쎯	-10.9935
mou❃쎯gan❄쎯	-10.9936
mei❃쎯yu❄쎯	-10.9937
ben❁쎯teng❂쎯	-10.9938
hui❂쎯guo❂쎯	-10.9939
de❅쎯shi❃쎯yong❄쎯	-10.9941
chu❁쎯se❄쎯de❅쎯	-10.9941
su❄쎯she❄쎯	-10.9942
da❁쎯jian❄쎯	-10.9943
gai❃쎯jian❄쎯	-10.9947
gong❁쎯fen❁쎯	-10.9949
쎁:	-10.995
zhuo❂쎯yue❄쎯de❅쎯	-10.9951
zong❃쎯e❂쎯	-10.9953
shou❃쎯chuang❄쎯	-10.9953
,gai❃쎯	-10.9955
zhan❁쎯you❃쎯	-10.9956
qiu❂쎯zhi❂쎯	-10.9956
chu❁쎯shou❄쎯	-10.9957
쎈nian❂쎯	-10.9958
zheng❁쎯shou❁쎯	-10.9958
zhi❁쎯yu❂쎯	-10.9959
li❄쎯da❂쎯zao❄쎯	-10.996
rong❂쎯ji❄쎯	-10.996
fu❂쎯yao❁쎯	-10.9961
,dai❄쎯shu❃쎯yu❂쎯	-10.9961
re❄쎯liang❂쎯	-10.9962
lao❂쎯wu❄쎯	-10.9962
쎂쎀gan❄쎯	-10.9964
he❂쎯gu❃쎯	-10.9964
tong❄쎯ku❃쎯	-10.9967
shi❄쎯jie❄쎯de❅쎯	-10.9968
shi❄쎯wen❂쎯:	-10.9969
wei❁쎯ruan❃쎯	-10.9969
fa❁쎯sheng❁쎯le❅쎯	-10.9969
,huo❄쎯zhe❃쎯	-10.997
bao❃쎯shan❁쎯	-10.9971
jie❂쎯gou❃쎯,	-10.9972
ban❃쎯,	-10.9972
peng❁쎯	-10.9974
)zi❄쎯	-10.998
yue❄쎯쎂ri❄쎯	-10.9981
bing❁쎯xiang❁쎯	-10.9984
쎁쎃gan❄쎯	-10.9985
mian❄쎯mao❄쎯	-10.9987
qian❂쎯lai❂쎯	-10.9989
han❄쎯yan❂쎯jiu❁쎯	-10.9991
,shen❁쎯	-10.9991
huai❂쎯nan❂쎯	-10.9991
yi❁쎯zhan❄쎯shi❄쎯	-10.9991
u❂쎯qi❃쎯qiu❁쎯	-10.9993
jiao❄쎯xiao❃쎯	-10.9994
jin❁쎯zhi❃쎯	-10.9996
bei❁쎯hou❄쎯	-10.9999
ge❃쎯yi❁쎯	-11.0002
zhen❄쎯dong❁쎯	-11.0005
fu❂쎯yi❄쎯	-11.0005
─	-11.0007
yu❄쎯ming❂쎯	-11.0008
fa❁쎯guang❁쎯	-11.001
ma❂쎯you❂쎯	-11.0011
fa❁쎯xian❄쎯de❅쎯	-11.0016
gong❁쎯cheng❂쎯、	-11.0018
suo❃쎯zhi❄쎯	-11.0019
bei❃쎯wei❄쎯	-11.002
wa❂쎯	-11.0022
fang❂쎯huo❃쎯	-11.0022
zi❄쎯hang❂쎯che❁쎯	-11.0024
dui❄쎯kang❄쎯	-11.0026
deng❃쎯;	-11.0026
()han❄쎯	-11.0027
cheng❂쎯nan❂쎯	-11.0027
ju❄쎯chi❁쎯xiang❁쎯	-11.0029
.쎁쎉쎉쎃nian❂쎯	-11.0032
bian❄쎯liang❂쎯	-11.0033
ke❄쎯·	-11.0035
bei❄쎯ren❄쎯wei❄쎯	-11.0038
¥	-11.0038
wai❄쎯lai❂쎯	-11.0041
lv❄쎯ling❃쎯	-11.0043
쎁쎀쎄	-11.0044
zhi❄쎯cheng❂쎯de❅쎯	-11.0045
ban❁쎯fa❁쎯	-11.0048
de❅쎯er❂쎯zi❃쎯	-11.0052
..)	-11.0054
wei❁쎯bo❂쎯	-11.0055
dong❁쎯shan❁쎯	-11.0058
,ren❂쎯们	-11.0059
shui❃쎯ping❂쎯.	-11.006
dai❄쎯lai❂쎯de❅쎯	-11.0065
jiang❄쎯zhi❄쎯	-11.0068
,li❄쎯yong❄쎯	-11.0072
de❅쎯hang❂쎯wei❄쎯	-11.0072
mo❂쎯gu❁쎯	-11.0073
da❂쎯biao❁쎯	-11.0075
.쎁쎉쎅쎈nian❂쎯	-11.0075
쎁쎄쎀쎀	-11.0082
chu❂쎯fang❂쎯	-11.0084
zuo❄쎯feng❁쎯	-11.0084
chu❃쎯bei❄쎯	-11.0085
쎁쎉쎂	-11.0086
de❅쎯peng❂쎯you❃쎯	-11.0087
er❄쎯ji❁쎯	-11.0089
li❃쎯shi❄쎯hui❄쎯	-11.0089
she❄쎯ji❄쎯yuan❄쎯	-11.009
nao❃쎯xie❃쎯guan❃쎯	-11.009
fang❁쎯shi❄쎯.	-11.0091
de❅쎯di❄쎯yi❁쎯	-11.0091
nong❂쎯yu❄쎯	-11.0092
、an❁쎯quan❂쎯	-11.0092
".	-11.0092
zhuang❄쎯yuan❂쎯	-11.0094
쎂쎅쎀ke❄쎯	-11.0097
쎁쎁-	-11.0098
/쎁	-11.0099
ta❁쎯fu❂쎯	-11.01
yue❁쎯쎂	-11.0102
,gei❃쎯	-11.0103
ye❄쎯,	-11.0103
shi❄쎯tu❂쎯	-11.0105
shi❂쎯hui❄쎯	-11.0107
po❁쎯you❃쎯	-11.0107
,na❃쎯ma❅쎯	-11.0108
ce❄쎯hua❂쎯、	-11.0108
fu❄쎯han❂쎯	-11.0109
쎁쎁쎅	-11.0109
.nan❂쎯chao❂쎯	-11.011
shi❁쎯、	-11.0112
,fen❁쎯	-11.0114
bian❁쎯ru❄쎯	-11.0115
jian❃쎯fei❂쎯	-11.0116
zao❃쎯can❁쎯	-11.0117
nong❂쎯tian❂쎯	-11.0117
yi❁쎯yi❁쎯	-11.0119
jian❁쎯fa❁쎯han❄쎯	-11.012
cai❁쎯	-11.0122
gai❃쎯ming❂쎯	-11.0122
bu❂쎯gan❃쎯	-11.0123
.쎁쎉쎉쎈nian❂쎯	-11.0124
wen❂쎯hua❁쎯bu❄쎯	-11.0124
zhai❄쎯quan❄쎯	-11.0128
zai❄쎯jia❁쎯	-11.0129
、xiu❁쎯xian❂쎯	-11.013
yin❂쎯sheng❁쎯	-11.013
ran❂쎯er❂쎯	-11.013
(쎁쎉쎄	-11.0131
wen❂쎯ben❄쎯	-11.0133
pai❂쎯gu❃쎯	-11.0134
han❄쎯dai❄쎯	-11.0135
di❄쎯shi❂쎯er❄쎯	-11.0136
de❂쎯yi❄쎯	-11.0137
jiao❄쎯di❁쎯	-11.0139
kun❁쎯shan❁쎯	-11.0141
pi❁쎯ping❂쎯	-11.0141
yu❂쎯쎂쎀쎀쎃nian❂쎯	-11.0142
gao❁쎯xiao❄쎯de❅쎯	-11.0143
de❂쎯tian❁쎯du❂쎯	-11.0144
yong❃쎯jiu❃쎯	-11.0147
zao❄쎯cheng❂쎯de❅쎯	-11.0148
xin❁쎯cun❁쎯	-11.0148
qian❁쎯yu❂쎯	-11.0149
duan❃쎯,	-11.0151
fu❄쎯jin❄쎯de❅쎯	-11.0153
chi❁쎯xiu❁쎯	-11.0153
yi❁쎯da❄쎯	-11.0156
liang❄쎯du❄쎯	-11.0156
xiao❃쎯you❂쎯xi❄쎯	-11.0157
wei❂쎯ji❁쎯	-11.0158
shi❂쎯cai❂쎯	-11.0158
쎂쎀쎀쎁	-11.0161
.쎁쎉쎉쎅nian❂쎯	-11.0164
tu❂쎯》	-11.0165
n❃쎯“wei❂쎯chao❁쎯”	-11.0166
쎁쎅gan❄쎯	-11.0167
shen❁쎯hou❄쎯	-11.0167
gao❁쎯shang❄쎯	-11.0168
jia❁쎯gong❁쎯、	-11.0169
shang❃쎯fang❁쎯	-11.0171
zhi❁쎯qing❂쎯	-11.0173
qian❂쎯ti❂쎯	-11.0175
쎁쎉쎈쎂	-11.0178
zhen❁쎯shi❂쎯de❅쎯	-11.018
zhan❄쎯zhi❃쎯zai❄쎯	-11.0181
shi❂쎯duo❁쎯nian❂쎯	-11.0182
,zhi❂쎯dao❄쎯	-11.0183
yi❁쎯guan❄쎯	-11.0183
de❅쎯qing❄쎯yin❁쎯	-11.0184
xiang❁쎯xi❁쎯	-11.0185
xiang❁쎯ji❁쎯	-11.0187
she❄쎯bei❄쎯.	-11.0187
xing❄쎯qi❃쎯	-11.0189
,huan❂쎯jing❄쎯	-11.0189
yue❄쎯쎄ri❄쎯	-11.0191
nan❂쎯fei❁쎯	-11.0192
shui❃쎯zi❁쎯yuan❂쎯	-11.0194
.쎂쎀쎀쎁nian❂쎯	-11.0195
ge❄쎯zi❄쎯	-11.0196
chuan❂쎯song❄쎯	-11.0197
ge❃쎯fa❃쎯	-11.0198
da❄쎯mi❃쎯	-11.0198
jia❄쎯gou❃쎯	-11.02
wei❄쎯yong❄쎯hu❄쎯	-11.0204
,di❂쎯zheng❄쎯	-11.0206
feng❁쎯su❂쎯	-11.0208
ci❂쎯yu❃쎯	-11.0212
bo❂쎯hai❃쎯	-11.0212
bu❄쎯lu❃쎯	-11.0212
、jin❁쎯	-11.0213
diao❄쎯ren❂쎯	-11.0214
guan❃쎯li❃쎯deng❃쎯	-11.0217
lie❄쎯,	-11.0219
zong❃쎯dui❄쎯	-11.0219
jin❁쎯ling❂쎯	-11.0224
、mei❃쎯guo❂쎯	-11.0226
lao❃쎯nian❂쎯ren❂쎯	-11.0226
shuo❁쎯fa❃쎯	-11.0227
zhu❁쎯hou❂쎯	-11.0227
bu❄쎯bing❁쎯	-11.0228
shi❂쎯zhuang❁쎯	-11.023
ス	-11.023
geng❁쎯you❃쎯	-11.0231
fang❁쎯xiang❁쎯	-11.0233
fang❂쎯xing❂쎯	-11.0233
jiu❁쎯fen❁쎯	-11.0234
qi❄쎯wu❄쎯	-11.0236
shang❃쎯xian❄쎯	-11.0236
쎃.쎂	-11.0237
pu❂쎯tao❂쎯ya❂쎯	-11.0241
、guo❂쎯ji❄쎯	-11.0242
zhuan❃쎯xiang❄쎯	-11.0242
suo❃쎯xu❁쎯	-11.0244
,liang❃쎯	-11.0246
sui❄쎯yue❄쎯	-11.0246
,bi❃쎯ru❂쎯	-11.0247
、ke❁쎯yan❂쎯	-11.0248
shui❃쎯zhun❃쎯	-11.0248
dou❁쎯bu❂쎯	-11.0248
ji❂쎯ta❁쎯	-11.0249
nai❃쎯you❂쎯	-11.0249
li❄쎯qiu❂쎯	-11.0252
gang❁쎯jin❁쎯	-11.0252
tong❁쎯wang❃쎯	-11.0252
bu❂쎯yu❄쎯	-11.0257
◆	-11.0257
yi❁쎯yuan❄쎯、	-11.026
gong❁쎯ke❄쎯	-11.026
쎁gong❁쎯li❃쎯	-11.0261
xi❁쎯shan❁쎯	-11.0262
yu❂쎯쎂쎀쎀쎄nian❂쎯	-11.0265
.jian❄쎯yu❂쎯	-11.0265
mian❄쎯bu❄쎯	-11.0271
cong❂쎯zhong❁쎯	-11.0271
.dui❄쎯yu❂쎯	-11.0275
к	-11.0275
shang❃쎯zui❄쎯	-11.0276
xue❂쎯shuo❁쎯	-11.0278
guang❁쎯qu❁쎯	-11.028
si❄쎯yuan❄쎯	-11.0282
kong❃쎯long❂쎯	-11.0282
jian❄쎯dao❄쎯	-11.0282
.쎁쎉쎉쎆nian❂쎯	-11.0284
xi❄쎯tong❃쎯.	-11.0285
er❂쎯yi❃쎯	-11.0286
bu❂쎯ru❂쎯	-11.0286
쎂gong❁쎯li❃쎯,	-11.0288
ル	-11.0288
shan❁쎯peng❂쎯	-11.0289
ye❃쎯xu❃쎯	-11.0289
liu❂쎯chang❄쎯	-11.029
β	-11.0292
zong❁쎯zhi❃쎯shi❄쎯	-11.0293
yi❁쎯wu❄쎯	-11.0296
gao❁쎯feng❁쎯	-11.0296
tan❄쎯ce❄쎯	-11.0298
《hong❂쎯	-11.0299
%de❅쎯	-11.0299
shen❁쎯hua❁쎯	-11.0299
fa❃쎯,	-11.03
ke❃쎯zai❄쎯	-11.03
liang❃쎯zhe❃쎯	-11.0301
zhe❄쎯zuo❄쎯	-11.0301
que❄쎯shi❄쎯	-11.0302
deng❃쎯de❅쎯.	-11.0303
,ruo❄쎯	-11.0305
.xing❂쎯rong❂쎯	-11.0306
jun❁쎯shou❁쎯ru❄쎯	-11.0307
,de❅쎯li❃쎯wei❄쎯	-11.0308
zhong❁쎯xing❄쎯	-11.0308
xue❂쎯tang❂쎯	-11.0311
lie❄쎯pian❁쎯	-11.0312
bo❁쎯chong❂쎯	-11.0314
qing❁쎯qing❁쎯	-11.0314
xue❂쎯hui❄쎯fu❄쎯	-11.0315
ㄌ	-11.0317
er❄쎯shou❃쎯	-11.0318
쎃gong❁쎯li❃쎯,	-11.0318
jiao❁쎯shi❁쎯、	-11.0318
biao❁쎯qian❁쎯	-11.0319
na❄쎯fen❁쎯mi❄쎯	-11.0319
ben❄쎯yu❄쎯chang❃쎯	-11.0321
zhan❁쎯ling❃쎯	-11.0325
sheng❁쎯ping❂쎯	-11.0327
hai❂쎯zi❃쎯们	-11.0331
you❃쎯ming❂쎯de❅쎯	-11.0335
zuan❁쎯dan❄쎯	-11.0335
bian❁쎯xie❃쎯de❅쎯	-11.0339
zong❄쎯dui❄쎯	-11.0339
hua❁쎯xue❂쎯xi❄쎯	-11.0342
bei❄쎯er❃쎯	-11.0347
、huan❂쎯jing❄쎯	-11.0348
zheng❄쎯ce❄쎯,	-11.0348
zhi❄쎯bao❃쎯	-11.0351
qu❁쎯she❂쎯	-11.0352
gang❁쎯ban❃쎯	-11.0353
de❅쎯li❃쎯wei❄쎯zhi	-11.0354
xiu❁쎯xi❁쎯	-11.0355
.쎁쎉쎈쎇nian❂쎯	-11.0356
sha❁쎯si❃쎯	-11.0357
yi❁쎯ci❂쎯	-11.0358
san❁쎯bai❃쎯	-11.0362
쎅ren❂쎯	-11.0363
°C,	-11.0363
dang❁쎯shi❂쎯de❅쎯	-11.0363
mo❄쎯ping❂쎯mi❃쎯	-11.0363
bian❄쎯jiao❁쎯	-11.0364
lv❄쎯se❄쎯,	-11.0364
leng❃쎯dong❄쎯	-11.0365
쎇hao❂쎯	-11.0365
hai❃쎯ba❂쎯쎂	-11.0367
bu❄쎯men❂쎯.	-11.0368
,an❄쎯	-11.0372
guan❃쎯li❃쎯chu❄쎯	-11.0374
zhan❁쎯ju❁쎯	-11.0374
bian❄쎯ji❂쎯	-11.0375
qi❁쎯xi❁쎯	-11.0375
xue❂쎯ming❂쎯:	-11.0378
de❅쎯zong❁쎯zhi❃쎯	-11.0379
zuo❄쎯cheng❂쎯	-11.0381
lin❂쎯ba❁쎯	-11.0382
zhi❄쎯yuan❄쎯zhe❃쎯	-11.0383
쎀mo❄쎯yuan❂쎯,	-11.0384
cai❂쎯zheng❄쎯ju❂쎯	-11.0385
zhuang❁쎯ji❁쎯	-11.0386
yi❁쎯dan❄쎯	-11.0387
쎁쎂쎃	-11.0389
bi❄쎯hua❄쎯	-11.0395
jian❁쎯shi❃쎯le❅쎯	-11.0396
yi❃쎯tai❄쎯wang❃쎯	-11.0398
cai❂쎯liao❄쎯:	-11.0403
bin❄쎯	-11.0403
jun❁쎯fen❁쎯qu❁쎯	-11.0403
❄쎯you❁쎯yue❄쎯	-11.0404
min❃쎯dong❁쎯	-11.0405
gan❃쎯lan❃쎯	-11.0406
wo❃쎯jiao❄쎯	-11.0408
yu❄쎯ji❄쎯	-11.0408
.zhi❃쎯	-11.0412
shu❄쎯ju❁쎯xian❄쎯	-11.0415
ru❂쎯tong❂쎯	-11.0416
de❅쎯mao❄쎯	-11.0418
쎆yue❄쎯jia❁쎯ru❄쎯	-11.0419
,xian❁쎯duan❁쎯	-11.0419
bu❂쎯zhi❁쎯dao❄쎯	-11.0419
de❅쎯qu❁쎯.	-11.0422
jian❃쎯qing❁쎯	-11.0422
쎂ren❂쎯	-11.0425
zi❄쎯zhu❄쎯	-11.0426
jiao❁쎯yu❄쎯jia❁쎯	-11.0426
de❅쎯fa❃쎯lv❄쎯	-11.0427
xing❁쎯ji❁쎯	-11.0428
,li❄쎯ru❂쎯	-11.0428
shang❁쎯dian❄쎯	-11.0429
:쎆	-11.0433
、jiang❁쎯su❁쎯	-11.0435
쎃/	-11.0436
zheng❁쎯qu❃쎯	-11.0437
쎁쎄gan❄쎯	-11.0438
zhong❁쎯suo❃쎯	-11.0438
jian❄쎯guo❂쎯hou❄쎯	-11.0438
chong❂쎯bing❄쎯	-11.044
di❄쎯ba❁쎯jie❄쎯	-11.0441
、lv❃쎯you❂쎯	-11.0441
ren❂쎯,geng❁쎯de❅쎯	-11.0442
xian❄쎯xiang❄쎯.	-11.0442
yue❄쎯쎇ri❄쎯	-11.0442
rong❂쎯dian❃쎯	-11.0443
neng❂쎯zai❄쎯	-11.0449
shen❁쎯gao❁쎯	-11.0449
shui❃쎯xiang❁쎯	-11.045
ru❄쎯qin❁쎯	-11.0451
쎁쎈쎀쎀	-11.0454
jian❁쎯you❃쎯	-11.0454
wen❂쎯xue❂쎯yuan❄쎯	-11.0455
shi❄쎯wo❃쎯们	-11.0457
shi❁쎯ji❂쎯	-11.0461
bei❄쎯shou❄쎯	-11.0461
,sui❁쎯	-11.0461
dui❁쎯ji❁쎯	-11.0462
〗	-11.0467
.bi❃쎯yu❄쎯	-11.047
hui❄쎯zhi❄쎯	-11.0473
쎁쎆gan❄쎯	-11.0474
ji❁쎯xiao❄쎯	-11.0475
〖	-11.0477
xin❁쎯ji❁쎯	-11.0477
yi❂쎯nan❂쎯	-11.0479
sheng❃쎯li❄쎯	-11.048
li❄쎯du❄쎯	-11.048
gai❃쎯liang❂쎯	-11.0481
ji❁쎯yu❄쎯	-11.0481
ming❂쎯tian❁쎯	-11.0482
shi❃쎯ming❄쎯	-11.0483
쎁쎅nian❂쎯	-11.0484
qian❂쎯bi❄쎯	-11.0484
shi❂쎯zai❄쎯	-11.0485
da❂쎯yin❄쎯ji❁쎯	-11.0485
suo❃쎯zhao❂쎯	-11.0488
mo❄쎯ping❂쎯fang❁쎯	-11.0491
쎁쎀쎀쎀쎀	-11.0492
an❁쎯cha❁쎯	-11.0493
chu❂쎯shi❁쎯	-11.0495
tong❄쎯,	-11.0495
jun❁쎯heng❂쎯	-11.0497
dou❁쎯yao❁쎯	-11.0498
zhi❄쎯yi❂쎯	-11.0504
chu❁쎯hang❂쎯	-11.0504
ju❄쎯jue❂쎯	-11.0505
zhang❄쎯hu❄쎯	-11.0505
zhe❄쎯ma❅쎯	-11.0506
yu❄쎯chong❂쎯	-11.0506
tian❁쎯jia❁쎯ji❄쎯	-11.0507
ke❃쎯wei❄쎯	-11.0508
,쎁쎉쎉쎆nian❂쎯	-11.051
jing❁쎯mao❄쎯	-11.0511
shui❃쎯tian❂쎯	-11.0515
zi❃쎯nv❃쎯	-11.0517
tong❁쎯hang❂쎯	-11.0517
.쎁쎉쎈쎃nian❂쎯	-11.0521
zui❄쎯shou❄쎯	-11.0521
ban❄쎯gong❁쎯lou❂쎯	-11.0522
zhu❃쎯liao❄쎯:	-11.0523
jiao❄쎯shao❃쎯	-11.0525
de❅쎯xue❂쎯xi❂쎯	-11.0527
쎁쎇쎅	-11.0528
,neng❂쎯gou❄쎯	-11.053
“wei❂쎯chao❁쎯”	-11.053
qing❁쎯xiang❁쎯	-11.0531
min❂쎯shi❄쎯	-11.0531
jing❁쎯yan❄쎯han❄쎯	-11.0532
bing❁쎯bu❂쎯shi❄쎯	-11.0532
chao❂쎯zhou❁쎯	-11.0533
zao❁쎯yu❄쎯	-11.0533
(쎁쎇	-11.0533
you❂쎯cai❄쎯	-11.0533
bing❁쎯me❅쎯you❃쎯	-11.0535
feng❁쎯mi❄쎯	-11.0536
zhu❃쎯shou❂쎯	-11.0536
han❂쎯cha❁쎯	-11.0537
hou❄쎯mian❄쎯	-11.0539
zi❁쎯yuan❂쎯,	-11.054
в	-11.0541
fu❂쎯neng❂쎯	-11.0543
ai❄쎯er❃쎯lan❂쎯	-11.0546
쎁쎀mo❄쎯	-11.0546
sheng❃쎯、shi❄쎯	-11.0547
ni❂쎯si❁쎯	-11.0548
쎁쎃쎃	-11.0549
qiao❂쎯mu❄쎯	-11.055
zhong❁쎯lu❄쎯	-11.0551
de❂쎯zhi❁쎯	-11.0551
zhu❁쎯you❂쎯	-11.0552
zong❃쎯du❁쎯	-11.0553
ya❄쎯tai❄쎯	-11.0554
.쎂쎀쎀쎀nian❂쎯	-11.0556
zhang❃쎯쎁	-11.0556
hua❄쎯ju❄쎯	-11.0559
guo❄쎯duo❁쎯	-11.0561
chang❁쎯xian❄쎯	-11.0562
zi❁쎯xun❂쎯、	-11.0563
fen❁쎯yuan❄쎯	-11.0564
ren❂쎯zai❄쎯	-11.0565
ping❂쎯deng❃쎯	-11.0568
.쎁쎉쎃쎄nian❂쎯	-11.0571
ping❁쎯pang❁쎯	-11.0571
か	-11.0572
cheng❂쎯li❄쎯.	-11.0572
쎈gong❁쎯li❃쎯	-11.0573
.쎁쎉쎉쎄nian❂쎯	-11.0573
wu❁쎯lu❃쎯mu❄쎯qi❂쎯	-11.0576
de❅쎯zhi❄쎯xue❂쎯	-11.0576
qiu❁쎯ji❄쎯	-11.0577
,bi❄쎯	-11.0577
chuan❁쎯guo❄쎯	-11.0579
wang❃쎯lai❂쎯	-11.058
chu❄쎯mu❄쎯qiu❁쎯	-11.058
mi❄쎯bei❄쎯	-11.0582
wen❂쎯dang❄쎯	-11.0582
jian❁쎯kuo❄쎯	-11.0584
san❁쎯ceng❂쎯	-11.0584
da❄쎯guan❁쎯	-11.0586
mo❂쎯shi❄쎯:	-11.059
zhan❄쎯shu❂쎯	-11.0591
,ying❁쎯	-11.0592
hen❃쎯da❄쎯de❅쎯	-11.0592
you❂쎯lan❃쎯	-11.0593
you❁쎯mei❃쎯de❅쎯	-11.0596
ge❁쎯ju❄쎯	-11.0599
쎁쎉쎉쎈	-11.0601
kuo❄쎯dang❁쎯	-11.0601
ji❂쎯da❄쎯	-11.0601
쎃.쎆	-11.0602
ren❂쎯cheng❁쎯	-11.0602
쎂쎁쎀	-11.0604
gao❁쎯yu❂쎯	-11.0604
chu❄쎯fu❄쎯chu❄쎯	-11.0604
wei❁쎯li❄쎯	-11.0604
wang❂쎯shi❄쎯	-11.0606
si❁쎯ling❂쎯	-11.0606
du❂쎯zi❁쎯	-11.0608
—쎁쎉	-11.0608
,쎂쎀쎀쎄nian❂쎯	-11.0608
deng❃쎯zhi❂쎯qiu❁쎯	-11.0608
zhi❄쎯neng❂쎯hua❁쎯	-11.0609
gai❁쎯xiang❄쎯mu❄쎯	-11.061
bian❄쎯zheng❄쎯	-11.0611
wu❂쎯yi❂쎯	-11.0613
fu❄쎯zhu❃쎯xi❂쎯、	-11.0613
liang❂쎯de❅쎯	-11.0613
guan❃쎯yuan❂쎯	-11.0614
,zhi❁쎯yao❁쎯	-11.0615
.ta❁쎯zai❄쎯	-11.0616
ren❂쎯ge❂쎯	-11.0617
ke❃쎯gen❁쎯ju❁쎯	-11.0618
xi❂쎯xing❄쎯	-11.0618
de❅쎯ge❃쎯zuo❄쎯	-11.0619
ye❄쎯jing❁쎯	-11.0621
de❅쎯kuai❄쎯	-11.0622
chun❁쎯tian❁쎯	-11.0623
쎅×	-11.0624
bei❁쎯guang❁쎯	-11.0627
zi❄쎯you❄쎯	-11.0629
duo❂쎯de❂쎯	-11.0631
ka❃쎯tong❁쎯	-11.0633
de❅쎯ju❄쎯ben❄쎯	-11.0634
tai❄쎯zu❃쎯	-11.0638
쎁쎂쎂	-11.0639
da❄쎯da❂쎯	-11.0641
zheng❁쎯gui❁쎯	-11.0645
gan❁쎯zhe❄쎯	-11.0648
fen❁쎯fen❁쎯	-11.0648
ying❄쎯bi❃쎯shu❁쎯	-11.065
zhuan❁쎯jia❁쎯、	-11.0651
zhan❄쎯jiang❁쎯	-11.0652
qi❃쎯lai❂쎯de❅쎯	-11.0655
tian❁쎯,	-11.0657
,an❁쎯dong❁쎯	-11.0662
yu❂쎯yi❃쎯	-11.0662
zhan❄쎯、	-11.0665
sheng❁쎯chan❃쎯、	-11.0666
duan❄쎯,	-11.0667
zhe❄쎯wei❄쎯	-11.0667
쎅mo❄쎯	-11.0668
ka❃쎯xin❁쎯pian❁쎯:	-11.0669
jian❃쎯yue❁쎯	-11.067
er❂쎯bei❄쎯	-11.067
shou❁쎯lu❄쎯le❅쎯	-11.0671
jin❄쎯nian❂쎯	-11.0671
jian❄쎯jie❃쎯	-11.0672
de❅쎯wen❂쎯hua❁쎯	-11.0672
de❅쎯jing❁쎯dian❃쎯	-11.0673
fen❁쎯xi❁쎯、	-11.0676
쎂쎆쎀	-11.0679
쎁쎉쎉쎆	-11.0681
pei❂쎯xun❄쎯、	-11.0681
cheng❁쎯hao❂쎯,	-11.0682
fu❄쎯zhu❃쎯xi❂쎯.	-11.0684
yun❃쎯he❂쎯	-11.0686
zhuang❄쎯zu❂쎯	-11.0686
ao❄쎯zhou❁쎯	-11.0687
lou❂쎯pan❂쎯	-11.0687
쎁xiang❄쎯	-11.0688
.”쎂.	-11.069
ci❃쎯shi❂쎯	-11.069
tiao❂쎯,	-11.069
fang❄쎯xin❁쎯	-11.0691
、shan❁쎯dong❁쎯	-11.0691
fang❄쎯zhi❄쎯	-11.0692
jie❄쎯ru❄쎯	-11.0693
,bing❁쎯jiang❁쎯	-11.0693
lao❃쎯ban❃쎯	-11.0695
can❁쎯sai❄쎯	-11.0695
wu❃쎯bai❃쎯	-11.0697
,ping❂쎯jun❁쎯	-11.0697
ba❁쎯shi❂쎯	-11.0698
xi❁쎯xi❁쎯	-11.0698
,zuo❄쎯la❄쎯yu❂쎯	-11.0699
bei❃쎯qu❁쎯	-11.0703
ji❁쎯zu❃쎯	-11.0707
wu❂쎯xi❁쎯shi❄쎯	-11.0709
,쎂쎀쎀쎅nian❂쎯	-11.0709
he❂쎯xi❁쎯	-11.0711
rong❂쎯yu❂쎯shui❃쎯	-11.0713
cheng❂쎯jian❄쎯	-11.0713
gen❁쎯ju❁쎯《	-11.0714
yan❃쎯hua❁쎯	-11.0714
zhi❄쎯bing❄쎯	-11.0715
re❄쎯dian❃쎯	-11.0715
chan❃쎯pin❃쎯han❄쎯	-11.0717
쎃쎂.	-11.072
jiang❁쎯ling❃쎯	-11.0722
,쎁쎉쎈쎈nian❂쎯	-11.0722
ka❃쎯er❃쎯	-11.0724
fang❁쎯fa❃쎯han❄쎯	-11.0726
ren❂쎯kou❃쎯쎄	-11.0727
zhong❁쎯zhi❃쎯	-11.0727
you❃쎯dian❃쎯	-11.0728
쎃.쎁	-11.0729
shao❁쎯re❄쎯	-11.073
de❅쎯zhen❃쎯duan❄쎯	-11.073
nan❂쎯gua❁쎯	-11.073
nan❂쎯qu❁쎯	-11.0735
,ti❂쎯gong❁쎯	-11.0735
jiao❄쎯duo❁쎯	-11.0737
zhen❁쎯xi❁쎯	-11.0737
,fen❁쎯bu❄쎯yu❂쎯	-11.0737
fu❂쎯rong❂쎯	-11.0739
bu❂쎯han❂쎯	-11.074
shou❄쎯dao❄쎯le❅쎯	-11.074
fang❁쎯wei❄쎯	-11.0741
zheng❁쎯han❄쎯	-11.0741
fu❄쎯zhu❃쎯xi❂쎯,	-11.0743
fu❄쎯ben❃쎯	-11.0743
qiu❁쎯、	-11.0747
bai❂쎯jiu❃쎯	-11.0747
tou❂쎯tong❄쎯	-11.0747
cao❃쎯yao❄쎯	-11.0751
.쎀쎀gong❁쎯li❃쎯,	-11.0751
qing❄쎯yu❄쎯	-11.0752
zhu❃쎯liao❄쎯	-11.0752
ping❂쎯wei❁쎯	-11.0752
zhuo❁쎯mian❄쎯	-11.0752
yan❃쎯jiang❃쎯	-11.0753
yan❂쎯jiu❁쎯yu❃쎯	-11.0753
zheng❁쎯que❄쎯de❅쎯	-11.0754
shen❂쎯zhou❁쎯	-11.0754
ping❂쎯xiang❁쎯	-11.0755
luan❃쎯xing❂쎯,	-11.0755
dong❁쎯ying❂쎯	-11.0755
,쎁쎉쎈쎇nian❂쎯	-11.0758
bu❂쎯jian❄쎯	-11.0761
쎁쎁yue❄쎯sheng❁쎯,	-11.0763
し	-11.0764
zuo❄쎯qu❁쎯jia❁쎯	-11.0764
xiang❁쎯zhang❃쎯	-11.0765
ri❄쎯ji❄쎯	-11.0766
fa❁쎯dian❄쎯ji❁쎯	-11.0773
yi❄쎯shu❂쎯pin❃쎯	-11.0773
you❃쎯zhu❄쎯yu❂쎯	-11.0774
,jin❃쎯lin❂쎯	-11.0776
shi❁쎯da❄쎯	-11.0776
ri❄쎯zhao❄쎯	-11.0776
chu❁쎯fa❁쎯	-11.0777
(쎁쎆	-11.0781
쎄gong❁쎯li❃쎯	-11.0783
liang❃쎯duan❁쎯	-11.0783
쎂쎀쎁쎃	-11.0784
쎁쎂yue❄쎯sheng❁쎯,	-11.0785
tian❁쎯hou❄쎯	-11.0785
,zhu❃쎯chi❂쎯	-11.0786
gang❁쎯jie❂쎯gou❃쎯	-11.0787
lian❂쎯tong❁쎯	-11.0788
.쎁쎉쎉쎀nian❂쎯	-11.0791
shan❁쎯cha❂쎯	-11.0791
ge❂쎯er❃쎯	-11.0792
yong❄쎯yi❃쎯	-11.0793
tian❁쎯cai❂쎯	-11.0793
xiao❃쎯zhen❄쎯	-11.0794
chu❄쎯shi❄쎯	-11.0795
ke❃쎯kao❄쎯xing❄쎯	-11.0796
ke❁쎯xue❂쎯de❅쎯	-11.0796
shi❁쎯fu❄쎯	-11.0797
.쎁쎉쎈쎆nian❂쎯	-11.0799
yu❂쎯쎂쎀쎀쎂nian❂쎯	-11.0801
rang❄쎯wo❃쎯们	-11.0803
yi❄쎯wen❂쎯	-11.0804
biao❁쎯ben❃쎯	-11.0804
),shi❄쎯	-11.0804
bian❃쎯ping❂쎯	-11.0804
qiu❁쎯,	-11.0805
쎅li❂쎯mi❃쎯	-11.0807
fu❄쎯zhao❁쎯	-11.0807
guai❄쎯wu❄쎯	-11.0807
shao❁쎯zhi❄쎯	-11.0809
jiang❃쎯zuo❄쎯	-11.0809
쎁쎇쎈	-11.0811
bing❄쎯xue❂쎯	-11.0812
shou❃쎯wei❄쎯	-11.0813
tai❄쎯hu❂쎯	-11.0816
xiang❁쎯fan❃쎯	-11.0817
dai❁쎯yu❄쎯	-11.0822
gong❁쎯si❁쎯、	-11.0823
쎁쎉쎉쎀	-11.0823
liu❂쎯hua❁쎯	-11.0825
bao❁쎯pian❁쎯	-11.0825
wei❁쎯liang❂쎯	-11.0826
rong❂쎯hua❁쎯	-11.0828
,쎁쎉쎈쎆nian❂쎯	-11.0828
jing❁쎯li❄쎯le❅쎯	-11.0828
po❄쎯sui❄쎯	-11.0829
hong❂쎯jiao❁쎯	-11.0829
쎄.쎀	-11.0829
쎁쎃쎉	-11.083
qing❁쎯tong❂쎯	-11.0833
gu❁쎯ji❄쎯	-11.0833
.zhang❃쎯ji❁쎯	-11.0835
can❁쎯jia❁쎯guo❄쎯	-11.0839
zhao❁쎯chong❂쎯	-11.0844
lou❂쎯、	-11.0844
:쎈	-11.0846
fang❂쎯bao❄쎯	-11.0846
luan❃쎯zhuang❄쎯	-11.0847
gua❄쎯pai❂쎯	-11.0849
.쎁쎉쎈쎉nian❂쎯	-11.085
she❄쎯hui❄쎯de❅쎯	-11.0851
.쎀쎁	-11.0854
chuan❂쎯·	-11.0854
biao❁쎯bing❁쎯	-11.0855
·a❁쎯	-11.0855
bian❄쎯wei❄쎯	-11.0856
hang❂쎯dao❄쎯	-11.0857
xia❄쎯le❅쎯	-11.0858
ma❃쎯la❁쎯	-11.0858
di❄쎯yi❁쎯zhang❁쎯	-11.0859
guan❁쎯fu❄쎯	-11.0859
huan❁쎯le❄쎯	-11.0859
liang❃쎯bu❄쎯fen❁쎯	-11.0859
ke❁쎯xie❂쎯	-11.086
:쎁、	-11.0861
,fei❁쎯	-11.0862
shi❃쎯ta❁쎯	-11.0862
쎃.쎃	-11.0862
bei❄쎯guo❂쎯jia❁쎯	-11.0862
liang❂쎯zi❃쎯	-11.0862
zhu❁쎯jiang❁쎯	-11.0865
diao❄쎯kong❄쎯	-11.0866
ma	-11.0867
bu❃쎯ru❃쎯	-11.0867
ci❂쎯tiao❂쎯	-11.0867
shu❄쎯xue❂쎯xi❄쎯	-11.087
,dai❁쎯	-11.087
hua❂쎯li❄쎯	-11.087
zhi❄쎯jin❁쎯.	-11.0872
shan❁쎯xiang❁쎯	-11.0874
zong❃쎯bu❄쎯she❄쎯	-11.0875
쎁쎀쎈쎀	-11.0875
rong❂쎯na❄쎯	-11.0877
yu❃쎯ying❁쎯yong❄쎯	-11.0881
xi❁쎯qu❁쎯	-11.0882
yi❄쎯shi❄쎯	-11.0883
zhi❄쎯you❁쎯yue❄쎯,	-11.0883
,zhi❃쎯zai❄쎯	-11.0884
dang❁쎯zuo❄쎯	-11.0884
su❁쎯qu❁쎯de❅쎯fa	-11.0885
,shuo❄쎯shi❄쎯sh	-11.0887
yi❁쎯si❄쎯	-11.0887
de❅쎯zhan❄쎯dou❃쎯	-11.0888
ge❁쎯lun❂쎯bi❃쎯ya	-11.0888
de❅쎯gan❃쎯jue❂쎯	-11.0889
er❄쎯shi❂쎯si❄쎯	-11.0891
)-	-11.0894
ming❂쎯lu❄쎯	-11.0894
yin❁쎯er❂쎯	-11.0894
xiong❂쎯hou❄쎯,	-11.0895
,쎁쎉쎅쎈nian❂쎯	-11.0895
ping❂쎯ban❃쎯	-11.0897
de❅쎯cheng❂쎯ji❁쎯	-11.0897
zeng❁쎯chan❃쎯	-11.0897
rong❂쎯ji❁쎯	-11.0898
jing❁쎯liang❂쎯	-11.0898
yin❁쎯qi❂쎯	-11.0899
gu❃쎯she❂쎯	-11.0899
ren❂쎯yuan❂쎯de❅쎯	-11.0899
ㄙ	-11.0899
mu❄쎯lu❄쎯xia❄쎯	-11.0902
ban❃쎯hua❄쎯	-11.0902
zheng❁쎯wen❂쎯	-11.0903
イ	-11.0903
zhe❃쎯wei❄쎯	-11.0903
de❅쎯guan❁쎯jian❄쎯	-11.0904
yu❄쎯ding❄쎯	-11.0904
hai❃쎯de❅쎯	-11.0905
,jin❃쎯	-11.0905
쎂mi❃쎯	-11.0907
gong❁쎯li❃쎯.guo❂쎯	-11.0911
jia❁쎯zi❃쎯	-11.0914
sui❂쎯yi❄쎯	-11.0919
zai❄쎯ta❁쎯	-11.0919
quan❂쎯min❂쎯	-11.0919
jie❃쎯mei❄쎯	-11.0921
쎇ping❂쎯fang❁쎯	-11.0923
tong❂쎯xiang❁쎯	-11.0925
shuang❁쎯xiang❄쎯	-11.0925
,gu❄쎯ming❂쎯	-11.0926
wu❃쎯xing❁쎯ji❂쎯	-11.0927
fu❁쎯qi❁쎯	-11.0927
fang❁쎯bian❄쎯.	-11.0927
qing❁쎯xie❂쎯	-11.0928
qu❁쎯yu❄쎯na❄쎯	-11.0929
he❂쎯dao❄쎯	-11.0929
sui❃쎯	-11.093
lai❂쎯de❅쎯	-11.093
ba❁쎯lu❄쎯jun❁쎯	-11.0931
ke❃쎯neng❂쎯shi❄쎯	-11.0932
guan❁쎯kan❁쎯	-11.0933
gong❄쎯fen❁쎯	-11.0933
쎅.쎂	-11.0933
ㄠ	-11.0935
wu❄쎯li❃쎯xi❄쎯	-11.0938
ren❂쎯zao❄쎯	-11.0942
xing❂쎯、	-11.0942
yu❃쎯mao❂쎯	-11.0942
.쎁쎉쎉쎁nian❂쎯	-11.0944
쎆쎀nian❂쎯dai❄쎯	-11.0944
hui❂쎯xiang❁쎯	-11.0945
chu❁쎯fa❁쎯,	-11.0945
lin❂쎯chang❃쎯	-11.0947
fa❁쎯biao❃쎯le❅쎯	-11.095
jun❁쎯zi❃쎯	-11.0951
,jian❁쎯chi❂쎯	-11.0952
qiu❁쎯ji❂쎯qiu❂쎯	-11.0954
쎁쎂yue❄쎯jia❁쎯ru❄쎯	-11.0954
쎁yue❄쎯쎁ri❄쎯	-11.0956
,bu❂쎯neng❂쎯	-11.0957
zuo❄쎯pin❃쎯ji❂쎯	-11.096
、kang❄쎯	-11.096
la❄쎯de❅쎯	-11.0963
ming❂쎯yi❁쎯	-11.0963
쎇쎂쎀	-11.0965
xian❄쎯cang❂쎯	-11.0966
di❄쎯qi❁쎯jie❄쎯	-11.0968
,zui❄쎯	-11.0969
bian❁쎯jing❄쎯	-11.097
wan❃쎯shang❃쎯	-11.0971
guang❁쎯pu❃쎯	-11.0971
wen❂쎯li❃쎯	-11.0973
dang❁쎯ran❂쎯	-11.0974
de❅쎯hao❃쎯	-11.0974
xu❃쎯ke❃쎯	-11.0974
da❂쎯dao❄쎯le❅쎯	-11.0975
li❂쎯mi❃쎯.	-11.0978
、zui❄쎯	-11.098
:쎁쎀	-11.0983
hao❁쎯	-11.0986
zhi❄쎯bei❄쎯	-11.0987
shou❄쎯shang❁쎯	-11.0987
hu❂쎯qu❁쎯	-11.0988
qi❄쎯de❅쎯	-11.0989
qia❄쎯tan❂쎯	-11.099
de❅쎯li❄쎯liang❂쎯	-11.0992
jia❁쎯chang❂쎯	-11.0992
bao❂쎯pian❁쎯	-11.0993
kao❃쎯yan❁쎯	-11.0994
gu❃쎯ji❂쎯	-11.0996
bei❄쎯lie❄쎯wei❄쎯	-11.0996
de❅쎯cheng❂쎯shi❄쎯	-11.0996
shi❂쎯pin❃쎯you❃쎯	-11.0996
qi❁쎯shi❂쎯	-11.0998
wei❁쎯xing❂쎯	-11.0998
jia❃쎯ri❄쎯	-11.0998
zhuang❄쎯guan❁쎯	-11.0998
de❅쎯pin❃쎯pai❂쎯	-11.0999
zhou❃쎯	-11.1
xing❄쎯zhuang❄쎯	-11.1001
shang❁쎯ren❂쎯	-11.1002
shu❄쎯zi❄쎯hua❁쎯	-11.1004
wu❃쎯yue❄쎯	-11.1004
wai❄쎯de❅쎯	-11.1004
ji❁쎯de❅쎯,	-11.1007
fang❄쎯da❄쎯	-11.1011
lin❂쎯yi❂쎯	-11.1011
de❅쎯lao❃쎯	-11.1011
bo❂쎯lan❃쎯	-11.1011
li❃쎯xing❄쎯	-11.1012
de❅쎯bu❄쎯fen❁쎯	-11.1013
zhen❁쎯tan❄쎯	-11.1014
fu❂쎯zai❄쎯	-11.1015
,쎁쎉쎆쎃nian❂쎯	-11.1017
quan❂쎯ju❂쎯	-11.1018
dong❁쎯yang❂쎯	-11.1018
,쎁쎉쎈쎂nian❂쎯	-11.1019
gong❁쎯qiu❁쎯bu❄쎯	-11.1019
(쎁쎈쎈	-11.102
cuan❄쎯	-11.1024
e❂쎯yu❃쎯	-11.1025
lin❂쎯qiu❁쎯ju❂쎯	-11.1026
shang❁쎯yong❄쎯	-11.1026
》zai❄쎯	-11.1027
jie❂쎯gou❃쎯de❅쎯	-11.1029
shan❄쎯liang❂쎯	-11.103
mai❄쎯chong❁쎯	-11.1031
yang❂쎯qu❁쎯	-11.1031
ding❃쎯jian❁쎯	-11.1032
zhuan❄쎯xie❃쎯de❅쎯	-11.1033
sheng❁쎯bi❄쎯qiu❁쎯	-11.1033
쎈.쎅	-11.1036
jie❃쎯jie❃쎯	-11.1036
you❃쎯guan❁쎯de❅쎯	-11.1037
lun❂쎯tai❁쎯	-11.1038
,kuo❄쎯ying❁쎯	-11.104
fen❃쎯、	-11.104
mai❄쎯ke❄쎯	-11.1042
chuang❄쎯xin❁쎯,	-11.1044
qie❁쎯huan❄쎯	-11.1044
、wang❃쎯luo❄쎯	-11.1044
bei❃쎯lin❂쎯	-11.1044
zhi❄쎯zao❄쎯qiu❁쎯	-11.1045
san❁쎯ren❂쎯	-11.1047
shen❁쎯shen❁쎯	-11.1051
yue❁쎯han❄쎯·	-11.1053
dian❄쎯ding❄쎯le❅쎯	-11.1054
,쎂쎀쎀쎆nian❂쎯	-11.1055
pi❂쎯pa❂쎯	-11.1055
chao❃쎯guo❁쎯	-11.1056
쎃ci❄쎯	-11.1057
cheng❂쎯tao❄쎯	-11.1057
ben❃쎯pian❁쎯	-11.1058
shui❃쎯、	-11.1058
zhuan❁쎯zhu❄쎯	-11.1061
zhi❄쎯jin❁쎯zai❄쎯	-11.1061
xin❁쎯pian❁쎯zu❃쎯	-11.1061
da❄쎯zi❄쎯ran❂쎯	-11.1062
de❅쎯jie❂쎯guo❃쎯	-11.1068
gu❃쎯wen❂쎯	-11.1069
si❁쎯ying❂쎯	-11.1069
hang❂쎯li❃쎯	-11.107
,쎁쎉쎉쎇nian❂쎯	-11.1071
xuan❃쎯ba❂쎯	-11.1071
le❅쎯ta❁쎯de❅쎯	-11.1071
yi❁쎯qian❁쎯	-11.1074
chang❃쎯、	-11.1076
sheng❁쎯si❃쎯	-11.1076
gao❁쎯ya❃쎯	-11.1076
neng❂쎯li❄쎯han❄쎯	-11.1077
,ta❁쎯zai❄쎯	-11.1077
zhi❂쎯guan❁쎯	-11.108
,dao❃쎯ru❄쎯	-11.108
,kuo❄쎯ge❃쎯	-11.1081
qi❂쎯fu❄쎯	-11.1082
shui❃쎯liu❂쎯	-11.1085
a❁쎯la❁쎯	-11.1087
de❅쎯gao❁쎯du❄쎯	-11.1088
xian❁쎯yan❄쎯	-11.1088
cheng❂쎯fen❄쎯	-11.1089
、xiao❁쎯shou❄쎯、	-11.109
zhen❄쎯dang❃쎯	-11.1092
zou❃쎯chu❁쎯	-11.1092
yi❃쎯bei❄쎯	-11.1092
he❂쎯pan❄쎯	-11.1093
de❅쎯ren❂쎯sheng❁쎯	-11.1095
shui❃쎯dao❄쎯、	-11.1098
hua❄쎯ti❂쎯	-11.11
qiu❁쎯zhu❃쎯	-11.11
wei❄쎯쎁	-11.11
ben❃쎯zhao❁쎯“	-11.1105
ying❃쎯xiang❃쎯,	-11.1107
yu❄쎯shi❃쎯	-11.111
duan❄쎯lie❄쎯	-11.111
you❂쎯xi❄쎯,	-11.1111
:쎇	-11.1113
쎂.쎆	-11.1113
”bian❄쎯chong❂쎯	-11.1116
,쎁쎉쎉쎅nian❂쎯	-11.1117
ban❁쎯zhang❃쎯	-11.1118
min❂쎯yi❁쎯yuan❄쎯	-11.1118
.쎁쎉쎉쎉nian❂쎯	-11.1118
bu❂쎯ming❂쎯	-11.112
,zui❄쎯da❄쎯	-11.1123
쎁쎈gan❄쎯	-11.1124
shu❁쎯ji❄쎯,	-11.1124
sheng❁쎯fen❃쎯	-11.1125
xian❁쎯ren❂쎯	-11.1125
tai❄쎯shou❃쎯	-11.1128
bei❄쎯ke❂쎯	-11.1135
liu❂쎯hang❂쎯de❅쎯	-11.1135
jian❁쎯shi❃쎯fa❁쎯b	-11.1138
diao❄쎯li❃쎯	-11.1139
deng❃쎯jiang❃쎯、	-11.1139
zhen❄쎯xing❄쎯	-11.114
dan❄쎯ke❄쎯	-11.114
wei❂쎯fang❁쎯	-11.1142
jiao❄쎯zhang❃쎯.	-11.1145
、gan❁쎯	-11.1146
쎁쎀쎀duo❁쎯	-11.1146
ge❂쎯chi❁쎯	-11.1147
zi❃쎯gong❁쎯	-11.1147
ben❃쎯cun❁쎯	-11.1147
ming❂쎯qing❄쎯qu❁쎯	-11.1147
kou❃쎯bei❁쎯	-11.1148
da❄쎯ting❁쎯	-11.1148
ji❁쎯deng❃쎯	-11.1149
xiang❁쎯lian❂쎯,	-11.1149
yong❄쎯liang❂쎯	-11.1149
zong❃쎯zi❁쎯chan❃쎯	-11.1151
long❂쎯quan❂쎯	-11.1151
nv❃쎯shen❂쎯	-11.1152
de❅쎯shu❄쎯ju❁쎯	-11.1152
xiang❄쎯mu❄쎯,	-11.1154
wu❂쎯suo❃쎯	-11.1154
zu❃쎯fu❄쎯	-11.1155
yu❄쎯ren❂쎯	-11.1158
zhan❄쎯zai❄쎯	-11.1159
chuang❄쎯xin❁쎯、	-11.116
쎁쎉쎈쎀	-11.1164
ya❂쎯chi❃쎯	-11.1166
de❅쎯fu❄쎯qin❁쎯	-11.1167
gai❄쎯shu❄쎯	-11.1167
ban❃쎯de❅쎯	-11.1169
xia❄쎯ru❄쎯	-11.1171
shi❄쎯ta❁쎯	-11.1172
wan❂쎯、	-11.1173
xing❄쎯hao❃쎯	-11.1175
bei❄쎯an❄쎯	-11.1178
hao❂쎯mi❃쎯,	-11.1178
zhu❄쎯de❅쎯	-11.1181
xue❂쎯xi❂쎯,	-11.1181
)ren❂쎯,	-11.1184
wen❂쎯ming❂쎯de❅쎯	-11.1185
쎁쎉쎉쎇	-11.1187
hua❄쎯zhan❃쎯	-11.119
lin❂쎯mu❄쎯	-11.1191
tiao❂쎯li❄쎯》	-11.1191
min❂쎯zheng❄쎯ju❂쎯	-11.1196
min❂쎯sheng❁쎯	-11.1198
쎇ren❂쎯,	-11.1199
yu❂쎯쎂쎀쎁쎁nian❂쎯	-11.1201
dan❄쎯ying❁쎯	-11.1202
quan❂쎯yuan❂쎯	-11.1203
zai❄쎯yi❁쎯ding❄쎯	-11.1204
쎂쎅쎀쎀	-11.1205
hao❂쎯mi❃쎯	-11.1206
hou❄쎯yi❄쎯	-11.1206
xue❂쎯hui❄쎯chang	-11.1206
feng❁쎯mao❄쎯	-11.121
guo❄쎯min❃쎯	-11.1211
xi❂쎯ji❁쎯	-11.1212
쎁쎉쎂쎄nian❂쎯	-11.1214
bao❃쎯ding❄쎯	-11.1217
,쎁쎉쎉쎂nian❂쎯	-11.1219
pin❁쎯yin❁쎯	-11.1222
zhi❃쎯ding❄쎯de❅쎯	-11.1223
wen❂쎯ji❂쎯	-11.1224
ming❂쎯wen❂쎯	-11.1224
zhuan❃쎯xing❂쎯	-11.1224
lao❁쎯	-11.1224
e❄쎯mo❂쎯	-11.1225
mu❄쎯qian❂쎯yi❃쎯	-11.1225
qu❃쎯ming❂쎯	-11.1225
dong❄쎯li❄쎯xue❂쎯	-11.1226
.쎀쎃	-11.1228
gang❁쎯cai❂쎯	-11.1231
,han❂쎯	-11.1233
huang❂쎯jiu❃쎯	-11.1233
xing❂쎯shi❄쎯,	-11.1234
shui❃쎯wen❂쎯	-11.1234
zhi❂쎯bo❁쎯	-11.1235
hao❂쎯,	-11.1236
.쎁쎉쎅쎆nian❂쎯	-11.1236
cheng❂쎯xiang❄쎯	-11.1237
쎉yue❄쎯can❁쎯jia❁쎯	-11.1238
cong❂쎯qiu❁쎯	-11.1238
ou❁쎯yang❂쎯	-11.1239
si❄쎯shi❄쎯ji❁쎯	-11.1241
xing❄쎯bie❂쎯	-11.1241
hua❂쎯shan❁쎯	-11.1245
yin❂쎯xing❄쎯	-11.1245
gen❁쎯sui❂쎯	-11.1245
jiao❄쎯shen❁쎯	-11.1245
liang❂쎯shan❁쎯	-11.1247
jiao❁쎯ban❄쎯de❅쎯	-11.1249
du❂쎯ka❃쎯qi❄쎯	-11.1252
mian❄쎯de❅쎯	-11.1253
、wu❂쎯	-11.1253
san❃쎯re❄쎯	-11.1255
、xin❄쎯xi❁쎯	-11.1256
쎁쎀/쎁쎀쎀	-11.1257
dian❄쎯ji❂쎯	-11.1257
、wen❂쎯hua❁쎯	-11.1258
li❄쎯shi❃쎯xi❄쎯	-11.1258
쎁쎉쎈쎁	-11.1261
cheng❂쎯qiang❂쎯	-11.1261
zi❄쎯shen❁쎯de❅쎯	-11.1262
、jian❄쎯zhu❂쎯	-11.1263
,zu❃쎯ji❂쎯	-11.1263
yi❁쎯zhi❂쎯zai❄쎯	-11.1264
xia❁쎯ren❂쎯	-11.1264
yi❂쎯ju❁쎯	-11.1266
qian❁쎯mi❃쎯.	-11.1266
》xi❄쎯lie❄쎯	-11.1268
shi❄쎯tong❁쎯guo❄쎯	-11.1269
,nv❃쎯,han❄쎯zu❂쎯,	-11.1269
geng❁쎯huan❄쎯	-11.127
ke❄쎯jia❁쎯	-11.1274
ge❄쎯shi❄쎯	-11.1278
sha❄쎯men❂쎯shi❄쎯	-11.1278
jin❄쎯bai❃쎯	-11.1279
jin❄쎯hang❂쎯de❅쎯	-11.1282
zheng❁쎯yue❄쎯	-11.1282
,쎂쎀쎀쎃nian❂쎯	-11.1288
guang❁쎯xiang❄쎯	-11.1288
huo❂쎯xie❃쎯	-11.1289
yang❂쎯pin❃쎯	-11.129
zhe❄쎯zhang❁쎯ka❃쎯	-11.1291
쎁쎉쎇쎈	-11.1292
pu❃쎯dong❁쎯	-11.1293
;hua❁쎯	-11.1294
쎁쎀쎃	-11.1294
chong❂쎯li❄쎯	-11.1295
chang❂쎯dao❄쎯	-11.1298
shi❁쎯run❄쎯	-11.1299
ling❂쎯bu❄쎯jian❄쎯	-11.1299
yang❂쎯rou❄쎯	-11.1303
,쎁쎉쎈쎃nian❂쎯	-11.1305
hei❁쎯he❄쎯se❄쎯	-11.1307
,wai❄쎯	-11.1307
a❁쎯zhi❄쎯	-11.1308
zhi❁쎯zuo❄쎯	-11.1309
dian❄쎯wang❃쎯	-11.1309
guan❁쎯xi❄쎯de❅쎯	-11.1309
dui❄쎯zhao❄쎯	-11.1311
mei❂쎯jie❄쎯	-11.1312
si❄쎯deng❃쎯zhan❄쎯	-11.1314
nuo❂쎯wei❁쎯	-11.1315
han❄쎯shang❄쎯	-11.1315
hen❃쎯jiang❄쎯de❅쎯	-11.1318
she❄쎯zhang❃쎯	-11.1318
ji❂쎯ying❁쎯yong❄쎯	-11.1319
쎂쎃쎀	-11.1319
bi❃쎯ya❄쎯	-11.1319
zhi❁쎯lv❃쎯	-11.1321
쎂쎈쎀	-11.1322
jin❄쎯si❄쎯	-11.1322
da❄쎯quan❂쎯	-11.1323
mei❃쎯shu❂쎯xi❄쎯	-11.1325
ying❂쎯guang❁쎯	-11.1327
qing❁쎯li❃쎯	-11.1327
zi❃쎯di❄쎯	-11.1327
tian❁쎯men❂쎯	-11.1333
mei❃쎯zhan❃쎯	-11.1338
ban❄쎯shan❁쎯qu❁쎯.	-11.1339
pi❂쎯ge❂쎯	-11.1341
re❄쎯chu❄쎯li❃쎯	-11.1341
fang❁쎯zheng❁쎯	-11.1343
xian❂쎯feng❁쎯	-11.1349
gu❃쎯lao❃쎯	-11.1351
쎅쎅쎀	-11.1353
wu❃쎯xia❂쎯	-11.1355
hong❂쎯he❂쎯zhou❁쎯	-11.1358
gei❃쎯ta❁쎯	-11.136
huo❃쎯yan❄쎯	-11.1362
li❃쎯ya❄쎯	-11.1364
.ceng❂쎯zai❄쎯	-11.1364
ling❄쎯you❃쎯	-11.1364
xi❄쎯.	-11.1365
bu❄쎯men❂쎯de❅쎯	-11.1367
,쎁쎉쎉쎈nian❂쎯	-11.1368
.쎁쎉쎈쎀nian❂쎯	-11.1368
ji❁쎯xie❄쎯you❃쎯	-11.1368
mian❄쎯liao❄쎯	-11.1369
ben❄쎯xi❄쎯.	-11.1369
jiao❃쎯xia❄쎯	-11.1376
wei❄쎯ji❁쎯chu❃쎯,	-11.1376
qin❂쎯cai❄쎯	-11.1377
fan❂쎯nao❃쎯	-11.1378
su❄쎯lv❄쎯	-11.1378
pai❂쎯fang❄쎯	-11.1379
,zuo❄쎯la❄쎯zai❄쎯	-11.138
neng❂쎯shou❃쎯	-11.1381
yuan❂쎯chao❂쎯	-11.1382
xiang❁쎯qi❃쎯	-11.1382
de❅쎯zhi❄쎯zuo❄쎯	-11.1385
pin❃쎯chong❂쎯.	-11.1386
pei❄쎯yin❁쎯	-11.1386
ru❂쎯jia❁쎯	-11.1388
쎁쎀쎉	-11.1389
chan❃쎯wu❄쎯	-11.1393
shan❁쎯xia❄쎯	-11.1394
pu❃쎯er❃쎯	-11.1395
.tong❁쎯chang❂쎯	-11.1395
shen❂쎯bi❄쎯de❅쎯	-11.1397
ben❃쎯shi❄쎯	-11.1401
qiu❁쎯fa❁쎯zhan❃쎯	-11.1401
zuo❄쎯pin❃쎯you❃쎯《	-11.1402
cheng❂쎯ren❄쎯	-11.1403
hui❄쎯ju❄쎯	-11.1404
ji❁쎯jian❄쎯	-11.1406
xian❄쎯jing❄쎯	-11.1406
쎁li❂쎯mi❃쎯	-11.1407
jun❁쎯qiu❂쎯	-11.1408
hang❂쎯guo❂쎯jia❁쎯	-11.1409
,쎂쎀쎀쎂nian❂쎯	-11.1411
sheng❃쎯hui❄쎯	-11.1412
쎆ren❂쎯	-11.1413
～쎁쎉	-11.1413
xiang❂쎯xi❄쎯de❅쎯	-11.1414
de❅쎯zui❄쎯	-11.1414
ji❂쎯“	-11.1415
ting❂쎯yuan❄쎯	-11.1416
da❄쎯zhong❁쎯	-11.1418
de❅쎯ji❁쎯hui❄쎯	-11.1419
feng❁쎯bi❄쎯	-11.1419
jin❁쎯e❂쎯	-11.1423
pao❃쎯dao❄쎯	-11.1424
you❃쎯hai❄쎯	-11.1424
tui❁쎯li❃쎯	-11.1425
de❅쎯neng❂쎯li❄쎯	-11.1427
zi❄쎯xin❄쎯	-11.1427
,dan❄쎯ta❁쎯	-11.1428
zai❄쎯sheng❁쎯	-11.143
dui❄쎯wu❃쎯,	-11.1432
wang❃쎯zhan❄쎯.	-11.1433
zhu❃쎯da❂쎯	-11.1436
shu❁쎯.	-11.1438
bian❄쎯qian❁쎯	-11.144
쎄hao❂쎯	-11.1441
shi❄쎯yi❁쎯zuo❄쎯	-11.1443
bao❃쎯yang❃쎯	-11.1443
jiao❄쎯she❄쎯	-11.1444
bao❁쎯wei❂쎯	-11.1445
bu❂쎯ban❄쎯li❃쎯	-11.1446
jie❁쎯zhao❁쎯	-11.1449
ren❂쎯suo❃쎯	-11.145
shui❄쎯mian❂쎯	-11.1451
bing❄쎯yuan❂쎯	-11.1453
、mei❃쎯	-11.1454
jian❁쎯ge❂쎯	-11.1455
xi❁쎯zhen❄쎯	-11.1456
、dong❁쎯	-11.1456
쎁쎉쎂쎆nian❂쎯	-11.1458
zhong❁쎯dong❁쎯	-11.1458
wen❂쎯ge❂쎯	-11.1459
bian❄쎯hua❁쎯,	-11.146
ren❂쎯们de❅쎯	-11.146
guo❂쎯ji❂쎯	-11.146
di❄쎯jiu❃쎯jie❄쎯	-11.1461
cheng❁쎯zuo❄쎯	-11.1464
yan❂쎯se❄쎯:	-11.1464
zhi❂쎯bei❄쎯	-11.1466
,bo❂쎯shi❄쎯sh	-11.1468
ju❂쎯hua❁쎯	-11.1468
ren❂쎯cai❂쎯.	-11.1469
pi❁쎯zhun❃쎯de❅쎯	-11.1471
zi❄쎯xing❂쎯	-11.1472
、si❄쎯wan❁쎯	-11.1472
wai❄쎯hui❄쎯	-11.1473
ru❄쎯xue❂쎯	-11.1473
de❅쎯nv❃쎯er❂쎯	-11.1477
yi❃쎯wang❃쎯	-11.1477
na❄쎯si❁쎯	-11.1478
zhi❂쎯,	-11.148
:쎃쎀	-11.148
cu❁쎯cao❁쎯	-11.1481
jing❁쎯zhou❁쎯	-11.1483
.쎂쎀쎁쎁nian❂쎯	-11.1484
쎁쎂쎁	-11.1485
yi❃쎯wai❄쎯	-11.1485
hai❃쎯shi❄쎯	-11.1486
xing❄쎯ren❂쎯	-11.149
쎀쎇-	-11.149
chou❂쎯bei❄쎯	-11.149
쎁zhi❁쎯	-11.1493
huan❂쎯qiu❂쎯	-11.1494
qiu❂쎯dui❄쎯,	-11.1499
chao❁쎯qing❄쎯	-11.1499
zao❄쎯qing❄쎯	-11.15
pi❂쎯lao❂쎯	-11.15
la❁쎯ba❁쎯	-11.1501
chang❂쎯shou❂쎯	-11.1502
liu❁쎯	-11.1502
di❁쎯ya❁쎯	-11.1503
dao❄쎯ju❄쎯	-11.1503
di❄쎯yi❁쎯pi❁쎯	-11.1504
cai❃쎯fang❃쎯	-11.1505
pi❂쎯fu❁쎯bing❄쎯	-11.1506
shi❂쎯zhi❄쎯	-11.151
jie❁쎯shi❄쎯	-11.151
fu❂쎯hui❄쎯	-11.1511
shi❄쎯fan❄쎯xing❄쎯	-11.1511
zhuang❄쎯.	-11.1512
jie❁쎯rang❃쎯,	-11.1512
fen❁쎯hang❂쎯	-11.1513
huan❃쎯jie❃쎯	-11.1513
cha❁쎯bie❂쎯	-11.1513
xi❁쎯gua❁쎯	-11.1513
shou❃쎯ling❃쎯	-11.1515
yi❁쎯er❄쎯	-11.1519
ci❂쎯chang❃쎯	-11.152
bao❃쎯han❄쎯	-11.1521
yin❁쎯bing❄쎯	-11.1523
zhuan❁쎯zhang❃쎯	-11.1526
fa❃쎯、	-11.1528
pin❄쎯qing❃쎯	-11.1529
mian❄쎯,	-11.1529
ke❃쎯yi❃쎯yong❄쎯	-11.153
mian❄쎯ji❁쎯쎁쎂	-11.1531
zhai❄쎯wu❄쎯	-11.1533
zong❃쎯bian❁쎯ji❂쎯	-11.1533
yong❃쎯gan❃쎯	-11.1533
lun❄쎯zhao❂쎯	-11.1535
wan❂쎯na❄쎯	-11.1535
dong❁쎯qu❁쎯	-11.1536
he❂쎯zhen❄쎯	-11.1538
di❄쎯shi❂쎯jie❄쎯	-11.154
cheng❂쎯da❄쎯	-11.154
tong❁쎯che❁쎯	-11.154
can❁쎯kao❃쎯.	-11.1541
shen❂쎯ji❁쎯	-11.1541
jing❁쎯ji❁쎯	-11.1542
,fu❂쎯shi❄쎯	-11.1542
sha❁쎯tan❁쎯	-11.1547
xiong❁쎯bu❄쎯	-11.1548
tui❄쎯la❄쎯	-11.1548
tie❃쎯kuang❄쎯	-11.1548
.chu❁쎯chu❄쎯:	-11.1549
jiang❃쎯、	-11.155
liu❂쎯jiao❄쎯ren❂쎯	-11.1551
쎃mi❃쎯	-11.1558
deng❃쎯de❅쎯,	-11.156
zhu❄쎯shou❃쎯	-11.1561
de❂쎯ming❂쎯	-11.1563
bu❂쎯yi❃쎯	-11.1565
hen❃쎯gao❁쎯	-11.1567
ju❄쎯ge❃쎯	-11.1569
hui❄쎯bian❁쎯	-11.157
guo❂쎯jia❁쎯han❄쎯	-11.1571
shi❄쎯bing❁쎯	-11.1571
que❄쎯ding❄쎯wei❄쎯	-11.1571
yan❂쎯an❄쎯	-11.1573
,yue❁쎯	-11.1573
tan❄쎯xian❃쎯	-11.1573
hui❄쎯ji❂쎯	-11.1574
hou❄쎯zhe❃쎯	-11.1574
yang❂쎯zhen❄쎯	-11.1575
nong❂쎯suo❁쎯	-11.1576
de❅쎯te❄쎯shu❁쎯	-11.1579
hong❂쎯se❄쎯,	-11.1579
쎂쎀쎀duo❁쎯	-11.158
쎆쎅쎀	-11.1582
wai❄쎯jie❄쎯	-11.1583
쎁쎃쎄	-11.1584
shi❄쎯xue❂쎯wei❄쎯;	-11.1585
《da❄쎯	-11.1586
pei❄쎯yi❃쎯	-11.1586
shun❄쎯de❂쎯	-11.1589
xian❄쎯yu❂쎯	-11.159
bu❄쎯shang❄쎯shu❁쎯	-11.159
qian❂쎯mian❄쎯	-11.1591
ke❁쎯huan❄쎯	-11.1594
,zong❃쎯tou❂쎯zi❁쎯	-11.1594
쎁쎉쎉쎄	-11.1595
da❄쎯dai❄쎯biao❃쎯	-11.1595
shi❂쎯er❄쎯nian❂쎯	-11.1596
da❄쎯peng❂쎯	-11.1596
bei❄쎯po❄쎯	-11.1597
de❅쎯an❁쎯quan❂쎯	-11.1598
yi❃쎯shang❃쎯,	-11.1598
;쎂	-11.1598
jue❂쎯qi❃쎯	-11.16
du❂쎯jia❁쎯	-11.1601
se❄쎯jin❁쎯shu❃쎯	-11.1601
wen❁쎯rou❂쎯	-11.1601
,bing❁쎯you❃쎯	-11.1601
ri❄쎯ji❁쎯:쎂쎀쎀	-11.1601
xia❄쎯tian❁쎯	-11.1604
shi❄쎯wei❁쎯、shi❄쎯	-11.1604
쎁mi❃쎯	-11.1604
ceng❂쎯dan❁쎯ren❂쎯	-11.1607
shu❁쎯kuo❄쎯de❅쎯	-11.1611
mo❂쎯fang❃쎯	-11.1611
ke❁쎯er❃쎯	-11.1613
gong❁쎯che❃쎯	-11.1613
zheng❄쎯gong❁쎯	-11.1614
you❄쎯cheng❁쎯“	-11.1614
sha	-11.1616
,que❄쎯bao❃쎯	-11.1616
hao❂쎯mi❃쎯,kuo❄쎯	-11.1616
you❃쎯gan❄쎯	-11.1617
jia❁쎯mi❄쎯	-11.1618
zu❃쎯jian❄쎯de❅쎯	-11.1618
fang❁쎯an❄쎯.	-11.162
mi❃쎯,kuan❁쎯	-11.1621
ren❂쎯,da❄쎯xue❂쎯	-11.1623
wu❃쎯jing❃쎯	-11.1625
yi❁쎯ce❄쎯	-11.1628
《song❄쎯	-11.163
nian❂쎯li❄쎯shi❃쎯	-11.1631
yu❄쎯yan❂쎯	-11.1632
she❄쎯jiao❁쎯	-11.1632
gang❁쎯、	-11.1634
xi❁쎯ning❂쎯	-11.1634
,쎁쎉쎉쎃nian❂쎯	-11.1635
,cong❂쎯shi❄쎯	-11.1635
te❄쎯qu❁쎯	-11.1636
cheng❂쎯guan❁쎯	-11.1636
tai❄쎯yuan❂쎯shi❄쎯	-11.1636
gao❁쎯shou❃쎯	-11.1636
chu❄쎯de❅쎯	-11.1638
ji❁쎯gou❃쎯gai❃쎯	-11.1638
song❃쎯	-11.1639
xing❂쎯,zhang❃쎯	-11.1639
ran❃쎯se❄쎯ben❄쎯	-11.1642
wu❃쎯gong❁쎯	-11.1643
jun❁쎯guan❁쎯	-11.1644
gong❁쎯zheng❁쎯	-11.1645
kao❃쎯zheng❄쎯	-11.1648
gu❃쎯po❄쎯	-11.1648
fu❄쎯shu❁쎯ji❄쎯,	-11.1649
hou❄쎯,zai❄쎯	-11.165
ti❂쎯qian❂쎯	-11.1651
yu❂쎯쎂쎀쎀쎀nian❂쎯	-11.1651
heng❂쎯xing❁쎯	-11.1651
ying❁쎯dui❄쎯	-11.1652
zhe❄쎯ben❃쎯shu❁쎯	-11.1652
jing❁쎯zhan❄쎯	-11.1652
xin❁쎯tai❄쎯	-11.1654
liu❂쎯pai❄쎯	-11.1655
.zhu❃쎯chi❂쎯	-11.1656
ci❂쎯pan❂쎯	-11.1656
zuo❄쎯pin❃쎯,	-11.1657
zai❄쎯ben❄쎯	-11.1657
sha❁쎯jun❁쎯	-11.1658
qu❁쎯feng❁쎯	-11.1658
cai❄쎯dan❁쎯	-11.1658
zhuan❁쎯mai❄쎯	-11.1658
han❁쎯	-11.1659
hai❂쎯zi❃쎯de❅쎯	-11.1659
jiang❁쎯qu❁쎯	-11.166
쎆gong❁쎯li❃쎯	-11.1661
feng❁쎯ji❁쎯	-11.1661
chuang❄쎯shang❁쎯	-11.1661
gong❁쎯jian❄쎯	-11.1664
bei❃쎯jing❁쎯shi	-11.1664
di❄쎯쎆	-11.1665
you❁쎯xian❁쎯	-11.1665
쎂쎇쎀	-11.1666
gang❃쎯qu❁쎯	-11.1666
te❄쎯yao❁쎯	-11.1667
zheng❁쎯chu❄쎯ji❂쎯	-11.1669
qu❁쎯yi❄쎯	-11.1669
jian❃쎯dan❁쎯,	-11.1669
zheng❁쎯zhi❂쎯	-11.1669
ci❄쎯,jin❄쎯쎀qiu❂쎯	-11.167
hou❄쎯dai❄쎯	-11.167
pao❁쎯mo❄쎯	-11.167
yao❁쎯qiu❂쎯,	-11.1671
jian❄쎯zhu❂쎯shi❁쎯	-11.1671
a❁쎯li❃쎯	-11.1673
쎁쎈ri❄쎯	-11.1673
yu❄쎯mi❃쎯、	-11.1673
zhong❁쎯chang❃쎯	-11.1676
쎅mi❃쎯,	-11.1677
xue❂쎯yuan❄쎯.	-11.1677
zuo❄쎯guo❄쎯	-11.1679
di❄쎯shi❂쎯san❁쎯	-11.1682
zhi❂쎯zhi❄쎯	-11.1683
xi❁쎯xiang❁쎯	-11.1683
k	-11.1686
hai❂쎯	-11.1688
쎁쎉쎉쎂	-11.169
,shang❃쎯hai❃쎯	-11.1691
ji❂쎯zhen❄쎯	-11.1691
xi❂쎯su❂쎯	-11.1692
bu❂쎯hao❃쎯	-11.1692
xiang❁쎯liao❄쎯	-11.17
geng❁쎯gao❁쎯	-11.1702
ren❂쎯ming❄쎯	-11.1702
de❅쎯shang❁쎯qiu❁쎯	-11.1703
fen❁쎯qu❁쎯	-11.1705
shi❄쎯wo❃쎯	-11.1705
tong❂쎯“	-11.1705
tong❁쎯zhi❁쎯	-11.1707
zhao❁쎯biao❁쎯	-11.1711
yu❃쎯lin❂쎯	-11.1711
xian❄쎯jing❄쎯na❄쎯	-11.1712
wan❃쎯hui❄쎯	-11.1714
쎉쎀쎀쎁	-11.1714
zhang❃쎯zhu❄쎯li❃쎯	-11.1715
huo❃쎯bao❁쎯	-11.1716
쎅.쎀	-11.1716
shi❂쎯you❃쎯	-11.1717
he❂쎯dong❁쎯	-11.1718
yi❂쎯wu❄쎯	-11.1719
tang❂쎯·	-11.1721
qian❂쎯xin❁쎯	-11.1721
jin❄쎯ji❁쎯	-11.1724
gong❁쎯li❃쎯chu❄쎯	-11.1724
.쎁쎉쎇쎈nian❂쎯	-11.1726
deng❃쎯yu❂쎯	-11.1727
an❁쎯fang❂쎯	-11.173
shu❄쎯pi❂쎯	-11.173
zhang❃쎯shou❄쎯	-11.173
jian❄쎯zheng❄쎯	-11.1731
ji❁쎯chong❂쎯	-11.1733
huan❃쎯man❄쎯	-11.1735
da❄쎯nao❃쎯	-11.1735
zi❁쎯tai❄쎯	-11.1736
xia❄쎯fang❁쎯	-11.1737
lv❃쎯you❂쎯qu❁쎯	-11.1738
,쎁쎉쎉쎄nian❂쎯	-11.1738
,jian❄쎯li❄쎯	-11.1739
쎅°	-11.174
wang❃쎯qiu❂쎯	-11.174
zhong❁쎯jiang❁쎯	-11.174
cheng❂쎯chong❂쎯	-11.174
bao❄쎯xiang❁쎯	-11.1742
ji❄쎯shu❂쎯yu❃쎯	-11.1743
(쎅	-11.1745
ba❄쎯ba❄쎯	-11.1747
nan❂쎯ti❂쎯	-11.1748
kua❄쎯guo❂쎯	-11.1751
de❅쎯ge❄쎯xiang❄쎯	-11.1752
tou❂쎯fa❁쎯	-11.1754
chong❂쎯xing❂쎯	-11.1755
,쎂쎀쎀쎇nian❂쎯	-11.1757
yi❁쎯xiao❃쎯	-11.1758
ni❃쎯们	-11.1758
di❁쎯,	-11.1761
yin❂쎯hang❂쎯、	-11.1761
nian❂쎯mo❂쎯	-11.1761
mo❂쎯shu❂쎯	-11.1761
ge❄쎯fang❁쎯mian❄쎯	-11.1761
bian❄쎯dong❄쎯	-11.1763
yang❃쎯lao❃쎯	-11.1764
hei❁쎯se❄쎯,	-11.1765
—쎁	-11.1766
de❅쎯qu❁쎯,	-11.1766
fen❁쎯lan❂쎯	-11.1767
tong❃쎯chou❂쎯	-11.1768
zai❄쎯ta❁쎯de❅쎯	-11.1768
qiu❂쎯shi❂쎯	-11.177
zha❁쎯shi❂쎯	-11.1771
de❅쎯xiao❄쎯guo❃쎯	-11.1774
“quan❂쎯guo❂쎯	-11.1774
gong❁쎯xiao❄쎯.	-11.1774
jin❁쎯yin❂쎯	-11.1774
fa❁쎯shou❄쎯	-11.1777
cen❂쎯	-11.1779
(yi❁쎯)	-11.1779
nong❂쎯jia❁쎯	-11.178
yu❂쎯쎂쎀쎀쎁nian❂쎯	-11.178
de❅쎯yi❁쎯xiang❄쎯	-11.1782
gu❃쎯zhen❄쎯	-11.1782
gan❃쎯mao❄쎯	-11.1785
bing❁쎯chuan❁쎯	-11.1785
zi❃쎯fang❂쎯	-11.1787
he❂쎯、	-11.1787
you❂쎯xi❄쎯de❅쎯	-11.1787
zhu❃쎯xi❂쎯.	-11.1788
gong❁쎯shi❁쎯	-11.179
hua❁쎯guan❁쎯	-11.179
kan❁쎯deng❁쎯	-11.1794
qi❃쎯xie❃쎯	-11.1796
mo❄쎯mu❃쎯	-11.1798
shi❄쎯nan❂쎯	-11.18
an❁쎯xi❁쎯zhuang❄쎯	-11.18
、tang❂쎯	-11.1801
da❄쎯ci❂쎯dian❃쎯	-11.1803
,wei❂쎯	-11.1804
(쎁쎀	-11.1804
zui❄쎯xi❃쎯huan❁쎯	-11.1805
zhi❁쎯ji❄쎯	-11.1808
pei❄쎯dai❄쎯	-11.1808
zeng❁쎯da❄쎯	-11.1809
zao❃쎯shou❂쎯	-11.1809
dan❄쎯huang❂쎯se❄쎯	-11.1809
que❁쎯dian❃쎯	-11.1809
du❂쎯ju❄쎯	-11.181
xie❂쎯tong❂쎯	-11.181
hao❂쎯)	-11.1812
bo❁쎯yin❁쎯	-11.1818
si❁쎯ke❄쎯	-11.182
xiao❃쎯xie❂쎯	-11.1821
gao❁쎯di❁쎯	-11.1822
zhi❂쎯chang❃쎯	-11.1822
qu❄쎯chu❂쎯	-11.1822
ceng❂쎯bei❄쎯	-11.1824
lun❄쎯wen❂쎯《	-11.1825
song❁쎯jiang❁쎯	-11.1827
gong❁쎯ping❂쎯	-11.1827
ji❂쎯di❂쎯	-11.183
gan❁쎯xian❄쎯	-11.183
shen❁쎯hou❄쎯de❅쎯	-11.1831
zhong❁쎯xue❂쎯,	-11.1832
nian❂쎯ji❂쎯	-11.1832
cheng❂쎯shi❁쎯,	-11.1832
zhao❂쎯cheng❁쎯	-11.1834
shi❃쎯yu❂쎯	-11.1834
dun❁쎯huang❂쎯	-11.1835
can❁쎯jun❁쎯	-11.1839
zu❃쎯cheng❂쎯:	-11.184
lun❄쎯zheng❄쎯	-11.1843
yin❄쎯fa❁쎯	-11.1847
kun❁쎯ming❂쎯shi❄쎯	-11.1849
bo❁쎯si❁쎯	-11.1851
tian❁쎯xian❄쎯	-11.1851
jie❁쎯shu❁쎯	-11.1852
ling❂쎯nan❂쎯	-11.1854
cun❁쎯li❃쎯	-11.1855
,ju❁쎯	-11.1861
li❄쎯zhi❁쎯	-11.1862
qin❃쎯	-11.1862
xiao❃쎯shuo❁쎯.	-11.1863
you❃쎯xu❄쎯	-11.1869
,쎂쎀쎀쎀nian❂쎯	-11.1869
jiao❁쎯dian❃쎯	-11.1872
sai❄쎯che❁쎯	-11.1878
xiang❁쎯yang❂쎯	-11.1881
dong❄쎯mo❂쎯fan❄쎯	-11.1881
kuan❁쎯chang❃쎯	-11.1883
、ma❃쎯	-11.1886
shu❄쎯qian❁쎯	-11.1887
shou❃쎯zhang❁쎯	-11.189
ji❁쎯che❁쎯	-11.1891
lao❁쎯qi❃쎯	-11.1891
쎅/	-11.1893
han❃쎯zhang❃쎯	-11.1893
you❃쎯du❂쎯	-11.1893
ge❁쎯chang❄쎯	-11.1899
shang❁쎯han❂쎯	-11.1899
zhu❃쎯ren❂쎯;	-11.19
guo❂쎯jia❁쎯de❅쎯	-11.1901
bu❄쎯fen❁쎯,	-11.1903
yao❁쎯dian❃쎯	-11.1904
ru❂쎯yi❄쎯	-11.1904
suo❃쎯yin❃쎯	-11.1904
zhi❄쎯zao❄쎯you❃쎯	-11.1905
xia❂쎯zhai❃쎯	-11.1906
yan❂쎯suan❁쎯	-11.191
ding❄쎯shi❂쎯	-11.1911
zi❄쎯ran❂쎯cun❁쎯,	-11.1916
-쎃쎀	-11.1919
nan❂쎯zhu❃쎯jiao❃쎯	-11.1919
shi❂쎯guang❁쎯	-11.1922
luo❁쎯si❁쎯	-11.1923
yong❄쎯liang❂쎯:	-11.1924
zhi❁쎯cheng❂쎯	-11.1925
zi❃쎯sun❁쎯	-11.1926
wei❄쎯yi❂쎯	-11.1927
mi❄쎯niao❄쎯	-11.1927
zhuan❃쎯zhan❄쎯	-11.1929
xue❂쎯bao❄쎯》	-11.1929
men❂쎯wai❄쎯	-11.1931
you❃쎯li❄쎯yu❂쎯	-11.1932
ke❃쎯kao❄쎯de❅쎯	-11.1932
、tong❂쎯	-11.1934
zui❄쎯duo❁쎯de❅쎯	-11.1935
dai❃쎯	-11.1936
yu❃쎯jiao❁쎯xue❂쎯	-11.1937
de❅쎯biao❁쎯zhun❃쎯	-11.1938
luo❁쎯han❄쎯	-11.1938
mei❃쎯xie❂쎯	-11.1939
juan❁쎯zu❂쎯	-11.1939
xian❁쎯jiang❁쎯	-11.194
“da❄쎯	-11.1941
、xiang❁쎯gang❃쎯	-11.1941
wu❂쎯wei❄쎯	-11.1943
te❄쎯ding❄쎯de❅쎯	-11.1944
chen❂쎯pi❂쎯	-11.1947
dong❁쎯mian❄쎯	-11.1949
jie❂쎯suan❄쎯	-11.1951
bian❁쎯zuan❃쎯	-11.1954
,chuang❄쎯jian❄쎯	-11.1955
们de❅쎯	-11.1955
yue❁쎯:	-11.1955
zhuan❃쎯ru❄쎯	-11.1955
zhan❄쎯guo❂쎯shi❂쎯	-11.1956
e❂쎯guo❂쎯	-11.1956
gu❃쎯ren❂쎯	-11.1956
dian❄쎯han❃쎯	-11.1956
zhuan❁쎯wei❄쎯	-11.1957
～쎂	-11.1957
shi❄쎯jiang❁쎯	-11.196
zhuang❁쎯pei❄쎯	-11.1962
、wei❄쎯jing❁쎯、	-11.1962
,jia❁쎯jiang❄쎯	-11.1963
,쎁쎉쎆쎂nian❂쎯	-11.1969
shou❃쎯gan❄쎯	-11.197
,쎁쎉쎉쎁nian❂쎯	-11.1972
xi❄쎯tong❃쎯ji❂쎯	-11.1972
chu❁쎯se❄쎯	-11.1974
zeng❁쎯sheng❁쎯	-11.1974
de❅쎯huan❂쎯jing❄쎯	-11.1975
tai❄쎯han❄쎯	-11.1975
zun❁쎯shou❃쎯	-11.1975
er❄쎯shi❂쎯yi❁쎯	-11.1978
yi❄쎯wei❄쎯“	-11.198
gao❁쎯tang❁쎯	-11.1981
zui❄쎯xian❁쎯jin❄쎯	-11.1982
hui❂쎯lai❂쎯	-11.1983
.——	-11.1984
cai❂쎯zheng❄쎯bu❄쎯	-11.1984
ci❃쎯ci❄쎯	-11.1985
jie❂쎯qiu❁쎯	-11.1985
shu❃쎯de❅쎯	-11.1988
ying❁쎯te❄쎯er❃쎯	-11.199
gao❁쎯xin❁쎯qu❁쎯	-11.199
de❅쎯bi❄쎯mi❄쎯	-11.1992
zhu❄쎯yuan❄쎯	-11.1993
xi❃쎯di❂쎯	-11.1995
zhuang❁쎯pan❂쎯	-11.1997
zhao❃쎯ze❂쎯	-11.1997
zuan❁쎯yan❂쎯	-11.1999
yi❁쎯juan❃쎯	-11.2
pei❄쎯liao❄쎯	-11.2
zhan❃쎯hui❄쎯	-11.2
gen❁쎯zhuang❄쎯	-11.2001
di❃쎯kang❄쎯	-11.2002
lang❂쎯zhong❁쎯	-11.2005
bu❂쎯guan❃쎯	-11.2005
,qu❄쎯	-11.2006
bei❁쎯bu❄쎯	-11.2006
xiao❁쎯mie❄쎯	-11.2006
nian❂쎯fu❄쎯	-11.2007
yin❁쎯liang❂쎯	-11.201
si❄쎯chong❂쎯	-11.2011
,xi❁쎯zhi❄쎯	-11.2013
de❅쎯tai❄쎯du❄쎯	-11.2013
de❅쎯gong❁쎯xiao❄쎯	-11.2014
fang❁쎯wei❄쎯de❅쎯	-11.2015
쎀li❂쎯mi❃쎯,	-11.2016
쎀쎀mo❄쎯yuan❂쎯,	-11.2016
you❁쎯jiu❃쎯	-11.2019
hun❁쎯sha❁쎯	-11.2021
shuo❄쎯guo❃쎯	-11.2021
fu❄쎯lu❄쎯	-11.2025
wu❄쎯.	-11.2025
xiang❃쎯yu❄쎯	-11.2027
wu❂쎯bu❂쎯	-11.2028
chen❁쎯dian❄쎯	-11.2028
qiu❂쎯wei❁쎯	-11.2029
、、、、	-11.203
쎁쎉쎈쎈	-11.2031
li❄쎯shui❃쎯	-11.2034
tang❁쎯chi❂쎯	-11.2035
yong❄쎯fang❂쎯	-11.2035
ling❂쎯xian❄쎯	-11.2036
zhu❄쎯:	-11.2037
han❂쎯gai❄쎯le❅쎯	-11.2037
deng❃쎯fu❂쎯wu❄쎯	-11.204
yi❁쎯yang❂쎯de❅쎯	-11.204
biao❁쎯shi❂쎯	-11.2041
ω	-11.2041
,ru❄쎯	-11.2042
shang❃쎯di❄쎯	-11.2042
dang❃쎯wei❁쎯shu❁쎯	-11.2044
shi❄쎯zui❄쎯	-11.2046
xia❄쎯qu❄쎯	-11.2048
er❂쎯yan❂쎯,	-11.2048
wan❂쎯shan❄쎯,	-11.2049
hui❄쎯dai❄쎯biao❃쎯	-11.2049
fa❁쎯zhan❃쎯guan❁쎯	-11.205
,dong❁쎯yu❃쎯	-11.2051
ba❁쎯da❄쎯	-11.2051
suo❃쎯ni❂쎯	-11.2052
hang❂쎯zou❃쎯	-11.2053
she❂쎯:“	-11.2053
ke❄쎯cheng❂쎯.	-11.2054
de❅쎯biao❃쎯xian❄쎯	-11.2055
ben❄쎯yu❄쎯guan❃쎯	-11.2056
xing❁쎯qiu❂쎯	-11.2058
de❅쎯jian❄쎯she❄쎯	-11.2059
yi❁쎯yuan❄쎯.	-11.2059
an❁쎯dian❄쎯	-11.206
zuo❄쎯pin❃쎯zhan❃쎯	-11.2061
dong❁쎯yu❃쎯	-11.2062
jin❁쎯dan❄쎯	-11.2064
du❂쎯xing❄쎯	-11.2065
zi❄쎯gu❃쎯	-11.2067
jin❁쎯huang❂쎯	-11.207
shi❃쎯ren❂쎯	-11.2071
de❅쎯xin❁쎯li❃쎯	-11.2071
shi❃쎯chuang❄쎯	-11.2071
ji❁쎯ben❃쎯shang❃쎯	-11.2072
ji❁쎯na❄쎯	-11.2074
dong❁쎯gua❁쎯	-11.2074
,ceng❂쎯zai❄쎯	-11.2076
쎉yue❄쎯sheng❁쎯,	-11.2076
쎃쎀yu❂쎯	-11.2077
.ben❃쎯gong❁쎯si❁쎯	-11.2079
zuo❄쎯pin❃쎯bei❄쎯	-11.2079
jian❃쎯ben❄쎯	-11.2084
yu❄쎯bao❄쎯	-11.2085
yi❃쎯ci❃쎯	-11.2085
xue❂쎯yuan❄쎯(	-11.2088
°Cnian❂쎯jiang❄쎯	-11.2089
.쎁쎉쎅쎀nian❂쎯	-11.2092
xue❂쎯pai❄쎯	-11.2092
shu❄쎯chong❂쎯	-11.2093
gong❁쎯li❃쎯,chi❁쎯	-11.2094
geng❁쎯hao❃쎯	-11.2095
han❄쎯ke❁쎯yan❂쎯	-11.2096
쎁gan❄쎯,	-11.2097
jiao❄쎯“	-11.2097
쎅hao❂쎯mi❃쎯	-11.2098
cun❁쎯ji❂쎯	-11.2099
quan❂쎯nian❂쎯	-11.2101
,shi❃쎯yong❄쎯	-11.2101
qian❂쎯zhe❃쎯	-11.2102
fu❄쎯yu❄쎯	-11.2105
man❄쎯hua❄쎯jia❁쎯	-11.2106
ji❂쎯jiu❄쎯	-11.2106
mo❂쎯tuo❁쎯che❁쎯	-11.2107
jun❁쎯zhu❃쎯	-11.2108
de❅쎯quan❂쎯li❄쎯	-11.2109
shi❃쎯·	-11.2109
jie❁쎯ru❄쎯	-11.211
jiang❃쎯jiu❁쎯	-11.211
yin❂쎯he❂쎯	-11.2113
.suo❃쎯yi❃쎯	-11.2113
,an❄쎯zhao❄쎯	-11.2116
fan❄쎯chou❂쎯	-11.2116
쎃쎀쎀ke❄쎯	-11.2117
wei❄쎯ben❃쎯	-11.2118
jin❁쎯qian❂쎯	-11.2119
.쎀쎆	-11.2119
shan❃쎯guang❁쎯	-11.2119
dong❄쎯gong❁쎯	-11.2123
yi❄쎯shu❂쎯jie❄쎯	-11.2124
,shi❃쎯qi❂쎯	-11.2125
》you❂쎯	-11.2125
xiang❁쎯ren❂쎯	-11.2126
zu❃쎯zhi❃쎯	-11.2129
hong❂쎯qiao❂쎯	-11.2129
cheng❂쎯guo❃쎯er❄쎯	-11.213
bao❄쎯she❄쎯	-11.213
ba❄쎯qu❁쎯	-11.2131
tui❄쎯yi❄쎯	-11.2133
bi❃쎯ru❂쎯	-11.2133
fu❄쎯dai❄쎯	-11.2134
gu❄쎯wen❄쎯.	-11.2139
xiang❄쎯xia❄쎯	-11.2139
bian❁쎯zhi❁쎯	-11.2141
gai❄쎯gua❁쎯	-11.2143
ㄏ	-11.2144
chu❁쎯ming❂쎯	-11.2146
wu❂쎯du❂쎯	-11.2146
de❅쎯ren❄쎯ke❃쎯	-11.2147
,xue❂쎯sheng❁쎯	-11.2149
ce❄쎯huo❄쎯“	-11.2149
chi❁쎯xin❁쎯	-11.215
쎆ke❄쎯	-11.215
xuan❄쎯ran❃쎯	-11.2151
fen❁쎯she❄쎯	-11.2154
yu❂쎯yi❁쎯shen❁쎯	-11.2155
chan❃쎯hou❄쎯	-11.2157
si❁쎯ke❁쎯	-11.2157
zhi❁쎯xin❁쎯	-11.2158
wei❂쎯ya❄쎯	-11.2161
xiang❁쎯kan❃쎯	-11.2162
de❅쎯ai❄쎯	-11.2162
chu❄쎯mo❁쎯bing❁쎯	-11.2163
ke❃쎯ai❄쎯de❅쎯	-11.2165
cheng❂쎯shou❄쎯	-11.2166
suo❃쎯xu❁쎯de❅쎯	-11.2168
de❅쎯zheng❄쎯zhi❄쎯	-11.2168
shou❁쎯dao❄쎯	-11.2168
leng❂쎯	-11.2169
er❂쎯de❂쎯ming❂쎯	-11.2169
mi❃쎯er❃쎯	-11.2171
pu❄쎯guang❁쎯	-11.2171
fen❃쎯sui❄쎯	-11.2173
yao❄쎯xue❂쎯	-11.2173
zheng❄쎯ju❁쎯	-11.2174
tang❂쎯shu❁쎯·	-11.2174
shang❁쎯yin❃쎯zi❁쎯	-11.2177
jiu❄쎯shi❂쎯	-11.2179
ding❄쎯liang❂쎯	-11.2179
쎁ming❂쎯	-11.218
da❁쎯an❄쎯	-11.2182
yi❁쎯shuo❁쎯	-11.2182
zhua❁쎯zhu❄쎯	-11.2182
kang❄쎯jun❁쎯	-11.2182
jia❁쎯zhi❁쎯	-11.2183
,shi❄쎯guo❂쎯na❄쎯	-11.2183
sha❁쎯shou❃쎯	-11.2183
pu❂쎯tian❂쎯	-11.2185
gu❄쎯xiang❁쎯	-11.2185
kuo❄쎯san❃쎯	-11.2186
qian❁쎯zhi❄쎯	-11.2186
you❃쎯qing❂쎯	-11.2188
zhen❁쎯de❅쎯	-11.2188
kou❃쎯yu❃쎯	-11.2188
qi❂쎯ming❂쎯	-11.2188
lu❄쎯xiang❄쎯	-11.2188
zhun❃쎯que❄쎯de❅쎯	-11.219
ban❄쎯shan❁쎯qu❁쎯	-11.219
xin❁쎯zhong❁쎯	-11.2193
bi❃쎯ji❄쎯	-11.2194
ge❂쎯ming❄쎯jun❁쎯	-11.2199
de❅쎯jie❂쎯gou❃쎯	-11.2201
shen❁쎯xin❁쎯	-11.2202
da❄쎯hai❃쎯	-11.2204
yan❂쎯zhi❄쎯de❅쎯	-11.2208
li❄쎯lv❄쎯	-11.2209
쎈쎅쎀	-11.221
,쎁쎉쎈쎉nian❂쎯	-11.2212
gong❃쎯gu❄쎯	-11.2214
men❂쎯zhen❃쎯	-11.2215
yang❃쎯hu❄쎯	-11.2216
shi❂쎯gan❄쎯	-11.2217
yan❄쎯zheng❄쎯	-11.2219
hai❃쎯wan❁쎯	-11.222
,chu❂쎯le❅쎯	-11.2221
zhu❄쎯jiao❁쎯	-11.2224
zhi❁쎯yong❄쎯	-11.2226
◇	-11.2227
qin❁쎯lve❄쎯	-11.2229
le❅쎯zi❄쎯ji❃쎯de❅쎯	-11.223
wei❄쎯she❄쎯hui❄쎯	-11.2234
zhuan❃쎯rang❄쎯	-11.2236
bei❃쎯hai❃쎯	-11.2238
zao❄쎯jie❄쎯	-11.2238
deng❁쎯guang❁쎯	-11.2239
bian❁쎯ji❂쎯bu❄쎯	-11.224
ren❄쎯shen❁쎯	-11.2241
pi❂쎯wei❄쎯	-11.2241
de❂쎯zhou❁쎯	-11.2243
,tong❁쎯	-11.2243
gou❁쎯qi❃쎯	-11.2244
liang❃쎯xiang❄쎯	-11.2246
,쎁쎉쎉쎀nian❂쎯	-11.2248
、tie❃쎯	-11.2251
,yi❃쎯jing❁쎯	-11.2251
jing❁쎯dou❁쎯	-11.2251
ren❂쎯;	-11.2251
쎇ri❄쎯	-11.2251
bu❂쎯lun❄쎯	-11.2253
suo❃쎯de❂쎯	-11.2254
you❃쎯yi❁쎯chong❂쎯	-11.2254
jing❃쎯wu❄쎯	-11.2255
zi❄쎯lai❂쎯shui❃쎯	-11.2256
쎀/	-11.2257
qing❄쎯dao❄쎯	-11.2257
zhuan❁쎯ying❂쎯	-11.2257
ye❃쎯hen❃쎯	-11.2257
,qu❃쎯	-11.2258
zhuan❃쎯dong❄쎯	-11.2259
ci❃쎯lei❄쎯	-11.226
,shi❄쎯mu❄쎯qian❂쎯	-11.226
yu❄쎯yi❄쎯	-11.226
huang❂쎯you❂쎯	-11.2261
mian❄쎯ji❁쎯쎁쎅	-11.2262
ma❃쎯ling❂쎯shu❃쎯	-11.2262
zai❄쎯na❃쎯li❃쎯	-11.2263
gai❁쎯bing❄쎯du❂쎯	-11.2264
xie❂쎯zi❃쎯	-11.2265
ling❂쎯zhi❁쎯	-11.2265
qian❁쎯jin❁쎯	-11.2265
you❂쎯qi❃쎯	-11.2266
jian❁쎯duan❁쎯	-11.2267
ming❂쎯bai❂쎯	-11.2267
qing❁쎯xiang❄쎯	-11.2267
쎃쎀쎀mi❃쎯	-11.2269
zuo❄쎯yong❄쎯de❅쎯	-11.2272
wen❂쎯ren❂쎯	-11.2272
ji❁쎯chu❃쎯.	-11.2273
zi❁쎯bo❂쎯	-11.2274
rang❄쎯nin❂쎯	-11.2275
ん	-11.2275
ming❄쎯ti❂쎯	-11.2275
qie❁쎯si❁쎯	-11.2276
wei❂쎯fang❁쎯shi❄쎯	-11.2277
쎁쎀쎇	-11.2278
bian❁쎯ju❄쎯chi❁쎯	-11.2278
xuan❂쎯gua❄쎯	-11.2279
li❄쎯shi❄쎯	-11.2279
bu❄쎯hang❂쎯jie❁쎯	-11.2282
nai❄쎯mo❂쎯	-11.2287
ceng❂쎯yong❄쎯	-11.2291
na❃쎯chong❂쎯	-11.2292
de❅쎯ban❃쎯	-11.2294
,cheng❁쎯	-11.2294
re❄쎯jie❃쎯du❂쎯	-11.2295
lian❂쎯yi❄쎯hui❄쎯	-11.2295
bu❂쎯chu❁쎯	-11.2297
mei❃쎯gan❄쎯ren❂쎯	-11.2299
gan❁쎯han❄쎯	-11.2299
tan❂쎯pan❄쎯	-11.23
kan❁쎯jian❄쎯	-11.23
xing❁쎯xing❁쎯	-11.2304
huang❂쎯tu❃쎯	-11.2305
shi❄쎯you❁쎯xiu❄쎯	-11.2307
dang❁쎯shi❄쎯ren❂쎯	-11.2308
쎁쎉쎉쎁	-11.2312
qiu❂쎯xing❂쎯	-11.2312
쎁쎀gong❁쎯li❃쎯	-11.2314
guan❄쎯che❄쎯la❄쎯	-11.2314
sheng❄쎯yu❂쎯	-11.2315
shi❁쎯hang❂쎯	-11.2315
zhong❄쎯cai❂쎯	-11.2316
xing❄쎯hua❁쎯	-11.2317
zhu❃쎯pin❂쎯	-11.2318
bo❂쎯shi❄쎯,	-11.2319
hen❃쎯nan❂쎯	-11.232
(jin❁쎯shu❃쎯	-11.2321
,쎁쎉쎉쎉nian❂쎯	-11.2327
bo❁쎯luo❁쎯	-11.2327
dai❄쎯hao❂쎯	-11.2329
suan❁쎯xing❄쎯	-11.2329
dian❄쎯xian❄쎯	-11.233
(gong❁쎯yuan❂쎯쎁	-11.233
er❂쎯ding❄쎯	-11.2331
fu❄쎯shu❁쎯ji❄쎯.	-11.2331
zheng❄쎯fu❃쎯de❅쎯	-11.2331
feng❁쎯fu❄쎯.	-11.2331
de❅쎯da❄쎯xiao❃쎯	-11.2332
xian❄쎯xing❂쎯	-11.2332
feng❁쎯cai❃쎯	-11.2334
,쎂쎀쎀쎈nian❂쎯	-11.2334
wai❄쎯ce❄쎯	-11.2335
wan❁쎯dou❄쎯	-11.2336
kua❁쎯	-11.2337
li❃쎯bai❂쎯	-11.2338
쎅쎀nian❂쎯dai❄쎯	-11.2338
(《	-11.2339
xu❁쎯qiu❂쎯,	-11.2339
tui❁쎯chu❁쎯le❅쎯	-11.234
shou❃쎯.	-11.234
bu❂쎯deng❃쎯	-11.2344
hui❄쎯zai❄쎯	-11.2344
jie❂쎯dian❃쎯	-11.2345
san❁쎯shi❄쎯	-11.2346
jin❁쎯hua❂쎯	-11.2348
gong❁쎯xue❂쎯	-11.2348
huo❃쎯guo❁쎯	-11.2349
shi❂쎯yu❄쎯	-11.2349
zhuan❁쎯shu❃쎯	-11.2356
shan❁쎯feng❁쎯	-11.2356
qing❃쎯qiu❂쎯	-11.2356
yu❂쎯rou❄쎯	-11.2358
si❄쎯miao❄쎯	-11.2359
shou❃쎯zhi❃쎯	-11.2362
chu❁쎯zu❁쎯	-11.2363
bai❃쎯hua❁쎯	-11.2366
,reng❂쎯	-11.2366
qi❃쎯wei❄쎯	-11.2367
zhu❃쎯yao❁쎯you❂쎯	-11.2368
ke❄쎯ku❃쎯	-11.2369
yong❃쎯yu❂쎯	-11.237
.쎁쎉쎇쎉nian❂쎯	-11.237
wen❁쎯dai❄쎯	-11.2373
ta❁쎯dui❄쎯	-11.2373
cheng❂쎯bei❃쎯	-11.2374
san❁쎯yue❄쎯	-11.2374
gui❁쎯ding❄쎯,	-11.2375
yu❄쎯lin❂쎯	-11.2376
xie❃쎯de❅쎯	-11.2376
gong❁쎯xiao❄쎯:	-11.2376
、ri❄쎯ben❃쎯	-11.2381
xiu❄쎯li❄쎯	-11.2381
ren❂쎯xuan❃쎯	-11.2385
shang❃쎯xue❂쎯li❄쎯	-11.2386
fa❁쎯yang❂쎯	-11.2386
쎀쎈-	-11.2386
、jing❁쎯ji❄쎯、	-11.2387
,쎂쎀쎀쎁nian❂쎯	-11.2388
jin❃쎯guan❃쎯	-11.2388
pin❁쎯bo❂쎯	-11.2388
chu❃쎯liang❂쎯	-11.2389
ji❁쎯ben❃쎯can❁쎯s	-11.239
che❁쎯xing❂쎯	-11.2391
shi❂쎯liu❄쎯nian❂쎯	-11.2392
,qian❂쎯shen❁쎯	-11.2395
hui❄쎯li❃쎯shi❄쎯.	-11.2396
bai❃쎯jiang❄쎯	-11.2398
jian❁쎯bi❄쎯	-11.24
huang❂쎯hua❁쎯	-11.24
li❄쎯han❄쎯	-11.2402
쎃쎀ri❄쎯	-11.2403
,dan❄쎯zai❄쎯	-11.2405
xiu❃쎯	-11.2406
4	-11.2406
xi❄쎯zhi❄쎯	-11.2407
jun❁쎯qi❃쎯wen❁쎯쎂	-11.2408
lu❄쎯jing❄쎯	-11.2408
,qu❃쎯de❂쎯le❅쎯	-11.2409
kou❃쎯zhen❄쎯	-11.241
hui❂쎯bao❄쎯	-11.241
wang❃쎯dian❃쎯	-11.241
쎁쎉쎂쎃nian❂쎯	-11.241
luo❄쎯shan❁쎯ji❁쎯	-11.2411
fen❁쎯jian❁쎯	-11.2412
dang❃쎯han❄쎯	-11.2415
shu❃쎯zhi❂쎯wu❄쎯	-11.2417
ban❄쎯shi❄쎯	-11.2419
luo❄쎯ke❄쎯	-11.242
bo	-11.2423
shen❁쎯ke❄쎯de❅쎯	-11.2423
yan❁쎯hou❂쎯	-11.2423
zhong❁쎯dui❄쎯	-11.2425
hao❃쎯xiang❄쎯	-11.2427
mei❃쎯hao❃쎯de❅쎯	-11.2428
bai❃쎯ke❁쎯	-11.2428
zhan❃쎯shi❄쎯le❅쎯	-11.2429
wei❁쎯chuang❄쎯	-11.2429
.zuo❄쎯zhe❃쎯	-11.2429
ba❁쎯yi❁쎯	-11.2429
、jin❁쎯rong❂쎯	-11.243
de❅쎯zhi❄쎯liao❂쎯	-11.2431
yan❂쎯xi❂쎯	-11.2431
jiang❁쎯ta❁쎯	-11.2432
nv❃쎯yan❃쎯yuan❂쎯	-11.2432
쎈yue❄쎯sheng❁쎯,	-11.2432
ren❂쎯zhi❁쎯	-11.2433
ya❄쎯yun❃쎯hui❄쎯	-11.2433
yi❁쎯zhou❁쎯	-11.2434
shuo❁쎯ming❂쎯:	-11.2437
ming❂쎯dan❁쎯	-11.244
shen❁쎯zhang❃쎯	-11.244
cheng❂쎯dun❄쎯	-11.2441
wei❄쎯guo❂쎯	-11.2446
.bu❂쎯guo❄쎯	-11.2447
pei❄쎯dian❄쎯	-11.2447
쎉ren❂쎯,	-11.2448
jian❃쎯bian❄쎯	-11.2452
gang❁쎯gang❁쎯	-11.2455
,qi❂쎯yu❂쎯	-11.2456
yuan❄쎯wang❄쎯	-11.2457
,yi❃쎯bian❄쎯	-11.2459
mu❃쎯qi❂쎯zhong❁쎯	-11.2459
kong❁쎯xin❁쎯	-11.2459
shang❁쎯,	-11.2462
쎁쎅ke❄쎯,	-11.2462
su❁쎯ge❂쎯lan❂쎯	-11.2462
qing❂쎯kuang❄쎯,	-11.2463
jiao❁쎯hu❄쎯	-11.2463
zhe❄쎯jiu❄쎯shi❄쎯	-11.2465
gu❃쎯quan❂쎯	-11.2465
.ke❃쎯	-11.2465
쎅.쎁	-11.2467
xiu❁쎯li❃쎯	-11.2467
qing❄쎯zhu❄쎯	-11.2468
ju❃쎯hang❂쎯de❅쎯	-11.2468
yuan❃쎯chi❁쎯	-11.2469
ke❁쎯xue❂쎯li❄쎯,	-11.247
cun❂쎯zai❄쎯yu❂쎯	-11.2471
yu❃쎯huan❂쎯jing❄쎯	-11.2472
gong❁쎯xu❄쎯	-11.2472
de❅쎯yi❁쎯zuo❄쎯	-11.2473
tui❄쎯chu❁쎯	-11.2474
zheng❃쎯ji❂쎯	-11.2475
gu❄쎯ju❁쎯	-11.2476
si❄쎯xing❁쎯ji❂쎯	-11.2476
tiao❂쎯yue❁쎯	-11.2477
da❄쎯jiang❁쎯	-11.248
zhi❁쎯na❄쎯	-11.248
zhi❄쎯liang❂쎯de❅쎯	-11.2481
hen❃쎯hao❃쎯	-11.2481
yu❃쎯liang❂쎯	-11.2483
hu❂쎯pan❄쎯	-11.2483
dan❄쎯cai❂쎯	-11.2483
hang❂쎯hai❃쎯	-11.2486
wei❁쎯shu❁쎯ji❄쎯;	-11.2486
de❅쎯you❃쎯guan❁쎯	-11.2486
you❃쎯liang❃쎯	-11.2489
sha❁쎯tang❂쎯	-11.2489
、jiao❁쎯tong❁쎯	-11.249
shan❄쎯tou❂쎯shi❄쎯	-11.249
fen❁쎯xi❁쎯han❄쎯	-11.2492
si❁쎯()	-11.2492
shi❂쎯yi❁쎯nian❂쎯	-11.2493
shen❁쎯cai❂쎯	-11.2494
gong❁쎯gei❃쎯	-11.2495
ji❄쎯lu❄쎯pian❁쎯	-11.2497
guan❄쎯cong❂쎯	-11.2498
da❄쎯xi❁쎯yang❂쎯	-11.25
jie❂쎯he❂쎯	-11.25
yuan❄쎯yi❄쎯	-11.2501
qu❁쎯fen❁쎯	-11.2501
bu❂쎯xi❁쎯	-11.2501
xi❂쎯ti❂쎯	-11.2507
,can❁쎯jia❁쎯	-11.2508
쎅쎀-	-11.2509
쎀duo❁쎯mo❄쎯yuan❂쎯	-11.2509
xing❂쎯zhi❄쎯	-11.2511
chuan❂쎯lve❄쎯	-11.2511
de❅쎯xian❄쎯dai❄쎯	-11.2512
쎉쎀쎀쎀	-11.2516
쎄li❂쎯mi❃쎯	-11.2516
な	-11.2517
jiu❃쎯jing❁쎯	-11.2517
bi❄쎯ran❂쎯	-11.2518
yan❂쎯cheng❂쎯	-11.2518
tu❁쎯fa❁쎯	-11.2519
jiu❃쎯zhou❁쎯	-11.2523
peng❂쎯wan❂쎯	-11.2523
de❅쎯xue❂쎯shu❂쎯	-11.2526
ㄤ	-11.2529
ji❁쎯huan❄쎯	-11.2529
jian❄쎯dui❄쎯	-11.2531
yue❁쎯han❄쎯	-11.2531
、shang❁쎯qiu❁쎯	-11.2531
si❁쎯ta❃쎯	-11.2532
re❄쎯men❂쎯	-11.2533
ni❃쎯ke❃쎯yi❃쎯	-11.2535
guan❁쎯lian❂쎯	-11.2535
zai❄쎯zhi❂쎯da❄쎯	-11.2535
.zuo❄쎯pin❃쎯	-11.2536
yi❃쎯se❄쎯lie❄쎯	-11.2541
ou❃쎯ran❂쎯	-11.2542
ji❂쎯shi❃쎯	-11.2542
zhong❁쎯xue❂쎯.	-11.2542
.shu❁쎯zhong❁쎯	-11.2544
pin❄쎯wei❄쎯	-11.2547
jiang❃쎯;	-11.2547
.쎁쎉쎃쎈nian❂쎯	-11.2551
jia❁쎯cun❁쎯	-11.2552
zuo❄쎯“	-11.2552
zhu❁쎯shi❄쎯hui❄쎯	-11.2552
ru❄쎯wei❄쎯	-11.2554
,쎁쎉쎆쎄nian❂쎯	-11.2555
qie❁쎯shi❂쎯	-11.2557
yi❂쎯ren❂쎯	-11.2558
zhen❄쎯xi❁쎯	-11.2559
ju❃쎯ren❂쎯	-11.2561
zhang❃쎯zi❃쎯	-11.2561
man❃쎯yi❄쎯de❅쎯	-11.2562
shi❃쎯you❁쎯jiu❃쎯,	-11.2562
ban❁쎯ji❂쎯	-11.2563
qing❂쎯ren❂쎯	-11.2565
fu❄쎯ju❂쎯zhang❃쎯.	-11.2565
zheng❄쎯jian❄쎯	-11.2566
,쎁쎉쎈쎁nian❂쎯	-11.2566
,da❂쎯dao❄쎯	-11.2568
shi❄쎯an❁쎯dong❁쎯	-11.2568
liu❂쎯jing❁쎯	-11.2569
ce❄쎯mian❄쎯	-11.2571
xue❂쎯ke❁쎯:	-11.2574
ge❂쎯fang❁쎯an❄쎯	-11.2575
jue❂쎯sai❄쎯	-11.2575
yue❁쎯쎃	-11.2576
tian❁쎯bao❃쎯	-11.2576
쎁쎉쎁	-11.2577
tai❄쎯ji❂쎯	-11.2577
mo❄쎯mu❃쎯,	-11.2582
dao❄쎯li❃쎯	-11.2588
yi❄쎯nian❂쎯	-11.2588
쎁쎉쎈쎄	-11.2589
jian❃쎯li❄쎯	-11.2589
쎂ming❂쎯	-11.2589
cha❁쎯wu❁쎯	-11.259
yin❂쎯jiang❃쎯	-11.259
shen❁쎯yuan❃쎯	-11.259
mao❄쎯yi❄쎯you❃쎯	-11.259
ha❁쎯fo❂쎯	-11.2591
gu❄쎯li❃쎯	-11.2593
❅쎯	-11.2593
qi❃쎯shi❁쎯hang❂쎯.	-11.2594
yi❃쎯ji❂쎯qi❂쎯ta❁쎯	-11.2594
ke❄쎯、	-11.2594
yi❃쎯.”	-11.2594
zhi❄쎯zuo❄쎯ren❂쎯	-11.2594
쎁쎉쎂쎅nian❂쎯	-11.2594
shi❃쎯xue❂쎯	-11.2595
jing❄쎯tai❄쎯	-11.2595
kuang❄쎯dan❄쎯	-11.2597
shui❃쎯yuan❂쎯	-11.2597
wu❁쎯ke❄쎯lan❂쎯	-11.2598
yue❄쎯liang❄쎯	-11.2599
zu❃쎯xian❁쎯	-11.2599
쎃쎀duo❁쎯	-11.2599
mian❄쎯ji❁쎯쎁쎃	-11.26
ge❂쎯lin❂쎯	-11.2603
zhan❃쎯lan❃쎯hui❄쎯	-11.2604
gai❄쎯lun❄쎯	-11.2605
zhi❁쎯hang❂쎯	-11.2606
hua❂쎯yu❃쎯	-11.2606
zhi❁쎯zhu❁쎯	-11.2607
si❁쎯、	-11.2609
jiao❄쎯da❄쎯,	-11.2609
jie❁쎯kou❃쎯,	-11.2612
tui❄쎯chi❁쎯	-11.2614
xin❄쎯xi❁쎯:	-11.2615
л	-11.2615
zhi❂쎯.	-11.2616
jie❁쎯ji❂쎯	-11.2617
de❅쎯hai❂쎯zi❃쎯	-11.2619
kuo❄쎯yu❂쎯	-11.2619
de❅쎯zhen❁쎯shi❂쎯	-11.262
mu❃쎯,jian❄쎯zhu❂쎯	-11.2622
dui❄쎯dui❄쎯yuan❂쎯	-11.2623
deng❃쎯ge❄쎯lei❄쎯	-11.2623
de❅쎯cun❂쎯zai❄쎯	-11.2625
ju❂쎯mian❄쎯	-11.2625
yi❁쎯ju❃쎯	-11.2625
dong❄쎯wu❄쎯men❂쎯	-11.2625
[...]
