[UNK]	0
[PAD]	0
[CLS]	0
[SEP]	0
[MASK]	0
쎯	-1.99061
a	-3.33716
i	-3.56112
n	-3.59794
o	-3.77269
u	-3.85787
,	-4.02267
e	-4.04816
ng	-4.29457
ru❃9쎯	-4.54298
。	-4.66895
2쎯	-4.76742
0쎯	-4.77655
1쎯	-4.84272
6	-4.90592
ji	-4.90887
4쎯	-4.93391
5쎯	-4.93926
5	-4.96993
3쎯	-4.97762
b	-4.99924
、	-5.00325
y	-5.01547
qi	-5.01996
7쎯	-5.04568
xi	-5.07313
6쎯	-5.08107
9쎯	-5.08442
d	-5.11993
1	-5.14677
ch	-5.20634
hu	-5.23985
zh	-5.26699
7	-5.28348
8쎯	-5.28743
z	-5.29771
쎁	-5.34276
w	-5.43244
gu	-5.45594
sh	-5.49654
l	-5.50846
ju	-5.53284
mai❄10쎯	-5.53388
14쎯	-5.56634
k	-5.57227
10쎯	-5.59351
f	-5.59786
c	-5.59847
g	-5.60058
lv❄22쎯	-5.60335
li	-5.61603
m	-5.6221
yan❃2쎯	-5.62575
t	-5.63783
8	-5.65081
4	-5.67372
쎂	-5.68873
쎀	-5.69865
s	-5.70812
ji❄99쎯	-5.74007
12쎯	-5.77087
yi❂125쎯	-5.79225
13쎯	-5.81189
28쎯	-5.81205
r	-5.81924
chuai❂1쎯	-5.82347
li❄196쎯	-5.83737
21쎯	-5.85914
ti❁6쎯	-5.90629
ang❁	-5.92308
li❂122쎯	-5.9486
yu	-5.94861
11쎯	-5.95617
ta❄40쎯	-5.99631
쎅	-5.99661
29쎯	-5.99748
ao❂	-5.99902
31쎯	-6.01971
:	-6.02299
shu❂7쎯	-6.02777
쎃	-6.02785
23쎯	-6.0308
15쎯	-6.04681
30쎯	-6.04973
17쎯	-6.05689
p	-6.0608
ling❂158쎯	-6.06165
ji❄193쎯	-6.07603
32쎯	-6.10793
.	-6.11185
쎈	-6.13323
9	-6.16595
la	-6.1738
22쎯	-6.17494
di	-6.18428
ji❂169쎯	-6.18895
쎁쎉	-6.19033
xu	-6.19981
tu	-6.20023
쎄	-6.21385
)	-6.22096
(	-6.22511
20쎯	-6.22569
18쎯	-6.23245
27쎯	-6.24436
pi	-6.25016
쎆	-6.26576
25쎯	-6.27389
10	-6.28154
19쎯	-6.29819
su	-6.30083
34쎯	-6.31197
ke❂0쎯	-6.32393
쎉	-6.35925
qiong❂72쎯	-6.37646
zhe❂33쎯	-6.38482
16쎯	-6.39114
35쎯	-6.39191
ba❂11쎯	-6.39515
40쎯	-6.39615
쎇	-6.39797
li❄270쎯	-6.40722
mi❄56쎯	-6.43718
ang❃	-6.44697
qian	-6.44999
36쎯	-6.45016
42쎯	-6.45718
fu❂142쎯	-6.45735
41쎯	-6.48248
h	-6.48515
33쎯	-6.49126
-	-6.49242
li❂109쎯	-6.49912
du❂72쎯	-6.50408
wan❃31쎯	-6.51353
39쎯	-6.51842
han	-6.51914
guai❄14쎯	-6.52274
38쎯	-6.52736
》	-6.52935
《	-6.52974
bu❄33쎯	-6.53048
wu❃9쎯	-6.53903
huo❄	-6.54543
yi❄2	-6.57019
“	-6.58171
”	-6.58518
kao❄2쎯	-6.58974
en❁5쎯	-6.59145
di❄13쎯	-6.59399
zuo❄4쎯	-6.59621
gui❁61쎯	-6.59689
ku❃2쎯	-6.6005
qu❂96쎯	-6.61007
24쎯	-6.6107
di❃18쎯	-6.61878
chong❁7쎯	-6.63024
fu❂69쎯	-6.64007
qu	-6.64025
hui❄	-6.66468
shuo❄33쎯	-6.68033
zhi❃58쎯	-6.69161
jing❄3쎯	-6.69577
qing❄17쎯	-6.69832
ci❃11쎯	-6.69893
wen❂24쎯	-6.70488
tan❂62쎯	-6.70722
46쎯	-6.71461
jiao❁33쎯	-6.7245
zhi❁70쎯	-6.73291
hu❂71쎯	-6.74412
zhi❂5쎯	-6.74441
rong❂58쎯	-6.75315
2	-6.7582
eng❁	-6.75908
26쎯	-6.77806
gai❄1쎯	-6.77972
he❂41쎯	-6.78648
ju❄75쎯	-6.81582
fen❃3쎯	-6.82979
pie❄1쎯	-6.83589
nie❄119쎯	-6.83595
bi❄203쎯	-6.84489
an❃1	-6.84735
lv❄46쎯	-6.85494
jian❃94쎯	-6.86899
tian❂18쎯	-6.88036
ju❁38쎯	-6.89533
cai❂13쎯	-6.89614
ruan❄2쎯	-6.89759
ye❄50쎯	-6.90436
yan❃118쎯	-6.91344
yin❂64쎯	-6.91983
yi❂27쎯	-6.92162
;	-6.923
lin❂58쎯	-6.92432
bu❄62쎯	-6.92838
liang❃2쎯	-6.93049
huan❂12쎯	-6.93391
po❂9쎯	-6.93641
ju❄25쎯	-6.94281
xiong❂4쎯	-6.94388
di❁28쎯	-6.94616
43쎯	-6.95449
gun❄4쎯	-6.95651
zha❄26쎯	-6.96549
yin❁30쎯	-6.96851
쎂쎀쎀	-6.97224
po❂7쎯	-6.97239
pai❂4쎯	-6.97421
fen❁39쎯	-6.97685
yan❂	-6.98123
bo❁6쎯	-6.99139
ben❁4쎯	-6.99532
37쎯	-6.99881
ta❄13쎯	-6.9995
ze❂3쎯	-7.00527
qiang❁22쎯	-7.00665
chu❄45쎯	-7.00827
chan❄19쎯	-7.01108
shao❄3쎯	-7.01519
48쎯	-7.01928
nv❄4쎯	-7.04158
po❄2쎯	-7.04856
qia❂0쎯	-7.05578
tang❃12쎯	-7.06117
tai❄4쎯	-7.06696
chuai❂1쎯ji❂169쎯	-7.06735
gu❃15쎯	-7.0679
ting❂20쎯	-7.07026
an❄2	-7.0705
shi❄63쎯	-7.07084
guan❄42쎯	-7.07293
qiu❂80쎯	-7.07874
58쎯	-7.08376
쎀쎀	-7.08951
shan❁17쎯	-7.09546
nie❄119쎯pie❁1쎯	-7.09659
ping❂44쎯	-7.11093
fu❄115쎯	-7.11999
chao❄12쎯	-7.1215
mang❂20쎯	-7.12345
tian❄3쎯	-7.13156
tui❄1쎯	-7.1341
xing❄6쎯	-7.13628
hua❄17쎯	-7.13772
fu❂70쎯	-7.1396
lei❄7쎯	-7.13973
zai❄7쎯	-7.14731
li❂76쎯	-7.1523
ke❁55쎯	-7.15271
yan❁34쎯	-7.1633
xian❂9쎯	-7.17631
0	-7.18855
hui❄13쎯	-7.19966
gao❄16쎯	-7.20319
shi❃26쎯	-7.21158
ji❄23쎯	-7.21989
dan❁11쎯	-7.22198
mie❁4쎯	-7.2296
nie❄82쎯	-7.23799
di❁32쎯	-7.23978
she❄9쎯	-7.24112
ya❁28쎯	-7.25674
zong❄14쎯	-7.27327
luo❂2쎯	-7.2758
shang❁17쎯	-7.27718
lang❄0쎯	-7.28032
lve❄5쎯	-7.28316
qu❁21쎯	-7.28774
ru❃0쎯	-7.29498
li❄5쎯	-7.30493
ling❂181쎯	-7.31587
guang❁13쎯	-7.31972
yi❁58쎯	-7.3298
yu❃36쎯	-7.33472
qiao❂8쎯	-7.33572
yi❄3	-7.33881
kuai❃3쎯	-7.34081
gan❄4쎯	-7.34227
ji❁125쎯	-7.3526
e❄25쎯	-7.3566
bi❄1	-7.35675
hong❂	-7.3593
qian❂41쎯	-7.35949
chao❁16쎯	-7.36378
yu❁17쎯	-7.36529
yin❂49쎯	-7.36763
che❄20쎯	-7.3715
ci❄36쎯	-7.37597
dao❃22쎯	-7.38208
chan❂50쎯	-7.38445
chong❁32쎯	-7.38544
re❄5쎯	-7.39751
xiao❄35쎯	-7.40004
ta❄99쎯	-7.40274
kai❃13쎯zhi❃29쎯	-7.40711
huang❁19쎯	-7.40764
yi❂114쎯	-7.40787
bao❄7쎯	-7.40881
yi❂157쎯	-7.40962
yin❂18쎯	-7.41609
heng❂14쎯	-7.42118
·	-7.4258
dian❃2쎯	-7.43418
jian❁100쎯	-7.43813
quan❁4쎯	-7.44297
wu❄3쎯	-7.44454
dai❄25쎯	-7.44684
jiao❁33쎯di❃18쎯	-7.4487
/	-7.45036
kai❁11쎯	-7.4585
yong❃30쎯	-7.46417
she❄18쎯	-7.46686
ren❄0쎯	-7.48467
ba❁10쎯	-7.48624
lu❃20쎯	-7.48883
gun❃24쎯	-7.48915
guo❃24쎯	-7.50071
ou❃5쎯	-7.50295
ta❄61쎯	-7.51483
dun❄22쎯	-7.51573
v	-7.51638
qiu❂45쎯	-7.51662
xie❂16쎯	-7.52234
kong❃5쎯	-7.52402
xian❂28쎯	-7.52945
zao❃14쎯	-7.53028
ting❁0쎯	-7.53087
bi❄186쎯	-7.54403
sheng❄6쎯	-7.54615
yao❃12쎯	-7.55654
za❂8쎯	-7.55814
xuan❄33쎯	-7.55928
jian❁60쎯	-7.55941
rong❂44쎯	-7.56174
nie❄85쎯	-7.56313
yu❃64쎯	-7.57362
qin❂5쎯	-7.57524
man❂32쎯	-7.57967
jiang❄20쎯	-7.58434
tun❄0쎯	-7.59746
xiang❄24쎯	-7.59882
zi❁78쎯	-7.60213
lie❄86쎯	-7.60539
qian❂27쎯	-7.61386
jie❂129쎯	-7.61457
lai❄28쎯	-7.61536
gu❁29쎯	-7.61603
cuo❁1쎯	-7.61762
yu❄68쎯	-7.61889
zui❄7쎯	-7.62191
chu❂0쎯	-7.62279
qi❂124쎯	-7.6354
mu❄44쎯	-7.63634
xian❃58쎯	-7.64177
bing❁11쎯	-7.64315
qiao❂3쎯	-7.65189
ba❁48쎯	-7.65213
tang❁14쎯	-7.66296
tuo❁11쎯	-7.66517
yao❃2쎯	-7.66784
ze❄17쎯	-7.68193
zhuang❁7쎯	-7.68481
lu❄43쎯	-7.69252
la❄52쎯ba❁48쎯	-7.69893
zou❁10쎯	-7.70763
tai❂30쎯	-7.70831
ruan❂1쎯	-7.71396
zhong❃8쎯	-7.71446
bao❃14쎯	-7.72247
da❂60쎯	-7.7237
wai❁3쎯	-7.72519
xun❁20쎯	-7.72991
heng❂22쎯	-7.73392
zao❃12쎯	-7.73756
guan❄52쎯	-7.7392
ying❂62쎯	-7.75123
jiao❄32쎯	-7.75216
ou❃15쎯	-7.75347
ke❃7쎯	-7.75556
bi❄70쎯	-7.75933
bing❃32쎯	-7.75989
fen❂2쎯	-7.76922
gun❃2쎯	-7.77148
ta❄14쎯	-7.77283
pan❂20쎯	-7.77648
you❁27쎯	-7.77959
zan❁0쎯	-7.78356
weng❄6쎯	-7.78685
se❄57쎯	-7.78711
jiao❃86쎯	-7.79001
ti❄42쎯	-7.79165
yang❄4쎯	-7.79353
jian❃4쎯	-7.79952
zi❁106쎯	-7.79986
he❂71쎯	-7.80196
meng❂67쎯	-7.80513
qin❁2쎯	-7.80815
can❄15쎯	-7.81438
yi❂108쎯	-7.8149
jia❁36쎯	-7.81621
dang❄8쎯	-7.81861
cou❄6쎯	-7.82347
qi❁76쎯mi❄56쎯	-7.82501
qi❁68쎯	-7.82619
zan❁1쎯	-7.82949
hou❄27쎯	-7.83723
wo❁5쎯	-7.84347
pu❂0쎯	-7.84732
shi❃11쎯	-7.84775
yu❄133쎯	-7.8544
gou❄22쎯	-7.85611
weng❄4쎯	-7.85669
gou❃8쎯	-7.85782
jian❃45쎯	-7.85823
zhe❄9쎯	-7.86214
ti❃10쎯	-7.86998
shi❂3쎯	-7.87662
zhong❁24쎯	-7.87851
ying❃29쎯	-7.88056
zhi❁25쎯	-7.88215
shao❃0쎯	-7.88798
ren❃13쎯	-7.88897
ruan❃20쎯	-7.88992
ta❃6쎯	-7.8937
hun❂15쎯	-7.90378
zhuo❂50쎯	-7.9069
ren❄6쎯	-7.90758
niao❃28쎯	-7.908
nie❄104쎯	-7.91317
heng❂4쎯	-7.91343
qin❂1쎯	-7.9135
you❄42쎯	-7.9159
xu❁78쎯yu❄68쎯	-7.92618
zhuang❁10쎯	-7.92894
ke❁8쎯	-7.93081
nai❂10쎯	-7.94032
cheng❂85쎯	-7.94237
li❂126쎯	-7.94956
shan❁13쎯	-7.95112
qu❂72쎯	-7.95601
xiao❂15쎯	-7.95955
dao❄17쎯	-7.96189
们	-7.96515
you❁38쎯	-7.96943
e❂49쎯	-7.97242
ce❄9쎯	-7.97784
lin❂62쎯	-7.9803
bin❄10쎯	-7.98322
qiong❂66쎯	-7.98649
lang❃10쎯	-7.98698
zi❄22쎯	-7.99037
chen❄8쎯	-7.99343
you❁22쎯	-7.99442
liu❂10쎯	-7.99677
zi❁61쎯	-7.99761
cui❄48쎯	-8.0039
quan❂54쎯	-8.00522
chong❂9쎯	-8.00665
shao❃5쎯	-8.00788
gan❃23쎯	-8.00868
shi❃26쎯qu❁58쎯	-8.00955
tan❂63쎯	-8.01334
zhuo❂66쎯	-8.02324
ju❄98쎯	-8.02833
tong❂14쎯	-8.0342
li❂122쎯dong❄38쎯	-8.03483
beng❄18쎯	-8.03679
ji❁164쎯	-8.04005
zhan❄18쎯	-8.04755
—	-8.07355
"	-8.32097
%	-8.47383
❅	-8.48547
～	-8.76912
°	-8.97754
!	-9.0234
×	-9.14952
?	-9.17212
3	-9.26764
C	-9.41342
*	-9.4656
+	-9.52312
>	-9.62352
=	-9.78575
~	-9.90236
『	-9.94485
x	-16.1584
j	-17.2419
❃	-17.8022
❁	-17.8023
❂	-17.8024
q	-17.8025
❄	-17.8025
