[UNK]	0
[PAD]	0
[CLS]	0
[SEP]	0
[MASK]	0
쎯	-2.40848
,	-3.66974
a	-3.71296
n	-4.03773
.	-4.10517
u	-4.15207
de❅2쎯	-4.193
o	-4.353
ng	-4.3807
e	-4.46473
i	-4.51417
、	-4.68116
ji	-5.07028
nian❂6쎯	-5.18295
9쎯	-5.2223
zh	-5.28438
yi❁10쎯	-5.38302
5쎯	-5.39005
xi	-5.4203
shi❄45쎯	-5.4441
11쎯	-5.46451
ren❂1쎯	-5.47216
쎁	-5.4775
wei❄14쎯	-5.4867
2쎯	-5.52194
3쎯	-5.5321
12쎯	-5.57479
1쎯	-5.6002
7쎯	-5.61158
zhong❁4쎯	-5.61621
4쎯	-5.62236
you❃11쎯	-5.65497
5	-5.6569
8쎯	-5.67593
zai❄5쎯	-5.67704
쎂	-5.69793
sheng❁16쎯	-5.71163
han❄20쎯	-5.72561
xue❂6쎯	-5.74594
:	-5.75497
쎅	-5.78031
쎈	-5.78133
da❄0쎯	-5.79082
쎃	-5.79291
b	-5.7982
qi	-5.80123
yu❂35쎯	-5.81613
y	-5.81854
sh	-5.82218
0쎯	-5.82356
6쎯	-5.82756
쎁쎉	-5.83647
쎄	-5.8616
d	-5.87104
쎆	-5.91393
yi	-5.9393
t	-5.96197
m	-5.96243
ch	-5.9949
쎉	-6.00971
de❅0쎯	-6.01476
14쎯	-6.02918
yong❄3쎯	-6.03422
li	-6.04565
쎇	-6.04632
l	-6.04951
)	-6.0548
13쎯	-6.05521
(	-6.05981
s	-6.0719
17쎯	-6.07275
10쎯	-6.08255
쎀	-6.0852
15쎯	-6.08627
w	-6.09088
g	-6.09162
16쎯	-6.10236
shi❄32쎯	-6.10749
hu	-6.11232
fu	-6.11798
cheng❂29쎯	-6.15479
deng❃2쎯	-6.16205
z	-6.16812
guo❂11쎯	-6.16916
shang❃1쎯	-6.17217
f	-6.1772
yi❃10쎯	-6.19968
hui❄27쎯	-6.20321
20쎯	-6.21413
”	-6.23277
6	-6.23351
bu❂0쎯	-6.24083
gu	-6.24391
yue❄29쎯	-6.24693
le❅0쎯	-6.24913
bu❄38쎯	-6.25993
zuo❄5쎯	-6.2687
zhang❃6쎯	-6.2791
h	-6.28366
qu❁15쎯	-6.29042
24쎯	-6.32065
22쎯	-6.32852
《	-6.33155
23쎯	-6.33158
gao❁20쎯	-6.34098
zhi❁13쎯	-6.34597
ming❂7쎯	-6.35598
fang❁4쎯	-6.35717
qiu❁9쎯	-6.37112
gong❁17쎯	-6.37302
c	-6.37876
“	-6.38053
shi❂20쎯	-6.38187
chu❁3쎯	-6.38484
p	-6.38829
-	-6.39364
yu❃14쎯	-6.39411
jia❁13쎯	-6.40655
fen❁4쎯	-6.42386
di	-6.42566
nan❂6쎯	-6.4373
hou❄7쎯	-6.46434
wen❂5쎯	-6.47617
quan❂6쎯	-6.49374
》	-6.50002
duo❁5쎯	-6.5036
shan❁11쎯	-6.53071
18쎯	-6.53646
ben❄4쎯	-6.54506
xi❁143쎯	-6.54685
1	-6.55148
ben❃5쎯	-6.55456
bi	-6.55688
dian❄23쎯	-6.56347
;	-6.56729
xiao❃2쎯	-6.57035
li❃15쎯	-6.57244
shui❃0쎯	-6.57328
sheng❃9쎯	-6.57978
xian❄37쎯	-6.58409
zi❃7쎯	-6.58646
qi❂29쎯	-6.59191
dong❄13쎯	-6.59364
na❄11쎯	-6.59546
hang❂16쎯	-6.60245
ke❁16쎯	-6.60321
an❁13쎯	-6.60496
shu❁8쎯	-6.60587
xin❁10쎯	-6.61538
21쎯	-6.61661
r	-6.61923
fa❃2쎯	-6.62251
dong❁3쎯	-6.62751
gan❄3쎯	-6.6404
ji❂37쎯	-6.64878
쎂쎀쎀	-6.65573
chong❂11쎯	-6.65659
neng❂2쎯	-6.6577
xing❄13쎯	-6.66077
chan❃12쎯	-6.67145
ji❁48쎯	-6.67394
fa❁1쎯	-6.67587
26쎯	-6.67881
wu❄36쎯	-6.68661
ri❄2쎯	-6.69233
ru❄2쎯	-6.69833
7	-6.70152
an❁15쎯	-6.70761
cun❁1쎯	-6.71799
zhong❁4쎯guo❂11쎯	-6.71949
ping❂17쎯	-6.72054
xian❄22쎯	-6.72315
zhu❃4쎯	-6.72351
shi❄18쎯	-6.72866
hua❁1쎯	-6.73891
ma	-6.74426
gong❁10쎯si❁16쎯	-6.74594
ren❂4쎯	-6.75252
30쎯	-6.76008
zhi❄30쎯	-6.76956
19쎯	-6.77253
jing❁27쎯	-6.77286
yan	-6.77344
25쎯	-6.78157
xia❄3쎯	-6.78343
suo❃11쎯	-6.78629
tong❁5쎯	-6.7879
li❄59쎯	-6.78902
hai❃1쎯	-6.79792
yuan❂15쎯	-6.79846
san❁1쎯	-6.80106
dai❄9쎯	-6.80247
37쎯	-6.8029
쎀쎀	-6.80422
ge❃0쎯	-6.81203
pin❃0쎯	-6.81479
zi❄16쎯	-6.81497
27쎯	-6.81908
36쎯	-6.82449
dui❄14쎯	-6.84394
ya	-6.84764
lai❂16쎯	-6.85237
28쎯	-6.86003
mian❄2쎯	-6.86098
gong❁10쎯	-6.86154
31쎯	-6.86586
jiao❁20쎯	-6.86651
shi❁11쎯	-6.87106
33쎯	-6.87151
29쎯	-6.87237
ku	-6.88586
mei❃13쎯	-6.88876
er❂16쎯	-6.89021
di❄45쎯	-6.89082
쎁쎀	-6.89525
34쎯	-6.89626
dao❄3쎯	-6.90515
x	-6.90788
bei❃2쎯	-6.91592
tong❂13쎯	-6.9224
liang❂19쎯	-6.92512
se❄29쎯	-6.92544
shu	-6.92857
zui❄4쎯	-6.93396
wai❄0쎯	-6.93722
j	-6.94255
ke❃4쎯	-6.94375
du❄8쎯	-6.94416
❄8	-6.9521
te❄5쎯	-6.95484
pi	-6.96443
chong❂17쎯	-6.96495
cheng❂52쎯	-6.96925
guo❄2쎯	-6.97957
ding❄2쎯	-6.98451
zhe❃2쎯	-6.98505
ji❂83쎯	-6.99142
shu❄26쎯	-6.99163
chu	-6.99457
jia❁7쎯	-6.99921
jian❄29쎯	-7.00055
shi❂13쎯	-7.00182
jian❁85쎯	-7.00792
kou❃1쎯	-7.01585
9	-7.01739
tian❁5쎯	-7.02165
쎂쎀	-7.02849
wei❄15쎯	-7.02926
zhou❁9쎯	-7.03186
38쎯	-7.03462
46쎯	-7.03547
er❄5쎯	-7.04583
ti	-7.04789
xing❂11쎯	-7.04982
lu❄70쎯	-7.05296
yan❂50쎯jiu❁16쎯	-7.05605
jin❁33쎯	-7.05751
cheng❁28쎯	-7.05844
xing❂9쎯	-7.05942
jian❁25쎯	-7.06301
shi❂10쎯	-7.06486
min❂22쎯	-7.07321
·	-7.07963
dao❄24쎯	-7.08421
jin❄61쎯	-7.08537
cheng❂17쎯	-7.08885
ta❁3쎯	-7.09292
you❂29쎯	-7.09405
zhe❄14쎯	-7.09652
gong❁17쎯zuo❄5쎯	-7.09775
44쎯	-7.10025
/	-7.10047
mi	-7.1077
qian❂8쎯	-7.10792
zhi❄104쎯	-7.11142
hao❂6쎯	-7.11191
shi❄33쎯	-7.11727
da❄0쎯xue❂6쎯	-7.11807
mi❃19쎯	-7.12002
xi❄46쎯	-7.12424
zi❁45쎯	-7.13451
yi❁13쎯	-7.13491
cong❂6쎯	-7.13894
32쎯	-7.14057
3	-7.14966
chu❄17쎯	-7.15069
ye❃1쎯	-7.15789
ming❂8쎯	-7.16519
shu❃5쎯	-7.16767
lei❄16쎯	-7.17248
biao❃5쎯	-7.17279
bing❁6쎯	-7.17316
ji❂114쎯	-7.18021
gong❄3쎯	-7.18049
bei❄48쎯	-7.19187
chuan❂4쎯	-7.1967
guan❁4쎯	-7.20678
de❂7쎯	-7.20701
chang❃4쎯	-7.20913
wei❁12쎯	-7.20939
yuan❂12쎯	-7.20972
xiang❁9쎯	-7.21193
zong❃5쎯	-7.21332
uan❂	-7.22247
fu❄28쎯	-7.22304
si❄17쎯	-7.22488
chang❂15쎯	-7.23414
huo❄27쎯	-7.23514
k	-7.23843
jiang❁10쎯	-7.24087
li❄58쎯	-7.24751
zheng❄12쎯	-7.2489
yao❁17쎯	-7.24891
xin❁7쎯	-7.25019
jiao	-7.25245
dian❃11쎯	-7.26347
shang❁4쎯	-7.26403
dang❃2쎯	-7.26436
bao❃9쎯	-7.26636
wu❄12쎯	-7.26823
ji❁47쎯	-7.27058
wu❂17쎯	-7.27151
yuan❄18쎯	-7.27868
ge❄3쎯	-7.27954
48쎯	-7.28605
ju❄16쎯	-7.28642
yuan❂10쎯	-7.29037
zhen❄30쎯	-7.29477
ke❄6쎯	-7.29698
jing❄	-7.30023
zhi❄88쎯	-7.30048
guan❃9쎯li❃15쎯	-7.30525
qian	-7.30731
jiang❁5쎯	-7.31217
hua❁11쎯	-7.31492
jun❁2쎯	-7.31643
liu❂20쎯	-7.32038
40쎯	-7.3204
he❂37쎯	-7.33215
chuang❄1쎯	-7.33439
ji❄59쎯shu❂7쎯	-7.34767
ji❁34쎯	-7.35129
jiao❁8쎯	-7.35792
zhi❃19쎯	-7.36017
yi❁10쎯gan❄3쎯	-7.36263
nong❂5쎯	-7.36389
qing❁10쎯	-7.3641
mo❄16쎯	-7.37206
hua❂14쎯	-7.37235
qi❄20쎯	-7.37374
cu	-7.38003
feng❁58쎯	-7.38352
45쎯	-7.38429
쎁쎂	-7.38554
men❂19쎯	-7.38723
ying❁17쎯	-7.38774
li❄141쎯	-7.38944
q	-7.39227
xian❁18쎯	-7.39696
liang❃5쎯	-7.40085
41쎯	-7.40555
le❄3쎯	-7.40703
ju❂23쎯	-7.40909
ban❄4쎯	-7.40915
jian❄15쎯	-7.40941
hu❄26쎯	-7.40945
shi❃6쎯	-7.41956
zu❃7쎯	-7.42001
yu❃44쎯	-7.42065
qi❃34쎯	-7.42246
zhuan❁1쎯	-7.42413
yun❃16쎯	-7.4306
dao❃5쎯	-7.43295
ling❂	-7.43336
qiu❂19쎯	-7.43701
li❄62쎯	-7.43804
xian❄47쎯	-7.43933
si❄15쎯	-7.44214
dou❁12쎯	-7.44322
jie❁13쎯	-7.44911
liao❄8쎯	-7.44933
huo❂3쎯	-7.45139
guang❁2쎯	-7.45346
jie❂67쎯	-7.46329
dan❄38쎯	-7.46337
4	-7.4655
jiu❄23쎯	-7.46588
lin❂19쎯	-7.46928
qi❃12쎯qiu❁9쎯	-7.47365
bai❂2쎯	-7.4741
qi❃25쎯	-7.47643
hao❃0쎯	-7.47744
zhu❃4쎯yao❁17쎯	-7.48037
zhuan❁1쎯qiu❁9쎯	-7.48349
lun❄1쎯	-7.48444
hua❄18쎯	-7.48734
ru❂9쎯	-7.4925
35쎯	-7.49299
wo❃3쎯	-7.49625
shou❃4쎯	-7.49774
li❃26쎯	-7.50385
ci❄16쎯	-7.50592
zhi❂32쎯	-7.50648
pian❁5쎯	-7.50669
shi❄28쎯	-7.50977
xiang❁1쎯	-7.50992
dan❁9쎯	-7.51127
wei❄15쎯yu❂35쎯	-7.51138
mu❄22쎯	-7.51806
che❁8쎯	-7.52634
zheng❁22쎯	-7.52779
huo❄50쎯	-7.52859
jing❁24쎯	-7.52999
yuan❂34쎯	-7.53483
dang❁4쎯	-7.5367
ji❄117쎯	-7.53846
zhan❄10쎯	-7.54025
ge❂29쎯	-7.54501
nv❃0쎯	-7.54532
xue❂6쎯yuan❄18쎯	-7.54889
wu❃9쎯	-7.55228
yin❁11쎯	-7.55286
bing❄12쎯	-7.5554
cheng	-7.55705
biao❁14쎯	-7.5573
wang❃14쎯	-7.55755
si❁24쎯	-7.56258
ying❂45쎯	-7.56276
ran❂12쎯	-7.56303
gu❃14쎯	-7.56343
zao❄16쎯	-7.56471
chan❃12쎯pin❃0쎯	-7.56527
fu❂43쎯wu❄12쎯	-7.5733
zhuang❁10쎯	-7.57778
gui❁35쎯	-7.58002
zu❂9쎯	-7.58225
guo❃3쎯	-7.58321
shou❁1쎯	-7.59014
lv	-7.5904
fa❁1쎯zhan❃11쎯	-7.59712
yin❁44쎯	-7.59961
yang❂35쎯	-7.60075
zhi❄61쎯	-7.60222
ci❃2쎯	-7.60243
tou❂4쎯	-7.60558
gong❁11쎯	-7.60847
jiao❄18쎯	-7.60913
jian❁	-7.61262
er❃6쎯	-7.61278
们	-7.61354
han❄33쎯	-7.61416
쎁쎁	-7.61502
fang❄0쎯	-7.61891
ji❄116쎯	-7.62006
chi❂20쎯	-7.62711
de❂9쎯	-7.62813
guo❂11쎯jia❁13쎯	-7.63107
qiu❂36쎯	-7.63602
huang❂56쎯	-7.63662
wan❂5쎯	-7.63669
da❂30쎯	-7.63683
jie❃6쎯	-7.64021
shi❄31쎯	-7.64216
yi❄109쎯	-7.64318
()	-7.64495
tu❂14쎯	-7.64679
gong❁10쎯li❃26쎯	-7.64992
shen❁40쎯	-7.65167
jiao❁20쎯yu❄93쎯	-7.65403
shuo❁2쎯	-7.65447
ying❁44쎯	-7.65622
shi❄71쎯	-7.6585
wang❂5쎯	-7.65884
bian❁13쎯	-7.65995
mian❄2쎯ji❁64쎯	-7.66139
zi❄6쎯	-7.66243
dui❄33쎯	-7.66316
diao❄17쎯	-7.66516
gou❃2쎯	-7.67873
lian❂53쎯	-7.68375
xiang❄6쎯	-7.68534
you❃11쎯xian❄61쎯	-7.68702
xie❂14쎯	-7.6889
shi❃8쎯	-7.6891
zhi❁21쎯	-7.69197
47쎯	-7.69386
qing❁20쎯	-7.69724
쎅쎀	-7.69976
she❄22쎯	-7.70025
hu❂32쎯	-7.70694
hui❁	-7.71496
bi❃20쎯	-7.71848
rong❂21쎯	-7.72006
—	-7.72043
ma❃14쎯	-7.72081
bu❄23쎯	-7.7263
long❂63쎯	-7.73722
she❄29쎯	-7.74171
you❂24쎯	-7.74414
shen❂2쎯	-7.74444
zhi❂25쎯	-7.74552
zhao❁6쎯	-7.74606
bian❄19쎯	-7.74879
ju❁18쎯	-7.75509
zhan❄17쎯	-7.75771
dai❄15쎯	-7.76055
hong❂44쎯	-7.76087
jing❁27쎯ji❄72쎯	-7.76174
xiao❄14쎯	-7.76806
yan❃39쎯	-7.77002
43쎯	-7.77012
gai❁13쎯	-7.77198
you❄13쎯	-7.77511
nan❂14쎯	-7.77835
yi❃15쎯	-7.77896
ceng❂6쎯	-7.78209
jiang❄9쎯	-7.78386
ya❄7쎯	-7.78487
re❄1쎯	-7.78589
zhong❁4쎯xin❁7쎯	-7.78614
8	-7.78993
shou❃6쎯	-7.79035
guan❃9쎯	-7.79109
bie❂4쎯	-7.79198
shi❄15쎯	-7.79238
shi❂39쎯	-7.79258
ai❃	-7.79377
xiang❁26쎯	-7.79712
cha❁3쎯	-7.80014
zhun❃0쎯	-7.80397
ao❄2	-7.80432
zhi❁31쎯	-7.80576
she❄29쎯ji❄116쎯	-7.80839
shu❂7쎯	-7.81112
xue❂6쎯jiao❄18쎯	-7.81258
xi❄46쎯tong❃9쎯	-7.81327
gai❃2쎯	-7.82146
zhao❂쎯	-7.82444
wen❂5쎯hua❁1쎯	-7.8269
qing❂6쎯	-7.82739
yue❁1쎯	-7.82986
xin❄8쎯	-7.83095
ling❃2쎯	-7.83102
gan❁16쎯	-7.83149
shao❃2쎯	-7.83405
jiang❃8쎯	-7.84102
ta❁6쎯	-7.84102
fan❄22쎯	-7.8411
cai❂3쎯	-7.84208
xuan❃8쎯	-7.84333
zheng❄12쎯fu❃14쎯	-7.85232
can❁3쎯	-7.85719
jie❂69쎯	-7.85942
tu❃1쎯	-7.8633
shou❄4쎯	-7.86419
ke❄14쎯	-7.86509
lian❂69쎯	-7.87207
zhan❃11쎯	-7.87465
쎃쎀	-7.87484
kong❁9쎯	-7.87698
yan❄75쎯	-7.88923
ji❂35쎯	-7.88927
jin❄60쎯	-7.89077
zhuang❄5쎯	-7.89164
ai❄26쎯	-7.89338
lie❄20쎯	-7.89557
cun❂1쎯	-7.9048
jing❃13쎯	-7.90534
mo❂12쎯	-7.90598
guan❁16쎯	-7.90692
bo❂41쎯	-7.91443
kuo❄15쎯	-7.9147
geng❁6쎯	-7.91559
tiao❂9쎯	-7.91791
yan❂50쎯	-7.92021
fu❂94쎯	-7.92189
ti❂17쎯	-7.92467
wei❁12쎯yuan❂15쎯	-7.92737
e❂1	-7.92798
ti❂36쎯	-7.92825
yao❄12쎯	-7.92969
wu❃28쎯	-7.93041
ren❂1쎯min❂22쎯	-7.93228
zhu❃4쎯ren❂4쎯	-7.93287
shi❃9쎯	-7.93354
you❁5쎯	-7.93458
ying❃11쎯	-7.93683
zhi❄85쎯	-7.93931
wen❁6쎯	-7.94373
pei❄19쎯	-7.94435
jun❁6쎯	-7.94482
zhu❄31쎯	-7.94699
lv❄15쎯	-7.95093
jin❁10쎯	-7.95207
su❁10쎯	-7.95386
yun❂4쎯	-7.95454
zhang❁4쎯	-7.96402
bai❃9쎯	-7.96469
"	-7.96883
gan❃6쎯	-7.97127
lao❃17쎯	-7.97406
chi❁23쎯	-7.97628
fang❂2쎯	-7.97747
jiao❄35쎯	-7.97832
ke❃4쎯yi❃10쎯	-7.98199
0	-7.98832
shen❁18쎯	-7.99266
guo❂11쎯ji❄121쎯	-7.99563
bao❄10쎯	-7.99943
an❄13쎯	-8.00045
yu❂37쎯	-8.0017
bei❃2쎯jing❁3쎯	-8.0019
bi❄73쎯qiu❁9쎯	-8.00267
ka❃1쎯	-8.00498
la❁7쎯	-8.00567
yang❃6쎯	-8.00837
xie❂16쎯	-8.0111
zu❂11쎯	-8.01491
hua❂11쎯	-8.01703
zhi❄47쎯	-8.01817
qu❃1쎯	-8.02018
shi❁13쎯	-8.02038
xiu❁11쎯	-8.02141
shi❁33쎯	-8.02328
ceng❂3쎯	-8.02416
jian❄62쎯	-8.02623
su❄56쎯	-8.03299
wan❂6쎯	-8.03448
su❄70쎯	-8.03484
huo❃2쎯	-8.03576
mu❄15쎯	-8.03799
qu❄6쎯	-8.04279
tong❃9쎯	-8.04494
gen❁0쎯	-8.04589
zhou❁5쎯	-8.04658
she❄22쎯hui❄27쎯	-8.0466
hui❂1쎯	-8.04702
gu❄12쎯	-8.05046
fang❂4쎯	-8.06014
ke❁16쎯ji❄59쎯	-8.06024
xing❁7쎯	-8.06607
wei❂38쎯	-8.06833
bian❄16쎯	-8.0686
qiu❂27쎯	-8.07196
can❁3쎯jia❁7쎯	-8.07204
zheng❃4쎯	-8.07239
tai❄3쎯	-8.07242
ju❁14쎯	-8.07441
han❃11쎯	-8.07797
fu❄31쎯	-8.07838
jiao❃57쎯	-8.08372
fu❂60쎯	-8.08392
kao❃10쎯	-8.08563
ji❄94쎯	-8.09003
shi❄60쎯	-8.09146
er❂7쎯	-8.09653
qu❁25쎯	-8.09681
mei❃9쎯	-8.0985
bian❁16쎯	-8.09878
ping❂36쎯	-8.10075
xian❃24쎯	-8.10259
zheng❄17쎯	-8.10352
ou❁1	-8.10483
ju❄65쎯	-8.10981
jin❄61쎯hang❂16쎯	-8.11103
yi❄119쎯	-8.11622
%	-8.12022
ning❂10쎯	-8.12972
jian❄29쎯zhu❂18쎯	-8.13002
》、《	-8.13046
tou❂5쎯	-8.13182
shi❄15쎯jie❄29쎯	-8.1339
si❁22쎯	-8.13764
2	-8.13816
dan❄10쎯	-8.13841
cheng❂29쎯li❄141쎯	-8.1389
da❂14쎯	-8.1434
yu❄31쎯	-8.14355
chuan❁2쎯	-8.14434
jian❁25쎯fa❁1쎯	-8.14491
fei❁15쎯	-8.14701
lin❂7쎯	-8.15106
ba❁9쎯	-8.15354
luo❁4쎯	-8.15543
zhuan❃4쎯	-8.15602
ti❂17쎯gong❁9쎯	-8.15688
liu❄3쎯	-8.15916
ju❄18쎯	-8.16232
zhen❁30쎯	-8.1636
wei❄18쎯	-8.16696
yin❃14쎯	-8.16805
fan❃3쎯	-8.16986
yi❄190쎯	-8.17393
liao❂	-8.174
qie❁1쎯	-8.17906
cai❃11쎯	-8.18054
ji❂57쎯	-8.18218
mu❃2쎯	-8.19078
wei❄16쎯	-8.19186
》:“	-8.19265
chu❁4쎯	-8.19565
ge❁16쎯	-8.19828
yan❂61쎯	-8.19982
hei❁3쎯	-8.20081
ce❄22쎯	-8.20242
cao❃5쎯	-8.2044
pei❂3쎯	-8.20454
ze❂11쎯	-8.20856
du❂25쎯	-8.21032
an❄16쎯	-8.21335
tie❃5쎯	-8.21375
xiang❃6쎯	-8.2143
xie❃4쎯	-8.21562
lan❂13쎯	-8.21592
pai❂4쎯	-8.21778
yi❄190쎯shu❂7쎯	-8.21911
xie❃8쎯	-8.22115
jiu❃3쎯	-8.22185
hen❃2쎯	-8.22421
jie❄14쎯	-8.22858
jian❄29쎯she❄29쎯	-8.23194
lu❄35쎯	-8.23263
bei❄26쎯	-8.23813
kong❄1쎯	-8.23914
wen❄6쎯	-8.24065
jian❃52쎯	-8.24093
shuang❁4쎯	-8.24122
chu❁3쎯ban❃6쎯	-8.24207
tai❄6쎯	-8.24224
zuo❄7쎯	-8.24409
sai❄4쎯	-8.24458
zu❃7쎯zhi❁39쎯	-8.24867
guan❃15쎯	-8.25254
cai❄5쎯	-8.25255
ya❁7쎯	-8.25316
qing❄3쎯	-8.25438
xiang❄20쎯	-8.25794
cai❂2쎯	-8.26062
du❂34쎯	-8.2611
pi❂17쎯	-8.26237
tui❁1쎯	-8.26253
zhi❁16쎯	-8.26324
xing❄8쎯	-8.2672
xiang❄4쎯	-8.26826
mi❄24쎯	-8.27064
bu❄28쎯	-8.27142
xiang❄24쎯	-8.27432
xin❄8쎯xi❁70쎯	-8.2752
zhi❄89쎯	-8.27602
yang❂17쎯	-8.27865
dian❄	-8.28599
xie❁3쎯	-8.28871
ren❄30쎯	-8.29048
xiang❄24쎯mu❄22쎯	-8.29147
feng❁8쎯	-8.29329
shi❄78쎯	-8.29385
cheng❂30쎯	-8.31023
ruan❃17쎯	-8.31046
la❄23쎯	-8.3136
zheng❁7쎯	-8.3142
wei❂11쎯	-8.31671
you❂25쎯	-8.32426
shi❂35쎯	-8.32495
guan❁6쎯	-8.32963
zhu❄20쎯	-8.33183
wang❃14쎯luo❄24쎯	-8.3388
bao❁4쎯	-8.34646
yin❄7쎯	-8.34675
xi❄50쎯	-8.3471
shu❁44쎯	-8.3478
jiao❁20쎯shou❄9쎯	-8.34868
cang❂5쎯	-8.35128
yu❄93쎯	-8.35221
ni❃6쎯	-8.3539
fen❃1쎯	-8.35835
ban❃5쎯	-8.35926
huan❂20쎯	-8.36397
jie❄29쎯	-8.36495
huan❂20쎯jing❄11쎯	-8.368
pu❃3쎯	-8.36816
gang❃6쎯	-8.36985
duan❄4쎯	-8.37182
duan❄7쎯	-8.37231
jie❁30쎯	-8.37233
quan❂12쎯	-8.37392
she❄29쎯bei❄26쎯	-8.37403
pin❂15쎯	-8.37413
zhan❁4쎯	-8.37827
chao❁17쎯	-8.3803
he❂35쎯	-8.38104
xu❁37쎯	-8.38156
xi❁1	-8.38328
lou❂19쎯	-8.38419
dao❃7쎯	-8.38588
rou❄1쎯	-8.38723
kang❁6쎯	-8.39238
ci❂29쎯	-8.39262
dian❃5쎯	-8.39421
bao❃13쎯	-8.39803
yin❂10쎯	-8.40395
nian❄4쎯	-8.40558
yu❂127쎯	-8.40611
ming❄1쎯	-8.40681
qun❂6쎯	-8.4086
suan❄3쎯	-8.40862
ba❃1쎯	-8.41339
tang❂13쎯	-8.41602
～	-8.41737
zhi❂7쎯	-8.41791
jian❁52쎯	-8.42104
wei❃	-8.4226
pan❂10쎯	-8.42272
lv❄20쎯	-8.43003
jian❄17쎯	-8.43036
chun❁6쎯	-8.43059
yi❄214쎯	-8.4316
ao❄14쎯	-8.43452
pian❁7쎯	-8.43457
duan❁4쎯	-8.43647
yue❄46쎯	-8.43687
zeng❁2쎯	-8.43829
xiao❁29쎯	-8.44323
zhang❁13쎯	-8.44416
zai❄4쎯	-8.44426
ban❄5쎯	-8.44647
shu❄47쎯	-8.44743
jing❁3쎯	-8.44798
wei❁17쎯	-8.44932
sui❂9쎯	-8.45357
jian❃36쎯	-8.45626
yan❂49쎯	-8.4684
kuai❄18쎯	-8.47007
bo❁11쎯	-8.47155
lan❂	-8.47246
jiu❃12쎯	-8.47332
zong❁10쎯	-8.47334
xun❄25쎯	-8.47697
an❄14쎯	-8.47855
ta❁5쎯	-8.47912
ba❁16쎯	-8.48119
shu❄28쎯	-8.48287
yuan❃4쎯	-8.48439
yong❁17쎯you❃11쎯	-8.48779
yu❄70쎯	-8.48805
hua❄26쎯	-8.48883
you❂25쎯xi❄33쎯	-8.48962
tian❂16쎯	-8.49194
jie❄19쎯	-8.49228
fu❂43쎯	-8.49248
zhou❁11쎯	-8.49597
mao❂11쎯	-8.49927
yuan❂17쎯	-8.5005
fei❄37쎯	-8.50168
bo❁10쎯	-8.50168
zi❄16쎯ji❃13쎯	-8.50224
sha❁10쎯	-8.50428
zhu❄19쎯	-8.50453
juan❃1쎯	-8.50456
yin❂44쎯	-8.50686
xun❂	-8.50896
bao❁4쎯gua❁11쎯	-8.51046
liang❂15쎯	-8.51116
zuo❄12쎯	-8.51402
song❄4쎯	-8.51514
man❃4쎯	-8.51996
duo❃23쎯	-8.52143
ke❄29쎯	-8.52612
xu❃19쎯	-8.52971
ji❁64쎯	-8.53366
han❂17쎯	-8.53734
qing❄4쎯	-8.5432
sheng❁3쎯	-8.54657
jie❄13쎯	-8.54847
pai❂2쎯	-8.54879
ce❄26쎯	-8.55569
zhong❁29쎯	-8.55572
kang❄5쎯	-8.55633
gei❃1쎯	-8.56063
rang❄3쎯	-8.56135
jue❂33쎯	-8.56468
tao❄1쎯	-8.56566
kuan❁0쎯	-8.57355
gu❃42쎯	-8.57455
zong❁24쎯ge❃0쎯	-8.57858
cai❂9쎯	-8.57874
dou❃4쎯	-8.58186
ban❃6쎯	-8.58341
ni❂10쎯	-8.58552
chu❂42쎯	-8.58719
li❄51쎯	-8.59073
you❁5쎯xiu❄8쎯	-8.59095
du❂17쎯	-8.59428
de❅1쎯	-8.59625
cha❂17쎯	-8.59758
hou❄5쎯	-8.59859
yi❄165쎯	-8.60023
he❂22쎯	-8.60298
kan❁9쎯	-8.60491
zai❄8쎯	-8.61198
zhao❄18쎯	-8.6122
xu❄69쎯	-8.61279
wan❁9쎯	-8.61673
xue❂6쎯xi❂9쎯	-8.61849
jiang❃19쎯	-8.61947
suan❁3쎯	-8.62283
you❃9쎯	-8.62631
ji❁34쎯chu❃14쎯	-8.62694
ce❄33쎯	-8.62895
°	-8.62927
zhong❁19쎯	-8.63008
wei❄26쎯	-8.6348
cai❃4쎯	-8.63733
chen❂41쎯	-8.64143
peng❂7쎯	-8.6432
li❄50쎯	-8.64639
shi❄99쎯	-8.652
xu❄36쎯	-8.65604
gu❃59쎯	-8.65606
gang❁32쎯	-8.65668
zao❃2쎯	-8.65735
ji❂39쎯	-8.65889
chuang❂6쎯	-8.66358
xiao❁61쎯	-8.66654
gui❄41쎯	-8.6698
!	-8.67119
duan❃0쎯	-8.67425
fu❄74쎯	-8.67807
she❄8쎯	-8.67961
jing❁1	-8.68525
jiu❃12쎯dian❄13쎯	-8.68599
ting❁3쎯	-8.69073
ling❂58쎯	-8.6946
qin❁4쎯	-8.69884
ju❃4쎯	-8.69935
sui❄16쎯	-8.70134
xia❂39쎯	-8.70315
qing❁16쎯	-8.70627
you❄2	-8.71227
zheng❁15쎯	-8.71697
ke❄7쎯	-8.71791
zhe❄9쎯jiang❁10쎯	-8.71937
si❁11쎯	-8.7219
gong❁9쎯	-8.72656
shi❄22쎯	-8.72689
xian❁57쎯	-8.73471
ye❄44쎯	-8.73551
shang❄2쎯	-8.73843
lve❄11쎯	-8.73927
si❁16쎯	-8.74045
song❁11쎯	-8.74062
kan❁3쎯	-8.74068
ji❁116쎯	-8.74216
kuan❃7쎯	-8.74225
bing❁2쎯	-8.74293
lu❄83쎯	-8.74352
lao❂11쎯	-8.7449
yan❃42쎯	-8.74521
nan❂20쎯	-8.74678
fo❂2쎯	-8.74855
kuang❄12쎯	-8.74871
ce❄8쎯	-8.75441
san❃7쎯	-8.75788
zuo❃3쎯	-8.76027
fen❄2쎯	-8.76224
hou❄6쎯	-8.76327
chong❁9쎯	-8.76674
lin❂43쎯	-8.76779
rong❂50쎯	-8.77041
si❃0쎯	-8.77449
yong❃21쎯	-8.77525
jiang❄25쎯	-8.77538
shi❁8쎯	-8.77589
tang❂15쎯	-8.7761
hang❂13쎯	-8.77794
zhen❁52쎯	-8.78042
wang❃7쎯	-8.78719
yang❂19쎯	-8.79036
ji❂107쎯	-8.79185
×	-8.79913
zhi❂20쎯wu❄36쎯	-8.80093
que❄26쎯	-8.8035
?	-8.82054
*	-9.11571
+	-9.17247
>	-9.27563
=	-9.43572
~	-9.55242
『	-9.59597
C	-11.1931
❅	-11.1932
❃	-11.1933
❂	-11.1934
❁	-11.1935
v	-11.1936
❄	-11.1936
