[UNK]	0
[PAD]	0
[CLS]	0
[SEP]	0
[MASK]	0
쎯	-1.93467
a	-3.20055
u	-3.62097
n	-3.62371
ng	-3.79594
e	-3.81252
o	-3.86275
i	-3.87737
,	-4.01751
.	-4.45273
de❅2쎯	-4.54052
ji	-4.59137
zh	-4.73111
9쎯	-4.81843
4쎯	-4.82009
7쎯	-4.84977
xi	-4.85226
3쎯	-4.89613
、	-4.99695
2쎯	-5.00657
5	-5.0527
1쎯	-5.08623
5쎯	-5.15132
11쎯	-5.17124
8쎯	-5.21219
sh	-5.22882
6쎯	-5.23274
b	-5.27544
qi	-5.31142
14쎯	-5.31952
d	-5.32865
쎁	-5.33756
l	-5.37477
0쎯	-5.41715
t	-5.42432
y	-5.42851
4	-5.44787
17쎯	-5.46561
li	-5.47838
10쎯	-5.48229
12쎯	-5.48899
z	-5.48927
w	-5.52287
nian❂6쎯	-5.53044
15쎯	-5.53667
c	-5.55963
hu	-5.57139
yi❁10쎯	-5.60085
s	-5.60256
13쎯	-5.60428
xue❂6쎯	-5.62311
yi	-5.64327
20쎯	-5.65179
16쎯	-5.65396
6	-5.6643
g	-5.67651
쎂	-5.68385
ch	-5.68547
쎀	-5.6934
f	-5.7204
ren❂1쎯	-5.73762
h	-5.78924
shi❄45쎯	-5.79148
m	-5.81632
zhong❁4쎯	-5.82071
wei❄14쎯	-5.83377
1	-5.86268
gu	-5.90271
da❄0쎯	-5.90314
bi	-5.91023
you❃11쎯	-5.9446
fu	-5.97188
쎅	-5.99056
yu❂35쎯	-5.99522
:	-6.01793
쎃	-6.02243
zai❄5쎯	-6.02396
26쎯	-6.03736
r	-6.04404
23쎯	-6.04795
k	-6.05323
sheng❁16쎯	-6.0589
han❄20쎯	-6.07274
p	-6.08306
25쎯	-6.09563
쎈	-6.12874
19쎯	-6.15222
쎁쎉	-6.18535
22쎯	-6.19888
쎄	-6.20876
)	-6.21607
ya	-6.21892
(	-6.22025
18쎯	-6.23302
쎆	-6.26121
24쎯	-6.26656
j	-6.29419
shu	-6.30903
guo❂11쎯	-6.30925
de❅0쎯	-6.32136
쎉	-6.35467
x	-6.35597
30쎯	-6.3692
cheng❂29쎯	-6.37304
31쎯	-6.38033
yong❄3쎯	-6.38095
yi❃10쎯	-6.39101
쎇	-6.39376
q	-6.40366
hui❄27쎯	-6.40377
7	-6.43296
qiu❁9쎯	-6.43438
ku	-6.44149
36쎯	-6.44661
shi❄32쎯	-6.45537
ma	-6.45728
28쎯	-6.4765
yan	-6.48229
chu	-6.48245
-	-6.49161
jia❁13쎯	-6.49641
zhu❃4쎯	-6.50138
35쎯	-6.50153
deng❃2쎯	-6.50919
shang❃1쎯	-6.51897
》	-6.52502
《	-6.5254
li❃15쎯	-6.52748
fa❁1쎯	-6.53558
9	-6.53629
di	-6.56473
34쎯	-6.56913
37쎯	-6.56935
“	-6.57623
”	-6.57976
chu❁3쎯	-6.58681
bu❂0쎯	-6.58726
gan❄3쎯	-6.59157
wen❂5쎯	-6.59311
yue❄29쎯	-6.59473
le❅0쎯	-6.59602
33쎯	-6.59628
bu❄38쎯	-6.60736
pi	-6.60867
zuo❄5쎯	-6.61625
29쎯	-6.62035
zhang❃6쎯	-6.6264
qu❁15쎯	-6.63816
an❁13쎯	-6.6534
27쎯	-6.67386
chan❃12쎯	-6.67581
ti	-6.67878
gao❁20쎯	-6.68818
zhi❁13쎯	-6.69281
jiao❁20쎯	-6.69416
fen❁4쎯	-6.69579
21쎯	-6.69711
ming❂7쎯	-6.70347
fang❁4쎯	-6.70447
gong❁17쎯	-6.72105
shi❂20쎯	-6.7285
yu❃14쎯	-6.74136
ke❁16쎯	-6.74151
hang❂16쎯	-6.74993
uan❂	-6.76641
pin❃0쎯	-6.77511
mi	-6.7758
8	-6.78269
nan❂6쎯	-6.78493
hua❁1쎯	-6.79577
hou❄7쎯	-6.81092
32쎯	-6.81288
ren❂4쎯	-6.83246
gong❁10쎯	-6.83443
mian❄2쎯	-6.83697
quan❂6쎯	-6.84116
44쎯	-6.8418
duo❁5쎯	-6.85059
yuan❂15쎯	-6.86617
shan❁11쎯	-6.87802
3	-6.87948
ben❄4쎯	-6.89225
xi❁143쎯	-6.89435
wei❄15쎯	-6.8959
ben❃5쎯	-6.90191
dian❄23쎯	-6.91072
;	-6.91392
xiao❃2쎯	-6.91731
wu❄36쎯	-6.91992
shui❃0쎯	-6.91998
v	-6.92119
ji❁48쎯	-6.92504
sheng❃9쎯	-6.92768
xian❄37쎯	-6.93148
zi❃7쎯	-6.93336
qi❂29쎯	-6.93877
dong❄13쎯	-6.94083
na❄11쎯	-6.94237
jiao	-6.95145
shu❁8쎯	-6.9533
xin❁10쎯	-6.96282
she❄29쎯	-6.96464
쎂쎀쎀	-6.96868
fa❃2쎯	-6.96976
bei❃2쎯	-6.97262
dong❁3쎯	-6.97513
ke❃4쎯	-6.98719
zi❄16쎯	-6.99229
ji❂37쎯	-6.99589
ge❃0쎯	-7.00149
41쎯	-7.00183
chong❂11쎯	-7.00367
neng❂2쎯	-7.0046
xing❄13쎯	-7.00766
yao❁17쎯	-7.01207
ri❄2쎯	-7.03963
ru❄2쎯	-7.04499
jia❁7쎯	-7.05205
an❁15쎯	-7.05502
yuan❄18쎯	-7.05927
46쎯	-7.06229
xi❄46쎯	-7.06473
zhong❁4쎯guo❂11쎯	-7.06507
cun❁1쎯	-7.06573
min❂22쎯	-7.06754
ping❂17쎯	-7.0679
xian❄22쎯	-7.07099
shi❄18쎯	-7.07614
han❃11쎯	-7.07916
쎀쎀	-7.08365
jian❄29쎯	-7.09205
gong❁10쎯si❁16쎯	-7.09357
zhuan❁1쎯	-7.10796
zhi❄30쎯	-7.11679
jian❁25쎯	-7.11917
jing❁27쎯	-7.12002
jin❄61쎯	-7.12617
xia❄3쎯	-7.13012
suo❃11쎯	-7.13352
tong❁5쎯	-7.13524
li❄59쎯	-7.13628
xin❁7쎯	-7.13657
hai❃1쎯	-7.14538
san❁1쎯	-7.14809
dai❄9쎯	-7.14978
wei❁12쎯	-7.16017
guan❃9쎯	-7.1735
dui❄14쎯	-7.19085
lai❂16쎯	-7.19925
mi❃19쎯	-7.21678
shi❁11쎯	-7.2187
li❃26쎯	-7.22829
mei❃13쎯	-7.23612
er❂16쎯	-7.23694
di❄45쎯	-7.23816
dao❄3쎯	-7.25186
0	-7.25622
tong❂13쎯	-7.26945
liang❂19쎯	-7.27194
se❄29쎯	-7.27201
shi❂13쎯	-7.27677
zui❄4쎯	-7.28108
wai❄0쎯	-7.28419
du❄8쎯	-7.29114
te❄5쎯	-7.30192
chong❂17쎯	-7.31213
cheng❂52쎯	-7.31695
guo❄2쎯	-7.32652
ding❄2쎯	-7.33169
zhe❃2쎯	-7.33213
shu❄26쎯	-7.33737
ji❂83쎯	-7.33917
li❄141쎯	-7.34979
jian❁85쎯	-7.3548
jiao❄18쎯	-7.36046
kou❃1쎯	-7.36283
ji❄116쎯	-7.36432
cheng	-7.36653
tian❁5쎯	-7.36852
zhou❁9쎯	-7.37944
jiang❁10쎯	-7.3831
38쎯	-7.38775
er❄5쎯	-7.39281
xing❂11쎯	-7.39658
lu❄70쎯	-7.40059
yan❂50쎯jiu❁16쎯	-7.40388
jin❁33쎯	-7.40472
cheng❁28쎯	-7.40593
xing❂9쎯	-7.40656
shi❂10쎯	-7.41183
·	-7.427
dao❄24쎯	-7.43136
cheng❂17쎯	-7.43642
ta❁3쎯	-7.43945
you❂29쎯	-7.44139
zhe❄14쎯	-7.44324
gong❁17쎯zuo❄5쎯	-7.44432
/	-7.44725
ji❁34쎯	-7.45234
qian❂8쎯	-7.45491
zhi❄104쎯	-7.45832
hao❂6쎯	-7.45924
shi❄33쎯	-7.46442
zi❁45쎯	-7.48223
yi❁13쎯	-7.48225
cong❂6쎯	-7.4861
mu❄22쎯	-7.48615
chu❄17쎯	-7.49806
ye❃1쎯	-7.50473
ming❂8쎯	-7.51215
she❄22쎯	-7.51305
shu❃5쎯	-7.51538
lei❄16쎯	-7.51967
biao❃5쎯	-7.5199
bing❁6쎯	-7.52014
ji❂114쎯	-7.52769
gong❄3쎯	-7.52821
bei❄48쎯	-7.53887
chuan❂4쎯	-7.54392
de❂7쎯	-7.5539
guan❁4쎯	-7.55422
chang❃4쎯	-7.55646
yuan❂12쎯	-7.55699
xiang❁9쎯	-7.55896
zong❃5쎯	-7.56091
fu❄28쎯	-7.57111
si❄17쎯	-7.57198
tong❃9쎯	-7.57663
chang❂15쎯	-7.58133
huo❄27쎯	-7.58197
jian❁	-7.5895
li❄58쎯	-7.59479
zheng❄12쎯	-7.5967
yu❄93쎯	-7.59804
shi❄15쎯	-7.60258
dian❃11쎯	-7.61057
shang❁4쎯	-7.61169
dang❃2쎯	-7.61242
can❁3쎯	-7.61313
bao❃9쎯	-7.61335
wu❄12쎯	-7.61609
ji❁47쎯	-7.61767
wu❂17쎯	-7.61805
ge❄3쎯	-7.62654
ju❄16쎯	-7.63355
shi❄28쎯	-7.63392
yuan❂10쎯	-7.63754
zhen❄30쎯	-7.64266
ke❄6쎯	-7.64335
zhi❄88쎯	-7.64738
jiang❁5쎯	-7.65867
hua❁11쎯	-7.66146
jun❁2쎯	-7.66363
liu❂20쎯	-7.66754
he❂37쎯	-7.67967
chuang❄1쎯	-7.68193
ti❂17쎯	-7.688
ji❄59쎯shu❂7쎯	-7.69509
jiao❁8쎯	-7.70544
zhi❃19쎯	-7.70771
qing❁10쎯	-7.71076
nong❂5쎯	-7.71155
mo❄16쎯	-7.71926
hua❂14쎯	-7.71985
zhi❄61쎯	-7.72587
feng❁58쎯	-7.73034
men❂19쎯	-7.73444
ying❁17쎯	-7.73482
xian❁18쎯	-7.74413
liang❃5쎯	-7.74758
le❄3쎯	-7.75437
jian❄15쎯	-7.75667
ban❄4쎯	-7.75703
ju❂23쎯	-7.7571
2	-7.75743
shi❃6쎯	-7.76625
zu❃7쎯	-7.76764
yu❃44쎯	-7.76822
you❂25쎯	-7.77562
yun❃16쎯	-7.77815
dao❃5쎯	-7.78048
qiu❂19쎯	-7.78464
li❄62쎯	-7.78556
xian❄47쎯	-7.78647
si❄15쎯	-7.78951
dou❁12쎯	-7.79019
an❄16쎯	-7.79228
jie❁13쎯	-7.79585
liao❄8쎯	-7.79618
huo❂3쎯	-7.79851
guang❁2쎯	-7.80025
dan❄38쎯	-7.81017
jie❂67쎯	-7.8103
jiu❄23쎯	-7.8127
lin❂19쎯	-7.81656
bai❂2쎯	-7.82056
qi❃12쎯qiu❁9쎯	-7.82151
hao❃0쎯	-7.82404
lun❄1쎯	-7.83187
hua❄18쎯	-7.83446
ru❂9쎯	-7.8389
wo❃3쎯	-7.84286
shou❃4쎯	-7.84456
yi❄190쎯	-7.85031
ci❄16쎯	-7.85275
pian❁5쎯	-7.85306
zhi❂32쎯	-7.85437
xiang❁1쎯	-7.85766
dan❁9쎯	-7.85856
you❁5쎯	-7.86407
che❁8쎯	-7.87368
zheng❁22쎯	-7.8748
huo❄50쎯	-7.87606
jing❁24쎯	-7.87671
yuan❂34쎯	-7.88227
dang❁4쎯	-7.88343
ji❄117쎯	-7.88592
zhan❄10쎯	-7.88756
ge❂29쎯	-7.89208
nv❃0쎯	-7.8925
jie❄29쎯	-7.89704
wu❃9쎯	-7.8993
yin❁11쎯	-7.89961
bing❄12쎯	-7.90178
biao❁14쎯	-7.90471
wang❃14쎯	-7.90498
si❁24쎯	-7.9097
ran❂12쎯	-7.90975
ying❂45쎯	-7.91023
zao❄16쎯	-7.91191
fu❂43쎯wu❄12쎯	-7.92053
zhuang❁10쎯	-7.92486
gui❁35쎯	-7.92754
zu❂9쎯	-7.92991
guo❃3쎯	-7.92992
shou❁1쎯	-7.93713
xiang❄24쎯	-7.9375
yin❁44쎯	-7.9465
yang❂35쎯	-7.94814
ci❃2쎯	-7.94891
tou❂4쎯	-7.95209
gong❁11쎯	-7.95536
bei❄26쎯	-7.95779
er❃6쎯	-7.96001
们	-7.96019
han❄33쎯	-7.96178
fang❄0쎯	-7.96511
chi❂20쎯	-7.97397
huang❂56쎯	-7.98329
qiu❂36쎯	-7.9836
da❂30쎯	-7.98388
wan❂5쎯	-7.98411
ying❃11쎯	-7.98558
shi❄31쎯	-7.98971
yi❄109쎯	-7.99014
tu❂14쎯	-7.99381
qing❂6쎯	-7.99477
shen❁40쎯	-7.99854
shuo❁2쎯	-8.00126
ying❁44쎯	-8.00358
wang❂5쎯	-8.00568
shi❄71쎯	-8.00581
zi❄6쎯	-8.00955
dui❄33쎯	-8.01064
diao❄17쎯	-8.01206
gou❃2쎯	-8.02625
lian❂53쎯	-8.0313
xiang❄6쎯	-8.03237
you❃11쎯xian❄61쎯	-8.03422
zhi❁21쎯	-8.03893
qing❁20쎯	-8.04446
ban❃6쎯	-8.05254
gong❁9쎯	-8.05581
rong❂21쎯	-8.06721
—	-8.06758
long❂63쎯	-8.08444
"	-8.3156
%	-8.46649
～	-8.7638
°	-8.97624
!	-9.01816
×	-9.1454
?	-9.16698
*	-9.46267
+	-9.51923
>	-9.62275
=	-9.78257
~	-9.89901
C	-9.93961
❅	-9.93971
❃	-9.93981
❂	-9.93991
❁	-9.94001
❄	-9.94011
『	-9.94011
