[UNK]	0
[PAD]	0
[CLS]	0
[SEP]	0
[MASK]	0
79303쎯	-3.67191
쎯	-4.02799
1쎯	-4.03106
74899쎯	-4.08926
78973쎯	-4.27639
0쎯	-4.31595
4쎯	-4.34048
5쎯	-4.37026
2쎯	-4.38149
3쎯	-4.40945
8쎯	-4.41839
9쎯	-4.4998
6쎯	-4.5682
7쎯	-4.57477
49089쎯	-4.5785
0	-4.57896
8	-4.62338
9	-4.63768
▁쎯	-4.97491
60833쎯	-5.08602
19167쎯	-5.38412
50	-5.41409
42649쎯	-5.4905
43	-5.56514
70834쎯	-5.57222
51216쎯	-5.59567
22	-5.60262
62	-5.60774
62474쎯	-5.60891
68055쎯	-5.60913
21	-5.62145
79872쎯	-5.64305
72	-5.65889
30	-5.66324
58	-5.66528
60	-5.67104
75547쎯	-5.68115
45851쎯	-5.68797
45	-5.68868
76	-5.69543
14	-5.69948
79	-5.70134
15	-5.70973
35	-5.71596
23	-5.72185
70	-5.7278
75	-5.73389
47	-5.73412
64	-5.73418
42	-5.73442
26	-5.73676
48497쎯	-5.74088
44	-5.75697
37633쎯	-5.76741
20	-5.7734
12	-5.77391
1쎯9쎯	-5.81322
52	-5.81891
27	-5.82295
25	-5.82578
61	-5.83217
38	-5.84381
49	-5.84784
20570쎯	-5.853
56	-5.85515
24	-5.85633
63	-5.86481
37	-5.8769
31	-5.87815
65	-5.88793
32	-5.88835
51	-5.89593
54	-5.915
36	-5.91658
21962쎯	-5.91744
10	-5.92454
41	-5.93374
72295쎯	-5.94688
60127쎯	-5.95125
39	-5.95218
11	-5.95229
34	-5.95566
71	-5.96571
16	-5.96698
13	-5.96799
59	-5.9743
19	-5.97782
57	-5.98523
17	-5.98968
66	-5.99853
48644쎯	-5.99885
48	-6.01356
80	-6.01913
68	-6.02096
78	-6.02127
56609쎯	-6.03422
21088쎯	-6.04119
69	-6.04389
10535쎯	-6.04851
53	-6.05289
74	-6.0672
40	-6.07498
18	-6.08428
46	-6.09845
21491쎯	-6.12093
28	-6.12534
73570쎯	-6.14743
55	-6.14976
61132쎯	-6.16652
55121쎯	-6.17054
20202쎯	-6.18807
54178쎯	-6.19384
19109쎯	-6.21174
75108쎯	-6.21358
73	-6.21902
54974쎯	-6.22702
57248쎯	-6.22963
67	-6.23033
35641쎯	-6.2372
33	-6.25361
77	-6.26357
(쎯	-6.26947
《쎯	-6.26958
)쎯	-6.26966
29	-6.27733
“쎯	-6.27971
53729쎯	-6.28181
47850쎯	-6.28734
37955쎯	-6.30563
64661쎯	-6.3376
42094쎯	-6.36048
”쎯	-6.36535
36944쎯	-6.36785
53322쎯	-6.36958
65621쎯	-6.37343
62795쎯	-6.38061
57881쎯	-6.38392
》쎯	-6.42581
67196쎯	-6.43252
28261쎯	-6.43717
73781쎯	-6.44888
60670쎯	-6.45265
57133쎯	-6.45269
13735쎯	-6.4527
52457쎯	-6.46487
63962쎯	-6.46643
73352쎯	-6.46771
76316쎯	-6.47001
57566쎯	-6.47621
54772쎯	-6.48172
22218쎯	-6.48468
74715쎯	-6.49099
29327쎯	-6.49648
42482쎯	-6.49716
80242쎯	-6.49765
27195쎯	-6.5124
20909쎯	-6.51973
57630쎯	-6.52096
71752쎯	-6.52627
2쎯0쎯0쎯	-6.53513
15877쎯	-6.54658
46320쎯	-6.56045
73364쎯	-6.56465
37002쎯	-6.56539
12267쎯30399쎯	-6.58691
10772쎯	-6.59756
21394쎯	-6.60179
62474쎯53322쎯	-6.60556
30682쎯	-6.61769
14924쎯	-6.61807
17602쎯	-6.62634
12111쎯	-6.6385
34859쎯	-6.64376
47791쎯	-6.64626
40088쎯	-6.65068
63878쎯	-6.65089
56544쎯	-6.65128
79805쎯	-6.65421
31887쎯	-6.65491
21966쎯	-6.65586
20839쎯	-6.66362
11630쎯	-6.67524
49851쎯	-6.68949
79322쎯	-6.68961
33596쎯	-6.69527
10773쎯	-6.69744
53510쎯	-6.70159
74275쎯	-6.70208
80792쎯	-6.71492
29275쎯	-6.73601
16209쎯	-6.73881
45252쎯	-6.74029
14406쎯	-6.74731
69416쎯	-6.75053
20159쎯	-6.7565
19043쎯	-6.76227
12267쎯	-6.77078
18840쎯	-6.78572
58692쎯	-6.78876
76573쎯	-6.79651
58376쎯	-6.80751
78673쎯	-6.81259
12078쎯	-6.82857
51013쎯	-6.84364
13581쎯	-6.84483
74512쎯	-6.84897
20827쎯	-6.85013
18315쎯	-6.8574
42849쎯	-6.85747
38624쎯	-6.85769
76736쎯	-6.85957
47575쎯	-6.87119
37995쎯	-6.87238
23899쎯	-6.87371
50337쎯	-6.88558
1쎯0쎯	-6.88576
28441쎯	-6.90008
57489쎯	-6.90035
18431쎯	-6.90248
36046쎯75875쎯	-6.91403
80334쎯	-6.93055
74980쎯	-6.93222
21503쎯	-6.94205
32461쎯	-6.94364
35864쎯	-6.94477
48643쎯	-6.94652
23356쎯	-6.94833
32542쎯	-6.95081
68454쎯	-6.95223
20909쎯65621쎯	-6.95929
22523쎯	-6.96103
67828쎯	-6.96482
67734쎯	-6.96623
60637쎯	-6.96863
47302쎯	-6.97345
69344쎯	-6.97449
64124쎯	-6.97571
35720쎯	-6.98821
76059쎯	-6.99103
25286쎯	-6.99748
49014쎯	-6.99797
22625쎯	-7.00084
16433쎯	-7.00418
23671쎯	-7.00643
51400쎯	-7.00991
57107쎯	-7.01437
61239쎯	-7.02447
45851쎯37633쎯	-7.0303
46699쎯	-7.04426
62818쎯	-7.0451
56146쎯	-7.05004
43431쎯	-7.05236
44737쎯	-7.05861
72545쎯	-7.05876
43460쎯	-7.06139
42344쎯	-7.06527
77687쎯	-7.06857
62090쎯	-7.07392
20348쎯	-7.07976
49802쎯	-7.08941
58991쎯	-7.08951
10488쎯	-7.09111
18939쎯	-7.09359
12341쎯	-7.09445
66876쎯	-7.09983
73211쎯	-7.10181
76055쎯	-7.10888
29560쎯	-7.11619
64874쎯	-7.11863
57088쎯	-7.11933
36820쎯	-7.12206
40600쎯	-7.12538
53722쎯	-7.12614
69405쎯	-7.13391
30199쎯	-7.13655
17086쎯	-7.13764
15326쎯	-7.1416
77103쎯	-7.14331
79766쎯	-7.14477
76919쎯	-7.14623
73680쎯	-7.14699
33945쎯	-7.14712
23331쎯	-7.14996
80435쎯	-7.15059
33504쎯	-7.15231
31641쎯	-7.15285
64211쎯	-7.16074
57158쎯	-7.16236
42234쎯60670쎯	-7.1643
38013쎯	-7.1663
2쎯0쎯	-7.17156
10401쎯	-7.17351
33950쎯	-7.17685
63686쎯38828쎯	-7.18293
28773쎯	-7.189
57179쎯	-7.19074
45856쎯	-7.19652
76591쎯	-7.20056
70823쎯	-7.20207
34349쎯	-7.20579
15909쎯	-7.20921
29383쎯	-7.21292
13854쎯	-7.21338
40837쎯	-7.21624
52878쎯	-7.23185
55957쎯	-7.23485
63916쎯	-7.23829
76795쎯	-7.24405
21594쎯	-7.24869
17770쎯	-7.25182
17661쎯	-7.25214
27082쎯	-7.25262
22197쎯	-7.25436
25989쎯	-7.25618
33189쎯	-7.2611
20814쎯	-7.26879
72389쎯	-7.26931
40773쎯	-7.2696
70026쎯	-7.2729
71004쎯	-7.28556
23339쎯	-7.28749
76739쎯	-7.29054
53081쎯	-7.29155
23845쎯	-7.29453
47210쎯	-7.29789
80195쎯35641쎯	-7.30124
27711쎯	-7.3044
68313쎯	-7.30676
73638쎯	-7.3133
56153쎯	-7.31535
40951쎯	-7.33379
38701쎯	-7.33448
71997쎯	-7.33623
25841쎯	-7.33636
79872쎯57630쎯	-7.33868
41975쎯	-7.33921
28020쎯	-7.34071
18025쎯	-7.346
10443쎯	-7.34761
53081쎯35641쎯	-7.34836
65582쎯	-7.3497
41470쎯	-7.3526
50642쎯	-7.35293
51735쎯	-7.35297
60052쎯	-7.35785
56789쎯	-7.35879
50573쎯	-7.35892
26896쎯	-7.36295
48811쎯	-7.36386
44764쎯	-7.36677
27378쎯	-7.36806
31486쎯	-7.36919
10488쎯80334쎯	-7.37808
52160쎯79766쎯	-7.38409
17602쎯15326쎯	-7.38613
62123쎯	-7.38652
44248쎯	-7.38693
51087쎯	-7.38751
24720쎯	-7.38909
42015쎯	-7.38933
71948쎯	-7.39719
30658쎯	-7.40089
76552쎯	-7.40328
76196쎯	-7.4069
11635쎯	-7.4085
34913쎯	-7.41223
33081쎯	-7.41282
951쎯	-7.41332
43659쎯	-7.4158
76024쎯	-7.42563
72397쎯	-7.42811
72898쎯	-7.43053
62633쎯	-7.43118
16453쎯	-7.43133
28664쎯	-7.43214
54472쎯	-7.43363
73364쎯46553쎯	-7.43662
47693쎯	-7.44283
62313쎯	-7.44525
55623쎯	-7.44653
30233쎯	-7.44909
12348쎯	-7.45072
69908쎯	-7.45339
22709쎯	-7.45403
57040쎯	-7.45499
13307쎯	-7.45816
55777쎯	-7.46322
52878쎯48497쎯	-7.46465
38934쎯	-7.46973
16460쎯	-7.47412
27747쎯	-7.47736
14536쎯	-7.48407
15349쎯	-7.48657
80789쎯	-7.48782
22761쎯	-7.48933
37633쎯76919쎯	-7.48978
53322쎯37955쎯	-7.49546
39063쎯	-7.49853
25658쎯	-7.49981
18250쎯	-7.5094
50642쎯61368쎯	-7.51185
35346쎯	-7.51353
33013쎯	-7.51647
39725쎯	-7.52025
78536쎯	-7.52469
73637쎯	-7.52563
22867쎯	-7.52739
19802쎯	-7.53004
11079쎯	-7.53338
37294쎯	-7.54308
80506쎯	-7.54323
44902쎯	-7.54423
67943쎯	-7.54702
64178쎯	-7.54814
55237쎯	-7.55169
65677쎯	-7.55429
71294쎯	-7.55522
42332쎯	-7.55806
75547쎯20507쎯	-7.56431
77922쎯	-7.56935
71903쎯	-7.57009
76979쎯	-7.57072
18654쎯	-7.57116
49013쎯	-7.57342
22847쎯	-7.5747
16156쎯	-7.58054
17600쎯	-7.58539
12732쎯	-7.58677
18673쎯	-7.59047
19043쎯68909쎯	-7.59138
57702쎯	-7.59195
45003쎯	-7.59285
62680쎯	-7.60279
12267쎯62633쎯	-7.60322
60127쎯10488쎯	-7.60726
75868쎯	-7.60836
50966쎯	-7.61633
79303쎯51216쎯	-7.62183
66145쎯	-7.62258
66915쎯	-7.62281
29024쎯	-7.63335
33436쎯	-7.63531
74218쎯	-7.63732
20909쎯55623쎯	-7.6402
29274쎯	-7.6408
79805쎯20614쎯	-7.64531
26216쎯	-7.64594
59534쎯	-7.64716
16737쎯	-7.65163
75203쎯	-7.65225
16751쎯	-7.65242
16173쎯	-7.65262
39103쎯	-7.65322
49639쎯	-7.65459
75686쎯	-7.65662
62474쎯23331쎯	-7.65857
33536쎯	-7.6607
54664쎯	-7.66114
42649쎯79303쎯	-7.66143
46177쎯	-7.66241
44790쎯	-7.66659
61026쎯	-7.66675
50966쎯74849쎯	-7.67739
49044쎯	-7.68047
72870쎯	-7.68607
23671쎯15622쎯	-7.68758
42234쎯	-7.68779
40459쎯	-7.68945
52125쎯	-7.68974
38828쎯	-7.69004
37633쎯27747쎯	-7.69078
27859쎯	-7.69467
45317쎯	-7.696
38652쎯	-7.69917
11851쎯	-7.70575
78782쎯	-7.7071
33460쎯	-7.7071
14868쎯	-7.70877
62795쎯63878쎯	-7.71033
40529쎯	-7.71129
53203쎯	-7.71212
26507쎯	-7.7127
5쎯0쎯	-7.71464
35636쎯	-7.71551
66590쎯	-7.7156
46553쎯	-7.71752
41347쎯	-7.71797
63366쎯	-7.72434
17807쎯	-7.72508
37629쎯	-7.7271
59150쎯	-7.72797
52376쎯	-7.73249
10175쎯	-7.73349
34613쎯	-7.73392
23779쎯	-7.74151
29308쎯	-7.74297
58768쎯	-7.74477
36046쎯	-7.74569
55645쎯	-7.75203
80435쎯16603쎯	-7.75429
23486쎯	-7.75561
35572쎯	-7.75561
20074쎯	-7.75591
39149쎯	-7.75674
51216쎯79872쎯	-7.75674
35952쎯	-7.76292
49202쎯	-7.7669
46488쎯	-7.7688
78973쎯”쎯	-7.77128
39349쎯	-7.77806
52750쎯	-7.77814
16455쎯	-7.77849
50451쎯	-7.78051
46278쎯	-7.78155
35302쎯	-7.78762
63691쎯	-7.78801
46374쎯	-7.78883
48759쎯	-7.79049
29560쎯49851쎯	-7.79554
64046쎯	-7.8006
48082쎯	-7.80205
28907쎯	-7.80467
43697쎯	-7.80705
44417쎯	-7.81303
75447쎯	-7.81641
24983쎯	-7.81718
46541쎯	-7.81854
72253쎯	-7.82416
46202쎯	-7.82428
17602쎯40088쎯	-7.827
78398쎯	-7.82738
27795쎯	-7.82814
53327쎯	-7.82913
48172쎯	-7.83048
42649쎯60637쎯	-7.83326
53472쎯	-7.83995
30222쎯	-7.84186
18713쎯	-7.84425
13331쎯	-7.84689
28222쎯	-7.85299
61642쎯	-7.85332
55318쎯	-7.85382
53322쎯24700쎯	-7.85556
23468쎯	-7.85631
64395쎯	-7.8581
36550쎯	-7.85891
79263쎯	-7.85905
62153쎯	-7.86058
47788쎯	-7.86413
15184쎯	-7.86444
69344쎯22218쎯	-7.86704
19505쎯	-7.87162
74132쎯	-7.87206
37627쎯	-7.87638
53448쎯	-7.88076
47782쎯	-7.88188
51803쎯	-7.88281
59344쎯	-7.8854
20159쎯63686쎯	-7.88592
20827쎯57248쎯	-7.88683
69134쎯	-7.88931
72479쎯	-7.88955
80456쎯	-7.88979
51013쎯17439쎯	-7.89952
23827쎯	-7.90046
53966쎯	-7.90532
16156쎯19109쎯	-7.90795
30524쎯35641쎯	-7.90816
25108쎯	-7.91375
34141쎯	-7.91411
56544쎯56544쎯	-7.91521
50579쎯	-7.9165
60022쎯	-7.91733
36602쎯	-7.92065
41213쎯	-7.92615
28738쎯	-7.9262
20159쎯37633쎯	-7.92657
65508쎯	-7.93075
58194쎯	-7.93171
21394쎯53322쎯	-7.93213
13607쎯	-7.93817
61050쎯	-7.9408
28800쎯	-7.941
15622쎯	-7.9417
44369쎯	-7.94181
17232쎯	-7.94432
57738쎯	-7.94641
70571쎯	-7.95369
64211쎯79872쎯	-7.95506
11283쎯	-7.95576
47431쎯	-7.95629
73147쎯	-7.96043
78800쎯	-7.9652
63631쎯	-7.96595
60559쎯	-7.96647
41164쎯	-7.96748
38603쎯	-7.96921
19135쎯	-7.97037
58571쎯	-7.97155
46488쎯18431쎯	-7.97163
74909쎯	-7.9719
68855쎯	-7.97273
》쎯49089쎯《쎯	-7.9733
39339쎯	-7.97615
69613쎯	-7.97982
30217쎯	-7.9839
33950쎯42482쎯	-7.98701
10285쎯	-7.98718
38321쎯	-7.98965
14137쎯	-7.99204
46374쎯19457쎯	-7.99356
39873쎯	-7.99489
47819쎯	-7.99491
36651쎯	-7.99582
14363쎯	-7.99593
68428쎯	-8.00284
37553쎯	-8.00332
69416쎯62474쎯	-8.00508
68454쎯73364쎯	-8.00618
59576쎯	-8.00974
50642쎯37633쎯	-8.02056
37107쎯	-8.0208
80794쎯	-8.02337
50337쎯29795쎯	-8.02344
58643쎯	-8.02645
40529쎯73904쎯	-8.03
13155쎯	-8.03191
36308쎯	-8.03269
10535쎯70026쎯	-8.03522
28123쎯	-8.03944
18542쎯	-8.04053
52266쎯	-8.04152
10268쎯	-8.04429
11998쎯	-8.04566
51508쎯	-8.04696
35584쎯	-8.04955
75525쎯	-8.05567
23853쎯	-8.05598
17215쎯	-8.05742
40996쎯	-8.05906
14199쎯	-8.06022
16812쎯	-8.06046
66590쎯75547쎯	-8.06086
20591쎯	-8.06088
66146쎯	-8.06143
21588쎯	-8.06334
51095쎯	-8.06427
47062쎯	-8.06551
32130쎯	-8.06666
50337쎯50966쎯	-8.06826
28642쎯	-8.07137
66224쎯	-8.07191
34446쎯	-8.07995
54448쎯	-8.08003
40996쎯38828쎯	-8.08349
43972쎯	-8.09292
22382쎯	-8.09328
57655쎯	-8.09781
21957쎯	-8.09803
57678쎯	-8.10375
78983쎯	-8.10556
57922쎯	-8.10606
13735쎯79872쎯	-8.10633
53140쎯	-8.10837
38577쎯	-8.11164
29026쎯	-8.11207
74077쎯	-8.11416
38701쎯54143쎯	-8.11688
20392쎯	-8.11841
41858쎯	-8.11886
75108쎯66876쎯	-8.11943
19020쎯	-8.1209
36029쎯	-8.12092
46289쎯	-8.12109
17005쎯	-8.12142
60055쎯	-8.12636
40706쎯	-8.12642
16016쎯	-8.12793
31850쎯	-8.13278
43972쎯43659쎯	-8.13301
65780쎯	-8.13429
58176쎯	-8.13473
23601쎯	-8.13602
63962쎯62530쎯	-8.13615
54162쎯	-8.13734
40970쎯	-8.13752
49854쎯	-8.13979
18466쎯	-8.14059
57248쎯14406쎯	-8.14059
29861쎯	-8.14225
40459쎯35332쎯	-8.14282
38380쎯	-8.14285
79046쎯	-8.14503
39809쎯	-8.14522
57226쎯	-8.14571
15909쎯45856쎯	-8.14832
66483쎯	-8.14942
31697쎯	-8.14961
55949쎯	-8.15216
74849쎯	-8.15646
79872쎯76573쎯	-8.15931
63962쎯60127쎯	-8.16045
66864쎯	-8.16102
51314쎯	-8.16113
38961쎯	-8.16853
11628쎯	-8.16999
18058쎯	-8.17006
56661쎯	-8.17208
44493쎯	-8.17438
18483쎯	-8.1804
46545쎯	-8.18289
32901쎯	-8.18552
64920쎯19109쎯	-8.18697
22791쎯	-8.18728
26671쎯	-8.18812
50966쎯23601쎯	-8.19212
27041쎯	-8.19347
24317쎯	-8.19348
76196쎯18315쎯	-8.19737
》쎯20570쎯“쎯	-8.19872
56161쎯	-8.20267
44129쎯	-8.20639
65621쎯80334쎯	-8.21286
44459쎯	-8.21674
66833쎯	-8.21839
65718쎯	-8.21883
72253쎯21088쎯	-8.21914
43357쎯	-8.22004
75050쎯	-8.22334
61368쎯	-8.22491
15438쎯	-8.22896
60127쎯78792쎯	-8.23203
41164쎯52878쎯	-8.23559
22709쎯75434쎯	-8.23602
16598쎯22526쎯	-8.24211
64874쎯73211쎯	-8.24277
31598쎯	-8.24331
43402쎯	-8.24409
18429쎯	-8.24444
16598쎯	-8.24838
50642쎯43299쎯	-8.25109
80049쎯	-8.25869
73904쎯	-8.25884
72309쎯	-8.26107
52705쎯	-8.26137
36903쎯	-8.26353
72545쎯53322쎯	-8.26409
49700쎯	-8.2643
24524쎯	-8.26476
78707쎯	-8.26544
24419쎯	-8.27042
65864쎯	-8.27297
61936쎯	-8.2732
23993쎯	-8.27409
27897쎯	-8.27492
37492쎯	-8.27614
64558쎯	-8.27846
62615쎯	-8.27953
78168쎯	-8.28111
58254쎯	-8.28129
46224쎯	-8.28283
13459쎯	-8.28501
52956쎯	-8.28747
67196쎯70823쎯	-8.28835
26151쎯	-8.28859
15236쎯	-8.29484
24757쎯	-8.29801
79508쎯	-8.29909
33400쎯	-8.29944
55861쎯	-8.29946
19496쎯	-8.30115
49939쎯	-8.30346
43960쎯	-8.30625
31337쎯	-8.30668
69484쎯	-8.30699
28489쎯	-8.30713
20556쎯	-8.30966
46346쎯	-8.31017
37822쎯	-8.31151
68846쎯	-8.31363
21957쎯29275쎯	-8.31575
43492쎯	-8.31592
24401쎯	-8.31802
60784쎯	-8.31864
59548쎯	-8.31877
54441쎯	-8.32617
28910쎯75547쎯	-8.33122
64920쎯	-8.332
12587쎯	-8.33327
37175쎯	-8.3336
66159쎯	-8.34029
42986쎯	-8.34094
63921쎯	-8.34196
76795쎯46699쎯	-8.34988
58688쎯	-8.35008
865쎯	-8.35059
45600쎯	-8.35114
76721쎯	-8.35165
19806쎯	-8.35412
25982쎯	-8.35561
29570쎯	-8.35646
18974쎯	-8.35665
27993쎯	-8.35684
17439쎯	-8.35716
48113쎯	-8.35898
62183쎯	-8.36148
20680쎯	-8.36392
47902쎯	-8.36462
48205쎯	-8.36496
53106쎯	-8.36526
10555쎯	-8.36545
58509쎯	-8.36721
32819쎯	-8.37148
76452쎯	-8.37157
35311쎯	-8.37175
44417쎯31598쎯	-8.37177
65177쎯	-8.37236
65842쎯	-8.37971
16455쎯35048쎯	-8.38144
62123쎯23779쎯	-8.38327
12899쎯	-8.38385
20460쎯	-8.38688
11630쎯60559쎯	-8.38717
50642쎯64124쎯	-8.38765
60022쎯35311쎯	-8.38857
23457쎯	-8.38922
35250쎯	-8.3893
69291쎯	-8.39293
53270쎯	-8.39324
68909쎯	-8.39563
42669쎯	-8.39629
79524쎯	-8.3986
32508쎯	-8.40171
56245쎯	-8.40242
68176쎯	-8.40521
52160쎯	-8.40538
52054쎯	-8.40733
34091쎯	-8.4083
76506쎯	-8.40834
22544쎯	-8.40978
28028쎯	-8.41023
80792쎯56018쎯	-8.41074
18673쎯33950쎯	-8.41132
18655쎯	-8.41252
36759쎯	-8.41433
52993쎯	-8.41577
25497쎯	-8.41771
43402쎯11216쎯	-8.42067
15506쎯	-8.42805
52400쎯	-8.43006
63014쎯	-8.43127
66145쎯15909쎯	-8.43171
67335쎯	-8.43365
33343쎯	-8.43473
78792쎯12111쎯	-8.4379
63404쎯	-8.43833
47160쎯	-8.44015
38206쎯	-8.44135
71167쎯	-8.44453
76497쎯	-8.44469
41694쎯	-8.44521
58409쎯	-8.447
42221쎯	-8.45191
59255쎯	-8.45351
33720쎯	-8.45569
49202쎯11099쎯	-8.45634
17438쎯	-8.46071
19434쎯	-8.46137
20392쎯38603쎯	-8.4628
13840쎯79322쎯	-8.4637
42658쎯	-8.46602
25094쎯	-8.46929
73015쎯	-8.47076
32489쎯	-8.47464
52583쎯	-8.47621
43133쎯	-8.47711
68866쎯	-8.4836
49083쎯	-8.48632
50252쎯	-8.49894
52973쎯	-8.49965
17770쎯32224쎯	-8.50251
15317쎯	-8.50278
50826쎯	-8.50668
35837쎯25989쎯	-8.50673
77239쎯	-8.50772
35150쎯	-8.50829
34601쎯	-8.50938
41655쎯	-8.5121
21359쎯	-8.51266
62530쎯	-8.51269
49621쎯	-8.51492
32828쎯	-8.51565
72384쎯	-8.51634
48600쎯	-8.52132
55717쎯	-8.522
10364쎯	-8.52367
72373쎯	-8.52926
78273쎯	-8.52998
58953쎯	-8.53151
63219쎯	-8.53425
65544쎯	-8.5453
66667쎯	-8.54628
78847쎯	-8.54782
40819쎯	-8.55353
42103쎯	-8.55537
55805쎯	-8.56312
28480쎯	-8.56334
62471쎯	-8.56462
32172쎯	-8.56504
77237쎯	-8.56586
10697쎯	-8.56676
62747쎯	-8.57421
32514쎯	-8.57643
38732쎯	-8.57754
76182쎯	-8.5791
30867쎯	-8.58128
42669쎯51056쎯	-8.58141
44419쎯	-8.58154
78222쎯	-8.58233
41830쎯	-8.58629
50297쎯	-8.59026
26925쎯	-8.5961
12040쎯	-8.59794
74773쎯	-8.59888
50581쎯	-8.60133
19457쎯	-8.60586
35881쎯	-8.60769
13547쎯	-8.61407
30673쎯	-8.61555
38767쎯	-8.61591
68105쎯	-8.61659
15965쎯	-8.61756
56925쎯	-8.61823
65462쎯	-8.62438
10849쎯33504쎯	-8.62574
58734쎯	-8.62623
36352쎯	-8.62784
75963쎯	-8.62845
70833쎯	-8.62937
63892쎯	-8.64028
19696쎯	-8.64251
72236쎯	-8.64325
74272쎯	-8.65047
75074쎯	-8.65119
41677쎯	-8.65244
52233쎯	-8.65254
49861쎯79148쎯	-8.65489
74840쎯	-8.65505
28965쎯	-8.65726
69377쎯	-8.65873
74155쎯	-8.66138
32828쎯35021쎯	-8.66404
30399쎯	-8.66462
29307쎯	-8.66483
68623쎯	-8.66502
49861쎯	-8.66607
56956쎯	-8.66607
50699쎯	-8.66607
28050쎯	-8.66715
40367쎯	-8.66821
45931쎯	-8.66834
60989쎯	-8.6693
15018쎯	-8.66979
70985쎯	-8.66996
53575쎯	-8.67345
33958쎯	-8.67592
69711쎯	-8.68198
71554쎯	-8.68352
20433쎯	-8.68635
37319쎯	-8.68825
62562쎯	-8.68895
25972쎯	-8.68935
57519쎯	-8.69071
71667쎯	-8.69392
72536쎯	-8.69648
17771쎯	-8.6982
78792쎯	-8.70289
29725쎯	-8.7053
53719쎯	-8.70558
45065쎯	-8.70559
11104쎯	-8.70593
2	-10.2901
4	-10.806
1	-10.8357
3	-11.1028
▁	-13.605
)	-19.8253
”	-19.8254
“	-19.8255
《	-19.8256
》	-19.8257
5	-19.8258
6	-19.8259
(	-19.826
7	-19.826
