[UNK]	0
[PAD]	0
[CLS]	0
[SEP]	0
[MASK]	0
,	-3.74741
y	-3.81594
f	-3.92734
r쎯	-3.99985
t	-4.03883
w	-4.06071
i	-4.07751
d	-4.08089
q	-4.12303
a	-4.19212
u	-4.19473
.	-4.24313
r	-4.27399
s	-4.32175
p	-4.3524
g	-4.37041
j	-4.49063
w쎯	-4.50484
n	-4.51294
m	-4.55348
l	-4.55977
j쎯	-4.56872
t쎯	-4.58785
k	-4.61206
x	-4.63706
d쎯	-4.64161
b	-4.66286
k쎯	-4.6682
h	-4.67292
e쎯	-4.68515
zzbd3쎯	-4.69535
g쎯	-4.74371
v	-4.76394
c	-4.76716
e	-4.81865
f쎯	-4.82544
b쎯	-4.82937
c쎯	-4.83018
u쎯	-4.85462
y쎯	-4.87461
l쎯	-4.91796
o쎯	-4.93328
a쎯	-4.96319
n쎯	-4.96618
v쎯	-5.02377
i쎯	-5.04017
h쎯	-5.09168
0쎯	-5.17747
1쎯	-5.19777
s쎯	-5.25804
x쎯	-5.26283
rh쎯	-5.26586
m쎯	-5.33911
q쎯	-5.3427
쎁	-5.36538
p쎯	-5.41868
o	-5.49738
tg쎯	-5.51926
ip쎯	-5.6268
쎅	-5.73721
쎃	-5.76623
쎂	-5.79671
dn쎯	-5.82986
gf쎯	-5.83535
:	-5.8732
쎈	-5.87502
dd쎯	-5.87975
쎀	-5.88108
yn	-5.89139
쎁쎉	-5.94153
쎄	-5.95607
wf쎯	-5.99945
쎆	-6.00785
wg쎯	-6.01863
쎯	-6.02546
gk쎯	-6.03937
f0쎯	-6.04384
gh쎯	-6.06044
uk쎯	-6.07137
쎉	-6.08303
gm쎯	-6.08306
ym쎯	-6.08618
wx쎯	-6.09123
qq쎯	-6.09428
et쎯	-6.10004
gn쎯	-6.1145
tf쎯	-6.12663
gj쎯	-6.13404
y0쎯	-6.1413
2쎯	-6.14529
ymhj0쎯	-6.14586
)	-6.1461
쎇	-6.14764
(	-6.15241
wt쎯	-6.15761
tffu쎯	-6.16679
og쎯	-6.17038
dm쎯	-6.17594
z	-6.19342
bm쎯	-6.21632
wy	-6.2286
ta쎯	-6.23085
gu쎯	-6.28365
”	-6.28561
mw쎯	-6.29513
jn쎯	-6.30073
td쎯	-6.30995
yygy쎯	-6.31529
tu쎯	-6.31844
wv쎯	-6.3189
ge쎯	-6.33776
aq쎯	-6.34361
eee0쎯	-6.35868
ww쎯	-6.36841
“	-6.39997
cf쎯	-6.40394
fi쎯	-6.40871
g0쎯	-6.41948
ce쎯	-6.42981
jf쎯	-6.43288
fm쎯	-6.43345
j0쎯	-6.43983
ga쎯	-6.44113
km쎯	-6.4528
《	-6.46882
yy쎯	-6.4781
ii쎯	-6.49281
qk쎯	-6.49545
pe쎯	-6.49907
pp쎯	-6.50207
kh	-6.54233
h0쎯	-6.55132
sk쎯	-6.5632
wsg0쎯	-6.57104
rg쎯	-6.572
bb쎯	-6.57279
sg쎯	-6.57531
;	-6.57952
-	-6.58608
wtf쎯	-6.59069
tx쎯	-6.60374
sm쎯	-6.6106
》	-6.61138
fcl쎯	-6.61417
pg쎯	-6.62039
usr쎯	-6.62688
ith쎯	-6.63808
mmm쎯	-6.63851
ty쎯	-6.6445
fj쎯	-6.65424
adw쎯	-6.65968
jg쎯	-6.66325
sghg1쎯	-6.66392
wgk쎯	-6.67304
f1쎯	-6.67406
ey쎯	-6.67932
쎂쎀쎀	-6.68549
gc쎯	-6.68661
th쎯	-6.69115
if쎯	-6.69452
nnh쎯	-6.7014
ny쎯	-6.70162
fn쎯	-6.7139
uj쎯	-6.72128
tkh쎯	-6.72348
nh쎯	-6.72594
vfhp1쎯	-6.73668
g1쎯	-6.74923
lt쎯	-6.74955
n0쎯	-6.74964
ntg쎯	-6.75051
aw쎯	-6.75087
ih쎯	-6.75858
rmhj쎯	-6.77727
ai쎯	-6.78468
qc쎯	-6.78752
ft쎯	-6.79515
jjjj0쎯	-6.79694
kkk쎯	-6.79884
k쎯l쎯	-6.80338
rn쎯	-6.80348
je쎯	-6.80513
go쎯	-6.80616
tk쎯	-6.80748
쎀쎀	-6.81373
lk쎯	-6.816
fc쎯	-6.82247
fq쎯	-6.82687
xe쎯	-6.8304
cep쎯	-6.8348
pw쎯	-6.83561
egc쎯	-6.83999
sf쎯	-6.851
thd쎯	-6.85264
ftbt쎯	-6.85747
wh쎯	-6.87764
wc쎯	-6.89736
itx쎯	-6.90787
ymc쎯	-6.91578
fp쎯	-6.91637
jb쎯	-6.92057
fg쎯	-6.92065
wa쎯	-6.92422
jgm쎯	-6.94393
tj쎯	-6.94896
ck쎯	-6.95193
hw쎯	-6.96126
ugdu쎯	-6.96357
aa쎯	-6.96817
tr쎯	-6.97182
쎁쎀	-6.97183
mq쎯	-6.97677
gd쎯	-6.98497
dmj1쎯	-6.98648
ux쎯	-6.98849
pu쎯	-6.99703
dj쎯	-7.00012
u0쎯	-7.00219
trf0쎯	-7.008
ud쎯	-7.02234
dp쎯	-7.02817
tgj쎯	-7.03521
ovt쎯	-7.03614
wb쎯	-7.03799
ftj쎯	-7.04434
wug0쎯	-7.04734
ad쎯	-7.04818
dg쎯	-7.05037
wc쎯ngk쎯	-7.05181
dga쎯pwv쎯	-7.05457
ya쎯	-7.05685
rfm쎯	-7.05838
qh쎯	-7.0689
d0쎯	-7.07396
pv쎯	-7.07883
yygt쎯	-7.07973
a쎯wt쎯	-7.08405
y1쎯	-7.08491
gl쎯	-7.08514
bn쎯	-7.09133
qqqq1쎯	-7.09659
ua쎯	-7.09858
gajf0쎯	-7.1011
ak쎯	-7.11411
ytyh쎯	-7.11917
kkkk1쎯	-7.12568
xf쎯	-7.12629
od쎯	-7.13233
쎂쎀	-7.13793
txi쎯	-7.13817
kht쎯	-7.13977
mh쎯	-7.14292
js쎯	-7.14847
gae쎯	-7.15344
pl쎯	-7.15496
tl쎯	-7.16247
/	-7.16257
fd쎯	-7.16532
uthp0쎯	-7.16549
fgh쎯	-7.1772
n1쎯	-7.18094
tv쎯	-7.18922
xg쎯	-7.19045
yt쎯	-7.20159
atd쎯	-7.20487
fnrt쎯	-7.20827
yn쎯	-7.20921
puhc쎯	-7.21532
qn	-7.21576
tq쎯	-7.22449
dd쎯ip쎯	-7.22553
it쎯	-7.23034
wys쎯	-7.23082
vk쎯	-7.23264
wk쎯	-7.25309
ue쎯	-7.25468
tp쎯gj쎯	-7.25651
rfc쎯sy쎯	-7.25757
um쎯	-7.25965
oy쎯	-7.26058
kw쎯	-7.27648
ss쎯	-7.28309
g쎯wh쎯	-7.28374
ukn쎯	-7.28742
wfny0쎯	-7.28903
tm쎯	-7.28938
zzbd10쎯	-7.29099
ep쎯	-7.29333
tjh쎯	-7.2961
adwe1쎯	-7.30115
hko쎯	-7.30489
hc쎯	-7.30572
ght쎯	-7.30866
wbj쎯	-7.31
gkl쎯	-7.31756
bpf쎯	-7.32633
gg쎯	-7.32828
ipkh1쎯	-7.33223
fqb0쎯	-7.33412
iyc쎯	-7.33721
kq쎯	-7.33831
tfq쎯	-7.34598
whf0쎯og쎯	-7.34782
ipk쎯	-7.35503
ntk쎯	-7.35842
uqf쎯	-7.36166
uqwm1쎯	-7.36286
dnv0쎯	-7.38729
kkd쎯	-7.38827
yid쎯	-7.38928
sh쎯	-7.39041
fghg쎯	-7.39372
pei쎯	-7.39613
jfd쎯	-7.39663
iq쎯	-7.39834
uq쎯	-7.39842
lh쎯	-7.39853
nf쎯	-7.39879
fny0쎯	-7.40066
u쎯kkk쎯	-7.40184
gcf쎯	-7.41023
eb쎯tl쎯	-7.41306
uyh쎯	-7.4277
wrh1쎯	-7.42897
wgkq0쎯	-7.4299
yq쎯	-7.44398
qfhw1쎯	-7.4524
wxf쎯	-7.45266
ick쎯	-7.45593
lft쎯	-7.46239
rxj쎯	-7.46684
fny0쎯og쎯	-7.46997
gmww쎯	-7.48021
aqt쎯	-7.48159
nnk쎯	-7.48257
isk쎯	-7.48883
쎁쎂	-7.48973
fcp쎯	-7.49192
fhn쎯	-7.49642
xeg0쎯	-7.50022
v쎯nae0쎯	-7.50142
ftjb쎯	-7.50287
uqw쎯	-7.50512
ruv쎯	-7.50676
ujfj0쎯	-7.51194
awx쎯	-7.5133
gq쎯	-7.51752
l쎯pe쎯	-7.52666
apk쎯	-7.53532
tfkp0쎯	-7.53677
rnb쎯	-7.53754
dgtg0쎯	-7.53816
ige쎯	-7.53933
xx쎯	-7.54794
oge쎯	-7.54958
iytb0쎯	-7.55071
hhhh쎯	-7.55436
tlf0쎯	-7.55803
ou쎯	-7.55962
kgn쎯	-7.56666
tp쎯	-7.56714
ufy쎯	-7.56946
idr쎯	-7.57525
fwm쎯	-7.57567
ghd1쎯	-7.57578
tkgg1쎯	-7.57941
rrr쎯	-7.61128
ftbt쎯yce쎯	-7.62267
hka쎯	-7.62463
suq쎯	-7.63324
thg1쎯	-7.63974
ip쎯bpf쎯	-7.65636
xte쎯	-7.66255
pgc쎯	-7.6653
udi0쎯	-7.67063
ymf쎯	-7.68013
ujf0쎯	-7.69471
adwr0쎯	-7.69691
lfq쎯	-7.69727
wug0쎯gf쎯	-7.69842
qev쎯	-7.6993
vvv쎯	-7.70034
ltu0쎯	-7.70665
xyna1쎯	-7.70801
3쎯	-7.7085
tfl쎯	-7.71479
nty0쎯	-7.71732
jyie쎯	-7.72583
gef쎯	-7.73276
tmd쎯	-7.73827
ytt쎯	-7.74148
uqd2쎯	-7.74235
qiu0쎯	-7.74475
a쎯tkgg1쎯	-7.74608
nnnn0쎯	-7.76178
uqt쎯	-7.7649
udh쎯	-7.76848
amd쎯	-7.77375
()	-7.77494
dm쎯tkw쎯	-7.77943
thgc0쎯	-7.78137
e쎯bv쎯wc쎯ngk쎯	-7.78248
x쎯iyj쎯	-7.78726
zzbd9쎯	-7.78812
ggg0쎯	-7.78876
wycm1쎯	-7.78937
ip쎯suq쎯	-7.79323
ymc쎯yf쎯	-7.7933
txi쎯xyc쎯	-7.79349
gkp쎯	-7.80849
ide쎯	-7.81067
nae0쎯	-7.81874
pyj쎯	-7.82219
wc쎯jfd쎯	-7.82663
dmh0쎯	-7.8351
gjq쎯	-7.83777
img쎯	-7.83934
yynw1쎯	-7.84465
rvyo쎯	-7.84861
aib쎯	-7.86615
klj쎯	-7.87119
epc쎯	-7.87652
fggh쎯	-7.89073
saj0쎯	-7.90169
ght쎯ywf쎯	-7.90557
tjf0쎯	-7.92155
"	-7.93154
jghm1쎯	-7.93687
lpk0쎯	-7.93833
ffff1쎯	-7.95724
l쎯bf쎯	-7.97007
tu쎯rfc쎯	-7.97225
lfhf쎯	-7.97781
fiy쎯	-7.98257
dhb쎯	-7.99162
fqu쎯	-7.99196
vcb쎯	-7.99885
py쎯wf쎯	-8.01364
ijl쎯	-8.0239
wgkb0쎯	-8.02443
udy쎯	-8.03147
dgkn0쎯	-8.0325
udyj쎯	-8.03464
gah쎯	-8.03834
gkip0쎯	-8.04691
%	-8.04806
wynb0쎯	-8.0514
wht쎯	-8.05488
rj쎯waw쎯	-8.05506
ux쎯yiu0쎯	-8.06386
gxi쎯	-8.0697
gkih0쎯	-8.07022
fcu0쎯	-8.09142
》zzbd3쎯《	-8.09767
hhu0쎯	-8.1059
xxf쎯og쎯	-8.11336
xwy0쎯	-8.11748
ryn1쎯	-8.11859
dgt1쎯	-8.12687
ooo쎯	-8.14491
fcu1쎯	-8.15041
thgf1쎯	-8.15087
ssss0쎯	-8.15467
fakg0쎯	-8.1606
ycb쎯	-8.16983
vfhp1쎯tam쎯	-8.17704
dty0쎯	-8.19363
anb0쎯	-8.20541
rwyg0쎯	-8.20732
adm쎯hhhh쎯	-8.21907
ubk1쎯	-8.22127
xeg0쎯xkw쎯	-8.22174
anb0쎯sy쎯	-8.22788
wty0쎯	-8.23509
wy쎯thn쎯	-8.2401
kthh1쎯	-8.25166
ukd1쎯	-8.25733
gcft0쎯	-8.29504
pfjm1쎯	-8.30922
tld1쎯	-8.31081
4	-8.38153
1	-8.63114
!	-8.69463
2	-8.8278
?	-8.91131
5	-8.91663
6	-8.93672
3	-9.18229
*	-9.18455
8	-9.18738
+	-9.25752
7	-9.32042
>	-9.46292
9	-9.91713
0	-19.644
