[UNK]	0
[PAD]	0
[CLS]	0
[SEP]	0
[MASK]	0
aeeb0쎯	-3.82523
p쎯	-3.91817
t	-3.92425
y	-4.01586
a	-4.03849
w	-4.05764
f	-4.079
d	-4.09121
s	-4.10125
q	-4.16282
j	-4.18903
n	-4.24746
u	-4.27475
g	-4.29526
h	-4.30116
m	-4.32229
k	-4.32817
i	-4.33414
p	-4.34724
o	-4.37346
n쎯	-4.41832
wgkn1쎯	-4.45101
f쎯	-4.45579
v	-4.45765
e	-4.46809
g쎯	-4.49319
b	-4.50329
l	-4.50626
r쎯	-4.54216
r	-4.57153
e쎯	-4.603
b쎯	-4.61245
q쎯	-4.64848
w쎯	-4.67946
t쎯	-4.68022
y쎯	-4.68486
x	-4.70503
khug0쎯	-4.72996
j쎯	-4.76276
l쎯	-4.77547
i쎯	-4.7767
u쎯	-4.87437
a쎯	-4.92177
v쎯	-4.92504
c	-4.93303
o쎯	-5.01013
k쎯	-5.03896
x쎯	-5.05435
h쎯	-5.06901
s쎯	-5.07655
d쎯	-5.15118
0쎯	-5.15601
m쎯	-5.24506
1쎯	-5.27697
od쎯	-5.28786
c쎯	-5.31304
쎁	-5.39185
ea쎯	-5.76329
쎅	-5.76456
쎃	-5.79326
쎂	-5.82413
iq쎯	-5.86769
쎯	-5.88155
쎈	-5.89962
nl쎯	-5.90098
쎀	-5.90942
yh쎯	-5.93043
쎁쎉	-5.96304
쎄	-5.98226
)	-5.99511
qt쎯	-5.99659
(	-6.00026
yd쎯	-6.0142
쎆	-6.0334
khay7쎯	-6.04601
.	-6.07882
2쎯	-6.08283
쎉	-6.10775
ib쎯	-6.12254
kq쎯	-6.14405
jjyi0쎯	-6.17056
쎇	-6.17194
ewmw쎯	-6.19371
rw쎯	-6.22586
wx쎯	-6.23639
dx쎯	-6.27374
uh쎯	-6.28054
vc쎯	-6.28368
”	-6.31954
ip쎯	-6.35502
wb쎯	-6.35642
iy쎯	-6.35645
cw쎯	-6.36407
rmae쎯	-6.38009
or쎯	-6.39978
lk쎯	-6.40006
kv쎯	-6.4049
bu쎯	-6.42289
“	-6.43639
ld쎯	-6.45386
mb쎯	-6.4601
qc쎯	-6.48345
qb쎯	-6.48364
《	-6.49052
ma쎯	-6.49897
iw쎯	-6.5217
el쎯	-6.52861
sj쎯	-6.5434
ua쎯	-6.5479
gw쎯	-6.55389
eg쎯	-6.5578
eu쎯	-6.55976
eh쎯	-6.56194
wl쎯	-6.56537
gc쎯	-6.56581
lf쎯	-6.56603
rj쎯	-6.57097
wsmy쎯	-6.57961
oun쎯	-6.58439
fe쎯	-6.5965
tj쎯	-6.59791
aiyk쎯	-6.5989
hw쎯	-6.60085
xd쎯	-6.60216
pr쎯	-6.60515
-	-6.6108
tp쎯	-6.61095
qn쎯	-6.62004
》	-6.63421
qi쎯	-6.64218
imy쎯	-6.64308
vpm쎯	-6.64499
wi쎯	-6.64772
nr쎯	-6.64842
yff쎯	-6.66292
igo쎯	-6.66387
qu쎯	-6.66403
th쎯	-6.66544
yv쎯	-6.68008
ek쎯	-6.68486
qgk쎯	-6.68513
khpk1쎯	-6.6852
nsh쎯	-6.6878
dm쎯	-6.69226
ybb쎯	-6.69562
ai쎯	-6.70333
xl쎯	-6.71132
쎂쎀쎀	-6.71382
xj쎯	-6.72079
ud쎯	-6.72451
iuc쎯	-6.72615
gss쎯	-6.73966
kkmw1쎯	-6.76653
ywi쎯	-6.77266
uv쎯	-6.77617
wf쎯	-6.77701
ni쎯	-6.77763
xi쎯	-6.78026
si쎯	-6.78468
jl쎯	-6.78812
qk쎯	-6.80058
rqqy2쎯	-6.80378
xg쎯	-6.80478
cybc쎯	-6.80589
wn쎯	-6.81598
jm쎯	-6.81904
thgt1쎯	-6.82113
ks쎯	-6.82877
kre쎯	-6.83152
y1쎯	-6.83426
q쎯t쎯	-6.83431
쎀쎀	-6.8421
ue쎯	-6.84337
jlj쎯	-6.85338
ode쎯	-6.85864
vk쎯	-6.87238
ay쎯	-6.87868
fs쎯	-6.87871
dccc쎯	-6.88585
hu쎯	-6.88893
jh쎯	-6.89703
,	-6.90085
dk쎯	-6.90181
go쎯	-6.90509
lm쎯	-6.90572
ifd쎯	-6.90785
gd쎯	-6.92437
am쎯	-6.93594
tga쎯	-6.94345
gah쎯	-6.94435
mrdf쎯	-6.98732
ls쎯	-6.99675
ae쎯	-6.99863
쎁쎀	-6.99985
cc쎯	-7.00681
gj쎯	-7.00788
gm쎯	-7.01283
ity1쎯	-7.01317
ba쎯	-7.01428
lnt쎯	-7.02037
kh	-7.02257
by쎯	-7.03112
tfkc쎯	-7.034
vt쎯	-7.03503
aq쎯	-7.04229
ep쎯	-7.04563
mn쎯	-7.05433
lw쎯	-7.06383
sy쎯	-7.06404
qfk쎯	-7.06649
tfih쎯	-7.07592
ujq쎯nyp쎯	-7.07774
xq쎯	-7.07909
ptf쎯	-7.07935
ir쎯yoq쎯	-7.08616
cr쎯	-7.09097
ir쎯	-7.09794
md쎯	-7.09846
ac쎯	-7.09882
hn쎯	-7.09965
fyu쎯	-7.10168
d쎯or쎯	-7.10291
ii쎯	-7.10639
xpgm쎯	-7.10685
rv쎯	-7.1108
opsh0쎯	-7.12315
djdk0쎯	-7.12746
gf쎯	-7.13868
swcn0쎯	-7.14306
snan쎯	-7.14347
src쎯	-7.14587
vfi쎯	-7.14601
eamy2쎯	-7.14838
3쎯	-7.15245
쎂쎀	-7.16237
sh쎯	-7.1637
fw쎯	-7.16425
gyy쎯	-7.16628
eecs쎯	-7.16791
kj쎯	-7.1751
rvq쎯	-7.17684
jt쎯	-7.18754
/	-7.18884
aymx0쎯	-7.19103
no쎯	-7.19854
pv쎯	-7.20616
xmb쎯	-7.20758
gu쎯	-7.21461
fc쎯	-7.23187
ub쎯	-7.2334
ekgd쎯	-7.23742
bq쎯	-7.23971
nl쎯ea쎯	-7.24234
tyac쎯	-7.24246
aw쎯	-7.27139
ivc쎯	-7.27671
tf쎯	-7.28245
vq쎯rj쎯	-7.28514
tdw쎯kd쎯	-7.28913
uc쎯	-7.29026
qtps1쎯	-7.29891
btbh10쎯	-7.30758
wtx쎯	-7.31405
jw쎯	-7.31875
hm쎯	-7.3228
ojgr0쎯	-7.32915
um쎯	-7.3299
he쎯	-7.33388
duj쎯	-7.33538
nft쎯	-7.3374
mm쎯	-7.3376
hv쎯	-7.34072
avw쎯	-7.34128
qlx쎯	-7.34465
bng쎯	-7.34973
gq쎯	-7.35088
ivw쎯	-7.35165
og쎯	-7.35554
jgig1쎯	-7.35557
fsy쎯	-7.35758
ivy쎯	-7.35809
qpgh쎯	-7.36402
jvf쎯	-7.36552
nu쎯	-7.37185
pb쎯	-7.37645
wqg쎯	-7.37742
ox쎯	-7.38008
noof쎯vc쎯	-7.38308
nq쎯	-7.38503
gh쎯	-7.40359
fv쎯	-7.40948
pjv쎯	-7.40996
bm쎯	-7.41033
mwi쎯	-7.41455
qrhg쎯	-7.41559
vey쎯	-7.41651
mdm쎯	-7.41723
ofn쎯	-7.41795
atte쎯	-7.41874
bi쎯	-7.42974
h쎯kre쎯	-7.43428
ru쎯	-7.4452
oi쎯	-7.44611
tuqj쎯	-7.44677
ed쎯	-7.44888
st쎯hv쎯	-7.44915
fu쎯	-7.45306
mjv쎯	-7.45308
pyxf쎯	-7.45705
mtfk1쎯	-7.46161
yttg0쎯	-7.47186
ft쎯	-7.47624
csh쎯	-7.47727
z	-7.48741
xep쎯	-7.49001
dna쎯	-7.49082
mt쎯	-7.49171
f쎯eh쎯	-7.494
tuqj쎯vc쎯	-7.49597
frj쎯	-7.49716
ew쎯	-7.50061
hubp쎯	-7.5059
brg쎯	-7.50591
jeb쎯	-7.50732
aef쎯	-7.50977
kpd쎯	-7.51275
쎁쎂	-7.5134
ssq쎯	-7.52082
i쎯pwit쎯	-7.52098
mhnf쎯	-7.52317
jfmf쎯	-7.52971
fiv쎯	-7.53439
amdo1쎯	-7.54205
xu쎯	-7.54653
iyy쎯	-7.55319
xuq쎯	-7.56018
tfns1쎯	-7.56432
dpq쎯	-7.56688
ktg쎯	-7.56727
ipwm1쎯	-7.5673
fvq쎯	-7.56747
lujf1쎯	-7.57278
ldn쎯	-7.58298
xant쎯	-7.58872
qsy쎯	-7.5902
tpk쎯	-7.59916
dfn쎯	-7.60152
rvyo쎯	-7.60458
ynjg6쎯	-7.60929
vnh쎯	-7.61187
qut쎯	-7.61437
rxl쎯	-7.6193
t쎯wb쎯	-7.62165
m쎯o쎯	-7.63679
rke쎯	-7.64519
dccc쎯yqt쎯	-7.65211
ljh쎯	-7.65268
ngh쎯	-7.65902
kpe쎯	-7.6613
ghtp쎯	-7.66181
ea쎯ivw쎯	-7.67404
wct쎯	-7.68212
mta쎯	-7.68941
xxm쎯	-7.70559
ftl쎯	-7.70896
tfih쎯yh쎯	-7.7144
foag쎯	-7.71495
iyjf2쎯	-7.71707
wwv쎯	-7.71909
geqc쎯	-7.71936
pjd쎯	-7.72685
wxdm1쎯	-7.73066
vffy쎯	-7.73141
qnf쎯	-7.73641
ejhh쎯	-7.75003
mcqb쎯	-7.76486
njdf쎯	-7.76737
tyt쎯	-7.77064
d쎯ynjg6쎯	-7.77143
udb쎯	-7.7933
mtjc1쎯	-7.79334
laf쎯	-7.798
kuy쎯	-7.79828
tig쎯	-7.79909
xi쎯yss쎯	-7.80179
pumk1쎯	-7.80293
1	-7.80423
n쎯ag쎯ir쎯yoq쎯	-7.80909
u쎯xfw쎯	-7.8099
ghad쎯	-7.81246
jeto0쎯	-7.81903
fnan0쎯	-7.82081
gah쎯ji쎯	-7.8209
gyy쎯wrw쎯	-7.82211
ffuj쎯	-7.82224
ea쎯rke쎯	-7.82353
mvv쎯	-7.83898
ir쎯ngh쎯	-7.84338
tdh쎯	-7.84612
quo쎯	-7.84673
drj0쎯	-7.85666
khom쎯	-7.85744
rrr쎯	-7.86302
pwit쎯	-7.86772
qtyy3쎯	-7.86956
ujq쎯	-7.87325
vyg1쎯	-7.87541
wsmy쎯fs쎯	-7.87864
etuh쎯	-7.88814
wuk쎯	-7.89946
eym쎯	-7.91146
vfg쎯	-7.91147
rhb쎯	-7.91552
fknd쎯	-7.91592
:	-7.91679
ile쎯	-7.92516
mye쎯	-7.9268
fsy쎯wgu쎯	-7.92977
rwxn쎯	-7.93028
mfj쎯	-7.93495
drvc쎯	-7.95565
"	-7.95846
gfkk1쎯	-7.96349
gxxe쎯	-7.9645
icy쎯	-7.96491
uyy쎯	-7.96813
wvgo7쎯	-7.97676
yujf0쎯	-7.98194
t쎯it쎯	-7.99899
4	-7.99957
wl쎯tdw쎯	-8.00192
wqfj쎯	-8.00864
sfjh쎯	-8.00878
mlb쎯	-8.01554
kmw쎯	-8.01845
bfq쎯	-8.02786
dgl쎯	-8.02872
ruk쎯	-8.04821
qwmc1쎯	-8.05092
vwnn0쎯	-8.0597
jadk쎯	-8.06508
xxf쎯	-8.06756
hto쎯	-8.06774
rqci5쎯	-8.07665
rqcl5쎯	-8.07666
xj쎯sojh쎯	-8.08571
%	-8.08804
jc쎯uxv쎯	-8.089
mhdd1쎯	-8.10135
lrq쎯	-8.10236
xqiy쎯	-8.11396
》khug0쎯《	-8.12334
qgwy쎯	-8.12812
iwf쎯vc쎯	-8.13031
yltc쎯	-8.14255
qtui쎯	-8.14718
bpx쎯	-8.14981
pa쎯ub쎯	-8.17075
haeo쎯	-8.17358
trh0쎯	-8.17782
rtmt1쎯	-8.17795
yrtj1쎯	-8.1878
kkmw1쎯uda쎯	-8.20238
jo쎯iqi쎯	-8.21246
wdjq쎯	-8.21426
aaae쎯	-8.23245
kkak5쎯	-8.24041
mhnf쎯dyn쎯	-8.25166
aaae쎯kd쎯	-8.25227
qeqs쎯	-8.25865
sb쎯udl쎯	-8.26972
bnhg1쎯	-8.27262
ecyj쎯	-8.286
wnv0쎯	-8.29581
pgin1쎯	-8.32368
swwk0쎯	-8.33264
bqbo쎯	-8.33663
uitl쎯	-8.36504
5	-8.36516
xmqm쎯	-8.36575
vcu0쎯	-8.36802
iyu0쎯	-8.37409
;	-8.37476
atm쎯vcc쎯	-8.38589
qut쎯fjl쎯	-8.38949
lfoj2쎯	-8.39123
6	-8.784
2	-8.99236
*	-9.21253
+	-9.28599
8	-9.28719
>	-9.48231
7	-9.59701
3	-9.66177
0	-11.0914
