[UNK]	0
[PAD]	0
[CLS]	0
[SEP]	0
[MASK]	0
,	-2.33828
de❅2	-2.75005
。	-3.03375
、	-3.19532
han❄20	-4.25445
shi❄45	-4.27801
zai❄5	-4.37765
:	-4.40382
)	-4.49157
(	-4.50581
wei❄14	-4.5634
yi❁10	-4.70677
le❅0	-4.81551
“	-4.84644
”	-4.8564
you❃11	-4.92268
deng❃2	-4.94319
《	-4.94742
》	-4.94995
쎁	-5.0073
yu❂35	-5.06128
;	-5.06279
zhong❁4	-5.06332
yu❃14	-5.06894
ren❂1	-5.11717
쎂	-5.28643
yi❃10	-5.38054
쎀	-5.39576
bu❂0	-5.42308
shang❃1	-5.47983
.	-5.51528
da❄0	-5.54033
zhi❁13	-5.5946
쎃	-5.60481
ji❂37	-5.61768
gan❄3	-5.61768
duo❁5	-5.65521
nian❂6	-5.67809
dui❄14	-5.73776
hou❄7	-5.75288
-	-5.80286
쎅	-5.81267
bing❁6	-5.82695
ye❃1	-5.82999
bei❄48	-5.83191
쎄	-5.83655
er❂16	-5.84992
san❁1	-5.98243
쎉	-5.98611
huo❄27	-5.98862
ke❃4	-5.99179
you❂29	-6.00702
qi❂29	-6.02467
쎈	-6.02824
zui❄4	-6.0411
jiang❁5	-6.04208
/	-6.04431
gao❁20	-6.04921
·	-6.054
쎆	-6.06677
dao❄3	-6.0672
yong❄3	-6.08073
ta❁3	-6.10107
xin❁10	-6.12214
suo❃11	-6.1238
xia❄3	-6.15094
de❅0	-6.15999
fu❄28	-6.18043
shi❂20	-6.20015
liang❃5	-6.23183
쎇	-6.23284
mo❄16	-6.24985
ming❂7	-6.26594
jia❁13	-6.27998
chong❂11	-6.28655
na❄11	-6.2878
dou❁12	-6.32427
neng❂2	-6.32927
xian❄22	-6.33132
jiu❄23	-6.3315
zhi❄88	-6.34161
zhe❄14	-6.3741
xiao❃2	-6.39769
yuan❂10	-6.40447
cong❂6	-6.42716
chu❁3	-6.46942
hui❄27	-6.47306
er❄5	-6.48103
you❄13	-6.48254
cheng❂29	-6.50068
lai❂16	-6.51355
"	-6.52817
shui❃0	-6.53705
ren❂4	-6.54878
ben❃5	-6.55714
shi❄32	-6.56982
tiao❂9	-6.58987
sheng❁16	-6.60541
hao❃0	-6.61057
mi❃19	-6.61352
yi❃15	-6.61872
si❄17	-6.62021
ci❄16	-6.65613
zhang❃6	-6.68806
shan❁11	-6.7036
yao❁17	-6.70793
shi❃6	-6.71092
ceng❂6	-6.71611
geng❁6	-6.74019
wu❂17	-6.74047
ke❄6	-6.74103
xue❂6	-6.74468
ru❂9	-6.77932
zhao❁6	-6.83411
wo❃3	-6.83967
qu❁15	-6.8409
cun❁1	-6.84184
wu❃9	-6.84525
yu❂37	-6.84556
zi❄16	-6.85212
tian❁5	-6.85778
ge❄3	-6.85872
fu❂94	-6.86378
xiang❄6	-6.86505
li❃26	-6.87815
jing❁27	-6.88234
ta❁6	-6.88428
huo❄50	-6.89567
bu❄38	-6.89796
zi❃7	-6.90257
nan❂6	-6.90388
qi❃34	-6.92725
xi❁143	-6.93505
lu❄70	-6.94017
guo❄2	-6.94051
jiao❄35	-6.94429
qian❂8	-6.96477
dan❄10	-6.98603
ru❄2	-6.99793
gai❁13	-7.00228
ba❃1	-7.00593
ji❂35	-7.01364
sheng❃9	-7.0424
shi❂10	-7.0443
zuo❄5	-7.0523
yue❁1	-7.05576
...	-7.06316
shou❃6	-7.06424
zhi❃19	-7.06735
hen❃2	-7.07202
ni❃6	-7.07241
zhen❄30	-7.07711
mu❃2	-7.08065
dong❁3	-7.08816
shu❁8	-7.09094
xing❄13	-7.09612
yin❁11	-7.10254
da❂30	-7.10577
nan❂14	-7.11103
ci❃2	-7.11184
yuan❂12	-7.1151
jin❁33	-7.12
shuo❁2	-7.12
xiang❄24	-7.12534
wei❄15	-7.12699
di❄45	-7.13569
de❂7	-7.1512
jie❄19	-7.1631
rang❄3	-7.17169
fen❁4	-7.17299
cheng❁28	-7.17342
guo❂11	-7.17601
wen❂5	-7.17688
hua❁11	-7.17945
qu❄6	-7.19438
xian❄37	-7.20013
ke❁16	-7.21084
bei❃2	-7.21218
chu❄17	-7.21488
wang❂5	-7.22257
gei❃1	-7.24366
ta❁5	-7.24459
wai❄0	-7.24924
!	-7.25204
zuo❄7	-7.25344
～	-7.25391
?	-7.25579
hua❁1	-7.26806
cheng❂17	-7.27856
lei❄16	-7.28049
dao❄24	-7.28097
jian❄29	-7.28337
ying❁17	-7.28918
ji❂114	-7.28966
fa❃2	-7.29795
qing❁10	-7.30385
zong❃5	-7.30877
zhi❁16	-7.31373
hai❃1	-7.31622
quan❂6	-7.31672
ze❂11	-7.33382
nv❃0	-7.34401
mei❃13	-7.34453
dan❄38	-7.34555
liu❄3	-7.35225
gong❄3	-7.35587
jun❁6	-7.36003
xiang❁1	-7.36246
xiang❁9	-7.3642
shu❃5	-7.36525
pian❁7	-7.37155
zhe❃2	-7.37683
si❁24	-7.38534
xian❄47	-7.38855
zhang❁4	-7.39177
jin❄60	-7.39284
ri❄2	-7.39554
mei❃9	-7.4004
zai❄4	-7.40312
dang❁4	-7.40366
ji❁48	-7.40475
jiang❄9	-7.40966
zi❄6	-7.4157
tong❂13	-7.41736
jian❁85	-7.42067
xi❄46	-7.42233
er❃6	-7.43572
bai❂2	-7.44531
ma❃14	-7.45443
bi❃20	-7.45901
ming❂8	-7.46017
xin❁7	-7.46189
dian❃11	-7.46536
long❂63	-7.46652
fang❄0	-7.46884
de❂9	-7.47116
zheng❁22	-7.47291
huang❂56	-7.47524
tou❂4	-7.47875
jian❁25	-7.48169
chong❂17	-7.4959
fa❁1	-7.49949
an❁13	-7.49993
hang❂16	-7.5061
an❄14	-7.50725
dai❄15	-7.50851
men❂19	-7.50851
hao❂6	-7.51817
zhang❁13	-7.51945
he❂37	-7.52373
dian❄23	-7.52865
ba❁9	-7.53111
kou❃1	-7.54105
ping❂17	-7.54355
si❄15	-7.5448
ceng❂3	-7.54542
guang❁2	-7.54543
ji❁21	-7.55108
sui❄16	-7.56185
jin❄61	-7.57597
×	-7.57986
jiang❁10	-7.58376
hong❂44	-7.58702
jin❁10	-7.5916
juan❃1	-7.59292
lin❂19	-7.60283
fang❁4	-7.60349
—	-7.60615
jiu❃3	-7.61015
jia❁7	-7.61821
ji❂83	-7.61956
zhou❁9	-7.62769
shou❄4	-7.62973
hu❄26	-7.63167
qi❁9	-7.63315
dai❄9	-7.63658
mian❄2	-7.63726
gu❃14	-7.63795
xing❂9	-7.63864
shuang❁4	-7.64623
feng❁58	-7.65809
te❄5	-7.6595
la❁7	-7.6609
shi❄33	-7.6616
cai❂2	-7.66372
shu❄26	-7.66446
*	-7.68295
zuo❄12	-7.68367
se❄29	-7.68511
re❄1	-7.69234
zhu❃4	-7.69671
shi❄18	-7.69817
tong❁5	-7.70109
bai❃9	-7.70476
ju❄16	-7.70918
bing❄12	-7.71214
li❃11	-7.71288
gong❁17	-7.71436
nin❂5	-7.71436
jie❂69	-7.71808
pian❁5	-7.72032
ge❃0	-7.72256
yang❂35	-7.72331
ben❄4	-7.73233
shi❁11	-7.73536
hua❂14	-7.73612
yue❄29	-7.73764
lao❃17	-7.74068
wang❃14	-7.74297
yi❄67	-7.74449
1	-7.74791
zhan❄17	-7.74833
ju❄65	-7.74987
wu❄36	-7.75294
di❁9	-7.75449
+	-7.7638
guan❃9	-7.7638
shen❂2	-7.76458
ji❁47	-7.76692
shi❁33	-7.76927
jun❁2	-7.77368
ai❄26	-7.78031
tai❄3	-7.78269
qi❃25	-7.78667
yi❄68	-7.79067
zhi❄30	-7.79468
li❄59	-7.80357
jian❄62	-7.81008
qiu❁9	-7.81008
hui❂1	-7.81089
shou❃4	-7.81499
jiao❁20	-7.81663
2	-7.81954
que❄11	-7.8224
you❂24	-7.82323
li❄58	-7.82406
gong❁10	-7.82821
=	-7.83154
ban❄5	-7.83656
chu❁4	-7.84498
chuan❂4	-7.84498
kuan❁0	-7.84922
tu❂14	-7.85177
du❄8	-7.85348
wei❄26	-7.85433
bao❄10	-7.85518
°C	-7.86462
ji❂57	-7.86549
ju❂23	-7.86894
xing❂11	-7.87155
jiang❃8	-7.87765
zu❃7	-7.87852
ding❄2	-7.88027
shao❃2	-7.8873
chang❂15	-7.88818
che❁8	-7.8935
shen❁18	-7.89527
xiang❄4	-7.89973
gan❁16	-7.90064
ka❃1	-7.91322
shi❄15	-7.91412
pi❁11	-7.91503
bian❄19	-7.91776
ya❄7	-7.91958
yun❂4	-7.92323
chang❃4	-7.92506
dong❄13	-7.92598
liu❂20	-7.92781
xian❁18	-7.9315
hua❄18	-7.93242
liang❂19	-7.93704
zou❃0	-7.93797
zao❃2	-7.9389
xie❃4	-7.93983
fei❁15	-7.94076
%	-7.94169
kan❁9	-7.94169
kuan❃7	-7.94169
qian❁13	-7.94551
na❃3	-7.94917
she❄29	-7.95387
li❃15	-7.95765
们	-7.96239
zhi❄61	-7.9643
a❁6	-7.97027
lian❂69	-7.97099
min❂22	-7.97195
qi❄20	-7.97195
da❂14	-7.97484
ban❄4	-7.97773
tao❄1	-7.98257
luo❁4	-7.98646
chen❂41	-7.99428
li❄141	-8.00118
xie❂16	-8.01012
bian❄16	-8.01212
qiu❂19	-8.02216
lou❂19	-8.0262
chan❃12	-8.02722
huo❃2	-8.03537
xuan❃8	-8.03742
qing❁20	-8.04256
jian❁14	-8.04256
xiang❁26	-8.04257
6	-8.04604
ling❄0	-8.04876
fan❃3	-8.05083
xiang❃6	-8.05187
le❄3	-8.05291
zhen❁30	-8.055
qiao❂12	-8.05709
fu❄23	-8.05813
yao❄12	-8.06443
zhan❁4	-8.07608
gu❄12	-8.07609
han❄33	-8.07715
yu❂127	-8.07715
han❃11	-8.07811
ling❂34	-8.08143
zhi❁21	-8.0868
>	-8.0922
diao❄17	-8.09872
5	-8.10326
4	-8.10621
zhuan❃4	-8.10747
han❂17	-8.10975
n	-8.11132
yan❂49	-8.11631
an❁15	-8.11957
3	-8.11978
dang❃2	-8.12075
ban❃6	-8.12187
pi❂17	-8.12299
shi❄31	-8.13421
bao❃9	-8.13761
jiu❃12	-8.13896
zhuang❄5	-8.13988
shen❁40	-8.14215
xin❄8	-8.15015
duan❄7	-8.1513
mao❂11	-8.15475
xie❃8	-8.15822
shu❄28	-8.16053
tian❂16	-8.16169
cao❃5	-8.1617
xu❁37	-8.16285
tie❃5	-8.16635
yuan❄18	-8.16868
guan❁6	-8.17337
qian❂40	-8.17337
qiu❂36	-8.17337
jian❄15	-8.1734
yi❄119	-8.17454
jing❁24	-8.17926
yu❃44	-8.18044
si❃0	-8.18518
pin❃0	-8.18637
kuai❄14	-8.18995
yu❄70	-8.18995
hu❂32	-8.19114
qing❄3	-8.19234
chun❁6	-8.19353
wu❃28	-8.19474
ji❄61	-8.19834
shang❁4	-8.19954
~	-8.20196
hei❁3	-8.20802
chu❂42	-8.21289
jie❁13	-8.2129
cha❁3	-8.21657
xing❁7	-8.22025
zhi❄47	-8.22395
dun❁2	-8.22519
wan❂5	-8.22519
suan❁3	-8.22642
mu❄15	-8.22766
kang❄5	-8.22767
7	-8.22822
cai❄5	-8.2289
xi❃11	-8.22912
chi❁23	-8.23015
lun❄1	-8.23015
qie❃	-8.23015
tu❃1	-8.23638
fang❂2	-8.23764
ge❂29	-8.23888
ji❁34	-8.24265
jiao❄18	-8.24517
yi❄109	-8.24644
shi❂39	-8.24897
qu❃1	-8.24897
ju❁14	-8.25023
bian❁16	-8.25024
xiu❁11	-8.2566
duan❃0	-8.25787
ying❁44	-8.25788
jiao❁8	-8.25916
qie❁1	-8.26171
shi❃8	-8.26171
yin❁44	-8.263
gai❃2	-8.27073
guo❁26	-8.27073
lv❄15	-8.27073
yuan❃4	-8.27073
8	-8.27118
9	-8.27613
de❅1	-8.27853
gen❁0	-8.27853
jiao❄6	-8.27853
qing❂6	-8.28245
ban❃5	-8.28377
xing❄8	-8.28771
ya❁7	-8.28771
zhi❂32	-8.28902
zhou❁5	-8.28902
cheng❂16	-8.28903
bu❄23	-8.29299
yuan❂34	-8.29431
kuai❄18	-8.29564
zhi❁31	-8.29564
lan❂13	-8.29697
jie❁30	-8.30363
fang❂4	-8.30364
ci❂29	-8.31034
du❂34	-8.31575
shi❄71	-8.31982
xia❂39	-8.3239
rou❄1	-8.32527
tang❂13	-8.32664
tang❁5	-8.32664
lian❂53	-8.33075
cang❂5	-8.33213
dao❃7	-8.33213
dan❁9	-8.34321
shi❂13	-8.34459
lv❄20	-8.34599
yue❁0	-8.34599
ji❄116	-8.34878
pan❂10	-8.35018
bao❃13	-8.35299
jie❁23	-8.3544
ji❄117	-8.35581
jiao❃57	-8.35722
song❄9	-8.35863
chao❂6	-8.35876
zhi❄104	-8.36004
0	-8.36039
yang❂16	-8.3643
sha❁10	-8.36572
chao❁17	-8.36715
huan❂20	-8.37
shou❁1	-8.37286
yue❄46	-8.3743
zhan❄10	-8.3743
sui❂9	-8.37718
si❁11	-8.37718
chi❁8	-8.38731
ban❁12	-8.38876
cheng❁10	-8.38876
nan❂20	-8.39022
bo❁11	-8.39168
qun❂6	-8.39168
'	-8.39314
dian❄13	-8.39315
gong❁9	-8.3946
ba❁16	-8.39902
bao❁4	-8.40049
shu❂7	-8.40491
jing❁3	-8.40579
chuan❁2	-8.4064
zhuang❁10	-8.4064
fu❂60	-8.40788
zhi❂25	-8.40936
chuang❄1	-8.41085
ruo❄8	-8.41234
ta❃1	-8.41235
ji❁116	-8.41533
ning❂10	-8.41833
qi❂46	-8.41833
biao❃5	-8.41983
cha❂27	-8.42134
fen❃1	-8.42586
wei❂38	-8.42586
yan❂61	-8.42586
she❄22	-8.43192
dui❄33	-8.43344
gang❁32	-8.43344
qu❁25	-8.43345
pai❄3	-8.43345
zheng❄12	-8.43802
zhi❄85	-8.43956
ju❁18	-8.44109
man❃4	-8.44109
jie❄29	-8.44417
kong❁9	-8.44571
pai❂2	-8.44571
xi❄50	-8.45034
zhu❄19	-8.45189
yun❃16	-8.45656
hua❄26	-8.45656
su❄56	-8.46438
’	-8.46911
cun❂1	-8.47227
reng❂4	-8.47385
you❂25	-8.47544
jie❂67	-8.48022
pei❄19	-8.48022
niu❂3	-8.48342
shi❄28	-8.48502
fei❁19	-8.48823
guo❃3	-8.48824
liao❄8	-8.49145
zhuan❁1	-8.49469
nong❂5	-8.49469
ge❁16	-8.49631
gan❃6	-8.49793
yan❃42	-8.49793
zai❄8	-8.49956
bing❁2	-8.50119
yuan❂15	-8.50773
zu❂9	-8.50773
qiu❂27	-8.51101
guan❁4	-8.51266
su❁10	-8.51266
qing❃9	-8.51431
yu❄93	-8.51432
fu❄31	-8.51597
°	-8.52094
fu❄36	-8.52094
jie❃6	-8.52094
lin❂7	-8.5226
ni❂10	-8.52762
song❄4	-8.53265
zhun❃0	-8.53433
ying❂45	-8.53602
bi❃24	-8.53602
feng❁17	-8.5394
shao❁8	-8.5411
guan❁16	-8.5462
yong❃21	-8.5479
jing❃13	-8.5479
gang❃6	-8.55132
liu❂28	-8.55304
ding❃11	-8.55476
chao❃7	-8.55648
quan❂12	-8.55648
song❁11	-8.55993
‘	-8.56687
zong❁10	-8.57561
zhan❃11	-8.57749
yuan❂17	-8.58443
wang❃7	-8.58622
duan❁4	-8.58798
jia❃14	-8.59155
gui❁12	-8.5969
bian❁13	-8.606
nai❄5	-8.60773
shi❄51	-8.60773
yin❄7	-8.61319
shan❄15	-8.61319
ou❁8	-8.61493
bu❃11	-8.61501
kao❄5	-8.61501
gu❃59	-8.61866
sheng❁3	-8.61866
yang❃6	-8.61867
『	-8.62234
jiu❄30	-8.62602
huo❂3	-8.62787
gai❄17	-8.63344
wei❄18	-8.6353
yan❂31	-8.6353
zhao❂	-8.63904
yin❂44	-8.64278
ran❂12	-8.64466
he❂35	-8.65033
yin❃14	-8.65222
yi❁13	-8.65222
si❁16	-8.65792
peng❂7	-8.65983
tang❂28	-8.65983
yi❄190	-8.65983
mi❄24	-8.66174
a	-8.66626
bei❁8	-8.6675
xian❃24	-8.6675
mo❄30	-8.66751
』	-8.66943
wang❄4	-8.67136
wen❁6	-8.67136
zheng❄17	-8.67136
zu❂11	-8.67329
fu❂43	-8.68107
mu❄22	-8.68302
fu❁13	-8.68302
dong❄24	-8.68498
zhi❂7	-8.69087
zhu❃14	-8.69087
wu❄12	-8.69087
jun❁15	-8.69482
lun❂28	-8.69482
lie❄20	-8.6968
wei❁17	-8.70077
zhu❄63	-8.70077
xi❁97	-8.70079
na❄20	-8.70276
si❁22	-8.70476
er❃12	-8.70876
zhu❄31	-8.70876
mei❂18	-8.71077
❂	-8.71259
zhu❂15	-8.71682
bu❄28	-8.71884
&	-8.72087
hou❄6	-8.72087
mu❃6	-8.72088
la❄23	-8.72291
zhi❃32	-8.72291
liang❂7	-8.72292
ji❄36	-8.72494
lei❂30	-8.72494
ji❁36	-8.72698
li❄144	-8.73108
lu❃27	-8.73108
you❁5	-8.73108
jin❃16	-8.73108
liu❂9	-8.73932
pu❃3	-8.73932
tang❂15	-8.73932
tai❄9	-8.74972
si❄21	-8.7518
gong❁11	-8.756
jiang❃19	-8.756
ling❂58	-8.75811
jiu❃1	-8.75981
cheng❂50	-8.76021
zhu❁29	-8.76233
pai❂4	-8.7687
jia❁5	-8.76871
bei❄21	-8.76872
me❅1	-8.77297
qiu❁16	-8.77511
qing❁16	-8.7752
xue❃5	-8.77726
dao❁1	-8.77726
jiao❃53	-8.78372
mo❂16	-8.78372
xia❄6	-8.78372
yan❂50	-8.78588
fo❂2	-8.78805
ji❂39	-8.79023
ren❂3	-8.79023
zuo❄9	-8.79241
cheng❂52	-8.79459
mou❃2	-8.79897
ting❁5	-8.80117
wei❄16	-8.80117
kang❁6	-8.80338
g	-8.80548
zao❄16	-8.80558
zhu❁7	-8.80558
shang❄2	-8.80558
fen❄2	-8.80559
deng❁7	-8.80779
bei❁15	-8.81001
bo❂41	-8.81001
er❂7	-8.81223
fu❄67	-8.81223
zhi❄89	-8.81223
wei❁12	-8.81446
chuan❂13	-8.81669
deng❁10	-8.81669
sha❁4	-8.81669
guang❁8	-8.8167
shou❂	-8.81893
fu❃14	-8.82117
leng❃	-8.82117
biao❁14	-8.82117
jing❃3	-8.82342
quan❂17	-8.82567
li❄51	-8.82569
yu❃47	-8.82793
lve❄11	-8.83019
kuang❄12	-8.83026
wei❄52	-8.83246
ba❁11	-8.83249
meng❄8	-8.83473
yi❂38	-8.83473
bie❂4	-8.83701
ye❄26	-8.83701
xu❁39	-8.84158
zhao❄31	-8.84158
duan❄4	-8.84387
lan❂41	-8.84387
you❄14	-8.84388
gu❃42	-8.84617
chong❁10	-8.85078
ming❄1	-8.85078
ying❄9	-8.85078
●	-8.85775
shi❁16	-8.85775
fei❄37	-8.86008
du❂17	-8.86008
zi❁45	-8.86241
dao❃5	-8.86241
di❄26	-8.86476
ku❁11	-8.86476
qing❄14	-8.86476
gong❁15	-8.8671
ya❃9	-8.8671
shou❃3	-8.86711
i	-8.86839
o	-8.86912
cha❁8	-8.86946
zhu❁16	-8.86946
shen❄17	-8.87181
nai❃0	-8.87418
ling❃2	-8.87655
feng❁8	-8.87892
ku❄6	-8.88132
hu❂46	-8.88369
ji❄72	-8.89088
yin❁37	-8.89088
chong❂14	-8.89329
zuo❃3	-8.89571
chuan❁5	-8.89571
gui❄41	-8.89813
xi❄33	-8.89814
gou❁10	-8.89814
ce❄11	-8.90299
fu❂36	-8.91772
ke❄14	-8.91772
xian❁13	-8.91792
dai❁1	-8.9202
jia❄5	-8.9202
jiang❄25	-8.92267
qi❂117	-8.92267
chang❁6	-8.92516
kong❃1	-8.92516
ying❃11	-8.92516
san❃7	-8.92765
jiao❁29	-8.93015
ju❄18	-8.93015
ruan❃17	-8.93517
tong❂48	-8.93517
wen❄6	-8.93517
chi❂20	-8.93769
he❂22	-8.93771
hu❄30	-8.94018
shi❃9	-8.94022
ye❄44	-8.94023
lu❄35	-8.94275
guan❃15	-8.94275
hu❃8	-8.94525
xi❃1	-8.95047
yi❁12	-8.95294
chang❄2	-8.95294
ke❄7	-8.95295
feng❁19	-8.9555
sui❄42	-8.95552
ye❃7	-8.95807
yi❂31	-8.95807
kao❃10	-8.95807
cha❂17	-8.95808
qian❁54	-8.96065
wen❂23	-8.96842
dao❃2	-8.97079
ding❁2	-8.97106
cai❃11	-8.97364
fan❂14	-8.97364
gu❃52	-8.97364
zheng❄13	-8.97364
shun❄11	-8.97626
wu❁12	-8.97626
qin❁4	-8.97888
shi❄99	-8.97888
ha❁0	-8.98151
shi❄78	-8.98151
ji❁22	-8.98151
jing❁30	-8.98193
ting❁3	-8.98415
ti❂36	-8.98415
lv❃14	-8.9868
tun❁2	-8.98945
mai❄9	-8.98945
luo❄17	-8.99211
sui❁12	-8.99211
xiu❄8	-8.99211
she❄8	-8.99211
bi❄61	-8.99477
xiang❄20	-8.99745
wei❃25	-8.99745
ao❄14	-8.99997
kua❄4	-9.00013
tong❄3	-9.00013
huan❄21	-9.00013
she❂5	-9.00014
wan❁9	-9.00283
long❁	-9.00551
yang❃14	-9.00551
ji❄94	-9.00822
zu❃5	-9.00822
can❁3	-9.01093
ce❄22	-9.01093
tuo❁6	-9.01093
kong❄1	-9.01364
meng❁3	-9.01364
zhu❁8	-9.01365
zi❃18	-9.01637
zhi❁22	-9.01638
du❂25	-9.01639
jiang❁4	-9.0191
mo❄57	-9.01911
ju❄57	-9.02184
po❁12	-9.02184
qiang❂2	-9.02184
jun❁4	-9.02184
ti❂17	-9.02184
jian❄20	-9.02734
yang❂27	-9.02734
shang❁2	-9.0301
ke❄29	-9.03011
mei❂16	-9.03011
nao❃16	-9.03013
gou❁12	-9.03013
juan❁5	-9.03288
zhen❁52	-9.03288
dan❁5	-9.03566
xian❁57	-9.03844
gan❁25	-9.03846
ge❂53	-9.04123
jie❄14	-9.04123
xu❃19	-9.04403
xu❁29	-9.04404
rui❄12	-9.04684
xing❄9	-9.04966
zhong❁29	-9.04966
duo❃23	-9.05248
sai❄4	-9.05248
wen❂12	-9.05248
li❃17	-9.05249
dong❁5	-9.0525
zhu❁17	-9.05253
ce❄33	-9.05532
jing❄48	-9.05532
na❂4	-9.05816
wa❃5	-9.05816
li❄50	-9.05817
wei❁13	-9.06386
shen❄11	-9.06673
yi❁38	-9.06673
ye❄65	-9.06673
su❄70	-9.07827
ci❁2	-9.08119
ping❂36	-9.0841
yi❄215	-9.0841
shi❁13	-9.0841
ma❂8	-9.08411
miao❄1	-9.08702
zheng❃4	-9.08702
yi❁11	-9.08702
nuo❄16	-9.08995
sun❁0	-9.08995
feng❄2	-9.08996
shui❂1	-9.09008
qian❃5	-9.09584
yan❂44	-9.09584
bo❂37	-9.09585
bao❂9	-9.0988
jin❄32	-9.0988
lai❂25	-9.0988
liang❂15	-9.0988
mei❂25	-9.0988
mo❄22	-9.10177
wu❁3	-9.10178
luan❄0	-9.10474
dou❄18	-9.10475
cai❃4	-9.10773
gang❁7	-9.10773
mai❃0	-9.10773
yan❂46	-9.10773
han❂37	-9.11072
li❄62	-9.11072
po❄17	-9.11072
zeng❁2	-9.11072
ce❄8	-9.11373
jin❃24	-9.11373
shao❁11	-9.11373
yi❂20	-9.11373
yan❃39	-9.11976
si❄10	-9.11977
chun❂18	-9.12279
dan❄21	-9.12279
xiong❂2	-9.12279
hong❂29	-9.1228
mu❄9	-9.12583
sa❄13	-9.12583
gu❃28	-9.12888
niao❃17	-9.12888
rong❂21	-9.13194
gu❄7	-9.13503
wan❂6	-9.14117
gen❁1	-9.14117
dan❄33	-9.14118
ju❃4	-9.1412
hui❁23	-9.14426
suan❄3	-9.14426
tui❁1	-9.14426
cu❁0	-9.14737
zhi❄56	-9.14738
chuang❁13	-9.15048
jia❃2	-9.15361
mai❄6	-9.15361
mo❂26	-9.15361
qin❂29	-9.15361
an❄16	-9.15399
ling❂98	-9.15674
lu❄83	-9.15674
tie❁5	-9.15674
fu❄41	-9.15674
tui❄8	-9.15675
ji❄95	-9.15989
yan❁33	-9.15989
dong❄22	-9.16304
han❂20	-9.16304
dou❃4	-9.16621
ni❂15	-9.16621
qing❄4	-9.16621
wu❃37	-9.16621
<	-9.16938
rong❂33	-9.16938
ku❃1	-9.1694
fu❄64	-9.17257
wan❃17	-9.17576
gan❁31	-9.17577
po❁2	-9.17897
en❁2	-9.1814
bei❄26	-9.18543
cheng❂15	-9.18865
liu❃3	-9.18865
wan❃26	-9.19189
zhi❂20	-9.1919
fan❁14	-9.19515
jian❁52	-9.19515
shi❁8	-9.19516
cheng❂30	-9.19842
tang❂16	-9.19842
bei❁12	-9.2017
chi❂23	-9.2017
jue❂92	-9.2017
shou❄8	-9.2017
xiao❁61	-9.2017
zhao❃3	-9.2017
zhou❂3	-9.2017
yuan❂44	-9.20499
yin❂10	-9.20499
sai❁5	-9.20501
ya❂12	-9.20503
ke❁34	-9.20829
ling❂46	-9.20829
zheng❄18	-9.20829
yang❂19	-9.20829
tui❄5	-9.20829
tan❂29	-9.21492
wei❄62	-9.21492
zhu❄26	-9.2153
bei❄52	-9.21825
bing❁4	-9.21825
lian❂58	-9.21825
zheng❁7	-9.21825
gui❄22	-9.21827
tou❂5	-9.2216
diao❄8	-9.22495
le❄5	-9.22495
pao❁5	-9.22495
you❃9	-9.22495
yi❄165	-9.22832
ting❂4	-9.22832
fei❂1	-9.2317
gu❃63	-9.2317
jian❃36	-9.2317
mai❄16	-9.2317
tao❂20	-9.2317
yu❄52	-9.2317
xiao❄22	-9.2317
lao❂11	-9.2317
pai❁0	-9.23509
xu❂1	-9.23509
hang❂13	-9.23509
jia❁8	-9.23509
fu❄39	-9.2419
yuan❄10	-9.2419
}	-9.2419
dian❃5	-9.24191
jian❃18	-9.24876
xuan❂15	-9.24876
zheng❁37	-9.24876
ji	-9.25066
hun❂11	-9.25562
xi❁51	-9.25567
zhou❁11	-9.25567
huo❄56	-9.2557
pian❁2	-9.25914
zun❁2	-9.25917
bi❄46	-9.26263
miao❂7	-9.26264
ban❁15	-9.26269
wei❄37	-9.26963
zhua❁0	-9.26963
an❄15	-9.26978
fu❄74	-9.27315
zheng❁15	-9.27315
{	-9.27315
fu❄48	-9.27669
zhu❄20	-9.28024
ze❂24	-9.28379
pang❂9	-9.2838
miao❃6	-9.28382
jun❄36	-9.28736
xiao❁29	-9.28736
fan❄22	-9.29095
ai❄35	-9.29451
dan❄43	-9.29455
jian❄17	-9.29455
tong❃9	-9.29455
xie❄84	-9.29816
du❄10	-9.29816
liang❄2	-9.29817
zhi❃22	-9.29819
❃	-9.30129
mo❂14	-9.30178
wei❂11	-9.30178
hui❄60	-9.30542
tao❂5	-9.30542
xu❄36	-9.30542
zhao❄18	-9.30906
❄3	-9.3107
pin❂15	-9.31273
」	-9.31273
fei❄34	-9.3164
guan❁5	-9.3164
ji❄59	-9.3164
gua❄3	-9.31641
ke❂0	-9.32009
shou❄9	-9.32009
wan❂12	-9.3238
shui❄11	-9.33499
ni❃11	-9.335
hua❂11	-9.33875
tan❄9	-9.33875
jian❁22	-9.33876
fu❂51	-9.34253
lie❄45	-9.34253
〔	-9.34253
di❂17	-9.34253
kan❁3	-9.34253
gua❁16	-9.34255
e❂39	-9.34631
jing❄44	-9.34631
ru❃0	-9.34631
di❂40	-9.34632
shou❄5	-9.34633
guo❁22	-9.35012
mo❂12	-9.35012
sen❁0	-9.35012
chang❂20	-9.35393
tian❂15	-9.35393
yi❂61	-9.35393
cu❄10	-9.35777
jin❁18	-9.36161
sha❁14	-9.36161
tou❄4	-9.36161
chen❂26	-9.36161
e	-9.36187
gong❁23	-9.36547
jie❂48	-9.36547
ji❁64	-9.36547
ji❂52	-9.36547
suo❃18	-9.36547
cai❂9	-9.36935
ji❄46	-9.36935
ling❂99	-9.36935
xiong❁12	-9.36935
gao❄3	-9.36937
chuang❂6	-9.37324
huang❂34	-9.37324
pu❃13	-9.37328
zhuan❁6	-9.37714
xuan❂11	-9.38107
bo❁10	-9.38107
xia❁10	-9.38107
nian❄4	-9.38107
she❂11	-9.38108
tui❃7	-9.385
yao❁15	-9.385
「	-9.385
lian❄22	-9.39292
mei❂43	-9.39292
you❂26	-9.39293
yu❄113	-9.39691
ting❂5	-9.39691
hui❄50	-9.40091
rong❂50	-9.40091
★	-9.40091
dun❄22	-9.40091
xi❁70	-9.40492
zhong❁19	-9.40492
gan❁19	-9.40896
jiu❄29	-9.413
ne❅	-9.413
′	-9.41691
yang❂10	-9.41707
feng❄3	-9.41708
zhao❁3	-9.42115
_	-9.42525
shen❃7	-9.42525
shi❂35	-9.42526
xian❂50	-9.42937
chi❄49	-9.43765
gui❃37	-9.43765
xuan❁9	-9.43765
bao❁6	-9.44181
chi❃33	-9.44181
zhi❁27	-9.44183
cai❂3	-9.446
ci❂22	-9.446
lou❄9	-9.446
zha❂8	-9.446
jie❄15	-9.4502
shi❄22	-9.4502
ya❁23	-9.4502
yi❃9	-9.4502
jian❃52	-9.45022
bai❄7	-9.45442
qiang❁13	-9.45442
shi❄60	-9.45442
yi❄214	-9.45442
zhen❄16	-9.45442
chao❂8	-9.45442
ba❄11	-9.45443
zhi❂16	-9.45443
lu❂23	-9.45866
ruo❄4	-9.45866
xiao❄14	-9.45874
gang❃4	-9.46291
jiao❁24	-9.46291
ying❂58	-9.46291
jian❄85	-9.46718
shu❁44	-9.46718
zhai❄4	-9.47148
tu❂28	-9.47148
hu❄36	-9.47573
ci❂31	-9.47579
cuo❄18	-9.47579
sang❁2	-9.48012
e❄47	-9.48444
lun❂5	-9.48446
yan❄75	-9.48446
zhong❁10	-9.48883
ping❂25	-9.48883
z	-9.48959
chen❂23	-9.49322
zhi❁39	-9.49322
tai❄6	-9.49323
qin❂25	-9.49762
wan❂3	-9.49762
xiang❂6	-9.49762
yan❂37	-9.49762
you❂16	-9.50205
pu❄3	-9.50206
lang❂28	-9.50649
qin❂12	-9.50649
jing❄11	-9.50649
dai❄20	-9.5065
yao❂43	-9.51095
〕	-9.51095
shu❁34	-9.51096
mu❃3	-9.51097
gui❁35	-9.51544
xun❄25	-9.51544
yi❃24	-9.51544
man❄12	-9.51994
xie❂14	-9.51994
bi❂5	-9.51996
dai❄35	-9.51999
dui❁14	-9.52447
±	-9.52447
jia❁10	-9.52448
mian❃10	-9.52448
ge❁8	-9.52453
\	-9.52901
pen❁1	-9.52901
zhu❄59	-9.52901
→	-9.52901
sui❄33	-9.53358
chen❁13	-9.53358
xie❂49	-9.53358
bang❁5	-9.54278
hui❄79	-9.54278
jiang❄22	-9.54278
lv❃30	-9.54278
yan❂20	-9.54278
cha❂12	-9.5428
sui❄29	-9.54741
tiao❄6	-9.54741
yin❃31	-9.54741
yu❄126	-9.54741
zong❄12	-9.54741
xie❂27	-9.54741
lang❄4	-9.54742
she❄23	-9.54742
run❄4	-9.55207
suo❃23	-9.55673
diao❁23	-9.56142
liang❂5	-9.56142
jin❃31	-9.56614
yu❃41	-9.56614
zhu❂18	-9.56614
xiang❁11	-9.57485
xian❃46	-9.57564
yang❂17	-9.57564
chu❃9	-9.57564
ma❃6	-9.57565
ting❂8	-9.57565
lao❁0	-9.58043
tan❄5	-9.58043
zhi❁43	-9.58043
cun❄2	-9.58045
lin❂43	-9.58523
wu❁8	-9.58524
cheng❂61	-9.59007
chong❁9	-9.59007
niao❄2	-9.59007
lu❄91	-9.59007
jiu❁16	-9.59492
xi❁65	-9.59492
ji❁80	-9.5998
ji❂81	-9.5998
pu❃7	-9.5998
xiang❁7	-9.5998
gu❄23	-9.6047
qi❃13	-9.60471
can❂17	-9.60964
fa❂19	-9.60964
che❃7	-9.61458
fan❄28	-9.61458
jing❁14	-9.61458
mi❂38	-9.61955
jian❁44	-9.62455
yan❁37	-9.62455
da❁12	-9.62455
liang❂11	-9.62958
mo❂9	-9.62958
hu❁17	-9.63455
min❃24	-9.63463
xi❁161	-9.63463
zu❁0	-9.63463
u	-9.63661
dian❄18	-9.6397
yu❃24	-9.6397
zui❄11	-9.6397
zhang❃2	-9.6397
gan❃8	-9.63973
gou❃3	-9.6398
m2	-9.63996
❄7	-9.64204
ban❁9	-9.64481
gou❄26	-9.64481
lin❂32	-9.64481
mou❂17	-9.64481
❂4	-9.64722
ci❂20	-9.64993
guai❄7	-9.64993
tong❂36	-9.64993
yin❃37	-9.64993
zui❃0	-9.64993
吗	-9.65509
hou❂10	-9.66027
ji❄48	-9.66027
liu❂33	-9.66029
di❁15	-9.66548
qi❁32	-9.66548
shi❄89	-9.66548
xian❄35	-9.66548
xin❁20	-9.66548
jian❄40	-9.66549
he❂52	-9.66551
bang❁13	-9.67071
chui❁1	-9.67071
he❂46	-9.67071
pin❄1	-9.67071
xian❂18	-9.67071
you❄21	-9.67072
ji❃13	-9.67073
cai❄6	-9.67598
fu❄65	-9.67598
lv❄9	-9.67598
bao❃10	-9.67598
wu❂11	-9.67601
su❄30	-9.68127
lin❂20	-9.68127
bin❁12	-9.68127
yi❂79	-9.6813
chuang❂5	-9.68659
luan❃0	-9.68659
nong❂10	-9.68659
jing❁11	-9.68659
fu❂22	-9.68661
shou❄3	-9.69193
xian❂27	-9.69194
chi❄45	-9.69194
bian❄43	-9.69731
xi❂9	-9.69731
jing❄19	-9.69731
sa❁2	-9.69734
mie❄10	-9.70272
❁3	-9.70428
bing❁5	-9.70815
jian❃48	-9.70815
lang❃9	-9.70815
han❄34	-9.71362
tu❁14	-9.71362
xiao❄12	-9.71362
yun❄27	-9.71362
du❄12	-9.71363
#	-9.71911
gui❁28	-9.71911
que❁0	-9.71911
han❄38	-9.72021
ding❃12	-9.72464
jian❁67	-9.72464
pen❂2	-9.72464
yuan❂53	-9.72464
mao❁0	-9.72464
dui❁9	-9.73019
ming❂26	-9.73019
li	-9.73359
pao❃0	-9.73578
luo❂18	-9.73579
an❄13	-9.73723
qi	-9.73742
kou❄7	-9.74139
xian❄61	-9.74139
tian❂8	-9.7414
su❄33	-9.7414
hai❄8	-9.74704
heng❂7	-9.74704
hui❁40	-9.74704
liang❄10	-9.74704
ran❃11	-9.74704
xun❂11	-9.74705
jing❃23	-9.74706
mian❂13	-9.75273
ge❂52	-9.75844
gun❃8	-9.75844
he❄35	-9.75844
li❃28	-9.75844
e❂11	-9.76298
nang❂2	-9.76419
piao❄5	-9.76419
zou❄2	-9.76419
xin❁17	-9.76422
dong❃8	-9.76997
fei❄18	-9.76997
hao❂25	-9.76997
yu❄31	-9.76997
zhen❁25	-9.76997
zuan❁4	-9.76997
zui❄15	-9.76997
huan❄19	-9.77
chu❄36	-9.77004
bai❃6	-9.77578
cang❁0	-9.77578
chou❁5	-9.77578
kai❃2	-9.77578
quan❂10	-9.77579
he❄27	-9.78163
hong❂67	-9.78163
hui❃8	-9.78163
qi❂104	-9.78163
di❄51	-9.78163
jue❂104	-9.78751
qi❃12	-9.78751
jin❁24	-9.78753
beng❄6	-9.79343
cha❁11	-9.79343
min❃13	-9.79343
nen❄4	-9.79343
≤	-9.79343
chuang❁11	-9.79938
ji❄121	-9.79938
si❁33	-9.79938
yu❄40	-9.79938
fei❁12	-9.79939
bin❁5	-9.79939
zhao❁4	-9.79939
jing❃27	-9.7994
zhi	-9.80474
c	-9.80505
ma❃8	-9.80537
yan❂72	-9.80537
fu❃34	-9.81139
lou❄2	-9.81139
nuan❃2	-9.81139
pan❁4	-9.81139
ying❂59	-9.81139
yu❄42	-9.81139
|	-9.81139
miao❄0	-9.8114
huai❄0	-9.81746
lian❄27	-9.81746
qiang❁24	-9.81746
ban❄13	-9.81748
ban❄11	-9.82355
cao❁3	-9.82355
〉	-9.82355
ping❂10	-9.82355
jing❄17	-9.82356
fang❁2	-9.82358
❄2	-9.82619
chong❂5	-9.82969
chui❂5	-9.82969
zu❃11	-9.82969
zha❁9	-9.82969
di❄27	-9.8297
cu❄30	-9.83586
ju❄30	-9.83586
lian❃12	-9.83586
tan❂20	-9.83586
kuang❂3	-9.83587
bao❁9	-9.84207
bi❄100	-9.84207
da❂24	-9.84207
huo❄61	-9.84207
man❄11	-9.84207
wu❄44	-9.84207
❄4	-9.84429
a❁2	-9.84779
jin❁17	-9.84832
zao❁7	-9.84832
hu❄14	-9.84833
ao❄25	-9.85461
bai❃4	-9.85461
bi❄157	-9.85461
fan❄17	-9.85461
gang❁23	-9.85461
lan❄6	-9.85461
bai❄15	-9.86094
bao❄11	-9.86094
jian❄77	-9.86094
nian❂9	-9.86094
shen❁23	-9.86094
zhen❄33	-9.86094
hu❂22	-9.86094
pi❂22	-9.86094
mu❄10	-9.86731
cao❂8	-9.86733
fang❁9	-9.86733
lei❃25	-9.87372
lian❄8	-9.87372
suan❄4	-9.87372
yu❄109	-9.87372
shang❃6	-9.87372
fan❂35	-9.88017
wang❂0	-9.88017
xin❁25	-9.88017
zhai❁3	-9.88017
zhong❄3	-9.88017
suo❁15	-9.88018
gao❃5	-9.88022
hou❄5	-9.88663
fu❂38	-9.88667
jiang❁11	-9.88667
ji❂107	-9.88667
xie❂48	-9.88667
xiong❂1	-9.88667
xu❄69	-9.88667
wei❃14	-9.88667
gu	-9.89091
ji❄63	-9.8932
ni❄27	-9.89321
xiu❁9	-9.89323
❂5	-9.89677
dang❄12	-9.89978
duo❃21	-9.89978
fu❄24	-9.89978
ge❂54	-9.89978
guan❄33	-9.89978
jing❄46	-9.89978
bang❄9	-9.9064
ta❄43	-9.9064
xiao❃3	-9.9064
cao❂10	-9.9064
teng❂14	-9.90641
du❄21	-9.90641
he❁5	-9.90642
ce❄26	-9.91307
hun❂21	-9.91307
niang❂0	-9.91307
seng❁1	-9.91307
tu❂25	-9.91307
xi	-9.91517
long❄5	-9.91978
zhuang❄0	-9.91978
zeng❄6	-9.91979
xing❂7	-9.9198
heng❂14	-9.92654
meng❄7	-9.92654
xiang❃5	-9.92654
xie❁3	-9.92655
ai❁5	-9.93331
chen❂15	-9.93334
fang❃18	-9.93334
gai❄22	-9.93334
gou❃2	-9.93334
kuo❄15	-9.93334
lv❄11	-9.93334
xue❂14	-9.93334
ding❄15	-9.93338
bing❃29	-9.93354
hu❁13	-9.93875
an❁18	-9.94014
duo❂3	-9.94019
fang❃6	-9.94019
jin❄38	-9.94019
li❂41	-9.94019
shu❁38	-9.94019
yi❄183	-9.94019
yue❄41	-9.94019
wang❄2	-9.94019
wei❂51	-9.94709
ben❃9	-9.95403
keng❁7	-9.95403
qing❁7	-9.95403
rou❂6	-9.95403
ru❂7	-9.95403
tai❁4	-9.95403
xiao❁51	-9.95403
xi❂12	-9.95403
shen❁5	-9.95404
bing❃9	-9.96102
gui❁46	-9.96102
jian❄56	-9.96102
lie❄34	-9.96102
su❂0	-9.96102
tan❃4	-9.96102
xia❂45	-9.96102
hong❂21	-9.96105
jia❃17	-9.96106
ya❂18	-9.96108
yuan❄14	-9.96151
can❁13	-9.96167
y	-9.96492
bao❄12	-9.96807
guan❄31	-9.96807
rao❄2	-9.96807
tan❂21	-9.96807
wu❄48	-9.96807
ping❂7	-9.96808
❄6	-9.97374
jian❃19	-9.97516
xian❂54	-9.97516
tang❄2	-9.97516
jian❁17	-9.97517
feng❄7	-9.97518
❄5	-9.98112
cang❁14	-9.9823
ge❂38	-9.9823
mao❄39	-9.9823
tan❁12	-9.9823
wang❄3	-9.9823
xi❁124	-9.98231
jie❄24	-9.98949
qian❁61	-9.98949
xi❁87	-9.98949
yu❂34	-9.98949
ci❄23	-9.9895
hang❂8	-9.98952
man❄13	-9.98955
bi❄98	-9.99674
cui❄30	-9.99674
fu❂41	-9.99674
guan❄23	-9.99674
lian❂30	-9.99674
lin❂51	-9.99674
ying❁67	-9.99674
jun❄13	-9.99674
bi❄145	-10.004
ji❂67	-10.004
mu❄20	-10.004
shu❃23	-10.004
tao❂17	-10.004
xiao❄23	-10.004
di❃10	-10.0041
23	-10.0087
zhou❁17	-10.0114
lai❄19	-10.0114
fu❃28	-10.0188
yan❁34	-10.0188
zhe❄9	-10.0188
piao❁11	-10.0188
shui❄9	-10.0188
ba❂11	-10.0263
huang❁9	-10.0263
liao❂37	-10.0263
qing❁3	-10.0263
qi❁15	-10.0263
chai❁2	-10.0263
liao❂24	-10.0263
chan❂33	-10.0263
jing❄30	-10.0338
ken❃6	-10.0338
pei❂3	-10.0338
ze❂44	-10.0338
yong❃6	-10.0338
huan❁7	-10.0338
ou❃3	-10.0412
dao❄11	-10.0414
ji❄83	-10.0414
li❂98	-10.0414
shu❄47	-10.0414
xian❄51	-10.0414
yue❄21	-10.0414
huan❃7	-10.0414
jun❁3	-10.0414
❃3	-10.044
qi❄34	-10.049
qi❄43	-10.049
〈	-10.049
kao❃6	-10.049
xie❄80	-10.049
lang❂17	-10.049
yu	-10.052
tong❂22	-10.0567
you❁9	-10.0567
lu❂10	-10.0567
mai❂5	-10.0644
mao❄32	-10.0644
ˊ	-10.0644
◆	-10.0644
wen❃10	-10.0644
yan❄45	-10.0644
deng❄8	-10.0644
tong❃5	-10.0644
pi❁12	-10.0644
tun❂3	-10.0645
di❂41	-10.0722
gang❁24	-10.0722
hou❂11	-10.0722
jing❄31	-10.0722
ning❂6	-10.0722
qiu❁8	-10.0722
tu❃0	-10.0722
bo❁8	-10.0723
yu❄115	-10.0723
shu❄27	-10.0723
sou❁13	-10.0723
lv❄12	-10.0801
tan❂8	-10.0801
xiang❄10	-10.0801
bian❃4	-10.0801
ke❁7	-10.0801
shan❁13	-10.0805
qing❁1	-10.0875
dong❃6	-10.0881
fan❁11	-10.0881
fu❄57	-10.0881
jue❂33	-10.0881
kuang❁9	-10.0881
mei❂30	-10.0881
ren❄30	-10.0881
ru❃2	-10.0881
xuan❁39	-10.0881
xuan❂9	-10.0881
shi❁20	-10.0881
geng❃8	-10.0881
wei❂21	-10.0881
hun❁4	-10.0961
jiang❃16	-10.0961
lian❄17	-10.0961
wo❄8	-10.0961
xian❁39	-10.0961
wa❁10	-10.0961
chu❃3	-10.0961
chang❂14	-10.1041
jiao❁21	-10.1041
zhong❃7	-10.1041
pan❄10	-10.1041
ju❄14	-10.1041
pi❁7	-10.1041
ji❁54	-10.1042
m	-10.1055
13	-10.1104
ban❄3	-10.1123
feng❁52	-10.1123
fu❄32	-10.1123
jiao❁22	-10.1123
meng❂34	-10.1123
she❂9	-10.1123
wei❂7	-10.1123
yu❂66	-10.1123
qiao❃3	-10.1123
zha❁16	-10.1123
teng❂13	-10.1123
ku	-10.1142
diao❄5	-10.1205
he❄26	-10.1205
xi❂22	-10.1205
zei❂3	-10.1205
dan❄30	-10.1205
lv❃7	-10.1205
15	-10.1278
zan❄17	-10.1287
san❃5	-10.1287
jing❁31	-10.1312
chi❂13	-10.137
da❁17	-10.137
li❄155	-10.137
qiong❂28	-10.137
ran❂13	-10.1371
pin❁3	-10.1371
wan❁7	-10.1371
ye❁8	-10.1371
gong❄9	-10.1455
hou❄10	-10.1455
la❄28	-10.1455
xi❁107	-10.1455
zuo❃1	-10.1455
she❂3	-10.1455
zao❃3	-10.1455
hen❄1	-10.1467
ca❁4	-10.1539
ji❄120	-10.1539
na❄28	-10.1539
shuang❁11	-10.1539
xiang❃3	-10.1539
zhai❂1	-10.1539
nai❃2	-10.1539
wo❁5	-10.154
ju❃9	-10.154
wo❄16	-10.154
kun❁9	-10.154
dian❄7	-10.1625
gao❃12	-10.1625
mai❄12	-10.1625
qi❄23	-10.1625
que❄26	-10.1625
huan❄18	-10.1625
ju❄45	-10.1625
du❁8	-10.1625
zhi❃13	-10.1625
dao❄14	-10.1626
❁1	-10.1692
e❂45	-10.1711
fan❃4	-10.1711
han❂15	-10.1711
luo❄24	-10.1711
mao❄16	-10.1711
pin❂12	-10.1711
xue❁2	-10.1711
qiao❂5	-10.1711
she❄13	-10.1711
na❄15	-10.1711
lv❃9	-10.1711
chun❂23	-10.1711
zi❁9	-10.1712
ang❂7	-10.1748
ai❂12	-10.1798
cu❄9	-10.1798
die❂19	-10.1798
hao❄23	-10.1798
pa❄1	-10.1798
wang❁6	-10.1798
xiong❁2	-10.1798
yue❄48	-10.1798
ㄨ	-10.1798
she❄17	-10.1798
ge❁6	-10.1799
jia	-10.1848
ba❄25	-10.1886
e❄81	-10.1886
xiang❂11	-10.1886
bing❃2	-10.1972
che❄24	-10.1974
pa❄0	-10.1974
qian❂22	-10.1974
yi❄226	-10.1974
zhi❁44	-10.1974
μ	-10.1974
feng❁43	-10.1974
zong❁24	-10.1974
meng❃3	-10.1974
liu❂31	-10.1975
du	-10.2022
❄8	-10.2037
bao❄15	-10.2063
ci❂35	-10.2063
ku❁14	-10.2063
tuo❁8	-10.2063
ya❂7	-10.2063
yi❄225	-10.2063
zang❄4	-10.2063
ming❂24	-10.2063
you❁10	-10.2063
wei❁10	-10.2063
pan❄2	-10.2064
gan❄19	-10.2065
he❄23	-10.2153
bi❄117	-10.2153
gao❁16	-10.2153
juan❁9	-10.2153
pei❄5	-10.2153
shai❄1	-10.2153
xia❂13	-10.2153
di❁11	-10.2154
14	-10.2172
xu	-10.2176
hu	-10.219
dong❄11	-10.2244
jia❄9	-10.2244
ji❃22	-10.2244
mao❄37	-10.2244
xiu❄11	-10.2244
yu❂108	-10.2244
yu❄54	-10.2244
tian❁7	-10.2244
ji❂75	-10.2245
shu	-10.2271
xu❄68	-10.2336
yao❂32	-10.2336
yu❄104	-10.2336
yu❄105	-10.2336
qiang❃2	-10.2336
cong❂5	-10.2336
tu❄1	-10.2336
dun❄9	-10.2336
shou❄15	-10.2337
shua❁1	-10.2343
pi	-10.2372
mi	-10.2386
shi	-10.2427
fu❂62	-10.2429
gan❃19	-10.2429
shao❂3	-10.2429
xing❄12	-10.2429
zai❁4	-10.2429
chai❂6	-10.2429
hu❄46	-10.243
kun❄1	-10.2522
qi❂48	-10.2522
tan❄8	-10.2522
zhu❂24	-10.2522
≥	-10.2522
quan❃3	-10.2522
ge❁11	-10.2522
gu❁11	-10.2522
ju❂38	-10.2522
jin❁26	-10.2522
shi❄20	-10.2522
❃1	-10.2589
lan❃28	-10.2617
yao❂55	-10.2617
zhen❄31	-10.2617
ˋ	-10.2617
hui❄51	-10.2617
zha❂16	-10.2617
zhao❄9	-10.2617
gong❃12	-10.2617
jia❄3	-10.2617
an❄19	-10.271
ci❂24	-10.2712
gan❁7	-10.2712
mu❄24	-10.2712
qi❁22	-10.2712
zhen❁44	-10.2713
s	-10.2775
feng❂5	-10.2808
han❄43	-10.2808
sao❃3	-10.2808
sha❁17	-10.2808
mi❄45	-10.2808
ting❂9	-10.2808
bi❄73	-10.2905
cui❁16	-10.2905
die❂56	-10.2905
jin❄20	-10.2905
ling❂36	-10.2905
xiang❂9	-10.2905
bang❃2	-10.2905
tiao❁4	-10.2905
ben❁2	-10.2906
❂6	-10.2965
cheng❁18	-10.3003
mi❂37	-10.3003
peng❂37	-10.3003
shao❄12	-10.3003
you❄32	-10.3003
shai❁2	-10.3003
ti❄21	-10.3003
yuan❂26	-10.3003
chun❂11	-10.3005
xian	-10.3031
bi❄144	-10.3102
chou❂29	-10.3102
huai❂8	-10.3102
lan❂25	-10.3102
weng❁6	-10.3102
yan❄67	-10.3102
ying❄7	-10.3102
zong❁16	-10.3102
ting❃4	-10.3102
nao❄3	-10.3103
bei❁6	-10.3202
fu❃16	-10.3202
tan❂30	-10.3202
yu❂67	-10.3202
zhai❁2	-10.3202
zhan❃16	-10.3202
shan❃11	-10.3206
]	-10.3303
fang❃15	-10.3303
hao❄35	-10.3303
mian❂22	-10.3303
shu❃12	-10.3303
xun❂16	-10.3303
quan❄2	-10.3303
d	-10.338
hu❂43	-10.3405
cai❂7	-10.3405
chang❄9	-10.3405
feng❂17	-10.3405
jie❂42	-10.3405
mo❄75	-10.3405
xun❄30	-10.3405
kan❃7	-10.3405
hong❂25	-10.3405
ao❁4	-10.3506
he❂47	-10.3508
ling❂114	-10.3508
xun❄26	-10.3508
yao❁19	-10.3508
yi❄144	-10.3508
zhuan❄6	-10.3508
shao❄10	-10.3508
shan❃12	-10.3508
gu❁9	-10.3508
chi	-10.3508
han❄29	-10.3509
mei❃16	-10.3612
nai❄2	-10.3612
qian❁35	-10.3612
yi❂58	-10.3612
zan❄5	-10.3612
peng❂8	-10.3612
lei❄10	-10.3612
11	-10.367
an❁16	-10.3713
chou❄2	-10.3718
jian❄50	-10.3718
lin❂25	-10.3718
lu❄53	-10.3718
na❃2	-10.3718
sheng❂5	-10.3718
su❁13	-10.3718
fei❄27	-10.3718
chu❄29	-10.3718
tong❃3	-10.3718
tu❁4	-10.3718
zhang❄19	-10.3718
fan❄15	-10.3718
xiao❁8	-10.3718
dang❄23	-10.3824
ji❃15	-10.3824
kuo❄17	-10.3824
qian❁39	-10.3824
qu❁49	-10.3824
zhao❄24	-10.3824
pi❄14	-10.3824
wu❄26	-10.3824
yao❄11	-10.3824
[	-10.3932
jie❂40	-10.3932
tao❂9	-10.3932
zhai❃2	-10.3932
zhao❄30	-10.3932
ku❁9	-10.3932
zhe❂16	-10.3932
❃4	-10.3942
fu❂48	-10.404
jie❄13	-10.404
qian❂46	-10.404
qiong❂23	-10.404
sang❄0	-10.404
xie❂24	-10.404
xie❄55	-10.404
xing❄15	-10.404
zai❃4	-10.404
peng❂26	-10.404
ren❃1	-10.404
mi❄33	-10.404
shu❁12	-10.404
ci❂26	-10.415
cui❃3	-10.415
die❁4	-10.415
fa❂5	-10.415
ji❂94	-10.415
ji❄55	-10.415
shu❃16	-10.415
shuai❄1	-10.415
yong❁17	-10.4151
20	-10.416
chuan❄0	-10.4261
nu❂1	-10.4261
pan❂4	-10.4261
xi❁46	-10.4261
◎	-10.4261
bo❁13	-10.4261
chong❁20	-10.4261
zai❁1	-10.4262
a❁3	-10.4303
❁5	-10.4372
ci❂15	-10.4374
gui❃35	-10.4374
xian❄63	-10.4374
xing❃5	-10.4374
xin❁24	-10.4374
ying❂36	-10.4374
zhuo❁8	-10.4374
ㄧ	-10.4374
mao❂18	-10.4374
xun❂14	-10.4374
qiu❁27	-10.4374
bi	-10.4397
❁4	-10.442
chou❃1	-10.4487
hong❂54	-10.4487
ju❄39	-10.4487
kuo❄7	-10.4487
nu❄2	-10.4487
rong❂36	-10.4487
shao❄5	-10.4487
qian❃14	-10.4487
zao❃9	-10.4488
xin❁13	-10.4488
10	-10.449
dan❁15	-10.4491
fu	-10.4557
chen❂38	-10.4602
chi❂48	-10.4602
qi❃21	-10.4602
tou❁0	-10.4602
zhuo❂8	-10.4602
○	-10.4602
jie❁32	-10.4602
ta❄26	-10.4602
lu	-10.4612
l	-10.4705
bao❄29	-10.4718
bo❅0	-10.4718
dun❁4	-10.4718
yue❄56	-10.4718
zang❄7	-10.4718
zhen❃27	-10.4718
bo❂40	-10.4719
cui❄32	-10.4719
zhao❃5	-10.4719
xia❂10	-10.4719
yan❁17	-10.4719
yang❃4	-10.4719
jie❂27	-10.4719
yuan❁16	-10.4719
′′	-10.4721
ji❄35	-10.4836
pao❁3	-10.4836
pa❂3	-10.4836
pu❂20	-10.4836
sou❁9	-10.4836
tao❁16	-10.4836
tao❃3	-10.4836
yu❄28	-10.4836
shi❄19	-10.4836
22	-10.4853
chao❂3	-10.4955
jue❂76	-10.4955
tie❁0	-10.4955
zhu❄35	-10.4955
zhang❄2	-10.4955
bi❃17	-10.4955
ti❁6	-10.4955
yun❄7	-10.4956
ao❁8	-10.5041
gou❁23	-10.5076
kong❃2	-10.5076
la❄20	-10.5076
mi❂15	-10.5076
po❄12	-10.5076
rong❂43	-10.5076
sha❁18	-10.5076
shuang❃7	-10.5076
shu❄35	-10.5076
yi❂28	-10.5076
zhuang❄3	-10.5076
ˇ	-10.5076
ke❁8	-10.5076
gu❁25	-10.5077
zou❁8	-10.5081
di	-10.516
hu❁23	-10.5197
bei❄55	-10.5198
cheng❂45	-10.5198
dang❃3	-10.5198
pu❂22	-10.5198
yan❁27	-10.5198
wei❃15	-10.5198
jie❁15	-10.5198
qu❄11	-10.5198
ni	-10.5201
❄20	-10.5216
zhu	-10.5273
kuang❄1	-10.5317
jiao❃52	-10.5321
mo❃2	-10.5321
qin❂28	-10.5321
shan❄22	-10.5321
yue❄25	-10.5321
zhe❁4	-10.5321
ji❂74	-10.5322
zhe	-10.5349
ban❁7	-10.5446
fu❁39	-10.5446
hui❁15	-10.5446
qu❁29	-10.5446
wu❁17	-10.5446
zhi❃40	-10.5446
dai❄45	-10.5446
luo❂15	-10.5446
chan	-10.5461
ba	-10.5504
ao❄9	-10.5572
die❂47	-10.5573
gua❁8	-10.5573
ku❄18	-10.5573
long❃12	-10.5573
rong❂48	-10.5573
α	-10.5573
の	-10.5573
qiao❁28	-10.5573
dun❄20	-10.5573
sun❃7	-10.5573
❄12	-10.5641
bao❁2	-10.5701
ding❁12	-10.5701
dun❁9	-10.5701
geng❁17	-10.5701
lin❂53	-10.5701
mei❂47	-10.5701
qu❁17	-10.5701
xie❄54	-10.5701
yong❃8	-10.5701
xie❄51	-10.5701
❂8	-10.5738
la❁4	-10.5831
qin❁16	-10.5831
rui❄20	-10.5831
song❄11	-10.5831
yu❄35	-10.5831
yu❄87	-10.5831
25	-10.5857
ta	-10.5957
gang❁5	-10.5962
ling❂62	-10.5962
ling❂95	-10.5962
rou❂5	-10.5962
wan❃24	-10.5962
yi❄103	-10.5962
yu❃38	-10.5962
bian❄38	-10.5962
yao❂22	-10.5962
sun❃4	-10.5963
po❂3	-10.5963
❁10	-10.5977
qu	-10.6094
chao❁11	-10.6096
dan❄27	-10.6096
fu❃24	-10.6096
gou❄10	-10.6096
hun❄10	-10.6096
yi❂44	-10.6096
yi❄137	-10.6096
bi❄51	-10.6096
ba❄21	-10.6096
wu❃15	-10.6096
ai❁1	-10.6229
❄16	-10.623
chui❂10	-10.6231
ka❁2	-10.6231
du❃11	-10.6231
rao❂9	-10.6231
xiang❁25	-10.6232
ti	-10.6246
sh	-10.6298
chou❂20	-10.6368
feng❁21	-10.6368
gong❁19	-10.6368
long❂40	-10.6368
shuo❄15	-10.6368
ya❄29	-10.6368
niu❃9	-10.6368
bi❁12	-10.6368
mei❄5	-10.6368
ge❄9	-10.6368
li❄98	-10.6368
dian❄24	-10.6368
bo❂52	-10.6368
38	-10.6437
fen❁19	-10.6507
gou❁9	-10.6507
chen❂20	-10.6507
yong❁33	-10.6507
wu❄14	-10.6507
yao❂20	-10.6507
shen❄5	-10.6507
lang❂12	-10.6507
jia❃19	-10.6507
yu❂96	-10.6507
❄1	-10.654
wu	-10.6635
yi❄1	-10.6643
gai❄11	-10.6647
jia❁30	-10.6647
ruan❃18	-10.6647
su❄67	-10.6647
tuo❂31	-10.6647
xu❄73	-10.6647
yao❂42	-10.6647
zhuan❄9	-10.6647
can❂19	-10.6648
yao❁8	-10.6648
h	-10.6662
bao❁7	-10.679
chong❃2	-10.679
chun❂13	-10.679
lei❃29	-10.679
sui❂8	-10.679
yu❂61	-10.679
zhang❄5	-10.679
zh	-10.6811
hui	-10.6828
p	-10.6927
ben❃3	-10.6935
cha❁5	-10.6935
tan❁9	-10.6935
xiang❄12	-10.6935
xian❄66	-10.6935
yu❂46	-10.6935
zai❁0	-10.6935
zhi❄64	-10.6935
tan❁18	-10.6935
hui❁12	-10.6935
jiao❃22	-10.6935
bu❃9	-10.6936
wu❃11	-10.6937
kan❃12	-10.6937
xi❁1	-10.6956
cui❁6	-10.7082
li❄68	-10.7082
mao❄18	-10.7082
qu❁40	-10.7082
tu❂38	-10.7082
zhan❁12	-10.7082
zhui❁6	-10.7082
zi❃17	-10.7082
ni❁	-10.7083
shan❁16	-10.7083
bin	-10.7085
❄11	-10.7117
chui❂16	-10.7232
hou❂13	-10.7232
le❄16	-10.7232
lu❂14	-10.7232
mang❂29	-10.7232
peng❂12	-10.7232
shu❃14	-10.7232
song❄8	-10.7232
tan❄3	-10.7232
ti❂30	-10.7232
xi❁135	-10.7232
xi❁56	-10.7232
yi❃11	-10.7232
zao❄6	-10.7232
ze❂19	-10.7232
―	-10.7232
tai❄11	-10.7232
tai❁5	-10.7232
chan❂40	-10.7232
yang❁4	-10.7232
fei❁4	-10.7233
❁6	-10.7251
❄10	-10.7276
ju	-10.7355
tu	-10.7382
bao❁5	-10.7383
cong❁36	-10.7383
hun❂10	-10.7383
qian❁52	-10.7383
yao❃16	-10.7383
ye❂4	-10.7383
zhi❂22	-10.7383
Ω	-10.7383
ー	-10.7383
zhen❃12	-10.7383
hen❂2	-10.7537
guan❄12	-10.7537
hao❂14	-10.7537
jiu❁19	-10.7537
peng❂11	-10.7537
sui❂6	-10.7537
su❄58	-10.7537
zhuang❁3	-10.7537
∶	-10.7537
li❁	-10.7537
wo❄12	-10.7538
xiang❁19	-10.7614
ch	-10.7627
dian❁12	-10.7693
di❄58	-10.7693
jie❂63	-10.7693
ji❂58	-10.7693
li❂53	-10.7693
qia❄9	-10.7693
se❄23	-10.7693
ting❃12	-10.7693
yan❄43	-10.7693
yin❂12	-10.7693
β	-10.7693
–	-10.7693
hu❂26	-10.7693
qian❄21	-10.7694
kun❁4	-10.7695
❁	-10.7739
bi❄1	-10.7776
❂31	-10.7784
18	-10.779
b	-10.78
29	-10.7817
^	-10.7852
gao❁13	-10.7852
gong❁20	-10.7852
mang❂15	-10.7852
nie❄68	-10.7852
qing❂8	-10.7852
qu❃2	-10.7852
shen❄9	-10.7852
tai❂13	-10.7852
xie❄37	-10.7852
yu❂118	-10.7852
zhuang❁0	-10.7852
】	-10.7852
chuang❁8	-10.7852
quan❄1	-10.7852
yu❄67	-10.7853
II	-10.8013
ai❃12	-10.8013
dao❃12	-10.8013
fan❁4	-10.8013
geng❁4	-10.8013
han❂25	-10.8013
mu❄13	-10.8013
sheng❄1	-10.8013
xie❁5	-10.8013
jian❁19	-10.8013
du❃3	-10.8014
jue❂	-10.8033
cu	-10.8079
yao	-10.816
chu❂15	-10.8177
fu❄72	-10.8177
ji❁37	-10.8177
zheng❄11	-10.8177
yan❄25	-10.8177
miao❂5	-10.8178
ying❃24	-10.8178
huan	-10.8235
bian❁22	-10.8344
bian❄39	-10.8344
qi❂61	-10.8344
si❄26	-10.8344
yin❁30	-10.8344
zao❂1	-10.8344
zhan❃22	-10.8344
ke❃10	-10.8344
shi❂19	-10.8344
wei❃48	-10.8345
24	-10.8466
cang❁7	-10.8513
chuang❃7	-10.8513
jiao❁41	-10.8513
kui❂21	-10.8513
yun❃7	-10.8513
ン	-10.8513
geng❃11	-10.8513
zi❁13	-10.8513
xun❁3	-10.8513
gua❄0	-10.8514
jiang❄3	-10.8514
fa❂13	-10.8514
f	-10.854
@	-10.8686
kui❂35	-10.8686
mang❂25	-10.8686
xiong❁4	-10.8686
yan❂41	-10.8686
yuan❄9	-10.8686
guo❃11	-10.8686
kan❃4	-10.8686
shi❁9	-10.8686
zhang❄18	-10.8686
yi❄113	-10.8686
zun❁7	-10.8686
xin❁18	-10.8687
❂10	-10.8778
❁20	-10.8785
❄27	-10.8848
heng❁0	-10.8861
ji❁66	-10.8861
lan❂36	-10.8861
li❄108	-10.8861
nie❄42	-10.8861
po❄21	-10.8861
yi❄104	-10.8861
zao❄5	-10.8861
zhai❄2	-10.8861
◇	-10.8861
e❂13	-10.8861
jia❁4	-10.8862
❃10	-10.8907
❄26	-10.8986
❂35	-10.9019
❃6	-10.9024
❃7	-10.9031
bao❃27	-10.904
kui❂10	-10.904
yin❃11	-10.904
fan❂26	-10.904
dou❄13	-10.904
wen❃3	-10.904
ye❁6	-10.9041
xi❁99	-10.9041
fei❃3	-10.9042
qiao❄14	-10.9044
❄13	-10.9118
yan	-10.9127
ang❄2	-10.9132
chu	-10.9139
zhen❁4	-10.9218
bang❄14	-10.9222
chi❂55	-10.9222
cui❁3	-10.9222
fan❄12	-10.9222
hui❄34	-10.9222
jin❁15	-10.9222
lia❃0	-10.9222
men❄9	-10.9222
mo❁	-10.9222
xiao❁42	-10.9222
ya❁22	-10.9222
yi❂54	-10.9222
xia❂21	-10.9222
lv❃11	-10.9222
zhang❄15	-10.9222
ke	-10.9394
su	-10.9396
cheng	-10.9406
bu❄21	-10.9407
chou❂12	-10.9407
chou❂28	-10.9407
duo❄9	-10.9407
fu❁22	-10.9407
gua❃7	-10.9407
hu❂47	-10.9407
jie❃1	-10.9407
lu❄92	-10.9407
man❂21	-10.9407
rao❃1	-10.9407
shi❂32	-10.9407
tong❂44	-10.9407
zhang❁9	-10.9407
dun❄11	-10.9407
liao❂29	-10.9407
zi❁23	-10.9407
lu❃4	-10.9407
lin	-10.9449
bao❄20	-10.9595
bi❄87	-10.9595
cang❁12	-10.9595
cheng❂13	-10.9595
cheng❂38	-10.9595
fou❃0	-10.9595
nong❂17	-10.9595
qin❁5	-10.9595
shi❄74	-10.9595
tao❂13	-10.9595
xiu❄19	-10.9595
xu❄43	-10.9595
☆	-10.9595
【	-10.9595
ya❅	-10.9595
peng❃1	-10.9595
hun❁7	-10.9595
❁7	-10.9637
30	-10.9702
yin	-10.975
❄21	-10.9771
lei	-10.9784
hai❁6	-10.9788
huo❄44	-10.9788
ju❁17	-10.9788
pei❂12	-10.9788
xi❁81	-10.9788
ying❁11	-10.9788
yin❁29	-10.9788
yi❄159	-10.9788
tai❄15	-10.9788
fu❄26	-10.9788
dian❄19	-10.9788
zhang❁10	-10.9789
fan❁15	-10.9791
bei❁5	-10.9984
bing❃15	-10.9984
fen❁17	-10.9984
jiang❁16	-10.9984
ling❂80	-10.9984
li❄153	-10.9984
mei❂12	-10.9984
ni❄24	-10.9984
ping❂31	-10.9984
bin❁7	-10.9984
sha❄6	-10.9984
shu❁26	-10.9984
bian❁3	-10.9984
shu❁23	-10.9984
fan❂22	-10.9984
ge❁	-11.0058
❁26	-11.0087
❃17	-11.012
chong❂8	-11.0184
chu❃14	-11.0184
fen❂7	-11.0184
meng❂40	-11.0184
wan❄11	-11.0184
yan❂69	-11.0184
ya❁14	-11.0184
ye❃2	-11.0184
zhi❃37	-11.0184
ken❃1	-11.0184
you❄28	-11.0184
jing❁16	-11.0184
ju❂27	-11.0184
chen❄10	-11.0184
lao❂23	-11.0184
kan❁4	-11.0184
zi❁15	-11.0184
lang❂18	-11.0184
zhou❄22	-11.0184
qi❂34	-11.0184
yuan❂21	-11.0185
zi❃9	-11.0185
❁8	-11.0249
❂16	-11.0321
zha	-11.0321
bi❄126	-11.0388
ge❁33	-11.0388
jian❄58	-11.0388
lan❃17	-11.0388
pang❄1	-11.0388
wei❄22	-11.0388
xu❄32	-11.0388
yi❄239	-11.0388
ma❄19	-11.0388
tu❂20	-11.0388
qi❂36	-11.0388
lv❂10	-11.0389
si❄16	-11.0389
yan❄19	-11.0389
meng❃10	-11.039
❁9	-11.0484
han❃12	-11.0595
ou❃11	-11.0596
chao❁14	-11.0596
duo❃28	-11.0596
lei❃14	-11.0596
qi❄22	-11.0596
shi❄84	-11.0596
shuo❄7	-11.0596
tan❂19	-11.0596
wa❂0	-11.0596
wei❂13	-11.0596
xun❂42	-11.0596
ying❁24	-11.0596
zhi❁40	-11.0596
suo❁11	-11.0596
shi❄26	-11.0597
zhi❃20	-11.0597
pan❄3	-11.0597
yong❁14	-11.0597
e❄1	-11.0691
ma	-11.0802
wei	-11.0803
bang❄6	-11.0809
bao❁10	-11.0809
bing❃10	-11.0809
gan❃13	-11.0809
jiao❁11	-11.0809
jiu❃8	-11.0809
ji❂93	-11.0809
ji❄47	-11.0809
ku❄15	-11.0809
ou❁15	-11.0809
pian❄3	-11.0809
qin❄10	-11.0809
shun❄8	-11.0809
su❄55	-11.0809
xing❂17	-11.0809
yi❂42	-11.0809
dian❃15	-11.0809
si❄32	-11.0809
wei❄19	-11.0809
hao❃1	-11.0809
piao❁4	-11.0811
shu❃8	-11.0812
jian❁	-11.0917
hao❁1	-11.099
ling❂	-11.1024
che❄20	-11.1026
di❂23	-11.1026
lan❂28	-11.1026
mian❂16	-11.1026
niang❄1	-11.1026
nu❃1	-11.1026
wang❄1	-11.1026
wan❂11	-11.1026
yan❃45	-11.1026
yi❂65	-11.1026
yun❁2	-11.1026
zhang❃3	-11.1026
wu❁9	-11.1027
gan❃7	-11.1027
jun❁24	-11.1112
diao❄23	-11.1249
nan❂13	-11.1249
qing❃10	-11.1249
shu❁29	-11.1249
xun❄28	-11.1249
yong❃22	-11.1249
■	-11.1249
chen❄14	-11.1249
dian❁19	-11.1249
hai❄5	-11.1249
hong❁12	-11.1249
pi❁9	-11.1249
hu❂36	-11.1249
rang❃3	-11.125
han❃15	-11.1268
❄19	-11.1275
li❄1	-11.1315
i❄9	-11.134
❁25	-11.1357
❁11	-11.1402
she	-11.143
❂29	-11.1451
cha❄11	-11.1476
jiao❃51	-11.1476
lie❄21	-11.1476
rong❂47	-11.1476
wei❄34	-11.1476
zao❄8	-11.1476
zhi❄68	-11.1476
zhu❁22	-11.1476
〗	-11.1476
qiao❄20	-11.1476
tang❂18	-11.1476
ting❁10	-11.1476
qun❂7	-11.1476
pi❁6	-11.1476
shan❁23	-11.1476
cuo❁0	-11.1477
fu❂77	-11.1477
kui❁2	-11.1477
nie❄47	-11.1477
xun❂	-11.1482
32	-11.1584
an❄1	-11.1648
qian❁	-11.1706
$	-11.1708
bu❄34	-11.1708
cai❃10	-11.1708
gun❄2	-11.1708
mu❄14	-11.1708
xian❂44	-11.1708
xun❁15	-11.1708
zhuo❂28	-11.1708
zhu❄53	-11.1708
zi❁21	-11.1708
¥	-11.1708
か	-11.1708
zhan❁17	-11.1708
pi❂16	-11.1709
qi❃11	-11.1709
yu❁6	-11.1709
shu❄20	-11.1709
jiao❃	-11.1738
huo❃0	-11.1946
ju❃16	-11.1946
lian❂29	-11.1946
pan❁3	-11.1946
pie❁1	-11.1946
qi❂111	-11.1946
wan❂19	-11.1946
xian❂24	-11.1946
xiu❄13	-11.1946
yu❂74	-11.1946
yu❄36	-11.1946
zong❁31	-11.1946
Φ	-11.1946
qiao❂6	-11.1947
you❁11	-11.1947
wu❄28	-11.1947
jie❁18	-11.1947
ti❁7	-11.1947
chuan❃1	-11.1947
xi❁114	-11.1947
e❄65	-11.1948
wo❁2	-11.1948
ming❂6	-11.1948
xuan❄16	-11.1949
❁12	-11.2053
yong	-11.2108
34	-11.2132
❁28	-11.2145
u❃2	-11.2178
❄33	-11.2185
beng❁9	-11.219
can❄8	-11.219
gun❃21	-11.219
min❃23	-11.219
pou❁1	-11.219
ren❄38	-11.219
shi❃15	-11.219
yu❃26	-11.219
zhui❄0	-11.219
ma❁0	-11.2191
lou❂15	-11.2191
wei❄27	-11.2191
kan❁5	-11.2191
ao❄3	-11.2193
yan❄14	-11.221
❂20	-11.2261
❁21	-11.2319
da	-11.237
dai	-11.2433
meng❃1	-11.2439
die❂65	-11.244
gao❁9	-11.244
lu❂45	-11.244
pei❂5	-11.244
pu❁3	-11.244
se❄15	-11.244
shao❄6	-11.244
tun❁1	-11.244
yi❃22	-11.244
sai❁13	-11.244
nuo❄14	-11.244
fen❁22	-11.244
dai❁0	-11.2441
wei❁33	-11.2441
ba❁27	-11.2441
fu❃11	-11.2441
ru❃4	-11.2441
bin❁6	-11.2441
mo❄37	-11.2441
ju❄74	-11.2442
❁16	-11.247
bo	-11.2473
jing	-11.2678
cha❄16	-11.2697
cui❄37	-11.2697
jian❄41	-11.2697
ji❁111	-11.2697
nie❁0	-11.2697
pei❁7	-11.2697
peng❂24	-11.2697
que❁4	-11.2697
si❄38	-11.2697
yuan❁6	-11.2697
ze❃	-11.2697
〖	-11.2697
pao❂11	-11.2697
ba❃4	-11.2697
qiao❂13	-11.2697
huan❂17	-11.2698
dou❄12	-11.2698
ga❁1	-11.2698
❃13	-11.2708
w	-11.2709
a❁1	-11.2824
❂33	-11.2831
ru	-11.293
an❃11	-11.2958
mei	-11.2959
can❄10	-11.296
chi❁19	-11.296
dai❄38	-11.296
fen❂14	-11.296
fu❂93	-11.296
gang❁27	-11.296
ge❂40	-11.296
gong❁40	-11.296
he❂70	-11.296
jian❁36	-11.296
juan❁24	-11.296
luo❂21	-11.296
mi❂44	-11.296
nian❂15	-11.296
po❄23	-11.296
qiang❁22	-11.296
shi❃20	-11.296
wan❃13	-11.296
yan❄37	-11.296
yi❄203	-11.296
о	-11.296
ㄌ	-11.296
ㄢ	-11.296
wa❁13	-11.296
chi❄33	-11.296
ting❃9	-11.296
wu❄16	-11.296
gan❁33	-11.2961
shuai❁1	-11.2961
qiao❁8	-11.2961
ao❂15	-11.2969
jie❁	-11.2991
an❃2	-11.3039
❂26	-11.3045
❄17	-11.3083
xiang❁2	-11.3224
pu❃1	-11.3227
I	-11.323
hai❂6	-11.323
long❂	-11.323
chang❂6	-11.323
chao❁19	-11.323
duan❄20	-11.323
huo❄26	-11.323
jue❂109	-11.323
jue❂96	-11.323
liu❂23	-11.323
qi❂56	-11.323
ren❄9	-11.323
shuan❁1	-11.323
si❄47	-11.323
sui❃6	-11.323
wei❂41	-11.323
xie❄43	-11.323
xi❁71	-11.323
zha❂7	-11.323
zhui❄8	-11.323
а	-11.323
い	-11.323
peng❁13	-11.323
yin❂19	-11.323
yun❄14	-11.323
shu❁24	-11.323
you❄10	-11.3231
yu❄95	-11.3232
zhuan❄16	-11.3233
xia	-11.3236
yi❁	-11.3243
you	-11.3436
hong	-11.3489
bu❄19	-11.3508
fa❂4	-11.3508
fu❃20	-11.3508
huai❂7	-11.3508
huang❂16	-11.3508
huang❂35	-11.3508
huan❄31	-11.3508
jiao❁26	-11.3508
man❂20	-11.3508
niu❃4	-11.3508
wei❄40	-11.3508
xian❁47	-11.3508
xin❁26	-11.3508
xiu❄4	-11.3508
zai❃5	-11.3508
zao❁5	-11.3508
zao❄2	-11.3508
zhan❄21	-11.3508
zhao❄27	-11.3508
し	-11.3508
luo❃15	-11.3508
ba❂19	-11.3508
zi❁11	-11.3508
fen❄9	-11.3509
zha❄4	-11.3509
qie❄25	-11.3509
❃11	-11.3535
ng❁10	-11.3645
lu❄4	-11.3662
❂21	-11.3711
e❄29	-11.3793
can❃4	-11.3794
dai❄50	-11.3794
dan❄47	-11.3794
di❂24	-11.3794
huang❂38	-11.3794
jia❁36	-11.3794
ling❂79	-11.3794
mou❂11	-11.3794
shen❁30	-11.3794
tuo❃1	-11.3794
xing❁14	-11.3794
xi❁74	-11.3794
xi❂23	-11.3794
xu❄38	-11.3794
yi❄192	-11.3794
zhang❄3	-11.3794
zhuo❂31	-11.3794
rong❂29	-11.3794
xuan❃6	-11.3794
kui❄11	-11.3794
kui❄15	-11.3794
cai❁7	-11.3794
lu❂21	-11.3794
yang❁10	-11.3794
tang❃13	-11.3794
qi❁28	-11.3795
ou❃7	-11.3796
bao❄14	-11.3796
ji❁5	-11.3796
fei❁3	-11.3797
chuan	-11.3808
e❄3	-11.3852
die❂	-11.3861
shen	-11.3931
❂19	-11.3966
hong❁21	-11.3994
❄29	-11.4035
chan❂42	-11.4088
diu❁1	-11.4088
dui❄13	-11.4088
hui❃5	-11.4088
jiang❁2	-11.4088
jiao❁44	-11.4088
jie❂50	-11.4088
jin❃29	-11.4088
juan❄9	-11.4088
lun❂20	-11.4088
mao❃3	-11.4088
mou❂13	-11.4088
shao❁7	-11.4088
song❄7	-11.4088
teng❂7	-11.4088
tuo❂39	-11.4088
wu❁29	-11.4088
yi❄217	-11.4088
yu❂53	-11.4088
za❂4	-11.4088
zhou❄14	-11.4088
и	-11.4088
mao❂25	-11.4088
chi❃21	-11.4088
tuo❂1	-11.4088
hui❁13	-11.4088
yan❃30	-11.4088
mu❃7	-11.4089
yu❁5	-11.4089
gu❁4	-11.4089
gong❃10	-11.4089
zhe❄7	-11.409
e❄36	-11.4091
❄56	-11.4101
kang❄1	-11.4106
fei	-11.4106
jie❂	-11.4174
sha	-11.4208
kun❁	-11.4355
❁33	-11.4375
han	-11.4381
bian	-11.4387
quan	-11.4388
bei❄35	-11.4391
cheng❁15	-11.4391
geng❁16	-11.4391
hui❁18	-11.4391
jiao❄36	-11.4391
ju❄36	-11.4391
leng❂5	-11.4391
liao❄6	-11.4391
lin❂47	-11.4391
li❄60	-11.4391
li❄63	-11.4391
long❂44	-11.4391
luo❂25	-11.4391
lve❄9	-11.4391
pu❂19	-11.4391
re❃1	-11.4391
tong❂25	-11.4391
ying❂43	-11.4391
yi❂87	-11.4391
△	-11.4391
chang❄1	-11.4391
liu❂17	-11.4391
hua❄14	-11.4391
an❁32	-11.4391
zha❄14	-11.4391
du❃9	-11.4391
III	-11.4391
qin❂32	-11.4392
wu❂18	-11.4392
chu❂43	-11.4393
❁0	-11.4393
gan❁28	-11.4393
❄14	-11.4422
si❁	-11.4432
n❁3	-11.4549
cong	-11.4611
fei❃	-11.4663
kan	-11.4701
ren	-11.4702
bi❄93	-11.4703
cuo❄17	-11.4703
guan❁7	-11.4703
gui❄43	-11.4703
jian❄39	-11.4703
ji❁74	-11.4703
lan❂21	-11.4703
lao❃	-11.4703
men❄7	-11.4703
qi❃23	-11.4703
ru❂18	-11.4703
wei❄24	-11.4703
xie❂47	-11.4703
ying❂51	-11.4703
zha❄9	-11.4703
shan❄25	-11.4703
bo❁21	-11.4704
ming❂18	-11.4704
ban❃2	-11.4704
yu❂88	-11.4705
mian❃12	-11.4705
qi❂76	-11.4705
ying❁45	-11.4705
wang❃	-11.4741
biao❁	-11.4823
ji❁	-11.4835
❂40	-11.4899
ding❁	-11.5022
tong❂1	-11.5023
tang❃	-11.5026
bi❄57	-11.5026
dou❁3	-11.5026
fen❂16	-11.5026
jie❄34	-11.5026
jin❁31	-11.5026
lun❂4	-11.5026
shan❁33	-11.5026
you❃26	-11.5026
zhong❁25	-11.5026
ル	-11.5026
ㄠ	-11.5026
mei❂27	-11.5026
yan❁30	-11.5026
yin❂27	-11.5026
bo❁25	-11.5026
wa❁20	-11.5026
peng❄2	-11.5026
ya❃4	-11.5026
zhu❁28	-11.5026
jue❂38	-11.5026
jia❂33	-11.5026
si❁23	-11.5026
chou❂44	-11.5027
qian❄28	-11.5027
fei❁	-11.5032
zhan❁13	-11.5038
ya❂1	-11.5113
gen	-11.5152
hu❄4	-11.5267
an❃8	-11.5272
lin❄1	-11.53
yu❄1	-11.5321
xi❁9	-11.5355
tang❂	-11.5358
jue❂58	-11.5359
kou❄6	-11.5359
la❁5	-11.5359
nve❄6	-11.5359
rong❂25	-11.5359
shi❄79	-11.5359
yuan❂58	-11.5359
yu❄53	-11.5359
zhang❄9	-11.5359
zhen❁28	-11.5359
zhen❃14	-11.5359
ス	-11.5359
ㄣ	-11.5359
lan❂17	-11.5359
gui❁24	-11.5359
pan❄11	-11.5359
pi❂11	-11.536
lian❃7	-11.536
qi❁13	-11.536
song❁7	-11.536
pi❁3	-11.5361
zi❄9	-11.5362
chen	-11.5531
ba❁1	-11.5537
zi❁	-11.5579
wa	-11.5588
e❂27	-11.5703
ao❂34	-11.5704
bo❂47	-11.5704
duo❂13	-11.5704
ga❂0	-11.5704
ga❂1	-11.5704
huang❂28	-11.5704
jiang❄19	-11.5704
jian❄67	-11.5704
kua❁4	-11.5704
lian❂38	-11.5704
ma❅1	-11.5704
pei❂8	-11.5704
qian❂41	-11.5704
qia❄11	-11.5704
rui❄13	-11.5704
shi❄48	-11.5704
si❄22	-11.5704
xue❁5	-11.5704
yan❄66	-11.5704
za❂6	-11.5704
zhao❃4	-11.5704
zhuo❂48	-11.5704
•	-11.5704
う	-11.5704
イ	-11.5704
ㄜ	-11.5704
tai❂2	-11.5704
wan❃16	-11.5704
fan❄24	-11.5704
wu❂27	-11.5704
li❄134	-11.5704
lan❃11	-11.5704
cu❄16	-11.5705
fang❂3	-11.5705
zhan❄13	-11.5706
gui❃25	-11.5706
fei❃6	-11.5708
yi❄17	-11.5711
dao❃20	-11.5736
yan❃	-11.6045
gan❁2	-11.6053
nian	-11.6057
deng	-11.606
bao❁12	-11.6061
ce❄21	-11.6061
diao❁6	-11.6061
dong❄9	-11.6061
e❂15	-11.6061
hui❄94	-11.6061
jian❄72	-11.6061
jiao❁36	-11.6061
juan❁7	-11.6061
nian❃9	-11.6061
shao❂9	-11.6061
ting❁11	-11.6061
wei❁30	-11.6061
xiao❁62	-11.6061
zhong❃0	-11.6061
‰	-11.6061
bi❃30	-11.6061
bi❄124	-11.6062
gu❁16	-11.6062
zhuo❂16	-11.6062
hong❁	-11.6378
nao❃1	-11.6428
bei❁20	-11.6432
bo❂67	-11.6432
dou❃9	-11.6432
du❃14	-11.6432
feng❁33	-11.6432
ji❁75	-11.6432
jun❄18	-11.6432
ku❁17	-11.6432
lei❃27	-11.6432
li❂32	-11.6432
li❂48	-11.6432
luan❂32	-11.6432
pei❄12	-11.6432
qi❁19	-11.6432
qi❂51	-11.6432
reng❁0	-11.6432
shun❄7	-11.6432
ying❂42	-11.6432
yong❁23	-11.6432
you❄22	-11.6432
な	-11.6432
ま	-11.6432
qiao❄12	-11.6432
su❄45	-11.6432
yang❄10	-11.6432
wei❁16	-11.6432
chi❃13	-11.6432
jia❂19	-11.6432
jian❃15	-11.6432
mei❄6	-11.6432
yong❄2	-11.6432
e❂16	-11.6433
bo❂99	-11.6433
kui❁8	-11.6433
bo❂91	-11.6433
e❄94	-11.6434
ke❁1	-11.6459
ya	-11.647
ying❂	-11.6502
ong❁1	-11.6521
ang❃1	-11.659
ha❄	-11.6646
e❄51	-11.6671
ao❄10	-11.6707
yang	-11.6722
ou❃	-11.6739
kan❃1	-11.6813
shang	-11.6815
biao❁37	-11.6816
chan❃42	-11.6816
gan❃10	-11.6816
gou❃10	-11.6816
hua❂25	-11.6816
hui❄73	-11.6816
jiao❄34	-11.6816
ji❁76	-11.6816
juan❄21	-11.6816
jun❄25	-11.6816
kuang❄6	-11.6816
mo❄61	-11.6816
ni❂7	-11.6816
qiu❂48	-11.6816
qi❂57	-11.6816
tang❂31	-11.6816
xie❂37	-11.6816
ying❂26	-11.6816
yu❂38	-11.6816
zhang❁6	-11.6816
zhuo❁6	-11.6816
zhuo❁7	-11.6816
に	-11.6816
ㄕ	-11.6816
ㄙ	-11.6816
ㄚ	-11.6816
ㄝ	-11.6816
ㄤ	-11.6816
xia❂40	-11.6816
sao❁14	-11.6816
xie❁4	-11.6817
zhu❃11	-11.6817
di❂29	-11.6817
pang❂6	-11.6817
huan❄12	-11.6817
xi❁122	-11.6817
ti❁4	-11.6817
gua❁11	-11.6819
ju❃5	-11.6819
ou❃5	-11.6819
zhi❂5	-11.682
bo❄	-11.6823
❁24	-11.6836
❄45	-11.7054
jing❁	-11.7086
❂27	-11.7156
wei❃	-11.7182
zhang❁1	-11.7211
zhou❄3	-11.7214
yi❂7	-11.7214
rong	-11.7216
cou❄0	-11.7216
cui❄26	-11.7216
dun❁15	-11.7216
dun❄17	-11.7216
jiao❃46	-11.7216
kang❁12	-11.7216
lan❃14	-11.7216
lan❄4	-11.7216
lu❄90	-11.7216
mei❄24	-11.7216
mei❄9	-11.7216
mu❄29	-11.7216
pu❂14	-11.7216
que❄34	-11.7216
tao❁17	-11.7216
xiu❁17	-11.7216
xi❄70	-11.7216
xun❁24	-11.7216
xun❂19	-11.7216
yin❁14	-11.7216
yi❁17	-11.7216
yong❃24	-11.7216
zhe❂44	-11.7216
zhi❄80	-11.7216
zhou❄16	-11.7216
zuan❃5	-11.7216
н	-11.7216
と	-11.7216
る	-11.7216
リ	-11.7216
ㄩ	-11.7216
luan❂17	-11.7216
jing❄45	-11.7216
liu❁0	-11.7216
you❂31	-11.7217
wei❃4	-11.7217
he❂55	-11.7218
wo❁9	-11.7218
wei❂28	-11.7218
xun❄15	-11.7219
ling❂0	-11.7221
ti❄	-11.7239
hao	-11.7419
ju❃	-11.7423
❂28	-11.7506
xie	-11.7524
xuan	-11.7577
❄28	-11.7618
ming❂	-11.7624
er❃	-11.7627
ao❄17	-11.7633
ai❄33	-11.7633
dao❄5	-11.7633
fu❃27	-11.7633
gui❁39	-11.7633
jin❄63	-11.7633
juan❄26	-11.7633
jun❄41	-11.7633
kai❃10	-11.7633
li❄126	-11.7633
luo❄28	-11.7633
mo❂18	-11.7633
pan❂16	-11.7633
ping❁0	-11.7633
sheng❁13	-11.7633
tan❁14	-11.7633
teng❂9	-11.7633
xuan❄18	-11.7633
yu❂114	-11.7633
zao❄15	-11.7633
р	-11.7633
き	-11.7633
yi❄112	-11.7633
tan❃8	-11.7633
bin❁13	-11.7633
qiao❄6	-11.7633
long❂30	-11.7633
dai❄13	-11.7633
ren❂5	-11.7634
ting❂6	-11.7634
mao❂15	-11.7634
xi❃6	-11.7634
mo❄35	-11.7634
gui❁6	-11.7635
liu	-11.7636
liao❂6	-11.7636
miao❃	-11.7656
kui❄	-11.7661
e❂31	-11.7666
qiu❂	-11.7678
xi❃15	-11.7685
an❄24	-11.7806
e❄6	-11.7864
he❂6	-11.7901
liao❂	-11.802
rang	-11.8036
gou❁1	-11.8061
tun❂	-11.8062
huo❄5	-11.8062
lai❂1	-11.8064
cha❂2	-11.8065
wu❃2	-11.8066
bang❄19	-11.8068
chang❃7	-11.8068
jiao❁37	-11.8068
jiao❂0	-11.8068
jiu❁27	-11.8068
lang❂35	-11.8068
liu❂48	-11.8068
li❂60	-11.8068
mi❂39	-11.8068
mu❄18	-11.8068
pu❂17	-11.8068
qi❃30	-11.8068
shan❄50	-11.8068
song❃12	-11.8068
wan❃14	-11.8068
wen❄4	-11.8068
xie❄53	-11.8068
xi❁133	-11.8068
xu❄63	-11.8068
ye❄55	-11.8068
yi❃32	-11.8068
yu❄108	-11.8068
zhi❄75	-11.8068
zhi❄79	-11.8068
φ	-11.8068
た	-11.8068
ト	-11.8068
ラ	-11.8068
・	-11.8068
ㄔ	-11.8068
peng❂19	-11.8068
fen❄13	-11.8068
yang❃17	-11.8068
tu❁13	-11.8068
qiu❂18	-11.8068
ya❄13	-11.8068
jing❁12	-11.8068
chu❃7	-11.8068
mang❂30	-11.8068
qin❃5	-11.8068
shi❄27	-11.8069
gu❄21	-11.8069
zhe❄12	-11.8069
xu❁26	-11.807
xun❄13	-11.807
er❃9	-11.807
❁27	-11.8077
u❃9	-11.8229
o❁1	-11.8285
ang❁8	-11.8321
piao❁	-11.8408
bi❃	-11.8432
li❄5	-11.8514
bei❄2	-11.8515
ying❁4	-11.8516
V	-11.8522
ban❄10	-11.8522
chang❂25	-11.8522
chao❁6	-11.8522
cuan❄4	-11.8522
fu❃36	-11.8522
ji❂66	-11.8522
juan❄3	-11.8522
kui❂9	-11.8522
li❃31	-11.8522
po❁4	-11.8522
qi❂64	-11.8522
rou❂1	-11.8522
rui❃3	-11.8522
shan❁4	-11.8522
she❄30	-11.8522
wei❃52	-11.8522
xian❄49	-11.8522
yi❄90	-11.8522
yong❃5	-11.8522
yuan❂32	-11.8522
yuan❂39	-11.8522
zhen❁38	-11.8522
zhuo❂9	-11.8522
е	-11.8522
ㄉ	-11.8522
ㄟ	-11.8522
chuo❄24	-11.8522
hao❄29	-11.8522
yang❂24	-11.8522
bian❃13	-11.8522
sha❁11	-11.8522
xia❂16	-11.8523
zhou❃7	-11.8523
tang❁10	-11.8523
zhu❃6	-11.8524
ying❃22	-11.8524
qing❄12	-11.8524
ding❄19	-11.8525
cao❁4	-11.8525
gan❁20	-11.8525
xiao❄9	-11.8525
zhan❄16	-11.8526
ao❂26	-11.8527
ke❁11	-11.8528
uo❂5	-11.8529
shu❄30	-11.8529
suo❁	-11.8553
❁13	-11.8723
lai❄1	-11.8767
hen❃3	-11.8768
zhi❃2	-11.8781
e❄9	-11.8989
shou❄1	-11.8995
lin❂1	-11.8996
kao	-11.8998
zong	-11.8998
ban❁20	-11.8998
bi❄54	-11.8998
cuo❄6	-11.8998
cuo❄7	-11.8998
du❃8	-11.8998
fu❂87	-11.8998
huang❃10	-11.8998
jian❄70	-11.8998
jing❁19	-11.8998
ji❄85	-11.8998
ju❄50	-11.8998
lao❄4	-11.8998
lian❂31	-11.8998
li❄112	-11.8998
mei❂23	-11.8998
mei❂39	-11.8998
mian❃24	-11.8998
niu❃12	-11.8998
pian❁8	-11.8998
pi❃12	-11.8998
qu❂37	-11.8998
wen❂16	-11.8998
xiu❃0	-11.8998
xun❂37	-11.8998
xu❁15	-11.8998
yao❂51	-11.8998
you❂46	-11.8998
zheng❁20	-11.8998
く	-11.8998
は	-11.8998
り	-11.8998
ㄥ	-11.8998
zhuo❂34	-11.8998
lv❃24	-11.8999
shu❂3	-11.8999
nie❄24	-11.8999
pi❄9	-11.8999
biao❁11	-11.8999
ju❁26	-11.8999
nian❄3	-11.9
fu❂23	-11.9
lai❄5	-11.9
mang❃8	-11.9
jiong❃14	-11.9001
zhou❄39	-11.9002
chan❄16	-11.9003
e❄91	-11.9039
zi❄	-11.9066
hu❃6	-11.9183
du❂2	-11.9208
ao❃5	-11.9215
hua	-11.9247
yun❂	-11.9365
ci❄	-11.9379
e❄7	-11.9459
yue❄	-11.9479
❂17	-11.949
wo❄1	-11.9491
gong❃1	-11.9492
ding❄1	-11.9493
xun❄1	-11.9493
gong❁3	-11.9495
bo❂43	-11.9498
che❃8	-11.9498
chong❂13	-11.9498
feng❁29	-11.9498
fu❂42	-11.9498
fu❄47	-11.9498
guai❃0	-11.9498
gui❃33	-11.9498
han❄37	-11.9498
he❁11	-11.9498
jian❁58	-11.9498
jian❃6	-11.9498
kuang❁5	-11.9498
kuo❄5	-11.9498
lan❃24	-11.9498
li❃14	-11.9498
lu❂49	-11.9498
min❂14	-11.9498
mo❄70	-11.9498
mu❄23	-11.9498
pang❁2	-11.9498
po❄16	-11.9498
qing❂14	-11.9498
qin❂21	-11.9498
qi❂63	-11.9498
sha❃0	-11.9498
xia❂12	-11.9498
ying❁29	-11.9498
yin❂41	-11.9498
yi❄195	-11.9498
you❄24	-11.9498
zheng❁18	-11.9498
zuo❄8	-11.9498
§	-11.9498
в	-11.9498
с	-11.9498
を	-11.9498
ㄓ	-11.9498
wai❁4	-11.9499
ting❂23	-11.9499
quan❂40	-11.9499
wei❁27	-11.9499
yun❂30	-11.9499
xiao❁20	-11.9499
xing❂15	-11.9499
qiao❄8	-11.9499
liao❂10	-11.9499
xuan❄24	-11.9499
yan❄27	-11.9499
zuo❂5	-11.9499
meng❂29	-11.95
ta❁4	-11.95
zhu❁5	-11.95
na❄13	-11.95
han❄23	-11.9501
han❄28	-11.9502
huan❄16	-11.9504
n❃5	-11.9886
xin❁1	-12.0015
i❄32	-12.0017
pai❄	-12.0022
yu❂8	-12.0024
bang❁11	-12.0025
bang❃5	-12.0025
bang❃6	-12.0025
bao❄5	-12.0025
bo❂7	-12.0025
bu❄24	-12.0025
chen❂14	-12.0025
chi❄37	-12.0025
chun❁9	-12.0025
chu❃18	-12.0025
cuo❄4	-12.0025
di❄34	-12.0025
er❄15	-12.0025
fa❄1	-12.0025
feng❃3	-12.0025
fu❂52	-12.0025
gao❄12	-12.0025
huang❁6	-12.0025
hui❄97	-12.0025
jian❃29	-12.0025
jiu❄37	-12.0025
jiu❄38	-12.0025
ju❁44	-12.0025
liang❄4	-12.0025
li❃25	-12.0025
lun❂15	-12.0025
mao❄20	-12.0025
mei❂34	-12.0025
mi❄49	-12.0025
pa❂4	-12.0025
qian❄8	-12.0025
qie❄15	-12.0025
qiong❂29	-12.0025
qi❂114	-12.0025
qi❂52	-12.0025
shao❂7	-12.0025
sheng❁19	-12.0025
suo❃14	-12.0025
ti❂13	-12.0025
xian❄54	-12.0025
xi❁57	-12.0025
xi❃28	-12.0025
xun❂44	-12.0025
ying❂44	-12.0025
yi❄224	-12.0025
zhen❄26	-12.0025
zi❃12	-12.0025
ク	-12.0025
ㄒ	-12.0025
ping❂30	-12.0025
sai❁10	-12.0025
pan❂12	-12.0025
ya❂20	-12.0025
cong❁12	-12.0025
man❃7	-12.0025
lao❄10	-12.0025
ya❁5	-12.0025
chang❁1	-12.0025
ba❄17	-12.0025
mi❁0	-12.0025
wu❄11	-12.0026
bin❁10	-12.0026
qi❄26	-12.0027
dou❃3	-12.0027
tun❂5	-12.0029
mian❃11	-12.0029
ni❄9	-12.0032
tian	-12.0085
xiu❁	-12.0168
han❄2	-12.0384
i❃21	-12.0475
pi❂	-12.0487
sa	-12.0566
lv❃	-12.0574
qi❂7	-12.0577
fu❂7	-12.0578
ju❄6	-12.0579
ai❁7	-12.058
ba❄23	-12.058
chui❁2	-12.058
dian❄11	-12.058
die❁2	-12.058
duo❄10	-12.058
fan❂30	-12.058
fu❁48	-12.058
fu❂32	-12.058
guai❁3	-12.058
guang❄5	-12.058
han❂34	-12.058
jian❃27	-12.058
jie❂61	-12.058
ji❁61	-12.058
ji❃14	-12.058
ken❃3	-12.058
la❂0	-12.058
lei❃22	-12.058
ling❂75	-12.058
ling❂76	-12.058
luan❂19	-12.058
lv❂7	-12.058
pu❃8	-12.058
qi❄35	-12.058
quan❂42	-12.058
suo❁16	-12.058
tan❂32	-12.058
xiao❁45	-12.058
xiao❁64	-12.058
ye❄57	-12.058
ying❁66	-12.058
yin❃21	-12.058
yi❄182	-12.058
え	-12.058
ㄛ	-12.058
ㄡ	-12.058
xiu❄2	-12.058
cao❂11	-12.058
chai❁4	-12.058
liu❂21	-12.058
tian❂10	-12.0581
xuan❁26	-12.0581
chuo❁1	-12.0581
cheng❂26	-12.0581
jiao❄26	-12.0581
yang❂20	-12.0581
hao❄17	-12.0581
yu❄120	-12.0581
bian❃2	-12.0581
ba❁25	-12.0581
yan❁4	-12.0581
bi❃11	-12.0581
hu❂38	-12.0582
qian❄29	-12.0582
huang❂47	-12.0582
zhe❂45	-12.0582
yuan❂23	-12.0582
an❄40	-12.0584
miao❃4	-12.0585
jun	-12.0591
nie❄	-12.0634
yong❁1	-12.0764
wu❃1	-12.0861
gui❁	-12.088
o❁0	-12.0896
pan❄	-12.1064
gao❃	-12.1159
zi❃	-12.116
gua❁1	-12.1162
ji❂7	-12.1162
po❂	-12.1166
ang❃8	-12.1167
e❄80	-12.1168
beng❄1	-12.1169
chao❂2	-12.1169
chuai❁0	-12.1169
cui❁9	-12.1169
dan❁28	-12.1169
di❂14	-12.1169
di❃23	-12.1169
di❄47	-12.1169
duo❄16	-12.1169
fu❁17	-12.1169
fu❃29	-12.1169
guang❁17	-12.1169
huang❂32	-12.1169
huang❃21	-12.1169
hua❂30	-12.1169
jie❄31	-12.1169
ji❄102	-12.1169
ji❄44	-12.1169
ju❄58	-12.1169
ke❁22	-12.1169
lao❄2	-12.1169
liang❄7	-12.1169
ling❂35	-12.1169
li❂76	-12.1169
lou❄7	-12.1169
lu❃20	-12.1169
ma❅2	-12.1169
mo❂10	-12.1169
mu❄8	-12.1169
pu❂12	-12.1169
sao❃2	-12.1169
shen❁31	-12.1169
shi❄43	-12.1169
shu❄31	-12.1169
sun❁6	-12.1169
tan❂25	-12.1169
tao❁27	-12.1169
tong❂32	-12.1169
tun❃1	-12.1169
tuo❃6	-12.1169
wen❁9	-12.1169
xi❁139	-12.1169
yao❂47	-12.1169
yu❂77	-12.1169
zhu❃16	-12.1169
zuo❄14	-12.1169
к	-12.1169
│	-12.1169
こ	-12.1169
み	-12.1169
ら	-12.1169
ん	-12.1169
ッ	-12.1169
ㄅ	-12.1169
ㄇ	-12.1169
san❁3	-12.1169
yong❁27	-12.1169
yuan❁30	-12.1169
qiao❃4	-12.1169
chi❄32	-12.1169
huang❃8	-12.1169
xiao❁23	-12.1169
yun❂20	-12.1169
dai❄27	-12.1169
wa❁4	-12.1169
ai❄43	-12.1169
cheng❄1	-12.1169
shu❁16	-12.1169
yu❄6	-12.117
wo❁0	-12.1171
huan❂15	-12.1171
ni❄18	-12.1172
du❄6	-12.1172
liao❂9	-12.1172
gong❁34	-12.1172
ao❂17	-12.1188
cun❁	-12.1215
ru❂2	-12.1234
guan❃	-12.1323
ao❃10	-12.1499
hui❂	-12.1695
zun❁	-12.1787
`	-12.1794
л	-12.1794
т	-12.1794
━	-12.1794
□	-12.1794
あ	-12.1794
ア	-12.1794
ㄊ	-12.1794
k	-12.2302
M	-12.246
T	-12.246
γ	-12.246
Ф	-12.246
─	-12.246
カ	-12.246
ㄈ	-12.246
‧	-12.3174
が	-12.3174
だ	-12.3174
も	-12.3174
タ	-12.3174
ド	-12.3174
レ	-12.3174
ㄏ	-12.3174
ㄞ	-12.3174
й	-12.3944
ィ	-12.3944
ㄐ	-12.3944
t	-12.429
v	-12.4777
δ	-12.4777
※	-12.4777
さ	-12.4777
つ	-12.4777
れ	-12.4777
フ	-12.4777
ャ	-12.4777
ㄗ	-12.4777
ا	-12.5686
じ	-12.5686
っ	-12.5686
ジ	-12.5686
ム	-12.5686
メ	-12.5686
ロ	-12.5686
π	-12.6686
す	-12.6686
て	-12.6686
ひ	-12.6686
ゆ	-12.6686
シ	-12.6686
テ	-12.6686
マ	-12.6686
ㄍ	-12.6686
ㄎ	-12.6686
ㄖ	-12.6686
ρ	-12.7797
σ	-12.7797
С	-12.7797
お	-12.7797
で	-12.7797
エ	-12.7797
ナ	-12.7797
ュ	-12.7797
❅	-12.9047
м	-12.9047
у	-12.9047
و	-12.9047
ي	-12.9047
⊙	-12.9047
せ	-12.9047
ち	-12.9047
や	-12.9047
グ	-12.9047
ズ	-12.9047
ニ	-12.9047
ブ	-12.9047
X	-13.0476
́	-13.0476
Δ	-13.0476
ε	-13.0476
θ	-13.0476
ψ	-13.0476
А	-13.0476
М	-13.0476
я	-13.0476
≈	-13.0476
▲	-13.0476
け	-13.0476
げ	-13.0476
ば	-13.0476
キ	-13.0476
ダ	-13.0476
チ	-13.0476
ノ	-13.0476
バ	-13.0476
プ	-13.0476
ミ	-13.0476
ㄆ	-13.0476
	-13.0476
¢	-13.2142
Р	-13.2142
ر	-13.2142
ن	-13.2142
ร	-13.2142
↑	-13.2142
┇	-13.2142
め	-13.2142
わ	-13.2142
ァ	-13.2142
ㄑ	-13.2142
이	-13.2142
P	-13.4142
S	-13.4142
®	-13.4142
η	-13.4142
ι	-13.4142
ω	-13.4142
Н	-13.4142
П	-13.4142
б	-13.4142
ч	-13.4142
ь	-13.4142
س	-13.4142
ل	-13.4142
∼	-13.4142
ず	-13.4142
そ	-13.4142
よ	-13.4142
ウ	-13.4142
ェ	-13.4142
オ	-13.4142
ゲ	-13.4142
ゴ	-13.4142
サ	-13.4142
パ	-13.4142
ビ	-13.4142
モ	-13.4142
ㄘ	-13.4142
呗	-13.4142
대	-13.4142
D	-13.6642
E	-13.6642
L	-13.6642
N	-13.6642
÷	-13.6642
ˉ	-13.6642
λ	-13.6642
ν	-13.6642
Г	-13.6642
Д	-13.6642
г	-13.6642
д	-13.6642
і	-13.6642
م	-13.6642
ه	-13.6642
ی	-13.6642
←	-13.6642
〞	-13.6642
づ	-13.6642
ど	-13.6642
ぬ	-13.6642
ゃ	-13.6642
ゅ	-13.6642
ょ	-13.6642
ろ	-13.6642
ガ	-13.6642
ギ	-13.6642
セ	-13.6642
ソ	-13.6642
ツ	-13.6642
ペ	-13.6642
ョ	-13.6642
가	-13.6642
사	-13.6642
C	-13.9974
A	-13.9976
J	-13.9976
O	-13.9976
Đ	-13.9976
ư	-13.9976
ə	-13.9976
ί	-13.9976
κ	-13.9976
ο	-13.9976
υ	-13.9976
И	-13.9976
К	-13.9976
Т	-13.9976
Ц	-13.9976
ы	-13.9976
أ	-13.9976
ب	-13.9976
د	-13.9976
ذ	-13.9976
ว	-13.9976
ิ	-13.9976
ạ	-13.9976
↓	-13.9976
−	-13.9976
√	-13.9976
≡	-13.9976
≦	-13.9976
┼	-13.9976
々	-13.9976
〝	-13.9976
ご	-13.9976
ね	-13.9976
び	-13.9976
ふ	-13.9976
ほ	-13.9976
コ	-13.9976
デ	-13.9976
ネ	-13.9976
ハ	-13.9976
ポ	-13.9976
ヨ	-13.9976
ㄦ	-13.9976
김	-13.9976
마	-13.9976
성	-13.9976
시	-13.9976
정	-13.9976
환	-13.9976
	-13.9976
	-13.9976
B	-14.4976
ä	-14.4976
ę	-14.4976
ĩ	-14.4976
ŋ	-14.4976
Μ	-14.4976
ζ	-14.4976
ξ	-14.4976
ς	-14.4976
Б	-14.4976
О	-14.4976
з	-14.4976
х	-14.4976
ц	-14.4976
ע	-14.4976
ع	-14.4976
ف	-14.4976
र	-14.4976
ा	-14.4976
น	-14.4976
ม	-14.4976
า	-14.4976
์	-14.4976
ậ	-14.4976
ễ	-14.4976
ộ	-14.4976
∠	-14.4976
∮	-14.4976
∵	-14.4976
≧	-14.4976
┃	-14.4976
┄	-14.4976
┌	-14.4976
┬	-14.4976
┳	-14.4976
▼	-14.4976
♦	-14.4976
〃	-14.4976
ざ	-14.4976
ぞ	-14.4976
へ	-14.4976
べ	-14.4976
ぼ	-14.4976
む	-14.4976
ザ	-14.4976
ピ	-14.4976
ヘ	-14.4976
ボ	-14.4976
ワ	-14.4976
ヲ	-14.4976
ヴ	-14.4976
ヶ	-14.4976
ㄋ	-14.4976
겠	-14.4976
다	-14.4976
도	-14.4976
동	-14.4976
리	-14.4976
면	-14.4976
민	-14.4976
소	-14.4976
순	-14.4976
아	-14.4976
우	-14.4976
울	-14.4976
평	-14.4976
하	-14.4976
형	-14.4976
x	-15.394
q	-15.4973
r	-15.4974
j	-15.4975
F	-15.4976
G	-15.4976
H	-15.4976
R	-15.4976
U	-15.4976
«	-15.4976
Á	-15.4976
É	-15.4976
ô	-15.4976
õ	-15.4976
ö	-15.4976
ă	-15.4976
ć	-15.4976
đ	-15.4976
ė	-15.4976
į	-15.4976
ı	-15.4976
Ł	-15.4976
ł	-15.4976
œ	-15.4976
ř	-15.4976
ş	-15.4976
ż	-15.4976
ơ	-15.4976
ɕ	-15.4976
ɡ	-15.4976
ˆ	-15.4976
ˈ	-15.4976
˧	-15.4976
̄	-15.4976
̊	-15.4976
̋	-15.4976
̞	-15.4976
Γ	-15.4976
Ε	-15.4976
Κ	-15.4976
Λ	-15.4976
Σ	-15.4976
ά	-15.4976
έ	-15.4976
χ	-15.4976
Ж	-15.4976
З	-15.4976
Х	-15.4976
Ч	-15.4976
Ш	-15.4976
Ю	-15.4976
ж	-15.4976
ф	-15.4976
ш	-15.4976
э	-15.4976
ё	-15.4976
ў	-15.4976
қ	-15.4976
ү	-15.4976
Ҷ	-15.4976
ҷ	-15.4976
ա	-15.4976
ո	-15.4976
ւ	-15.4976
ָ	-15.4976
ֹ	-15.4976
ׁ	-15.4976
ב	-15.4976
ה	-15.4976
ו	-15.4976
ר	-15.4976
ء	-15.4976
إ	-15.4976
ت	-15.4976
خ	-15.4976
ز	-15.4976
ش	-15.4976
ص	-15.4976
ض	-15.4976
ى	-15.4976
ُ	-15.4976
ं	-15.4976
ग	-15.4976
ञ	-15.4976
त	-15.4976
द	-15.4976
न	-15.4976
म	-15.4976
ी	-15.4976
्	-15.4976
জ	-15.4976
়	-15.4976
ષ	-15.4976
ง	-15.4976
ท	-15.4976
ป	-15.4976
ย	-15.4976
ล	-15.4976
ส	-15.4976
ห	-15.4976
อ	-15.4976
ั	-15.4976
ี	-15.4976
ึ	-15.4976
ุ	-15.4976
เ	-15.4976
่	-15.4976
้	-15.4976
๋	-15.4976
་	-15.4976
ག	-15.4976
མ	-15.4976
ཡ	-15.4976
ე	-15.4976
ლ	-15.4976
შ	-15.4976
ᣫ	-15.4976
Ḥ	-15.4976
ṅ	-15.4976
ṭ	-15.4976
ấ	-15.4976
ầ	-15.4976
ằ	-15.4976
ẳ	-15.4976
ế	-15.4976
ệ	-15.4976
ị	-15.4976
ồ	-15.4976
ờ	-15.4976
ứ	-15.4976
ỷ	-15.4976
Ἂ	-15.4976
ὁ	-15.4976
‖	-15.4976
‚	-15.4976
„	-15.4976
†	-15.4976
‵	-15.4976
↖	-15.4976
⇔	-15.4976
∈	-15.4976
∑	-15.4976
∕	-15.4976
∙	-15.4976
∞	-15.4976
∩	-15.4976
∫	-15.4976
∽	-15.4976
≠	-15.4976
⊿	-15.4976
┏	-15.4976
┐	-15.4976
┘	-15.4976
├	-15.4976
┤	-15.4976
═	-15.4976
║	-15.4976
╯	-15.4976
▽	-15.4976
♀	-15.4976
♂	-15.4976
♡	-15.4976
♭	-15.4976
❄	-15.4976
〜	-15.4976
ぃ	-15.4976
ぎ	-15.4976
ぐ	-15.4976
ぶ	-15.4976
ぺ	-15.4976
ぽ	-15.4976
゙	-15.4976
ゞ	-15.4976
ゥ	-15.4976
ォ	-15.4976
ケ	-15.4976
ゼ	-15.4976
ベ	-15.4976
ホ	-15.4976
䓬	-15.4976
刀	-15.4976
右	-15.4976
忄	-15.4976
扌	-15.4976
正	-15.4976
用	-15.4976
萟	-15.4976
行	-15.4976
論	-15.4976
込	-15.4976
각	-15.4976
게	-15.4976
견	-15.4976
경	-15.4976
그	-15.4976
깃	-15.4976
나	-15.4976
너	-15.4976
논	-15.4976
늑	-15.4976
는	-15.4976
니	-15.4976
당	-15.4976
두	-15.4976
들	-15.4976
디	-15.4976
떠	-15.4976
떡	-15.4976
뜻	-15.4976
람	-15.4976
러	-15.4976
런	-15.4976
려	-15.4976
록	-15.4976
룡	-15.4976
먼	-15.4976
멀	-15.4976
모	-15.4976
못	-15.4976
밀	-15.4976
봐	-15.4976
비	-15.4976
상	-15.4976
서	-15.4976
석	-15.4976
선	-15.4976
쇼	-15.4976
숙	-15.4976
스	-15.4976
승	-15.4976
식	-15.4976
신	-15.4976
안	-15.4976
에	-15.4976
연	-15.4976
영	-15.4976
와	-15.4976
왕	-15.4976
용	-15.4976
윤	-15.4976
으	-15.4976
을	-15.4976
인	-15.4976
일	-15.4976
있	-15.4976
자	-15.4976
제	-15.4976
종	-15.4976
좋	-15.4976
주	-15.4976
지	-15.4976
창	-15.4976
채	-15.4976
탕	-15.4976
프	-15.4976
학	-15.4976
한	-15.4976
항	-15.4976
헤	-15.4976
혀	-15.4976
혼	-15.4976
황	-15.4976
희	-15.4976
	-15.4976
	-15.4976
	-15.4976
	-15.4976
	-15.4976
	-15.4976
	-15.4976
	-15.4976
	-15.4976
	-15.4976
	-15.4976
	-15.4976
	-15.4976
	-15.4976
	-15.4976
	-15.4976
	-15.4976
	-15.4976
