[UNK]	0
[PAD]	0
[CLS]	0
[SEP]	0
[MASK]	0
,	-2.34818
de❅2	-2.75942
。	-3.04318
、	-3.2053
han❄20	-4.26344
shi❄45	-4.28839
zai❄5	-4.38555
:	-4.41401
)	-4.50124
(	-4.51677
wei❄14	-4.57229
yi❁10	-4.7121
le❅0	-4.82352
“	-4.85676
”	-4.86642
you❃11	-4.93373
deng❃2	-4.95062
《	-4.95716
》	-4.95939
쎁	-4.98368
zhong❁4	-5.06699
yu❂35	-5.06995
;	-5.07233
yu❃14	-5.08138
ren❂1	-5.11196
쎂	-5.26845
쎀	-5.37619
yi❃10	-5.38695
bu❂0	-5.42363
shang❃1	-5.48193
.	-5.50318
da❄0	-5.52407
쎃	-5.5948
zhi❁13	-5.60368
gan❄3	-5.62778
ji❂37	-5.62778
duo❁5	-5.65635
nian❂6	-5.66792
dui❄14	-5.74297
hou❄7	-5.76201
쎅	-5.80309
-	-5.80463
쎄	-5.82086
bing❁6	-5.83906
ye❃1	-5.84021
bei❄48	-5.84238
er❂16	-5.85644
쎉	-5.95854
san❁1	-5.97553
쎈	-5.99427
ke❃4	-5.9952
huo❄27	-5.99982
you❂29	-6.01242
qi❂29	-6.03966
gao❁20	-6.04511
쎆	-6.04525
jiang❁5	-6.04708
/	-6.05313
zui❄4	-6.05328
·	-6.06165
dao❄3	-6.07803
yong❄3	-6.08356
ta❁3	-6.10774
xin❁10	-6.11704
suo❃11	-6.12749
xia❄3	-6.14484
de❅0	-6.15953
fu❄28	-6.19161
shi❂20	-6.20009
쎇	-6.22328
liang❃5	-6.24324
mo❄16	-6.25304
ming❂7	-6.26939
jia❁13	-6.27098
xian❄22	-6.28888
na❄11	-6.28906
chong❂11	-6.29553
neng❂2	-6.33614
dou❁12	-6.33708
jiu❄23	-6.34009
zhi❄88	-6.34803
zhe❄14	-6.38141
xiao❃2	-6.38318
yuan❂10	-6.41291
cong❂6	-6.43152
er❄5	-6.47776
chu❁3	-6.48187
you❄13	-6.49146
cheng❂29	-6.49278
hui❄27	-6.49432
shi❄32	-6.5096
lai❂16	-6.5125
shui❃0	-6.51811
"	-6.53833
ren❂4	-6.5388
ben❃5	-6.54733
sheng❁16	-6.5863
tiao❂9	-6.59356
hao❃0	-6.61093
si❄17	-6.61489
mi❃19	-6.62586
yi❃15	-6.6334
zhang❃6	-6.63517
ci❄16	-6.65639
shan❁11	-6.66131
ceng❂6	-6.72013
yao❁17	-6.72261
shi❃6	-6.72593
wu❂17	-6.73204
xue❂6	-6.73539
geng❁6	-6.75174
ke❄6	-6.75715
ru❂9	-6.77969
wu❃9	-6.83158
wo❃3	-6.84148
zhao❁6	-6.84428
jing❁27	-6.85054
tian❁5	-6.85873
zi❃7	-6.86063
zi❄16	-6.86126
yu❂37	-6.86507
fu❂94	-6.8721
ge❄3	-6.87338
cun❁1	-6.87628
xiang❄6	-6.8766
qu❁15	-6.88112
nan❂6	-6.89513
ta❁6	-6.89908
bu❄38	-6.90336
li❃26	-6.91099
huo❄50	-6.91701
lu❄70	-6.92172
xi❁143	-6.93392
qi❃34	-6.94869
jiao❄35	-6.95112
qian❂8	-6.95355
guo❄2	-6.95878
ru❄2	-6.98642
gai❁13	-6.99002
dan❄10	-6.994
ba❃1	-7.02303
ji❂35	-7.02303
shi❂10	-7.03616
yue❁1	-7.03805
sheng❃9	-7.04412
xing❄13	-7.04526
shou❃6	-7.04832
zuo❄5	-7.05599
zhi❃19	-7.0684
shu❁8	-7.07427
...	-7.07678
ni❃6	-7.08096
hen❃2	-7.0862
mu❃2	-7.08929
jin❁33	-7.09089
zhen❄30	-7.09248
dong❁3	-7.10414
yin❁11	-7.11063
ci❃2	-7.11267
wen❂5	-7.11675
yuan❂12	-7.12127
da❂30	-7.12663
xiang❄24	-7.13201
nan❂14	-7.13827
fen❁4	-7.13911
guo❂11	-7.13995
di❄45	-7.13995
de❂7	-7.1412
shuo❁2	-7.14372
wei❄15	-7.15133
hua❁11	-7.15779
hua❁1	-7.16481
jie❄19	-7.17404
cheng❁28	-7.17578
rang❄3	-7.17708
chu❄17	-7.18801
ke❁16	-7.18977
xian❄37	-7.20218
qu❄6	-7.20889
wang❂5	-7.22063
fa❃2	-7.22336
wai❄0	-7.23481
bei❃2	-7.24082
cheng❂17	-7.24175
dao❄24	-7.25014
gei❃1	-7.25201
ta❁5	-7.25342
zuo❄7	-7.26095
～	-7.26237
!	-7.26427
?	-7.26474
jian❄29	-7.27093
lei❄16	-7.27476
ying❁17	-7.28005
ji❂114	-7.28731
mei❃13	-7.30494
hai❃1	-7.30891
zhi❁16	-7.3094
quan❂6	-7.3099
qing❁10	-7.30991
zong❃5	-7.31288
zhe❃2	-7.31988
dan❄38	-7.33708
ze❂11	-7.34067
gong❄3	-7.34477
nv❃0	-7.34992
xiang❁1	-7.35082
xiang❁9	-7.35148
liu❄3	-7.35511
ji❁48	-7.35719
jun❁6	-7.36136
ri❄2	-7.37293
dang❁4	-7.37505
pian❁7	-7.3777
jin❄60	-7.3809
zi❄6	-7.38732
xian❄47	-7.3927
jiang❄9	-7.39324
mei❃9	-7.39648
jian❁85	-7.40191
jian❁25	-7.40355
zai❄4	-7.40465
ma❃14	-7.40902
bai❂2	-7.41011
shu❃5	-7.41066
zhang❁4	-7.41231
xin❁7	-7.41562
xi❄46	-7.42951
tong❂13	-7.42952
long❂63	-7.43288
fa❁1	-7.43795
fang❄0	-7.44247
ming❂8	-7.44816
zheng❁22	-7.44816
bi❃20	-7.45273
huang❂56	-7.4579
si❁24	-7.45905
er❃6	-7.45963
chong❂17	-7.46426
he❂37	-7.47357
dian❃11	-7.4818
tou❂4	-7.48534
zhang❁13	-7.48534
dian❄23	-7.48949
hang❂16	-7.49071
si❄15	-7.50145
men❂19	-7.50205
an❁13	-7.50359
kou❃1	-7.50446
dai❄15	-7.50749
an❄14	-7.50823
guang❁2	-7.51538
de❂9	-7.53323
hao❂6	-7.53567
ceng❂3	-7.5451
jiang❁10	-7.5451
ping❂17	-7.54698
ji❁21	-7.55457
ba❁9	-7.56285
jin❄61	-7.56349
sui❄16	-7.56862
mian❄2	-7.5712
dai❄9	-7.5712
jin❁10	-7.57702
jia❁7	-7.58288
×	-7.58876
zhou❁9	-7.58876
shuang❁4	-7.59733
qi❁9	-7.60264
fang❁4	-7.60464
feng❁58	-7.60664
jiu❃3	-7.60731
xing❂9	-7.612
shou❄4	-7.6201
lin❂19	-7.62213
zhu❃4	-7.62281
hong❂44	-7.62349
—	-7.62689
ji❂83	-7.62758
ben❄4	-7.62894
gu❃14	-7.63374
juan❃1	-7.63786
hu❄26	-7.65019
re❄1	-7.65385
shu❄26	-7.65393
shi❄18	-7.65455
gong❁17	-7.65525
tong❁5	-7.65876
cai❂2	-7.66158
se❄29	-7.66159
yang❂35	-7.66512
ge❃0	-7.66725
bai❃9	-7.6758
la❁7	-7.67724
te❄5	-7.67867
bing❄12	-7.68011
wang❃14	-7.68011
zuo❄12	-7.68733
jun❁2	-7.68852
qiu❁9	-7.69314
lao❃17	-7.6946
*	-7.69533
guan❃9	-7.69972
shi❁33	-7.70413
shi❄33	-7.70487
zhan❄17	-7.71227
qi❃25	-7.71301
pian❁5	-7.71375
wu❄36	-7.71673
ji❁47	-7.71972
jie❂69	-7.72197
nin❂5	-7.72422
zhi❄30	-7.74013
ju❄16	-7.74089
shi❁11	-7.74166
li❄58	-7.74472
yi❄67	-7.74625
hua❂14	-7.74856
ju❄65	-7.74933
shou❃4	-7.75011
you❂24	-7.7532
tai❄3	-7.75863
gong❁10	-7.77037
li❃11	-7.77116
di❁9	-7.77431
+	-7.77509
ai❄26	-7.77668
yue❄29	-7.77906
shen❂2	-7.77986
jian❄62	-7.78863
yi❄68	-7.79668
chu❁4	-7.8097
li❄59	-7.81134
hui❂1	-7.81549
du❄8	-7.81627
jiao❁20	-7.81874
che❁8	-7.8262
shao❃2	-7.83037
que❄11	-7.83121
ban❄5	-7.83708
ji❂57	-7.84214
chuan❂4	-7.84214
xing❂11	-7.84299
=	-7.84638
bao❄10	-7.84893
chang❂15	-7.85662
dong❄13	-7.85662
shi❄15	-7.85834
gan❁16	-7.86007
jiang❃8	-7.86178
wei❄26	-7.86179
°C	-7.86265
liu❂20	-7.86351
bian❄19	-7.86438
kuan❁0	-7.86524
tu❂14	-7.86611
ding❄2	-7.87045
zu❃7	-7.87045
ju❂23	-7.87655
ka❃1	-7.8827
xian❁18	-7.88447
shen❁18	-7.88623
%	-7.89243
xiang❄4	-7.89333
xie❂16	-7.90496
fei❁15	-7.90587
chang❃4	-7.90677
lian❂69	-7.91583
pi❁11	-7.91856
she❄29	-7.91857
xie❃4	-7.91948
zao❃2	-7.92039
da❂14	-7.92131
qian❁13	-7.92138
hua❄18	-7.92314
qi❄20	-7.92406
yun❂4	-7.92497
kan❁9	-7.92681
liang❂19	-7.92681
zhi❄61	-7.93885
kuan❃7	-7.94258
huo❃2	-7.94445
zou❃0	-7.94821
ban❄4	-7.94821
ya❄7	-7.95481
min❂22	-7.95671
tao❄1	-7.96719
qiu❂19	-7.97296
们	-7.98264
na❃3	-7.98362
li❃15	-7.98557
li❄141	-7.98655
chan❃12	-7.99735
a❁6	-7.99897
bian❄16	-8.00928
lou❂19	-8.02235
luo❁4	-8.02236
jian❁14	-8.02539
qing❁20	-8.02743
diao❄17	-8.03049
xiang❃6	-8.03049
han❄33	-8.03667
yao❄12	-8.04178
chen❂41	-8.04696
xuan❃8	-8.04903
xiang❁26	-8.04904
xie❃8	-8.05007
fan❃3	-8.05216
le❄3	-8.05321
han❃11	-8.05828
zhen❁30	-8.06159
zhi❁21	-8.06159
fu❄23	-8.0616
gu❄12	-8.06582
ling❄0	-8.07112
zhuan❃4	-8.07112
ling❂34	-8.07218
ban❃6	-8.07538
an❁15	-8.08055
zhan❁4	-8.08288
jing❁24	-8.08504
qiao❂12	-8.08936
qiu❂36	-8.09261
yu❃44	-8.10134
han❂17	-8.10256
tie❃5	-8.10463
>	-8.11014
bao❃9	-8.11015
yan❂49	-8.11015
jian❄15	-8.11461
1	-8.11749
yu❂127	-8.11903
dang❃2	-8.12127
qing❄3	-8.12238
shi❄31	-8.1224
pi❂17	-8.12575
zhi❄104	-8.12687
duan❄7	-8.12912
guan❁6	-8.12912
xing❁7	-8.13818
wu❃28	-8.14159
cha❁3	-8.1416
jiu❃12	-8.14639
ge❂29	-8.14731
zhuang❄5	-8.14731
shu❄28	-8.14731
hu❂32	-8.15199
shang❁4	-8.16118
chi❁23	-8.16701
xin❄8	-8.17053
tian❂16	-8.17053
hei❁3	-8.17288
yi❄119	-8.17878
cai❄5	-8.18235
shen❁40	-8.18472
yu❄70	-8.18711
qian❂40	-8.18711
shi❂39	-8.18711
tu❃1	-8.18711
chu❂42	-8.1883
kang❄5	-8.1883
lun❄1	-8.19069
xu❁37	-8.19189
suan❁3	-8.1943
kuai❄14	-8.19791
xi❃11	-8.19932
si❃0	-8.20033
yi❄109	-8.20033
yuan❄18	-8.20033
yuan❂34	-8.20275
shi❃8	-8.20397
pin❃0	-8.20518
ji❁34	-8.20518
chun❁6	-8.20883
~	-8.21005
qie❁1	-8.21005
jie❁13	-8.21128
jiao❁8	-8.21129
mu❄15	-8.21495
gai❃2	-8.21618
qu❃1	-8.21742
ji❄61	-8.21988
lv❄15	-8.22235
duan❃0	-8.22358
dun❁2	-8.22855
cao❃5	-8.23479
fang❂4	-8.23479
2	-8.24049
qie❃	-8.24234
fang❂2	-8.2436
jiao❄6	-8.2436
shi❂13	-8.24487
gen❁0	-8.24867
xiu❁11	-8.24994
jiao❄18	-8.25248
rou❄1	-8.25248
zhou❁5	-8.25248
zhi❄47	-8.25631
wan❂5	-8.25888
yin❁44	-8.25888
bian❁16	-8.25888
qing❂6	-8.26016
mao❂11	-8.26016
zhan❄10	-8.26145
guo❁26	-8.26273
chao❂6	-8.26412
zhi❂32	-8.26531
dan❁9	-8.2666
ya❁7	-8.2679
ji❄116	-8.26919
shi❄71	-8.27049
ju❁14	-8.27179
bu❄23	-8.27569
jie❁30	-8.27961
cheng❂16	-8.28224
biao❃5	-8.28355
yuan❃4	-8.28355
du❂34	-8.28619
ban❃5	-8.29015
bao❃13	-8.29147
chao❁17	-8.29147
dao❃7	-8.2928
lan❂13	-8.29679
sha❁10	-8.29813
kuai❄18	-8.29946
ba❁16	-8.30886
dui❄33	-8.3102
jiao❃57	-8.3102
ji❁116	-8.31698
ying❁44	-8.3197
ci❂29	-8.32107
ning❂10	-8.3238
de❅1	-8.32983
kong❁9	-8.33067
zhi❁31	-8.33343
pan❂10	-8.3362
zhuang❁10	-8.33897
shou❁1	-8.33897
xia❂39	-8.34036
tang❂13	-8.34036
huan❂20	-8.34036
chuang❄1	-8.34315
qun❂6	-8.34455
xing❄8	-8.35015
bo❁11	-8.35156
yue❄46	-8.35438
yue❁0	-8.36288
ban❁12	-8.36431
song❄9	-8.36431
tang❁5	-8.36431
fen❃1	-8.36716
gong❁9	-8.37003
jie❁23	-8.37434
gang❁32	-8.37722
sui❂9	-8.37722
fei❁19	-8.37867
lv❄20	-8.38011
cang❂5	-8.38301
zhi❂25	-8.38301
ji❄117	-8.38592
si❁11	-8.38593
wei❂38	-8.38738
nan❂20	-8.39765
dian❄13	-8.39765
niu❂3	-8.39912
'	-8.40207
qu❁25	-8.40207
cheng❁10	-8.40208
shi❄28	-8.40653
cha❂27	-8.40951
she❄22	-8.411
jie❄29	-8.411
su❄56	-8.41249
chuan❁2	-8.41249
lian❂53	-8.41399
bao❁4	-8.414
ruo❄8	-8.42
yang❂16	-8.42302
you❂25	-8.42303
fu❂60	-8.42453
pei❄19	-8.42756
yan❂61	-8.4306
xi❄50	-8.43061
cun❂1	-8.43213
shu❂7	-8.43213
jie❂67	-8.43214
liao❄8	-8.43366
jing❁3	-8.43554
pai❄3	-8.43672
qi❂46	-8.43825
zhu❄19	-8.44133
ju❁18	-8.44287
bing❁2	-8.44289
chi❁8	-8.44441
bi❃24	-8.44441
yun❃16	-8.44905
hua❄26	-8.45528
zheng❄12	-8.45529
ta❃1	-8.45529
guan❁4	-8.45998
jing❃13	-8.46154
fu❄31	-8.46155
lin❂7	-8.46469
3	-8.46634
guo❃3	-8.4726
’	-8.48058
man❃4	-8.48058
zai❄8	-8.48059
reng❂4	-8.48218
pai❂2	-8.48218
zhi❄85	-8.4854
gang❃6	-8.48701
qing❃9	-8.48861
shi❄51	-8.49023
song❄4	-8.49835
zhuan❁1	-8.49838
fu❄36	-8.50161
quan❂12	-8.50161
yan❃42	-8.50162
ni❂10	-8.50325
ge❁16	-8.50818
ying❂45	-8.51148
jie❃6	-8.51478
liu❂28	-8.5181
wei❄18	-8.51812
zhun❃0	-8.52143
shao❁8	-8.52145
qiu❂27	-8.5231
guan❁16	-8.52311
yi❄190	-8.52813
yuan❂15	-8.52814
nong❂5	-8.52981
gan❃6	-8.53149
°	-8.53318
yong❃21	-8.53318
zu❂9	-8.53487
su❁10	-8.53656
ou❁8	-8.54335
zhao❂	-8.55364
feng❁17	-8.55536
wen❁6	-8.55536
5	-8.55724
ji❄36	-8.55882
yang❃6	-8.55882
ding❃11	-8.56229
wei❁12	-8.56752
chao❃7	-8.57805
yu❄93	-8.57805
‘	-8.57982
jia❃14	-8.57983
he❂35	-8.57987
gu❃59	-8.58336
song❁11	-8.58514
wang❃7	-8.58514
yuan❂17	-8.58515
gai❄17	-8.58692
gui❁12	-8.59048
zu❂11	-8.59048
mei❂18	-8.59049
nai❄5	-8.5959
mu❄22	-8.59947
bian❁13	-8.59953
zhan❃11	-8.59961
duan❁4	-8.60852
bu❃11	-8.614
kao❄5	-8.61583
zong❁10	-8.61766
mi❄24	-8.61766
huo❂3	-8.6195
jun❁15	-8.6195
yin❄7	-8.62134
yan❂31	-8.62319
6	-8.625
4	-8.62525
ran❂12	-8.6306
lun❂28	-8.63246
xian❃24	-8.63433
liu❂9	-8.63433
zheng❄17	-8.63433
『	-8.63807
wei❁17	-8.63807
jiu❄30	-8.63995
pai❂4	-8.63995
dong❄24	-8.63995
bei❁8	-8.64183
mo❄30	-8.64371
tang❂28	-8.64559
yi❁13	-8.64568
la❄23	-8.64749
yin❃14	-8.64938
wu❄12	-8.64938
xi❁97	-8.65319
lie❄20	-8.65508
si❄21	-8.65509
li❄144	-8.65509
shan❄15	-8.65513
dao❁1	-8.66082
bu❄28	-8.66274
na❄20	-8.67239
』	-8.67628
fu❁13	-8.67628
fu❂43	-8.67823
yin❂44	-8.68018
zhu❃14	-8.68411
er❃12	-8.69001
qiu❁16	-8.69198
ji❁36	-8.69396
sheng❁3	-8.69993
jin❃16	-8.70192
zhi❂7	-8.70192
si❁16	-8.70192
wang❄4	-8.70392
zhu❄31	-8.70593
ling❂58	-8.70994
si❁22	-8.70995
&	-8.71196
zhu❄63	-8.71398
er❂7	-8.71601
tang❂15	-8.72211
qing❁16	-8.72217
pu❃3	-8.72619
mu❃6	-8.7262
cheng❂52	-8.72824
zhi❄89	-8.7303
deng❁7	-8.73235
peng❂7	-8.73235
me❅1	-8.73648
fei❄37	-8.73855
ren❂3	-8.74067
tai❄9	-8.74479
lu❃27	-8.74687
ya❃9	-8.74687
dao❃5	-8.74688
xia❄6	-8.75107
jiang❃19	-8.75527
zhi❃32	-8.75527
zhu❁29	-8.75527
gong❁11	-8.75528
sha❁4	-8.75738
you❁5	-8.75738
jia❁5	-8.76164
leng❃	-8.76373
zhu❁7	-8.76374
zhu❂15	-8.76586
jing❃3	-8.76586
gu❃42	-8.76586
bei❄21	-8.77013
chang❁6	-8.77013
ye❄44	-8.77227
mo❂16	-8.77227
ji❂39	-8.77228
7	-8.77249
zhao❄31	-8.77442
hu❄30	-8.77443
jiu❃1	-8.77564
guan❃15	-8.77657
jiao❃53	-8.77657
hou❄6	-8.77657
quan❂17	-8.77872
yan❂50	-8.78088
ting❁5	-8.78088
liang❂7	-8.78089
meng❄8	-8.78304
kong❃1	-8.78305
lve❄11	-8.78305
lu❄35	-8.78522
fo❂2	-8.78739
chuan❂13	-8.78957
9	-8.79067
cheng❂50	-8.79175
bo❂41	-8.79175
mou❃2	-8.79394
shou❂	-8.79394
li❄51	-8.79397
lei❂30	-8.79613
fen❄2	-8.79613
xue❃5	-8.79613
lan❂41	-8.79833
kang❁6	-8.80053
ke❄7	-8.80496
0	-8.80914
shang❄2	-8.8094
ye❄26	-8.81385
yu❃47	-8.81385
ling❃2	-8.81609
zuo❄9	-8.81609
chong❂14	-8.81611
kuang❄12	-8.81839
tun❁2	-8.82058
ji❄72	-8.82058
bei❁15	-8.82509
guang❁8	-8.82509
qing❄14	-8.82735
8	-8.82833
zi❁45	-8.82962
bie❂4	-8.83189
jiao❁29	-8.83189
ying❃11	-8.83417
di❄26	-8.83418
duan❄4	-8.83645
wei❄52	-8.83874
deng❁10	-8.83875
shou❃3	-8.83877
ke❄14	-8.84104
gong❁15	-8.84104
jia❄5	-8.84104
ju❄18	-8.84333
fu❄67	-8.84564
zhen❁52	-8.84564
ba❁11	-8.84795
du❂17	-8.85026
ming❄1	-8.85258
you❄14	-8.8526
zhu❁16	-8.85491
ye❃7	-8.85492
fu❃14	-8.85958
feng❁8	-8.86192
biao❁14	-8.86192
gou❁10	-8.86193
ao❄14	-8.86392
ying❄9	-8.86426
wa❃5	-8.86662
shun❄11	-8.86897
●	-8.86897
ting❁3	-8.86898
ce❄11	-8.86898
shi❁16	-8.86899
dao❃2	-8.87113
wen❄6	-8.87134
tong❂48	-8.87846
yi❂38	-8.87847
yi❂31	-8.88086
yi❁12	-8.88099
zao❄16	-8.88324
xu❁39	-8.88564
zuo❃3	-8.88564
chong❁10	-8.88565
qian❁54	-8.88804
ke❄29	-8.88805
cha❂17	-8.89046
nao❃16	-8.89772
hu❂46	-8.89772
cha❁8	-8.90016
dai❁1	-8.90019
wei❄16	-8.9002
zu❃5	-8.9026
huan❄21	-8.90504
nai❃0	-8.90504
wen❂23	-8.90749
fu❂36	-8.90994
wei❃25	-8.90995
san❃7	-8.90995
xi❄33	-8.90995
qi❂117	-8.91488
feng❁19	-8.91488
chang❄2	-8.91488
she❄8	-8.91736
dan❁5	-8.91736
ji❁22	-8.91736
wen❂12	-8.91983
ti❂17	-8.91983
luo❄17	-8.92232
shen❄17	-8.92232
jun❁4	-8.92233
hu❃8	-8.92474
jiang❄25	-8.92481
wei❁13	-8.92483
yin❁37	-8.92731
ce❄22	-8.92731
ji❄94	-8.92731
he❂22	-8.93485
shi❃9	-8.93486
tong❄3	-8.93738
ding❁2	-8.93992
yang❃14	-8.94245
yi❁38	-8.94245
chuan❁5	-8.94245
chi❂20	-8.94499
xu❃19	-8.94754
duo❃23	-8.94754
bi❄61	-8.95011
ti❂36	-8.95266
ruan❃17	-8.95781
meng❁3	-8.96039
bei❄26	-8.9604
can❁3	-8.96558
yang❂27	-8.96558
gu❃52	-8.96559
bo❂37	-8.96819
gui❄41	-8.96819
zhu❁8	-8.9682
li❄62	-8.9708
zheng❄13	-8.97342
zeng❁2	-8.97604
xian❁57	-8.97867
yi❁11	-8.97887
ku❁11	-8.98132
lai❂25	-8.98396
sui❄42	-8.98396
cai❃11	-8.98661
li❃17	-8.98662
shi❄99	-8.98927
zhi❁22	-8.98928
qiang❂2	-8.99194
dan❄21	-8.99194
lv❃14	-8.99729
sui❁12	-8.99729
yan❃39	-8.99729
ha❁0	-8.99729
yan❂46	-8.99729
ju❄57	-8.99998
ge❂53	-9.00268
sai❄4	-9.00268
tuo❁6	-9.00538
du❂25	-9.00538
gou❁12	-9.00539
sun❁0	-9.00809
wan❁9	-9.00809
mai❄16	-9.00809
ce❄8	-9.00809
wu❃37	-9.0108
kua❄4	-9.01081
niao❃17	-9.01353
zhu❁17	-9.01358
jing❁30	-9.01392
xu❁29	-9.01626
gu❃28	-9.01626
ku❄6	-9.01626
po❁12	-9.019
shi❄78	-9.019
sai❁5	-9.01903
jin❃24	-9.02175
han❂37	-9.02175
jiang❁4	-9.02179
kong❄1	-9.0245
ma❂8	-9.0245
shang❁2	-9.02451
mai❄9	-9.02727
xiu❄8	-9.03281
chi❂23	-9.0356
hong❂29	-9.0356
su❄70	-9.0356
mei❂16	-9.03561
dan❄33	-9.03561
lu❄83	-9.0412
xiang❄20	-9.0412
li❄50	-9.04402
kao❃10	-9.04682
she❂5	-9.04683
ku❃1	-9.04683
jian❄20	-9.04685
jie❄14	-9.04966
ling❂46	-9.05248
na❂4	-9.05248
wu❁12	-9.05248
le❄5	-9.05248
wu❁3	-9.05248
zi❃18	-9.05817
shen❄11	-9.05817
ye❄65	-9.05818
fan❂14	-9.06103
zhi❄56	-9.06103
ci❁2	-9.06103
gang❁7	-9.06103
jing❄48	-9.06103
zheng❄18	-9.06389
gan❁25	-9.0639
zheng❃4	-9.06676
juan❁5	-9.06677
yi❂20	-9.06677
shi❁13	-9.0668
jin❄32	-9.06965
xing❄9	-9.06965
xian❁13	-9.06996
rui❄12	-9.07254
bao❂9	-9.07544
jue❂92	-9.07834
rong❂21	-9.08127
ling❂98	-9.08418
tui❁1	-9.08418
gu❄7	-9.08419
ping❂36	-9.08711
mu❄9	-9.08711
yi❄215	-9.09005
yan❂44	-9.09006
qin❁4	-9.09301
yi❄165	-9.09301
fu❄41	-9.09301
yan❁33	-9.09301
po❄17	-9.09597
shui❂1	-9.09625
mai❃0	-9.09893
fan❁14	-9.09893
xiong❂2	-9.10191
bi❄46	-9.10191
liang❂15	-9.10191
bei❄52	-9.10489
ce❄33	-9.10788
sa❄13	-9.10789
dou❄18	-9.11089
wan❃17	-9.1139
tui❄5	-9.11692
huo❄56	-9.11693
si❄10	-9.11694
cu❁0	-9.12299
dou❃4	-9.12299
shao❁11	-9.123
an❄16	-9.12535
feng❄2	-9.12604
tui❄8	-9.1291
cai❃4	-9.1291
xiao❁61	-9.1291
mo❂26	-9.12911
tang❂16	-9.13217
luan❄0	-9.13524
yuan❂44	-9.13524
long❁	-9.13524
miao❄1	-9.13524
mo❄57	-9.13833
jia❃2	-9.13835
zhao❃3	-9.14143
mo❄22	-9.14143
pao❁5	-9.14143
mo❂14	-9.14143
ju❃4	-9.14143
chuang❁13	-9.14453
tie❁5	-9.14453
qing❄4	-9.14453
xi❃1	-9.14656
liu❃3	-9.14764
shi❁8	-9.14766
chun❂18	-9.1539
dong❁5	-9.15392
xie❄84	-9.15705
dong❄22	-9.15706
shui❄11	-9.16337
suan❄3	-9.16337
yang❂19	-9.16337
tao❂5	-9.16337
zhi❂20	-9.16338
tou❂5	-9.16655
zhong❁29	-9.16655
gen❁1	-9.16655
cheng❂30	-9.16973
mai❄6	-9.16973
mei❂25	-9.17292
bei❁12	-9.17292
qian❃5	-9.17292
pian❁2	-9.17294
ji❄95	-9.17613
shou❄8	-9.17935
wan❃26	-9.17935
nuo❄16	-9.18257
zhou❂3	-9.18257
yu❄52	-9.18257
rong❂33	-9.18581
hui❁23	-9.18581
wan❂6	-9.18581
zheng❁7	-9.18581
han❂20	-9.18601
zhu❄26	-9.1862
yin❂10	-9.18905
fu❄48	-9.19558
you❃9	-9.19887
fu❄74	-9.20216
<	-9.20545
jian❄17	-9.20545
fu❄64	-9.20876
ji❄59	-9.21208
xiao❄22	-9.21208
liang❄2	-9.21209
yuan❄10	-9.21209
bing❁4	-9.21211
tan❂29	-9.21541
pang❂9	-9.21876
cheng❂15	-9.21877
jian❁52	-9.22211
jin❁18	-9.22212
en❁2	-9.22858
zun❁2	-9.22886
jian❁22	-9.22887
chuang❂6	-9.23225
ke❂0	-9.23225
ji❁64	-9.23225
ting❂4	-9.23565
nian❄4	-9.23566
hua❂11	-9.23907
fan❄22	-9.24249
ke❁34	-9.24249
ze❂24	-9.24249
miao❃6	-9.2425
jia❁8	-9.24251
lian❂58	-9.24592
gua❄3	-9.24593
ni❂15	-9.24937
fu❄39	-9.24938
du❄10	-9.24938
}	-9.25283
wei❂11	-9.25284
pai❁0	-9.2563
diao❄8	-9.25631
di❂17	-9.25631
sen❁0	-9.25979
gan❁19	-9.25979
zhua❁0	-9.26328
pin❂15	-9.26329
qin❂29	-9.26329
wei❄37	-9.26329
mo❂12	-9.26329
yao❁15	-9.26329
jian❃36	-9.2668
xi❁51	-9.26681
miao❂7	-9.27032
dan❄43	-9.27032
gan❁31	-9.27032
gui❄22	-9.27385
ling❂99	-9.27385
chang❂20	-9.27385
po❁2	-9.2774
lao❂11	-9.2774
ya❂12	-9.2774
ni❃11	-9.27741
xu❄36	-9.28096
zhu❄20	-9.28096
」	-9.28452
tan❄9	-9.29171
jian❃52	-9.29172
an❄15	-9.29226
wei❄62	-9.29532
gu❃63	-9.29533
xiong❁12	-9.29894
{	-9.29894
huang❂34	-9.29894
tao❂20	-9.29894
jing❄44	-9.29895
jian❃18	-9.30258
gui❁35	-9.30258
tong❃9	-9.30258
wan❂12	-9.30258
zhao❄18	-9.30623
yi❂61	-9.30623
ji❄46	-9.30989
hui❄50	-9.31357
zhi❃22	-9.31358
yang❂10	-9.31726
zhao❁3	-9.32097
xiao❁29	-9.32468
shi❄60	-9.32468
zhou❁11	-9.32468
zhi❁27	-9.32468
chi❄49	-9.32841
jun❄36	-9.32841
zheng❁37	-9.32841
fei❂1	-9.32841
sha❁14	-9.32841
guan❁5	-9.33216
chen❂26	-9.33591
suo❃18	-9.33969
〔	-9.34728
jie❂48	-9.34728
shu❁34	-9.34728
ruo❄4	-9.34728
shou❄5	-9.34733
lun❂5	-9.35109
bo❁10	-9.3511
xuan❂15	-9.3511
xia❁10	-9.35111
xuan❁9	-9.35493
kan❁3	-9.35493
hun❂11	-9.35872
lang❂28	-9.35877
ban❁9	-9.35878
shi❄22	-9.35879
tu❂28	-9.36263
gong❁23	-9.36263
fei❄34	-9.36263
mian❃10	-9.36263
zheng❁15	-9.36264
tui❃7	-9.36651
lou❄9	-9.36651
lian❄22	-9.36652
「	-9.3704
zhuan❁6	-9.3704
lu❂23	-9.37431
ting❂5	-9.37431
xiang❁11	-9.37434
cu❄10	-9.37823
zhai❄4	-9.37823
qiang❁13	-9.38216
zha❂8	-9.38216
jie❄15	-9.38217
hang❂13	-9.38606
tai❄6	-9.38613
yan❄75	-9.39008
ban❁15	-9.39026
chi❃33	-9.39408
ru❃0	-9.39807
gua❁16	-9.39807
chao❂8	-9.39807
run❄4	-9.40209
dian❃5	-9.40209
shou❄9	-9.40209
tian❂15	-9.40209
′	-9.40595
dui❁14	-9.40612
bi❂5	-9.40612
cai❂3	-9.40612
fu❂51	-9.40613
cuo❄18	-9.41016
tou❄4	-9.41016
xi❁70	-9.41016
★	-9.41016
di❂40	-9.41017
shen❃7	-9.41017
cha❂12	-9.41018
ai❄35	-9.41406
xian❂50	-9.41423
pu❃13	-9.41426
ne❅	-9.41448
yu❄113	-9.41832
pu❄3	-9.41832
yu❄126	-9.41832
yi❃9	-9.41834
zhong❁10	-9.42654
xiao❄14	-9.42664
hui❄60	-9.43067
gao❄3	-9.43068
e❂39	-9.43069
nong❂10	-9.43481
rong❂50	-9.43481
xian❃46	-9.43481
liang❂5	-9.43481
feng❄3	-9.44316
ci❂22	-9.44317
zong❄12	-9.44736
zhong❁19	-9.44736
jing❄11	-9.44736
bang❁5	-9.44737
you❂26	-9.44738
bai❄7	-9.45158
zhi❂16	-9.45158
bao❁6	-9.45159
diao❁23	-9.45582
sang❁2	-9.45582
tiao❄6	-9.45582
yan❂37	-9.46007
xie❂27	-9.46008
_	-9.46434
guo❁22	-9.46435
zhi❁39	-9.46435
jiu❄29	-9.46435
xi❂9	-9.46435
she❂11	-9.46442
ying❂58	-9.46864
gou❄26	-9.46864
xiang❁7	-9.46866
chi❄45	-9.46866
hu❄36	-9.47291
lang❄4	-9.47295
ting❂8	-9.47295
xu❂1	-9.47295
xuan❂11	-9.47296
e❄47	-9.47324
mei❂43	-9.48162
chu❃9	-9.48163
dai❄20	-9.48163
ping❂25	-9.48599
man❄12	-9.486
ji❂52	-9.486
yan❂20	-9.49038
dun❄22	-9.49039
ci❂31	-9.49478
zhen❄16	-9.49479
xin❁20	-9.49479
zhu❄59	-9.49921
sui❄33	-9.49921
yao❂43	-9.49921
jian❄85	-9.50365
chen❁13	-9.50366
mu❃3	-9.50368
gui❃37	-9.5126
lv❃30	-9.5126
mi❂38	-9.5126
yi❃24	-9.5126
±	-9.5171
shu❁44	-9.51711
ya❁23	-9.51711
yi❄214	-9.52163
lie❄45	-9.52618
niao❄2	-9.52618
ji❁80	-9.52618
cai❂9	-9.52618
qin❂12	-9.52618
yin❃37	-9.53533
jin❃31	-9.53533
fa❂19	-9.53533
ba❄11	-9.53534
yu❃41	-9.53534
ji❂81	-9.53535
jia❁10	-9.53538
〕	-9.53994
ji❄48	-9.53995
xie❂49	-9.54457
can❂17	-9.54457
jiao❁24	-9.54458
jiang❁11	-9.54459
yin❃31	-9.54922
qin❂25	-9.54922
chong❁9	-9.54922
\	-9.55389
luo❂18	-9.55389
jian❁44	-9.55389
lv❄9	-9.55859
zhi❁43	-9.55859
xie❂14	-9.55859
su❄30	-9.5586
gang❃4	-9.5633
chen❂23	-9.5633
you❄21	-9.56331
ban❄11	-9.56331
cheng❂61	-9.56804
shi❄89	-9.56804
yang❂17	-9.56805
di❁15	-9.56805
xi❁161	-9.57281
yun❄27	-9.57281
jing❁14	-9.57281
cha❁11	-9.57281
shi❂35	-9.57283
an❄13	-9.5753
lao❁0	-9.57759
ming❂26	-9.57759
qi❃13	-9.57759
mo❂9	-9.57759
zui❃0	-9.5824
qi❁32	-9.5824
xun❄25	-9.5824
zui❄11	-9.58723
cun❄2	-9.59208
suo❃23	-9.59208
cai❄6	-9.59208
zou❄2	-9.59696
fu❄65	-9.59696
xian❄35	-9.59697
wu❁8	-9.59697
hu❁17	-9.60179
min❃24	-9.60186
tan❄5	-9.60186
jing❄19	-9.60186
→	-9.60679
fan❄28	-9.60679
jiang❄22	-9.60679
xiang❂6	-9.61174
ge❁8	-9.61175
xi❁65	-9.61671
ran❃11	-9.61672
hui❄79	-9.62171
fang❁9	-9.62172
fu❂22	-9.62172
yi❂79	-9.62172
she❄23	-9.62176
tong❂36	-9.62674
zhu❂18	-9.62674
you❂16	-9.62675
jing❁11	-9.62675
hui❁40	-9.63179
qi❃12	-9.63687
heng❂7	-9.63687
du❄12	-9.63688
shou❄3	-9.63688
pin❄1	-9.64197
zu❁0	-9.64197
wan❂3	-9.64197
yan❁37	-9.64198
lin❂43	-9.6471
sui❄29	-9.6471
da❁12	-9.6471
吗	-9.65225
pen❁1	-9.65225
yu❃24	-9.65225
xiao❄12	-9.65225
jing❃23	-9.65225
bao❁9	-9.65226
ma❃6	-9.65744
dian❄18	-9.66264
bao❃10	-9.66264
lin❂32	-9.66264
gun❃8	-9.66788
tu❁14	-9.66788
beng❄6	-9.66788
gan❃8	-9.66788
xian❂27	-9.67314
che❃7	-9.67314
da❂24	-9.67314
pu❃7	-9.67314
zha❁9	-9.67314
chuang❂5	-9.67843
xiao❃3	-9.67845
wu❂11	-9.67847
m2	-9.67889
hou❂10	-9.68375
ding❃12	-9.68375
liang❂11	-9.68377
jian❄40	-9.68909
mou❂17	-9.6891
shang❃6	-9.68915
tian❂8	-9.69448
chui❁1	-9.69448
sa❁2	-9.69453
nang❂2	-9.69988
ji❃13	-9.69989
piao❄5	-9.70531
ma❃8	-9.70532
kai❃2	-9.71105
guai❄7	-9.71627
jian❁67	-9.71628
jin❁24	-9.71628
bin❁5	-9.71628
bing❁5	-9.71632
su❄33	-9.72181
dai❄35	-9.72204
#	-9.72735
chou❁5	-9.72735
han❄34	-9.72736
li❃28	-9.72736
xun❂11	-9.72736
di❄51	-9.72737
lang❃9	-9.73294
xu❄69	-9.73294
bin❁12	-9.73294
hong❂67	-9.73294
jue❂104	-9.73294
chuang❁11	-9.73294
hong❂21	-9.73294
hao❂25	-9.73856
gui❁28	-9.73856
he❂46	-9.73856
mie❄10	-9.73856
bai❃6	-9.73857
gu❄23	-9.73857
gou❃3	-9.73864
ji❂107	-9.74421
zhuang❄0	-9.74421
yu❄40	-9.74421
qiu❁8	-9.74422
liu❂33	-9.74989
pen❂2	-9.7556
cang❁0	-9.7556
liang❄10	-9.7556
lu❄91	-9.7556
mao❁0	-9.7556
ci❂20	-9.75562
fei❁12	-9.75564
xian❂18	-9.76135
kou❄7	-9.76135
tu❂25	-9.76135
zhen❁25	-9.76135
pao❃0	-9.76713
keng❁7	-9.76713
zao❁7	-9.76713
nen❄4	-9.76713
bai❃4	-9.76714
huan❄19	-9.76716
han❄38	-9.76831
cui❄30	-9.77294
fei❄18	-9.77295
gang❁23	-9.77295
tai❁4	-9.77295
wu❄44	-9.77295
qi❄34	-9.77295
ce❄26	-9.77295
mu❄10	-9.77295
ge❂52	-9.77295
yan❂72	-9.77879
jiu❁16	-9.77879
lian❂30	-9.77879
ping❂10	-9.77879
yuan❂53	-9.77879
he❄27	-9.7788
bian❄43	-9.7788
jing❄46	-9.7788
qi❂104	-9.7788
jian❃48	-9.78467
miao❄0	-9.78467
hai❄8	-9.78468
qiang❁24	-9.78468
lin❂20	-9.78468
≤	-9.79059
he❄35	-9.79059
que❁0	-9.79654
mian❂13	-9.79655
yue❄41	-9.79655
man❄11	-9.79656
e❂11	-9.80221
luan❃0	-9.80253
bang❁13	-9.80253
bing❃9	-9.80253
zuan❁4	-9.80253
jin❄38	-9.80254
zhong❄3	-9.80254
nian❂9	-9.80255
zhang❃2	-9.80257
jing❄17	-9.80856
hang❂8	-9.80856
li❂98	-9.80856
xin❁17	-9.80858
heng❂14	-9.81053
〉	-9.81462
jing❃27	-9.81462
chen❂15	-9.81462
cu❄30	-9.81462
si❁33	-9.81462
lv❄12	-9.81462
bao❄12	-9.81464
bao❄11	-9.81464
chong❂5	-9.81464
zhai❁3	-9.82072
lian❃12	-9.82072
ju❄30	-9.82072
lian❄27	-9.82072
quan❂10	-9.82072
yue❄21	-9.82072
wei❃14	-9.82073
di❄27	-9.82074
ban❄13	-9.82078
suan❄4	-9.82685
tao❂17	-9.82685
du❄21	-9.82685
fan❄17	-9.82685
fu❃34	-9.82685
xian❄61	-9.82686
bi❄157	-9.82686
ni❄27	-9.82688
huai❄0	-9.83302
lei❃25	-9.83302
dong❃8	-9.83302
liao❂37	-9.83302
lian❄17	-9.83302
wang❂0	-9.83302
can❁13	-9.83352
hui❃8	-9.83924
e❄81	-9.83925
he❂52	-9.83928
ying❂59	-9.84548
|	-9.84548
guan❄23	-9.84548
yu❄42	-9.84548
fu❃28	-9.84549
yu❄31	-9.8455
yi❄183	-9.84551
zhao❁4	-9.84554
niang❂0	-9.85177
ji❄83	-9.85177
hun❂21	-9.85177
suo❁15	-9.85178
zui❄15	-9.85178
shu❄47	-9.85178
jin❁17	-9.85178
ding❄15	-9.85179
huo❄61	-9.8581
nuan❃2	-9.8581
ta❄43	-9.8581
dui❁9	-9.8581
dang❄12	-9.85811
tan❂20	-9.85811
lou❄2	-9.86447
chu❄36	-9.86455
wei❂51	-9.87088
tan❃4	-9.87088
xiong❂1	-9.87088
bai❄15	-9.87089
xiang❃5	-9.8709
gao❃5	-9.8709
fu❄24	-9.87091
hu❄14	-9.87094
n	-9.87704
lian❄8	-9.87734
fan❂35	-9.87734
xin❁25	-9.87734
a❁2	-9.88093
feng❄7	-9.88383
zhong❃7	-9.88383
bing❃29	-9.88394
yuan❄14	-9.88434
d	-9.88685
jian❄56	-9.89036
min❃13	-9.89037
lie❄34	-9.89037
jian❄77	-9.89694
ze❂44	-9.89694
jie❄24	-9.89694
tong❃5	-9.89694
xuan❂9	-9.89694
su❂0	-9.89695
ji❄63	-9.89695
xiu❁9	-9.89695
shen❁23	-9.90356
shu❃23	-9.90356
teng❂14	-9.90356
ao❄25	-9.90383
shan❁13	-9.90473
hou❄5	-9.91019
hu❂22	-9.9143
cao❂8	-9.91694
xie❁3	-9.91694
pan❁4	-9.91694
hun❁4	-9.91695
cang❁14	-9.9237
kuang❂3	-9.9237
seng❁1	-9.9237
xue❂14	-9.9237
gao❃12	-9.9237
wang❄3	-9.92371
duo❃21	-9.92371
zhen❄33	-9.92371
lin❂51	-9.9305
ya❂18	-9.93051
chui❂5	-9.93051
qing❁3	-9.93052
zeng❄6	-9.93735
gong❄9	-9.93735
tan❂8	-9.93735
wo❄16	-9.93735
li❂41	-9.93736
mao❄32	-9.93737
shen❁5	-9.93737
bi❄145	-9.94425
wang❁6	-9.94425
fang❃18	-9.94425
yu❄109	-9.95119
xi❁87	-9.9512
pei❂3	-9.95818
xie❂48	-9.95818
rou❂6	-9.95819
bi❄100	-9.95819
wang❄2	-9.9582
xing❂7	-9.9582
qing❁1	-9.96446
wu❄48	-9.96523
ji❂67	-9.96523
tun❂3	-9.96523
cao❁3	-9.97232
cao❂10	-9.97232
meng❄7	-9.97232
kuo❄15	-9.97232
fu❂41	-9.97233
xi❂12	-9.97233
qing❁7	-9.97233
bao❄15	-9.97233
long❄5	-9.97946
ning❂6	-9.97947
guan❄33	-9.97947
hou❂11	-9.97947
gou❃2	-9.97947
lv❄11	-9.97947
wei❂7	-9.97948
he❁5	-9.98551
jun❄13	-9.98666
bang❄9	-9.98666
mao❄39	-9.98666
shu❁38	-9.98666
mu❄20	-9.98667
ji❁54	-9.98667
zhi❃13	-9.98668
zu❃11	-9.9867
fu❄57	-9.9939
cu❄9	-9.99391
ran❂13	-9.99391
xiang❄10	-9.99391
pi❂22	-9.99391
qi❁15	-9.99391
she❂3	-9.99392
shua❁1	-9.99532
gai❄22	-10.0012
ying❁67	-10.0012
xiao❄23	-10.0012
yong❃6	-10.0012
he❄26	-10.0012
jian❁17	-10.0012
di❂41	-10.0086
tu❃0	-10.0086
ba❂11	-10.0086
yi❄225	-10.0086
tan❂21	-10.0086
kao❃6	-10.0086
chan❂33	-10.016
lan❄6	-10.016
xia❂45	-10.016
jue❂33	-10.016
ping❂7	-10.016
fang❃6	-10.016
tong❂22	-10.0234
wa❁10	-10.0234
ben❃9	-10.0234
ken❃6	-10.0234
jia❃17	-10.0234
xian❂54	-10.0309
liao❂24	-10.031
fang❁2	-10.031
hu❁13	-10.0347
ling❂114	-10.0385
◆	-10.0385
rao❄2	-10.0385
bi❄98	-10.0385
qian❂22	-10.0385
jian❃19	-10.0385
mai❂5	-10.0385
pin❁3	-10.0385
tan❁12	-10.0385
yu❂66	-10.0385
chun❂23	-10.0385
ji❂75	-10.0385
meng❂34	-10.0385
she❂9	-10.0385
ju❄45	-10.0385
dian❄7	-10.0385
ci❄23	-10.0462
chai❁2	-10.0462
lu❂10	-10.0462
pin❂12	-10.0462
xi❂22	-10.0462
zao❃3	-10.0462
pi❁12	-10.0462
du❁8	-10.0462
jun❁3	-10.0462
ou❃3	-10.0535
die❂19	-10.0538
ge❂38	-10.0538
wen❃10	-10.0538
ge❂54	-10.0539
ju❃9	-10.0539
ai❂12	-10.0539
guan❄31	-10.0616
zan❄17	-10.0616
zhuan❄6	-10.0616
huang❁9	-10.0616
jin❁26	-10.0616
fan❁11	-10.0616
yan❁34	-10.0616
shu❄27	-10.0616
qian❁61	-10.0616
ai❁5	-10.068
feng❂5	-10.0694
jing❄31	-10.0694
ci❂35	-10.0694
fu❂38	-10.0694
jie❁32	-10.0694
qi❄43	-10.0694
pan❄10	-10.0694
tang❄2	-10.0694
feng❁43	-10.0773
teng❂13	-10.0773
qiao❃3	-10.0773
chi❂13	-10.0773
xian❁39	-10.0773
huan❁7	-10.0773
sou❁13	-10.0773
wei❂21	-10.0773
z	-10.0802
gang❁24	-10.0852
hao❄35	-10.0852
ban❄3	-10.0853
di❃10	-10.0853
geng❃8	-10.0932
qi❂48	-10.0932
tuo❁8	-10.0932
ba❄25	-10.0932
duo❂3	-10.0932
zha❁16	-10.0932
chang❂14	-10.0932
zai❁4	-10.0932
yu❂34	-10.0933
ˋ	-10.1013
〈	-10.1013
dao❄11	-10.1013
zhe❄9	-10.1013
gan❁7	-10.1013
ru❂7	-10.1013
mi❄45	-10.1013
an❁18	-10.1082
bing❃2	-10.1093
qiong❂28	-10.1094
zei❂3	-10.1094
xian❄51	-10.1094
zhou❁17	-10.1094
diao❄5	-10.1094
da❁17	-10.1094
she❄17	-10.1094
fang❃15	-10.1094
shao❄12	-10.1176
zuo❃1	-10.1176
fu❄32	-10.1176
piao❁11	-10.1176
xiao❁51	-10.1259
ca❁4	-10.1259
kuang❁9	-10.1259
gui❁46	-10.1259
deng❄8	-10.1259
shao❂3	-10.1259
shui❄9	-10.1259
fu❃16	-10.1259
he❂47	-10.1342
huai❂8	-10.1342
la❄28	-10.1342
chu❃3	-10.1342
cong❂5	-10.1343
ju❄14	-10.1343
jiao❁21	-10.1343
ˊ	-10.1426
lang❂17	-10.1426
mai❄12	-10.1426
xie❄80	-10.1426
na❄28	-10.1426
zhi❁44	-10.1426
xi❁107	-10.1426
dan❄30	-10.1426
jie❄13	-10.1426
jiao❁22	-10.1427
na❄15	-10.1427
dao❄14	-10.1433
μ	-10.1511
dong❃6	-10.1511
xiang❂11	-10.1511
nai❃2	-10.1511
ji❄120	-10.1511
gan❄19	-10.1512
zhen❁44	-10.1512
ㄧ	-10.1596
hao❄23	-10.1596
bian❃4	-10.1596
shai❄1	-10.1596
zhai❂1	-10.1596
mao❄37	-10.1596
jie❂42	-10.1596
zhao❄9	-10.1597
you❁10	-10.1597
lv❃7	-10.1683
lv❃9	-10.1683
wo❄8	-10.1683
hou❄10	-10.1683
gao❁16	-10.1683
han❂15	-10.1683
sha❁17	-10.1683
wo❁5	-10.1683
ren❄30	-10.177
wan❁7	-10.177
yong❁17	-10.177
qiang❃2	-10.177
que❄26	-10.177
hu❄46	-10.177
qi❁22	-10.177
mu❄24	-10.177
dong❄11	-10.177
xing❄12	-10.177
chuan❄0	-10.1857
xu❄68	-10.1857
mei❂30	-10.1857
jiang❃16	-10.1857
ming❂24	-10.1857
lei❄10	-10.1857
yan❄45	-10.1857
meng❃3	-10.1857
yi❄226	-10.1857
xun❄26	-10.1857
xiang❃3	-10.1857
gu❁11	-10.1857
ben❁2	-10.1858
xuan❁39	-10.1946
sheng❂5	-10.1946
zhuo❁8	-10.1946
juan❁9	-10.1946
yu❄115	-10.1946
tian❁7	-10.1946
huan❃7	-10.1946
jia❄9	-10.1946
shan❃11	-10.1953
hen❄1	-10.2031
yu❂108	-10.2035
luo❄24	-10.2035
zong❁16	-10.2035
dun❄9	-10.2035
tong❃3	-10.2035
zhai❁2	-10.2035
she❄13	-10.2035
shi❁20	-10.2035
jing❄30	-10.2125
sun❃4	-10.2125
san❃5	-10.2125
qi❄23	-10.2125
ren❃1	-10.2129
l	-10.2176
qian❁35	-10.2216
pa❄1	-10.2216
kun❁9	-10.2216
tiao❁4	-10.2216
xing❄15	-10.2216
pi❁7	-10.2216
jing❁31	-10.2247
shu❃12	-10.2308
sha❁18	-10.2308
you❄32	-10.2308
yao❄11	-10.2308
zhen❄31	-10.2308
cui❁16	-10.24
hong❂54	-10.24
shou❄15	-10.24
che❄24	-10.24
ye❁8	-10.24
mao❄16	-10.24
fu❂62	-10.24
xia❂10	-10.24
qu❁17	-10.2401
zi❁9	-10.2401
di❁11	-10.2401
ge❁11	-10.2401
ji❄121	-10.2401
jia❄3	-10.2401
gan❃19	-10.2494
ying❄7	-10.2494
zhu❂24	-10.2494
fu❂48	-10.2494
wu❁17	-10.2494
bi❄117	-10.2494
chong❁20	-10.2494
bo❁8	-10.2494
zang❄7	-10.2588
tan❄8	-10.2588
xiong❁2	-10.2588
feng❁52	-10.2588
hui❄51	-10.2588
shu❁12	-10.2588
chai❂6	-10.2588
you❁9	-10.2588
xie❂24	-10.2588
pan❄2	-10.2588
man❄13	-10.2589
ying❂36	-10.2683
yi❄144	-10.2683
quan❃3	-10.2683
zhen❃27	-10.2683
gu❁9	-10.2684
fan❄15	-10.2684
qi	-10.2722
]	-10.278
yao❂55	-10.278
yan❄67	-10.278
gong❃12	-10.278
pu❂22	-10.278
mei❃16	-10.278
xi❁124	-10.278
xiao❁8	-10.278
≥	-10.2877
bi❄73	-10.2877
ti❄21	-10.2877
chu❄29	-10.2877
xia❂13	-10.2877
xiu❄11	-10.2878
c	-10.2943
hu❂43	-10.2974
mian❂22	-10.2975
ㄨ	-10.2975
qiong❂23	-10.2975
yu❂67	-10.2975
ci❂15	-10.2975
xiang❂9	-10.2975
ya❂7	-10.2975
zhuo❂8	-10.2975
ke❁7	-10.2975
e❂45	-10.2981
m	-10.3035
chen❂38	-10.3074
lai❄19	-10.3074
jian❄50	-10.3074
geng❁17	-10.3074
qiao❁28	-10.3074
pei❄5	-10.3074
hui❁15	-10.3174
li❄155	-10.3174
nu❂1	-10.3174
ji❃15	-10.3174
jin❄20	-10.3174
shi❄20	-10.3175
huan❄18	-10.3199
yu❄54	-10.3275
rong❂43	-10.3275
yun❄7	-10.3275
zhan❃16	-10.3275
ti❁6	-10.3275
liu❂31	-10.3275
ji❄35	-10.3275
nu❄2	-10.3276
an❄19	-10.3328
ao❁4	-10.3368
qu❁49	-10.3377
zan❄5	-10.3377
yao❂32	-10.3377
sou❁9	-10.3377
bei❁6	-10.3377
mi❂37	-10.3377
xun❂14	-10.3377
ge❁6	-10.3377
の	-10.348
ji❄55	-10.348
shuang❁11	-10.348
chou❄2	-10.348
sao❃3	-10.348
hun❄10	-10.348
weng❁6	-10.348
chang❄9	-10.348
lan❂25	-10.348
yue❄25	-10.348
shai❁2	-10.348
yan❁17	-10.348
pan❂4	-10.348
yao❁19	-10.348
shao❄10	-10.348
wei❁10	-10.3481
tou❁0	-10.3584
pa❄0	-10.3584
zang❄4	-10.3584
bo❂40	-10.3584
yao❂20	-10.3584
jie❂40	-10.3584
ling❂36	-10.3584
gang❁5	-10.3584
po❄12	-10.3584
xin❁13	-10.3585
s	-10.3637
fen❁19	-10.3689
ji❃22	-10.3689
pao❁3	-10.3689
xin❁24	-10.3689
tao❃3	-10.3689
fan❃4	-10.3689
ku❁14	-10.3689
ling❂95	-10.3689
tan❂30	-10.3689
yuan❂26	-10.3689
ta❄26	-10.3689
tu❁4	-10.3689
zao❃9	-10.3689
ci❂24	-10.3689
na❃2	-10.369
rui❄20	-10.3796
tu❂38	-10.3796
die❁4	-10.3796
lu❄53	-10.3796
fei❄27	-10.3796
quan❄2	-10.3796
xi❁135	-10.3796
die❂56	-10.3796
su❁13	-10.3796
ben❃3	-10.3796
a❁3	-10.3882
dang❄23	-10.3903
feng❂17	-10.3903
shuai❄1	-10.3903
hong❂25	-10.3903
kan❃7	-10.3903
jie❁15	-10.3903
mu❄13	-10.3903
la❄20	-10.3903
zhe❂16	-10.3903
zi❁13	-10.3904
ang❂7	-10.3948
g	-10.3973
bi❄144	-10.4012
peng❂37	-10.4012
cheng❂45	-10.4012
kun❄1	-10.4012
qian❁52	-10.4012
chou❂29	-10.4012
rao❂9	-10.4012
yue❄48	-10.4012
cheng❁18	-10.4012
kong❃2	-10.4012
shu❃16	-10.4012
zai❃4	-10.4012
jiao❃52	-10.4012
shao❄5	-10.4122
bian❄38	-10.4122
zha❂16	-10.4122
mi❄33	-10.4122
xie❄51	-10.4122
han❄29	-10.4123
yu❄104	-10.4233
zhao❄30	-10.4233
pa❂3	-10.4233
y	-10.4334
lan❃28	-10.4345
mi❂15	-10.4345
yan❁27	-10.4345
cai❂7	-10.4345
yang❃4	-10.4345
ting❂9	-10.4345
gu❁25	-10.4345
nao❄3	-10.4346
he❄23	-10.4458
yu❄87	-10.4459
yi❂58	-10.4459
ju❂38	-10.4459
qian❁39	-10.4459
qin❁16	-10.4459
xue❁2	-10.4459
xing❃5	-10.4459
gou❁9	-10.4459
jia❃19	-10.4459
tan❄3	-10.4459
dan❁15	-10.4478
[	-10.4574
zong❁24	-10.4574
bo❅0	-10.4574
cui❃3	-10.4574
han❄43	-10.4574
xie❄54	-10.4574
bo❂52	-10.4574
tu❄1	-10.4574
shi❄19	-10.4574
ji	-10.4631
◎	-10.469
xi❁46	-10.469
zhi❃40	-10.469
tie❁0	-10.469
xie❄55	-10.469
bang❃2	-10.469
pi❄14	-10.4691
an❁16	-10.476
su❄67	-10.4808
○	-10.4808
chi❂48	-10.4808
mao❄18	-10.4808
qian❃14	-10.4808
bi❃17	-10.4808
peng❂8	-10.4808
zao❄6	-10.4808
xian❄63	-10.4808
wu❃15	-10.4808
wu❄26	-10.4808
zhu❄35	-10.4808
yu❄28	-10.4808
nai❄2	-10.4808
bao❁2	-10.4808
zhang❄2	-10.4808
sang❄0	-10.4927
bei❄55	-10.4927
yong❃8	-10.4927
mao❂18	-10.4927
ba❄21	-10.4927
chun❂11	-10.4928
sh	-10.4957
α	-10.5047
mo❄75	-10.5047
niu❃9	-10.5047
mei❂47	-10.5047
ju❄39	-10.5047
bi❄51	-10.5047
ku❄18	-10.5047
gai❄11	-10.5047
zhai❃2	-10.5047
qian❂46	-10.5047
ji❂74	-10.5047
ru❃2	-10.5047
xun❂16	-10.5047
qiao❂5	-10.5047
tao❂9	-10.5047
jie❂27	-10.5048
fei❁4	-10.5048
ao❁8	-10.5107
23	-10.5124
lin❂53	-10.5169
kuo❄7	-10.5169
ting❃4	-10.5169
qu❁29	-10.5169
ya❄29	-10.5169
dan❄27	-10.5169
yue❄56	-10.5169
yu❄35	-10.5169
shan❄22	-10.5169
lu❃4	-10.5169
shi❂19	-10.517
ke❁8	-10.517
wei❄22	-10.517
shan❃12	-10.517
die❂47	-10.5293
yi❄137	-10.5293
kuo❄17	-10.5293
cui❄32	-10.5293
zhang❄19	-10.5293
jue❂76	-10.5293
pu❂20	-10.5293
dang❃3	-10.5293
dun❁4	-10.5293
ku❁9	-10.5293
yi❄103	-10.5293
′′	-10.5295
hu❁23	-10.5417
yu❂96	-10.5418
fu❁22	-10.5418
bi❁12	-10.5418
zhi❄64	-10.5418
yi❂44	-10.5544
qin❂28	-10.5544
gua❁8	-10.5544
sun❃7	-10.5544
chen❂20	-10.5544
ban❁7	-10.5544
mo❃2	-10.5544
yu❄105	-10.5672
fu❁39	-10.5672
tai❂13	-10.5673
chui❂10	-10.5673
wei❃15	-10.5673
wu❃11	-10.5673
zai❁1	-10.5674
hou❂13	-10.5744
pi	-10.5751
ding❁12	-10.5802
gou❁23	-10.5802
jiao❃22	-10.5802
can❂19	-10.5802
shen❄9	-10.5802
xiu❄19	-10.5803
wu❄14	-10.5803
qi❃21	-10.5803
xi	-10.5926
ˇ	-10.5934
jiu❁19	-10.5934
xun❄30	-10.5934
rong❂48	-10.5934
chan❂40	-10.5934
yuan❄9	-10.5934
yan❄25	-10.5934
le❄16	-10.5934
bo❁13	-10.5934
ci❂26	-10.5934
shi❂32	-10.5934
zhan❃22	-10.6067
cheng❂38	-10.6067
bian❄39	-10.6067
song❄8	-10.6067
zhao❄24	-10.6067
zhen❃12	-10.6067
tao❁16	-10.6067
ji❂94	-10.6067
yao❁8	-10.6069
―	-10.6202
mang❂29	-10.6202
zhui❁6	-10.6202
rong❂36	-10.6202
yu❃38	-10.6202
xu❄73	-10.6202
yin❁30	-10.6202
chou❃1	-10.6202
bao❁7	-10.6203
zhi❂22	-10.6203
wan❃24	-10.6203
chao❂3	-10.6203
jie❃1	-10.6203
ye❃2	-10.6204
li	-10.6275
rao❃1	-10.6339
li❄68	-10.6339
pan❁3	-10.6339
fu❃24	-10.6339
kan❁5	-10.634
yang❁4	-10.634
po❄21	-10.6478
gou❄10	-10.6478
gui❃35	-10.6478
li❂53	-10.6478
peng❂11	-10.6478
gong❁20	-10.6478
yu❄36	-10.6478
zheng❄11	-10.6479
xiang❁25	-10.648
b	-10.6514
wen❃3	-10.6619
chou❂12	-10.6619
ling❂62	-10.6619
zhuang❄3	-10.6619
dun❁9	-10.6619
fa❂5	-10.6619
lin❂25	-10.6619
bu❃9	-10.6619
yi❂28	-10.6619
hu❂26	-10.6619
chao❁11	-10.6619
shen❄5	-10.6619
fa❂13	-10.6619
du❃3	-10.6619
bao❁5	-10.6619
10	-10.6692
20	-10.6722
po❂3	-10.6762
chou❂20	-10.6762
xian❄66	-10.6762
qiu❁27	-10.6762
qu❄11	-10.6762
xie❁5	-10.6762
rou❂5	-10.6762
dian❄24	-10.6762
du❃11	-10.6764
xiang❁19	-10.6805
chuang❁8	-10.6907
sui❂8	-10.6907
peng❂12	-10.6907
fan❂26	-10.6907
qing❂8	-10.6907
yu❂61	-10.6907
zhuang❁3	-10.6907
gao❁13	-10.6907
la❁4	-10.6907
yao❂42	-10.6907
yan❃45	-10.6907
ai❁1	-10.7053
long❃12	-10.7054
shuang❃7	-10.7054
sui❂6	-10.7054
zhang❄18	-10.7054
zai❁0	-10.7054
zao❄5	-10.7054
zi❁23	-10.7054
qin❁5	-10.7054
fu❄72	-10.7055
chou❂28	-10.7203
mang❂15	-10.7203
zun❁7	-10.7203
long❂40	-10.7203
shu❄35	-10.7203
luo❂15	-10.7203
han❂25	-10.7203
xun❁3	-10.7203
mei❄5	-10.7203
yi❄113	-10.7203
zhao❃5	-10.7203
gong❁19	-10.7204
qi❂61	-10.7204
ju	-10.7352
–	-10.7355
xie❄37	-10.7355
shuo❄15	-10.7355
song❄11	-10.7355
zao❂1	-10.7355
qia❄9	-10.7355
ji❁66	-10.7355
tuo❂31	-10.7355
pian❄3	-10.7355
xiong❁4	-10.7355
peng❂26	-10.7355
yuan❁16	-10.7355
shan❁16	-10.7357
zou❁8	-10.7362
β	-10.7509
lei❃29	-10.7509
ruan❃18	-10.7509
bao❄29	-10.7509
tao❂13	-10.7509
mo❁	-10.7509
zhang❄5	-10.7509
jin❁15	-10.7509
ji❁37	-10.7509
dun❄20	-10.7509
cha❁5	-10.7509
li❁	-10.751
yu	-10.7568
qu❁40	-10.7665
guan❄12	-10.7665
qian❄21	-10.7665
tai❄11	-10.7665
ye❂4	-10.7665
ju❃16	-10.7665
zi❁15	-10.7665
tai❄15	-10.7665
yu❂46	-10.7665
jiao❁41	-10.7665
tan❁18	-10.7665
jia❁4	-10.7676
Ω	-10.7823
】	-10.7823
ting❃12	-10.7824
cang❁7	-10.7824
chui❂16	-10.7824
yao❃16	-10.7824
lv❃11	-10.7824
huo❃0	-10.7824
chun❂13	-10.7824
lu❂14	-10.7824
chu❂15	-10.7824
hui❁12	-10.7824
ke❃10	-10.7824
qiao❂6	-10.7824
kan❁4	-10.7824
jia❁30	-10.7824
qu❃2	-10.7824
kan❃12	-10.7825
ken❃1	-10.7865
13	-10.7946
cang❁12	-10.7985
yu❂118	-10.7985
ya❁14	-10.7985
fen❁17	-10.7985
di❄58	-10.7985
feng❁21	-10.7985
xia❂21	-10.7985
ge❄9	-10.7985
xi❁56	-10.7985
fan❁15	-10.7987
hu	-10.807
xu❄43	-10.8149
hao❂14	-10.8149
su❄58	-10.8149
zhuang❁0	-10.8149
bang❄14	-10.8149
hun❂10	-10.8149
yong❁14	-10.8149
zhan❁12	-10.8149
quan❄1	-10.8149
dou❄13	-10.8149
wu❁9	-10.8149
wu❂18	-10.8149
fu❄26	-10.815
18	-10.8229
ao❄9	-10.8313
zhen❁4	-10.8314
◇	-10.8315
lan❂36	-10.8315
cui❁6	-10.8315
hui❄34	-10.8315
lang❂18	-10.8315
yan❄43	-10.8315
ju❂27	-10.8315
qin❄10	-10.8316
ping❂31	-10.8316
guo❃11	-10.8316
cheng❂13	-10.8316
ni❁	-10.8321
chu	-10.8434
II	-10.8485
chuang❃7	-10.8485
wo❄12	-10.8485
li❄98	-10.8485
dao❃12	-10.8485
kan❃4	-10.8485
ti❂30	-10.8485
xiang❄12	-10.8485
zhe❁4	-10.8485
ka❁2	-10.8485
zhi❃20	-10.8485
ai❃12	-10.8486
xun❂42	-10.8486
jiang❄3	-10.8486
xi❁99	-10.8486
sheng❄1	-10.8489
shu❃8	-10.8491
xu	-10.8607
zhui❄0	-10.8657
∶	-10.8657
ー	-10.8657
chi❂55	-10.8657
pei❂5	-10.8657
lu❄92	-10.8657
chen❄10	-10.8657
lang❂12	-10.8657
lan❂28	-10.8657
tai❁5	-10.8658
qiao❁8	-10.8658
ch	-10.8779
gu	-10.8785
@	-10.8833
huo❄44	-10.8833
xiao❁42	-10.8833
yong❁33	-10.8833
zhi❃37	-10.8833
shi❄84	-10.8833
yun❁2	-10.8833
xu❄32	-10.8833
si❄26	-10.8833
li❄153	-10.8833
kui❂35	-10.8833
pi❁9	-10.8833
zhang❃3	-10.8833
hen❂2	-10.901
li❄108	-10.9011
lia❃0	-10.9011
men❄9	-10.9011
bian❁22	-10.9011
can❃4	-10.9011
yi❂54	-10.9011
bing❃10	-10.9011
chong❃2	-10.9011
zi❃17	-10.9011
se❄23	-10.9012
ma❅1	-10.9012
fan❁4	-10.9012
dai❄45	-10.9012
zhang❁10	-10.9012
hu❂36	-10.9065
14	-10.9073
ta	-10.9079
kuang❄1	-10.9183
ou❃11	-10.9193
^	-10.9193
bao❃27	-10.9193
se❄15	-10.9193
ze❂19	-10.9193
bin❁7	-10.9193
tun❁1	-10.9193
heng❁0	-10.9193
bu❄21	-10.9194
kun❁4	-10.9194
geng❁4	-10.9194
chu❃14	-10.9194
ti	-10.9279
fou❃0	-10.9378
pei❂12	-10.9378
ting❃9	-10.9378
rong❂47	-10.9378
nie❄42	-10.9378
qiao❄20	-10.9378
lian❂29	-10.9378
lao❂23	-10.9378
zhi❁40	-10.9378
cong❁36	-10.9378
ting❁10	-10.9378
nong❂17	-10.9378
tong❂44	-10.9378
wei❁33	-10.9379
chang❂6	-10.9379
bian❁3	-10.9379
qiao❄14	-10.9382
e❂13	-10.9437
☆	-10.9567
bing❃15	-10.9567
cui❁3	-10.9567
yan❂69	-10.9567
ma❄19	-10.9567
duo❄9	-10.9567
he❂70	-10.9567
ya❅	-10.9567
zhai❄2	-10.9567
wa❁13	-10.9567
wei❂13	-10.9567
kui❂21	-10.9568
meng❃10	-10.9568
nu❃1	-10.9573
mang❂25	-10.9759
yu❄67	-10.9759
yi❄159	-10.9759
lie❄21	-10.9759
shuo❄7	-10.9759
di❂23	-10.9759
jian❁19	-10.976
zai❃5	-10.976
jie❄34	-10.976
yi❃22	-10.976
dian❄19	-10.976
gun❃21	-10.9955
ying❃24	-10.9955
xian❂44	-10.9955
hai❁6	-10.9955
wei❄40	-10.9955
gui❁24	-10.9955
shu❁29	-10.9956
shu❁26	-10.9956
huang❂16	-10.9956
wei❃48	-10.9956
yao❂22	-10.9956
mo❄37	-10.9956
qi❂34	-10.9956
you❁11	-10.9956
ying❁11	-10.9956
qi❄22	-10.9956
jiao❃51	-10.9956
yi❄104	-10.9956
jiang❁16	-10.9956
shu❃14	-10.9958
❁5	-11.0077
【	-11.0155
nie❄68	-11.0155
jian❄39	-11.0155
zhou❄22	-11.0155
duo❃28	-11.0156
ni❄24	-11.0156
hu❂47	-11.0156
dun❄11	-11.0156
tan❁9	-11.0156
jie❁18	-11.0156
ze❃	-11.0156
kui❁2	-11.0156
shuan❁1	-11.0156
wei❄34	-11.0156
pan❄3	-11.0156
wei❄27	-11.0156
ga❁1	-11.0157
wei❄19	-11.0159
hun❁7	-11.0192
29	-11.0276
t	-11.0308
ji❁74	-11.0359
ン	-11.0359
xi❁71	-11.036
yi❄217	-11.036
zhang❄15	-11.036
yi❄239	-11.036
ju❄36	-11.036
tu❂20	-11.036
bang❄6	-11.036
sha❄6	-11.036
liao❂29	-11.036
chen❄14	-11.036
jing❁16	-11.036
yan❂41	-11.036
zhang❁9	-11.036
gao❁9	-11.036
mei❂12	-11.036
shu❁23	-11.0361
yi❃11	-11.0369
jun❁24	-11.0434
niang❄1	-11.0568
dai❄38	-11.0568
chi❁19	-11.0568
wan❄11	-11.0568
zhuo❂28	-11.0568
yuan❂21	-11.0568
shi❄74	-11.0568
wan❂11	-11.0568
bei❁5	-11.0568
man❂21	-11.0568
zi❃9	-11.0568
yu❁6	-11.0569
ku	-11.0721
❁10	-11.0778
か	-11.0781
jian❄58	-11.0781
pu❁3	-11.0781
fen❁22	-11.0781
qi❂111	-11.0781
ji❂58	-11.0781
jia❁36	-11.0781
yun❄14	-11.0781
ba❂19	-11.0781
ying❂43	-11.0781
yin❃11	-11.0781
ji❂93	-11.0781
yong❃22	-11.0781
lv❂10	-11.0782
si❄16	-11.0782
$	-11.0998
sao❁14	-11.0998
diao❄23	-11.0998
juan❄9	-11.0998
ma❁0	-11.0998
gan❃13	-11.0998
fan❂22	-11.0998
pu❂19	-11.0998
ya❁22	-11.0998
yin❂12	-11.0998
huai❂7	-11.0998
zhi❄68	-11.0998
chuan❃1	-11.0998
miao❂5	-11.0998
ti❁7	-11.0998
zao❄2	-11.0998
ju❁17	-11.0998
wo❁2	-11.0998
pi❂16	-11.0999
mi	-11.1108
■	-11.122
meng❂40	-11.122
ge❂40	-11.122
fen❂14	-11.122
dian❁12	-11.122
geng❃11	-11.122
xun❁15	-11.122
ba❁27	-11.122
gua❄0	-11.122
zhang❄9	-11.122
bao❁10	-11.122
che❄20	-11.122
yan❄19	-11.1222
shu	-11.1229
bi	-11.1266
16	-11.1297
hai❂6	-11.1447
ㄣ	-11.1447
jian❄72	-11.1447
dian❁19	-11.1447
fen❂7	-11.1448
mao❂25	-11.1448
peng❃1	-11.1448
yin❁29	-11.1448
ling❂80	-11.1448
bei❁20	-11.1448
pao❂11	-11.1448
dan❄47	-11.1448
zi❁21	-11.1448
shao❄6	-11.1448
yu❃26	-11.1448
ju❄74	-11.1448
yuan❁6	-11.1448
gan❃7	-11.1448
si❁23	-11.1448
xi❁81	-11.1448
shu❄20	-11.1449
yu❁5	-11.1449
26	-11.1528
shi	-11.1624
gong❁40	-11.168
luo❂21	-11.168
rang❃3	-11.168
shun❄8	-11.168
ying❁24	-11.168
gua❃7	-11.168
sui❃6	-11.168
cuo❁0	-11.168
cai❃10	-11.168
hong❁21	-11.168
liu❂17	-11.168
chi❄33	-11.168
yin❂19	-11.168
di❂21	-11.168
ku❄15	-11.168
fu❂77	-11.168
xun❄28	-11.168
su❄55	-11.168
xing❂17	-11.168
huan❂17	-11.168
nan❂13	-11.1681
nie❄47	-11.1681
15	-11.1698
yan❄14	-11.1718
xiang❁2	-11.1769
fu	-11.1787
❄13	-11.1795
11	-11.1798
zhu	-11.1806
qu	-11.1889
xia	-11.1908
han❃12	-11.1916
zhuan❄9	-11.1918
xian❁47	-11.1918
chan❂42	-11.1918
fan❄24	-11.1918
qiang❁22	-11.1918
ren❄9	-11.1918
shao❂9	-11.1918
bao❄20	-11.1918
huang❂35	-11.1918
bi❄126	-11.1918
cha❄11	-11.1918
ji❁111	-11.1919
rong❂25	-11.1919
jiao❁26	-11.1919
pi❁6	-11.1919
xuan❄16	-11.192
shi❁9	-11.192
hao❃1	-11.192
jia	-11.1969
ba	-11.2095
28	-11.2111
¥	-11.2162
juan❄26	-11.2162
niu❃4	-11.2162
qun❂7	-11.2162
beng❁9	-11.2162
dai❁0	-11.2162
jue❂109	-11.2162
wa❂0	-11.2162
gang❁27	-11.2162
gun❄2	-11.2162
di❂24	-11.2162
zhou❄14	-11.2162
ge❁33	-11.2162
zao❄8	-11.2162
zhan❁17	-11.2162
fei❃3	-11.2162
wan❃13	-11.2162
qi❂36	-11.2162
jiu❃8	-11.2162
dian❃15	-11.2162
huo❄26	-11.2162
jiao❁11	-11.2162
xi❁114	-11.2163
chong❂8	-11.2163
zha❄14	-11.2163
e❄36	-11.2244
e❄29	-11.2249
zh	-11.226
17	-11.2313
34	-11.2371
25	-11.2398
30	-11.2411
pang❄1	-11.2412
huan❄31	-11.2412
li❄60	-11.2412
luo❃15	-11.2412
zhao❃4	-11.2412
yan❃30	-11.2412
yi❂87	-11.2412
kui❄15	-11.2412
lun❂20	-11.2412
mou❂11	-11.2412
peng❁13	-11.2412
suo❁11	-11.2412
ce❄21	-11.2412
kui❂10	-11.2412
song❁7	-11.2412
you❄28	-11.2412
lan❂17	-11.2412
fu❂93	-11.2413
gui❁6	-11.2413
zhang❄3	-11.2413
piao❁4	-11.2413
tu	-11.2473
hong❁12	-11.2493
lin	-11.2554
❄7	-11.2557
cui❄37	-11.2668
si❄38	-11.2668
ren❄38	-11.2668
zhu❄53	-11.2668
mang❃8	-11.2668
tan❂19	-11.2668
jian❄67	-11.2669
liu❁0	-11.2669
wei❂41	-11.2669
chao❁14	-11.2669
zhao❄27	-11.2669
tang❂18	-11.2669
qin❂32	-11.2669
zhong❁25	-11.2669
cha❄16	-11.2669
wan❃14	-11.2669
bu❄34	-11.2669
bi❄124	-11.2669
duan❄20	-11.2669
la❁5	-11.2669
liu❂23	-11.2669
biao❁11	-11.2669
gu❁4	-11.2669
xin❁18	-11.2669
ming❂6	-11.267
❃11	-11.2684
❄5	-11.2789
❃10	-11.2841
I	-11.2931
Φ	-11.2932
ㄠ	-11.2932
jiu❁27	-11.2932
lei❃14	-11.2932
lan❃14	-11.2932
mei❂27	-11.2932
yu❂74	-11.2932
jue❂96	-11.2932
qing❃10	-11.2932
xiu❄4	-11.2932
ku❁17	-11.2932
rong❂29	-11.2932
jian❃15	-11.2932
hui❃5	-11.2932
dou❁3	-11.2932
di❂29	-11.2933
you❄10	-11.2933
fei❁3	-11.2933
xiu❄13	-11.2933
shi❄26	-11.2933
❂35	-11.3063
❁6	-11.3111
hai❄5	-11.3123
da	-11.3168
う	-11.3202
ㄢ	-11.3202
qiu❂57	-11.3202
teng❂7	-11.3202
yin❂27	-11.3202
jun❄18	-11.3202
qie❄25	-11.3202
tong❂25	-11.3202
jie❂50	-11.3202
jin❃29	-11.3202
xian❂24	-11.3202
xie❂37	-11.3202
yan❄37	-11.3202
jiao❁36	-11.3202
wu❄28	-11.3202
chou❂44	-11.3202
shan❁23	-11.3202
can❄10	-11.3202
lan❃11	-11.3202
yang❁10	-11.3202
chu❂43	-11.3204
jie❂63	-11.3204
du	-11.3348
❁7	-11.3367
❄27	-11.3382
cha	-11.3398
e❄65	-11.348
о	-11.348
zuan❃5	-11.348
nie❁0	-11.348
po❄23	-11.348
can❄8	-11.348
xie❄43	-11.348
tang❃13	-11.348
niu❃12	-11.348
yi❂42	-11.348
bu❄19	-11.348
dou❃9	-11.348
fen❄9	-11.348
ru❃4	-11.348
huang❂28	-11.348
yun❃7	-11.348
zha❂7	-11.348
cheng❁15	-11.348
huan❄12	-11.348
qia❄11	-11.348
shi❃20	-11.348
si❄32	-11.348
bo❂99	-11.348
bin❁6	-11.348
xiao❁62	-11.348
wang❄1	-11.348
ling❂0	-11.348
xiao❄9	-11.3481
zhang❁6	-11.3481
ban❃2	-11.3481
❃5	-11.3621
❃6	-11.3672
35	-11.3745
ye❄55	-11.3765
jun❄41	-11.3765
pei❁7	-11.3765
xi❁74	-11.3765
kou❄6	-11.3765
mian❂16	-11.3765
wan❂19	-11.3765
qi❂57	-11.3766
xin❁26	-11.3766
qi❄35	-11.3766
zhu❁22	-11.3766
xiu❁17	-11.3766
peng❂24	-11.3766
wei❄24	-11.3766
pei❄12	-11.3766
hua❄14	-11.3766
ge	-11.3773
❁9	-11.3801
chang❄1	-11.381
❄17	-11.393
❁8	-11.3942
❃7	-11.4009
she	-11.4012
bi❄93	-11.4059
и	-11.4059
teng❂9	-11.4059
qu❁42	-11.4059
zhuo❂31	-11.4059
xi❄70	-11.4059
zhong❃0	-11.4059
qian❄28	-11.406
chao❁19	-11.406
po❁4	-11.406
liao❄6	-11.406
yu❂53	-11.406
fan❄12	-11.406
zhen❁28	-11.406
cu❄16	-11.406
gu❄21	-11.406
zhu❁28	-11.406
shan❁33	-11.406
jue❂58	-11.406
qian❂41	-11.406
ya❄13	-11.406
mo❄35	-11.406
han❃15	-11.406
ba❃4	-11.4061
dui❄13	-11.4061
zhuan❄16	-11.4062
❄16	-11.4078
jing❁39	-11.409
ya	-11.411
yi	-11.4121
p	-11.4229
hao❁1	-11.436
meng❃1	-11.4361
ha❄	-11.4362
•	-11.4362
△	-11.4362
rui❃3	-11.4363
zhuo❂16	-11.4363
qi❂76	-11.4363
zhan❄21	-11.4363
ru❂18	-11.4363
gong❃10	-11.4363
wen❄4	-11.4363
qi❁19	-11.4363
mei❄6	-11.4363
fu❃27	-11.4363
si❄47	-11.4363
sai❁13	-11.4363
bian❃2	-11.4363
nian❂15	-11.4363
ye❁6	-11.4363
shu❄18	-11.4363
jian❁68	-11.4363
shuai❁1	-11.4363
pi❂11	-11.4364
ou❁15	-11.4364
qi❃11	-11.4365
❄4	-11.437
han❄23	-11.4376
zhan❁13	-11.4398
45	-11.4431
wei	-11.454
ao❄10	-11.4569
а	-11.4675
ㄙ	-11.4675
diu❁1	-11.4675
yang❃17	-11.4675
bi❄87	-11.4675
xi❃28	-11.4675
zong❁31	-11.4675
lan❃17	-11.4675
yi❃32	-11.4675
nuo❄14	-11.4675
li❄63	-11.4675
qin❂21	-11.4675
shao❁7	-11.4675
pie❁1	-11.4675
ya❃4	-11.4675
gua❁11	-11.4675
shu❁16	-11.4676
ji❄47	-11.4676
pan❂12	-11.4676
shi❃15	-11.4677
zhan❄16	-11.4683
24	-11.4723
❄9	-11.4749
❃3	-11.4762
ren	-11.4888
❄20	-11.4895
〖	-11.4998
〗	-11.4998
ㄉ	-11.4998
jian❄70	-11.4998
duo❂13	-11.4998
dai❄50	-11.4998
lve❄9	-11.4998
feng❁33	-11.4998
tan❁14	-11.4998
nian❃9	-11.4998
bi❄75	-11.4998
lin❂47	-11.4998
gan❁33	-11.4998
juan❁7	-11.4998
lan❄4	-11.4998
tan❂25	-11.4998
jiao❃46	-11.4998
ga❂0	-11.4998
gui❄43	-11.4998
yu❂88	-11.4998
pan❂16	-11.4998
zhen❁38	-11.4998
jiao❄36	-11.4998
ti❁4	-11.4998
qi❃23	-11.4998
xiao❁20	-11.4998
hui❁13	-11.4999
mu❃7	-11.4999
e❂16	-11.5041
ang❄2	-11.5051
pu❃1	-11.5068
bo	-11.5191
22	-11.52
lu	-11.5308
cou❄0	-11.5331
е	-11.5331
□	-11.5331
ル	-11.5331
ㄊ	-11.5331
quan❂40	-11.5331
lu❄90	-11.5331
jian❁36	-11.5331
gou❄9	-11.5331
pou❁1	-11.5331
zhuo❁6	-11.5331
peng❄2	-11.5331
wa❁20	-11.5331
lun❂4	-11.5331
chi❃13	-11.5331
wu❁29	-11.5331
bo❂47	-11.5331
song❄7	-11.5331
shu❁24	-11.5331
qi❂51	-11.5331
III	-11.5331
man❂20	-11.5331
re❃1	-11.5332
ying❁45	-11.5332
zhe❄7	-11.5332
ju❃5	-11.5332
yu❂38	-11.5333
tuo❃1	-11.5343
xi❁9	-11.536
19	-11.5499
❁11	-11.5664
xi❁1	-11.5667
ス	-11.5676
xing❁14	-11.5676
que❁4	-11.5676
qie❄15	-11.5676
pu❂12	-11.5676
bei❄35	-11.5676
xuan❃6	-11.5676
pang❂6	-11.5676
kua❁4	-11.5676
mi❂39	-11.5676
rui❄13	-11.5676
dun❁15	-11.5676
ba❄17	-11.5676
ga❂1	-11.5676
liao❂6	-11.5676
xi❁122	-11.5676
fu❃11	-11.5678
yong❄2	-11.5678
32	-11.5682
kang❄1	-11.5703
❂26	-11.5741
❄10	-11.581
e❄51	-11.5826
❄6	-11.5836
you	-11.5955
yan	-11.6001
bo❂67	-11.6033
die❂65	-11.6033
nve❄3	-11.6033
た	-11.6033
な	-11.6033
リ	-11.6033
ji❁76	-11.6033
chi❃21	-11.6033
men❄7	-11.6033
shun❄7	-11.6033
leng❂5	-11.6033
luo❂25	-11.6033
lan❃24	-11.6033
mi❂44	-11.6033
zang❁3	-11.6033
jiao❂0	-11.6033
qi❂114	-11.6033
xi❁133	-11.6033
bao❁12	-11.6033
li❃31	-11.6033
chou❂34	-11.6033
kui❁8	-11.6033
mian❃24	-11.6033
yu❄53	-11.6033
bo❁21	-11.6033
yi❄203	-11.6033
kuang❄6	-11.6033
mao❃3	-11.6033
fa❂4	-11.6033
lu❂45	-11.6033
xu❁15	-11.6033
you❄24	-11.6033
wei❁30	-11.6033
wei❂28	-11.6033
yi❂65	-11.6033
za❂4	-11.6033
fu❃20	-11.6033
lian❃7	-11.6033
xi❂23	-11.6033
mian❃12	-11.6033
ao❂34	-11.6034
gu❁16	-11.6034
ken❃3	-11.6034
zha❄4	-11.6034
bin❁10	-11.6034
du❃7	-11.6034
du❃9	-11.6035
❁28	-11.6039
chan❄16	-11.6039
bao❄14	-11.6042
chen	-11.6156
bin	-11.6158
❁13	-11.625
❁20	-11.6272
fei	-11.6324
lv❂1	-11.6401
e❂27	-11.6402
‰	-11.6403
し	-11.6403
る	-11.6403
ㄟ	-11.6403
juan❄21	-11.6403
cuan❄4	-11.6403
zhuo❂34	-11.6403
xie❂47	-11.6403
duo❄10	-11.6403
ying❁29	-11.6403
ling❂79	-11.6403
long❂30	-11.6403
fen❂16	-11.6403
tong❂31	-11.6403
tao❁27	-11.6403
jiang❄19	-11.6403
feng❁29	-11.6403
zao❁5	-11.6404
bang❃5	-11.6404
zheng❁18	-11.6404
tun❂5	-11.6404
xun❂19	-11.6404
yi❄192	-11.6404
pan❄11	-11.6404
yan❄27	-11.6404
shan❄25	-11.6404
chang❃7	-11.6404
ju❁26	-11.6404
yuan❂39	-11.6404
fa❄1	-11.6404
za❂6	-11.6404
mu❄14	-11.6404
geng❁16	-11.6404
qi❁28	-11.6404
mao❂15	-11.6404
qi❂63	-11.6404
ta❁4	-11.6408
du❃14	-11.6413
❂4	-11.6428
di	-11.6455
❃15	-11.657
e❂15	-11.6594
❃14	-11.6738
21	-11.677
い	-11.6788
と	-11.6788
guai❃0	-11.6788
jian❃45	-11.6788
qiu❂18	-11.6788
xu❄63	-11.6788
huang❃10	-11.6788
gui❁39	-11.6788
qi❂56	-11.6788
huang❂38	-11.6788
sha❃0	-11.6788
xia❂40	-11.6788
yi❄90	-11.6788
bo❁25	-11.6788
fen❄13	-11.6788
chun❁9	-11.6788
qu❂37	-11.6788
kan❁11	-11.6788
lv❃4	-11.6788
you❃26	-11.6788
chi❄32	-11.6788
fei❃6	-11.6788
zhou❃7	-11.6788
ye❁5	-11.6788
lou❄7	-11.6788
gan❁28	-11.6788
yong❃5	-11.6789
po❄16	-11.6789
zi❁11	-11.6789
miao❃4	-11.6789
mu❄23	-11.6789
yuan❂32	-11.6789
wei❁16	-11.6789
li❃14	-11.6791
❄33	-11.6824
❃9	-11.6826
zhe	-11.6865
ou❃7	-11.6981
❁25	-11.7072
pi❁3	-11.7158
27	-11.7162
pa	-11.7165
❁26	-11.7169
р	-11.7188
ア	-11.7188
qi❂75	-11.7188
yun❂30	-11.7188
fan❂30	-11.7188
min❃23	-11.7188
zhou❄16	-11.7188
qian❂39	-11.7188
luo❄28	-11.7188
wu❂27	-11.7188
zao❄15	-11.7188
shu❁40	-11.7188
bao❃21	-11.7188
bang❄19	-11.7188
ben❄13	-11.7188
qian❄29	-11.7188
dou❄12	-11.7188
kai❃10	-11.7188
gang❄3	-11.7188
li❂32	-11.7188
zhi❄51	-11.7188
wu❄16	-11.7189
fu❂42	-11.7189
ying❂44	-11.7189
guan❁7	-11.7189
zhi❂5	-11.7189
jiao❄34	-11.7189
suo❃14	-11.7191
chong❂13	-11.7192
zhan❄13	-11.7195
jie❂6	-11.727
huan❂15	-11.734
❂20	-11.738
jiang❁2	-11.742
❃8	-11.7489
yi❁	-11.7564
❄26	-11.7592
hen❃3	-11.7602
─	-11.7605
き	-11.7605
ㄅ	-11.7605
ㄛ	-11.7605
ㄥ	-11.7605
ye❄57	-11.7605
shua❃0	-11.7605
lao❄4	-11.7605
jian❁58	-11.7605
lei❃22	-11.7605
yu❂114	-11.7605
peng❂19	-11.7605
nao❂10	-11.7605
wei❃52	-11.7605
qiao❄12	-11.7605
shen❁31	-11.7605
gui❃25	-11.7605
qian❄8	-11.7605
hui❄53	-11.7605
ming❂18	-11.7605
shi❄79	-11.7605
gan❃10	-11.7605
cai❁7	-11.7605
jiu❄38	-11.7605
liang❄4	-11.7605
qi❃30	-11.7605
e❄94	-11.7605
xu❁26	-11.7605
gu❃56	-11.7605
ya❂10	-11.7605
xie❂23	-11.7605
bao❄5	-11.7605
yan❁30	-11.7606
yu❄95	-11.7606
ma❅2	-11.7606
❄12	-11.7619
xi❃15	-11.7647
xi❃13	-11.7647
ao❂15	-11.7685
❁16	-11.7688
❁18	-11.7701
h	-11.7768
❄14	-11.7824
❃17	-11.7839
ge❁	-11.7888
a❁1	-11.7888
he❄12	-11.7898
wu	-11.8013
φ	-11.8039
н	-11.8039
こ	-11.8039
イ	-11.8039
bi❄57	-11.8039
zong❄7	-11.8039
chu❃18	-11.8039
zhuo❁7	-11.8039
ying❂26	-11.8039
gou❃10	-11.8039
tui❄7	-11.8039
yong❁23	-11.8039
yu❂77	-11.8039
we	-11.8039
tuo❂39	-11.8039
ying❂51	-11.8039
zhui❄8	-11.8039
jin❃23	-11.8039
li❄134	-11.8039
hui❁18	-11.804
wen❂16	-11.804
ban❁20	-11.804
kui❄11	-11.804
ju❃20	-11.804
jia❂33	-11.804
ze❄1	-11.804
huan❄26	-11.804
chao❁6	-11.804
she❄30	-11.804
xun❄13	-11.804
zhen❃14	-11.804
ru❂10	-11.804
zha❄9	-11.804
er❃9	-11.804
hao❄17	-11.804
jia❂19	-11.804
lao❄10	-11.804
wu❄11	-11.804
ban❄10	-11.804
xia❂16	-11.804
qiao❂13	-11.8041
zhen❁33	-11.8041
bo❂91	-11.8041
cu	-11.805
dou❃3	-11.805
dao❃20	-11.8082
❂46	-11.8144
❂6	-11.8145
❃4	-11.8199
li❄5	-11.8236
w	-11.835
lai❂1	-11.8404
he	-11.8444
reng❁0	-11.8494
с	-11.8494
は	-11.8494
ㄗ	-11.8494
lv❃24	-11.8494
xian❃38	-11.8494
xiu❃0	-11.8494
liu❂48	-11.8494
wai❁4	-11.8494
cuo❄17	-11.8494
po❂6	-11.8494
ji❁70	-11.8494
mei❂39	-11.8494
guang❁17	-11.8494
cuo❄7	-11.8494
li❂48	-11.8494
chan❂46	-11.8494
jiao❄26	-11.8494
lao❄2	-11.8494
long❂44	-11.8494
xie❁4	-11.8494
gu❁33	-11.8494
kuang❁5	-11.8494
jue❂38	-11.8494
wu❁25	-11.8494
fu❂87	-11.8494
zhe❂44	-11.8494
ya❂20	-11.8494
ke❄16	-11.8494
lian❂73	-11.8495
jing❁12	-11.8495
ding❄19	-11.8495
bin❁13	-11.8495
qi❂64	-11.8495
ai❄33	-11.8495
zi❄9	-11.8495
lai❄5	-11.8499
huan❄16	-11.8501
yi❁17	-11.8512
❁24	-11.8534
k	-11.855
❄3	-11.8581
❁21	-11.8686
❂15	-11.8699
miao❃	-11.8775
he❂5	-11.8803
31	-11.8836
mo❂2	-11.8846
fan	-11.892
12	-11.8953
chan	-11.8957
nve❄6	-11.897
を	-11.897
ん	-11.897
ク	-11.897
シ	-11.897
レ	-11.897
ㄚ	-11.897
ㄩ	-11.897
ye❄37	-11.897
bian❃13	-11.897
chan❃42	-11.897
tuo❄0	-11.897
mei❄24	-11.897
lian❂41	-11.897
chai❁4	-11.897
ju❄58	-11.897
li❂51	-11.897
yuan❂58	-11.897
yan❄66	-11.897
kui❁7	-11.897
shen❁30	-11.897
lu❂21	-11.897
you❂31	-11.897
zhuo❂48	-11.897
xue❁5	-11.897
mu❄18	-11.897
qin❃5	-11.897
wan❃16	-11.897
ji❄44	-11.897
yun❂20	-11.8971
yan❃12	-11.8971
jiao❁44	-11.8971
zi❃12	-11.8971
mu❄29	-11.8971
ting❂6	-11.8971
dai❄19	-11.8971
tang❁10	-11.8971
e❄91	-11.8971
cheng❂26	-11.8971
wu❂19	-11.8972
deng❄2	-11.8972
zhu❃6	-11.8972
liu❂21	-11.8972
qi❁13	-11.8974
shi❄27	-11.8975
zhu❃11	-11.8975
shi❄48	-11.8978
bian❁15	-11.8982
ren❂5	-11.8989
ke	-11.9122
zha	-11.9186
biao❁	-11.9213
li❄1	-11.9215
❁30	-11.9311
❄22	-11.9325
❁1	-11.9392
ju❁4	-11.9403
38	-11.941
hua	-11.9463
§	-11.947
ㄝ	-11.947
chi❄37	-11.947
gui❃33	-11.947
luan❂32	-11.947
qiong❂29	-11.947
lun❂15	-11.947
juan❁24	-11.947
jian❃27	-11.947
cao❂11	-11.947
feng❃3	-11.947
tang❂31	-11.947
zhou❄39	-11.947
jian❄41	-11.947
xuan❄18	-11.947
ju❄50	-11.947
sha❁27	-11.947
yin❂41	-11.947
cuo❄4	-11.947
mei❄9	-11.947
jiong❃14	-11.947
su❄45	-11.947
bu❃7	-11.947
zhi❄52	-11.947
mo❂18	-11.947
xu❄38	-11.947
bo❂54	-11.947
wei❁27	-11.947
lu❄43	-11.947
li❄126	-11.947
zhi❄75	-11.9471
ji❂66	-11.9471
kui❄5	-11.9471
mu❄8	-11.9471
cheng❄1	-11.9471
ji❁58	-11.9471
ji❄56	-11.9471
liao❂9	-11.9471
xi❁86	-11.9471
si❄22	-11.9471
bang❃6	-11.9471
tu❁13	-11.9471
xi❁105	-11.9471
ying❂42	-11.9472
zuo❄8	-11.9472
mian❃11	-11.9472
yi❂75	-11.9472
zhi❁23	-11.9472
dai❄13	-11.9472
zhe❂45	-11.9474
jie❁	-11.9482
kuang❄11	-11.9486
50	-11.957
bi❄15	-11.9658
❂23	-11.967
❄28	-11.9699
diao❁	-11.9763
❂19	-11.9818
ma	-11.9819
❁33	-11.9854
❄23	-11.9869
sha	-11.9905
le	-11.9918
rong❃4	-11.9996
│	-11.9996
ま	-11.9996
カ	-11.9996
ㄇ	-11.9996
ㄌ	-11.9996
ㄔ	-11.9996
ㄕ	-11.9996
xian❄54	-11.9996
bi❄54	-11.9996
juan❄35	-11.9996
rang❂5	-11.9996
kuo❄5	-11.9996
li❄133	-11.9996
cui❁9	-11.9997
cui❄26	-11.9997
qing❂14	-11.9997
nao❃14	-11.9997
pu❂14	-11.9997
ting❁11	-11.9997
yang❂24	-11.9997
li❄112	-11.9997
tun❃1	-11.9997
xiang❃13	-11.9997
zhi❄119	-11.9997
wen❁9	-11.9997
xun❂37	-11.9997
ling❂75	-11.9997
chen❂14	-11.9997
zeng❁3	-11.9997
di❄34	-11.9997
ping❂30	-11.9997
jiu❄37	-11.9997
pu❃8	-11.9997
song❁17	-11.9997
mei❄20	-11.9997
wa❁4	-11.9997
xia❂24	-11.9997
luan❂12	-11.9997
shan❄28	-11.9997
chu❂14	-11.9997
hui❄94	-11.9997
wo❁0	-11.9997
bo❂43	-11.9997
bu❄24	-11.9997
mo❂10	-11.9997
ju❄66	-11.9997
tian❂10	-11.9997
ge❂35	-11.9997
sheng❁19	-11.9997
ji❄126	-11.9998
xi❂10	-11.9998
shu❄24	-11.9998
jing❄45	-11.9998
ya❁5	-11.9999
gao❄9	-12
jin❁31	-12
duan❄15	-12.0001
❃1	-12.0006
❄19	-12.0014
yi❄18	-12.0075
huang❁6	-12.0092
ji❁5	-12.0162
cha❂2	-12.0194
an❃7	-12.0234
yu❂8	-12.0254
hai❂8	-12.0264
chang	-12.0271
❁48	-12.0272
❂5	-12.0305
yu❄12	-12.0317
❂28	-12.0337
li❂7	-12.0355
e❄7	-12.0392
❂34	-12.0404
ni	-12.0423
dian❄	-12.0442
❄29	-12.052
xiu❄1	-12.0543
hou❃2	-12.0544
ji❄12	-12.0545
an❁32	-12.0546
ji❁75	-12.0552
л	-12.0552
さ	-12.0552
り	-12.0552
ッ	-12.0552
ト	-12.0552
ㄒ	-12.0552
ㄡ	-12.0552
ㄤ	-12.0552
jiao❃66	-12.0552
ping❁0	-12.0552
lv❂7	-12.0552
man❂30	-12.0552
jian❄54	-12.0552
song❃12	-12.0552
kang❁12	-12.0552
yan❄55	-12.0552
yao❄21	-12.0552
yu❄108	-12.0552
qiang❂13	-12.0552
ji❄85	-12.0552
shao❂7	-12.0552
kou❄4	-12.0552
tang❁15	-12.0552
cong❁12	-12.0552
xun❂28	-12.0552
liang❄7	-12.0552
tong❂32	-12.0552
meng❂29	-12.0552
mou❂13	-12.0552
wa❃3	-12.0552
ling❂76	-12.0552
yao❂51	-12.0552
qi❂81	-12.0552
hui❄97	-12.0552
mo❄61	-12.0552
fu❃36	-12.0552
lao❂17	-12.0552
zhi❃33	-12.0552
yao❂47	-12.0552
wo❁7	-12.0552
gong❁34	-12.0552
jing❁19	-12.0553
fu❁17	-12.0553
yong❃24	-12.0553
xing❂15	-12.0553
yi❄112	-12.0553
ba❁18	-12.0553
pian❁8	-12.0553
jiang❃11	-12.0553
jiao❃41	-12.0553
chu❃7	-12.0553
fang❂3	-12.0553
du❂19	-12.0553
ban❁5	-12.0554
ling❂35	-12.0554
cao❁4	-12.0555
xi❃6	-12.0556
dao❄5	-12.0558
bo❂7	-12.0565
la	-12.0569
na❄1	-12.0592
gan❁2	-12.0672
❄11	-12.0688
kua	-12.0761
du❂2	-12.0812
❄1	-12.0813
❄2	-12.0819
❄8	-12.0841
❁3	-12.0934
min	-12.0999
❂49	-12.1017
❂33	-12.1066
❂16	-12.1077
V	-12.114
в	-12.114
※	-12.114
ラ	-12.114
・	-12.114
ㄞ	-12.114
cen❂7	-12.114
weng❄0	-12.114
pei❂8	-12.114
chuo❄24	-12.114
ying❁39	-12.114
jun❄25	-12.114
quan❂42	-12.114
bi❃30	-12.114
di❃23	-12.114
mo❄70	-12.114
shu❃22	-12.114
yong❁27	-12.114
dun❄17	-12.114
ran❃8	-12.114
tuo❃6	-12.114
duo❃15	-12.114
kou❄14	-12.114
mei❂34	-12.114
cuo❄6	-12.114
zhu❄51	-12.114
bi❄59	-12.114
mi❁0	-12.114
jin❄50	-12.114
zan❁2	-12.114
lu❄50	-12.114
tun❂9	-12.114
suo❁16	-12.114
ling❂74	-12.114
bin❁20	-12.114
luan❂17	-12.114
dian❁4	-12.1141
you❂46	-12.1141
shou❄17	-12.1141
long❃9	-12.1141
qiang❃5	-12.1141
ke❁22	-12.1141
hao❂11	-12.1141
chang❂25	-12.1141
lu❄36	-12.1141
que❄34	-12.1141
gong❁30	-12.1141
dan❄24	-12.1141
fu❂80	-12.1141
ji❂76	-12.1141
lou❂15	-12.1141
fu❂32	-12.1141
fu❂23	-12.1141
xun❂44	-12.1142
zheng❁20	-12.1142
yin❁14	-12.1142
nian❄3	-12.1142
ni❂7	-12.1142
qi❄26	-12.1142
jia❄7	-12.1143
ni❄9	-12.1145
ke❁11	-12.1146
ji❃14	-12.1147
qing❁13	-12.1173
zhong❁	-12.122
ai❁7	-12.1229
xian	-12.1304
❄45	-12.1336
wu❃2	-12.1357
ji❁	-12.1453
liao❂2	-12.1469
kun❁	-12.1471
42	-12.1489
ou❃5	-12.1495
an❃11	-12.1538
yang	-12.1551
❄30	-12.1554
ai❄4	-12.1559
yao	-12.1576
❃2	-12.1581
bi❄1	-12.1603
jian	-12.1624
jiao	-12.1656
hong❁15	-12.1708
chi❁2	-12.1712
zhen	-12.1736
qiong❂41	-12.1765
к	-12.1765
━	-12.1765
だ	-12.1765
っ	-12.1765
huang❃21	-12.1765
ying❃22	-12.1765
shan❄50	-12.1765
bang❄23	-12.1765
wei❃38	-12.1765
ying❁66	-12.1765
xian❄49	-12.1765
zhuo❁10	-12.1765
che❃8	-12.1765
qiao❃4	-12.1765
zhi❄57	-12.1765
ting❂23	-12.1765
lou❄8	-12.1765
jian❃29	-12.1765
dou❄19	-12.1765
hua❂25	-12.1765
peng❂17	-12.1765
pu❂17	-12.1765
qiao❄8	-12.1765
biao❃6	-12.1765
luo❄21	-12.1765
yun❃17	-12.1765
gong❃15	-12.1765
huang❂27	-12.1765
yi❄71	-12.1765
shan❄32	-12.1766
yi❄195	-12.1766
zhen❄26	-12.1766
guan❃10	-12.1766
mei❂23	-12.1766
lin❃4	-12.1766
fu❃29	-12.1766
shu❂14	-12.1766
pi❁26	-12.1766
wu❄19	-12.1766
nian❃2	-12.1766
fei❂2	-12.1766
yuan❂23	-12.1766
hu❂38	-12.1766
mao❄20	-12.1766
xie❄53	-12.1766
hu❂49	-12.1766
sou❃7	-12.1766
lan❂21	-12.1766
hu❃4	-12.1766
zhen❁13	-12.1766
feng❄1	-12.1766
xiao❃7	-12.1767
xu❁10	-12.1767
li❃25	-12.1768
kao❃2	-12.1768
hu❂29	-12.1768
sha❁11	-12.1769
li❄142	-12.1769
zhu❁5	-12.1769
❁23	-12.1784
❂30	-12.1796
jia❁	-12.1842
kan❃1	-12.1845
❄32	-12.1868
f	-12.2023
ga	-12.2044
jie	-12.2052
chi	-12.2069
❄21	-12.2098
i❄9	-12.2125
❂21	-12.2194
43	-12.2204
fu❄7	-12.2237
han	-12.224
dong❁	-12.2273
❃12	-12.2286
jie❂	-12.2293
mu❃	-12.2302
deng	-12.2306
ji❂9	-12.2314
uo❂5	-12.2401
su	-12.2412
gen	-12.2416
ao❄17	-12.2427
hui❄84	-12.2432
γ	-12.2432
も	-12.2432
ㄏ	-12.2432
ㄓ	-12.2432
qi❂72	-12.2432
jiao❃63	-12.2432
sou❄0	-12.2432
qiu❂48	-12.2432
xiao❁59	-12.2432
yin❃26	-12.2432
bie❁8	-12.2432
yu❂93	-12.2432
cui❄18	-12.2432
jing❄36	-12.2432
hui❁43	-12.2432
luan❂19	-12.2432
yang❄10	-12.2432
zhou❄18	-12.2432
bang❁11	-12.2432
guang❄5	-12.2432
lian❂38	-12.2432
er❃20	-12.2432
biao❁37	-12.2432
wo❄13	-12.2432
qiao❂22	-12.2432
sheng❄5	-12.2432
yin❂16	-12.2432
tuo❄4	-12.2432
jiao❁37	-12.2432
gao❄12	-12.2432
huang❂26	-12.2432
yan❁42	-12.2432
lou❄3	-12.2432
mi❄49	-12.2432
hui❁27	-12.2432
zhu❃16	-12.2433
qi❂52	-12.2433
❂60	-12.2433
tuo❂16	-12.2433
tuo❂10	-12.2433
huo❄58	-12.2433
ju❄73	-12.2433
lao❃7	-12.2433
shu❄31	-12.2433
zhang❄4	-12.2433
zhan❁9	-12.2433
ni❂31	-12.2433
guan❁11	-12.2433
wei❃44	-12.2434
dai❄27	-12.2434
qian❁10	-12.2434
ni❃13	-12.2434
xing❁10	-12.2434
yu❁12	-12.2434
liang❂12	-12.2434
shu❃9	-12.2435
yi❂29	-12.2435
zhi❄80	-12.2435
yan❃11	-12.2436
yi❄101	-12.2437
shan❁4	-12.244
jie❂61	-12.2446
shi❄43	-12.2461
shu❄30	-12.2462
tong❂1	-12.2476
36	-12.2495
ce❄1	-12.2525
ao❂26	-12.2525
u❄6	-12.2547
fei❁	-12.2549
hao❄29	-12.255
❁27	-12.2574
xi❁5	-12.2576
ai❄23	-12.2597
e❂31	-12.2616
xiao	-12.2625
an❄25	-12.2638
❂12	-12.2698
47	-12.2698
yan❃	-12.2715
jing	-12.2732
wei❃4	-12.2775
te❄	-12.2813
cong❂	-12.2871
❂29	-12.2888
ou❁10	-12.2911
i❄18	-12.2923
lian	-12.2937
long	-12.2937
han❁6	-12.2956
i❂89	-12.2958
zhi❃2	-12.2975
wei❃	-12.2979
e❄6	-12.2985
luo❁	-12.3098
❅	-12.3145
┼	-12.3146
あ	-12.3146
て	-12.3146
で	-12.3146
み	-12.3146
ㄈ	-12.3146
lei❃27	-12.3146
tui❂16	-12.3146
ying❃20	-12.3146
chan❃45	-12.3146
rang❃4	-12.3146
xuan❄24	-12.3146
xie❄64	-12.3146
gan❁36	-12.3146
ou❁22	-12.3146
xi❁60	-12.3146
chuo❁1	-12.3146
li❄176	-12.3146
pang❁2	-12.3146
bian❄28	-12.3146
wo❄18	-12.3146
zhou❄30	-12.3146
lai❄12	-12.3146
xiong❁9	-12.3146
liao❂10	-12.3146
ning❂16	-12.3146
ru❄12	-12.3146
yi❃30	-12.3146
quan❂28	-12.3146
yin❄19	-12.3146
shang❁12	-12.3146
cheng❂34	-12.3147
sui❄46	-12.3147
zhi❄79	-12.3147
xiao❁23	-12.3147
di❃25	-12.3147
tan❃8	-12.3147
ru❂15	-12.3147
yan❂26	-12.3147
fu❄47	-12.3147
ji❂43	-12.3147
tao❁17	-12.3147
ti❂13	-12.3147
yuan❂22	-12.3147
lian❂31	-12.3147
li❂60	-12.3147
pi❃13	-12.3147
ba❁25	-12.3147
fei❄35	-12.3147
ben❄6	-12.3147
duan❄9	-12.3147
yi❄176	-12.3147
jia❂13	-12.3147
kui❂9	-12.3147
gu❁20	-12.3147
zuo❄15	-12.3147
dong❄9	-12.3147
tong❂18	-12.3148
sao❃2	-12.3148
zao❃6	-12.3148
pi❂15	-12.3148
jiu❃9	-12.3148
gan❁20	-12.3148
li❂72	-12.3149
jin❄63	-12.3149
xin❁8	-12.3149
zuo❄14	-12.3149
bi❃11	-12.3149
chao❂2	-12.3149
ya❁10	-12.3149
zhang❁12	-12.3151
yi❄182	-12.3152
jiu❄21	-12.3154
zhu❁13	-12.3159
xin❁11	-12.3167
pao	-12.3178
fu❂5	-12.3242
mei	-12.3245
❂10	-12.3245
❄15	-12.3267
dai	-12.327
jing❁34	-12.3284
qi❂6	-12.332
tao	-12.3327
gua	-12.3338
❁12	-12.3356
yi❂7	-12.3366
sa	-12.3415
jian❁	-12.3415
hu❃6	-12.3416
mei❂1	-12.3418
mo❄5	-12.3431
pu❄	-12.3438
ding❄1	-12.3453
j	-12.3472
chuo❄27	-12.3498
si❁	-12.3499
jie❁2	-12.3508
chong	-12.3556
zi❁	-12.3568
shan	-12.3616
luo	-12.3638
yan❃4	-12.3638
zhen❁3	-12.3643
55	-12.3659
an❄10	-12.3661
❂14	-12.3686
huan	-12.3701
68	-12.3723
33	-12.3724
za	-12.3763
duo❁	-12.3779
hu❄39	-12.3834
❄18	-12.3837
e❄34	-12.3908
u❄1	-12.391
`	-12.3915
ji❄102	-12.3915
Ф	-12.3915
т	-12.3915
え	-12.3915
ら	-12.3915
オ	-12.3915
ㄜ	-12.3915
bo❂64	-12.3915
cuan❄7	-12.3915
mang❃10	-12.3915
qiu❂44	-12.3915
jie❄40	-12.3915
kuang❁11	-12.3915
nie❄33	-12.3915
juan❁22	-12.3915
li❄97	-12.3915
shan❄40	-12.3915
ji❄100	-12.3915
ti❄25	-12.3915
xun❁24	-12.3915
lang❂35	-12.3915
chou❂25	-12.3916
gui❄23	-12.3916
qun❂5	-12.3916
xuan❁26	-12.3916
wu❂31	-12.3916
dang❄8	-12.3916
gui❁27	-12.3916
cuan❁3	-12.3916
xiao❁45	-12.3916
fei❃13	-12.3916
zhen❃16	-12.3916
gun❃16	-12.3916
sai❁10	-12.3916
diao❁26	-12.3916
zhou❄32	-12.3916
hui❄73	-12.3916
liao❃11	-12.3916
dao❃16	-12.3916
bing❃14	-12.3916
duo❄16	-12.3916
cun❄1	-12.3916
yu❄62	-12.3916
he❂23	-12.3916
fang❃8	-12.3916
zhi❄36	-12.3916
huang❂32	-12.3916
kai❃8	-12.3916
xiao❁64	-12.3916
wu❃12	-12.3916
gen❄2	-12.3916
bo❁20	-12.3916
yao❄6	-12.3916
ling❂55	-12.3916
qing❄12	-12.3916
xuan❁6	-12.3916
yi❃21	-12.3916
nao❃11	-12.3917
qing❂7	-12.3917
zhu❁21	-12.3917
chu❂41	-12.3917
zan❃7	-12.3917
ji❁61	-12.3917
ai❂13	-12.3917
ding❁4	-12.3917
zhen❁36	-12.3918
dan❁6	-12.3918
cun❁3	-12.3919
ji❄32	-12.3919
shi❄39	-12.3921
san❁3	-12.3922
quan❂	-12.3937
yuan	-12.3948
yu❄1	-12.3958
e❂24	-12.3967
❄48	-12.3977
tang	-12.3987
mao	-12.3995
xi❁10	-12.4024
qian❁6	-12.4076
57	-12.4082
jiu❃14	-12.412
a❂0	-12.4167
❂17	-12.4227
x	-12.4232
gou❁1	-12.4244
an❃2	-12.4246
fang❃1	-12.426
❂8	-12.426
jue❂	-12.4268
wu❄3	-12.4278
u❃2	-12.4287
tai❂2	-12.4328
fu❂7	-12.4338
han❁11	-12.4383
pai❄	-12.4399
qiang❁3	-12.4445
wo	-12.4459
❁4	-12.4522
qian❁	-12.4555
zhe❃	-12.4557
xun❂4	-12.4577
48	-12.4591
kuang❄2	-12.4597
bei❄4	-12.4607
ben	-12.4625
zai	-12.4634
qian	-12.4663
fen	-12.4676
hui	-12.4676
q	-12.4687
ai❁2	-12.4748
chuai❁0	-12.4749
σ	-12.4749
‧	-12.4749
く	-12.4749
ち	-12.4749
に	-12.4749
ょ	-12.4749
ド	-12.4749
ㄆ	-12.4749
ㄐ	-12.4749
zhi❄91	-12.4749
die❂61	-12.4749
lang❂26	-12.4749
lao❂30	-12.4749
yin❃21	-12.4749
nie❄24	-12.4749
qiu❂56	-12.4749
hun❁14	-12.4749
xi❁139	-12.4749
hui❄86	-12.4749
zhi❂40	-12.4749
jiong❃19	-12.4749
yan❂54	-12.4749
tuo❂38	-12.4749
dan❁28	-12.4749
qiu❁34	-12.4749
min❂14	-12.4749
long❂47	-12.4749
zhong❃9	-12.4749
tan❂16	-12.4749
dian❁14	-12.4749
diao❁21	-12.4749
xian❂21	-12.4749
tan❃12	-12.4749
mian❃18	-12.4749
tang❃4	-12.4749
duo❄20	-12.4749
mou❂12	-12.4749
gui❁44	-12.4749
yang❂20	-12.475
ban❃14	-12.475
zhi❁45	-12.475
xiao❁11	-12.475
tiao❄1	-12.475
wei❂19	-12.475
zhui❄14	-12.475
hao❂15	-12.475
chi❃10	-12.4751
jie❂41	-12.4751
ying❁43	-12.4751
lin❂14	-12.4751
xie❂13	-12.4752
you❁13	-12.4753
huo❄52	-12.4753
zhan❃12	-12.4754
ke❁	-12.4757
song	-12.4764
song❁	-12.4765
❁29	-12.4765
ao❄3	-12.4786
zhi❄1	-12.4787
su❄3	-12.4809
lan❂	-12.481
shen	-12.4821
❃0	-12.4826
zhuo❂5	-12.483
peng❂2	-12.4831
gu❃6	-12.4843
li❂9	-12.4853
tuo❂	-12.4859
han❄2	-12.4873
kui❂2	-12.4886
yi❄17	-12.4892
e❄9	-12.4908
yuan❄1	-12.4916
hui❄6	-12.4931
❄47	-12.4951
qiao❂1	-12.4961
zhuo❂	-12.4976
gao❁	-12.4983
jian❃5	-12.5001
long❂	-12.5021
jue❂5	-12.5028
jiao❃	-12.5101
wu❃	-12.5105
zhang❁1	-12.513
yan❁	-12.5149
xiao❁	-12.5157
an❃8	-12.5172
❃16	-12.5241
wan❃2	-12.5253
❂18	-12.532
jing❁2	-12.5326
cong	-12.5368
bai❃	-12.5426
gu❃	-12.5433
❂37	-12.5449
guan	-12.5513
kan	-12.5521
❁17	-12.5546
lu❄4	-12.5593
cheng	-12.56
yi❄10	-12.5645
δ	-12.5658
ا	-12.5658
ي	-12.5658
が	-12.5658
け	-12.5658
れ	-12.5658
ジ	-12.5658
タ	-12.5658
チ	-12.5658
hai❄13	-12.5658
xie❄49	-12.5658
nian❁0	-12.5658
qiao❂27	-12.5658
gang❁12	-12.5658
die❂40	-12.5658
gao❃20	-12.5658
hui❄31	-12.5658
long❂38	-12.5658
cheng❃8	-12.5658
mang❂30	-12.5658
jiu❄41	-12.5658
huang❂47	-12.5658
yi❄216	-12.5658
chui❁2	-12.5658
xian❂31	-12.5658
fan❄18	-12.5658
qiao❄6	-12.5658
zhi❄39	-12.5658
zheng❁30	-12.5658
gui❁23	-12.5658
quan❂35	-12.5658
lei❂29	-12.5658
shou❄11	-12.5658
jiao❄19	-12.5659
xun❄15	-12.5659
sui❁10	-12.5659
zheng❁32	-12.5659
bi❄129	-12.5659
ming❂20	-12.5659
mao❂13	-12.5659
qing❄11	-12.5659
tang❂17	-12.5659
mie❄14	-12.5659
you❄22	-12.566
niao❄3	-12.566
yi❄188	-12.566
shen❁10	-12.566
dian❄11	-12.5661
sheng❁13	-12.5662
qian❁62	-12.5663
you❂28	-12.5663
❄41	-12.5726
xue	-12.574
xuan	-12.5743
❂13	-12.5749
zu	-12.5799
qi❂10	-12.5816
❁32	-12.5848
ruo❄	-12.5849
❁15	-12.5881
cuo❁	-12.5881
zhe❄1	-12.5893
i❃15	-12.5901
chi❃3	-12.5903
lu❄8	-12.5919
lou❂	-12.5934
long❃	-12.5947
ru	-12.5953
dian❄2	-12.5977
❂0	-12.5997
chang❁	-12.6016
e	-12.6064
ang❃6	-12.6086
i❃6	-12.6164
shan❁	-12.6166
si❄1	-12.6174
u❄26	-12.6225
zi❃	-12.6229
ding❁	-12.6234
❁57	-12.6254
hu❄4	-12.6323
qia	-12.6324
mo❄3	-12.6332
fa❂1	-12.6334
jiao❁4	-12.6334
huang❂4	-12.6361
❄31	-12.6364
gong❁3	-12.637
po❄1	-12.6435
tuo	-12.6466
duo	-12.6481
di❄4	-12.6491
ie❁2	-12.6503
zhi	-12.6527
ji❁3	-12.6545
bian❄4	-12.6558
chuan	-12.6583
kui❂3	-12.6585
ci❄1	-12.6586
jiong❃	-12.6615
fu❂	-12.6636
tang❂	-12.665
pi❂	-12.6651
λ	-12.6658
у	-12.6658
я	-12.6658
お	-12.6658
じ	-12.6658
や	-12.6658
エ	-12.6658
バ	-12.6658
プ	-12.6658
ㄖ	-12.6658
qian❃13	-12.6658
niao❃13	-12.6658
xiong❁6	-12.6658
chen❁14	-12.6658
shuo❄11	-12.6658
xian❂41	-12.6658
shen❁25	-12.6658
yuan❁30	-12.6658
yong❁32	-12.6658
chui❂11	-12.6658
ying❂16	-12.6658
huang❃8	-12.6658
yong❃26	-12.6659
shang❁16	-12.6659
wang❃17	-12.6659
bang❁10	-12.6659
xian❂35	-12.6659
jing❃10	-12.666
zhi❄105	-12.666
xuan❂14	-12.6661
chang❄3	-12.6661
ying❂41	-12.6662
chang❂13	-12.6676
❁40	-12.6689
bo❂9	-12.6691
wo❁	-12.6692
jian❃3	-12.6704
e❄33	-12.6772
ru❂2	-12.6779
xi❁8	-12.6795
ling❂3	-12.6796
fu❁	-12.6806
man❂2	-12.6815
gui❁	-12.6825
hui❂	-12.6837
39	-12.6883
ng❁10	-12.69
40	-12.6912
an❁37	-12.694
❁22	-12.6946
yao❁	-12.6958
❄44	-12.6961
li❄15	-12.6961
yun❄2	-12.7006
rang	-12.7021
an❁17	-12.7031
ai❃	-12.7037
kao❃	-12.7047
kui❂	-12.7049
41	-12.7055
pao❂	-12.7085
xi❁14	-12.7113
i❃3	-12.7149
zhao	-12.7211
bi❄4	-12.7258
jin	-12.7265
bei	-12.7285
ng❁6	-12.7289
yan❁4	-12.7299
❂47	-12.7301
tian	-12.7312
r	-12.7312
kang❄	-12.7313
wan	-12.7334
yu❄9	-12.7336
fei❁1	-12.7363
nian	-12.7365
ao❂3	-12.7382
rou❂	-12.7414
chun	-12.7415
meng❂3	-12.7444
hei❁	-12.7463
hu❄29	-12.7495
qiu❁2	-12.7495
91	-12.7497
ci❄	-12.7504
guo	-12.7529
ang❁8	-12.7543
bao	-12.756
88	-12.7566
dong❄2	-12.7602
..	-12.7603
dan	-12.7609
xun	-12.7632
❂31	-12.7636
❁34	-12.7649
he❂33	-12.7676
an❄38	-12.7687
min❃	-12.7692
lou	-12.7745
zhen❃2	-12.7766
ρ	-12.7769
せ	-12.7769
ゆ	-12.7769
ろ	-12.7769
キ	-12.7769
テ	-12.7769
ム	-12.7769
i❄95	-12.7781
bei❄2	-12.7801
bi❄12	-12.7805
i❄51	-12.7816
lu❃2	-12.7816
bi❄10	-12.7833
duan❄	-12.7836
yu❄13	-12.792
yao❃	-12.7921
62	-12.7941
ya❂1	-12.7945
xie❂2	-12.7962
yu❃	-12.7979
jing❄4	-12.7989
ke❁1	-12.799
bei❄	-12.7992
yuan❂3	-12.7995
❁2	-12.8024
jian❁6	-12.8037
tun	-12.8039
qie	-12.8047
❄34	-12.8084
jian❃	-12.8142
❂40	-12.8178
ying❁4	-12.8179
❂9	-12.8185
❄39	-12.8212
fu❂8	-12.8222
lian❂7	-12.8237
zhi❄7	-12.8246
❂24	-12.8252
❄78	-12.829
i❄16	-12.8301
qu❁1	-12.8336
❁0	-12.8346
xi❁	-12.841
ao❄22	-12.8418
na	-12.8432
mao❄3	-12.846
37	-12.8462
ci	-12.8476
qiu❁	-12.8489
xie	-12.8535
you❃	-12.8556
tai❄	-12.8569
❂22	-12.8573
men❂	-12.8596
ai❄6	-12.8609
❂3	-12.8612
chuan❂	-12.8617
shui❃	-12.8647
❄56	-12.865
mao❄	-12.866
i❄86	-12.8672
da❂3	-12.8705
nian❂	-12.8713
❃13	-12.8718
hong❁	-12.8723
feng❁	-12.8734
jiao❁	-12.8744
❄64	-12.8744
jiao❃4	-12.8751
i❄8	-12.876
zhuo❂4	-12.8768
u❃8	-12.8783
yang❂	-12.8822
piao❁	-12.8845
lu❂4	-12.8854
lei❂	-12.8878
gu❃2	-12.8889
jun	-12.889
❁14	-12.8893
guo❃	-12.892
❁19	-12.893
bo❂3	-12.8954
lao❃	-12.8963
fa	-12.8985
i❄56	-12.8991
ao❃5	-12.8995
❁39	-12.8997
o❁0	-12.9011
er❃1	-12.9012
T	-12.9019
г	-12.9019
й	-12.9019
м	-12.9019
≈	-12.9019
⊙	-12.9019
つ	-12.9019
よ	-12.9019
ブ	-12.9019
メ	-12.9019
ャ	-12.9019
ㄎ	-12.9019
kuai❄	-12.9041
han❄28	-12.9043
an❂17	-12.9054
xian❁3	-12.9056
ling❂	-12.9057
n❃5	-12.9078
ying❁	-12.9089
xuan❂1	-12.9101
tao❂	-12.9127
rong❂2	-12.9129
dao❄	-12.9151
chao❂	-12.9175
dai❄1	-12.918
❂27	-12.9187
dian	-12.9188
zhan❄1	-12.9189
rao❂	-12.9198
❂59	-12.9222
ken❃	-12.9226
kui	-12.924
qiao	-12.9241
an❄20	-12.9252
si❁1	-12.926
gou❄2	-12.9268
ming❂	-12.9274
xiu❁1	-12.9278
chi❁	-12.9278
que❄3	-12.9356
❂32	-12.9368
yue❄5	-12.9371
ji❄1	-12.9394
ao❃11	-12.9402
huang	-12.944
ao❂22	-12.9456
zhi❃1	-12.9468
jiao❁3	-12.9491
yong❁1	-12.9491
yun	-12.9495
chou❂4	-12.951
jin❄5	-12.9523
nan❂	-12.9529
ao❄0	-12.9531
nie❄	-12.9543
diao	-12.9578
❄0	-12.959
fu❂2	-12.9591
tuo❂1	-12.9601
cuo	-12.9605
pan❄	-12.9606
❄35	-12.9614
❁38	-12.9657
ye	-12.966
xun❄1	-12.9695
n❃7	-12.9696
ting❂	-12.97
❄63	-12.9702
64	-12.9742
kuan❁	-12.9749
xiang	-12.9779
n❃12	-12.98
chong❁1	-12.9804
xue❃	-12.982
dai❄2	-12.9836
zhe❂4	-12.984
❄88	-12.9854
jie❄3	-12.9863
peng	-12.9893
shao❁1	-12.9906
tiao	-12.9916
jiu	-12.9922
kao❄	-12.9951
bian	-12.9978
zheng❁1	-13.0005
qiang❁	-13.0025
❂44	-13.0062
xun❂3	-13.0076
miao	-13.01
wu❁	-13.0103
shi❄8	-13.0135
heng❂1	-13.0164
❂11	-13.0165
gan	-13.0176
46	-13.019
i❃10	-13.0193
wang❃1	-13.0204
suo❃	-13.0215
o❄6	-13.0219
an❃9	-13.0225
60	-13.024
i❂7	-13.0244
u❁38	-13.0252
ju❁	-13.0258
ao❃9	-13.0261
lei❂2	-13.0278
ng❄3	-13.0309
gao	-13.0312
fang❂	-13.0314
ao❃10	-13.0345
cong❁3	-13.0399
ai❃2	-13.0404
zhen❁	-13.0406
chui❂	-13.041
an❃3	-13.0416
zhu❄3	-13.0428
zhi❄8	-13.0429
chan❃	-13.0432
X	-13.0447
θ	-13.0447
П	-13.0447
б	-13.0447
п	-13.0447
ل	-13.0447
م	-13.0447
そ	-13.0447
ば	-13.0447
め	-13.0447
わ	-13.0447
ウ	-13.0447
ガ	-13.0447
ゲ	-13.0447
デ	-13.0447
ナ	-13.0447
フ	-13.0447
マ	-13.0447
ミ	-13.0447
モ	-13.0447
ュ	-13.0447
ロ	-13.0447
ㄍ	-13.0447
呗	-13.0447
아	-13.0447
e❂49	-13.0464
ai❃17	-13.0465
44	-13.0465
n❄19	-13.0467
un❁6	-13.0476
ai❁3	-13.0484
dong	-13.0487
que❄2	-13.0496
❂50	-13.0523
meng❃	-13.0564
xun❂	-13.0571
73	-13.0577
i❃22	-13.0577
suo	-13.0618
i❂31	-13.0619
nong❂	-13.0625
piao❂	-13.066
bi❄6	-13.0667
bian❁	-13.0684
u❁8	-13.0687
hui❁2	-13.0698
lu❄7	-13.0702
cha❂1	-13.0704
mi❄4	-13.0705
xian❃4	-13.0715
nai❄	-13.0719
mie❄1	-13.0741
e❄8	-13.0743
ao❁0	-13.078
zheng❃	-13.078
❂25	-13.0795
quan	-13.08
er	-13.0812
zi❁4	-13.0819
huang❂	-13.0831
n❁3	-13.0836
i❄59	-13.0849
juan	-13.0869
chi❂	-13.0894
huai❂	-13.0939
qu❁	-13.0941
shi❁	-13.0948
luo❃	-13.098
❂36	-13.0997
81	-13.1041
i❁39	-13.1065
guo❂	-13.1068
chun❂2	-13.1087
guang❁	-13.1104
hong❁16	-13.1108
meng❂2	-13.1161
geng❁	-13.1164
zheng❁	-13.1177
e❄30	-13.1183
hong❂6	-13.1199
tan❂3	-13.12
❁31	-13.1201
cheng❁	-13.1208
he❂7	-13.1217
ju❄7	-13.1224
an❄33	-13.124
i❄47	-13.1246
liao	-13.1251
yi❁1	-13.1258
qin❂3	-13.1265
she❄	-13.1265
jing❄	-13.1267
pei❄1	-13.1291
jiang❁	-13.1292
63	-13.1294
iu❁0	-13.1302
lin❄1	-13.1306
e❂61	-13.1312
u❄2	-13.1322
rui❄1	-13.1415
pan❂1	-13.1418
yi❄23	-13.1419
tao❁2	-13.1452
ju❄6	-13.1456
ying❂4	-13.1479
ang❁7	-13.1498
uan❃8	-13.1507
❂	-13.1528
pei❄	-13.1539
i❄30	-13.1547
96	-13.1595
❄52	-13.1608
i❄10	-13.1625
zuo	-13.1659
hui❄9	-13.1664
an❂14	-13.1673
qin❂1	-13.1673
❂42	-13.1674
yi❄1	-13.1716
che❄2	-13.1718
ng❄6	-13.172
ma❂	-13.1724
yi❄15	-13.1724
hang❂	-13.1727
yi❄9	-13.173
peng❁1	-13.1743
huan❂1	-13.1757
xing❂	-13.177
liu❂3	-13.1775
ci❂2	-13.1788
an❃17	-13.1792
kao	-13.1797
yun❂	-13.1815
o	-13.1837
en❁4	-13.1837
tian❂1	-13.1841
zu❃	-13.185
sui❄2	-13.1857
❃20	-13.1871
n❄10	-13.1879
tiao❂	-13.1887
mo❄	-13.1904
yong	-13.1914
qiao❁2	-13.1917
yi❂6	-13.193
bang❄1	-13.1932
kan❃	-13.1939
li❂6	-13.2001
n❁11	-13.2022
wu❂1	-13.2037
pan❂	-13.2037
jin❁2	-13.204
un❃0	-13.2053
tie❁	-13.2055
can❄1	-13.2056
di❂1	-13.2064
lei	-13.2074
piao	-13.211
piao❁1	-13.2114
́	-13.2114
ε	-13.2114
ι	-13.2114
Г	-13.2114
〞	-13.2114
ど	-13.2114
ゃ	-13.2114
ィ	-13.2114
サ	-13.2114
ズ	-13.2114
ニ	-13.2114
ビ	-13.2114
ㄑ	-13.2114
han❂33	-13.2115
zhi❄10	-13.2115
pi❃1	-13.2146
cun❁	-13.2171
e❄3	-13.2197
kang❁	-13.2199
gu❃4	-13.2212
jin❁3	-13.2219
fe	-13.2266
you❃1	-13.2282
tan	-13.2291
beng	-13.2292
❄43	-13.2297
yuan❂	-13.2308
shu❁3	-13.231
qi❄4	-13.2338
❂7	-13.2347
ying❃1	-13.235
an❄22	-13.2351
jin❄	-13.2379
jiu❄3	-13.2403
ying	-13.2404
ai❃1	-13.2443
an❂7	-13.2448
❃25	-13.2458
❄98	-13.247
sou	-13.2481
wan❃	-13.2486
hong	-13.2497
hong❂	-13.2502
gan❄	-13.2506
ng❂7	-13.254
chong❁2	-13.255
sou❃	-13.2555
li❃	-13.2568
an❁30	-13.2582
ao❃6	-13.2586
ling❂5	-13.2591
sheng❁1	-13.2598
ai❄3	-13.2599
ha	-13.2615
iao❁18	-13.262
i❄21	-13.2621
luan❂	-13.2622
wang❃	-13.2623
kuai	-13.2624
li❄14	-13.2636
wei❂2	-13.2644
shi❄	-13.2678
yan❄6	-13.2706
run❄	-13.2712
i❄32	-13.2713
beng❄	-13.2722
qi❂3	-13.2742
ka	-13.2773
huang❂2	-13.2783
pa❂	-13.281
mu❄2	-13.2813
kai❃	-13.2876
wen	-13.2893
you❄1	-13.2896
ang❃8	-13.2898
tang❂2	-13.291
wen❂2	-13.2916
❂52	-13.2951
❂99	-13.2957
die❂5	-13.2959
xun❄2	-13.2981
u❃42	-13.2996
zhou	-13.3003
zhi❁3	-13.3025
mo	-13.3087
n❂26	-13.3108
ong❁19	-13.312
i❂8	-13.3128
sou❁1	-13.3131
jiao❄3	-13.3132
u❂51	-13.3133
yin	-13.3134
❄24	-13.3154
pian	-13.3173
yun❂2	-13.3174
zheng❁4	-13.3174
fu❄2	-13.3174
yi❄6	-13.3189
an❄3	-13.3189
ng❁16	-13.3222
an❄24	-13.3233
bu	-13.3244
de	-13.3272
ao❃17	-13.3291
yi❄22	-13.3292
shuo	-13.3334
❂79	-13.3353
zhu❁	-13.339
dian❃	-13.3392
mang❂3	-13.3399
i❃16	-13.3412
❄62	-13.3454
xian❄2	-13.3457
min❃1	-13.348
ma❃1	-13.3487
nv❃	-13.3567
yao❂4	-13.359
xun❄	-13.3602
ang❄6	-13.3612
i❁3	-13.3636
dan❄3	-13.3647
an❁20	-13.3684
a❂14	-13.3703
an❁34	-13.3706
li❃2	-13.3727
he❂3	-13.3735
ju❃2	-13.3746
yuan❂5	-13.3749
fu❃3	-13.3776
ou❁1	-13.38
shu❄2	-13.3801
ru❂	-13.3808
109	-13.382
ji❄7	-13.3821
❄51	-13.3835
❄25	-13.3838
53	-13.3847
❄54	-13.3887
ng❁5	-13.3954
52	-13.3963
uan❁3	-13.4
zi	-13.4012
ji❂7	-13.4022
bing	-13.4047
❂39	-13.4049
i❄4	-13.4053
i❂10	-13.4057
xiu❄	-13.4063
n❃11	-13.408
❁45	-13.409
qiao❁	-13.4096
dun❄2	-13.411
M	-13.4114
В	-13.4114
М	-13.4114
Р	-13.4114
С	-13.4114
д	-13.4114
ф	-13.4114
ب	-13.4114
د	-13.4114
ر	-13.4114
ن	-13.4114
←	-13.4114
∼	-13.4114
▲	-13.4114
す	-13.4114
グ	-13.4114
セ	-13.4114
ダ	-13.4114
ツ	-13.4114
ハ	-13.4114
パ	-13.4114
ピ	-13.4114
ョ	-13.4114
지	-13.4114
한	-13.4114
hao❄27	-13.4114
ao❂17	-13.4115
ao❂29	-13.4115
e❄80	-13.4117
heng❁1	-13.4119
ai❄27	-13.4121
a❄11	-13.4122
eng❃10	-13.4134
zhan	-13.4146
mian❃1	-13.4148
ji❂6	-13.4149
❃34	-13.4184
jue❂1	-13.4195
i❂30	-13.4196
man❃	-13.4201
mi❄2	-13.4207
a❂30	-13.421
ba❄2	-13.4226
bian❄	-13.4249
bian❄3	-13.427
dao	-13.4276
uo❄8	-13.4285
miao❂	-13.43
70	-13.4312
ji❂3	-13.4315
ji❁4	-13.4331
ao❂8	-13.4337
n❁10	-13.4339
ke❁3	-13.4356
gu❃5	-13.4377
ran❂	-13.4378
min❂2	-13.4381
ng❁9	-13.4391
die❂	-13.4402
jin❃1	-13.4405
li❄12	-13.4415
an❃5	-13.4416
i❁9	-13.4422
bi❃	-13.4428
i❂34	-13.4464
n❁31	-13.4473
an❂12	-13.4475
ou❁12	-13.4485
han❄	-13.4493
ji❂8	-13.4505
shan❁3	-13.4511
xi❄5	-13.4513
e❁4	-13.4519
xie❄5	-13.4522
kong❁	-13.4558
u❄10	-13.4561
ang❁5	-13.4656
huan❂4	-13.4664
u❄39	-13.468
i❂17	-13.4685
jia❃1	-13.4717
ui❄30	-13.4735
fang	-13.4738
yan❁3	-13.4764
fang❁	-13.4764
ao❁9	-13.4768
u❂43	-13.4798
xiu❁	-13.4805
ong❃7	-13.4835
xin	-13.4836
sui❄3	-13.4867
qian❂3	-13.4871
cao❃	-13.4878
biao❁3	-13.489
ji❂	-13.4901
biao❁1	-13.4935
e❂33	-13.4939
zhen❁2	-13.4942
ong❁2	-13.4943
u❄63	-13.4978
❁47	-13.5004
yu❂5	-13.5019
re	-13.5023
jing❃2	-13.503
qu❃	-13.5032
zong❁3	-13.5035
ng❂17	-13.5051
kun	-13.508
u❄57	-13.5089
xian❃2	-13.5126
❃31	-13.5126
o❄2	-13.5139
si❁2	-13.5143
luo❂	-13.5161
uan❁0	-13.517
gao❁1	-13.5176
u❂5	-13.5185
ge❁1	-13.5207
gu❄1	-13.5258
liao❂	-13.5294
tao❁1	-13.5317
er❄	-13.5342
qiu❁1	-13.5345
sai❁	-13.5349
dui❄	-13.5362
xun❁	-13.5364
man❄1	-13.5376
uo❄18	-13.5383
wen❃1	-13.5398
dang❄1	-13.5417
❄38	-13.5484
dai❄	-13.5485
you❂	-13.5487
jian❁4	-13.549
lao❃1	-13.5498
❂45	-13.5502
he❂	-13.5513
u❄19	-13.5526
que❄1	-13.554
e❄10	-13.5638
fu❃2	-13.564
jie❄	-13.5653
n❂13	-13.5678
hua❁	-13.5678
jue❂3	-13.5698
qi❃2	-13.5704
jing❁	-13.5714
u❂3	-13.5718
gu❁	-13.5722
che	-13.5747
ge❁2	-13.5771
ping❂	-13.5786
3)	-13.5829
an❁31	-13.5847
an❄1	-13.5849
ding	-13.5856
❂38	-13.5857
ye❄4	-13.5879
be	-13.5881
58	-13.5887
u❃1	-13.5912
yu❂	-13.5921
hong❂5	-13.5926
gun❃	-13.593
ang❄19	-13.5932
u❂34	-13.5935
lin❂1	-13.5939
gao❃	-13.5946
n❁4	-13.5988
zhang	-13.599
ji❁6	-13.6036
uan❃4	-13.6044
lan	-13.6053
xian❄3	-13.6062
ying❂	-13.6082
cui❃	-13.6092
66	-13.6124
i❄181	-13.6141
si	-13.6151
sun❃	-13.6221
kui❂1	-13.6223
❄42	-13.6227
mo❄6	-13.623
mi❃1	-13.6254
i❁10	-13.6269
n❂20	-13.6275
uo❄4	-13.63
❂61	-13.6302
lin❂	-13.6318
lin❂4	-13.6333
dang	-13.6337
i❄49	-13.6338
gui	-13.6351
can❂1	-13.6366
ren❂	-13.6373
ng❃2	-13.6386
kui❁	-13.6407
mai❂	-13.6407
xian❁	-13.6412
jia❁3	-13.6428
zhen❄1	-13.643
bi❄11	-13.6443
shan❁2	-13.648
cai❃	-13.648
hu❂3	-13.6486
n❁15	-13.6497
❂53	-13.6505
yue❄	-13.6515
beng❄1	-13.6544
an❁12	-13.6548
yun❄	-13.6549
gai❁1	-13.6567
lang❂1	-13.6588
en❁0	-13.6613
E	-13.6614
P	-13.6614
ο	-13.6614
π	-13.6614
τ	-13.6614
ω	-13.6614
А	-13.6614
К	-13.6614
Т	-13.6614
Ш	-13.6614
х	-13.6614
ш	-13.6614
ы	-13.6614
ت	-13.6614
ح	-13.6614
ท	-13.6614
↑	-13.6614
↓	-13.6614
├	-13.6614
ぎ	-13.6614
ひ	-13.6614
ふ	-13.6614
ぶ	-13.6614
む	-13.6614
ァ	-13.6614
ェ	-13.6614
ボ	-13.6614
ㄘ	-13.6614
가	-13.6614
내	-13.6614
hong❁4	-13.6616
hu❄27	-13.6622
han❁9	-13.6626
u❂33	-13.6633
yi❄20	-13.6638
ha❁3	-13.6639
huan❄2	-13.6642
pan	-13.6658
huan❁1	-13.6658
dun❄	-13.6679
ran	-13.6694
lu❄	-13.671
❂66	-13.6731
zao❃	-13.6749
dong❄1	-13.6786
di❃1	-13.6805
fei❃	-13.682
mian❃2	-13.6827
bing❄	-13.6836
kai❃1	-13.6838
❄53	-13.6853
hu❁3	-13.6865
cheng❂1	-13.687
an❄2	-13.6874
u❄68	-13.6882
yo	-13.6889
yin❁3	-13.6897
uo❁2	-13.6902
gui❃2	-13.6916
dan❁	-13.6924
u❃11	-13.6931
❂54	-13.6937
mei❄	-13.6941
yi❄16	-13.6958
ou❄7	-13.6963
o❄1	-13.6981
ji❂1	-13.6999
an❄18	-13.7004
hong❂4	-13.7013
lou❂1	-13.7027
an❄31	-13.7036
uan❁4	-13.7037
hong❂2	-13.704
wei❃2	-13.704
bang❄	-13.7055
ao❄24	-13.7056
o❁1	-13.709
gui❁4	-13.7096
uo❂3	-13.7105
ye❄6	-13.7109
bao❃	-13.7111
ju❃1	-13.717
qi❂	-13.7172
u❂19	-13.7178
59	-13.7189
hua❂	-13.719
i❁32	-13.7228
zong❁	-13.7239
chao❃	-13.7249
xu❄3	-13.7281
she❂	-13.7301
yu❂1	-13.7315
ou❃	-13.7337
n❄22	-13.735
lan❂1	-13.7385
liu❂	-13.7385
n❄1	-13.7395
bian❄1	-13.7402
e❄19	-13.7445
u❂23	-13.7451
luan❂1	-13.7461
duo❃2	-13.7463
qiu	-13.7472
wei❄	-13.7501
yin❁4	-13.7505
gua❄	-13.751
tong❂4	-13.7516
n❁5	-13.7546
ju❄4	-13.7548
tun❂	-13.7559
ao❃12	-13.7589
you❄	-13.7618
o❃2	-13.7635
wu❁2	-13.765
an❁25	-13.7692
mian❂1	-13.7719
pai❂	-13.7727
chu❄1	-13.7733
❂41	-13.7733
ba❃	-13.7746
ong❁15	-13.7754
zou❁	-13.7763
feng❁2	-13.7817
❃22	-13.7825
tian❂	-13.7826
bo❂5	-13.783
lan❂2	-13.7832
chou❂3	-13.7852
uo❁5	-13.7857
shuang❁	-13.7862
u❄23	-13.7877
o❂9	-13.7922
mao❄2	-13.7926
bi❄8	-13.7926
e❁1	-13.7926
yong❃2	-13.7933
liu	-13.7941
mi❂3	-13.7945
yao❁1	-13.7952
ng❃10	-13.7978
di❄5	-13.8024
chou	-13.8044
pang❂	-13.8054
xian❄6	-13.8055
wang	-13.8067
kou	-13.8073
se❄2	-13.8079
lie❄3	-13.8093
lu❄5	-13.8101
uan❂28	-13.8121
iao❁29	-13.8142
hun❂	-13.8147
u❃9	-13.8156
❃19	-13.8158
shi❄6	-13.8166
zhang❁	-13.8179
gui❄4	-13.8206
❂51	-13.8218
fan❁	-13.8224
ang❂8	-13.8231
ng❃5	-13.8257
rou	-13.8322
han❂2	-13.8324
❄68	-13.8332
cong❁	-13.8345
lao❂2	-13.8354
yin❁	-13.8429
uan❃3	-13.8444
gao❃1	-13.8459
nai❃	-13.8475
cui	-13.8482
n❄8	-13.8493
ceng	-13.8494
82	-13.8498
fu❁3	-13.852
gu❁2	-13.8521
bi❃2	-13.855
e❂67	-13.856
an❁3	-13.8589
wa	-13.8596
an❂6	-13.8611
yu❄6	-13.8614
yi❂3	-13.863
chang❁1	-13.8639
yi❃	-13.867
u❄52	-13.8675
ang❁4	-13.8703
ti❂	-13.8731
an❂46	-13.8749
ba❁	-13.8755
an❁11	-13.8763
❃42	-13.8777
long❂4	-13.8779
bu❄3	-13.8785
un❁4	-13.8788
xia❂1	-13.8793
i❃11	-13.8822
pin	-13.8849
zhen❄	-13.885
su❄5	-13.8863
die❁	-13.8864
dao❁	-13.8876
ao❄8	-13.8898
lin❂3	-13.8927
shi❂	-13.8934
pie❁	-13.894
eng❁43	-13.895
se❄	-13.9015
man	-13.903
xi❁12	-13.906
❂43	-13.906
ng❃6	-13.9061
sao❁	-13.9094
shi❄3	-13.9101
ji❄11	-13.9107
ju❃	-13.9125
dang❁	-13.9128
zhao❁	-13.9128
tao❁	-13.9136
sao	-13.9145
zheng	-13.9155
ban❃	-13.9203
an❃15	-13.9209
pin❂	-13.9212
u❃4	-13.9227
lian❄2	-13.9237
sun❁	-13.9237
er❃	-13.9238
❂81	-13.9273
yang❂1	-13.9288
e❁6	-13.9292
zun❁	-13.9302
meng	-13.9349
ao❂5	-13.9376
❁42	-13.9383
❃28	-13.9423
suo❁1	-13.9458
shang❁	-13.949
gong❃1	-13.9499
shu❂	-13.9504
ei❄62	-13.9539
wei❂	-13.9554
zhong	-13.9557
sou❁	-13.9595
shen❁	-13.9599
i❃1	-13.9602
zhi❃	-13.9609
❂48	-13.9619
zhou❄3	-13.9627
dong❄	-13.9645
zheng❁2	-13.9648
90	-13.9651
❂1	-13.9663
i❃2	-13.9673
chang❂2	-13.969
❄61	-13.9704
yi❄7	-13.9707
zhu❃	-13.9742
tong	-13.9757
zhi❁1	-13.9758
ai❄5	-13.9784
nuo❄	-13.9789
u❄56	-13.9816
pin❂1	-13.9822
jia❁1	-13.99
u	-13.9909
❁49	-13.991
lai❂	-13.9928
ma❅	-13.9938
¢	-13.9947
ö	-13.9947
÷	-13.9947
ć	-13.9947
ı	-13.9947
ł	-13.9947
ɡ	-13.9947
ˈ	-13.9947
ˉ	-13.9947
̊	-13.9947
Δ	-13.9947
ν	-13.9947
ψ	-13.9947
И	-13.9947
Я	-13.9947
з	-13.9947
і	-13.9947
و	-13.9947
र	-13.9947
ด	-13.9947
น	-13.9947
อ	-13.9947
่	-13.9947
‚	-13.9947
↗	-13.9947
∈	-13.9947
▼	-13.9947
♂	-13.9947
〓	-13.9947
ず	-13.9947
び	-13.9947
へ	-13.9947
゚	-13.9947
ォ	-13.9947
ケ	-13.9947
コ	-13.9947
ゼ	-13.9947
ソ	-13.9947
ノ	-13.9947
ヤ	-13.9947
ㄋ	-13.9947
氇	-13.9947
사	-13.9947
신	-13.9947
어	-13.9947
조	-13.9947
종	-13.9947
	-13.9947
he❂44	-13.9948
ang❁0	-13.9949
hou❄18	-13.995
i❁4	-13.9967
bai	-13.997
hu❃2	-13.9979
he❂45	-13.9981
5)	-13.9993
ji❁11	-13.9995
feng	-14
xu❁2	-14.0007
ling❂8	-14.0024
tong❃	-14.0037
yu❄3	-14.0043
zhu❄2	-14.0048
sui	-14.0052
tou❂	-14.0059
u❄31	-14.006
rong❂5	-14.0073
wan❃1	-14.0078
ling❂9	-14.0086
shou❃	-14.0104
li❂4	-14.0132
sheng	-14.0145
bi❄7	-14.0147
ling❂7	-14.0152
an❂49	-14.021
zhen❁5	-14.0212
su❄7	-14.0233
fen❁	-14.0233
fu❂9	-14.0258
ei❄2	-14.026
49	-14.0268
chang❃	-14.0287
❃23	-14.029
lie❄	-14.031
an❁23	-14.0314
ba❁2	-14.0358
ting	-14.0388
wei❁	-14.0389
jue❂7	-14.0391
xun❂1	-14.0409
un❄1	-14.043
gang❁2	-14.0465
po	-14.0466
shi❄4	-14.049
gong❁	-14.0493
que❄	-14.0514
u❄53	-14.0516
yu❂10	-14.0516
ka❃	-14.0531
xu❃	-14.0534
e❁0	-14.0539
xiao❄	-14.0556
ju❁1	-14.0598
ji❁8	-14.0614
❄50	-14.0619
she❄1	-14.0634
i❁14	-14.0641
zeng❄	-14.0642
n❂10	-14.0667
lai	-14.0671
ng❄13	-14.0677
shi❂3	-14.0679
yao❂3	-14.0683
gou❃	-14.0694
u❃47	-14.0696
ze	-14.0704
n❃17	-14.0735
ye❃	-14.0735
xiao❁6	-14.0741
han❄3	-14.0742
shao❁	-14.0752
zi❄	-14.0768
di❂	-14.0793
cheng❂	-14.0805
ian❄22	-14.0812
zhi❄3	-14.0852
ng❁7	-14.0869
shen❁4	-14.0874
uan❄18	-14.0884
n❁6	-14.0933
jun❄3	-14.0965
dun	-14.0969
❁52	-14.0972
liu❂2	-14.0985
fei❄3	-14.1031
i❁1	-14.104
qin	-14.1041
i❄45	-14.1097
u❄41	-14.1103
zhao❄1	-14.1114
sui❄4	-14.1116
yu❂7	-14.1138
ian❁7	-14.118
shuai❄	-14.1186
hao	-14.1207
o❄8	-14.1213
u❃14	-14.1222
you❄3	-14.1225
en❃1	-14.1247
cheng❂2	-14.1271
❂57	-14.1271
luo❂1	-14.1291
ding❃	-14.1298
yan❄5	-14.1307
guang	-14.1335
yue	-14.1387
yu❃2	-14.1413
chun❂	-14.1414
lun❂2	-14.1425
yao❂2	-14.1452
chou❂1	-14.1454
xun❁1	-14.1468
un❁3	-14.1487
zi❃1	-14.1506
tie	-14.1547
ng❁4	-14.1602
cao❂	-14.1649
u❁39	-14.1658
yu❃1	-14.1674
i❄15	-14.1686
gou	-14.1709
an❁5	-14.1732
an❄4	-14.1738
hui❄2	-14.1744
ong❂3	-14.1759
n❄2	-14.176
wan❂	-14.1765
a❁13	-14.18
qi❂5	-14.1804
jing❃1	-14.181
jun❁	-14.1813
biao	-14.1814
xuan❁	-14.1816
dou	-14.1817
i❂46	-14.1841
qiang❁2	-14.1876
ben❄	-14.1898
gan❁	-14.1931
e❃1	-14.1934
jing❃	-14.1941
cun	-14.195
i❁23	-14.1952
ou❃1	-14.1987
u❄13	-14.2023
ng❃13	-14.2026
i❂32	-14.2095
u❄36	-14.2117
51	-14.217
o❄16	-14.2216
zou	-14.2217
jie❂4	-14.2234
ning	-14.2234
ping❂3	-14.2268
a❂3	-14.2275
u❂49	-14.2282
ruan❃1	-14.2289
tu❂3	-14.2295
pu	-14.2304
ke❃	-14.2307
ao❃7	-14.2315
xi❁16	-14.2325
jiang	-14.2339
ao❂12	-14.2376
ang❂15	-14.2383
ruan❃	-14.242
wu❄	-14.2437
i❂81	-14.2448
teng❂1	-14.2468
lian❂3	-14.2472
en❄6	-14.249
u❁0	-14.2507
qi❁2	-14.2514
qing	-14.2518
u❄48	-14.2541
i❂22	-14.2546
yan❁2	-14.2549
zhou❁	-14.2559
yong❁3	-14.2562
❁44	-14.2582
ng❁19	-14.2596
cheng❁2	-14.261
shao	-14.2658
ong❁4	-14.2685
ang❂19	-14.2701
mi❃	-14.2717
qi❂8	-14.2718
shu❁	-14.2778
bao❄2	-14.2849
ao❂4	-14.2875
un❁15	-14.2892
❃26	-14.2919
i❁16	-14.2928
zhen❃	-14.294
shan❄3	-14.2971
dou❄1	-14.2983
xing	-14.2985
jiao❄1	-14.2987
❄144	-14.3025
zhu❄	-14.3025
pi❁	-14.3026
zhi❂	-14.3043
ming	-14.3046
geng❃1	-14.306
ing❄3	-14.3088
i❄22	-14.3128
e❄46	-14.3148
gan❁1	-14.3155
ce	-14.3168
i❄48	-14.317
fei❃1	-14.3174
ti❄	-14.3193
u❁34	-14.32
suo❁	-14.3216
❂98	-14.3216
ng❄7	-14.3251
61	-14.3271
lian❂	-14.3282
jiao❄	-14.3285
yin❁2	-14.3349
n❃1	-14.3355
xian❃	-14.3383
❂63	-14.3397
83	-14.3416
chou❂	-14.3446
ie❂23	-14.3461
❃29	-14.3468
gai❁	-14.3472
u❃28	-14.3486
bo❂	-14.3511
shang	-14.3593
tiao❄	-14.3597
ang❃2	-14.3604
n❂19	-14.3608
wu❄2	-14.3626
wei❁3	-14.3628
ao❁3	-14.3636
bo❁	-14.3649
yi❄2	-14.3666
yao❂	-14.3678
❁36	-14.3688
u❃6	-14.3756
geng❃	-14.3769
lu❃	-14.3788
ie❄19	-14.3789
❂76	-14.382
n❃0	-14.3825
ao❁5	-14.3826
wen❂	-14.3828
n❃13	-14.3851
hui❂11	-14.3853
shi❂2	-14.3859
yuan❂4	-14.3859
n❂25	-14.3874
a	-14.3875
u❄40	-14.3913
sa❄1	-14.3924
jun❄2	-14.3934
u❁15	-14.3943
e❄17	-14.3949
2)	-14.3984
o❁5	-14.3988
69	-14.3998
ng❂11	-14.4004
gun❃1	-14.4014
pu❂2	-14.4015
da❂1	-14.4051
ian❄4	-14.407
ke❄2	-14.4113
❄65	-14.4114
nv	-14.414
ji❁2	-14.4174
chong❁	-14.4196
xia❂	-14.4238
mo❄2	-14.4247
fang❃	-14.4264
i❃17	-14.4269
qiu❂	-14.4271
i❄17	-14.4295
shan❁1	-14.4331
huang❂3	-14.4367
ai❄8	-14.4384
i❁33	-14.4401
cui❄2	-14.4414
tai	-14.4425
nie	-14.4434
da❂	-14.448
chu❄	-14.4497
kui❄1	-14.4506
yi❂	-14.4506
sheng❁	-14.4513
lu❂1	-14.4549
zhuang❁	-14.4572
n❄9	-14.4586
juan❁	-14.4589
hun❃0	-14.4634
i❂35	-14.464
an❂34	-14.4644
qie❄1	-14.466
guo❁	-14.4695
zeng❁	-14.47
ong❃5	-14.474
yi❂8	-14.4741
u❁10	-14.477
3.	-14.4805
fei❂	-14.4823
n❄56	-14.4829
men	-14.484
56	-14.4846
zi❄1	-14.4891
shi❄9	-14.4905
ta❃	-14.4921
bing❁	-14.494
C	-14.4945
A	-14.4947
F	-14.4947
H	-14.4947
L	-14.4947
R	-14.4947
S	-14.4947
®	-14.4947
ä	-14.4947
ç	-14.4947
Đ	-14.4947
đ	-14.4947
ę	-14.4947
ğ	-14.4947
ŋ	-14.4947
ư	-14.4947
̄	-14.4947
̈	-14.4947
ά	-14.4947
ξ	-14.4947
Б	-14.4947
Е	-14.4947
З	-14.4947
ч	-14.4947
ь	-14.4947
ю	-14.4947
ج	-14.4947
س	-14.4947
ش	-14.4947
ع	-14.4947
ه	-14.4947
स	-14.4947
ง	-14.4947
ว	-14.4947
ห	-14.4947
า	-14.4947
ิ	-14.4947
ạ	-14.4947
ị	-14.4947
ỗ	-14.4947
ờ	-14.4947
ụ	-14.4947
∧	-14.4947
≯	-14.4947
┃	-14.4947
┅	-14.4947
┇	-14.4947
┤	-14.4947
々	-14.4947
ぐ	-14.4947
げ	-14.4947
ご	-14.4947
ね	-14.4947
ぼ	-14.4947
ゅ	-14.4947
ゴ	-14.4947
ザ	-14.4947
ネ	-14.4947
ペ	-14.4947
ユ	-14.4947
ワ	-14.4947
忄	-14.4947
扌	-14.4947
行	-14.4947
경	-14.4947
구	-14.4947
기	-14.4947
단	-14.4947
리	-14.4947
말	-14.4947
민	-14.4947
스	-14.4947
원	-14.4947
이	-14.4947
인	-14.4947
일	-14.4947
자	-14.4947
호	-14.4947
	-14.4947
	-14.4947
	-14.4947
	-14.4947
hao❄31	-14.4948
hou❂25	-14.4948
mian❃	-14.4949
jue❂10	-14.4955
hu❄24	-14.496
han❃16	-14.4961
zuo❄	-14.4963
hui❂5	-14.4965
heng❂13	-14.4966
ao❄20	-14.497
guan❁	-14.4988
n❄11	-14.5011
i❃9	-14.5019
u❂2	-14.5019
wu❂	-14.5021
fu❄5	-14.5045
ji❄9	-14.5065
i❄24	-14.5105
a❄7	-14.5107
bo❁2	-14.5117
e❂4	-14.5149
n❄21	-14.5172
gai	-14.5226
sui❄	-14.5245
❄57	-14.5248
mu❄	-14.5249
nie❄6	-14.5268
rong❂4	-14.5286
ng❄8	-14.5286
chan❂4	-14.5295
shu❄4	-14.5309
pei	-14.5325
kuo❄1	-14.5328
jian❄8	-14.5336
mao❂	-14.5339
li❄17	-14.5371
gu❄	-14.5394
lian❂6	-14.5398
mei❂	-14.5426
shui❄1	-14.5434
hua❂1	-14.5451
cai❄	-14.5459
xu❃1	-14.5472
tong❂	-14.5478
jue❂9	-14.5498
fu❃	-14.5503
qiang	-14.5506
fa❃	-14.5553
i❃8	-14.5567
feng❁3	-14.5578
qin❂	-14.5582
ang❃3	-14.5603
huan❂2	-14.5612
ke❄	-14.5615
ong❄3	-14.5619
u❃7	-14.5638
ong❂23	-14.5641
ge❂5	-14.5643
94	-14.5644
hui❄7	-14.567
yang❁	-14.5721
geng	-14.5743
ben❁	-14.5771
xian❁5	-14.5776
lin❂2	-14.5781
zui❄	-14.5797
ling❂6	-14.5798
n❂15	-14.582
chi❃	-14.5825
lve❄1	-14.5827
zhi❄11	-14.5828
ze❂2	-14.5828
ai❄18	-14.5837
ya❂	-14.585
sheng❃	-14.5854
xie❄	-14.5856
ban	-14.5867
qiong❂	-14.587
xie❄6	-14.5884
niu❂	-14.5897
ju❄	-14.5903
pi❄1	-14.5908
uo❂8	-14.591
an❄37	-14.5962
mei❃	-14.6
u❁18	-14.601
yu❂9	-14.607
i❄14	-14.6076
❁37	-14.6084
n❄18	-14.6086
meng❂	-14.6109
mei❃1	-14.6112
ang❁1	-14.6117
zheng❄1	-14.6143
li❃1	-14.6145
an❄43	-14.6167
cai❂	-14.6171
can	-14.6198
ng❂23	-14.6208
ci❁	-14.6218
uan❄1	-14.6227
i❄20	-14.6234
lv❃	-14.6254
dou❁	-14.627
jun❄	-14.6279
i❄2	-14.63
wei❃5	-14.6305
shi❂1	-14.6311
fen❄	-14.6311
ng❁1	-14.6325
ou❃6	-14.6368
i❄6	-14.6372
gou❁	-14.6376
ao❁6	-14.6386
tuo❂3	-14.6387
li❂3	-14.6396
shua	-14.6423
song❃	-14.6433
han❃1	-14.6467
zhi❁	-14.6485
jia❃	-14.6498
e❁5	-14.6529
shuo❄	-14.6534
❃41	-14.6541
ao❄35	-14.6567
gao❁2	-14.6578
mou❂	-14.6599
fu❄6	-14.6604
huo❃	-14.6604
o❂8	-14.6613
pai	-14.6626
65	-14.6642
lian❃1	-14.6645
10)	-14.6658
ng❁20	-14.6697
ding❄	-14.6717
you❂2	-14.6724
ne	-14.6729
n❄6	-14.6737
n❃16	-14.6758
yao❂5	-14.6782
89	-14.6795
pian❁	-14.6801
man❄	-14.6819
qiong	-14.6827
i❂20	-14.683
eng❂7	-14.6836
zhi❄6	-14.6845
ke❁2	-14.6852
en❂	-14.6857
qi❁	-14.6874
4)	-14.6894
yun❃1	-14.69
e❂22	-14.6912
n❄20	-14.6917
huan❂	-14.6942
❄81	-14.6946
bie❂	-14.6953
u❂32	-14.7002
lia	-14.7011
an❁1	-14.7051
ai	-14.7065
lo	-14.7071
kang	-14.7086
chan❂	-14.7094
an❁14	-14.7113
❂80	-14.7131
zhou❄2	-14.7183
du❄	-14.7194
pi❂1	-14.7236
ping	-14.7241
❄75	-14.7315
zhi❁4	-14.7358
xiu	-14.7368
bang	-14.7383
bo❂4	-14.7394
fei❄	-14.7406
guo❂1	-14.7456
eng❁19	-14.7465
cui❄	-14.7465
chang❂1	-14.7465
ci❃	-14.7482
chen❂	-14.7498
iao❁6	-14.7514
jue	-14.7541
an❁19	-14.7549
dui❄1	-14.7569
zhi❃3	-14.7642
xin❁1	-14.772
uo❁8	-14.7788
i❁60	-14.7791
hou❄	-14.7807
suan❄	-14.7855
zheng❁3	-14.7871
ing❁30	-14.7892
yong❃	-14.792
ng❁8	-14.7928
hun❂2	-14.793
xia❂4	-14.7946
zeng	-14.7982
jian❄	-14.8001
shi❃	-14.802
huo	-14.8025
7)	-14.8034
chu❁	-14.8081
si❄2	-14.8131
ong❂13	-14.8151
xi❄3	-14.8163
mao❃	-14.8167
eng❄1	-14.8184
chu❃	-14.8217
❄58	-14.8227
shui	-14.8228
nao	-14.8234
sha❁	-14.8258
bo❄	-14.8267
ji❂5	-14.8272
zhuo	-14.8289
shi❁1	-14.83
54	-14.8348
li❄9	-14.8377
cai	-14.8398
fu❁1	-14.8429
sui❁	-14.8485
ng❁15	-14.8487
ning❂1	-14.849
u❄47	-14.8498
zhuan❁	-14.8502
u❂21	-14.8553
kuai❄1	-14.8563
lai❄1	-14.8576
i❂5	-14.8593
u❁28	-14.8639
pu❂1	-14.8641
jin❄3	-14.8733
ong❂33	-14.8758
shuan	-14.877
ao❂	-14.8814
❄46	-14.8842
ge❂	-14.8843
yi❂5	-14.885
i❁7	-14.8871
ze❂	-14.8877
i❂79	-14.8893
juan❄3	-14.8922
u❄43	-14.8974
er❂1	-14.9037
duo❃	-14.9038
nuo	-14.9039
ang❁26	-14.9126
u❄3	-14.913
i❃13	-14.9165
shen❄	-14.9186
n❄15	-14.9202
nai	-14.9216
❄95	-14.9221
wo❄	-14.9229
ai❁4	-14.926
o❁9	-14.9278
ang❁9	-14.9339
dai❄4	-14.9367
u❃5	-14.9369
ang❃7	-14.937
fu❃1	-14.9388
meng❂4	-14.9402
i❄34	-14.9411
pi❄	-14.9419
mi❄3	-14.9423
ng❄5	-14.9429
luan	-14.9444
n❁7	-14.9452
mao❂1	-14.9457
e❁8	-14.9482
❄76	-14.9519
qie❄2	-14.9535
yin❂2	-14.9592
❄36	-14.9608
uo❄7	-14.9647
bao❁	-14.9663
pe	-14.967
gui❁3	-14.9672
ang❃4	-14.9728
shan❄4	-14.9742
ang❃5	-14.9752
fan❁1	-14.9771
i❄26	-14.9826
chua	-14.9848
fu❄3	-14.9867
chou❁	-14.9867
si❄	-14.9888
pi❂2	-14.9956
di❄2	-14.9958
bao❃2	-14.9972
ju❁2	-14.9994
kui❄	-14.9996
nao❂1	-15.0001
en❄4	-15.0003
tong❄	-15.0102
xu❁3	-15.0102
xiang❂	-15.0108
xu❄	-15.0132
qiu❂2	-15.0146
ao❂24	-15.0156
an❂28	-15.0165
n❄4	-15.017
a❁7	-15.0173
jie❄2	-15.0204
fu❂3	-15.0225
yu❄4	-15.0241
ran❂1	-15.0254
xiao❄2	-15.0265
a❃3	-15.0275
o❁2	-15.0344
wu❄4	-15.0346
kuan	-15.0455
zao	-15.0465
an❄9	-15.0468
o❃17	-15.0491
n❄5	-15.0498
lu❂	-15.0531
xu❄7	-15.0551
ou❃2	-15.0559
hui❁	-15.0598
u❄44	-15.0611
na❄	-15.0619
gong	-15.062
yuan❁	-15.0627
zho	-15.063
an❄6	-15.0719
tang❁	-15.0727
i❂29	-15.0745
heng❂	-15.08
ng❂34	-15.0824
an❁4	-15.088
xu❁	-15.0885
u❃12	-15.0905
i❁5	-15.0908
peng❂	-15.0908
ng❃7	-15.0915
yong❁	-15.0933
pia	-15.101
i❂37	-15.102
pin❄	-15.1035
n❄29	-15.1037
lang	-15.1095
cho	-15.1095
chuang❄	-15.1108
i❄27	-15.1161
ru❄	-15.1165
die❂4	-15.1192
zhi❁2	-15.1206
chi❂1	-15.1221
i❁28	-15.1228
gui❃	-15.1286
o❄18	-15.1291
zong	-15.1302
xi❁4	-15.1311
guan❄	-15.1339
❁70	-15.1375
ou❂19	-15.138
zhao❄	-15.1444
nong❂1	-15.147
g❁16	-15.147
n❁34	-15.1479
hang	-15.1512
❂2	-15.1516
in❂19	-15.1536
wu❃3	-15.1545
o❂5	-15.1586
ang❁	-15.1612
xi❁11	-15.1665
❄73	-15.1673
ce❄	-15.1678
i❄33	-15.1705
❄40	-15.1724
kong	-15.1744
bao❂	-15.1764
ao❃20	-15.1782
ao❄26	-15.1787
tuo❁	-15.1797
❁	-15.1802
ong❁1	-15.1843
xie❄3	-15.187
wei❂4	-15.1876
86	-15.1899
ai❄9	-15.1901
wan❂1	-15.1912
hou	-15.1917
ie❂50	-15.1925
hou❂1	-15.1955
n❂31	-15.1999
qie❄	-15.2019
te	-15.2024
zhan❁	-15.2025
an❄12	-15.2031
qi❁3	-15.2041
bei❄5	-15.2045
dun❁	-15.2058
gai❄1	-15.2107
u❁3	-15.2142
ing❂17	-15.215
me	-15.2165
lan❂4	-15.2177
ti❂3	-15.2183
qian❄2	-15.2194
le❄	-15.2197
rui	-15.2217
fu❄	-15.2218
i❄118	-15.2229
ao❁30	-15.224
dia	-15.2282
nie❄4	-15.2288
tang❃	-15.231
chi❂4	-15.2312
❃	-15.2336
dian❁1	-15.2378
yan❃3	-15.2415
ng❄2	-15.2424
huang❁8	-15.2538
i❄12	-15.2554
dun❄1	-15.256
lie	-15.2655
yang❂3	-15.2698
ian❃4	-15.2713
zhong❁2	-15.2715
an❁33	-15.2732
mei❂4	-15.2733
zhe❂1	-15.2756
un❁0	-15.2759
ning❂	-15.2798
e❄26	-15.2806
eng❁10	-15.2827
yan❂3	-15.2835
❁43	-15.2865
ng❁12	-15.2916
tui	-15.2923
an❄34	-15.293
67	-15.2971
keng❁	-15.3065
li❂	-15.3073
cha❂	-15.3101
i❄3	-15.312
hu❂	-15.3124
ya❄	-15.3179
ng❁2	-15.3189
xiong	-15.3223
ao❂6	-15.323
chai❂	-15.3259
ao❃3	-15.3268
jian❄2	-15.3332
gan❃	-15.3366
sa❄	-15.3407
er❂	-15.3444
lve❄	-15.3484
xie❂	-15.3496
n❁9	-15.3523
n❂23	-15.3562
liang❃	-15.3573
bie	-15.3582
fan❂	-15.3598
o❄37	-15.3609
quan❃	-15.3633
mai	-15.3661
cu❄1	-15.3704
a❂12	-15.3719
ting❁	-15.373
an❁7	-15.373
e❃4	-15.3743
u❄30	-15.375
tuan	-15.375
xie❄4	-15.379
❃32	-15.3816
eng❄8	-15.3843
lang❄	-15.3892
bai❄1	-15.3893
shu❄3	-15.39
qu❄	-15.3921
ao❄2	-15.3946
en❃5	-15.3952
an❂16	-15.3964
zhu❃1	-15.3968
i❂25	-15.4007
wei❂5	-15.4009
fen❂1	-15.4012
❃21	-15.4062
e❁7	-15.4103
o❁8	-15.4129
u❁5	-15.4157
liu❄	-15.4193
qing❄	-15.4207
qing❄1	-15.4209
i❁13	-15.4252
n❄12	-15.4258
cu❄	-15.4261
zhi❄	-15.4277
n❁13	-15.4285
chi❄	-15.4295
kai	-15.4351
u❄0	-15.4353
ang❁10	-15.4367
uan❄33	-15.4381
n❄38	-15.4389
an❃12	-15.4453
lian❄1	-15.4456
hu❁34	-15.4501
cha❄1	-15.4559
ng❂8	-15.4565
ui❄2	-15.462
u❂35	-15.462
mei❂2	-15.4628
o❄30	-15.4686
en❄3	-15.4692
ma❃	-15.4692
ai❃9	-15.4696
nao❄	-15.4714
e❂47	-15.4767
bei❁2	-15.4769
i	-15.4801
u❁25	-15.487
gui❄	-15.4894
i❁35	-15.4903
cha❁	-15.4905
min❂	-15.4916
mou❂1	-15.4917
en❁1	-15.4939
fo❂	-15.4941
yi❄19	-15.4943
B	-15.4947
G	-15.4947
K	-15.4947
N	-15.4947
W	-15.4947
Z	-15.4947
Å	-15.4947
É	-15.4947
Ø	-15.4947
â	-15.4947
ã	-15.4947
ë	-15.4947
ô	-15.4947
õ	-15.4947
ø	-15.4947
ė	-15.4947
Ğ	-15.4947
ĩ	-15.4947
İ	-15.4947
Ś	-15.4947
ś	-15.4947
ş	-15.4947
š	-15.4947
ƒ	-15.4947
ơ	-15.4947
ɒ	-15.4947
̋	-15.4947
Α	-15.4947
Ε	-15.4947
Θ	-15.4947
Κ	-15.4947
Ο	-15.4947
Σ	-15.4947
ή	-15.4947
κ	-15.4947
ς	-15.4947
υ	-15.4947
ϊ	-15.4947
ό	-15.4947
Д	-15.4947
Л	-15.4947
Н	-15.4947
Х	-15.4947
ж	-15.4947
ц	-15.4947
э	-15.4947
ё	-15.4947
ћ	-15.4947
ү	-15.4947
Հ	-15.4947
կ	-15.4947
փ	-15.4947
ָ	-15.4947
א	-15.4947
ב	-15.4947
ג	-15.4947
ד	-15.4947
ו	-15.4947
י	-15.4947
ק	-15.4947
ר	-15.4947
أ	-15.4947
ة	-15.4947
ذ	-15.4947
ز	-15.4947
ص	-15.4947
غ	-15.4947
ك	-15.4947
ۇ	-15.4947
ە	-15.4947
ं	-15.4947
ए	-15.4947
क	-15.4947
च	-15.4947
ड	-15.4947
ब	-15.4947
म	-15.4947
य	-15.4947
ल	-15.4947
ि	-15.4947
्	-15.4947
ল	-15.4947
হ	-15.4947
ু	-15.4947
வ	-15.4947
்	-15.4947
ก	-15.4947
ค	-15.4947
จ	-15.4947
ญ	-15.4947
ฎ	-15.4947
ต	-15.4947
ถ	-15.4947
ธ	-15.4947
พ	-15.4947
ร	-15.4947
ศ	-15.4947
ส	-15.4947
ะ	-15.4947
ั	-15.4947
ี	-15.4947
ไ	-15.4947
็	-15.4947
้	-15.4947
ག	-15.4947
ོ	-15.4947
ბ	-15.4947
ᷤ	-15.4947
ầ	-15.4947
ậ	-15.4947
ắ	-15.4947
ẹ	-15.4947
Ẽ	-15.4947
ễ	-15.4947
ỉ	-15.4947
ọ	-15.4947
ố	-15.4947
ồ	-15.4947
ủ	-15.4947
ử	-15.4947
ự	-15.4947
„	-15.4947
†	-15.4947
⁄	-15.4947
↘	-15.4947
−	-15.4947
∞	-15.4947
∨	-15.4947
∩	-15.4947
∪	-15.4947
∮	-15.4947
≠	-15.4947
≡	-15.4947
≦	-15.4947
≧	-15.4947
⊕	-15.4947
⋯	-15.4947
⌒	-15.4947
┄	-15.4947
┓	-15.4947
┩	-15.4947
┳	-15.4947
╋	-15.4947
╳	-15.4947
▂	-15.4947
█	-15.4947
▪	-15.4947
►	-15.4947
▽	-15.4947
♀	-15.4947
♯	-15.4947
✚	-15.4947
〜	-15.4947
〝	-15.4947
ぃ	-15.4947
ざ	-15.4947
ぜ	-15.4947
ぞ	-15.4947
づ	-15.4947
ほ	-15.4947
゙	-15.4947
ギ	-15.4947
ゾ	-15.4947
ヌ	-15.4947
ヒ	-15.4947
ベ	-15.4947
ホ	-15.4947
ㄦ	-15.4947
伬	-15.4947
入	-15.4947
凉	-15.4947
凖	-15.4947
牗	-15.4947
理	-15.4947
蛯	-15.4947
說	-15.4947
각	-15.4947
간	-15.4947
같	-15.4947
겠	-15.4947
고	-15.4947
과	-15.4947
관	-15.4947
교	-15.4947
국	-15.4947
군	-15.4947
근	-15.4947
김	-15.4947
네	-15.4947
논	-15.4947
놓	-15.4947
눈	-15.4947
는	-15.4947
니	-15.4947
다	-15.4947
대	-15.4947
데	-15.4947
도	-15.4947
돌	-15.4947
되	-15.4947
든	-15.4947
떨	-15.4947
또	-15.4947
라	-15.4947
랩	-15.4947
렇	-15.4947
려	-15.4947
련	-15.4947
로	-15.4947
룹	-15.4947
림	-15.4947
만	-15.4947
맘	-15.4947
면	-15.4947
바	-15.4947
박	-15.4947
반	-15.4947
밤	-15.4947
배	-15.4947
백	-15.4947
복	-15.4947
본	-15.4947
삼	-15.4947
서	-15.4947
설	-15.4947
소	-15.4947
시	-15.4947
악	-15.4947
에	-15.4947
와	-15.4947
우	-15.4947
육	-15.4947
율	-15.4947
은	-15.4947
을	-15.4947
음	-15.4947
의	-15.4947
임	-15.4947
재	-15.4947
전	-15.4947
정	-15.4947
제	-15.4947
좋	-15.4947
줄	-15.4947
찰	-15.4947
창	-15.4947
처	-15.4947
첫	-15.4947
청	-15.4947
초	-15.4947
최	-15.4947
출	-15.4947
치	-15.4947
커	-15.4947
태	-15.4947
틱	-15.4947
풍	-15.4947
향	-15.4947
현	-15.4947
형	-15.4947
히	-15.4947
힘	-15.4947
	-15.4947
	-15.4947
	-15.4947
	-15.4947
	-15.4947
	-15.4947
	-15.4947
	-15.4947
heng❄	-15.4948
ai❄15	-15.4948
han❄40	-15.4956
huang❃7	-15.4958
huai❄1	-15.4958
v	-16.8653
❄	-16.8654
