[UNK]	0
[PAD]	0
[CLS]	0
[SEP]	0
[MASK]	0
,	-2.34159
de❅2	-2.75321
。	-3.03677
、	-3.19837
han❄20	-4.25764
shi❄45	-4.28129
zai❄5	-4.38036
:	-4.4067
)	-4.49477
(	-4.50978
wei❄14	-4.56569
yi❁10	-4.70958
le❅0	-4.81735
“	-4.84978
”	-4.86023
you❃11	-4.92719
deng❃2	-4.94499
《	-4.95052
》	-4.95324
쎁	-4.98892
yu❂35	-5.0637
;	-5.06554
zhong❁4	-5.0676
yu❃14	-5.07156
ren❂1	-5.1169
쎂	-5.27421
쎀	-5.38216
yi❃10	-5.38361
bu❂0	-5.42143
shang❃1	-5.47903
.	-5.4951
da❄0	-5.53492
zhi❁13	-5.59654
쎃	-5.59654
gan❄3	-5.62367
ji❂37	-5.62367
duo❁5	-5.6542
nian❂6	-5.67345
dui❄14	-5.74093
hou❄7	-5.75174
-	-5.80267
쎅	-5.80565
쎄	-5.82853
bing❁6	-5.83283
ye❃1	-5.83385
bei❄48	-5.83475
er❂16	-5.85414
쎉	-5.972
san❁1	-5.9871
huo❄27	-5.99276
ke❃4	-5.99467
you❂29	-6.00984
쎈	-6.01772
qi❂29	-6.02759
gao❁20	-6.03478
jiang❁5	-6.04077
zui❄4	-6.04216
쎆	-6.04594
/	-6.04735
·	-6.05638
dao❄3	-6.0708
yong❄3	-6.07991
ta❁3	-6.10429
suo❃11	-6.12003
xin❁10	-6.13281
xia❄3	-6.13833
de❅0	-6.16279
fu❄28	-6.18964
쎇	-6.20745
shi❂20	-6.20877
liang❃5	-6.24099
mo❄16	-6.26079
jia❁13	-6.26428
ming❂7	-6.2741
chong❂11	-6.28526
na❄11	-6.29494
xian❄22	-6.32212
dou❁12	-6.32842
jiu❄23	-6.33309
neng❂2	-6.33702
zhi❄88	-6.34361
zhe❄14	-6.37607
xiao❃2	-6.37763
yuan❂10	-6.39598
cong❂6	-6.42302
chu❁3	-6.46714
er❄5	-6.471
hui❄27	-6.47357
you❄13	-6.48722
cheng❂29	-6.50905
lai❂16	-6.5133
shui❃0	-6.52909
"	-6.5316
ren❂4	-6.53961
ben❃5	-6.5542
shi❄32	-6.57066
tiao❂9	-6.58427
mi❃19	-6.61577
si❄17	-6.6185
sheng❁16	-6.61999
hao❃0	-6.62049
yi❃15	-6.62549
ci❄16	-6.65575
zhang❃6	-6.68243
shan❁11	-6.69605
yao❁17	-6.70903
shi❃6	-6.70958
ceng❂6	-6.71723
xue❂6	-6.73078
ke❄6	-6.73888
geng❁6	-6.74648
wu❂17	-6.76417
ru❂9	-6.77837
zi❄16	-6.83325
wo❃3	-6.83789
zhao❁6	-6.84285
wu❃9	-6.85854
ge❄3	-6.8633
qu❁15	-6.86393
yu❂37	-6.86393
jing❁27	-6.86743
cun❁1	-6.86775
xiang❄6	-6.86839
fu❂94	-6.86871
nan❂6	-6.87834
tian❁5	-6.87963
ta❁6	-6.89002
li❃26	-6.89231
zi❃7	-6.89722
bu❄38	-6.90118
huo❄50	-6.91313
xi❁143	-6.93234
lu❄70	-6.93746
jiao❄35	-6.94227
qi❃34	-6.94744
guo❄2	-6.95021
qian❂8	-6.96628
dan❄10	-6.99015
gai❁13	-6.99958
ru❄2	-7.00249
ba❃1	-7.01573
ji❂35	-7.0239
sheng❃9	-7.02465
shi❂10	-7.03064
zuo❄5	-7.04654
yue❁1	-7.05305
zhi❃19	-7.0542
shou❃6	-7.0627
xing❄13	-7.06697
...	-7.06744
ni❃6	-7.07322
hen❃2	-7.08183
dong❁3	-7.08267
mu❃2	-7.08584
zhen❄30	-7.08823
da❂30	-7.10387
yin❁11	-7.1071
guo❂11	-7.11076
ci❃2	-7.1132
shu❁8	-7.11729
nan❂14	-7.12387
jin❁33	-7.12676
wei❄15	-7.13007
xiang❄24	-7.13215
di❄45	-7.13256
yuan❂12	-7.13589
shuo❁2	-7.13673
fen❁4	-7.14217
de❂7	-7.14638
wen❂5	-7.15868
jie❄19	-7.16425
hua❁11	-7.17407
rang❄3	-7.17808
cheng❁28	-7.19343
qu❄6	-7.19476
chu❄17	-7.19653
xian❄37	-7.2041
ke❁16	-7.20634
wang❂5	-7.21217
hua❁1	-7.21271
fa❃2	-7.2185
wai❄0	-7.23081
bei❃2	-7.24467
ta❁5	-7.24793
gei❃1	-7.25027
zuo❄7	-7.25073
cheng❂17	-7.25496
!	-7.25543
～	-7.25731
?	-7.25872
dao❄24	-7.26156
lei❄16	-7.26963
jian❄29	-7.27107
ying❁17	-7.28211
quan❂6	-7.29818
ji❂114	-7.29916
zong❃5	-7.30064
zhi❁16	-7.30557
zhe❃2	-7.31401
mei❃13	-7.31551
hai❃1	-7.31701
dan❄38	-7.32807
qing❁10	-7.34234
ze❂11	-7.34285
gong❄3	-7.35264
xiang❁9	-7.35264
liu❄3	-7.35732
nv❃0	-7.36359
ri❄2	-7.36726
xin❁7	-7.36937
jun❁6	-7.37042
pian❁7	-7.372
jin❄60	-7.37412
zi❄6	-7.3821
shu❃5	-7.3896
zhang❁4	-7.39013
xiang❁1	-7.39172
zai❄4	-7.39391
dang❁4	-7.39445
mei❃9	-7.3977
jian❁85	-7.40259
xian❄47	-7.41299
ji❁48	-7.41465
xi❄46	-7.4163
jiang❄9	-7.41741
ma❃14	-7.42184
si❁24	-7.43245
er❃6	-7.43301
tong❂13	-7.43864
zheng❁22	-7.4426
jian❁25	-7.44772
bai❂2	-7.45286
tou❂4	-7.45803
bi❃20	-7.45918
fang❄0	-7.46323
ming❂8	-7.46729
chong❂17	-7.46962
dian❃11	-7.46962
hao❂6	-7.47425
huang❂56	-7.47605
hang❂16	-7.48134
fa❁1	-7.48903
de❂9	-7.4926
long❂63	-7.50459
zhang❁13	-7.5058
ceng❂3	-7.51004
si❄15	-7.51125
men❂19	-7.51186
an❄14	-7.51366
kou❃1	-7.51551
an❁13	-7.516
dai❄15	-7.51979
he❂37	-7.52471
ba❁9	-7.5315
ping❂17	-7.53274
ji❁21	-7.54146
dian❄23	-7.54147
guang❁2	-7.54147
hong❂44	-7.54963
jin❁10	-7.56362
jiang❁10	-7.57197
sui❄16	-7.5752
jia❁7	-7.57715
×	-7.57975
jin❄61	-7.583
lin❂19	-7.58366
fang❁4	-7.58562
juan❃1	-7.59086
feng❁58	-7.60078
dai❄9	-7.60211
ji❂83	-7.60878
xing❂9	-7.60878
shuang❁4	-7.61685
qi❁9	-7.62023
shou❄4	-7.63044
—	-7.63249
mian❄2	-7.63387
jiu❃3	-7.63593
zhou❁9	-7.64283
gu❃14	-7.64422
hu❄26	-7.64554
ben❄4	-7.64979
shu❄26	-7.654
gong❁17	-7.65608
cai❂2	-7.65679
tong❁5	-7.66242
bai❃9	-7.67093
ge❃0	-7.67165
zuo❄12	-7.67522
la❁7	-7.68601
*	-7.68891
te❄5	-7.69109
pian❁5	-7.694
shi❄33	-7.69473
se❄29	-7.69546
lao❃17	-7.69619
shi❄18	-7.69765
jie❂69	-7.70426
guan❃9	-7.70647
shi❁33	-7.71686
wu❄36	-7.71836
zhu❃4	-7.7191
nin❂5	-7.7206
wang❃14	-7.7236
re❄1	-7.72585
shi❁11	-7.72585
hua❂14	-7.72736
tai❄3	-7.72811
jun❁2	-7.73318
yue❄29	-7.7395
yi❄67	-7.74179
shou❃4	-7.74639
zhi❄30	-7.74716
ji❁47	-7.74869
ju❄65	-7.75024
zhan❄17	-7.7541
ju❄16	-7.75487
yang❂35	-7.7572
di❁9	-7.75953
ai❄26	-7.76299
bing❄12	-7.76422
you❂24	-7.76422
+	-7.76813
qi❃25	-7.77286
jiao❁20	-7.78796
li❃11	-7.79843
yi❄68	-7.80411
li❄59	-7.80819
jian❄62	-7.80901
qiu❁9	-7.81557
che❁8	-7.82052
que❄11	-7.82384
shen❂2	-7.82384
ban❄5	-7.82883
liu❂20	-7.83385
li❄58	-7.83385
chang❂15	-7.83469
=	-7.83553
du❄8	-7.83637
chuan❂4	-7.84058
chu❁4	-7.84227
gong❁10	-7.84991
wei❄26	-7.85162
hui❂1	-7.85294
shao❃2	-7.85933
°C	-7.86624
kuan❁0	-7.86797
bao❄10	-7.87406
ju❂23	-7.87669
ji❂57	-7.88019
xiang❄4	-7.88195
shi❄15	-7.88636
tu❂14	-7.88724
gan❁16	-7.88902
dong❄13	-7.89168
chang❃4	-7.89346
bian❄19	-7.89524
ding❄2	-7.89613
xing❂11	-7.8997
fei❁15	-7.89971
ka❃1	-7.90329
zu❃7	-7.90509
shen❁18	-7.9069
jiang❃8	-7.91414
yun❂4	-7.92052
zao❃2	-7.92235
pi❁11	-7.92419
xian❁18	-7.92879
xie❃4	-7.93063
liang❂19	-7.93619
min❂22	-7.93712
kan❁9	-7.93898
lian❂69	-7.94084
zou❃0	-7.94271
%	-7.94552
a❁6	-7.94555
she❄29	-7.9474
kuan❃7	-7.95305
1	-7.95429
ban❄4	-7.95684
xie❂16	-7.95684
da❂14	-7.96159
na❃3	-7.96254
们	-7.9635
qi❄20	-7.9635
li❃15	-7.96732
hua❄18	-7.9702
tao❄1	-7.9702
luo❁4	-7.97117
chan❃12	-7.97117
qiu❂19	-7.97889
qian❁13	-7.98283
qiao❂12	-7.98375
chen❂41	-7.9857
zhi❄61	-7.9857
ya❄7	-7.98765
yao❄12	-8.0084
qing❁20	-8.0094
huo❃2	-8.01441
lou❂19	-8.01542
bian❄16	-8.02046
2	-8.02088
han❃11	-8.0214
zhen❁30	-8.02858
xiang❃6	-8.0296
jian❁14	-8.03676
fu❄23	-8.04294
3	-8.04733
li❄141	-8.05229
le❄3	-8.05647
ling❄0	-8.05647
han❄33	-8.05648
ban❃6	-8.05752
xiang❁26	-8.06068
han❂17	-8.06491
diao❄17	-8.06594
zhi❁21	-8.07019
shi❄31	-8.07231
xuan❃8	-8.07338
yan❂49	-8.07658
fan❃3	-8.08517
zhan❁4	-8.08625
ling❂34	-8.08841
zhuang❄5	-8.08949
xin❄8	-8.09492
bao❃9	-8.10257
jian❄15	-8.10477
>	-8.10586
shu❄28	-8.10586
pi❂17	-8.10807
mu❄15	-8.11249
xing❁7	-8.12251
yu❂127	-8.12475
an❁15	-8.12609
gu❄12	-8.13264
jiu❃12	-8.13281
xie❃8	-8.13377
dang❃2	-8.13603
zhuan❃4	-8.13717
yu❄70	-8.14058
qiu❂36	-8.14744
wu❃28	-8.14859
hu❂32	-8.14979
ge❂29	-8.15551
duan❃0	-8.15666
si❃0	-8.16014
shang❁4	-8.16131
tian❂16	-8.16247
cha❁3	-8.16481
yu❃44	-8.16597
xu❁37	-8.16714
qian❂40	-8.16831
yuan❄18	-8.16832
zhi❄47	-8.17184
tie❃5	-8.17419
guan❁6	-8.17537
kuai❄14	-8.17655
chi❁23	-8.17656
cao❃5	-8.17892
qie❁1	-8.1801
duan❄7	-8.18129
qu❃1	-8.18247
hei❁3	-8.18366
shen❁40	-8.18604
chun❁6	-8.18724
suan❁3	-8.18724
yi❄119	-8.18724
chu❂42	-8.18843
jing❁24	-8.18963
yi❄109	-8.19323
ji❄61	-8.20046
qing❄3	-8.20046
jie❁13	-8.20409
pin❃0	-8.20409
~	-8.20409
kang❄5	-8.21019
shi❂39	-8.21877
shi❃8	-8.22124
gai❃2	-8.2262
xi❃11	-8.22758
cai❄5	-8.23117
6	-8.23226
lan❂13	-8.23242
fang❂2	-8.23243
lv❄15	-8.23367
dun❁2	-8.23367
jiao❁8	-8.23368
xiu❁11	-8.23618
ji❁34	-8.23618
gen❁0	-8.23743
qie❃	-8.23743
jiao❄18	-8.23743
mao❂11	-8.24121
bian❁16	-8.24247
lun❄1	-8.24373
tu❃1	-8.24499
5	-8.24775
wan❂5	-8.2488
bu❄23	-8.25007
zhou❁5	-8.25134
ban❃5	-8.25644
zhi❁31	-8.26029
dao❃7	-8.26158
ju❁14	-8.26415
ying❁44	-8.26932
cheng❂16	-8.27062
jie❁30	-8.27192
sha❁10	-8.27583
jiao❄6	-8.27975
du❂34	-8.28368
kuai❄18	-8.285
ya❁7	-8.285
shi❄71	-8.28632
dan❁9	-8.29028
rou❄1	-8.29293
xing❄8	-8.29293
de❅1	-8.29959
guo❁26	-8.30092
yuan❃4	-8.30226
zhi❄104	-8.30227
chao❂6	-8.30369
yin❁44	-8.30495
song❄9	-8.30898
huan❂20	-8.31168
jiao❃57	-8.31983
shi❂13	-8.31984
fang❂4	-8.3212
tang❂13	-8.3253
zhi❂32	-8.3253
xia❂39	-8.32667
yuan❂34	-8.32805
qing❂6	-8.32942
4	-8.32952
ji❄116	-8.33494
yun❃16	-8.33771
biao❃5	-8.34189
ci❂29	-8.34468
yue❄46	-8.3531
lv❄20	-8.35451
yue❁0	-8.35592
bao❃13	-8.35592
lian❂53	-8.35875
yang❂16	-8.36017
ban❁12	-8.36444
bo❁11	-8.36444
sui❂9	-8.36444
tang❁5	-8.36444
9	-8.36575
dui❄33	-8.36872
ba❁16	-8.37303
chuang❄1	-8.37447
jie❁23	-8.37447
si❁11	-8.37591
zhuang❁10	-8.37735
wei❂38	-8.3788
cang❂5	-8.38024
pan❂10	-8.38169
shu❂7	-8.3817
zheng❄12	-8.38314
kong❁9	-8.38315
cheng❁10	-8.3846
chuan❁2	-8.3919
'	-8.39336
you❂25	-8.39483
ji❁116	-8.3963
jie❄29	-8.39925
7	-8.40014
pai❄3	-8.40073
cha❂27	-8.40073
gang❁32	-8.40221
qun❂6	-8.40221
gong❁9	-8.40369
bao❁4	-8.40369
zu❂9	-8.40517
shou❁1	-8.40814
zhi❂25	-8.40814
man❃4	-8.41262
dian❄13	-8.41263
8	-8.41297
nan❂20	-8.41412
chi❁8	-8.41412
zhan❄10	-8.41412
liao❄8	-8.41562
fu❂60	-8.41712
ji❄117	-8.42013
fen❃1	-8.42164
niu❂3	-8.42315
yan❂61	-8.42466
shi❄28	-8.42618
chao❁17	-8.42921
qu❁25	-8.42921
ning❂10	-8.43074
ju❁18	-8.43532
ruo❄8	-8.43685
jie❂67	-8.43685
su❄56	-8.443
guan❁16	-8.44454
pei❄19	-8.44454
qi❂46	-8.44763
ta❃1	-8.44763
pai❂2	-8.45541
xi❄50	-8.4601
qing❃9	-8.46325
jing❁3	-8.46544
fu❄31	-8.4664
cun❂1	-8.47115
hua❄26	-8.47273
fei❁19	-8.47274
’	-8.47432
reng❂4	-8.47911
zhuan❁1	-8.48071
guan❁4	-8.48071
bing❁2	-8.48231
she❄22	-8.48231
su❁10	-8.48552
zhu❄19	-8.48552
guo❃3	-8.48875
zhi❄85	-8.49685
nong❂5	-8.49848
feng❁17	-8.50338
ni❂10	-8.50338
ying❂45	-8.50338
song❄4	-8.50502
bi❃24	-8.50502
he❂35	-8.50503
quan❂12	-8.51823
zhun❃0	-8.51823
song❁11	-8.52323
yuan❂15	-8.5249
°	-8.5249
shao❁8	-8.52658
lin❂7	-8.52826
yan❃42	-8.52994
yong❃21	-8.53163
zai❄8	-8.535
qiu❂27	-8.53839
yu❄93	-8.54179
zhan❃11	-8.54356
gu❃59	-8.5469
liu❂28	-8.54861
jing❃13	-8.5555
ge❁16	-8.56068
duan❁4	-8.56416
shi❄51	-8.56765
‘	-8.57115
zhao❂	-8.57115
yang❃6	-8.5729
shan❄15	-8.57467
bu❃11	-8.57818
yin❄7	-8.57995
kao❄5	-8.58349
gan❃6	-8.58527
jie❃6	-8.58527
fu❄36	-8.58705
wang❃7	-8.58705
nai❄5	-8.58706
gai❄17	-8.59062
mu❄22	-8.59241
zong❁10	-8.5942
chao❃7	-8.59599
wei❄18	-8.60321
ran❂12	-8.60321
mi❄24	-8.60321
bei❁8	-8.60502
yin❂44	-8.60865
jia❃14	-8.60865
yin❃14	-8.61047
bian❁13	-8.6105
tang❂28	-8.61413
wen❁6	-8.61596
gang❃6	-8.61963
tang❂15	-8.61963
sheng❁3	-8.62516
ding❃11	-8.62702
gui❁12	-8.62702
『	-8.63073
jun❁15	-8.63259
liu❂9	-8.63259
jiu❄30	-8.63633
yi❄190	-8.64384
lei❂30	-8.64573
ou❁8	-8.64758
ji❄36	-8.65141
wu❄12	-8.65141
peng❂7	-8.65331
xi❁97	-8.65332
bu❄28	-8.65712
xian❃24	-8.65904
yuan❂17	-8.66095
wei❁17	-8.66287
zu❂11	-8.66672
』	-8.67058
mei❂18	-8.67059
fu❁13	-8.67252
mo❄30	-8.67447
huo❂3	-8.67641
zhu❄63	-8.67836
na❄20	-8.67836
lun❂28	-8.68031
ji❁36	-8.68032
dao❁1	-8.68423
0	-8.68842
zhi❂7	-8.69013
yan❂31	-8.69014
zhu❃14	-8.69211
la❄23	-8.69409
yi❁13	-8.69608
fu❂43	-8.70205
si❁16	-8.70206
li❄144	-8.71008
jiang❃19	-8.71209
mu❃6	-8.71209
er❃12	-8.71614
zheng❄17	-8.71816
&	-8.7202
wang❄4	-8.7202
dong❄24	-8.72224
qing❁16	-8.72229
zhu❁29	-8.72837
fo❂2	-8.73042
quan❂17	-8.73042
ling❂58	-8.73042
wei❁12	-8.73248
qiu❁16	-8.73248
zhu❂15	-8.73454
jiu❃1	-8.73605
zhu❄31	-8.74076
leng❃	-8.74492
cheng❂50	-8.747
mou❃2	-8.747
sha❁4	-8.747
jing❃3	-8.747
bei❄21	-8.7491
hou❄6	-8.75119
jin❃16	-8.75119
mo❂16	-8.7512
lu❃27	-8.75329
yan❂50	-8.75329
you❁5	-8.75751
xia❄6	-8.75751
ling❃2	-8.75962
si❄21	-8.75962
jia❁5	-8.76386
liang❂7	-8.76387
gu❃42	-8.766
me❅1	-8.76812
chang❁6	-8.76812
cheng❂52	-8.7724
ting❁5	-8.77455
shou❂	-8.77885
si❁22	-8.77885
fei❄37	-8.77885
bie❂4	-8.78101
ye❄44	-8.78101
guang❁8	-8.78102
fu❃14	-8.78535
pu❃3	-8.78535
zuo❄9	-8.78535
chong❂14	-8.78752
lie❄20	-8.79407
zhi❃32	-8.79407
deng❁10	-8.79407
deng❁7	-8.79846
jiao❃53	-8.79846
li❄51	-8.79847
lve❄11	-8.80066
tai❄9	-8.80066
wei❄52	-8.80066
xue❃5	-8.80067
fen❄2	-8.80067
ku❁11	-8.80288
biao❁14	-8.80508
lan❂41	-8.80508
kuang❄12	-8.80734
chuan❂13	-8.80952
ke❄7	-8.80952
shang❄2	-8.81175
er❂7	-8.81175
zhu❁7	-8.81175
ji❂39	-8.81846
guan❃15	-8.82522
chong❁10	-8.82748
wei❄16	-8.82748
zhi❄89	-8.82748
kong❃1	-8.82975
ju❄18	-8.83202
ba❁11	-8.83203
xu❁39	-8.8343
qing❄14	-8.83658
zhao❄31	-8.83658
fu❄67	-8.83658
san❃7	-8.83658
ren❂3	-8.83658
ye❃7	-8.83887
pai❂4	-8.83887
lu❄35	-8.84116
yu❃47	-8.84117
ying❃11	-8.84347
you❄14	-8.8504
du❂17	-8.85271
ye❄26	-8.85271
ding❁2	-8.85272
ying❄9	-8.8597
zhen❁52	-8.8597
hu❄30	-8.8623
zao❄16	-8.86439
ruan❃17	-8.86675
●	-8.86675
dao❃2	-8.86895
xiang❄20	-8.86911
ku❄6	-8.87147
ao❄14	-8.87374
qi❂117	-8.87384
ji❄72	-8.87384
meng❄8	-8.8786
zhu❁16	-8.8786
jia❄5	-8.8786
hu❃8	-8.88096
ke❄14	-8.88098
ce❄11	-8.88339
ming❄1	-8.88577
bei❁15	-8.88818
chuan❁5	-8.89059
dai❁1	-8.893
wen❄6	-8.89542
zi❁45	-8.89543
tong❂48	-8.89785
gou❁10	-8.89785
ting❁3	-8.90028
di❄26	-8.90272
nai❃0	-8.90272
bo❂41	-8.90517
ti❂17	-8.90517
ya❃9	-8.90517
yi❂31	-8.90517
can❁3	-8.90762
shi❁16	-8.90762
kang❁6	-8.90762
bi❄61	-8.90763
tun❁2	-8.91007
shun❄11	-8.91254
yang❂27	-8.91254
yin❁37	-8.91254
gong❁11	-8.91501
cha❁8	-8.91501
shen❄17	-8.91501
duan❄4	-8.91501
gong❁15	-8.91748
ti❂36	-8.91748
wa❃5	-8.91749
dao❃5	-8.91996
jiao❁29	-8.92494
xian❁57	-8.92744
shou❃3	-8.92745
fu❂36	-8.92995
chi❂20	-8.92995
shi❃9	-8.92995
luo❄17	-8.93246
dan❁5	-8.93247
xi❄33	-8.93751
niao❃17	-8.94004
huan❄21	-8.94005
tong❄3	-8.94258
cha❂17	-8.94513
feng❁8	-8.94768
shi❄99	-8.95023
ge❂53	-8.9528
feng❁19	-8.9528
he❂22	-8.95537
gou❁12	-8.95795
xiu❄8	-8.95795
yi❂38	-8.96053
chang❄2	-8.96053
ji❁22	-8.96312
sai❄4	-8.96312
hu❂46	-8.96571
tuo❁6	-8.96571
dou❄18	-8.96832
yi❁12	-8.96832
sui❄42	-8.96832
yi❁38	-8.97093
zi❃18	-8.97093
wei❃25	-8.97355
zuo❃3	-8.97355
qian❁54	-8.97617
ku❃1	-8.98144
wen❂23	-8.98409
shi❄78	-8.98409
ke❄29	-8.98409
xu❃19	-8.98674
sui❁12	-8.98674
jiang❄25	-8.9894
yang❃14	-8.9894
zheng❄13	-8.99207
mai❄9	-8.99474
shi❁13	-8.99474
nao❃16	-8.99742
du❂25	-8.99743
she❄8	-9.00011
li❃17	-9.00011
zhu❁8	-9.00011
ping❂36	-9.0028
jing❄48	-9.00281
juan❁5	-9.00281
bo❂37	-9.00281
wan❁9	-9.00281
ha❁0	-9.00551
xian❁13	-9.00562
ju❄57	-9.00822
wei❁13	-9.00822
gu❃52	-9.00823
qin❁4	-9.01093
jing❁30	-9.01393
ce❄33	-9.01639
jiang❁4	-9.01639
shang❁2	-9.0164
duo❃23	-9.01913
jie❄14	-9.01913
jian❄20	-9.01913
kua❄4	-9.01914
ce❄22	-9.02188
po❁12	-9.02188
yi❄215	-9.02188
yi❁11	-9.02188
xu❁29	-9.02188
sun❁0	-9.02463
hui❁23	-9.02464
rui❄12	-9.0274
ji❄94	-9.03017
gui❄41	-9.03017
mei❂16	-9.03017
li❄62	-9.03294
she❂5	-9.03295
sai❁5	-9.03296
lu❄83	-9.03573
cai❃11	-9.03852
luan❄0	-9.03852
lv❃14	-9.03852
zeng❁2	-9.03853
hong❂29	-9.04132
dan❄21	-9.04413
zu❃5	-9.04414
bei❄26	-9.04414
dan❄33	-9.04696
gu❃28	-9.04696
fan❂14	-9.04978
xing❄9	-9.04978
zhong❁29	-9.04978
shen❄11	-9.04978
ma❂8	-9.04978
han❂37	-9.05261
kong❄1	-9.05261
feng❄2	-9.05261
dou❃4	-9.0583
gang❁7	-9.0583
li❄50	-9.0583
po❄17	-9.0583
qiang❂2	-9.06116
bao❂9	-9.06402
jin❃24	-9.06402
mo❄57	-9.06402
wen❂12	-9.06689
lai❂25	-9.06978
jia❁8	-9.06978
ji❄95	-9.06978
shi❁8	-9.06978
meng❁3	-9.07267
wu❁12	-9.07267
zheng❃4	-9.07267
kao❃10	-9.07556
ye❄65	-9.07557
jun❁4	-9.08724
si❄10	-9.08725
na❂4	-9.09018
zhu❁17	-9.09021
mai❃0	-9.09609
wu❃37	-9.09609
yan❂46	-9.09609
xiong❂2	-9.10204
ju❃4	-9.10204
bei❄52	-9.10802
miao❄1	-9.10802
qing❄4	-9.10802
bing❁4	-9.10802
shao❁11	-9.10802
rong❂21	-9.10802
en❁2	-9.11095
tui❁1	-9.11403
chi❂23	-9.11403
ce❄8	-9.11705
zhi❁22	-9.11706
an❄16	-9.11765
long❁	-9.12008
mei❂25	-9.12008
gu❄7	-9.12008
yan❂44	-9.12312
huo❄56	-9.12313
xi❃1	-9.12527
sa❄13	-9.12618
yi❄165	-9.12923
cu❁0	-9.12923
ci❁2	-9.12924
cai❃4	-9.1323
yu❄52	-9.1323
bi❄46	-9.1323
tou❂5	-9.1323
gen❁1	-9.13537
jin❄32	-9.13537
yang❂19	-9.13537
mai❄16	-9.13846
zheng❄18	-9.13846
fan❁14	-9.13846
mu❄9	-9.13846
mo❄22	-9.13846
shui❂1	-9.13854
jue❂92	-9.14155
yan❃39	-9.14155
liang❂15	-9.14156
cheng❂30	-9.14778
yin❂10	-9.14778
zhi❄56	-9.15404
yi❂20	-9.15718
yan❁33	-9.15719
fu❄41	-9.15719
suan❄3	-9.16034
su❄70	-9.16034
gan❁25	-9.16035
po❁2	-9.1635
wan❃17	-9.1635
you❃9	-9.16351
ling❂46	-9.16667
tui❄8	-9.16667
zhao❃3	-9.16986
suo❃18	-9.17305
jian❃36	-9.17305
tie❁5	-9.17626
mo❂26	-9.17627
wu❁3	-9.17627
yuan❂44	-9.17948
jian❁22	-9.1827
dong❁5	-9.18271
mai❄6	-9.18594
cheng❂15	-9.18594
xiao❁61	-9.18918
ting❂4	-9.18919
dong❄22	-9.1892
qian❃5	-9.19244
wan❂6	-9.19244
jian❁52	-9.19571
ji❄59	-9.19571
tui❄5	-9.19571
ling❂98	-9.19899
ni❂15	-9.19899
han❂20	-9.19917
<	-9.20228
hua❂11	-9.20228
liu❃3	-9.20228
mo❂14	-9.20558
wan❃26	-9.20559
chun❂18	-9.20889
zhao❄18	-9.20889
miao❃6	-9.21223
chuang❁13	-9.21554
zhi❂20	-9.21554
zhi❃22	-9.21555
bei❁12	-9.21889
pian❁2	-9.21889
shui❄11	-9.22224
rong❂33	-9.22225
sen❁0	-9.22899
ya❂12	-9.22899
chuang❂6	-9.23238
xi❁51	-9.23238
jia❃2	-9.23238
di❂17	-9.23578
fu❄48	-9.23579
gan❁31	-9.23579
gua❄3	-9.23579
liang❄2	-9.23579
nuo❄16	-9.23919
pai❁0	-9.23919
wei❄37	-9.2392
wei❄62	-9.24262
zhua❁0	-9.24262
miao❂7	-9.24262
hun❂11	-9.24602
qin❂29	-9.24605
xiao❁29	-9.24605
}	-9.24605
zhu❄20	-9.24606
fei❂1	-9.24607
jian❄17	-9.2495
ke❁34	-9.24951
le❄5	-9.25296
pao❁5	-9.25644
zheng❁7	-9.25644
fu❄64	-9.25992
nian❄4	-9.25992
ke❂0	-9.26342
xiao❄22	-9.26342
gu❃63	-9.26343
fu❄74	-9.26693
diao❄8	-9.27045
lian❂58	-9.27045
shou❄8	-9.27045
zheng❁15	-9.27045
yi❂61	-9.27045
pang❂9	-9.27399
xu❄36	-9.27399
dan❄43	-9.27753
tang❂16	-9.27753
guan❁5	-9.27753
fu❄39	-9.28109
tao❂5	-9.28109
ji❁64	-9.28109
yuan❄10	-9.28109
ni❃11	-9.28466
xuan❂11	-9.28467
zun❁2	-9.28825
〔	-9.29545
fan❄22	-9.29907
wei❂11	-9.29907
{	-9.29907
tong❃9	-9.29907
tui❃7	-9.30271
pin❂15	-9.30271
mo❂12	-9.30272
zhou❂3	-9.30636
gan❁19	-9.30636
wan❂12	-9.30636
shi❄60	-9.31002
ruo❄4	-9.3137
ting❂5	-9.31371
gong❁23	-9.31739
jian❃18	-9.31739
jie❄15	-9.31739
jing❄44	-9.31739
tao❂20	-9.32109
du❄10	-9.32109
rong❂50	-9.32109
lian❄22	-9.32109
lao❂11	-9.3211
an❄15	-9.32143
yao❁15	-9.32481
hui❄50	-9.32854
tan❄9	-9.32854
guo❁22	-9.32854
xuan❂15	-9.32855
tan❂29	-9.33228
」	-9.33228
zheng❁37	-9.33229
huang❂34	-9.33229
ling❂99	-9.33604
xie❄84	-9.33604
lun❂5	-9.33605
ze❂24	-9.33605
zhou❁11	-9.33982
jun❄36	-9.33982
gui❃37	-9.34361
lu❂23	-9.34361
gua❁16	-9.34362
ban❁15	-9.34364
xian❂50	-9.34741
kan❁3	-9.34741
jin❁18	-9.35122
chang❂20	-9.35123
mu❃3	-9.35505
xiang❂6	-9.35506
zhu❄26	-9.3553
dian❃5	-9.3589
zhong❁10	-9.36276
cu❄10	-9.36276
ci❂22	-9.36277
jiang❄22	-9.36664
xuan❁9	-9.36664
gui❄22	-9.36665
xiao❄14	-9.36668
shou❄9	-9.37444
zha❂8	-9.37444
shou❄5	-9.37445
ji❄46	-9.38229
xiong❁12	-9.38229
xu❂1	-9.38229
di❂40	-9.38625
cai❂3	-9.38625
pu❃13	-9.38629
zhuan❁6	-9.39022
hang❂13	-9.39057
cuo❄18	-9.3942
tu❂28	-9.3942
yu❄113	-9.3942
you❂26	-9.39421
jin❃31	-9.3982
zhi❂16	-9.3982
tou❄4	-9.40222
ping❂25	-9.40625
「	-9.40625
xia❁10	-9.40625
mei❂43	-9.40625
sha❁14	-9.40625
★	-9.4103
fei❄34	-9.4103
yi❃9	-9.41031
′	-9.4142
xi❁70	-9.41436
chen❂26	-9.41436
ne❅	-9.41844
shen❃7	-9.41844
bo❁10	-9.41844
jie❂48	-9.41845
chi❄49	-9.42254
tian❂15	-9.42255
ai❄35	-9.42664
tan❄5	-9.42666
zhao❁3	-9.42666
jian❃52	-9.42667
bi❂5	-9.43079
dian❄18	-9.43079
chao❂8	-9.43079
_	-9.43911
chi❃33	-9.43911
liang❂5	-9.43911
gui❁35	-9.43911
cai❂9	-9.44329
qiang❁13	-9.44329
fu❂51	-9.44329
bai❄7	-9.44749
lou❄9	-9.44749
ying❂58	-9.44749
yi❄214	-9.44749
pu❄3	-9.45171
gao❄3	-9.45171
luo❂18	-9.45171
yang❂10	-9.45171
ci❂31	-9.45171
e❄47	-9.45198
hui❄60	-9.45595
lie❄45	-9.45595
zong❄12	-9.45595
e❂39	-9.45597
zhong❁19	-9.4602
zhi❁27	-9.46021
feng❄3	-9.46021
hu❄36	-9.46444
bao❁6	-9.46877
jiao❁24	-9.46877
shi❄22	-9.46877
jiu❄29	-9.46877
cha❂12	-9.46878
qin❂25	-9.47308
dun❄22	-9.47308
lv❃30	-9.47741
wu❁8	-9.47742
xian❃46	-9.47742
gou❄26	-9.47742
qin❂12	-9.48176
xun❄25	-9.48176
xiang❁11	-9.48455
diao❁23	-9.48612
gang❃4	-9.48612
man❄12	-9.48612
ru❃0	-9.49051
yi❃24	-9.49051
chu❃9	-9.49051
su❄30	-9.49051
mian❃10	-9.49052
yan❂20	-9.49491
wan❂3	-9.49934
zhai❄4	-9.49934
jing❁14	-9.49934
ba❄11	-9.49934
yao❂43	-9.49934
bang❁5	-9.50378
ma❃6	-9.50378
xiang❁7	-9.50378
shi❂35	-9.50379
yu❄126	-9.50379
zhen❄16	-9.50379
xi❁65	-9.5038
zhu❄59	-9.50825
tiao❄6	-9.50826
chen❁13	-9.51273
xie❂14	-9.51273
jia❁10	-9.51274
jian❄85	-9.51274
ting❂8	-9.51274
lang❂28	-9.51724
yan❄75	-9.51724
dai❄35	-9.51727
chong❁9	-9.52176
jiu❁16	-9.52631
pen❁1	-9.52631
run❄4	-9.52631
dui❁14	-9.53087
cheng❂61	-9.53088
fan❄28	-9.53546
ji❂52	-9.54007
lin❂43	-9.54007
shu❁34	-9.54008
±	-9.5447
xin❁20	-9.5447
yang❂17	-9.5447
pu❃7	-9.54935
ban❁9	-9.55402
bao❃10	-9.55402
xie❂27	-9.55403
xi❂9	-9.55872
ya❁23	-9.55872
zu❁0	-9.55872
ji❂81	-9.55872
ji❁80	-9.55872
yan❂37	-9.55872
dai❄20	-9.55872
lang❄4	-9.55872
can❂17	-9.55873
shu❁44	-9.56343
tai❄6	-9.56343
yin❃31	-9.56343
shi❄89	-9.56344
jing❄11	-9.56344
\	-9.56817
niao❄2	-9.56817
lao❁0	-9.57294
sui❄33	-9.57294
xi❁161	-9.57772
jing❄17	-9.58253
jin❁24	-9.58254
heng❂7	-9.58736
〕	-9.58736
mi❂38	-9.58736
she❂11	-9.58737
you❂16	-9.59221
hui❁40	-9.59222
jian❁44	-9.59222
xun❂11	-9.59223
min❃24	-9.59709
zhang❃2	-9.59709
zui❄11	-9.59709
suo❃23	-9.59709
sui❄29	-9.5971
yi❂79	-9.5971
jing❃23	-9.5971
she❄23	-9.59711
che❃7	-9.60199
shou❄3	-9.60199
yin❃37	-9.60199
zhi❁39	-9.60199
zui❃0	-9.60692
chen❂23	-9.60692
liu❂33	-9.60692
zhi❁43	-9.60692
fa❂19	-9.60693
gan❃8	-9.61187
lu❄91	-9.61187
xie❂49	-9.61187
nong❂10	-9.61187
hong❂67	-9.61188
dong❃8	-9.61684
zhu❂18	-9.61684
mou❂17	-9.61685
fu❂22	-9.61686
sang❁2	-9.62184
ji❄48	-9.62185
ge❁8	-9.62187
hui❄79	-9.62687
yu❃41	-9.62687
pao❃0	-9.63192
hou❂10	-9.63192
lin❂32	-9.637
bang❁13	-9.6421
jue❂104	-9.6421
tu❁14	-9.6421
吗	-9.6421
mo❂9	-9.6421
yun❄27	-9.64211
da❁12	-9.64723
cai❄6	-9.64723
shang❃6	-9.64723
yan❁37	-9.64723
cun❄2	-9.64724
xian❂27	-9.65238
→	-9.65238
you❄21	-9.65238
pen❂2	-9.65238
qi❁32	-9.65239
beng❄6	-9.65756
tong❂36	-9.65756
ming❂26	-9.65756
chi❄45	-9.66277
piao❄5	-9.66277
di❁15	-9.66277
yu❃24	-9.66278
m2	-9.66289
chui❁1	-9.668
bin❁12	-9.66801
fu❄65	-9.66801
zhen❁25	-9.67328
xian❂18	-9.67856
gui❁28	-9.67857
lin❂20	-9.68388
du❄12	-9.68923
fu❃34	-9.68924
chuang❂5	-9.6946
ding❃12	-9.6946
li❃28	-9.69461
sa❁2	-9.69462
hu❁17	-9.69997
ban❄11	-9.70001
he❄27	-9.70001
xiao❄12	-9.70001
jian❄40	-9.70544
lv❄9	-9.70544
yuan❂53	-9.70545
gou❃3	-9.70546
han❄34	-9.71091
nang❂2	-9.71091
jing❁11	-9.71091
#	-9.7164
ran❃11	-9.7164
cang❁0	-9.7164
mie❄10	-9.71642
kou❄7	-9.72193
jing❄19	-9.72193
bian❄43	-9.72193
jian❁67	-9.72194
ge❂52	-9.72748
xiao❃3	-9.72748
liang❄10	-9.72748
ji❃13	-9.72748
he❂52	-9.72749
liang❂11	-9.7275
di❄51	-9.7275
qi❃12	-9.73307
bing❁5	-9.73307
ban❄13	-9.73308
kai❃2	-9.73869
ma❃8	-9.73869
cha❁11	-9.73869
mao❁0	-9.73869
bai❃6	-9.73869
an❄13	-9.73965
que❁0	-9.74434
yu❄42	-9.74434
mian❂13	-9.74434
he❄35	-9.75002
fei❄18	-9.75002
zha❁9	-9.75002
dui❁9	-9.75573
hui❃8	-9.75573
qiu❁8	-9.75573
man❄11	-9.75574
jiang❁11	-9.76148
qi❃13	-9.76148
xiu❁9	-9.76149
guai❄7	-9.76726
jian❃48	-9.76726
ji❂107	-9.76726
nen❄4	-9.76726
zhong❄3	-9.76726
bin❁5	-9.76726
xiang❃5	-9.76727
zuan❁4	-9.77308
wu❂11	-9.77308
huan❄19	-9.77309
qi❂104	-9.77309
chu❄36	-9.77313
zhong❃7	-9.77892
fu❃28	-9.77893
lei❃25	-9.7848
si❁33	-9.7848
xian❄35	-9.7848
zhao❁4	-9.78481
xi❁87	-9.78482
yuan❄14	-9.78493
da❂24	-9.79072
ji❄121	-9.79072
ying❂59	-9.79072
chen❂15	-9.79072
nuan❃2	-9.79667
tian❂8	-9.79667
yu❄40	-9.79667
yan❂72	-9.79667
bai❃4	-9.79668
fei❁12	-9.7967
chong❂5	-9.80266
hao❂25	-9.80266
nian❂9	-9.80267
cao❂8	-9.80267
≤	-9.80869
ci❂20	-9.80869
〉	-9.81475
gun❃8	-9.81475
xin❁25	-9.81475
zou❄2	-9.81475
jia❃17	-9.81476
e❂11	-9.82043
chuang❁11	-9.82084
luan❃0	-9.82084
yue❄21	-9.82084
bing❃9	-9.82085
li❂41	-9.82086
heng❂14	-9.82194
huai❄0	-9.82698
zu❃11	-9.82698
fan❄17	-9.82698
xin❁17	-9.82698
qiang❁24	-9.82699
lang❃9	-9.83315
tan❂20	-9.83315
xie❂48	-9.83315
zhai❁3	-9.83315
ping❂10	-9.83315
tai❁4	-9.83315
ju❄30	-9.83315
hu❄14	-9.83315
hang❂8	-9.83316
gang❁23	-9.83317
du❄21	-9.83936
fang❁9	-9.83937
bi❄157	-9.83938
dang❄12	-9.83939
han❄38	-9.83995
a❁2	-9.84357
ji❄83	-9.84561
pin❄1	-9.84561
di❄27	-9.84562
min❃13	-9.84563
hu❂22	-9.84666
chou❁5	-9.8519
he❂46	-9.8519
rou❂6	-9.8519
bao❄11	-9.8519
gu❄23	-9.8519
wei❃14	-9.85191
ji❄63	-9.85823
lan❄6	-9.85823
suan❄4	-9.85823
tu❂25	-9.85823
cu❄30	-9.85823
suo❁15	-9.85824
shu❃23	-9.8646
wang❂0	-9.8646
tao❂17	-9.8646
ni❄27	-9.8646
qi❄34	-9.8646
quan❂10	-9.8646
xian❄61	-9.86461
ao❄25	-9.86669
an❁18	-9.86848
bai❄15	-9.87101
lv❄12	-9.87101
pan❁4	-9.87101
xu❄69	-9.87101
yu❄31	-9.87101
gao❃5	-9.87104
cao❁3	-9.87746
gai❄22	-9.87746
lian❃12	-9.87746
pei❂3	-9.87746
yue❄41	-9.87746
|	-9.87746
bao❁9	-9.87746
tong❃5	-9.87747
ding❄15	-9.8775
can❁13	-9.87787
hu❁13	-9.88311
he❄26	-9.88396
jin❁17	-9.88396
wu❄44	-9.88396
zao❁7	-9.88396
tan❃4	-9.88396
jian❄56	-9.88397
xian❁39	-9.88398
huo❄61	-9.89049
qian❂22	-9.89049
xue❂14	-9.89049
yu❄109	-9.89049
zhuang❄0	-9.89049
xie❁3	-9.89049
chui❂5	-9.8905
bao❄12	-9.89707
jiao❁21	-9.89707
liao❂37	-9.89707
tan❁12	-9.89707
zhe❄9	-9.89707
shen❁23	-9.89707
lian❄27	-9.89708
she❂9	-9.89708
fu❄24	-9.89708
fang❁2	-9.89709
mu❄10	-9.90369
chan❂33	-9.9037
hun❁4	-9.90371
cang❁14	-9.91036
ge❂38	-9.91036
long❄5	-9.91036
shu❄47	-9.91036
xia❂45	-9.91037
feng❄7	-9.91037
shen❁5	-9.91037
jue❂33	-9.91038
miao❄0	-9.91707
wei❂51	-9.91707
wang❄2	-9.91707
ya❂18	-9.91707
jing❄46	-9.91708
hong❂21	-9.92383
lou❄2	-9.92383
zui❄15	-9.92383
ta❄43	-9.92383
jian❁17	-9.92383
he❁5	-9.92536
deng❄8	-9.93063
duo❃21	-9.93063
xian❄51	-9.93063
lian❄8	-9.93063
yong❃6	-9.93064
zeng❄6	-9.93064
su❄33	-9.93065
ji❁54	-9.93067
gou❃2	-9.93748
qing❁3	-9.93748
zan❄17	-9.93748
lv❄11	-9.94438
su❂0	-9.94438
gao❃12	-9.94439
hou❂11	-9.94439
diao❄5	-9.95132
seng❁1	-9.95132
jun❁3	-9.95132
fu❂38	-9.95831
keng❁7	-9.95831
teng❂14	-9.95832
bang❄9	-9.95832
xiao❁51	-9.95834
pi❁12	-9.96536
hun❂21	-9.97245
jie❄24	-9.97245
lian❂30	-9.97245
tan❂21	-9.97245
ying❁67	-9.97245
bi❄98	-9.97245
pan❄10	-9.97245
ping❂7	-9.97245
fu❄57	-9.97246
shan❁13	-9.97267
ge❂54	-9.97959
xiong❂1	-9.97959
zhen❄33	-9.97959
li❄155	-9.9796
da❁17	-9.98679
fu❂41	-9.98679
hai❄8	-9.9868
wo❄16	-9.98681
rao❄2	-9.99403
zhou❁17	-9.99403
ㄧ	-9.99403
kuo❄15	-9.99404
lu❂10	-9.99404
tun❂3	-9.99404
lian❄17	-9.99404
cong❂5	-9.99405
ji❂67	-10.0013
xing❂7	-10.0013
jing❃27	-10.0013
fang❃18	-10.0087
jin❄38	-10.0087
ken❃6	-10.0087
ce❄26	-10.0161
wang❄3	-10.0161
qi❁15	-10.0161
tu❃0	-10.0161
li❂98	-10.0161
xiao❄23	-10.0161
e❄81	-10.0161
qing❁7	-10.0236
fan❂35	-10.0236
huang❁9	-10.0236
ran❂13	-10.0236
dian❄7	-10.0236
she❂3	-10.0236
gan❄19	-10.0236
ou❃3	-10.031
jian❄77	-10.0311
tan❂8	-10.0311
xuan❂9	-10.0311
wu❄48	-10.0311
wei❁10	-10.0311
di❃10	-10.0311
dan❄30	-10.0311
pi❂22	-10.0311
shua❁1	-10.0315
ning❂6	-10.0386
◆	-10.0386
cu❄9	-10.0387
guan❄33	-10.0387
cui❄30	-10.0387
qian❁61	-10.0387
shu❁38	-10.0387
ai❁5	-10.0462
lang❂17	-10.0463
chai❁2	-10.0463
jing❄31	-10.0463
ji❄120	-10.0463
xian❂54	-10.0463
fan❁11	-10.0463
yu❂66	-10.0463
kao❃6	-10.0463
geng❃8	-10.0463
yi❄183	-10.0464
ci❂35	-10.054
huan❁7	-10.054
qi❄23	-10.054
bi❄100	-10.054
lai❄19	-10.054
ban❄3	-10.0617
bei❁6	-10.0617
guan❄23	-10.0617
hao❄23	-10.0617
bao❄15	-10.0617
xia❂13	-10.0617
wen❃10	-10.0617
yan❁34	-10.0617
mao❄39	-10.0617
xi❂12	-10.0695
yan❄45	-10.0695
yi❄225	-10.0695
zuo❃1	-10.0695
yu❂34	-10.0695
gui❁46	-10.0695
hu❄46	-10.0695
hou❄5	-10.0774
fang❃6	-10.0774
mai❄12	-10.0774
jie❁32	-10.0774
pin❂12	-10.0774
huan❃7	-10.0774
mai❂5	-10.0774
sou❁13	-10.0774
man❄13	-10.0774
z	-10.0827
yu❄115	-10.0854
ben❃9	-10.0854
jiao❁22	-10.0854
lin❂51	-10.0854
ju❄14	-10.0854
teng❂13	-10.0854
mu❄20	-10.0854
jian❃19	-10.0934
meng❄7	-10.0934
wa❁10	-10.0934
yi❄226	-10.0934
xi❂22	-10.0934
jing❄30	-10.0934
na❄28	-10.0934
shu❄27	-10.0934
chun❂23	-10.1014
ze❂44	-10.1014
dao❄11	-10.1014
she❄17	-10.1014
tang❄2	-10.1014
qi❄43	-10.1014
san❃5	-10.1095
duo❂3	-10.1095
zha❁16	-10.1095
ci❄23	-10.1095
lie❄34	-10.1096
liao❂24	-10.1096
die❂19	-10.1177
〈	-10.1177
wo❄8	-10.1177
ru❂7	-10.1178
liu❂31	-10.126
sheng❂5	-10.126
shui❄9	-10.126
guan❄31	-10.126
ren❄30	-10.126
ju❄45	-10.126
xi❁124	-10.126
xing❄12	-10.126
wei❂21	-10.126
mao❄32	-10.126
gan❃19	-10.1343
kuang❂3	-10.1343
wang❁6	-10.1343
ˋ	-10.1343
hao❄35	-10.1343
xiang❄10	-10.1343
bo❁8	-10.1343
que❄26	-10.1344
lv❃7	-10.1344
he❄23	-10.1427
dong❃6	-10.1427
qiao❃3	-10.1427
fu❄32	-10.1427
meng❂34	-10.1428
piao❁11	-10.1428
kun❄1	-10.1512
ba❂11	-10.1512
di❂41	-10.1512
fu❃16	-10.1512
qiong❂23	-10.1512
xiang❃3	-10.1512
he❂47	-10.1598
hou❄10	-10.1598
jiang❃16	-10.1598
niang❂0	-10.1598
chang❂14	-10.1598
tian❁7	-10.1598
ling❂114	-10.1598
zhao❄9	-10.1598
xiang❂9	-10.1598
gang❁24	-10.1598
tiao❁4	-10.1598
xiong❁2	-10.1598
fang❃15	-10.1684
gong❄9	-10.1684
pa❄0	-10.1684
quan❃3	-10.1684
xu❄68	-10.1684
ji❂75	-10.1684
an❄19	-10.1752
pa❄1	-10.1771
ˊ	-10.1771
μ	-10.1771
ming❂24	-10.1771
shai❄1	-10.1771
du❁8	-10.1771
shi❁20	-10.1771
fu❂48	-10.1771
fan❄15	-10.1771
wan❁7	-10.1771
mi❄45	-10.1771
bi❄145	-10.1859
pu❂22	-10.1859
xuan❁39	-10.1859
ㄨ	-10.1859
zhen❄31	-10.1859
shao❄10	-10.1859
mu❄24	-10.1859
meng❃3	-10.1859
kun❁9	-10.1859
dao❄14	-10.186
feng❂5	-10.1947
shao❂3	-10.1947
zhi❁44	-10.1947
cao❂10	-10.1947
han❂15	-10.1947
feng❁43	-10.1947
lv❃9	-10.1947
xiu❄11	-10.1947
hen❄1	-10.2033
ca❁4	-10.2036
zao❃9	-10.2036
zei❂3	-10.2036
wei❂7	-10.2036
you❁10	-10.2036
gong❃12	-10.2036
nai❃2	-10.2036
chen❂38	-10.2126
hong❂25	-10.2126
qu❁49	-10.2126
tuo❁8	-10.2126
huai❂8	-10.2126
shi❄20	-10.2126
chi❂13	-10.2127
c	-10.2147
ju❂38	-10.2217
tong❂22	-10.2217
ya❂7	-10.2217
zhai❃2	-10.2217
ru❃2	-10.2217
shu❁12	-10.2217
jia❄9	-10.2217
juan❁9	-10.2217
chong❁20	-10.2217
qiao❂5	-10.2217
yu❂108	-10.2217
qi❁22	-10.2218
bing❃2	-10.2307
gan❁7	-10.2309
lan❂25	-10.2309
qian❂46	-10.2309
yue❄48	-10.2309
ren❃1	-10.2309
yao❂32	-10.2309
ying❄7	-10.2309
mei❂30	-10.2309
xie❄80	-10.2309
zai❁4	-10.2309
jian❄50	-10.2309
mao❄37	-10.2309
jin❁26	-10.2309
wo❁5	-10.2309
xiao❁8	-10.2309
ge❁6	-10.231
zhen❁44	-10.231
bing❃29	-10.2311
ye❁8	-10.2402
cheng❁18	-10.2402
jun❄13	-10.2402
shan❃11	-10.2404
n	-10.2421
qing❁1	-10.2491
la❄28	-10.2495
weng❁6	-10.2495
zan❄5	-10.2495
zao❃3	-10.2495
bian❃4	-10.2495
jin❄20	-10.2495
mao❂18	-10.2495
pei❄5	-10.2495
zi❁9	-10.2495
nai❄2	-10.2496
mei❃16	-10.2589
fan❃4	-10.2589
she❄13	-10.2589
die❂56	-10.259
han❄29	-10.259
gao❁16	-10.259
huan❄18	-10.2591
zong❁16	-10.2685
pin❁3	-10.2685
qian❁35	-10.2685
zhi❃13	-10.2685
yu❂67	-10.2685
zhai❂1	-10.2781
qiong❂28	-10.2781
shan❄22	-10.2781
ai❂12	-10.2781
fu❂62	-10.2781
mi❂37	-10.2781
di❁11	-10.2781
qiao❁28	-10.2781
fen❁19	-10.2781
xi❁107	-10.2781
jue❂76	-10.2781
xun❂14	-10.2781
bo❅0	-10.2878
su❁13	-10.2878
shai❁2	-10.2878
xiang❂11	-10.2878
jia❄3	-10.2878
qiang❃2	-10.2878
ge❁11	-10.2878
e❂45	-10.2878
sha❁18	-10.2878
sun❃4	-10.2878
l	-10.292
shou❄15	-10.2976
≥	-10.2976
lan❃28	-10.2976
kuang❁9	-10.2976
zhe❂16	-10.2976
hong❂54	-10.2976
ku❁14	-10.2976
chai❂6	-10.2976
pan❄2	-10.2976
feng❁52	-10.3075
lei❄10	-10.3075
bi❄117	-10.3075
cheng❂45	-10.3075
jie❄13	-10.3075
mao❄16	-10.3075
quan❄2	-10.3075
wu❄26	-10.3075
bang❃2	-10.3075
lu❄53	-10.3075
zhu❂24	-10.3075
ke❁7	-10.3075
na❄15	-10.3075
shi❄19	-10.3075
xue❁2	-10.3175
tao❁16	-10.3175
yi❂58	-10.3175
gu❁11	-10.3175
pi❁7	-10.3175
shao❄5	-10.3175
jie❂42	-10.3175
zhuan❄6	-10.3276
cui❄32	-10.3276
yao❂55	-10.3276
mo❄75	-10.3276
mian❂22	-10.3276
ji❃15	-10.3276
sha❁17	-10.3276
ting❂9	-10.3276
peng❂8	-10.3378
yu❄104	-10.3378
na❃2	-10.3378
nao❄3	-10.3378
po❂3	-10.3378
yong❁17	-10.3378
ci❂26	-10.3378
]	-10.3481
qi❂48	-10.3481
tan❄8	-10.3481
ting❃4	-10.3481
yi❄144	-10.3481
yu❄54	-10.3481
tu❁4	-10.3481
yao❄11	-10.3481
ju❃9	-10.3481
yue❄56	-10.3481
zhen❃27	-10.3481
dun❄9	-10.3481
wu❃15	-10.3481
hu❂43	-10.3585
ci❂15	-10.3585
zhuo❂8	-10.3585
you❁9	-10.3585
ji❄35	-10.3585
xin❁13	-10.3585
shan❃12	-10.3585
ang❂7	-10.3597
chuan❄0	-10.3691
sao❃3	-10.3691
kuo❄7	-10.3691
zha❂16	-10.3691
ti❄21	-10.3691
che❄24	-10.3691
feng❂17	-10.3797
yao❁19	-10.3797
su❄67	-10.3797
yan❄67	-10.3797
bo❂52	-10.3797
jing❁31	-10.382
zhao❄30	-10.3904
bo❁13	-10.3904
tu❄1	-10.3904
tao❂9	-10.3904
ci❂24	-10.3905
bi❄73	-10.3905
dong❄11	-10.3905
qi	-10.3934
cui❁16	-10.4013
pao❁3	-10.4013
shuang❁11	-10.4013
yuan❄9	-10.4013
zang❄4	-10.4013
○	-10.4013
◎	-10.4013
gou❁23	-10.4013
ta❄26	-10.4013
ji❃22	-10.4013
cui❃3	-10.4013
xie❄55	-10.4013
chao❂3	-10.4013
po❄12	-10.4014
gang❁5	-10.4123
su❄58	-10.4123
shu❃16	-10.4123
ba❄25	-10.4123
kan❃7	-10.4123
yun❄7	-10.4123
dai❄45	-10.4123
xie❄51	-10.4123
chun❂11	-10.4124
chuang❁8	-10.4234
dang❄23	-10.4234
qin❁16	-10.4234
zong❁24	-10.4234
zhang❄2	-10.4234
qu❄11	-10.4234
mei❂47	-10.4234
yong❃8	-10.4234
tong❃3	-10.4234
luo❄24	-10.4234
jie❂40	-10.4234
yi❄103	-10.4235
pa❂3	-10.4235
ben❁2	-10.4235
sang❄0	-10.4347
xing❃5	-10.4347
yu❄87	-10.4347
pu❂20	-10.4347
yu❄35	-10.4347
chu❃3	-10.4347
fu❁39	-10.4347
you❄32	-10.4347
zou❁8	-10.4349
[	-10.446
chi❂48	-10.446
ji❄55	-10.446
nu❂1	-10.446
zai❃4	-10.446
zhan❃16	-10.446
gong❁19	-10.446
qu❁29	-10.446
yang❃4	-10.446
xia❂10	-10.446
xing❄15	-10.446
yuan❂26	-10.446
rong❂43	-10.446
chang❄9	-10.446
sun❃7	-10.446
10	-10.4474
an❁16	-10.4477
geng❁17	-10.4575
zhang❄19	-10.4575
hui❁12	-10.4575
zhuo❁8	-10.4575
fu❃24	-10.4575
qu❁17	-10.4575
xian❄63	-10.4575
tan❂30	-10.4575
ba❄21	-10.4575
xie❂24	-10.4575
xun❂16	-10.4575
dan❁15	-10.4578
ao❁8	-10.4679
fa❂5	-10.4691
nu❄2	-10.4691
bi❄144	-10.4691
dan❄27	-10.4691
ying❂36	-10.4691
fei❄27	-10.4691
ju❄39	-10.4691
lin❂53	-10.4691
ke❁8	-10.4691
chu❄29	-10.4691
die❁4	-10.4692
pi❄14	-10.4692
hui❄51	-10.4809
tao❃3	-10.4809
zhai❁2	-10.4809
han❄43	-10.4809
lin❂25	-10.4809
xin❁24	-10.4809
ku❄18	-10.4809
cai❂7	-10.4809
yan❁17	-10.4809
′′	-10.4811
chou❄2	-10.4928
kong❃2	-10.4928
qian❁52	-10.4928
sui❂6	-10.4928
zhi❄64	-10.4928
gua❁8	-10.4928
qian❁39	-10.4928
sou❁9	-10.4928
zhi❂22	-10.4928
zhi❃40	-10.4928
tie❁0	-10.4928
qiu❁27	-10.4928
ji❂74	-10.4929
hun❄10	-10.5049
ye❂4	-10.5049
hui❁15	-10.5049
mao❄18	-10.5049
tan❄3	-10.5049
yue❄25	-10.5049
bi❃17	-10.5049
shu❄35	-10.5049
rao❂9	-10.5049
pan❂4	-10.5049
tu❂38	-10.5049
a❁3	-10.5065
chou❂28	-10.517
mu❄13	-10.517
tou❁0	-10.517
mo❃2	-10.5171
yi❂44	-10.5171
yu❄28	-10.5171
shu❃12	-10.5171
wei❃15	-10.5171
xun❄26	-10.5171
jia❃19	-10.5171
bian❄38	-10.5171
g	-10.5175
hou❂13	-10.5194
jiao❃52	-10.5294
yi❄137	-10.5294
yu❄105	-10.5294
bi❁12	-10.5294
chou❂29	-10.5294
shen❄9	-10.5294
ti❁6	-10.5294
ling❂36	-10.5294
rong❂48	-10.5294
zai❁1	-10.5294
ban❁7	-10.5419
ling❂95	-10.5419
ˇ	-10.5419
wu❁17	-10.5419
xi❁135	-10.5419
mi❄33	-10.5419
dun❁4	-10.5419
luo❂15	-10.5419
qi❃21	-10.5419
chui❂10	-10.5419
peng❂26	-10.5419
ti	-10.5495
hu❁23	-10.5545
chou❃1	-10.5546
peng❂37	-10.5546
ya❄29	-10.5546
yao❂42	-10.5546
long❂40	-10.5546
kun❁4	-10.5547
d	-10.5588
ao❁4	-10.5597
lang❂12	-10.5674
lan❂36	-10.5674
tao❂13	-10.5674
zhao❃5	-10.5674
la❄20	-10.5674
wei❄22	-10.5674
wu❄14	-10.5674
zi❁15	-10.5674
dang❃3	-10.5674
chao❁11	-10.5674
xi❁46	-10.5674
gu❁25	-10.5674
yao❁8	-10.5674
ji	-10.5706
ling❂62	-10.5804
long❃12	-10.5804
rui❄20	-10.5804
zhuang❄3	-10.5804
α	-10.5804
shao❄12	-10.5804
shuang❃7	-10.5804
ku❁9	-10.5804
mi❂15	-10.5804
zao❄5	-10.5804
yi❄113	-10.5804
bian❄39	-10.5804
qi❂61	-10.5804
chu	-10.5884
bao❁2	-10.5935
xun❄30	-10.5935
ge❄9	-10.5935
qin❂28	-10.5935
feng❁21	-10.5935
fu❄72	-10.5935
tuo❂31	-10.5935
bi❄51	-10.5936
zhu❄35	-10.5936
gou❁9	-10.6069
dun❄11	-10.6069
guan❄12	-10.6069
xie❁5	-10.6069
gu❁9	-10.6069
xiu❄19	-10.6069
gou❄10	-10.6204
qian❃14	-10.6204
rou❂5	-10.6204
―	-10.6204
ben❃3	-10.6204
yan❁27	-10.6204
zhe❁4	-10.6204
kuo❄17	-10.6204
yu❂61	-10.6204
xi❁99	-10.6205
xi	-10.6317
niu❃9	-10.6341
zang❄7	-10.6341
の	-10.6341
yu❃38	-10.6341
bao❁7	-10.6341
yi❂28	-10.6341
yao❂20	-10.6341
jie❁15	-10.648
qu❁40	-10.648
fen❁17	-10.648
dian❄24	-10.648
wan❃24	-10.648
shuai❄1	-10.662
yu❂118	-10.662
ze❂19	-10.662
zhai❄2	-10.662
li❂53	-10.662
zhuang❁0	-10.662
ding❁12	-10.662
bo❂40	-10.662
du❃11	-10.662
bao❄29	-10.662
xian❄66	-10.6621
die❂47	-10.6621
jie❂27	-10.6621
ai❃12	-10.6621
gui❃35	-10.6763
la❁4	-10.6763
mang❂15	-10.6763
zhuang❁3	-10.6763
zhui❁6	-10.6763
song❄11	-10.6763
xiang❄12	-10.6763
dao❃12	-10.6763
zhao❄24	-10.6763
ka❁2	-10.6763
hu❂26	-10.6763
xie❄54	-10.6763
chui❂16	-10.6764
fei❁4	-10.6764
dian❁12	-10.6908
heng❁0	-10.6908
mang❂29	-10.6908
xu❄73	-10.6908
yan❄25	-10.6908
zhi❁40	-10.6908
chu❃14	-10.6908
mei❄5	-10.6908
bian❁22	-10.7055
sui❂8	-10.7055
xie❄37	-10.7055
zai❁0	-10.7055
shu❃14	-10.7055
xia❂21	-10.7055
chen❂20	-10.7055
dun❁9	-10.7055
zi❃17	-10.7055
tai❁5	-10.7055
can❂19	-10.7056
shi❂19	-10.7056
wu❃11	-10.7056
kan❃12	-10.7056
qia❄9	-10.7204
zhang❄18	-10.7204
cui❁6	-10.7204
li❁	-10.7204
song❄8	-10.7204
cha❁5	-10.7204
tong❂44	-10.7205
rong❂36	-10.7205
ye❃2	-10.7205
hun❁7	-10.7205
chou❂12	-10.7205
shan❁16	-10.7205
ao❄9	-10.7355
bei❄55	-10.7356
–	-10.7356
∶	-10.7356
fan❁4	-10.7356
tai❂13	-10.7356
lu❂14	-10.7356
huai❂7	-10.7356
m	-10.7356
chun❂13	-10.7356
yong❁33	-10.7356
yong❃22	-10.7357
23	-10.7396
s	-10.741
xu	-10.7506
gong❁20	-10.751
hun❂10	-10.751
mo❁	-10.751
zhang❄15	-10.751
zhan❃22	-10.751
bao❁5	-10.751
ni❁	-10.751
xiao❁42	-10.751
zhang❄5	-10.751
zao❄6	-10.751
chu❂15	-10.751
dian❄19	-10.751
gai❄11	-10.751
fu❄26	-10.751
wen❃3	-10.751
yu❂96	-10.751
yan❄19	-10.751
wei❃48	-10.751
wo❄12	-10.7511
zheng❄11	-10.7666
Ω	-10.7666
yan❄43	-10.7666
le❄16	-10.7666
zi❁13	-10.7666
guo❃11	-10.7666
du❃3	-10.7666
ke❃10	-10.7666
ji❁37	-10.7667
xiang❁25	-10.7668
pi	-10.7681
30	-10.7692
xiang❁19	-10.7731
gong❁40	-10.7825
hai❁6	-10.7825
jiang❁16	-10.7825
】	-10.7825
chou❂20	-10.7825
han❂25	-10.7825
qian❄21	-10.7825
qing❂8	-10.7825
zi❁23	-10.7825
shen❄5	-10.7825
liao❂29	-10.7825
wu❁9	-10.7825
shu❁23	-10.7825
jia❁30	-10.7825
sheng❄1	-10.783
e❂13	-10.7905
zao❂1	-10.7986
jiu❁19	-10.7986
yang❁4	-10.7986
qu❃2	-10.7986
ti❂30	-10.7986
dun❄20	-10.7986
jiang❄3	-10.7986
nie❄42	-10.7986
bu❃9	-10.7987
ji❂94	-10.7987
chong❃2	-10.815
pu❁3	-10.815
rao❃1	-10.815
you❄28	-10.815
◇	-10.815
chi❂55	-10.815
cui❁3	-10.815
li❄68	-10.815
zhan❁12	-10.815
fan❂26	-10.815
bin❁7	-10.815
ji❁66	-10.815
yin❁30	-10.815
yuan❁16	-10.815
peng❂24	-10.815
geng❃11	-10.815
zun❁7	-10.815
meng❃10	-10.8151
hu	-10.8241
hen❂2	-10.8316
ya❁14	-10.8317
yao❃16	-10.8317
zhi❃20	-10.8317
kui❂10	-10.8317
jiao❁41	-10.8317
cheng❂38	-10.8486
qin❁5	-10.8486
ruan❃18	-10.8486
β	-10.8486
bu❄21	-10.8486
tai❄11	-10.8486
dou❄13	-10.8486
cang❁7	-10.8486
lu❃4	-10.8486
chen❄10	-10.8486
shi❂32	-10.8486
fei❃3	-10.8486
xiu❄13	-10.8487
lang❂18	-10.8659
ying❃24	-10.8659
fu❁22	-10.8659
ji❂58	-10.8659
qiao❂6	-10.8659
hui❄34	-10.8659
jun❁24	-10.8712
@	-10.8834
bao❃27	-10.8834
huo❄44	-10.8834
gua❃7	-10.8834
po❄21	-10.8834
chan❂40	-10.8834
jing❁16	-10.8834
xi❁56	-10.8834
jian❁19	-10.8834
mian❂16	-10.8834
yi❂54	-10.8834
bao❄20	-10.8834
hu❂36	-10.8834
ba❁27	-10.8835
kuang❄1	-10.9006
bing❃15	-10.9013
fou❃0	-10.9013
ting❃12	-10.9013
yi❄159	-10.9013
chang❂6	-10.9013
dian❁19	-10.9013
jiao❃22	-10.9013
zhang❁9	-10.9013
geng❁4	-10.9013
xun❁3	-10.9013
kui❂21	-10.9013
you❄10	-10.9013
ju❃16	-10.9013
li❄98	-10.9013
jia❁36	-10.9013
ai❁1	-10.9193
II	-10.9194
jue❂96	-10.9194
pei❂5	-10.9194
zhuan❄9	-10.9194
ma❄19	-10.9194
quan❄1	-10.9194
qiao❄20	-10.9194
shu❁26	-10.9194
hao❂14	-10.9194
ling❂80	-10.9195
kan❃4	-10.9195
xiong❁4	-10.9195
cong❁36	-10.9195
yu❂53	-10.9195
fan❁15	-10.9195
fa❂13	-10.9195
shuo❄15	-10.9195
piao❁4	-10.9195
yan❄14	-10.9199
han❃12	-10.9379
fan❂22	-10.938
lia❃0	-10.938
yu❄36	-10.938
zhui❄0	-10.938
ー	-10.938
bian❁3	-10.938
yi❂42	-10.938
kan❁4	-10.938
jiao❁11	-10.938
duo❄9	-10.938
qi❄22	-10.938
gua❄0	-10.938
wei❄34	-10.938
pan❄3	-10.938
gao❁13	-10.9381
shu❃8	-10.9381
cang❁12	-10.9568
gan❃13	-10.9568
lei❃29	-10.9568
peng❂11	-10.9568
peng❃1	-10.9568
qun❂7	-10.9568
☆	-10.9568
ni❄24	-10.9568
shu❁29	-10.9568
xin❁26	-10.9568
jin❁15	-10.9568
kui❂35	-10.9568
yao❂22	-10.9569
yi❄104	-10.9569
yu❄67	-10.9569
ta	-10.9576
qu	-10.9664
ju	-10.9725
pan❁3	-10.9761
shun❄8	-10.9761
zhi❃37	-10.9761
【	-10.9761
jie❂50	-10.9761
ya❅	-10.9761
kan❁5	-10.9761
yun❄14	-10.9761
di❂23	-10.9761
wei❄27	-10.9761
yi❄239	-10.9761
huan❂17	-10.9761
mei❂12	-10.9761
ou❃11	-10.9764
❄7	-10.9904
huo❃0	-10.9957
tai❄15	-10.9957
jiu❃8	-10.9957
tun❁1	-10.9957
wa❂0	-10.9957
ying❁24	-10.9957
chi❁19	-10.9957
lv❃11	-10.9957
yi❃22	-10.9957
se❄23	-10.9957
lei❃14	-10.9957
qiao❁8	-10.9957
wei❁33	-10.9958
ji❂93	-10.9958
ou❁15	-10.9959
fen❂7	-11.0157
gun❃21	-11.0157
jiao❃51	-11.0157
lu❄92	-11.0157
wei❄40	-11.0157
bang❄14	-11.0157
chuang❃7	-11.0157
fan❄12	-11.0157
wan❄11	-11.0157
xin❁18	-11.0157
nong❂17	-11.0157
si❄16	-11.0157
yong❁14	-11.0157
jia	-11.0231
14	-11.0239
^	-11.0361
pei❂12	-11.0361
peng❂12	-11.0361
beng❁9	-11.0361
nan❂13	-11.0361
ping❂31	-11.0361
se❄15	-11.0361
tang❂18	-11.0361
tan❁9	-11.0361
yu❂46	-11.0361
pian❄3	-11.0361
ge❁33	-11.0361
duo❃28	-11.0361
he❂70	-11.0361
li❄108	-11.0361
qi❂36	-11.0361
xun❁15	-11.0361
xu❄32	-11.0361
qiao❄14	-11.0364
huo❄26	-11.0569
kou❄6	-11.0569
xian❂24	-11.0569
xie❂47	-11.0569
zhi❄68	-11.0569
bing❃10	-11.0569
wei❂13	-11.0569
chi❄33	-11.0569
fen❂16	-11.0569
ju❁17	-11.0569
nie❄68	-11.0569
wan❂11	-11.0569
yin❃11	-11.0569
yi❂65	-11.0569
tan❁18	-11.0569
yin❂12	-11.0569
zhang❁10	-11.057
zong❁31	-11.057
shan❁23	-11.057
lv❂10	-11.057
xi❁81	-11.057
e❄29	-11.0603
hong❁12	-11.0644
❃6	-11.0715
bei❁5	-11.0782
jie❁18	-11.0782
bang❄6	-11.0782
han❃15	-11.0782
xian❂44	-11.0782
cheng❂13	-11.0782
yan❃45	-11.0783
cuo❁0	-11.0783
wo❁2	-11.0783
❄5	-11.0803
su❄55	-11.0999
о	-11.0999
ン	-11.0999
juan❄9	-11.0999
zhang❄9	-11.0999
bin❁6	-11.0999
ju❂27	-11.0999
tu❂20	-11.0999
zao❄8	-11.0999
shuo❄7	-11.0999
xu❄43	-11.0999
pu❂19	-11.1
pi❂16	-11.1
gan❁33	-11.1
qi❂76	-11.1
mian❃12	-11.1
sh	-11.1037
ba	-11.1126
e❂27	-11.1221
kui❁2	-11.1221
yun❁2	-11.1221
ze❃	-11.1221
teng❂7	-11.1222
shuan❁1	-11.1222
lian❂29	-11.1222
nuo❄14	-11.1222
nu❃1	-11.1222
chen❄14	-11.1222
shi❄74	-11.1222
shi❁9	-11.1222
nian❂15	-11.1222
shi❃15	-11.1222
xun❄28	-11.1222
li❄153	-11.1222
zhen❃12	-11.1222
di❄58	-11.1222
xiang❁2	-11.1224
mang❂25	-11.1449
men❄9	-11.1449
niang❄1	-11.1449
ye❁6	-11.1449
yun❃7	-11.1449
ㄠ	-11.1449
dian❃15	-11.1449
yan❂41	-11.1449
qin❄10	-11.1449
ya❁22	-11.1449
wei❄19	-11.1449
sha❄6	-11.1449
ying❁11	-11.1449
ji❄47	-11.1449
chao❁14	-11.1449
xing❂17	-11.1449
gan❃7	-11.1449
ga❁1	-11.1449
jie❃1	-11.1449
wan❂19	-11.1449
cai❁7	-11.1449
rong❂47	-11.1449
si❄26	-11.1449
jian❄58	-11.1449
rong❂29	-11.1449
shi	-11.1639
cai❃10	-11.1681
cheng❁15	-11.1681
dai❄38	-11.1681
fa❂4	-11.1681
po❄23	-11.1681
ren❄38	-11.1681
tan❂19	-11.1681
■	-11.1681
xian❁47	-11.1681
yin❁29	-11.1681
yuan❁6	-11.1681
can❃4	-11.1681
kui❄15	-11.1681
zhang❄3	-11.1681
xie❄43	-11.1681
jia❁4	-11.1681
chao❁19	-11.1681
ti❁4	-11.1681
bu❄34	-11.1681
wu❂18	-11.1681
ti❁7	-11.1681
miao❂5	-11.1682
qi❃11	-11.1682
yu❃26	-11.1682
ying❂43	-11.1682
20	-11.1787
zhen❁4	-11.1918
lve❄9	-11.1919
you❁11	-11.1919
yu❁6	-11.1919
si❁23	-11.1919
ting❁10	-11.192
lun❂20	-11.192
jie❂63	-11.1921
y	-11.1929
lin	-11.1948
❂35	-11.2015
yi❁	-11.2094
shu	-11.2121
ken❃1	-11.2161
hao❃1	-11.2163
die❂65	-11.2163
wa❁20	-11.2163
xi❁74	-11.2163
zai❃5	-11.2163
и	-11.2163
chan❂42	-11.2163
chuan❃1	-11.2163
mei❂27	-11.2163
ting❃9	-11.2163
ma❁0	-11.2163
ba❂19	-11.2163
lun❂4	-11.2163
zhuo❂28	-11.2163
shi❄84	-11.2164
zhou❄22	-11.2164
yi❂87	-11.2164
gu❁4	-11.2164
ju❄74	-11.2164
e❄36	-11.2182
❁10	-11.22
diu❁1	-11.2413
lie❄21	-11.2413
pang❄1	-11.2413
wa❁13	-11.2413
xi❁71	-11.2413
dan❄47	-11.2413
huan❄31	-11.2413
jun❄41	-11.2413
shao❁7	-11.2413
shi❄26	-11.2413
pi❁6	-11.2413
yi❃11	-11.2413
fen❄9	-11.2414
jiao❃46	-11.2414
zi❃9	-11.2414
12	-11.2455
jue❂109	-11.267
mu❃7	-11.267
wang❄1	-11.267
¥	-11.267
Φ	-11.267
い	-11.267
bei❁20	-11.267
mu❄14	-11.267
nie❁0	-11.267
peng❄2	-11.267
fen❁22	-11.267
liu❂17	-11.267
shi❃20	-11.267
du❃14	-11.267
yang❃17	-11.267
zha❄9	-11.267
bao❁10	-11.267
pi❁9	-11.267
meng❂40	-11.267
bi❄87	-11.267
pei❄12	-11.267
man❂21	-11.267
suo❁11	-11.267
35	-11.2715
hong❁21	-11.282
bo	-11.2831
❂15	-11.2917
I	-11.2932
$	-11.2933
tong❂25	-11.2933
bao❁12	-11.2933
juan❄26	-11.2933
sui❃6	-11.2933
zhui❄8	-11.2933
jun❄18	-11.2933
kua❁4	-11.2933
luo❂25	-11.2933
gao❁9	-11.2933
ge❂40	-11.2933
bo❂47	-11.2933
ga❂0	-11.2933
zhan❁17	-11.2933
cha❄11	-11.2933
cu❄16	-11.2933
mao❂25	-11.2933
wan❃13	-11.2933
yan❂69	-11.2933
ban❃2	-11.2933
fu❂77	-11.2934
xun❂42	-11.2934
kun❁	-11.2996
li	-11.307
chen	-11.3114
❄10	-11.3121
gu	-11.3157
diao❄23	-11.3203
lan❂28	-11.3203
shao❂9	-11.3203
ting❁11	-11.3203
yi❄217	-11.3203
si❄32	-11.3203
si❄47	-11.3203
duan❄20	-11.3203
zhang❃3	-11.3203
di❂24	-11.3203
ku❄15	-11.3203
gan❃10	-11.3203
jin❃29	-11.3203
lan❂17	-11.3203
bi❄93	-11.3203
shu❄20	-11.3203
zao❄2	-11.3203
yin❂19	-11.3203
gui❁24	-11.3204
bi❄126	-11.3204
ma❅1	-11.3205
pu❃1	-11.3206
❄13	-11.324
11	-11.3242
❄20	-11.3247
❃4	-11.334
❂29	-11.3351
❃10	-11.3479
can❄8	-11.3481
ce❄21	-11.3481
qing❃10	-11.3481
zha❂7	-11.3481
〖	-11.3481
hui❁18	-11.3481
xie❂37	-11.3481
liu❂23	-11.3481
zhang❁6	-11.3481
qiang❁22	-11.3481
xun❁24	-11.3481
mou❂11	-11.3481
ru❂18	-11.3481
e❄65	-11.3482
zhuan❄16	-11.3482
hai❂6	-11.3766
jian❁58	-11.3767
ㄥ	-11.3767
su❄45	-11.3767
wei❂41	-11.3767
zhan❄21	-11.3767
zhu❄53	-11.3767
rang❃3	-11.3767
ren❄9	-11.3767
wan❃14	-11.3767
biao❁11	-11.3767
ku❁17	-11.3767
tuo❂39	-11.3767
mo❄37	-11.3767
pang❂6	-11.3767
yu❂88	-11.3767
xiao❄9	-11.3768
dai❄13	-11.3768
xiu❄4	-11.3768
❂10	-11.3769
bin	-11.3781
❄12	-11.3863
ku	-11.389
dai❄50	-11.4061
fu❂93	-11.4061
li❄60	-11.4061
peng❁13	-11.4061
re❃1	-11.4061
う	-11.4061
ㄅ	-11.4061
ㄉ	-11.4061
chong❂8	-11.4061
kuang❄6	-11.4061
si❄38	-11.4061
xiao❁62	-11.4061
you❃26	-11.4061
bei❄35	-11.4061
huang❂16	-11.4061
wu❄16	-11.4061
luo❃15	-11.4061
tang❃13	-11.4061
mang❂30	-11.4061
lin❂47	-11.4061
gui❄43	-11.4061
xi❁122	-11.4061
lao❂23	-11.4061
mao❃3	-11.4061
zhen❃14	-11.4061
song❁7	-11.4061
bo❂99	-11.4061
bi❄124	-11.4062
e❂16	-11.4086
❂26	-11.4149
pi❁3	-11.4185
31	-11.4356
xi❁9	-11.436
hao❁1	-11.4363
jian❄39	-11.4364
jian❄72	-11.4364
li❄63	-11.4364
niu❃12	-11.4364
qi❂111	-11.4364
teng❂9	-11.4364
wen❂16	-11.4364
yu❂38	-11.4364
zhong❃0	-11.4364
zhuo❂31	-11.4364
а	-11.4364
ㄙ	-11.4364
qian❄29	-11.4364
luo❂21	-11.4364
zhu❁22	-11.4364
bu❄19	-11.4364
dou❁3	-11.4364
hui❃5	-11.4364
kui❁8	-11.4364
lao❄2	-11.4364
pao❂11	-11.4364
shan❄25	-11.4364
cha❄16	-11.4364
min❃23	-11.4364
zha❄4	-11.4364
liu❁0	-11.4364
ta❁4	-11.4364
shu❁24	-11.4364
dui❄13	-11.4364
rui❄13	-11.4364
fu❃27	-11.4364
wan❃16	-11.4364
ju❃5	-11.4364
mei❄9	-11.4364
qi❂57	-11.4364
huang❂28	-11.4364
yu❄95	-11.4365
jie❄34	-11.4365
zhan❄13	-11.4365
❄11	-11.4468
❁8	-11.467
gun❄2	-11.4676
ji❁74	-11.4676
niu❃4	-11.4676
ying❂51	-11.4676
е	-11.4676
し	-11.4676
ㄕ	-11.4676
yin❂27	-11.4676
cui❄37	-11.4676
jian❁36	-11.4676
yi❃32	-11.4676
chan❃42	-11.4676
jiao❁26	-11.4676
qiao❄12	-11.4676
que❁4	-11.4676
yu❁5	-11.4676
xuan❃6	-11.4676
zhao❄27	-11.4676
yuan❂58	-11.4677
yuan❂21	-11.4677
huang❂38	-11.4677
si❄22	-11.4677
liao❂6	-11.4677
qi❂34	-11.4677
huang❂35	-11.4677
long❂30	-11.4677
hai❄5	-11.4677
gan❁28	-11.4677
kang❄1	-11.4734
❂20	-11.4921
ju❄36	-11.4999
△	-11.4999
zhou❄14	-11.4999
dai❁0	-11.4999
za❂4	-11.4999
jian❃15	-11.4999
yong❄2	-11.4999
hua❄14	-11.4999
zi❁11	-11.4999
ming❂18	-11.4999
hu❂47	-11.4999
bo❁21	-11.4999
lan❃17	-11.4999
ru❃4	-11.4999
shu❄18	-11.4999
sao❁14	-11.4999
li❃14	-11.4999
yan❃30	-11.4999
ya❃4	-11.4999
yu❂74	-11.4999
can❄10	-11.4999
chang❃7	-11.4999
pan❂16	-11.4999
wu❂27	-11.4999
ken❃3	-11.4999
xu❄38	-11.4999
qi❁28	-11.5
wei❁30	-11.5
jian❁68	-11.5
nie❄47	-11.5
zhan❁13	-11.5002
16	-11.5025
xi❃15	-11.5026
zhu	-11.5045
chang❄1	-11.5055
zhe	-11.5056
nian	-11.5085
❁25	-11.5195
ha❄	-11.533
meng❃1	-11.5332
ren	-11.5332
pei❂8	-11.5332
xiu❃0	-11.5332
ye❄55	-11.5332
た	-11.5332
ㄌ	-11.5332
ㄩ	-11.5332
tuo❃1	-11.5332
wu❄28	-11.5332
you❄22	-11.5332
dou❃9	-11.5332
quan❂40	-11.5332
wu❁29	-11.5332
zha❄14	-11.5332
fu❃11	-11.5332
lian❃7	-11.5332
qi❄35	-11.5332
man❂20	-11.5333
mu❄29	-11.5333
qie❄25	-11.5333
shao❄6	-11.5333
che❄20	-11.5333
gui❁6	-11.5333
xun❂19	-11.5333
zhen❁38	-11.5333
gua❁11	-11.5333
yi❄18	-11.5335
❃11	-11.5352
jiang❁2	-11.5371
ya	-11.5396
dai❃	-11.5457
17	-11.5497
❁20	-11.558
❃7	-11.5612
xia	-11.5657
shen	-11.5673
cuan❄4	-11.5677
ji❁111	-11.5677
qi❃30	-11.5677
zhuo❂34	-11.5677
か	-11.5677
ル	-11.5677
xue❁5	-11.5677
yu❂114	-11.5677
zhi❄80	-11.5677
cuo❄17	-11.5677
la❁5	-11.5677
qian❂41	-11.5677
dun❁15	-11.5677
shan❁33	-11.5677
lu❂21	-11.5677
sai❁13	-11.5677
xi❁114	-11.5677
zhou❃7	-11.5677
lu❂45	-11.5677
xi❂23	-11.5677
yang❁10	-11.5677
qi❁13	-11.5677
fu❃20	-11.5677
pie❁1	-11.5677
qi❁19	-11.5677
zhu❃6	-11.5677
fei❃6	-11.5677
III	-11.5678
jue❂38	-11.5678
fu❃36	-11.5678
yuan❂32	-11.5678
jin❁31	-11.5678
qi❂51	-11.5678
jiu❄37	-11.5678
fei❁3	-11.5678
e❄51	-11.5679
dao❃20	-11.5701
an❁32	-11.5711
miao❃	-11.5738
zha	-11.5742
b	-11.5772
ke❁1	-11.5825
duo	-11.5837
yu	-11.5852
❄33	-11.6028
lu	-11.6028
hen❃3	-11.6029
qiang❂13	-11.6034
shan❄50	-11.6034
xu❄63	-11.6034
ying❃22	-11.6034
‰	-11.6034
guai❃0	-11.6034
yan❄37	-11.6034
hao❄29	-11.6034
ping❂30	-11.6034
zi❁21	-11.6034
yin❂41	-11.6034
qu❂37	-11.6034
mang❃8	-11.6034
nian❃9	-11.6034
hui❄94	-11.6034
shuai❁1	-11.6034
xia❂40	-11.6034
gong❃10	-11.6034
xi❃6	-11.6035
chao❂2	-11.6035
yi❄90	-11.6035
zheng❁18	-11.6035
hu❂38	-11.6035
li❂32	-11.6035
xiu❁17	-11.6035
ao❂34	-11.6035
que❄34	-11.6035
qi❂56	-11.6035
nve❄6	-11.6035
luan❂17	-11.6035
ming❂6	-11.6036
xuan❄16	-11.6037
shu❄30	-11.6038
❂13	-11.6094
ao❄10	-11.6158
❄27	-11.62
mi	-11.6211
zhi	-11.6302
42	-11.6325
❃17	-11.6332
lan❃14	-11.6405
rui❃3	-11.6405
xi❄70	-11.6405
yu❄108	-11.6405
zuo❄8	-11.6405
〗	-11.6405
ㄢ	-11.6405
gou❄9	-11.6405
pou❁1	-11.6405
zao❄15	-11.6405
bang❃6	-11.6405
ban❄10	-11.6405
cao❂11	-11.6405
fan❄24	-11.6405
tu❁13	-11.6405
yu❄53	-11.6405
dou❄12	-11.6405
di❂21	-11.6405
jian❄67	-11.6405
liao❄6	-11.6405
jia❂19	-11.6405
song❄7	-11.6405
chui❁2	-11.6405
zhuo❁7	-11.6405
pi❄9	-11.6405
feng❁29	-11.6405
gui❃25	-11.6405
yan❁30	-11.6405
zhuo❂16	-11.6405
chi❃21	-11.6405
zhi❄52	-11.6405
pi❂11	-11.6405
jue❂58	-11.6406
yong❃24	-11.6406
chu❂43	-11.6407
jing❁39	-11.6458
di	-11.6474
cu	-11.6581
t	-11.6624
pi❂	-11.6778
lv❂1	-11.6788
er❃20	-11.6789
hui❄53	-11.6789
jian❄41	-11.6789
jian❄70	-11.6789
ju❄50	-11.6789
lan❂21	-11.6789
qian❄28	-11.6789
zang❁3	-11.6789
zao❁5	-11.6789
な	-11.6789
る	-11.6789
ㄛ	-11.6789
ㄤ	-11.6789
gou❃10	-11.6789
pei❁7	-11.6789
ying❁45	-11.6789
za❂6	-11.6789
juan❄21	-11.6789
qing❂14	-11.6789
wai❁4	-11.6789
shu❁40	-11.6789
wei❁16	-11.6789
duo❂13	-11.6789
zhu❁28	-11.6789
jia❂33	-11.6789
yi❁17	-11.6789
mi❂39	-11.6789
guan❁7	-11.679
fu❂42	-11.679
mian❃24	-11.679
li❄126	-11.679
mei❄6	-11.679
mo❄35	-11.679
mu❄23	-11.679
chou❂44	-11.679
qin❂32	-11.679
zi❄9	-11.679
bo❂91	-11.679
xun❄13	-11.6791
zhen❁33	-11.6791
zhan❄16	-11.6791
lai❂1	-11.6812
ke	-11.6846
22	-11.6851
25	-11.6857
❂33	-11.6911
❄2	-11.6918
ou❃7	-11.6921
chi	-11.6929
❁7	-11.6959
❄14	-11.7037
hu❃4	-11.7189
e❄94	-11.7189
ji❁75	-11.7189
lao❄4	-11.7189
lei❃27	-11.7189
peng❂19	-11.7189
shua❃0	-11.7189
tui❄7	-11.7189
xi❁133	-11.7189
zhao❃4	-11.7189
zhi❂5	-11.7189
φ	-11.7189
ま	-11.7189
ス	-11.7189
ㄚ	-11.7189
ㄡ	-11.7189
bang❄19	-11.7189
lun❂15	-11.7189
wei❄24	-11.7189
huang❁6	-11.7189
bian❃2	-11.7189
cuo❄7	-11.7189
mi❁0	-11.7189
sheng❁19	-11.7189
shen❁30	-11.7189
chi❃13	-11.7189
du❃9	-11.7189
li❃31	-11.7189
gu❄21	-11.7189
kuang❁5	-11.7189
cheng❂26	-11.7189
qi❃23	-11.719
fu❁17	-11.719
jiao❁36	-11.719
lou❂15	-11.719
wei❂28	-11.719
tao❁27	-11.719
ba❃4	-11.719
zhi❄75	-11.719
ou❃5	-11.7213
xi❃13	-11.7231
cuo❁	-11.7257
18	-11.7281
❁28	-11.7296
❂14	-11.7303
❁33	-11.7341
❄16	-11.7389
15	-11.7431
❄4	-11.7437
cha	-11.7446
gen	-11.7476
ge❁	-11.7544
❃3	-11.7546
chao❁6	-11.7606
chi❄37	-11.7606
gui❃33	-11.7606
lou❄8	-11.7606
lu❄90	-11.7606
men❄7	-11.7606
ni❂7	-11.7606
wen❄4	-11.7606
xing❁14	-11.7606
с	-11.7606
•	-11.7606
lei❃22	-11.7606
mu❄18	-11.7606
qin❃5	-11.7606
xu❁15	-11.7606
you❂31	-11.7606
jing❄36	-11.7606
huan❄12	-11.7606
liu❂21	-11.7606
qiong❂29	-11.7606
zhong❁25	-11.7606
ni❄9	-11.7606
kui❄11	-11.7606
yan❄27	-11.7606
ben❄13	-11.7606
na❄17	-11.7606
mo❄70	-11.7606
fen❂14	-11.7606
di❂29	-11.7606
shi❄79	-11.7606
wei❃23	-11.7606
ya❂10	-11.7606
zhuo❁6	-11.7606
man❃7	-11.7606
ji❁61	-11.7606
yi❄112	-11.7606
lai❄5	-11.7606
he❂55	-11.7606
mo❄55	-11.7607
qiao❂13	-11.7607
xun❂37	-11.7607
long❂44	-11.7607
jiao❁44	-11.7607
jiu❄38	-11.7607
dou❃3	-11.7608
bao❄14	-11.7608
ou❁22	-11.7615
❄6	-11.7684
huan❂15	-11.7716
13	-11.776
ni	-11.782
du	-11.7836
ang❄2	-11.785
hao❄17	-11.7884
ji❂7	-11.8036
ding❄1	-11.8039
e❄91	-11.8041
fa❄1	-11.8041
kai❃8	-11.8041
lian❂38	-11.8041
qing❄12	-11.8041
zan❁2	-11.8041
き	-11.8041
ㄇ	-11.8041
ㄓ	-11.8041
chan❂46	-11.8041
fan❂30	-11.8041
qian❄8	-11.8041
qia❄11	-11.8041
qiu❂18	-11.8041
zhou❄16	-11.8041
you❄24	-11.8041
e❂15	-11.8041
nao❃14	-11.8041
shu❁16	-11.8041
suo❃14	-11.8041
bo❂43	-11.8041
ying❂26	-11.8041
ti❂13	-11.8041
yi❄192	-11.8041
li❂76	-11.8041
ji❂66	-11.8041
jiao❄36	-11.8041
mo❂18	-11.8042
ju❄66	-11.8042
ai❄33	-11.8042
chan❄16	-11.8042
huan❄16	-11.8043
ao❂15	-11.8056
tuo❂1	-11.8105
❃15	-11.815
bi	-11.8164
❁9	-11.8165
❄17	-11.817
chuo❄27	-11.8172
ch	-11.8188
29	-11.8211
di❃2	-11.8241
p	-11.8317
fu	-11.8322
li❄1	-11.8477
ji❁5	-11.8491
e❄98	-11.8495
kai❃10	-11.8495
lan❄4	-11.8495
leng❂5	-11.8495
qi❂114	-11.8495
reng❁0	-11.8495
rou❂1	-11.8495
zhao❁10	-11.8495
§	-11.8495
く	-11.8495
こ	-11.8495
リ	-11.8495
ロ	-11.8495
ㄊ	-11.8495
bie❁8	-11.8495
yong❁23	-11.8495
lian❂31	-11.8495
qiao❄8	-11.8495
yong❁27	-11.8495
sha❃0	-11.8495
chi❄32	-11.8495
du❃8	-11.8495
lv❃24	-11.8495
pan❄11	-11.8495
nian❄3	-11.8495
yin❄19	-11.8495
hui❄73	-11.8495
yang❄10	-11.8495
yi❄203	-11.8495
nao❃11	-11.8495
xia❂16	-11.8495
xiao❁30	-11.8495
gu❁16	-11.8495
ya❂20	-11.8495
ji❃14	-11.8495
shi❁28	-11.8495
ya❄13	-11.8495
tang❁10	-11.8495
biao❁37	-11.8495
zhe❄7	-11.8495
qi❄26	-11.8496
zi❃12	-11.8496
mao❂15	-11.8496
chuo❁1	-11.8496
zeng❁3	-11.8496
li❂72	-11.8496
pu❂14	-11.8496
fu❂80	-11.8496
mou❂13	-11.8496
shi❄48	-11.8496
gang❁27	-11.8496
xu❁26	-11.8496
ju❁26	-11.8496
wo❁0	-11.8496
xie❂23	-11.8496
zhe❂45	-11.8497
fu❂23	-11.8497
ting❂6	-11.8497
cao❁4	-11.8497
ying❂42	-11.8497
ding❄19	-11.8498
jie❂6	-11.8518
❃9	-11.8594
yi	-11.8621
28	-11.873
34	-11.877
nai❄	-11.8798
an❄24	-11.8807
tu	-11.8843
cha❂2	-11.8851
chi❁2	-11.8857
xie	-11.8914
yan❃	-11.893
ba❁2	-11.8962
ban❁20	-11.8971
chun❁9	-11.8971
ga❂1	-11.8971
ping❁0	-11.8971
qie❄15	-11.8971
shun❄7	-11.8971
wa❁4	-11.8971
ye❄57	-11.8971
zuan❃5	-11.8971
к	-11.8971
р	-11.8971
□	-11.8971
さ	-11.8971
ん	-11.8971
ㄝ	-11.8971
ㄟ	-11.8971
bian❃13	-11.8971
huang❂47	-11.8971
tan❂16	-11.8971
cong❁12	-11.8971
tao❁17	-11.8971
fu❂32	-11.8971
kui❁7	-11.8971
tun❃1	-11.8971
huang❃10	-11.8971
hui❁13	-11.8971
shen❁31	-11.8971
wu❄19	-11.8971
ya❁5	-11.8971
xuan❄18	-11.8971
xiao❁20	-11.8971
fen❄13	-11.8971
ya❂14	-11.8971
hui❄97	-11.8972
juan❁7	-11.8972
bo❁20	-11.8972
yi❄195	-11.8972
bo❂67	-11.8972
zhen❁28	-11.8972
ji❄100	-11.8972
li❄142	-11.8972
ling❂0	-11.8972
mo❄61	-11.8972
yan❄66	-11.8972
qiu❂48	-11.8972
yun❂20	-11.8972
qi❂81	-11.8972
zhuo❂48	-11.8972
bi❄57	-11.8972
shu❄31	-11.8972
rong❂25	-11.8972
gu❃56	-11.8972
zhe❂44	-11.8972
duan❄15	-11.8972
fu❂87	-11.8972
ying❂44	-11.8973
zhi❄36	-11.8973
po❄16	-11.8973
tang❂31	-11.8973
fang❂3	-11.8973
qi❂64	-11.8973
kan	-11.8976
kuang❄11	-11.8981
pa❂	-11.9012
ao❂26	-11.9014
ge❁2	-11.9017
ru	-11.9231
sao❁	-11.9236
❄19	-11.9272
uan❁3	-11.929
❂43	-11.9388
chan	-11.9441
38	-11.9442
fei	-11.9446
shu❂	-11.9462
gao❁1	-11.9466
lv❃	-11.9467
i❂31	-11.9468
sui❁	-11.9471
ban❁5	-11.9471
hui❄84	-11.9471
jian❃29	-11.9471
lv❂7	-11.9471
pang❁2	-11.9471
pu❄0	-11.9471
xian❄49	-11.9471
в	-11.9471
н	-11.9471
─	-11.9471
ラ	-11.9471
bang❃5	-11.9471
feng❁33	-11.9471
he❁11	-11.9471
pian❁8	-11.9471
cuo❄4	-11.9471
jiu❁27	-11.9471
juan❁24	-11.9471
dou❄19	-11.9471
mi❂44	-11.9471
bi❃30	-11.9471
yang❂24	-11.9471
meng❂29	-11.9471
wei❁27	-11.9471
zhou❄18	-11.9471
tan❁14	-11.9471
du❄6	-11.9471
la❂0	-11.9471
bao❄5	-11.9471
mu❄8	-11.9472
bo❁25	-11.9472
mei❂39	-11.9472
qian❁10	-11.9472
mei❂34	-11.9472
jiao❁37	-11.9472
pan❂12	-11.9472
ling❂75	-11.9472
qiu❂57	-11.9472
jun❄25	-11.9472
yuan❂39	-11.9472
dao❄5	-11.9472
wo❁9	-11.9473
bo❂7	-11.9484
❄21	-11.9531
w	-11.9588
cheng	-11.9612
a❁1	-11.9636
jia❁3	-11.9649
lu❄4	-11.9661
du❂2	-11.967
❂40	-11.9784
39	-11.9832
ai❄43	-11.9863
❁3	-11.9872
❃5	-11.9946
an❁17	-11.9949
❁19	-11.9985
ming❂	-11.9991
li❄9	-11.9996
mie❄1	-11.9996
`	-11.9998
cen❂7	-11.9998
mu❃5	-11.9998
━	-11.9998
が	-11.9998
に	-11.9998
イ	-11.9998
ク	-11.9998
ト	-11.9998
ㄣ	-11.9998
che❃8	-11.9998
po❁4	-11.9998
chong❂13	-11.9998
geng❁16	-11.9998
mei❄24	-11.9998
qian❂39	-11.9998
xian❂31	-11.9998
chou❂25	-11.9998
shu❃22	-11.9998
ji❄127	-11.9998
zhen❄26	-11.9998
cheng❄1	-11.9998
tan❃8	-11.9998
kuo❄5	-11.9998
li❄134	-11.9998
wu❄11	-11.9998
ji❄44	-11.9998
xiao❁23	-11.9998
chou❂34	-11.9998
yun❂30	-11.9998
xie❁4	-11.9998
zhu❃11	-11.9998
bin❁20	-11.9998
hui❄95	-11.9998
xing❂15	-11.9998
lan❃11	-11.9998
chang❂25	-11.9998
lao❄10	-11.9998
yong❃5	-11.9998
yuan❂23	-11.9998
jin❄50	-11.9999
li❂48	-11.9999
lian❂73	-11.9999
ji❁58	-12
hou❃2	-12.003
biao❁4	-12.0061
gao❃	-12.0092
liu	-12.0098
32	-12.0146
ye❄3	-12.0164
bi❄12	-12.0173
❂34	-12.0257
sha	-12.0278
❁11	-12.0331
an❁30	-12.0357
an❃7	-12.0393
gong❁3	-12.0551
ju❄7	-12.0552
he❄12	-12.0553
ai❁7	-12.0553
V	-12.0553
cou❄0	-12.0553
hu❂49	-12.0553
jiao❂0	-12.0553
ju❄58	-12.0553
mi❄51	-12.0553
rong❃4	-12.0553
shao❂7	-12.0553
sou❄0	-12.0553
tong❂32	-12.0553
zuo❄15	-12.0553
│	-12.0553
と	-12.0553
は	-12.0553
・	-12.0553
ㄐ	-12.0553
ying❃20	-12.0553
gang❄3	-12.0553
huang❂41	-12.0553
luan❂32	-12.0553
lu❃20	-12.0553
mei❂23	-12.0553
bing❃14	-12.0553
kang❁12	-12.0553
shan❄32	-12.0553
xuan❁26	-12.0553
pu❃8	-12.0553
yin❁14	-12.0553
han❂34	-12.0553
jing❄28	-12.0553
bin❁13	-12.0553
xiao❃7	-12.0553
xia❂24	-12.0553
lu❂49	-12.0553
ji❄56	-12.0553
lan❃24	-12.0553
duo❄10	-12.0553
ne❄7	-12.0554
lin❃4	-12.0554
nao❂10	-12.0554
li❂60	-12.0554
jiao❄34	-12.0554
ling❂79	-12.0554
liao❂9	-12.0554
qiao❂22	-12.0554
ling❂76	-12.0554
qi❂75	-12.0555
qi❂52	-12.0555
qi❂63	-12.0556
mian❃11	-12.0556
cui❄1	-12.0617
yan	-12.0633
ru❂1	-12.0688
an❃11	-12.075
❂16	-12.0765
jing❁2	-12.0818
tang❃	-12.088
dong❁	-12.0981
tuo❂	-12.1001
luan❂1	-12.1019
❄18	-12.1041
❄9	-12.1054
han	-12.1057
26	-12.1069
❁21	-12.1082
duo❁	-12.1131
xiu❄	-12.1133
ci❄	-12.1141
biao❃6	-12.1141
er❃9	-12.1141
han❄37	-12.1141
li❂51	-12.1141
pao❄4	-12.1141
sun❁6	-12.1141
ze❄1	-12.1141
み	-12.1141
り	-12.1141
ア	-12.1141
ㄏ	-12.1141
diao❁21	-12.1141
diao❁6	-12.1141
liu❂48	-12.1141
hua❂25	-12.1141
ye❁5	-12.1141
qin❂13	-12.1141
wu❂31	-12.1141
cui❁9	-12.1141
du❂19	-12.1141
ci❄19	-12.1142
jing❁12	-12.1142
di❄34	-12.1142
guang❁17	-12.1142
yao❂51	-12.1142
qin❂21	-12.1142
quan❂42	-12.1142
she❄30	-12.1142
chu❂19	-12.1142
wu❁25	-12.1142
du❃7	-12.1142
na❄13	-12.1142
xi❁57	-12.1142
ni❄18	-12.1142
tao❂8	-12.1142
ge❁14	-12.1142
wu❂19	-12.1142
fu❃29	-12.1142
jing❄45	-12.1142
shu❂14	-12.1142
ling❂35	-12.1142
ji❁9	-12.1142
tun❂5	-12.1142
yu❄120	-12.1142
ju❁44	-12.1142
zhan❁9	-12.1142
luo❄28	-12.1142
zhi❄119	-12.1142
gao❄9	-12.1143
hui❁27	-12.1143
dai❄19	-12.1143
zhou❄39	-12.1143
huang❂32	-12.1143
huo❄52	-12.1143
gong❁34	-12.1144
xi❁83	-12.1144
miao❃4	-12.1146
jie❂61	-12.1146
ke❁11	-12.1148
zhe❃	-12.1187
you	-12.1195
❁1	-12.1202
jiu❃14	-12.1211
e❄6	-12.1238
qiang❁	-12.124
we	-12.1261
36	-12.1265
qian❁	-12.1301
jue❂	-12.1316
dian❄3	-12.1327
lai❄1	-12.1329
ji❁3	-12.1336
❂18	-12.1386
di❄4	-12.14
❄26	-12.1416
❂	-12.1449
xuan❂1	-12.1455
suo❁	-12.1477
❁27	-12.1485
sai❁	-12.1519
ben❁	-12.1549
qi❄5	-12.1642
❃1	-12.1642
xi❁8	-12.1758
dong❄1	-12.176
M	-12.1766
bao❃21	-12.1766
dong❄9	-12.1766
gao❄12	-12.1766
qiong❁1	-12.1766
ran❃8	-12.1766
weng❄0	-12.1766
yan❄55	-12.1766
お	-12.1766
も	-12.1766
ド	-12.1766
ㄒ	-12.1766
peng❂17	-12.1766
bu❄24	-12.1766
dang❄8	-12.1766
juan❁22	-12.1766
ying❁40	-12.1766
you❂46	-12.1766
cuo❄6	-12.1766
ke❁22	-12.1766
xi❁139	-12.1766
you❁13	-12.1766
deng❄2	-12.1767
long❃4	-12.1767
tai❄8	-12.1767
yu❁12	-12.1767
liao❃11	-12.1767
xi❁54	-12.1767
yan❂26	-12.1767
hun❂20	-12.1767
gui❁39	-12.1767
ba❄17	-12.1767
lan❂57	-12.1767
shan❄40	-12.1767
tun❂9	-12.1767
yao❂47	-12.1767
zhu❁5	-12.1767
zhe❄12	-12.1767
ling❂74	-12.1767
bai❃1	-12.1767
xie❄53	-12.1768
chu❃6	-12.1768
kou❄14	-12.1768
xun❂28	-12.1768
zhi❄51	-12.1768
xiong❁6	-12.1768
yi❄176	-12.1768
jiao❃66	-12.1768
ding❁4	-12.1768
wang❃11	-12.1768
huang❂23	-12.1769
yi❄102	-12.1769
lu❄43	-12.177
❄15	-12.1831
ju❃1	-12.1839
jue❂5	-12.1847
jiu❄3	-12.1857
jing❁34	-12.1864
ti❄	-12.1866
ma❂	-12.1888
❄31	-12.189
hua	-12.189
e❂31	-12.1899
yong❃2	-12.1902
shuo❄1	-12.1902
quan❂	-12.1971
huan❄2	-12.1985
wo❄1	-12.1993
long❂3	-12.2034
jie❁2	-12.2037
❃28	-12.2099
zhu❄3	-12.2202
❁24	-12.2215
bu❃	-12.2233
lin❂1	-12.2246
nuo❂	-12.2314
wei❃	-12.2339
xuan	-12.2344
❂24	-12.2347
qu❁	-12.2403
n❃12	-12.2405
dong❄2	-12.2428
ji❂9	-12.2428
xiu❄1	-12.2428
ma❅	-12.243
kan❃1	-12.2431
T	-12.2433
bang❁11	-12.2433
chuai❁0	-12.2433
cuan❄7	-12.2433
jian❃27	-12.2433
ji❁76	-12.2433
ji❄85	-12.2433
lou❄3	-12.2433
rang❂5	-12.2433
tong❂31	-12.2433
xia❂12	-12.2433
zhi❃33	-12.2433
δ	-12.2433
ィ	-12.2433
ㄜ	-12.2433
ㄞ	-12.2433
er❄15	-12.2433
fu❁48	-12.2433
hong❂28	-12.2433
sao❃2	-12.2433
xie❄64	-12.2433
chan❃45	-12.2433
xiao❁64	-12.2433
zao❃6	-12.2433
kou❄4	-12.2433
lian❂41	-12.2433
jiang❃11	-12.2433
jiang❄19	-12.2433
long❃9	-12.2433
cheng❃8	-12.2433
nie❄33	-12.2433
guang❄5	-12.2433
yu❄45	-12.2433
qiao❃4	-12.2433
qu❁42	-12.2433
sha❁27	-12.2433
di❂14	-12.2433
ke❄16	-12.2433
ting❂23	-12.2433
li❄112	-12.2433
qing❂7	-12.2433
ning❂16	-12.2433
yan❃12	-12.2433
yu❂77	-12.2433
ren❂5	-12.2434
ling❂55	-12.2434
zheng❁30	-12.2434
wei❃38	-12.2434
yan❃11	-12.2434
chu❃7	-12.2434
kui❄5	-12.2434
fu❂52	-12.2434
qiu❁28	-12.2434
tian❂10	-12.2434
yi❂77	-12.2434
yi❄71	-12.2434
suo❁16	-12.2434
shan❁4	-12.2435
cui❄26	-12.2435
bi❄59	-12.2435
tuo❄4	-12.2435
mo❂21	-12.2435
jiao❃41	-12.2435
kui❂9	-12.2435
xun❂44	-12.2435
luan❂19	-12.2435
zhen❁31	-12.2436
han❄23	-12.2436
jian❃6	-12.2437
❁0	-12.2438
ken❃13	-12.2442
he❂3	-12.2444
ban❁13	-12.2446
yu❄6	-12.2453
fei❁1	-12.2465
❁18	-12.247
❂37	-12.2529
❁4	-12.2533
uo❂5	-12.2554
e❄34	-12.2557
zi❁	-12.2578
wo❁	-12.2596
❂21	-12.2617
gu❃2	-12.2641
dan❁	-12.2642
qi❂6	-12.2667
ying❁	-12.2669
li❄5	-12.267
mi❄4	-12.2675
xian❁3	-12.2701
yu❃2	-12.2709
o❁0	-12.2715
shu❁3	-12.2731
han❄2	-12.2739
tu❂3	-12.2756
chi❁3	-12.2759
nie❄	-12.2794
yang	-12.2809
chi❂1	-12.2821
you❄1	-12.2935
she	-12.2979
ng❁10	-12.3056
da	-12.3114
yuan❄1	-12.3142
xun❂4	-12.3142
ce❄1	-12.3144
fei❂	-12.3144
bi❄7	-12.3145
han❁11	-12.3147
chuo❄24	-12.3147
fang❃16	-12.3147
kun❃5	-12.3147
lu❄36	-12.3147
qiang❃5	-12.3147
qun❂5	-12.3147
yuan❁29	-12.3147
zhuo❂51	-12.3147
す	-12.3147
ら	-12.3147
れ	-12.3147
ウ	-12.3147
ッ	-12.3147
レ	-12.3147
kai❃17	-12.3147
tan❂25	-12.3147
xian❃38	-12.3147
yin❃26	-12.3147
fan❁5	-12.3147
juan❄35	-12.3147
wei❃52	-12.3147
yu❄132	-12.3147
chi❃30	-12.3147
guai❁3	-12.3147
lou❄7	-12.3147
tao❁13	-12.3147
wei❂19	-12.3147
xian❂21	-12.3147
beng❄10	-12.3147
min❂14	-12.3147
quan❂45	-12.3147
su❄26	-12.3147
bian❄28	-12.3147
guan❁11	-12.3147
cheng❂34	-12.3147
fei❃13	-12.3147
song❁17	-12.3147
dan❁34	-12.3148
sheng❁13	-12.3148
hui❄66	-12.3148
hui❄86	-12.3148
kan❁11	-12.3148
dan❁28	-12.3148
nian❃2	-12.3148
pi❃12	-12.3148
shu❄24	-12.3148
ti❄25	-12.3148
ge❂35	-12.3148
jing❁19	-12.3148
chen❂16	-12.3148
jiao❄26	-12.3148
pi❁26	-12.3148
ming❂20	-12.3148
ji❄32	-12.3148
bi❃11	-12.3148
shen❁25	-12.3148
rui❄15	-12.3148
yao	-12.3148
shi❄27	-12.3148
bin❁10	-12.3148
shi❄39	-12.3148
qian❁60	-12.3148
xu❁10	-12.3148
qiao❂18	-12.3148
ju❁42	-12.3148
fu❄76	-12.3148
zhen❄19	-12.3149
sui❄46	-12.3149
dai❄23	-12.3149
pu❂12	-12.3149
hui❂8	-12.3149
ding❁9	-12.3149
wen❁	-12.3149
lei❂29	-12.3149
gan❁20	-12.3149
zhi❄79	-12.3149
jie❁7	-12.3149
di❃23	-12.3152
gu❃6	-12.3165
gan❁2	-12.3207
bao	-12.3219
zhu❁3	-12.3225
❄29	-12.3234
wu	-12.3245
wei❁3	-12.325
mian❃1	-12.3266
yan❃4	-12.3273
dang❄1	-12.33
❄35	-12.3309
jiao❄1	-12.3344
❄78	-12.3411
❂45	-12.3432
shang❁	-12.3464
wu❃	-12.3504
lian	-12.3516
jie❁	-12.3517
lou❂	-12.3519
ying	-12.3537
ao❄17	-12.3609
hui	-12.3629
le	-12.3659
44	-12.3662
hu❃6	-12.3674
24	-12.372
chang	-12.3727
❄8	-12.3744
xin❁	-12.3756
wu❃2	-12.3829
piao❁	-12.3835
bian❄	-12.3845
wei	-12.3852
juan❁1	-12.3856
tong❂1	-12.3911
xi❁6	-12.3915
qiong❂	-12.3916
chu❃18	-12.3917
dian❁14	-12.3917
dian❁4	-12.3917
huang❃21	-12.3917
ji❁70	-12.3917
li❄133	-12.3917
lu❄50	-12.3917
man❂30	-12.3917
miu❄1	-12.3917
shou❄11	-12.3917
wen❂25	-12.3917
yao❂38	-12.3917
yin❃21	-12.3917
zai❁6	-12.3917
zhuo❂9	-12.3917
zhu❄51	-12.3917
Ф	-12.3917
т	-12.3917
※	-12.3917
ガ	-12.3917
テ	-12.3917
ㄈ	-12.3917
qing❄11	-12.3917
zuo❄14	-12.3917
tang❂17	-12.3917
yi❃21	-12.3917
yang❁16	-12.3917
jiu❃9	-12.3917
ya❂19	-12.3917
she❁1	-12.3917
shu❄23	-12.3917
tuo❃6	-12.3917
bian❁7	-12.3917
biao❁29	-12.3917
dun❄17	-12.3917
chai❁4	-12.3917
ju❃20	-12.3917
chen❁14	-12.3917
qian❄22	-12.3917
mao❄20	-12.3917
zhi❁45	-12.3917
ru❂21	-12.3917
mei❄20	-12.3917
xuan❁6	-12.3917
qiao❄6	-12.3917
yuan❁30	-12.3917
bi❄49	-12.3917
duo❄16	-12.3917
e❄100	-12.3917
guan❃10	-12.3917
lin❄12	-12.3917
bi❃10	-12.3917
jiong❃14	-12.3917
lang❂35	-12.3917
li❄154	-12.3917
yun❃17	-12.3917
hu❄40	-12.3917
chui❂7	-12.3917
duan❄9	-12.3917
sou❃7	-12.3917
kui❂27	-12.3917
kao❃2	-12.3917
pu❂17	-12.3918
ba❁18	-12.3918
gong❃15	-12.3918
li❃25	-12.3918
he❂67	-12.3918
yi❂75	-12.3918
tai❂22	-12.3919
fu❂7	-12.3919
si❁15	-12.3919
zhan❃12	-12.3919
lao❃7	-12.3919
wei❃44	-12.3919
zhi❃21	-12.3919
cun❁3	-12.392
ai❃	-12.3927
yu❂8	-12.3929
e❂61	-12.3938
zhan❄1	-12.3972
wei❃4	-12.398
yan❁4	-12.3989
gu❃4	-12.4013
jie❄3	-12.4018
jiao❁4	-12.4048
kui❂	-12.4049
guo❃	-12.4067
song❃1	-12.408
huan❂1	-12.408
kua❄	-12.4081
❂4	-12.4084
wan❁	-12.4085
ying❂	-12.4088
wang❃	-12.4104
❄52	-12.4116
ting❂	-12.4136
quan	-12.4143
bi❄13	-12.415
wan❃2	-12.4151
jing❄	-12.4153
cha❂1	-12.416
❁16	-12.4223
❄39	-12.4225
ni❃1	-12.4239
di❄5	-12.4241
❄48	-12.4244
guang❁	-12.4244
su	-12.4253
yao❁	-12.4266
yun❂	-12.4324
pan❂	-12.435
gu❁2	-12.4371
lao❃	-12.4374
ben❄	-12.4425
ju❁2	-12.4439
gu❄1	-12.4496
ang❃2	-12.4513
an❂12	-12.4531
fei❁	-12.4579
❃2	-12.4601
zi❁4	-12.4605
47	-12.4616
jie❂4	-12.4645
ang❃8	-12.4689
ao❂8	-12.472
yi❄10	-12.4741
xiao❁	-12.4741
cun❁	-12.4743
heng❂1	-12.4744
xun❄1	-12.4744
er❃1	-12.4747
❃0	-12.4749
jie❄40	-12.475
ying❁66	-12.475
yi❄224	-12.475
ل	-12.475
を	-12.475
シ	-12.475
ジ	-12.475
タ	-12.475
ㄍ	-12.475
ㄔ	-12.475
bei❄62	-12.475
jin❄63	-12.475
yi❄216	-12.475
chong❁13	-12.475
gun❃16	-12.475
lang❂26	-12.475
bang❄17	-12.475
zhang❄4	-12.475
zhuo❁10	-12.475
xie❄49	-12.475
fan❄18	-12.475
qian❂31	-12.475
lei❂10	-12.475
ren❄22	-12.475
xiang❃13	-12.475
xiao❁15	-12.475
rang❃4	-12.475
die❂61	-12.475
deng❄7	-12.475
zhong❁16	-12.475
zhu❁21	-12.475
ji❄123	-12.475
yang❂20	-12.475
zhe❄17	-12.475
chi❄20	-12.475
ling❂38	-12.475
jiong❃19	-12.475
xin❁11	-12.4751
jiu❄21	-12.4751
gou❁11	-12.4752
huang❂26	-12.4752
yong❁12	-12.4752
xun❄15	-12.4752
bei❄42	-12.4753
tang❃5	-12.4753
yi❃	-12.4754
jian❁6	-12.4755
27	-12.4756
bo❂5	-12.4757
❁6	-12.4762
mo❂1	-12.4767
rao❂	-12.4775
che❄2	-12.478
wu❃1	-12.4789
pao❂	-12.4792
❂23	-12.4796
he❂2	-12.4802
41	-12.4812
tuo❄	-12.4814
jin❄5	-12.482
zhang❁1	-12.4825
❃13	-12.4844
zhen❁3	-12.485
❄1	-12.4851
mei❂1	-12.4862
❄30	-12.4874
po❄1	-12.489
gua❁1	-12.4891
yao❃	-12.4917
48	-12.4919
hao	-12.4923
zun❁	-12.4929
bang❄2	-12.4934
sun❃	-12.4935
ju❄6	-12.4943
tian	-12.4955
❄43	-12.499
huang❂2	-12.5018
❂8	-12.5021
tiao❄	-12.5061
li❂4	-12.5062
bei❄2	-12.5081
wu❄3	-12.5086
ke❁3	-12.5088
luo❃	-12.5102
li❃	-12.5132
ao❂22	-12.5133
shan❁2	-12.5164
fu❄4	-12.5168
gui❁2	-12.525
zi❃	-12.5255
dan❄3	-12.5256
jun❄2	-12.5282
hai❂8	-12.5284
si❁1	-12.5287
fu❂2	-12.5316
kuai❄2	-12.5353
uo❄21	-12.5358
mi❄2	-12.5416
ai❄3	-12.5453
jian❁	-12.5469
ge	-12.5474
han❁6	-12.5479
ma	-12.5512
kang❄	-12.5548
an❄38	-12.5571
kui	-12.5584
zhong❁	-12.5584
min	-12.5606
❃31	-12.5615
an❃10	-12.5641
cong❂	-12.5644
19	-12.5645
xun❂1	-12.5649
fang❂	-12.565
zhi❄7	-12.5655
bi❄6	-12.5656
❄32	-12.5656
wa❃	-12.5657
zhi❄10	-12.5658
qi❂10	-12.5658
kuan❁	-12.5658
suo❃	-12.5658
chun❂29	-12.5659
dang❁15	-12.5659
jian❃45	-12.5659
lan❂23	-12.5659
mang❃10	-12.5659
qie❄17	-12.5659
qiu❁34	-12.5659
shou❄17	-12.5659
tui❂16	-12.5659
xian❄54	-12.5659
ying❁43	-12.5659
you❂49	-12.5659
zang❁8	-12.5659
zan❄20	-12.5659
zhui❄14	-12.5659
ا	-12.5659
┼	-12.5659
ち	-12.5659
つ	-12.5659
や	-12.5659
エ	-12.5659
デ	-12.5659
マ	-12.5659
diao❁26	-12.5659
fan❂46	-12.5659
tuan❃3	-12.5659
zhong❃9	-12.5659
diao❁7	-12.5659
feng❃3	-12.5659
hong❁6	-12.5659
lang❂15	-12.5659
huai❂14	-12.5659
tang❁15	-12.5659
yi❄150	-12.5659
hua❂30	-12.5659
liu❂39	-12.5659
ban❃14	-12.5659
niao❄3	-12.5659
zao❃10	-12.5659
zhi❄82	-12.5659
ji❄126	-12.5659
dian❄11	-12.5659
zhu❃16	-12.5659
xi❁113	-12.5659
sheng❁17	-12.5659
zhi❃12	-12.5659
she❄16	-12.5659
ying❁29	-12.5659
yao❄21	-12.5659
bi❄15	-12.5659
cheng❁33	-12.5659
quan❂28	-12.5659
shan❄28	-12.5659
liao❂10	-12.5659
xing❁10	-12.5659
jin❃23	-12.566
jiong❃23	-12.566
gao❃17	-12.566
jin❃12	-12.566
gui❁44	-12.566
kang❁7	-12.566
shen❁10	-12.566
jiao❁34	-12.566
yi❄177	-12.5661
liang❄7	-12.5661
xi❁108	-12.5661
qian❁62	-12.5661
bei❄29	-12.5661
luo❄21	-12.5661
ying❂46	-12.5662
tong❂18	-12.5662
han❄28	-12.5662
sha❁13	-12.5662
gan❁26	-12.5662
luan❂14	-12.5663
zhang❁12	-12.5663
yan❁42	-12.5663
e❄7	-12.5666
fu❂8	-12.5669
nve❄	-12.5691
huan❄14	-12.5692
zhou❄3	-12.57
an❂17	-12.5701
k	-12.5713
gou❄2	-12.5735
❄47	-12.5744
❄41	-12.5754
hong❁15	-12.5755
san❁	-12.5755
long❂4	-12.5755
xian	-12.5797
pai❄	-12.5807
jian❁4	-12.5819
❂28	-12.5822
bu	-12.5837
fen❁1	-12.5842
hao❂	-12.5864
dian❄2	-12.5877
e❂49	-12.5885
zhi❄3	-12.5889
ying❂4	-12.5894
min❃1	-12.5909
i❂81	-12.591
❁26	-12.5973
❂27	-12.5993
ai❁4	-12.6035
❃14	-12.6039
ou❁10	-12.6043
dai❄1	-12.6058
hao❂15	-12.6068
zhi❃2	-12.608
ji❄1	-12.6126
yun❂2	-12.6143
hui❁2	-12.6148
guo❂	-12.6154
cun❄	-12.6171
21	-12.6188
za	-12.6198
chan❃	-12.6235
zi❄	-12.6263
yao❄	-12.6264
nv	-12.6278
hai❄	-12.628
song	-12.6286
sa❄1	-12.6298
min❃	-12.6307
si❁	-12.631
❃8	-12.6318
xiu❁	-12.6401
jie❂	-12.6428
fan	-12.6428
xi❁1	-12.6471
zh	-12.6483
ai❄4	-12.6497
qi❂5	-12.6519
pan❄	-12.652
❁13	-12.6542
❄61	-12.6571
huang	-12.6596
chou❂1	-12.6599
shi❂1	-12.6602
dou	-12.6618
eng❂7	-12.6619
bi❄5	-12.6652
fa❂1	-12.6654
qi❂7	-12.6654
fu❃3	-12.6655
lian❂7	-12.6656
jian❄8	-12.6657
❂47	-12.6657
xun❂3	-12.6657
yi❄9	-12.6658
nuo❄	-12.6659
ai❄23	-12.6659
chan❂49	-12.6659
fang❃10	-12.6659
gang❁12	-12.6659
γ	-12.6659
д	-12.6659
я	-12.6659
⊙	-12.6659
け	-12.6659
だ	-12.6659
っ	-12.6659
ど	-12.6659
ひ	-12.6659
カ	-12.6659
ㄆ	-12.6659
ㄑ	-12.6659
diao❁18	-12.6659
qian❃13	-12.6659
guan❄41	-12.6659
xiao❁45	-12.6659
long❂24	-12.6659
jue❂110	-12.6659
zhen❁16	-12.6659
zhen❁13	-12.6659
peng❁10	-12.6659
meng❂27	-12.6659
xian❂35	-12.6659
jian❃34	-12.6659
zheng❁43	-12.666
liao❂20	-12.666
zheng❁20	-12.666
tang❂20	-12.666
kuang❄24	-12.666
zhen❁36	-12.6662
zhou❄32	-12.6663
yong❁3	-12.6664
hui❁4	-12.6665
❁57	-12.6675
i❁57	-12.6686
can❂1	-12.6692
niao❃1	-12.6693
jing❃2	-12.6695
50	-12.6703
55	-12.6711
tan❂3	-12.6724
lao❂	-12.6744
lei❂2	-12.6747
you❃	-12.6752
yun❄2	-12.6771
bei❄4	-12.6773
❄34	-12.6773
yu❄9	-12.6774
❂32	-12.6779
yu❂5	-12.6786
60	-12.6795
shan	-12.6807
ao❃16	-12.6829
jin❁2	-12.6833
yong❁1	-12.6845
73	-12.6853
hui❂	-12.6858
su❄3	-12.6886
xin	-12.6895
ao❂3	-12.6918
zhe❂4	-12.6921
zhi❁2	-12.6927
xiu❁1	-12.6938
tang❂3	-12.6969
en❄2	-12.6986
❄22	-12.699
kua	-12.6992
ding❁	-12.7009
xu❄3	-12.7033
zhao❄1	-12.7066
you❂2	-12.7068
rang	-12.7069
bian	-12.7079
sha❁1	-12.7086
jiao❁	-12.7155
u❁38	-12.7189
mo	-12.7212
gua❄	-12.7251
shao❄	-12.7255
dao❁	-12.7258
bi❃	-12.7263
lao❃1	-12.7302
❄45	-12.7303
tian❂1	-12.7369
mi❃1	-12.7373
jiu	-12.739
u❃2	-12.7417
sheng	-12.7466
jin❄	-12.7468
biao❁	-12.7481
wang❃1	-12.7493
pi❄1	-12.7503
hun❁	-12.7529
gu❁	-12.7536
an❃2	-12.7539
deng	-12.7569
chui❂1	-12.7614
die❁	-12.7662
lian❄1	-12.7682
jing❁	-12.7708
mei❄	-12.7728
kui❂1	-12.7745
f	-12.7755
rong❂2	-12.7762
gang❁2	-12.7763
yi❂7	-12.7763
meng❃	-12.7763
dun❄	-12.7764
liang❄	-12.7765
gu❃5	-12.7765
huo❄5	-12.7765
jiao❃4	-12.7766
dao❄	-12.7766
hu❃2	-12.7766
bo❂9	-12.7767
ci❁	-12.7767
meng❂3	-12.7768
run❄	-12.7768
xun❂2	-12.7768
yuan❂4	-12.7768
xi❁10	-12.7769
xiao❁5	-12.777
÷	-12.777
σ	-12.777
й	-12.777
п	-12.777
у	-12.777
↑	-12.777
あ	-12.777
え	-12.777
じ	-12.777
て	-12.777
ろ	-12.777
キ	-12.777
コ	-12.777
サ	-12.777
kuang❁11	-12.777
shang❁12	-12.777
zheng❁32	-12.7772
qiu❂5	-12.7773
xi❁4	-12.7774
sui❄2	-12.7778
jian❃5	-12.7779
zheng❃	-12.7783
jiao❃6	-12.7794
jun	-12.78
jin❁3	-12.7804
fang❁	-12.7806
gui❄2	-12.781
ke❄2	-12.7816
fu❄5	-12.7816
cui❄2	-12.7822
qi❁2	-12.7827
qiu❂2	-12.7828
yuan❂3	-12.7837
lao❂1	-12.7843
jing❃1	-12.785
37	-12.7884
dan	-12.7889
ao❃12	-12.7906
tao❁2	-12.7928
ying❃1	-12.7931
mao❄3	-12.7974
song❁	-12.798
zheng❁1	-12.7994
wu❁	-12.7994
jun❄3	-12.7998
zong❄	-12.8031
beng	-12.8067
mo❂2	-12.8081
que❄3	-12.8085
bo❂	-12.8088
qi❄4	-12.8095
❂31	-12.8109
huang❂3	-12.815
n❄19	-12.817
❁5	-12.8172
n❁14	-12.8196
zhi❁1	-12.8213
wei❂2	-12.8229
❄3	-12.8233
jue❂3	-12.8238
hu❄39	-12.8275
❄42	-12.8298
hu❂3	-12.8306
wei❄3	-12.831
ao❄26	-12.8313
n❃11	-12.834
nan❂	-12.8349
li❂3	-12.8405
tiao	-12.8417
eng❁10	-12.8448
ba❄2	-12.8448
cao❂	-12.8488
zhen❄1	-12.8514
liao	-12.8529
shu❄3	-12.8536
ling❂	-12.8554
e❁4	-12.8562
shan❁	-12.8567
qiao❂2	-12.8606
❂50	-12.8607
qiao	-12.8608
cong	-12.8623
hui❂11	-12.8652
ao❂17	-12.8775
nao❂1	-12.8798
❂19	-12.8803
chang❄	-12.8807
luo❁	-12.8855
kao	-12.8863
mao❃	-12.8878
yong	-12.8908
cuo	-12.8911
chang❁	-12.8957
81	-12.8986
ci❂2	-12.9008
xiong❁	-12.9012
gan❁3	-12.9014
jian❄5	-12.9014
e❄8	-12.9014
bi❄1	-12.9014
ruo❄	-12.9016
tie❁	-12.9016
o	-12.9017
que❄2	-12.9018
zeng❄	-12.9018
yu❂9	-12.9018
lei❃1	-12.9018
zhuo❂4	-12.9018
yi❄17	-12.9018
ai❁2	-12.902
б	-12.902
г	-12.902
л	-12.902
≈	-12.902
で	-12.902
め	-12.902
わ	-12.902
ビ	-12.902
フ	-12.902
ャ	-12.902
ㄗ	-12.902
ㄘ	-12.902
uan❁0	-12.9021
ji❄10	-12.9022
pang❂	-12.9024
zong❁3	-12.9028
he❂6	-12.9032
64	-12.9032
liang❂1	-12.9035
xian❃4	-12.9036
jue❂7	-12.9056
i❄176	-12.9075
qiu❂4	-12.9076
yue❄	-12.9076
❁31	-12.9099
feng❄	-12.9108
❁39	-12.9109
tai❂2	-12.9109
chou❂4	-12.9141
gui❁	-12.9144
❂17	-12.915
luo❂	-12.9154
te❄	-12.9154
tun	-12.9159
cong❁3	-12.9165
e❂24	-12.9196
ba❃	-12.9198
fen	-12.9199
n❁15	-12.9203
xun❁1	-12.9204
kou❄1	-12.9206
xiao❄	-12.9237
uan❂28	-12.9237
min❂2	-12.9271
liao❂	-12.9271
xiang❂	-12.9284
wan	-12.9291
zhi❄11	-12.9291
zhen❃2	-12.9293
zhen❃1	-12.9301
62	-12.9304
di❃1	-12.9317
yi❄1	-12.9321
qi❂3	-12.9394
wu❂2	-12.9409
jia❃1	-12.9438
i❄30	-12.9446
xie❂2	-12.9459
pin❂	-12.9466
xiang❃	-12.9479
you❄3	-12.9494
ba❁1	-12.9499
yang❂	-12.9502
zu❃	-12.9516
hui❄3	-12.9529
i❄86	-12.9547
zhen	-12.9554
bian❄3	-12.9563
qiao❁2	-12.9574
yin	-12.9574
hu❁3	-12.959
die❂	-12.9595
zou❁	-12.963
suo❁1	-12.9636
geng❃	-12.9641
yi❂6	-12.9667
guan	-12.9738
piao	-12.9756
chai❂	-12.9782
shi❄4	-12.9797
ong❃5	-12.981
nong❂	-12.9836
fu❁3	-12.9881
shan❁1	-12.9883
ng❄3	-12.9921
ru❂	-12.9965
dai❄2	-12.998
ran❂	-12.9997
fen❄	-13.0046
yu❄1	-13.0062
pi❂2	-13.0148
❂60	-13.0203
an❃9	-13.0294
n❁3	-13.0302
❁14	-13.0315
ma❃1	-13.0315
tan	-13.0344
ga	-13.0376
de❂	-13.0397
chuan❂	-13.0412
di❁1	-13.0428
ling❂7	-13.0442
sui❄4	-13.0443
man❂2	-13.0444
mo❄5	-13.0444
qiu❁2	-13.0445
er❂	-13.0447
yi❂8	-13.0447
meng❂4	-13.0447
shi❄6	-13.0448
li❂6	-13.0449
ε	-13.0449
θ	-13.0449
λ	-13.0449
ο	-13.0449
π	-13.0449
ρ	-13.0449
м	-13.0449
د	-13.0449
ي	-13.0449
▲	-13.0449
ば	-13.0449
ょ	-13.0449
バ	-13.0449
ミ	-13.0449
ム	-13.0449
メ	-13.0449
이	-13.0449
	-13.0449
an❁37	-13.0449
e❄80	-13.045
piao❁1	-13.0452
ye❄4	-13.0455
hong❂6	-13.0459
peng❂2	-13.0469
❄44	-13.0472
gou❁1	-13.0512
xian❄2	-13.0515
h	-13.0545
103	-13.0573
lu❄7	-13.0583
hui❁	-13.0603
xi❁14	-13.0608
yun❄	-13.0612
xian❂4	-13.063
68	-13.0636
huan❁1	-13.0651
tang	-13.0654
❂6	-13.0671
i❃6	-13.0673
i❂30	-13.0717
mo❄3	-13.0721
juan	-13.0724
si❄	-13.0725
e❄19	-13.0736
xu❁2	-13.0739
an❄25	-13.0744
an❁19	-13.0764
luo❄2	-13.0825
❂44	-13.0848
yin❂1	-13.088
hang❂	-13.0881
52	-13.0924
li❄12	-13.0927
xun❁2	-13.0971
zhi❄4	-13.0982
hai❄1	-13.0994
❂42	-13.1
an❂7	-13.102
pei❄1	-13.1027
pu❂1	-13.1033
jia❁1	-13.1039
zi❄1	-13.1046
yan❁3	-13.1054
dai❄4	-13.108
ku❁1	-13.1094
yu❃	-13.1094
gu❃	-13.1116
❃12	-13.113
che	-13.1133
❂41	-13.1164
sa	-13.1173
she❂	-13.1203
xian❁	-13.1221
lou❂1	-13.1255
si❄1	-13.1277
guo	-13.1316
chong❁2	-13.1319
chao❃	-13.1343
qian❂	-13.1346
xing❂	-13.1432
ru❄	-13.146
fei❃	-13.1466
❁29	-13.1469
chu❂4	-13.147
long	-13.1474
❁23	-13.1525
e❄30	-13.1612
o❁1	-13.1646
un❃1	-13.1649
❂25	-13.1736
jiao❃	-13.1753
ng❁19	-13.1773
chang❃	-13.1803
an❃17	-13.1823
wan❃	-13.1873
chi❂	-13.1905
❄91	-13.1924
❁40	-13.1951
an❄3	-13.1955
lang❄	-13.1989
tuo❂3	-13.2002
ai❃1	-13.2035
i❃34	-13.205
❂3	-13.2052
ji❂6	-13.2069
ai❂13	-13.2072
gong❃1	-13.2108
zheng❁2	-13.2111
nai❃	-13.2112
hei❁	-13.2112
tong❄	-13.2112
yi❄7	-13.2113
zhuo❂1	-13.2113
qie❄2	-13.2113
cao❃	-13.2113
kuang❄2	-13.2114
shui❃	-13.2114
qian❁6	-13.2114
yu❂10	-13.2115
a❂0	-13.2115
cen	-13.2115
❅	-13.2115
ι	-13.2115
М	-13.2115
з	-13.2115
ч	-13.2115
ب	-13.2115
م	-13.2115
و	-13.2115
ぐ	-13.2115
ず	-13.2115
せ	-13.2115
グ	-13.2115
ニ	-13.2115
パ	-13.2115
モ	-13.2115
ワ	-13.2115
ㄋ	-13.2115
ㄖ	-13.2115
hu❄29	-13.2116
bi❄10	-13.2117
he❂5	-13.2126
45	-13.2139
yin❁3	-13.2146
shi❄8	-13.2147
ao❄3	-13.2163
die❂4	-13.2188
ze❂2	-13.2216
e❂2	-13.2221
qin❂3	-13.2226
mu❄2	-13.2235
guo❁	-13.2247
70	-13.2255
shao❁1	-13.2258
xie❄5	-13.2271
ken❃	-13.2283
gui❃2	-13.2288
mou❂1	-13.2306
yan❄6	-13.2346
❂30	-13.2348
e❃1	-13.2377
xi❄5	-13.2379
chi❃2	-13.2386
guo❂1	-13.2398
❃29	-13.2418
wen❃1	-13.2422
zhi❄5	-13.243
yuan❂2	-13.2431
bi❄8	-13.2444
tang❂2	-13.2445
jiao❄3	-13.2474
xue❃	-13.2508
mian❃2	-13.2546
xian❃2	-13.2551
qiao❂1	-13.2561
kui❄	-13.2568
❁22	-13.2591
wei❃3	-13.2611
zhen❁2	-13.2627
❂22	-13.2631
si❄2	-13.2646
li❃2	-13.2649
gui	-13.2675
tao❁	-13.2754
yan❂6	-13.276
cheng❂1	-13.2761
❄0	-13.278
jiao❁3	-13.2812
fu❁1	-13.2822
fu❄7	-13.2868
yao❂2	-13.2883
u❄41	-13.2894
bi❃2	-13.2936
la	-13.2942
i❃13	-13.2997
kui❂2	-13.3037
fu❄2	-13.3104
ui❄30	-13.3111
eng❄1	-13.3123
❄56	-13.3133
jing❄1	-13.3138
kan❃	-13.3144
ou❁12	-13.318
❄57	-13.3206
zi❃1	-13.3221
chuan	-13.3292
luo	-13.332
shen❁	-13.3347
dian❄	-13.3367
geng❃1	-13.3405
fen❁	-13.3446
huan	-13.3499
49	-13.3522
bei	-13.3524
ie❄19	-13.3555
jiang	-13.3564
liao❂2	-13.357
qin	-13.3576
tiao❂	-13.3597
hu❄4	-13.3618
jiu❄2	-13.3619
u❃1	-13.3624
❃16	-13.3629
lai❄	-13.3668
can❄1	-13.369
ang❁7	-13.3693
❂11	-13.3698
❁	-13.3707
zeng❁	-13.3713
dang	-13.3727
guan❃	-13.3761
qiang❁2	-13.3762
jin	-13.3805
wen❃	-13.3814
han❃1	-13.3826
chong	-13.3833
❁17	-13.3835
ng❁5	-13.3841
ang❃3	-13.3851
ong❁19	-13.3907
mao	-13.391
e❄33	-13.3926
i❄16	-13.3928
e❄32	-13.3938
an❄10	-13.3966
jia❃	-13.3992
nao❃	-13.3997
wei❁	-13.4031
u❄53	-13.4054
ong❁2	-13.4091
guan❁	-13.4094
an❄1	-13.4095
ou❃	-13.4101
rong❂4	-13.4108
zheng❁3	-13.4108
li❂7	-13.4111
yi❄6	-13.4112
cheng❂6	-13.4112
qi❂8	-13.4113
kong❁	-13.4113
iu❁0	-13.4115
ao❂29	-13.4115
han❁9	-13.4115
¢	-13.4115
̇	-13.4115
η	-13.4115
ν	-13.4115
Н	-13.4115
Р	-13.4115
С	-13.4115
ь	-13.4115
س	-13.4115
‧	-13.4115
←	-13.4115
↓	-13.4115
∼	-13.4115
〝	-13.4115
〞	-13.4115
ふ	-13.4115
ほ	-13.4115
ァ	-13.4115
チ	-13.4115
ナ	-13.4115
プ	-13.4115
ペ	-13.4115
ヤ	-13.4115
ュ	-13.4115
ョ	-13.4115
ji❄7	-13.4116
yue❄5	-13.4117
ling❂8	-13.4118
ai❃17	-13.4118
bian❄4	-13.4119
heng❂13	-13.4124
li❄10	-13.4124
chao❂	-13.4129
yuan❂5	-13.4133
i❄59	-13.4133
qiao❁	-13.4137
tou❂	-13.4138
hou❂1	-13.4164
107	-13.418
chou	-13.4183
hong❂4	-13.4195
bai❃	-13.4208
lao❂2	-13.4211
yan❂5	-13.423
xian❄6	-13.424
mo❄2	-13.4243
nie❄4	-13.4244
cui❃	-13.4265
feng❁	-13.4266
feng❁4	-13.4286
zhou❄2	-13.4297
duan❄	-13.4302
po❂	-13.4304
i❁44	-13.4317
huan❂4	-13.4318
ji❃2	-13.433
pi❂1	-13.4392
lun❂2	-13.4396
xia❂4	-13.4403
e❂	-13.444
mao❂2	-13.4444
jiang❄	-13.4462
yan❄7	-13.4467
pu	-13.4495
shan❄4	-13.4515
yu❄12	-13.4543
ou❁1	-13.4549
an❄18	-13.455
ing❄3	-13.4721
xiao❄2	-13.4741
❄144	-13.4752
an❁23	-13.4789
ng❄6	-13.4832
yin❃1	-13.4878
nv❃	-13.4879
ju❁	-13.4908
you❃1	-13.4945
po	-13.4953
i❄22	-13.4966
da❂1	-13.4993
wo❄	-13.5053
tang❁	-13.5194
pan❂1	-13.5196
š	-13.6615
ư	-13.6615
ɡ	-13.6615
̊	-13.6615
Δ	-13.6615
Б	-13.6615
В	-13.6615
Д	-13.6615
И	-13.6615
П	-13.6615
х	-13.6615
ة	-13.6615
ح	-13.6615
ร	-13.6615
ั	-13.6615
า	-13.6615
∈	-13.6615
≠	-13.6615
≡	-13.6615
ゆ	-13.6615
ェ	-13.6615
オ	-13.6615
ダ	-13.6615
ハ	-13.6615
ヒ	-13.6615
ㄎ	-13.6615
다	-13.6615
아	-13.6615
어	-13.6615
r	-13.7786
a	-13.9908
K	-13.9949
N	-13.9949
®	-13.9949
Đ	-13.9949
Ο	-13.9949
ς	-13.9949
τ	-13.9949
А	-13.9949
ф	-13.9949
ت	-13.9949
ر	-13.9949
ش	-13.9949
ị	-13.9949
∑	-13.9949
√	-13.9949
∞	-13.9949
∩	-13.9949
┃	-13.9949
┇	-13.9949
┬	-13.9949
〜	-13.9949
げ	-13.9949
そ	-13.9949
ね	-13.9949
ゃ	-13.9949
ゅ	-13.9949
ズ	-13.9949
ネ	-13.9949
ブ	-13.9949
ホ	-13.9949
ボ	-13.9949
ㄦ	-13.9949
거	-13.9949
로	-13.9949
리	-13.9949
사	-13.9949
진	-13.9949
	-13.9949
e	-14.4177
j	-14.4842
C	-14.4947
D	-14.4949
O	-14.4949
R	-14.4949
W	-14.4949
X	-14.4949
Y	-14.4949
ç	-14.4949
ö	-14.4949
ŋ	-14.4949
Ÿ	-14.4949
́	-14.4949
̄	-14.4949
̈	-14.4949
Λ	-14.4949
κ	-14.4949
υ	-14.4949
ω	-14.4949
К	-14.4949
О	-14.4949
ш	-14.4949
щ	-14.4949
ы	-14.4949
ص	-14.4949
ك	-14.4949
ن	-14.4949
य	-14.4949
া	-14.4949
ก	-14.4949
ง	-14.4949
ธ	-14.4949
พ	-14.4949
ุ	-14.4949
ู	-14.4949
ả	-14.4949
ầ	-14.4949
ệ	-14.4949
ổ	-14.4949
ộ	-14.4949
ữ	-14.4949
⇔	-14.4949
∠	-14.4949
┓	-14.4949
╠	-14.4949
▪	-14.4949
♀	-14.4949
々	-14.4949
ぎ	-14.4949
ご	-14.4949
ぬ	-14.4949
び	-14.4949
ぶ	-14.4949
べ	-14.4949
ぼ	-14.4949
ぽ	-14.4949
む	-14.4949
ォ	-14.4949
セ	-14.4949
ソ	-14.4949
ツ	-14.4949
ベ	-14.4949
ポ	-14.4949
ヴ	-14.4949
ヶ	-14.4949
呗	-14.4949
게	-14.4949
고	-14.4949
군	-14.4949
김	-14.4949
까	-14.4949
라	-14.4949
랑	-14.4949
면	-14.4949
미	-14.4949
박	-14.4949
병	-14.4949
생	-14.4949
서	-14.4949
연	-14.4949
영	-14.4949
장	-14.4949
정	-14.4949
조	-14.4949
지	-14.4949
하	-14.4949
학	-14.4949
한	-14.4949
해	-14.4949
	-14.4949
	-14.4949
x	-15.2126
❃	-15.4864
u	-15.4943
A	-15.4949
B	-15.4949
F	-15.4949
H	-15.4949
L	-15.4949
P	-15.4949
Q	-15.4949
S	-15.4949
¬	-15.4949
Á	-15.4949
Ø	-15.4949
ä	-15.4949
ô	-15.4949
õ	-15.4949
ø	-15.4949
ą	-15.4949
đ	-15.4949
ę	-15.4949
ł	-15.4949
ő	-15.4949
ũ	-15.4949
ž	-15.4949
ơ	-15.4949
ɑ	-15.4949
ə	-15.4949
ɜ	-15.4949
ʃ	-15.4949
ʻ	-15.4949
˥	-15.4949
̪	-15.4949
Α	-15.4949
Θ	-15.4949
Μ	-15.4949
Ν	-15.4949
Π	-15.4949
Τ	-15.4949
Χ	-15.4949
έ	-15.4949
ή	-15.4949
ψ	-15.4949
ύ	-15.4949
Ё	-15.4949
Љ	-15.4949
Г	-15.4949
Е	-15.4949
Ж	-15.4949
Т	-15.4949
У	-15.4949
Х	-15.4949
Ш	-15.4949
Э	-15.4949
Ю	-15.4949
ц	-15.4949
ъ	-15.4949
ћ	-15.4949
ѳ	-15.4949
ө	-15.4949
Ն	-15.4949
բ	-15.4949
ն	-15.4949
ո	-15.4949
ր	-15.4949
ւ	-15.4949
ַ	-15.4949
ּ	-15.4949
י	-15.4949
ל	-15.4949
מ	-15.4949
ש	-15.4949
آ	-15.4949
أ	-15.4949
ذ	-15.4949
ض	-15.4949
ع	-15.4949
ه	-15.4949
َ	-15.4949
ٴ	-15.4949
ی	-15.4949
ं	-15.4949
अ	-15.4949
ज	-15.4949
व	-15.4949
ु	-15.4949
ू	-15.4949
े	-15.4949
ো	-15.4949
্	-15.4949
ค	-15.4949
จ	-15.4949
ท	-15.4949
บ	-15.4949
ฤ	-15.4949
ล	-15.4949
ว	-15.4949
อ	-15.4949
เ	-15.4949
ไ	-15.4949
่	-15.4949
์	-15.4949
ํ	-15.4949
ཏ	-15.4949
ྨ	-15.4949
ᡠ	-15.4949
ḥ	-15.4949
ṣ	-15.4949
ṻ	-15.4949
ạ	-15.4949
ấ	-15.4949
ặ	-15.4949
ợ	-15.4949
ừ	-15.4949
ử	-15.4949
‖	-15.4949
↔	-15.4949
↙	-15.4949
∏	-15.4949
−	-15.4949
∙	-15.4949
∝	-15.4949
∧	-15.4949
∫	-15.4949
∮	-15.4949
≪	-15.4949
⊕	-15.4949
⋯	-15.4949
┄	-15.4949
┆	-15.4949
┘	-15.4949
├	-15.4949
┣	-15.4949
┤	-15.4949
┳	-15.4949
┴	-15.4949
╚	-15.4949
╮	-15.4949
╱	-15.4949
╳	-15.4949
►	-15.4949
▼	-15.4949
▽	-15.4949
◢	-15.4949
◤	-15.4949
♦	-15.4949
♭	-15.4949
❉	-15.4949
⡆	-15.4949
づ	-15.4949
ぱ	-15.4949
よ	-15.4949
゙	-15.4949
゚	-15.4949
ギ	-15.4949
ケ	-15.4949
ゲ	-15.4949
ゴ	-15.4949
ノ	-15.4949
ピ	-15.4949
ユ	-15.4949
㶊	-15.4949
䕬	-15.4949
凖	-15.4949
大	-15.4949
度	-15.4949
桛	-15.4949
止	-15.4949
糬	-15.4949
蕱	-15.4949
金	-15.4949
饹	-15.4949
개	-15.4949
과	-15.4949
국	-15.4949
근	-15.4949
나	-15.4949
남	-15.4949
내	-15.4949
너	-15.4949
노	-15.4949
니	-15.4949
님	-15.4949
답	-15.4949
대	-15.4949
두	-15.4949
둘	-15.4949
딴	-15.4949
런	-15.4949
루	-15.4949
말	-15.4949
명	-15.4949
무	-15.4949
문	-15.4949
민	-15.4949
바	-15.4949
변	-15.4949
보	-15.4949
부	-15.4949
북	-15.4949
산	-15.4949
상	-15.4949
색	-15.4949
선	-15.4949
성	-15.4949
술	-15.4949
시	-15.4949
심	-15.4949
써	-15.4949
안	-15.4949
예	-15.4949
왕	-15.4949
왜	-15.4949
요	-15.4949
용	-15.4949
우	-15.4949
욱	-15.4949
운	-15.4949
원	-15.4949
월	-15.4949
윤	-15.4949
은	-15.4949
의	-15.4949
인	-15.4949
일	-15.4949
자	-15.4949
작	-15.4949
저	-15.4949
전	-15.4949
줄	-15.4949
천	-15.4949
철	-15.4949
초	-15.4949
최	-15.4949
춤	-15.4949
탬	-15.4949
통	-15.4949
특	-15.4949
티	-15.4949
파	-15.4949
피	-15.4949
할	-15.4949
협	-15.4949
홍	-15.4949
화	-15.4949
황	-15.4949
희	-15.4949
히	-15.4949
	-15.4949
	-15.4949
	-15.4949
	-15.4949
	-15.4949
	-15.4949
	-15.4949
v	-16.7872
q	-16.7873
❄	-16.7874
i	-16.7875
