[UNK]	0
[PAD]	0
[CLS]	0
[SEP]	0
[MASK]	0
zzbd2	-2.41891
r	-2.61481
zzbd1	-3.06721
zzbd3	-3.23055
t	-3.89501
d	-3.96044
j	-3.96653
g	-4.2168
o	-4.36153
b	-4.45073
)	-4.52689
(	-4.54156
zzbd5	-4.56416
e	-4.57951
k	-4.68695
w	-4.72482
“	-4.88137
”	-4.8906
i	-4.9725
tffu	-4.97769
《	-4.98175
》	-4.9844
c	-5.00916
쎁	-5.05233
gf	-5.06632
h	-5.07573
gn	-5.0793
zzbd4	-5.2682
쎂	-5.3323
쎀	-5.46165
,	-5.46503
qq	-5.61065
ey	-5.62522
pp	-5.62887
wh	-5.63258
쎃	-5.63277
.	-5.64368
f	-5.65629
dd	-5.65978
cf	-5.72427
p	-5.80391
rh	-5.81271
ua	-5.84389
쎅	-5.85755
bn	-5.86516
puhc	-5.86728
쎄	-5.87893
dmj1	-5.88384
mh	-5.95555
-	-5.97438
ak	-5.98082
sk	-5.99081
ym	-5.99395
s	-6.03511
q	-6.05144
쎉	-6.05313
adw	-6.0578
uqf	-6.07538
rn	-6.07555
/	-6.07962
쎈	-6.08828
gh	-6.09126
dg	-6.09152
zzbd10	-6.09339
gc	-6.10412
쎆	-6.12398
wb	-6.1293
rg	-6.1339
jb	-6.1491
usr	-6.16786
et	-6.17404
jf	-6.19025
gkl	-6.21492
qk	-6.26304
mw	-6.26559
gmww	-6.26864
쎇	-6.277
dnv0	-6.29065
pe	-6.31415
yi	-6.31842
tkh	-6.33467
x	-6.336
ce	-6.36257
ww	-6.3684
ftjb	-6.37156
egc	-6.38888
gcf	-6.40425
ih	-6.42301
wf	-6.42572
fqb0	-6.44546
dn	-6.46732
sg	-6.46862
fg	-6.48673
bm	-6.50123
ccc	-6.5178
"	-6.56274
:	-6.57021
wtf	-6.58018
ii	-6.59968
ta	-6.60195
go	-6.60504
lh	-6.62098
oy	-6.64064
ts	-6.64213
fq	-6.64421
ymhj0	-6.64493
vb	-6.65423
nnnn0	-6.65576
l	-6.65835
ip	-6.67929
uqw	-6.69106
vk	-6.69564
ul	-6.71713
mmm	-6.72097
m	-6.73411
wgkq0	-6.74906
gjq	-6.77334
tg	-6.77542
sf	-6.77698
dq	-6.78533
aq	-6.81822
fm	-6.81839
a	-6.8447
tm	-6.85278
uk	-6.85476
px	-6.8726
udh	-6.87374
thd	-6.90544
fp	-6.90946
wtu	-6.91134
gip	-6.91307
v	-6.91845
;	-6.94596
lu	-6.9498
ue	-6.95104
aqt	-6.9549
fhn	-6.9614
jfd	-6.96726
kht	-6.98765
ty	-6.9993
sghg1	-7.0001
y	-7.0169
wjg	-7.02382
yynw1	-7.03155
tk	-7.03219
gm	-7.03646
rcn0	-7.04646
ith	-7.05361
vcb	-7.05558
wq	-7.07404
xq	-7.07674
rxj	-7.08076
gg	-7.08251
fgh	-7.09531
n	-7.09547
uth	-7.09796
ai	-7.09797
zzbd8	-7.09821
ld	-7.0995
qfhw1	-7.1013
yu	-7.10563
wt	-7.1116
tve	-7.1133
ylf0	-7.1157
ll	-7.12436
tx	-7.1299
hx	-7.13245
gd	-7.13508
ntg	-7.14042
bb	-7.1451
dp	-7.15579
adm	-7.15838
wv	-7.16091
aw	-7.16606
nm	-7.16719
nnh	-7.16971
yh	-7.18209
u	-7.18387
wug0	-7.18425
ux	-7.18942
qqqq1	-7.19309
tq	-7.20675
fcu1	-7.22448
yygy	-7.22556
awx	-7.23522
xw	-7.25573
wx	-7.25696
if	-7.25795
ggg0	-7.25983
tu	-7.26307
zzbd15	-7.28553
vbn	-7.28565
wys	-7.28698
wdt	-7.30181
qh	-7.30355
wg	-7.30623
vfhp1	-7.31881
uthp0	-7.32266
th	-7.32913
uy	-7.33905
iv	-7.34052
uj	-7.3542
ukn	-7.35509
fd	-7.36187
ige	-7.36564
dgtg0	-7.36954
ugdu	-7.37308
ga	-7.374
yid	-7.375
xx	-7.37843
vvv	-7.37983
mj	-7.38012
fqu	-7.39422
xt	-7.39797
yt	-7.39979
sh	-7.40011
kw	-7.40366
jjjj0	-7.40398
xte	-7.4066
iq	-7.40949
tyna2	-7.41184
itx	-7.41959
ftj	-7.42796
tf	-7.43288
xg	-7.4377
cn	-7.43803
ny	-7.43867
ntk	-7.44607
adwr0	-7.44952
gmf	-7.45052
xk	-7.45125
zzbd7	-7.45382
pv	-7.46798
txg	-7.47371
sm	-7.47724
ghd1	-7.47775
dx	-7.47899
pb	-7.48185
txi	-7.49522
qiu0	-7.49881
amw	-7.51999
vt	-7.52014
hko	-7.52063
ss	-7.5228
udi0	-7.52913
tfl	-7.53174
gu	-7.53481
kkkk1	-7.55312
ck	-7.55483
yy	-7.55611
ujj	-7.55712
gkp	-7.5578
nfc	-7.58405
mt	-7.58473
uyh	-7.58476
xa	-7.58519
fj	-7.5901
mqu	-7.59938
xe	-7.60379
ag	-7.60788
wty0	-7.60875
wynb0	-7.6093
lk	-7.61094
wa	-7.61178
zzsx6	-7.61187
tgj	-7.6172
isk	-7.61755
mq	-7.61952
jn	-7.63128
zzbd9	-7.63334
ia	-7.64112
rpv	-7.64511
udbb	-7.64631
kgn	-7.6484
dm	-7.65044
qc	-7.65154
yne	-7.65636
aa	-7.66788
epc	-7.6685
gajf0	-7.68254
cc	-7.68324
ep	-7.69257
tj	-7.70475
od	-7.70903
ft	-7.71046
yww	-7.71559
ytyh	-7.71879
ab	-7.71883
*	-7.71984
pl	-7.72029
wgk	-7.72562
ovt	-7.73674
dy	-7.74043
uh	-7.74685
trf0	-7.74905
wqin	-7.74975
ya	-7.75251
thg1	-7.75496
wn	-7.76003
uf	-7.7601
zzbd6	-7.76158
mqq	-7.76364
ftx	-7.76563
kha	-7.76708
fc	-7.77148
ugm	-7.77441
rvyo	-7.77706
you1	-7.7774
eee0	-7.78197
wsg0	-7.78351
an	-7.78965
yff	-7.79282
rp	-7.79439
sb	-7.81018
yo	-7.81144
cep	-7.81787
ru	-7.81794
jgm	-7.81994
img	-7.82136
+	-7.82644
wqa	-7.82686
adwe1	-7.83045
wxf	-7.8482
dgh	-7.84915
fcb	-7.8567
lg	-7.85784
mqb	-7.86541
hw	-7.87049
rmhj	-7.87067
=	-7.87131
tp	-7.88048
pyj	-7.88171
zzbd0	-7.8839
puv	-7.89415
ipkh1	-7.89497
zzts0	-7.89923
pa	-7.90181
fii	-7.90228
gk	-7.90534
wc	-7.90661
ftbt	-7.90697
lkd	-7.91072
lt	-7.91133
se	-7.9154
rnb	-7.91638
ltu0	-7.91829
iyc	-7.9191
lw	-7.92675
gl	-7.93188
tjh	-7.93338
fnrt	-7.93551
wfny0	-7.93977
xeg0	-7.94135
hhu0	-7.94218
fggh	-7.94371
gae	-7.94831
nnk	-7.94837
fcu0	-7.94937
zzsx1	-7.95027
je	-7.95148
%	-7.95208
lq	-7.95346
wu	-7.95621
tfk0	-7.96352
uqd2	-7.97126
uu	-7.97425
ffi	-7.97435
wqj	-7.97976
fhu	-7.98385
rhf0	-7.98551
pg	-7.98611
vfb	-7.98857
fcl	-7.99455
qi	-7.99891
djd	-8.0012
ipw	-8.00202
ddu1	-8.00597
ick	-8.00942
pgn	-8.01868
fn	-8.02002
kl	-8.02024
tjf0	-8.02353
gef	-8.02417
tfq	-8.02792
lpk0	-8.03998
wy	-8.04191
gog	-8.05296
ax	-8.05383
0	-8.05616
qn	-8.05743
hc	-8.06013
kkd	-8.06211
wgj	-8.06259
yb	-8.06512
sov	-8.06522
ymc	-8.07115
uvo	-8.07128
shn	-8.07408
lft	-8.08174
fhw	-8.08227
wcy0	-8.08755
pw	-8.09047
it	-8.09199
kf	-8.09213
wyc	-8.10038
qg	-8.10235
um	-8.10379
ooo	-8.11292
pn	-8.12807
thgc0	-8.12872
ae	-8.13207
yq	-8.13541
yn	-8.13903
ba	-8.14184
dty0	-8.14402
wynk	-8.14754
std	-8.14952
yygt	-8.14997
lfn	-8.15034
>	-8.15165
gah	-8.15325
yx	-8.15935
ad	-8.16307
tfqp	-8.16444
dgt1	-8.16478
uq	-8.16579
isgg2	-8.16835
gqx	-8.17302
av	-8.17738
ipk	-8.18282
bs	-8.18587
wdm	-8.18617
wrh1	-8.19116
ic	-8.19251
ssss0	-8.19337
lfo	-8.19794
fhl	-8.19796
udy	-8.19962
pgc	-8.20331
ymf	-8.20377
oge	-8.20931
qgf	-8.21038
pu	-8.2187
tfn	-8.22851
gy	-8.23064
ide	-8.23226
nd	-8.2326
vca	-8.23755
suq	-8.23759
fdm	-8.23772
~	-8.23811
jqr	-8.23893
scf	-8.23938
dmh0	-8.24058
fnw	-8.24066
ujn	-8.2429
jh	-8.24506
tld1	-8.24538
tmd	-8.24598
nh	-8.24968
wyv	-8.25053
lll	-8.25444
itf	-8.26055
bpf	-8.26785
hk	-8.2681
kgb	-8.26908
tdg1	-8.27004
ruv	-8.27037
lp	-8.27094
kn	-8.27289
?	-8.27365
fnr0	-8.27493
tffh1	-8.27615
kq	-8.27882
yny0	-8.28247
ajj0	-8.28621
mfk	-8.28636
bwt	-8.29363
rymn	-8.2944
ujfj0	-8.30148
nty0	-8.30708
ywx	-8.30943
1	-8.31292
sve	-8.31347
nnw	-8.31403
ygk	-8.3214
yfn	-8.32316
idr	-8.3242
ujf0	-8.32493
ma	-8.33048
fqp	-8.33487
lfq	-8.33734
inr	-8.33792
gfi	-8.33821
ffff1	-8.33823
amd	-8.34334
jtg	-8.34985
lpdk1	-8.35011
rx	-8.35319
qkm	-8.35492
yvh	-8.35848
uff	-8.35951
src	-8.36028
bj	-8.36246
sgc	-8.36487
jhng0	-8.36504
dfy	-8.36532
og	-8.36802
udp	-8.36909
yf	-8.37679
py	-8.37818
kkk	-8.3785
nx	-8.38301
nge	-8.3839
qynm1	-8.39135
vtk	-8.39405
pym	-8.39528
xf	-8.39602
fh	-8.39644
by	-8.39648
yqa	-8.39735
fje	-8.40106
bde	-8.40149
km	-8.40325
yngk1	-8.4112
st	-8.41399
cqy	-8.41501
xv	-8.4162
tel	-8.41728
sn	-8.42029
cnh	-8.42113
ud	-8.42619
adnt1	-8.42707
'	-8.42853
qe	-8.42968
xwy0	-8.43013
uqv	-8.43597
xl	-8.43915
fha	-8.44214
fhv	-8.44447
kthh1	-8.44468
fawk0	-8.44468
hka	-8.44644
pgy	-8.45438
adk	-8.45598
mww	-8.4584
yyy	-8.4596
sy	-8.46141
ggi	-8.464
qa	-8.46504
ktn	-8.4663
waw	-8.47177
pyg	-8.47273
wygg	-8.47336
gyt	-8.47362
fcp	-8.47938
ufy	-8.47963
qmq	-8.47972
rnd1	-8.48093
me	-8.48288
yta	-8.48958
iagw	-8.49366
fa	-8.49516
lwj	-8.49623
cm	-8.4974
sksw	-8.49872
gxi	-8.49913
’	-8.50887
ihc	-8.51162
ire	-8.51351
iit	-8.51536
dhb	-8.51555
iytb0	-8.51999
yge	-8.52288
rhk0	-8.52846
aws	-8.53023
ps	-8.53447
swc	-8.53547
wk	-8.53569
yni1	-8.53608
hv	-8.54041
zzts1	-8.54176
bu	-8.54304
nui	-8.54524
yhk	-8.54696
js	-8.54712
ytd	-8.55192
yiu0	-8.55248
fny0	-8.55531
fiy	-8.55553
qyvl0	-8.55573
xxg0	-8.55919
iw	-8.56725
fghg	-8.56786
sgn	-8.5755
oat	-8.57597
bc	-8.5775
lfhf	-8.58427
psu0	-8.58596
xxr	-8.58767
uwy0	-8.58768
fffy0	-8.59452
pfi	-8.59716
apk	-8.59778
hhhh	-8.60149
aft	-8.60539
‘	-8.60663
qev	-8.61365
umd1	-8.61538
ou	-8.61977
jty	-8.62053
ugl	-8.62751
synw	-8.62778
dmjf1	-8.62953
tjt	-8.63192
dgkn0	-8.6331
tfkd	-8.63582
gq	-8.63754
sdm	-8.63778
pf	-8.63822
iy	-8.63857
tyg	-8.6439
qve	-8.64482
nae0	-8.64749
jy	-8.65059
yce	-8.65072
qy	-8.65346
pgk	-8.65391
puh	-8.65584
『	-8.6566
anb0	-8.65664
cw	-8.6586
qt	-8.65966
im	-8.66135
mdf0	-8.66211
iex	-8.66312
kfi	-8.66592
atd	-8.66905
ght	-8.67032
aqq	-8.67177
udyj	-8.67203
ipkf0	-8.67512
dwiu	-8.67718
yj	-8.67889
wht	-8.67898
ytt	-8.67932
sc	-8.68387
iawn0	-8.68445
wbj	-8.6849
alw	-8.68792
lhnh	-8.68843
rdj	-8.69127
kg	-8.69138
lwx	-8.69225
nf	-8.69233
dw	-8.69322
xyna1	-8.69388
rs	-8.69472
ngk	-8.69477
tmg1	-8.6961
lkmi0	-8.69769
qgj	-8.69813
vn	-8.70006
tv	-8.7005
』	-8.70151
yjjh0	-8.70534
al	-8.70859
uduk0	-8.70919
oug0	-8.70924
pei	-8.71
xmw	-8.7104
pnt	-8.71056
ln	-8.71317
gs	-8.71352
rgw	-8.71435
&	-8.71694
qgb	-8.72234
ijl	-8.72892
xh	-8.73107
khu	-8.73302
qd	-8.73417
oyvk1	-8.73657
itd	-8.7375
cy	-8.73942
eajd	-8.74348
qr	-8.74407
imgk	-8.74414
ftjo1	-8.74654
dskf	-8.74804
eg	-8.74838
sgi	-8.74851
ff	-8.75037
yfd	-8.75164
ttg0	-8.75383
flf1	-8.75458
up	-8.75619
stx	-8.75717
ygh	-8.76139
yneg0	-8.76484
wfhg0	-8.7688
uo	-8.77251
uwyc2	-8.7729
fw	-8.77557
jv	-8.77842
nyu0	-8.78116
mm	-8.78139
efcb	-8.7834
fv	-8.78422
temk0	-8.78532
tl	-8.79727
alt	-8.80133
ivw	-8.80223
wffg	-8.80257
yft	-8.80847
nt	-8.80897
wgku1	-8.81274
yfj0	-8.81279
qtfj0	-8.81533
dht	-8.81852
wfg0	-8.81967
bw	-8.82134
ywt	-8.82259
hi	-8.8246
imkf1	-8.82784
yle	-8.8328
xjm	-8.83537
ca	-8.83974
ge	-8.8403
tfkp0	-8.84094
emc	-8.844
wgq	-8.84688
afs	-8.84916
riu0	-8.85069
ajt	-8.85124
vi	-8.85368
lc	-8.85399
qsu	-8.85546
xgu	-8.85601
tkgg1	-8.85646
dnnl	-8.85676
we	-8.85703
fghy2	-8.86094
fhh	-8.86182
wwv	-8.86249
ynt0	-8.86546
ha	-8.86678
xqa	-8.86953
ybv0	-8.86996
fhq	-8.87019
wdn	-8.87468
vck	-8.87519
uda	-8.87847
qmgk1	-8.87906
thgf1	-8.87907
wuk	-8.88226
wycm1	-8.88364
rfm	-8.88818
iyj	-8.88977
ltk	-8.89248
zzts10	-8.8933
wgkb0	-8.89524
cff0	-8.90318
ait	-8.90483
fk	-8.90704
ssq	-8.90972
iyw	-8.91491
sam	-8.91536
pwat0	-8.91631
gcft0	-8.91639
wgi	-8.91663
lqw	-8.91812
ryn1	-8.91874
vo	-8.92003
ukh	-8.92206
jhny	-8.92279
fu	-8.92345
bk	-8.92432
lks	-8.92508
qf	-8.92752
da	-8.93217
tffy0	-8.93306
wxj	-8.93628
on	-8.94225
dga	-8.9426
qje	-8.94517
bnn2	-8.9452
qgu	-8.94682
qnp	-8.94983
uxe	-8.95317
aet1	-8.95503
fjk	-8.95614
etn	-8.95654
yvi	-8.95738
yjj1	-8.95749
ylk0	-8.95996
ijo	-8.96026
bgh	-8.96386
ntf	-8.96626
ywf	-8.97173
naj0	-8.97494
ukd1	-8.97498
ub	-8.97554
jyie	-8.97778
us	-8.97899
xyy1	-8.97999
ugv	-8.98699
vs	-8.9882
yaa	-8.98915
gxgu	-8.99168
sfi	-8.99263
klj	-8.99286
tmdf1	-8.99791
ytf	-9.00287
ahty0	-9.00559
khd	-9.0066
aca	-9.0069
xn	-9.00736
wwf	-9.00779
mc	-9.0093
jghm1	-9.01079
wtl	-9.01253
my	-9.01329
iyo	-9.0135
eyni	-9.01635
pye	-9.01737
rnu0	-9.01866
kjj	-9.01894
geq	-9.02187
pfjm1	-9.02656
udj	-9.027
uqwm1	-9.02922
qnth	-9.03395
yv	-9.03833
dgv	-9.03887
uce	-9.03897
wye	-9.0446
khgm3	-9.04528
qtj	-9.04592
gny	-9.04594
eu	-9.05026
pynn0	-9.05069
vtkd0	-9.0507
ye	-9.0538
wm	-9.05478
iu	-9.05508
mtd	-9.05802
gmd0	-9.05891
iqc	-9.05922
wqu	-9.05977
dyt	-9.06072
sty0	-9.06172
fjfh1	-9.06437
imk	-9.068
sri	-9.06883
fge	-9.0703
yss	-9.07054
uep	-9.07145
abu	-9.07172
apg	-9.07179
yjs	-9.07587
ldd0	-9.07826
qng1	-9.07834
ytb	-9.08326
djb	-9.08504
ffuk	-9.08664
ywu	-9.08747
kwg	-9.09019
rlg0	-9.09236
hcd	-9.10061
os	-9.10325
hao	-9.1035
peg	-9.1036
qyng0	-9.10363
sfc	-9.10536
iaw	-9.10725
dmu1	-9.10937
fku	-9.1138
aps	-9.11427
wny1	-9.11525
adf	-9.11794
toln1	-9.11805
uwl	-9.11844
kgd	-9.11851
tmo	-9.1239
gku	-9.12715
ytey0	-9.12743
itk	-9.13268
adwn4	-9.13561
nudu	-9.13566
jce	-9.1376
udb	-9.13772
gkip0	-9.13857
wgkr1	-9.13864
pfjf1	-9.14156
ywyg1	-9.14451
ndj	-9.14477
ycf	-9.14652
wwk	-9.14659
myd0	-9.1475
tdkj0	-9.15049
hxx	-9.15176
btg	-9.15333
qkhh1	-9.1535
jfc	-9.15389
sgh	-9.15559
!	-9.15651
tuu0	-9.15653
ajd0	-9.15953
ldn	-9.16058
wsk	-9.16511
tlf0	-9.16565
bct	-9.16568
igt	-9.16634
bgk	-9.16681
ugh	-9.16682
gkih0	-9.16865
khv	-9.17114
rrg1	-9.17155
mhkg2	-9.1717
jq	-9.17254
tak	-9.17373
ese	-9.17431
wmj1	-9.17479
vep	-9.17706
hj	-9.17754
es	-9.17836
xgb	-9.17899
xuj	-9.17913
yssc0	-9.18403
wgc	-9.18483
sai	-9.18628
qm	-9.18756
ime	-9.1879
fyv	-9.18795
wyq	-9.18839
ygu	-9.18863
ol	-9.19234
ago	-9.19244
qv	-9.1958
ow	-9.19798
gmy0	-9.2001
fmk	-9.20097
vtg	-9.20204
xqc	-9.20357
tie	-9.20762
xu	-9.20831
mhny1	-9.20915
afd1	-9.20916
ftg	-9.21177
wxm	-9.2132
bfw	-9.21795
fkuk2	-9.21873
fkuc3	-9.22517
alf0	-9.22523
dl	-9.23032
<	-9.23166
mqj	-9.23185
sqt	-9.23287
pfq	-9.23454
gmi	-9.23557
yxu	-9.23796
wnh	-9.23995
iqn	-9.2427
oi	-9.2431
dhc	-9.24458
tha	-9.24653
siq	-9.24664
qkd	-9.24693
sss	-9.24757
fnud	-9.2489
rffg0	-9.25137
ypm	-9.25139
imj	-9.25164
dpq	-9.25447
afl	-9.25716
etg	-9.26
yad	-9.26282
ttd	-9.26369
dcw	-9.26444
drin0	-9.26472
rwyg0	-9.26473
yd	-9.26682
tfp	-9.26717
aig	-9.26883
aqrn1	-9.2715
sfhg	-9.2718
kc	-9.27318
jvko0	-9.27486
pvs	-9.27595
fpx	-9.27792
wwkw0	-9.27826
ajdf	-9.27833
ycb	-9.27915
pww	-9.28069
}	-9.28167
euk	-9.28175
ufk0	-9.28521
2	-9.28623
pfj	-9.29043
yoo	-9.29051
wyna0	-9.29198
ytm	-9.30207
qie	-9.30328
jsd	-9.30336
nkuf	-9.30392
tdt	-9.30638
{	-9.3094
xyc	-9.31015
upy	-9.31242
wynn3	-9.31292
lfof3	-9.31292
mwyc0	-9.31298
ng	-9.3141
usg	-9.31458
ui	-9.31517
fpm	-9.31547
xxe	-9.3158
alp	-9.31659
ipg	-9.3175
lm	-9.31823
iyt1	-9.32002
oa	-9.32067
lud	-9.32163
fhc	-9.32186
jtyl	-9.3228
pk	-9.32292
ijx	-9.3262
ju	-9.32918
yssd0	-9.33072
saj0	-9.33073
dtf	-9.33175
ivfh1	-9.33431
ipwk0	-9.33441
mhg	-9.33444
wvt	-9.33588
af	-9.3369
rmc	-9.33691
at	-9.33793
tem	-9.34137
ah	-9.34479
〔	-9.34518
eve	-9.34613
gogj	-9.34635
qtdn1	-9.34885
rvy	-9.35281
rny1	-9.35329
abi	-9.35563
gtu	-9.35711
egl	-9.35951
」	-9.35986
udg2	-9.35987
oyn	-9.35992
wvf0	-9.36015
rrhy	-9.36351
iwf	-9.365
tdn	-9.36515
syg	-9.36599
gkm	-9.3689
fjh0	-9.37854
vtkb0	-9.37856
inx	-9.37877
quj	-9.38066
sj	-9.38123
mp	-9.38419
aj	-9.38678
tdaf0	-9.38989
ysi	-9.39046
apl	-9.39155
yps	-9.392
ds	-9.40218
le	-9.40437
sfh	-9.40437
ybb	-9.40467
tuj0	-9.40553
nhj	-9.40589
aib	-9.40611
「	-9.40911
ian1	-9.4093
lqy	-9.41358
ifh0	-9.41368
waj0	-9.42101
pfqf	-9.42155
dgj	-9.42245
sw	-9.42255
swb	-9.42279
rpw	-9.42309
fwyc2	-9.42477
jcm	-9.42688
mmq	-9.42751
jghy0	-9.42875
lfnh	-9.43173
maw	-9.43436
xo	-9.43769
ytn	-9.43885
zzts8	-9.44067
wyk	-9.44247
tey0	-9.44427
′	-9.44453
igey0	-9.44579
dwt	-9.44715
knx	-9.44867
dfny1	-9.44872
sff1	-9.44915
esv	-9.4503
bfm	-9.45093
tvr	-9.45177
ptkm1	-9.45277
rvyl0	-9.45278
khn	-9.45431
au	-9.45582
fwm	-9.4566
qvn0	-9.45687
rdf0	-9.4574
iie	-9.46039
_	-9.46092
wnnp0	-9.46092
wyp	-9.461
ywwf0	-9.4611
sgtu0	-9.46502
gjh2	-9.46502
bqr	-9.46681
thp	-9.46738
tux	-9.47036
yuo	-9.4737
rtol0	-9.47743
uqsg	-9.48032
iyv	-9.48574
iyn1	-9.48584
xtu	-9.48858
pfjs	-9.48924
ynky6	-9.48997
qrm	-9.49229
tduh0	-9.49419
aqu0	-9.49419
fl	-9.49446
wyo	-9.49597
qge	-9.5011
xan	-9.50129
sfg	-9.50191
qvfp1	-9.50268
ieb	-9.50493
cccs3	-9.50695
tfkf0	-9.50696
rdfh0	-9.5071
uag1	-9.50887
bwf	-9.51104
gbnm1	-9.51124
gogn0	-9.51571
wwj	-9.51649
ay	-9.51856
twt	-9.52119
\	-9.52423
ebn0	-9.52439
qkq	-9.5251
vx	-9.52511
pt	-9.52648
pwfi0	-9.5286
uygh1	-9.52861
guw	-9.53297
afff2	-9.53298
yyq	-9.53535
hid	-9.53816
ahn	-9.53934
uqt	-9.53951
uyiy0	-9.54182
gqje0	-9.54182
yc	-9.5436
yk	-9.54392
dmd	-9.54449
mfky	-9.54486
〕	-9.54626
qaj0	-9.54634
akgl	-9.54637
egm	-9.55063
oth	-9.55082
thn	-9.55134
hwb	-9.5528
ngc	-9.55376
zzsx5	-9.55521
zzj0	-9.55971
wwx	-9.55972
yvcb0	-9.55972
fiyt	-9.56164
qnq	-9.56277
rpws	-9.56368
ef	-9.56385
rcy1	-9.56445
pyu	-9.56467
tep	-9.56774
iugg0	-9.5688
su	-9.56932
tsh1	-9.56942
www	-9.57222
eyb	-9.5732
nnl	-9.57324
jlc	-9.57985
ipq	-9.58111
tgjn2	-9.58254
wtuf1	-9.58297
fkhk	-9.58331
pgj	-9.58572
vf	-9.58709
zzy0	-9.58717
mf	-9.58863
drt	-9.58914
jjj0	-9.59182
ykw	-9.59288
khi	-9.59409
ishg	-9.59603
nhy	-9.59638
xkw	-9.60005
enr	-9.60047
dnv2	-9.60119
cbd	-9.60375
iya	-9.60474
yssr0	-9.60595
gyg0	-9.60608
waye	-9.60696
ydn	-9.60824
qim	-9.60837
naw	-9.61034
tkw	-9.61351
teg1	-9.61557
lwg	-9.61755
xln0	-9.62028
qjq	-9.62049
icf	-9.62222
awf	-9.62361
ssn	-9.62467
am	-9.62532
thl	-9.63209
wycb	-9.6332
iqpl1	-9.63469
fmy0	-9.63544
mqc	-9.63947
eq	-9.63961
fghy1	-9.63989
falw	-9.63997
jlx	-9.64381
tuk	-9.64418
nyi2	-9.64447
vyi0	-9.64447
ggw	-9.64631
nu	-9.64772
du	-9.64958
dyw	-9.65011
dyn	-9.65029
ipm	-9.65205
uji2	-9.65435
wgkl2	-9.65437
wksf	-9.65441
cwg	-9.65799
qtal1	-9.65932
uejo0	-9.65932
nb	-9.66268
khgp0	-9.66432
tam	-9.66495
rawk	-9.66775
qtq	-9.66807
zzy1	-9.66934
pds	-9.67035
fuj	-9.6786
yaf	-9.67877
kqw	-9.68264
nyiy0	-9.68458
isw	-9.68511
sks	-9.68641
xyx	-9.68673
iwt	-9.68725
qdt	-9.69034
kcg	-9.69038
nng	-9.69114
whf0	-9.69158
jm	-9.6945
zzdw5	-9.69485
ynj	-9.69499
ivs	-9.69718
tdij0	-9.70004
nny1	-9.70006
qdm	-9.70094
pwv	-9.70161
ynk	-9.70707
ujff	-9.70717
kqy	-9.70907
fi	-9.71035
sfiu1	-9.71048
nc	-9.71105
aqk	-9.71244
nla	-9.71576
rap	-9.71952
fmud	-9.72005
xm	-9.72023
gkf0	-9.72155
ium	-9.72594
kfa	-9.72602
aqky1	-9.72638
gqg0	-9.72675
iuc	-9.72808
mhu	-9.72933
dff2	-9.73171
ytfp0	-9.73171
rnn0	-9.73274
khq	-9.7333
iaqg	-9.73631
fcn	-9.73942
em	-9.74092
hnd	-9.74552
xww	-9.74814
wbb0	-9.74855
rfc	-9.75109
rufh1	-9.7534
#	-9.75888
diu1	-9.75889
kkhn	-9.76037
mga	-9.76069
bwg	-9.76266
ajq	-9.76401
ffh0	-9.76488
doq	-9.76498
ynty0	-9.76813
cbts1	-9.76996
wdy1	-9.77005
uwa	-9.77137
wfk	-9.77142
ubtf0	-9.77557
ymd	-9.77686
ftb	-9.77778
fwyf0	-9.77784
3	-9.78086
qejy	-9.782
dcg	-9.78489
fke	-9.78538
gfq	-9.78914
uqwn2	-9.79249
lgey2	-9.7925
oq	-9.79538
dtb	-9.7967
qtb	-9.79674
iss	-9.79739
ssf	-9.7986
il	-9.79871
pdc	-9.80137
xwf	-9.80355
lgm	-9.8036
gkh0	-9.80398
qbp	-9.80536
isj	-9.80795
oyv	-9.80802
toc	-9.81168
bq	-9.81381
ifj	-9.81486
un	-9.81666
hh	-9.81671
ipkm1	-9.8214
nii0	-9.8214
ypeu	-9.82158
ap	-9.82206
ujqu	-9.82259
utk	-9.82417
〉	-9.82728
anu0	-9.82728
tcy0	-9.82742
ynm	-9.82809
awsk	-9.82839
zzsx34	-9.8332
uqi0	-9.83321
pwd	-9.83667
ex	-9.83714
wkhh	-9.83965
wfy0	-9.84053
so	-9.84508
ahtb0	-9.84514
utem1	-9.84514
pgf1	-9.84544
aup	-9.84596
jgg0	-9.84798
yam	-9.84956
fof	-9.85089
ifh1	-9.85159
nj	-9.85189
qkk	-9.85565
dwf	-9.85692
|	-9.85722
ajdh	-9.85746
hn	-9.85931
rmn0	-9.86337
rlf0	-9.86339
ddg1	-9.86718
wvl	-9.86752
tfhy	-9.86972
bv	-9.87496
pwu0	-9.87563
qjf	-9.87585
jat	-9.88074
ngj	-9.88217
itol	-9.88237
wyn	-9.884
xfn	-9.88405
qyt	-9.88728
atg	-9.88782
trh0	-9.88851
mu	-9.89175
aqb0	-9.89471
afi	-9.89524
gmap	-9.89812
nua	-9.90081
mdfj	-9.90096
and	-9.90106
pwy	-9.90635
fakg0	-9.9071
ykg0	-9.90714
fwy0	-9.90726
fdf1	-9.90749
fgu	-9.9095
ubt	-9.91307
tvfh0	-9.91352
yvc	-9.91787
mnm	-9.91939
rtt0	-9.92012
itm	-9.92117
sft	-9.92217
jpx	-9.92296
gv	-9.9233
khx	-9.92362
dyc	-9.92427
ywfw0	-9.92644
mpf	-9.93029
temq0	-9.93298
qu	-9.93558
ipmq	-9.93587
xpw	-9.93696
vnu1	-9.93955
rgd0	-9.94032
sga	-9.94046
ynnu	-9.94056
pwdj	-9.94324
cds	-9.9442
g1	-9.94487
uxh	-9.94593
eqn	-9.94702
va	-9.94751
wvm	-9.94992
tfqm1	-9.95284
wfn	-9.95336
fyn	-9.95401
pwr	-9.95446
begg	-9.95608
qjn	-9.95682
xtdp1	-9.95955
yuvo1	-9.95955
yned	-9.96026
vgk	-9.96049
qhk	-9.96159
rqc	-9.96182
lkm	-9.96438
adj	-9.96589
tqdh0	-9.96631
infy	-9.96634
quh1	-9.96634
ynnd	-9.96807
ynv	-9.96945
ldj	-9.96997
sdw	-9.97285
ifw	-9.97555
lkb	-9.97578
lx	-9.97774
srm	-9.97777
srg	-9.97787
itdy	-9.98053
ms	-9.98082
tei	-9.98276
cad	-9.98562
fnhc0	-9.98685
txgi5	-9.98685
wgen1	-9.98687
pyuf0	-9.9869
ys	-9.98722
qnr	-9.98738
iqgg	-9.98818
tca	-9.99097
rnv0	-9.99383
khij	-9.99476
oja	-9.99698
xat0	-10.0009
vcag	-10.0009
yw	-10.0048
sym	-10.0058
smu1	-10.0078
iha	-10.0087
wnt	-10.0109
ufg	-10.0121
cbq	-10.0131
sgy	-10.0134
wwwk0	-10.015
tlo	-10.0153
etj	-10.0175
vq	-10.018
xfm	-10.0196
qya	-10.0211
zzy2	-10.0221
qtvb0	-10.0221
wtfm1	-10.0221
tuh0	-10.0222
y0	-10.0224
nwy	-10.0226
vit	-10.0256
hxf	-10.0266
asg	-10.0288
wfkb0	-10.0293
oufg	-10.0293
kjq	-10.0307
vv	-10.0336
ydm	-10.0344
sq	-10.0422
iff1	-10.0443
aynq	-10.0453
yon	-10.0467
fo	-10.047
uxx	-10.0505
awn	-10.0507
ukqb2	-10.0512
udr0	-10.0513
ujq	-10.0522
gma	-10.0523
yox	-10.0531
jel	-10.0533
iqp	-10.0567
egcn	-10.0572
smgk	-10.0579
cexo0	-10.0586
qnu1	-10.0586
sfiq0	-10.0586
rpwn0	-10.0586
qmk	-10.0588
mty1	-10.0589
jef1	-10.059
ifk0	-10.059
gki	-10.0607
wfd0	-10.0663
rep	-10.0664
whn	-10.0694
sgm	-10.0714
tevc	-10.0719
tmgk2	-10.0735
usi1	-10.0736
qlp	-10.0742
luf0	-10.0743
cel	-10.0771
wjh	-10.079
ivp	-10.0803
blf0	-10.0812
jhk1	-10.0812
gajh	-10.0843
goi	-10.0847
ahnh2	-10.0888
ywwg2	-10.0888
ffc	-10.0927
uoo	-10.0932
uge	-10.0941
epw	-10.0941
qyv	-10.0945
tjs	-10.0949
ktm	-10.0962
aeu	-10.097
ghg1	-10.0971
qtg	-10.0972
wjm	-10.0991
ipkr	-10.1009
lf	-10.1016
fym	-10.102
zzts13	-10.1045
mjq	-10.1049
tga	-10.1068
vjs	-10.1103
yop	-10.1115
kwn	-10.1116
gx	-10.1117
ians0	-10.112
yyn2	-10.112
jtyq1	-10.112
fjg0	-10.1126
qgh	-10.1129
fgi	-10.113
ijlc	-10.1193
gqjo0	-10.1199
qty2	-10.1199
rbcc	-10.125
xjk	-10.1273
xtdh0	-10.1278
nywf1	-10.1278
tqv	-10.1289
aak	-10.1295
si	-10.1304
nk	-10.1324
auq	-10.1332
ftl	-10.1333
god	-10.1346
jghx	-10.1352
wkh0	-10.1358
kmh0	-10.1361
ain	-10.137
gcg	-10.1371
tol	-10.1377
wfi	-10.1393
gmiu	-10.1404
yca	-10.141
fuk	-10.1416
wff0	-10.1427
nkue0	-10.1439
iwy2	-10.1439
pntj0	-10.144
ulg	-10.1448
rmay	-10.1449
cccg0	-10.1455
iry	-10.1458
avi	-10.1479
g0	-10.1491
kkfb1	-10.152
agnn1	-10.1521
pwt	-10.1521
dhq	-10.1577
jtyq0	-10.1603
nhd0	-10.1603
qyi0	-10.1603
ybf0	-10.1605
iqv	-10.1607
txgt	-10.1641
eck	-10.1663
bmg	-10.1667
〈	-10.1685
aah0	-10.1685
ipe	-10.1699
vp	-10.1701
qtd	-10.1705
rry	-10.1757
madt2	-10.1768
uai0	-10.177
eud	-10.179
wyf0	-10.1822
inro	-10.1825
xy	-10.1825
adn	-10.1833
rae	-10.1845
uft	-10.1852
xkjn1	-10.1852
sgjq	-10.1854
sgmj	-10.1927
hich0	-10.1937
qkqp0	-10.1937
zzxx11	-10.1939
oanw	-10.1949
isjg	-10.1985
syp	-10.202
sgyb0	-10.2023
rkk	-10.2023
ls	-10.2046
rpwi	-10.2054
ynma	-10.2056
wuf	-10.2059
tev	-10.2096
suf	-10.2097
uejv0	-10.2109
uqyl	-10.2109
iat1	-10.2109
wmg1	-10.211
jhf1	-10.2112
uc	-10.2161
oft	-10.2169
utd	-10.2179
nat0	-10.2196
fhg1	-10.2199
rnp	-10.2246
ws	-10.2273
gmu1	-10.2283
wuh0	-10.2284
nv	-10.2288
hwbc	-10.2296
xtf	-10.2302
cbj	-10.2344
eri	-10.2355
kwyg0	-10.2372
dnp	-10.2408
dxy	-10.2408
iwgj0	-10.2461
vvf1	-10.2461
fuf0	-10.2462
lfon1	-10.2463
xten1	-10.2466
ynf	-10.2514
oqdo	-10.2524
pwkw	-10.2618
awnu1	-10.2642
fjgh0	-10.2642
ogbn0	-10.2642
rnnw0	-10.2644
dhd	-10.2683
4	-10.2731
amyn1	-10.2734
rvyf0	-10.2735
nku	-10.2743
nnu	-10.2746
itfk0	-10.278
tn	-10.2818
agnt0	-10.2826
sagg0	-10.2827
tfpd0	-10.2827
bbh0	-10.2827
telb	-10.2833
san	-10.2834
rdc	-10.2839
fjf	-10.2845
wfh0	-10.2848
uvh	-10.2867
kqb0	-10.2914
zzzy22	-10.292
khtd2	-10.292
wgep	-10.2954
ndn	-10.2972
pyv	-10.2995
mgu	-10.3012
ˋ	-10.3014
udng0	-10.3014
ubk1	-10.3014
ykge	-10.3022
dwg	-10.3043
ypk	-10.3045
cqw	-10.3054
qgo	-10.3102
uqwl	-10.3102
xef	-10.3107
maf1	-10.3112
qtbl	-10.3133
icw	-10.3141
shi	-10.3157
lkc	-10.32
kcb0	-10.3206
ssk	-10.3232
aga	-10.3262
sp	-10.3289
lfod0	-10.3303
yud1	-10.3304
jqb	-10.3334
n1	-10.3351
]	-10.3401
pdhj0	-10.3401
ˊ	-10.3401
kkh0	-10.3401
zzsx35	-10.3401
aqv1	-10.3401
pujn0	-10.3401
faf1	-10.3403
stt	-10.3425
vyv	-10.3436
sad	-10.3442
fnh	-10.3459
bib	-10.3461
atj	-10.3481
dav	-10.3506
dfe	-10.3513
bwj	-10.3532
qmw	-10.3535
rcp	-10.3547
aynr	-10.3571
fpo	-10.3596
qug2	-10.36
ipf	-10.3613
rhy	-10.3632
5	-10.3644
wcw	-10.3651
pta	-10.3656
f0	-10.3666
sup	-10.3681
hxs	-10.3689
rytp1	-10.3701
pynk0	-10.3701
yopy1	-10.3701
mn	-10.3712
gyiy	-10.3724
wda	-10.3727
sa	-10.3787
fhfk1	-10.3803
ftxu1	-10.3803
ahko0	-10.3803
xnn1	-10.3807
mdo	-10.3892
op	-10.3894
gkim1	-10.3906
yfy2	-10.3906
fkue0	-10.3906
ulk3	-10.3906
hm	-10.3923
hjj	-10.3923
iwe	-10.3927
dgty	-10.3958
ert	-10.399
dfi	-10.399
uym	-10.4016
gaj	-10.4064
qtjh0	-10.4115
uxxn0	-10.4116
pwtf1	-10.4116
qkqy0	-10.4117
ecl	-10.4128
qdb	-10.4147
awb	-10.4159
wul	-10.4162
9	-10.4221
mdff3	-10.4222
thdu0	-10.4222
iej	-10.4233
rvl	-10.4251
irn	-10.4252
hq	-10.4254
pwl	-10.4313
iuw	-10.4327
[	-10.4329
tfj0	-10.4333
ywe	-10.4339
nmh	-10.4343
lrj	-10.4374
ugk	-10.4379
rke	-10.4384
xp	-10.439
xev	-10.439
ivg	-10.4409
vpe	-10.4414
ufw	-10.4433
no	-10.4435
zzxx1	-10.4435
ynjh1	-10.4439
xox	-10.4446
f1	-10.4463
ve	-10.4465
trt	-10.4514
xxf	-10.453
h1	-10.4531
tjgh3	-10.4548
rwye1	-10.4549
hhy0	-10.4549
grd	-10.4559
apw	-10.456
xft	-10.4562
ayn	-10.457
iqny	-10.4595
xxm	-10.4615
qevj	-10.4629
tom	-10.4651
bqv	-10.4653
uxt	-10.4655
vij	-10.4657
acbt1	-10.4659
zzy3	-10.4659
djdn3	-10.4659
iwyf1	-10.4659
ditn1	-10.4659
uter	-10.4663
xvk	-10.4667
fct	-10.4673
fay	-10.4699
hxw	-10.4725
hic	-10.4725
rqn	-10.4727
uw	-10.4729
ihcv	-10.4732
xi	-10.4746
puw	-10.4769
aigy	-10.4771
wgnb0	-10.4772
vcn1	-10.4772
kyn1	-10.4772
jtd	-10.4774
ipgg0	-10.4776
aqo	-10.4778
lv	-10.4821
sgty	-10.4847
zzzy21	-10.4885
gqto0	-10.4885
xng2	-10.4885
wcn0	-10.4889
igd	-10.49
agq	-10.4907
jhnr	-10.4919
iak	-10.4975
nbm	-10.4998
、	-10.5
uuk1	-10.5
zzts11	-10.5018
ihg1	-10.503
wbg0	-10.5035
yuv	-10.5062
trng	-10.5068
yxl	-10.5085
jqw	-10.5091
fhb	-10.5113
deb	-10.5114
zzxx0	-10.5117
′′	-10.5118
jmd	-10.5121
eerq	-10.5122
ssg	-10.5126
svc	-10.5137
rvh	-10.5158
ifn	-10.516
sjs	-10.5162
rnc	-10.517
uxl	-10.5174
fue	-10.5185
jan	-10.5229
ydjn1	-10.5234
geh0	-10.5234
nfd0	-10.5234
epv0	-10.5234
jaw	-10.5251
vkf0	-10.5261
itp	-10.5279
tdh	-10.5296
auqw	-10.5353
rhyc1	-10.5353
mqi0	-10.5353
tgm	-10.5372
rqa	-10.5377
wfg1	-10.5385
pyk	-10.5419
ixj	-10.5437
uit	-10.5438
ryc	-10.5445
eeq	-10.5448
tri	-10.5461
yaop0	-10.5473
cal	-10.5476
fas	-10.5482
uwb	-10.549
tdjh1	-10.5503
sce	-10.5506
xry	-10.5515
cl	-10.5523
udjh	-10.5549
wgu	-10.5566
ykk	-10.5566
twgi	-10.5569
aiit	-10.5584
awv	-10.5593
rgv	-10.5594
qwyc1	-10.5595
sfw	-10.5626
edjn	-10.5633
nn	-10.5655
int	-10.5708
ebf0	-10.572
efg1	-10.5722
esw	-10.5744
hjs	-10.5775
8	-10.5841
wqbh0	-10.5844
vcy0	-10.5844
uyt1	-10.5845
tdtf0	-10.5845
nfh1	-10.5846
rjg1	-10.587
lfc	-10.5919
qgq	-10.5929
tdp	-10.5962
iwyf2	-10.597
vynu	-10.597
elv	-10.597
swgj0	-10.5971
qkqq0	-10.5971
n0	-10.5975
ruj0	-10.5981
ryl	-10.6002
xtk	-10.601
smq	-10.6035
qta	-10.6051
ly	-10.6081
sgtk1	-10.6099
rtfp0	-10.61
rfw	-10.6116
gss	-10.614
ode	-10.6146
y1	-10.6168
xqi	-10.6215
syf	-10.6225
xcy0	-10.6229
iann0	-10.6248
fwf	-10.6251
nyp	-10.6286
caq	-10.6304
qtw	-10.6358
pyfc1	-10.636
wwgj0	-10.6361
rhyi0	-10.6361
iwgu	-10.6361
in	-10.6362
kcy0	-10.6363
vii	-10.6404
7	-10.6427
tqd	-10.6444
eaj	-10.6478
viq	-10.6481
6	-10.6491
qtny1	-10.6493
ajdn0	-10.6493
zzpj45	-10.6493
rvn2	-10.6494
shy0	-10.6505
trfh1	-10.6514
bl	-10.6519
ql	-10.6545
epi	-10.6555
rajd	-10.6555
fjw	-10.6599
qre	-10.66
kwyn1	-10.6629
dlf0	-10.663
fcln	-10.6638
reh	-10.6655
alq	-10.6668
zzbd12	-10.6693
lftj	-10.6715
sux	-10.6747
mb	-10.6753
zzts9	-10.6765
yvk	-10.6778
tqt	-10.6803
okk	-10.6812
rcbs	-10.6831
eqd	-10.6839
qrn	-10.6841
dqe	-10.6843
is	-10.6869
ujt	-10.6869
pjm	-10.6875
opw	-10.6897
tmgt3	-10.6904
edy1	-10.6907
aitl	-10.691
ihi	-10.6976
rqw	-10.6987
xrc	-10.6994
kkdu	-10.701
uve	-10.7015
qten1	-10.7045
qlh1	-10.7046
gwy1	-10.7047
aigh	-10.7049
dfa	-10.7089
k0	-10.7127
wyl	-10.7129
rma	-10.7138
vfi	-10.7151
vaf	-10.7163
dfek	-10.7179
yxt	-10.7181
tonu0	-10.7188
nuk1	-10.7188
fjt	-10.7189
xfg0	-10.7193
idt	-10.7208
ttt	-10.7249
ptf	-10.7327
―	-10.7333
mmgd0	-10.7333
nxf	-10.734
rkm	-10.7345
uck	-10.7392
idl	-10.7425
uv	-10.7444
wxd	-10.7453
jvk	-10.7455
ukk	-10.747
djdl2	-10.748
tdtv0	-10.748
alkf0	-10.748
qwy1	-10.748
j0	-10.7488
adh	-10.7493
ipl	-10.7518
dgk	-10.7559
tdj	-10.7615
efw	-10.7622
fhqv0	-10.7629
wnnf0	-10.7629
swy2	-10.7629
tmh0	-10.7638
ysj	-10.7644
ice	-10.7644
kfg	-10.7657
ypt	-10.7743
faw	-10.7773
–	-10.7781
nynn0	-10.7781
qnqv0	-10.7781
rng2	-10.7783
iyb	-10.7786
kv	-10.7865
aik	-10.7902
fyb0	-10.7935
ffhy	-10.7935
kwgj0	-10.7937
hgm	-10.7947
qna	-10.7985
xfnh	-10.7993
uqwv	-10.8005
mhm	-10.8009
vkgd	-10.8032
zzdx23	-10.8091
geht0	-10.8091
yceh1	-10.8094
mwwk0	-10.8094
irh0	-10.8094
ijq	-10.8115
iww	-10.8142
qyk	-10.8179
ngkg	-10.8204
sgx	-10.8235
yvw	-10.8243
wkso2	-10.825
】	-10.825
khh0	-10.825
jaj1	-10.825
qgbn1	-10.8252
wyb	-10.8269
kuq	-10.8279
quk	-10.8303
spq	-10.8314
bqn	-10.8315
fs	-10.8341
iux	-10.8344
qvb	-10.8392
glf	-10.8404
qnj	-10.8406
dfff0	-10.8411
eyf	-10.8411
vkb	-10.8451
fwn	-10.8478
qnw	-10.8495
vnx	-10.851
bcv	-10.8544
awnu0	-10.8575
lnn2	-10.8575
usgp1	-10.8575
pyb1	-10.8575
ripq0	-10.8576
yveh	-10.8579
nck	-10.8611
jcu	-10.8623
umc	-10.8673
cyna1	-10.8741
khgp1	-10.8741
qtgf3	-10.8742
wqb1	-10.8743
vc	-10.885
ssu	-10.8871
tmc	-10.888
lqj	-10.888
afw	-10.8888
sqj	-10.8896
zzpj3	-10.8905
yyne0	-10.8911
ilg2	-10.8911
bukn0	-10.8912
vnn0	-10.8913
kjf0	-10.8917
nfp	-10.8919
ica	-10.8934
zzbd17	-10.8995
vijh	-10.9037
yjse	-10.9069
@	-10.9083
alfj1	-10.9083
ougo0	-10.9083
mhhm0	-10.9083
ipgh0	-10.9084
gkq	-10.9099
adiy	-10.9121
avd	-10.9124
pwm	-10.9133
skf	-10.9137
mds	-10.9166
fy	-10.9173
yeu	-10.9191
vu	-10.9193
igk	-10.9196
qtk	-10.9235
rfh1	-10.9239
atdp	-10.9253
ujqn1	-10.926
zzts12	-10.9269
kru	-10.9299
atgq	-10.9339
mta	-10.9361
tkm	-10.938
qs	-10.9393
khr	-10.9394
gik	-10.9403
kml	-10.9424
gmii2	-10.9437
sgmk0	-10.9438
qbn1	-10.9439
rpd1	-10.9439
qdy1	-10.9446
udv	-10.9447
qth	-10.9452
rqym	-10.9502
pq	-10.9516
khj	-10.9548
bgu	-10.9567
kynw0	-10.9619
zzpj5	-10.9619
qtyd0	-10.9619
oyna0	-10.9619
tmds1	-10.9619
akgn0	-10.9623
sqdy	-10.9632
ryj	-10.9654
vah	-10.9661
xnf	-10.9666
el	-10.9669
swgu	-10.9692
qnqn	-10.9709
wdk	-10.9758
wgmy2	-10.9804
sgjg0	-10.9805
tdnj0	-10.9806
puf0	-10.981
anf0	-10.9812
gxw	-10.9814
wgg1	-10.9829
tjtl	-10.984
epqh	-10.9852
qci	-10.9902
ibi	-10.9938
kxe	-10.9952
ihic	-10.9963
mmv0	-10.997
ito	-10.9988
zzts7	-10.9993
【	-10.9993
qtgw1	-10.9993
wynm1	-10.9993
qtoy0	-10.9993
dgkf1	-10.9994
rqb0	-10.9995
rtb	-10.9996
cbn1	-10.9997
ipks	-11.0018
ssm	-11.002
ref	-11.0035
jge	-11.0076
ucd	-11.008
bwff0	-11.008
uxhp	-11.0087
bdx	-11.0111
gklp	-11.0118
eaf	-11.0163
zzjp86	-11.0185
fnhp0	-11.0185
khuh0	-11.0186
zzdl1	-11.0186
vff0	-11.019
ja	-11.0201
ack	-11.0206
dan	-11.0223
big	-11.0233
uem	-11.0311
ubte	-11.032
gyb	-11.033
ivy	-11.034
ntt	-11.0355
yyv	-11.0364
ymkc1	-11.0381
tet0	-11.039
wat	-11.0413
fjhh	-11.0419
xyj	-11.0438
saq	-11.0461
rjq	-11.0463
pjv	-11.0506
suj	-11.0546
uni1	-11.0581
afwt1	-11.0582
ahtg0	-11.0582
puvk2	-11.0582
wxb0	-11.0588
ile	-11.0595
atgn	-11.0633
xuq	-11.0636
srq	-11.0684
kkc	-11.0692
fft	-11.0712
wvn	-11.0744
qvhc0	-11.0786
nfif0	-11.0786
nied	-11.0786
pynn1	-11.0786
tqf0	-11.0803
fgig	-11.0862
uyu	-11.0867
tew	-11.0921
pde	-11.0948
xnh	-11.0955
ish	-11.0985
zzjp82	-11.0994
sqqd0	-11.0994
afie0	-11.0994
kftj1	-11.0995
abf1	-11.1003
qsj	-11.1004
scbk	-11.1024
vd	-11.1025
adwl	-11.1045
uqb	-11.1065
bda	-11.1126
ifhw	-11.1144
sds	-11.1196
^	-11.1207
〖	-11.1207
jplh0	-11.1207
nwgk0	-11.1207
rumt0	-11.1207
mee0	-11.1207
bty0	-11.1216
rfj0	-11.1219
dmq	-11.1223
eeqy	-11.1235
pujs	-11.1254
ogu	-11.1285
efk	-11.1324
aus	-11.1419
nngt	-11.1422
adu1	-11.1424
ajf1	-11.1427
dup	-11.1427
die	-11.1451
qgl	-11.1468
msj	-11.1472
vtd	-11.1492
ayx	-11.1533
suh	-11.1542
qqq	-11.158
wup	-11.1582
vte	-11.1585
wgqt	-11.1613
ythp1	-11.1646
fnv0	-11.1646
ijfg1	-11.1647
tnb0	-11.1647
sqy0	-11.1648
aflf0	-11.1648
zzts15	-11.1651
dif	-11.1655
gmm	-11.1662
wgkg1	-11.1662
dhv	-11.1673
hna	-11.1687
nir	-11.1702
mwy0	-11.1708
qbl	-11.171
fad	-11.1718
ugku	-11.1719
med	-11.1782
gyv	-11.1803
sjx	-11.1809
tavn	-11.1816
rtfj0	-11.1833
iugi1	-11.1874
twik0	-11.1874
vtdj0	-11.1874
djde0	-11.1874
nfa	-11.1885
vcl	-11.1915
gqf	-11.1935
wvp	-11.1937
efc	-11.1976
ssyx	-11.1989
oqd	-11.2098
fhwm1	-11.2106
sou1	-11.2106
pju0	-11.2107
ikh1	-11.2107
aqgn0	-11.2108
rdjn0	-11.211
apgy0	-11.211
klg1	-11.2119
ukq	-11.2129
cccf1	-11.2139
see	-11.2213
abe	-11.223
adi	-11.2232
wtp	-11.2235
ynvf	-11.2243
wds	-11.2247
lxx	-11.2283
opf	-11.2302
bpx	-11.2303
$	-11.2344
khes1	-11.2344
zzhb4	-11.2344
〗	-11.2344
bynw0	-11.2344
uywu0	-11.2344
qqug1	-11.2344
qrnq0	-11.2344
aaf0	-11.2356
lge	-11.236
icd	-11.237
jff1	-11.2392
qqy1	-11.2413
ynh	-11.2415
wge	-11.2444
tda	-11.2533
kpt	-11.2542
ton	-11.2561
nkuv0	-11.2588
kld	-11.2624
khp	-11.2639
mcw	-11.2648
fyk	-11.2681
vfh	-11.274
atm	-11.2763
yte	-11.2779
wam	-11.2789
zzjp3	-11.2833
zzxe0	-11.2838
zzxe2	-11.2838
adef1	-11.2838
vyi1	-11.2838
iujg0	-11.2839
uqvd1	-11.2839
najg	-11.2839
nkuy0	-11.2839
rrqc0	-11.284
ddnl	-11.2871
awg	-11.2875
aym	-11.2932
oqm	-11.2952
aje	-11.2969
tuxj	-11.2988
adkn	-11.304
ntx	-11.3066
zzjp5	-11.3093
zzdx20	-11.3094
ynwy1	-11.3095
zzjp24	-11.3095
dfef0	-11.3095
tmfk1	-11.3096
buj	-11.3098
iet0	-11.3098
iaj0	-11.3106
smmv0	-11.3127
fak	-11.3128
fgf0	-11.3141
dwy0	-11.3163
xwv	-11.3194
yga	-11.3292
afqb1	-11.3358
ahkm3	-11.3358
ynth1	-11.3358
qajf0	-11.3358
khqb0	-11.3358
rqcf1	-11.336
mrg0	-11.3361
tvt	-11.3363
awj0	-11.3376
aum	-11.3423
veg	-11.3438
odm	-11.3469
whm	-11.3574
thfn	-11.3581
fff1	-11.3599
pykw	-11.3599
tmf	-11.3601
ype	-11.3619
zzsx0	-11.3628
zzy4	-11.3628
yxxr1	-11.3628
dbv0	-11.3628
sdy1	-11.3629
khg0	-11.363
whtn0	-11.3633
mfc	-11.3637
pwav	-11.371
oqv	-11.3721
udrc	-11.3727
tgv	-11.3756
iwv	-11.3762
bqt	-11.3773
pum	-11.3827
why	-11.3845
atv	-11.3867
sgtq	-11.3902
zzjp2	-11.3904
zzxe8	-11.3906
yntw0	-11.3906
hndm0	-11.3906
sgyh0	-11.3906
tdu0	-11.3906
ikm	-11.3907
dsh0	-11.3909
utdk	-11.3926
dubw	-11.3943
kdgt1	-11.3968
pdx	-11.4057
zzzy13	-11.4191
zzzy32	-11.4191
•	-11.4191
udnb1	-11.4191
wgkm5	-11.4191
qtfq2	-11.4191
trfg0	-11.4192
ald0	-11.4193
knt1	-11.4193
sgd0	-11.42
ygl	-11.4203
egx	-11.4223
all	-11.4245
smm	-11.4247
ayw	-11.4251
thc	-11.4269
muk	-11.4278
cyn	-11.4285
sjtq	-11.4287
vef	-11.4312
pwan	-11.4318
ulgj	-11.4328
b0	-11.4338
auk	-11.4339
bij	-11.4398
nft	-11.4428
syl	-11.4442
sgag	-11.4448
swg	-11.4467
khev0	-11.4486
zzzy35	-11.4486
tmdk3	-11.4486
pfqc1	-11.4486
lwi0	-11.4486
jmhn1	-11.4487
uud0	-11.4487
zzts16	-11.449
rjfg0	-11.4492
qwd	-11.4544
adjd	-11.4554
muv	-11.4557
yqj	-11.4557
rryf	-11.4599
tpi	-11.4634
euf	-11.4643
thf1	-11.4662
utu	-11.4685
ugt	-11.469
iffg	-11.47
dqw	-11.4711
lkp	-11.4711
fie	-11.4722
qyo	-11.473
ybt	-11.4753
hqd	-11.4756
han	-11.4759
wlk	-11.4774
ynwy2	-11.4789
umia0	-11.4789
kkks1	-11.4789
zzxe14	-11.4789
pwfq0	-11.4789
rdfj1	-11.4789
lsh0	-11.4789
nfi1	-11.4789
txgq1	-11.4789
jujf1	-11.4789
uyi1	-11.479
awyc0	-11.4793
pwfd	-11.4795
jyy1	-11.4796
qtv	-11.4848
frc	-11.4858
awy	-11.4874
qgy	-11.4886
vpq	-11.4896
fgjg	-11.49
uwe	-11.4909
apq	-11.4943
kma	-11.4975
aqn	-11.5002
kvi	-11.5045
xgm	-11.5092
kqm	-11.5096
zzzy30	-11.5101
zzzy4	-11.5101
khuf2	-11.5101
igmh0	-11.5101
wdyy1	-11.5101
zzpj22	-11.5101
sdwj0	-11.5102
keg0	-11.5106
iug0	-11.5106
snn0	-11.5107
epe0	-11.5108
agf0	-11.512
ywc	-11.5142
tig	-11.5165
apo	-11.5176
ckq	-11.5264
iuj	-11.5302
lgk	-11.5323
nvc	-11.5367
rwp	-11.5386
ogm	-11.5413
utj	-11.5419
hame0	-11.5424
tmgt2	-11.5424
pdu1	-11.5424
zzxe16	-11.5424
qtbh0	-11.5424
puvc1	-11.5424
qkql0	-11.5424
thdi0	-11.5426
itl	-11.5431
tmdy0	-11.5437
fob	-11.5446
xjt	-11.5448
mtv	-11.5501
yri	-11.5545
grq	-11.5555
nhf	-11.5557
scw	-11.5577
dma	-11.5583
amy	-11.5593
yem	-11.5632
epq	-11.568
ija	-11.5687
asgo	-11.5714
ncd	-11.5745
zzjp1	-11.5749
iujf	-11.5751
zzts2	-11.5757
oawu1	-11.5757
afwu0	-11.5757
sgye0	-11.5757
spwk0	-11.5757
khdc0	-11.5757
zzdl2	-11.5757
tamw2	-11.5758
rudb1	-11.5759
gcft2	-11.5761
jyt0	-11.5762
ukqb0	-11.5784
vnh	-11.5805
dam	-11.5831
nhw	-11.5837
hep	-11.5892
nrq	-11.59
ajl	-11.5901
tdtj	-11.5917
ddm	-11.5947
qtge	-11.5977
idj	-11.6023
fnhy	-11.6046
qvw	-11.6062
zzzy33	-11.6102
swyo0	-11.6102
qgjf2	-11.6102
zzde1	-11.6102
ipke0	-11.6103
ngkm0	-11.6103
zzpj10	-11.6104
vqyg	-11.6105
tfj1	-11.6108
mmqu	-11.6119
snn1	-11.6126
ddd1	-11.6141
fhwe	-11.6149
mpg	-11.6193
yoq	-11.6213
sdh	-11.6279
ka	-11.6307
asf	-11.6309
swx	-11.6345
symh	-11.6377
sx	-11.6381
iywu	-11.6452
iqyl0	-11.6459
hhwy0	-11.6459
ogmj1	-11.6459
udd3	-11.6459
rnwy1	-11.6461
bfh1	-11.6461
adww2	-11.6461
tff1	-11.6482
uqwk0	-11.6495
xcc	-11.65
fajv	-11.6502
idf1	-11.6535
puy	-11.6543
afn	-11.6557
lqp	-11.657
ujv	-11.6586
wwgi	-11.6598
ugvv	-11.66
ryiy	-11.6606
knyy	-11.6626
aguw	-11.6631
damh	-11.6639
ays	-11.6672
ade	-11.6735
pwn	-11.6742
spw	-11.6748
sie	-11.6778
gey0	-11.6781
puq	-11.6806
syc	-11.6828
afcu2	-11.6829
pdhk0	-11.6829
ccyj1	-11.6829
guwm1	-11.6829
ajdj0	-11.6829
qnnk2	-11.6829
wgej1	-11.6829
zzxe13	-11.683
snb2	-11.683
rqci0	-11.683
ebf1	-11.6833
sdg1	-11.6833
zzpj30	-11.6836
lgey0	-11.6844
inty	-11.689
ydx	-11.6893
sbb	-11.6903
arj	-11.6927
umq	-11.6975
qnd	-11.7025
ivl	-11.7067
kkm	-11.7077
vkx	-11.7122
zzzy20	-11.7214
zzzy23	-11.7214
zzpj74	-11.7214
xjh0	-11.7214
aadk0	-11.7214
zzpj39	-11.7215
akkn1	-11.7215
qytb0	-11.7215
qdw	-11.7215
zzxx20	-11.7217
ahf1	-11.7217
kie	-11.722
qal	-11.7228
punr	-11.7248
wjjg	-11.727
ihn	-11.7313
hfc	-11.7316
qnql	-11.7336
duo	-11.7338
uvf	-11.7374
ccw	-11.741
ac	-11.7414
fh0	-11.7428
sgfb	-11.7508
xwx	-11.751
kdj	-11.7535
zzpj1	-11.7606
ywgj4	-11.7614
nwyc2	-11.7614
jtol0	-11.7614
zzjp72	-11.7615
zzpj41	-11.7616
qghn1	-11.7616
zzpj61	-11.7616
khks	-11.7623
dii0	-11.7625
cbt	-11.7634
l0	-11.7655
rfhp	-11.7684
mtp	-11.7746
wgm	-11.7799
xid	-11.7809
fqng	-11.7811
nwyf	-11.7818
wfl	-11.7838
rkh	-11.7869
xds	-11.7911
kel	-11.7991
qaf	-11.8006
zzjp6	-11.8026
zzsx4	-11.8028
qnm	-11.8029
zzxe5	-11.8031
mdfe1	-11.8031
hpgh0	-11.8031
pyfk1	-11.8031
ugod0	-11.8031
zzpj14	-11.8031
gqtg1	-11.8031
daj1	-11.8032
rwyc3	-11.8032
yqd0	-11.8033
fja	-11.8034
iadw0	-11.8037
qqn	-11.8038
tfd0	-11.8041
yfnh	-11.8046
xmf	-11.8058
khtg0	-11.8084
qut	-11.8119
oyx	-11.8128
afwx	-11.8165
fnhv	-11.8166
mgt	-11.8199
ada	-11.8202
tnn1	-11.8232
sl	-11.8255
ctdj	-11.8285
fjn	-11.8313
avk	-11.8327
qnjh	-11.8371
wamj	-11.84
lfk	-11.841
nhjh	-11.8446
zzxx2	-11.8463
zzzy24	-11.8465
ayna0	-11.8465
xdmd2	-11.8465
gqty0	-11.8466
kaj0	-11.8466
sgtk0	-11.8467
tghn0	-11.8467
llll0	-11.8469
lcc	-11.8472
tsg2	-11.8472
fss	-11.8485
dee	-11.8509
icwt	-11.8586
klk	-11.8608
wal	-11.8691
qnf	-11.8722
oun	-11.8753
vgo	-11.8764
qlq	-11.8797
sps	-11.8805
ann0	-11.8867
afp	-11.8906
zzpj6	-11.8916
zzzy16	-11.892
zzzy5	-11.892
zzzy7	-11.892
qtfe0	-11.892
pyhm0	-11.892
aju0	-11.892
umig0	-11.892
xtah1	-11.892
hwyg1	-11.892
lccc3	-11.892
khwf1	-11.892
mftj1	-11.892
tmdx1	-11.892
gqv0	-11.8921
yssd1	-11.8921
pwtk0	-11.8922
lbn0	-11.8922
mff1	-11.8923
oqy1	-11.8924
rufh0	-11.8925
jgd0	-11.8929
idg1	-11.8935
gyc	-11.8936
ftxj0	-11.8937
sgnn1	-11.8944
fhag0	-11.8957
ubq	-11.8976
tfh	-11.9007
spn	-11.9049
pus	-11.9073
ntl	-11.9199
tdwy0	-11.9295
khl	-11.9325
gg0	-11.9341
wie	-11.9367
zzjp7	-11.9394
zzsx2	-11.9396
zzts5	-11.9396
qtfk2	-11.9396
pydk1	-11.9396
qwyn2	-11.9396
udct0	-11.9396
ajdl0	-11.9396
zzjp74	-11.9396
igkm0	-11.9397
zzjp39	-11.9397
zzjp34	-11.9397
qntk0	-11.9397
zzjp62	-11.9397
saf1	-11.9398
aqkf1	-11.94
tmb0	-11.9422
nmn0	-11.9427
aiy	-11.9448
svi	-11.9451
sag	-11.9477
afc	-11.9477
wdu	-11.9502
xov	-11.9553
iu0	-11.9722
sap	-11.9748
sfm	-11.9774
kdh	-11.9788
zzzy18	-11.9896
cbtv1	-11.9896
thhh0	-11.9896
zzpj75	-11.9896
rtfk1	-11.9896
zzpj73	-11.9896
agny1	-11.9897
wiu1	-11.9897
zzpj35	-11.9897
qhg2	-11.9898
imgt0	-11.99
venu	-11.99
efy0	-11.9904
halv	-11.9905
apgg0	-11.9905
ywk	-11.9906
olg0	-11.9907
aqqg0	-11.9909
mwyn0	-11.991
dmn0	-11.9918
wqf0	-11.9942
udwc	-12.0064
ajdr	-12.0138
q0	-12.0168
igmj	-12.0191
nngn	-12.0255
igkw	-12.0317
uqs	-12.0338
wdwh	-12.0401
zzpj82	-12.0422
zzzy15	-12.0422
zzzy29	-12.0422
│	-12.0422
jada1	-12.0422
zzxe17	-12.0423
pufj0	-12.0423
zzxe18	-12.0423
vld0	-12.0423
ytfk1	-12.0423
zzjp73	-12.0423
wfil0	-12.0423
temd0	-12.0423
ithp0	-12.0424
zzxe10	-12.0425
mfh1	-12.0426
vyp	-12.0427
iyos	-12.0429
yaah1	-12.0429
ykhe	-12.0431
qtjg1	-12.0433
kaqy	-12.0443
ucwy	-12.0446
ckh1	-12.0454
elny	-12.0457
rmh0	-12.0523
nn1	-12.0646
agu	-12.0678
rhg0	-12.0678
apfq	-12.0725
m0	-12.0808
zzde	-12.0974
zzy6	-12.0978
zzzy25	-12.0978
zzzy27	-12.0978
ikhk0	-12.0978
iugi0	-12.0978
kkfm1	-12.0978
wajv0	-12.0978
zzpj46	-12.0978
ttgf3	-12.0978
ynjw0	-12.0978
mfd2	-12.0978
nawe0	-12.0978
uffd2	-12.0979
uffi1	-12.0979
tfnk1	-12.0979
zzpj62	-12.0979
zzpj12	-12.0979
zzdl0	-12.0981
pdf1	-12.0981
jug0	-12.0986
apfl	-12.0987
amq	-12.0998
djdg0	-12.1005
gkup	-12.1144
vefc	-12.117
yttg0	-12.1247
fvq	-12.1351
yjq	-12.1358
zzjp4	-12.1562
zzpj4	-12.1562
udnv1	-12.1566
zzzy11	-12.1566
zzzy34	-12.1566
─	-12.1566
ynmn2	-12.1566
ylkm1	-12.1566
cynw1	-12.1566
nay0	-12.1566
qwye1	-12.1566
ajjf0	-12.1566
atgo1	-12.1567
khwb1	-12.1567
zzpj72	-12.1567
qgyy1	-12.1567
zzjp14	-12.1567
pydg1	-12.1567
qde0	-12.1567
atdj1	-12.1568
srgb0	-12.1568
zzxe11	-12.1568
uhk1	-12.1568
zzjp22	-12.1568
gkij0	-12.1569
dxb1	-12.157
aqkf0	-12.1571
eudy0	-12.1572
abiu0	-12.1572
ieg1	-12.1573
zzts18	-12.1576
atdn1	-12.1577
akgf0	-12.1578
zzts14	-12.1579
djdy1	-12.1583
wycn1	-12.1584
iey0	-12.1587
ivfy	-12.1593
kff0	-12.1671
akgb	-12.1672
qnbg	-12.1673
qbq	-12.1945
`	-12.2191
ر	-12.2191
stfh2	-12.2191
dmjv0	-12.2191
wgkm2	-12.2191
fpgn3	-12.2192
nrgg0	-12.2192
qdg2	-12.2193
tfno1	-12.2193
gakg1	-12.2196
othn0	-12.2196
qmn1	-12.2198
alk0	-12.22
qmg1	-12.2202
yfk0	-12.2203
umk0	-12.2207
qcy1	-12.2217
qrg1	-12.2228
isyy	-12.2238
ybvf	-12.224
rqvh	-12.2289
s0	-12.23
qayb	-12.234
aldt	-12.2359
ugi	-12.2401
utv	-12.2481
hag0	-12.2839
zzxx	-12.2851
zzdl	-12.2851
・	-12.3572
M	-12.4341
T	-12.4341
ا	-12.7084
‧	-12.8195
이	-12.8195
́	-12.9445
┼	-12.9445
P	-13.0873
C	-13.254
ب	-13.254
┇	-13.254
A	-13.454
ς	-13.454
ي	-13.454
ร	-13.454
ว	-13.454
∼	-13.454
。	-13.454
ư	-13.704
ό	-13.704
ح	-13.704
د	-13.704
ل	-13.704
ه	-13.704
า	-13.704
่	-13.704
━	-13.704
랑	-13.704
	-13.704
E	-14.0373
ö	-14.0373
č	-14.0373
ƒ	-14.0373
̇	-14.0373
̊	-14.0373
ع	-14.0373
م	-14.0373
‚	-14.0373
►	-14.0373
〜	-14.0373
゙	-14.0373
는	-14.0373
도	-14.0373
을	-14.0373
자	-14.0373
하	-14.0373
	-14.0373
	-14.0373
B	-14.5373
D	-14.5373
F	-14.5373
G	-14.5373
R	-14.5373
S	-14.5373
U	-14.5373
ã	-14.5373
û	-14.5373
ă	-14.5373
ą	-14.5373
ş	-14.5373
ɡ	-14.5373
ή	-14.5373
א	-14.5373
ל	-14.5373
ز	-14.5373
س	-14.5373
ض	-14.5373
ق	-14.5373
و	-14.5373
ی	-14.5373
ด	-14.5373
น	-14.5373
บ	-14.5373
ม	-14.5373
ย	-14.5373
อ	-14.5373
ั	-14.5373
ิ	-14.5373
ี	-14.5373
མ	-14.5373
ạ	-14.5373
ệ	-14.5373
ỉ	-14.5373
ố	-14.5373
ồ	-14.5373
ộ	-14.5373
ờ	-14.5373
ủ	-14.5373
∙	-14.5373
├	-14.5373
╳	-14.5373
〝	-14.5373
〞	-14.5373
ー	-14.5373
가	-14.5373
고	-14.5373
군	-14.5373
김	-14.5373
나	-14.5373
대	-14.5373
동	-14.5373
마	-14.5373
미	-14.5373
스	-14.5373
시	-14.5373
연	-14.5373
위	-14.5373
은	-14.5373
의	-14.5373
일	-14.5373
정	-14.5373
좋	-14.5373
한	-14.5373
해	-14.5373
호	-14.5373
희	-14.5373
	-14.5373
	-14.5373
H	-15.5373
I	-15.5373
L	-15.5373
O	-15.5373
Q	-15.5373
W	-15.5373
Z	-15.5373
z	-15.5373
¥	-15.5373
«	-15.5373
­	-15.5373
®	-15.5373
°	-15.5373
·	-15.5373
Á	-15.5373
Ø	-15.5373
Ü	-15.5373
Ý	-15.5373
â	-15.5373
ë	-15.5373
ô	-15.5373
þ	-15.5373
ę	-15.5373
į	-15.5373
ł	-15.5373
š	-15.5373
ũ	-15.5373
ů	-15.5373
ź	-15.5373
ż	-15.5373
ơ	-15.5373
ǧ	-15.5373
ɑ	-15.5373
ɔ	-15.5373
ː	-15.5373
̍	-15.5373
ί	-15.5373
Ј	-15.5373
і	-15.5373
қ	-15.5373
ַ	-15.5373
ב	-15.5373
ה	-15.5373
ז	-15.5373
י	-15.5373
ם	-15.5373
מ	-15.5373
ן	-15.5373
פ	-15.5373
ר	-15.5373
ت	-15.5373
خ	-15.5373
ش	-15.5373
ط	-15.5373
ف	-15.5373
ن	-15.5373
۱	-15.5373
ܪ	-15.5373
च	-15.5373
ज	-15.5373
त	-15.5373
न	-15.5373
ब	-15.5373
र	-15.5373
व	-15.5373
ा	-15.5373
ि	-15.5373
ी	-15.5373
ू	-15.5373
े	-15.5373
া	-15.5373
અ	-15.5373
க	-15.5373
్	-15.5373
ง	-15.5373
ช	-15.5373
ซ	-15.5373
ญ	-15.5373
ท	-15.5373
ภ	-15.5373
ล	-15.5373
ษ	-15.5373
์	-15.5373
ํ	-15.5373
་	-15.5373
བ	-15.5373
თ	-15.5373
ᠴ	-15.5373
ṅ	-15.5373
ả	-15.5373
ầ	-15.5373
ậ	-15.5373
ắ	-15.5373
ẳ	-15.5373
ễ	-15.5373
ị	-15.5373
ở	-15.5373
ữ	-15.5373
Ἡ	-15.5373
ῇ	-15.5373
—	-15.5373
„	-15.5373
↔	-15.5373
⇔	-15.5373
−	-15.5373
⌒	-15.5373
┅	-15.5373
┆	-15.5373
┈	-15.5373
┌	-15.5373
┏	-15.5373
┓	-15.5373
┤	-15.5373
┫	-15.5373
┯	-15.5373
┳	-15.5373
┴	-15.5373
▶	-15.5373
▼	-15.5373
♣	-15.5373
〃	-15.5373
〾	-15.5373
゚	-15.5373
ク	-15.5373
シ	-15.5373
ス	-15.5373
セ	-15.5373
タ	-15.5373
ッ	-15.5373
テ	-15.5373
ハ	-15.5373
ヤ	-15.5373
リ	-15.5373
令	-15.5373
己	-15.5373
流	-15.5373
火	-15.5373
用	-15.5373
간	-15.5373
감	-15.5373
거	-15.5373
공	-15.5373
광	-15.5373
괜	-15.5373
그	-15.5373
꽃	-15.5373
꾸	-15.5373
난	-15.5373
날	-15.5373
내	-15.5373
널	-15.5373
노	-15.5373
단	-15.5373
독	-15.5373
드	-15.5373
떨	-15.5373
러	-15.5373
로	-15.5373
린	-15.5373
민	-15.5373
박	-15.5373
밤	-15.5373
밴	-15.5373
벌	-15.5373
블	-15.5373
산	-15.5373
상	-15.5373
생	-15.5373
서	-15.5373
선	-15.5373
섭	-15.5373
수	-15.5373
승	-15.5373
신	-15.5373
씨	-15.5373
아	-15.5373
야	-15.5373
양	-15.5373
어	-15.5373
에	-15.5373
오	-15.5373
왕	-15.5373
용	-15.5373
우	-15.5373
운	-15.5373
원	-15.5373
월	-15.5373
음	-15.5373
인	-15.5373
잊	-15.5373
재	-15.5373
제	-15.5373
지	-15.5373
찐	-15.5373
천	-15.5373
첫	-15.5373
체	-15.5373
쳤	-15.5373
커	-15.5373
콩	-15.5373
토	-15.5373
투	-15.5373
트	-15.5373
플	-15.5373
향	-15.5373
현	-15.5373
홍	-15.5373
	-15.5373
	-15.5373
	-15.5373
	-15.5373
	-15.5373
	-15.5373
