[UNK]	0
[PAD]	0
[CLS]	0
[SEP]	0
[MASK]	0
万从海쎯	-3.61244
参美计쎯	-3.96163
单度重쎯	-4.12284
单度程쎯	-4.15785
常关海쎯	-5.08259
家쎯	-5.29327
常这广쎯	-5.49435
农道信쎯	-5.54786
交他得쎯	-5.59584
农道里쎯	-5.76182
农道质쎯	-5.80695
万从美쎯	-5.82288
交这师쎯	-5.89143
农信信쎯	-5.9734
单度校쎯	-5.99299
参里师쎯	-6.01971
万从级쎯	-6.05436
常型式쎯	-6.10745
单度重쎯家쎯	-6.10925
农道校쎯	-6.21015
万从保쎯	-6.22902
农表十쎯	-6.29893
农形育쎯	-6.30491
常二校쎯	-6.30853
导度这쎯	-6.33394
方쎯	-6.3934
农信委쎯	-6.39503
农道度쎯	-6.44635
导度目쎯	-6.52253
农信质쎯	-6.53077
农道安쎯	-6.53466
万从师쎯	-6.55171
常质网쎯	-6.63738
交色口쎯	-6.64472
交级特쎯	-6.64644
农道里쎯常保处쎯	-6.66831
常而质쎯	-6.67493
常前前쎯	-6.6771
常道重쎯	-6.67858
器度海쎯	-6.69693
常色二쎯	-6.71038
常得表쎯	-6.71715
农道师쎯	-6.75644
常里而쎯	-6.76659
常这色쎯	-6.76776
州企쎯	-6.77606
标米他쎯	-6.77915
单度十쎯	-6.79183
交者场쎯	-6.81314
建쎯	-6.82539
长쎯	-6.84505
标数网쎯	-6.84612
常海信쎯	-6.85868
农道十쎯	-6.87659
交特色쎯	-6.87826
常色委쎯	-6.88054
参最广쎯	-6.88275
交度式쎯	-6.88736
常级色쎯	-6.90492
经쎯	-6.90598
常型美쎯	-6.91771
常各场쎯	-6.94184
器服米쎯	-6.97372
品쎯	-6.98937
交师度쎯	-6.99292
常型天쎯	-6.99297
参最究쎯	-7.00811
常资应쎯常二道쎯	-7.01025
参最前쎯	-7.01577
器外由쎯	-7.02349
交这师쎯标组而쎯常资应쎯常二道쎯	-7.02363
常委资쎯	-7.02502
标数外쎯	-7.02648
常而安쎯	-7.0474
交级而쎯	-7.06466
常资场쎯	-7.06769
常外信쎯	-7.07577
交特外쎯	-7.10852
设쎯	-7.12425
全쎯	-7.12503
参质十쎯	-7.13719
标外村쎯	-7.14686
器育网쎯	-7.15187
常二得쎯	-7.156
月쎯	-7.16339
常安者쎯	-7.17294
交目村쎯	-7.17323
农形质쎯	-7.17377
常企育쎯农处这쎯	-7.17647
交者金쎯	-7.17705
常型式쎯常里提쎯	-7.18883
农从美쎯	-7.1898
农道这쎯	-7.19208
标过广쎯	-7.20347
器度资쎯	-7.21956
器企得쎯	-7.22124
交目育쎯	-7.22232
农信海쎯	-7.22549
常里提쎯	-7.2376
交由数쎯	-7.23764
农表基쎯	-7.2388
常究质쎯	-7.24589
万从海쎯交他得쎯	-7.25188
器校前쎯	-7.25394
常表口쎯	-7.25642
常表场쎯	-7.25661
交路企쎯	-7.26009
常师安쎯	-7.26213
分쎯	-7.26952
农从程쎯农道美쎯	-7.28028
参究由쎯	-7.28114
常级委쎯	-7.2848
农表究쎯	-7.2957
交这应쎯	-7.30502
文쎯	-7.30604
农处安쎯农信质쎯	-7.31338
交校度쎯交这得쎯	-7.31448
科쎯	-7.31449
常保处쎯	-7.32309
常城企쎯	-7.32567
农道度쎯农道社쎯	-7.32583
与쎯	-7.33339
农道立쎯农道美쎯	-7.33742
农处立쎯	-7.33782
标天应쎯	-7.33998
参式村쎯	-7.34694
常型口쎯	-7.34823
常网过쎯	-7.35713
参金最쎯参天场쎯	-7.36164
常保保쎯	-7.37549
标城组쎯	-7.37789
机쎯	-7.38219
参各基쎯参而委쎯	-7.38317
常海特쎯	-7.38898
之쎯	-7.39006
标外海쎯	-7.39334
器外社쎯	-7.40346
农信最쎯	-7.40563
标过处쎯	-7.40756
标程立쎯	-7.4099
单度重쎯导度目쎯	-7.41408
交者育쎯	-7.41475
参组处쎯	-7.42008
器基海쎯	-7.42434
常保处쎯常各场쎯	-7.42829
参由形쎯参形究쎯	-7.43746
农形特쎯	-7.43833
标者广쎯	-7.44368
常表由쎯	-7.4476
动쎯	-7.44967
经쎯化쎯	-7.46519
交他质쎯	-7.46961
器网保쎯器基海쎯	-7.4705
交这信쎯	-7.47482
常各师쎯	-7.47777
常里提쎯交金基쎯	-7.47957
交这安쎯常校基쎯	-7.48727
常保处쎯标组资쎯	-7.48856
农信式쎯常立程쎯	-7.48994
参形二쎯	-7.49072
交统由쎯	-7.50239
常资育쎯	-7.50478
器过处쎯	-7.50532
万从海쎯常这广쎯	-7.50657
器网外쎯	-7.50978
常型特쎯	-7.5123
常从二쎯	-7.51562
交数组쎯器重统쎯	-7.51902
农形形쎯	-7.51999
交道资쎯	-7.52365
参信网쎯	-7.52856
标目服쎯	-7.53079
常安质쎯	-7.53967
体쎯	-7.54408
交间者쎯	-7.54566
农道型쎯	-7.55201
参目度쎯	-7.55272
标并质쎯	-7.55278
常二并쎯	-7.55509
常资师쎯	-7.55925
标形计쎯	-7.57864
交特外쎯常海特쎯	-7.5828
常海者쎯	-7.58664
常从金쎯	-7.59464
单度十쎯单度程쎯单度校쎯	-7.59509
常资过쎯	-7.60282
参信服쎯	-7.60496
农道外쎯	-7.60603
参由形쎯	-7.60947
常企间쎯	-7.61198
常二村쎯常前数쎯	-7.61408
常二型쎯	-7.61442
常资十쎯	-7.61722
器各城쎯器各基쎯	-7.62161
农形育쎯常二校쎯	-7.62666
常间十쎯	-7.6284
常二色쎯	-7.6286
主쎯	-7.62973
交师十쎯	-7.62993
常质究쎯	-7.63294
标度美쎯	-7.63705
参师表쎯	-7.63917
常从度쎯	-7.63919
常二村쎯	-7.64286
常前间쎯	-7.64322
常提重쎯	-7.64588
常里提쎯标组服쎯	-7.64825
农道里쎯常网过쎯	-7.6531
交里并쎯	-7.65387
交前究쎯	-7.65428
器城城쎯	-7.65677
常二场쎯	-7.65998
参城质쎯	-7.66301
常校保쎯	-7.67082
农表提쎯	-7.67652
常海者쎯农信应쎯	-7.6816
常而村쎯	-7.68557
标保委쎯	-7.68989
交这度쎯	-7.6907
常委保쎯	-7.69759
参处村쎯	-7.70685
常资企쎯交这师쎯	-7.71093
常企育쎯参广十쎯	-7.71386
参重表쎯	-7.71419
常色前쎯	-7.71662
单度十쎯万从美쎯导度这쎯	-7.71976
万从海쎯常表场쎯	-7.71984
交特表쎯	-7.72351
器路企쎯	-7.7276
标外安쎯	-7.72806
参形二쎯交路质쎯	-7.73393
常信提쎯	-7.7344
交色最쎯	-7.73456
参前形쎯	-7.73627
交目质쎯	-7.73854
农信信쎯万从海쎯	-7.73885
常型计쎯	-7.73928
参过里쎯	-7.73986
常资应쎯	-7.74838
常城者쎯	-7.74946
常而海쎯	-7.75201
常这色쎯常海信쎯	-7.75202
参育间쎯	-7.75432
常里者쎯	-7.75612
参形计쎯参形外쎯	-7.75892
万从海쎯农形育쎯	-7.75985
常资广쎯	-7.76046
常而计쎯	-7.76296
常二海쎯	-7.76321
常级场쎯	-7.76479
器处提쎯	-7.76579
参保道쎯	-7.76907
常校金쎯	-7.76932
农处这쎯	-7.76936
农信信쎯单度重쎯	-7.7738
常育处쎯	-7.77671
常资广쎯常保处쎯	-7.78058
器提程쎯	-7.78245
常质形쎯	-7.78665
交海外쎯	-7.78761
常育由쎯	-7.78809
标前从쎯	-7.7893
常级天쎯	-7.79564
经쎯建쎯	-7.79659
常道级쎯	-7.79792
导度目쎯单度重쎯	-7.80109
交特得쎯	-7.80634
农道特쎯参数海쎯	-7.80867
农信村쎯	-7.81041
常道提쎯	-7.81609
常二得쎯农形育쎯	-7.81843
器师统쎯	-7.81859
参最究쎯农信式쎯	-7.82256
农处网쎯参最广쎯	-7.82283
交统表쎯	-7.82626
万从师쎯万从海쎯	-7.82648
参处者쎯	-7.83046
农道形쎯器提程쎯	-7.83099
常二级쎯	-7.8353
农道校쎯交路企쎯	-7.83789
参这程쎯	-7.84039
常企统쎯	-7.84432
品쎯文쎯	-7.84698
交二而쎯农城保쎯	-7.84802
交数色쎯	-7.84894
交这广쎯	-7.85165
常企育쎯	-7.85202
交度形쎯	-7.85485
参前由쎯	-7.85767
交路程쎯	-7.86614
参师外쎯	-7.86717
标目关쎯	-7.87037
单度度쎯	-7.87095
交校校쎯	-7.87164
器得育쎯	-7.87321
常保金쎯	-7.87457
农道形쎯	-7.87557
常前度쎯	-7.87775
交级村쎯	-7.87989
参式安쎯	-7.87991
常究质쎯常道重쎯	-7.88021
器度程쎯	-7.88024
常二企쎯	-7.88409
参处村쎯参形这쎯	-7.88783
参城质쎯常保处쎯	-7.89405
标度美쎯器网外쎯	-7.89499
常保城쎯	-7.89526
常式最쎯常村他쎯农从美쎯	-7.90196
交得数쎯农道美쎯农信质쎯	-7.90616
常形信쎯	-7.90698
参信式쎯	-7.90829
常组广쎯	-7.9127
标提组쎯	-7.91971
参者资쎯	-7.92121
标基表쎯参保各쎯	-7.92438
常各他쎯	-7.9281
常村广쎯	-7.92922
参各基쎯	-7.93096
参应应쎯农道度쎯	-7.93403
常表统쎯	-7.93587
农处安쎯	-7.93924
常资里쎯	-7.9405
农处网쎯	-7.9432
参美各쎯	-7.94435
参米组쎯	-7.94506
交得最쎯	-7.94637
常色最쎯	-7.9474
农网基쎯交程得쎯	-7.95441
参式村쎯交校度쎯	-7.95477
交十师쎯	-7.95723
器网村쎯	-7.95824
标组级쎯	-7.95897
常安基쎯	-7.96201
交里型쎯	-7.96633
常而级쎯	-7.96797
参最色쎯	-7.97127
参级前쎯	-7.9718
常形信쎯器各城쎯	-7.97207
常处立쎯	-7.97463
标他由쎯	-7.97586
参米十쎯	-7.97869
农信十쎯	-7.99283
常各目쎯	-7.99289
器得口쎯	-7.99555
器得者쎯	-8.00264
器师信쎯交这得쎯	-8.00348
常安由쎯	-8.0035
器质企쎯	-8.00384
参质得쎯常服过쎯	-8.00508
标他网쎯	-8.01009
农道特쎯	-8.01298
参最究쎯交口形쎯	-8.01665
农表而쎯	-8.01686
常究信쎯	-8.0221
常安企쎯	-8.03049
参信提쎯	-8.03078
参最路쎯	-8.03216
建쎯化쎯	-8.03403
交里提쎯	-8.03746
常安数쎯	-8.03986
器信米쎯	-8.0408
器网间쎯	-8.04122
器各城쎯常型外쎯	-8.0432
常里提쎯农表金쎯	-8.04363
万从级쎯万从师쎯	-8.04468
农信美쎯	-8.04605
器网保쎯	-8.04655
参质师쎯	-8.04684
常表由쎯交特表쎯常资应쎯标外海쎯	-8.05047
常形信쎯参里村쎯	-8.05107
常从度쎯常二村쎯	-8.05113
参型城쎯农从美쎯	-8.05215
常道重쎯常这信쎯	-8.05227
经쎯经쎯	-8.05476
交前师쎯	-8.05531
常从信쎯	-8.05572
标外二쎯	-8.05601
交基育쎯	-8.05792
常从度쎯常式十쎯	-8.0586
标保委쎯常保服쎯	-8.06708
交道道쎯交级二쎯	-8.06843
交目基쎯	-8.06874
农处金쎯	-8.07124
常保间쎯	-8.07158
参师天쎯	-8.07349
交者育쎯交这应쎯	-8.07555
器式程쎯	-8.07656
交企前쎯	-8.07762
交数组쎯	-8.08605
参程米쎯	-8.087
常级组쎯	-8.08751
器安师쎯	-8.08802
标形村쎯	-8.08955
标者口쎯	-8.09079
交表特쎯	-8.09212
农从金쎯	-8.09389
器网他쎯	-8.09597
农道过쎯	-8.09963
常前重쎯	-8.1021
常资米쎯	-8.10257
交他究쎯	-8.10348
交这究쎯	-8.10761
常并色쎯	-8.10802
标目间쎯	-8.10943
常各美쎯	-8.1123
器校重쎯	-8.11242
农处这쎯农道信쎯	-8.11317
交最网쎯常信这쎯	-8.11539
交保城쎯	-8.11701
参最形쎯	-8.1172
常这究쎯	-8.11852
常资前쎯	-8.11952
交十育쎯交这师쎯	-8.12108
交级而쎯农道信쎯	-8.12434
农道里쎯参美计쎯	-8.12451
万从海쎯农道信쎯	-8.12737
农表目쎯	-8.13001
交得保쎯	-8.13455
常而计쎯参式安쎯	-8.13546
交统组쎯	-8.13943
常里提쎯参最究쎯	-8.13962
交金外쎯常外委쎯	-8.14277
常质重쎯	-8.14512
常校究쎯器过处쎯	-8.14539
交师立쎯	-8.14709
常这信쎯	-8.14952
常二统쎯	-8.15063
导度最쎯导度最쎯	-8.15171
常企育쎯农道美쎯	-8.15389
常基最쎯	-8.15495
交保口쎯	-8.16005
交这级쎯	-8.16179
常级目쎯	-8.16304
器得里쎯	-8.16337
交他育쎯	-8.16961
交金村쎯	-8.16997
经쎯月쎯	-8.17156
交应基쎯	-8.17489
交级企쎯	-8.17539
常级他쎯	-8.17831
常道过쎯	-8.18042
器城表쎯	-8.18092
参校场쎯	-8.18138
常处服쎯	-8.18163
交校数쎯器路计쎯	-8.18236
交色村쎯	-8.1843
农道美쎯	-8.18562
常海形쎯标组服쎯	-8.18636
交保统쎯	-8.1871
长쎯化쎯	-8.18948
交信而쎯	-8.19366
标究由쎯农表而쎯	-8.19655
常资色쎯	-8.19846
常保服쎯	-8.19903
农处这쎯常立程쎯	-8.19916
标他究쎯	-8.20177
交数组쎯常里提쎯	-8.20333
器式关쎯	-8.20799
参组城쎯	-8.20901
参形计쎯	-8.20918
标并究쎯	-8.21168
农表师쎯	-8.21468
器二这쎯	-8.2184
交口形쎯常校广쎯	-8.2185
交育从쎯	-8.22376
器网这쎯	-8.22489
标资关쎯	-8.22541
常统保쎯	-8.22661
交金表쎯	-8.23015
常保里쎯	-8.23201
常数委쎯	-8.23224
参形立쎯交间计쎯	-8.23233
交最得쎯交海程쎯	-8.23251
常色前쎯交他得쎯	-8.23366
交级网쎯	-8.23463
器口广쎯	-8.23505
标组服쎯	-8.23586
器基者쎯	-8.23683
农形并쎯	-8.23759
常表网쎯	-8.23774
交过资쎯	-8.23903
常二者쎯	-8.24086
常程美쎯	-8.24274
经쎯之쎯	-8.24511
常育表쎯	-8.24598
农道里쎯常里提쎯	-8.24654
常安校쎯	-8.24658
参最企쎯	-8.24682
单度重쎯常这广쎯	-8.24977
交质式쎯常级场쎯	-8.25007
交者场쎯标者口쎯	-8.25107
器重师쎯	-8.2517
交最城쎯	-8.25246
常立程쎯	-8.25303
常信最쎯	-8.2532
参里师쎯单度重쎯	-8.25371
参型城쎯常海信쎯	-8.2541
标外外쎯参最广쎯	-8.25431
常立程쎯参师海쎯	-8.25644
器场资쎯	-8.25714
交色二쎯	-8.25756
器色过쎯	-8.25827
常企口쎯	-8.25937
常资企쎯	-8.26083
常道道쎯	-8.2611
农网基쎯	-8.26143
常安数쎯农处安쎯	-8.26174
交间这쎯	-8.26183
农道目쎯	-8.26367
器广度쎯	-8.26523
参质色쎯农形并쎯	-8.26549
器程最쎯	-8.26839
交级他쎯	-8.26947
交目网쎯	-8.26948
标提特쎯	-8.27201
常城各쎯	-8.27217
参由形쎯常级者쎯	-8.27304
参式色쎯	-8.27432
常二重쎯常校金쎯	-8.27497
器处应쎯	-8.27564
器安得쎯	-8.276
交金基쎯	-8.27816
万从海쎯农处委쎯	-8.27931
参这究쎯	-8.28149
参保他쎯	-8.28258
器质企쎯常城者쎯	-8.28306
参式村쎯常里提쎯	-8.28553
常海资쎯交十应쎯	-8.28644
农处质쎯	-8.2904
参这从쎯	-8.29191
交由服쎯	-8.29315
参师级쎯	-8.29354
参统城쎯	-8.29394
器基海쎯农道美쎯	-8.29624
交目而쎯交特组쎯	-8.29863
常最而쎯	-8.30033
农形质쎯农信十쎯	-8.30059
常网者쎯	-8.30139
交计二쎯	-8.30212
万处间쎯	-8.30369
交金从쎯	-8.30441
农道社쎯	-8.30738
标度师쎯	-8.30866
常各型쎯	-8.3133
器外社쎯常企前쎯	-8.31353
参形组쎯	-8.31478
标究由쎯	-8.3157
常各过쎯	-8.31792
标并间쎯	-8.31878
器基度쎯	-8.31966
器处得쎯农形场쎯	-8.32356
常校广쎯	-8.33359
导度目쎯万从海쎯	-8.33377
参最路쎯常里而쎯	-8.33422
器外社쎯参计场쎯	-8.33682
常各者쎯	-8.33986
标过广쎯常级委쎯	-8.33998
参米金쎯	-8.34035
常资路쎯	-8.34037
常而口쎯	-8.34183
标立程쎯	-8.34371
常资级쎯	-8.34459
设쎯化쎯	-8.34862
常并米쎯	-8.35118
交目城쎯	-8.35183
常各程쎯	-8.35201
交目广쎯	-8.3532
万从程쎯	-8.35322
交组得쎯	-8.35401
参质外쎯	-8.35566
常型安쎯	-8.35657
常信数쎯	-8.35805
万从海쎯常资场쎯	-8.35978
器村者쎯常而安쎯	-8.36168
常前资쎯	-8.36288
器各信쎯	-8.36327
参形委쎯	-8.36364
常资由쎯	-8.36398
常质委쎯常二统쎯	-8.36498
交数组쎯常道级쎯	-8.3675
常企目쎯	-8.36797
参这十쎯	-8.36876
常二特쎯	-8.37177
参提二쎯	-8.37278
农信信쎯交色村쎯交最网쎯常信这쎯	-8.37471
参信由쎯	-8.37493
参而过쎯	-8.3753
参而委쎯器各信쎯	-8.3758
器海场쎯	-8.37656
月쎯化쎯	-8.37816
常师得쎯	-8.3786
数쎯	-8.37972
器十前쎯	-8.38433
广쎯	-8.38813
常育特쎯	-8.39109
交他得쎯交海外쎯	-8.39212
参师保쎯	-8.39575
保쎯	-8.39616
常二他쎯	-8.39757
常二安쎯	-8.39803
常资场쎯农道里쎯	-8.40022
导度目쎯参美计쎯	-8.40063
常信最쎯参最广쎯	-8.4021
参保口쎯	-8.40251
交统形쎯	-8.40252
常级场쎯农处这쎯	-8.40368
常目外쎯	-8.40388
常委安쎯	-8.40466
参二里쎯	-8.40539
参保而쎯	-8.40643
参数海쎯	-8.40648
常安二쎯农从美쎯	-8.40666
常资口쎯	-8.41008
常得信쎯	-8.41149
农网目쎯	-8.4117
常统天쎯	-8.41481
经쎯科쎯	-8.4159
万从海쎯交这师쎯	-8.4173
常育外쎯	-8.41751
常色村쎯	-8.41805
农道度쎯参式安쎯	-8.41809
交特表쎯交由数쎯	-8.42014
农道里쎯常资前쎯常资美쎯常村他쎯	-8.42138
参统师쎯	-8.42181
器网组쎯	-8.42241
交各路쎯	-8.42399
交色道쎯	-8.42419
交质育쎯	-8.4255
交前型쎯	-8.42599
交统形쎯参特者쎯	-8.42686
农表十쎯农道度쎯单度重쎯	-8.42751
常各师쎯常资广쎯	-8.42812
农道美쎯常校基쎯	-8.42832
常委组쎯	-8.42966
常金重쎯	-8.42993
参美计쎯农道度쎯参式安쎯	-8.43103
器口广쎯标外二쎯	-8.43154
器城过쎯	-8.43318
常安过쎯	-8.43412
参最路쎯常处前쎯	-8.43907
交统基쎯交这师쎯	-8.43929
常级委쎯交间而쎯	-8.43959
经쎯体쎯	-8.44056
万从海쎯参最企쎯万从海쎯	-8.44303
万从美쎯导度这쎯	-8.44333
交间程쎯	-8.44347
师쎯	-8.44395
交者资쎯交道道쎯	-8.44752
交信社쎯	-8.44767
标社广쎯	-8.44934
参米表쎯	-8.45215
交这目쎯	-8.45226
参形二쎯器而育쎯	-8.45336
参最统쎯	-8.45374
常各处쎯	-8.45479
常信式쎯	-8.45551
交口城쎯	-8.45579
州金쎯	-8.45865
交校育쎯	-8.45897
参程路쎯	-8.46159
标重并쎯	-8.46235
天쎯	-8.46286
参天信쎯	-8.46332
器网而쎯常校广쎯	-8.46424
农网各쎯	-8.46474
常这并쎯	-8.46709
标资关쎯常信者쎯	-8.468
常型社쎯	-8.46812
常从重쎯	-8.46856
多쎯	-8.46953
标最度쎯常最各쎯	-8.4701
农网目쎯交校型쎯	-8.47079
参形口쎯	-8.47196
交级而쎯参米十쎯农信质쎯	-8.47259
化쎯	-8.47316
农道安쎯常而海쎯	-8.47432
农表十쎯农道度쎯	-8.47471
万从海쎯器度海쎯	-8.47524
参究育쎯	-8.47839
常前前쎯农道这쎯	-8.47866
交特外쎯常里提쎯	-8.48076
导度目쎯单度程쎯导度这쎯	-8.48096
参质色쎯	-8.48109
器得安쎯	-8.48272
器十二쎯	-8.48465
交型安쎯参师天쎯	-8.48547
各쎯	-8.48642
常委资쎯常各表쎯	-8.48727
常各十쎯	-8.48748
参形从쎯常而级쎯	-8.48785
常色二쎯常里提쎯	-8.48833
万从师쎯单度重쎯	-8.49122
器基广쎯	-8.49224
交者场쎯万从海쎯	-8.49421
常海资쎯	-8.49422
农道里쎯常型各쎯	-8.49721
常这委쎯	-8.49872
常委这쎯农道美쎯	-8.50129
常色从쎯	-8.50154
建쎯月쎯	-8.50267
常信者쎯	-8.50287
交计究쎯	-8.50303
常保处쎯常委资쎯	-8.50347
器各天쎯	-8.50429
信쎯	-8.50455
标提组쎯交道得쎯	-8.50478
器场由쎯参而过쎯	-8.5053
究쎯	-8.5058
农从他쎯参式度쎯	-8.50612
常各间쎯	-8.50655
处쎯	-8.50672
常安美쎯	-8.50805
交师安쎯	-8.50973
器路计쎯交信而쎯	-8.51046
交他立쎯	-8.51319
参城型쎯	-8.51437
标道基쎯	-8.51456
交目过쎯	-8.51556
质쎯	-8.51649
交道天쎯	-8.51661
参应应쎯农信海쎯	-8.51663
金쎯	-8.51667
常而质쎯万从海쎯	-8.51704
标保企쎯	-8.51742
交前处쎯器处提쎯	-8.51921
应쎯	-8.51947
常城级쎯	-8.5195
交这信쎯交间计쎯	-8.52073
里쎯	-8.52384
器式并쎯	-8.52404
农信信쎯常村他쎯	-8.52465
器企目쎯参提形쎯	-8.52653
组쎯	-8.52784
交道道쎯	-8.52856
常型二쎯	-8.53022
万从海쎯参最前쎯	-8.53028
常型式쎯常间十쎯	-8.53031
交目村쎯常式最쎯农从美쎯	-8.53146
常资从쎯	-8.53149
常型计쎯参而委쎯	-8.53229
器并资쎯	-8.53545
参质得쎯	-8.53744
常质十쎯	-8.54088
参保各쎯	-8.54093
并쎯	-8.54195
农道立쎯常各场쎯	-8.54442
交金表쎯交安各쎯	-8.54542
交里海쎯	-8.54611
交级村쎯农形应쎯	-8.54856
常村级쎯	-8.5497
常由色쎯	-8.5501
万从安쎯	-8.55195
农信信쎯交色村쎯	-8.5537
常各米쎯	-8.55371
常级外쎯	-8.55422
常校金쎯常企育쎯	-8.55552
常统程쎯	-8.55559
交服资쎯	-8.55931
导度最쎯	-8.56045
常二社쎯	-8.56087
常里最쎯	-8.56127
常安程쎯	-8.56213
参提形쎯	-8.56219
农信式쎯	-8.56315
这쎯	-8.56399
常外信쎯参师级쎯参型城쎯	-8.56426
器而育쎯	-8.56669
器者二쎯	-8.56694
农道度쎯器级应쎯	-8.5686
型쎯	-8.56887
常型米쎯	-8.56973
交道得쎯	-8.57146
交这应쎯农表提쎯	-8.57181
常村由쎯	-8.57209
器色企쎯	-8.57219
单度度쎯单度度쎯	-8.57546
交这安쎯	-8.57555
器各基쎯参各者쎯交这信쎯	-8.57603
参处村쎯参米组쎯	-8.57734
交组各쎯	-8.57792
常度从쎯	-8.57886
交由色쎯	-8.57895
农形程쎯	-8.57964
前쎯	-8.57967
常资场쎯农形特쎯	-8.58114
间쎯	-8.58239
式쎯	-8.58523
最쎯	-8.58575
农道程쎯	-8.58632
参形立쎯	-8.5869
器场由쎯	-8.58747
器各城쎯	-8.58807
常而师쎯	-8.58949
标米他쎯参信式쎯	-8.59009
参保保쎯	-8.59108
常计网쎯	-8.59148
参从特쎯	-8.59234
经쎯长쎯	-8.5924
交过由쎯	-8.59351
标外安쎯参重表쎯	-8.59365
器而处쎯	-8.59385
科쎯化쎯	-8.59425
参究里쎯	-8.59593
常程育쎯常信企쎯	-8.59703
经쎯化쎯化쎯	-8.59765
标外质쎯	-8.59837
常色城쎯	-8.6001
交特表쎯常从二쎯	-8.60112
常海形쎯常里提쎯	-8.60315
常特计쎯	-8.60327
交这信쎯交服色쎯	-8.6039
参应最쎯	-8.60394
机쎯交这级쎯	-8.60452
基쎯	-8.60467
交数并쎯	-8.60487
标资道쎯	-8.60524
标他统쎯	-8.60607
常二色쎯交表城쎯	-8.60756
农道社쎯农信信쎯	-8.60895
得쎯	-8.60941
常校间쎯	-8.60964
常育育쎯	-8.61184
交者二쎯	-8.61319
交最网쎯	-8.61328
常信计쎯	-8.61352
常而级쎯农处这쎯	-8.6138
常过二쎯	-8.614
农信型쎯	-8.61487
交海师쎯	-8.61736
常外信쎯参师级쎯	-8.61813
交这师쎯常资由쎯	-8.61864
重쎯	-8.61951
交度目쎯	-8.61992
特쎯	-8.62085
交他得쎯参最前쎯	-8.62101
器式重쎯	-8.6224
经쎯机쎯	-8.62303
常校间쎯常资应쎯常各型쎯	-8.62404
经쎯设쎯	-8.62413
标统程쎯	-8.62446
标这度쎯器提程쎯	-8.62595
交里形쎯	-8.62624
参计场쎯	-8.62666
由쎯	-8.62739
交这社쎯	-8.62862
者쎯	-8.63017
常级天쎯参最广쎯	-8.63082
常信企쎯	-8.63126
常数委쎯农道美쎯	-8.63133
农处保쎯	-8.63273
交他得쎯农道度쎯农道社쎯	-8.6334
农处组쎯	-8.63389
育쎯	-8.63392
万从海쎯农处安쎯农信质쎯	-8.63468
交色村쎯交者二쎯	-8.63474
常委这쎯	-8.63503
从쎯	-8.63675
器路色쎯	-8.63678
委쎯	-8.63898
常安色쎯	-8.63928
标保资쎯	-8.64059
常企统쎯参形二쎯	-8.64385
过쎯	-8.644
标保广쎯	-8.64414
交级而쎯参米十쎯	-8.64465
参口金쎯	-8.64567
参型城쎯	-8.64618
农道口쎯	-8.64621
交最场쎯	-8.64628
交服程쎯	-8.64741
常级保쎯农处这쎯	-8.649
标保社쎯	-8.65068
常里提쎯农从美쎯	-8.65133
关쎯	-8.65134
参保特쎯	-8.65244
参最广쎯农信质쎯	-8.65286
参形委쎯器过间쎯	-8.65399
参形网쎯	-8.65427
农信型쎯标度美쎯	-8.65492
安쎯	-8.65527
交十资쎯农形形쎯	-8.65609
器网组쎯农道社쎯	-8.65664
常资美쎯	-8.65682
参美计쎯农道度쎯农道社쎯	-8.65708
器口究쎯器口并쎯	-8.6571
器网而쎯	-8.65798
常色二쎯器得口쎯	-8.65919
农形型쎯	-8.65956
常前前쎯农道这쎯参这程쎯	-8.66242
立쎯	-8.66389
参米得쎯	-8.66426
器式委쎯	-8.66437
农道型쎯农道社쎯	-8.66525
常得海쎯	-8.66562
外쎯	-8.6665
参最广쎯交级企쎯	-8.66684
交海外쎯常得从쎯	-8.66775
交口间쎯	-8.66784
常前间쎯农信质쎯	-8.66962
常村他쎯	-8.66986
交数组쎯交质级쎯	-8.67007
参信道쎯	-8.67058
导度提쎯导度提쎯	-8.67078
交广基쎯常从二쎯	-8.67198
标目间쎯常道道쎯	-8.67245
常处关쎯	-8.67267
参而委쎯	-8.67328
农形并쎯器基广쎯	-8.67333
米쎯	-8.67382
器各基쎯常级关쎯	-8.67447
交得安쎯	-8.67513
器式计쎯常级关쎯	-8.67582
程쎯	-8.6762
常师重쎯	-8.67671
器提程쎯交前重쎯	-8.67673
常型这쎯	-8.6771
交由师쎯	-8.67985
常处服쎯交级而쎯	-8.68032
标基信쎯	-8.68043
交二而쎯标米他쎯	-8.68088
器路路쎯	-8.68103
常处前쎯常立安쎯	-8.68419
农道色쎯	-8.68436
农处这쎯器度资쎯	-8.68457
色쎯	-8.6847
农从金쎯参形究쎯	-8.68546
服쎯	-8.68591
常信这쎯	-8.68699
企쎯	-8.68732
交广社쎯	-8.68762
建쎯设쎯	-8.6878
常而保쎯	-8.68955
常资应쎯器企得쎯	-8.68967
交师他쎯	-8.69011
标者各쎯标服他쎯	-8.69056
参最究쎯参师天쎯	-8.69172
参得外쎯	-8.69194
级쎯	-8.69228
农信式쎯农道美쎯	-8.69317
器基并쎯	-8.69413
农道度쎯农信保쎯	-8.69426
村쎯	-8.69501
常里组쎯	-8.69535
器过处쎯常校保쎯	-8.69989
常二村쎯参最究쎯	-8.70223
单度重쎯单度校쎯	-8.70465
标并究쎯常立程쎯	-8.70494
交特组쎯	-8.70562
农形校쎯	-8.70577
标立场쎯	-8.70654
标关前쎯	-8.70788
交这前쎯	-8.70829
参型从쎯	-8.70837
器企目쎯	-8.70888
常各服쎯	-8.70895
常级保쎯交特色쎯	-8.70919
常安外쎯	-8.7093
农处委쎯	-8.71087
农从校쎯	-8.71218
口쎯	-8.71248
交得二쎯	-8.71254
交他得쎯农道度쎯参式安쎯	-8.71362
器外社쎯常企前쎯参美计쎯	-8.71375
常校广쎯参师天쎯	-8.71449
标美城쎯	-8.71482
常校金쎯常资育쎯	-8.71591
交里并쎯常从二쎯	-8.71645
常各海쎯交级而쎯	-8.71743
参立提쎯	-8.71748
参式十쎯	-8.71795
参最究쎯农信质쎯	-8.71806
提쎯	-8.71858
十쎯	-8.71949
交这米쎯	-8.71949
常式最쎯	-8.72075
常安口쎯	-8.72085
城쎯	-8.72127
常信立쎯	-8.72153
交路组쎯交前究쎯	-8.72197
常前数쎯	-8.7221
他쎯	-8.72319
交特外쎯农形场쎯	-8.72447
交质关쎯	-8.72616
标美二쎯	-8.72644
常究信쎯交这应쎯	-8.72665
参式度쎯	-8.72697
建쎯化쎯化쎯	-8.72878
常级度쎯	-8.72889
常企育쎯器师信쎯	-8.73062
标组型쎯	-8.73092
交形基쎯	-8.73127
常安米쎯	-8.73147
社쎯	-8.73191
计쎯	-8.73467
参金最쎯参天场쎯交师度쎯	-8.73492
常保保쎯常企目쎯	-8.73525
常各间쎯参质色쎯	-8.73566
器过基쎯	-8.73598
常形信쎯参里村쎯标目服쎯参式得쎯	-8.73615
交数资쎯农信十쎯	-8.73696
标提委쎯	-8.73874
农形场쎯	-8.73912
交特从쎯	-8.74032
标度师쎯交十天쎯	-8.74095
农处数쎯	-8.74185
常二村쎯参质色쎯	-8.74281
常级者쎯	-8.74372
器网保쎯常资育쎯	-8.7439
常海特쎯常里提쎯	-8.74657
器场校쎯	-8.74766
常外信쎯参最究쎯农信质쎯	-8.74767
农道里쎯万从海쎯	-8.74877
农形组쎯	-8.75046
农信数쎯	-8.75285
农信统쎯	-8.75336
交数色쎯交安各쎯	-8.75555
交这保쎯	-8.75758
器得形쎯	-8.75846
常究表쎯器各里쎯	-8.75856
交他海쎯	-8.75954
农城网쎯	-8.75986
农表十쎯标者口쎯	-8.76036
交者式쎯	-8.76105
常色程쎯	-8.76128
农信提쎯	-8.7613
交级村쎯常保处쎯	-8.76204
交得最쎯器城过쎯	-8.76394
交最表쎯	-8.76442
建쎯建쎯	-8.76443
标道究쎯	-8.76501
农道处쎯	-8.76536
交色口쎯常表由쎯	-8.76559
之쎯化쎯	-8.76661
常而海쎯交者场쎯	-8.76676
常表网쎯农道这쎯	-8.76753
农信信쎯参师天쎯	-8.76764
交校者쎯	-8.76769
参由特쎯	-8.76847
常从数쎯	-8.76937
常表网쎯器育网쎯	-8.7714
常质美쎯	-8.77195
常级米쎯	-8.77197
器各色쎯	-8.77223
常师村쎯	-8.7735
标他口쎯	-8.77557
常究信쎯参基度쎯	-8.77571
农形特쎯农形应쎯	-8.77683
常而过쎯	-8.77725
常二道쎯	-8.77802
常级场쎯标度金쎯	-8.77895
交数资쎯	-8.77907
农信信쎯交师安쎯	-8.77991
参应应쎯农道师쎯	-8.78001
标基场쎯	-8.78014
表쎯	-8.7808
资쎯	-8.78099
常得委쎯	-8.78122
常资级쎯参最究쎯	-8.78179
参口米쎯	-8.78181
器处各쎯	-8.78293
农表海쎯	-8.78339
交组十쎯	-8.78451
常表网쎯常企间쎯	-8.78583
交最网쎯交统形쎯	-8.7874
交二而쎯	-8.78816
农从得쎯	-8.78864
农信应쎯	-8.78942
器路保쎯	-8.79076
参程得쎯	-8.79207
万从海쎯农形特쎯	-8.79493
常安者쎯农信应쎯	-8.79547
器立目쎯	-8.7971
交最得쎯	-8.79754
万从师쎯家쎯	-8.79773
常委企쎯	-8.798
万从海쎯常资场쎯农道里쎯	-8.7989
标立程쎯器企得쎯	-8.79914
器得里쎯器广度쎯	-8.80083
海쎯	-8.80164
器组米쎯	-8.80219
标关服쎯	-8.80245
器级表쎯	-8.80581
常目者쎯	-8.80716
标服委쎯常究究쎯	-8.80881
交统由쎯常安者쎯	-8.80885
交特色쎯标者形쎯	-8.80958
标立场쎯器基海쎯	-8.81199
器度由쎯	-8.81265
校쎯	-8.81382
常安金쎯常这色쎯标目服쎯参式得쎯	-8.81467
常而米쎯	-8.81557
器程海쎯农道美쎯	-8.81678
标目关쎯常表口쎯	-8.8176
交师度쎯交这师쎯	-8.81764
常形信쎯参米十쎯	-8.81934
常各场쎯常信里쎯	-8.81969
农道安쎯器过处쎯	-8.82023
万从海쎯常安由쎯	-8.82209
常表网쎯农道这쎯参这程쎯	-8.82266
单重	-8.8232
常表由쎯常二色쎯	-8.82323
器十前쎯器得里쎯	-8.82434
农处这쎯参最广쎯	-8.82542
参前形쎯常间十쎯	-8.82704
农信村쎯常安者쎯	-8.82846
常委统쎯	-8.82913
常统里쎯	-8.82955
区쎯	-8.82993
常安金쎯	-8.83002
常究表쎯常资形쎯	-8.83016
常处天쎯	-8.83274
常级形쎯	-8.8329
常育者쎯	-8.83404
交程天쎯	-8.83496
标基表쎯	-8.83647
交前重쎯	-8.83754
交目村쎯标美场쎯常前间쎯农信质쎯	-8.83898
交表城쎯	-8.83994
常外型쎯	-8.83997
交统究쎯	-8.84069
交度度쎯	-8.84076
参保各쎯常师安쎯	-8.84208
单度十쎯交他得쎯	-8.84326
交立安쎯农处这쎯	-8.84535
常处前쎯	-8.84576
常外信쎯参质色쎯	-8.84595
农道这쎯常海者쎯	-8.84636
常城而쎯	-8.84759
形쎯	-8.84789
器过这쎯	-8.84804
农信信쎯常二并쎯	-8.84806
标目服쎯参式得쎯	-8.84844
参数组쎯	-8.84916
建쎯化쎯经쎯化쎯常表口쎯	-8.84998
交度式쎯器过处쎯	-8.85141
参究育쎯器得委쎯	-8.85215
器度过쎯	-8.85344
器十前쎯常保处쎯	-8.8536
器十育쎯	-8.85445
而쎯	-8.85452
机쎯化쎯	-8.8555
参形立쎯常而级쎯	-8.85584
常资形쎯	-8.85589
交金道쎯	-8.85605
长쎯建쎯	-8.85837
器过海쎯	-8.85865
建쎯长쎯	-8.85888
交特表쎯标目服쎯	-8.85915
交者场쎯交这究쎯	-8.86005
常道级쎯器海过쎯常型式쎯常里提쎯	-8.86014
标立这쎯	-8.86033
器师得쎯	-8.86095
美쎯	-8.86113
常外金쎯	-8.86144
参师表쎯器师统쎯	-8.86224
常企提쎯	-8.86266
万从海쎯常得表쎯	-8.8632
器基海쎯交最网쎯	-8.86718
农道校쎯参美计쎯	-8.86742
交表特쎯常安者쎯	-8.8678
常型前쎯	-8.8684
器过场쎯	-8.86892
常安美쎯常并米쎯	-8.86921
交服提쎯	-8.86932
参村间쎯	-8.87111
常道目쎯	-8.87179
农处立쎯器重统쎯	-8.872
器城城쎯常级色쎯	-8.87291
度쎯	-8.87339
常海信쎯常究究쎯	-8.87375
标处而쎯	-8.87378
交口社쎯	-8.87428
器得道쎯	-8.87463
道쎯	-8.87491
器处形쎯	-8.87559
器处处쎯	-8.87668
常立级쎯	-8.87714
交级而쎯常校究쎯	-8.87726
常数委쎯常校基쎯	-8.87747
参式色쎯农道信쎯	-8.87761
参十应쎯参米十쎯	-8.87804
常安米쎯参最究쎯	-8.87854
常而计쎯参前形쎯	-8.87891
常网米쎯	-8.87912
器外社쎯常校广쎯	-8.87922
器组质쎯	-8.87932
参处各쎯	-8.88083
器前委쎯	-8.88277
万从海쎯农处网쎯	-8.88355
参师海쎯	-8.88477
目쎯	-8.88494
农道表쎯	-8.88559
常委色쎯	-8.88568
参信表쎯	-8.88689
农表十쎯农道度쎯万从海쎯	-8.88791
交特里쎯	-8.88847
万从师쎯单度程쎯	-8.88965
常色处쎯	-8.89089
标保计쎯	-8.8934
交路组쎯交前究쎯参这程쎯	-8.89533
参保道쎯常资由쎯	-8.89654
器色立쎯	-8.89667
交由数쎯常城十쎯	-8.8967
交这度쎯常型式쎯参美计쎯	-8.89721
二쎯	-8.89763
参天信쎯标者口쎯	-8.89854
器口表쎯	-8.89874
万从质쎯	-8.89992
参从他쎯	-8.90004
体쎯化쎯	-8.9009
器委这쎯	-8.90114
常村处쎯	-8.9019
器程最쎯常而级쎯	-8.90228
参最路쎯器式委쎯	-8.90264
标资安쎯	-8.90341
农道立쎯	-8.90346
标度程쎯	-8.90358
常海形쎯	-8.90414
全쎯全쎯	-8.905
参最路쎯器计村쎯	-8.90525
建쎯之쎯	-8.90557
标信形쎯	-8.9057
全쎯全쎯全쎯全쎯全쎯全쎯全쎯全쎯	-8.9064
器质米쎯	-8.90642
常得关쎯	-8.90738
交者场쎯农形并쎯	-8.90796
交口保쎯	-8.90821
器计美쎯	-8.90866
常城企쎯常保处쎯	-8.90881
参过究쎯	-8.90889
器育网쎯常安者쎯	-8.90921
参统关쎯	-8.90929
交前金쎯	-8.91095
常各级쎯	-8.91096
参城校쎯	-8.9125
交目重쎯	-8.91346
标过处쎯交他得쎯	-8.91413
农道度쎯交应基쎯	-8.91559
交这度쎯常型式쎯	-8.91623
标度究쎯	-8.91646
交场统쎯	-8.91663
交前究쎯器十二쎯参这程쎯	-8.91766
长쎯月쎯	-8.91801
常企育쎯农处这쎯万从海쎯	-8.91806
器安并쎯	-8.91879
文쎯家쎯	-8.91902
交最城쎯常资育쎯	-8.91932
常信委쎯	-8.92232
常城者쎯常级色쎯	-8.92394
农表究쎯交他得쎯	-8.92469
常资由쎯参由形쎯	-8.92471
参形计쎯交级而쎯	-8.92652
参最前쎯农信质쎯	-8.92676
建쎯化쎯化쎯科쎯常表口쎯	-8.92716
常这色쎯交特表쎯	-8.92803
器二海쎯	-8.92883
常校金쎯常资育쎯农道里쎯常保处쎯	-8.92964
常得从쎯	-8.93047
农信型쎯交路程쎯	-8.93116
器各基쎯	-8.93158
单度重쎯器得育쎯	-8.93198
万从究쎯	-8.93326
万从保쎯家쎯	-8.93476
农处由쎯	-8.93482
标统这쎯	-8.93511
交组各쎯标度美쎯	-8.93528
交由数쎯常保处쎯	-8.93794
交他得쎯农道度쎯常各场쎯	-8.9383
参委究쎯	-8.93836
常师式쎯	-8.93884
体쎯交这级쎯	-8.93904
常各服쎯交级企쎯	-8.93963
标组委쎯	-8.94006
科쎯交这级쎯	-8.94022
农信式쎯参最究쎯	-8.94055
标目组쎯	-8.94208
常资广쎯标目服쎯	-8.94261
交者场쎯常色美쎯	-8.94308
参十应쎯	-8.94361
场쎯	-8.94434
经쎯化쎯交这级쎯	-8.94594
器得城쎯参广十쎯	-8.94612
参组形쎯	-8.94632
参美计쎯导度这쎯	-8.94643
器得程쎯	-8.94784
参数育쎯	-8.94789
统쎯	-8.94812
参形二쎯器网外쎯	-8.94818
建쎯经쎯	-8.94829
农从型쎯	-8.94874
建쎯化쎯化쎯机쎯常表口쎯	-8.94885
农信信쎯农形应쎯	-8.94995
建쎯科쎯	-8.95041
器网组쎯农信保쎯	-8.95052
网쎯	-8.95095
器网组쎯参式安쎯	-8.95124
参保口쎯交质育쎯	-8.95149
器育网쎯常海者쎯	-8.95375
交目度쎯	-8.95382
器得目쎯	-8.95415
建쎯化쎯化쎯体쎯常表口쎯	-8.95559
常二校쎯常资场쎯	-8.95586
器计村쎯	-8.95603
常表网쎯常村校쎯	-8.95659
建쎯化쎯化쎯之쎯常表口쎯	-8.957
器路计쎯交特组쎯	-8.95714
常广程쎯	-8.9572
标服他쎯	-8.95895
器十提쎯	-8.95951
器前基쎯	-8.95985
器基育쎯	-8.95998
常二十쎯	-8.96001
标并质쎯交金从쎯	-8.96103
交统由쎯常海者쎯	-8.96104
参统城쎯参育间쎯	-8.96282
经쎯建쎯交这级쎯	-8.96292
参口服쎯	-8.96514
万从海쎯农道里쎯常保处쎯	-8.96525
器网外쎯参广十쎯	-8.96548
交目得쎯	-8.96566
交最网쎯参里特쎯	-8.96648
常信组쎯	-8.97023
交组信쎯	-8.97067
交前究쎯器十二쎯	-8.97137
器关组쎯	-8.97144
标过村쎯	-8.97193
参形目쎯	-8.97201
器口目쎯	-8.97252
交统由쎯常安者쎯参这程쎯	-8.97252
交由广쎯	-8.97275
农道口쎯常信校쎯	-8.97529
参最企쎯万从海쎯交前师쎯交者二쎯	-8.97628
参二金쎯	-8.97706
器处得쎯	-8.97798
常度关쎯	-8.97846
交保从쎯	-8.97868
农道城쎯	-8.97923
常里他쎯	-8.97964
经쎯与쎯	-8.9798
常质资쎯	-8.981
器得信쎯	-8.98166
常各师쎯器并资쎯	-8.98167
常基间쎯	-8.9817
标服委쎯常得从쎯	-8.98194
农形社쎯	-8.98236
交基级쎯	-8.98241
常前校쎯	-8.98251
标关究쎯	-8.98356
常资广쎯参而过쎯	-8.98417
常级委쎯农道信쎯	-8.98562
器特计쎯	-8.98677
常企育쎯常资企쎯	-8.98726
常各间쎯交特处쎯	-8.98988
器程美쎯	-8.98997
器组美쎯	-8.99063
路쎯	-8.99075
参育特쎯	-8.99098
交路资쎯	-8.99112
时쎯	-8.99114
交表特쎯常海者쎯	-8.99199
器过处쎯常型究쎯	-8.99264
之쎯交这级쎯	-8.9938
交级而쎯常村他쎯	-8.99432
农信里쎯	-8.99545
设쎯月쎯	-8.99628
常资前쎯常而海쎯	-8.99739
交金外쎯	-8.99821
常而应쎯	-8.99858
常级保쎯	-8.99876
交里育쎯	-8.99933
万从海쎯常提重쎯	-8.99937
器师信쎯	-9.00059
农形应쎯	-9.00161
农形资쎯	-9.00184
器计师쎯	-9.00215
参式提쎯	-9.00243
常型美쎯参式安쎯	-9.00291
常特这쎯	-9.00368
交度目쎯交过由쎯	-9.00405
交特处쎯	-9.0058
参信社쎯	-9.00673
参提二쎯常形信쎯	-9.00758
器色	-9.00818
常校究쎯	-9.0085
常外形쎯	-9.00871
器级间쎯	-9.00985
交间目쎯	-9.01008
农道信쎯农信委쎯	-9.01099
农城式쎯	-9.01135
万从海쎯常色委쎯	-9.01203
器程海쎯	-9.01233
标究天쎯	-9.0127
常并程쎯	-9.01403
标者形쎯	-9.01486
常各师쎯常城处쎯	-9.01499
器网而쎯器基海쎯	-9.01521
常他师쎯	-9.01553
农处二쎯	-9.01556
参保各쎯交金外쎯	-9.01744
器重基쎯	-9.01751
常各并쎯农从金쎯	-9.01774
参者资쎯交得关쎯	-9.01812
常这级쎯	-9.0182
农城目쎯	-9.01835
常二米쎯	-9.01864
交由育쎯	-9.01921
常各间쎯标社海쎯	-9.01926
器网组쎯农道度쎯	-9.02001
器处口쎯	-9.02073
交间场쎯	-9.02085
常基他쎯	-9.02114
常究信쎯常这色쎯	-9.02179
常各并쎯	-9.02299
常城度쎯	-9.02371
常级委쎯常道过쎯	-9.02373
常资级쎯器网保쎯	-9.02401
器网间쎯交质育쎯	-9.02408
农道形쎯交海程쎯	-9.02433
交得关쎯	-9.02447
常资应쎯常保里쎯	-9.02454
交师式쎯器基海쎯	-9.0252
常质委쎯	-9.02841
常服间쎯	-9.02865
常企各쎯	-9.02936
参美计쎯标外安쎯器提程쎯	-9.02943
交并各쎯	-9.02992
交特者쎯	-9.03019
常计网쎯参米育쎯	-9.03034
建쎯机쎯	-9.03146
交数级쎯交间这쎯	-9.03185
农形十쎯参形安쎯	-9.03224
常服广쎯	-9.03261
参广十쎯	-9.03318
交者天쎯	-9.03398
万从海쎯常二得쎯	-9.03429
常从表쎯	-9.036
标外村쎯常前间쎯	-9.03708
器口路쎯	-9.03828
农道安쎯交特里쎯	-9.04002
标过基쎯	-9.04311
建쎯化쎯化쎯设쎯常表口쎯	-9.04379
参究网쎯	-9.04383
交目基쎯农形场쎯	-9.04428
标外村쎯器间安쎯	-9.046
交质育쎯常二并쎯	-9.04642
标美委쎯	-9.04739
常级信쎯	-9.04773
器资表쎯	-9.04828
常二重쎯农道质쎯	-9.0484
常级场쎯常信提쎯	-9.04877
常从度쎯常前数쎯	-9.04889
农处这쎯常各场쎯	-9.04918
常校基쎯	-9.04928
参重关쎯	-9.04968
交这得쎯	-9.05017
标数这쎯	-9.05072
常服过쎯	-9.05161
交级特쎯器度资쎯	-9.05189
交数口쎯	-9.05234
单度十쎯万从海쎯	-9.05251
常处数쎯	-9.05268
器外口쎯	-9.0529
常十关쎯	-9.05295
常资由쎯农信质쎯	-9.05323
交数组쎯交目而쎯	-9.0542
交特表쎯常而村쎯	-9.05462
交口形쎯	-9.05521
交特表쎯农城网쎯	-9.05562
参海社쎯	-9.05581
常目基쎯	-9.05674
器基广쎯标目服쎯	-9.05691
农道信쎯农道形쎯	-9.05971
农信信쎯参美计쎯	-9.05976
交由处쎯	-9.06111
常城程쎯	-9.06137
参质色쎯农形形쎯	-9.06161
农信信쎯万从海쎯常资场쎯农道里쎯	-9.06196
代쎯	-9.06206
常处服쎯常从二쎯	-9.06229
标组路쎯	-9.06229
常这究쎯常这色쎯	-9.06259
常色特쎯	-9.06369
器各信쎯交特外쎯	-9.06379
参特城쎯参者资쎯	-9.06435
万从海쎯常各过쎯	-9.06542
标育色쎯	-9.06546
建쎯化쎯化쎯月쎯常表口쎯	-9.06563
交目这쎯	-9.06599
农道度쎯器路企쎯	-9.06612
交校型쎯	-9.06758
交过金쎯	-9.0687
农表由쎯	-9.06952
农形育쎯农道校쎯	-9.07004
常二村쎯器基广쎯	-9.07099
常资广쎯标过广쎯	-9.07171
农处立쎯参由形쎯	-9.07236
交级二쎯	-9.07239
参者外쎯	-9.07245
交究由쎯	-9.07367
农从美쎯器各各쎯	-9.07383
参式村쎯参金最쎯	-9.07527
万从海쎯农道质쎯	-9.07611
器得城쎯	-9.0763
常各这쎯	-9.07675
器各道쎯常型美쎯	-9.07715
参最究쎯交度程쎯	-9.07828
农形企쎯常度从쎯	-9.07873
常并由쎯	-9.0792
参信得쎯	-9.07926
标服目쎯	-9.0794
常前间쎯农信质쎯常前前쎯常海信쎯	-9.07945
农道信쎯农道度쎯农处立쎯参美计쎯	-9.07981
单度重쎯常资场쎯	-9.08026
器海过쎯常保口쎯	-9.08107
标究天쎯常保处쎯	-9.0825
农道最쎯	-9.08285
常里提쎯参式村쎯	-9.08329
农道校쎯交路企쎯常道重쎯	-9.08375
万从海쎯农形质쎯	-9.08782
常这色쎯常型计쎯	-9.08814
标组安쎯	-9.08823
交前程쎯	-9.08836
常二由쎯	-9.09101
常级委쎯常级米쎯	-9.09189
器网社쎯	-9.09216
月쎯交这级쎯	-9.09217
常委这쎯交目村쎯	-9.09286
器并资쎯标育色쎯	-9.09328
参美外쎯	-9.09443
经쎯经쎯交这级쎯	-9.09541
建쎯化쎯化쎯长쎯常表口쎯	-9.09676
万从海쎯农道安쎯	-9.09696
常海形쎯参特者쎯	-9.09804
常保保쎯常企目쎯参这程쎯	-9.09809
交特村쎯	-9.09862
器外并쎯	-9.09931
交由基쎯	-9.09939
常提重쎯农处数쎯	-9.09942
标外外쎯	-9.10015
农形企쎯	-9.10034
标外安쎯器提程쎯	-9.10064
标组场쎯	-9.10077
参广十쎯常信二쎯	-9.10087
器基广쎯参型信쎯	-9.10124
常型天쎯交口育쎯	-9.10128
器质前쎯	-9.10299
常表统쎯标过广쎯	-9.1031
农从提쎯	-9.10401
参过式쎯	-9.10448
常得从쎯交从最쎯	-9.10453
常保信쎯	-9.10474
参应应쎯	-9.10604
农城保쎯	-9.10613
参各度쎯	-9.10654
常二型쎯农形并쎯	-9.10673
参资式쎯	-9.10694
器外由쎯农形校쎯	-9.1075
常广前쎯农表而쎯	-9.10808
参质色쎯交这师쎯	-9.10861
常色美쎯	-9.10897
标从立쎯	-9.10904
交应式쎯交口统쎯	-9.10937
常道各쎯常校天쎯	-9.1111
标外安쎯常信委쎯	-9.11125
器基者쎯标程立쎯	-9.1124
农表资쎯	-9.11245
单过	-9.11255
器各道쎯	-9.11262
器各城쎯交这师쎯	-9.11373
农表十쎯常而质쎯	-9.11409
器基海쎯农道信쎯	-9.11416
建쎯化쎯化쎯建쎯常表口쎯	-9.11436
经쎯农道社쎯	-9.11508
长쎯科쎯	-9.11523
单度十쎯参里师쎯	-9.11541
常程外쎯	-9.11567
器各城쎯交特处쎯	-9.11572
常保处쎯常各场쎯参信式쎯	-9.11573
农城十쎯	-9.11592
常海者쎯农信应쎯常道重쎯	-9.11733
参组处쎯器师统쎯	-9.11766
农道里쎯常安质쎯	-9.11777
器计前쎯	-9.11956
农从他쎯	-9.12123
常校网쎯	-9.12123
常企育쎯农处这쎯单度重쎯	-9.12304
参资各쎯	-9.12307
常保服쎯标他究쎯	-9.12486
常级保쎯常形信쎯	-9.12724
交师网쎯	-9.12758
器式计쎯常各美쎯	-9.12983
长쎯交这级쎯	-9.13051
常数委쎯常立程쎯	-9.1309
设쎯交这级쎯	-9.13101
器路型쎯	-9.13186
常得网쎯	-9.1319
标处网쎯	-9.13207
参形网쎯器师统쎯	-9.13231
建쎯化쎯经쎯经쎯常表口쎯	-9.13241
参程色쎯	-9.13305
交表特쎯常海者쎯参这程쎯	-9.13476
农道里쎯常资前쎯	-9.13661
交应城쎯	-9.13697
交口十쎯	-9.13701
参重质쎯	-9.1382
常外师쎯	-9.13912
标信提쎯	-9.13933
器得数쎯	-9.13964
常立程쎯参式安쎯	-9.14092
常程二쎯	-9.14109
交企基쎯	-9.14132
交质广쎯常表网쎯	-9.1414
参金口쎯	-9.1432
标数网쎯交这究쎯	-9.14435
农道里쎯常海形쎯	-9.14512
器口型쎯	-9.14567
交前究쎯器育网쎯	-9.14596
参美委쎯	-9.14655
器网企쎯	-9.1466
农道师쎯农道社쎯	-9.1467
农道外쎯常表由쎯交特表쎯参前由쎯	-9.14757
交质广쎯	-9.15085
器而育쎯标最度쎯	-9.15097
农形企쎯交金从쎯	-9.15237
参统者쎯	-9.15238
器外社쎯参最前쎯	-9.15398
交数口쎯农道社쎯	-9.1542
常委金쎯	-9.15445
常特这쎯交应服쎯	-9.15468
参基应쎯	-9.15591
交企前쎯常这由쎯	-9.15601
万从海쎯农表究쎯交他得쎯	-9.15703
标美而쎯	-9.15722
常企提쎯常二由쎯	-9.15772
常各师쎯常城处쎯参这程쎯	-9.1585
常二重쎯常校金쎯常企育쎯农处这쎯	-9.15851
交统基쎯	-9.15954
交美者쎯	-9.16064
常各海쎯常资广쎯	-9.16066
器色服쎯	-9.16168
常二重쎯	-9.16178
常式立쎯	-9.16212
建쎯化쎯化쎯化쎯常表口쎯	-9.16392
化쎯化쎯常表由쎯交特表쎯参前由쎯	-9.16451
器网他쎯交这师쎯	-9.16475
器外口쎯常校保쎯农信质쎯	-9.16482
标者各쎯	-9.16577
交师十쎯交这信쎯	-9.16594
常二村쎯器基海쎯	-9.16663
常统者쎯	-9.16668
参城质쎯交这得쎯	-9.16754
农网过쎯器网保쎯	-9.16838
标组计쎯	-9.16883
常委由쎯常各美쎯	-9.169
标度金쎯	-9.16907
常前前쎯器育网쎯	-9.16953
器外社쎯交统形쎯常海信쎯	-9.16986
交师应쎯	-9.16999
常度安쎯	-9.17104
常委应쎯	-9.17113
常保金쎯农道信쎯	-9.17134
交校他쎯	-9.17138
农信信쎯参前形쎯	-9.17298
长쎯化쎯化쎯	-9.1739
参基数쎯常并米쎯	-9.17452
器度资쎯万从海쎯	-9.17594
器过道쎯	-9.17704
器各统쎯	-9.17725
农形特쎯参美计쎯	-9.17762
器而广쎯	-9.17829
参师天쎯参而委쎯	-9.17852
常形场쎯	-9.17916
常式这쎯	-9.18165
高쎯	-9.18317
参最他쎯	-9.18392
常网资쎯	-9.18395
万从海쎯常二级쎯	-9.18407
建쎯体쎯	-9.18433
常外基쎯	-9.18471
标目天쎯常村处쎯	-9.18614
参保校쎯	-9.18657
参最究쎯万从海쎯	-9.18683
农信型쎯交他立쎯	-9.18707
经쎯交这级쎯	-9.1871
农信十쎯农道美쎯	-9.18756
交级网쎯常这色쎯农信式쎯	-9.18903
常目目쎯	-9.18921
法쎯	-9.19034
标过质쎯	-9.19084
常各表쎯	-9.19085
标天形쎯	-9.1916
常二他쎯常海特쎯	-9.19184
交特外쎯交他质쎯	-9.19188
交口统쎯	-9.19222
农从金쎯交关里쎯	-9.19242
交目色쎯	-9.19313
交前外쎯	-9.19352
参者保쎯	-9.19378
标度度쎯	-9.19434
常目而쎯	-9.19469
常二级쎯参式色쎯	-9.19493
农表提쎯交由数쎯	-9.19503
交者者쎯	-9.19613
农从者쎯	-9.19649
常色计쎯	-9.19725
交这信쎯常资由쎯	-9.19768
参美计쎯常二村쎯常前数쎯	-9.198
常从度쎯常二村쎯常海信쎯	-9.19802
月쎯化쎯化쎯	-9.19826
常里提쎯交这得쎯	-9.19902
参师表쎯常城程쎯	-9.19959
参外数쎯	-9.19977
器口道쎯交他立쎯	-9.20136
器度过쎯器得数쎯	-9.20168
交这究쎯标者口쎯	-9.20223
交目育쎯器外社쎯	-9.20224
交路各쎯	-9.20233
交由广쎯常委海쎯	-9.20316
常资前쎯常关海쎯常保处쎯	-9.20326
常网金쎯	-9.20505
农从美쎯常村他쎯	-9.20521
常安者쎯标过广쎯	-9.20557
参师组쎯	-9.20669
常安程쎯常级委쎯	-9.2077
常保处쎯常委资쎯常型特쎯	-9.20789
常网米쎯标度究쎯	-9.20931
器各里쎯参形过쎯	-9.20961
常二安쎯常信最쎯	-9.20984
常校由쎯	-9.21047
常表网쎯常这信쎯	-9.21092
标组数쎯器育网쎯	-9.21147
单度重쎯农形特쎯	-9.21202
单度十쎯单度重쎯	-9.21205
标服委쎯	-9.21275
交村计쎯常处前쎯	-9.21413
参金最쎯参天场쎯参最究쎯	-9.21484
交究前쎯	-9.21574
参校场쎯交度程쎯	-9.21602
交数色쎯常里提쎯	-9.21607
参提二쎯常形信쎯参这程쎯	-9.21633
农道度쎯参保口쎯	-9.21638
常从前쎯	-9.21684
常里并쎯	-9.21712
常二者쎯常级色쎯	-9.21774
单度重쎯参质色쎯农形形쎯	-9.2214
建쎯化쎯经쎯建쎯常表口쎯	-9.22213
标里最쎯	-9.22255
交形村쎯	-9.22258
农从从쎯	-9.22272
常二育쎯	-9.22275
参应应쎯常保保쎯	-9.22277
参并广쎯	-9.22305
参这程쎯参信式쎯	-9.22396
常式十쎯	-9.22425
交表特쎯常安者쎯参这程쎯	-9.22539
交他城쎯	-9.22608
常服立쎯	-9.22616
交他得쎯农道里쎯常保处쎯	-9.22681
交这度쎯标米他쎯	-9.22946
参广质쎯	-9.22954
交数色쎯常里者쎯	-9.22996
器育网쎯标过广쎯	-9.23061
交应统쎯	-9.23125
常服间쎯常校金쎯	-9.23133
交最场쎯常资育쎯	-9.23215
参式得쎯	-9.23241
交保色쎯	-9.23373
万从海쎯农道形쎯器提程쎯	-9.23376
器得数쎯标社海쎯	-9.23416
交色村쎯标者口쎯	-9.23449
交目里쎯常企间쎯	-9.23455
参形式쎯	-9.23498
交他城쎯参型信쎯	-9.2353
器得形쎯器度资쎯	-9.23627
器网间쎯参形里쎯	-9.23633
标这统쎯	-9.23641
标过广쎯标者广쎯	-9.23649
器各城쎯参处各쎯	-9.23671
器服米쎯器得计쎯农道信쎯	-9.23698
标最提쎯	-9.23755
交场提쎯	-9.23759
交过资쎯常委路쎯	-9.2377
器各型쎯农道信쎯	-9.23841
建쎯化쎯化쎯经쎯常表口쎯	-9.23871
常各间쎯标组资쎯	-9.23952
常而安쎯参式色쎯	-9.23959
器村者쎯	-9.24017
交道天쎯常信提쎯	-9.24043
器师城쎯	-9.24057
单程	-9.24072
万从海쎯农表究쎯	-9.24254
参师表쎯常级米쎯	-9.24287
常前二쎯	-9.24388
参级场쎯	-9.24411
农信各쎯	-9.2443
标过里쎯	-9.24526
交校数쎯	-9.24608
科쎯化쎯化쎯	-9.24679
交安服쎯	-9.24761
农信村쎯常安者쎯参这程쎯	-9.24922
常育由쎯交度式쎯	-9.25003
常最前쎯	-9.25031
参师天쎯器口广쎯	-9.25078
器网而쎯参最广쎯	-9.25088
交统由쎯常海者쎯参这程쎯	-9.25178
参师表쎯参重表쎯	-9.25199
参形计쎯常而级쎯	-9.25383
交组美쎯	-9.25472
器村者쎯常而安쎯参美计쎯	-9.25481
交并度쎯交路十쎯	-9.25558
农表他쎯	-9.2557
交金基쎯常保里쎯	-9.25598
标关级쎯	-9.25638
万从海쎯交师度쎯农形育쎯	-9.25668
万从海쎯常而质쎯	-9.25755
标形村쎯器师统쎯	-9.25844
交质海쎯	-9.25879
交基重쎯	-9.25891
器场资쎯器网外쎯	-9.25909
常城资쎯	-9.25918
交里提쎯交前师쎯	-9.26042
农道形쎯农形形쎯	-9.26106
标里二쎯	-9.26208
交特处쎯常企育쎯	-9.26262
万从海쎯交数资쎯	-9.26277
常金基쎯	-9.26347
常式十쎯常形信쎯农信质쎯	-9.26355
标关	-9.26373
交路质쎯	-9.264
导度组쎯	-9.26421
长쎯之쎯	-9.26538
交各网쎯	-9.26545
常各间쎯器企路쎯	-9.26548
标米他쎯标度究쎯	-9.26579
参城处쎯	-9.26579
器得村쎯	-9.26613
农道安쎯常而海쎯参美计쎯	-9.26618
常网资쎯标基形쎯	-9.26646
交路提쎯	-9.267
交处各쎯	-9.26742
交程场쎯	-9.26868
器质统쎯	-9.27025
器度而쎯	-9.27061
农形并쎯参而委쎯	-9.27083
交间社쎯	-9.27114
农表前쎯	-9.27157
参式安쎯交型安쎯	-9.27214
常色二쎯常海信쎯	-9.27218
单度十쎯单度校쎯	-9.27304
常委保쎯农信十쎯	-9.27387
常海特쎯常企育쎯	-9.27456
器网而쎯器城立쎯	-9.27461
设쎯之쎯	-9.27697
参育育쎯	-9.27905
常型式쎯常色二쎯	-9.27917
常海资쎯器并资쎯	-9.2795
农道师쎯常表口쎯	-9.27992
交得最쎯器路保쎯	-9.27994
农形形쎯常校基쎯	-9.28003
常得广쎯	-9.28037
器色级쎯	-9.2811
常色校쎯	-9.28119
农信委쎯器式并쎯	-9.28273
常海者쎯标过广쎯	-9.28303
交级他쎯参数育쎯	-9.28331
交师立쎯标度金쎯	-9.28366
农表过쎯	-9.28389
参特二쎯	-9.28399
标美最쎯	-9.28415
常前前쎯常海信쎯	-9.28486
器式计쎯器海过쎯	-9.28538
标米他쎯农道里쎯	-9.2855
万从海쎯参最广쎯	-9.28627
常前资쎯交色村쎯	-9.28703
器式计쎯交广基쎯	-9.2873
标度究쎯常信提쎯	-9.28735
交金道쎯常网过쎯	-9.28748
器各基쎯参各者쎯	-9.28753
参质色쎯常这广쎯	-9.28763
万从海쎯农形育쎯常二校쎯	-9.2879
器基广쎯参质色쎯	-9.29111
农道这쎯交特表쎯	-9.29139
常师得쎯农道形쎯农形形쎯	-9.29168
名쎯	-9.2924
万从海쎯参质色쎯农形形쎯	-9.29261
交目村쎯交色村쎯常色二쎯参形计쎯	-9.29437
器海质쎯	-9.29527
万从海쎯常委安쎯	-9.29677
常表网쎯常型式쎯	-9.29685
器式委쎯标服村쎯	-9.29751
交统师쎯	-9.29795
器城保쎯	-9.29827
常保口쎯	-9.29836
交应式쎯	-9.29838
交计二쎯常型式쎯常级天쎯	-9.30048
单度重쎯常各过쎯	-9.3006
参最路쎯常校保쎯	-9.30116
参而口쎯	-9.30298
参应村쎯	-9.30368
常里目쎯	-9.30389
交路十쎯	-9.30431
器口式쎯	-9.30457
交究育쎯	-9.30592
农道这쎯常安者쎯	-9.30594
标度美쎯常道道쎯	-9.30701
标基形쎯	-9.30712
参服村쎯	-9.30743
标究路쎯	-9.30758
参师天쎯交路程쎯	-9.30831
器网程쎯	-9.30885
常级美쎯	-9.30898
常究质쎯常海信쎯	-9.3092
常委资쎯器关组쎯常二型쎯	-9.31011
农道特쎯参信社쎯	-9.31042
交十安쎯交村计쎯	-9.31079
交保表쎯	-9.31085
器师统쎯常处天쎯	-9.312
常式委쎯	-9.31213
参式形쎯常校广쎯	-9.31253
参从特쎯器城村쎯	-9.31377
参式村쎯常里提쎯标组服쎯	-9.31413
交质式쎯	-9.31447
长쎯机쎯	-9.31478
参质得쎯农网目쎯	-9.31485
交度育쎯	-9.31568
常立统쎯常里提쎯	-9.31647
常资处쎯	-9.31649
常前十쎯	-9.31693
器重育쎯	-9.31845
常表网쎯交由保쎯	-9.31872
常安美쎯参师天쎯标提委쎯	-9.31914
交从最쎯常村他쎯	-9.31958
参质天쎯	-9.31976
交统网쎯	-9.32016
标度美쎯农网基쎯	-9.32035
常委资쎯标过广쎯	-9.32104
交级而쎯标过处쎯	-9.3213
交基村쎯	-9.32138
常信里쎯	-9.32195
常关广쎯器得服쎯	-9.32199
农从美쎯器各基쎯	-9.32294
交这师쎯交数级쎯	-9.32337
常城计쎯	-9.32347
参广安쎯	-9.32391
参最这쎯	-9.32557
交特色쎯参特委쎯	-9.32585
交二二쎯器网色쎯	-9.32594
参各前쎯	-9.32615
交数级쎯	-9.32712
参校表쎯	-9.32713
常处立쎯常这色쎯	-9.32795
交口者쎯	-9.32837
常企广쎯	-9.32891
常型式쎯标外二쎯	-9.32909
器得企쎯	-9.32982
常校由쎯常校广쎯	-9.32994
交表网쎯	-9.32994
建쎯化쎯化쎯化쎯	-9.33078
交育美쎯	-9.3319
常社关쎯农处立쎯	-9.33286
农道安쎯交他得쎯	-9.33328
标服计쎯	-9.33357
农道形쎯农形形쎯常海形쎯常道级쎯	-9.33397
器各型쎯器得程쎯	-9.33399
常安由쎯常二得쎯	-9.33473
交各十쎯	-9.33496
交计究쎯交究立쎯	-9.33501
标资安쎯常育者쎯	-9.33514
经쎯体쎯体쎯之쎯常表口쎯	-9.33526
器口究쎯	-9.33584
标过广쎯标他究쎯	-9.33614
标立	-9.33672
参形究쎯农道度쎯	-9.33691
交金企쎯	-9.33785
标保场쎯	-9.33834
参质保쎯	-9.34021
常村他쎯常企育쎯	-9.34052
常道海쎯	-9.3406
交里海쎯交师十쎯	-9.34095
交这信쎯常这信쎯	-9.34106
常保处쎯常这究쎯标目服쎯参式得쎯	-9.34113
常委海쎯	-9.34148
器里提쎯	-9.34149
参金最쎯参天场쎯标组服쎯	-9.34151
长쎯设쎯	-9.34154
参从	-9.34165
农城得쎯	-9.34228
参美计쎯农信信쎯	-9.34349
交最场쎯器者二쎯	-9.3437
常资级쎯常而质쎯	-9.34414
常安服쎯	-9.34436
交里服쎯	-9.34482
农从村쎯标者统쎯	-9.34565
标应从쎯	-9.34588
常型式쎯标程立쎯	-9.34628
常这色쎯器口广쎯	-9.34645
参网从쎯	-9.34667
交目重쎯常网者쎯	-9.34704
交他得쎯常这广쎯	-9.3473
农从金쎯单度十쎯万从美쎯导度这쎯	-9.34749
交者服쎯	-9.34753
标程者쎯	-9.3478
器资色쎯	-9.3486
农道安쎯常二得쎯	-9.34945
器而育쎯常资形쎯	-9.34961
交校度쎯器过处쎯	-9.35004
农表究쎯单度重쎯导度目쎯	-9.35063
交形基쎯器场由쎯	-9.35065
万从海쎯常而海쎯交者场쎯	-9.35108
参前安쎯	-9.35188
单度十쎯器得者쎯万从美쎯导度这쎯	-9.35217
交二而쎯常外信쎯	-9.35276
农道育쎯	-9.35303
交路十쎯标外二쎯	-9.35357
交数海쎯	-9.35412
科쎯设쎯	-9.35423
农信十쎯农形场쎯	-9.35433
农形形쎯农处数쎯	-9.35601
器校重쎯参保各쎯	-9.35643
长쎯长쎯	-9.35748
常型天쎯农道十쎯	-9.3579
标最资쎯	-9.35803
常级校쎯	-9.35831
万从海쎯常资企쎯交这师쎯	-9.35903
交基过쎯	-9.3595
交级口쎯	-9.36094
单度十쎯万从级쎯	-9.36111
参城型쎯农从者쎯	-9.36129
农处安쎯参处各쎯	-9.36157
器色过쎯交究育쎯	-9.36224
交目村쎯农处安쎯农信质쎯	-9.36229
农道色쎯常得海쎯参美计쎯	-9.36249
交级他쎯农信师쎯	-9.36275
参里师쎯常委这쎯农处这쎯参师天쎯	-9.36287
器海过쎯	-9.3629
参基数쎯常并米쎯常里提쎯农处安쎯	-9.3646
标度二쎯	-9.36477
常资场쎯常各过쎯	-9.36591
农信型쎯标度美쎯农城网쎯常级天쎯	-9.36605
交安各쎯	-9.36644
常育师쎯	-9.36649
常海形쎯常里提쎯标组服쎯	-9.36711
器网他쎯交他得쎯	-9.36726
农从他쎯器口广쎯	-9.36763
常资美쎯常村他쎯	-9.36766
机쎯月쎯	-9.36845
参金最쎯常二村쎯	-9.36924
标基网쎯	-9.36929
交数色쎯标外二쎯	-9.36964
器度数쎯常这色쎯标目服쎯参式得쎯	-9.36974
器口口쎯	-9.36985
标米他쎯交金基쎯	-9.37165
常二社쎯交这师쎯	-9.3717
常外度쎯	-9.3738
常二特쎯常城者쎯	-9.374
交过校쎯	-9.3743
器程最쎯参由形쎯	-9.37454
常各间쎯标社海쎯常各型쎯	-9.37479
器级社쎯	-9.37487
器并资쎯常型外쎯	-9.3763
农表十쎯标者口쎯参美计쎯	-9.3763
交十这쎯	-9.3766
常处服쎯器前基쎯	-9.37715
常保处쎯常资前쎯农信式쎯常资美쎯	-9.37829
标	-9.37924
参信服쎯器师统쎯	-9.37956
交场级쎯	-9.3808
参天网쎯	-9.3808
农信美쎯交口统쎯	-9.38165
器级安쎯	-9.3821
器式并쎯常委由쎯	-9.38305
参重各쎯	-9.38348
器得计쎯	-9.38392
常立程쎯器口广쎯	-9.38397
参质形쎯参关过쎯	-9.38433
常外得쎯	-9.38447
交数村쎯	-9.38467
器育网쎯常各师쎯	-9.38478
交特这쎯	-9.38516
常型天쎯参计场쎯	-9.38533
常外信쎯参最究쎯	-9.38601
参形究쎯器各基쎯	-9.38613
常级委쎯参前形쎯	-9.38705
常质网쎯常究质쎯	-9.38827
标他资쎯器得形쎯	-9.38847
常城级쎯常型美쎯	-9.38854
交从最쎯	-9.3887
常二得쎯器过处쎯	-9.38934
农表提쎯参最形쎯	-9.38996
常校社쎯常校保쎯	-9.39034
参各者쎯	-9.39072
农道度쎯常表口쎯	-9.3915
器城特쎯	-9.39178
农网基쎯常二企쎯	-9.39193
常安二쎯农从美쎯农从美쎯常村他쎯	-9.39234
参美计쎯农道形쎯器提程쎯	-9.39294
万从师쎯交他得쎯	-9.39351
标从形쎯	-9.39386
农道里쎯常保处쎯农信信쎯交色村쎯	-9.39426
参式得쎯交间程쎯	-9.39446
常各二쎯	-9.39485
常城关쎯	-9.39649
农信关쎯器程最쎯参处村쎯	-9.39677
器各各쎯	-9.39728
常型外쎯	-9.39907
交这师쎯参目度쎯	-9.3995
交前究쎯器育网쎯参这程쎯	-9.40066
农道度쎯常级外쎯	-9.40144
参社程쎯常外信쎯	-9.4015
常育由쎯常里而쎯	-9.40154
交这度쎯农处由쎯	-9.4021
交企前쎯常这由쎯常道重쎯	-9.40229
参信路쎯	-9.4023
月쎯月쎯	-9.40237
农信网쎯	-9.40239
参立这쎯	-9.40359
常表从쎯	-9.40414
器并重쎯	-9.40452
交究而쎯	-9.40455
交这度쎯常而质쎯	-9.40499
交级而쎯标数网쎯	-9.40513
交里海쎯交保统쎯	-9.40603
交目村쎯交色村쎯	-9.4063
参育间쎯参形二쎯	-9.40773
交组立쎯	-9.40787
常得表쎯农信质쎯	-9.40793
常信二쎯	-9.40817
器村者쎯农处这쎯	-9.40819
参金重쎯	-9.40917
器组城쎯	-9.40967
常统由쎯	-9.4097
单度重쎯常资应쎯常二道쎯	-9.40976
器网外쎯参广十쎯农道里쎯	-9.41016
常究信쎯标外村쎯	-9.41135
参重师쎯	-9.41237
交路企쎯交口十쎯	-9.41252
常前前쎯器育网쎯参这程쎯	-9.41283
常服组쎯	-9.41286
常服过쎯常委资쎯	-9.41426
农从者쎯常型美쎯	-9.41488
器师得쎯常育处쎯参美计쎯	-9.41615
器网而쎯器而育쎯	-9.41628
万从级쎯农形校쎯	-9.41675
标程立쎯器企得쎯	-9.41711
器并资쎯参处各쎯	-9.41713
常资应쎯常资前쎯	-9.4172
经쎯体쎯体쎯体쎯常表口쎯	-9.41722
交数应쎯	-9.41741
交得数쎯农道美쎯	-9.41748
设쎯化쎯化쎯	-9.41925
农从二쎯	-9.42068
器信米쎯农处立쎯	-9.42126
参质计쎯	-9.42133
标道并쎯	-9.4216
交这者쎯	-9.42246
参网形쎯	-9.4231
万从海쎯常保金쎯	-9.42392
器网保쎯器基海쎯农信委쎯	-9.42419
常校间쎯常资应쎯	-9.42437
标道里쎯	-9.42483
标他场쎯交各路쎯	-9.42506
常而安쎯单度重쎯	-9.42543
器过过쎯	-9.42543
交最形쎯	-9.42574
器路计쎯	-9.42706
参形从쎯常而级쎯交度式쎯	-9.42788
器网处쎯	-9.42846
常安程쎯农信海쎯	-9.42855
农网目쎯交海程쎯	-9.42898
参信型쎯参形口쎯	-9.42945
常校广쎯参最形쎯	-9.42996
器路口쎯	-9.43011
万从海쎯常海资쎯交十应쎯	-9.43041
参特	-9.4305
常安美쎯常并米쎯常里提쎯农处安쎯	-9.43066
标社	-9.43155
常委这쎯交色村쎯	-9.43176
设쎯建쎯	-9.432
器城间쎯	-9.43297
交这安쎯器并资쎯	-9.43335
标保数쎯	-9.434
常质究쎯交特组쎯	-9.43423
常米天쎯	-9.43474
常程育쎯	-9.43511
器式计쎯交金从쎯	-9.43615
交特表쎯交基级쎯	-9.43631
交路十쎯器得数쎯	-9.43638
交从最쎯常外信쎯	-9.43695
参质天쎯常各场쎯	-9.43802
交金十쎯	-9.43812
常式最쎯常村他쎯	-9.43937
常保处쎯常校基쎯标组服쎯	-9.43963
常资企쎯农处立쎯	-9.43964
交十保쎯	-9.44012
万从海쎯器服米쎯	-9.441
常保城쎯农表提쎯	-9.44104
农道色쎯常得海쎯	-9.44116
器重目쎯	-9.44262
参各度쎯常安数쎯	-9.44304
农信师쎯	-9.44389
万从海쎯器企目쎯	-9.44408
交最表쎯标目天쎯	-9.44415
标立信쎯	-9.44444
器得美쎯	-9.44538
常型美쎯农道社쎯	-9.446
常这色쎯农道十쎯	-9.44664
器村前쎯	-9.44693
经쎯体쎯体쎯科쎯常表口쎯	-9.44729
器路计쎯标外村쎯	-9.44829
经쎯体쎯之쎯设쎯常表口쎯	-9.44905
经쎯体쎯体쎯机쎯常表口쎯	-9.44916
交目而쎯	-9.44918
建쎯农道社쎯	-9.45015
参最究쎯标数网쎯	-9.45031
标度重쎯参最广쎯农信质쎯	-9.45087
参广由쎯常各美쎯	-9.45147
交师度쎯常这广쎯常这色쎯	-9.4515
常口外쎯	-9.45177
单度安쎯	-9.45313
标外安쎯常型式쎯	-9.45354
交程关쎯	-9.45398
器校由쎯	-9.45445
常资前쎯交这师쎯	-9.45461
标保委쎯农道里쎯	-9.45479
交质育쎯常二者쎯	-9.45662
器重金쎯	-9.45694
常城基쎯	-9.457
常各外쎯	-9.45851
农道里쎯交特外쎯	-9.45887
参形二쎯标社海쎯	-9.46034
常信校쎯	-9.46036
交二而쎯常安外쎯	-9.46039
农道这쎯器育网쎯	-9.4605
常而道쎯	-9.46055
参师表쎯交度式쎯	-9.46091
交海师쎯参资式쎯	-9.46129
常安色쎯常信提쎯	-9.46249
常安特쎯	-9.46251
交村天쎯	-9.46251
经쎯化쎯化쎯化쎯	-9.46323
交海重쎯	-9.46325
参形口쎯交校型쎯	-9.46327
常级场쎯常立程쎯	-9.46336
农道信쎯导度这쎯	-9.46351
常得表쎯器前基쎯	-9.46355
标目天쎯常村处쎯交特者쎯农信师쎯	-9.4636
参保道쎯常得表쎯	-9.46368
常道海쎯交这保쎯	-9.46372
农道形쎯标服他쎯	-9.46401
常表从쎯常计网쎯常保里쎯	-9.46416
交特外쎯器师信쎯	-9.46471
常质十쎯常校保쎯	-9.46493
标度重쎯常而级쎯	-9.4655
农网前쎯农表而쎯标过广쎯	-9.466
单度重쎯农道形쎯器提程쎯	-9.46608
与쎯与쎯	-9.46657
参并程쎯	-9.46665
参最美쎯	-9.46666
参美各쎯器重型쎯	-9.46727
后쎯	-9.46774
常企间쎯常道重쎯	-9.4678
标这度쎯交前重쎯	-9.46826
常立育쎯	-9.46908
单度重쎯导度目쎯家쎯	-9.4691
之쎯化쎯化쎯	-9.47011
常型美쎯交应基쎯	-9.47062
器关道쎯	-9.47098
交者程쎯	-9.4718
交间美쎯	-9.47182
万从海쎯常育由쎯万从海쎯	-9.47222
常从数쎯器路企쎯	-9.47225
交组信쎯器过处쎯	-9.47403
常网过쎯参而委쎯	-9.47555
交重并쎯器度资쎯	-9.47566
长쎯体쎯	-9.47569
常外信쎯常二并쎯	-9.47609
标表网쎯	-9.47617
常级保쎯标度金쎯	-9.47643
常处立쎯交者场쎯	-9.4767
农道这쎯标过广쎯	-9.47792
常二村쎯常道过쎯	-9.47797
器保外쎯	-9.47835
经쎯体쎯体쎯月쎯常表口쎯	-9.47875
交数口쎯农处立쎯	-9.47912
交统级쎯	-9.47912
器十村쎯	-9.47931
交从米쎯参最形쎯	-9.47938
农道里쎯标过广쎯	-9.47938
农网目쎯标组天쎯	-9.47943
标度金쎯常间十쎯	-9.47966
参立场쎯	-9.47984
交质服쎯	-9.47995
农表色쎯	-9.48046
常这色쎯标这外쎯	-9.48131
器校前쎯常保里쎯	-9.48163
常资安쎯	-9.48199
标度重쎯标外二쎯	-9.48236
常里他쎯常这广쎯	-9.48425
科쎯月쎯	-9.48452
常各间쎯参最广쎯	-9.48485
交口育쎯	-9.48506
农形安쎯	-9.48541
器十前쎯交特外쎯	-9.48548
农道他쎯	-9.48588
器得	-9.48652
常表由쎯常目外쎯	-9.48703
单度海쎯	-9.48818
交特外쎯常里者쎯	-9.4883
常级委쎯常里而쎯	-9.48842
器基广쎯交从最쎯	-9.48886
农信质쎯农道度쎯农处立쎯参美计쎯	-9.48937
常最得쎯农道度쎯	-9.49029
交里并쎯常道道쎯	-9.49097
交道基쎯	-9.49142
万从海쎯常保金쎯交里型쎯	-9.49148
器式师쎯	-9.49148
交广基쎯	-9.4933
交他得쎯农形育쎯	-9.49366
交目委쎯	-9.49424
标组数쎯器育网쎯参这程쎯	-9.49533
常这广쎯农道里쎯常保处쎯	-9.49645
器级社쎯参天信쎯	-9.49673
参金最쎯	-9.49716
标程外쎯	-9.49737
常他口쎯	-9.49742
农道立쎯器城村쎯	-9.49772
交最表쎯常二他쎯	-9.49795
参服质쎯	-9.49825
常外二쎯	-9.49887
器式并쎯标外校쎯	-9.49911
常二级쎯常而安쎯	-9.50009
参形二쎯常资道쎯	-9.50009
标重提쎯	-9.50025
交这社쎯交目育쎯	-9.50031
农道形쎯参从特쎯	-9.50061
常特企쎯	-9.50191
常资道쎯	-9.50194
单度程쎯农道里쎯常保处쎯	-9.50195
器得委쎯	-9.502
标外安쎯常信委쎯常道重쎯	-9.50222
交海得쎯	-9.50288
交者十쎯	-9.5029
农表金쎯	-9.50309
交程得쎯	-9.50412
器重信쎯	-9.50435
设쎯长쎯	-9.50449
标外校쎯	-9.5048
经쎯体쎯之쎯月쎯常表口쎯	-9.50487
交级而쎯交这应쎯	-9.50497
农形统쎯	-9.5051
标米他쎯交特色쎯交校度쎯交这得쎯	-9.50531
常信究쎯	-9.5055
标目金쎯	-9.50587
常前资쎯农处二쎯	-9.50591
常型表쎯	-9.50594
标表型쎯	-9.50598
农形育쎯农道十쎯	-9.5061
常里究쎯	-9.50804
交场级쎯器口表쎯器度资쎯	-9.50917
器最基쎯	-9.50952
经쎯体쎯体쎯长쎯常表口쎯	-9.51025
器前社쎯	-9.51044
器路企쎯交目育쎯	-9.51049
单度十쎯农道里쎯	-9.51156
农形育쎯交目育쎯	-9.5117
交前师쎯交者二쎯	-9.51182
交者资쎯	-9.51186
器十者쎯	-9.51222
交表他쎯	-9.51274
交十安쎯	-9.51296
农网计쎯参处者쎯交特得쎯	-9.51329
器得计쎯农形企쎯	-9.51363
参各度쎯参式色쎯	-9.51419
参最路쎯器得目쎯	-9.51454
交他得쎯农道度쎯常而安쎯	-9.51489
常网路쎯	-9.51522
参最路쎯交信而쎯	-9.5155
参形过쎯	-9.51585
设쎯设쎯	-9.51695
器保十쎯	-9.51795
常色信쎯常得道쎯	-9.51851
常而数쎯	-9.51859
器重网쎯参他型쎯	-9.51936
参口式쎯	-9.51987
标他程쎯	-9.52021
器色前쎯	-9.52127
交质海쎯交二基쎯	-9.52245
标基城쎯标者各쎯	-9.5227
参式形쎯	-9.52291
农道度쎯常各美쎯	-9.52394
参资型쎯	-9.52417
常型式쎯常道级쎯	-9.52417
常质究쎯参而委쎯	-9.52428
常型式쎯常里提쎯常里提쎯常质委쎯	-9.52496
交场重쎯	-9.52574
万从海쎯交级而쎯农道信쎯	-9.52597
常资美쎯参形计쎯交级而쎯常村他쎯	-9.52601
参米育쎯	-9.5263
农道形쎯器提程쎯农形质쎯农信十쎯	-9.52632
标最基쎯	-9.52703
常前数쎯参型信쎯	-9.5273
农道度쎯参信式쎯	-9.52804
器间安쎯	-9.52822
长쎯农道社쎯	-9.52927
常校金쎯常从信쎯	-9.52941
交得米쎯参前由쎯	-9.52986
常色二쎯交者场쎯	-9.5306
交质级쎯	-9.53078
器色过쎯交数口쎯	-9.53095
交师网쎯交十资쎯	-9.53165
常提重쎯交间这쎯	-9.53195
经쎯月쎯化쎯	-9.53227
万从海쎯常二得쎯农形育쎯	-9.53232
常处立쎯农形并쎯	-9.53232
经쎯体쎯之쎯之쎯常表口쎯	-9.53269
农信米쎯常二者쎯	-9.53283
交师质쎯	-9.53393
常质究쎯常而安쎯	-9.53456
交组得쎯器式重쎯	-9.53509
器安得쎯参师天쎯	-9.53517
经쎯体쎯体쎯建쎯常表口쎯	-9.53534
交路立쎯	-9.53535
常资安쎯器口表쎯	-9.53613
常形信쎯交级而쎯	-9.53637
器程海쎯常企育쎯	-9.53641
标从质쎯	-9.53644
器十安쎯	-9.53645
器重城쎯	-9.53653
农表究쎯交这师쎯	-9.53829
万从海쎯交十育쎯交这师쎯	-9.53982
常资美쎯常式最쎯农表提쎯器各色쎯	-9.54043
交重广쎯	-9.54068
常目而쎯器而处쎯农信质쎯	-9.54108
参服者쎯	-9.54119
参形二쎯交路质쎯常里提쎯	-9.54119
交师表쎯常外委쎯	-9.54121
常型特쎯参式村쎯	-9.5431
经쎯体쎯体쎯化쎯常表口쎯	-9.5433
建쎯交这级쎯	-9.54351
常型式쎯常各场쎯	-9.54354
器基海쎯交最网쎯交目村쎯万从海쎯	-9.5436
参式程쎯	-9.54475
交度社쎯	-9.54513
参社村쎯	-9.54547
常资过쎯参口金쎯	-9.5455
参前形쎯常间十쎯万从美쎯	-9.54658
常校天쎯	-9.54688
交数组쎯器重统쎯标过广쎯	-9.54721
常处前쎯器式委쎯	-9.54781
常色村쎯器各道쎯	-9.54818
交他里쎯	-9.54852
交路委쎯	-9.54922
农道形쎯常道里쎯	-9.54935
与쎯家쎯	-9.54963
器口服쎯常校基쎯	-9.54976
常度究쎯	-9.55036
标过处쎯交这师쎯	-9.55075
农道度쎯交金企쎯	-9.55094
参质色쎯农形并쎯常海特쎯	-9.55138
州金쎯州金쎯	-9.55139
导度他쎯	-9.55276
常级保쎯农道美쎯	-9.5531
常色村쎯常表口쎯	-9.55329
器服十쎯	-9.55399
交并各쎯交间者쎯	-9.55429
长쎯经쎯	-9.55498
参提程쎯	-9.5555
常而式쎯	-9.55555
器企究쎯	-9.55575
器得者쎯农信信쎯	-9.5562
交程	-9.55621
常型美쎯常表口쎯	-9.55653
设쎯农道社쎯	-9.55693
常型式쎯标组委쎯	-9.55703
参质师쎯参前由쎯	-9.5579
农信信쎯常并米쎯	-9.55856
器各色쎯常处数쎯	-9.55901
参处社쎯	-9.55912
农网目쎯器得程쎯	-9.55915
交特十쎯	-9.55964
常十型쎯	-9.55989
参级前쎯交过资쎯	-9.56013
医者쎯	-9.56042
交口者쎯常外度쎯	-9.56069
器十前쎯标保计쎯	-9.56106
设쎯科쎯	-9.56219
参信统쎯	-9.56291
经쎯体쎯之쎯科쎯常表口쎯	-9.56304
农道形쎯参各基쎯	-9.56375
交企企쎯	-9.56391
器口服쎯交最网쎯	-9.56486
参美计쎯参金最쎯参天场쎯	-9.56552
参最路쎯常里而쎯常数委쎯常校基쎯	-9.56576
交场级쎯器口表쎯	-9.56612
标程者쎯常目度쎯	-9.5662
标服这쎯器师统쎯	-9.56662
常安二쎯	-9.56666
交究二쎯	-9.56757
参育广쎯	-9.5678
常级保쎯常形信쎯农信质쎯	-9.56798
标道网쎯	-9.56814
常村广쎯常保口쎯	-9.56815
标资前쎯	-9.5689
标目关쎯常统保쎯	-9.56966
交他质쎯交他城쎯	-9.57053
参最形쎯常各场쎯	-9.57078
万从海쎯器度海쎯农道最쎯	-9.571
经쎯体쎯体쎯设쎯常表口쎯	-9.57114
参服式쎯	-9.57188
参最企쎯万从海쎯	-9.57209
交间计쎯交级而쎯	-9.57247
器路米쎯	-9.57271
参里特쎯常级关쎯	-9.57293
标米他쎯标度究쎯常资应쎯器企得쎯	-9.57364
常表由쎯交特表쎯参前由쎯万从海쎯	-9.57374
常程这쎯	-9.5739
万从海쎯参质色쎯	-9.57477
参前由쎯万从海쎯	-9.57494
万从海쎯常级组쎯	-9.5758
器间信쎯	-9.57638
交级而쎯交间这쎯	-9.57674
交最形쎯常外形쎯	-9.57734
标间十쎯	-9.57784
标育里쎯	-9.57801
器城处쎯常各程쎯	-9.57829
农道度쎯交目基쎯	-9.57903
器得校쎯交特里쎯	-9.57923
常校广쎯农处这쎯	-9.58004
常这色쎯参而委쎯	-9.58066
器口城쎯	-9.58079
交级他쎯交特者쎯	-9.58086
参师表쎯交各校쎯	-9.58104
器城处쎯常各程쎯参这程쎯	-9.5812
参广十쎯常信提쎯	-9.58268
体쎯之쎯	-9.58269
标立城쎯	-9.583
参最究쎯常村处쎯	-9.58331
农从程쎯农道美쎯单度重쎯	-9.584
常色他쎯	-9.58514
参美计쎯常色二쎯	-9.586
器城立쎯常外信쎯	-9.58639
标米他쎯常信提쎯	-9.58654
常道数쎯	-9.58721
常得形쎯	-9.58731
参形式쎯参形里쎯	-9.58764
参形究쎯	-9.58798
常究质쎯标数外쎯	-9.58864
常统道쎯	-9.58911
经쎯体쎯之쎯机쎯常表口쎯	-9.59033
常二重쎯交数色쎯	-9.59052
常各网쎯	-9.59235
器城师쎯	-9.59291
万从海쎯标度美쎯器网外쎯	-9.59306
经쎯建쎯化쎯	-9.59333
农处而쎯	-9.59368
标统	-9.5938
农信信쎯农处立쎯	-9.59396
参究育쎯常而安쎯	-9.59401
经쎯与쎯月쎯	-9.59459
参程里쎯	-9.59621
器网资쎯标度究쎯	-9.59711
标美场쎯常前间쎯农信质쎯	-9.59858
农网者쎯	-9.59876
常海形쎯器安得쎯	-9.59963
器企由쎯	-9.60002
农网	-9.6002
器级海쎯	-9.60046
参美计쎯常究信쎯参基度쎯农道校쎯	-9.60062
参网形쎯器得村쎯	-9.60072
参从信쎯	-9.6016
交特外쎯参师天쎯	-9.6021
器程最쎯参保究쎯	-9.60246
器口路쎯常企间쎯	-9.60315
交究最쎯	-9.60342
器最应쎯器二这쎯	-9.60353
交保城쎯农形形쎯	-9.60354
交二而쎯农城保쎯农信委쎯	-9.60514
万从海쎯器得育쎯	-9.60537
常里天쎯常里而쎯	-9.60538
万从	-9.60584
常育处쎯参美计쎯	-9.60609
参金特쎯	-9.60616
参形口쎯农网各쎯	-9.60622
参网资쎯	-9.60653
交特外쎯参米金쎯	-9.60682
常并米쎯参最究쎯常得从쎯常道级쎯	-9.60774
器者型쎯	-9.60785
交者金쎯交由数쎯	-9.60786
交路程쎯器基海쎯	-9.60789
农信信쎯参最究쎯	-9.60812
交保口쎯常校金쎯	-9.60829
全쎯经쎯	-9.6086
农形十쎯参形安쎯农信委쎯	-9.60891
标这安쎯	-9.60951
农道信쎯农道形쎯万从海쎯	-9.60977
交这度쎯交特色쎯	-9.60999
常企育쎯农处这쎯器度资쎯	-9.61018
常提组쎯	-9.61071
农处	-9.6109
交场	-9.61092
器城立쎯常资育쎯	-9.61101
常城十쎯	-9.61166
常校广쎯交度程쎯	-9.61297
常目社쎯	-9.61324
交计网쎯	-9.61395
参究由쎯交统表쎯	-9.61441
器口服쎯	-9.61454
交度式쎯参美计쎯	-9.61465
器级间쎯器表级쎯	-9.61474
器级关쎯	-9.61484
常保城쎯农表提쎯标提委쎯	-9.61494
参美计쎯农道立쎯农道美쎯	-9.61572
标度重쎯常各这쎯参式安쎯交型安쎯	-9.61579
常资由쎯交由广쎯	-9.6158
器提委쎯参保特쎯	-9.61595
常村校쎯	-9.61608
农道立쎯标者广쎯	-9.61665
参师式쎯	-9.61666
常究过쎯	-9.61685
常外委쎯	-9.61732
常处服쎯交度程쎯	-9.61735
经쎯体쎯之쎯体쎯常表口쎯	-9.6175
器网处쎯交前重쎯	-9.61766
万从海쎯农形质쎯器度海쎯	-9.6179
常处前쎯参师外쎯	-9.61803
常而得쎯	-9.61855
参计提쎯	-9.61929
交色式쎯	-9.61939
器色十쎯	-9.61993
器过委쎯	-9.61996
器各城쎯参米十쎯	-9.62002
常校保쎯标外二쎯	-9.62011
常保校쎯	-9.6205
常各城쎯	-9.62062
交形美쎯	-9.62086
标基路쎯	-9.62159
利	-9.62167
常目美쎯交海程쎯	-9.62235
交组场쎯	-9.62237
标关级쎯常得表쎯	-9.62279
交海程쎯	-9.62294
常级场쎯常各美쎯	-9.62296
器计重쎯	-9.62328
标数	-9.62471
参应应쎯农信最쎯	-9.62485
常委金쎯常委保쎯	-9.62497
农道里쎯常安质쎯农信信쎯交色村쎯	-9.62509
器十二쎯常企间쎯	-9.62512
交者天쎯交这究쎯	-9.62555
交企前쎯常资育쎯	-9.62561
农道安쎯农形资쎯	-9.62563
器度程쎯常道级쎯	-9.62563
常安二쎯器色过쎯	-9.62597
交这师쎯标组而쎯器口并쎯农形形쎯	-9.62632
标度委쎯	-9.6264
交师十쎯交这得쎯	-9.62666
交这级쎯常校金쎯常资育쎯农道里쎯	-9.62735
器路	-9.62752
交这应쎯参式村쎯	-9.62762
参形立쎯交间这쎯	-9.62786
器安关쎯	-9.62791
农处立쎯标社海쎯	-9.62802
交程服쎯常型安쎯	-9.62812
标度而쎯交道而쎯	-9.62816
常各由쎯	-9.62836
参里师쎯常这色쎯	-9.62875
常保服쎯农处立쎯	-9.62889
参保村쎯参目并쎯	-9.62914
月쎯建쎯	-9.62923
常道重쎯常海信쎯	-9.62948
常保信쎯常各美쎯	-9.62971
参城质쎯常各表쎯	-9.6303
参十应쎯参师表쎯参美计쎯	-9.63052
器关重쎯	-9.63146
月쎯科쎯	-9.63159
交究计쎯	-9.63246
万从美쎯经쎯	-9.63259
交道资쎯农形并쎯	-9.6337
器企广쎯	-9.63401
农道形쎯农表师쎯	-9.6341
常资广쎯交目村쎯	-9.63492
万从级쎯常里提쎯常而安쎯万从美쎯	-9.63534
交度形쎯标目服쎯参式得쎯	-9.63563
常级保쎯常校间쎯	-9.63597
设쎯机쎯	-9.63719
器组处쎯	-9.63723
常资级쎯器网保쎯参美计쎯	-9.63783
交级而쎯参委究쎯	-9.63833
农道城쎯常校间쎯	-9.63889
农道度쎯常各场쎯	-9.63979
常而道쎯交最场쎯	-9.6399
常道各쎯	-9.64044
交他得쎯农道度쎯交应城쎯	-9.64097
标度重쎯常信最쎯	-9.64135
器城表쎯参从他쎯	-9.64138
农网校쎯	-9.64319
常村从쎯	-9.64381
标最组쎯	-9.64419
常安色쎯常级企쎯	-9.64421
标最各쎯	-9.64442
交校育쎯常村校쎯	-9.64559
常而米쎯标外二쎯	-9.64571
常校广쎯常校保쎯	-9.64604
参最路쎯器式委쎯常二色쎯	-9.64618
交海外쎯交海育쎯	-9.64636
常目保쎯	-9.64662
标育各쎯	-9.64737
交金从쎯常从二쎯	-9.64741
参式村쎯常里提쎯交校度쎯交这得쎯	-9.64785
交数二쎯	-9.64929
交企企쎯常而级쎯	-9.65063
器式并쎯交最城쎯常委保쎯	-9.65106
常里提쎯器度资쎯	-9.65195
农表组쎯	-9.65205
标形计쎯器师统쎯	-9.65213
农形立쎯	-9.65302
器式关쎯器师统쎯	-9.65361
农道城쎯器基海쎯	-9.65388
标过处쎯常道重쎯	-9.65487
万从海쎯器网组쎯	-9.65508
参形	-9.65564
常究究쎯	-9.6561
常型计쎯农信质쎯	-9.65635
农网目쎯标美这쎯	-9.6567
交统级쎯标他由쎯	-9.65812
器外社쎯常校广쎯常海特쎯	-9.6583
标资场쎯	-9.65843
经쎯体쎯体쎯经쎯常表口쎯	-9.65869
常型式쎯器路保쎯	-9.65887
参统他쎯	-9.6593
常外二쎯常色村쎯	-9.65955
标组场쎯参立企쎯	-9.65975
参师级쎯交这应쎯	-9.6598
标组计쎯器网村쎯	-9.65983
经쎯体쎯之쎯建쎯常表口쎯	-9.66011
月쎯设쎯	-9.66033
常前得쎯	-9.66063
交保城쎯参形二쎯	-9.66181
标基城쎯	-9.66213
万从海쎯参计场쎯常而质쎯	-9.66264
器过	-9.66292
农从村쎯	-9.66379
器色过쎯器校重쎯	-9.66381
交这度쎯交者天쎯	-9.66382
交美口쎯	-9.66426
交型安쎯	-9.66434
常并各쎯	-9.6647
标外安쎯器提程쎯参美计쎯	-9.66573
器各信쎯常目保쎯	-9.66603
农道校쎯万从海쎯	-9.66629
农道里쎯标者口쎯	-9.66639
交校度쎯常企式쎯	-9.66669
常各城쎯标提委쎯	-9.66693
交数口쎯常而级쎯	-9.66741
交并师쎯	-9.66787
标外安쎯交特色쎯	-9.66891
农道型쎯参式安쎯	-9.66956
器网保쎯农道度쎯交里育쎯	-9.66975
器安并쎯器质企쎯	-9.67084
农道度쎯农处安쎯	-9.67194
万从海쎯交保城쎯	-9.67197
常关道쎯	-9.67225
万从海쎯交得二쎯	-9.67231
常基村쎯交特组쎯	-9.67262
农信信쎯交特外쎯	-9.67282
参天信쎯交色最쎯	-9.67299
器口里쎯参师天쎯	-9.67362
农形社쎯常组广쎯	-9.67381
建쎯与쎯月쎯	-9.67395
器重海쎯	-9.67484
农形度쎯农表级쎯	-9.67505
交十由쎯	-9.67518
农道立쎯参最广쎯	-9.67535
交师安쎯器过处쎯	-9.67544
常型社쎯标他由쎯	-9.67614
月쎯之쎯	-9.67705
器色程쎯	-9.67753
标他路쎯	-9.67767
器口信쎯	-9.6779
农信天쎯	-9.67825
参网金쎯	-9.67914
标立目쎯	-9.67928
常外信쎯参最究쎯万从海쎯	-9.67928
参美外쎯常道目쎯	-9.6796
交得二쎯常表口쎯	-9.67974
器育网쎯器者二쎯	-9.67984
交并度쎯交究育쎯	-9.68048
常海形쎯参式村쎯常型式쎯常里提쎯	-9.68235
交质广쎯常外信쎯	-9.68293
全쎯建쎯	-9.68318
标最程쎯	-9.68362
器得城쎯标服他쎯	-9.68404
万从海쎯器各天쎯	-9.68437
参金程쎯	-9.68447
交这十쎯常二十쎯	-9.68525
参海米쎯	-9.68535
标从金쎯	-9.68553
标组安쎯农处质쎯	-9.68624
常而级쎯交级而쎯	-9.68631
参最他쎯器重过쎯	-9.68656
쎯	-9.68662
参型信쎯	-9.68681
参保村쎯	-9.68716
农从究쎯	-9.68842
器海重쎯	-9.68848
标这外쎯	-9.68872
农处这쎯交级他쎯	-9.69014
常而安쎯参式色쎯万从美쎯	-9.69053
参保关쎯	-9.69092
建쎯化쎯经쎯长쎯常表口쎯	-9.69135
器过海쎯交组得쎯	-9.69139
标这度쎯	-9.69144
办	-9.69184
参里师쎯参信式쎯	-9.69253
常保金쎯参口金쎯	-9.69255
器服程쎯	-9.69264
标他度쎯	-9.69298
常十外쎯	-9.69376
单度重쎯农处安쎯农信质쎯	-9.69376
标数网쎯交前究쎯	-9.69378
器资最쎯	-9.69381
常色委쎯常委保쎯	-9.6939
标道基쎯器保十쎯	-9.6939
常色型쎯	-9.69502
参保口쎯常城计쎯	-9.6951
常校间쎯常里提쎯	-9.69556
器资网쎯	-9.69698
常资前쎯农信式쎯常资美쎯	-9.69724
器各城쎯器各基쎯单度程쎯	-9.69726
单度校쎯农道里쎯常保处쎯	-9.69731
农信天쎯万从海쎯	-9.69748
常表网쎯常企间쎯常道重쎯	-9.69748
农处金쎯参美计쎯	-9.69763
常质委쎯农形形쎯	-9.69781
常各间쎯器基海쎯	-9.69852
万从海쎯常育表쎯	-9.69867
参海各쎯	-9.69884
万从海쎯常前间쎯农信质쎯	-9.69955
交美特쎯	-9.70142
器度海쎯农道安쎯	-9.70166
参统城쎯常立程쎯	-9.70195
常校金쎯交十网쎯常型式쎯	-9.70247
器重天쎯	-9.7029
标服这쎯	-9.70319
交质	-9.70363
交师十쎯交各路쎯	-9.70387
农从金쎯器得口쎯	-9.70495
器十	-9.70509
参金最쎯参天场쎯农道里쎯常网过쎯	-9.70537
参形二쎯常质委쎯	-9.70605
交服广쎯	-9.70706
常道重쎯交最网쎯常信这쎯	-9.70716
参二安쎯	-9.70721
农道立쎯农道美쎯参美计쎯	-9.70735
万从海쎯常表场쎯农道最쎯	-9.7076
农处二쎯常各资쎯	-9.70786
参美计쎯交者场쎯常度组쎯	-9.70812
标重	-9.70831
单计	-9.70939
标究提쎯	-9.70977
常并场쎯	-9.71008
常二重쎯器度过쎯	-9.71036
农形处쎯	-9.71037
常从度쎯交最城쎯	-9.71056
常式最쎯常师得쎯农表提쎯器各色쎯	-9.71085
农处天쎯	-9.7109
农网目쎯常程育쎯	-9.71099
参质色쎯器前基쎯	-9.71117
参基各쎯常各美쎯	-9.71146
常二村쎯器基广쎯器各信쎯交特外쎯	-9.71149
交师式쎯	-9.71153
交路社쎯	-9.71325
常而	-9.71399
常处里쎯	-9.71457
农形育쎯常而质쎯	-9.71475
交级而쎯参形天쎯	-9.71506
参式他쎯	-9.71565
常级关쎯	-9.71565
常企育쎯农处这쎯参美计쎯	-9.71579
常目校쎯	-9.71582
参保道쎯常处立쎯	-9.71591
常过式쎯	-9.71601
交最表쎯常特计쎯	-9.71615
标组天쎯	-9.71677
常表处쎯	-9.71685
常保金쎯交里型쎯	-9.71693
常表资쎯	-9.71717
交程十쎯	-9.71734
交处这쎯	-9.71765
常里提쎯常并米쎯常里提쎯农处安쎯	-9.71781
建쎯全쎯	-9.71781
常委这쎯农道美쎯农信信쎯常二并쎯	-9.71801
建쎯与쎯化쎯	-9.71807
常形信쎯农信质쎯	-9.71844
器村并쎯	-9.71853
经쎯体쎯之쎯长쎯常表口쎯	-9.71873
标型而쎯	-9.71925
交从委쎯	-9.7195
交质服쎯参口服쎯	-9.71951
器二统쎯	-9.71968
器过质쎯	-9.71972
标最	-9.72072
常安网쎯	-9.72096
常这色쎯参而过쎯	-9.72139
参十者쎯	-9.7214
常各基쎯	-9.72154
常资应쎯常资过쎯	-9.72242
器育网쎯交特表쎯	-9.72254
常资广쎯常道重쎯	-9.72265
设쎯体쎯	-9.72361
常二安쎯交他金쎯	-9.72366
器网组쎯交金企쎯	-9.72371
之쎯之쎯	-9.72406
标美二쎯参目度쎯	-9.72409
参级场쎯农信统쎯	-9.72449
器口基쎯	-9.72463
交里提쎯常组广쎯	-9.72506
交度形쎯参形二쎯参而委쎯	-9.72535
农从他쎯常校网쎯	-9.72545
常委组쎯农处这쎯	-9.72583
器前委쎯器资而쎯	-9.72654
常而安쎯万从海쎯	-9.72695
农处保쎯交数组쎯	-9.72768
常从数쎯器网保쎯	-9.7279
导度统쎯	-9.72822
参美计쎯常质委쎯常二统쎯	-9.72828
参程米쎯器处提쎯参米组쎯	-9.7284
农道立쎯农道美쎯农形质쎯农信十쎯	-9.72847
交广基쎯常间十쎯	-9.72913
交里并쎯常这广쎯	-9.72914
参形级쎯	-9.72931
常外委쎯常型外쎯	-9.72939
常资企쎯常型外쎯	-9.73145
农道形쎯农处立쎯	-9.73224
标形计쎯标外村쎯	-9.7323
常道道쎯参最广쎯	-9.73241
科쎯科쎯	-9.73341
交组得쎯常海信쎯	-9.73354
器口育쎯	-9.73355
农道十쎯万从海쎯	-9.73369
农道道쎯	-9.73426
交广基쎯交十究쎯	-9.73465
农城目쎯交安各쎯	-9.73506
常关海쎯器色而쎯	-9.73696
交特表쎯标目服쎯参美计쎯	-9.737
器企村쎯	-9.73717
器并资쎯农网各쎯	-9.73723
标度美쎯器各得쎯	-9.73757
交这师쎯交这信쎯	-9.73758
参过级쎯	-9.73794
参而委쎯常网路쎯	-9.73858
农信十쎯农道美쎯常安数쎯农处安쎯	-9.7387
标度过쎯	-9.73893
交师度쎯农形育쎯	-9.73913
标委外쎯	-9.73953
农信基쎯	-9.73958
参最广쎯交目育쎯	-9.73963
器路十쎯	-9.74086
文쎯万从海쎯	-9.74102
参形二쎯常道道쎯	-9.74138
标服级쎯	-9.74161
常安者쎯常海者쎯	-9.74177
器过处쎯交信而쎯	-9.74242
常海形쎯常道级쎯	-9.7425
标度道쎯	-9.74265
器路金쎯	-9.74298
常道里쎯	-9.74308
交色口쎯常信立쎯	-9.74409
器保十쎯参组处쎯	-9.74419
器城处쎯	-9.74481
器口里쎯	-9.74483
标最度쎯	-9.74562
常提外쎯常育由쎯	-9.74609
常资表쎯	-9.7461
常各间쎯常校保쎯	-9.74613
常度城쎯	-9.74638
器口并쎯农形形쎯	-9.74642
常处服쎯常各表쎯	-9.7465
常保保쎯农道社쎯	-9.74651
常各型쎯常委资쎯	-9.74681
交前者쎯	-9.74684
常村广쎯器城表쎯	-9.74688
交路道쎯	-9.74738
常资广쎯常质网쎯	-9.74752
标服村쎯	-9.74876
标目服쎯常而村쎯	-9.74895
参式安쎯常里而쎯	-9.74932
交得二쎯农道社쎯	-9.7494
交最场쎯常处数쎯	-9.74961
器网组쎯交他得쎯	-9.75208
常里型쎯	-9.75238
标提特쎯交应基쎯	-9.75242
常型式쎯常里提쎯参最究쎯	-9.75383
参统各쎯	-9.75405
交质育쎯器式提쎯	-9.7545
参从特쎯常委组쎯	-9.75488
标程重쎯	-9.75491
常道道쎯常校基쎯参而委쎯农信十쎯	-9.75497
交度程쎯	-9.75529
常各者쎯交数组쎯	-9.75533
设쎯全쎯	-9.75547
参金口쎯常目二쎯	-9.75551
交这度쎯参形级쎯	-9.75568
常委保쎯常海信쎯	-9.75591
参金最쎯常级场쎯	-9.75706
标他由쎯常质网쎯	-9.75773
常保里쎯交间者쎯	-9.75785
之쎯月쎯	-9.75791
交二关쎯	-9.75805
交场师쎯常二校쎯	-9.7582
常资资쎯常级委쎯	-9.75829
交级而쎯常色前쎯	-9.75878
常目而쎯器而处쎯常这广쎯	-9.75925
参式色쎯常二企쎯	-9.75939
交特外쎯参海各쎯	-9.75955
常各美쎯农处安쎯	-9.75992
交色式쎯常海特쎯	-9.7606
参社者쎯	-9.76067
常育表쎯参美计쎯	-9.76085
交这度쎯常资企쎯	-9.76142
万从海쎯农处委쎯交他得쎯	-9.76172
农形育쎯导度这쎯	-9.76181
标度金쎯交级而쎯	-9.76188
器网组쎯标外海쎯	-9.7619
月쎯机쎯	-9.7636
参形他쎯参最形쎯	-9.76476
器重基쎯农形处쎯	-9.76481
参式他쎯农表提쎯	-9.76523
万从海쎯器外社쎯	-9.76528
单度重쎯参最前쎯农信质쎯	-9.76551
科쎯之쎯	-9.76555
常委得쎯	-9.76565
参式村쎯交校度쎯器网保쎯交里育쎯	-9.76578
农形育쎯交目育쎯万从海쎯	-9.76608
常度组쎯	-9.76737
器网表쎯	-9.76748
交道最쎯	-9.76749
器得得쎯	-9.76758
参里关쎯	-9.76781
标组服쎯交金基쎯	-9.7682
常级色쎯农信委쎯	-9.76832
交路天쎯	-9.76873
参最广쎯常立程쎯	-9.76993
参立企쎯	-9.76995
常得计쎯	-9.7701
标委十쎯	-9.77023
常目度쎯	-9.77065
交处他쎯	-9.77099
常型天쎯交口育쎯常道重쎯	-9.77118
参各	-9.77145
万从级쎯万从师쎯万从海쎯	-9.77157
农表究쎯单度重쎯	-9.77306
化쎯与쎯化쎯	-9.77366
参应提쎯常而级쎯	-9.77403
常企企쎯	-9.77425
参最形쎯标目服쎯	-9.77464
交金基쎯标数网쎯	-9.77532
常而级쎯常表场쎯	-9.7761
标服村쎯参质外쎯	-9.77705
标育从쎯	-9.77822
常委由쎯	-9.7783
器各里쎯	-9.77883
常表由쎯器基基쎯	-9.77975
参而委쎯器式并쎯	-9.7799
常级村쎯	-9.78011
标形质쎯	-9.78021
常而级쎯常而海쎯	-9.78062
参信社쎯常网路쎯	-9.78143
参型城쎯农从美쎯农道形쎯农表师쎯	-9.78177
单度十쎯参里师쎯单度重쎯	-9.78211
参广网쎯	-9.78243
标他形쎯	-9.78255
标者统쎯	-9.78288
器重统쎯	-9.78294
交他得쎯常而提쎯	-9.78354
交并度쎯标社海쎯	-9.78371
常师得쎯交数组쎯交质级쎯	-9.78373
器计道쎯	-9.78467
交这目쎯标统这쎯	-9.78495
器海	-9.78531
常天美쎯	-9.78537
器安	-9.78554
常保城쎯参师外쎯	-9.78568
交路企쎯常安者쎯	-9.78621
农道度쎯常而安쎯	-9.78646
参形他쎯	-9.78648
常资资쎯	-9.78679
常级外쎯交级而쎯	-9.78761
交质广쎯器网保쎯	-9.78795
常这广쎯参信网쎯	-9.78838
标表	-9.78921
参资质쎯	-9.78937
常资计쎯常从究쎯	-9.78946
交十网쎯	-9.78973
常表数쎯	-9.79
常二提쎯常型特쎯	-9.79015
常型计쎯参而委쎯常组广쎯	-9.79065
常型式쎯器网间쎯	-9.79078
交色口쎯常级天쎯	-9.79121
参美计쎯参最究쎯交口形쎯	-9.79185
常前前쎯交色口쎯	-9.7922
交得者쎯标重形쎯	-9.79226
参育里쎯	-9.79249
交形天쎯	-9.79252
常各过쎯参美计쎯	-9.79267
交师程쎯	-9.79346
交色最쎯常度组쎯	-9.79414
标重社쎯	-9.79433
参保口쎯常前间쎯	-9.79439
常各基쎯器各基쎯	-9.79477
器路间쎯	-9.79536
常而海쎯常网者쎯	-9.79569
器而式쎯	-9.79591
交质师쎯	-9.79615
参保道쎯农信关쎯	-9.79648
常级委쎯常道过쎯农信质쎯	-9.79695
常各海쎯常特计쎯	-9.79696
器基基쎯	-9.79713
常保处쎯常型特쎯	-9.79714
出쎯	-9.79721
标由	-9.79742
经쎯体쎯月쎯之쎯常表口쎯	-9.79778
常资应쎯标外海쎯	-9.79787
标并间쎯交这信쎯	-9.79837
常育二쎯	-9.79843
常各场쎯常资企쎯	-9.7986
器育网쎯参二里쎯参师组쎯	-9.79928
交路企쎯交十最쎯	-9.7993
交里形쎯农信基쎯	-9.79961
交重并쎯	-9.80051
常级委쎯标关究쎯	-9.80084
常目村쎯	-9.80135
参天者쎯	-9.80135
常委这쎯交色村쎯交最场쎯常资育쎯	-9.80137
交并度쎯	-9.8014
常各场쎯交者二쎯	-9.8016
参保委쎯	-9.80202
器基海쎯常校广쎯	-9.80225
体쎯科쎯	-9.80291
机쎯建쎯	-9.803
月쎯农道社쎯	-9.80359
标型而쎯标育各쎯	-9.80381
常安程쎯常表口쎯	-9.80382
常而城쎯	-9.8042
参形里쎯	-9.80449
参美计쎯常这色쎯交特表쎯	-9.80597
农形度쎯	-9.80617
常校间쎯农信十쎯常型计쎯	-9.8063
常资资쎯交形基쎯	-9.80657
合쎯	-9.80702
常委资쎯参处各쎯	-9.80716
万从美쎯家쎯	-9.80755
交得数쎯农道美쎯常而质쎯	-9.809
常从信쎯常信提쎯	-9.80934
器式提쎯	-9.80935
标资安쎯常而级쎯	-9.80936
常安二쎯器各各쎯	-9.80967
农信海쎯参信式쎯	-9.81016
常表道쎯参提二쎯	-9.81036
常各海쎯	-9.81055
交前究쎯常安者쎯	-9.81069
交资级쎯	-9.81097
参处统쎯	-9.81109
常企育쎯常质重쎯	-9.81168
交级级쎯	-9.81188
交组	-9.81198
器度海쎯农道最쎯	-9.81204
参最由쎯	-9.81239
标这间쎯	-9.81248
标形村쎯标城组쎯交前究쎯参这程쎯	-9.81251
单度重쎯交保城쎯农形形쎯	-9.81395
常表口쎯农形并쎯	-9.81415
月쎯全쎯	-9.8145
交色村쎯农道形쎯	-9.8146
月쎯长쎯	-9.81519
常企前쎯	-9.81598
参级场쎯交得安쎯	-9.8163
器得提쎯参形委쎯	-9.81688
交从最쎯常最前쎯	-9.8172
器处口쎯交师网쎯	-9.81734
常从提쎯	-9.81748
交这安쎯常校基쎯单度重쎯	-9.81793
万从海쎯常二企쎯	-9.81804
参金最쎯参天场쎯交特表쎯常而村쎯	-9.81805
交校数쎯常资育쎯	-9.81821
常他	-9.81824
交路质쎯常安者쎯	-9.81864
器网而쎯常校广쎯常村他쎯万从海쎯	-9.81883
化쎯与쎯月쎯	-9.81979
器保	-9.82069
参里师쎯交特表쎯标目服쎯	-9.82088
建쎯化쎯农道特쎯参信社쎯	-9.82176
器得口쎯交他质쎯	-9.82241
器各色쎯器处处쎯	-9.82243
之쎯科쎯	-9.82347
参十重쎯	-9.82359
交城由쎯常型式쎯常级天쎯农信美쎯	-9.82362
常提外쎯	-9.82391
标并究쎯参最广쎯	-9.82438
常数	-9.82444
交金处쎯常究表쎯	-9.82471
标师口쎯常各美쎯	-9.82525
标过程쎯	-9.82558
常从究쎯	-9.82567
交他质쎯农形并쎯	-9.8258
体쎯月쎯	-9.82676
交这师쎯农道度쎯	-9.8275
万从海쎯农形形쎯	-9.8277
常关	-9.82916
常目外쎯常海度쎯	-9.82952
农信信쎯常校保쎯器路计쎯交信而쎯	-9.83013
器各色쎯器度资쎯	-9.83016
常前前쎯常质网쎯	-9.83018
标城究쎯	-9.83033
参委校쎯	-9.83061
器网级쎯	-9.83109
农道师쎯常型式쎯	-9.83158
参重	-9.83172
常校天쎯参而委쎯	-9.83198
常度关쎯常资育쎯	-9.83211
常型美쎯常社关쎯农处立쎯	-9.83271
交提重쎯常网路쎯	-9.83284
常企育쎯参广十쎯常道级쎯	-9.83351
交立资쎯标数网쎯	-9.83392
常型式쎯常质提쎯	-9.83499
交由广쎯交计二쎯	-9.835
交关里쎯	-9.83514
标提特쎯标过处쎯	-9.8353
常形信쎯器各各쎯	-9.83537
参服由쎯	-9.83565
万从海쎯常前间쎯	-9.83608
标他统쎯交统形쎯	-9.83629
常质究쎯常保金쎯	-9.83636
常得从쎯器外口쎯	-9.83707
标程网쎯	-9.83712
参形计쎯常形信쎯	-9.83749
参提形쎯常里而쎯	-9.83755
常海者쎯农信应쎯常型式쎯常里提쎯	-9.83785
参究育쎯标程立쎯	-9.83895
交统过쎯	-9.83959
参式究쎯	-9.83962
交形口쎯	-9.83972
经쎯体쎯科쎯长쎯常表口쎯	-9.83973
标最十쎯	-9.83995
器校处쎯	-9.84013
单度重쎯常里提쎯交金基쎯	-9.84071
常色前쎯农道美쎯	-9.84084
常究信쎯农信质쎯	-9.84129
常表场쎯农道最쎯	-9.84156
器城而쎯常色计쎯	-9.84169
交级二쎯常师式쎯	-9.84173
常企式쎯	-9.84175
长쎯常表口쎯	-9.84178
常得究쎯	-9.84185
器口基쎯参海各쎯	-9.84209
农网目쎯常里他쎯	-9.84323
参形外쎯	-9.84331
参式村쎯单度程쎯	-9.84365
参立并쎯	-9.84394
单度重쎯交里型쎯	-9.84442
科쎯建쎯	-9.84445
交质广쎯常校广쎯	-9.84515
农道度쎯常道提쎯	-9.84544
器十前쎯常得道쎯	-9.84571
万从海쎯交级特쎯	-9.84574
常目美쎯	-9.84646
农从金쎯常育外쎯	-9.84653
器网色쎯	-9.84689
交数并쎯交特外쎯	-9.84691
常从者쎯	-9.84781
参各基쎯参而委쎯常前度쎯	-9.84817
常各服쎯交级网쎯	-9.84835
器各统쎯常道级쎯	-9.84853
参里十쎯	-9.84879
常安式쎯	-9.84905
常二最쎯	-9.84912
常立级쎯常色最쎯交形广쎯	-9.84941
交重统쎯	-9.84946
农道安쎯农从美쎯	-9.85018
常从计쎯	-9.85034
万从海쎯器企目쎯参提形쎯	-9.85099
交这信쎯常级场쎯	-9.85101
参表程쎯	-9.85287
器式计쎯常城十쎯	-9.85303
化쎯经쎯	-9.85318
器外社쎯器信米쎯	-9.85321
农道育쎯标外安쎯	-9.85411
器度度쎯	-9.85425
交目村쎯常式最쎯农从美쎯万从海쎯	-9.85442
农信海쎯常安程쎯	-9.85548
参各基쎯参而委쎯单度程쎯	-9.85603
体쎯体쎯	-9.85612
标重立쎯	-9.85652
常城社쎯参质得쎯	-9.85702
交海外쎯交金外쎯	-9.85707
常安关쎯	-9.85762
参型信쎯器海过쎯	-9.85827
农道型쎯农城式쎯	-9.85843
交级关쎯	-9.85879
器得美쎯农网基쎯	-9.85937
交十究쎯	-9.86003
常基村쎯	-9.86023
参天委쎯	-9.86052
常间重쎯	-9.86077
常程场쎯	-9.8609
常级委쎯器城广쎯参质外쎯	-9.86104
交校前쎯	-9.86119
农道信쎯农道形쎯单度重쎯	-9.86137
常型式쎯标过广쎯常级委쎯	-9.86154
器海资쎯	-9.86163
参校应쎯	-9.86176
参特村쎯	-9.86196
交由数쎯常里提쎯	-9.86226
参应应쎯经쎯	-9.86254
标他由쎯常资师쎯	-9.86287
农道十쎯器处处쎯	-9.86294
标者里쎯	-9.86327
器安基쎯	-9.86347
常级保쎯参米十쎯	-9.86382
器级色쎯	-9.86425
交校度쎯	-9.86427
交保口쎯常而安쎯农道信쎯	-9.86573
器资城쎯	-9.86595
常安二쎯常校天쎯	-9.86607
常级委쎯参提形쎯	-9.86681
常网米쎯农表而쎯	-9.86693
常这色쎯常目度쎯	-9.86701
交特色쎯参美计쎯	-9.86734
常这究쎯常并型쎯	-9.86734
参最路쎯交前金쎯	-9.86762
交关里쎯交最城쎯	-9.8678
交十	-9.8685
器师得쎯常育处쎯	-9.86868
常这色쎯标目服쎯	-9.86879
交校处쎯	-9.86893
交他得쎯农道度쎯常各场쎯标保委쎯	-9.86911
器场由쎯参而过쎯农网前쎯农表而쎯	-9.86983
交最表쎯标度金쎯	-9.86988
农网前쎯农表而쎯标过广쎯单度重쎯	-9.87003
万从海쎯交者金쎯	-9.87086
交他城쎯器村者쎯	-9.87101
常而师쎯交间者쎯参这程쎯	-9.87128
交得程쎯	-9.87128
参最究쎯常里他쎯	-9.87152
常前度쎯常师得쎯常前度쎯标数网쎯	-9.8721
交间计쎯标度金쎯	-9.87278
器路二쎯	-9.8729
农道外쎯常资过쎯	-9.87291
万从海쎯交路企쎯交十最쎯	-9.87317
标服计쎯标他统쎯	-9.87362
器基色쎯	-9.87374
万从海쎯农道度쎯	-9.87398
器外社쎯交级村쎯	-9.87412
农表质쎯	-9.87419
器各型쎯器得委쎯	-9.87543
标并质쎯标组天쎯	-9.87547
参式关쎯	-9.87549
参质色쎯常这信쎯	-9.87555
交式处쎯	-9.87555
标他究쎯农从安쎯	-9.87598
常型特쎯器式重쎯	-9.87619
标里重쎯	-9.87649
参基数쎯常并米쎯参金最쎯参天场쎯	-9.87688
参应应쎯建쎯	-9.8775
标度重쎯	-9.87797
常级委쎯参各基쎯	-9.87835
常资形쎯交各特쎯	-9.8784
参美计쎯常究信쎯交这应쎯	-9.87972
常委资쎯常里他쎯	-9.87988
交前	-9.88013
交最表쎯农道信쎯	-9.88072
交计二쎯器得委쎯	-9.88119
常这广쎯交里型쎯	-9.88128
万从海쎯农道最쎯	-9.88191
器网保쎯参广十쎯	-9.88209
参海保쎯	-9.88316
器得形쎯农表提쎯	-9.88365
参口得쎯	-9.88381
农信信쎯常企育쎯	-9.88402
农表最쎯	-9.88452
交师度쎯常前间쎯	-9.88502
万从海쎯常色前쎯	-9.88516
常表由쎯常质究쎯	-9.88583
参保	-9.88605
常级保쎯交计二쎯	-9.88631
常海者쎯交特表쎯	-9.88642
常级目쎯农道里쎯	-9.88711
器提委쎯	-9.88736
器服里쎯	-9.88769
交特色쎯常间十쎯	-9.88776
常各过쎯农形应쎯	-9.88802
器路计쎯农信式쎯	-9.8884
器路而쎯	-9.88845
标资前쎯交统表쎯	-9.88876
交路企쎯常委保쎯	-9.8889
交金社쎯	-9.88914
常外海쎯	-9.88952
交资式쎯	-9.88953
交他得쎯农道社쎯	-9.88982
参保究쎯	-9.88984
器表	-9.89033
万从海쎯器过处쎯	-9.8909
参城质쎯农道处쎯参美计쎯	-9.89117
器网保쎯常二并쎯	-9.89227
科쎯农道社쎯	-9.89235
器路计쎯器各得쎯	-9.89301
农信式쎯常立程쎯参美计쎯	-9.89314
器城资쎯	-9.89342
农城目쎯交师他쎯	-9.89356
农表而쎯标他究쎯	-9.89357
器级关쎯标度重쎯	-9.89367
器这度쎯	-9.89431
交目究쎯	-9.89451
农信信쎯常目外쎯器度数쎯常这色쎯	-9.89473
常二村쎯常前数쎯参美计쎯	-9.89494
常而计쎯农道社쎯	-9.89536
器式并쎯常委由쎯交特表쎯交基级쎯	-9.89547
交质社쎯交特处쎯	-9.89593
交特者쎯农信师쎯	-9.89602
参组海쎯	-9.89622
常而级쎯参而委쎯	-9.89654
器网外쎯常质形쎯	-9.89655
标由间쎯	-9.89661
器城并쎯	-9.89667
参保道쎯常而海쎯	-9.89708
常企育쎯农信信쎯	-9.89743
常安者쎯交特表쎯	-9.89749
交师	-9.89773
经쎯全쎯	-9.89783
器各统쎯器网色쎯农信委쎯	-9.89839
万从海쎯常里者쎯	-9.89904
器网而쎯常校广쎯常村他쎯	-9.89905
常安立쎯	-9.89936
交他得쎯农道度쎯交师度쎯	-9.8994
器口间쎯	-9.90015
参信信쎯参形外쎯	-9.90048
常色二쎯常间十쎯	-9.90079
单度重쎯农处委쎯	-9.90098
常最外쎯	-9.90105
常育最쎯	-9.90108
常安数쎯常资过쎯	-9.90202
交处里쎯	-9.90205
交型关쎯	-9.90213
参最他쎯器重过쎯参这程쎯	-9.90241
常二金쎯	-9.90271
万从海쎯交最城쎯常资育쎯	-9.90314
交色村쎯常保处쎯	-9.90318
机쎯科쎯	-9.90334
交间者쎯农道美쎯	-9.90407
器处提쎯器城委쎯	-9.90482
参最路쎯器式委쎯常师式쎯	-9.90484
常服间쎯常从信쎯	-9.90523
交村委쎯	-9.90528
器基广쎯器城城쎯	-9.90576
交过	-9.90589
标组而쎯	-9.90625
常海资쎯常而米쎯	-9.90635
标美场쎯常前间쎯	-9.9068
之쎯建쎯	-9.90695
常各表쎯交他立쎯	-9.90706
月쎯体쎯	-9.90726
经쎯体쎯之쎯化쎯常表口쎯	-9.90757
交级他쎯常并米쎯	-9.90759
交究而쎯农信保쎯	-9.90767
常金委쎯	-9.90787
常资委쎯	-9.90826
农道外쎯常资过쎯万从海쎯	-9.90842
农道安쎯器场由쎯	-9.90872
标城计쎯	-9.9088
参从立쎯	-9.90884
常资育쎯标度师쎯	-9.9093
器组处쎯参计场쎯	-9.90947
参里村쎯	-9.90947
常里提쎯常并米쎯	-9.90974
标服村쎯标程立쎯	-9.91017
万从海쎯参形二쎯	-9.9102
常立	-9.91038
交究这쎯	-9.91047
参形二쎯参而委쎯	-9.91099
农信信쎯交色村쎯常道程쎯	-9.91132
参质色쎯常各间쎯	-9.91156
常师社쎯	-9.91169
常处服쎯参校场쎯	-9.91186
交最城쎯常这广쎯	-9.91215
常究质쎯常质网쎯	-9.91254
万从美쎯建쎯	-9.91307
参重从쎯	-9.91314
参统各쎯标并究쎯	-9.9133
交特得쎯参师表쎯	-9.9134
常二提쎯农道度쎯	-9.9137
参者外쎯参校场쎯	-9.91384
标组型쎯农信委쎯	-9.91396
农从他쎯常海特쎯	-9.91397
器安并쎯器社师쎯	-9.91407
参美计쎯交特色쎯	-9.91425
器度场쎯	-9.91506
常表网쎯交关里쎯	-9.91516
农道度쎯常信式쎯	-9.91579
器前社쎯常安质쎯	-9.91606
行쎯	-9.91613
农形十쎯	-9.91625
常究信쎯常保金쎯	-9.91626
参由形쎯参形究쎯参美计쎯	-9.91643
长쎯全쎯	-9.91659
常型信쎯	-9.91701
常村	-9.91719
交特色쎯常校金쎯常目基쎯	-9.91727
交并关쎯	-9.91756
农信海쎯参里师쎯常育特쎯	-9.91834
交组信쎯交资式쎯	-9.91875
参这十쎯常级色쎯	-9.91883
农从金쎯器城立쎯	-9.91893
器处形쎯交目城쎯	-9.91942
交得最쎯常特形쎯	-9.91954
交色	-9.91986
交从米쎯	-9.92078
参从特쎯常级场쎯	-9.92088
月쎯经쎯	-9.92096
标资安쎯参处各쎯	-9.92103
标保委쎯交级而쎯	-9.92121
交基级쎯农城十쎯	-9.92147
参最路쎯常质十쎯	-9.92156
常二提쎯	-9.92213
参校得쎯	-9.92238
器各网쎯	-9.92291
交关关쎯	-9.92352
经쎯体쎯月쎯	-9.92415
交究立쎯	-9.92418
器得者쎯交里海쎯	-9.92431
参最究쎯常校广쎯	-9.9245
参城质쎯农道处쎯	-9.92478
标提特쎯交师表쎯	-9.92486
器城过쎯农道信쎯	-9.92487
经쎯体쎯之쎯经쎯常表口쎯	-9.92503
标保委쎯常保服쎯常资应쎯常二道쎯	-9.92563
经쎯之쎯化쎯	-9.92569
器这	-9.92609
经쎯体쎯科쎯建쎯常表口쎯	-9.92628
常各资쎯	-9.92712
标目关쎯常色村쎯常表口쎯	-9.92725
器处提쎯参米组쎯	-9.92739
器式重쎯农从者쎯	-9.92742
参最路쎯交色最쎯	-9.92753
常二村쎯常色计쎯	-9.92771
参网程쎯	-9.92821
器师信쎯交这得쎯常各场쎯	-9.92869
常这色쎯农处安쎯	-9.92888
交质广쎯器安而쎯	-9.92923
常外金쎯农表质쎯	-9.92925
常型安쎯交目重쎯	-9.92931
标里最쎯交由数쎯	-9.92948
器城	-9.92952
参应提쎯	-9.92956
标数网쎯交统组쎯	-9.92976
交者信쎯	-9.9299
标米他쎯交数级쎯	-9.93023
交校度쎯交这得쎯农信信쎯常村他쎯	-9.93032
标重并쎯农信保쎯	-9.93053
参过重쎯	-9.93056
器目场쎯	-9.93108
参计场쎯常而质쎯	-9.93116
标他	-9.93117
参服前쎯	-9.9316
农道度쎯参里师쎯常育特쎯	-9.93169
交形广쎯	-9.93174
交应服쎯器网质쎯	-9.93183
交师外쎯	-9.93196
参十从쎯	-9.93209
交提这쎯	-9.93229
标目关쎯交他育쎯	-9.93235
参社程쎯	-9.93256
标重村쎯	-9.93292
参最企쎯常里而쎯	-9.9332
常资广쎯参这程쎯	-9.93358
常式美쎯	-9.9339
常色信쎯	-9.93401
单度重쎯农形质쎯	-9.93416
常从得쎯	-9.93563
交企度쎯参统师쎯	-9.93593
参提资쎯	-9.93635
标表色쎯	-9.93654
常表口쎯标者口쎯	-9.93683
交校育쎯标程立쎯	-9.93726
器间	-9.93746
农道形쎯器提程쎯交他得쎯	-9.9378
器式计쎯	-9.93848
参过型쎯	-9.93868
万从海쎯器网他쎯	-9.93882
交信场쎯	-9.93896
器式并쎯交最城쎯	-9.93972
参城质쎯交这得쎯常里提쎯标组服쎯	-9.93982
经쎯体쎯机쎯之쎯常表口쎯	-9.94012
交道资쎯交组色쎯	-9.94014
器口路쎯常企间쎯参这程쎯	-9.94023
交道资쎯交色口쎯	-9.94029
农信最쎯常表口쎯	-9.94039
常而米쎯交这师쎯	-9.94072
交师并쎯	-9.94086
常质究쎯常级组쎯	-9.94111
常前数쎯器式级쎯	-9.94111
标米他쎯参米得쎯	-9.94118
万从海쎯常安口쎯	-9.94121
交基并쎯交基级쎯	-9.94128
常得道쎯	-9.94146
常安路쎯	-9.94302
常色网쎯	-9.94321
标者处쎯	-9.94329
交村外쎯	-9.94363
常型式쎯标他究쎯	-9.94363
常而而쎯	-9.94383
交究得쎯	-9.94411
交师度쎯器色立쎯	-9.94427
标目特쎯	-9.94466
标度而쎯	-9.94491
常外处쎯交数色쎯	-9.94574
农信信쎯农信十쎯	-9.94653
常校统쎯	-9.94727
常二场쎯参师外쎯	-9.94789
标数网쎯常信提쎯	-9.9479
标保城쎯	-9.94795
器村保쎯	-9.94806
经쎯与쎯建쎯	-9.94823
交他重쎯	-9.94871
参式安쎯参前形쎯	-9.94886
参而委쎯常企育쎯常型式쎯常里提쎯	-9.94896
参网最쎯	-9.94927
参美计쎯农处这쎯参最广쎯	-9.94949
交并十쎯	-9.94963
农信十쎯常校基쎯	-9.94964
器式重쎯常得究쎯	-9.95008
万从海쎯常校金쎯常资育쎯	-9.95009
交者金쎯参信网쎯	-9.95018
农形型쎯农信信쎯	-9.95029
常广这쎯	-9.95039
单度重쎯交这应쎯农表提쎯	-9.95071
常里而쎯万从海쎯	-9.951
常质委쎯常二统쎯农道校쎯	-9.95103
器各色쎯常网委쎯	-9.95108
常得委쎯常信提쎯	-9.95152
参保者쎯	-9.95169
交重应쎯	-9.95205
器网质쎯	-9.95211
交安	-9.95213
科쎯机쎯	-9.95302
常这色쎯常海信쎯参美计쎯	-9.95381
农城安쎯	-9.95384
器各统쎯器网色쎯	-9.95428
参级委쎯	-9.95442
标资安쎯农形场쎯	-9.95442
器这这쎯	-9.95461
常而质쎯交目育쎯	-9.95611
家쎯建쎯	-9.95686
农道社쎯交度式쎯	-9.95705
标立里쎯	-9.95769
家쎯长쎯	-9.95801
交由路쎯	-9.9582
交色服쎯	-9.9583
参网	-9.95887
常形信쎯参米十쎯农信委쎯	-9.95893
标立道쎯	-9.95907
常式十쎯参形级쎯	-9.9599
科쎯全쎯	-9.9605
常型式쎯器基者쎯	-9.9606
万从海쎯交校校쎯	-9.96086
教쎯	-9.96098
交十最쎯	-9.96124
农信关쎯	-9.96134
标提特쎯常前校쎯	-9.96138
常委保쎯标他究쎯	-9.96205
器度资쎯单度重쎯	-9.9631
交基	-9.96353
农信关쎯常校广쎯	-9.96369
科쎯体쎯	-9.96398
单度十쎯参美计쎯	-9.96463
万从海쎯交保口쎯	-9.96482
常保城쎯常过二쎯	-9.96505
交企	-9.96507
参者	-9.96522
参程海쎯	-9.96558
农道校쎯农道十쎯	-9.96598
常安前쎯	-9.96618
交他金쎯	-9.96646
交道道쎯常外形쎯交级他쎯农信师쎯	-9.96697
交他质쎯交他究쎯	-9.96718
设쎯经쎯	-9.96731
参形计쎯交级而쎯参美计쎯	-9.9675
器级究쎯	-9.96759
农表金쎯交过得쎯	-9.96766
器质师쎯	-9.96822
交数色쎯参金程쎯	-9.96872
常外委쎯参基各쎯	-9.96906
万从海쎯常质委쎯农形形쎯	-9.96961
器者形쎯	-9.96973
农道立쎯常级天쎯	-9.96974
常安前쎯标组天쎯	-9.96998
参最美쎯器外由쎯	-9.96999
常间	-9.97031
交路	-9.97052
交海程쎯参形里쎯	-9.97123
单度重쎯家쎯单度校쎯	-9.97137
常安程쎯常资米쎯	-9.97186
常委这쎯交色村쎯农信信쎯常目外쎯	-9.97239
参基资쎯	-9.97247
农道师쎯常安程쎯	-9.97253
万从海쎯参保各쎯常师安쎯	-9.97281
农道度쎯参最究쎯	-9.97304
参从天쎯	-9.97306
常外金쎯农道社쎯	-9.97312
常二社쎯交他得쎯	-9.97316
交计二쎯农表师쎯	-9.97324
常二村쎯交他质쎯	-9.97375
常道道쎯器式程쎯	-9.97406
常校保쎯常里提쎯	-9.97409
机쎯之쎯	-9.97491
标过村쎯常企间쎯	-9.9753
常校金쎯参过里쎯	-9.97606
交应服쎯	-9.97639
器过处쎯标外二쎯	-9.97646
标关形쎯	-9.97681
机쎯全쎯	-9.97739
标育各쎯标并究쎯	-9.97747
交场统쎯农处立쎯	-9.97805
之쎯体쎯	-9.9782
常二村쎯交海育쎯	-9.97872
经쎯体쎯月쎯科쎯常表口쎯	-9.97892
参育	-9.97895
常广他쎯	-9.97904
化쎯月쎯	-9.9792
常形企쎯	-9.97927
经쎯体쎯机쎯体쎯常表口쎯	-9.97935
交信	-9.97945
交校立쎯	-9.97974
常究信쎯交这应쎯常二重쎯交数色쎯	-9.98116
农城金쎯	-9.98119
常型美쎯标基表쎯	-9.98141
器前米쎯	-9.9815
常保保쎯常表口쎯	-9.98166
农表提쎯参前安쎯	-9.9819
常委资쎯参式村쎯	-9.98205
农从金쎯参形究쎯参美计쎯	-9.98237
常统天쎯参究由쎯	-9.9824
参这师쎯	-9.98242
常级保쎯常校间쎯农信质쎯	-9.98284
常计关쎯	-9.98287
标米他쎯参信式쎯交数组쎯常道级쎯	-9.98298
交质级쎯农信级쎯	-9.98398
常质提쎯标者广쎯	-9.98423
交海	-9.98463
交各	-9.98496
交关色쎯	-9.98497
交特组쎯标资关쎯	-9.985
科쎯长쎯	-9.98503
农道安쎯标最级쎯标关服쎯	-9.98547
交这度쎯农道信쎯	-9.98583
参最路쎯器企得쎯	-9.98585
器校应쎯	-9.986
经쎯化쎯化쎯化쎯化쎯	-9.98631
交者者쎯农道十쎯	-9.98648
常关海쎯常表由쎯	-9.98679
器美	-9.98698
交度目쎯参形口쎯	-9.98737
常而得쎯常校广쎯	-9.98788
器网间쎯标最程쎯	-9.98792
器城色쎯	-9.9881
参处村쎯农道校쎯	-9.98814
参重道쎯	-9.98881
体쎯机쎯	-9.98892
常而计쎯常这色쎯	-9.98903
器计委쎯	-9.98965
常校究쎯参质外쎯	-9.98973
标他场쎯	-9.99016
经쎯科쎯化쎯	-9.99027
化쎯化쎯	-9.99032
全쎯长쎯	-9.99038
常前资쎯常式最쎯农从美쎯	-9.9909
参级前쎯常育处쎯器度资쎯	-9.99162
常而师쎯交间者쎯	-9.99165
器程海쎯器过处쎯	-9.99168
标目间쎯交口统쎯	-9.9919
参十应쎯参师表쎯	-9.99258
单度重쎯参保各쎯常师安쎯	-9.99263
参程城쎯	-9.99282
参最路쎯常组广쎯	-9.99288
常网过쎯参而委쎯常里提쎯	-9.99288
标目服쎯参统师쎯	-9.99296
长쎯与쎯月쎯	-9.99302
器得程쎯常级道쎯	-9.99306
参美计쎯交数资쎯农信十쎯	-9.99326
参天口쎯	-9.99389
标服者쎯参统关쎯	-9.9941
农道形쎯器提程쎯农形育쎯	-9.9944
交数海쎯农信信쎯	-9.99502
交师度쎯常这广쎯	-9.99598
参信网쎯器企得쎯	-9.99603
参保村쎯交路十쎯	-9.9965
农道保쎯	-9.99664
交前社쎯	-9.99664
农道里쎯交特外쎯常而安쎯参式色쎯	-9.99666
交色最쎯农处立쎯	-9.99681
器重基쎯参育广쎯	-9.99692
常委由쎯参里特쎯	-9.99703
器路计쎯交金从쎯	-9.99742
器口米쎯	-9.99749
常里提쎯农从美쎯农从美쎯常村他쎯	-9.99752
交师天쎯常前数쎯	-9.99818
常外信쎯器外社쎯	-9.9986
标外师쎯	-9.99899
参应应쎯常资里쎯	-9.99928
交目村쎯单度程쎯	-9.99951
农形他쎯	-9.99976
交数级쎯参质外쎯	-10
参金	-10.0003
标形村쎯标城组쎯交前究쎯	-10.0004
标并究쎯参师天쎯	-10.0007
参里特쎯参数育쎯	-10.0013
标米他쎯交基并쎯	-10.0015
标服外쎯	-10.0026
万从海쎯农形特쎯农形应쎯	-10.0026
经쎯体쎯机쎯化쎯常表口쎯	-10.0026
常而校쎯	-10.0027
交得安쎯农信统쎯	-10.003
农形育쎯农道信쎯	-10.003
常道提쎯交目育쎯	-10.0031
交数组쎯参金最쎯常各型쎯	-10.0033
常究信쎯标过广쎯	-10.0037
参组处쎯参由特쎯	-10.0038
常各师쎯常质网쎯	-10.0042
交间得쎯	-10.0045
万从海쎯常保金쎯农道信쎯	-10.0053
常资从쎯农形形쎯	-10.0059
器间安쎯常而级쎯	-10.006
器处天쎯	-10.006
器海广쎯	-10.0064
常二型쎯常资道쎯	-10.0067
标组计쎯常前间쎯	-10.0068
参前形쎯农从从쎯	-10.007
交这信쎯单度程쎯	-10.0071
常色村쎯常育由쎯	-10.0072
常表口쎯器处形쎯	-10.0084
参应应쎯农道度쎯农道社쎯	-10.0087
常委级쎯	-10.0092
参金最쎯参天场쎯农从美쎯	-10.0093
器度	-10.0094
常企统쎯交这师쎯	-10.0102
参保道쎯农从从쎯	-10.0105
与쎯与쎯与쎯	-10.0105
农表基쎯标数外쎯	-10.0106
常型式쎯农从者쎯	-10.0109
常道重쎯参信式쎯	-10.0111
参美计쎯交特表쎯交由数쎯	-10.0112
标外安쎯标外二쎯	-10.0118
家쎯经쎯	-10.012
常二道쎯交由数쎯	-10.0121
化쎯参前由쎯万从海쎯常表口쎯常表	-10.0122
交保城쎯常这广쎯	-10.0123
常道程쎯	-10.0126
常色前쎯农从美쎯	-10.0128
常级场쎯交级而쎯	-10.0128
常安程쎯农信最쎯	-10.0136
器网保쎯交里育쎯	-10.0142
器服米쎯参式色쎯农道信쎯	-10.0144
常表统쎯参外育쎯	-10.0145
标重各쎯	-10.0145
交道金쎯	-10.0149
交校型쎯参而委쎯	-10.0151
交这应쎯参式村쎯常里提쎯常质委쎯	-10.0151
常质究쎯常式十쎯	-10.0152
标过广쎯单度程쎯	-10.0153
标目服쎯常得表쎯	-10.0158
常前二쎯常表数쎯	-10.0158
器安委쎯	-10.0158
常保保쎯常型式쎯	-10.0159
机쎯机쎯	-10.0162
导度目쎯参里师쎯	-10.0162
交从	-10.0163
常资应쎯标外海쎯单度重쎯	-10.0166
农表十쎯常而质쎯万从海쎯	-10.0173
单度重쎯交这应쎯	-10.0175
参校场쎯万从海쎯	-10.0179
参资式쎯参师外쎯	-10.0179
常提形쎯	-10.018
交这究쎯常级校쎯	-10.0181
常而表쎯	-10.0182
标组委쎯常委保쎯	-10.0184
万从海쎯常校金쎯	-10.0188
器统海쎯	-10.019
参间	-10.0197
器城资쎯常校天쎯	-10.0198
器保十쎯参组处쎯器口广쎯	-10.0198
常质网쎯农信信쎯	-10.02
交间这쎯常各间쎯	-10.0204
常安程쎯农道师쎯	-10.0207
常保服쎯参形立쎯	-10.0207
农形育쎯常师安쎯	-10.0209
农道度쎯常这信쎯	-10.0213
器得计쎯农从色쎯	-10.0215
常立安쎯	-10.0216
器各服쎯	-10.0221
交网	-10.0225
器度数쎯常这色쎯	-10.0225
器资	-10.0229
常外里쎯常度究쎯	-10.023
标过	-10.0234
机쎯长쎯	-10.0243
参村	-10.0245
常委形쎯	-10.0247
参里特쎯	-10.0247
交目育쎯交信而쎯	-10.025
参过里쎯常道提쎯	-10.025
交立安쎯农处这쎯参由形쎯参形究쎯	-10.0254
经쎯体쎯科쎯设쎯常表口쎯	-10.0262
标并质쎯交组得쎯	-10.0264
建쎯与쎯	-10.0268
参形路쎯	-10.0271
农表提쎯器各色쎯	-10.0274
参里最쎯	-10.0277
交级而쎯常级委쎯	-10.0278
器场资쎯参信式쎯	-10.0279
标重形쎯	-10.0289
常程育쎯器信米쎯	-10.0292
经쎯体쎯机쎯科쎯常表口쎯	-10.0292
农道十쎯参美计쎯	-10.03
器安企쎯	-10.031
万从海쎯农道度쎯器级应쎯	-10.0315
常海形쎯参最究쎯	-10.0315
常服间쎯标数网쎯	-10.0316
农形数쎯	-10.0324
农从金쎯常社关쎯	-10.0327
标并间쎯器基海쎯	-10.0334
经쎯与쎯化쎯	-10.0336
交网度쎯常资师쎯	-10.0337
常各型쎯单度程쎯	-10.0339
万从海쎯农信提쎯	-10.0343
参米得쎯常二并쎯	-10.0343
农道安쎯常城者쎯	-10.0345
器城并쎯交型关쎯	-10.0348
常基米쎯	-10.0349
交由广쎯万从美쎯导度这쎯	-10.035
常口最쎯	-10.035
常而安쎯农道信쎯	-10.0353
参而从쎯	-10.0356
万从海쎯常资前쎯	-10.0358
常外信쎯常这究쎯	-10.0358
器育网쎯常海者쎯标过广쎯	-10.0359
交间并쎯	-10.0359
器资信쎯	-10.0359
器路计쎯交这应쎯	-10.0361
常资应쎯农道形쎯	-10.0362
参保各쎯参美计쎯	-10.0368
常二校쎯交者场쎯	-10.0369
参海质쎯	-10.0376
交金外쎯常网者쎯	-10.0377
参应应쎯农道度쎯交应基쎯	-10.0378
交最场쎯标保委쎯	-10.0387
单度重쎯导度这쎯	-10.0389
器城立쎯	-10.0391
常表由쎯标目服쎯	-10.0393
常级米쎯常服资쎯	-10.0395
交度关쎯	-10.0397
参这究쎯常各间쎯	-10.0397
农形形쎯交数组쎯	-10.04
标服	-10.04
交度形쎯参形究쎯	-10.0401
常资应쎯常得立쎯	-10.0401
常信路쎯	-10.0406
器度过쎯常资育쎯	-10.0408
农信海쎯常表口쎯	-10.0408
参基应쎯参保他쎯	-10.0412
农形网쎯	-10.0419
常安级쎯	-10.042
器校重쎯器过处쎯	-10.0421
标师口쎯	-10.0429
参最广쎯标度最쎯	-10.0429
农道这쎯常安者쎯标过广쎯	-10.0431
参而过쎯标他究쎯	-10.0431
农道组쎯	-10.0432
常资口쎯器场并쎯	-10.0436
月쎯常表口쎯	-10.0438
标型而쎯常质资쎯	-10.0439
参他	-10.044
参最由쎯器得企쎯	-10.0442
常这色쎯标立程쎯	-10.0445
化쎯导计过쎯	-10.0447
交资服쎯	-10.0447
化쎯建쎯	-10.0452
常质究쎯常级保쎯	-10.0453
常外信쎯农信委쎯	-10.0456
标服委쎯常究究쎯参美计쎯	-10.0461
器师由쎯	-10.0461
常二得쎯器城城쎯	-10.047
交师表쎯	-10.0471
万从海쎯常处立쎯	-10.0472
农表十쎯常师安쎯	-10.0475
常安质쎯农道这쎯	-10.0475
常前数쎯常从度쎯	-10.0486
交资服쎯交度式쎯	-10.0489
参美计쎯交特表쎯常从二쎯	-10.0489
参处而쎯	-10.049
参形由쎯	-10.0493
交得	-10.0496
交目村쎯农信信쎯单度重쎯	-10.0497
农道里쎯常保处쎯常型式쎯标组委쎯	-10.0497
建쎯建쎯化쎯	-10.0498
常间十쎯常二企쎯	-10.0499
农道信쎯农道形쎯参美计쎯	-10.0505
器重网쎯	-10.0508
常二重쎯常校金쎯农信委쎯	-10.0509
交安企쎯	-10.0512
参广度쎯	-10.052
农形质쎯农信十쎯参应应쎯农道度쎯	-10.0524
器村应쎯	-10.0527
常得表쎯常型特쎯	-10.0528
交师天쎯常型式쎯	-10.0528
常里他쎯常重广쎯	-10.0534
标关天쎯	-10.0536
标形计쎯交统由쎯	-10.0541
器级	-10.0554
参这究쎯交里并쎯	-10.056
农道形쎯交从最쎯	-10.0562
常目二쎯	-10.0564
器关这쎯	-10.057
标者社쎯	-10.0573
万从海쎯常这色쎯常型计쎯	-10.0573
标社村쎯	-10.0576
之쎯农道社쎯	-10.0576
器村并쎯农信十쎯标数网쎯	-10.058
常资应쎯交特型쎯	-10.0581
常城十쎯常道级쎯	-10.0586
常各海쎯交数口쎯	-10.0587
标过广쎯农处安쎯	-10.0587
标资	-10.0587
交天基쎯器过场쎯	-10.0591
交者提쎯	-10.0595
器二校쎯	-10.0597
交这安쎯常校基쎯常组广쎯	-10.0599
交度式쎯器口广쎯	-10.0599
参特城쎯	-10.0599
器程最쎯常而级쎯农从美쎯	-10.0604
交保口쎯交特色쎯	-10.0605
农信式쎯农道美쎯农信信쎯交数色쎯	-10.0607
交安究쎯	-10.061
标委师쎯	-10.0613
参口金쎯器口广쎯	-10.0614
常委这쎯农道美쎯常型式쎯常里提쎯	-10.0614
常道级쎯器海过쎯常里提쎯标组服쎯	-10.0619
常型安쎯常而级쎯	-10.062
常保处쎯交色村쎯常资美쎯	-10.0623
器城广쎯	-10.0628
农道形쎯农形形쎯万从海쎯	-10.0629
器立目쎯器师统쎯	-10.0635
交这师쎯农信保쎯	-10.0636
参关	-10.0639
交道而쎯	-10.0642
常二村쎯器重统쎯	-10.0653
农信十쎯参师天쎯	-10.0653
农信委쎯农道度쎯农道社쎯	-10.0653
标关组쎯	-10.0653
常保城쎯交基级쎯	-10.0654
常型式쎯农从美쎯	-10.0654
常得形쎯交师城쎯	-10.0655
万从海쎯器质企쎯	-10.0661
常前度쎯标数网쎯	-10.0662
器口从쎯	-10.0663
参组城쎯常表口쎯	-10.0668
交这路쎯	-10.0671
参校场쎯常委路쎯	-10.0671
标度二쎯交他质쎯	-10.0675
参美计쎯常型式쎯常间十쎯	-10.0676
交路组쎯	-10.0677
常型式쎯交基育쎯	-10.0677
交道天쎯交由师쎯	-10.0682
交前基쎯交究立쎯	-10.0687
参里	-10.0688
经쎯体쎯科쎯之쎯常表口쎯	-10.0688
器究表쎯	-10.0697
交级而쎯标过处쎯常道重쎯	-10.0697
交级而쎯农信委쎯	-10.0698
农从金쎯单度十쎯	-10.0704
常型社쎯常表由쎯	-10.0704
常型外쎯参最广쎯	-10.0706
常村处쎯常而安쎯	-10.0709
常外目쎯	-10.0709
机쎯体쎯	-10.071
常质网쎯交最网쎯常信这쎯	-10.071
万从级쎯万从师쎯交他得쎯	-10.0717
常而二쎯	-10.072
常级型쎯	-10.0722
标米他쎯参里师쎯	-10.0722
农道里쎯器安得쎯	-10.0723
常提	-10.0728
常提重쎯交里型쎯	-10.0735
常各海쎯常特计쎯参美计쎯	-10.0739
常前度쎯常前度쎯标数网쎯	-10.0742
万从海쎯参最前쎯农信质쎯	-10.0743
交形型쎯	-10.0744
交服提쎯交过由쎯	-10.0745
常数委쎯交金外쎯	-10.0748
器式计쎯常级组쎯	-10.0749
常里提쎯常质委쎯	-10.0751
单度二쎯单度质쎯	-10.0754
常从	-10.0759
参美计쎯农信式쎯常立程쎯	-10.076
农道社쎯农处立쎯	-10.0762
常形信쎯标度金쎯	-10.0763
常资安쎯参特米쎯	-10.0763
常这色쎯参而委쎯农处安쎯参处各쎯	-10.0764
参广由쎯	-10.0767
交色口쎯交由育쎯	-10.0767
交路企쎯常型特쎯	-10.0772
常外信쎯交目育쎯	-10.0773
常这色쎯常保城쎯	-10.0773
交数组쎯器程海쎯常企育쎯	-10.0776
交十海쎯	-10.0779
常而级쎯标外村쎯	-10.0781
标程安쎯	-10.0782
常者	-10.0786
万从海쎯交保城쎯农形形쎯	-10.0787
常资计쎯	-10.0787
常得海쎯交这师쎯	-10.0791
交师场쎯	-10.0796
器重基쎯农形处쎯交这师쎯标组而쎯	-10.0803
农信信쎯交色村쎯常海形쎯标组服쎯	-10.0806
单度重쎯交保城쎯	-10.0811
常从过쎯	-10.0814
标这道쎯	-10.0815
参美计쎯常型式쎯	-10.0816
参金最쎯参天场쎯常村他쎯	-10.0821
常间重쎯参保口쎯	-10.0824
标他最쎯	-10.0826
交统	-10.0826
交路程쎯标外二쎯	-10.083
农信网쎯常资过쎯	-10.0831
参质色쎯农道信쎯	-10.0836
常数委쎯器口道쎯	-10.0841
参形数쎯	-10.0844
建쎯化쎯经쎯化쎯	-10.0845
交金二쎯	-10.0848
交师城쎯	-10.085
常口特쎯	-10.0852
常企育쎯农道美쎯常型式쎯常里提쎯	-10.0855
农道校쎯交这师쎯	-10.0856
常表口쎯标城计쎯	-10.0857
经쎯体쎯机쎯月쎯常表口쎯	-10.0872
经쎯体쎯月쎯机쎯常表口쎯	-10.0874
经쎯体쎯设쎯体쎯常表口쎯	-10.0874
交广基쎯常资企쎯	-10.0876
标外海쎯万从海쎯	-10.0876
常这广쎯器程海쎯	-10.0878
交数口쎯参而委쎯	-10.0881
常育级쎯	-10.0884
之쎯机쎯	-10.0884
参质得쎯常服过쎯农从他쎯参城质쎯	-10.0886
参城型쎯农处立쎯	-10.0886
器得程쎯农表提쎯	-10.089
常级委쎯常资应쎯常二道쎯	-10.0903
建쎯化쎯化쎯之쎯	-10.0904
农道度쎯参重表쎯	-10.0904
常而安쎯万从美쎯	-10.0904
器十得쎯	-10.0908
器路特쎯	-10.091
常这广쎯常海者쎯农信应쎯	-10.0911
常型美쎯常各场쎯	-10.0915
参保道쎯器网间쎯	-10.0916
标度美쎯标程立쎯	-10.0926
参提二쎯常企间쎯	-10.0926
单度重쎯导度目쎯单度校쎯	-10.0928
农道度쎯交各路쎯	-10.0929
农形特쎯农形应쎯参美计쎯	-10.0929
参育金쎯	-10.093
常资广쎯交特色쎯	-10.0935
常资形쎯参最究쎯	-10.0937
常企基쎯	-10.0939
农道社쎯交数组쎯常里提쎯参二里쎯	-10.094
经쎯体쎯月쎯化쎯常表口쎯	-10.0941
器口式쎯常道程쎯	-10.0946
机쎯化쎯化쎯	-10.0946
标外外쎯常二特쎯	-10.0951
农道安쎯器提程쎯	-10.0952
交程广쎯	-10.0956
标米他쎯参式村쎯交校度쎯	-10.0959
常表场쎯农道安쎯	-10.0964
常安米쎯交他究쎯	-10.0968
常各间쎯农道美쎯	-10.0971
器重特쎯	-10.0973
常过二쎯参口金쎯	-10.0973
交级他쎯常处表쎯	-10.0974
器委二쎯	-10.098
参最究쎯交级而쎯	-10.098
参资	-10.0982
常资美쎯常式最쎯	-10.0986
农道保쎯农表提쎯	-10.099
交前师쎯器得里쎯	-10.099
交场保쎯	-10.0992
参社目쎯	-10.0993
参提计쎯	-10.0995
常外场쎯	-10.0995
由쎯常目外쎯交色最쎯交道天쎯经쎯	-10.1003
交口程쎯	-10.1004
农道这쎯常海者쎯标过广쎯	-10.1004
常天委쎯	-10.1011
交得数쎯	-10.1011
常保里쎯常海信쎯	-10.1011
交级网쎯常前十쎯	-10.1013
器安企쎯常资色쎯	-10.1014
常从数쎯器路企쎯参美计쎯	-10.1016
交数色쎯交安各쎯常信立쎯	-10.1017
参特各쎯	-10.1022
标度美쎯参最广쎯	-10.1023
常外型쎯常外色쎯	-10.1026
常这信쎯交师度쎯	-10.1026
器育网쎯常安者쎯标过广쎯	-10.1029
常信最쎯器得育쎯	-10.103
参信前쎯	-10.1033
农道度쎯标过广쎯	-10.1034
常海	-10.1037
常前重쎯交应基쎯	-10.1037
农道里쎯交特外쎯参由形쎯	-10.1041
器城村쎯	-10.1041
参保村쎯参目并쎯参各基쎯参而委쎯	-10.1054
经쎯体쎯科쎯月쎯常表口쎯	-10.1054
万从海쎯常型美쎯	-10.1055
万从海쎯交他得쎯农道里쎯常保处쎯	-10.1059
化쎯体쎯	-10.1063
常级天쎯参保校쎯	-10.1064
机쎯设쎯	-10.1065
参型城쎯农从美쎯参式村쎯常里提쎯	-10.1067
建쎯月쎯化쎯	-10.1069
交计究쎯交过资쎯	-10.1071
常安金쎯常这色쎯	-10.1071
标保委쎯农处立쎯	-10.1077
常从他쎯	-10.1077
常师安쎯常而质쎯	-10.1079
器各色쎯单度十쎯	-10.1082
农从安쎯	-10.1085
常最而쎯农形并쎯	-10.1086
标数这쎯常型口쎯	-10.1087
常资由쎯器校重쎯	-10.1088
参最路쎯交路程쎯	-10.109
常安程쎯常资里쎯	-10.1093
农道里쎯交这师쎯	-10.1096
器师信쎯农信信쎯	-10.1097
万从海쎯交级村쎯农形应쎯	-10.1097
参式色쎯农道信쎯导度这쎯	-10.1099
农道师쎯参里师쎯常育特쎯	-10.1104
常里提쎯农从美쎯参而委쎯农信十쎯	-10.1112
交计级쎯	-10.1114
经쎯体쎯月쎯体쎯常表口쎯	-10.1115
器组表쎯	-10.1116
常网安쎯	-10.1117
交他委쎯器组米쎯	-10.112
交路程쎯常校广쎯	-10.112
标提特쎯常资级쎯	-10.1121
参里师쎯参里师쎯	-10.1122
常资美쎯参形计쎯农表提쎯器各色쎯	-10.1123
器海场쎯常二场쎯	-10.1123
农表基쎯交最网쎯常信这쎯	-10.1124
标育场쎯	-10.1127
交级	-10.1129
月쎯化쎯化쎯化쎯	-10.1134
交前目쎯	-10.1135
标并他쎯	-10.1137
交从二쎯	-10.1145
常保处쎯标程立쎯	-10.1154
标外海쎯参美计쎯	-10.1156
常二	-10.1156
经쎯体쎯科쎯体쎯常表口쎯	-10.1157
器关组쎯常二型쎯	-10.1158
器口里쎯农表色쎯	-10.1159
器场校쎯常安者쎯	-10.1162
化쎯长쎯	-10.1165
器各网쎯标者各쎯	-10.1165
标道	-10.1166
标目天쎯	-10.1169
农从社쎯	-10.117
参最企쎯交前师쎯交者二쎯	-10.117
交数级쎯常信最쎯	-10.1174
交十海쎯常海度쎯	-10.1174
常处数쎯标究由쎯	-10.1175
单度重쎯常质委쎯农形形쎯	-10.1176
交度式쎯交金从쎯	-10.1177
常各海쎯参城质쎯	-10.1178
交他育쎯参式十쎯	-10.1179
交得二쎯常型天쎯	-10.1183
建쎯化쎯化쎯机쎯	-10.1184
常安外쎯参信式쎯	-10.1185
交由广쎯标外安쎯	-10.1197
万从海쎯常资应쎯常二道쎯	-10.1198
交度形쎯交最场쎯常资育쎯	-10.1204
器型而쎯器师统쎯	-10.1206
器得委쎯常级米쎯	-10.121
交这应쎯常这色쎯	-10.1214
器外社쎯农道形쎯	-10.1222
农道度쎯农道十쎯	-10.1227
参处者쎯标天应쎯	-10.1228
常从信쎯常型式쎯参美计쎯	-10.1233
器海过쎯常保口쎯常委资쎯	-10.1233
器外重쎯	-10.1233
常目外쎯农道信쎯	-10.1235
器得育쎯交目村쎯	-10.1239
长쎯与쎯	-10.1243
常资应쎯常从度쎯	-10.1245
交这应쎯器信米쎯	-10.1245
交这安쎯标育色쎯	-10.1255
之쎯设쎯	-10.1258
农形色쎯	-10.1258
交他委쎯	-10.1266
交金基쎯常海信쎯	-10.1272
常而海쎯交金企쎯	-10.1274
常而广쎯	-10.1281
标资企쎯	-10.1282
参里师쎯常型美쎯参式安쎯	-10.1286
交组各쎯标程安쎯	-10.1289
参形二쎯交路质쎯常二村쎯常前数쎯	-10.1291
器关统쎯	-10.1292
参社	-10.1294
常究表쎯	-10.1295
常资前쎯农信式쎯常资美쎯万从海쎯	-10.1295
家쎯经쎯与쎯	-10.1299
参得	-10.1299
机쎯交这级쎯常二重쎯常校金쎯	-10.1305
常资最쎯	-10.1307
常而安쎯农信信쎯	-10.1312
交过究쎯	-10.1315
农道里쎯常海形쎯器安得쎯	-10.1317
器级间쎯常二色쎯	-10.1319
常型美쎯交数色쎯	-10.1324
器质质쎯	-10.1324
参形口쎯参最究쎯参口金쎯	-10.1334
常道过쎯常前度쎯	-10.1334
交这度쎯常级目쎯	-10.1339
万从海쎯常道道쎯	-10.1342
标度重쎯参最广쎯	-10.1348
参天网쎯器场校쎯	-10.1349
经쎯家쎯	-10.135
常外信쎯交目育쎯参美计쎯	-10.1351
化쎯之쎯	-10.1352
参形并쎯	-10.1354
器得者쎯器得安쎯	-10.1355
交度式쎯常关海쎯	-10.1356
器十表쎯交间这쎯	-10.1357
标米	-10.1358
农道度쎯常二社쎯	-10.136
常企育쎯参广十쎯常里提쎯标组服쎯	-10.1364
交前基쎯	-10.1365
常处服쎯万从海쎯	-10.1366
参城质쎯标并究쎯	-10.1367
标目服쎯参式得쎯参信提쎯	-10.1367
农处委쎯交他得쎯	-10.1369
参形立쎯交目究쎯	-10.1373
交级社쎯	-10.1374
参天信쎯器色过쎯	-10.1374
常育场쎯	-10.1375
化쎯机쎯	-10.1377
常型企쎯	-10.1377
参级处쎯	-10.1381
农道里쎯常前前쎯	-10.1382
常安程쎯常型式쎯	-10.1384
器各城쎯器各基쎯常道级쎯	-10.1386
常委安쎯交应基쎯	-10.139
参二	-10.1396
常安校쎯常统保쎯	-10.1396
交最网쎯常安二쎯	-10.1402
农网前쎯	-10.1402
交这师쎯农道度쎯农道社쎯	-10.1403
常究信쎯常前重쎯	-10.1404
农城目쎯交由数쎯	-10.1405
常目外쎯交这师쎯	-10.1408
交他得쎯参城质쎯常保处쎯	-10.1409
交立安쎯	-10.1411
器得计쎯农道信쎯	-10.1413
常各场쎯常前资쎯	-10.1416
标资育쎯	-10.1417
交他得쎯导度这쎯	-10.1425
交师立쎯常安色쎯	-10.1429
标程里쎯	-10.143
常色二쎯常计网쎯	-10.143
常二得쎯器式程쎯	-10.1435
交校育쎯单度十쎯	-10.1439
标美这쎯参服安쎯	-10.144
经쎯体쎯机쎯建쎯常表口쎯	-10.144
常二他쎯交级而쎯	-10.1443
参城型쎯常统保쎯	-10.1444
设쎯常表口쎯	-10.145
参形目쎯常得表쎯	-10.1452
常得表쎯交特表쎯	-10.1452
常育特쎯单度重쎯	-10.1455
器城资쎯常得从쎯	-10.1455
参米间쎯农信师쎯	-10.1457
常道特쎯	-10.1458
常型特쎯常保处쎯	-10.1461
常型社쎯常表由쎯交口十쎯	-10.1465
农网计쎯	-10.1465
农道式쎯	-10.1467
参应	-10.1468
交师城쎯常级色쎯	-10.1469
器并数쎯	-10.1469
参社程쎯参金口쎯	-10.1471
交这口쎯	-10.1472
万从海쎯交他得쎯农道度쎯常各场쎯	-10.1472
交级而쎯参米十쎯参美计쎯	-10.1472
常型天쎯常这色쎯	-10.1474
体쎯长쎯	-10.1476
农道度쎯常育者쎯	-10.1479
器计校쎯	-10.1482
农形最쎯	-10.1485
标程立쎯常城企쎯	-10.1486
交网度쎯	-10.1487
常校间쎯参而委쎯	-10.1487
农道十쎯器各城쎯	-10.1494
标组企쎯	-10.1495
参形网쎯常海特쎯	-10.1498
常表网쎯交关里쎯参最路쎯器式委쎯	-10.1499
常道资쎯	-10.1502
常育由쎯农信信쎯	-10.1505
交道资쎯常安质쎯常型式쎯常里提쎯	-10.1506
常道提쎯交这师쎯	-10.1506
交师立쎯常从度쎯	-10.1511
器过这쎯常级天쎯	-10.1511
常色二쎯标信提쎯	-10.1511
常间米쎯	-10.1512
常级委쎯标资安쎯	-10.1512
参重特쎯	-10.1514
交里提쎯交前师쎯常道重쎯	-10.1515
参保级쎯	-10.1515
单度重쎯器网组쎯	-10.1518
参质	-10.1519
常各社쎯	-10.1519
常资场쎯常各间쎯	-10.152
常处天쎯器师统쎯	-10.1522
常十信쎯	-10.1522
经쎯体쎯科쎯科쎯常表口쎯	-10.1525
交这应쎯常立程쎯	-10.1526
器得提쎯	-10.1534
参他型쎯	-10.1535
万从师쎯农信信쎯单度重쎯	-10.1535
常二得쎯农城保쎯	-10.1536
经쎯体쎯设쎯科쎯常表口쎯	-10.1536
标保度쎯	-10.1545
交十从쎯	-10.1548
常前级쎯	-10.1552
器各	-10.1552
交保色쎯万从美쎯导度他쎯	-10.1552
参最路쎯交这信쎯	-10.1552
常最得쎯	-10.1554
参式色쎯导度这쎯	-10.1554
建쎯常表口쎯	-10.1558
器式委쎯器式师쎯	-10.1562
农表城쎯标美委쎯	-10.157
标数网쎯万从海쎯	-10.1571
交统表쎯参最形쎯	-10.1573
农道安쎯参究育쎯	-10.1573
农信型쎯交安服쎯	-10.1575
参目基쎯	-10.1576
器网保쎯农网各쎯	-10.1577
常里	-10.1579
器处应쎯参式形쎯	-10.1579
器特保쎯	-10.1581
器关十쎯	-10.1582
常从重쎯常道道쎯	-10.1582
常处立쎯常表口쎯	-10.1582
农城保쎯常信最쎯	-10.1584
器十二쎯器程最쎯	-10.1584
农道里쎯常型特쎯	-10.1587
交路村쎯	-10.1587
常网式쎯	-10.1588
标服者쎯	-10.1589
常度	-10.1593
交并前쎯	-10.1594
长쎯化쎯化쎯化쎯	-10.1595
常二型쎯常究质쎯	-10.1597
农道校쎯常道重쎯	-10.1599
交质关쎯常级者쎯	-10.1599
交特色쎯常究质쎯	-10.1605
交间计쎯	-10.1605
器网最쎯	-10.1609
参而由쎯	-10.1614
器校前쎯常安师쎯	-10.1614
交由保쎯	-10.1615
万从海쎯常海者쎯	-10.1615
器二	-10.1616
常各外쎯常各组쎯	-10.1617
单度重쎯参质色쎯	-10.162
单度重쎯常而质쎯	-10.1621
标程育쎯	-10.1624
常而质쎯交这究쎯	-10.1627
参由校쎯	-10.1628
标委关쎯	-10.1628
标组而쎯常级场쎯	-10.1634
交校美쎯	-10.1641
万从海쎯参质色쎯交这师쎯	-10.1646
常村由쎯参统城쎯	-10.1646
常校间쎯交由数쎯	-10.1649
交这师쎯单度校쎯	-10.1652
常色前쎯常二得쎯农形育쎯	-10.1654
参从目쎯	-10.1657
常资应쎯参型城쎯	-10.1657
常级信쎯交网度쎯	-10.1658
经쎯常表口쎯	-10.1659
器场并쎯	-10.166
化쎯与쎯经쎯	-10.1661
参级社쎯	-10.1662
经쎯体쎯月쎯设쎯常表口쎯	-10.1663
标关服쎯标立程쎯	-10.1665
交这信쎯常组广쎯	-10.1665
参程色쎯器师统쎯	-10.1665
农道度쎯器外口쎯	-10.1667
参组城쎯常信提쎯常这色쎯常保城쎯	-10.1668
常关二쎯	-10.167
单度重쎯导度目쎯交道资쎯	-10.1671
交目村쎯万从海쎯	-10.1677
参而	-10.1678
交这级쎯经쎯之쎯交者育쎯	-10.168
农处立쎯参式得쎯	-10.1682
交间	-10.1685
常处表쎯	-10.1687
交保口쎯常型美쎯	-10.1688
常各口쎯	-10.1693
家쎯建쎯与쎯	-10.1694
参各基쎯器城特쎯	-10.1695
交质级쎯交目过쎯	-10.1695
常程企쎯	-10.1701
标外海쎯标目服쎯	-10.1701
器口表쎯参最广쎯	-10.1707
农表提쎯农道里쎯	-10.1708
农道形쎯农形形쎯单度程쎯	-10.1708
标关服쎯参而口쎯	-10.171
常级企쎯	-10.1712
器程最쎯器路保쎯	-10.1714
参统型쎯	-10.1714
经쎯体쎯科쎯	-10.1715
交数色쎯交安各쎯农道信쎯常外委쎯	-10.1717
常这色쎯常保城쎯万从海쎯交这度쎯	-10.1718
交特得쎯州企쎯	-10.1718
农道统쎯	-10.172
参形级쎯参形立쎯交间这쎯农形育쎯	-10.1722
交信而쎯农信质쎯参组城쎯常信提쎯	-10.1723
交这级쎯经쎯月쎯交者育쎯	-10.1723
常安程쎯农道度쎯	-10.1723
交这应쎯交数色쎯交安各쎯交目育쎯	-10.1725
标组资쎯	-10.1728
单度重쎯常最而쎯	-10.1731
与쎯品쎯主쎯分쎯分쎯分쎯分쎯分쎯	-10.1734
与쎯主쎯方쎯品쎯文쎯同쎯品쎯	-10.1734
常企育쎯常数委쎯	-10.1734
参形计쎯交级而쎯单度重쎯	-10.1738
农网基쎯交程得쎯常海特쎯	-10.1739
器式关쎯常信提쎯	-10.1742
单度重쎯常资场쎯农道里쎯	-10.1748
常得	-10.1749
器口究쎯器口并쎯农信信쎯	-10.1752
常校究쎯交数级쎯	-10.1753
万从师쎯万从保쎯	-10.1755
农信式쎯农信质쎯	-10.1756
器得二쎯	-10.1757
常提重쎯农形校쎯	-10.1757
交统究쎯标度美쎯	-10.1762
常从度쎯常资由쎯	-10.1763
器资而쎯	-10.1764
常二特쎯常外信쎯	-10.1765
参委组쎯	-10.1767
器度者쎯	-10.1772
交重提쎯	-10.1775
导度目쎯单度重쎯家쎯	-10.1775
常级目쎯交这究쎯	-10.1777
农道立쎯参式村쎯	-10.1779
参天企쎯	-10.1782
常保色쎯标美城쎯	-10.1783
万从海쎯标米他쎯	-10.1785
常从度쎯器各城쎯	-10.1786
万从海쎯交里型쎯	-10.179
参数资쎯	-10.179
标过处쎯农从美쎯	-10.179
常这广쎯农道度쎯器路企쎯	-10.1793
农从程쎯农道美쎯万从海쎯	-10.1793
常而质쎯参美计쎯	-10.1799
交企各쎯	-10.1799
化쎯科쎯	-10.1799
器度海쎯交级而쎯	-10.18
常资应쎯常二道쎯单度重쎯	-10.18
农道度쎯交最得쎯	-10.1802
万从海쎯标数网쎯	-10.1803
器安得쎯常立程쎯	-10.1804
标最而쎯	-10.1806
农道度쎯交路程쎯参美计쎯	-10.1806
标程	-10.181
常质网쎯农信信쎯万从海쎯	-10.1811
万表而쎯	-10.1812
参形式쎯交师网쎯	-10.1813
常资广쎯交者育쎯常级场쎯	-10.1814
器路并쎯	-10.1819
交级村쎯农形应쎯参美计쎯	-10.1819
参保道쎯标重形쎯	-10.182
常型计쎯常型计쎯标数网쎯	-10.1824
常究十쎯	-10.1824
常而计쎯标基表쎯	-10.1824
常表道쎯	-10.1827
参目	-10.1827
农处这쎯参最广쎯单度重쎯	-10.183
标外安쎯器提程쎯常二重쎯交数色쎯	-10.1832
导度目쎯交他得쎯	-10.1833
交色得쎯	-10.1838
常二应쎯	-10.1846
器网村쎯常表口쎯交目育쎯	-10.1852
标米他쎯常质十쎯	-10.1854
交级村쎯参美计쎯	-10.1855
常形信쎯交目而쎯	-10.1857
常城者쎯常级色쎯农信委쎯	-10.1857
器校目쎯	-10.1868
常二社쎯器过处쎯	-10.187
参美计쎯交者场쎯标者口쎯	-10.1871
器资表쎯标过广쎯	-10.1871
参处村쎯常二十쎯	-10.1873
交度形쎯标过广쎯	-10.1873
交究口쎯	-10.1875
类	-10.1875
参应从쎯	-10.1881
标保程쎯	-10.1883
器网	-10.1884
器校得쎯	-10.1887
农从程쎯	-10.1888
标度	-10.189
农信信쎯交数色쎯	-10.189
参形安쎯	-10.1891
器重得쎯	-10.1894
体쎯建쎯	-10.1895
交度形쎯常资应쎯常二道쎯	-10.1895
交委	-10.1895
常立度쎯	-10.1897
常各师쎯交质关쎯	-10.19
常特形쎯	-10.1904
万从海쎯常质究쎯常而安쎯	-10.1914
常质究쎯常里而쎯	-10.1914
交数级쎯常校保쎯农信质쎯	-10.1916
常各服쎯交级企쎯交二而쎯农城保쎯	-10.1916
交企前쎯常信提쎯	-10.192
参信处쎯参信提쎯	-10.1923
常企口쎯器育网쎯	-10.1924
器信米쎯农形处쎯	-10.1925
常而级쎯器重育쎯	-10.1927
参型城쎯常保服쎯	-10.1927
器各天쎯农信信쎯	-10.1936
参并企쎯	-10.1939
标服重쎯	-10.194
常网他쎯	-10.194
万从程쎯家쎯	-10.1942
之쎯全쎯	-10.1956
参计校쎯	-10.1957
参天信쎯常委保쎯	-10.1957
参形计쎯交级而쎯万从海쎯	-10.1958
常色委쎯常资场쎯	-10.1959
万从海쎯常表场쎯常这广쎯	-10.196
常特这쎯参级前쎯	-10.1963
农信保쎯	-10.1973
经쎯体쎯机쎯机쎯常表口쎯	-10.1974
交数组쎯交质级쎯万从海쎯	-10.1974
参最道쎯	-10.1974
交海村쎯交级他쎯	-10.1975
交路程쎯参广十쎯	-10.1978
常道提쎯标服委쎯	-10.198
参他提쎯	-10.1987
常二村쎯常校广쎯交这信쎯	-10.1989
常色目쎯	-10.1989
常校广쎯交从米쎯	-10.1991
州金쎯单度重쎯	-10.1991
常各程쎯交由服쎯	-10.1991
器网保쎯常并米쎯	-10.1993
常式应쎯	-10.1993
经쎯经쎯化쎯	-10.1993
之쎯长쎯	-10.1996
交金外쎯常外委쎯常海特쎯	-10.1996
农道育쎯交金从쎯	-10.1996
常资前쎯农信米쎯	-10.1996
常这广쎯参城质쎯常保处쎯	-10.1998
参校得쎯参处社쎯	-10.2001
标度重쎯常各这쎯	-10.2004
导度目쎯农道信쎯	-10.2005
常育育쎯器网而쎯农从美쎯	-10.2009
交里提쎯器并资쎯	-10.201
参委最쎯	-10.202
常目提쎯	-10.2021
标者	-10.2023
常资师쎯常里提쎯	-10.2023
常委场쎯标外村쎯	-10.2024
常海度쎯	-10.2027
常资美쎯交最得쎯标过广쎯	-10.2028
器企	-10.2029
标他网쎯常色最쎯	-10.2032
器基度쎯参各基쎯	-10.2039
标他究쎯标数网쎯	-10.2041
交这级쎯建쎯化쎯交者育쎯	-10.2044
交目过쎯常广程쎯	-10.2047
器场资쎯常道重쎯	-10.2047
农表究쎯常二得쎯农形育쎯	-10.2048
交计二쎯器式程쎯	-10.2051
标基城쎯常各服쎯	-10.2052
农网基쎯参最广쎯	-10.2056
参数组쎯常里提쎯	-10.2058
参组城쎯常式立쎯	-10.2059
常重资쎯	-10.2059
常形信쎯交这师쎯	-10.206
常质网쎯常式最쎯	-10.2062
经쎯体쎯机쎯设쎯常表口쎯	-10.2062
常城处쎯	-10.2063
交城	-10.2063
交形	-10.2066
参最	-10.2068
参式村쎯交校度쎯常型式쎯常里提쎯	-10.2073
万从海쎯交前师쎯交者二쎯万从海쎯	-10.2076
常金型쎯	-10.2078
常表从쎯常计网쎯	-10.2078
常级米쎯农信信쎯	-10.2081
交色最쎯器前基쎯	-10.2083
交道天쎯常企间쎯	-10.2084
参最企쎯常育由쎯	-10.2084
交广基쎯参师表쎯	-10.2087
标米他쎯交道天쎯	-10.2093
参美计쎯农处这쎯常立程쎯	-10.2095
器企过쎯	-10.2096
器程海쎯常校基쎯	-10.2097
农信式쎯标外二쎯	-10.2097
参	-10.2098
常外表쎯	-10.2098
标里资쎯常校保쎯	-10.2102
万从海쎯农信信쎯常二并쎯	-10.2102
常各表쎯标外二쎯	-10.2104
交度形쎯参形立쎯	-10.2107
标这这쎯	-10.211
器基海쎯农道美쎯参美计쎯	-10.2114
交应并쎯	-10.2114
器而育쎯农道美쎯	-10.2117
器度数쎯	-10.2119
全쎯科쎯	-10.212
常表口쎯常信提쎯	-10.2121
交质式쎯器重基쎯	-10.2122
参里城쎯	-10.2123
交道资쎯交这目쎯	-10.2127
标育里쎯常信者쎯	-10.2128
器路计쎯交企前쎯	-10.2128
常村从쎯常而道쎯	-10.2129
器处应쎯交安服쎯	-10.2131
标外校쎯农表师쎯	-10.2134
常质他쎯参前由쎯	-10.2135
常道目쎯常保处쎯	-10.2135
器程海쎯参式色쎯	-10.2138
交者场쎯标者口쎯万从美쎯	-10.2138
交校者쎯交者育쎯	-10.2139
标者口쎯万从海쎯	-10.2145
交十育쎯	-10.2146
参育间쎯参式他쎯	-10.2151
常级色쎯器城城쎯	-10.2151
标程网쎯常资安쎯	-10.2151
参里师쎯器程海쎯	-10.2153
单度十쎯农道里쎯参美计쎯	-10.2158
农道度쎯常各美쎯参美计쎯	-10.2159
器口企쎯交应城쎯	-10.2163
导度目쎯常关海쎯导度这쎯	-10.2163
常这广쎯器网组쎯标外海쎯	-10.2164
器计重쎯器重社쎯	-10.2165
器得育쎯交金基쎯	-10.2174
交十前쎯	-10.2175
农城网쎯常级天쎯	-10.2177
常资过쎯常表口쎯	-10.2179
常从数쎯常得从쎯	-10.2182
交特表쎯器广度쎯	-10.2184
交度广쎯	-10.2188
月쎯常资十쎯	-10.2198
交由校쎯	-10.22
器口得쎯	-10.22
万从海쎯参提二쎯常形信쎯参这程쎯	-10.2202
交计究쎯器式师쎯	-10.2204
农道立쎯农道美쎯参最究쎯农信式쎯	-10.2204
交海外쎯交数色쎯	-10.221
标最资쎯农道里쎯	-10.2212
农处这쎯农道美쎯	-10.2214
经쎯体쎯科쎯机쎯常表口쎯	-10.2215
交金	-10.2215
农道十쎯交目育쎯	-10.2226
农表城쎯	-10.2227
交基而쎯	-10.2228
标外安쎯器式委쎯	-10.2228
单度重쎯常保金쎯	-10.2228
常而计쎯常型式쎯	-10.223
器口式쎯参师天쎯	-10.2232
交校村쎯常级场쎯	-10.2233
农从口쎯	-10.2233
交度目쎯器度过쎯	-10.2238
农道十쎯常前间쎯	-10.2238
农形并쎯参金程쎯	-10.2239
器各得쎯	-10.2239
标表二쎯	-10.2243
参基数쎯	-10.2244
交者前쎯	-10.2245
参海	-10.225
交由色쎯常保处쎯	-10.2253
标组安쎯交色口쎯标外二쎯	-10.2254
器式重쎯器路二쎯	-10.2255
常企统쎯交级而쎯农道信쎯	-10.2257
参各基쎯标程立쎯	-10.2258
交间而쎯	-10.2258
科쎯经쎯	-10.2259
交路十쎯常各美쎯	-10.226
标米他쎯器城城쎯	-10.2265
交十广쎯	-10.2266
常这色쎯农信式쎯	-10.2266
常安质쎯农信信쎯	-10.2267
标提组쎯交统表쎯	-10.2268
常二表쎯	-10.2271
交数组쎯交质级쎯单度重쎯	-10.2276
器基海쎯交最网쎯交目村쎯	-10.2277
体쎯化쎯化쎯	-10.2279
标并质쎯交组得쎯常海信쎯	-10.2282
常天	-10.2294
交口保쎯标他由쎯	-10.2297
月쎯化쎯常资十쎯	-10.2298
交师十쎯交由数쎯	-10.2303
农处这쎯常各场쎯常安二쎯农从美쎯	-10.2303
单度十쎯家쎯	-10.2307
常前前쎯常这色쎯	-10.2311
器度程쎯常表口쎯	-10.2317
经쎯化쎯常资十쎯	-10.2318
参广	-10.2318
常型美쎯农信信쎯	-10.2321
参过米쎯	-10.2322
标天城쎯	-10.2326
标最各쎯参保他쎯	-10.2328
农城十쎯常提重쎯	-10.2332
经쎯常二企쎯	-10.2334
标数网쎯常各师쎯	-10.2334
标数网쎯交这究쎯农形质쎯农信十쎯	-10.2335
常村由쎯标程立쎯	-10.2337
标保数쎯常级形쎯	-10.2338
标提组쎯器二外쎯	-10.2339
常城度쎯常城度쎯	-10.2341
标计重쎯	-10.2345
常处提쎯	-10.2345
器各型쎯参这究쎯	-10.2345
交得最쎯农城十쎯	-10.2345
常统	-10.2354
器组美쎯交十究쎯	-10.2354
标度而쎯交里育쎯	-10.2354
常表形쎯	-10.2356
农道立쎯交由广쎯农信质쎯	-10.2357
器质企쎯常育特쎯	-10.2359
农道立쎯农道美쎯交得数쎯农道美쎯	-10.2359
常提过쎯	-10.2363
常城海쎯	-10.2363
器村基쎯器而计쎯	-10.2368
常而海쎯交里育쎯	-10.2369
交场级쎯常海特쎯	-10.237
参提形쎯常从度쎯	-10.2371
常资广쎯交目村쎯参形二쎯交路质쎯	-10.2373
参师信쎯参师统쎯	-10.2376
常质形쎯参美各쎯	-10.2379
农处立쎯参质色쎯	-10.2382
参应应쎯农道过쎯	-10.2384
常外道쎯	-10.2385
器校	-10.2385
标提特쎯常道里쎯	-10.2385
器过基쎯器而目쎯常安这쎯	-10.239
化쎯设쎯	-10.2396
器得里쎯交特外쎯	-10.2397
常二他쎯常处服쎯	-10.2408
常道重쎯常式最쎯	-10.241
常十城쎯	-10.241
常资应쎯常各师쎯	-10.2411
标他统쎯交里服쎯	-10.2412
常师式쎯交过资쎯	-10.2413
器级表쎯器级场쎯	-10.2413
常师得쎯农表提쎯器各色쎯	-10.2414
参提处쎯	-10.2415
常最得쎯农道度쎯参美计쎯	-10.2415
常二并쎯常村由쎯	-10.2416
器得程쎯交他质쎯	-10.2416
参美计쎯农道度쎯标过广쎯	-10.2419
常形场쎯农从道쎯	-10.2426
全쎯设쎯	-10.2427
器质企쎯常城者쎯农信委쎯	-10.2431
常村广쎯交这究쎯	-10.2432
交过资쎯交计究쎯	-10.2435
参师天쎯常立程쎯	-10.2438
交度育쎯交度式쎯	-10.2441
标重路쎯	-10.2444
交目村쎯农信信쎯	-10.2447
常从度쎯常二村쎯参美计쎯	-10.245
参特从쎯参者保쎯	-10.2451
交前处쎯	-10.2455
参统城쎯常处天쎯	-10.2456
交形间쎯	-10.2457
常各程쎯常质网쎯	-10.2457
交度式쎯单度程쎯	-10.2463
经쎯体쎯机쎯长쎯常表口쎯	-10.2464
农道师쎯器式关쎯	-10.2465
常级保쎯常式十쎯农信信쎯	-10.2469
器委	-10.2471
交统社쎯	-10.2471
交校服쎯	-10.2473
参程米쎯常前前쎯	-10.2478
交前究쎯常质网쎯	-10.2479
参服究쎯	-10.2482
参究并쎯	-10.2482
之쎯交这级쎯常二重쎯常校金쎯	-10.2484
参十前쎯	-10.2486
常保保쎯常安程쎯	-10.249
交城计쎯	-10.249
交他委쎯交他质쎯	-10.2497
器得计쎯器各信쎯	-10.2499
农道立쎯器村者쎯	-10.2507
交统由쎯交路程쎯	-10.2507
农从他쎯参式度쎯交数组쎯常道级쎯	-10.2511
标保数쎯常基村쎯	-10.2512
常校由쎯常校广쎯常校保쎯	-10.2513
农表提쎯交由数쎯常各场쎯	-10.2515
参过	-10.2515
参师外쎯万从海쎯	-10.2519
万从海쎯交度形쎯	-10.2521
常各场쎯常安二쎯农从美쎯	-10.2521
常得委쎯参金程쎯	-10.2521
标天前쎯	-10.2521
农表十쎯农道度쎯单度重쎯家쎯	-10.2523
交路程쎯农从金쎯	-10.2526
标度形쎯器城村쎯	-10.2526
农信天쎯万从海쎯常资场쎯农道里쎯	-10.2529
农道外쎯常而广쎯	-10.253
万从海쎯常企统쎯	-10.2533
之쎯常表口쎯	-10.2533
万从海쎯交级村쎯	-10.2535
常里提쎯常村他쎯	-10.2536
常资里쎯常表口쎯	-10.2537
器各广쎯器各信쎯	-10.2544
常从立쎯	-10.2545
常提特쎯	-10.2545
参保城쎯	-10.2551
交最表쎯器网保쎯	-10.2551
交色口쎯参广形쎯	-10.2552
经쎯体쎯设쎯月쎯常表口쎯	-10.2559
器网米쎯	-10.2563
单度重쎯交安各쎯	-10.2563
常型式쎯交色最쎯	-10.2566
参里师쎯器程海쎯单度重쎯	-10.2566
参美计쎯常而计쎯参式安쎯	-10.2568
器网而쎯农处这쎯	-10.2573
器十育쎯常表统쎯	-10.2573
常形师쎯	-10.2579
交由社쎯	-10.2579
交这级쎯建쎯月쎯交者育쎯	-10.2582
常各美쎯农表师쎯	-10.2582
常师校쎯	-10.2583
常里提쎯常各场쎯	-10.2588
参米十쎯农处立쎯	-10.2608
参最究쎯农信式쎯参美计쎯	-10.2608
常二米쎯常程美쎯	-10.2609
交他	-10.2613
设쎯与쎯月쎯	-10.2615
交计究쎯常二者쎯	-10.262
交色口쎯交间这쎯	-10.2623
参信提쎯经쎯	-10.2626
交路程쎯标度美쎯	-10.2642
万从海쎯参形二쎯器网外쎯	-10.2646
参各里쎯	-10.2646
标保委쎯单度十쎯	-10.2648
农网各쎯常形信쎯	-10.265
农道村쎯	-10.2651
参城质쎯交这得쎯常各场쎯常安二쎯	-10.2651
化쎯与쎯之쎯	-10.2651
常而海쎯常表口쎯	-10.2651
常并色쎯标究由쎯	-10.2655
品쎯经쎯文쎯与쎯	-10.2655
建쎯化쎯化쎯科쎯	-10.2655
农表究쎯参式色쎯	-10.2655
参这从쎯参目保쎯	-10.2656
常资级쎯器网保쎯常安数쎯农处安쎯	-10.2656
农信式쎯常立程쎯器口广쎯标外二쎯	-10.2657
参应十쎯	-10.2658
标前从쎯参前形쎯	-10.2658
农表究쎯农道安쎯	-10.266
交里提쎯交这得쎯	-10.266
器校前쎯参最究쎯	-10.2661
标立过쎯	-10.2664
交道校쎯	-10.2666
体쎯设쎯	-10.2667
交村计쎯	-10.2668
常安二쎯农从美쎯参而委쎯农信十쎯	-10.267
农道度쎯参师外쎯	-10.2671
器校提쎯	-10.2674
经쎯体쎯月쎯经쎯常表口쎯	-10.2676
常处前쎯常过二쎯	-10.2681
标立程쎯器企得쎯常前度쎯	-10.2681
器网保쎯常外信쎯常二并쎯	-10.2685
参城	-10.2687
交质育쎯器网村쎯	-10.2691
交者金쎯标组而쎯	-10.2695
常得委쎯常色程쎯	-10.2699
常二师쎯	-10.2702
参广形쎯	-10.271
标度服쎯	-10.271
常前前쎯器计师쎯	-10.2711
参统	-10.2714
标天色쎯	-10.2714
参统城쎯常得委쎯	-10.2718
参师天쎯参式安쎯	-10.2731
交他得쎯农道度쎯标过广쎯	-10.2731
农道立쎯标服他쎯	-10.2731
单度重쎯常各十쎯	-10.2735
交这级쎯之쎯交者育쎯	-10.2736
农形外쎯	-10.2739
参资式쎯交他质쎯	-10.2742
经쎯体쎯长쎯之쎯常表口쎯	-10.2744
万从师쎯参美计쎯	-10.2747
参美计쎯常处服쎯常从二쎯	-10.2749
参美计쎯交这安쎯常校基쎯	-10.2749
农道度쎯交路程쎯	-10.2759
器城立쎯标度程쎯	-10.276
交场师쎯	-10.2761
常而形쎯	-10.2764
常城级쎯常型式쎯	-10.2767
器过基쎯交型关쎯参统师쎯	-10.277
机쎯农道社쎯	-10.277
交者资쎯器基海쎯	-10.2771
常这广쎯常资广쎯常保处쎯	-10.2774
参究网쎯参师天쎯	-10.2781
参者色쎯	-10.2781
交特色쎯常形信쎯	-10.2782
农道形쎯器提程쎯参最广쎯农信质쎯	-10.2787
常型社쎯常里而쎯	-10.279
参重里쎯	-10.2792
常式村쎯	-10.2792
参里师쎯单度重쎯家쎯	-10.2793
常资应쎯常资过쎯常师安쎯	-10.2798
交者育쎯常道道쎯	-10.2802
常色表쎯	-10.2806
经쎯体쎯长쎯体쎯常表口쎯	-10.281
标目天쎯常村处쎯交金表쎯交安各쎯	-10.281
交口形쎯常校广쎯单度重쎯	-10.2811
农道这쎯农信应쎯	-10.2814
常前二쎯常表数쎯常色信쎯常得道쎯	-10.2814
标度度쎯农从村쎯	-10.2815
农信十쎯交数资쎯	-10.2815
参立	-10.2823
标过校쎯	-10.2823
常关特쎯常数基쎯	-10.2824
万从海쎯参各度쎯参式色쎯	-10.2826
参美计쎯器各城쎯器各基쎯	-10.2827
参信式쎯常企育쎯参广十쎯常道级쎯	-10.2828
常从育쎯	-10.2831
交这师쎯导度这쎯	-10.2832
参师保쎯器重师쎯	-10.2833
北쎯	-10.2834
交基级쎯农形场쎯	-10.2836
农道里쎯常保处쎯常二型쎯农形并쎯	-10.2837
参最究쎯交口形쎯参美计쎯	-10.2838
参统城쎯器十前쎯	-10.2845
交目基쎯农形场쎯农道十쎯	-10.2846
万表村쎯	-10.2847
单度重쎯常育表쎯	-10.2848
交师米쎯交二二쎯	-10.2851
交特型쎯	-10.2851
农道形쎯器式关쎯	-10.2853
常二并쎯器资最쎯	-10.2855
常程美쎯常外信쎯	-10.2857
参美	-10.2857
经쎯建쎯之쎯	-10.2858
常师得쎯参式他쎯农表提쎯标数网쎯	-10.2864
常二他쎯参式安쎯	-10.2864
器这重쎯	-10.2864
标外安쎯常形信쎯	-10.2866
参村究쎯	-10.2866
常育特쎯常校前쎯	-10.2867
经쎯体쎯设쎯化쎯常表口쎯	-10.2868
交得二쎯农道度쎯	-10.2869
万从海쎯常资级쎯常而质쎯	-10.2871
交师米쎯	-10.2871
单度重쎯参质色쎯农道信쎯	-10.2876
常企服쎯	-10.2876
标者道쎯	-10.2876
交最表쎯参从特쎯	-10.2886
交度	-10.2887
常这委쎯常处服쎯	-10.2888
常保城쎯常处服쎯	-10.289
常型美쎯常校究쎯器过处쎯	-10.2893
器里提쎯常得究쎯	-10.2893
交这安쎯常校基쎯参美计쎯	-10.2896
标关提쎯	-10.2897
常处立쎯常师安쎯	-10.2898
交这级쎯经쎯化쎯交者育쎯	-10.29
参质十쎯交这目쎯	-10.29
交质育쎯交最场쎯	-10.2904
器色提쎯	-10.2906
常二村쎯常外信쎯	-10.2908
参形计쎯参形外쎯常各间쎯交特处쎯	-10.2912
常特目쎯	-10.2913
交这得쎯器得里쎯	-10.2914
常质网쎯农信信쎯单度重쎯	-10.2915
农网各쎯常型安쎯	-10.2917
常信企쎯常型安쎯	-10.2917
经쎯体쎯月쎯建쎯常表口쎯	-10.292
常立统쎯	-10.2923
交他得쎯交者育쎯交这应쎯	-10.2924
交育	-10.2925
参最企쎯交度式쎯	-10.2925
器城过쎯常型式쎯	-10.2926
参美计쎯参师表쎯参重表쎯	-10.2926
常广	-10.2926
常资应쎯常二道쎯参美计쎯	-10.2928
常道级쎯参最究쎯	-10.2928
全쎯全쎯全쎯	-10.293
交这级쎯建쎯科쎯交者育쎯	-10.293
导计过쎯	-10.2931
交统网쎯交路企쎯	-10.2938
常	-10.2943
农形十쎯器口广쎯	-10.2944
标村米쎯	-10.2944
交而这쎯参口服쎯	-10.2945
器路企쎯农表师쎯	-10.2947
器而	-10.2947
农形质쎯器度海쎯	-10.2947
交由形쎯	-10.2949
器安师쎯常质究쎯	-10.2951
参组形쎯器各色쎯	-10.2954
单度程쎯标米他쎯	-10.2954
常提外쎯参式村쎯	-10.2957
常从度쎯交十立쎯	-10.2958
交者十쎯器处应쎯	-10.2958
农从他쎯器师得쎯	-10.2962
交目育쎯常级色쎯	-10.2962
交这信쎯参最路쎯	-10.2963
交海外쎯常各美쎯	-10.2964
建쎯化쎯经쎯经쎯	-10.2965
常企育쎯农处这쎯常各型쎯	-10.2967
单度重쎯家쎯建쎯单度程쎯	-10.2968
交这安쎯常校基쎯农道里쎯常网过쎯	-10.297
常里提쎯交这得쎯器各信쎯交特外쎯	-10.2973
农信最쎯常安程쎯	-10.2974
参资型쎯参重里쎯	-10.2974
常这色쎯参重表쎯	-10.2978
农道型쎯农信信쎯	-10.2978
交资数쎯	-10.2979
标形他쎯	-10.2981
常校米쎯	-10.2984
参程路쎯交口形쎯	-10.2986
经쎯体쎯科쎯化쎯常表口쎯	-10.2988
万从海쎯农网过쎯器网保쎯	-10.2989
万从海쎯常而海쎯常表口쎯	-10.2992
器型而쎯	-10.2993
器路场쎯	-10.2995
常师育쎯	-10.2996
农表基쎯交目村쎯农信信쎯常二并쎯	-10.2998
常安程쎯常保保쎯	-10.2999
参形计쎯交级而쎯标过广쎯常级委쎯	-10.3007
器美数쎯	-10.301
交这级쎯长쎯化쎯交者育쎯	-10.3013
常程美쎯常育处쎯	-10.3018
经쎯与쎯之쎯	-10.302
交企形쎯常校金쎯	-10.3023
农信最쎯农道社쎯	-10.3024
常最各쎯	-10.3029
常企育쎯农处这쎯万从保쎯	-10.303
常企育쎯器师信쎯参城质쎯交这得쎯	-10.3032
农道型쎯交应基쎯	-10.3032
交由广쎯常委海쎯器路计쎯交这应쎯	-10.3037
参应应쎯长쎯	-10.3039
交基育쎯交服程쎯	-10.304
常级委쎯交间目쎯	-10.3041
交企企쎯常外目쎯常这究쎯	-10.3042
单度重쎯家쎯常这广쎯	-10.3042
标度师쎯交师十쎯	-10.3046
标资得쎯	-10.3047
参社程쎯参计场쎯	-10.3053
参形过쎯农表金쎯	-10.3054
常色师쎯	-10.3058
交场级쎯标他统쎯	-10.3059
标目	-10.3059
常型式쎯参信提쎯	-10.3061
标米他쎯参里师쎯交数组쎯器重统쎯	-10.3063
交金二쎯参保各쎯	-10.3063
参社者쎯常二并쎯	-10.3064
农从型쎯常各由쎯	-10.3065
常网海쎯	-10.3068
常资道쎯常间十쎯	-10.307
常型米쎯农信信쎯	-10.3076
器级应쎯	-10.3083
参统城쎯标度师쎯	-10.3091
农表提쎯州企쎯	-10.3092
农道校쎯标过广쎯	-10.3097
交质服쎯器各广쎯	-10.3099
万从海쎯常色前쎯交他得쎯	-10.3099
器城级쎯	-10.31
常质委쎯常二统쎯交重金쎯农表资쎯	-10.3101
标过广쎯标数网쎯	-10.3102
农道型쎯常表口쎯	-10.3104
科쎯常表口쎯	-10.3104
农道安쎯器网外쎯	-10.3104
交而这쎯	-10.3105
交处	-10.3109
农道社쎯器外社쎯参计场쎯交目村쎯	-10.3109
参式村쎯参式村쎯标数网쎯	-10.3112
器安并쎯器社师쎯参式色쎯常二企쎯	-10.3113
万从海쎯常安者쎯	-10.3114
参者数쎯	-10.312
常企广쎯常型式쎯	-10.3122
常服天쎯	-10.3123
农处网쎯参最广쎯参美计쎯	-10.3124
器基度쎯交场统쎯	-10.3126
参师表쎯参式安쎯	-10.3129
器二外쎯	-10.3131
交目里쎯	-10.314
交师村쎯	-10.3144
常外信쎯参师级쎯交者场쎯标者口쎯	-10.3148
常色前쎯器得形쎯农信质쎯	-10.315
参最路쎯农网基쎯	-10.3152
常村级쎯参质色쎯	-10.3153
农道里쎯农道立쎯	-10.3155
常安过쎯常表口쎯	-10.3158
器校前쎯交型关쎯	-10.3158
建쎯化쎯化쎯长쎯	-10.3159
交道并쎯	-10.3162
标数外쎯交最网쎯常信这쎯	-10.3164
常保间쎯常级色쎯	-10.3164
器网间쎯器处处쎯	-10.3168
器师统쎯交由处쎯	-10.3169
万从海쎯农信型쎯标度美쎯	-10.3172
常二海쎯交特表쎯	-10.3173
万从美쎯单度校쎯	-10.3175
农道这쎯器质间쎯常道重쎯	-10.318
器校关쎯	-10.3183
常各十쎯农形并쎯	-10.3184
常而级쎯交金从쎯	-10.3186
农信级쎯	-10.3186
参口米쎯器师统쎯	-10.319
经쎯长쎯化쎯	-10.3191
参最前쎯交里型쎯	-10.3195
农信质쎯建쎯化쎯经쎯化쎯常表口쎯	-10.3201
器度过쎯常得究쎯	-10.3201
农道社쎯器基海쎯交最网쎯交目村쎯	-10.3203
参美计쎯交数组쎯常里提쎯	-10.3203
万从海쎯参质色쎯农道信쎯	-10.3205
导村基쎯	-10.3205
常型美쎯常表口쎯参美计쎯	-10.3208
标组外쎯	-10.3208
化쎯与쎯建쎯	-10.3208
农形育쎯农道十쎯参各度쎯参式色쎯	-10.3213
农处立쎯常委资쎯	-10.3214
参式村쎯常里提쎯参金最쎯参天场쎯	-10.3216
农道立쎯农道美쎯常海特쎯	-10.3217
常处服쎯交级而쎯农信委쎯	-10.3218
器信米쎯标米他쎯	-10.3218
全쎯之쎯	-10.3222
常质委쎯农形并쎯	-10.3223
标信究쎯	-10.3224
导度这쎯农道师쎯	-10.3224
器资海쎯	-10.3226
器城究쎯	-10.3228
经쎯体쎯设쎯之쎯常表口쎯	-10.3231
化쎯与쎯长쎯	-10.3234
农形育쎯常资场쎯	-10.3235
器城特쎯常海信쎯	-10.3237
农道度쎯标基表쎯	-10.324
常型特쎯常处服쎯	-10.324
农网者쎯参式色쎯	-10.3241
器度程쎯农信信쎯	-10.3244
交关色쎯常委组쎯	-10.3247
常组	-10.3248
建쎯化쎯化쎯月쎯	-10.3251
经쎯体쎯月쎯月쎯常表口쎯	-10.3252
交级而쎯农信信쎯	-10.3254
常资应쎯常二道쎯交级而쎯参米十쎯	-10.3254
参式师쎯交师网쎯	-10.3254
常这色쎯农道校쎯	-10.3257
器得里쎯标究由쎯	-10.3258
常型美쎯常表口쎯交目育쎯	-10.3259
标重各쎯交最网쎯参从特쎯参金程쎯	-10.3261
常资色쎯常企间쎯	-10.3262
参最路쎯常处前쎯单度校쎯	-10.3265
交口者쎯常外度쎯万从海쎯	-10.3266
常道道쎯器式程쎯参美计쎯	-10.3271
交级网쎯标者口쎯	-10.3272
交数色쎯常安程쎯	-10.3277
参这程쎯常道重쎯	-10.3279
交场海쎯	-10.3283
常企口쎯标形质쎯	-10.3283
交他得쎯农道度쎯标程立쎯	-10.3283
导度这쎯导度目쎯	-10.3285
标度最쎯	-10.3286
参美计쎯常处前쎯常立安쎯	-10.3286
参美计쎯常资由쎯参由形쎯	-10.3289
农形校쎯常型天쎯	-10.3289
农城广쎯	-10.3289
农处这쎯交保统쎯	-10.3292
参米究쎯	-10.3295
器各型쎯	-10.3296
交重究쎯	-10.3296
标保海쎯	-10.3301
交者场쎯常度组쎯	-10.3303
常二村쎯器路企쎯	-10.3304
交由数쎯器式计쎯	-10.3306
交质广쎯常外信쎯参美计쎯	-10.3308
常级委쎯农从美쎯	-10.331
常资前쎯农信式쎯常资美쎯单度重쎯	-10.3311
器色里쎯	-10.3314
器并程쎯	-10.3314
标最资쎯常委资쎯	-10.3316
常信企쎯参委组쎯	-10.3319
交保口쎯常型美쎯参美计쎯	-10.3321
农道师쎯常保处쎯	-10.3321
常重广쎯	-10.3323
交路外쎯	-10.3324
参十里쎯	-10.3327
标究由쎯农表而쎯常里提쎯标组服쎯	-10.333
参美计쎯农道度쎯交师度쎯	-10.3336
常前数쎯参质色쎯	-10.3337
常二特쎯常城者쎯农信委쎯	-10.3341
交校路쎯	-10.3342
农道度쎯常目者쎯	-10.3344
交城由쎯标者广쎯	-10.3347
交基并쎯	-10.3347
器路色쎯常而村쎯	-10.3347
标这	-10.3352
交特色쎯常海信쎯	-10.3353
月쎯教쎯	-10.3354
标目服쎯参式得쎯经쎯	-10.3363
常级委쎯农信米쎯	-10.3364
农道度쎯参组城쎯	-10.3367
农道度쎯农形并쎯	-10.3367
标并质쎯交过资쎯	-10.3367
经쎯体쎯机쎯经쎯常表口쎯	-10.3369
常这广쎯单度校쎯	-10.3371
交式	-10.3372
交程里쎯	-10.3373
器过信쎯	-10.3374
标关目쎯	-10.3374
常安这쎯	-10.3375
交各企쎯	-10.3375
常道处쎯	-10.3384
常各间쎯农城十쎯	-10.3387
农信式쎯常立程쎯参前形쎯常间十쎯	-10.3387
交得二쎯交者育쎯	-10.3392
常型式쎯标资关쎯常信者쎯	-10.3393
农道度쎯常前重쎯	-10.3395
器村	-10.3397
交最得쎯农形他쎯	-10.3397
常前度쎯标过广쎯	-10.3399
与쎯经쎯建쎯	-10.3404
参保村쎯常得究쎯	-10.3405
动쎯经쎯	-10.3408
器信米쎯农道校쎯	-10.3413
四	-10.3415
交间程쎯农道信쎯	-10.3416
家쎯农信式쎯常立程쎯	-10.3421
农道形쎯农形形쎯单度重쎯	-10.3421
交目而쎯器口广쎯	-10.3421
交海基쎯	-10.3424
交广基쎯常目者쎯	-10.3425
交这级쎯经쎯科쎯交者育쎯	-10.3428
交保网쎯	-10.3428
农信米쎯	-10.343
器处广쎯	-10.3435
交口关쎯	-10.3436
常式最쎯常村他쎯单度程쎯	-10.3437
常委关쎯标组天쎯	-10.3438
交安数쎯	-10.3444
器式并쎯标外校쎯万从美쎯	-10.3447
交口形쎯交度式쎯	-10.3447
器度过쎯器组村쎯	-10.3454
农处立쎯标数网쎯	-10.3455
常型式쎯农道立쎯常里提쎯常质委쎯	-10.3456
农道里쎯常型各쎯常资美쎯交金基쎯	-10.3457
参基米쎯	-10.346
万从海쎯交这度쎯常而质쎯	-10.3462
参各基쎯参而委쎯常企育쎯农处这쎯	-10.3466
单度十쎯常关海쎯单度校쎯	-10.3466
农信质쎯建쎯化쎯化쎯体쎯常表口쎯	-10.3468
交度形쎯农信信쎯常二并쎯	-10.3469
经쎯体쎯设쎯经쎯常表口쎯	-10.347
标形	-10.3473
常委资쎯常型特쎯	-10.3474
交这级쎯经쎯建쎯交者育쎯	-10.3475
农道安쎯常色村쎯	-10.3477
农道安쎯常级色쎯	-10.348
参最广쎯农处这쎯	-10.3483
交金特쎯	-10.3483
常资口쎯常形信쎯	-10.3484
交组广쎯	-10.3485
常保口쎯参形数쎯	-10.3485
交特天쎯	-10.3486
参者资쎯农信信쎯	-10.3487
万从海쎯交他得쎯交海外쎯	-10.3491
农表提쎯标组服쎯	-10.3493
经쎯体쎯设쎯建쎯常表口쎯	-10.3493
常保处쎯参质十쎯	-10.3494
参形立쎯交组场쎯	-10.3495
农道校쎯标目服쎯	-10.3496
参最究쎯参而委쎯	-10.3496
参数社쎯	-10.3498
交安究쎯常型前쎯	-10.3499
交他得쎯农道度쎯农处安쎯	-10.3501
农网各쎯交最表쎯	-10.3505
经쎯体쎯建쎯体쎯常表口쎯	-10.3507
常从究쎯常里而쎯	-10.3511
万从海쎯常二级쎯参式色쎯	-10.3512
农从金쎯交计究쎯常组广쎯	-10.3515
参质十쎯常保处쎯	-10.3519
农道信쎯农道形쎯器提程쎯	-10.3519
参究育쎯器得委쎯农信式쎯交目过쎯	-10.352
常型	-10.3521
器重海쎯器重型쎯	-10.3523
参美计쎯常委资쎯常各表쎯	-10.3524
交道金쎯标程立쎯	-10.3526
交保口쎯交他得쎯	-10.3529
常各程쎯常型二쎯	-10.3529
常外信쎯器信米쎯	-10.3533
交海外쎯参美计쎯交他得쎯	-10.3534
交究而쎯农道度쎯	-10.3535
交路企쎯常统道쎯	-10.3538
器口社쎯	-10.3539
常而道쎯常从数쎯	-10.354
常色村쎯交数色쎯交色村쎯交者二쎯	-10.3541
万从海쎯器网他쎯交这师쎯	-10.3545
交由计쎯	-10.3545
交度社쎯常资处쎯	-10.3548
器计城쎯	-10.355
交他质쎯参基各쎯	-10.3554
单度重쎯器网组쎯参式安쎯	-10.3555
交由广쎯常资育쎯	-10.3561
系쎯	-10.3566
常企城쎯	-10.3569
常道级쎯器海过쎯	-10.3584
常前间쎯交度式쎯	-10.3585
常提表쎯	-10.3587
农从间쎯	-10.3588
交特色쎯常资口쎯	-10.3589
标资安쎯交这师쎯	-10.3592
参育目쎯	-10.3595
交究而쎯参式安쎯	-10.3599
参十各쎯	-10.3601
器师信쎯交这得쎯常里提쎯标组服쎯	-10.3603
参米特쎯	-10.3603
交特色쎯标服特쎯	-10.3605
器城过쎯标米他쎯	-10.3606
器网究쎯	-10.3609
常质十쎯参从天쎯	-10.3609
器城过쎯常型美쎯	-10.3612
万从师쎯单度重쎯家쎯	-10.3616
参信得쎯交最场쎯常资育쎯	-10.3617
参数组쎯农道十쎯	-10.3617
交十特쎯	-10.3624
交程色쎯	-10.363
参提表쎯	-10.3632
参广质쎯常校基쎯	-10.3632
参最究쎯常得从쎯常道级쎯单度重쎯	-10.3633
交口形쎯常校广쎯万从海쎯	-10.3635
农从他쎯器场校쎯	-10.3637
标数外쎯农处安쎯农信质쎯	-10.3639
常道重쎯农道里쎯常网过쎯	-10.3643
常特师쎯	-10.3644
交他城쎯参型信쎯常前二쎯	-10.3646
参统城쎯常网过쎯	-10.3646
交企十쎯	-10.3646
万从海쎯农道这쎯	-10.3646
交服得쎯	-10.3653
参最信쎯	-10.3659
器社师쎯	-10.366
常育由쎯常里天쎯	-10.3661
器各色쎯州企쎯	-10.3661
农信信쎯交色村쎯交由数쎯标组服쎯	-10.3662
交度质쎯农表级쎯	-10.3664
万从海쎯常处服쎯交级而쎯	-10.3667
标立资쎯	-10.3669
单度重쎯家쎯常资应쎯常二道쎯	-10.3671
交他得쎯参形二쎯	-10.3672
常米	-10.3673
参从特쎯常二企쎯	-10.3674
器资校쎯	-10.3674
交目二쎯	-10.3675
交数资쎯标美这쎯	-10.3677
交目育쎯参美计쎯	-10.3677
常级米쎯常而安쎯	-10.368
交这级쎯建쎯机쎯交者育쎯	-10.368
交而资쎯交十海쎯	-10.3682
万从海쎯交金表쎯交安各쎯	-10.3686
参最究쎯参师天쎯常里提쎯	-10.3689
参从特쎯常师式쎯	-10.3694
常级场쎯器安得쎯	-10.3695
出쎯多쎯	-10.3695
器口得쎯常处形쎯交师式쎯器基海쎯	-10.3696
常外信쎯交从最쎯	-10.3701
交特色쎯标统这쎯	-10.3703
参重表쎯常外形쎯	-10.3706
万从美쎯长쎯	-10.371
参级路쎯	-10.3713
常安型쎯	-10.3713
万从级쎯常质究쎯	-10.3719
经쎯体쎯设쎯设쎯常表口쎯	-10.372
农道度쎯常得表쎯	-10.3723
农道安쎯常委安쎯	-10.3725
常式最쎯交师他쎯	-10.3729
交由	-10.3732
农信十쎯万从海쎯	-10.3735
参并	-10.3738
交信服쎯	-10.3739
常十而쎯	-10.3739
化쎯州色쎯	-10.3739
标提特쎯常信这쎯	-10.3743
农信米쎯交这师쎯	-10.3743
常委资쎯交这师쎯	-10.3743
参计校쎯交质育쎯	-10.3743
常网过쎯参程路쎯	-10.3748
参统育쎯	-10.3752
常色从쎯农信美쎯	-10.3754
交这应쎯农表提쎯交他得쎯	-10.3754
常色村쎯标外二쎯	-10.3756
交表	-10.3757
交海村쎯	-10.3758
导村	-10.3758
标资安쎯常型外쎯	-10.3761
交级二쎯交保统쎯	-10.3763
交这师쎯交者场쎯	-10.3763
交最网쎯常安二쎯常式最쎯常村他쎯	-10.3763
参师表쎯常各美쎯	-10.3763
标美	-10.3771
参形究쎯交统形쎯	-10.3773
常而安쎯常里者쎯	-10.3774
常色村쎯交数色쎯	-10.3774
农信信쎯常型式쎯农形并쎯器基广쎯	-10.3774
农从美쎯器各基쎯常道级쎯	-10.3775
常校金쎯参保究쎯	-10.3776
农信网쎯常资过쎯万从海쎯	-10.3777
农表究쎯常二得쎯	-10.3777
交组得쎯参重表쎯	-10.3777
交保色쎯万从美쎯导度这쎯	-10.3778
经쎯体쎯月쎯长쎯常表口쎯	-10.3784
器企得쎯参信网쎯	-10.3785
器式委쎯器式关쎯	-10.3785
万从海쎯交二而쎯标米他쎯	-10.3788
交程而쎯交度特쎯	-10.379
建쎯化쎯经쎯设쎯常表口쎯	-10.3791
常关海쎯常资场쎯农形特쎯	-10.3795
农道师쎯参式安쎯	-10.3795
常师安쎯器信米쎯农道信쎯	-10.3797
标外外쎯器口里쎯	-10.3798
器各基쎯常级关쎯参最究쎯器重统쎯	-10.3798
常提各쎯	-10.3799
万从美쎯设쎯	-10.3799
农信信쎯标者口쎯	-10.3799
标数网쎯交他育쎯	-10.38
常二社쎯器提程쎯	-10.38
常二并쎯常城计쎯	-10.3803
农从美쎯农从美쎯常村他쎯万从海쎯	-10.3805
经쎯体쎯设쎯机쎯常表口쎯	-10.3806
农处立쎯标外安쎯	-10.3809
标究由쎯标服村쎯	-10.3811
经쎯与쎯科쎯	-10.3812
标重前쎯	-10.3812
农城路쎯	-10.3813
常资应쎯参保校쎯	-10.3814
参保道쎯常资由쎯参美计쎯	-10.3815
器得间쎯参最究쎯	-10.3816
器口服쎯常得海쎯	-10.3817
交特表쎯标关级쎯	-10.3817
器各基쎯标外二쎯	-10.3821
常最前쎯参师外쎯	-10.3826
常质究쎯交目育쎯	-10.3829
器各天쎯农处金쎯	-10.3829
交师应쎯常企间쎯	-10.383
农道立쎯农道美쎯常式最쎯常村他쎯	-10.3832
农网目쎯交校型쎯常安数쎯农处安쎯	-10.3837
常由基쎯	-10.3838
器得师쎯	-10.384
常质形쎯农道特쎯	-10.384
参海口쎯	-10.384
参形委쎯器资形쎯	-10.3848
农表十쎯常里而쎯	-10.3849
农处这쎯参师天쎯	-10.3849
常安由쎯常二得쎯单度重쎯	-10.385
农表十쎯常型计쎯	-10.385
器式重쎯交路十쎯	-10.3851
方쎯化쎯化쎯化쎯	-10.3853
农道十쎯器城特쎯	-10.3858
常企各쎯常从重쎯	-10.3858
常信最쎯参最广쎯农信质쎯	-10.3859
经쎯体쎯化쎯	-10.386
交并他쎯	-10.386
常保处쎯标他统쎯	-10.3861
参最他쎯器安师쎯	-10.3862
器网村쎯农形并쎯	-10.3863
分쎯建쎯	-10.3863
常级组쎯交他得쎯	-10.3863
器这基쎯	-10.3863
常统者쎯农处安쎯	-10.3866
交这级쎯建쎯长쎯交者育쎯	-10.3866
农道度쎯参由形쎯常级者쎯	-10.387
交道得쎯常二并쎯	-10.3871
交他城쎯常安基쎯	-10.3871
常型数쎯	-10.3872
交基海쎯	-10.3874
万从海쎯交级而쎯参米十쎯农信质쎯	-10.3876
常企提쎯常二由쎯万从海쎯	-10.3878
标服计쎯交路十쎯	-10.3879
单度重쎯常资广쎯交目村쎯	-10.3882
标美十쎯	-10.3885
农道这쎯常安者쎯农信美쎯	-10.3885
器各广쎯	-10.3887
交目师쎯	-10.3888
经쎯方쎯	-10.3888
常色最쎯州企쎯	-10.3889
参程海쎯交这广쎯	-10.3893
实쎯	-10.3895
交间米쎯	-10.3896
参米间쎯器路保쎯	-10.3896
常安质쎯常安者쎯	-10.3897
器程海쎯农道美쎯交校度쎯交这得쎯	-10.3906
万从海쎯交他得쎯农道度쎯交师度쎯	-10.3907
农从他쎯参式度쎯参美计쎯	-10.3909
标度校쎯	-10.3911
常型美쎯常色村쎯	-10.3911
常资应쎯标外海쎯万从海쎯	-10.3912
农道形쎯器提程쎯交这师쎯	-10.3919
常海特쎯参究由쎯	-10.3924
常而质쎯农形形쎯	-10.3924
农道外쎯农信信쎯	-10.3926
标外校쎯交最城쎯	-10.3932
建쎯方쎯	-10.3934
常道海쎯器资校쎯	-10.3935
常数委쎯常这信쎯	-10.3936
交特色쎯常安质쎯	-10.3937
之쎯经쎯	-10.394
交关型쎯	-10.3943
常式	-10.3943
参保村쎯交质式쎯	-10.3944
器质统쎯器校前쎯	-10.3945
农从提쎯交数提쎯	-10.3946
标重并쎯农表级쎯	-10.3948
常米程쎯	-10.3949
常资美쎯常式最쎯常式最쎯常村他쎯	-10.3951
标并质쎯常村由쎯	-10.3951
交最得쎯标他究쎯	-10.3956
参师表쎯常级米쎯交他得쎯	-10.3957
主쎯主쎯	-10.3959
万从海쎯常二级쎯常而安쎯	-10.396
交道资쎯州企쎯	-10.3961
器特	-10.3961
参由形쎯常级者쎯农信式쎯常立程쎯	-10.3962
参美计쎯农道度쎯交应城쎯	-10.3962
交场统쎯常质十쎯	-10.3962
参形委쎯器二海쎯	-10.3964
常型式쎯常型米쎯	-10.3969
器究	-10.3969
常安前쎯常各由쎯	-10.3973
参得各쎯	-10.3974
常型计쎯万从海쎯	-10.3977
常网	-10.3978
交这度쎯常色二쎯	-10.3981
交校米쎯	-10.3982
标米他쎯常前前쎯	-10.3983
参美计쎯参形从쎯常而级쎯交度式쎯	-10.3984
参最究쎯交口形쎯常这广쎯	-10.3986
建쎯化쎯化쎯体쎯	-10.3986
农从程쎯农道美쎯参美计쎯	-10.3986
参处	-10.3987
农从程쎯农道美쎯参各基쎯参而委쎯	-10.3988
标服他쎯交目而쎯	-10.3993
常二统쎯农道校쎯	-10.3994
交由广쎯常委海쎯器路计쎯标外村쎯	-10.3997
农道信쎯交金道쎯常网过쎯	-10.3997
交师度쎯交这师쎯参美计쎯	-10.3998
参从道쎯	-10.3999
常里提쎯单度程쎯	-10.4
常级委쎯交金基쎯	-10.4001
交这师쎯交师度쎯	-10.4002
农信信쎯参城型쎯	-10.4002
器校得쎯参师外쎯	-10.4002
农道度쎯交师表쎯	-10.4002
器程最쎯标重提쎯	-10.4009
活	-10.4011
建쎯化쎯化쎯设쎯	-10.4017
常质	-10.4018
品쎯经쎯	-10.402
常特这쎯常师式쎯	-10.4025
交十立쎯常前数쎯	-10.4026
农从美쎯常师得쎯农道形쎯农形形쎯	-10.4027
标提度쎯	-10.403
交十立쎯	-10.4032
交海信쎯	-10.4035
参式村쎯常里提쎯常各场쎯	-10.4037
常从信쎯器色过쎯	-10.404
农道校쎯参信式쎯	-10.4042
农道里쎯常质究쎯	-10.4043
器道	-10.4043
万从师쎯农道信쎯	-10.4043
参形二쎯器而育쎯参而委쎯常网路쎯	-10.4044
器重过쎯	-10.4045
常而质쎯常安米쎯	-10.4047
常二提쎯交这师쎯	-10.4047
导	-10.4051
参师天쎯农道美쎯	-10.4051
经쎯之쎯科쎯	-10.4053
常二重쎯常校金쎯标目天쎯常村处쎯	-10.4053
常保处쎯参米十쎯	-10.4055
参海社쎯器重师쎯	-10.4056
交组各쎯常二校쎯	-10.4058
参信式쎯常级米쎯	-10.4058
器外	-10.4062
农表基쎯交目村쎯	-10.4063
化쎯与쎯科쎯	-10.4063
常里提쎯农处安쎯	-10.4065
交度质쎯交金企쎯	-10.4066
常这广쎯农信质쎯	-10.4067
参美计쎯常企育쎯农处这쎯	-10.4067
参师天쎯农处立쎯	-10.4069
参过提쎯	-10.4071
器基最쎯	-10.4076
农从金쎯标度关쎯	-10.4081
参保道쎯农网基쎯	-10.409
常委资쎯参美计쎯	-10.409
交色究쎯	-10.4092
农从而쎯	-10.4093
交服者쎯	-10.4093
机쎯经쎯	-10.4093
农道度쎯交师度쎯	-10.4096
标他统쎯常城基쎯	-10.4096
农信型쎯参数海쎯	-10.4099
文쎯方쎯	-10.41
常这广쎯交数级쎯常校保쎯农信质쎯	-10.4101
交目村쎯常信计쎯	-10.4102
农道形쎯农信信쎯常资应쎯	-10.4111
交得二쎯农道度쎯农道社쎯	-10.4113
交程而쎯	-10.4113
常里服쎯常里而쎯	-10.4113
常保色쎯	-10.4115
交里型쎯常型特쎯	-10.4117
月쎯家쎯	-10.4119
交这级쎯建쎯体쎯交者育쎯	-10.4124
农信关쎯参保道쎯	-10.4125
参保村쎯参各基쎯	-10.4136
农信委쎯单度重쎯	-10.4137
常保信쎯农处立쎯	-10.414
参最究쎯农信式쎯参信网쎯	-10.4141
交里	-10.4141
交统式쎯	-10.4142
常各并쎯常道过쎯	-10.4146
参最米쎯	-10.4147
参应最쎯器各色쎯交这应쎯	-10.4147
器并	-10.4147
全쎯月쎯	-10.4153
单度程쎯常色二쎯	-10.4158
参城质쎯器式重쎯	-10.4158
经쎯与쎯设쎯	-10.416
参最企쎯农信信쎯	-10.4161
交立	-10.4163
常处服쎯交级而쎯参美计쎯	-10.4165
器式重쎯常网路쎯	-10.4167
之쎯化쎯经쎯文쎯多쎯院쎯文쎯多쎯	-10.4171
经쎯体쎯长쎯机쎯常表口쎯	-10.4171
参米间쎯	-10.4174
交者广쎯	-10.4176
交这级쎯建쎯经쎯交者育쎯	-10.4177
交道天쎯标提广쎯	-10.4178
经쎯设쎯化쎯	-10.4179
交这级쎯月쎯交者育쎯	-10.4181
标育色쎯交从最쎯	-10.4181
交得资쎯	-10.4182
器网外쎯交形型쎯	-10.4182
常资十쎯交特得쎯	-10.4183
参而过쎯常村他쎯	-10.4183
常安质쎯常海者쎯	-10.4185
标统安쎯	-10.4185
建쎯化쎯经쎯建쎯	-10.4192
参金最쎯参天场쎯常企育쎯农处这쎯	-10.4195
常海者쎯常各十쎯	-10.4196
常安程쎯农道过쎯	-10.4198
农道十쎯标过广쎯	-10.4199
交色道쎯器网这쎯	-10.4205
交应式쎯参城质쎯	-10.4206
器间信쎯交者十쎯	-10.421
经쎯化쎯全쎯	-10.4211
参广质쎯常校基쎯常前度쎯	-10.4212
常校金쎯农形育쎯	-10.4214
常外里쎯	-10.4217
农从美쎯常师得쎯农从美쎯标数网쎯	-10.422
经쎯化쎯化쎯常资十쎯	-10.4228
交过资쎯交校育쎯	-10.4231
常天美쎯常式形쎯	-10.4233
单度重쎯常级委쎯常道过쎯农信质쎯	-10.4235
交校表쎯	-10.4238
交十委쎯	-10.4239
农道度쎯交应城쎯	-10.4239
常表由쎯常质网쎯	-10.424
农道度쎯标程立쎯	-10.4242
交者场쎯交这究쎯参美计쎯	-10.4243
交得二쎯交应基쎯	-10.4254
农网基쎯器社师쎯	-10.4255
参目并쎯	-10.4256
常统程쎯单度重쎯	-10.4256
交数提쎯	-10.4256
器基应쎯	-10.4257
常外信쎯常立程쎯	-10.4257
常师安쎯常城度쎯	-10.4258
参形天쎯	-10.4261
交金者쎯	-10.4262
经쎯之쎯月쎯	-10.4265
交提	-10.4265
参这	-10.4267
交重师쎯	-10.4268
文쎯单度重쎯	-10.4269
器企得쎯万从海쎯	-10.4269
农表十쎯农道里쎯	-10.4271
经쎯体쎯设쎯	-10.4277
单度重쎯器度海쎯	-10.4279
常网者쎯单度十쎯	-10.428
农表而쎯常组广쎯	-10.4283
标他统쎯交校型쎯	-10.4284
常最各쎯常而质쎯交这安쎯常校基쎯	-10.4287
交由数쎯常级场쎯	-10.4288
参美计쎯交金道쎯常网过쎯	-10.4289
常安者쎯交路企쎯	-10.4294
单度重쎯交道资쎯	-10.4295
常而究쎯	-10.4299
家쎯设쎯	-10.43
参师	-10.4301
参形育쎯	-10.4303
常而安쎯常各场쎯	-10.4303
农道信쎯农道里쎯常保处쎯	-10.4303
参式他쎯常得委쎯	-10.4305
农信信쎯交色最쎯	-10.4306
万从海쎯参质色쎯常这广쎯	-10.4306
交这度쎯交者天쎯参美计쎯	-10.431
标形最쎯	-10.4312
导委关쎯	-10.4312
交路企쎯常安者쎯参这程쎯	-10.4313
家쎯参最广쎯交由数쎯	-10.4314
常程	-10.4315
标信	-10.4316
常提级쎯常提级쎯	-10.4317
交口形쎯器企过쎯	-10.4318
单度重쎯建쎯化쎯化쎯科쎯常表口쎯	-10.4319
常型前쎯器口育쎯	-10.4321
常安由쎯常色委쎯	-10.4323
农道特쎯参数海쎯农道校쎯	-10.4327
参美计쎯参统城쎯参育间쎯	-10.4327
交海特쎯	-10.4328
参得各쎯参而过쎯	-10.4331
家쎯长쎯与쎯	-10.4331
常道而쎯	-10.4332
交质育쎯常城资쎯	-10.4333
常而海쎯常而安쎯	-10.4334
万从海쎯参最美쎯器外由쎯	-10.4337
标应	-10.4337
万从海쎯交他得쎯农道度쎯参式安쎯	-10.4337
交十保쎯参最究쎯	-10.4338
万表间쎯	-10.434
器网组쎯交金企쎯参美计쎯	-10.4342
参组处쎯农信村쎯	-10.4342
交路立쎯常信提쎯	-10.4343
交这级쎯经쎯体쎯交者育쎯	-10.4347
常资广쎯交特色쎯参美计쎯	-10.4348
农城保쎯参最路쎯	-10.4352
交特外쎯器程最쎯	-10.4354
交最网쎯交统形쎯标过广쎯	-10.4355
常级目쎯参信式쎯农道里쎯常里提쎯	-10.4356
常从信쎯常海特쎯	-10.4363
常外信쎯参美计쎯	-10.4364
交场重쎯交特组쎯	-10.4365
参金程쎯常型口쎯	-10.4365
常质网쎯参信式쎯	-10.4365
标过广쎯标过广쎯标数网쎯	-10.4367
参数海쎯标目服쎯	-10.4367
单度重쎯交这师쎯器度数쎯常这色쎯	-10.4367
器基育쎯常资资쎯	-10.4368
常资米쎯常表口쎯	-10.4368
参师路쎯	-10.4372
参美计쎯标者各쎯标服他쎯	-10.4377
交级企쎯常间十쎯	-10.4379
万从海쎯常质究쎯	-10.4381
常前前쎯标数外쎯	-10.4385
常师得쎯交数组쎯交质级쎯万从海쎯	-10.4386
常企米쎯	-10.4386
常安者쎯常各十쎯	-10.4389
万从级쎯经쎯体쎯经쎯	-10.439
常资广쎯参式色쎯	-10.4391
常育十쎯	-10.4393
常二村쎯常校广쎯	-10.4394
常型美쎯常表口쎯参最究쎯	-10.4397
农道育쎯器色广쎯	-10.4402
农形并쎯器基广쎯农处这쎯	-10.4404
交统形쎯参而委쎯	-10.4405
交间数쎯	-10.4405
交这级쎯建쎯建쎯交者育쎯	-10.441
与쎯与쎯与쎯家쎯	-10.4411
家쎯单度校쎯	-10.4411
交这级쎯科쎯交者育쎯	-10.4413
常师得쎯交金基쎯标数网쎯	-10.4414
月쎯常级委쎯标关究쎯	-10.4416
交这师쎯万从美쎯	-10.4417
交间计쎯常形信쎯	-10.4418
交从最쎯常育二쎯	-10.4418
导度目쎯万从级쎯	-10.442
交场级쎯交程得쎯	-10.442
交度数쎯	-10.4421
常资师쎯交形村쎯	-10.4421
常这色쎯常道提쎯	-10.4421
单度重쎯常处立쎯	-10.4422
交数组쎯参形过쎯	-10.4422
交校度쎯交这得쎯单度程쎯	-10.4422
标提	-10.4423
器网目쎯	-10.4425
万从程쎯导度目쎯	-10.4426
交由数쎯常城十쎯交由数쎯器式计쎯	-10.443
常资由쎯标最各쎯	-10.4431
常处立쎯农形校쎯	-10.4434
标天前쎯常校广쎯	-10.4437
万从海쎯交海外쎯	-10.4439
常外	-10.4441
器网他쎯常二得쎯农形育쎯	-10.4441
器育计쎯	-10.4443
经쎯体쎯设쎯长쎯常表口쎯	-10.4447
常从表쎯交度式쎯	-10.445
万从海쎯标外外쎯参最广쎯	-10.4451
常数委쎯常究质쎯	-10.4452
器校目쎯标信形쎯	-10.4454
标米他쎯参里师쎯常里提쎯交金基쎯	-10.4454
常委资쎯常各表쎯常海资쎯交十应쎯	-10.4457
常究金쎯	-10.4461
参式村쎯常里提쎯农道质쎯	-10.4462
常海信쎯常级米쎯	-10.4462
农道这쎯器质间쎯	-10.4462
常色信쎯常得道쎯万从美쎯	-10.4463
参处村쎯标基路쎯	-10.4465
农形形쎯器程海쎯	-10.4467
器组	-10.4468
常处从쎯	-10.4469
常得从쎯常从表쎯	-10.4469
交这度쎯器网村쎯	-10.4472
器而安쎯	-10.4474
常式最쎯常村他쎯万从海쎯	-10.4475
农道度쎯标服者쎯	-10.4475
农从道쎯	-10.4481
万从海쎯农道十쎯	-10.4482
标提组쎯常村由쎯	-10.4482
先	-10.4482
器城天쎯	-10.4484
交安究쎯农从型쎯	-10.4487
器各型쎯常各美쎯	-10.4491
标计	-10.4495
常保保쎯常村广쎯	-10.4495
参广质쎯交最场쎯	-10.4501
参服	-10.4505
常各海쎯交数口쎯参美计쎯	-10.4509
常资广쎯器信米쎯	-10.4511
器村者쎯交这师쎯	-10.4512
交这度쎯常育处쎯参美计쎯	-10.4512
参形二쎯交路质쎯参各基쎯参而委쎯	-10.4512
交企由쎯	-10.4516
单度重쎯常提重쎯	-10.4517
标米他쎯器度过쎯	-10.4517
常海社쎯	-10.4518
常海信쎯常委资쎯	-10.452
常海特쎯参美计쎯	-10.452
交信而쎯农信质쎯	-10.4529
器二天쎯器而广쎯	-10.4529
万从海쎯器度海쎯交他得쎯	-10.4534
多쎯家쎯	-10.4535
单度程쎯参组处쎯	-10.4535
参最究쎯农信式쎯常究信쎯常这色쎯	-10.4537
交提委쎯	-10.4538
器路企쎯万从海쎯	-10.4539
参由形쎯交数色쎯	-10.4539
农道安쎯农表资쎯	-10.4541
标育	-10.4541
交场路쎯参保特쎯	-10.4541
农道里쎯常网过쎯单度程쎯	-10.4541
农表究쎯常二米쎯	-10.4541
参保各쎯常处数쎯	-10.4541
交这级쎯建쎯设쎯交者育쎯	-10.4545
交度形쎯常前度쎯	-10.4545
常师统쎯	-10.4546
交路社쎯交从米쎯	-10.4546
器立	-10.4546
常委企쎯常安口쎯	-10.4547
参美计쎯常二他쎯常海特쎯	-10.4549
交目里쎯常企间쎯常道重쎯	-10.455
家쎯时쎯	-10.4552
经쎯化쎯交这级쎯常外信쎯参最究쎯	-10.4553
参美计쎯农从程쎯农道美쎯	-10.4555
设쎯与쎯	-10.4556
器城师쎯参资海쎯	-10.4559
交美重쎯	-10.4561
万从海쎯器城特쎯	-10.4562
万从海쎯常二重쎯常校金쎯农信委쎯	-10.4568
参式色쎯农表十쎯农道信쎯	-10.4568
农道里쎯常色二쎯农从程쎯农道美쎯	-10.457
参处村쎯参形这쎯交道道쎯交级二쎯	-10.457
农道度쎯常从金쎯	-10.4571
常型式쎯常里提쎯交特外쎯常海特쎯	-10.4571
常安前쎯交这信쎯	-10.4572
标美城쎯农形育쎯	-10.4575
常从式쎯	-10.4576
器口并쎯	-10.4576
常型美쎯农道信쎯	-10.458
农信信쎯常型式쎯常道道쎯常式最쎯	-10.4581
常型美쎯常表由쎯交特表쎯参前由쎯	-10.4585
标重度쎯器得企쎯	-10.4585
标米他쎯常前重쎯	-10.4585
农道十쎯标目服쎯	-10.4589
常委统쎯常外形쎯	-10.459
农表目쎯常表口쎯	-10.459
常育质쎯	-10.4595
交得保쎯交由处쎯农道这쎯	-10.4598
常而质쎯交前师쎯农表提쎯州企쎯	-10.4598
常型社쎯常质究쎯	-10.4602
常究表쎯器重统쎯	-10.4602
标组服쎯标数网쎯	-10.4603
交美村쎯	-10.4605
交色最쎯交程得쎯	-10.4607
常二企쎯参信网쎯	-10.4607
农网基쎯交程得쎯交校度쎯交这得쎯	-10.4608
器网这쎯参广十쎯	-10.4609
农信质쎯建쎯化쎯经쎯经쎯常表口쎯	-10.4609
器式计쎯交广基쎯交这度쎯常型式쎯	-10.4612
常色二쎯参形计쎯	-10.4615
标组度쎯	-10.4616
器色过쎯常资育쎯	-10.4616
交这究쎯标者口쎯万从海쎯	-10.4617
常安美쎯常并米쎯常而质쎯	-10.4618
交他得쎯交级村쎯常保处쎯	-10.4619
交色村쎯农网者쎯	-10.4621
交师度쎯交师度쎯标数网쎯	-10.4629
常表服쎯	-10.4632
常里提쎯农道立쎯农道美쎯	-10.4633
常二村쎯参最路쎯	-10.4634
万从级쎯参各度쎯参式色쎯	-10.4634
标度师쎯参最广쎯	-10.4634
器企得쎯单度程쎯	-10.4637
农表过쎯器外由쎯	-10.4639
参表程쎯交各特쎯	-10.464
常海信쎯单度程쎯	-10.4642
器口得쎯参天网쎯	-10.4645
农道师쎯参信式쎯	-10.4645
交企前쎯常二者쎯	-10.465
农信型쎯标度美쎯常型式쎯常里提쎯	-10.4653
农道这쎯器企得쎯	-10.4657
常目提쎯常资十쎯	-10.4657
器数广쎯	-10.4658
标重并쎯农道社쎯	-10.4661
器级社쎯常型天쎯	-10.4663
交二而쎯常外信쎯农信委쎯	-10.4663
农信信쎯交色村쎯农形并쎯器基广쎯	-10.4666
交从重쎯	-10.4668
常从度쎯交色口쎯	-10.4671
体쎯经쎯	-10.4677
农道级쎯	-10.4677
交这最쎯	-10.4679
参形关쎯	-10.4682
农道度쎯农处立쎯常海特쎯	-10.4682
常形信쎯参里村쎯参师天쎯	-10.4683
交度形쎯交他得쎯	-10.4683
常资广쎯标数网쎯	-10.4685
交这级쎯经쎯经쎯交者育쎯	-10.4685
常前	-10.4691
参美外쎯常而质쎯	-10.4694
交二里쎯	-10.4695
农表十쎯器企得쎯	-10.4695
常资应쎯常二道쎯交十育쎯交这师쎯	-10.4697
常保信쎯常各美쎯器路计쎯农信式쎯	-10.47
常资级쎯常而质쎯常这广쎯	-10.47
常安程쎯常里者쎯	-10.4701
器外社쎯常表从쎯	-10.4705
农网目쎯参数组쎯	-10.471
常安者쎯器企得쎯	-10.4711
参过里쎯参级前쎯	-10.4711
器色过쎯交特组쎯	-10.4712
交目育쎯器得口쎯	-10.4716
参从特쎯器村者쎯	-10.4716
参里师쎯标服委쎯常究究쎯	-10.4716
交这级쎯经쎯机쎯交者育쎯	-10.4722
农信型쎯常二师쎯	-10.4723
交最得쎯交关村쎯	-10.4726
参统城쎯常安质쎯	-10.4729
交道资쎯交特色쎯	-10.4732
经쎯农信信쎯	-10.4735
农信式쎯参最究쎯参美计쎯	-10.4739
常这信쎯农道校쎯农处安쎯参处各쎯	-10.4744
农道形쎯常校间쎯	-10.4745
器重服쎯	-10.475
标提特쎯常各场쎯	-10.4751
常安者쎯交他海쎯	-10.4753
参信由쎯参前由쎯	-10.4753
单度重쎯家쎯建쎯与쎯	-10.4754
常师得쎯农道形쎯常道里쎯	-10.4756
交这信쎯交间计쎯交最表쎯标目天쎯	-10.4758
交道资쎯交口程쎯	-10.4761
交他质쎯交这目쎯	-10.4765
交这应쎯常资应쎯常二道쎯	-10.4765
器口服쎯农信式쎯	-10.4766
万从师쎯常关海쎯	-10.4766
器十前쎯交特外쎯常而安쎯	-10.4766
参村间쎯常并米쎯	-10.4769
经쎯化쎯常级委쎯标关究쎯	-10.4773
参式色쎯常二企쎯单度重쎯	-10.4774
参型城쎯农从美쎯农网目쎯标美这쎯	-10.4774
参式他쎯农表提쎯标数网쎯	-10.4779
交立资쎯	-10.478
交他二쎯	-10.478
参数	-10.478
器度由쎯交这信쎯	-10.4783
农道过쎯常表口쎯	-10.4786
器组间쎯	-10.4786
常二得쎯常级委쎯农道信쎯	-10.4787
器式重쎯标究由쎯	-10.4788
标程并쎯	-10.479
经쎯体쎯长쎯设쎯常表口쎯	-10.4791
参最究쎯常式这쎯	-10.4791
万从海쎯参师表쎯常级米쎯交他得쎯	-10.4792
常外信쎯参师级쎯参型城쎯万从美쎯	-10.4795
标程各쎯	-10.4797
参城质쎯常村由쎯	-10.4798
参各度쎯农形十쎯	-10.4799
交计二쎯常型特쎯	-10.48
农信最쎯标外村쎯	-10.4801
参美计쎯标这度쎯交前重쎯	-10.4804
常保保쎯常里并쎯	-10.4806
常道	-10.4807
参过里쎯交色口쎯	-10.4809
交保口쎯农道信쎯	-10.481
标社海쎯	-10.4812
交并数쎯器师统쎯	-10.4812
经쎯体쎯长쎯月쎯常表口쎯	-10.4812
交道道쎯常各服쎯	-10.4813
农从金쎯交师网쎯	-10.4814
农道形쎯农信信쎯	-10.4814
万从海쎯常而质쎯交目育쎯	-10.4816
参金海쎯	-10.4818
常级校쎯参师天쎯	-10.4822
参式村쎯交组各쎯	-10.4824
常型天쎯农处网쎯	-10.4825
常二并쎯交计究쎯	-10.4825
标表资쎯	-10.4825
参形二쎯单度十쎯	-10.4826
常资美쎯参美计쎯	-10.4832
常级保쎯农处这쎯参美计쎯	-10.4833
常统保쎯常前网쎯	-10.4835
标程者쎯农从金쎯	-10.4839
参十而쎯	-10.4841
交最度쎯	-10.4841
交级而쎯参米十쎯农形育쎯交目育쎯	-10.4841
参质得쎯参形数쎯	-10.4844
单度重쎯参最广쎯农信质쎯	-10.4844
常网米쎯交安企쎯	-10.4845
农道校쎯常安外쎯	-10.4847
器口	-10.4849
常这广쎯常保处쎯常委资쎯	-10.4853
农形并쎯交保网쎯	-10.4856
交道目쎯	-10.4857
常这究쎯器前委쎯	-10.4857
单度十쎯交目重쎯常网者쎯	-10.4858
常校目쎯	-10.4862
经쎯体쎯科쎯经쎯常表口쎯	-10.4863
标天应쎯交目育쎯器育网쎯农信美쎯	-10.4866
标过广쎯万从海쎯	-10.4867
农信提쎯参式色쎯	-10.4868
常资道쎯常间十쎯参美计쎯	-10.4869
常组广쎯交目而쎯	-10.4869
参应应쎯农信海쎯交应基쎯	-10.487
交校育쎯常级校쎯	-10.4871
标数网쎯常究质쎯	-10.4873
经쎯建쎯化쎯化쎯	-10.4876
经쎯体쎯长쎯长쎯常表口쎯	-10.4876
交这级쎯体쎯交者育쎯	-10.4879
常型式쎯器外并쎯	-10.4879
常度基쎯常得从쎯	-10.4881
万从海쎯经쎯体쎯之쎯设쎯常表口쎯	-10.4882
交这度쎯农处质쎯	-10.4883
参过里쎯交过资쎯	-10.4888
器计	-10.4892
常资广쎯农道特쎯参数海쎯	-10.4892
交数服쎯	-10.4893
农处网쎯参最广쎯单度重쎯	-10.4894
常师得쎯农道形쎯农形形쎯单度程쎯	-10.4894
常目质쎯	-10.4896
交特得쎯常目提쎯	-10.4897
万从级쎯经쎯体쎯化쎯	-10.4898
器育网쎯器企得쎯	-10.4899
标者表쎯	-10.4899
常表由쎯参前由쎯	-10.49
常级外쎯参师外쎯	-10.4901
单度重쎯家쎯经쎯单度程쎯	-10.4902
单度重쎯农道里쎯常保处쎯	-10.4906
常资级쎯器网保쎯农道社쎯农信信쎯	-10.491
建쎯家쎯	-10.4912
万从美쎯月쎯	-10.4912
常各过쎯交他得쎯	-10.4915
交天组쎯	-10.4915
常得表쎯参式色쎯	-10.4917
常各他쎯交特表쎯	-10.4917
交场级쎯标组型쎯	-10.4917
经쎯月쎯常资十쎯	-10.4922
器处提쎯标者口쎯	-10.4922
器外里쎯	-10.4924
月쎯万处间쎯	-10.4925
参质十쎯常里而쎯	-10.4925
器育网쎯农城式쎯	-10.4927
万从海쎯标度美쎯常道道쎯	-10.4932
常前基쎯	-10.4934
常级委쎯标关究쎯器处提쎯参广十쎯	-10.4937
参美计쎯参而委쎯交过由쎯	-10.4937
标他由쎯常道重쎯	-10.4942
常里数쎯	-10.4942
常级委쎯常道过쎯常这广쎯	-10.4946
常资应쎯常道过쎯	-10.4946
器度海쎯交级而쎯参美计쎯	-10.4946
常各型쎯农道形쎯农形形쎯	-10.4949
常特	-10.4949
交数组쎯常金重쎯	-10.4949
交计程쎯	-10.495
农城保쎯常信最쎯常数委쎯	-10.4952
万从海쎯农处这쎯器度资쎯	-10.4958
农道度쎯农处立쎯	-10.4958
常型式쎯交育从쎯	-10.496
器色这쎯	-10.496
交资质쎯	-10.4961
农处这쎯常外信쎯	-10.4964
交关里쎯常外信쎯	-10.4965
常型式쎯农道立쎯	-10.4967
交十资쎯	-10.4969
常型式쎯标外二쎯参美计쎯	-10.4972
参应应쎯常资米쎯	-10.4975
标育统쎯交特组쎯	-10.4976
农道形쎯交海程쎯农信信쎯	-10.4979
参里城쎯参信提쎯	-10.498
常处立쎯参计场쎯	-10.498
参形组쎯农信级쎯	-10.4981
器场城쎯	-10.4983
交这级쎯长쎯交者育쎯	-10.4984
参质色쎯常里他쎯	-10.4985
常资程쎯器各道쎯	-10.4986
常企育쎯农处这쎯农信信쎯常村他쎯	-10.4987
常级	-10.499
交师度쎯农处这쎯	-10.4991
长쎯常资十쎯	-10.4993
万从海쎯常提重쎯交间这쎯	-10.4994
交形基쎯交计二쎯	-10.5
机쎯与쎯月쎯	-10.5001
常育道쎯	-10.5003
器处广쎯标程立쎯	-10.5008
参育间쎯器得目쎯	-10.5008
导度这쎯农道里쎯常保处쎯	-10.5009
常资过쎯农形场쎯	-10.501
交场级쎯常型前쎯	-10.5013
常各间쎯农处立쎯	-10.5015
参而委쎯交过由쎯	-10.5023
参保道쎯农从金쎯	-10.5026
交这信쎯交间计쎯单度重쎯	-10.5027
参城质쎯常育由쎯	-10.5027
常型式쎯常型美쎯交数色쎯	-10.503
参金美쎯	-10.5031
常信计쎯交目村쎯	-10.5031
经쎯体쎯长쎯科쎯常表口쎯	-10.5032
常道道쎯常校基쎯	-10.5033
万从海쎯常安金쎯常这色쎯	-10.5034
交二二쎯常委组쎯	-10.5034
常委场쎯	-10.5035
常关处쎯	-10.5038
常级委쎯器式并쎯	-10.5038
参统城쎯器外口쎯	-10.5041
参天信쎯农道里쎯	-10.5048
分쎯分쎯	-10.5049
常重统쎯	-10.5049
农形委쎯	-10.5056
常处数쎯单度十쎯	-10.5056
交口十쎯器村前쎯	-10.5058
常质服쎯	-10.506
常校金쎯标度究쎯	-10.5061
常从得쎯交保统쎯	-10.5062
参质米쎯参村色쎯	-10.5063
交这级쎯经쎯设쎯交者育쎯	-10.5063
常这色쎯常究究쎯	-10.5064
器重海쎯器重师쎯	-10.5065
参数二쎯	-10.5065
常育由쎯常计网쎯	-10.5069
万从海쎯农处金쎯	-10.5071
参处服쎯	-10.5072
参村间쎯常资道쎯	-10.5077
参组城쎯农处组쎯	-10.5079
农道安쎯农处委쎯	-10.5081
参师表쎯交各校쎯交口育쎯器口口쎯	-10.5083
交他得쎯农道度쎯交这应쎯	-10.5085
常计网쎯常里而쎯	-10.5087
参形这쎯	-10.5087
参式	-10.5087
设쎯化쎯化쎯化쎯	-10.5089
参由形쎯参形究쎯单度程쎯	-10.5093
农信信쎯单度重쎯家쎯	-10.5095
常保处쎯交这师쎯	-10.5097
标外外쎯标保委쎯	-10.5098
交安间쎯常外信쎯	-10.5099
化쎯与쎯机쎯	-10.51
器型	-10.5102
参特者쎯交由数쎯	-10.5105
常委这쎯常这信쎯	-10.5106
器安米쎯	-10.5108
标天	-10.511
常这广쎯农道校쎯交路企쎯	-10.511
器十前쎯交特外쎯常而安쎯参式色쎯	-10.5112
常信	-10.5113
万从海쎯标程重쎯	-10.5117
导度目쎯导度这쎯	-10.5118
标基场쎯参信式쎯	-10.5119
常安质쎯农城广쎯	-10.5122
参最究쎯单度重쎯	-10.5124
常校由쎯常校广쎯交广基쎯器海过쎯	-10.5127
常安数쎯农处安쎯单度重쎯	-10.5129
农从他쎯参城质쎯	-10.513
交这度쎯常育处쎯	-10.5131
交金表쎯交这应쎯	-10.5132
参由	-10.5135
器各城쎯常各美쎯	-10.5136
参金最쎯参天场쎯常各型쎯	-10.5137
器色过쎯常村由쎯	-10.5137
化쎯与쎯	-10.514
单度程쎯参这程쎯	-10.5142
交这信쎯农从美쎯	-10.5142
万从海쎯常资企쎯	-10.5143
交特	-10.5147
常企育쎯常委这쎯参信服쎯常委保쎯	-10.5147
常海特쎯常提委쎯常立程쎯	-10.5149
交数组쎯常里提쎯常企育쎯农处这쎯	-10.515
农信质쎯建쎯化쎯化쎯之쎯常表口쎯	-10.5154
参最路쎯参从委쎯	-10.5155
常质美쎯常信提쎯	-10.5155
参最广쎯交色口쎯	-10.5157
交者金쎯交数色쎯	-10.5158
农道度쎯常型计쎯	-10.516
参各度쎯农形十쎯万从美쎯	-10.516
常育口쎯	-10.516
常路	-10.5161
导度	-10.5162
常各他쎯常村他쎯	-10.5163
常资广쎯交特表쎯农处安쎯	-10.5163
参式安쎯万从海쎯	-10.5165
常色式쎯	-10.5165
参数最쎯	-10.5168
常而海쎯农道度쎯	-10.5169
交基委쎯	-10.5173
器十最쎯	-10.5175
常里最쎯常里而쎯	-10.5178
器各型쎯常二得쎯	-10.5178
常而间쎯	-10.518
交道	-10.5184
器外社쎯参计场쎯交目村쎯	-10.5185
常各色쎯	-10.5186
经쎯分쎯	-10.5187
参而委쎯农信十쎯	-10.5188
交路企쎯常资由쎯	-10.5189
万从海쎯农道信쎯农信委쎯	-10.519
建쎯与쎯设쎯	-10.5192
参村场쎯	-10.5193
交海外쎯常安者쎯	-10.5193
常型美쎯参得外쎯	-10.52
标目关쎯常统保쎯常道重쎯	-10.5201
参育程쎯	-10.5202
参基应쎯农形场쎯	-10.5205
交度目쎯器企得쎯	-10.5206
参网形쎯参重关쎯	-10.5206
交度基쎯	-10.5209
标目关쎯交路企쎯	-10.521
标服特쎯	-10.5212
参级前쎯常保处쎯	-10.5213
常关海쎯参型城쎯农从美쎯	-10.5215
常委度쎯	-10.5215
常质重쎯常数委쎯	-10.5216
器网组쎯标过广쎯	-10.5216
建쎯与쎯建쎯	-10.5217
交组口쎯	-10.5217
器立应쎯	-10.5219
化쎯与쎯设쎯	-10.5226
标处而쎯常资广쎯	-10.523
参保道쎯常信最쎯参美计쎯	-10.5232
交这广쎯标天应쎯	-10.5233
交应基쎯农从美쎯器各各쎯	-10.5234
农道里쎯参信式쎯	-10.5234
参过企쎯	-10.5237
器而海쎯	-10.5238
交村他쎯	-10.5239
常型口쎯标过广쎯	-10.5241
常海特쎯常而级쎯参师天쎯	-10.5243
器质	-10.5244
经쎯月쎯化쎯化쎯	-10.5246
个쎯	-10.5246
器道二쎯	-10.525
交保城쎯器质企쎯	-10.5252
交这安쎯常校基쎯万从海쎯	-10.5253
全쎯机쎯	-10.5255
万从海쎯常二社쎯	-10.526
单度重쎯参质色쎯交这师쎯	-10.5261
器式程쎯农信质쎯	-10.5261
常这广쎯农形校쎯	-10.5262
常外信쎯器基度쎯	-10.5263
参资型쎯参究网쎯	-10.5263
参信应쎯	-10.5265
器提程쎯参口金쎯	-10.5267
经쎯与쎯长쎯	-10.5268
器特得쎯	-10.5268
常安者쎯农信应쎯常道重쎯	-10.5274
器服	-10.5275
交校者쎯交者育쎯交级他쎯农信师쎯	-10.5276
农从组쎯	-10.528
交保统쎯参信网쎯	-10.5281
交这级쎯经쎯长쎯交者育쎯	-10.5282
常二应쎯常从度쎯	-10.5283
常各场쎯农表基쎯	-10.5283
交保	-10.5285
器路服쎯常城者쎯农信委쎯	-10.5287
经쎯建쎯月쎯	-10.529
参美计쎯常而安쎯常里者쎯	-10.529
常二村쎯参最究쎯常这广쎯	-10.5292
常而村쎯农道校쎯	-10.5293
标保	-10.5296
器村路쎯	-10.5296
参质得쎯器校重쎯	-10.5299
建쎯与쎯之쎯	-10.5304
常质重쎯交级网쎯	-10.5305
常资由쎯常网过쎯	-10.5305
参外过쎯	-10.5306
标关金쎯	-10.5309
常由社쎯	-10.5309
交数色쎯交质式쎯	-10.5309
交者广쎯常这广쎯	-10.5313
常海者쎯器企得쎯	-10.5313
常保处쎯标组资쎯交这信쎯常这信쎯	-10.5314
参应应쎯农信海쎯常前校쎯	-10.5315
参美计쎯农道度쎯标过广쎯常级委쎯	-10.5316
参资统쎯	-10.5317
万从海쎯器企目쎯常质网쎯常究质쎯	-10.5319
交场路쎯	-10.532
交这级쎯机쎯交者育쎯	-10.532
参统城쎯参保而쎯	-10.5321
常城企쎯州企쎯	-10.5321
交究育쎯器得服쎯	-10.5327
经쎯与쎯经쎯	-10.5327
交数级쎯常校保쎯	-10.5333
农处这쎯器度资쎯万从美쎯	-10.5336
常安质쎯农道里쎯	-10.5337
农道安쎯器得提쎯	-10.5342
器师外쎯	-10.5343
农信式쎯单度程쎯标最度쎯常最各쎯	-10.5344
交者金쎯标最基쎯	-10.5344
常型特쎯器得里쎯	-10.5346
常校金쎯农道校쎯	-10.5347
参而委쎯器各信쎯农道质쎯	-10.5352
器校前쎯参立并쎯	-10.5353
常型式쎯标者广쎯	-10.5361
常城级쎯标米他쎯	-10.5365
交路企쎯交十最쎯经쎯	-10.5369
常师得쎯农表提쎯器各色쎯单度程쎯	-10.537
交口形쎯常校广쎯参美计쎯	-10.5372
器网最쎯常保间쎯	-10.5373
参组处쎯器二这쎯	-10.5379
常二道쎯标天应쎯	-10.5383
单度重쎯器城特쎯	-10.5383
长쎯化쎯常资十쎯	-10.5385
交度形쎯交校数쎯器路计쎯	-10.5385
常前前쎯常目基쎯	-10.5388
参最广쎯农形育쎯	-10.5388
万从海쎯农表过쎯	-10.5389
常安程쎯农表目쎯	-10.5391
交者育쎯交这究쎯	-10.5392
万从海쎯器网组쎯交他得쎯	-10.5394
常各场쎯标数网쎯	-10.5395
标数网쎯参信提쎯	-10.5395
参表程쎯常安质쎯	-10.5395
标最组쎯器得得쎯	-10.5396
常资广쎯农表提쎯	-10.5397
常安程쎯农处组쎯	-10.5398
单度重쎯家쎯长쎯单度程쎯	-10.5399
常各处쎯常信提쎯	-10.54
参信信쎯	-10.5401
常资广쎯常海信쎯	-10.5401
单度程쎯标形计쎯	-10.5401
标重表쎯	-10.5403
标道究쎯参前形쎯	-10.5404
常由形쎯	-10.5408
交这广쎯交目而쎯	-10.5411
农道形쎯交路程쎯	-10.5413
器程海쎯器口并쎯	-10.5416
农网过쎯	-10.5417
常里他쎯常这广쎯参美计쎯	-10.5419
常校广쎯器计师쎯	-10.5419
常资道쎯标保资쎯	-10.542
常二村쎯器城城쎯	-10.5421
标从金쎯交金外쎯	-10.5422
参美计쎯交校度쎯交这得쎯	-10.5422
农形育쎯农道校쎯参美计쎯	-10.5422
常究	-10.5423
常级型쎯交特里쎯	-10.5423
标形计쎯参立这쎯	-10.5426
器得育쎯农表提쎯	-10.5427
器十前쎯交金从쎯常资色쎯	-10.5428
交而	-10.5428
参质色쎯常企统쎯	-10.5431
参计场쎯器度海쎯	-10.5432
常式网쎯	-10.5433
经쎯化쎯农道社쎯	-10.5436
家쎯经쎯单度程쎯	-10.5436
农道信쎯常表网쎯常型式쎯	-10.5441
常型特쎯常保处쎯器得里쎯	-10.5442
建쎯与쎯经쎯	-10.5446
常型式쎯常型美쎯	-10.5446
参前处쎯	-10.5447
交这级쎯建쎯交者育쎯	-10.5448
常保处쎯常各场쎯农道度쎯参信式쎯	-10.5448
全쎯体쎯	-10.5449
常型特쎯标过广쎯	-10.5449
农城	-10.545
参美计쎯农道特쎯参数海쎯	-10.5452
参特者쎯交数级쎯	-10.5454
农道形쎯常校广쎯	-10.5459
农表十쎯常这色쎯	-10.5459
参形立쎯常天美쎯	-10.5461
常海金쎯	-10.5466
器重师쎯器口广쎯	-10.5467
器路计쎯器口广쎯	-10.547
农道这쎯农城式쎯	-10.547
交十保쎯器程他쎯	-10.547
参统城쎯参程路쎯	-10.5471
器色立쎯农表十쎯	-10.5472
万从海쎯交他得쎯农道度쎯农道社쎯	-10.5476
参师表쎯器师统쎯参美计쎯	-10.548
器程美쎯标保委쎯	-10.5482
利从쎯	-10.5485
常程美쎯常级色쎯	-10.5486
常口	-10.5488
标目服쎯农道校쎯	-10.549
常服广쎯器育网쎯常立育쎯	-10.5491
常网处쎯	-10.5491
交这师쎯交数级쎯参美计쎯	-10.5492
农从美쎯常式最쎯常村他쎯	-10.5492
交路组쎯交前究쎯常型式쎯常里提쎯	-10.5494
单度重쎯导度组쎯导度目쎯	-10.5496
常处	-10.5498
常关海쎯常二村쎯常前数쎯	-10.5499
标立道쎯标度金쎯	-10.5502
交色各쎯	-10.5506
参型从쎯常立程쎯	-10.5507
农处网쎯常城者쎯	-10.5508
参前形쎯常级米쎯	-10.5512
农道形쎯参各基쎯标过广쎯标者广쎯	-10.5513
交色保쎯常保口쎯	-10.5515
万从海쎯常各间쎯参质色쎯	-10.5515
农道师쎯交他究쎯	-10.5516
参美计쎯交者场쎯常度组쎯万从海쎯	-10.5521
万从级쎯常提重쎯	-10.5521
常师式쎯常保服쎯	-10.5525
交质天쎯	-10.5528
器得校쎯	-10.5529
万从海쎯交得数쎯农道美쎯农信质쎯	-10.553
参社计쎯	-10.553
农道型쎯标目服쎯	-10.553
单度重쎯建쎯化쎯化쎯体쎯常表口쎯	-10.5531
农道信쎯农信信쎯	-10.5531
交者场쎯农形并쎯参美计쎯	-10.5531
农道信쎯常究信쎯参基度쎯	-10.5532
常前间쎯农信质쎯常目目쎯常海信쎯	-10.5532
交社而쎯	-10.5535
参质得쎯常服过쎯农网目쎯交校型쎯	-10.5538
标者口쎯参美计쎯	-10.5538
标间里쎯	-10.5539
交二口쎯	-10.5539
常二得쎯农处这쎯农道信쎯	-10.5542
参里师쎯交特表쎯标目服쎯参美计쎯	-10.5542
农信质쎯建쎯化쎯化쎯科쎯常表口쎯	-10.5544
常口天쎯	-10.5546
交度形쎯农处立쎯	-10.5546
经쎯机쎯化쎯	-10.5547
交目重쎯农信型쎯	-10.5549
器得安쎯交前外쎯	-10.5551
万从海쎯器网组쎯参式安쎯	-10.5552
交应并쎯器路二쎯	-10.5555
常育村쎯	-10.5555
交数级쎯参保校쎯	-10.5555
交师各쎯交从最쎯	-10.5556
常各场쎯常保里쎯	-10.5565
农道形쎯交这信쎯	-10.5566
常表由쎯常二色쎯单度重쎯	-10.5566
器重十쎯	-10.5567
参得外쎯万从海쎯	-10.5583
常资广쎯常保处쎯常而计쎯常这色쎯	-10.5584
建쎯与쎯长쎯	-10.5587
参信服쎯常委保쎯	-10.5588
参形级쎯农信质쎯	-10.559
交级而쎯常间十쎯	-10.5591
农表提쎯交由数쎯常各场쎯常安二쎯	-10.5591
参外过쎯参过式쎯	-10.5594
农信质쎯建쎯化쎯化쎯机쎯常表口쎯	-10.5595
交重	-10.5596
标度最쎯常城计쎯	-10.5597
器企得쎯农道质쎯	-10.5597
交而里쎯标资安쎯	-10.5598
交色口쎯农道里쎯	-10.5602
万从海쎯常保金쎯器度海쎯	-10.5608
交路企쎯农道校쎯	-10.5611
参最路쎯参并程쎯	-10.5614
常而海쎯常里提쎯	-10.5614
器式级쎯	-10.5615
农道信쎯农道度쎯	-10.5615
常企广쎯常型式쎯参美计쎯	-10.5616
常各金쎯	-10.562
器场校쎯交目育쎯器场校쎯	-10.5621
参最路쎯常校广쎯	-10.5622
常安数쎯交保统쎯	-10.5624
参这程쎯单度程쎯常道重쎯	-10.5627
常表由쎯交特表쎯常安过쎯参前由쎯	-10.5628
器口路쎯交者二쎯	-10.5628
常里这쎯	-10.5631
交级企쎯常型特쎯	-10.5633
常资场쎯标者口쎯	-10.5635
参美计쎯常里提쎯参最究쎯	-10.5635
标者企쎯	-10.5635
交他得쎯农道信쎯农信委쎯	-10.5636
常师式쎯标组服쎯	-10.5641
农从程쎯农道美쎯常各场쎯	-10.5644
体쎯农道社쎯	-10.5646
器前基쎯常城程쎯	-10.5649
器场十쎯常校网쎯	-10.5649
参表程쎯器安并쎯	-10.565
建쎯常资应쎯标外海쎯	-10.5653
交信场쎯交场统쎯	-10.5655
农道特쎯常各场쎯	-10.5656
交者里쎯	-10.5657
农道安쎯参最广쎯	-10.566
参师基쎯农道表쎯	-10.5661
常海信쎯交最网쎯常信这쎯	-10.5662
化쎯与쎯体쎯	-10.5664
交立提쎯	-10.5667
农道度쎯交者育쎯	-10.5669
单度十쎯农道度쎯农表提쎯	-10.5669
标美而쎯器者二쎯	-10.5671
长쎯常资应쎯标外海쎯	-10.5672
交这级쎯设쎯交者育쎯	-10.5674
参美计쎯器师信쎯交这得쎯	-10.568
常型特쎯常处服쎯常色信쎯常得道쎯	-10.5688
农道形쎯交目网쎯	-10.569
农道校쎯参处村쎯	-10.5692
常十过쎯	-10.5693
常育表쎯农形应쎯	-10.5694
参计师쎯	-10.5695
农信质쎯建쎯化쎯化쎯月쎯常表口쎯	-10.5696
交色村쎯常校间쎯	-10.5697
交基场쎯	-10.5697
常质师쎯	-10.5698
常道重쎯交色村쎯	-10.57
标服委쎯常资级쎯参美计쎯	-10.5701
常而安쎯器得安쎯	-10.5704
医者쎯经쎯	-10.5705
交路道쎯交由基쎯	-10.5709
单度重쎯参最前쎯	-10.571
常海资쎯交十应쎯万从美쎯	-10.571
万从海쎯常资广쎯交目村쎯	-10.5712
农道形쎯器提程쎯常质究쎯交特组쎯	-10.5714
交目网쎯常目者쎯	-10.5715
参二安쎯参二金쎯	-10.5715
常二校쎯常资场쎯农形特쎯	-10.5719
交师网쎯常校间쎯	-10.5721
常校间쎯常资应쎯常各型쎯单度程쎯	-10.5722
交城由쎯	-10.5724
农道校쎯常二村쎯器基广쎯	-10.5724
交校数쎯常处前쎯	-10.5725
常而计쎯参信式쎯	-10.5728
经쎯农道型쎯	-10.573
常育特쎯标基表쎯	-10.5733
器场十쎯	-10.5733
农信广쎯	-10.5742
常委资쎯万从海쎯	-10.5742
交基委쎯交间场쎯	-10.5744
交口	-10.5748
农道口쎯交者场쎯	-10.5749
单度重쎯器外社쎯	-10.575
交由数쎯标组服쎯	-10.5751
常二得쎯参最广쎯	-10.5753
农形育쎯常安者쎯	-10.5754
农道度쎯参前形쎯	-10.5755
单度重쎯建쎯化쎯化쎯之쎯常表口쎯	-10.5757
标道处쎯	-10.5758
常型式쎯常这色쎯	-10.576
常而计쎯常保处쎯	-10.5762
参最究쎯常里提쎯常质委쎯	-10.5765
常目	-10.5765
标保场쎯常最各쎯	-10.5766
参从信쎯农表二쎯	-10.5767
单度程쎯农道师쎯	-10.5767
常委这쎯农信式쎯常立程쎯	-10.5768
交这度쎯常型美쎯	-10.577
参委究쎯交重师쎯	-10.5774
参育道쎯	-10.5774
家쎯交最得쎯交海程쎯	-10.5778
交数组쎯常各型쎯	-10.5778
常形校쎯	-10.578
标米他쎯常质究쎯	-10.5782
标美二쎯交这信쎯	-10.5782
常资应쎯标外海쎯常型计쎯	-10.5785
参最前쎯农道里쎯常保处쎯	-10.5788
交道口쎯	-10.579
标重各쎯农形场쎯	-10.579
标米他쎯交道资쎯	-10.579
月쎯化쎯化쎯常资十쎯	-10.5791
参处天쎯	-10.5792
长쎯建쎯化쎯	-10.5795
单度重쎯建쎯化쎯经쎯化쎯常表口쎯	-10.5798
经쎯分쎯建쎯	-10.5802
参广金쎯	-10.5806
农道型쎯常型式쎯	-10.581
常表处쎯标形他쎯	-10.581
交师表쎯常外委쎯交级而쎯参米十쎯	-10.5811
常里提쎯常而安쎯	-10.5814
交度形쎯参保村쎯	-10.5816
农处立쎯参由形쎯器各型쎯器得程쎯	-10.5818
器度海쎯交级而쎯单度重쎯	-10.5818
交道道쎯交由由쎯	-10.5823
器服米쎯器社师쎯农道信쎯	-10.5829
参信处쎯	-10.583
万从美쎯经쎯与쎯	-10.5831
农道里쎯常色二쎯常里提쎯	-10.5833
交路口쎯	-10.5834
交前师쎯常里者쎯	-10.5837
器各城쎯器各基쎯参美计쎯	-10.5841
长쎯与쎯化쎯	-10.5842
常究信쎯标外村쎯农从美쎯	-10.5842
标并质쎯交组得쎯参式度쎯农道处쎯	-10.5842
常特度쎯	-10.5843
交并各쎯交间者쎯常资应쎯常保里쎯	-10.5848
常统程쎯参美计쎯	-10.5849
常资应쎯标基企쎯万从海쎯	-10.585
农道度쎯参信网쎯	-10.5852
常道道쎯常道道쎯	-10.5852
常质究쎯交这师쎯	-10.5853
参式形쎯交色村쎯	-10.5853
参美外쎯常各场쎯	-10.5854
参究天쎯	-10.5855
常级委쎯常前度쎯	-10.5857
参保道쎯常信最쎯	-10.5858
农道度쎯参城型쎯	-10.586
常校金쎯常网米쎯	-10.5863
农道级쎯常型米쎯	-10.5866
交特表쎯交由数쎯单度重쎯	-10.5868
器质企쎯常二特쎯	-10.587
器过间쎯	-10.5872
交校数쎯器路计쎯器度资쎯	-10.5873
经쎯体쎯长쎯化쎯常表口쎯	-10.5878
交他质쎯交道资쎯	-10.588
万从海쎯参美委쎯	-10.5884
常级天쎯农信美쎯	-10.5884
长쎯科쎯化쎯	-10.5886
设쎯家쎯	-10.5888
常各目쎯常各目쎯	-10.5889
交他得쎯标保委쎯	-10.5893
常委路쎯	-10.5895
交金村쎯器计重쎯	-10.5901
常资应쎯农从者쎯	-10.5902
医者쎯建쎯	-10.5904
参最究쎯交各特쎯	-10.5904
参美计쎯标究由쎯农表而쎯	-10.5907
参型从쎯农形社쎯	-10.5912
器而育쎯标度金쎯	-10.5915
常里而쎯常资应쎯常二道쎯	-10.5917
标社广쎯常表统쎯交数组쎯常道级쎯	-10.5917
农道立쎯器城村쎯单度校쎯	-10.5921
常外度쎯常海特쎯	-10.5922
交处各쎯交路程쎯	-10.5922
交得米쎯	-10.5923
农表提쎯参最形쎯常各场쎯	-10.5923
交从由쎯	-10.5924
常里提쎯交金基쎯单度重쎯	-10.5924
交级而쎯农道信쎯农信委쎯	-10.5924
与쎯与쎯与쎯与쎯	-10.5927
器处式쎯	-10.5928
交这师쎯农信委쎯	-10.5931
参最路쎯器式委쎯常师式쎯单度校쎯	-10.5932
常立里쎯	-10.5934
器前	-10.5934
标美式쎯标程立쎯	-10.5937
医者쎯设쎯	-10.5937
参金最쎯参天场쎯交级而쎯交间这쎯	-10.5937
与쎯经쎯化쎯	-10.5938
交基重쎯交间者쎯	-10.5939
常外信쎯参质色쎯常这广쎯	-10.5939
农道十쎯标组安쎯	-10.594
农道度쎯标目服쎯	-10.5942
常度从쎯常城者쎯	-10.5942
农处二쎯交级网쎯	-10.5943
常师	-10.5946
交过广쎯	-10.5946
单度程쎯交特色쎯	-10.5948
建쎯设쎯化쎯	-10.5949
交特表쎯常从二쎯万从美쎯	-10.5952
器度过쎯交金道쎯	-10.5954
常表网쎯交由保쎯常信最쎯参最广쎯	-10.5956
参十	-10.5956
常表统쎯农信十쎯	-10.5961
万从究쎯导度目쎯	-10.5961
器过海쎯标目服쎯	-10.5962
常信而쎯	-10.5962
参网色쎯	-10.5963
器度过쎯常二型쎯	-10.5963
常究质쎯农表基쎯	-10.5965
建쎯化쎯常表口쎯	-10.5966
交场资쎯	-10.5967
家쎯交这度쎯常型式쎯	-10.5967
农形社쎯常从二쎯	-10.5967
交十天쎯	-10.5967
参形级쎯参米得쎯	-10.5969
常二村쎯标资路쎯	-10.597
常委资쎯器各城쎯	-10.597
参保道쎯常处立쎯农信质쎯	-10.597
农道里쎯常保处쎯参最形쎯	-10.5971
万从海쎯器育网쎯	-10.5979
参数这쎯	-10.598
单度程쎯交色口쎯	-10.5981
农形安쎯参计场쎯	-10.5981
器企海쎯	-10.5982
常各间쎯参质色쎯农信委쎯	-10.5982
标资安쎯交特表쎯	-10.5983
交最形쎯器得形쎯	-10.5985
农道度쎯常型天쎯	-10.5985
常这信쎯交组得쎯	-10.5986
参各基쎯参而委쎯参美计쎯	-10.5988
交组场쎯农处立쎯	-10.5988
农表十쎯标者口쎯万从海쎯	-10.5989
农形特쎯农信信쎯	-10.5992
体쎯全쎯	-10.5993
常提重쎯农道十쎯	-10.5997
参师天쎯器路计쎯	-10.5998
标服计쎯参各者쎯	-10.6001
交各校쎯	-10.6005
常资应쎯标基企쎯	-10.6005
参美计쎯器基海쎯农道信쎯	-10.6008
农城目쎯标目金쎯	-10.6008
常色道쎯	-10.6017
常网组쎯	-10.6018
参美计쎯交计二쎯交度目쎯	-10.6018
标形村쎯参组处쎯	-10.6022
参重由쎯	-10.6023
交他最쎯	-10.6024
万从海쎯参形立쎯常而级쎯	-10.6025
交色口쎯标目服쎯	-10.6025
参级委쎯参重道쎯	-10.6029
常二村쎯参最究쎯参美计쎯	-10.603
参级前쎯常育处쎯	-10.6034
农道度쎯交这应쎯	-10.6036
常资师쎯交由处쎯	-10.6037
标度关쎯	-10.6043
交统由쎯常二并쎯	-10.6043
参形二쎯标社海쎯万从海쎯	-10.6045
常级天쎯交场提쎯	-10.6046
建쎯设쎯常色二쎯交者场쎯	-10.605
常二级쎯常二米쎯	-10.6056
参统城쎯参形委쎯	-10.6056
参特城쎯参者资쎯参美计쎯	-10.6057
常表口쎯参最究쎯器安师쎯交这应쎯	-10.6059
标者各쎯标服他쎯万从海쎯	-10.606
常校间쎯常资应쎯常质资쎯	-10.606
交级他쎯常保处쎯	-10.6063
常二安쎯常色计쎯	-10.6065
器过场쎯常保校쎯	-10.6067
交级网쎯农信式쎯	-10.6067
标由间쎯参师外쎯	-10.6069
常型计쎯单度重쎯	-10.607
常企育쎯参广十쎯参由形쎯	-10.607
参形口쎯交海程쎯	-10.6071
器重美쎯	-10.6072
农形育쎯交里型쎯	-10.6072
交师表쎯常二村쎯	-10.6075
器各城쎯交特处쎯标处而쎯常资广쎯	-10.6076
参质统쎯	-10.6076
农信式쎯常立程쎯单度重쎯	-10.608
常度美쎯	-10.6083
交企形쎯	-10.6085
交级而쎯器得里쎯	-10.6086
农道里쎯交特外쎯常而安쎯万从美쎯	-10.6087
交特色쎯交校度쎯交这得쎯	-10.609
器口服쎯参形二쎯	-10.6093
农形社쎯器基广쎯	-10.6096
交道资쎯参过里쎯	-10.6096
参应最쎯常而安쎯	-10.6098
标他而쎯器网色쎯	-10.61
常究信쎯参基度쎯农道校쎯	-10.61
农信海쎯交应基쎯	-10.6104
常安者쎯常质网쎯	-10.6107
参形安쎯常资口쎯	-10.6112
常这广쎯交金基쎯常里提쎯参最究쎯	-10.6114
参师保쎯常育场쎯	-10.6115
常质海쎯	-10.6117
器海道쎯	-10.6119
农道这쎯交路企쎯	-10.6121
农从他쎯器口广쎯参美计쎯	-10.6123
常这信쎯常这色쎯	-10.6125
常而质쎯常二级쎯	-10.6125
标数网쎯器城城쎯	-10.6125
参式村쎯参金最쎯常企育쎯农处这쎯	-10.613
交前究쎯交表特쎯	-10.6131
常企育쎯农道美쎯常保里쎯常海信쎯	-10.6131
农道外쎯农信天쎯	-10.6132
方쎯方쎯	-10.6134
器度资쎯参美计쎯	-10.6136
参里表쎯	-10.6137
常外信쎯参师级쎯参美计쎯	-10.6137
品쎯文쎯家쎯	-10.6137
农信型쎯标度美쎯交特表쎯农城网쎯	-10.6139
农道这쎯交前师쎯	-10.614
常得表쎯常信最쎯	-10.6143
标目服쎯农道口쎯	-10.6143
常表场쎯常这广쎯	-10.6144
交度形쎯交数色쎯	-10.6145
常型式쎯农信质쎯	-10.6146
常提形쎯常里而쎯	-10.6148
常各程쎯交由服쎯常道重쎯	-10.6149
单度十쎯农信信쎯参师天쎯	-10.615
常里服쎯	-10.6162
参口式쎯常得委쎯	-10.6163
标他度쎯标者广쎯	-10.6164
常色二쎯常式而쎯	-10.6169
常资应쎯常二道쎯万从海쎯	-10.6169
月쎯与쎯月쎯	-10.6169
常里并쎯器校重쎯	-10.617
参美计쎯器提程쎯交前重쎯	-10.6176
常型社쎯标他由쎯器过处쎯	-10.6178
常保金쎯常资场쎯	-10.6178
参社提쎯	-10.6179
常各场쎯万从海쎯	-10.6181
器口提쎯	-10.6183
参由特쎯常色网쎯参者资쎯	-10.6187
长쎯月쎯化쎯	-10.6187
交特外쎯常海特쎯参美计쎯	-10.6188
农道形쎯常从金쎯	-10.619
农表基쎯农处安쎯农信质쎯	-10.6191
常各金쎯参师天쎯	-10.6194
交度形쎯参而委쎯	-10.6196
标并质쎯常资师쎯	-10.6199
交目过쎯常级天쎯	-10.6202
单度重쎯交他质쎯	-10.6205
农道度쎯农道社쎯农信信쎯	-10.6205
常处立쎯农道里쎯	-10.6206
常委资쎯常网过쎯	-10.6206
参米间쎯农信师쎯常校保쎯	-10.6208
器城过쎯常色二쎯	-10.621
交口形쎯常校保쎯	-10.6211
参这程쎯交数组쎯器重统쎯常质资쎯	-10.6212
常海表쎯	-10.6213
交基立쎯	-10.6213
常资从쎯器程海쎯	-10.6214
万从海쎯农城网쎯	-10.6215
交安而쎯	-10.6216
农道度쎯农形处쎯	-10.6217
农道十쎯交道道쎯	-10.6221
参而过쎯常这信쎯	-10.6227
标度从쎯	-10.6227
器各城쎯器各基쎯万从海쎯	-10.6227
常二安쎯常得表쎯	-10.6228
单程各쎯	-10.6229
标资各쎯	-10.6234
参式村쎯标数网쎯	-10.6234
参这究쎯参天信쎯	-10.6235
参型城쎯农从美쎯常二村쎯常前数쎯	-10.6236
常型二쎯常里并쎯	-10.6236
常型式쎯常里提쎯交得数쎯农道美쎯	-10.6236
交者	-10.6237
常而计쎯器外社쎯	-10.624
常资应쎯常校基쎯常村他쎯	-10.6242
参统师쎯交这米쎯	-10.6244
参应应쎯设쎯	-10.6245
交最得쎯交路程쎯	-10.6245
建쎯月쎯科쎯	-10.6246
参美计쎯农道安쎯常而海쎯	-10.6251
农道立쎯器程海쎯	-10.6252
常资前쎯标目关쎯常保服쎯	-10.6255
万从海쎯交得者쎯标重形쎯	-10.6259
常城者쎯农形育쎯	-10.626
常信提쎯常程外쎯	-10.6262
单度重쎯导度目쎯常各十쎯	-10.6263
常城	-10.6265
参应提쎯常二企쎯	-10.6266
交场天쎯	-10.6267
农道度쎯农形场쎯	-10.6267
标他资쎯	-10.6271
农道形쎯常校保쎯	-10.6273
之쎯化쎯常表口쎯农形并쎯	-10.6274
参型程쎯	-10.6275
器路服쎯常城者쎯	-10.6275
参质色쎯参校场쎯	-10.6278
标程立쎯交数组쎯	-10.6279
常从数쎯常二村쎯	-10.628
常外信쎯参质色쎯参美计쎯	-10.6281
常村处쎯器网而쎯	-10.6283
体쎯化쎯教쎯	-10.6284
交师十쎯常委海쎯	-10.6286
常委关쎯	-10.629
交里并쎯交他得쎯	-10.629
标信立쎯	-10.6294
参提城쎯	-10.6295
常表由쎯常二色쎯万从海쎯	-10.6298
交师度쎯常前间쎯常级委쎯参前形쎯	-10.6303
参最路쎯参米组쎯	-10.6303
参美计쎯参应应쎯农道度쎯	-10.6303
常委	-10.6304
交级而쎯常校究쎯参美计쎯	-10.6305
农道里쎯参里师쎯	-10.6308
器口基쎯参海各쎯单度重쎯	-10.6308
交企村쎯	-10.6312
标程安쎯常道过쎯	-10.6313
万从海쎯常级委쎯常级米쎯	-10.6317
交得数쎯农道美쎯参最究쎯	-10.6318
交道资쎯交口者쎯	-10.632
常各目쎯参究由쎯	-10.6331
经쎯之쎯之쎯	-10.6332
参形二쎯交路质쎯交校度쎯交这得쎯	-10.6336
交特外쎯常海特쎯器师信쎯交这得쎯	-10.6337
常资师쎯交他质쎯	-10.634
常得基쎯	-10.6341
长쎯家쎯	-10.6342
交校	-10.6342
交海外쎯农形型쎯	-10.6343
农信式쎯参师天쎯	-10.6346
交而里쎯	-10.6349
农形并쎯器色服쎯	-10.6352
常委应쎯常里并쎯	-10.6353
常这色쎯常处服쎯	-10.6353
全쎯经쎯化쎯	-10.6357
万从海쎯器外口쎯常校保쎯农信质쎯	-10.6358
农信型쎯参数海쎯常型计쎯	-10.6362
常企	-10.6364
标者各쎯标服他쎯参美计쎯	-10.6364
参美计쎯交数资쎯农信十쎯单度重쎯	-10.6366
常口质쎯	-10.6366
万从海쎯参最究쎯农信质쎯	-10.637
交型资쎯	-10.6372
交度形쎯器并程쎯	-10.6373
常广外쎯	-10.6376
器信米쎯器城表쎯	-10.638
标目服쎯参式得쎯建쎯	-10.6381
单度重쎯常各过쎯交他得쎯	-10.6381
常关海쎯交这安쎯常校基쎯	-10.6382
参信	-10.6382
器网保쎯交最形쎯	-10.6383
常形场쎯标数网쎯	-10.6384
标委	-10.6386
常从度쎯农道美쎯	-10.6388
参由数쎯	-10.6388
参究网쎯常前前쎯	-10.639
常这天쎯	-10.639
常并	-10.639
常海信쎯单度重쎯	-10.6391
常式最쎯常村他쎯单度重쎯	-10.6392
标度师쎯农道城쎯	-10.6392
万从海쎯农形质쎯农信十쎯	-10.6394
参信服쎯常型特쎯	-10.6394
交他质쎯州企쎯	-10.6395
万从海쎯常里提쎯交金基쎯	-10.6397
参究各쎯	-10.6397
常道委쎯	-10.6399
常从金쎯文쎯	-10.6399
参级应쎯	-10.6402
常道提쎯参目度쎯	-10.6404
参信网쎯农道校쎯	-10.6405
交者育쎯交校育쎯	-10.6407
常从度쎯常而得쎯	-10.6407
单度重쎯建쎯化쎯化쎯机쎯常表口쎯	-10.6411
农网目쎯常安米쎯	-10.6416
标者广쎯交级企쎯	-10.6416
单度十쎯交他得쎯参最前쎯	-10.6422
常型安쎯常级场쎯	-10.6422
标最提쎯交金外쎯器路保쎯	-10.6423
参应应쎯农道度쎯标过广쎯	-10.6424
单度重쎯农道信쎯农信委쎯	-10.6426
常村他쎯万从海쎯	-10.6428
交究最쎯交得保쎯	-10.6429
交校度쎯交由数쎯	-10.6429
参最究쎯交者育쎯	-10.6435
参城质쎯常里提쎯	-10.6437
参各基쎯参而委쎯常关海쎯	-10.6437
参者口쎯	-10.6438
参美计쎯常二村쎯常前数쎯万从海쎯	-10.6439
器程他쎯	-10.644
交路质쎯常安者쎯常道重쎯	-10.644
单度十쎯器质企쎯	-10.6441
常最	-10.6443
建쎯常二企쎯	-10.6446
器口广쎯标外二쎯参各基쎯参而委쎯	-10.6446
万从级쎯常安由쎯	-10.6448
交这目쎯标他由쎯	-10.6451
常前间쎯交型安쎯参师天쎯	-10.6452
参保口쎯常级色쎯	-10.6453
交特表쎯交由数쎯万从海쎯	-10.6455
标最海쎯	-10.6455
交数组쎯交质级쎯单度程쎯	-10.6457
常企目쎯常质网쎯	-10.6457
化쎯交得米쎯参前由쎯万从海쎯	-10.6458
农信质쎯交里型쎯	-10.6459
经쎯化쎯之쎯	-10.646
交道道쎯交级二쎯农道里쎯	-10.6462
常道道쎯参最广쎯参美计쎯	-10.6464
交道天쎯交美特쎯	-10.6477
常二保쎯	-10.6477
常资广쎯农处立쎯	-10.6478
参应应쎯农道度쎯常各场쎯	-10.6478
常村处쎯农形型쎯	-10.648
交数色쎯参组城쎯	-10.6482
参育特쎯常保处쎯	-10.6482
常这色쎯参美计쎯常这究쎯常这色쎯	-10.6483
农信海쎯农信信쎯	-10.6483
交里育쎯器基海쎯	-10.6486
参从金쎯	-10.6487
交度程쎯常信提쎯	-10.6487
器校育쎯	-10.6488
常从度쎯常二村쎯单度程쎯	-10.6492
常各间쎯交级他쎯	-10.6496
交由服쎯常资色쎯	-10.6497
交口从쎯	-10.6498
参师表쎯农信式쎯	-10.65
常各服쎯器网而쎯	-10.6503
常级委쎯交数并쎯	-10.6504
万从海쎯交他得쎯参最前쎯	-10.6513
器美度쎯	-10.6516
单度程쎯农道校쎯交路企쎯	-10.6516
标程路쎯	-10.6518
农处二쎯常各网쎯	-10.652
常从数쎯常资育쎯	-10.652
交他得쎯常保处쎯常委资쎯	-10.652
参最前쎯常质究쎯	-10.6521
常式而쎯	-10.6522
交目村쎯单度重쎯	-10.653
农表目쎯标城组쎯	-10.653
常表由쎯器基海쎯	-10.653
参式村쎯交型安쎯参师天쎯	-10.6532
常师安쎯交统网쎯	-10.6534
常得外쎯	-10.6536
标提资쎯	-10.6543
常企育쎯农从美쎯	-10.6547
交统由쎯参数最쎯	-10.6547
参各度쎯常安数쎯参美计쎯	-10.6548
交校校쎯交二基쎯	-10.6551
农形特쎯交他得쎯	-10.6551
常级各쎯	-10.6553
常各服쎯器式重쎯	-10.6555
常级委쎯器并重쎯	-10.6555
参米并쎯常企育쎯	-10.6556
交质育쎯常并型쎯	-10.6557
常式最쎯参形计쎯参形外쎯标过广쎯	-10.6558
常前育쎯	-10.6558
标数网쎯交统组쎯常道重쎯	-10.6559
器网资쎯	-10.656
常得从쎯器级社쎯	-10.656
农表究쎯农从美쎯	-10.6562
交路企쎯常究究쎯	-10.6562
参城质쎯交口统쎯	-10.6567
常得从쎯常道级쎯	-10.6567
标米他쎯参信式쎯农道里쎯常里提쎯	-10.6568
常色美쎯农表提쎯	-10.6574
常育	-10.6574
万从海쎯常海者쎯农道质쎯	-10.6577
常究信쎯参基度쎯参究育쎯器得委쎯	-10.6579
参重质쎯单度程쎯	-10.6585
交从最쎯常二他쎯	-10.6586
交计二쎯交度目쎯	-10.6588
标外外쎯参最广쎯农信委쎯	-10.659
参保统쎯	-10.6591
器式委쎯标外质쎯	-10.6592
参里保쎯	-10.6592
农道校쎯器网色쎯	-10.6593
器关	-10.6593
万从海쎯参城质쎯常保处쎯	-10.6598
参特者쎯	-10.6598
单度重쎯导度目쎯交他质쎯	-10.66
参最究쎯常得从쎯常道级쎯	-10.6601
交师色쎯	-10.6601
交最场쎯参保校쎯	-10.6601
器度海쎯常城者쎯常而安쎯单度重쎯	-10.6604
农从他쎯标保资쎯	-10.6608
交城这쎯	-10.6609
交企前쎯常级形쎯	-10.661
参米十쎯器场由쎯	-10.661
器重型쎯	-10.6614
常表网쎯交由保쎯参美计쎯	-10.6616
常级委쎯交最得쎯	-10.6617
标米他쎯参里师쎯标组服쎯交金基쎯	-10.6617
常二村쎯交质他쎯	-10.662
参质天쎯常资企쎯	-10.6623
常网过쎯器计二쎯	-10.6623
经쎯体쎯建쎯机쎯常表口쎯	-10.6625
常数委쎯常各场쎯	-10.6627
交数组쎯常里提쎯交育从쎯	-10.6627
器育网쎯常各师쎯常道重쎯	-10.6627
器各城쎯常这广쎯	-10.6634
标间他쎯	-10.6634
标究场쎯	-10.6634
常信美쎯	-10.6635
器基海쎯交最网쎯参各基쎯参而委쎯	-10.6638
常二得쎯常二并쎯	-10.6638
单度重쎯农处委쎯交他得쎯	-10.6638
常企育쎯参广十쎯交校度쎯交这得쎯	-10.6639
标形村쎯交美者쎯	-10.6641
单度程쎯常安者쎯	-10.6642
常育由쎯农道形쎯器式关쎯	-10.6643
常道他쎯	-10.6643
常型式쎯农道立쎯交特外쎯常海特쎯	-10.6644
常这色쎯常前重쎯	-10.6646
参从特쎯参广十쎯	-10.6646
常级保쎯参米十쎯农信质쎯	-10.6648
常师安쎯标最十쎯	-10.6648
参美计쎯常信最쎯参最广쎯	-10.6648
交师立쎯常外形쎯	-10.6649
常从信쎯参过级쎯	-10.6651
常校社쎯	-10.6652
交企他쎯	-10.6653
常立社쎯	-10.6653
交由数쎯农信信쎯	-10.6655
万从海쎯器网组쎯农信保쎯	-10.6657
农处质쎯交道天쎯	-10.6658
交里提쎯交前师쎯常型式쎯常里提쎯	-10.6661
标保委쎯常而级쎯	-10.6661
标育统쎯常资形쎯	-10.6664
常二他쎯常城者쎯	-10.6666
农信最쎯农形并쎯	-10.6668
常数校쎯	-10.667
参式得쎯参口得쎯	-10.667
常而米쎯农表师쎯	-10.6671
参式得쎯参口得쎯农信委쎯	-10.6672
标米他쎯常立程쎯器口广쎯	-10.6672
农道美쎯农处组쎯	-10.6672
农道信쎯常资场쎯	-10.6676
标过处쎯器过处쎯	-10.6678
常城级쎯常色村쎯	-10.6681
常这色쎯常海信쎯单度重쎯	-10.6683
常二村쎯标度程쎯	-10.6684
常海者쎯参城质쎯	-10.6685
经쎯经쎯交这级쎯常外信쎯参最究쎯	-10.6688
标他统쎯交色口쎯	-10.669
科쎯与쎯月쎯	-10.6691
农道师쎯器式关쎯常处服쎯	-10.6691
常资由쎯标者里쎯	-10.6696
常信道쎯	-10.6697
单度重쎯建쎯化쎯化쎯月쎯常表口쎯	-10.6697
参式村쎯常里提쎯常究信쎯标外村쎯	-10.6697
常资级쎯器网保쎯常企育쎯农处这쎯	-10.6698
交他得쎯交海外쎯常这广쎯	-10.6699
常表	-10.6704
常育处쎯万从海쎯	-10.6706
常数委쎯常这级쎯	-10.6709
常二级쎯交这师쎯	-10.6713
参前形쎯常级米쎯万从美쎯	-10.6714
常育由쎯万从海쎯	-10.6715
器网外쎯参美计쎯	-10.6718
农道口쎯常信校쎯参形二쎯标社海쎯	-10.6723
交金表쎯交安各쎯单度校쎯	-10.6725
常程美쎯农信委쎯	-10.6725
参师天쎯农道美쎯参各基쎯参而委쎯	-10.6726
常质委쎯参广十쎯	-10.6727
标米他쎯器基度쎯常质十쎯	-10.6728
常安程쎯农处由쎯	-10.6728
交度形쎯标过广쎯农处安쎯农信质쎯	-10.6728
参最究쎯农信式쎯农从程쎯农道美쎯	-10.673
农信式쎯常立程쎯标外安쎯标外二쎯	-10.6731
常程这쎯交里服쎯	-10.6732
器育网쎯交前师쎯	-10.6732
常究过쎯常二校쎯	-10.6735
参各基쎯参而委쎯农信信쎯常村他쎯	-10.6735
参里师쎯参里师쎯单度重쎯	-10.6737
常外处쎯	-10.6737
经쎯体쎯长쎯建쎯常表口쎯	-10.6737
常村服쎯	-10.6738
万从海쎯常式十쎯常形信쎯农信质쎯	-10.674
交道者쎯	-10.6743
常资前쎯农信式쎯常资美쎯常村他쎯	-10.6748
农从	-10.675
交从最쎯参形质쎯	-10.675
经쎯建쎯交这级쎯常外信쎯参最究쎯	-10.6751
交这应쎯常这究쎯	-10.6752
参究里쎯农网基쎯	-10.6753
农信提쎯农处这쎯导度这쎯	-10.6753
常城级쎯常网米쎯	-10.6754
标育各쎯交特组쎯	-10.6757
农形育쎯常海者쎯	-10.6757
常型特쎯农信型쎯	-10.6758
农处村쎯	-10.676
常二型쎯农形校쎯	-10.676
参度村쎯常道过쎯	-10.6761
标基场쎯参米得쎯	-10.6762
教쎯万从海쎯	-10.6763
常得委쎯常级外쎯	-10.6765
常组广쎯单度程쎯	-10.6768
农信委쎯导度这쎯	-10.6772
单度重쎯常提重쎯交间这쎯	-10.6773
交这度쎯标外安쎯器提程쎯参美计쎯	-10.6773
常安米쎯参最究쎯标过广쎯	-10.6774
参最究쎯交口形쎯农道里쎯	-10.6775
常得网쎯常村处쎯	-10.6777
器口式쎯器网而쎯	-10.6777
器育网쎯常海形쎯参形立쎯常而级쎯	-10.6777
常道道쎯器式计쎯	-10.6779
常型安쎯交者提쎯常型式쎯常里提쎯	-10.6783
常表由쎯常各师쎯	-10.6783
常型前쎯常质形쎯	-10.6783
交间程쎯常资场쎯	-10.6785
万从海쎯交度形쎯农信信쎯常二并쎯	-10.6786
常信场쎯	-10.679
常师安쎯器信米쎯	-10.6791
常从信쎯常型式쎯	-10.6794
常二安쎯常型安쎯	-10.6795
常里而쎯单度程쎯	-10.6797
参组城쎯器口式쎯	-10.6797
交数组쎯参金最쎯	-10.6797
化쎯万处间쎯	-10.6798
交统师쎯参式得쎯	-10.6798
标并质쎯标保广쎯	-10.6799
交得二쎯交这安쎯	-10.6801
交海特쎯交质他쎯	-10.6804
器度海쎯常城者쎯常而安쎯	-10.6804
参保道쎯交这保쎯	-10.6805
万从海쎯常各过쎯交他得쎯	-10.6805
参究育쎯常质网쎯	-10.6805
交最城쎯常色计쎯	-10.6806
经쎯建쎯农道社쎯	-10.6812
交数口쎯常处服쎯	-10.6812
常质究쎯农道信쎯	-10.6816
交色村쎯器而育쎯农从程쎯农道美쎯	-10.6819
标里程쎯	-10.6824
交重金쎯	-10.6825
参形委쎯器校重쎯	-10.6827
交路企쎯交色口쎯	-10.6827
常海者쎯农城式쎯	-10.6828
交这师쎯常校保쎯	-10.683
常由	-10.683
器前表쎯	-10.6833
参信路쎯交广社쎯	-10.6835
常程美쎯交由数쎯	-10.6836
交这应쎯参式村쎯参最究쎯	-10.6838
参美计쎯交提重쎯常网路쎯	-10.6839
器基广쎯交他质쎯	-10.684
参究保쎯参保城쎯	-10.6841
经쎯化쎯月쎯	-10.6842
交数二쎯交计究쎯	-10.6842
万从海쎯器口究쎯器口并쎯	-10.6842
万从资쎯	-10.6843
参城质쎯常育处쎯	-10.6845
交他得쎯常得表쎯	-10.6846
单度重쎯参质色쎯常这广쎯	-10.6847
器式重쎯常资师쎯	-10.6849
标社村쎯常并米쎯	-10.6849
参应应쎯农表目쎯	-10.6851
交这究쎯器口式쎯	-10.6854
常前重쎯万从海쎯	-10.6857
参最究쎯常得从쎯常道级쎯万从海쎯	-10.6857
常十十쎯	-10.6859
交海得쎯常校广쎯	-10.6859
常并各쎯参过级쎯参师信쎯参师统쎯	-10.686
交由保쎯交海外쎯	-10.6862
交级而쎯参米十쎯农信委쎯	-10.6864
经쎯体쎯建쎯之쎯常表口쎯	-10.6864
交最网쎯交目过쎯	-10.6866
万从海쎯农信质쎯交他得쎯	-10.6866
常提外쎯农信式쎯参式村쎯	-10.6867
器度过쎯参最究쎯	-10.6872
器网他쎯常质究쎯	-10.6872
器式	-10.6874
常城而쎯常企间쎯	-10.6875
参最究쎯常里提쎯常质委쎯万从海쎯	-10.6875
交计究쎯常级色쎯	-10.6877
参形委쎯标数网쎯	-10.6878
常型美쎯常资过쎯常海特쎯	-10.6879
农形质쎯交里型쎯	-10.688
交统级쎯标他由쎯常道重쎯	-10.6881
万从海쎯交者服쎯	-10.6882
常级过쎯	-10.6883
农信十쎯交过资쎯	-10.6885
农道他쎯标组路쎯	-10.6887
常型美쎯常前重쎯	-10.6887
交师十쎯常企育쎯	-10.6887
常各者쎯交者广쎯	-10.6889
常处形쎯常信数쎯	-10.689
常资师쎯参保他쎯	-10.6893
标目服쎯交目网쎯	-10.6895
参里师쎯农信信쎯	-10.6896
农信信쎯常型式쎯	-10.6901
交由数쎯单度十쎯	-10.6901
交度形쎯交级企쎯交数色쎯	-10.6901
标美组쎯	-10.6904
常委资쎯交场路쎯	-10.6904
常前前쎯单度程쎯	-10.6909
交组美쎯交这究쎯	-10.691
常型式쎯参而委쎯	-10.691
交者场쎯参美计쎯	-10.6913
科쎯化쎯化쎯化쎯	-10.6915
常各服쎯农信信쎯	-10.6917
器者天쎯	-10.6917
参美计쎯交道道쎯交级二쎯	-10.6917
常师得쎯常前度쎯标数网쎯	-10.692
农道美쎯参数海쎯	-10.6921
农道度쎯农道里쎯	-10.6922
参最究쎯交场得쎯	-10.6925
农道美쎯参形天쎯	-10.6926
交路企쎯常委资쎯常型特쎯	-10.6928
常提委쎯	-10.6931
参委应쎯	-10.6932
交而二쎯	-10.6933
交色口쎯常级委쎯	-10.6934
经쎯与쎯机쎯	-10.6939
参美计쎯常究信쎯参基度쎯	-10.6939
参育保쎯	-10.694
常统程쎯交者场쎯	-10.6941
单度重쎯建쎯化쎯经쎯经쎯常表口쎯	-10.6941
常育师쎯参海各쎯	-10.6943
长쎯万处间쎯	-10.6943
标天城쎯标天场쎯	-10.6944
参程米쎯器资网쎯	-10.6944
农处这쎯农信委쎯	-10.6944
标最级쎯	-10.6948
万从海쎯常资广쎯	-10.695
标他网쎯交十师쎯农从得쎯	-10.6951
交校度쎯交这得쎯常关海쎯	-10.6951
常二道쎯农形型쎯	-10.6953
器路保쎯常里并쎯	-10.6955
农道形쎯器提程쎯常委资쎯常各表쎯	-10.6955
单度重쎯标资关쎯常信者쎯	-10.6956
参米间쎯交校度쎯	-10.6965
参这究쎯交里并쎯参美计쎯	-10.6965
常关海쎯参各基쎯参而委쎯	-10.6968
常委育쎯	-10.6968
常质究쎯交这应쎯	-10.6969
建쎯农信信쎯	-10.6972
标形二쎯	-10.6972
单度重쎯交里型쎯常型特쎯万从海쎯	-10.6973
标度重쎯常信最쎯参者外쎯农道信쎯	-10.6974
全쎯全쎯全쎯全쎯	-10.6975
常师得쎯参而委쎯农信十쎯标数网쎯	-10.6976
常委这쎯常质委쎯	-10.6978
常组广쎯常各他쎯	-10.6979
参过表쎯标育社쎯	-10.698
参最广쎯常这色쎯	-10.698
交基天쎯	-10.6982
常城各쎯参最究쎯参师天쎯	-10.6984
器得路쎯	-10.6986
器并组쎯	-10.6988
交特海쎯	-10.6993
农道安쎯交他立쎯	-10.6995
农信质쎯建쎯化쎯化쎯设쎯常表口쎯	-10.6995
交村计쎯常过二쎯常型口쎯	-10.6996
参从特쎯常式最쎯	-10.6997
农道立쎯农道美쎯交校度쎯交这得쎯	-10.6998
常村他쎯单度程쎯	-10.6999
参这金쎯	-10.7
参程海쎯交信师쎯	-10.7002
参美计쎯农道度쎯常各场쎯	-10.7003
标目关쎯交路企쎯参这程쎯	-10.7006
常二组쎯	-10.7008
器得校쎯参特者쎯	-10.7012
器校前쎯参信表쎯	-10.7012
交者金쎯农信信쎯	-10.7013
交色口쎯交组场쎯	-10.7014
农处这쎯常立程쎯单度校쎯	-10.7017
标度美쎯农网者쎯	-10.7018
器保各쎯	-10.7018
标数程쎯	-10.7021
交并师쎯器校前쎯	-10.7021
常处立쎯标度师쎯农道信쎯	-10.7022
常二十쎯常育处쎯	-10.7023
农从从쎯农表质쎯	-10.7024
常各十쎯州企쎯	-10.7024
参师服쎯	-10.7027
农信质쎯建쎯化쎯化쎯长쎯常表口쎯	-10.7028
常数委쎯农从美쎯	-10.7028
农形特쎯常这广쎯	-10.7029
经쎯化쎯常表口쎯	-10.7032
常级场쎯农处这쎯参美计쎯	-10.7036
常色前쎯器过处쎯	-10.7036
常二村쎯常前数쎯交级他쎯参数育쎯	-10.7038
品쎯经쎯文쎯	-10.7038
交口者쎯常表统쎯常外度쎯	-10.7038
常二十쎯器色校쎯	-10.7039
器路保쎯农信十쎯	-10.7039
交这安쎯常校基쎯农信质쎯	-10.704
器校重쎯交者育쎯	-10.704
标基信쎯常级天쎯	-10.7041
建쎯化쎯化쎯常资十쎯	-10.7046
单度十쎯参应应쎯	-10.7046
常形信쎯交金基쎯	-10.7048
器式重쎯参重表쎯	-10.705
常各基쎯常级型쎯	-10.705
标程外쎯常级色쎯	-10.705
常保处쎯标组资쎯常海特쎯	-10.7052
交道者쎯标度二쎯	-10.7053
常型计쎯常师得쎯常型计쎯标数网쎯	-10.7054
交口形쎯交由从쎯	-10.7054
交路程쎯农处立쎯	-10.7055
常资程쎯	-10.7063
万从海쎯交这度쎯参形级쎯	-10.7064
参式村쎯参金最쎯标基表쎯参保各쎯	-10.7064
常目型쎯	-10.7065
常资形쎯交各特쎯农道美쎯	-10.707
标并	-10.7071
常二提쎯农道度쎯农道社쎯	-10.7073
交他得쎯农形质쎯	-10.7073
交二而쎯常二特쎯	-10.7074
农道里쎯常网过쎯农道形쎯农形形쎯	-10.7074
常道级쎯器海过쎯常里提쎯交金基쎯	-10.7084
参外	-10.7088
器外社쎯器基海쎯	-10.7089
农信质쎯建쎯化쎯经쎯建쎯常表口쎯	-10.7089
交里并쎯参基各쎯	-10.709
常十究쎯	-10.7091
经쎯化쎯常资应쎯标外海쎯	-10.7095
常二校쎯参保道쎯常资由쎯	-10.7096
常统程쎯万从海쎯	-10.7099
器各城쎯参米十쎯参美计쎯	-10.71
经쎯农信信쎯万从海쎯	-10.7101
器度海쎯常二级쎯	-10.7101
交这应쎯参式村쎯交得数쎯农道美쎯	-10.7104
交从最쎯器师信쎯	-10.7106
标外村쎯常育特쎯	-10.711
标基表쎯参保各쎯农处安쎯农信质쎯	-10.711
常资育쎯常二并쎯	-10.7111
江十쎯	-10.7112
农道立쎯标基表쎯	-10.7113
器口得쎯常处形쎯	-10.7116
交统城쎯	-10.7116
常级场쎯常委企쎯	-10.7117
常外信쎯标程立쎯	-10.7118
农信型쎯标度美쎯农城网쎯交安企쎯	-10.7119
参最广쎯交由数쎯参最广쎯标外二쎯	-10.7123
交他得쎯参最广쎯	-10.7123
器程最쎯常而级쎯常保处쎯	-10.7128
交安并쎯	-10.7128
交广基쎯器海过쎯	-10.7129
参应应쎯农道度쎯常前校쎯	-10.7129
常海特쎯单度程쎯	-10.7131
参究由쎯常各场쎯常信计쎯	-10.7131
建쎯化쎯常资十쎯	-10.7132
交二而쎯参型信쎯	-10.7133
参保口쎯参米十쎯	-10.7134
交形外쎯	-10.7135
常色前쎯常这广쎯	-10.7136
常资从쎯常各表쎯	-10.7137
单度重쎯农道度쎯器级应쎯	-10.7144
参从特쎯参金程쎯	-10.7146
常级者쎯器处提쎯	-10.7147
标者广쎯交级企쎯参处村쎯参米组쎯	-10.7147
常外信쎯农形形쎯	-10.7148
常保间쎯交者二쎯	-10.7148
交路程쎯参数资쎯	-10.7149
交过资쎯参形社쎯	-10.715
常二得쎯参级前쎯	-10.7151
参信提쎯农道信쎯	-10.7153
标最资쎯参重师쎯	-10.7155
常程美쎯常外信쎯农信委쎯	-10.7159
参美计쎯交过资쎯常委路쎯农道十쎯	-10.716
交目基쎯农城十쎯	-10.7165
交目色쎯常外信쎯	-10.7167
参校度쎯	-10.7168
标他这쎯	-10.7169
交信场쎯器式并쎯	-10.717
交海外쎯参型信쎯	-10.717
器十前쎯常得道쎯家쎯	-10.717
常保处쎯交色村쎯	-10.7171
常路海쎯	-10.7172
器路企쎯常级色쎯	-10.7174
标关师쎯	-10.7176
器路企쎯参重表쎯	-10.7176
交金村쎯交这广쎯	-10.7177
交过村쎯	-10.7177
常资师쎯参最路쎯	-10.7177
农信应쎯常师式쎯	-10.7179
参重表쎯万从海쎯	-10.7182
常质重쎯常各场쎯	-10.7183
器场资쎯器场校쎯	-10.7183
单度重쎯器网组쎯农信保쎯	-10.7183
农信信쎯常二重쎯	-10.7185
万从海쎯经쎯体쎯之쎯月쎯常表口쎯	-10.7189
农道型쎯常统道쎯	-10.719
交服立쎯	-10.7191
器而目쎯常安这쎯	-10.7191
参这程쎯常式最쎯常资美쎯交金基쎯	-10.7194
常式立쎯常而安쎯	-10.7196
参式究쎯器路程쎯	-10.7196
参这程쎯交最网쎯常信这쎯	-10.7197
常色前쎯交这师쎯	-10.7198
参组城쎯常而级쎯	-10.7198
交计美쎯	-10.7199
交并美쎯	-10.72
标城组쎯常型口쎯	-10.7201
参最广쎯参美计쎯	-10.7201
万从海쎯农处这쎯农道信쎯	-10.7202
常基村쎯标度金쎯	-10.7203
标道基쎯器重师쎯	-10.7206
交而间쎯	-10.7207
交道天쎯常企间쎯常道重쎯	-10.7213
交式而쎯	-10.7213
参基各쎯器各型쎯	-10.7214
常安数쎯参十应쎯	-10.7216
常城级쎯常育处쎯参美计쎯	-10.7216
万从海쎯标美场쎯常前间쎯	-10.7217
标服计쎯器各基쎯	-10.7218
常者并쎯	-10.7222
常究质쎯常资由쎯	-10.7223
常委资쎯常里他쎯常各表쎯标外二쎯	-10.7224
标社广쎯常表统쎯	-10.7227
交从最쎯常村他쎯万从海쎯	-10.7227
家쎯农道里쎯交特外쎯	-10.7228
器各城쎯常型外쎯参美计쎯	-10.723
参广由쎯常各美쎯交度式쎯	-10.7234
单质基쎯	-10.7235
单度程쎯器育网쎯	-10.7235
万从海쎯交者场쎯农形形쎯	-10.7238
常二组쎯器网色쎯	-10.7239
常前前쎯常道重쎯	-10.724
交这信쎯常信校쎯	-10.724
常海者쎯标目服쎯	-10.724
参最究쎯交校处쎯	-10.7241
常安者쎯农城式쎯	-10.7242
器村基쎯器而计쎯标资关쎯	-10.7242
标度目쎯农道特쎯	-10.7243
交质关쎯交色口쎯	-10.7245
常得立쎯	-10.7247
常处立쎯常处关쎯	-10.725
常安色쎯器前基쎯	-10.7251
参美计쎯常而海쎯交者场쎯万从海쎯	-10.7251
交组得쎯常城企쎯标数外쎯	-10.7252
常从数쎯标服委쎯	-10.7252
标天网쎯	-10.7253
体쎯交这级쎯常外信쎯参最究쎯	-10.7255
农形校쎯常表口쎯	-10.7258
万从保쎯交这师쎯交间者쎯常这色쎯	-10.7259
交最	-10.726
器过处쎯常校保쎯万从海쎯	-10.726
常保处쎯参最形쎯	-10.7262
常程美쎯交级而쎯	-10.7263
经쎯之쎯机쎯	-10.7263
常育处쎯常二十쎯	-10.7264
常间并쎯	-10.7265
单度重쎯家쎯万从美쎯	-10.7267
交这应쎯参目度쎯	-10.7267
常二村쎯器基海쎯参美计쎯	-10.7268
交天他쎯	-10.7269
农道色쎯常得海쎯万从海쎯	-10.727
农道度쎯参形计쎯	-10.727
参数社쎯器海计쎯	-10.7271
常各城쎯常各服쎯	-10.7271
标道基쎯参统城쎯	-10.7272
交企基쎯交色口쎯	-10.7273
常式立쎯交色二쎯	-10.7275
常得重쎯	-10.7275
常统而쎯	-10.7276
参美计쎯器得目쎯	-10.7276
州金쎯万从海쎯	-10.7276
标重各쎯交最网쎯	-10.7278
交里型쎯交者场쎯	-10.7278
器处	-10.7278
参由形쎯农道形쎯农形形쎯	-10.7284
常各表쎯常组广쎯	-10.7286
常安质쎯常型二쎯	-10.7288
之쎯常二企쎯	-10.7288
常各师쎯常资广쎯参最究쎯农信式쎯	-10.7288
常式这쎯参师外쎯	-10.729
农道特쎯参数海쎯常而计쎯常这色쎯	-10.7292
常间关쎯	-10.7293
农形	-10.7293
参美计쎯农道这쎯器育网쎯	-10.7294
常特计쎯农信质쎯	-10.7296
常究信쎯参基度쎯器各城쎯交特处쎯	-10.7298
万从海쎯农道度쎯农道社쎯	-10.7299
常表口쎯参信式쎯	-10.73
常保处쎯常各场쎯标外安쎯参重表쎯	-10.73
农道度쎯标提特쎯	-10.73
交统组쎯交从金쎯	-10.7301
常特组쎯	-10.7301
器目	-10.7302
交重广쎯参美计쎯	-10.7303
器城过쎯常型式쎯参美计쎯	-10.7309
参形二쎯器而育쎯参各基쎯参而委쎯	-10.7314
之쎯家쎯	-10.7315
导度目쎯农表十쎯	-10.7315
标度城쎯	-10.7315
常这广쎯交者育쎯交这应쎯	-10.7317
参里师쎯万从师쎯	-10.7317
交者场쎯参天信쎯	-10.732
器育网쎯交表特쎯	-10.7322
单度重쎯建쎯化쎯经쎯建쎯常表口쎯	-10.7324
标并质쎯农信村쎯	-10.7325
器口道쎯	-10.7326
交最网쎯常校基쎯	-10.7327
交海型쎯	-10.7327
参美计쎯参而委쎯器各信쎯	-10.7329
参美特쎯	-10.7332
农处这쎯参最广쎯万从海쎯	-10.7334
参级前쎯参美计쎯	-10.7335
参保委쎯常这色쎯	-10.7342
参最企쎯常里天쎯	-10.7345
农表而쎯常保里쎯	-10.7345
农道度쎯标程立쎯参城质쎯标并究쎯	-10.7347
万从海쎯建쎯化쎯化쎯设쎯常表口쎯	-10.7349
器村米쎯器校提쎯	-10.735
常二安쎯交他金쎯农信委쎯	-10.7352
参美计쎯交计究쎯器式师쎯	-10.7352
万从海쎯建쎯化쎯化쎯科쎯常表口쎯	-10.7353
参美计쎯常质究쎯常级组쎯	-10.7356
交间程쎯常资企쎯	-10.7358
万从美쎯交最得쎯交海程쎯	-10.7358
交这师쎯标组而쎯	-10.7358
交者育쎯器得里쎯	-10.736
器路十쎯单度十쎯万从美쎯导度这쎯	-10.7361
常目金쎯	-10.7363
常型式쎯器式计쎯交广基쎯	-10.7368
交这师쎯农信信쎯	-10.7369
器路服쎯	-10.7369
常级目쎯参信式쎯	-10.7371
参处村쎯交道道쎯	-10.7371
标目服쎯常海资쎯	-10.7372
常资十쎯交十师쎯	-10.7372
常道重쎯交最网쎯	-10.7374
标他究쎯常村他쎯	-10.7375
常式最쎯常各并쎯农从金쎯标过广쎯	-10.7375
参前由쎯单度重쎯	-10.7376
万从海쎯器育网쎯农道质쎯	-10.7376
流	-10.7379
交特外쎯常海特쎯标程者쎯农信式쎯	-10.7384
长쎯农信信쎯	-10.7385
交者场쎯交这究쎯万从海쎯	-10.7387
常保间쎯常网委쎯	-10.7388
参各度쎯交口程쎯	-10.739
交数企쎯	-10.7391
器校重쎯常育二쎯	-10.7392
交数组쎯器重统쎯常里提쎯标组服쎯	-10.7394
参应应쎯农道师쎯常前校쎯	-10.7394
常表口쎯农信式쎯	-10.7394
器得者쎯标保委쎯	-10.7395
长쎯方쎯	-10.7402
参十计쎯	-10.7402
标目金쎯器网村쎯	-10.7403
交特育쎯	-10.7403
经쎯单度程쎯	-10.7405
常天口쎯	-10.7406
交场式쎯	-10.7406
经쎯体쎯长쎯经쎯常表口쎯	-10.7412
常表由쎯交特表쎯参前由쎯	-10.7416
常里提쎯参式村쎯常道提쎯常型口쎯	-10.7422
常型口쎯参者保쎯	-10.7423
参师表쎯参重表쎯万从美쎯	-10.7423
常信最쎯交度育쎯	-10.7423
农道度쎯农信信쎯	-10.7424
交组得쎯器师统쎯	-10.7425
标提组쎯器二这쎯	-10.7426
常级关쎯常级委쎯	-10.7427
器程社쎯	-10.7427
交者育쎯常委保쎯	-10.7428
农道里쎯常网过쎯常色二쎯常里提쎯	-10.743
常资广쎯标数外쎯	-10.7433
万从海쎯建쎯化쎯化쎯月쎯常表口쎯	-10.7434
器校前쎯常信二쎯	-10.7444
参级企쎯	-10.7447
参得外쎯单度重쎯	-10.7447
化쎯化쎯化쎯	-10.7447
农信美쎯参过里쎯常道提쎯	-10.7448
器服米쎯参式色쎯农道信쎯导度这쎯	-10.7449
常得表쎯交师十쎯	-10.7449
常委安쎯参最究쎯	-10.7451
标目组쎯器计师쎯	-10.7452
常企育쎯常数委쎯参各基쎯参而委쎯	-10.7453
器得计쎯标度师쎯	-10.7455
常委这쎯农处这쎯参师天쎯	-10.7458
交最表쎯常级场쎯	-10.7458
常型特쎯万从海쎯	-10.7458
标这师쎯	-10.7459
器者	-10.7459
常统保쎯农道校쎯	-10.746
常安质쎯农道处쎯	-10.7461
参过究쎯常二色쎯	-10.7464
常表场쎯常资育쎯	-10.7464
万从级쎯交级特쎯	-10.7465
交质关쎯常而安쎯	-10.7465
常型计쎯标数网쎯	-10.7465
常色二쎯器得口쎯单度校쎯	-10.7467
器服米쎯交质级쎯农信级쎯	-10.7467
交十城쎯	-10.7471
交校育쎯参信道쎯	-10.7473
经쎯科쎯化쎯化쎯	-10.7473
农道校쎯交道道쎯	-10.7475
标由安쎯	-10.7478
常资里쎯常安程쎯	-10.7478
交这目쎯常形企쎯	-10.748
交师式쎯交由数쎯	-10.7482
常外金쎯农处数쎯	-10.7483
交由城쎯	-10.7484
常二得쎯标目金쎯	-10.7486
安	-10.7486
交目过쎯常校保쎯	-10.7486
单度重쎯交金表쎯交安各쎯	-10.7488
交校从쎯	-10.749
常形信쎯参里村쎯常企育쎯参广十쎯	-10.749
交由者쎯	-10.7491
常各场쎯单度重쎯	-10.7494
交安各쎯器得口쎯	-10.7494
农道安쎯常表道쎯	-10.7495
导度由쎯	-10.7496
常外信쎯参最究쎯常这广쎯	-10.7499
农道度쎯器企得쎯	-10.7499
参式村쎯常各型쎯	-10.75
常师安쎯常安米쎯	-10.7501
交得数쎯农道美쎯万从海쎯	-10.7505
农处这쎯器得安쎯	-10.7509
器得里쎯万从美쎯	-10.751
器重基쎯农形处쎯常级场쎯	-10.7512
农道城쎯常校间쎯参美计쎯	-10.7513
农道校쎯农信委쎯	-10.7518
参形社쎯	-10.7519
器二这쎯器重口쎯	-10.752
参外过쎯交特组쎯	-10.7521
常间过쎯常这城쎯	-10.7526
参里师쎯器基海쎯农道美쎯	-10.7526
交得最쎯常提重쎯	-10.7528
常质广쎯	-10.7529
器最	-10.7531
交者资쎯器基海쎯参型城쎯	-10.7531
标究由쎯参各前쎯	-10.7534
参美计쎯器过处쎯常校保쎯	-10.7536
长쎯与쎯建쎯	-10.7537
农道间쎯	-10.7538
常色型쎯常资场쎯交他得쎯	-10.7538
交里并쎯常从二쎯交级而쎯参米十쎯	-10.754
常级表쎯	-10.7541
经쎯之쎯设쎯	-10.7543
常目外쎯常二得쎯	-10.7548
农处立쎯常间十쎯	-10.7549
标外质쎯参最究쎯	-10.755
器级社쎯参天信쎯常资应쎯常二道쎯	-10.7551
器城表쎯参数海쎯	-10.7552
农处立쎯常级场쎯	-10.7553
单计式쎯单计	-10.7555
交他质쎯参二金쎯	-10.7555
参处村쎯交他得쎯	-10.7556
交信社쎯常质网쎯	-10.7557
标并究쎯器色前쎯	-10.7559
器间安쎯常资育쎯	-10.7559
参这究쎯器二海쎯	-10.7559
交基过쎯器校前쎯	-10.756
常质究쎯交特组쎯万从美쎯	-10.756
常表由쎯交特表쎯参前由쎯单度重쎯	-10.756
常究信쎯参目并쎯交数组쎯	-10.7561
常色委쎯农从美쎯	-10.7561
常安村쎯	-10.7563
常色二쎯常而过쎯	-10.7563
交由师쎯常企间쎯	-10.7563
常计网쎯参式村쎯	-10.7564
标关间쎯	-10.7564
器二前쎯	-10.7566
标重形쎯器网村쎯	-10.7566
交目特쎯	-10.7567
单度程쎯交目质쎯	-10.7571
常安过쎯农道外쎯	-10.7573
常质委쎯参形二쎯	-10.7577
器式师쎯常城者쎯	-10.7579
农道社쎯交度式쎯常海特쎯	-10.758
参形目쎯参从他쎯	-10.758
农道里쎯交得关쎯	-10.7582
常资应쎯农信型쎯	-10.7583
参基	-10.7585
经쎯体쎯建쎯	-10.7586
交这信쎯交间计쎯万从海쎯	-10.7587
器度海쎯交级而쎯万从海쎯	-10.7589
器保组쎯	-10.7589
常级委쎯交由海쎯	-10.759
参美计쎯参保各쎯交金外쎯	-10.7591
器得者쎯交特外쎯	-10.7593
单度十쎯万从海쎯单度校쎯	-10.7595
常安过쎯参前由쎯	-10.7599
常者这쎯	-10.7599
交二二쎯参形他쎯	-10.7601
建쎯与쎯科쎯	-10.7601
标基信쎯常信二쎯	-10.7602
万从海쎯交立资쎯标数网쎯	-10.7604
农道立쎯常各场쎯万从海쎯	-10.7605
导资	-10.7606
器各信쎯器网色쎯	-10.7606
交目度쎯常各由쎯	-10.7607
常程网쎯	-10.761
交这师쎯器度数쎯常这色쎯	-10.7611
交关	-10.7613
万从美쎯之쎯	-10.7614
交最表쎯标目天쎯常从度쎯交最城쎯	-10.7615
标者形쎯常而安쎯	-10.7616
常二重쎯器色十쎯	-10.7616
万从海쎯标美场쎯常前间쎯农信质쎯	-10.7617
参基各쎯农网目쎯	-10.7619
器数	-10.7619
农道信쎯农形度쎯农表级쎯	-10.7619
常保间쎯常处关쎯	-10.7623
常表统쎯交师色쎯	-10.7623
参统城쎯常信提쎯	-10.7624
常校网쎯常校保쎯	-10.7626
动쎯建쎯	-10.7629
器各统쎯器式并쎯	-10.7629
器委目쎯	-10.763
常二得쎯农形育쎯常这广쎯	-10.763
万从海쎯器育网쎯标重形쎯	-10.7631
交质育쎯常二并쎯万从美쎯	-10.7632
单度重쎯导度组쎯	-10.7634
农信信쎯参式色쎯	-10.7634
交关间쎯	-10.7635
参式程쎯农信信쎯	-10.7635
参师表쎯交各校쎯参美计쎯	-10.7639
交最场쎯器口里쎯	-10.7639
参重组쎯	-10.7641
标服委쎯器服特쎯	-10.7644
器金	-10.765
万从海쎯常安者쎯农道质쎯	-10.7651
参而委쎯常网路쎯万从海쎯	-10.7658
器级这쎯	-10.7659
交服路쎯	-10.7659
标美场쎯	-10.766
标外安쎯常型安쎯	-10.7661
参美计쎯常校究쎯器过处쎯	-10.7661
器网保쎯常海特쎯	-10.7665
标外村쎯常级美쎯	-10.7665
交者场쎯常级形쎯	-10.7666
常表口쎯标组安쎯交色口쎯标外二쎯	-10.7667
农形校쎯交者育쎯	-10.7669
交这信쎯器信米쎯	-10.767
农城目쎯参计场쎯	-10.7674
常师得쎯交度形쎯参形二쎯参而委쎯	-10.7674
参保口쎯参信网쎯	-10.7676
交师式쎯常得从쎯	-10.7677
常委资쎯常这色쎯	-10.7679
农信信쎯常网过쎯	-10.7681
农信型쎯标度美쎯器网而쎯器城立쎯	-10.7682
设쎯农信信쎯	-10.7683
交而信쎯常道提쎯	-10.7684
单度数쎯	-10.7684
万从海쎯参式色쎯农道信쎯	-10.7685
标服委쎯常资级쎯	-10.7686
常前前쎯交目村쎯	-10.7687
农表提쎯万从海쎯	-10.7688
器程社쎯交他质쎯	-10.7689
经쎯长쎯月쎯	-10.7689
参组城쎯农道外쎯	-10.7692
器立师쎯	-10.7694
交村外쎯交形美쎯	-10.7694
标保安쎯	-10.7696
参由得쎯参前由쎯	-10.7696
家쎯设쎯与쎯	-10.7698
器外社쎯参计场쎯农网目쎯交校型쎯	-10.7699
农表十쎯参式色쎯	-10.7703
建쎯化쎯化쎯经쎯	-10.7703
常这色쎯常而安쎯	-10.7705
交道里쎯	-10.7706
交这应쎯器口广쎯	-10.7709
参外育쎯	-10.7709
常型美쎯标过广쎯	-10.7711
标数网쎯单度程쎯	-10.7711
万从海쎯农表究쎯交这师쎯	-10.7711
常各间쎯农表金쎯	-10.7711
常形信쎯常保处쎯	-10.7712
常企育쎯常里提쎯标组服쎯	-10.7714
交统程쎯	-10.7715
常处前쎯常立安쎯常校保쎯	-10.7715
交者服쎯交这师쎯	-10.7716
交最表쎯常而安쎯农道信쎯	-10.7718
单度重쎯州金쎯	-10.772
参质外쎯常资级쎯	-10.772
常各场쎯农信信쎯	-10.7722
交级他쎯常这信쎯	-10.7722
交特外쎯农表提쎯	-10.7726
常处服쎯常校网쎯	-10.7729
常而海쎯交者场쎯农表究쎯交他得쎯	-10.7729
农城网쎯交安企쎯	-10.773
常色前쎯常过二쎯	-10.7732
标过处쎯常二得쎯农形育쎯	-10.7735
器城过쎯标米他쎯参美计쎯	-10.7735
器服特쎯	-10.7735
常数委쎯常里提쎯标组服쎯	-10.7738
交究	-10.7738
常而师쎯参育育쎯	-10.774
常信数쎯标过广쎯	-10.7741
标过广쎯农形场쎯	-10.7741
农表级쎯	-10.7742
参信表쎯标育色쎯	-10.7742
单度校쎯单度十쎯	-10.7745
参师表쎯州企쎯	-10.7748
常形场쎯常各师쎯	-10.7748
农道度쎯交这究쎯	-10.7749
常各基쎯交金道쎯	-10.7749
农形资쎯交这师쎯	-10.7749
常这广쎯器网组쎯	-10.775
万从海쎯常校由쎯常校广쎯常校保쎯	-10.7752
常表由쎯交特表쎯	-10.7752
农表十쎯农表基쎯	-10.7752
交金道쎯交基过쎯	-10.7752
参最究쎯农信式쎯标最度쎯常最各쎯	-10.7754
常安过쎯常资十쎯	-10.7755
交者金쎯器各信쎯	-10.7758
交者育쎯参保校쎯	-10.7759
参美计쎯参形从쎯常而级쎯	-10.776
农表而쎯常保服쎯	-10.776
交色口쎯常质网쎯	-10.7761
标统程쎯器网资쎯	-10.7762
单度重쎯建쎯化쎯化쎯设쎯常表口쎯	-10.7764
常型天쎯交色最쎯	-10.7765
参二里쎯标数网쎯	-10.7765
交计二쎯交度目쎯交他得쎯	-10.7766
交这信쎯农处立쎯	-10.7766
万从海쎯常得表쎯农信质쎯	-10.7767
交道资쎯交育美쎯	-10.777
常各海쎯交级而쎯农信委쎯	-10.777
州前쎯	-10.7772
参统城쎯参城质쎯	-10.7773
经쎯文쎯	-10.7775
常师安쎯器信米쎯交他得쎯	-10.7776
交外	-10.7781
参计特쎯	-10.7782
交计二쎯农道信쎯	-10.7784
器得口쎯万从海쎯	-10.7785
交级网쎯单度程쎯	-10.7786
交色村쎯器而育쎯	-10.7786
交里育쎯标社型쎯	-10.7794
农道度쎯交者场쎯	-10.7794
常信间쎯	-10.7797
农表十쎯常型特쎯	-10.7798
万从海쎯常资前쎯交这师쎯	-10.7799
交度式쎯参特城쎯参者资쎯	-10.78
参金最쎯参天场쎯常村他쎯万从海쎯	-10.7808
常色二쎯参程米쎯	-10.781
单度程쎯常海者쎯农信应쎯	-10.7811
体쎯交这级쎯器外由쎯	-10.7813
农道度쎯交金企쎯万从海쎯	-10.7813
器二统쎯常城十쎯常各城쎯	-10.7814
交里海쎯常最前쎯	-10.7814
参保各쎯参美计쎯交他得쎯	-10.7815
农道里쎯常网过쎯万从海쎯	-10.7816
常保服쎯标数网쎯	-10.7816
常二村쎯参过里쎯	-10.7819
常道重쎯常这信쎯参美计쎯	-10.782
常各美쎯常级场쎯	-10.7821
交度形쎯参信网쎯	-10.7822
万从海쎯交统基쎯交这师쎯	-10.7826
常城各쎯参前由쎯	-10.7828
交校育쎯器里提쎯	-10.783
交由由쎯	-10.7831
器程最쎯参形这쎯	-10.7831
常天师쎯	-10.784
参二金쎯常各目쎯	-10.7841
建쎯化쎯化쎯建쎯	-10.7841
参二校쎯参村美쎯	-10.7847
交并安쎯	-10.7848
常安米쎯器式委쎯	-10.7848
交型里쎯常这委쎯常处服쎯	-10.7849
交服资쎯器校前쎯	-10.7852
农网间쎯	-10.7852
之쎯交这级쎯常外信쎯参最究쎯	-10.7856
常里而쎯单度重쎯	-10.7857
农表十쎯标程立쎯	-10.7858
常各美쎯常前资쎯	-10.786
农道师쎯参形口쎯	-10.7861
交特色쎯农道特쎯参信社쎯	-10.7861
常型特쎯器基广쎯	-10.7862
月쎯常资应쎯标外海쎯	-10.7862
标外村쎯参师海쎯	-10.7863
月쎯化쎯家쎯	-10.7864
参最路쎯标他形쎯	-10.7865
参美重쎯	-10.7866
参而委쎯常里提쎯	-10.7866
交十应쎯	-10.7867
农道质쎯常资场쎯	-10.7869
交由广쎯常色计쎯	-10.787
器外社쎯参计场쎯交目村쎯标美场쎯	-10.787
标他口쎯标他由쎯	-10.7872
交这十쎯	-10.7875
农道校쎯交他金쎯	-10.7875
标信提쎯常资十쎯标并质쎯	-10.7875
月쎯化쎯参前由쎯	-10.7876
参信型쎯	-10.7878
常数提쎯	-10.7881
常里者쎯交得安쎯	-10.7881
参这程쎯标程立쎯	-10.7883
农信最쎯常型式쎯	-10.7885
常保处쎯标组资쎯器口道쎯交他立쎯	-10.7888
交这应쎯农信信쎯	-10.7888
常级金쎯标组型쎯	-10.7891
常级村쎯农信十쎯	-10.7893
参美计쎯参型城쎯农从美쎯	-10.7894
常里提쎯标组服쎯标组服쎯标数网쎯	-10.7894
单度重쎯导度目쎯常最而쎯	-10.7895
交表特쎯交由校쎯	-10.7898
参委	-10.7898
常安数쎯农道度쎯	-10.7899
交里并쎯标目服쎯	-10.7899
交级而쎯常立程쎯	-10.79
常色村쎯常色委쎯	-10.7902
参组城쎯常信提쎯	-10.7906
常度信쎯	-10.7907
交程十쎯参级前쎯	-10.7907
参式村쎯交校度쎯交级而쎯交间这쎯	-10.791
器重得쎯常各美쎯	-10.7914
常道级쎯器路计쎯	-10.7916
参各基쎯参而委쎯常里提쎯标组服쎯	-10.7917
常最而쎯交这目쎯	-10.7919
交里形쎯常而质쎯	-10.7924
器过美쎯	-10.7925
农道形쎯交统形쎯	-10.7925
常表口쎯万从级쎯常资应쎯常资过쎯	-10.7927
常二级쎯交他得쎯	-10.7927
常而提쎯	-10.793
常育由쎯万从海쎯交前师쎯交者二쎯	-10.7931
器得口쎯器得目쎯	-10.7931
万从海쎯交这师쎯交者场쎯	-10.7932
交二而쎯常而安쎯	-10.7932
农表间쎯	-10.7934
交过资쎯器校重쎯	-10.7935
导度目쎯万从师쎯	-10.7937
常里提쎯标组服쎯交数组쎯交质级쎯	-10.7937
交目育쎯交信而쎯农信质쎯	-10.7939
交校计쎯	-10.7939
交这信쎯常组广쎯农信信쎯	-10.7941
参式村쎯常村他쎯	-10.7947
交并数쎯	-10.7951
标过村쎯常企间쎯常道重쎯	-10.7952
参应保쎯	-10.7952
参他度쎯	-10.7953
交者天쎯常表口쎯	-10.7958
品쎯建쎯文쎯	-10.7959
参形委쎯器外口쎯	-10.7963
参最路쎯交服得쎯	-10.7964
常校究쎯器过处쎯万从美쎯	-10.7964
农道里쎯常保处쎯常处立쎯农形并쎯	-10.7966
参十应쎯参米十쎯参美计쎯	-10.7967
标间	-10.7968
常式最쎯农表提쎯器各色쎯	-10.7968
常育由쎯参最究쎯	-10.797
交他得쎯交金表쎯交安各쎯	-10.7971
交数组쎯器重统쎯交数组쎯常里提쎯	-10.7972
常各间쎯参最广쎯交度式쎯	-10.7973
参师表쎯交这师쎯参美计쎯	-10.7974
常色二쎯交道道쎯交级二쎯	-10.7976
农信式쎯常这色쎯	-10.7978
器间安쎯器路计쎯	-10.7979
交特色쎯农道度쎯农形并쎯	-10.7979
农网各쎯器各服쎯	-10.798
农信海쎯常安程쎯常表口쎯	-10.7981
分쎯分쎯建쎯化쎯化쎯长쎯家쎯	-10.7983
常校保쎯标外二쎯标保计쎯常质美쎯	-10.7984
全쎯建쎯化쎯	-10.7984
农信美쎯参式安쎯	-10.7986
农形形쎯交计二쎯	-10.7986
器级应쎯参美计쎯	-10.7987
法쎯法쎯	-10.7987
交表网쎯常这色쎯	-10.7988
标重并쎯交金企쎯	-10.799
万从海쎯常表口쎯	-10.7995
常安程쎯常级委쎯农城网쎯常级天쎯	-10.8
常委企쎯交色口쎯	-10.8004
单度级쎯	-10.8006
农从美쎯标数网쎯	-10.8006
单度校쎯交前师쎯农表提쎯州企쎯	-10.8006
标度目쎯	-10.8008
标者各쎯标服他쎯单度重쎯	-10.8009
器资数쎯	-10.8009
万从海쎯交路组쎯交前究쎯	-10.8011
农道安쎯常二他쎯	-10.8013
单度重쎯农形特쎯农形应쎯	-10.8015
参者资쎯常二他쎯	-10.8017
常前度쎯单度程쎯	-10.8017
常安道쎯	-10.8018
常处前쎯常立安쎯常校保쎯参美计쎯	-10.802
常得表쎯常资场쎯	-10.8021
参师表쎯参信提쎯	-10.8021
参美计쎯参最究쎯农信式쎯	-10.8023
与쎯经쎯经쎯	-10.8024
器基安쎯	-10.8024
参信企쎯	-10.8025
导度这쎯常保口쎯常师网쎯导度目쎯	-10.8028
标最重쎯参最路쎯交前金쎯	-10.803
常委这쎯器安得쎯	-10.803
导度目쎯万从保쎯	-10.8033
农网基쎯器路特쎯	-10.8033
常前间쎯农信质쎯农信村쎯常安者쎯	-10.8033
交级社쎯交里服쎯	-10.8036
参从资쎯参最道쎯	-10.8036
常前育쎯器基海쎯	-10.8037
交广究쎯	-10.8039
交师表쎯常外委쎯万从海쎯	-10.804
参级委쎯常二村쎯	-10.804
交目委쎯器二海쎯	-10.8042
参信网쎯交目基쎯	-10.8043
利前쎯	-10.8043
常得表쎯标目服쎯	-10.8043
常金社쎯	-10.8044
万从海쎯经쎯体쎯之쎯建쎯常表口쎯	-10.8045
常资各쎯	-10.8047
交美广쎯	-10.8047
农网基쎯农形色쎯	-10.8047
参程场쎯	-10.8051
月쎯经쎯建쎯	-10.8052
文쎯与쎯	-10.8054
家쎯万从美쎯	-10.8055
常而者쎯万从究쎯	-10.8056
器度海쎯器广度쎯	-10.8056
参基各쎯	-10.8056
家쎯常资应쎯常二道쎯	-10.8057
器路计쎯常校天쎯	-10.8061
交他得쎯常保处쎯常各场쎯	-10.8062
常形特쎯	-10.8063
交他得쎯农道度쎯常各场쎯农形育쎯	-10.8063
建쎯化쎯化쎯参前由쎯	-10.8067
标城	-10.8067
器城委쎯	-10.8068
常安过쎯标外海쎯	-10.8069
参美计쎯农处安쎯参处各쎯	-10.8069
常组广쎯农形场쎯	-10.807
常各间쎯标组资쎯农道校쎯	-10.807
参米组쎯常目度쎯常这广쎯	-10.8071
农道安쎯器式计쎯常级组쎯	-10.8074
参组形쎯常这信쎯	-10.8074
常得表쎯交得最쎯	-10.8076
单度重쎯常而海쎯交者场쎯	-10.8077
常基村쎯器过场쎯	-10.808
常关由쎯常者处쎯	-10.8082
万从保쎯器口究쎯器口并쎯	-10.8082
常安者쎯标目服쎯	-10.8083
参而社쎯	-10.8083
农处立쎯参美计쎯	-10.8084
经쎯常资应쎯标外海쎯	-10.8084
交而应쎯	-10.8085
常育十쎯交特者쎯	-10.8087
参米十쎯常安由쎯	-10.8089
常关应쎯	-10.809
标并质쎯交表网쎯	-10.8091
农信质쎯建쎯化쎯化쎯建쎯常表口쎯	-10.8091
建쎯文쎯	-10.8094
交特色쎯农信信쎯	-10.8094
常安二쎯农处这쎯	-10.8096
单度重쎯常保金쎯农道信쎯	-10.8097
交二而쎯常外信쎯参美计쎯	-10.8098
经쎯体쎯体쎯	-10.8103
农形育쎯农信信쎯农道信쎯交这应쎯	-10.8104
月쎯化쎯化쎯参前由쎯	-10.8107
标目关쎯常前前쎯	-10.8107
参里师쎯参师表쎯参重表쎯	-10.8108
参形计쎯参形外쎯参美计쎯	-10.8111
农道里쎯交这度쎯	-10.8113
常这	-10.8113
参式程쎯参米十쎯	-10.8114
常资应쎯标外海쎯常型计쎯万从海쎯	-10.8114
参最广쎯交级企쎯交二而쎯农城保쎯	-10.8117
之쎯常资应쎯标外海쎯	-10.8118
常重应쎯	-10.8121
器网外쎯交数二쎯	-10.8124
常二特쎯农形并쎯	-10.8124
常各	-10.8124
器十二쎯参形口쎯常究过쎯	-10.8125
常村服쎯万从究쎯	-10.8125
场	-10.8126
参美计쎯农道度쎯标提特쎯	-10.8126
交特外쎯交这应쎯	-10.8128
常提表쎯常提表쎯	-10.8129
常二村쎯常前数쎯交级而쎯农道信쎯	-10.813
江校쎯	-10.8131
农道外쎯常资过쎯单度重쎯	-10.8131
导者十쎯	-10.8132
交基育쎯标数外쎯	-10.8134
万从海쎯农道安쎯器网外쎯	-10.8136
参十各쎯常里而쎯	-10.8136
常里提쎯参由形쎯	-10.8137
常形	-10.8138
常资应쎯交色村쎯	-10.8139
农道校쎯常道重쎯交者场쎯标者口쎯	-10.8143
常二村쎯常前数쎯器式计쎯常级关쎯	-10.8145
器过基쎯常而海쎯	-10.8146
常金	-10.8147
农道信쎯万从美쎯	-10.815
万从海쎯建쎯化쎯化쎯建쎯常表口쎯	-10.815
常城基쎯常二统쎯	-10.815
参处数쎯	-10.8151
器社立쎯	-10.8152
标形计쎯器型而쎯器师统쎯	-10.8152
常他质쎯	-10.8152
器路企쎯农信委쎯	-10.8153
常而质쎯常十型쎯	-10.8155
交得最쎯器路保쎯农道里쎯	-10.8155
农表师쎯常校基쎯	-10.8157
常道提쎯常校广쎯	-10.8157
常前前쎯农道校쎯	-10.8159
万从级쎯常海资쎯交十应쎯	-10.8162
常安企쎯万从海쎯	-10.8164
农城网쎯交他得쎯	-10.8164
农道安쎯器式程쎯	-10.8166
常资过쎯农形并쎯	-10.8167
交校度쎯器师信쎯	-10.8168
经쎯体쎯之쎯	-10.8168
万从海쎯建쎯化쎯化쎯长쎯常表口쎯	-10.8173
器而处쎯常各间쎯	-10.8175
交这广쎯器口广쎯	-10.8176
农道形쎯器提程쎯常海资쎯交十应쎯	-10.8176
器得育쎯常资应쎯常二道쎯	-10.8177
交金基쎯器级安쎯	-10.818
参保而쎯农道美쎯	-10.8182
交资级쎯常特计쎯	-10.8184
参信服쎯交者者쎯	-10.8184
交最场쎯参从天쎯	-10.8185
器他	-10.8187
常间十쎯农从程쎯农道美쎯	-10.8187
标保场쎯农形场쎯	-10.819
设쎯月쎯化쎯	-10.819
常级外쎯常师统쎯	-10.819
参统师쎯农道目쎯	-10.8193
交色口쎯农信式쎯	-10.8194
农从金쎯常校广쎯	-10.8199
器外社쎯交统形쎯常质网쎯	-10.82
常二村쎯参者资쎯	-10.82
标重各쎯参育广쎯	-10.8207
万从海쎯经쎯体쎯之쎯科쎯常表口쎯	-10.8208
常二得쎯器色立쎯	-10.8208
交最网쎯交由数쎯	-10.821
分쎯家쎯	-10.8211
常外网쎯	-10.8212
设쎯之쎯化쎯	-10.8214
交资服쎯交资服쎯	-10.8215
常师得쎯农道形쎯农形形쎯万从海쎯	-10.8216
单度重쎯建쎯化쎯化쎯建쎯常表口쎯	-10.8217
交十师쎯交特得쎯	-10.8218
器而育쎯常资形쎯农道色쎯常得海쎯	-10.8218
器基	-10.8218
交他得쎯万从美쎯	-10.8219
标他网쎯交金表쎯常形企쎯	-10.8221
常资米쎯器式关쎯	-10.8222
常表从쎯器组米쎯	-10.8224
常师得쎯农从美쎯标数网쎯	-10.8225
常表统쎯常外度쎯	-10.8229
参质色쎯农道信쎯农道里쎯常保处쎯	-10.823
农道形쎯器提程쎯参形二쎯器而育쎯	-10.8231
交色广쎯标资道쎯	-10.8231
常从他쎯交师应쎯	-10.8234
常重广쎯常里他쎯	-10.8235
月쎯与쎯	-10.8238
常服间쎯常校金쎯农信委쎯	-10.824
常二得쎯参最广쎯农信质쎯	-10.8241
常各间쎯交者场쎯	-10.8243
交里外쎯	-10.8245
标过广쎯器而处쎯	-10.8246
交计究쎯常信最쎯	-10.8249
单度重쎯交海外쎯	-10.8251
万从海쎯常而海쎯交者场쎯农表究쎯	-10.8251
器得里쎯器广度쎯常里提쎯	-10.8253
导度目쎯家쎯品쎯建쎯文쎯与쎯	-10.8257
器安师쎯交这应쎯交型安쎯参师天쎯	-10.8258
标最型쎯	-10.8258
单度重쎯常而质쎯交目育쎯	-10.8259
交师度쎯器外口쎯	-10.8259
单度重쎯常而海쎯常表口쎯	-10.8263
长쎯与쎯科쎯	-10.8263
交组关쎯	-10.8265
农信十쎯单度重쎯	-10.8265
常究表쎯器各里쎯农道里쎯常网过쎯	-10.8266
农信信쎯常这广쎯	-10.8267
经쎯化쎯化쎯教쎯	-10.8268
参式形쎯交型安쎯	-10.8271
常程这쎯器处提쎯常这信쎯	-10.8273
交组十쎯常安外쎯农道信쎯	-10.8273
参最路쎯常二色쎯	-10.8273
参究由쎯常海特쎯	-10.8274
农信十쎯常各间쎯	-10.8274
常级委쎯常级米쎯农道信쎯	-10.8279
参式村쎯农道形쎯农形形쎯	-10.828
万从海쎯农道安쎯农形资쎯	-10.828
万从海쎯建쎯化쎯化쎯机쎯常表口쎯	-10.8283
农道型쎯交目基쎯	-10.8284
参过式쎯常从度쎯	-10.8285
单度程쎯交这安쎯常校基쎯	-10.8286
器基广쎯常处色쎯	-10.8287
交二	-10.829
常型特쎯器口道쎯	-10.8292
单度重쎯建쎯化쎯化쎯长쎯常表口쎯	-10.8293
标组计쎯农形场쎯	-10.8293
器质米쎯交特得쎯参式村쎯	-10.8294
常道级쎯农形质쎯	-10.8295
万从海쎯器质企쎯常城者쎯	-10.8296
常二并쎯万从海쎯	-10.8297
交度式쎯单度重쎯	-10.8299
常各美쎯交这究쎯	-10.83
常色二쎯农信质쎯	-10.83
常道重쎯常这信쎯器而育쎯标最度쎯	-10.83
农道度쎯标过广쎯常级委쎯	-10.8301
器城过쎯常育处쎯	-10.8302
农道度쎯常型式쎯	-10.8303
万从海쎯农表究쎯常二得쎯农形育쎯	-10.8303
常保处쎯参前安쎯	-10.8304
参米育쎯器得目쎯	-10.8306
器者二쎯农表提쎯	-10.8306
标关城쎯	-10.831
农道形쎯器提程쎯农信式쎯常立程쎯	-10.831
常而计쎯交这师쎯	-10.831
参美计쎯交这度쎯交特色쎯	-10.8311
常外信쎯参师级쎯常二村쎯器基海쎯	-10.8312
常二并쎯交这安쎯	-10.8313
常型式쎯常校保쎯	-10.8313
常从数쎯交立质쎯	-10.8314
交统表쎯万从海쎯	-10.8314
器得道쎯常型美쎯	-10.8314
万从海쎯交企前쎯常二者쎯	-10.8315
常而安쎯常道级쎯	-10.8315
常这色쎯常目度쎯万从美쎯	-10.8316
常信二쎯单度十쎯万从美쎯导度这쎯	-10.8317
参特委쎯	-10.8317
设쎯常资应쎯标外海쎯	-10.8319
常色处쎯参各基쎯	-10.8319
参口式쎯标重形쎯	-10.832
常并色쎯器社师쎯	-10.832
标天形쎯常这色쎯	-10.8321
交究最쎯器处得쎯	-10.8321
常社	-10.8322
交场提쎯交形村쎯	-10.8322
常二色쎯常海者쎯	-10.8324
参育里쎯参育度쎯	-10.8326
农形质쎯常色二쎯	-10.8326
农信天쎯单度重쎯常资广쎯交目村쎯	-10.8328
品쎯经쎯之쎯	-10.8329
交保网쎯农形并쎯	-10.8331
参提	-10.8331
交村计쎯常过二쎯交这信쎯	-10.8332
参美计쎯交度目쎯交过由쎯	-10.8338
农表提쎯常委组쎯	-10.8339
常保金쎯常里而쎯	-10.834
器外由쎯常色村쎯	-10.834
标组数쎯	-10.834
器并口쎯	-10.8341
标他而쎯器网色쎯农信委쎯	-10.8342
交信而쎯器外社쎯	-10.8342
交保口쎯标米他쎯	-10.8343
交提重쎯	-10.8344
交间服쎯参信处쎯	-10.8344
建쎯月쎯常资十쎯	-10.8344
标组社쎯	-10.8345
交者金쎯交得保쎯	-10.8347
器网组쎯参前形쎯	-10.8351
农道形쎯交特组쎯	-10.8352
农表十쎯农处这쎯	-10.8352
参信提쎯建쎯	-10.8353
常型天쎯参天信쎯	-10.8353
农表提쎯单度十쎯万从美쎯导度这쎯	-10.8355
器各城쎯常型外쎯单度程쎯	-10.8358
常从度쎯常色程쎯	-10.8359
常二村쎯器基广쎯农处这쎯常立程쎯	-10.8361
农从美쎯交师度쎯	-10.8362
交他城쎯参型信쎯常组广쎯	-10.8365
科쎯家쎯	-10.8365
农表色쎯常安特쎯	-10.8366
常保保쎯交特表쎯	-10.8367
参信服쎯交间并쎯	-10.8367
农道形쎯常校间쎯参美计쎯	-10.8368
器数城쎯	-10.837
参美计쎯参保各쎯参美计쎯	-10.8371
分쎯长쎯	-10.8371
常级委쎯标资安쎯常级色쎯	-10.8373
常保服쎯器口里쎯	-10.8374
农道里쎯常网过쎯单度重쎯	-10.8376
农道口쎯常信校쎯常企育쎯农处这쎯	-10.8377
单度重쎯常资级쎯常而质쎯	-10.8377
器得前쎯	-10.8378
常路天쎯	-10.8381
参数海쎯参美计쎯	-10.8382
参统究쎯	-10.8384
常表口쎯器处形쎯农信信쎯	-10.8385
经쎯全쎯建쎯	-10.8386
农道形쎯器提程쎯农形育쎯参式安쎯	-10.8386
参最路쎯常企育쎯	-10.8388
常这色쎯常校网쎯	-10.8389
交过由쎯器提程쎯	-10.839
常资育쎯标者广쎯	-10.8392
常这信쎯农道校쎯	-10.8393
万从海쎯常村级쎯	-10.8397
常外信쎯参师级쎯单度重쎯	-10.8398
家쎯月쎯	-10.8398
交里海쎯器得安쎯	-10.8399
农网目쎯交道天쎯	-10.84
交究二쎯交间者쎯	-10.8401
万从海쎯交度形쎯标目服쎯参式得쎯	-10.8402
经쎯月쎯常级委쎯标关究쎯	-10.8404
参立企쎯常组广쎯	-10.8405
器城资쎯交特组쎯	-10.8406
常各服쎯交级企쎯参美计쎯	-10.8406
常安立쎯器场校쎯	-10.8407
器各天쎯交重广쎯	-10.8407
常立育쎯常立育쎯	-10.8407
常型美쎯交金企쎯	-10.8408
常企育쎯农处这쎯标过广쎯标者广쎯	-10.841
交色最쎯器口广쎯	-10.8411
常企育쎯器路计쎯	-10.8412
器目口쎯器目场쎯	-10.8413
器过处쎯常校保쎯参美计쎯	-10.8414
常各间쎯常校基쎯	-10.8414
常网过쎯交过资쎯	-10.8414
标育前쎯	-10.8415
常资应쎯常二道쎯农处安쎯农信质쎯	-10.8416
标社海쎯交最场쎯	-10.8419
参金最쎯常二村쎯单度程쎯参最究쎯	-10.8419
交安究쎯常各由쎯	-10.842
农处网쎯常村处쎯	-10.8422
常这广쎯农道度쎯农道社쎯	-10.8422
器各城쎯器各基쎯农道质쎯	-10.8423
器得安쎯常资道쎯	-10.8425
单度重쎯常保金쎯交里型쎯万从海쎯	-10.8428
标程路쎯常城社쎯	-10.8431
常前间쎯农道十쎯参美计쎯	-10.8432
标目服쎯常师安쎯	-10.8432
标组计쎯常校金쎯	-10.8432
器处处쎯农处立쎯	-10.8434
交师十쎯常校广쎯	-10.8434
常从二쎯参美计쎯	-10.8434
单度师쎯	-10.8434
交海程쎯交这师쎯	-10.8437
器得口쎯交他质쎯农表提쎯	-10.8439
常师式쎯交这应쎯	-10.8441
交道最쎯农道美쎯	-10.8441
经쎯体쎯建쎯科쎯常表口쎯	-10.8444
常二重쎯器式程쎯	-10.8446
标美城쎯常信提쎯	-10.8446
参处美쎯	-10.8446
常型式쎯参程米쎯	-10.8446
长쎯与쎯长쎯	-10.8446
常处形쎯	-10.8447
器网组쎯交应基쎯	-10.8447
家쎯导者质쎯	-10.8447
万从美쎯常保城쎯农表提쎯法쎯	-10.8449
常前间쎯农信质쎯常安校쎯常前前쎯	-10.845
参而委쎯器口服쎯	-10.8452
交二师쎯	-10.8457
农信十쎯标基表쎯	-10.8458
农形育쎯常而质쎯万从海쎯	-10.846
交资	-10.8461
常各场쎯单度程쎯	-10.8461
参统城쎯参基各쎯	-10.8462
万从海쎯常安者쎯标重形쎯	-10.8466
器处应쎯常二他쎯	-10.8468
农道度쎯交者提쎯	-10.8472
常保处쎯农信式쎯	-10.8473
月쎯农信信쎯	-10.8475
单度重쎯农处这쎯农道信쎯	-10.8475
万从海쎯建쎯化쎯化쎯体쎯常表口쎯	-10.8478
常型式쎯器前委쎯	-10.8478
常前前쎯标基场쎯	-10.8479
参式安쎯单度重쎯	-10.8484
常外信쎯标最资쎯	-10.8487
交由色쎯常前前쎯	-10.8492
常各处쎯常道提쎯	-10.8499
常育特쎯导度目쎯	-10.85
长쎯交这级쎯常外信쎯参最究쎯	-10.8501
常数型쎯标资关쎯	-10.8501
常立师쎯	-10.8502
参而委쎯交过由쎯参美计쎯	-10.8504
参美计쎯农道度쎯农信保쎯	-10.8504
常目究쎯	-10.8505
农表十쎯农道校쎯	-10.8508
农道外쎯农处组쎯	-10.8511
常这色쎯器统海쎯	-10.8512
常色前쎯器得形쎯	-10.8512
常级者쎯常资育쎯	-10.8513
交十资쎯农网目쎯	-10.8513
参最究쎯农信式쎯器过处쎯常校保쎯	-10.8517
农道度쎯交特表쎯	-10.8517
交这安쎯常校基쎯单度程쎯	-10.8518
交路立쎯标过程쎯	-10.8519
农道外쎯常表由쎯参前由쎯	-10.8519
交网度쎯参口金쎯	-10.8524
常式村쎯常广他쎯	-10.8526
常前村쎯	-10.8527
万从海쎯经쎯体쎯之쎯机쎯常表口쎯	-10.8527
常安关쎯农信质쎯	-10.853
农道里쎯标目关쎯常表口쎯	-10.853
单度程쎯常从金쎯	-10.8531
经쎯常而安쎯	-10.8531
标最育쎯	-10.8532
常二重쎯参从特쎯	-10.8532
交目村쎯标数外쎯	-10.8533
交十保쎯常数委쎯	-10.8535
常型天쎯参计场쎯交色最쎯	-10.8537
参保道쎯交质育쎯	-10.854
单度程쎯交者育쎯交这应쎯	-10.854
交场级쎯器度者쎯	-10.854
交色口쎯参最路쎯参米组쎯	-10.8541
常保处쎯交色村쎯参形二쎯交路质쎯	-10.8541
常数委쎯常校基쎯标资关쎯常信者쎯	-10.8542
农形并쎯器基广쎯常型式쎯农从美쎯	-10.8543
农表十쎯农道十쎯	-10.8544
万从海쎯常究信쎯标过广쎯	-10.8545
长쎯常二企쎯	-10.8545
器口究쎯器安企쎯	-10.8545
常处从쎯交里型쎯	-10.8546
交者金쎯器师统쎯	-10.8547
导度提쎯	-10.8548
交师度쎯参最广쎯	-10.8549
参美计쎯交金企쎯常里而쎯	-10.8549
常安美쎯器式级쎯农从美쎯	-10.8549
参保道쎯参形式쎯	-10.8549
农道特쎯参数海쎯常型式쎯交级他쎯	-10.8551
常资十쎯交度目쎯农道形쎯农表师쎯	-10.8552
常资师쎯参信型쎯	-10.8553
器并道쎯	-10.8554
常师安쎯器网保쎯	-10.8554
参美计쎯器式关쎯常信提쎯	-10.8554
器安而쎯	-10.8554
标他各쎯	-10.8557
月쎯参前由쎯	-10.8558
交二基쎯	-10.856
标目关쎯器校前쎯	-10.8561
常色程쎯常形信쎯	-10.8563
交这师쎯常级天쎯农信质쎯	-10.8564
常这广쎯常资场쎯	-10.8566
交各十쎯参特城쎯农信信쎯	-10.8568
常色目쎯器得数쎯	-10.8568
交他得쎯参保各쎯常师安쎯	-10.8572
参过型쎯参过究쎯	-10.8573
器网外쎯参广十쎯农道里쎯万从海쎯	-10.8574
器村前쎯器校前쎯	-10.8574
建쎯交这级쎯常外信쎯参最究쎯	-10.8575
交数组쎯交质级쎯万从海쎯常安美쎯	-10.8575
参究服쎯	-10.8575
经쎯万从质쎯	-10.8578
交路二쎯器式级쎯常组广쎯	-10.8578
交特外쎯常海特쎯农从金쎯交关里쎯	-10.8578
交色广쎯	-10.8578
标米他쎯常级委쎯常里而쎯	-10.8582
经쎯化쎯与쎯	-10.8582
农道形쎯器而育쎯	-10.8582
单度重쎯单度度쎯单度度쎯	-10.8582
常度究쎯标师口쎯	-10.8582
常而质쎯常这广쎯	-10.8583
万从海쎯经쎯体쎯之쎯之쎯常表口쎯	-10.8583
常道道쎯常式最쎯	-10.8583
农信十쎯常校基쎯交师度쎯	-10.8584
交最得쎯标过广쎯	-10.8588
常师重쎯单度程쎯	-10.8594
常色计쎯常外形쎯	-10.8594
常里提쎯参最究쎯参美计쎯	-10.8597
器路企쎯交信而쎯农信质쎯	-10.8599
农道质쎯常资场쎯农形特쎯	-10.8605
农信式쎯参最究쎯农信委쎯	-10.8605
交里并쎯农表师쎯	-10.8607
交统道쎯交色口쎯	-10.8609
建쎯与쎯机쎯	-10.8609
器计立쎯	-10.8611
交色广쎯常究信쎯标资道쎯	-10.8611
万从海쎯常色型쎯常资场쎯交他得쎯	-10.8611
农城网쎯农信质쎯	-10.8612
建쎯化쎯常级委쎯标关究쎯	-10.8612
农道校쎯常道重쎯常资应쎯常二道쎯	-10.8612
常村校쎯器得师쎯	-10.8614
交级特쎯交他得쎯	-10.8615
经쎯之쎯体쎯	-10.8617
器网保쎯常前数쎯	-10.8618
参信金쎯	-10.8618
常表由쎯交形村쎯	-10.8619
标从立쎯常校前쎯	-10.8619
常得委쎯标保委쎯	-10.8619
标资网쎯	-10.862
参师天쎯参而委쎯常里提쎯	-10.8622
参式村쎯参金最쎯交级而쎯交间这쎯	-10.8622
常级目쎯交里育쎯	-10.8622
常质他쎯参前由쎯万从海쎯常各处쎯	-10.8623
长쎯化쎯常表口쎯	-10.8623
交最场쎯器口表쎯	-10.8628
农形形쎯农道里쎯常资前쎯	-10.8629
农道里쎯常前前쎯常型式쎯常里提쎯	-10.863
万从海쎯建쎯化쎯化쎯之쎯常表口쎯	-10.8634
交质式쎯常级场쎯参由形쎯参形究쎯	-10.8634
常质网쎯标数网쎯	-10.8635
常城级쎯交这师쎯	-10.8636
单度程쎯交者资쎯交道道쎯	-10.8637
参过级쎯常并米쎯	-10.8637
农道形쎯农形形쎯常式最쎯常村他쎯	-10.8639
器二这쎯参由形쎯	-10.8643
单度重쎯交得数쎯农道美쎯农信质쎯	-10.8644
参式师쎯	-10.8644
万从级쎯万从师쎯单度程쎯	-10.8646
常前前쎯器安得쎯	-10.8646
万从海쎯交最城쎯	-10.8647
交里服쎯参者保쎯	-10.8647
常道目쎯参质十쎯	-10.8648
标过广쎯标提特쎯	-10.8648
万从海쎯常色型쎯	-10.865
参最广쎯器安得쎯	-10.8651
常各米쎯常形企쎯	-10.8652
交组信쎯常校保쎯	-10.8655
万从海쎯常前前쎯农道这쎯	-10.8655
参并企쎯标资道쎯	-10.8656
器式计쎯器海过쎯常海特쎯	-10.8658
常式十쎯农信质쎯	-10.8659
经쎯交应基쎯	-10.8664
常前金쎯	-10.8666
常而级쎯农处这쎯常资由쎯参由形쎯	-10.8666
交计	-10.8669
化쎯时쎯	-10.8673
参级	-10.8675
交度目쎯交过由쎯交最网쎯交统形쎯	-10.8677
常提计쎯	-10.8677
常重安쎯	-10.868
农道校쎯农道特쎯参信社쎯	-10.8681
经쎯农道型쎯万从海쎯	-10.8682
交美各쎯	-10.8682
农道度쎯常表资쎯	-10.8686
常安质쎯常海形쎯常里提쎯农从美쎯	-10.8687
标服委쎯常得从쎯参美计쎯	-10.8693
常城各쎯常安美쎯	-10.8694
参基米쎯标资道쎯	-10.8699
器程海쎯农道美쎯交数组쎯器重统쎯	-10.8699
参美计쎯器得里쎯器广度쎯	-10.8703
常形信쎯参米十쎯参美计쎯	-10.8703
常道过쎯参处各쎯	-10.8704
常各场쎯常信计쎯	-10.8704
常质提쎯	-10.8706
常程场쎯常过二쎯	-10.8706
月쎯文쎯	-10.8712
常育育쎯常这色쎯常级天쎯	-10.8715
器重委쎯	-10.8716
经쎯教쎯	-10.8717
参各者쎯交由数쎯	-10.8717
农道度쎯常信提쎯	-10.8717
单度校쎯常二统쎯器各色쎯州企쎯	-10.8717
器企十쎯	-10.8722
常资广쎯标目服쎯参美计쎯	-10.8722
交前度쎯	-10.8722
参质色쎯常这广쎯参美计쎯	-10.8723
农信提쎯交这师쎯	-10.8724
化쎯化쎯农信天쎯万从海쎯	-10.8725
常由基쎯器色企쎯	-10.8728
常资美쎯交最网쎯	-10.8729
器程最쎯交过由쎯	-10.8729
常型天쎯农道形쎯交数组쎯	-10.8729
常二道쎯农形型쎯标过广쎯	-10.873
常形场쎯参形里쎯	-10.8732
标度美쎯标并质쎯	-10.8733
经쎯化쎯建쎯设쎯	-10.8733
农从程쎯农信十쎯农道美쎯	-10.8735
常网资쎯常型外쎯	-10.8737
参型城쎯农从美쎯参美计쎯	-10.8737
交资色쎯	-10.8739
万从海쎯参最广쎯农信质쎯	-10.874
常型式쎯常育特쎯	-10.8742
常海者쎯标里二쎯	-10.8742
常天口쎯常计网쎯	-10.8743
单度重쎯经쎯体쎯设쎯体쎯常表口쎯	-10.8743
参网他쎯	-10.8745
参型城쎯常海信쎯农处安쎯农信质쎯	-10.8746
化쎯农处组쎯农信信쎯	-10.8747
器数口쎯	-10.8747
标组	-10.8748
万从海쎯常二社쎯交这师쎯	-10.8748
常企育쎯器师信쎯常立程쎯	-10.8749
交目育쎯器得口쎯万从海쎯	-10.8749
常型式쎯器关这쎯	-10.8751
农道特쎯参数海쎯交目得쎯	-10.8753
导级场쎯	-10.8753
交校度쎯交这得쎯万从海쎯	-10.8753
常表形쎯交过由쎯	-10.8754
单度重쎯家쎯器得育쎯	-10.8755
常天美쎯参型从쎯	-10.8756
交形十쎯	-10.8756
特	-10.8756
常安者쎯农信应쎯常型式쎯常里提쎯	-10.8757
器口广쎯常这色쎯	-10.876
常村委쎯	-10.8764
导村金쎯	-10.8767
交最表쎯参式色쎯	-10.8768
参应应쎯月쎯	-10.8768
建쎯化쎯常资应쎯标外海쎯	-10.8769
标基场쎯标过广쎯	-10.877
交质关쎯标社广쎯	-10.8773
参型城쎯农从美쎯常里提쎯	-10.8773
器育网쎯农信美쎯	-10.8774
常度提쎯	-10.8774
标保委쎯单度校쎯	-10.8775
常广程쎯器过程쎯	-10.8777
参型城쎯参式村쎯	-10.878
经쎯经쎯建쎯	-10.878
参应应쎯常安程쎯	-10.8781
参这从쎯参式村쎯	-10.8781
参二里쎯农道形쎯农形形쎯	-10.8782
参组处쎯器师统쎯万从海쎯	-10.8782
常重	-10.8783
器立计쎯	-10.8785
交他得쎯常保金쎯农道信쎯	-10.8786
交路十쎯参形他쎯	-10.8787
农信信쎯参师天쎯万从海쎯	-10.879
农从他쎯器师得쎯参美计쎯	-10.8791
常委统쎯参社程쎯	-10.8795
交间服쎯	-10.8796
器口目쎯常色最쎯	-10.8796
交得最쎯常级天쎯交者场쎯	-10.8796
参金最쎯参天场쎯标服委쎯常究究쎯	-10.8798
常资师쎯参形社쎯	-10.8798
常表口쎯参美计쎯常质委쎯常二统쎯	-10.8798
参形级쎯器信米쎯	-10.88
参型城쎯农从美쎯常保服쎯农处立쎯	-10.8801
常级委쎯器城广쎯参质外쎯万从美쎯	-10.8804
单度十쎯品쎯	-10.8809
常道重쎯农信信쎯	-10.881
农信统쎯器外社쎯	-10.8811
标外安쎯参重表쎯交特外쎯参师天쎯	-10.8812
经쎯月쎯化쎯常资十쎯	-10.8815
器目师쎯	-10.8816
交应基쎯常表口쎯	-10.8817
参式天쎯常信二쎯	-10.8817
常企育쎯农处这쎯农道里쎯	-10.8818
常各美쎯参重表쎯	-10.8819
交数组쎯器重统쎯常企育쎯农处这쎯	-10.8821
参这从쎯标数这쎯	-10.8822
经쎯交这级쎯常外信쎯参最究쎯	-10.8823
器关道쎯交前处쎯	-10.8823
农信质쎯建쎯化쎯化쎯经쎯常表口쎯	-10.8825
农表十쎯农道里쎯万从海쎯	-10.8825
交路企쎯常由基쎯	-10.8826
常质委쎯常二统쎯交特外쎯常海特쎯	-10.8826
器网组쎯交他得쎯农道度쎯农道社쎯	-10.8827
交他城쎯常城者쎯	-10.8827
器村并쎯农信十쎯	-10.8828
全쎯经쎯科쎯	-10.8829
标资关쎯常信者쎯农处安쎯农信质쎯	-10.8829
交数色쎯常度从쎯	-10.8829
交网度쎯交过资쎯	-10.883
常各场쎯参最广쎯	-10.883
农道师쎯交应基쎯	-10.8831
常村处쎯常而安쎯农道信쎯	-10.8832
常城社쎯	-10.8834
万从海쎯经쎯体쎯之쎯长쎯常表口쎯	-10.8836
经쎯分쎯长쎯	-10.8838
器网组쎯农处安쎯	-10.8841
参式村쎯常里提쎯参美计쎯	-10.8841
标从	-10.8841
导度目쎯万从海쎯导度这쎯	-10.8842
参保道쎯交得最쎯	-10.8842
器得校쎯交统形쎯	-10.8846
农从美쎯器各各쎯常各型쎯	-10.8846
交这应쎯常而安쎯	-10.8846
交数资쎯农表基쎯	-10.8846
农道这쎯标并质쎯	-10.8847
单度程쎯常师得쎯	-10.8849
参城海쎯	-10.8851
农信型쎯交前外쎯常型计쎯	-10.8854
常企育쎯参广十쎯农道立쎯农道美쎯	-10.8855
交者金쎯交这信쎯	-10.8855
器重基쎯农道这쎯	-10.8856
参究由쎯常型口쎯	-10.8859
万从级쎯经쎯万从师쎯	-10.8859
常式最쎯农从美쎯	-10.886
交最网쎯常式最쎯	-10.886
建쎯经쎯农道特쎯参信社쎯	-10.8861
标者得쎯	-10.8861
常外信쎯常二村쎯	-10.8865
常资广쎯常保处쎯交度式쎯	-10.8865
常企统쎯参形二쎯交级而쎯农道信쎯	-10.8866
器口米쎯常保色쎯	-10.8866
标外安쎯农网各쎯	-10.8866
常网过쎯农道里쎯	-10.8867
万从级쎯万从师쎯单度重쎯	-10.8868
参各基쎯参而委쎯参由形쎯参形究쎯	-10.8868
器企得쎯农道校쎯	-10.8869
标服程쎯常二村쎯参美计쎯	-10.8872
农道里쎯交这究쎯	-10.8872
万从海쎯交最得쎯交海程쎯	-10.8875
常级场쎯参美计쎯	-10.8879
常资美쎯交度形쎯交最得쎯	-10.8879
参形间쎯	-10.888
器色过쎯常村由쎯交特组쎯	-10.888
参师天쎯交特组쎯	-10.888
常二安쎯导度这쎯常保口쎯常师网쎯	-10.8882
交路校쎯	-10.8884
常海者쎯常型式쎯	-10.8884
标统这쎯交他质쎯	-10.8884
交质式쎯常级场쎯常组广쎯	-10.8884
万从海쎯农道安쎯交特里쎯	-10.8884
常型美쎯常资过쎯	-10.8885
常育处쎯器得计쎯	-10.8885
器式计쎯常各美쎯参美计쎯	-10.8885
标社二쎯	-10.8888
常质重쎯单度程쎯	-10.889
常城资쎯参最广쎯	-10.889
单度重쎯常处服쎯常各表쎯	-10.8895
标外村쎯常前前쎯	-10.8897
万从级쎯全쎯万从师쎯	-10.8898
全쎯经쎯之쎯	-10.89
单度程쎯参最路쎯常里而쎯	-10.8904
常安者쎯交这目쎯交服程쎯	-10.8906
参程米쎯器处提쎯	-10.8907
农道度쎯交里育쎯	-10.8909
农信	-10.891
参式委쎯	-10.891
常企育쎯农道美쎯常保里쎯	-10.891
长쎯与쎯经쎯	-10.8911
参程米쎯参各里쎯	-10.8912
参形从쎯常而级쎯常城程쎯	-10.8915
农表十쎯交师度쎯	-10.8915
器级委쎯	-10.8916
参服色쎯	-10.8917
常表场쎯标目间쎯	-10.8917
交者金쎯参信网쎯参最路쎯	-10.8921
常而级쎯器重育쎯常道重쎯	-10.8922
参美计쎯农从金쎯参形究쎯	-10.8922
交这师쎯农道度쎯常各美쎯	-10.8925
标关式쎯	-10.8925
常表网쎯器育网쎯常并各쎯交者二쎯	-10.8926
交特色쎯器育网쎯常资色쎯	-10.8926
常资过쎯单度重쎯	-10.8926
常资应쎯标外海쎯万从海쎯器企目쎯	-10.8929
农道外쎯常表口쎯	-10.893
参美计쎯农处这쎯参最广쎯单度重쎯	-10.893
农道安쎯器师得쎯	-10.8932
万从海쎯交前究쎯器十二쎯	-10.8933
常委组쎯常里者쎯交育从쎯	-10.8933
常式立쎯常而安쎯万从美쎯	-10.8935
参数这쎯参师式쎯	-10.8936
万从村쎯	-10.8936
农网目쎯常各师쎯	-10.8937
常级保쎯标度金쎯农信委쎯	-10.8937
机쎯交这级쎯常外信쎯参最究쎯	-10.8937
常师得쎯常道重쎯标数网쎯	-10.8939
标服资쎯	-10.8941
农形育쎯农道这쎯	-10.8941
交最城쎯常从过쎯	-10.8942
交数组쎯常里提쎯常关海쎯	-10.8949
农表提쎯参最形쎯标组服쎯	-10.895
常保处쎯常各场쎯器外社쎯参计场쎯	-10.8954
交级而쎯参米十쎯万从海쎯	-10.8955
农道度쎯常安校쎯	-10.8956
常型天쎯常里而쎯	-10.8957
器得度쎯	-10.8957
标保计쎯常质美쎯参美计쎯	-10.8959
标目服쎯常保服쎯	-10.8959
器信	-10.896
参究育쎯常而安쎯常信提쎯	-10.896
器最美쎯	-10.8964
单度重쎯经쎯体쎯之쎯建쎯常表口쎯	-10.8965
常这广쎯交级村쎯常保处쎯	-10.8965
常资级쎯标最十쎯	-10.8966
常而级쎯器路计쎯	-10.8969
交目	-10.8969
标并质쎯交组得쎯常而安쎯器过这쎯	-10.8969
常型特쎯常并由쎯	-10.8971
经쎯化쎯科쎯	-10.8976
交过这쎯	-10.8977
交度式쎯常级米쎯	-10.8979
器色过쎯参金最쎯	-10.898
常资前쎯器各基쎯	-10.8981
参美计쎯常校保쎯标外二쎯	-10.8986
器口服쎯参形二쎯常型式쎯常里提쎯	-10.8986
常网委쎯	-10.8988
参而委쎯器各信쎯常关海쎯	-10.8989
农道安쎯常二者쎯	-10.8992
农道度쎯常各美쎯器提程쎯	-10.8992
交者天쎯常这广쎯	-10.8993
建쎯参前由쎯	-10.8994
器十二쎯常企间쎯常道重쎯	-10.8995
常服过쎯参数海쎯	-10.8995
参形二쎯交路质쎯常道级쎯	-10.8996
交海师쎯交村天쎯	-10.8996
常处立쎯标度师쎯	-10.8999
体쎯交这级쎯万从海쎯	-10.8999
常资村쎯	-10.9001
常安校쎯常得从쎯农处立쎯	-10.9002
常金色쎯	-10.9004
月쎯导计过쎯	-10.9005
农道里쎯常安者쎯	-10.9007
科쎯常资应쎯标外海쎯	-10.9008
交这信쎯万从海쎯	-10.9009
参处村쎯参形这쎯器而育쎯标最度쎯	-10.9009
农处保쎯常前前쎯常道重쎯	-10.901
标资关쎯常而式쎯	-10.9011
常道级쎯常型式쎯	-10.9013
常保处쎯标组资쎯交金外쎯常外委쎯	-10.9013
万从海쎯常级委쎯常道过쎯农信质쎯	-10.9014
万从海쎯器网组쎯标外海쎯	-10.9014
农道形쎯器提程쎯参最究쎯农信式쎯	-10.9015
参美计쎯参质色쎯农形并쎯常海特쎯	-10.9017
农道安쎯交数服쎯	-10.9018
常色型쎯常资场쎯	-10.9019
常组广쎯万从海쎯	-10.9019
交金处쎯	-10.9019
常师得쎯常质网쎯标数网쎯	-10.9019
农信天쎯单度重쎯	-10.9026
万从海쎯建쎯化쎯化쎯化쎯常表口쎯	-10.9031
万从海쎯农形校쎯	-10.9034
常资资쎯参最路쎯常组广쎯	-10.9035
农信信쎯交师安쎯常究表쎯常资形쎯	-10.9036
万从师쎯单度程쎯单度校쎯	-10.9037
交由数쎯常道级쎯	-10.9037
交数组쎯参广十쎯	-10.904
交场师쎯常型特쎯	-10.9041
参美计쎯交师度쎯交这师쎯	-10.9044
万从师쎯万从海쎯交他得쎯	-10.9044
参组	-10.9046
常企育쎯参广十쎯常道级쎯单度重쎯	-10.9048
常度究쎯常校天쎯	-10.9048
常得表쎯参资式쎯	-10.9048
器得数쎯参重表쎯	-10.9051
交保城쎯常型美쎯交应基쎯	-10.9051
交级校쎯	-10.9052
标度美쎯器网外쎯常得表쎯	-10.9052
交十安쎯常安特쎯	-10.9052
参美计쎯器网外쎯参广十쎯	-10.9054
常型式쎯交级他쎯	-10.9054
经쎯化쎯化쎯参前由쎯	-10.9059
万从海쎯建쎯化쎯化쎯经쎯常表口쎯	-10.9059
交师质쎯常各间쎯	-10.9059
常前前쎯农表基쎯	-10.9059
经쎯科쎯之쎯	-10.906
万从海쎯常外信쎯参最究쎯农信质쎯	-10.906
常村他쎯单度重쎯	-10.906
常级场쎯标度金쎯常数委쎯	-10.9061
单度校쎯交特色쎯	-10.9062
单度二쎯	-10.9062
经쎯万处间쎯	-10.9063
参基应쎯常信提쎯	-10.9064
单度程쎯常海者쎯	-10.9066
标立程쎯标程立쎯	-10.9066
器育	-10.9066
常保间쎯交最场쎯	-10.9068
交从最쎯常村他쎯单度重쎯	-10.9074
标过处쎯常这广쎯	-10.9074
器色而쎯	-10.9074
器外社쎯参计场쎯参式村쎯常里提쎯	-10.9075
农形企쎯常度从쎯单度重쎯	-10.9077
家쎯常外信쎯常型计쎯	-10.9078
常二得쎯标度师쎯	-10.9079
交师度쎯器村者쎯	-10.9082
器得形쎯参师天쎯	-10.9082
之쎯化쎯化쎯化쎯	-10.9082
交特表쎯标关级쎯交最网쎯参里特쎯	-10.9083
参里师쎯常而计쎯参式安쎯	-10.9087
万从美쎯科쎯	-10.9088
交型安쎯交金社쎯	-10.9088
常前前쎯器色企쎯	-10.9088
器服米쎯交安数쎯	-10.9088
家쎯农道形쎯器提程쎯	-10.9088
交校村쎯	-10.9088
常二海쎯标外安쎯	-10.9089
参美计쎯常质究쎯常保金쎯	-10.9091
文쎯多쎯	-10.9094
参应应쎯常保保쎯常前校쎯	-10.9096
常师得쎯参金最쎯参天场쎯常村他쎯	-10.9096
常这广쎯器网组쎯农道社쎯	-10.9096
常道重쎯常这信쎯农道校쎯	-10.9098
交海育쎯	-10.91
交里提쎯常道目쎯	-10.9104
器基广쎯参质色쎯农道信쎯	-10.9106
标外村쎯标形计쎯器师统쎯	-10.9107
标信形쎯交统表쎯	-10.9109
标他组쎯	-10.9109
参基应쎯参保他쎯常各表쎯标外二쎯	-10.911
交师天쎯常形信쎯	-10.911
常各级쎯交校型쎯	-10.911
万从海쎯参式得쎯交间程쎯	-10.9111
常育育쎯器网而쎯	-10.9111
农道质쎯参各基쎯参而委쎯	-10.9113
器基广쎯参质色쎯常外信쎯	-10.9113
单度重쎯器网组쎯标外海쎯	-10.9114
标最形쎯参重从쎯	-10.9114
交度形쎯标过广쎯器各城쎯常这广쎯	-10.9115
交十究쎯农形形쎯	-10.9116
交者育쎯常道道쎯参最究쎯交口形쎯	-10.9116
万从海쎯器网组쎯农道社쎯	-10.9117
参美计쎯农信十쎯交过资쎯	-10.9119
器得安쎯器得里쎯	-10.9126
参基应쎯常海特쎯	-10.9134
交他城쎯常安基쎯器校得쎯参师外쎯	-10.9134
常型式쎯器网间쎯常道重쎯	-10.9134
农道信쎯常各者쎯交者广쎯	-10.9136
交形广쎯交路企쎯	-10.9136
农从美쎯参而委쎯农信十쎯	-10.9136
主쎯名쎯主쎯	-10.9136
常这广쎯常保处쎯常委资쎯常型特쎯	-10.9138
标过广쎯农道形쎯农形形쎯	-10.9138
交道道쎯常外形쎯标他究쎯	-10.9139
参这程쎯标过广쎯参信式쎯	-10.9139
交者育쎯万从海쎯	-10.914
万从海쎯经쎯体쎯体쎯之쎯常表口쎯	-10.914
参过保쎯	-10.9142
标数网쎯常型式쎯	-10.9143
交这师쎯器各道쎯常型美쎯	-10.9144
参信社쎯常式最쎯	-10.9148
交特表쎯常从二쎯万从海쎯	-10.9148
常目而쎯交金外쎯	-10.915
交这度쎯标米他쎯参美计쎯	-10.915
农形育쎯器育网쎯	-10.9151
常而师쎯农形特쎯	-10.9151
农从他쎯交过金쎯	-10.9153
月쎯万从师쎯	-10.9155
导度目쎯万从海쎯交他得쎯	-10.9156
常得表쎯器得目쎯	-10.9157
器特计쎯器委这쎯	-10.9158
经쎯长쎯长쎯	-10.9162
常保保쎯器重服쎯	-10.9166
常外金쎯常安程쎯	-10.9167
常道道쎯常企间쎯	-10.9168
万从美쎯经쎯科쎯	-10.9169
常从度쎯标度美쎯	-10.9171
常最而쎯州企쎯	-10.9173
交里并쎯参式村쎯参信式쎯	-10.9173
单度重쎯器网组쎯农道社쎯	-10.9175
参者资쎯参而委쎯	-10.9175
农信信쎯参师天쎯单度重쎯	-10.9176
参美计쎯参处村쎯参形这쎯	-10.9176
器城前쎯	-10.9177
常从度쎯常校间쎯	-10.9178
常安者쎯标他由쎯	-10.9179
标程里쎯常级色쎯	-10.918
参里师쎯常城资쎯	-10.9181
交金道쎯参各者쎯	-10.9182
器并资쎯参最统쎯	-10.9184
常安者쎯常前前쎯	-10.9185
常委这쎯交级企쎯	-10.9187
常特他쎯	-10.9189
常表由쎯交者场쎯	-10.919
交路二쎯器式级쎯	-10.9191
交数组쎯器重统쎯单度程쎯	-10.9191
常而质쎯器度资쎯	-10.9192
参社过쎯	-10.92
万从海쎯经쎯体쎯科쎯长쎯常表口쎯	-10.92
参色	-10.92
常企育쎯农道美쎯常海信쎯	-10.9206
常信二쎯常级者쎯	-10.9206
参色网쎯	-10.9207
参美计쎯常而海쎯交者场쎯	-10.9209
交并度쎯常得究쎯	-10.9211
器十者쎯交者二쎯	-10.9212
单度程쎯常保处쎯常各场쎯	-10.9213
参金最쎯参天场쎯单度十쎯	-10.9213
交他究쎯参由形쎯	-10.9214
参形从쎯	-10.9215
农处这쎯交特外쎯	-10.9215
交网度쎯常二村쎯	-10.9216
常表由쎯常目外쎯交色最쎯交道天쎯	-10.9218
交特色쎯农道里쎯常保处쎯	-10.922
标外安쎯参形计쎯	-10.9222
参口金쎯器口广쎯交数组쎯器重统쎯	-10.9223
参美计쎯交这度쎯农处由쎯	-10.9224
农从金쎯州企쎯	-10.9224
万从海쎯农道这쎯农道口쎯	-10.9224
常安由쎯农道信쎯	-10.9224
常十网쎯	-10.9225
农表十쎯单度重쎯导度目쎯	-10.9226
器企得쎯常二并쎯	-10.9226
交间这쎯交金村쎯	-10.9229
标数网쎯常城程쎯	-10.923
交这度쎯交特色쎯参美计쎯	-10.923
常级场쎯交级而쎯参美计쎯	-10.9231
常安数쎯参信得쎯	-10.9233
农处网쎯常资场쎯	-10.9234
常从度쎯标外外쎯	-10.9234
常保	-10.9234
标究由쎯常立安쎯	-10.9235
常委组쎯参美计쎯	-10.9239
常各表쎯参式得쎯参质外쎯	-10.9239
建쎯农信信쎯万从海쎯	-10.924
农从美쎯农从美쎯常村他쎯单度程쎯	-10.924
参式十쎯常里并쎯	-10.9241
常十他쎯交质服쎯	-10.9245
器口式쎯参师天쎯常二村쎯常级色쎯	-10.9246
交里式쎯	-10.9249
常而保쎯常里而쎯	-10.925
交特色쎯农信式쎯常立程쎯	-10.9254
农信级쎯农形育쎯	-10.9254
常型社쎯参天信쎯	-10.9255
交校保쎯	-10.9256
万从海쎯交者育쎯交这应쎯	-10.9257
农信十쎯器网表쎯	-10.9258
器得口쎯万从美쎯导度这쎯	-10.9261
标育各쎯参最广쎯	-10.9261
参保村쎯参而委쎯	-10.9261
农道度쎯农表目쎯农表目쎯	-10.9264
建쎯常资十쎯	-10.9265
参特得쎯参十重쎯	-10.9265
农处质쎯农信质쎯	-10.9265
参形二쎯标社海쎯农道色쎯常得海쎯	-10.9265
交前师쎯农形并쎯	-10.9265
参美计쎯参金最쎯常二村쎯	-10.9267
万从级쎯标保委쎯常保服쎯万从师쎯	-10.9268
常资里쎯农道社쎯	-10.927
参最究쎯农信式쎯器各城쎯常型外쎯	-10.9272
标社者쎯	-10.9273
交究金쎯交社应쎯	-10.9273
万从海쎯常处服쎯交级而쎯农信委쎯	-10.9275
农表十쎯交计二쎯	-10.9277
参而委쎯器各信쎯参金最쎯参天场쎯	-10.9278
常型式쎯常而海쎯	-10.9278
参提二쎯常企间쎯常道重쎯	-10.9279
常二企쎯万从美쎯	-10.928
器网而쎯交统由쎯	-10.9283
化쎯文쎯	-10.9283
交从最쎯常最前쎯参美计쎯	-10.9284
交校度쎯交这得쎯参美计쎯	-10.9285
常二场쎯交究计쎯	-10.9289
常海信쎯参美计쎯	-10.929
器并型쎯	-10.9292
标形计쎯常前前쎯	-10.9294
交社度쎯	-10.9294
江十쎯单计	-10.9294
交这安쎯常处表쎯	-10.9294
常安金쎯交这师쎯	-10.9295
单度重쎯家쎯长쎯与쎯	-10.9296
交海外쎯常外信쎯	-10.9297
常资应쎯常级委쎯	-10.9297
万从海쎯农形育쎯导度这쎯	-10.9298
常美	-10.9299
参目网쎯	-10.93
器网而쎯常校广쎯常村他쎯单度重쎯	-10.9301
交级质쎯	-10.9302
常型安쎯交目重쎯参美计쎯	-10.9303
常里提쎯交金基쎯参质色쎯交这师쎯	-10.9303
常里提쎯参金最쎯参天场쎯	-10.9303
之쎯与쎯月쎯	-10.9304
器度网쎯	-10.9306
常型天쎯交特外쎯	-10.9307
导村服쎯	-10.9308
常外二쎯器重育쎯	-10.9308
单度重쎯常而海쎯交者场쎯万从海쎯	-10.9308
参式色쎯常村从쎯	-10.9309
农道质쎯常二村쎯常前数쎯	-10.931
农道特쎯参数海쎯参美计쎯	-10.9311
参金最쎯参天场쎯常关海쎯	-10.9311
器企广쎯器场校쎯	-10.9313
常而村쎯常师安쎯	-10.9315
参美计쎯器得校쎯交统形쎯	-10.9315
万从美쎯体쎯	-10.9316
万从美쎯全쎯	-10.9317
万从海쎯交最表쎯	-10.9317
单度重쎯参保各쎯常师安쎯万从海쎯	-10.9317
器过海쎯常而质쎯	-10.9318
农道这쎯器外由쎯	-10.9318
常保处쎯常各场쎯标他究쎯	-10.9319
万从海쎯常海者쎯农信应쎯	-10.9326
标资美쎯	-10.9326
农信质쎯农道度쎯农处立쎯	-10.9329
器式并쎯交间而쎯	-10.933
万从海쎯建쎯化쎯经쎯化쎯常表口쎯	-10.933
参信社쎯常式最쎯农表提쎯器各色쎯	-10.933
参程路쎯标里重쎯	-10.9331
常安基쎯交十师쎯	-10.9331
交从金쎯	-10.9333
万从师쎯万从海쎯常里者쎯	-10.9334
参处各쎯农道美쎯	-10.9334
万处	-10.9338
农网得쎯	-10.934
交村校쎯	-10.9342
常安程쎯农道度쎯常表口쎯	-10.9343
常色村쎯常计网쎯	-10.9344
常型美쎯常而安쎯	-10.9345
参提二쎯常级天쎯	-10.9346
交师天쎯	-10.9346
常道级쎯万从海쎯	-10.9346
交特色쎯常保保쎯常委保쎯	-10.9349
常企育쎯参广十쎯单度程쎯	-10.9349
交校者쎯交级他쎯	-10.9349
农表提쎯单度十쎯	-10.9349
常式最쎯常校间쎯常资应쎯常各型쎯	-10.935
万从海쎯常海者쎯标重形쎯	-10.9351
农道形쎯器各统쎯	-10.9351
交究而쎯农道社쎯	-10.9351
参应应쎯农信最쎯常前校쎯	-10.9351
器校前쎯标道究쎯	-10.9351
经쎯体쎯体쎯之쎯	-10.9351
设쎯万处间쎯	-10.9352
参立得쎯	-10.9352
科쎯农信信쎯	-10.9352
参从信쎯标组企쎯	-10.9355
标城组쎯标者广쎯	-10.9356
器得道쎯农城得쎯	-10.9357
参各基쎯参而委쎯常里提쎯	-10.9357
交校度쎯交这得쎯交这安쎯常校基쎯	-10.9357
交这级쎯常级校쎯	-10.9359
农道里쎯常间十쎯	-10.9359
参育特쎯参前安쎯	-10.936
标组级쎯常级者쎯	-10.9362
万从海쎯交级特쎯器度资쎯	-10.9363
建쎯化쎯经쎯	-10.9363
农道表쎯标信提쎯	-10.9363
标并质쎯交金从쎯参美计쎯	-10.9363
参美计쎯交数级쎯交间这쎯	-10.9364
器处应쎯常海特쎯	-10.9364
万从海쎯交海师쎯	-10.9364
单度重쎯交得最쎯常特形쎯	-10.9366
参统关쎯常里而쎯	-10.9366
常安者쎯参立这쎯	-10.9366
常各间쎯器各里쎯	-10.9366
常质计쎯	-10.9373
常外信쎯参质色쎯农信委쎯	-10.9373
交最场쎯常处数쎯农信委쎯	-10.9374
参社程쎯常外信쎯器口基쎯参海各쎯	-10.9374
常校金쎯交色口쎯	-10.9374
交统重쎯	-10.9378
常安者쎯标度美쎯	-10.9379
常企间쎯常海信쎯	-10.938
交者金쎯标这度쎯	-10.938
交天计쎯交提计쎯	-10.9381
农道	-10.9381
参究网쎯常信校쎯	-10.9381
参前安쎯器口得쎯	-10.9383
交师里쎯	-10.9383
器得里쎯交由数쎯	-10.9385
交二关쎯交式处쎯	-10.9387
交道型쎯交路企쎯	-10.9389
常委型쎯	-10.9392
交二二쎯器网色쎯万从美쎯	-10.9393
器特外쎯	-10.9397
交他得쎯标度美쎯器网外쎯	-10.94
经쎯体쎯体쎯体쎯	-10.9402
万从海쎯标过处쎯	-10.9404
参美计쎯常育处쎯	-10.9404
常道道쎯常表口쎯	-10.9405
器基育쎯常程网쎯	-10.9405
交这师쎯常资由쎯标过广쎯标者广쎯	-10.9407
参资各쎯参委究쎯	-10.9408
农信式쎯常立程쎯常色信쎯常得道쎯	-10.941
常安	-10.9412
常城各쎯器处得쎯	-10.9412
参最由쎯交校育쎯	-10.9415
交重最쎯	-10.9416
常而安쎯器社师쎯	-10.9417
常二得쎯器过处쎯交他得쎯	-10.9422
参美计쎯农形企쎯交金从쎯	-10.9422
标美二쎯交者场쎯	-10.9423
常二企쎯参金程쎯	-10.9424
常委保쎯常各他쎯	-10.9426
常企提쎯常二由쎯单度重쎯	-10.9427
应	-10.9427
单度重쎯器网组쎯交他得쎯	-10.9427
常资应쎯标外海쎯万从海쎯参提形쎯	-10.9429
万从海쎯常保保쎯常企目쎯参这程쎯	-10.9431
标保委쎯标数外쎯	-10.9433
农网基쎯器各网쎯	-10.9433
交程而쎯标城组쎯	-10.9433
万从海쎯经쎯体쎯体쎯科쎯常表口쎯	-10.9434
参者资쎯单度程쎯	-10.9436
交数级쎯交间这쎯单度重쎯	-10.9437
器海得쎯器十立쎯	-10.9437
农城目쎯器路特쎯	-10.9438
交关数쎯	-10.9438
标度二쎯器网外쎯	-10.9438
器安师쎯常这色쎯	-10.944
器得师쎯器各从쎯	-10.944
参里表쎯常形信쎯	-10.944
器口目쎯常并由쎯	-10.9441
标处网쎯器处各쎯	-10.9442
常统美쎯	-10.9443
参计数쎯	-10.9444
常二重쎯器色十쎯标数网쎯	-10.9448
器组村쎯	-10.9452
常得海쎯常而米쎯	-10.9454
参形口쎯常色最쎯	-10.9456
参关式쎯	-10.9456
器城特쎯常海信쎯常委资쎯	-10.9457
交路企쎯常信数쎯	-10.9457
常二村쎯参质色쎯农信委쎯	-10.9457
标由过쎯	-10.9458
万从海쎯参质色쎯常企统쎯	-10.9458
交这	-10.9459
参特表쎯	-10.9459
交路程쎯交色口쎯	-10.9459
万从海쎯标重并쎯	-10.9463
参米十쎯交由数쎯	-10.9463
交目村쎯常委资쎯	-10.9464
参委最쎯参重表쎯	-10.9464
交里海쎯器级间쎯	-10.9465
交度形쎯常企育쎯参广十쎯常道级쎯	-10.9469
经쎯化쎯建쎯	-10.9471
标美二쎯常而质쎯	-10.9471
器基者쎯标程立쎯常校间쎯农信十쎯	-10.9472
常得资쎯	-10.9472
标度最쎯农道里쎯	-10.9472
常外信쎯常这信쎯	-10.9473
标最得쎯标处网쎯	-10.9475
常资应쎯常二道쎯交他得쎯	-10.9476
参美计쎯常并色쎯标究由쎯	-10.9476
经쎯经쎯月쎯	-10.9478
农道度쎯常而海쎯	-10.9478
交这米쎯参米得쎯	-10.948
参里师쎯农信质쎯	-10.9481
交色口쎯常究究쎯	-10.9483
万从海쎯常各过쎯农形应쎯	-10.9484
农道度쎯器城表쎯	-10.9485
交育金쎯	-10.9485
常这究쎯器度由쎯常资场쎯	-10.9489
交度社쎯参师天쎯	-10.949
常城级쎯常型式쎯参美计쎯	-10.9492
常级道쎯	-10.9493
交关关쎯农道校쎯	-10.9496
农处保쎯常前前쎯	-10.9497
万从级쎯经쎯之쎯	-10.9498
万从海쎯经쎯体쎯体쎯建쎯常表口쎯	-10.95
农信质쎯建쎯化쎯化쎯化쎯常表口쎯	-10.9501
农道安쎯交他质쎯	-10.9504
化쎯化쎯农道外쎯常资过쎯	-10.9504
参信表쎯万从海쎯	-10.9505
常信最쎯常校保쎯	-10.9509
单度程쎯常数委쎯常校基쎯	-10.951
器这重쎯器这这쎯	-10.951
参美计쎯参形二쎯常资道쎯	-10.951
标服委쎯常得从쎯农信信쎯	-10.9514
农道立쎯常各场쎯单度重쎯	-10.9514
器校十쎯	-10.9516
之쎯交这级쎯万从海쎯	-10.9518
农从金쎯参形究쎯交特外쎯常海特쎯	-10.9519
常资广쎯参广十쎯	-10.9521
常质网쎯常式最쎯常道道쎯常式最쎯	-10.9525
交度形쎯农从美쎯	-10.9526
常这广쎯器程海쎯参金最쎯参天场쎯	-10.9528
交处这쎯常校保쎯	-10.9529
参美计쎯标过广쎯常级委쎯	-10.9529
常级目쎯万从海쎯	-10.9534
农道美쎯常委资쎯	-10.9535
农从处쎯	-10.9536
农表究쎯器过处쎯	-10.9538
常安者쎯常各程쎯常道重쎯	-10.9539
参形二쎯交路质쎯交数级쎯参保校쎯	-10.9541
常前间쎯参美计쎯交型安쎯参师天쎯	-10.9541
常程育쎯器计城쎯	-10.9543
常从度쎯常级保쎯	-10.9543
器他村쎯器二外쎯	-10.9545
品쎯全쎯文쎯	-10.9546
长쎯参前由쎯	-10.9547
机쎯化쎯常表口쎯农形并쎯	-10.9548
长쎯化쎯常级委쎯标关究쎯	-10.9549
交场广쎯	-10.9551
参式师쎯交师网쎯导度这쎯	-10.9552
经쎯机쎯月쎯	-10.9553
常企育쎯农处这쎯单度重쎯家쎯	-10.9554
交前究쎯常海信쎯	-10.9555
常这广쎯交金基쎯	-10.9557
经쎯化쎯教쎯	-10.9558
参前形쎯单度程쎯	-10.9558
常色二쎯标数外쎯	-10.9558
常外金쎯常表口쎯	-10.9559
参形网쎯常海特쎯参质外쎯	-10.956
标关级쎯参程道쎯	-10.9562
交特村쎯参重表쎯	-10.9563
标数场쎯	-10.9564
标育育쎯	-10.9564
交计究쎯常校广쎯	-10.9565
常育场쎯交统表쎯	-10.9566
交这师쎯常城级쎯常型美쎯	-10.9567
交里提쎯交他海쎯	-10.9569
器计而쎯	-10.9571
农信海쎯交这究쎯	-10.9572
常形信쎯参里村쎯器各城쎯器各基쎯	-10.9572
标并质쎯交色口쎯	-10.9572
交保口쎯常育处쎯参美计쎯	-10.9573
常提级쎯	-10.9573
参由形쎯参形究쎯农道里쎯	-10.9574
参美计쎯常计网쎯常里而쎯	-10.9574
常这广쎯标提组쎯交道得쎯	-10.9578
交过资쎯交组得쎯	-10.958
万从海쎯标组型쎯	-10.9582
标城组쎯交由师쎯	-10.9582
常里提쎯交校育쎯	-10.9582
标目天쎯常村处쎯参过级쎯常并米쎯	-10.9587
常城级쎯常育处쎯	-10.9588
常海信쎯农处安쎯农信质쎯	-10.9588
交天	-10.9588
器校前쎯交这究쎯	-10.9589
经쎯化쎯农处组쎯	-10.9589
标组基쎯	-10.959
常统最쎯	-10.959
单度重쎯标美二쎯参目度쎯	-10.959
交数组쎯器重统쎯常各场쎯	-10.9591
常度信쎯常级道쎯	-10.9591
建쎯万处间쎯	-10.9592
常二统쎯单度十쎯	-10.9596
常级色쎯常信数쎯	-10.9597
交这里쎯	-10.9598
单度程쎯农从村쎯标者统쎯	-10.9598
器道社쎯	-10.9599
参师外쎯单度程쎯	-10.9599
交并度쎯参口服쎯	-10.96
常安者쎯常海信쎯	-10.9601
参而过쎯常处服쎯	-10.9602
单度重쎯器村者쎯交这师쎯单度校쎯	-10.9603
参米里쎯	-10.9603
参里师쎯常型美쎯农道社쎯	-10.9605
常广过쎯	-10.9606
器企究쎯器道社쎯	-10.9607
单度重쎯建쎯化쎯化쎯经쎯常表口쎯	-10.9607
农从程쎯农道美쎯标保委쎯常保服쎯	-10.961
万从海쎯农道这쎯农道质쎯	-10.9611
交保统쎯交校他쎯	-10.9612
交路企쎯交形广쎯	-10.9612
参保二쎯	-10.9612
建쎯月쎯化쎯常资十쎯	-10.9612
万从海쎯标保委쎯	-10.9614
常从金쎯常各场쎯	-10.9615
参得委쎯常级形쎯	-10.9616
常级委쎯常级米쎯交他得쎯	-10.9617
农信式쎯农道美쎯常海特쎯	-10.9621
万从海쎯农道度쎯参保口쎯	-10.9622
常立程쎯单度重쎯	-10.9627
常资路쎯常组广쎯	-10.9627
常级委쎯交级而쎯	-10.9629
常而海쎯交者场쎯农表究쎯	-10.9629
设쎯与쎯化쎯	-10.9633
农道里쎯交特外쎯常而安쎯	-10.9636
交育企쎯	-10.9636
万从级쎯经쎯体쎯建쎯	-10.9636
器过度쎯	-10.9638
家쎯常级委쎯常里而쎯标外二쎯	-10.964
常二型쎯器度程쎯参美计쎯	-10.964
农信型쎯常城度쎯	-10.9641
参师表쎯标数网쎯	-10.9643
参城质쎯交这得쎯常各场쎯	-10.9644
器各道쎯常二得쎯器得程쎯	-10.9644
常信最쎯参最广쎯参广十쎯常信二쎯	-10.9645
万从海쎯器十育쎯	-10.9645
单度重쎯交级村쎯农形应쎯	-10.9645
交特色쎯常最而쎯农表提쎯州企쎯	-10.9647
器基并쎯交这安쎯	-10.9648
标保外쎯	-10.9648
交这师쎯农道度쎯常各美쎯参美计쎯	-10.9648
参质色쎯交数级쎯常校保쎯农信质쎯	-10.965
交这级쎯长쎯经쎯交者育쎯	-10.965
单度程쎯常资广쎯常保处쎯	-10.9651
交这级쎯农形处쎯	-10.9655
参里师쎯农信式쎯常立程쎯	-10.9655
器过处쎯常校保쎯单度重쎯	-10.9656
常得委쎯器服米쎯	-10.9658
常信最쎯常处立쎯	-10.9659
器外社쎯交统形쎯	-10.9659
常而级쎯农处这쎯农从组쎯农从口쎯	-10.9662
常资应쎯常从二쎯	-10.9666
常师得쎯农道形쎯参从特쎯	-10.9667
常而海쎯交计二쎯	-10.9669
参究里쎯交这究쎯	-10.967
经쎯体쎯建쎯月쎯常表口쎯	-10.967
参美计쎯交这十쎯常二十쎯	-10.9671
参从口쎯	-10.9674
常二型쎯农信信쎯	-10.9675
长쎯与쎯之쎯	-10.9676
常资广쎯农表基쎯	-10.9676
交数组쎯常里提쎯参二里쎯	-10.9679
常型式쎯农从美쎯常道道쎯常校基쎯	-10.9681
交者十쎯常城十쎯	-10.9682
交型	-10.9684
万从海쎯经쎯体쎯体쎯机쎯常表口쎯	-10.9685
常处应쎯	-10.9685
常十他쎯	-10.9686
家쎯月쎯与쎯	-10.9688
品쎯建쎯	-10.9689
交者育쎯交这究쎯万从美쎯	-10.969
交信场쎯农信质쎯	-10.9692
常安口쎯交他得쎯	-10.9695
参间应쎯标者口쎯	-10.9695
参美计쎯常网过쎯	-10.9696
常各基쎯参城质쎯	-10.9696
器网外쎯交道基쎯	-10.9697
万从美쎯经쎯化쎯	-10.9697
常色程쎯标者里쎯	-10.9698
农处这쎯常立程쎯单度重쎯	-10.9698
参各基쎯参而委쎯农处立쎯参由形쎯	-10.9699
农道里쎯常保处쎯参型城쎯农从美쎯	-10.9699
参育度쎯	-10.9702
参形网쎯器师统쎯万从海쎯	-10.9703
常保间쎯常各场쎯	-10.9704
参美计쎯农网基쎯交程得쎯	-10.9704
常各社쎯交由数쎯	-10.9707
建쎯全쎯长쎯	-10.9709
常二社쎯标这度쎯	-10.9712
农道外쎯标外海쎯	-10.9713
常资企쎯交这师쎯农道度쎯常各美쎯	-10.9713
经쎯体쎯农道特쎯参信社쎯	-10.9714
标育色쎯万从师쎯	-10.9714
器各信쎯单度十쎯	-10.9715
器各型쎯参究育쎯	-10.9715
常企安쎯	-10.9717
农道社쎯交目村쎯交色村쎯参形计쎯	-10.972
参处村쎯参而过쎯	-10.972
常安数쎯农处安쎯万从海쎯	-10.9721
万从海쎯经쎯体쎯体쎯月쎯常表口쎯	-10.9721
常从度쎯常式十쎯农信委쎯	-10.9722
交色口쎯农道校쎯	-10.9722
农形立쎯常重广쎯	-10.9722
参最形쎯标组服쎯	-10.9726
交这度쎯常从信쎯	-10.9726
农道信쎯交重广쎯	-10.9727
器校重쎯参信提쎯	-10.9728
常里提쎯常金重쎯	-10.9728
器处应쎯标度究쎯	-10.9729
之쎯与쎯	-10.9729
交育从쎯参保他쎯	-10.9733
常信式쎯器而处쎯农信质쎯	-10.9735
交师天쎯常从金쎯	-10.9735
万从海쎯经쎯体쎯体쎯长쎯常表口쎯	-10.9735
器得目쎯常师式쎯	-10.9735
标道提쎯	-10.9736
交特外쎯标保委쎯	-10.9737
器十二쎯常海信쎯参美计쎯常二安쎯	-10.9738
交这度쎯标数网쎯	-10.974
参质色쎯农形形쎯农道里쎯常资前쎯	-10.974
器网组쎯常信式쎯	-10.9741
常立程쎯农处安쎯	-10.9742
器表计쎯	-10.9742
常海形쎯常里提쎯农从美쎯	-10.9744
常资育쎯农从安쎯	-10.9745
标并质쎯农网者쎯	-10.9745
器保型쎯	-10.9746
经쎯机쎯科쎯	-10.9746
器外社쎯器基海쎯器处提쎯	-10.9747
器网他쎯器提程쎯	-10.9749
常型天쎯常金重쎯	-10.9752
常校间쎯农道形쎯农形形쎯	-10.9752
农道里쎯器育网쎯	-10.9753
常育外쎯参师表쎯	-10.9756
常外处쎯交质级쎯	-10.9756
参城质쎯交这得쎯标提委쎯	-10.9758
交他得쎯标提组쎯交道得쎯	-10.9763
交而资쎯	-10.9765
农处立쎯参质色쎯农信委쎯	-10.9767
器式并쎯器得形쎯	-10.9767
常保里쎯器师信쎯	-10.9767
参究并쎯单度重쎯导度目쎯	-10.9769
参数资쎯标最度쎯	-10.9769
参保道쎯常而海쎯参美计쎯	-10.9769
经쎯月쎯常资应쎯标外海쎯	-10.9771
常得表쎯交校者쎯	-10.9772
农道安쎯标这度쎯器提程쎯	-10.9773
单度校쎯器得者쎯	-10.9775
器外口쎯常校保쎯农信质쎯农道信쎯	-10.9776
建쎯交应基쎯	-10.9779
参城质쎯参美计쎯	-10.9783
器师他쎯	-10.9784
交特式쎯	-10.9785
常二型쎯器度程쎯	-10.9785
参形计쎯参形计쎯标数网쎯	-10.9785
常安基쎯常色最쎯	-10.9787
常外信쎯参师级쎯参型城쎯家쎯	-10.9794
交这师쎯常而安쎯参美计쎯	-10.9794
器色过쎯参而委쎯	-10.9795
万从海쎯器组处쎯参计场쎯	-10.9796
万从海쎯交二而쎯农城保쎯	-10.9798
交前城쎯	-10.9798
标保企쎯器城城쎯	-10.98
标资安쎯交特组쎯	-10.98
月쎯交这级쎯常外信쎯参最究쎯	-10.9802
交色最쎯交色保쎯	-10.9802
交并	-10.9803
农道度쎯常二企쎯	-10.9803
器资育쎯	-10.9804
交目基쎯参信表쎯	-10.9805
交保口쎯交这师쎯	-10.9806
江校쎯单计	-10.9806
交间程쎯常型式쎯	-10.9809
万从海쎯常而村쎯	-10.9811
常各提쎯	-10.9811
设쎯方쎯	-10.9811
常道重쎯常资应쎯常各师쎯常前度쎯	-10.9812
参美计쎯参师表쎯器师统쎯	-10.9813
常师得쎯交数组쎯交质级쎯单度重쎯	-10.9814
万从海쎯常级天쎯参最广쎯	-10.9814
器网提쎯	-10.9815
参二安쎯器口路쎯	-10.9816
参组形쎯标组委쎯	-10.9816
常二重쎯器度过쎯农表提쎯	-10.9817
常型信쎯常城者쎯	-10.9819
农道度쎯参得外쎯	-10.982
农表提쎯单度重쎯	-10.9821
常师式쎯单度校쎯	-10.9821
参最色쎯常城计쎯	-10.9821
交级他쎯交特者쎯农道里쎯	-10.9822
交村道쎯	-10.9825
万从海쎯交数资쎯参式色쎯	-10.9825
建쎯万从师쎯	-10.9825
农城保쎯交色口쎯	-10.9826
常前前쎯器企得쎯	-10.9826
交统道쎯	-10.9828
化쎯交级企쎯万从海쎯	-10.9828
常二他쎯常质十쎯常组广쎯	-10.983
经쎯交这级쎯经쎯交者育쎯	-10.983
器资而쎯器美度쎯	-10.983
参处各쎯农信质쎯	-10.9833
常里提쎯常安美쎯常并米쎯	-10.9834
常外信쎯常道里쎯	-10.9835
教쎯单度重쎯	-10.984
交应信쎯	-10.9843
常师得쎯农道形쎯农形形쎯单度重쎯	-10.9843
器海计쎯	-10.9843
器路海쎯	-10.9843
标目服쎯参式得쎯长쎯	-10.9843
参美计쎯农信信쎯参最究쎯	-10.9846
农网基쎯交程得쎯参由形쎯参形究쎯	-10.9847
交者场쎯器并资쎯	-10.9848
器外由쎯农形校쎯万从海쎯	-10.9848
交色村쎯常资前쎯常关海쎯常保处쎯	-10.9848
单度程쎯标组级쎯	-10.9849
器最立쎯	-10.9849
常统程쎯交这级쎯	-10.9849
常安者쎯常各程쎯	-10.985
交级他쎯交这得쎯	-10.985
器十间쎯	-10.985
常级米쎯常而安쎯万从美쎯	-10.9852
器网组쎯交应城쎯	-10.9853
交金从쎯常前度쎯	-10.9853
常信计쎯标数外쎯	-10.9854
农道信쎯交这应쎯	-10.9854
常十十쎯参米金쎯	-10.9855
器网他쎯器过处쎯	-10.9857
常型式쎯交特表쎯	-10.9858
万从级쎯常而米쎯	-10.986
标他质쎯	-10.986
常形信쎯器各城쎯参美计쎯	-10.9861
参形他쎯常级场쎯	-10.9862
参口得쎯器各基쎯	-10.9863
交里型쎯农表提쎯	-10.9864
参究网쎯农道美쎯	-10.9867
交服里쎯	-10.9868
导度提쎯导度提쎯家쎯	-10.9869
器组城쎯农形程쎯	-10.9872
参特米쎯	-10.9873
常委服쎯	-10.9873
常从度쎯器校前쎯	-10.9876
交者资쎯常各服쎯	-10.9877
文쎯单度程쎯	-10.9877
常海特쎯常提委쎯	-10.9881
农信委쎯器各道쎯常型美쎯	-10.9882
设쎯与쎯建쎯	-10.9884
农表而쎯器场并쎯	-10.9889
单度重쎯建쎯化쎯经쎯长쎯常表口쎯	-10.989
参形计쎯标数网쎯	-10.9891
常而质쎯器服米쎯	-10.9892
常立安쎯常信最쎯	-10.9895
交度式쎯常育处쎯	-10.9895
常目重쎯	-10.9895
参二金쎯交路企쎯	-10.9897
常型社쎯参育特쎯	-10.9902
常从度쎯常二村쎯常数委쎯	-10.9904
常资资쎯器场由쎯	-10.9905
经쎯化쎯常资十쎯万从海쎯	-10.9905
常城十쎯单度程쎯交由数쎯器式计쎯	-10.991
标信形쎯标委师쎯	-10.9914
器安委쎯常企间쎯	-10.9914
参最究쎯标数网쎯常这广쎯	-10.9916
交安式쎯	-10.9917
交这师쎯参保校쎯	-10.9918
器服米쎯器社师쎯农道信쎯导度这쎯	-10.9919
导度目쎯常里者쎯	-10.992
器得级쎯	-10.992
器口路쎯标他由쎯	-10.9921
常前数쎯常外信쎯	-10.9923
家쎯常外信쎯常型计쎯万从美쎯	-10.9924
参保口쎯器城城쎯	-10.9924
交色口쎯参最路쎯	-10.9924
常型天쎯交师安쎯	-10.9927
交这米쎯万从海쎯	-10.9928
标程里쎯标程外쎯	-10.9928
经쎯经쎯农道社쎯	-10.9929
交目度쎯农信信쎯	-10.9932
交形基쎯交者二쎯	-10.9932
交最得쎯标过广쎯农表提쎯器各色쎯	-10.9934
器村基쎯器而计쎯参师组쎯	-10.9936
标组服쎯常师得쎯标组服쎯标数网쎯	-10.9937
常这广쎯交金基쎯参最究쎯	-10.9937
万从级쎯与쎯万从师쎯	-10.9938
单度重쎯家쎯设쎯单度程쎯	-10.9938
参者保쎯器十提쎯	-10.9947
经쎯标关前쎯	-10.9949
万从海쎯农处网쎯常城者쎯	-10.9949
参广由쎯常各美쎯参美计쎯	-10.9953
器特社쎯	-10.9954
标程者쎯器网表쎯	-10.9954
交场基쎯	-10.9957
参海这쎯	-10.9958
经쎯化쎯交这级쎯参最究쎯万从海쎯	-10.9959
家쎯常级委쎯常里而쎯常从二쎯	-10.996
器企得쎯标目服쎯	-10.996
器路企쎯交信而쎯	-10.9961
常外委쎯常级组쎯	-10.9961
农道里쎯常资前쎯农道里쎯常型各쎯	-10.9962
交企米쎯	-10.9966
万从安쎯万从安쎯	-10.9967
月쎯交这级쎯万从海쎯	-10.9968
常各他쎯器外由쎯	-10.997
常资场쎯农形特쎯交度式쎯器过处쎯	-10.997
常师安쎯交这究쎯	-10.9972
经쎯机쎯之쎯	-10.9973
单度重쎯经쎯体쎯体쎯之쎯常表口쎯	-10.9974
交海处쎯	-10.9977
参金城쎯	-10.9978
常过	-10.9982
常资美쎯交金基쎯	-10.9984
单度重쎯标度美쎯器网外쎯	-10.9985
常安者쎯标目间쎯	-10.9986
体쎯常二企쎯	-10.9986
交统表쎯参最色쎯	-10.9987
单度程쎯参究由쎯	-10.9988
导师型쎯	-10.9988
农道里쎯器企得쎯	-10.9989
交信过쎯	-10.9989
参各基쎯参而委쎯万从海쎯	-10.9989
建쎯医者쎯	-10.9991
器安得쎯参最广쎯	-10.9991
交目度쎯交里形쎯	-10.9992
月쎯化쎯常资十쎯万从海쎯	-10.9993
器色二쎯	-10.9996
参信金쎯标最组쎯家쎯	-10.9998
器数过쎯	-10.9999
单度重쎯经쎯体쎯之쎯设쎯常表口쎯	-11.0003
交特外쎯交他质쎯常安数쎯农处安쎯	-11.0004
交这度쎯交这师쎯	-11.0004
参形口쎯常育外쎯	-11.0005
标数外쎯常资美쎯常式最쎯	-11.0005
单度程쎯标外村쎯	-11.0006
参里师쎯家쎯	-11.0007
交级美쎯	-11.0007
交色村쎯农从者쎯	-11.0009
标重各쎯参最路쎯	-11.001
参金最쎯参天场쎯常村他쎯单度重쎯	-11.0013
常这色쎯交目网쎯	-11.0014
参级前쎯常色最쎯常资色쎯	-11.0015
交最表쎯常而安쎯	-11.0016
交数组쎯常式最쎯	-11.0017
农道信쎯农道度쎯农处立쎯	-11.0019
参级委쎯标提组쎯	-11.002
参米金쎯万从海쎯	-11.0023
常从校쎯	-11.0024
常企间쎯常级信쎯常二统쎯	-11.0025
交数组쎯农从美쎯	-11.0025
常委这쎯交目村쎯参形二쎯交路质쎯	-11.0026
参形服쎯	-11.0026
标城组쎯常前前쎯	-11.0027
农道信쎯常保保쎯参里师쎯参米组쎯	-11.0028
农处这쎯交保统쎯常各场쎯	-11.003
常从究쎯常从究쎯	-11.0032
参最他쎯器最者쎯	-11.0036
单度重쎯经쎯体쎯长쎯设쎯常表口쎯	-11.0037
器保保쎯	-11.0038
参美前쎯	-11.0039
农道这쎯常前前쎯	-11.004
标数网쎯参得外쎯常色二쎯器得口쎯	-11.0041
经쎯万从师쎯	-11.0042
农道安쎯参究育쎯标程立쎯	-11.0042
农表	-11.0042
参最究쎯参统师쎯	-11.0043
万从海쎯农表究쎯常二得쎯	-11.0043
参从特쎯常委组쎯参美计쎯	-11.0044
常并色쎯农表而쎯	-11.0045
标度金쎯交级而쎯参美计쎯	-11.0046
器并重쎯参师外쎯	-11.0046
多쎯经쎯	-11.0047
器十前쎯交特外쎯常而安쎯万从美쎯	-11.0047
标过广쎯常师得쎯标过广쎯标数网쎯	-11.005
经쎯医者쎯	-11.0051
万从海쎯常资广쎯标目服쎯	-11.0052
万从海쎯器组处쎯	-11.0052
常究质쎯常金基쎯	-11.0054
农道校쎯交特表쎯	-11.0058
参这究쎯器得美쎯	-11.0063
器网而쎯常校广쎯农从美쎯	-11.0063
交他究쎯交这究쎯	-11.0064
参质色쎯交这师쎯常村他쎯常企育쎯	-11.0064
器网保쎯器基海쎯参美计쎯	-11.0067
万从海쎯常道各쎯常校天쎯	-11.0067
标外安쎯参重表쎯农道里쎯常里提쎯	-11.0068
参信提쎯参网色쎯州企쎯	-11.0069
交道资쎯农表城쎯标美委쎯	-11.0075
万从海쎯常处立쎯交者场쎯	-11.0076
常表场쎯农道安쎯交他得쎯	-11.0079
参城校쎯器重师쎯	-11.008
常由广쎯	-11.0082
交色口쎯常型计쎯参而委쎯	-11.0082
州企쎯标他网쎯	-11.0082
常育育쎯交间者쎯常海表쎯常资十쎯	-11.0083
标基表쎯参保各쎯参美计쎯	-11.0084
参美计쎯参各基쎯参而委쎯	-11.0084
器得口쎯交由数쎯	-11.0087
器各网쎯标者各쎯常里提쎯器度资쎯	-11.0091
标形村쎯器型而쎯器师统쎯	-11.0092
常型式쎯常道道쎯常式最쎯农从美쎯	-11.0093
标社广쎯参式村쎯	-11.0093
农道安쎯常各这쎯	-11.0096
单度校쎯交级村쎯	-11.0096
单度重쎯家쎯常外信쎯常型计쎯	-11.0097
常前网쎯	-11.0098
体쎯家쎯	-11.0098
标数网쎯交特表쎯常处服쎯	-11.0099
器各统쎯交质级쎯	-11.0102
常从信쎯参过级쎯参美计쎯	-11.0104
农从他쎯参式度쎯常育特쎯	-11.0107
常式而쎯常式而쎯	-11.0107
交广基쎯常从二쎯万从海쎯	-11.0108
单度重쎯建쎯化쎯化쎯化쎯常表口쎯	-11.0108
标过广쎯常型特쎯参应最쎯参最形쎯	-11.0109
农道这쎯常质网쎯	-11.0109
经쎯导度最쎯	-11.0111
常型式쎯参前由쎯	-11.0112
器基米쎯	-11.0112
常资育쎯农城路쎯	-11.0112
农处这쎯常外信쎯农信委쎯	-11.0112
交师程쎯常表由쎯	-11.0112
交这信쎯交服色쎯常级场쎯标度金쎯	-11.0114
参城处쎯交得保쎯	-11.0114
标他究쎯标他究쎯常村他쎯	-11.0115
设쎯交这级쎯常外信쎯参最究쎯	-11.0117
标程立쎯常资企쎯	-11.0118
交质级쎯农信级쎯导度这쎯	-11.0118
动쎯长쎯	-11.0119
参最究쎯农信式쎯单度程쎯	-11.0119
标重度쎯	-11.012
器天表쎯	-11.0121
交校米쎯标关级쎯常处服쎯	-11.0121
交数口쎯标处而쎯	-11.0122
常社美쎯	-11.0122
常二村쎯参质色쎯参美计쎯	-11.0124
万从海쎯器过处쎯常型究쎯	-11.0127
常立程쎯参师海쎯单度重쎯	-11.0127
器保城쎯	-11.0128
常色委쎯标服委쎯	-11.0128
交程场쎯标里最쎯	-11.0128
交这师쎯参重表쎯	-11.0128
好	-11.0131
器外社쎯常里提쎯	-11.0132
器资形쎯	-11.0132
交十他쎯	-11.0134
农道十쎯常资育쎯	-11.0134
品쎯与쎯文쎯	-11.0136
经쎯化쎯分쎯经쎯化쎯化쎯	-11.0136
常二村쎯参最究쎯农信委쎯	-11.0136
器校组쎯器立师쎯	-11.0136
常级者쎯农道信쎯	-11.0137
参过里쎯标外二쎯	-11.0138
参最究쎯农信质쎯交路企쎯交十最쎯	-11.0139
农形并쎯器基广쎯农处这쎯常立程쎯	-11.0141
交型色쎯	-11.0144
常处立쎯交者场쎯参美计쎯	-11.0144
常外信쎯器基海쎯	-11.0148
常各场쎯参最路쎯	-11.0149
常资级쎯常而质쎯农形形쎯	-11.0151
交十保쎯交最场쎯	-11.0151
建쎯经쎯化쎯	-11.0151
常城企쎯器重统쎯	-11.0152
经쎯长쎯设쎯	-11.0153
常级保쎯常校间쎯参美计쎯	-11.0155
标者广쎯万从海쎯	-11.0156
参美计쎯常这色쎯农处安쎯	-11.0157
万从海쎯交里并쎯	-11.0157
交金立쎯	-11.016
交道安쎯	-11.0162
交数统쎯	-11.0163
科쎯交这级쎯常外信쎯参最究쎯	-11.0163
万从海쎯经쎯体쎯体쎯体쎯常表口쎯	-11.0165
参口式쎯常从金쎯	-11.0166
交师表쎯常外委쎯参美计쎯	-11.0167
之쎯化쎯建쎯与쎯长쎯	-11.0168
农处立쎯农从美쎯	-11.0169
万从海쎯农信信쎯农形应쎯	-11.0171
交关外쎯	-11.0172
常二得쎯农形育쎯标度美쎯器网外쎯	-11.0175
标里计쎯	-11.0176
参美计쎯常特这쎯参级前쎯	-11.0177
交组美쎯常表口쎯	-11.018
参重米쎯	-11.0181
常校	-11.0181
参美计쎯农道度쎯标基表쎯	-11.0182
器校前쎯常委金쎯	-11.0186
参委二쎯	-11.0186
全쎯经쎯建쎯	-11.0187
常师得쎯标过广쎯标数网쎯	-11.0187
长쎯与쎯机쎯	-11.0189
常城者쎯常型天쎯参十应쎯常质美쎯	-11.0191
标服而쎯	-11.0192
常关由쎯	-11.0192
交者式쎯交者场쎯	-11.0193
常各基쎯常各美쎯	-11.0193
全쎯经쎯月쎯	-11.0193
器质企쎯常资广쎯常保处쎯	-11.0195
常委这쎯农道美쎯标过广쎯	-11.0196
参应最쎯标基信쎯参从特쎯常二企쎯	-11.0198
常道提쎯交目育쎯参美计쎯	-11.0198
农道安쎯常提重쎯	-11.0198
常安美쎯常并米쎯参金最쎯参天场쎯	-11.0199
单度程쎯交前处쎯器处提쎯	-11.0201
器得计쎯常各基쎯	-11.0202
之쎯教쎯	-11.0203
常这里쎯	-11.0206
万从师쎯万从美쎯	-11.0207
参美计쎯参级场쎯农信统쎯	-11.0207
交他海쎯常质网쎯	-11.021
万从安쎯经쎯体쎯长쎯	-11.021
标度美쎯参究育쎯单度十쎯万从级쎯	-11.0212
参级前쎯常网过쎯	-11.0212
交间场쎯交间计쎯	-11.0215
常二统쎯交特组쎯	-11.0218
标程立쎯常资师쎯	-11.0218
农信信쎯交金从쎯	-11.0218
交场级쎯交得关쎯	-11.0219
参统城쎯标度美쎯	-11.0219
交路程쎯常究究쎯	-11.0221
化쎯化쎯交得米쎯参前由쎯万从海쎯	-11.0223
常型社쎯常各级쎯	-11.0223
器城过쎯农处质쎯	-11.0224
万从海쎯常资从쎯	-11.0227
常关海쎯交校度쎯交这得쎯	-11.0227
交广前쎯	-11.0227
交道资쎯标组型쎯	-11.0228
常安基쎯标度美쎯	-11.0228
常城路쎯	-11.0229
参从特쎯常资育쎯	-11.0229
交企各쎯常安者쎯	-11.023
单度重쎯经쎯体쎯之쎯月쎯常表口쎯	-11.023
标关形쎯参究由쎯	-11.0231
常安程쎯农处组쎯常表口쎯	-11.0231
农信各쎯常信提쎯	-11.0231
参美计쎯交特色쎯常间十쎯	-11.0232
标组计쎯常前间쎯常海形쎯标组服쎯	-11.0234
常道重쎯交数组쎯器重统쎯常前度쎯	-11.0234
参里师쎯常这色쎯单度重쎯	-11.0234
交者金쎯器各信쎯交他得쎯	-11.0235
万从海쎯标米他쎯参信式쎯	-11.0238
月쎯常二企쎯	-11.0238
参质色쎯器者二쎯	-11.0238
参美计쎯标这度쎯器提程쎯	-11.024
常而级쎯交由数쎯	-11.0242
常基海쎯	-11.0244
参究育쎯常而安쎯参美计쎯	-11.0245
参天	-11.0245
参式村쎯常表形쎯	-11.0246
常组社쎯标究由쎯	-11.0248
农道安쎯常而海쎯万从海쎯	-11.0249
参得委쎯	-11.025
交外重쎯	-11.025
农形并쎯常二企쎯	-11.0252
器而从쎯	-11.0255
参美计쎯常究质쎯常道重쎯	-11.0255
化쎯导计过쎯万从海쎯常表口쎯	-11.0255
常目得쎯	-11.0256
农道形쎯交特组쎯万从美쎯	-11.0257
常各美쎯农道信쎯	-11.0258
常型米쎯常提形쎯	-11.0259
常安金쎯交安各쎯	-11.0259
交他委쎯常前前쎯	-11.026
参保村쎯参十前쎯	-11.026
月쎯与쎯化쎯	-11.0261
标过处쎯器提程쎯	-11.0261
常资美쎯参形计쎯参形外쎯	-11.0264
参式村쎯交校度쎯常二村쎯常前数쎯	-11.0265
参质色쎯标外村쎯	-11.0266
交色道쎯农表资쎯	-11.0266
常表口쎯交目育쎯万从海쎯	-11.0268
农信提쎯常二得쎯	-11.0269
长쎯交这级쎯万从海쎯	-11.0274
器计二쎯	-11.0275
器度程쎯交目网쎯	-11.0275
单度二쎯家쎯单度质쎯	-11.0276
单度重쎯参形二쎯器网外쎯	-11.0276
参最广쎯交级企쎯参美计쎯	-11.0279
常型式쎯常型式쎯	-11.0279
器校表쎯器二这쎯	-11.0279
常资广쎯器外社쎯常校广쎯	-11.0283
参美计쎯常里提쎯农表金쎯	-11.0284
常委色쎯参由特쎯	-11.0284
器得计쎯常各美쎯	-11.0284
器程校쎯	-11.0285
交统育쎯	-11.0287
常型式쎯器外口쎯	-11.0288
家쎯交级村쎯	-11.0289
标米他쎯常色美쎯	-11.029
参形计쎯交级而쎯常村他쎯	-11.029
交他育쎯常型天쎯	-11.0293
参前形쎯参美计쎯	-11.0294
经쎯之쎯化쎯化쎯	-11.0294
标目服쎯标过广쎯	-11.0295
参最究쎯交度程쎯参质得쎯常服过쎯	-11.0297
常色美쎯交这社쎯	-11.0298
农处立쎯常级场쎯交最表쎯标目天쎯	-11.0301
农道师쎯常由基쎯	-11.0303
参各基쎯参而委쎯常校间쎯交由数쎯	-11.0309
交广校쎯	-11.031
器处应쎯常而村쎯	-11.031
农表究쎯器各道쎯	-11.0312
与쎯月쎯常质他쎯参前由쎯	-11.0312
交这究쎯常城资쎯	-11.0312
交金从쎯常色最쎯	-11.0314
器重外쎯	-11.0314
常校基쎯常各间쎯	-11.0315
常委保쎯常保服쎯	-11.0317
常安由쎯交者场쎯	-11.0317
参天网쎯器网外쎯	-11.032
器服米쎯器各型쎯农道信쎯交他得쎯	-11.032
万从海쎯标美二쎯参目度쎯	-11.0323
参式村쎯常里提쎯常二村쎯常前数쎯	-11.0329
交型里쎯常这委쎯常处服쎯万从海쎯	-11.0329
交提数쎯	-11.0329
参最路쎯常处前쎯器校重쎯	-11.0331
常各海쎯参城质쎯参美计쎯	-11.0331
参形二쎯常质委쎯农信委쎯	-11.0331
常并表쎯	-11.0332
常这色쎯农形十쎯参形安쎯农信委쎯	-11.0333
参计组쎯	-11.0334
导级	-11.0336
交应金쎯	-11.0336
品쎯农形校쎯	-11.0337
标目服쎯参式得쎯农道信쎯	-11.0337
器基海쎯万从海쎯	-11.0339
常资前쎯常级委쎯	-11.034
参信场쎯	-11.034
常这色쎯常海信쎯万从海쎯	-11.034
农道里쎯常安质쎯交色村쎯交者二쎯	-11.0342
万从海쎯常目外쎯	-11.0342
参美计쎯标米他쎯参式村쎯交校度쎯	-11.0343
参外过쎯交色最쎯	-11.0344
器服安쎯	-11.0346
长쎯农信信쎯万从海쎯	-11.0347
农道型쎯器度资쎯	-11.0349
交路各쎯标保数쎯	-11.0351
交从米쎯参最形쎯常各场쎯	-11.0351
常里天쎯常里而쎯农形应쎯	-11.0352
农信师쎯器各各쎯	-11.0353
交统由쎯标数外쎯	-11.0354
交里育쎯常资路쎯	-11.0354
常二色쎯常从二쎯交这信쎯	-11.0355
常提重쎯常而海쎯	-11.0357
常校究쎯器过处쎯万从海쎯	-11.0359
参最究쎯交里形쎯	-11.036
常特计쎯器师得쎯	-11.0361
器各城쎯器各基쎯常关海쎯	-11.0361
标组计쎯器网村쎯参美计쎯	-11.0361
经쎯常二社쎯	-11.0362
参美计쎯交特外쎯常海特쎯	-11.0362
农道外쎯常里者쎯	-11.0365
单度十쎯参最前쎯	-11.0365
万从海쎯经쎯体쎯体쎯设쎯常表口쎯	-11.0366
器网里쎯	-11.0366
参组处쎯标资关쎯	-11.0367
交他得쎯常色委쎯	-11.0367
常企育쎯参广十쎯常形信쎯器各城쎯	-11.0368
交道而쎯交道而쎯	-11.037
参基目쎯	-11.0371
交校度쎯常道级쎯	-11.0371
常质广쎯交级网쎯	-11.0371
交道资쎯交这米쎯	-11.0372
交口形쎯常校广쎯农道里쎯	-11.0372
器城表쎯常服过쎯	-11.0373
万从海쎯常色型쎯常资场쎯	-11.0376
常各者쎯交者广쎯交他得쎯	-11.038
标度美쎯常城度쎯	-11.038
器	-11.038
常色最쎯交特得쎯	-11.038
经쎯与쎯体쎯	-11.0383
交路程쎯器基海쎯参美计쎯	-11.0383
常型特쎯万从海쎯器网他쎯	-11.0383
交级社쎯器外由쎯	-11.0387
标基表쎯参保各쎯单度重쎯	-11.0389
常网资쎯器提程쎯	-11.039
万从海쎯经쎯体쎯之쎯经쎯常表口쎯	-11.0391
常前前쎯农道这쎯常型式쎯常里提쎯	-11.0391
万从海쎯经쎯体쎯体쎯化쎯常表口쎯	-11.0391
参计美쎯	-11.0392
交这师쎯常资由쎯参美计쎯	-11.0394
万从海쎯交者广쎯常这广쎯	-11.0394
器资海쎯常级场쎯	-11.0394
交者育쎯器各色쎯	-11.0395
交特外쎯常里提쎯常各场쎯	-11.0395
交统表쎯器二这쎯	-11.0396
常从度쎯标他最쎯	-11.0397
交这师쎯常校天쎯农信质쎯	-11.0398
交网度쎯常校前쎯	-11.0399
参美计쎯参形二쎯交路质쎯	-11.04
单度最쎯	-11.0401
标米他쎯交师十쎯	-11.0402
参重表쎯单度重쎯	-11.0405
农道里쎯常保处쎯农表提쎯参最形쎯	-11.0407
参过里쎯参重表쎯	-11.0408
常而海쎯器基海쎯	-11.0408
交口形쎯器基度쎯	-11.0408
器路计쎯交信而쎯农道色쎯常得海쎯	-11.0408
器安得쎯农道美쎯	-11.0412
常处服쎯农从从쎯	-11.0414
常师得쎯标组服쎯标数网쎯	-11.0415
农道信쎯经쎯	-11.0416
经쎯之쎯长쎯	-11.0418
器关组쎯常二型쎯交者二쎯	-11.0419
交提广쎯	-11.0419
交里育쎯交间社쎯	-11.0421
建쎯标基表쎯	-11.0421
交特表쎯参广十쎯	-11.0421
常立育쎯农从提쎯交得最쎯农信美쎯	-11.0423
科쎯文쎯	-11.0425
单度程쎯参型城쎯农从美쎯	-11.043
万从海쎯器网组쎯交金企쎯	-11.0432
月쎯农信天쎯	-11.0435
交他得쎯农道特쎯参数海쎯农道校쎯	-11.0436
农从者쎯参最究쎯	-11.0436
经쎯建쎯交这级쎯农形形쎯	-11.0436
农信委쎯单度校쎯	-11.0439
常十师쎯	-11.044
常保处쎯常这究쎯器路计쎯交信而쎯	-11.0441
标外安쎯常校保쎯	-11.0441
参究里쎯万从海쎯	-11.0442
万从海쎯常而计쎯	-11.0442
交色村쎯交最网쎯	-11.045
器式并쎯交最城쎯常而质쎯	-11.045
器基海쎯农道美쎯常安二쎯农从美쎯	-11.045
参美计쎯参形立쎯交间计쎯	-11.045
常前前쎯常信计쎯	-11.045
参校场쎯常资过쎯	-11.0452
交质广쎯参而委쎯	-11.0453
交金表쎯参校场쎯器海质쎯	-11.0453
农形立쎯常信立쎯	-11.0454
参美计쎯农道度쎯常信式쎯	-11.0454
交特色쎯参最究쎯	-11.0455
交基海쎯标目服쎯	-11.0456
农信十쎯农道美쎯参美计쎯	-11.0457
常重广쎯常型外쎯	-11.0459
常各基쎯交师表쎯	-11.0463
交这信쎯交服色쎯器各城쎯常型外쎯	-11.0463
经쎯化쎯交这级쎯万从海쎯	-11.0463
常而者쎯	-11.0464
交表特쎯常海信쎯	-11.0467
交师表쎯器得计쎯	-11.0468
设쎯与쎯经쎯	-11.0469
参最究쎯常海特쎯	-11.0469
常安程쎯农信最쎯常表口쎯	-11.047
常而质쎯标目服쎯	-11.047
常企育쎯常数委쎯器基海쎯交最网쎯	-11.0471
交数组쎯交质级쎯单度程쎯常安美쎯	-11.0472
交而信쎯	-11.0473
常而安쎯常二米쎯	-11.0473
交色村쎯交并度쎯常得究쎯标组服쎯	-11.0474
万从海쎯交十究쎯农形形쎯	-11.0476
器口各쎯	-11.0477
交过由쎯器前基쎯	-11.0477
经쎯设쎯化쎯化쎯	-11.0479
参最统쎯常究信쎯	-11.0479
常质他쎯参前由쎯单度重쎯	-11.0481
器美程쎯	-11.0481
标度金쎯器得并쎯	-11.0483
常关广쎯器得服쎯交这安쎯常校基쎯	-11.0483
交金村쎯参美各쎯	-11.0484
农信信쎯标度金쎯	-11.0485
常而海쎯参前形쎯	-11.0485
交道道쎯常外形쎯	-11.0487
常这级쎯器场由쎯	-11.0487
器立目쎯参师组쎯	-11.0488
万从海쎯交数资쎯常而安쎯	-11.0489
参目度쎯标外安쎯	-11.0491
常资	-11.0494
常级场쎯常型外쎯	-11.0496
农形育쎯常型社쎯参处村쎯	-11.0496
经쎯体쎯体쎯科쎯	-11.0496
单度重쎯器组处쎯参计场쎯	-11.0498
交统由쎯标程立쎯	-11.0501
常数道쎯	-11.0503
交特色쎯交目村쎯	-11.0503
农道度쎯参保口쎯农形质쎯农信十쎯	-11.0503
参金口쎯参服质쎯	-11.0504
交海外쎯常得从쎯农道十쎯	-11.0505
常二应쎯常最型쎯	-11.0506
交统网쎯常统道쎯	-11.0506
参形网쎯常这色쎯	-11.0507
器校基쎯	-11.0507
参保各쎯常处数쎯农道十쎯	-11.0509
交这信쎯参各前쎯	-11.0513
器十间쎯参师外쎯	-11.0513
常型特쎯交前外쎯	-11.0513
常型二쎯常型天쎯	-11.0515
常究质쎯常安者쎯	-11.0515
器村者쎯交这师쎯单度校쎯	-11.0516
交过资쎯常委路쎯农道十쎯	-11.0516
万从海쎯经쎯体쎯之쎯体쎯常表口쎯	-11.0517
常色二쎯交间目쎯	-11.0518
家쎯常前二쎯常表数쎯	-11.052
万从海쎯常城资쎯	-11.052
器二校쎯器校前쎯	-11.0521
农道信쎯常质究쎯交特组쎯	-11.0525
农信信쎯万从保쎯	-11.0526
机쎯月쎯化쎯	-11.0526
交他质쎯交他城쎯参美计쎯	-11.0527
器城过쎯常色村쎯	-11.0528
参过他쎯	-11.0529
常数委쎯农道美쎯标立场쎯器基海쎯	-11.053
交而信쎯交师十쎯	-11.0531
常级场쎯常师重쎯	-11.0532
常二村쎯常资师쎯	-11.0532
常而安쎯常里提쎯参最究쎯	-11.0532
参最企쎯农道形쎯器式关쎯	-11.0533
器安美쎯	-11.0535
常级委쎯交间而쎯单度程쎯	-11.0538
参型信쎯器海过쎯交度式쎯	-11.0538
常里而쎯常育由쎯	-11.0539
标度美쎯器网外쎯农信委쎯	-11.0542
农表最쎯交这广쎯	-11.0543
交而里쎯常形信쎯	-11.0544
参保道쎯常二安쎯	-11.0547
农网里쎯	-11.0549
参应应쎯常资里쎯常前校쎯	-11.0552
单度重쎯经쎯体쎯体쎯建쎯常表口쎯	-11.0553
建쎯常资应쎯标外海쎯万从海쎯	-11.0555
器网他쎯常二得쎯	-11.0556
常海特쎯常里提쎯参由形쎯	-11.0558
交他得쎯交级村쎯	-11.0559
动쎯设쎯	-11.056
常各场쎯标外海쎯	-11.0562
农表海쎯标统程쎯交这广쎯标处而쎯	-11.0563
常二特쎯常而安쎯	-11.0564
参者保쎯万从海쎯	-11.0564
交间者쎯农道十쎯	-11.0567
常型各쎯参最路쎯器式委쎯常二色쎯	-11.0569
交特外쎯交基并쎯	-11.057
常外信쎯参最究쎯交者育쎯交这究쎯	-11.0572
常里而쎯常各米쎯	-11.0572
农道里쎯常保处쎯常保处쎯标组资쎯	-11.0572
参者资쎯标度目쎯	-11.0572
农形者쎯	-11.0573
常安路쎯常这委쎯常处服쎯	-11.0574
交他城쎯常里他쎯常各表쎯标外二쎯	-11.0575
交者式쎯常目度쎯	-11.0577
农道里쎯参美计쎯农道度쎯参式安쎯	-11.0577
常质提쎯标者广쎯常道重쎯	-11.0581
器度程쎯常表口쎯农信信쎯	-11.0582
科쎯常二企쎯	-11.0582
农道外쎯常质委쎯	-11.0583
参究网쎯农信式쎯	-11.0584
参二金쎯交前究쎯	-11.0586
常各师쎯参处各쎯	-11.0589
农处立쎯器重统쎯常这信쎯	-11.059
器村前쎯常式这쎯	-11.0591
万从海쎯交这师쎯参美计쎯	-11.0592
万从美쎯经쎯建쎯	-11.0592
农道这쎯常海信쎯	-11.0593
交里并쎯器式计쎯	-11.0594
交十从쎯标究由쎯	-11.0594
标外二쎯参美计쎯	-11.0595
参信社쎯常处数쎯	-11.0595
单度重쎯经쎯体쎯之쎯之쎯常表口쎯	-11.0596
交十究쎯常各美쎯	-11.0596
化쎯与쎯化쎯化쎯	-11.0598
标重并쎯标外海쎯	-11.0598
交道道쎯器式级쎯	-11.0599
常型安쎯常安色쎯	-11.0599
常资应쎯参米十쎯	-11.06
常并程쎯参最形쎯	-11.06
常资广쎯交金基쎯	-11.0601
常数委쎯常信者쎯	-11.0601
农信信쎯交度式쎯常海特쎯	-11.0602
交二而쎯农城保쎯常数委쎯	-11.0603
标提特쎯常级保쎯	-11.0605
常立程쎯参师海쎯参美计쎯	-11.0605
交由数쎯常里提쎯标组服쎯	-11.0605
器过道쎯标过广쎯	-11.0606
交师度쎯标这度쎯	-11.0606
常而保쎯农道形쎯	-11.0606
参海社쎯交统表쎯	-11.0608
器度海쎯器网外쎯	-11.0608
常委色쎯参各前쎯	-11.0608
常安路쎯常处服쎯	-11.0609
器企目쎯常质网쎯常究质쎯	-11.0609
常二统쎯常里提쎯	-11.061
常立程쎯参师海쎯万从海쎯	-11.061
标服外쎯交这师쎯	-11.0611
器网组쎯农表级쎯	-11.0614
万从海쎯参育特쎯参前安쎯	-11.0614
参究里쎯参得外쎯常色二쎯器得口쎯	-11.0615
常二他쎯标外二쎯	-11.0617
万从海쎯常度关쎯常资育쎯	-11.0617
万从海쎯经쎯体쎯体쎯经쎯常表口쎯	-11.0618
万从海쎯常二者쎯常级色쎯	-11.062
器口天쎯	-11.0621
交金外쎯交这应쎯	-11.0622
交数组쎯常里提쎯农道质쎯	-11.0624
参保道쎯交这信쎯	-11.0625
常二企쎯万从海쎯	-11.0626
交路提쎯农道这쎯	-11.0626
常委企쎯常委形쎯	-11.0627
万从海쎯参形组쎯	-11.0628
常里提쎯器得口쎯	-11.0629
常委保쎯常海形쎯	-11.0632
常委这쎯交间者쎯	-11.0633
交应服쎯农表而쎯	-11.0633
常育由쎯参育间쎯	-11.0633
农道形쎯器提程쎯参最前쎯	-11.0635
交目而쎯交特组쎯万从美쎯	-11.0636
常型社쎯交表特쎯	-11.0636
标米他쎯农信质쎯	-11.0641
农道形쎯交统形쎯常海形쎯常道级쎯	-11.0642
农道里쎯常海形쎯常里提쎯标组服쎯	-11.0645
标提广쎯	-11.0646
参师组쎯标处网쎯	-11.0647
常形信쎯常级场쎯	-11.0648
参美计쎯常育由쎯常计网쎯	-11.0649
农形网쎯参这究쎯	-11.0651
农表十쎯交过资쎯	-11.0651
建쎯导度最쎯	-11.0651
标米他쎯常由色쎯	-11.0652
交最表쎯常形信쎯	-11.0653
器路十쎯农信级쎯	-11.0653
交前究쎯常道重쎯	-11.0654
农表十쎯交者资쎯	-11.0655
交他得쎯农道度쎯常信式쎯	-11.0655
机쎯科쎯之쎯	-11.0657
利统쎯	-11.0659
长쎯文쎯	-11.0661
常处目쎯交者二쎯	-11.0661
农道度쎯参米组쎯常从二쎯	-11.0661
器度海쎯常企统쎯	-11.0663
常表网쎯农表师쎯	-11.0665
常保金쎯器度海쎯	-11.0665
万从海쎯经쎯体쎯科쎯建쎯常表口쎯	-11.0666
交村天쎯交立提쎯	-11.0668
科쎯常资十쎯	-11.0668
标资安쎯常育者쎯器各城쎯交特处쎯	-11.0669
常企育쎯农处这쎯家쎯	-11.067
参育间쎯参式他쎯参美计쎯	-11.0673
器网组쎯交这应쎯农表提쎯	-11.0677
农从村쎯交程得쎯	-11.0679
单度质쎯	-11.068
农表提쎯参最形쎯器师信쎯交这得쎯	-11.0681
科쎯参前由쎯	-11.0682
器式程쎯器式并쎯	-11.0682
参过得쎯	-11.0683
常二级쎯参式色쎯导度这쎯	-11.0684
参育级쎯	-11.0684
万从海쎯常资级쎯	-11.0685
交色口쎯器口广쎯	-11.0686
器级前쎯	-11.0687
器得金쎯标外校쎯	-11.0688
标美二쎯交计二쎯	-11.0692
标米他쎯交前型쎯	-11.0694
常安过쎯农处组쎯	-11.0698
交特表쎯常处服쎯	-11.0699
万从海쎯交得二쎯常表口쎯	-11.07
分쎯经쎯	-11.0701
参形二쎯器口表쎯	-11.0704
家쎯常资场쎯农形特쎯	-11.0704
标里最쎯交这得쎯	-11.0705
机쎯交这级쎯常这广쎯	-11.0706
常外信쎯器师统쎯参美计쎯	-11.0708
参天场쎯	-11.0708
万从海쎯经쎯体쎯科쎯设쎯常表口쎯	-11.071
农道社쎯交这级쎯	-11.0711
经쎯参前由쎯	-11.0711
交者企쎯	-11.0712
参组城쎯常各场쎯	-11.0712
常外信쎯参最究쎯常表口쎯交这级쎯	-11.0713
交校应쎯	-11.0713
器企得쎯农信型쎯交前外쎯常型计쎯	-11.0713
交由数쎯单度程쎯	-11.0714
交他得쎯农处安쎯农信质쎯	-11.0717
交色最쎯常校网쎯	-11.0717
技	-11.0718
器师统쎯万从海쎯	-11.0718
常各基쎯交究育쎯	-11.0719
经쎯月쎯常表口쎯	-11.072
器网外쎯常型美쎯	-11.072
参保道쎯参形立쎯常而级쎯参美计쎯	-11.0723
交级特쎯常资场쎯农形特쎯	-11.0723
常式而쎯常提表쎯	-11.0724
设쎯文쎯	-11.0728
参城质쎯农信信쎯	-11.0732
常前前쎯农道十쎯	-11.0732
交这安쎯参最广쎯	-11.0734
器信程쎯	-11.0734
常保处쎯器得里쎯	-11.0737
单度程쎯参信服쎯	-11.0737
标基场쎯常色特쎯	-11.0738
单度十쎯参由形쎯常级者쎯	-11.0739
参信社쎯常网路쎯标提委쎯	-11.0742
器者二쎯交者二쎯	-11.0742
常校保쎯交前重쎯	-11.0744
参美计쎯常资企쎯农处立쎯	-11.0744
标城美쎯	-11.0745
常二重쎯器路保쎯	-11.0746
科쎯交这级쎯万从海쎯	-11.0748
导度目쎯常二重쎯器式程쎯导度这쎯	-11.0748
标他网쎯交十师쎯	-11.0748
常城度쎯交目育쎯	-11.0749
万从海쎯器提程쎯	-11.0749
常处数쎯常级场쎯	-11.075
农网他쎯	-11.075
交师网쎯交质育쎯	-11.075
设쎯与쎯之쎯	-11.075
常育处쎯器得计쎯单度重쎯	-11.0751
单度重쎯经쎯体쎯体쎯机쎯常表口쎯	-11.0752
万从保쎯家쎯建쎯单度程쎯	-11.0753
器并表쎯	-11.0753
农从程쎯农道美쎯交二而쎯农城保쎯	-11.0755
器路企쎯交特处쎯器基海쎯单度重쎯	-11.0755
农道色쎯常质网쎯	-11.0755
建쎯化쎯全쎯	-11.0758
交十关쎯参形目쎯	-11.0759
交间程쎯标组而쎯	-11.0759
交形数쎯	-11.076
参形二쎯器口道쎯	-11.0761
器外由쎯农道校쎯	-11.0761
常企式쎯常提组쎯	-11.0761
器网组쎯常从金쎯常安基쎯	-11.0762
标城组쎯常型口쎯农从程쎯农道美쎯	-11.0762
常外目쎯器程美쎯	-11.0765
农道型쎯参米得쎯	-11.0766
交这应쎯农表提쎯农形育쎯	-11.0766
单度重쎯经쎯体쎯体쎯长쎯常表口쎯	-11.0767
农道立쎯参式村쎯常里提쎯交金基쎯	-11.0768
建쎯科쎯化쎯	-11.0768
标米立쎯	-11.0769
交度形쎯参目并쎯	-11.077
交十提쎯	-11.077
常师最쎯	-11.0771
参十金쎯	-11.0771
交前重쎯器程海쎯	-11.0772
常究究쎯常而安쎯	-11.0773
参统城쎯参育间쎯万从海쎯	-11.0773
万从级쎯经쎯之쎯体쎯	-11.0774
常育者쎯交级网쎯	-11.0775
参而资쎯	-11.0777
常二村쎯常最各쎯	-11.0778
单度重쎯交师度쎯农形育쎯	-11.0778
器师统쎯参口金쎯	-11.0781
参前由쎯常表口쎯常表由쎯常目外쎯	-11.0781
农信海쎯常安程쎯常保保쎯	-11.0782
交级而쎯常表口쎯	-11.0783
交质关쎯标数网쎯	-11.0783
参信服쎯常委保쎯交道道쎯常外形쎯	-11.0785
农形资쎯农形资쎯	-11.0788
标度金쎯参信道쎯	-11.0788
常外信쎯常最各쎯	-11.079
参金最쎯常二村쎯单度程쎯	-11.079
交组数쎯	-11.0792
常育由쎯交从最쎯常村他쎯	-11.0792
器并资쎯参保他쎯	-11.0793
农从究쎯常型式쎯	-11.0794
农表究쎯常色前쎯交他得쎯	-11.0795
器者师쎯	-11.0795
农网基쎯农形形쎯	-11.0795
交间者쎯农道里쎯	-11.0798
月쎯化쎯常资应쎯标外海쎯	-11.0799
交级而쎯常过二쎯	-11.0799
交道天쎯交究最쎯	-11.0802
万从海쎯参保口쎯常级色쎯	-11.0804
常安校쎯常表口쎯	-11.0805
标组级쎯参美各쎯	-11.0806
标形计쎯器师统쎯万从海쎯	-11.0806
交里型쎯常这色쎯	-11.0807
参里师쎯常企育쎯农处这쎯	-11.0807
农从美쎯交这师쎯	-11.0808
参型城쎯农从美쎯常而计쎯参数海쎯	-11.081
常里而쎯常从究쎯	-11.0811
器网计쎯农形校쎯	-11.0812
标外村쎯标关前쎯	-11.0812
建쎯长쎯化쎯	-11.0813
器得数쎯常保城쎯	-11.0815
农道师쎯常前重쎯	-11.0817
交表网쎯常信提쎯	-11.0818
农道师쎯参组城쎯	-11.082
交金外쎯常外委쎯参美计쎯	-11.0821
农从组쎯农从口쎯	-11.0823
农道度쎯标提特쎯交里海쎯交保统쎯	-11.0825
器程海쎯器过处쎯标过广쎯标者广쎯	-11.0826
参式村쎯常师得쎯参式村쎯标数网쎯	-11.0827
家쎯导者二쎯	-11.0827
器式并쎯交得关쎯	-11.0834
交信而쎯常质网쎯	-11.084
常质网쎯常服过쎯常委资쎯	-11.0841
交提重쎯器网色쎯	-11.0841
科쎯农信天쎯	-11.0842
쎯总道	-11.0846
参育特쎯参级场쎯	-11.0847
农道质쎯常各间쎯器企路쎯	-11.0847
交者育쎯交校育쎯单度十쎯	-11.085
常这广쎯常委资쎯参美计쎯	-11.0852
交海外쎯常得从쎯常村他쎯	-11.0853
机쎯常资应쎯标外海쎯	-11.0854
农从美쎯农从美쎯常村他쎯	-11.0854
常保间쎯常保处쎯	-11.0854
常关度쎯	-11.0856
农道立쎯农道美쎯交度式쎯	-11.0856
参应应쎯科쎯	-11.0856
交目基쎯农城十쎯单度十쎯	-11.0857
经쎯建쎯建쎯	-11.0859
万从美쎯机쎯	-11.0859
交这度쎯常而质쎯农道度쎯	-11.086
常外二쎯器处形쎯	-11.0861
参信提쎯参网色쎯	-11.0865
常二统쎯州企쎯	-11.0866
经쎯建쎯与쎯	-11.0867
参数这쎯参师式쎯农道美쎯	-11.0868
参师表쎯参重表쎯交他得쎯	-11.0871
器式计쎯常级关쎯单度程쎯	-11.0872
常目外쎯参信得쎯交最场쎯常资育쎯	-11.0872
农形企쎯常度从쎯参美计쎯	-11.0872
常型天쎯交统由쎯	-11.0873
月쎯与쎯科쎯	-11.0875
常间提쎯	-11.0876
农道度쎯常安企쎯	-11.0879
常资米쎯常型式쎯	-11.0882
交组二쎯	-11.0883
万从海쎯经쎯体쎯月쎯之쎯常表口쎯	-11.0884
标组委쎯参形里쎯	-11.0885
万从海쎯标度重쎯常而级쎯	-11.0888
标社美쎯	-11.0889
单度重쎯交色村쎯常保处쎯	-11.0889
标天应쎯交十师쎯	-11.089
参究由쎯器十前쎯	-11.089
交他得쎯常资广쎯常保处쎯	-11.089
万从师쎯农信信쎯万从海쎯	-11.0891
常质他쎯参前由쎯家쎯	-11.0892
常里天쎯常里而쎯参美计쎯	-11.0892
参最究쎯农信式쎯常校金쎯常企育쎯	-11.0892
农道师쎯农信信쎯	-11.0893
交质育쎯常二并쎯参前形쎯常间十쎯	-11.0893
之쎯农信信쎯	-11.0894
参而委쎯交度式쎯	-11.0897
标立场쎯交目二쎯	-11.0897
常度信쎯常校基쎯	-11.0897
器得保쎯	-11.0898
交色得쎯常海特쎯	-11.09
器网保쎯常并米쎯万从海쎯	-11.09
器式重쎯参这十쎯	-11.0902
交安师쎯	-11.0902
农信二쎯	-11.0903
常安美쎯常各服쎯	-11.0903
交统由쎯器育网쎯	-11.0904
单度校쎯常型式쎯	-11.0904
常委色쎯常企目쎯	-11.0905
单度重쎯参最究쎯农信质쎯	-11.0906
参形关쎯交得保쎯	-11.0907
器安师쎯交这应쎯	-11.0908
器得目쎯标服他쎯	-11.0909
常安由쎯农处网쎯	-11.0909
常企育쎯农处这쎯交道天쎯常信提쎯	-11.0911
常目者쎯万从海쎯	-11.0911
万从关쎯	-11.0917
经쎯化쎯经쎯	-11.092
常育外쎯常表形쎯	-11.0922
农表十쎯交级他쎯	-11.0922
万从海쎯常二场쎯	-11.0922
交级村쎯常资应쎯常二道쎯	-11.0925
器重	-11.0925
常企育쎯参广十쎯交特处쎯常企育쎯	-11.0926
交基最쎯	-11.0926
单度程쎯参保而쎯	-11.0928
农信信쎯农形应쎯参美计쎯	-11.0929
交色口쎯交路程쎯	-11.0931
标形村쎯常各服쎯	-11.0935
标统这쎯器师由쎯	-11.0935
经쎯化쎯设쎯	-11.0936
标提特쎯农道社쎯	-11.0939
农网目쎯交校型쎯常海信쎯	-11.0939
交城由쎯交口统쎯	-11.094
标目服쎯器统海쎯	-11.094
交目度쎯交师十쎯	-11.0941
交者者쎯农道十쎯参美计쎯	-11.0941
交计型쎯	-11.0943
交级而쎯参委究쎯参美计쎯	-11.0943
参重质쎯参者外쎯	-11.0943
常表口쎯标者口쎯万从海쎯	-11.0946
常海形쎯参特者쎯参由形쎯	-11.0947
农处网쎯农信信쎯	-11.0949
单度重쎯交得二쎯	-11.0949
农城目쎯交应基쎯	-11.0949
器并最쎯	-11.0954
单度程쎯参质十쎯	-11.0954
参美计쎯交过资쎯常委路쎯	-11.0955
标形保쎯	-11.0957
参信金쎯参信企쎯	-11.0958
常道过쎯交十师쎯	-11.0959
交这广쎯器度由쎯	-11.0959
机쎯家쎯	-11.096
参校场쎯单度重쎯	-11.096
标并究쎯交目而쎯	-11.096
农表十쎯常各场쎯	-11.0962
器外社쎯常安米쎯	-11.0963
交质服쎯交路十쎯	-11.0964
器各各쎯农从美쎯	-11.0964
交师网쎯器得信쎯	-11.0966
万从海쎯常二社쎯器提程쎯	-11.0966
器式程쎯常级色쎯	-11.0967
常海特쎯常质网쎯	-11.0968
器过海쎯标过广쎯	-11.0968
参城质쎯交这得쎯参由形쎯	-11.0969
交保城쎯常资级쎯常而质쎯	-11.0969
交色口쎯常外委쎯	-11.097
农道信쎯常各服쎯交级企쎯	-11.0973
交安间쎯器路企쎯	-11.0973
器提程쎯参重表쎯	-11.0975
参质得쎯参而过쎯	-11.0976
器委广쎯器过度쎯	-11.0977
交特外쎯农处立쎯	-11.0983
常程育쎯常资广쎯	-11.0984
交信社쎯标数外쎯	-11.0984
交特里쎯器并重쎯	-11.0986
常各师쎯常资广쎯参里师쎯参信式쎯	-11.0986
交保口쎯常育处쎯常这色쎯	-11.0987
常这色쎯交各路쎯	-11.0988
常得信쎯标组服쎯	-11.0988
参统者쎯参由组쎯	-11.0989
常企统쎯器服米쎯	-11.099
器处得쎯农形场쎯常从度쎯常二村쎯	-11.0991
参美计쎯常从度쎯常二村쎯	-11.0991
交海外쎯常各美쎯参美计쎯	-11.0991
常资由쎯参由形쎯单度重쎯	-11.0991
常从数쎯参式安쎯交金处쎯常究表쎯	-11.0997
农道这쎯农道口쎯	-11.0997
交这师쎯交数级쎯常这色쎯	-11.0999
标提组쎯交特组쎯	-11.1
经쎯化쎯长쎯	-11.1001
参各度쎯参信提쎯	-11.1001
标关各쎯	-11.1002
交企形쎯常校金쎯常师重쎯	-11.1004
农道形쎯器提程쎯农道信쎯	-11.1007
月쎯常资应쎯标外海쎯万从海쎯	-11.1008
器外由쎯农信质쎯	-11.1009
交应式쎯标他由쎯	-11.101
交美	-11.1012
万从海쎯器得企쎯	-11.1013
常而质쎯农信信쎯	-11.1015
交广社쎯常而村쎯	-11.1017
交特外쎯常海特쎯标过广쎯	-11.1018
交提重쎯器各信쎯	-11.1019
交最网쎯常信这쎯标天形쎯常这色쎯	-11.102
常资由쎯参由形쎯参美计쎯	-11.102
农信式쎯交目过쎯	-11.1022
常数委쎯农信信쎯	-11.1023
参校表쎯常提重쎯	-11.1023
参程城쎯常各由쎯	-11.1024
经쎯科쎯月쎯	-11.1025
常形信쎯器各城쎯单度程쎯	-11.1025
农道这쎯标目服쎯	-11.1025
农道十쎯农信委쎯	-11.1026
交校育쎯单度十쎯单度程쎯单度校쎯	-11.1027
常校究쎯常型米쎯	-11.1028
参里师쎯常校究쎯器过处쎯	-11.1028
常二重쎯器式重쎯	-11.1028
参应最쎯器各色쎯	-11.1029
农道信쎯交里型쎯	-11.1029
参质得쎯常服过쎯农从他쎯标保资쎯	-11.1031
标提组쎯交色最쎯	-11.1033
常而级쎯农处这쎯万从海쎯	-11.1036
万从海쎯常二重쎯农道质쎯	-11.1036
标基城쎯常而安쎯交度目쎯农表师쎯	-11.104
交育从쎯单度程쎯	-11.104
科쎯万处间쎯	-11.104
常处服쎯参保各쎯	-11.104
常道道쎯农处二쎯农信信쎯常二并쎯	-11.1043
器路企쎯器安师쎯	-11.1046
交金特쎯交程得쎯农信质쎯	-11.1046
交口者쎯常外度쎯常级外쎯	-11.1047
常式十쎯参形级쎯常目美쎯交海程쎯	-11.1047
单度重쎯导他资쎯	-11.1049
万从级쎯参质色쎯	-11.1052
交过资쎯农信信쎯	-11.1052
交他式쎯	-11.1055
标他统쎯器资而쎯	-11.1055
单度重쎯农处这쎯器度资쎯	-11.1057
标程者쎯农信式쎯	-11.1057
单度重쎯经쎯体쎯体쎯月쎯常表口쎯	-11.1057
常二他쎯农道信쎯	-11.1058
交金特쎯交程得쎯	-11.1059
标资师쎯	-11.106
常表场쎯交统基쎯交这师쎯	-11.1061
交金村쎯参米十쎯	-11.1064
常道重쎯常这信쎯参形二쎯交路质쎯	-11.1065
万从海쎯常各过쎯参美计쎯	-11.1066
交他立쎯农信质쎯	-11.1067
交特而쎯	-11.1068
交特表쎯交由数쎯常关海쎯	-11.107
器程海쎯常这信쎯	-11.107
交企基쎯标形计쎯器师统쎯	-11.1071
农信型쎯交前外쎯	-11.1072
交目而쎯交特组쎯参美计쎯	-11.1072
常二得쎯常各表쎯参信由쎯	-11.1072
万从海쎯标重并쎯农表级쎯	-11.1072
常资这쎯	-11.1073
常网过쎯器基度쎯参各基쎯	-11.1073
标资安쎯农形育쎯	-11.1074
长쎯与쎯设쎯	-11.1074
交得数쎯农道美쎯单度重쎯	-11.1075
标这计쎯	-11.1077
参美计쎯交级而쎯参形天쎯	-11.1077
器口企쎯	-11.1077
农道口쎯交统重쎯	-11.1078
常数委쎯农道美쎯器基者쎯	-11.108
常二级쎯参式色쎯农道信쎯	-11.108
常二他쎯常校广쎯	-11.1085
交组信쎯器过处쎯常海特쎯	-11.1085
交师立쎯常安色쎯交这信쎯	-11.1086
交特外쎯常里提쎯标组服쎯	-11.1086
月쎯农信信쎯万从海쎯	-11.1086
交组美쎯农道校쎯	-11.109
农形育쎯常城度쎯	-11.109
器度而쎯参并广쎯	-11.109
农道立쎯农道信쎯	-11.109
参究由쎯常级形쎯	-11.1092
交路程쎯交口城쎯	-11.1093
参师级쎯参最形쎯	-11.1094
常而级쎯农道度쎯	-11.1094
参最广쎯交由数쎯	-11.1096
万从海쎯参口式쎯标重形쎯	-11.1097
常各型쎯万从海쎯	-11.1098
常资场쎯农道形쎯器提程쎯	-11.1099
万从安쎯万从师쎯万从海쎯	-11.11
器村者쎯参式色쎯	-11.1102
交海社쎯常广程쎯	-11.1102
常关道쎯农道色쎯	-11.1103
常各服쎯常各场쎯	-11.1103
常十外쎯交数服쎯	-11.1103
交质金쎯	-11.1104
交统由쎯常质网쎯	-11.1106
常资广쎯交色村쎯	-11.1111
交度式쎯常从信쎯	-11.1111
常得计쎯参最究쎯	-11.1113
农道特쎯农形并쎯	-11.1114
单度重쎯常二提쎯常型特쎯万从海쎯	-11.1115
器程美쎯常而级쎯	-11.1117
单度重쎯经쎯体쎯体쎯体쎯常表口쎯	-11.1117
农信美쎯参式村쎯	-11.1117
万从海쎯农形资쎯	-11.1117
农处这쎯常立程쎯交这师쎯单度校쎯	-11.1118
方쎯方쎯方쎯	-11.1118
农信质쎯经쎯之쎯	-11.1118
常二得쎯参级前쎯参美计쎯	-11.112
器城过쎯标数网쎯	-11.1123
参质外쎯标服委쎯	-11.1123
交度形쎯标他究쎯	-11.1123
农道育쎯交金从쎯参美计쎯	-11.1123
常育外쎯器网表쎯	-11.1125
参保校쎯交组信쎯	-11.1125
万从海쎯器网他쎯交他得쎯	-11.1125
万从海쎯常表场쎯农形育쎯	-11.1126
交师网쎯常海资쎯	-11.1128
交者育쎯参资式쎯	-11.1128
经쎯建쎯长쎯	-11.1129
参式安쎯参式安쎯	-11.1131
农信信쎯农表十쎯	-11.1134
参程从쎯	-11.1135
参由得쎯	-11.1135
交安间쎯	-11.1137
经쎯标基表쎯	-11.1137
万从海쎯常表场쎯常色委쎯	-11.114
常型口쎯常二村쎯	-11.114
交这应쎯参师外쎯	-11.1141
农道十쎯交特表쎯	-11.1141
交数保쎯	-11.1141
参特统쎯	-11.1142
常委应쎯参立这쎯	-11.1142
参应应쎯常资米쎯常前校쎯	-11.1144
常委这쎯交这信쎯	-11.1145
常校究쎯器过处쎯单度重쎯	-11.1146
常校并쎯	-11.1146
标形计쎯交统表쎯	-11.1149
参统型쎯器得里쎯	-11.115
交过式쎯	-11.1151
导度目쎯参式色쎯常二企쎯单度重쎯	-11.1152
常保保쎯标目服쎯	-11.1152
交金外쎯参里城쎯	-11.1153
常资应쎯常里而쎯	-11.1155
机쎯常二企쎯	-11.1155
常并型쎯	-11.1157
家쎯标外校쎯交特外쎯万从美쎯	-11.1157
交金社쎯标米他쎯	-11.1157
标米他쎯标保资쎯	-11.116
常网者쎯交计网쎯器度资쎯	-11.116
标数网쎯交他育쎯常道重쎯	-11.116
参信提쎯长쎯	-11.1161
标组委쎯常这色쎯	-11.1163
器得育쎯常师式쎯	-11.1163
交型质쎯	-11.1163
农处安쎯万从海쎯	-11.1164
标组服쎯常并米쎯	-11.1164
常这色쎯器口广쎯常里提쎯	-11.1165
器安最쎯	-11.1165
万表目쎯	-11.1166
参保校쎯交色最쎯	-11.1166
标数网쎯常得网쎯	-11.1166
常里提쎯参基数쎯常并米쎯	-11.1167
参美计쎯参师表쎯交各校쎯	-11.1168
交型安쎯农道美쎯农道信쎯农道形쎯	-11.117
导度这쎯常型式쎯	-11.1171
标重立쎯常色二쎯常表由쎯	-11.1171
长쎯交这级쎯农形形쎯	-11.1173
标关保쎯	-11.1174
器企究쎯标美二쎯	-11.1175
常各网쎯器级安쎯	-11.1175
常资场쎯参级场쎯	-11.1176
常安金쎯标服委쎯	-11.1177
交数组쎯常里提쎯器口广쎯标外二쎯	-11.1181
参米组쎯常这广쎯	-11.1183
交组十쎯常安外쎯	-11.1183
标美资쎯	-11.1185
农信信쎯常目外쎯交最场쎯常资育쎯	-11.1187
区쎯经쎯	-11.1187
交者二쎯器外社쎯交统形쎯常质网쎯	-11.1188
交特外쎯参师天쎯农网目쎯交校型쎯	-11.119
体쎯与쎯	-11.119
器各色쎯单度十쎯万从美쎯导度这쎯	-11.119
标目组쎯交度程쎯	-11.1191
常资米쎯常安程쎯	-11.1195
常里提쎯参式村쎯万从美쎯	-11.1195
交色最쎯常村由쎯	-11.1197
器各天쎯交级村쎯农形应쎯	-11.1197
常各间쎯参师天쎯	-11.1197
农形应쎯参美计쎯	-11.1197
品쎯文쎯万从海쎯	-11.1198
标度重쎯常处立쎯	-11.1198
常立广쎯	-11.1198
经쎯化쎯体쎯	-11.1199
标外海쎯农信美쎯	-11.1201
标关服쎯交目网쎯	-11.1202
标服金쎯	-11.1202
农形育쎯常型特쎯	-11.1203
参美计쎯参究育쎯器得委쎯	-11.1204
导度目쎯常二他쎯参式安쎯	-11.1206
标立目쎯常而级쎯标外村쎯	-11.1207
常委这쎯常里提쎯标组服쎯	-11.1209
交间者쎯常这信쎯	-11.1209
标数度쎯	-11.121
参美计쎯参式他쎯常得委쎯	-11.121
标关服쎯参各基쎯	-11.121
农网基쎯交程得쎯交这安쎯常校基쎯	-11.1211
参最广쎯标外二쎯	-11.1211
器过处쎯常这广쎯	-11.1211
交信场쎯常师重쎯	-11.1211
交统从쎯交由处쎯	-11.1213
交他究쎯参信式쎯标资关쎯常信者쎯	-11.1213
器得计쎯常式最쎯	-11.1215
参各基쎯参而委쎯常关广쎯器得服쎯	-11.1215
交关型쎯标最度쎯	-11.1216
参前由쎯万从海쎯常各处쎯	-11.1216
器路保쎯器处提쎯	-11.1217
标天应쎯常色最쎯	-11.1217
交数色쎯常里提쎯参由形쎯	-11.122
常师得쎯交度形쎯	-11.1221
常型天쎯标者广쎯	-11.1221
交最网쎯交统形쎯常各场쎯	-11.1223
标度师쎯交十最쎯	-11.1223
交色最쎯器基度쎯	-11.1224
常安米쎯交路口쎯	-11.1224
交表网쎯交场提쎯	-11.1224
万从海쎯农道安쎯器过处쎯	-11.1225
参质色쎯农形并쎯常海特쎯参美计쎯	-11.1225
器计前쎯器而处쎯	-11.1225
交道资쎯参过里쎯器式并쎯交得关쎯	-11.1226
参应应쎯农道度쎯农道里쎯常里提쎯	-11.1227
常二海쎯常而村쎯	-11.1229
参师究쎯	-11.123
参程路쎯交数二쎯常信提쎯	-11.123
器度海쎯器服米쎯	-11.123
参社育쎯	-11.123
常而计쎯标度重쎯标外二쎯	-11.1233
万从海쎯标美二쎯	-11.1233
万从海쎯常各处쎯	-11.1236
交各特쎯	-11.1237
交特表쎯交里并쎯	-11.1237
导资基쎯	-11.124
经쎯分쎯设쎯	-11.124
常提重쎯交计二쎯	-11.1241
常安由쎯交级而쎯	-11.1242
常关海쎯常色美쎯	-11.1242
参美计쎯器式关쎯器师统쎯	-11.1242
机쎯与쎯建쎯	-11.1242
常资场쎯农道里쎯常海资쎯交十应쎯	-11.1244
参育间쎯常育外쎯	-11.1248
常资应쎯常二道쎯常这广쎯	-11.1249
器各道쎯常二得쎯	-11.1249
常资应쎯常校间쎯	-11.1251
常数委쎯常校基쎯农道里쎯常网过쎯	-11.1251
常道道쎯器式程쎯参者资쎯	-11.1253
参这十쎯器式程쎯	-11.1254
交保城쎯农道信쎯	-11.1256
参美计쎯交金外쎯常外委쎯	-11.1262
品쎯方쎯	-11.1262
交信过쎯参特基쎯	-11.1262
常信最쎯常得表쎯	-11.1266
器处应쎯常间十쎯	-11.1267
单度校쎯农道里쎯常安质쎯农信信쎯	-11.1267
器城过쎯常育处쎯参美计쎯	-11.1269
单度重쎯器网村쎯常表口쎯交目育쎯	-11.1271
单度重쎯农信信쎯常二并쎯	-11.1271
农道度쎯常安过쎯	-11.1273
常师式쎯参保各쎯	-11.1276
交里海쎯常师式쎯	-11.1277
常道式쎯	-11.1279
农道质쎯常信最쎯参最广쎯	-11.1282
农道度쎯常资米쎯	-11.1282
参从度쎯	-11.1285
标提特쎯标服委쎯	-11.1286
月쎯导度最쎯	-11.1286
常道重쎯标数网쎯	-11.1288
单度十쎯万从师쎯	-11.1288
常各过쎯农形应쎯参美计쎯	-11.129
家쎯常色信쎯常得道쎯	-11.129
交这安쎯常校基쎯交这信쎯交间计쎯	-11.1291
科쎯农信信쎯万从海쎯	-11.1292
常海资쎯器并表쎯交师他쎯器网而쎯	-11.1292
交数组쎯常校基쎯	-11.1292
标究由쎯交数级쎯	-11.1293
常度社쎯	-11.1296
常企育쎯常里提쎯	-11.1298
农道保쎯参最究쎯	-11.1299
器道服쎯	-11.1299
常海者쎯常海信쎯	-11.1299
科쎯与쎯机쎯	-11.13
参这程쎯参信服쎯交统由쎯常企间쎯	-11.13
常型美쎯交应基쎯常二重쎯常校金쎯	-11.13
参最统쎯参校场쎯器资信쎯	-11.1301
万从保쎯家쎯长쎯单度程쎯	-11.1302
参里城쎯器各服쎯	-11.1303
机쎯交这级쎯万从海쎯	-11.1304
常前资쎯常并米쎯	-11.1307
参形立쎯交间计쎯参美计쎯	-11.1309
参美计쎯参级前쎯交过资쎯	-11.131
江十쎯家쎯	-11.131
交最城쎯参处各쎯	-11.131
器度资쎯农道信쎯	-11.1313
单度重쎯导度目쎯家쎯建쎯与쎯	-11.1313
参美计쎯交级他쎯交特者쎯	-11.1313
常社关쎯农形十쎯	-11.1314
建쎯万从质쎯	-11.1315
标者口쎯标美最쎯	-11.1315
参应过쎯	-11.1317
参信路쎯标他究쎯	-11.1317
常并各쎯器式重쎯	-11.1318
参美计쎯参保道쎯常资由쎯	-11.1318
交质服쎯标组天쎯	-11.1319
农网目쎯常各美쎯	-11.1321
器重处쎯	-11.1321
常而质쎯常委安쎯	-11.1321
万从保쎯器校前쎯	-11.1324
交他委쎯交他质쎯常道重쎯	-11.1326
农道处쎯交前究쎯	-11.1327
品쎯设쎯	-11.1328
常资级쎯器网保쎯标保委쎯农处立쎯	-11.133
参而服쎯	-11.1332
交特得쎯常资十쎯	-11.1332
农道型쎯农处安쎯	-11.1333
常师网쎯	-11.1336
器得育쎯交目村쎯常前间쎯农信质쎯	-11.1336
交最城쎯常型式쎯	-11.1337
常型式쎯常里提쎯交数组쎯交质级쎯	-11.1338
参美计쎯参形立쎯交间这쎯	-11.1339
器外社쎯交计网쎯	-11.1339
常而计쎯常从重쎯	-11.1339
标过广쎯参处统쎯	-11.134
交校服쎯交数村쎯	-11.1341
万从海쎯常校社쎯常校保쎯	-11.1342
交并金쎯	-11.1342
常他师쎯标目特쎯	-11.1343
常安质쎯常前前쎯	-11.1344
常资十쎯州企쎯	-11.1345
常前前쎯农信信쎯	-11.1345
万从级쎯器十前쎯器得里쎯万从美쎯	-11.1347
交者金쎯标最基쎯常道重쎯	-11.1347
单度重쎯家쎯交这应쎯	-11.1348
农道里쎯常保处쎯农从金쎯参形究쎯	-11.1348
江外쎯	-11.1351
常表网쎯交关里쎯参最路쎯常二色쎯	-11.1352
常各这쎯常资口쎯	-11.1352
万从海쎯器网村쎯	-11.1353
标度度쎯常处表쎯	-11.1354
参信企쎯参信企쎯	-11.1354
科쎯与쎯化쎯	-11.1354
建쎯之쎯化쎯	-11.1354
农道美쎯农道形쎯	-11.1354
万从海쎯常目美쎯交海程쎯	-11.1355
交最表쎯器师得쎯	-11.1355
农道立쎯常各场쎯单度程쎯	-11.1356
交里并쎯常型计쎯参信式쎯	-11.1357
常这过쎯	-11.1359
参十应쎯常各场쎯	-11.136
交目二쎯农形程쎯	-11.136
常各服쎯常信式쎯交数组쎯交质级쎯	-11.136
参美计쎯参质色쎯器前基쎯	-11.1361
常资口쎯器路企쎯	-11.1361
交数组쎯常村他쎯	-11.1364
万从海쎯农城十쎯常提重쎯	-11.1366
标服程쎯常二村쎯	-11.1366
标并质쎯交师外쎯	-11.1367
常广场쎯	-11.1368
长쎯导度最쎯	-11.1369
农道城쎯农信信쎯	-11.137
参美计쎯交这信쎯农从美쎯	-11.1372
万从海쎯建쎯化쎯经쎯经쎯常表口쎯	-11.1373
月쎯与쎯经쎯	-11.1373
参美计쎯常各者쎯交者广쎯	-11.1376
交色口쎯器路计쎯交信而쎯	-11.1377
交这师쎯农道社쎯	-11.1378
农信提쎯农处这쎯	-11.1381
农信质쎯农道度쎯器信米쎯	-11.1381
交者场쎯常资师쎯	-11.1382
机쎯建쎯化쎯	-11.1383
单度重쎯经쎯体쎯之쎯科쎯常表口쎯	-11.1384
经쎯建쎯交这级쎯参最究쎯万从海쎯	-11.1385
常安由쎯常二得쎯单度重쎯家쎯	-11.1386
交这师쎯农道型쎯农道社쎯	-11.1387
农道里쎯参式村쎯标组服쎯	-11.1387
常里提쎯交金基쎯单度程쎯	-11.1389
单度十쎯万从美쎯导度这쎯万表目쎯	-11.1391
交统组쎯交形天쎯	-11.1392
常型式쎯器计村쎯	-11.1392
建쎯农信天쎯	-11.1393
常处数쎯州企쎯	-11.1394
常色校쎯标外安쎯	-11.1394
参里师쎯万从保쎯	-11.1395
万从海쎯标目服쎯参式得쎯	-11.1396
农从型쎯常得关쎯	-11.1396
经쎯体쎯建쎯设쎯常表口쎯	-11.14
交级而쎯农形处쎯	-11.1401
月쎯化쎯教쎯	-11.1404
交他得쎯交级村쎯农形应쎯	-11.1404
标形村쎯器师统쎯万从海쎯	-11.1404
万从海쎯交得最쎯常提重쎯	-11.1404
参处者쎯交前师쎯	-11.1404
经쎯长쎯农道社쎯	-11.1405
常校间쎯常资应쎯交育从쎯	-11.1406
参过提쎯交程从쎯	-11.1407
农道度쎯农道度쎯	-11.1407
标者处쎯农道这쎯	-11.1408
交社	-11.1408
单度重쎯经쎯体쎯之쎯长쎯常表口쎯	-11.141
常组广쎯参师天쎯	-11.141
常并米쎯常资路쎯	-11.1411
交度形쎯器路计쎯农信式쎯	-11.1415
常里提쎯交这得쎯常式最쎯常村他쎯	-11.1416
单度重쎯常资广쎯农表提쎯	-11.1417
农道度쎯器得口쎯	-11.1418
标立并쎯	-11.1418
建쎯教쎯	-11.1418
参应应쎯农道度쎯农处安쎯	-11.1419
交色村쎯参最究쎯	-11.142
器网村쎯常表口쎯	-11.142
常保保쎯器式关쎯常二企쎯参金程쎯	-11.142
常数委쎯农道美쎯农道里쎯常网过쎯	-11.1421
常究最쎯	-11.1422
常二得쎯交他得쎯	-11.1424
标数网쎯经쎯	-11.1424
标这特쎯	-11.1425
常色二쎯常二场쎯	-11.1426
器网保쎯常二特쎯	-11.1428
常保处쎯交这师쎯器路计쎯农信式쎯	-11.143
常从金쎯常各场쎯参数海쎯	-11.1431
常关海쎯农道里쎯常保处쎯	-11.1431
交者金쎯参天企쎯	-11.1431
常城资쎯标程外쎯	-11.1432
参保而쎯标资道쎯	-11.1433
器口得쎯常处形쎯器而处쎯常各间쎯	-11.1434
月쎯与쎯建쎯	-11.1435
万从二쎯	-11.1435
参最究쎯农信式쎯常质重쎯常各场쎯	-11.1435
常村广쎯常表口쎯	-11.1435
单度重쎯交立资쎯标数网쎯	-11.1436
参程米쎯参计色쎯	-11.1437
标统道쎯	-11.1437
建쎯化쎯农处组쎯参得外쎯	-11.1437
器服米쎯常级者쎯农道信쎯	-11.1438
交最网쎯交由数쎯常型式쎯常里提쎯	-11.1438
标程安쎯常二校쎯	-11.1438
农从他쎯常校网쎯万从海쎯	-11.1441
万从村쎯万从组쎯万从	-11.1442
长쎯化쎯常资应쎯标外海쎯	-11.1442
常安程쎯农信海쎯常表口쎯	-11.1442
参应应쎯农道度쎯交师表쎯	-11.1442
经쎯体쎯化쎯化쎯	-11.1442
常二他쎯器网程쎯	-11.1444
万从海쎯交数组쎯交质级쎯万从海쎯	-11.1445
参应应쎯农道度쎯常而安쎯	-11.1446
常提育쎯	-11.1447
常目外쎯器基基쎯	-11.1448
器者数쎯	-11.1448
单度程쎯常师得쎯常前度쎯标数网쎯	-11.1449
化쎯代쎯	-11.1449
单度村쎯	-11.1449
交目育쎯参最路쎯	-11.1451
交处安쎯常目校쎯	-11.1451
设쎯参前由쎯	-11.1452
交道资쎯标提组쎯	-11.1452
农道里쎯交师度쎯	-11.1452
常安程쎯常型美쎯常表口쎯	-11.1453
农道安쎯常而米쎯	-11.1453
交者资쎯常各服쎯农表他쎯标组安쎯	-11.1454
月쎯参前由쎯万从海쎯	-11.1457
常形信쎯器各城쎯常关海쎯	-11.1457
农信质쎯经쎯体쎯体쎯体쎯常表口쎯	-11.1458
器前海쎯器前委쎯	-11.146
常委这쎯参最色쎯	-11.1461
建쎯与쎯体쎯	-11.1464
交育企쎯农表提쎯	-11.1465
器服里쎯常外形쎯	-11.1467
常式网쎯交度程쎯	-11.1468
常企天쎯	-11.1468
经쎯经쎯交这级쎯参最究쎯万从海쎯	-11.1469
常企育쎯农处这쎯交表网쎯常信提쎯	-11.1471
交目重쎯器口广쎯	-11.1472
交计究쎯常委关쎯	-11.1472
参美各쎯标目天쎯	-11.1474
标外村쎯标立场쎯	-11.1474
器路色쎯器网保쎯	-11.1474
交究立쎯器师统쎯农处立쎯	-11.1475
器色校쎯	-11.1476
参级道쎯参级道쎯	-11.1478
参形天쎯交数级쎯	-11.1478
交前外쎯标保委쎯	-11.1478
科쎯化쎯常表口쎯农形并쎯	-11.1479
单度重쎯常各过쎯参美计쎯	-11.1481
农道安쎯参各基쎯	-11.1483
交质广쎯器基海쎯	-11.1484
标师口쎯器路二쎯	-11.1485
参最究쎯农信式쎯参形二쎯器而育쎯	-11.1485
交师度쎯常城者쎯	-11.1487
器路企쎯农从二쎯	-11.1487
参美计쎯交数色쎯交安各쎯	-11.1488
常企育쎯参广十쎯器各城쎯器各基쎯	-11.1488
参究	-11.1489
参质色쎯农形校쎯	-11.149
长쎯常资应쎯标外海쎯万从海쎯	-11.149
单过从쎯单过	-11.149
农信信쎯常各场쎯	-11.149
标形计쎯标资关쎯	-11.1492
农道度쎯常色二쎯	-11.1492
参目基쎯参这金쎯	-11.1493
器信米쎯交目而쎯	-11.1494
参美计쎯器度程쎯	-11.1494
单度程쎯器过基쎯交型关쎯参统师쎯	-11.1496
建쎯化쎯农处组쎯	-11.1496
常资师쎯器色前쎯	-11.1497
单度重쎯家쎯农道形쎯器提程쎯	-11.1497
单重表쎯	-11.1497
常城各쎯常间十쎯	-11.1498
交程关쎯交他究쎯	-11.1498
长쎯化쎯化쎯常资十쎯	-11.1499
参二校쎯	-11.15
交师立쎯标度金쎯参美计쎯	-11.1501
常型社쎯常质究쎯常道重쎯	-11.1501
参级路쎯常并米쎯	-11.1502
参美计쎯标并质쎯交金从쎯	-11.1502
参数组쎯交金基쎯农形形쎯交数组쎯	-11.1502
常保城쎯单度十쎯	-11.1503
器场由쎯常型究쎯	-11.1505
交师网쎯器各型쎯	-11.1508
标基信쎯常城企쎯	-11.1509
科쎯月쎯化쎯	-11.151
交并路쎯	-11.1514
单度重쎯州金쎯州金쎯	-11.1515
常表由쎯参里师쎯	-11.1515
经쎯体쎯体쎯月쎯	-11.1516
器城表쎯万从海쎯器企目쎯参提形쎯	-11.1519
参处村쎯参形这쎯参式村쎯交校度쎯	-11.152
常统前쎯	-11.1521
月쎯常资十쎯万从海쎯	-11.1524
常而质쎯农形并쎯	-11.1528
器型关쎯	-11.1528
交从最쎯器各统쎯	-11.1529
标外	-11.1532
农道安쎯常育处쎯	-11.1532
交这师쎯常各由쎯	-11.1534
农形形쎯常校基쎯单度重쎯	-11.1534
万从保쎯常这广쎯	-11.1534
常口保쎯器路企쎯	-11.1534
交者金쎯交师度쎯	-11.1535
参统城쎯参育间쎯交特外쎯交他质쎯	-11.1536
交统保쎯	-11.1537
常企各쎯常级米쎯	-11.1537
万从而쎯	-11.1539
交金道쎯常网过쎯交这究쎯常级校쎯	-11.1541
常这色쎯常目者쎯	-11.1543
常从度쎯器城究쎯	-11.1544
常二米쎯导度这쎯	-11.1544
交数级쎯常校保쎯参而过쎯标他究쎯	-11.1544
经쎯设쎯月쎯	-11.1546
交最网쎯参里特쎯常关海쎯	-11.1546
农城提쎯交质服쎯	-11.1547
农网前쎯农表而쎯标过广쎯万从海쎯	-11.1549
器校应쎯常资色쎯	-11.155
常二型쎯标数外쎯	-11.1551
农道型쎯标过广쎯常级委쎯	-11.1551
参金最쎯参天场쎯单度程쎯	-11.1552
标数安쎯	-11.1552
单度重쎯建쎯与쎯	-11.1552
常这色쎯器基广쎯	-11.1552
单度重쎯经쎯体쎯体쎯设쎯常表口쎯	-11.1552
常色计쎯参信网쎯	-11.1552
器网村쎯农从从쎯	-11.1553
参美计쎯常资由쎯标最各쎯	-11.1553
交由并쎯	-11.1556
标目关쎯标立这쎯	-11.1558
标组服쎯标组服쎯常并米쎯	-11.1558
器网村쎯参组城쎯	-11.1559
万从海쎯标美二쎯常而质쎯	-11.1562
交最场쎯器质企쎯	-11.1562
交特外쎯常海特쎯参广十쎯常信提쎯	-11.1563
常而级쎯常表场쎯器度海쎯交级而쎯	-11.1563
标过处쎯农道安쎯	-11.1563
常资由쎯交度度쎯	-11.1565
标目间쎯器而育쎯常级天쎯交度式쎯	-11.1565
常级委쎯标组服쎯	-11.1568
交这度쎯常型美쎯参美计쎯	-11.157
常外计쎯	-11.157
常而质쎯农道特쎯	-11.1571
器计师쎯常委统쎯	-11.1573
器外口쎯常校保쎯	-11.1574
[...]
