[UNK]	0
[PAD]	0
[CLS]	0
[SEP]	0
[MASK]	0
,	-3.74903
hapi0쎯	-3.90163
.	-4.22061
i1쎯	-4.2318
hdr0쎯	-5.11476
klg0쎯	-5.5497
iksi쎯	-5.63394
amyo쎯	-5.79693
l0쎯	-5.7981
(	-5.82849
ysm쎯	-5.84288
hgdi쎯	-5.96638
;	-5.97818
:	-5.9945
)	-6.02486
kb0쎯	-6.0306
za8쎯	-6.11225
l0쎯wmgi쎯	-6.11459
o쎯	-6.13261
nhe쎯	-6.2489
k0쎯	-6.25838
ym0쎯	-6.29014
vio0쎯	-6.29508
za2쎯	-6.36275
ino0쎯	-6.38845
m쎯	-6.47114
za3쎯	-6.51066
md쎯	-6.52785
nn0쎯	-6.55826
mf0쎯	-6.62586
hjrr쎯mgwg쎯	-6.64299
k0쎯fbnd0쎯	-6.65073
yth쎯rrr0쎯	-6.66571
ci0쎯smr쎯	-6.67178
oylm0쎯tc1쎯	-6.68023
mlm쎯oos쎯	-6.73221
edi0쎯	-6.7371
bsle0쎯heks0쎯	-6.74385
mmm쎯	-6.7704
qje쎯id1쎯	-6.78275
쎃	-6.78635
irm쎯	-6.78698
e쎯	-6.80191
hmr0쎯	-6.80677
u쎯	-6.8161
쎂	-6.82211
쎁	-6.85268
zxaf쎯	-6.85392
yrbr0쎯	-6.87886
za9쎯	-6.88295
mgln0쎯	-6.90478
nc쎯	-6.91057
bmi쎯	-6.91565
mbll쎯	-6.91627
gpd쎯	-6.9194
-	-6.9375
my쎯	-6.94219
vmnom쎯eykl0쎯	-6.95695
nd0쎯	-6.96128
fbnd0쎯nljmu쎯	-6.96162
qni0쎯tc1쎯	-6.96229
ydhml0쎯	-6.96475
adi쎯	-6.96752
ym0쎯eowy쎯	-6.96962
mrmt쎯jckn쎯	-6.98398
ylb쎯	-6.99006
bq쎯	-6.9964
ommi0쎯	-7.00451
hshml쎯	-7.00858
lmnii쎯	-7.01139
jdok0쎯yib쎯	-7.02816
ivke쎯stv쎯	-7.04542
lw쎯	-7.06474
hvif쎯vmyiu쎯	-7.06838
ldhe쎯	-7.06993
wmgi쎯jmso쎯	-7.07627
oo0쎯	-7.0766
phqm쎯	-7.07923
sk0쎯	-7.08356
tmmc0쎯	-7.09387
mig0쎯	-7.09708
쎄	-7.09907
wmgi쎯nlmmf쎯	-7.11832
mk쎯	-7.13562
/	-7.13729
nini0쎯	-7.13864
jmso쎯	-7.14315
mku쎯	-7.17568
po0쎯	-7.17757
ob1쎯	-7.17967
b0쎯nlav쎯ci0쎯smr쎯	-7.18209
uu0쎯	-7.20016
hqm쎯yth쎯	-7.20348
nir쎯	-7.22302
mm0쎯	-7.22639
mlm쎯hdrhg쎯	-7.23553
쎅	-7.23747
c쎯	-7.24912
kd0쎯	-7.27793
yrnl0쎯	-7.27955
oyt쎯md쎯	-7.28031
hqm쎯	-7.28307
fbnd0쎯	-7.28383
ihs0쎯	-7.28407
mnr쎯	-7.28797
egi쎯	-7.28802
ivhne쎯ivj쎯	-7.29328
p쎯	-7.30498
"	-7.30988
ytt0쎯hommn0쎯	-7.31519
jka쎯	-7.31654
yk0쎯op0쎯	-7.31819
pd0쎯	-7.32552
csh0쎯	-7.33062
m쎯ol1쎯	-7.33465
tt1쎯	-7.3419
yk0쎯	-7.35023
mg0쎯	-7.36823
opjbc쎯	-7.36978
ohg쎯	-7.37592
mdm쎯	-7.37636
yg0쎯mwv쎯	-7.37968
nklq쎯ivhne쎯	-7.38291
dm0쎯	-7.38486
dt0쎯	-7.38516
fbnd0쎯dyck0쎯	-7.38907
rmher쎯	-7.3924
fhbu0쎯	-7.39485
wmgi쎯	-7.40268
ddi쎯	-7.4176
ipm0쎯	-7.41926
vmbm0쎯vmrc쎯	-7.43178
omg0쎯wmgi쎯	-7.43204
mcw쎯	-7.43224
쎆	-7.43251
qamo쎯otc쎯	-7.43397
tbln0쎯	-7.43882
pt0쎯woll0쎯	-7.44063
za9쎯i1쎯za8쎯	-7.44362
wg0쎯	-7.44659
mr0쎯	-7.45212
hdyj0쎯fbnd0쎯	-7.45738
.za3쎯	-7.45782
()	-7.45919
eowy쎯	-7.46641
hdyj0쎯qje쎯	-7.47241
opd0쎯	-7.47746
,klg0쎯	-7.47747
oymr쎯hup0쎯	-7.47867
쎈	-7.48287
gihs쎯	-7.48372
,amyo쎯	-7.48505
jbtj쎯	-7.49202
wc0쎯	-7.49386
hbu0쎯	-7.50578
ifg쎯ommi0쎯	-7.51573
r쎯	-7.51742
쎇	-7.52969
hdv쎯rbo0쎯ommi0쎯	-7.53253
dhn0쎯	-7.53461
janl쎯	-7.53708
nvsm쎯	-7.54428
mng0쎯	-7.54837
hommn0쎯	-7.5486
bkk쎯vmher쎯	-7.55253
jdok0쎯fbnd0쎯	-7.55449
ibpp쎯	-7.55676
ythu쎯	-7.55774
nklq쎯hmhn0쎯	-7.55837
odm0쎯	-7.56323
vio0쎯nhe쎯	-7.56524
bmmc쎯kb0쎯	-7.57891
a0쎯	-7.58073
vmnom쎯	-7.58076
fmu쎯	-7.58076
hojwp0쎯	-7.58668
top0쎯	-7.59047
ha쎯	-7.59943
yk1쎯	-7.60195
op0쎯	-7.60553
hommn0쎯tc1쎯	-7.61152
vvh쎯	-7.6186
mmu0쎯	-7.62
rrikr쎯	-7.62614
hdyj0쎯	-7.62772
쎉	-7.62821
ydi0쎯	-7.63167
oh쎯	-7.64342
ms0쎯	-7.64421
ab0쎯	-7.64426
oo0쎯jlln쎯	-7.64703
쎁쎀	-7.64769
ylb쎯gnsh쎯	-7.65279
tqbu쎯	-7.65392
mmbo쎯bu0쎯	-7.65532
l0쎯p쎯	-7.66611
bkk쎯	-7.67391
mgmf0쎯gytu0쎯	-7.68842
jv0쎯	-7.6889
mfj0쎯	-7.69113
ikp0쎯	-7.70732
moob쎯	-7.70848
niy쎯	-7.71224
ivke쎯	-7.71881
je0쎯qgdi쎯	-7.71927
gpd쎯sk0쎯	-7.72029
her0쎯	-7.72043
za3쎯.	-7.72752
dd쎯	-7.72887
hbr0쎯	-7.73201
ogd0쎯wdh쎯	-7.73553
,tt1쎯	-7.7369
ojlk쎯bq쎯	-7.73855
mmi쎯	-7.7392
mnr쎯vio0쎯	-7.74047
dmmf0쎯imog쎯	-7.74117
jr쎯	-7.74137
emnr쎯	-7.74208
vr쎯	-7.74316
vmnom쎯tbrr쎯	-7.74742
ynib쎯ydi0쎯	-7.75129
q쎯	-7.7561
bkq쎯	-7.75731
ids쎯	-7.75807
ir0쎯	-7.75882
mylm쎯	-7.76108
vmij0쎯	-7.76241
mks0쎯ibpp쎯	-7.76254
mt0쎯	-7.76689
hvif쎯	-7.7686
oiku쎯hdnhs0쎯	-7.77001
opj0쎯	-7.77147
lis쎯	-7.77296
goru쎯	-7.78059
mwv쎯	-7.78335
vmm0쎯	-7.78429
,vio0쎯	-7.78433
hnk0쎯	-7.78663
dbu쎯	-7.79161
omg0쎯	-7.7948
npo쎯	-7.79532
za9쎯:za2쎯	-7.79819
jksc쎯ommi0쎯	-7.80027
hoami쎯	-7.80467
lmp0쎯yrf0쎯	-7.80879
yrf1쎯	-7.81054
oos쎯	-7.81549
yk2쎯	-7.81575
ynib쎯	-7.82038
hjbo쎯amwg쎯	-7.82047
ivhne쎯hew쎯	-7.82153
eqmb0쎯	-7.82167
gi0쎯	-7.82247
oq0쎯	-7.8275
mwsl쎯	-7.8293
mlm쎯tc1쎯	-7.8301
d쎯	-7.83308
tlwc쎯	-7.83318
!	-7.83474
su1쎯	-7.84293
yg0쎯	-7.84582
yfiku0쎯	-7.84699
bmr0쎯	-7.85679
jv0쎯omg0쎯	-7.85828
asje쎯	-7.8597
v쎯	-7.86156
kq0쎯	-7.86538
),	-7.86586
e	-7.86868
mhaf0쎯	-7.86977
yhs쎯	-7.8711
lwu0쎯nd0쎯	-7.87386
mtc0쎯	-7.87504
fdk0쎯	-7.87576
lmp0쎯	-7.87821
ksr쎯	-7.87958
tgk쎯	-7.88252
llmb쎯	-7.88317
ogd0쎯	-7.88638
rrr0쎯llhwj쎯	-7.88876
tn0쎯id1쎯	-7.89143
hqi0쎯	-7.89357
hvd쎯	-7.89558
cwj0쎯oyt쎯	-7.89576
vnd쎯	-7.8972
qau쎯	-7.89742
rj쎯	-7.89937
ite쎯	-7.90183
hjwg쎯	-7.90401
gihs쎯ylb쎯	-7.90583
hqgdi쎯	-7.90966
mt0쎯ivke쎯	-7.91129
ihs0쎯iksi쎯	-7.9144
ymy0쎯	-7.91595
ehjr쎯miks0쎯	-7.91718
ci0쎯	-7.91815
ks0쎯	-7.92068
ikhhh쎯ksr쎯	-7.92767
tjblb0쎯	-7.93436
kn0쎯	-7.94073
heo쎯	-7.9412
쎁쎂	-7.94185
ee1쎯	-7.94453
jrhu쎯	-7.94609
mmok쎯iodi쎯	-7.94665
ilil쎯	-7.94953
tgk쎯wmgi쎯	-7.95122
shlb0쎯	-7.9523
ivyvo쎯	-7.95482
qjcm쎯hbln0쎯	-7.95582
omn1쎯	-7.95784
uu0쎯llhe쎯	-7.96014
fbnd0쎯ommi0쎯	-7.96688
iflwl쎯	-7.9737
oos쎯iksi쎯	-7.97539
fvok쎯	-7.97983
em0쎯	-7.98233
qhne0쎯iobo쎯	-7.98237
nk0쎯	-7.98382
whey0쎯	-7.98766
yc쎯	-7.98813
tkhk0쎯	-8.00477
hdln0쎯	-8.00769
kqno쎯ohq쎯	-8.00793
jkp0쎯	-8.0105
mj쎯	-8.01216
wk0쎯	-8.01225
t	-8.01353
fbnd0쎯sim쎯	-8.01426
hdl0쎯	-8.0149
nljmu쎯	-8.01568
hqm쎯ehjr쎯	-8.01861
qif0쎯	-8.01871
elw쎯	-8.02158
qbq쎯kb0쎯	-8.02478
o쎯,	-8.02935
hjrr쎯	-8.03189
oyt쎯	-8.03263
hbln0쎯	-8.03285
nau0쎯	-8.03328
mlm쎯	-8.03683
yck0쎯ynib쎯	-8.03778
jdok0쎯	-8.04054
g쎯	-8.04088
f쎯	-8.04119
hnlh0쎯m쎯	-8.04357
rmvs쎯	-8.04505
.klg0쎯	-8.04517
mt0쎯vir쎯	-8.04547
pp0쎯	-8.04734
vmnhe쎯	-8.04856
her0쎯hdl0쎯	-8.05154
sok0쎯nljmu쎯	-8.05345
crp0쎯	-8.05422
bd0쎯bq쎯	-8.05479
ojlk쎯	-8.05734
yta0쎯hvd쎯	-8.05889
k	-8.05962
omr0쎯oos쎯	-8.06158
pt0쎯	-8.06195
fd0쎯	-8.06308
ppj쎯tc1쎯md쎯	-8.06364
jdok0쎯llmb쎯	-8.06484
b쎯	-8.06604
ycbr0쎯	-8.06611
qpa0쎯	-8.06705
omr0쎯	-8.06786
zxay쎯zxay쎯	-8.06805
ymp0쎯	-8.06926
쎂쎀	-8.07011
llml쎯	-8.07025
dhn0쎯dpi1쎯	-8.07026
ssr쎯	-8.07557
adi쎯lsa쎯	-8.07754
nwm쎯	-8.08206
tchml쎯	-8.08394
ihs0쎯yt0쎯	-8.08563
oos쎯rrr0쎯	-8.08825
eyiu0쎯	-8.09054
hvif쎯mnln쎯	-8.09264
mgwg쎯ivop0쎯	-8.09466
mwln쎯	-8.09595
ju쎯	-8.09748
ymf0쎯	-8.09876
hghu쎯ytt0쎯	-8.10138
nklq쎯	-8.10448
wr쎯	-8.10484
쎁.	-8.10619
tc1쎯heks0쎯	-8.10737
nla쎯	-8.11127
vmbm0쎯	-8.11152
l0쎯lbk0쎯	-8.11474
onf0쎯	-8.11512
iobo쎯emhf0쎯	-8.11583
pru쎯qhjr쎯	-8.11808
bbke쎯	-8.11917
wlni쎯	-8.12282
lsa쎯	-8.12526
ivcru쎯	-8.12594
eysd0쎯ei1쎯	-8.12764
oqni쎯	-8.12827
lmsy쎯	-8.12938
hxh쎯	-8.13086
w쎯	-8.13115
dnd0쎯	-8.13196
,iksi쎯	-8.1329
oqni쎯vmyiu쎯	-8.13407
aisl쎯	-8.13468
cwj0쎯	-8.13488
tsl쎯	-8.13557
qmb쎯	-8.1372
jnd0쎯	-8.13865
l0쎯fbnd0쎯	-8.13919
hqphh쎯	-8.14075
qyt0쎯	-8.1417
za3쎯hapi0쎯	-8.14286
vmjmf쎯omr0쎯	-8.1431
ysohv쎯eysd0쎯	-8.14377
fbnd0쎯hqm쎯	-8.14552
ord0쎯qis쎯	-8.14568
tmmc0쎯opd0쎯	-8.1467
yhml쎯	-8.14885
).	-8.15058
ytt0쎯	-8.15144
yrnl0쎯csh0쎯	-8.15507
yt0쎯	-8.15519
tkhk0쎯hoami쎯	-8.15638
a0쎯dm0쎯	-8.16275
vmgr쎯dpi1쎯	-8.16601
bgr0쎯	-8.16846
jlln쎯	-8.17261
mlwk쎯	-8.17293
nf0쎯	-8.17343
bhu0쎯	-8.17361
ho0쎯	-8.17409
qobhu쎯iln0쎯	-8.17478
hbv0쎯tc1쎯	-8.17833
fsm0쎯	-8.17847
rvp쎯ysook0쎯	-8.17899
hda쎯	-8.18059
wdh쎯	-8.18578
tcg0쎯	-8.18778
hdnf쎯	-8.19228
wmgi쎯ob1쎯	-8.19619
yrbr0쎯vmnhe쎯	-8.1971
boln0쎯	-8.19725
q	-8.19819
mn0쎯	-8.19826
mh0쎯	-8.19998
j쎯	-8.20177
r	-8.20302
mgbhu쎯oip0쎯	-8.20414
jmyo쎯	-8.20419
qmn0쎯	-8.20831
ojrk쎯	-8.21003
ym0쎯eowy쎯ylb쎯	-8.21006
fqsu0쎯	-8.21504
tc0쎯	-8.21529
?	-8.21611
ifm쎯	-8.21895
dhkl쎯	-8.22177
쎁쎁	-8.22692
ymmi쎯miks0쎯	-8.22849
lwu0쎯ifbhu쎯	-8.22859
쎁쎅	-8.22884
amwg쎯	-8.23126
yth쎯tc1쎯	-8.23236
rvp쎯	-8.23252
ytyr쎯	-8.23261
uu0쎯llhe쎯ifg쎯	-8.23308
dhn0쎯dit0쎯	-8.23347
ycbr0쎯heks0쎯	-8.23412
omnr쎯	-8.23445
ee0쎯	-8.23467
ik1쎯	-8.23557
lsr0쎯aombo쎯	-8.2388
ifm쎯bq쎯	-8.23894
oimbo0쎯rudi0쎯	-8.24185
oymr쎯	-8.24862
kmob쎯	-8.24941
emcw0쎯iyr쎯	-8.25128
hgdi쎯.	-8.252
gah쎯	-8.25281
oimbo0쎯girm쎯	-8.25376
ouln0쎯ydhml0쎯	-8.25384
hjwg쎯yrf1쎯	-8.25713
o쎯rvp쎯	-8.25785
ahqm0쎯	-8.25898
o쎯rbo0쎯	-8.26011
klb쎯	-8.26101
hbln0쎯yhgr0쎯	-8.26225
o	-8.26396
gytr쎯ivlll쎯	-8.26574
lsh쎯	-8.2703
yk0쎯fbnd0쎯	-8.27301
bbe쎯	-8.27879
sok0쎯fbnd0쎯	-8.27949
bkk쎯ytyr쎯	-8.28085
nlkd쎯	-8.2814
qka쎯	-8.283
imno0쎯	-8.28642
tc1쎯	-8.28708
za3쎯,	-8.28709
ivgdi쎯	-8.28784
opfb쎯ogr0쎯	-8.28819
～	-8.29274
cwa0쎯	-8.29443
ddh쎯fdyj쎯	-8.29487
lwu0쎯	-8.30131
쎅쎀	-8.3061
olln쎯	-8.30862
nrli쎯	-8.3089
heo쎯mgwg쎯	-8.30902
lk쎯	-8.31045
oip0쎯	-8.31052
vmpi쎯	-8.31073
ykq0쎯	-8.31117
phqm쎯ibpp쎯	-8.31443
.za8쎯	-8.31463
hsyhs0쎯	-8.31517
hbu0쎯su0쎯	-8.31723
mks1쎯lk쎯	-8.31865
jyk쎯ysopd쎯	-8.32021
ebcd쎯	-8.32114
hed0쎯	-8.32559
dhe0쎯	-8.32689
mgi0쎯	-8.3282
+	-8.32956
ivj쎯iln0쎯	-8.33024
m쎯hdl0쎯	-8.3303
tlbk0쎯	-8.33347
jrlr0쎯	-8.33368
yfiku0쎯amyo쎯	-8.33521
wmmu0쎯	-8.33595
ivop0쎯	-8.33683
gnsh쎯	-8.33831
mylm쎯ipm0쎯	-8.33891
l0쎯hapi0쎯	-8.33892
gtor0쎯	-8.33901
vpd쎯	-8.33958
dfdv쎯	-8.3412
rrr0쎯	-8.3429
adi쎯,	-8.3441
nlmnr쎯	-8.3465
jdok0쎯qbbe0쎯	-8.34693
ejrb쎯	-8.34795
qni0쎯jmso쎯	-8.34857
fbnd0쎯id1쎯	-8.34861
gp0쎯	-8.34905
쎁쎆	-8.34937
mpylm쎯	-8.35134
hqi0쎯olis쎯	-8.35241
wgf0쎯	-8.35513
mf0쎯bmr0쎯	-8.35553
gdi0쎯	-8.35585
muw쎯	-8.35638
hbu0쎯bkf0쎯	-8.3567
hommn0쎯mmok쎯	-8.35746
op	-8.36146
쎁쎈	-8.36271
mgilg쎯	-8.36346
vmbm0쎯ihs0쎯	-8.36436
za3쎯i1쎯za2쎯	-8.36516
dhe1쎯	-8.36769
efh0쎯	-8.36779
taj쎯	-8.3679
emhf0쎯	-8.36881
jher쎯is0쎯	-8.36982
au0쎯	-8.37068
mthhh쎯	-8.37245
nbo쎯qmbo0쎯	-8.37498
eomn0쎯kq0쎯	-8.37507
mbmbl0쎯mwv쎯	-8.37743
ivmmr쎯	-8.37801
pqmb쎯	-8.37885
qrrd쎯oos쎯	-8.38085
쎃쎀	-8.38148
ytaj0쎯	-8.38183
tcb0쎯	-8.38218
lwu0쎯afhhh쎯	-8.38348
nvjrr쎯	-8.38364
yck0쎯eyiu0쎯	-8.38387
eir쎯knn0쎯	-8.38396
,oam쎯	-8.38628
ob1쎯jcor쎯	-8.39202
,tmmc0쎯	-8.39341
fdk0쎯mng0쎯	-8.39488
yh쎯	-8.39511
tcg0쎯mruu쎯	-8.39632
jmgi쎯	-8.3973
ommi0쎯ivik쎯	-8.39782
hdyj0쎯mrmt쎯	-8.39821
llhe쎯	-8.39963
jlln쎯tc1쎯	-8.39986
csh0쎯dhml0쎯	-8.40053
emcw0쎯	-8.40233
h	-8.4025
thbu0쎯	-8.4026
jm0쎯	-8.40338
jmig쎯	-8.40544
ivbgr쎯	-8.40577
hghu쎯	-8.40707
쎄쎀	-8.40742
hmr0쎯,	-8.40789
ommi0쎯rbo0쎯	-8.40962
tw1쎯	-8.40997
yyk쎯	-8.41006
dav쎯	-8.41046
d	-8.41169
tvmi2쎯	-8.41235
yioj0쎯	-8.41324
ysok쎯	-8.41415
kqqni쎯	-8.41433
djbm0쎯hqphh쎯	-8.41575
ytap쎯	-8.41593
fq0쎯	-8.41715
no2쎯	-8.41835
ma0쎯	-8.42235
oiav0쎯	-8.42382
gpim쎯	-8.42457
osk0쎯	-8.42515
ifg쎯sk0쎯	-8.42878
ophqo쎯	-8.42959
hqu0쎯	-8.42992
sjrc0쎯tc1쎯	-8.4327
ord0쎯	-8.43307
wd0쎯	-8.43344
o쎯.	-8.43499
onkq쎯ile쎯	-8.43602
tjka0쎯nir쎯	-8.43685
hounk쎯	-8.43898
ehhv쎯	-8.43916
yks쎯	-8.43933
nlo쎯	-8.44076
ehne쎯kb0쎯	-8.44137
oip0쎯qmv쎯	-8.44275
dedi쎯	-8.44315
smmi0쎯	-8.4433
qamo쎯yrbr0쎯	-8.44597
jp쎯	-8.44673
mrmt쎯jckn쎯hshml쎯	-8.44795
hoggn쎯	-8.44816
,mbll쎯	-8.44822
woll0쎯	-8.44825
ohpm쎯	-8.44829
ihpm쎯	-8.44911
bmmc쎯	-8.44975
dtak쎯ipm0쎯	-8.45179
ymmu0쎯	-8.45341
za10쎯za10쎯	-8.45633
fvok쎯qsjr쎯	-8.45729
obo쎯	-8.46008
kb0쎯tk0쎯	-8.46066
hjbo쎯	-8.46089
hvp0쎯	-8.462
mgije쎯	-8.46208
쎂쎅	-8.4643
fdqmb쎯	-8.46518
rbo0쎯	-8.4652
qpa0쎯rudi0쎯	-8.46865
qmv쎯	-8.46932
opav쎯hommn0쎯	-8.46992
yhs쎯egi쎯	-8.47106
vmnom쎯nmomm쎯	-8.47436
dyck0쎯	-8.47477
omc0쎯	-8.47598
ol1쎯	-8.47621
he0쎯	-8.48045
miks0쎯	-8.48154
tc0쎯hdr0쎯wmgi쎯	-8.4817
yhs쎯ipm0쎯	-8.48316
p	-8.4843
o쎯rvp쎯mmok쎯iodi쎯	-8.4864
hdln0쎯bq쎯	-8.48643
tcg0쎯dm0쎯	-8.48741
sje0쎯	-8.48853
qsle쎯	-8.48893
hbln0쎯oos쎯	-8.49146
omd0쎯	-8.49217
vmgr쎯omr0쎯	-8.4922
okr0쎯ivrc쎯	-8.49369
edhe쎯	-8.49653
ksr쎯mlm쎯	-8.4975
,kb0쎯	-8.49769
olhh0쎯	-8.49795
yce0쎯	-8.49878
vmomr쎯	-8.49936
jmmu0쎯ihs0쎯	-8.50046
k0쎯mng0쎯	-8.50053
fdqmb쎯iflwl쎯	-8.50071
pru쎯	-8.50104
l0쎯opj0쎯	-8.50375
hqbu쎯	-8.50383
gybt쎯	-8.50514
nbg0쎯	-8.5053
ymmr0쎯	-8.50567
ykln0쎯	-8.51005
jcm쎯	-8.51096
goshr쎯	-8.51166
ydhml0쎯lssj쎯	-8.51355
hybt0쎯	-8.5139
mgb0쎯	-8.51604
ibpp쎯ks0쎯	-8.51672
lnk0쎯	-8.51685
vvm0쎯	-8.51781
mf0쎯vdhml쎯	-8.51935
sqnl0쎯	-8.5197
lwu0쎯emhf0쎯	-8.52004
afhhh쎯rhbr0쎯	-8.5204
jmmf0쎯	-8.52228
쎆쎀	-8.52284
hbu0쎯miks0쎯	-8.52387
hbt0쎯	-8.52583
dav쎯qsjr쎯	-8.52803
lll쎯	-8.53028
sjr0쎯	-8.53148
tk0쎯	-8.53249
mfj0쎯ir0쎯	-8.53344
eir쎯	-8.53394
bq쎯is0쎯	-8.53415
ebhu0쎯	-8.53459
ksc쎯	-8.53482
pysu쎯	-8.53489
buav쎯	-8.53569
qkni0쎯hommn0쎯	-8.53771
is0쎯	-8.53882
쎁쎃	-8.5389
mthhh쎯ihs0쎯	-8.5401
fbrlb쎯	-8.54175
ivj쎯hbut0쎯dhn0쎯	-8.54223
hqgdi쎯nau0쎯	-8.54303
fbrg쎯	-8.54317
ivop0쎯yk0쎯	-8.54463
sjtk쎯	-8.54475
tmm0쎯	-8.54531
ivke쎯mgbhu쎯	-8.54685
쎂쎄	-8.54766
jbmc0쎯	-8.54899
1쎯	-8.55136
odm0쎯yib쎯	-8.5521
fh쎯	-8.55298
yta0쎯	-8.55369
yhgu쎯	-8.55451
lmik쎯	-8.55504
쎁쎀쎀	-8.55522
wp쎯	-8.55545
dher쎯	-8.55692
ol1쎯o쎯	-8.56018
m쎯hyhne쎯	-8.56143
fbrhu쎯	-8.56145
yri0쎯	-8.56164
tod0쎯	-8.56205
rmss쎯yukb0쎯	-8.56249
oiav0쎯rrr0쎯	-8.56665
bbb0쎯	-8.56824
su1쎯vmnom쎯	-8.56857
jjb0쎯	-8.56869
ifg쎯	-8.57143
ihs0쎯yt0쎯md쎯	-8.57255
omg0쎯mwsl쎯	-8.5749
ivym쎯	-8.57937
asje쎯k0쎯	-8.58088
mrmbo0쎯jm0쎯	-8.58218
qj0쎯	-8.58513
qjv쎯	-8.58548
ycbr0쎯tc1쎯	-8.58557
tlj쎯omrl쎯	-8.58573
op0쎯fbnd0쎯	-8.58766
lloa쎯id0쎯	-8.58767
okr0쎯	-8.59028
ki0쎯	-8.59105
ivhne쎯ysopd쎯	-8.59173
ihs0쎯wd0쎯	-8.59367
omm0쎯	-8.59373
vmisb쎯	-8.59553
jmn쎯	-8.59665
jd0쎯	-8.59668
ou0쎯	-8.59698
dbu쎯tk0쎯	-8.59787
mmi쎯jbtj쎯	-8.59802
nklq쎯yt0쎯	-8.59857
yrnl0쎯lis쎯	-8.59955
ksc쎯ci0쎯jmig쎯	-8.6001
jbmm0쎯	-8.60044
eg0쎯	-8.60192
jyk쎯	-8.60339
yck0쎯	-8.60407
oahe쎯	-8.60445
fmc쎯	-8.60652
dnhe쎯	-8.60773
ioog0쎯	-8.60789
mwice0쎯	-8.6079
yyk쎯ol1쎯	-8.60796
wl쎯	-8.60848
rut0쎯	-8.60867
dci0쎯	-8.61132
slm쎯hqm쎯	-8.61182
bmr0쎯adi쎯	-8.61453
mwv쎯ije0쎯	-8.61559
쎁쎇	-8.61594
hnlh0쎯mm0쎯	-8.61649
umr0쎯	-8.61724
hbu0쎯su0쎯hapi0쎯	-8.6175
pvsm쎯	-8.61901
mgbhu쎯	-8.61929
jyk쎯mgbhu쎯	-8.6226
dh쎯	-8.62538
,lw쎯	-8.62594
hqm쎯hqphh쎯	-8.62639
hjhne쎯	-8.62709
fdcsh쎯	-8.62712
wrbo쎯	-8.62854
쎁쎄	-8.62918
zxay쎯	-8.63
mt0쎯stv쎯	-8.63042
eysd0쎯	-8.63045
hq0쎯	-8.63241
ifbhu쎯yhmbo0쎯	-8.63681
tims쎯	-8.63722
ifmrw쎯	-8.63784
ooll쎯ojbm0쎯	-8.64038
ino0쎯m쎯.	-8.64084
쎃쎂	-8.6419
yg0쎯ohg쎯	-8.64227
ayrf0쎯	-8.64238
nbshq쎯imdk쎯	-8.64369
rmk쎯	-8.64495
hda쎯etcu0쎯	-8.64791
srtq0쎯	-8.64794
tt0쎯	-8.65058
egi쎯holq쎯	-8.65111
tc0쎯bmr0쎯	-8.65117
vlok쎯	-8.65307
qo0쎯	-8.65329
ivmmr쎯ymmr0쎯	-8.6566
l0쎯opj0쎯o쎯rvp쎯	-8.65802
bkf0쎯	-8.65822
khlmi쎯yt0쎯	-8.65921
hbv0쎯	-8.65989
ivhne쎯	-8.66118
ino0쎯m쎯	-8.6614
kb0쎯nlav쎯	-8.66145
tbd0쎯	-8.66353
mlm쎯oos쎯,	-8.66359
ivke쎯hommn0쎯	-8.66422
ilr0쎯	-8.6678
nc쎯fbnd0쎯	-8.66901
suok0쎯tlj쎯	-8.66983
dnsh쎯	-8.67057
tgtr쎯	-8.67151
nl0쎯	-8.67193
ndu쎯	-8.67232
ysoy쎯	-8.67245
c쎯mblmi0쎯	-8.67273
sjtk쎯omr0쎯	-8.67384
txc쎯	-8.67427
stv쎯	-8.67495
wmgi쎯ob1쎯niy쎯	-8.67598
ci0쎯rmher쎯	-8.677
--	-8.67772
vmw쎯	-8.67781
oini0쎯	-8.67799
yk0쎯ohq쎯	-8.67947
rc0쎯	-8.68124
mbw쎯	-8.68218
moob쎯ol1쎯	-8.68228
jrr쎯	-8.6844
mrmt쎯jckn쎯hqm쎯	-8.68451
libt0쎯yebu쎯	-8.68453
쎁쎉	-8.68508
opbk쎯	-8.68561
ysook0쎯	-8.68628
bu0쎯tbln0쎯	-8.68666
hpsl0쎯	-8.68748
mgi1쎯	-8.68866
hqi0쎯wmgi쎯	-8.68867
her0쎯fdk0쎯	-8.69048
tgk쎯id1쎯	-8.69108
eog0쎯	-8.69142
fbnd0쎯hdyj0쎯	-8.69235
jibi쎯	-8.6926
ouln0쎯oos쎯	-8.69617
iksi쎯nn0쎯	-8.69621
o쎯dh쎯	-8.69638
jmso쎯jksc쎯ommi0쎯	-8.69687
jtbu1쎯	-8.69721
vmob0쎯	-8.69774
qam쎯ohg쎯	-8.69784
lgyhv쎯	-8.69805
uni0쎯	-8.69855
mmok쎯eir쎯	-8.69925
y	-8.69986
kmob쎯qmwyi0쎯	-8.69998
de0쎯	-8.70054
ojbm0쎯	-8.70082
nlyhs쎯	-8.70115
tmmc0쎯l0쎯	-8.70267
*	-8.70431
oos쎯jka쎯	-8.70462
qmb쎯oq0쎯	-8.70511
ine쎯	-8.70516
lu0쎯	-8.70564
sp쎯	-8.71003
m쎯ypmm쎯	-8.71122
vmgr쎯	-8.71149
tgbt쎯	-8.71181
jibi쎯jm0쎯	-8.71195
qytv0쎯r쎯	-8.7131
gyo쎯	-8.71365
ihs0쎯mks0쎯	-8.71405
smf0쎯	-8.71505
bu0쎯	-8.71541
mgmf0쎯	-8.71574
ytt0쎯oh쎯	-8.71594
jmam0쎯oqni쎯	-8.71777
oin쎯	-8.71901
yri0쎯wher0쎯	-8.71943
yg0쎯ik1쎯	-8.72012
nlomd쎯	-8.72237
hapi0쎯za2쎯	-8.72318
g	-8.72375
opd0쎯olis쎯	-8.7259
ylln0쎯	-8.7264
mwsl쎯hdrc쎯	-8.72794
miks0쎯hqphh쎯	-8.72836
psh0쎯	-8.72954
nlykb1쎯	-8.73113
mgwg쎯	-8.73133
tbrr쎯	-8.73152
mj쎯yrnl0쎯	-8.73343
)i1쎯	-8.73575
h0쎯	-8.73664
ebmr쎯	-8.7369
qlmy쎯	-8.7378
tk0쎯hvif쎯	-8.73889
gr0쎯	-8.73944
ivke쎯hqm쎯	-8.73964
skr쎯	-8.74022
kmnr0쎯	-8.74235
v	-8.74248
vmog쎯	-8.7436
sk0쎯girm쎯	-8.74599
ivsmr쎯	-8.74787
oryo0쎯ytt0쎯	-8.74912
b	-8.75348
onao쎯	-8.75428
tehr0쎯	-8.75481
,ojlk쎯	-8.75486
llsm쎯	-8.755
iyr쎯	-8.75928
hj0쎯	-8.75932
mlm쎯tn0쎯	-8.75968
ifu쎯	-8.76043
eyg0쎯bbm0쎯	-8.76045
dup쎯	-8.76103
yhgu쎯qeq쎯	-8.76263
tca0쎯	-8.76465
qmvif쎯	-8.76543
ivke쎯qmv쎯	-8.7655
ensh쎯	-8.76568
mlm쎯oos쎯.	-8.76663
kqyck쎯	-8.76753
okmrt쎯	-8.76793
mlby쎯	-8.76854
쎀	-8.76924
mwln쎯yg0쎯ohg쎯	-8.76971
je0쎯	-8.77006
hhbo0쎯aphh0쎯	-8.77065
jd1쎯	-8.7709
cor쎯	-8.77116
ymmi쎯hommn0쎯	-8.77208
amyo쎯m쎯ol1쎯	-8.77215
iobo쎯fdyj쎯	-8.77262
srln0쎯	-8.77305
mmok쎯	-8.77541
mf0쎯ibpp쎯	-8.77556
hdrhg쎯inin0쎯	-8.77644
'	-8.77797
asje쎯k0쎯hapi0쎯	-8.77803
ksr쎯oh쎯	-8.77894
opij쎯	-8.77962
ohq쎯	-8.77986
ir0쎯eycn쎯	-8.78021
jyk쎯nmomm쎯	-8.78032
ybhg0쎯	-8.7821
.ivyvo쎯	-8.78255
yhs쎯mwsl쎯	-8.78256
la0쎯	-8.78292
wks0쎯	-8.78314
aphh0쎯	-8.78363
ddi쎯hdv쎯ommi0쎯	-8.784
tesu쎯wqs쎯	-8.78422
yonk0쎯	-8.78459
ryo0쎯	-8.78477
tbrr쎯opfb쎯	-8.78492
suok0쎯	-8.78549
kd0쎯lmp0쎯	-8.78554
tksc쎯	-8.78562
nbshq쎯	-8.78653
etcu0쎯	-8.78704
asje쎯yrbr0쎯	-8.78715
pru쎯lgyhv쎯	-8.7878
,opd0쎯	-8.78804
mmok쎯hdb0쎯	-8.78879
yth쎯	-8.78929
ikhhh쎯ysm쎯	-8.79021
쎂쎂	-8.79134
ytd0쎯	-8.79177
rhg0쎯	-8.79207
u쎯kd0쎯	-8.79211
wgnin쎯	-8.79313
ldhe쎯ivmfj쎯iksi쎯	-8.79318
odm0쎯hvif쎯	-8.7957
ije0쎯	-8.79584
쎈쎀	-8.79588
bq쎯md쎯	-8.79622
l0쎯tc0쎯	-8.7965
lloa쎯	-8.79659
sok0쎯knn0쎯	-8.79727
tcg0쎯gpd쎯	-8.79806
lmsy쎯fbrlb쎯	-8.79906
ifmrw쎯nklq쎯	-8.79948
mthhh쎯ipm0쎯	-8.79996
mrno0쎯	-8.80103
yrf0쎯	-8.80176
uhej0쎯	-8.80266
qobhu쎯jmyo쎯	-8.80345
oha쎯	-8.8039
k0쎯ommi0쎯	-8.804
ophqo쎯rmher쎯	-8.80464
domm0쎯ebon쎯	-8.80562
ymmi쎯	-8.8058
eqhl쎯em0쎯	-8.80595
sok0쎯	-8.80619
iodi쎯	-8.80622
c쎯shlb0쎯	-8.80725
lu0쎯ytwg쎯	-8.80728
mnmbo쎯	-8.80941
mhog0쎯	-8.80984
eabt0쎯	-8.81007
nini0쎯imno0쎯	-8.81014
qobhu쎯dtak쎯	-8.81046
hghu쎯hqm쎯	-8.81072
gytr쎯toll0쎯	-8.81077
dowy쎯	-8.811
sh0쎯	-8.81194
jbmm0쎯qytv0쎯	-8.8134
,edi0쎯	-8.81376
쎃쎅	-8.81378
l0쎯,	-8.81417
mnp0쎯	-8.81468
ebvk쎯	-8.8157
pp0쎯kqyck쎯	-8.81572
,aisl쎯	-8.81624
by0쎯	-8.81688
,tmmc0쎯l0쎯	-8.81697
hshml쎯kb0쎯	-8.81805
ile쎯	-8.81851
ivjka쎯	-8.81916
amyo쎯lw쎯	-8.81944
hhsb쎯	-8.81945
rsln1쎯	-8.82014
ord0쎯nlomm쎯	-8.82067
etmb쎯	-8.8208
:za2쎯	-8.82161
jmso쎯inkg쎯	-8.82197
ig0쎯	-8.82207
yk2쎯mgln0쎯	-8.82366
hhqu쎯	-8.82537
ivipm쎯nmomm쎯	-8.82609
hapi0쎯m쎯hdl0쎯	-8.8265
irp0쎯	-8.82671
qke0쎯	-8.82916
fbrlb쎯heks0쎯	-8.82929
fmn쎯	-8.83078
isbt쎯	-8.83093
qyhn쎯	-8.83154
wc0쎯lll쎯	-8.83172
l0쎯yk0쎯nir쎯hdnf쎯	-8.83216
jtco0쎯	-8.83249
mbib쎯	-8.83303
l0쎯sok0쎯	-8.8338
muhe0쎯	-8.83417
hoav0쎯	-8.83445
ytumb쎯	-8.83524
~	-8.83687
jher쎯	-8.83831
ymmi쎯kqomn쎯	-8.83834
ior0쎯ivpa0쎯	-8.83865
vmhvp쎯	-8.83907
qytv0쎯	-8.83924
hbv0쎯ddi쎯	-8.83933
jv0쎯houfk0쎯	-8.84022
.ci0쎯smr쎯	-8.84095
jkmvs쎯ivipm쎯	-8.84198
ylnc쎯	-8.84421
ht0쎯	-8.84533
yck0쎯aphh0쎯	-8.84772
hycr쎯	-8.84972
mgok0쎯ks0쎯md쎯	-8.85021
gisl쎯	-8.85063
mbsm0쎯	-8.85099
쎂쎈	-8.85104
oyhv0쎯	-8.85151
owyi0쎯	-8.85157
jrok쎯	-8.85204
omg0쎯mgije쎯	-8.85205
vmnom쎯ydi0쎯	-8.8523
tlbk0쎯ivmmr쎯	-8.85233
bysm쎯	-8.85262
fdyj쎯	-8.85292
ikq쎯	-8.85413
ivsu쎯	-8.8574
oos쎯bq쎯	-8.85761
ivwd쎯hdrhg쎯	-8.8578
omgn쎯	-8.85996
yh쎯kd0쎯fhbu0쎯	-8.86105
dj쎯	-8.8621
ksmi쎯	-8.86296
yhv쎯	-8.86302
ncwj쎯	-8.86322
dyvo쎯	-8.86374
yh쎯kd0쎯	-8.86397
dtlc쎯	-8.86399
쎄쎅	-8.86442
kqop쎯	-8.86495
jphu0쎯	-8.86554
mnln쎯	-8.86613
oam쎯	-8.86621
lwu0쎯byuk쎯	-8.86911
llmb쎯tesu쎯	-8.87068
amyo쎯qpa0쎯	-8.87181
ino0쎯lsa쎯	-8.87444
yr0쎯	-8.87492
jmmu0쎯tgtr쎯	-8.87513
hoami쎯mgln0쎯	-8.87548
nhe쎯tmmc0쎯	-8.87566
zxae쎯	-8.87777
쎇쎀	-8.87859
hojwp0쎯wmgi쎯	-8.87934
epym쎯	-8.87952
u쎯kd0쎯fhbu0쎯	-8.88208
ryo0쎯mgije쎯	-8.88288
smr쎯	-8.88313
byck0쎯	-8.88451
mgbhu쎯kb0쎯	-8.88539
jmrw쎯	-8.88565
hae쎯	-8.88568
adi쎯oip0쎯	-8.88568
e쎯mfj0쎯	-8.88602
kd0쎯yhs쎯	-8.88675
gpd쎯yhs쎯	-8.89028
hn0쎯	-8.89125
o쎯hqphh쎯	-8.89383
hdf0쎯	-8.89446
shqu쎯	-8.89506
hqphh쎯mgwg쎯	-8.89521
tkr0쎯	-8.89523
nc쎯ivcru쎯	-8.89523
za8쎯l0쎯wmgi쎯	-8.89548
,lmnii쎯	-8.8957
sj0쎯	-8.89653
hdrc쎯dnhe쎯	-8.89654
tbks0쎯miks0쎯	-8.8969
mand쎯	-8.8969
ecd0쎯	-8.89696
m쎯jbmm0쎯	-8.89938
po0쎯tcb0쎯	-8.90019
ggdi쎯	-8.90184
yukb0쎯	-8.90244
dhn0쎯tk0쎯	-8.90287
m쎯imno0쎯	-8.9029
ikhhh쎯fvok쎯	-8.90347
hqm쎯kip0쎯	-8.90409
gdk쎯	-8.90421
jcm쎯lsa쎯	-8.90425
jv0쎯lgyhv쎯	-8.90443
shlb0쎯md쎯	-8.90541
orse쎯	-8.90591
tbok0쎯	-8.90648
yyk쎯ypmm쎯	-8.9067
mvni쎯	-8.90739
o쎯r쎯	-8.90952
q쎯dhn0쎯	-8.91023
iksi쎯m쎯odm0쎯	-8.911
ykok0쎯wd0쎯	-8.91132
omlk쎯	-8.91139
ifbhu쎯	-8.91141
bhqm쎯	-8.91275
ids쎯egi쎯	-8.91282
ysopd쎯mlm쎯	-8.9161
yk0쎯ab0쎯	-8.91691
ommi0쎯ivj쎯	-8.91746
rbo0쎯mlm쎯	-8.92003
ytk쎯	-8.9209
hqgdi쎯rsln1쎯	-8.92195
qmn0쎯yhgr0쎯	-8.92227
yrbr0쎯hgdi쎯	-8.92254
krd0쎯	-8.92277
ykq0쎯qytv0쎯	-8.92295
hhw쎯	-8.9246
vmnme쎯	-8.92497
tc0쎯yth쎯fbrhu쎯	-8.92564
hdv쎯rbo0쎯	-8.92576
hnlh0쎯mmm쎯	-8.92729
stt쎯takb쎯	-8.92751
wyi0쎯	-8.92799
qamo쎯	-8.93009
hapi0쎯ivke쎯stv쎯	-8.93079
pdk쎯	-8.93106
nwma쎯	-8.93115
rjd0쎯	-8.93139
csh0쎯rsln1쎯	-8.9317
le0쎯shlb0쎯md쎯	-8.93213
yblb쎯	-8.93221
oiku쎯	-8.93236
khlmi쎯hqgdi쎯	-8.93578
tk0쎯md쎯	-8.93773
fdilr쎯	-8.93794
jikq쎯	-8.93795
vio0쎯dt0쎯	-8.93848
oll쎯vmshr0쎯	-8.93865
ivjnk쎯	-8.939
afhhh쎯	-8.9391
atc0쎯mmf0쎯	-8.9397
u	-8.94192
yhs쎯hbr0쎯	-8.94211
쎂쎃	-8.94317
ndf쎯	-8.94343
vlok쎯oh쎯	-8.94345
쎂쎇	-8.94349
ivbgr쎯dam0쎯	-8.94369
omrl쎯	-8.94395
eyok쎯	-8.94423
nmyg쎯	-8.94463
vio0쎯ym0쎯	-8.94574
tlbk0쎯wmgi쎯	-8.94659
qj0쎯jmrw쎯hapi0쎯	-8.9468
lllo쎯	-8.94704
eabt0쎯ite쎯	-8.94711
vmw쎯bpru쎯	-8.9477
jrb쎯	-8.94844
쎂쎆	-8.94856
opav쎯	-8.94902
knd0쎯	-8.94932
omg0쎯yrnl0쎯	-8.94947
kd0쎯tjmu0쎯ylb쎯	-8.95011
hapi0쎯m쎯ol1쎯	-8.95149
qhp0쎯	-8.95164
ykq0쎯vmjnk쎯	-8.95222
nlb0쎯	-8.9527
hqgdi쎯yrf1쎯	-8.95386
hghu쎯hmr0쎯	-8.95428
onmk0쎯	-8.95447
쎉쎀	-8.95481
ooll쎯dher쎯	-8.95503
iml쎯	-8.95532
ibpp쎯prnin쎯	-8.95577
yrbr0쎯ydl쎯	-8.9569
ooks쎯	-8.95723
vmnau쎯	-8.95728
pdk쎯ydl쎯	-8.95785
hbln0쎯ite쎯	-8.95801
ivmym쎯	-8.95877
oik1쎯	-8.95949
btak쎯	-8.95975
쎂.	-8.96143
wp쎯dup쎯	-8.96189
l0쎯yk0쎯	-8.9621
vmvno쎯	-8.96231
dyvo쎯p쎯	-8.96258
tjr쎯	-8.96292
soy쎯	-8.96512
vtmd쎯odm0쎯	-8.96651
nini0쎯hdl0쎯	-8.96695
jdi0쎯	-8.96724
hdnhs0쎯	-8.9675
hqgdi쎯mnhjd쎯	-8.96957
pmf쎯	-8.9706
yrbn1쎯	-8.97123
hommn0쎯iksi쎯	-8.97149
ihs0쎯rbo0쎯	-8.97218
no1쎯	-8.97231
oyg쎯	-8.97328
l0쎯wmgi쎯o쎯rvp쎯	-8.97446
vmisb쎯kqrsj쎯	-8.97447
pd0쎯amyo쎯	-8.97704
lgyhv쎯nvolb쎯	-8.97809
ivwb쎯	-8.97923
imoii쎯	-8.98114
sehho쎯	-8.98189
qllb0쎯bmks0쎯	-8.98276
mfj0쎯yhs쎯fd0쎯	-8.98294
ora0쎯	-8.98307
mg	-8.98324
jdok0쎯ddh쎯	-8.98357
bu0쎯dmmf0쎯	-8.98394
srtq0쎯ooo0쎯	-8.984
yoln0쎯	-8.98454
tmmc0쎯jp쎯	-8.98496
>	-8.98553
qsje0쎯afhhh쎯	-8.98588
,wks0쎯,	-8.98701
yh쎯mcw쎯	-8.98786
oinr쎯	-8.98798
km0쎯	-8.9883
iv	-8.98837
qu0쎯	-8.98982
tqm쎯	-8.98993
,mnr쎯	-8.99043
goiv쎯	-8.99049
amyo쎯l0쎯wmgi쎯	-8.99151
fdk0쎯mng0쎯:	-8.99317
hjwg쎯mwv쎯	-8.99366
mmi쎯jbtj쎯fhbu0쎯	-8.994
ogg0쎯	-8.9942
opbmr쎯	-8.99472
pqmb쎯imrhu쎯	-8.99607
za9쎯hgdi쎯	-8.99731
mgwg쎯oinp0쎯	-8.99761
ron쎯	-8.99927
ynib쎯oymr쎯	-8.99933
bm0쎯	-8.99964
ivo쎯ivmym쎯	-8.99973
iav0쎯	-8.99976
fsm0쎯oip0쎯	-8.99993
qni0쎯	-9.00009
ooo0쎯	-9.00037
janl쎯amyo쎯	-9.0012
hdv쎯	-9.00125
asje쎯ydhml0쎯	-9.00129
iav0쎯vnd쎯hapi0쎯	-9.00164
ivj쎯	-9.00225
ly쎯	-9.00257
hbk1쎯	-9.00338
ykll쎯	-9.00348
adi쎯tcb0쎯	-9.00357
vmsu0쎯oinp0쎯	-9.00367
yr0쎯gpd쎯	-9.0037
,vr쎯	-9.00413
kqomn쎯uu0쎯	-9.00496
쎂쎀쎀	-9.00635
yg0쎯qgdi쎯	-9.00688
lmi쎯	-9.0069
toll0쎯	-9.00705
rhml쎯	-9.00717
qobhu쎯tesu쎯	-9.00731
lnbo쎯	-9.00831
hapi0쎯hjwg쎯mwv쎯	-9.00849
fwk쎯	-9.00852
jyk쎯nlmmf쎯	-9.00925
etc쎯	-9.01147
tlit쎯	-9.0115
uoii0쎯	-9.01214
fvok쎯jnd0쎯	-9.0122
wljbm쎯	-9.01296
ohqi쎯wlni쎯tchml쎯	-9.01559
so0쎯di0쎯	-9.01653
vdhml쎯	-9.01843
yrnl0쎯nlo쎯	-9.01915
kqno쎯	-9.01935
lpb쎯	-9.02083
bdhhh0쎯	-9.02108
mrmt쎯ivke쎯	-9.02114
yh쎯hgr0쎯	-9.02213
qog0쎯yh쎯	-9.02344
dm0쎯hdyj0쎯	-9.0241
mwsu쎯ksmi쎯	-9.02536
rrr0쎯hdl0쎯	-9.02595
ddni쎯	-9.02635
m쎯vmnhe쎯	-9.02693
jbtj쎯yrf0쎯	-9.02719
jrok쎯jlln쎯	-9.02733
ke0쎯	-9.0284
mbmbl0쎯ije0쎯	-9.02874
jvd쎯	-9.03038
wkp0쎯	-9.03061
dmf쎯	-9.03089
wher0쎯	-9.03124
ihmv쎯	-9.03148
gok0쎯	-9.03196
aombo쎯	-9.0323
epi0쎯	-9.03236
m쎯goru쎯	-9.03264
mtch쎯	-9.03341
aa0쎯	-9.03483
yth쎯hqm쎯	-9.03614
yyk쎯hdl0쎯	-9.03652
khlmi쎯	-9.03668
vmnme쎯nau0쎯	-9.03692
hed0쎯ohq쎯	-9.0383
fcq0쎯	-9.04036
llhwj쎯	-9.04089
epd0쎯	-9.04109
yri0쎯nsd0쎯	-9.04111
bgil쎯	-9.04438
hdnsp쎯jmyo쎯	-9.04454
lwu0쎯epd0쎯	-9.04463
oqni쎯qhdw쎯	-9.04541
olis쎯	-9.04689
mlm쎯oos쎯jka쎯	-9.04715
imdk쎯jmyo쎯	-9.04759
쎂쎁	-9.04774
mrmt쎯jckn쎯nljmu쎯	-9.04815
vmgr쎯wd0쎯	-9.0484
wdh쎯nlo쎯	-9.04843
lssj쎯	-9.04865
.opd0쎯	-9.04877
mgbhu쎯klg0쎯	-9.04903
hqm쎯md쎯	-9.0506
tq0쎯	-9.0515
mcw쎯jbtj쎯	-9.05154
ci0쎯wmmu0쎯	-9.05301
mmn0쎯	-9.05344
ouln0쎯	-9.05421
ilw쎯	-9.05483
ydl쎯	-9.0553
tca0쎯ynib쎯	-9.05567
bsle0쎯	-9.05634
klnd쎯	-9.05687
za9쎯,	-9.05694
i	-9.05706
=	-9.05756
lgyhv쎯hew쎯	-9.05775
o쎯fdk0쎯	-9.05903
mgbhu쎯oip0쎯op0쎯	-9.05994
yh쎯ilil쎯	-9.06008
hqo0쎯	-9.06029
omln0쎯	-9.06107
,oo0쎯	-9.06193
쎄쎈	-9.06305
ydi0쎯hdrhg쎯	-9.06347
ym0쎯hapi0쎯	-9.06437
pt0쎯vmsu0쎯	-9.06499
eycn쎯	-9.06637
mmbo쎯	-9.0673
oip0쎯mgwg쎯	-9.0677
qbnsd쎯	-9.06799
ord0쎯nlytj쎯	-9.0686
쎃쎆	-9.06877
ylmh0쎯	-9.06878
mrmt쎯hbln0쎯	-9.07001
l	-9.07122
jmmu0쎯omg0쎯	-9.07292
ejrb쎯jbtj쎯	-9.07401
ebon쎯amwg쎯	-9.07412
oe0쎯	-9.07435
yphn0쎯	-9.07495
yj0쎯	-9.07583
slm쎯	-9.07603
tak쎯	-9.07787
rrr0쎯hjbo쎯	-9.078
za9쎯ivgdi쎯:za2쎯	-9.07968
ysopd쎯	-9.07993
0쎯	-9.08108
mtc0쎯eill쎯	-9.08145
쎂쎀쎁쎀oq0쎯	-9.08153
qmvif쎯hjbo쎯	-9.08213
qpp0쎯imog쎯	-9.08217
쎅쎀쎀	-9.08284
ytt0쎯ylmh0쎯	-9.08338
yhs쎯jvd쎯	-9.08369
ime0쎯	-9.0848
hqgdi쎯homym쎯	-9.08528
ohsb0쎯	-9.08537
eyg0쎯	-9.08576
ppha쎯	-9.0859
ksr쎯oh쎯l0쎯wmgi쎯	-9.08652
,mf0쎯	-9.0876
amyo쎯m쎯hdl0쎯	-9.08769
hjd0쎯	-9.08828
kqlw쎯	-9.08885
dmmf0쎯	-9.08906
ogd0쎯ihs0쎯	-9.08909
hne0쎯	-9.08955
kqnom쎯	-9.09046
jka쎯,	-9.09095
hdnin0쎯miks0쎯	-9.09098
mwsu쎯	-9.09135
yta0쎯yhmbo0쎯	-9.09144
jyk쎯rmij쎯	-9.09166
iobo쎯yth쎯	-9.09186
mgmf0쎯ord0쎯	-9.09238
hnk0쎯dher쎯	-9.09266
mgumb쎯	-9.09318
kd1쎯	-9.09339
mlm쎯bmmc쎯	-9.09424
mghjd쎯	-9.09432
domm0쎯dam0쎯	-9.09567
za9쎯(	-9.0963
oiku쎯hjbo쎯	-9.09632
yrbn0쎯	-9.09752
za14쎯za13쎯	-9.09788
lwu0쎯ks0쎯	-9.09795
oos쎯jmso쎯	-9.10137
oik1쎯rrikr쎯	-9.10139
mfj0쎯yhs쎯fd0쎯,	-9.1024
ppj쎯tc1쎯	-9.10288
ivke쎯klb쎯	-9.10386
o쎯olis쎯	-9.10394
wmgi쎯jmso쎯vmnhe쎯	-9.10411
jtcy0쎯	-9.10428
tn0쎯	-9.10464
쎃쎈	-9.10555
arf0쎯	-9.10586
ivhne쎯wljbm쎯	-9.10621
stv쎯libhu0쎯	-9.10682
sjg쎯	-9.10689
mmm쎯ol1쎯	-9.10707
bcru1쎯	-9.10748
jkmvs쎯	-9.10765
amyo쎯m쎯jmso쎯	-9.10818
uu0쎯mgbhu쎯	-9.10837
olln쎯jdok0쎯	-9.10954
egi쎯wmgi쎯	-9.10993
slsl0쎯	-9.11077
hdnf쎯iksi쎯	-9.11083
kiog쎯	-9.11199
,yg0쎯mwv쎯	-9.11204
ivwd쎯aombo쎯	-9.11237
qsle쎯hgr0쎯	-9.11338
hyyhn쎯jcm쎯	-9.11391
fbnd0쎯jka쎯	-9.11397
dt0쎯hbu0쎯	-9.11524
ysok쎯oh쎯	-9.11548
ouln0쎯nklq쎯	-9.11629
mca0쎯	-9.11642
eqhl쎯em0쎯fhbu0쎯	-9.11677
mvnm0쎯sjtk쎯bkk쎯	-9.11825
hoggn쎯ythu쎯	-9.1184
he0쎯ifm쎯	-9.11936
.tmmc0쎯	-9.12038
skno쎯eill쎯	-9.12064
lsr0쎯	-9.1211
csh0쎯nd0쎯	-9.12112
a	-9.12146
qtw0쎯yid0쎯	-9.12258
jlln쎯ohq쎯	-9.12356
ivoj쎯nini0쎯	-9.12376
mthhh쎯napo쎯	-9.12427
mf0쎯ophds쎯opbk쎯	-9.12556
csh0쎯iksi쎯	-9.12599
...	-9.12664
ifbm쎯	-9.12809
bd0쎯	-9.12833
eher쎯	-9.12927
ooll쎯	-9.12949
yif0쎯	-9.12983
mrdhe쎯	-9.12999
ycbr0쎯rrr0쎯	-9.13013
irm쎯jka쎯	-9.13098
nlqu쎯	-9.13116
ids쎯muw쎯	-9.13131
mcw쎯lmp0쎯	-9.13132
uu0쎯hqm쎯md쎯	-9.13198
hapi0쎯mrmt쎯jckn쎯	-9.13337
쎂쎉	-9.13359
mgok0쎯	-9.13396
a1쎯	-9.13439
aj0쎯	-9.13473
em0쎯tksc쎯	-9.13548
mks1쎯	-9.13583
emnr쎯jbtj쎯	-9.13596
lw쎯md쎯	-9.1363
hoyg쎯	-9.13675
ooo0쎯nini0쎯	-9.13679
atc0쎯	-9.13783
rmss쎯	-9.13785
ebon쎯ivipm쎯	-9.13801
nmtq쎯	-9.13837
jtcg0쎯	-9.13859
obon쎯	-9.14022
homym쎯	-9.14167
ivbgr쎯dkmym0쎯	-9.14171
mks0쎯	-9.14223
.yg0쎯mwv쎯	-9.14267
li	-9.14334
leg0쎯qgdi쎯	-9.14344
opl쎯	-9.14382
hbu0쎯lw쎯	-9.14421
yav쎯	-9.14453
jbvif0쎯	-9.14463
ivqmb쎯	-9.14715
qj0쎯jmrw쎯	-9.14783
tbd1쎯	-9.1479
wgfg쎯	-9.1483
qog0쎯	-9.14908
jyk쎯nmomm쎯jmig쎯	-9.15019
yhs쎯omlk쎯	-9.15026
hbu0쎯eir쎯sk0쎯	-9.1505
em0쎯tksc쎯fhbu0쎯	-9.15171
yh쎯k0쎯	-9.15308
tbmo쎯	-9.15368
nhs쎯	-9.15392
stv쎯mmf0쎯	-9.15408
adi쎯fbr0쎯	-9.15453
otc쎯	-9.15518
vmjmf쎯omr0쎯phqm쎯	-9.15726
bo0쎯	-9.1573
s	-9.15735
,oyt쎯md쎯	-9.15785
nomrt0쎯	-9.15823
ydl쎯ite쎯	-9.15855
fbrhu쎯rbo0쎯	-9.1589
knd0쎯gp0쎯	-9.15906
bhne쎯	-9.16001
pysm쎯	-9.16004
napo쎯	-9.16034
vrmk쎯hvd쎯	-9.16049
vr쎯omnr쎯	-9.16088
,ysm쎯	-9.16166
ylm쎯	-9.16184
klnd쎯oiva쎯	-9.16202
ouln0쎯yhgr0쎯	-9.16249
sjrc0쎯	-9.16265
쎅쎅	-9.16274
쎇쎅	-9.1636
oqni쎯za9쎯:za2쎯	-9.16414
kqlw쎯nnqo0쎯	-9.16538
o쎯hapi0쎯	-9.16542
byuk쎯	-9.16611
fcq0쎯ksc쎯	-9.16621
ejrb쎯lmp0쎯	-9.1664
bbe쎯mgln0쎯	-9.16665
iobo쎯c쎯	-9.16714
<	-9.16803
ehjr쎯	-9.16817
kok쎯kmob쎯	-9.17031
vmpu쎯	-9.17048
okr0쎯nir쎯	-9.17172
hdlp쎯	-9.17196
jibi쎯hqphh쎯	-9.17382
idd쎯	-9.17423
hoomd0쎯	-9.17477
nm	-9.17484
pp0쎯jtco0쎯	-9.17563
jbm0쎯	-9.1758
ei1쎯	-9.17624
qhne0쎯	-9.17642
ivtkr쎯	-9.17688
tcb0쎯lsa쎯	-9.17695
twhd0쎯	-9.17737
vmnom쎯tbc0쎯	-9.17911
hqphh쎯eyiu0쎯	-9.17985
ivipm쎯	-9.17993
ora0쎯ibpp쎯	-9.18003
fdyt쎯	-9.18013
otniq쎯	-9.18089
tlbk0쎯yk0쎯	-9.18094
tbrr쎯toll0쎯	-9.18264
,jrok쎯	-9.18275
ivlll쎯vmkvc쎯	-9.18303
nn0쎯nbshq쎯	-9.18402
ivke쎯stv쎯hapi0쎯	-9.18472
oyt쎯wljbm쎯	-9.18593
hjwg쎯k0쎯	-9.1861
oog0쎯	-9.18638
ino0쎯m쎯,	-9.18697
쎂쎀쎀쎀	-9.18737
id1쎯	-9.18854
ysotc쎯	-9.1887
yyk쎯m쎯	-9.18971
qmwyi0쎯	-9.19002
iflwl쎯vmnom쎯	-9.1903
dkmym0쎯odm0쎯	-9.19088
(쎁).	-9.19117
oymr쎯rmvs쎯	-9.192
qmv쎯mmf0쎯	-9.19201
ob1쎯wljbm쎯	-9.19294
kr0쎯	-9.1952
qmv쎯mwsl쎯	-9.19528
mig0쎯oin쎯	-9.19761
ymf0쎯kb0쎯	-9.19858
ivhne쎯kb0쎯	-9.20074
fvok쎯fbnd0쎯	-9.20114
grtr0쎯	-9.20131
gcwa0쎯	-9.20241
쎂쎀쎀쎈oq0쎯	-9.20352
쎃쎀쎀	-9.20374
쎆쎀쎀	-9.20416
mlm쎯hdrhg쎯llmb쎯	-9.20464
ob1쎯yrnl0쎯	-9.2049
opytu쎯	-9.20505
bdu쎯	-9.20521
sjrc0쎯mlm쎯	-9.20546
bhne쎯ocsh쎯k	-9.20627
km0쎯kr0쎯	-9.20674
ph쎯	-9.20744
gfno쎯	-9.20749
qha0쎯qsje0쎯	-9.20766
tsl쎯bu0쎯	-9.20766
vmyiu쎯m쎯	-9.20812
mrmt쎯jckn쎯ommi0쎯	-9.2091
sjr0쎯rvp쎯	-9.21072
mpylm쎯ee0쎯	-9.21233
ivwd쎯	-9.21256
op0쎯mlm쎯	-9.213
yh쎯gnsh쎯	-9.21345
rvl쎯	-9.2136
gilr쎯	-9.21456
yk0쎯tn0쎯	-9.21484
rvp쎯lsa쎯	-9.2156
nlhem0쎯	-9.21633
tjks0쎯	-9.21641
hdl0쎯djbm0쎯	-9.21691
쎂쎀쎀쎉oq0쎯	-9.21814
qamo쎯ht0쎯	-9.21862
,bmr0쎯adi쎯	-9.22009
ejrb쎯lmp0쎯fhbu0쎯	-9.22132
kf0쎯	-9.22133
csh0쎯fdk0쎯	-9.22183
hbv0쎯rvp쎯	-9.22216
,vio0쎯nhe쎯	-9.22255
romr0쎯	-9.22304
lebo쎯	-9.22359
쎃쎇	-9.22361
yptc0쎯	-9.22386
gpd쎯hjbo쎯	-9.22468
ehne쎯	-9.22471
vmbm0쎯omr0쎯	-9.22498
ymmi쎯tbrr쎯	-9.22774
vm	-9.22814
ksr쎯nrli쎯	-9.22901
쎂쎀쎀쎆oq0쎯	-9.22918
jip쎯	-9.22972
fhbu0쎯vmnhe쎯	-9.23025
mri0쎯	-9.23043
mgdhe쎯mgyub쎯	-9.2324
yg0쎯hjrr쎯	-9.23248
oytr0쎯	-9.23251
veks쎯ks0쎯	-9.2326
ik2쎯	-9.2331
kb0쎯ykok0쎯	-9.23383
fk0쎯	-9.23412
hapi0쎯qni0쎯tc1쎯	-9.23466
wc0쎯lll쎯fhbu0쎯	-9.23468
dbu쎯edi0쎯	-9.23622
hey쎯	-9.23663
,jp쎯	-9.23686
lwu0쎯ivhjr쎯	-9.2369
vmsu0쎯	-9.23733
vlok쎯tims쎯	-9.23773
esp0쎯	-9.23776
lwu0쎯ifbhu쎯ir0쎯	-9.23887
ddd0쎯	-9.23911
qkdi쎯	-9.23923
wjr쎯	-9.23937
ksc쎯ci0쎯	-9.23974
ci0쎯tc0쎯	-9.24066
ymmi쎯bq쎯	-9.24073
ylw쎯	-9.24129
tdt0쎯	-9.24197
wdh쎯odm0쎯	-9.24244
k0쎯nc쎯	-9.24328
hsyhs0쎯gpd쎯yth쎯	-9.24427
srnl0쎯	-9.24475
qjv쎯arf0쎯	-9.24476
hamg쎯	-9.24513
grtr1쎯	-9.24615
vio0쎯dt0쎯,	-9.24639
teii0쎯	-9.24795
fbr0쎯	-9.248
slw0쎯	-9.24899
쎃쎃	-9.24953
ypvif쎯	-9.24978
ivtt쎯	-9.25004
mrt0쎯	-9.25039
쎂쎀쎀쎅oq0쎯	-9.25075
eff0쎯	-9.25122
,hshml쎯vio0쎯	-9.25232
qiks쎯	-9.25255
dyg쎯	-9.25259
,bmmc쎯kb0쎯	-9.25263
opbo0쎯	-9.25357
nnqo0쎯	-9.25522
vmyiu쎯ivj쎯	-9.25542
gcwa0쎯ksr쎯	-9.25563
bine쎯	-9.25593
rm	-9.2566
oop0쎯	-9.25689
yhgr0쎯	-9.25704
jr쎯oip0쎯	-9.25762
,nk0쎯	-9.25774
pr0쎯	-9.25846
tbg0쎯fdyj쎯	-9.2594
ohg쎯heks0쎯	-9.25959
ej0쎯	-9.25978
hhdi쎯	-9.2603
qhml0쎯	-9.26058
mboii0쎯	-9.26103
ikhhh쎯jkmvs쎯	-9.26171
awle쎯	-9.26277
emnr쎯jbtj쎯fhbu0쎯	-9.2631
gtje쎯	-9.26334
.쎂.	-9.26346
ytt0쎯hommn0쎯nn0쎯	-9.26464
efb0쎯lnbo쎯jka쎯	-9.2657
eij0쎯	-9.26571
qis쎯	-9.26589
hommn0쎯mmok쎯ddi쎯	-9.26708
lmbo0쎯	-9.26778
qmv쎯mgbhu쎯	-9.2679
bmui쎯	-9.26805
bsle0쎯lgyhv쎯	-9.26838
kqomn쎯oh쎯	-9.26878
hbln0쎯jmyo쎯	-9.26897
bsle0쎯heks0쎯.	-9.26909
쎆쎅	-9.26913
wk0쎯iksi쎯	-9.26959
za1쎯	-9.26987
hnlh0쎯	-9.27189
nlpou쎯	-9.27276
m쎯psh0쎯	-9.2729
mf0쎯bmr0쎯hapi0쎯	-9.27486
);	-9.27516
lp0쎯	-9.27635
nnqo0쎯qam쎯	-9.27645
ytt0쎯m쎯ylmh0쎯	-9.27685
vmvfd쎯vmjnk쎯	-9.27703
mr	-9.27709
tcg0쎯c쎯	-9.2773
khjka쎯	-9.27743
mrhwj쎯	-9.27913
ythu쎯rmher쎯	-9.27922
eeq0쎯	-9.27955
ivoj쎯	-9.27957
쎆쎄	-9.28016
nlgce쎯	-9.28078
emnr쎯lmp0쎯	-9.28101
mrmlk쎯hybt0쎯	-9.28195
-쎁	-9.28265
,bq쎯	-9.28326
jcor쎯	-9.28332
dyck0쎯wmmu0쎯	-9.28345
qlr쎯fbnd0쎯	-9.28352
iveq쎯	-9.28418
fcq0쎯hommn0쎯	-9.28454
grtr0쎯eno0쎯	-9.28479
crno0쎯	-9.2848
ydi0쎯hdrhg쎯l0쎯	-9.28512
yh쎯qhdw쎯	-9.28527
ymf0쎯amyo쎯	-9.28569
쎁ol1쎯	-9.28595
,pd0쎯amyo쎯	-9.28699
ddd0쎯dd쎯	-9.28815
ydhml0쎯ngmwm쎯	-9.2888
gdhe쎯	-9.28935
ph쎯hhmbo쎯	-9.28955
hdcru1쎯	-9.28966
dhn0쎯gnsh쎯	-9.29003
vmyk0쎯	-9.29043
nljmu쎯dyck0쎯	-9.29057
j쎯csh0쎯	-9.29061
hghu쎯ytt0쎯hapi0쎯	-9.29126
hapi0쎯o쎯	-9.29188
yhrr0쎯ije0쎯	-9.29212
nbshq쎯ysok쎯bkq쎯	-9.29265
nir쎯hdnf쎯	-9.29266
yihu0쎯csh0쎯	-9.2932
nini0쎯oq0쎯	-9.29405
wfqu0쎯	-9.29425
mcp0쎯	-9.29458
hru0쎯	-9.29461
oik0쎯	-9.29507
schne0쎯	-9.29515
vir쎯	-9.29542
sok0쎯tvmi2쎯	-9.29606
jcik쎯uu0쎯	-9.29641
hjwg쎯ik2쎯	-9.29718
wgf0쎯ikp0쎯em0쎯	-9.29723
dosu쎯	-9.29831
f	-9.29854
ohg쎯omnr쎯	-9.29921
ord0쎯qgdi쎯	-9.29957
ikhhh쎯	-9.29977
ayta쎯	-9.30006
gbo쎯	-9.3011
쎃쎄	-9.30222
dbln쎯	-9.30223
yh쎯ehio쎯	-9.30295
mt0쎯ysok쎯	-9.30319
lmp0쎯yrf0쎯ylb쎯	-9.30334
opj1쎯	-9.30367
za9쎯amyo쎯	-9.30395
raa쎯	-9.30413
her0쎯gpd쎯	-9.30417
qamo쎯uu0쎯	-9.30462
hqm쎯omrl쎯	-9.30575
qkhd0쎯	-9.30611
hlsa쎯	-9.30661
mbdi쎯	-9.30761
쎁i1쎯	-9.30801
hqphh쎯hjbo쎯	-9.30855
gbhn1쎯	-9.30922
hogdi쎯	-9.30948
wjr쎯jmyo쎯	-9.31056
takg쎯	-9.31119
goshr쎯ydi0쎯	-9.31276
fpru쎯	-9.31312
rc0쎯kb0쎯	-9.31319
ord0쎯ivmym쎯	-9.31349
mbrmr쎯	-9.3135
ivhjr쎯	-9.31456
쎂쎀쎀쎇oq0쎯	-9.31482
jksc쎯ivbgr쎯	-9.31507
ydhml0쎯hapi0쎯	-9.3167
ytap쎯k0쎯hdln0쎯	-9.31766
쎃쎉	-9.31767
iobo쎯	-9.31791
fbrhu쎯hdv쎯	-9.31821
nau0쎯bdhhh0쎯	-9.31907
ayrf0쎯ebhu0쎯	-9.31993
ymuo쎯	-9.32021
kd0쎯jbtj쎯	-9.32053
tjka0쎯	-9.32136
lgyhv쎯wljbm쎯	-9.32184
mjln쎯	-9.32233
쎄쎃	-9.32251
ydhml0쎯mng0쎯	-9.32326
on1쎯	-9.32328
opd0쎯hapi0쎯	-9.32408
nlnsp쎯	-9.3242
hapi0쎯yg0쎯mwv쎯	-9.32466
twdi0쎯	-9.32696
jyk쎯bq쎯	-9.32758
fhs쎯	-9.328
ivop0쎯gmmi쎯	-9.32841
ebnd쎯	-9.3299
ivsu쎯nmme0쎯	-9.33011
m	-9.33071
ytj0쎯	-9.33078
kd0쎯tjmu0쎯	-9.33106
od쎯lsd쎯	-9.33146
gpd쎯mgwg쎯	-9.33147
csh0쎯klb쎯	-9.33166
qobhu쎯dher쎯	-9.33214
wqs쎯	-9.33216
nsd0쎯	-9.33281
yrbr0쎯dyck0쎯	-9.33295
qhdw쎯ysok쎯	-9.3332
omjr쎯	-9.33348
쎄쎂	-9.33374
bkq쎯jlln쎯	-9.33422
qni0쎯hdln0쎯	-9.33458
dje0쎯	-9.3361
om0쎯	-9.33632
za0쎯	-9.33792
eyiu0쎯hommn0쎯	-9.33819
iksi쎯yg0쎯	-9.3384
ivj쎯hbut0쎯	-9.33879
dtak쎯	-9.3398
jjqs쎯wmgi쎯	-9.34011
hpsl0쎯sbln0쎯	-9.34036
ynj0쎯ydl쎯	-9.34062
omnn0쎯	-9.34092
hdb0쎯iln0쎯	-9.34163
omg0쎯bmi쎯	-9.3419
domm0쎯nmomm쎯	-9.34345
hdrhg쎯	-9.34383
쎄쎄	-9.34437
df0쎯	-9.34495
heks0쎯	-9.34597
mrmlk쎯	-9.3467
k0쎯amwg쎯	-9.3469
tm0쎯	-9.34727
vmvfd쎯	-9.34769
za9쎯.	-9.34776
ivhhi쎯	-9.34886
ebon쎯	-9.35016
qme쎯	-9.35078
,pd0쎯	-9.35107
oimbo0쎯hghu쎯	-9.35116
쎂ol1쎯	-9.35142
tknl1쎯	-9.35184
gytu0쎯	-9.35231
fjpu쎯	-9.35241
yk0쎯jnd0쎯	-9.353
sje0쎯hoami쎯	-9.35317
ihs0쎯vmqmo쎯	-9.35504
tcbt쎯	-9.35561
mm0쎯vmnhe쎯	-9.35564
qkq쎯	-9.35572
em0쎯mcw쎯	-9.35607
bau쎯	-9.35655
lmbo0쎯ilil쎯	-9.35699
eowy쎯etq0쎯	-9.35707
vmog쎯qis쎯	-9.35724
kmym쎯	-9.35836
fbnd0쎯mks1쎯	-9.3584
쎂쎀쎀쎄oq0쎯	-9.35914
ofp0쎯	-9.35966
nmme0쎯	-9.35978
amyo쎯klg0쎯	-9.36016
gpd쎯heo쎯	-9.36049
hdyj0쎯qje쎯k	-9.36062
yk0쎯jbik0쎯	-9.36081
jmam0쎯	-9.36133
쎉쎈	-9.36165
aisl쎯mnr쎯	-9.36187
hkll쎯	-9.36188
vmisb쎯bysm쎯	-9.36259
ino0쎯hmr0쎯	-9.36289
dkmym0쎯omr0쎯	-9.36316
qni0쎯bq쎯	-9.36466
nvolb쎯	-9.3647
mlm쎯ycbr0쎯	-9.36583
ivhne쎯yt0쎯	-9.36595
mgbhu쎯ohg쎯	-9.36597
mbo0쎯	-9.3661
nkhym쎯	-9.36615
hgdi쎯yhs쎯mwsl쎯	-9.36654
ibpp쎯emhf0쎯	-9.36673
g쎯gpd쎯	-9.3688
anau0쎯	-9.36886
ejmc0쎯uu0쎯	-9.36975
etq0쎯	-9.37022
yrbr0쎯l0쎯	-9.37096
goy쎯	-9.3712
mf0쎯mnr쎯	-9.37141
mlwk쎯ksr쎯	-9.37266
dkmym0쎯ol1쎯	-9.37445
bu	-9.37469
dm0쎯ids쎯	-9.375
wgf0쎯nau0쎯	-9.37543
yhj쎯	-9.37621
qamo쎯otc쎯nn0쎯	-9.37624
dkmym0쎯	-9.37627
omg0쎯ylb쎯	-9.3768
ord0쎯onkq쎯	-9.37712
qni0쎯lis쎯	-9.37715
dg0쎯	-9.37795
ids쎯ivsu쎯	-9.37838
tmd0쎯	-9.37924
tjka0쎯nir쎯hapi0쎯	-9.37995
dhhl쎯	-9.37996
es쎯	-9.38001
qgdi쎯	-9.38142
qnsh쎯	-9.38167
ylmo1쎯	-9.38197
hrok1쎯	-9.38247
boae쎯	-9.38249
hni0쎯	-9.38261
쎅쎆	-9.38296
elsg쎯	-9.38416
mlwk쎯nini0쎯	-9.38536
nahu쎯lnbo쎯	-9.38593
vio0쎯my쎯	-9.38692
ehgu쎯	-9.38851
oos쎯jka쎯:	-9.38898
ebhn쎯	-9.38918
qgg0쎯	-9.38919
,ihs0쎯iksi쎯	-9.38956
mvdh쎯	-9.38999
daiu쎯oinp0쎯	-9.3903
icmr쎯	-9.39061
smig쎯	-9.39091
uu0쎯r쎯	-9.39105
qytv0쎯bbe쎯	-9.39128
nyk쎯	-9.39171
ivjnk쎯jka쎯	-9.39227
nloll쎯hjhne쎯	-9.39252
hqgdi쎯phqm쎯	-9.39354
mylm쎯fbrlb쎯	-9.39409
hapi0쎯adi쎯olnk0쎯	-9.39419
쎄쎀쎀	-9.39465
hqm쎯,	-9.39474
쎈쎀쎀	-9.39503
sjtk쎯hvif쎯	-9.39523
vmbm0쎯nklq쎯	-9.39585
hdbu쎯	-9.39588
,mnr쎯vio0쎯	-9.39674
bodh쎯heks0쎯	-9.39703
oibi쎯	-9.39745
oinp0쎯	-9.39755
hnk0쎯ayrf0쎯	-9.39771
mgbhu쎯gnsh쎯	-9.39773
쎂쎀쎀쎃oq0쎯	-9.39775
kb0쎯tqbu쎯	-9.39817
mbo1쎯jbik0쎯	-9.39831
쎁쎉쎉쎅oq0쎯	-9.39939
dam0쎯	-9.39942
tgv쎯	-9.39989
ovio쎯	-9.40039
obmc쎯hvd쎯yrnl0쎯	-9.40061
qog0쎯ytt0쎯	-9.40159
edi0쎯md쎯	-9.4023
onkq쎯	-9.40231
ck0쎯	-9.40294
ff0쎯	-9.40323
wjbo쎯hopsh쎯	-9.40335
uu0쎯llhe쎯ifg쎯:	-9.40466
fdbm쎯	-9.40483
ino0쎯lsa쎯hapi0쎯	-9.40629
epru쎯	-9.40646
bpuk쎯	-9.40669
jaf0쎯	-9.40671
dher쎯ipm0쎯	-9.40742
ivmfj쎯ooll쎯	-9.40754
vhqm쎯	-9.40796
whey0쎯ids쎯	-9.40803
nu0쎯	-9.40807
id0쎯	-9.40936
jdok0쎯qbbe0쎯,	-9.40955
hshml쎯shlb0쎯	-9.41122
tbks0쎯	-9.41154
boyr0쎯	-9.41163
mgi1쎯ks0쎯	-9.41204
wg0쎯,	-9.41225
sjtk쎯abbt쎯	-9.41226
etmb쎯ryo0쎯	-9.41272
hwsmm쎯	-9.41317
nmyiu0쎯	-9.4143
tbd1쎯tkhk0쎯	-9.41482
jknd0쎯	-9.41488
klg0쎯l0쎯wmgi쎯	-9.41493
jmmu0쎯dkmym0쎯	-9.41525
yhjr쎯omr0쎯	-9.41616
hqmqj쎯	-9.4164
hhk쎯	-9.41715
쎂쎀쎀쎀oq0쎯	-9.41721
qmv쎯ejmc0쎯	-9.41725
jrmbo쎯	-9.41726
mrmt쎯jckn쎯l0쎯p쎯	-9.41765
bkln0쎯	-9.41793
mnr쎯ibpp쎯	-9.41827
jd0쎯dt0쎯	-9.41832
knib쎯	-9.41876
ha쎯nau0쎯	-9.41887
ebbb0쎯	-9.41917
mhaf0쎯fdyj쎯	-9.41929
za12쎯	-9.4193
miks0쎯kip0쎯	-9.4199
qhne0쎯oh쎯	-9.41994
hdfh쎯	-9.42057
oiku쎯qiks쎯	-9.4206
inkg쎯	-9.42154
ss0쎯	-9.42155
ejrb쎯jbtj쎯fhbu0쎯	-9.42167
nlodi쎯	-9.42171
mt0쎯ivke쎯sk0쎯	-9.42254
yce0쎯op0쎯	-9.42347
hdrc쎯	-9.42367
tnlh0쎯	-9.42397
omg0쎯ydhml0쎯	-9.42503
j	-9.42549
ffh0쎯	-9.42654
klnd쎯klg0쎯	-9.42774
ebcd쎯glll쎯	-9.42778
ob1쎯tbmo쎯jr쎯	-9.42825
imnsd쎯	-9.42845
aimvu쎯	-9.42871
sim쎯	-9.42883
rudi0쎯ejmc0쎯	-9.4294
&;	-9.42968
mrnr쎯	-9.43008
mfj0쎯gpim쎯	-9.43046
ota쎯	-9.43122
u쎯mcw쎯	-9.43229
ddi쎯rvp쎯	-9.43276
jlln쎯jrok쎯	-9.43292
mhaf0쎯boln0쎯	-9.43296
,boln0쎯	-9.43307
쎅쎂	-9.43318
lmik쎯kip0쎯	-9.43343
jjqs쎯	-9.43354
yfd쎯	-9.43408
eill쎯	-9.43453
twa쎯	-9.43468
ajpu쎯	-9.43578
ebcd쎯oh쎯	-9.43664
odg0쎯	-9.43683
afhhh쎯ifbhu쎯	-9.43707
tcb0쎯mjln쎯	-9.43763
ivff쎯	-9.43829
za9쎯za8쎯	-9.43928
n	-9.43945
iftq쎯	-9.44022
yhgr0쎯ihs0쎯	-9.44028
ivke쎯qbkq쎯	-9.44103
glnc쎯	-9.44111
hbu0쎯miks0쎯op0쎯	-9.44135
mk쎯elq쎯	-9.44212
쎄쎆	-9.44227
hhmbo쎯	-9.44229
쎁쎉쎉쎈oq0쎯	-9.44232
vmoo쎯	-9.44263
ophab쎯	-9.44347
ouln0쎯tc1쎯	-9.44499
,ldhe쎯	-9.44516
ob1쎯klnd쎯	-9.44519
nini0쎯ol1쎯	-9.44664
k0쎯jtco0쎯	-9.44739
fsm0쎯adi쎯	-9.44746
ivo쎯iksi쎯	-9.44785
kklb0쎯ybhg0쎯	-9.44819
ylmo1쎯gylm쎯	-9.44841
gpd쎯mbmmv쎯	-9.44954
nlheq쎯	-9.44967
jtcd쎯	-9.44967
fsm0쎯gpd쎯	-9.45095
eykl0쎯	-9.45117
yrbr0쎯ite쎯	-9.45141
ogd0쎯l0쎯	-9.45203
nmnim쎯	-9.45217
hodi쎯omr0쎯	-9.45263
mylm쎯klg0쎯	-9.45298
쎆쎆	-9.45393
stt쎯	-9.4549
whey0쎯llml쎯	-9.45521
nklq쎯ihs0쎯	-9.45645
nlodi쎯yhml쎯	-9.45724
mwln쎯ids쎯ivsu쎯	-9.45794
jdok0쎯yib쎯yrnl0쎯	-9.45801
hoav0쎯nini0쎯	-9.45812
p쎯mgwg쎯	-9.45825
kb0쎯dhn0쎯	-9.4587
qog0쎯uu0쎯	-9.45898
ivmfj쎯	-9.45931
lscru쎯ivjnk쎯	-9.45936
edi0쎯niy쎯	-9.45956
mmm쎯oq0쎯	-9.45976
bmmc쎯odm0쎯	-9.45987
tykq쎯	-9.46021
mk쎯my쎯	-9.46059
pkf0쎯oahe쎯	-9.46061
tc0쎯kb0쎯	-9.46077
mcw쎯yrnl0쎯	-9.46092
niy쎯mthhh쎯	-9.46129
nahu쎯	-9.4621
efb0쎯	-9.4627
qni0쎯tc1쎯hapi0쎯	-9.46336
m쎯oq0쎯	-9.46376
,l0쎯wmgi쎯	-9.46414
.za2쎯	-9.46419
ichui쎯	-9.46444
.za3쎯za8쎯	-9.46445
mmu0쎯qmvif쎯	-9.46491
o쎯hqm쎯	-9.46532
ihs0쎯dm0쎯	-9.46692
nbo쎯	-9.46699
tcg0쎯mruu쎯ym0쎯	-9.46844
jcmvh쎯	-9.46903
jmyo쎯oyt쎯	-9.47098
sok0쎯llmb쎯	-9.47129
niy쎯ebhu0쎯	-9.47214
qje쎯ibpp쎯	-9.47283
,mbll쎯bm0쎯	-9.47342
ytumb쎯r쎯	-9.47391
쎈쎈	-9.47436
qog0쎯miks0쎯	-9.47467
yg0쎯aombo쎯	-9.47476
쎉쎉	-9.4754
niy쎯hdyj0쎯	-9.47549
쎄쎇	-9.47679
oylm0쎯tc1쎯.	-9.47692
osu쎯	-9.47783
nl0쎯ytt0쎯	-9.47794
,wk0쎯ymp0쎯	-9.47884
ysohv쎯	-9.47903
qmbo0쎯ohg쎯	-9.47958
eatc쎯	-9.48088
mgmmu쎯	-9.48094
yhjr쎯bq쎯md쎯	-9.48124
nklq쎯yt0쎯nn0쎯	-9.48246
,hmr0쎯	-9.48323
mgoin0쎯	-9.48382
vmisb쎯hbln0쎯	-9.48465
.mgbhu쎯ohg쎯	-9.48474
mr0쎯elw쎯	-9.48785
쎂쎀쎁쎁oq0쎯	-9.48857
ytt0쎯r쎯	-9.48945
qnbk1쎯	-9.48976
ynib쎯ivnj쎯	-9.48985
o쎯odm0쎯	-9.49058
trok0쎯	-9.49173
쎁쎉쎉쎇oq0쎯	-9.4919
hnlh0쎯wc0쎯	-9.49202
v쎯phqm쎯	-9.49316
imyrf쎯	-9.49409
dgg쎯	-9.49557
pd0쎯.	-9.49587
hpsl0쎯ite쎯	-9.4963
,pru쎯qhjr쎯	-9.49648
kt0쎯	-9.49653
쎂쎀쎀쎂oq0쎯	-9.49678
emnr쎯lmp0쎯fhbu0쎯	-9.49705
ubk쎯	-9.4971
v쎯nd0쎯	-9.49736
odyj쎯	-9.49873
gpd쎯mgije쎯	-9.49999
ivihs쎯	-9.50002
yhmbo1쎯nau0쎯	-9.50103
oprob쎯	-9.50132
mok0쎯qu0쎯	-9.50137
hbln0쎯rrr0쎯	-9.5015
nlo쎯omdm0쎯	-9.50174
suok0쎯yce0쎯	-9.50264
쎁쎉쎉쎆oq0쎯	-9.50324
efb0쎯lnbo쎯	-9.50327
쎄-	-9.50374
쎁쎀b쎯	-9.5041
쎁쎉쎉쎂oq0쎯	-9.50412
qsje0쎯onao쎯yk1쎯	-9.50428
bmi쎯hdv쎯	-9.50455
qbcd쎯jbvif0쎯	-9.50519
nmp0쎯	-9.50519
mwsu쎯wljbm쎯	-9.50566
fbrq쎯qsmg0쎯	-9.5059
쎅쎈	-9.50654
hvhui쎯	-9.5072
fbrq쎯	-9.50762
bkq쎯sk0쎯	-9.50796
oqni쎯kqomn쎯	-9.5084
ftmd쎯	-9.50848
opijb쎯	-9.50849
za11쎯	-9.51044
oimbo0쎯	-9.51059
miks0쎯ks0쎯	-9.51084
fvok쎯amwg쎯	-9.51091
nir쎯hdnf쎯:	-9.51099
ybyhs쎯	-9.51159
qjcm쎯	-9.51278
mf1쎯	-9.5128
-쎂	-9.51343
phqm쎯hapi0쎯	-9.51471
eite쎯	-9.51513
omr0쎯ihs0쎯	-9.51518
nc쎯sk0쎯	-9.5154
rudi0쎯	-9.51542
쎆b쎯	-9.51544
fdqmb쎯rrr0쎯	-9.51559
crp0쎯vmnom쎯mgwg쎯	-9.51562
,yyk쎯	-9.51588
쎅쎁	-9.516
uuhn쎯	-9.5161
쎄쎉	-9.5163
fbbhu쎯	-9.51669
쎈쎅	-9.51692
쎁쎅쎀	-9.51722
mwhoe쎯tgbt쎯	-9.51736
쎃쎁	-9.51743
mcw쎯jv0쎯	-9.51747
ivrc쎯	-9.51748
yhmbo0쎯yioj0쎯	-9.51755
bmks0쎯	-9.52026
qbcd쎯	-9.52034
쎁쎉쎉쎉oq0쎯	-9.52045
tk1쎯	-9.52049
eijb쎯	-9.52151
vmog쎯olhh0쎯	-9.52209
.jp쎯	-9.52214
ejjb쎯	-9.52277
eapp0쎯omr0쎯	-9.52325
qni0쎯kqrsj쎯	-9.52384
쎃ol1쎯	-9.52388
ggcw쎯	-9.5239
bodh쎯mmok쎯	-9.52496
쎁쎉쎉쎄oq0쎯	-9.52506
whey0쎯ids쎯nvjrr쎯	-9.52509
csh0쎯ommi0쎯	-9.52571
iksi쎯za2쎯	-9.52572
hdnd0쎯	-9.52593
thbu0쎯imno0쎯	-9.52669
tlpf0쎯	-9.52674
oyrn쎯	-9.52734
qni0쎯hdyj0쎯	-9.52837
mblmi0쎯	-9.52931
dyhn쎯ilil쎯	-9.52951
asje쎯ogg0쎯	-9.52966
쎅b쎯	-9.53182
jbtj쎯yrnl0쎯	-9.53201
k0쎯ythu쎯	-9.53232
ivik쎯	-9.53365
쎄ol1쎯	-9.53384
yrbr0쎯ykok0쎯	-9.53405
qsjr쎯	-9.53407
hdr0쎯ifg쎯ommi0쎯	-9.53415
,ivyvo쎯	-9.53437
top0쎯wmmu0쎯	-9.53444
쎇쎂	-9.53465
yk0쎯ytaj0쎯	-9.53467
쎈b쎯	-9.53487
qjnl0쎯	-9.53521
ol0쎯	-9.53529
hbu0쎯bkf0쎯ddi쎯	-9.53567
hui0쎯	-9.53586
2쎯	-9.53679
heo쎯mgwg쎯rrikr쎯	-9.53763
pumbo쎯	-9.53777
jbmc0쎯mylm쎯	-9.53876
qha0쎯	-9.53888
쎅쎄	-9.5392
hdnin0쎯	-9.53931
bbm0쎯	-9.53941
mhaf0쎯mgwg쎯	-9.53965
onhs쎯	-9.53982
tk0쎯eyg0쎯	-9.54035
yhrr0쎯	-9.54049
tbc0쎯	-9.54081
nbshq쎯ysok쎯	-9.54084
kqjqr쎯	-9.54113
hxh쎯odm0쎯	-9.54157
lwu0쎯mgi1쎯	-9.54198
iinl0쎯	-9.54255
쎃.	-9.54272
mmm쎯ahqm0쎯	-9.54288
qmmv쎯	-9.54337
hapi0쎯mks1쎯lk쎯	-9.54362
mku쎯egi쎯	-9.54374
crp0쎯yrnl0쎯	-9.54642
hbut0쎯	-9.54663
ogd0쎯odm0쎯	-9.54692
ynib쎯fbrlb쎯	-9.54711
md쎯m쎯odm0쎯hapi0쎯	-9.54715
쎁쎉쎉쎀oq0쎯	-9.5475
ejmc0쎯	-9.54763
fbnd0쎯oyt쎯	-9.54815
mpylm쎯rrikr쎯	-9.5487
ksc쎯jlln쎯heo쎯	-9.54896
rpym쎯	-9.55009
tmmv0쎯	-9.55022
bopi쎯hqphh쎯	-9.55041
ihs0쎯yfiku0쎯	-9.55064
mwsl쎯hbr0쎯	-9.55288
tjblb0쎯dt0쎯	-9.55294
mnij쎯	-9.55392
tw0쎯	-9.55412
tniu쎯	-9.55418
oymr쎯hup0쎯op0쎯	-9.55459
honom쎯	-9.55485
hdi0쎯	-9.55599
jnyk쎯	-9.55701
mgwg쎯oinp0쎯,	-9.55721
쎁쎀쎀쎀	-9.55766
eapp0쎯	-9.55798
nomrt0쎯ivsu쎯	-9.55803
hjwg쎯ydhml0쎯	-9.5584
vmm0쎯nau0쎯	-9.55894
nini0쎯vtmd쎯odm0쎯	-9.55896
odm0쎯nmomm쎯	-9.55919
bodh쎯	-9.55938
mgnvm쎯	-9.55946
smwtc0쎯	-9.55946
oinr쎯amwg쎯	-9.55987
,wk0쎯	-9.55992
tgk쎯jcor쎯	-9.56003
iive쎯	-9.56004
nlpou쎯iomvn쎯	-9.5603
u쎯sk0쎯	-9.56091
j쎯mm0쎯	-9.56166
ejmc0쎯rbo0쎯	-9.56178
qshr쎯	-9.56318
no2쎯dhn0쎯	-9.56325
od쎯	-9.56389
mlm쎯mh0쎯	-9.56504
mf0쎯amyo쎯	-9.56517
llp쎯jka쎯	-9.56567
tvmi2쎯hqphh쎯	-9.56573
,asje쎯vmhey쎯	-9.56602
inin0쎯	-9.56762
kd0쎯mcw쎯	-9.56771
ommi0쎯rbo0쎯,	-9.56773
iib0쎯	-9.56778
ydnl0쎯	-9.56832
qpa0쎯qbkq쎯	-9.56833
ks0쎯iobo쎯emhf0쎯	-9.57007
ocwa쎯	-9.57036
mlm쎯oos쎯hapi0쎯	-9.57071
tmks0쎯	-9.57114
hvio0쎯	-9.57149
i1쎯l0쎯wmgi쎯	-9.57216
ihs0쎯janl쎯	-9.57315
omu0쎯	-9.57339
ivke쎯hhdi쎯	-9.57347
wmgi쎯niy쎯	-9.57361
adi쎯lsa쎯:	-9.57381
nlkt쎯mcw쎯	-9.57385
쎆쎈	-9.57488
.lw쎯md쎯	-9.57579
ieok0쎯	-9.57656
smsim쎯	-9.57679
bmr0쎯gp0쎯	-9.577
yrnd쎯bbe쎯	-9.57715
hew쎯	-9.57727
miks0쎯muw쎯	-9.57727
okm쎯	-9.5773
yhjr쎯ifm쎯	-9.57755
limy쎯	-9.5786
k0쎯llmb쎯	-9.57911
hdfb0쎯	-9.57916
yk0쎯hqphh쎯	-9.57936
.쎂i1쎯	-9.57972
(쎁)	-9.57989
klg0쎯vmij0쎯	-9.5805
vio0쎯za2쎯	-9.58098
,ynib쎯ydi0쎯	-9.58128
jyk쎯hommn0쎯	-9.58171
ks0쎯amwg쎯	-9.58172
yri0쎯yj0쎯	-9.58204
mumbo0쎯lsr0쎯	-9.58211
ykok0쎯	-9.58217
em0쎯mcw쎯fhbu0쎯	-9.5826
qgdi쎯vmjnk쎯	-9.58319
dhe0쎯bqo쎯	-9.5832
wmgi쎯rvp쎯fbrhu쎯	-9.58336
hup0쎯	-9.58395
dbu쎯mvnm0쎯	-9.58419
vfh쎯	-9.58464
(쎂)	-9.58489
hhqu쎯ivsu쎯dm0쎯	-9.58509
jcm쎯omn1쎯	-9.58515
dtq쎯	-9.58517
ndyvo쎯nd0쎯	-9.58565
mrqni쎯	-9.5858
wllmy쎯	-9.58698
qs쎯	-9.58715
sjr0쎯oyg쎯	-9.58749
ivihs쎯oymr쎯	-9.58752
l0쎯yk0쎯nir쎯:	-9.58803
jki쎯	-9.58842
ivbgr쎯tsl쎯	-9.58851
mgykg쎯	-9.58861
bb0쎯ke0쎯	-9.58874
쎈쎆	-9.58921
쎁쎉쎉쎃oq0쎯	-9.59147
ihs0쎯po0쎯	-9.59173
ykok0쎯yioj0쎯	-9.59181
mf0쎯oe0쎯	-9.59184
쎅쎇	-9.59215
mok0쎯	-9.59222
ei1쎯srln0쎯	-9.59317
bmj쎯	-9.59338
dmj쎯	-9.59388
vmhj쎯vmog쎯	-9.59436
tkymr쎯	-9.59463
yhgr0쎯mng0쎯	-9.59508
joma쎯	-9.59509
csh0쎯ci0쎯smr쎯	-9.59573
eeed0쎯	-9.5961
qi1쎯k0쎯	-9.5964
,oo0쎯mbll쎯	-9.59695
쎁쎉쎈쎆oq0쎯	-9.59731
vir쎯vmhey쎯	-9.59844
gytu0쎯ob1쎯	-9.59907
yg0쎯vmisb쎯	-9.60002
쎅쎉	-9.60032
levif쎯	-9.60063
ls	-9.60071
sjtk쎯omr0쎯ommi0쎯	-9.60082
ysono0쎯	-9.60141
ykok0쎯tcbt쎯	-9.60141
hnk0쎯nlomm쎯	-9.60145
mfp0쎯	-9.60153
mwmmf0쎯	-9.60166
yib쎯	-9.60169
o쎯jm0쎯	-9.60212
s쎯	-9.60218
jmd쎯	-9.60256
hdr0쎯ivppa쎯	-9.60278
hvd쎯nlo쎯	-9.60343
lsher쎯	-9.60353
ocsh쎯	-9.60366
kklb0쎯	-9.60411
nklq쎯ivik쎯	-9.60459
ddh쎯	-9.60509
ivtq쎯vmw쎯	-9.60518
,bkf0쎯hmr0쎯	-9.60575
pyrf쎯	-9.60591
eowy쎯bkq쎯	-9.60653
yrbo0쎯	-9.60716
ym0쎯,	-9.60727
ksc쎯egi쎯	-9.60767
imihr0쎯	-9.60769
ksc쎯fbnd0쎯	-9.60769
쎉쎆	-9.60893
vmyiu쎯	-9.60927
ci0쎯mt0쎯	-9.60945
pd0쎯kb0쎯	-9.6095
opaph쎯	-9.61006
쎁쎂쎀	-9.61122
lmp0쎯yrnl0쎯	-9.61143
klg0쎯lmp0쎯yrf0쎯	-9.61242
cwmr쎯	-9.61276
ixp쎯	-9.61311
bmui쎯bkq쎯	-9.61312
iobo쎯dher쎯	-9.61343
hapi0쎯tcg0쎯dm0쎯	-9.61393
hrytj0쎯	-9.61397
-쎃	-9.61519
pmam0쎯	-9.61577
쎉쎅	-9.61589
wb0쎯	-9.61623
mgwg쎯jlln쎯	-9.61632
jlln쎯heks0쎯	-9.61665
mrmt쎯	-9.61667
yhds쎯	-9.6167
mgmmu쎯jmso쎯	-9.61709
jmmf0쎯jdok0쎯	-9.61724
oqs쎯	-9.61735
ivohh쎯vdhml쎯	-9.61761
mk쎯bkf0쎯	-9.61795
ivhne쎯ivj쎯i1쎯	-9.61881
mrmt쎯jckn쎯rbo0쎯	-9.61953
sjrc0쎯ibpp쎯	-9.62008
mku쎯vmij0쎯	-9.62078
wmmu0쎯dd쎯	-9.62086
hommn0쎯miks0쎯	-9.62109
my쎯,	-9.62222
hjwg쎯mwv쎯hapi0쎯	-9.62238
rnhe0쎯	-9.62275
쎂쎀쎁쎀	-9.62278
&	-9.62279
otniq쎯rmbhx쎯	-9.62327
nnmbo0쎯	-9.62329
oyg쎯jhp쎯	-9.62345
m쎯oyt쎯	-9.62365
jkp0쎯llmb쎯	-9.62459
janl쎯kb0쎯	-9.62544
vwyi쎯	-9.62548
dfsm쎯jvd쎯	-9.62552
ttmvn쎯	-9.62562
,hqi0쎯olis쎯	-9.62603
nlyhs쎯eir쎯	-9.62668
opyhv0쎯	-9.6267
oj0쎯hi0쎯	-9.62695
bmwv쎯	-9.62714
yhs쎯mwsl쎯hapi0쎯	-9.62724
iobo쎯ivnj쎯	-9.62733
,tt1쎯bm0쎯	-9.62757
hapi0쎯yth쎯rrr0쎯	-9.62757
mtch쎯dher쎯	-9.62811
tjgg쎯	-9.62823
쎁.쎅	-9.62831
gpim쎯pim쎯	-9.62847
it0쎯	-9.62893
hjrr쎯mgwg쎯i1쎯	-9.62919
ysotc쎯my쎯	-9.63098
rmlmo쎯	-9.63149
amyo쎯mfr쎯	-9.63152
buvml0쎯	-9.63159
rr0쎯	-9.63205
쎁쎉쎉쎁oq0쎯	-9.63216
mrno0쎯q쎯	-9.63266
쎄b쎯	-9.63318
gpd쎯my쎯	-9.63355
쎂쎀쎀쎁oq0쎯	-9.63364
jksc쎯ivik쎯	-9.63438
q쎯id1쎯	-9.63443
m쎯dtq쎯	-9.63487
yvi0쎯	-9.63526
tjka0쎯oos쎯	-9.63572
ord0쎯klnd쎯	-9.63574
mthhh쎯kip0쎯	-9.63584
oos쎯yri0쎯	-9.63596
rmkms쎯	-9.63659
omg0쎯ddi쎯	-9.63661
nc쎯vmbm0쎯	-9.63677
hwsmm쎯iveq쎯	-9.637
ayrf0쎯sk0쎯	-9.63757
tsl쎯ibpp쎯	-9.63776
bl쎯khhw쎯	-9.63821
moob쎯hdl0쎯	-9.63886
,qbq쎯kb0쎯	-9.63904
nlmrb0쎯	-9.63912
su0쎯	-9.63939
holq쎯	-9.63947
hooml쎯	-9.64037
gmmi쎯	-9.6404
hgr0쎯	-9.64083
gihs쎯sk0쎯	-9.64158
ddnyo쎯	-9.64178
dpi1쎯ihs0쎯	-9.64188
suok0쎯yhgr0쎯	-9.64287
pt0쎯woll0쎯ym0쎯	-9.64317
쎆쎂	-9.64327
ylnc쎯oos쎯za2쎯	-9.64365
pd0쎯.za3쎯	-9.64377
owyi0쎯ol1쎯	-9.64381
w	-9.64434
lic0쎯jmyo쎯	-9.64488
hlsa쎯cwj0쎯	-9.64503
hdrhg쎯ite쎯	-9.64567
mwsu쎯ohq쎯	-9.64581
opmo쎯	-9.6461
ecr쎯	-9.64658
libt0쎯ebon쎯	-9.64679
opykq쎯	-9.64701
jcor쎯amwg쎯	-9.64722
쎁쎉쎈쎈oq0쎯	-9.6478
skno쎯	-9.64781
hgdi쎯gpd쎯	-9.64786
,mgb0쎯	-9.64902
dkd쎯	-9.64929
mrfh쎯	-9.64937
ouln0쎯ksc쎯	-9.64953
hqm쎯po0쎯	-9.65008
mwsu쎯omr0쎯	-9.6506
qu1쎯	-9.6509
vio0쎯hmr0쎯	-9.65118
ywlb쎯	-9.65176
ytrhu쎯nsd0쎯	-9.6539
nir쎯.	-9.65467
쎁쎉쎈쎉oq0쎯	-9.65538
:쎁	-9.65554
ora0쎯qjsmp쎯	-9.65563
wmmu0쎯sk0쎯	-9.65586
쎁쎉쎈쎅oq0쎯	-9.65635
wmgi쎯rvp쎯	-9.65644
hgrly쎯	-9.65651
쎁쎁b쎯	-9.65669
qhdw쎯	-9.65715
mlwk쎯nir쎯iksi쎯	-9.65768
omdm0쎯	-9.65804
mrnbg쎯jmyo쎯	-9.65851
jiwtc쎯	-9.65859
amyo쎯vio0쎯	-9.6586
lwu0쎯rrikr쎯	-9.65913
hjrr쎯mgwg쎯ssr쎯	-9.65994
edi0쎯napo쎯	-9.66072
mmf0쎯	-9.66085
jomc쎯	-9.66095
zxan쎯	-9.66147
ys0쎯	-9.66244
qytv0쎯nblmi쎯	-9.66278
tyhs쎯	-9.66305
owyi0쎯oq0쎯	-9.66313
hapi0쎯nc쎯	-9.66351
odi0쎯	-9.66353
oqni쎯ivcru쎯	-9.66405
nhe쎯adi쎯	-9.66426
jmig쎯ob1쎯	-9.66518
jmso쎯bmmc쎯	-9.66632
쎅쎃	-9.66637
dtak쎯qvio쎯	-9.66653
m쎯jmyo쎯	-9.66703
mwowy0쎯	-9.66737
ogf0쎯	-9.66761
tcg0쎯md쎯	-9.66781
imog쎯hew쎯	-9.66794
muw쎯jmso쎯	-9.6684
k0쎯jmso쎯	-9.66865
hnlh0쎯m쎯ol1쎯	-9.66898
whey0쎯onao쎯	-9.66932
vir쎯nklq쎯md쎯	-9.66935
imog쎯	-9.66963
opta쎯	-9.67022
irp0쎯end0쎯	-9.67034
ivsu쎯jka쎯	-9.67036
heks0쎯nljmu쎯	-9.67093
u쎯mcw쎯fhbu0쎯	-9.67112
oll쎯vmshr0쎯nn0쎯	-9.6714
hyyhn쎯	-9.67145
ymmi쎯miks0쎯rbo0쎯	-9.67146
ylb쎯mmok쎯iodi쎯	-9.67222
oiku쎯op0쎯	-9.67264
mnyhv0쎯	-9.6727
mmm쎯k0쎯	-9.67287
rmav쎯	-9.67287
thbu0쎯slw0쎯	-9.67364
m쎯hed0쎯	-9.67379
mgbhu쎯jyk쎯	-9.67397
ivtca쎯	-9.67475
ydhml0쎯qje쎯id1쎯	-9.675
egi쎯qobhu쎯	-9.67607
opj1쎯edi0쎯	-9.67706
dtak쎯mng0쎯	-9.67707
ehgu쎯imnsd쎯	-9.67709
vmkvc쎯	-9.67738
lis쎯is0쎯	-9.67764
ontq쎯	-9.67775
l0쎯yrnl0쎯	-9.67788
llhe쎯dm0쎯	-9.67884
iobo쎯dm0쎯	-9.67897
쎁쎉쎈쎄oq0쎯	-9.67984
asje쎯vmhey쎯	-9.68034
smdi쎯	-9.68076
ab0쎯atc0쎯	-9.68082
l0쎯wmgi쎯hdyj0쎯	-9.68105
ivmfj쎯ojr쎯	-9.68137
mbmmv쎯	-9.68173
lne0쎯	-9.68198
hapi0쎯ydhml0쎯	-9.68208
rjto0쎯	-9.68275
oqni쎯vtmd쎯	-9.68276
mwyrd쎯	-9.68284
nolmi0쎯	-9.68295
rvp쎯wmgi쎯	-9.68412
qyhn쎯a0쎯	-9.68434
,ivym쎯	-9.68439
viks0쎯lu0쎯wmmu0쎯	-9.68445
dhab쎯	-9.68463
yv쎯	-9.68475
mrnvm쎯	-9.68489
jyk쎯ks0쎯	-9.6849
atc0쎯tjka0쎯	-9.68603
hbu0쎯yg0쎯	-9.68617
jibi쎯libhu0쎯	-9.68706
kq0쎯kqmob쎯	-9.68731
opnkq쎯	-9.68735
omr0쎯tt1쎯	-9.68738
rnhe0쎯vlok쎯	-9.68739
fh쎯fvok쎯	-9.68783
mt0쎯qmr쎯	-9.68821
uu0쎯hqm쎯	-9.68847
rlmi쎯	-9.68858
yrbr0쎯hdyj0쎯qje쎯	-9.68877
tnom쎯	-9.68951
hsr1쎯miks0쎯	-9.68954
ymso0쎯ekql쎯	-9.68993
vr쎯wd0쎯	-9.69037
쎃-	-9.69076
쎁-	-9.69107
ouln0쎯ytap쎯	-9.69146
쎂-	-9.69241
empm쎯	-9.69308
qsle쎯ythu쎯	-9.6932
asje쎯bmmc쎯	-9.6933
lbmrw쎯	-9.69336
heo쎯md쎯	-9.69346
kd0쎯yrnl0쎯	-9.69353
dlmo0쎯	-9.69357
nrli쎯ite쎯	-9.69368
hapi0쎯hqm쎯ehjr쎯	-9.69393
qbbe0쎯	-9.69433
yapim쎯	-9.69436
o쎯mlm쎯	-9.69436
ivyhs쎯lsr0쎯	-9.69504
nnmbo0쎯nlyhs쎯	-9.69563
mryoj쎯	-9.69587
yg0쎯itlb쎯	-9.69654
opnkq쎯hybt0쎯	-9.69751
ohnb0쎯	-9.69837
m쎯jmso쎯	-9.69854
my쎯jikq쎯	-9.69899
쎂쎀쎁쎂oq0쎯	-9.69916
suok0쎯tgtr쎯	-9.69935
mvnm0쎯miks0쎯	-9.69988
tyvu0쎯	-9.7012
lsoi쎯	-9.70147
ylb쎯hdv쎯	-9.70168
n쎯	-9.70236
hdv쎯rbo0쎯,	-9.70275
쎉b쎯	-9.70291
hnlh0쎯m쎯imno0쎯	-9.70309
qkni0쎯	-9.70501
tesu쎯	-9.70516
dok0쎯	-9.70545
쎇쎆	-9.70546
쎆쎃	-9.70605
ykq0쎯opfbo쎯	-9.70711
쎆쎉	-9.70749
쎅%	-9.70772
쎂.쎀	-9.70833
ehbv쎯	-9.70863
mmf0쎯tesu쎯	-9.70889
tpkp쎯	-9.70975
i0쎯	-9.70989
ihs0쎯yif0쎯	-9.70994
):	-9.71008
qog0쎯tkld쎯	-9.71091
eawe쎯muw쎯	-9.71093
k0쎯nlqu쎯	-9.71121
bgr0쎯yks쎯	-9.71131
mng0쎯rmvs쎯	-9.7121
iksi쎯yg0쎯,	-9.71229
orbt쎯	-9.71269
mre1쎯	-9.71286
eylh0쎯nhe쎯	-9.7136
vmhey쎯	-9.7137
emms0쎯end0쎯	-9.71374
ivmym쎯fqsh쎯	-9.71475
owlb쎯	-9.7148
hbu0쎯hxh쎯	-9.71486
oudk쎯	-9.71492
jksc쎯	-9.71624
jomc쎯nvjrr쎯	-9.71634
bbke쎯pqmb쎯	-9.71662
dhn0쎯hbln0쎯	-9.71676
onf0쎯hapi0쎯	-9.71685
sjrc0쎯hdnf쎯	-9.71731
icq0쎯	-9.71732
jbik0쎯	-9.71791
yhjr쎯bq쎯	-9.71851
yhmbo0쎯ythu쎯	-9.7191
m쎯nir쎯	-9.71928
ogpym쎯	-9.71973
hogyo쎯	-9.71982
eyg0쎯ytap쎯	-9.72007
gcwa0쎯nrli쎯	-9.72009
goru쎯dt0쎯	-9.72091
bmi쎯gihs쎯	-9.72117
쎄쎁	-9.72135
opfbo쎯	-9.72165
,owyi0쎯	-9.72228
asje쎯aj0쎯	-9.7223
쎄.	-9.72254
ihs0쎯csh0쎯	-9.72254
hrtm0쎯	-9.7229
ivmfj쎯iksi쎯	-9.72326
hapi0쎯k0쎯mng0쎯	-9.72365
bkq쎯nlo쎯	-9.72461
eycv1쎯	-9.72491
huwml쎯	-9.72499
vmnme쎯op0쎯	-9.7261
l0쎯lsa쎯	-9.72682
,vpd쎯	-9.72737
쎁쎉쎈쎇oq0쎯	-9.72737
fg1쎯	-9.72928
he0쎯albk0쎯	-9.72931
hsr1쎯	-9.73012
qpa0쎯dmmf0쎯	-9.73056
iln0쎯	-9.7306
romr0쎯nf0쎯ejoc쎯	-9.73081
쎇쎈	-9.73128
toll0쎯mnjbm0쎯	-9.73259
pu0쎯	-9.73283
tcru0쎯	-9.73302
wc0쎯ol1쎯	-9.73309
bnsh쎯	-9.73349
ykmbl쎯	-9.7336
nvhe쎯	-9.73395
bjb쎯	-9.73397
쎃oq0쎯	-9.73446
jlwl0쎯ivj쎯	-9.73465
ocor쎯	-9.73629
쎂.쎅	-9.73649
elq쎯	-9.73664
,mgbhu쎯	-9.7369
eomd0쎯	-9.73712
vnd쎯hapi0쎯	-9.73712
oahe쎯omr0쎯	-9.73771
.oo0쎯	-9.73813
oj0쎯	-9.73852
psh0쎯ihs0쎯	-9.73956
hdnf쎯rmvs쎯	-9.7396
lsd쎯	-9.74005
fmu쎯fbnd0쎯	-9.74049
gcglc쎯	-9.74052
elbu쎯	-9.74129
mm0쎯hgdi쎯lnk0쎯	-9.74187
brog0쎯	-9.74206
omr0쎯mgwg쎯	-9.74213
yhjr쎯amwg쎯	-9.74311
nhd쎯	-9.74353
.za3쎯(쎂).	-9.74377
yrbr0쎯ydhml0쎯	-9.74452
her0쎯mmbo쎯	-9.74459
opfb쎯	-9.74517
zxao쎯	-9.7454
wk0쎯qmvif쎯	-9.74547
dtak쎯bmmc쎯	-9.74547
hohju쎯mgmf0쎯	-9.74558
aaa0쎯	-9.7456
쎂b쎯	-9.74568
mgln0쎯nn0쎯	-9.7461
kok쎯	-9.74623
domm0쎯	-9.74631
쎂쎀pt0쎯vmsu0쎯	-9.747
(),	-9.74747
yylc쎯	-9.74748
hdeq쎯	-9.7476
nlykb1쎯tqbu쎯	-9.74771
dha쎯	-9.74798
hjwg쎯amwg쎯	-9.74809
tbg0쎯	-9.7482
gcwa0쎯po0쎯	-9.74836
po0쎯em0쎯	-9.74864
bkk쎯ym0쎯	-9.74891
ashr쎯	-9.74899
tnmu쎯tbd0쎯	-9.74925
mrdhe쎯gmf0쎯	-9.74943
jher쎯hsyhs0쎯	-9.74996
lwl0쎯ivqmb쎯	-9.75109
lgyhv쎯olhh0쎯	-9.75181
viks0쎯	-9.75216
kqyck쎯yrbr0쎯	-9.75314
oprr쎯	-9.75315
-쎈	-9.75325
m쎯yrnl0쎯	-9.75337
tksc쎯ilil쎯	-9.7535
tnef쎯	-9.75382
hnlh0쎯쎂	-9.75393
tosu0쎯	-9.754
.ymp0쎯	-9.75432
qdtt쎯gpd쎯	-9.75432
mamr쎯	-9.75438
mgbhu쎯napo쎯	-9.75478
fbrlb쎯bhu0쎯	-9.75504
쎂쎀쎀쎈	-9.75505
qbbe0쎯ninn쎯	-9.75562
dhn0쎯i1쎯	-9.75565
wmgi쎯kb0쎯	-9.75581
dbu쎯fsm0쎯	-9.75714
dh쎯ibpp쎯	-9.75758
lwu0쎯omn1쎯	-9.75766
쎆쎇	-9.75806
mbmbl0쎯	-9.75808
ivgdi쎯o쎯	-9.75812
lnmcw쎯	-9.75842
vvh쎯opjbc쎯	-9.75869
×	-9.75881
hbu0쎯hqi0쎯	-9.75955
o쎯rvp쎯oip0쎯qmv쎯	-9.75968
쎇쎇	-9.75977
ivlll쎯	-9.76099
tbd1쎯fcymr쎯	-9.76113
쎂쎀쎀쎇	-9.76274
,yfiku0쎯	-9.76301
fdiav쎯	-9.76337
쎁b쎯	-9.76403
gnsh쎯hshml쎯	-9.76408
쎁쎂b쎯	-9.76593
jmmu0쎯	-9.7661
smmi0쎯imno0쎯	-9.76617
,vmnom쎯	-9.76646
fvok쎯mrnvm쎯	-9.76658
omn1쎯olnk0쎯	-9.76665
k0쎯fbnd0쎯hqm쎯	-9.76726
nmsk쎯miks0쎯	-9.7681
.bu0쎯tbln0쎯	-9.76815
ynn0쎯jmn쎯	-9.76851
mbll쎯mf0쎯	-9.76888
edoe쎯	-9.76924
ynn0쎯jmn쎯fhbu0쎯	-9.76954
jbmm0쎯shlb0쎯	-9.7696
rvp쎯yg0쎯	-9.76993
imdk쎯hdb0쎯	-9.76998
wmgi쎯heks0쎯	-9.77028
qje쎯mmvs0쎯	-9.77056
mcw쎯yhs쎯	-9.77073
lijp쎯	-9.77085
,cwa0쎯	-9.77089
bysm쎯oos쎯	-9.77168
(oin쎯	-9.77231
mf0쎯ommi0쎯	-9.77259
mrtvi0쎯	-9.77275
.dm0쎯	-9.77326
oqni쎯irp0쎯rrikr쎯	-9.7733
tlbk0쎯kiog쎯	-9.77517
edbu쎯	-9.77537
nmme0쎯yta0쎯	-9.77553
ycbr0쎯dmmf0쎯	-9.77557
,oryo0쎯ytt0쎯	-9.77568
miks0쎯oos쎯	-9.77585
-쎆	-9.77621
fh쎯oq0쎯	-9.77626
slm쎯ahqm0쎯	-9.77627
쎁쎉쎈쎂oq0쎯	-9.77628
jm0쎯fbnd0쎯oyt쎯	-9.77696
klg0쎯ymp0쎯	-9.77752
쎀.쎅	-9.77783
yth쎯rrr0쎯hapi0쎯	-9.77812
,rmss쎯	-9.7782
rog0쎯m쎯	-9.77821
mks0쎯yioj0쎯	-9.77839
o0쎯ohg쎯ci0쎯smr쎯	-9.77883
kb0쎯nlav쎯qmb	-9.77883
쎉쎇	-9.77914
yj0쎯nsd0쎯	-9.77916
yrnl0쎯i1쎯	-9.77945
ndbt0쎯	-9.78167
l0쎯u쎯	-9.78216
mmok쎯jksc쎯	-9.78264
쎅ol1쎯	-9.78284
hapi0쎯jrok쎯jlln쎯	-9.78314
,yck0쎯ynib쎯	-9.78319
vmomi쎯muw쎯	-9.78351
qi1쎯stv쎯	-9.78371
omr0쎯c쎯	-9.78376
쎇쎃	-9.78377
yjilj쎯yioj0쎯	-9.78387
ytt0쎯olhh0쎯	-9.78398
tesu쎯k0쎯fbnd0쎯	-9.78429
ummj0쎯	-9.78553
mumbo0쎯jher쎯	-9.78569
ddh쎯hjbo쎯	-9.78607
itlb쎯	-9.78623
쎇쎉	-9.78629
eiav쎯	-9.78642
gyhn쎯	-9.78672
bmmc쎯hew쎯	-9.78696
rypb0쎯	-9.78696
jbrrv쎯	-9.78738
qmb쎯fh쎯oq0쎯	-9.78743
mlm쎯o쎯	-9.78772
mjln쎯hqphh쎯	-9.78775
fbrhu쎯je0쎯yrnl0쎯	-9.78833
eyg0쎯:za2쎯	-9.78885
imihr0쎯fh쎯	-9.78983
jkmr쎯	-9.79003
ihs0쎯yt0쎯hapi0쎯	-9.79096
hybhu쎯	-9.79263
eqoa쎯	-9.79279
-쎅	-9.79292
no2쎯hommn0쎯	-9.79296
vsm쎯v쎯	-9.793
gyhs쎯	-9.79324
tc0쎯fbrhu쎯rbo0쎯,	-9.79349
ddmmf쎯	-9.79353
ujmf0쎯	-9.79353
fdiav쎯oiav0쎯	-9.79372
mb	-9.79508
vmnom쎯mks1쎯	-9.79714
olln쎯u쎯ylb쎯	-9.79746
ynai쎯	-9.79753
ivke쎯goru쎯	-9.79758
nlkq쎯	-9.79783
hdph0쎯ids쎯po0쎯	-9.79834
쎂쎀쎁쎁	-9.7984
m쎯hvif쎯mnln쎯	-9.79847
suok0쎯iksi쎯	-9.79862
imdk쎯	-9.79932
rhu쎯cnlh0쎯	-9.79943
tbof0쎯	-9.79971
jcoju쎯	-9.80001
rhfd쎯	-9.80036
yihu0쎯etmb쎯	-9.80037
,qau쎯	-9.80054
qje쎯id1쎯o쎯rbo0쎯	-9.80064
ytwg쎯	-9.80069
-쎄	-9.80078
grhv쎯	-9.80089
qmn0쎯hpsl0쎯	-9.80124
oyhv0쎯egi쎯	-9.80145
uvii쎯	-9.80245
omn1쎯odm0쎯	-9.80287
hapi0쎯oylm0쎯tc1쎯	-9.80321
m쎯ioog0쎯	-9.80361
hamg쎯yblb쎯	-9.80375
ivke쎯ab0쎯	-9.80386
.fbnd0쎯dyck0쎯	-9.80431
쎃b쎯	-9.8053
jlwl0쎯	-9.80583
olhh0쎯suok0쎯	-9.80602
qjsmp쎯	-9.80638
nlheq쎯ohpm쎯	-9.80646
fubkq쎯	-9.80653
k0쎯yrnl0쎯csh0쎯	-9.80665
iksi쎯jher쎯is0쎯	-9.80689
mrno0쎯tw1쎯	-9.80735
hjwg쎯ifbhu쎯	-9.80758
wk0쎯ymp0쎯	-9.8079
ht0쎯vmnhe쎯	-9.80799
mgi0쎯fd0쎯	-9.8081
asje쎯hmr0쎯	-9.8101
ornin쎯yhjr쎯	-9.81025
epym쎯nolmi0쎯	-9.81135
,oam쎯amyo쎯	-9.81244
qllb0쎯	-9.81255
q쎯hjhne쎯	-9.8127
eyok쎯odm0쎯	-9.81302
oog0쎯tehr0쎯md쎯	-9.81316
mdm쎯c쎯	-9.81323
6쎯	-9.8135
ytap쎯ivrc쎯	-9.81369
libt0쎯	-9.81378
ebhu0쎯jbof쎯	-9.81398
bgr0쎯wqs쎯	-9.81428
,irm쎯	-9.81488
bq쎯rrr0쎯	-9.81504
쎂쎀쎀쎉	-9.81512
vdlk쎯	-9.81568
eykn쎯libhu0쎯	-9.81578
wdh쎯vmgr쎯	-9.81615
ivcru쎯ab0쎯	-9.81634
vmbk0쎯	-9.81657
e쎯hdln0쎯	-9.81679
tc0쎯yrnd쎯	-9.81689
k0쎯mmue쎯	-9.81713
jqjr쎯	-9.81761
%	-9.81822
jbmm0쎯honom쎯	-9.81837
ynib쎯bq쎯	-9.81881
wlpym쎯	-9.81894
oq0쎯ite쎯	-9.81917
tehr0쎯jyk쎯	-9.81955
ojrk쎯vnd쎯	-9.81968
l0쎯tvmi2쎯	-9.82052
tt1쎯bm0쎯	-9.82069
.oam쎯	-9.82099
tlwc쎯c쎯	-9.82106
)amyo쎯	-9.82123
nblmi쎯	-9.82133
mpylm쎯lgyhv쎯	-9.82147
tlwc쎯nau0쎯	-9.82148
kh	-9.82232
omg0쎯yhs쎯oyt쎯	-9.82287
dmob쎯	-9.82354
hqi0쎯olis쎯hapi0쎯	-9.82445
ytpo0쎯	-9.82505
:쎁.	-9.82536
yfiku0쎯tc1쎯	-9.8256
ifcwj쎯	-9.82632
omr0쎯bmr0쎯	-9.82704
book쎯	-9.82796
jcor쎯aphh0쎯	-9.8284
dhn0쎯lwu0쎯	-9.82841
m쎯eyiu0쎯hapi0쎯	-9.82965
ivrmk쎯	-9.8302
pru쎯oinr쎯	-9.83053
vmnom쎯fbrlb쎯	-9.83062
oiku쎯hjbo쎯hapi0쎯	-9.83111
mwbo쎯	-9.83202
gihs쎯opjbc쎯	-9.83213
kqmrw쎯hhdi쎯	-9.83243
mnf0쎯	-9.83248
fdqmb쎯jphu0쎯	-9.83264
sly쎯	-9.833
mumbo0쎯	-9.83335
nrli쎯k0쎯hapi0쎯	-9.83358
.쎃i1쎯	-9.83406
khiku쎯	-9.83487
lmg0쎯	-9.83495
o쎯yk0쎯	-9.835
dyck0쎯po0쎯	-9.8355
qni0쎯aombo쎯	-9.83587
mt0쎯tk0쎯	-9.83605
mmr0쎯	-9.83634
l0쎯sok0쎯tvmi2쎯	-9.83737
,opd0쎯olis쎯	-9.83738
okr0쎯ythu쎯	-9.83751
쎁)	-9.83767
쎁쎉쎅쎈oq0쎯	-9.83768
eowy쎯niy쎯	-9.83812
mw	-9.83835
쎂쎀쎁쎂	-9.83895
_	-9.83901
.za3쎯eqmb0쎯	-9.83929
aj0쎯tcb0쎯	-9.83939
gpd쎯gylm쎯	-9.83948
eyg0쎯hjwg쎯	-9.8397
oice쎯	-9.83991
afhhh쎯rhbr0쎯ks0쎯	-9.84124
lwl0쎯	-9.84168
,bu0쎯tbln0쎯	-9.84193
eycb0쎯	-9.84211
tn0쎯id1쎯jmso쎯	-9.84223
yw쎯	-9.84233
opytu쎯yk1쎯	-9.84397
ivtmd쎯	-9.84434
dtwa쎯	-9.84444
mfj0쎯honkn0쎯	-9.84534
쎁쎉쎈쎃oq0쎯	-9.8456
.dm0쎯ids쎯	-9.84615
hgdi쎯vmnhe쎯	-9.84677
yrbr0쎯ytumb쎯	-9.8468
qobhu쎯	-9.84701
girm쎯	-9.84703
vhpa쎯	-9.84717
.l0쎯wmgi쎯	-9.84743
nl0쎯goru쎯	-9.84759
,hbu0쎯	-9.84792
jhp쎯	-9.84868
qmb쎯pysu쎯	-9.84928
nc쎯adi쎯	-9.8494
za2쎯l0쎯wmgi쎯	-9.84956
kip0쎯	-9.84957
hqda0쎯	-9.8498
nini0쎯mmbo쎯	-9.84983
bommf쎯	-9.84987
qhjx쎯	-9.84995
.ilr0쎯	-9.84998
jp쎯hapi0쎯	-9.85005
qlw쎯	-9.85031
csht0쎯	-9.85173
ouln0쎯nklq쎯md쎯	-9.85176
m쎯hgdi쎯lnk0쎯	-9.85213
mob0쎯	-9.85225
jbtj쎯lmp0쎯	-9.85259
쎇쎄	-9.85284
jchwe쎯	-9.8532
yrbr0쎯eabt0쎯	-9.85343
nlomm쎯	-9.85354
hdv쎯rbo0쎯i1쎯	-9.85431
vmvl쎯opta쎯	-9.85447
e쎯ikq쎯	-9.85506
hbmr0쎯	-9.85509
kqijb쎯rudi0쎯	-9.85527
mwln쎯yg0쎯itlb쎯	-9.85558
mgwg쎯nbshq쎯	-9.85615
csh0쎯yukb0쎯	-9.85627
ob1쎯hdyj0쎯	-9.85672
tp쎯llml쎯	-9.85713
smyoj쎯	-9.85753
ivmym쎯ids쎯	-9.85767
nvtt쎯	-9.85819
muw쎯mwsl쎯	-9.85824
mf0쎯mwv쎯	-9.85841
쎆ol1쎯	-9.85911
vmij0쎯rmher쎯	-9.85974
klb쎯ssr쎯	-9.85979
dtak쎯tesu쎯	-9.85983
tdm쎯	-9.86008
bompm쎯	-9.86029
ee0쎯ysook0쎯	-9.8604
nbg0쎯nau0쎯	-9.86058
jjb0쎯nmtq쎯	-9.86133
yeoiv0쎯nvno0쎯	-9.86159
lmik쎯imrhu쎯	-9.86162
eowy쎯jbtj쎯	-9.86198
ee0쎯ysook0쎯,	-9.86226
omlk쎯hdln0쎯	-9.86226
hshml쎯vio0쎯	-9.86278
kqnom쎯dci0쎯	-9.86295
vmjnk쎯	-9.86309
mcw쎯mgilg쎯mvdh쎯	-9.86314
bhn0쎯	-9.8632
bodh쎯vmnom쎯	-9.86374
lwu0쎯oymr쎯	-9.86391
ohqi쎯	-9.86441
oll쎯	-9.86443
.쎃.	-9.86448
,amyo쎯m쎯jmso쎯	-9.86492
nlkt쎯mcw쎯fhbu0쎯	-9.86565
,bm0쎯	-9.86577
hdjip쎯	-9.86719
qike쎯	-9.86731
kqijb쎯bmks0쎯	-9.8683
qif0쎯tjblb0쎯	-9.86899
ysok쎯klg0쎯	-9.8691
bbke쎯vnd쎯jka쎯	-9.86933
nolmi0쎯ha쎯	-9.87013
o쎯rvp쎯hlb0쎯	-9.87063
mwln쎯ssr쎯po0쎯	-9.87069
leb쎯	-9.8709
ki0쎯nla쎯	-9.87102
ikhhh쎯ksr쎯nn0쎯	-9.87115
,mku쎯	-9.8714
qfbu0쎯qfq쎯	-9.87193
kjt쎯	-9.87202
pawe쎯	-9.87233
mylm쎯mrnbg쎯	-9.87281
.yyk쎯	-9.87284
qr쎯	-9.87329
""	-9.87346
hqbu쎯mgln0쎯	-9.87375
hbln0쎯ihs0쎯	-9.87388
----------------	-9.874
hdr0쎯mfj0쎯	-9.8741
ivog쎯	-9.87443
khpr쎯	-9.87482
,yr0쎯gpd쎯	-9.87501
qyaj쎯	-9.87504
hnlh0쎯mdm쎯	-9.87517
lmnii쎯bkq쎯	-9.87606
ysrj쎯	-9.87613
mlwk쎯ydhml0쎯	-9.87647
nlodi쎯shlb0쎯	-9.8766
mfj0쎯mwsl쎯	-9.87663
oom0쎯	-9.87676
bmks0쎯mgwg쎯	-9.87684
oyok0쎯	-9.87697
mgwg쎯mlm쎯	-9.87736
vmyhs쎯vmrc쎯	-9.87737
쎈쎂	-9.87749
krbo0쎯	-9.87751
tih쎯	-9.87766
otc쎯ifm쎯	-9.87766
ino0쎯hmr0쎯,	-9.87798
nbo쎯qmbo0쎯o쎯	-9.87858
qje쎯	-9.87868
ythu쎯hojwp0쎯	-9.87873
mblmi0쎯omr0쎯	-9.87881
esme0쎯	-9.87935
jmig쎯i1쎯	-9.87949
qkhk쎯	-9.87998
쎈쎉	-9.88027
mf0쎯hoami쎯	-9.88047
a1쎯:za0쎯	-9.88048
janl쎯ylb쎯	-9.88069
ytu0쎯	-9.8807
qhxe쎯jbvif0쎯	-9.88097
ivhne쎯hew쎯,	-9.88107
ihmr쎯	-9.88129
ehgr쎯	-9.88135
tp쎯	-9.88168
tvmi2쎯rrr0쎯	-9.88225
qta쎯ysopd쎯	-9.88238
-쎉	-9.88382
쎈쎄	-9.88395
hubo쎯	-9.88424
ym0쎯my쎯	-9.88453
suok0쎯ytt0쎯	-9.88467
hfd0쎯	-9.8848
her0쎯ol1쎯	-9.8851
ci0쎯smr쎯hapi0쎯	-9.88512
쎉쎂	-9.88648
oh쎯yhgu쎯	-9.88704
mdm쎯oq0쎯	-9.88715
rudi0쎯mgok0쎯	-9.88731
ck0쎯wyi0쎯	-9.88754
khsu쎯	-9.88776
dd쎯tc1쎯	-9.88784
hhail0쎯	-9.88816
irp0쎯fbbhu쎯	-9.88826
쎁쎈쎀	-9.88844
lwu0쎯eyiu0쎯	-9.88917
mtch쎯hjwg쎯	-9.89019
shlb0쎯md쎯u쎯sk0쎯.	-9.89022
jcik쎯	-9.89023
ndhvo쎯	-9.89049
hdln0쎯tcbt쎯	-9.89085
enwm쎯	-9.89107
vpd쎯hapi0쎯	-9.89126
bd0쎯bopi쎯	-9.89189
ycp0쎯	-9.89258
vsm쎯	-9.89262
yihu0쎯	-9.8928
byav쎯	-9.89283
ysohv쎯hommn0쎯	-9.8932
klg0쎯ym0쎯eowy쎯	-9.8933
쎈쎇	-9.89422
ddi쎯oyt쎯md쎯	-9.89441
atce쎯	-9.89499
esmb0쎯	-9.89522
hapi0쎯za8쎯	-9.89545
,ibpp쎯	-9.89579
,ohg쎯	-9.89603
oyhv0쎯qsjr쎯	-9.89664
afhhh쎯llml쎯	-9.89691
mf0쎯ryo0쎯	-9.89721
nlbm0쎯	-9.89726
mgt쎯	-9.89804
yri0쎯jm0쎯	-9.89835
yrbo0쎯opj0쎯	-9.89865
nbshq쎯hdeq쎯	-9.89962
mks1쎯ohg쎯	-9.90008
hjwg쎯ik2쎯ylb쎯	-9.90064
ivke쎯miks0쎯dhn0쎯	-9.90089
bhhau쎯	-9.90103
nir쎯,	-9.90123
gyo쎯hbr0쎯	-9.90131
ebhu0쎯ooo0쎯	-9.90168
hapi0쎯ivhne쎯ivj쎯	-9.90232
bjcm쎯	-9.90233
di0쎯	-9.9026
her0쎯wmgi쎯	-9.90267
mmm쎯hgdi쎯lnk0쎯	-9.90273
sjnl쎯	-9.90276
atc0쎯ymy0쎯	-9.90376
쎁쎉쎈쎀oq0쎯	-9.90394
so0쎯	-9.90464
쎁쎉쎅쎆oq0쎯	-9.90464
-쎇	-9.90484
hsb0쎯	-9.90502
hlsa쎯hdnf쎯	-9.90541
o쎯jlln쎯	-9.90585
,mgbhu쎯ohg쎯	-9.90608
lpb쎯ayrf0쎯	-9.9061
a0쎯fbrlb쎯	-9.90614
odm0쎯hbln0쎯	-9.90632
elbu쎯nla쎯	-9.90686
dkmym0쎯mgwg쎯	-9.90688
gmfj쎯	-9.90696
쎁쎉쎇쎈oq0쎯	-9.90709
fbrlb쎯bq쎯	-9.90739
nla쎯fmu쎯	-9.9077
jcm쎯ivbgr쎯	-9.90772
dnao쎯byck0쎯	-9.90776
tbks0쎯miks0쎯ks0쎯	-9.90842
gpd쎯sk0쎯hapi0쎯	-9.90863
gpd쎯mwsl쎯	-9.90866
hdyrb쎯	-9.90917
쎆쎁	-9.90959
smr쎯egi쎯	-9.91011
vmnom쎯mgwg쎯	-9.91022
ssr쎯ssr쎯po0쎯	-9.91043
rlb0쎯	-9.913
mfj0쎯ir0쎯.	-9.91304
fdqmb쎯p쎯	-9.91318
tesu쎯wqs쎯ob1쎯	-9.91321
hoami쎯mgln0쎯nn0쎯	-9.91322
iav0쎯vnd쎯	-9.91339
l쎯	-9.91379
bdhhh0쎯nau0쎯	-9.91402
iflwl쎯hdph0쎯	-9.91413
mhnl쎯	-9.91452
wks0쎯nd0쎯	-9.91511
쎀쎅	-9.91594
ehs쎯	-9.91634
qsle쎯za9쎯	-9.91644
emj쎯	-9.9166
mgb0쎯imno0쎯	-9.91677
nvno0쎯	-9.91702
쎇b쎯	-9.91718
yhmbo0쎯	-9.91763
hmhn0쎯	-9.91793
oik1쎯qmv쎯	-9.91796
libt0쎯qjcm쎯	-9.91821
mwhoe쎯	-9.91823
abme0쎯	-9.91824
.za3쎯jd1쎯	-9.91862
opbo1쎯gfno쎯	-9.91926
olnk0쎯	-9.91927
쎁oq0쎯	-9.91942
mcw쎯tims쎯	-9.91975
thjg0쎯jlln쎯po0쎯	-9.91989
fvok쎯qsjr쎯ikq쎯	-9.92001
bam쎯	-9.92047
kni0쎯	-9.92072
lbha쎯	-9.92089
eno0쎯yhvl쎯	-9.92102
yg0쎯ksc쎯	-9.92127
bbb0쎯mj쎯	-9.92138
쎁쎉쎄쎉oq0쎯	-9.92153
hn0쎯ol1쎯	-9.92167
yyk쎯dtq쎯	-9.92218
lwu0쎯dhn0쎯	-9.9227
jdok0쎯qbbe0쎯.	-9.92282
oqni쎯kmnr0쎯	-9.92338
peg쎯	-9.92353
tcg0쎯smmi0쎯	-9.92354
hjtm쎯	-9.92371
k0쎯ooo0쎯	-9.92393
mgohh0쎯	-9.92414
za9쎯l0쎯	-9.92578
kqkn쎯ythu쎯	-9.92663
ivjnk쎯ids쎯	-9.92667
쎀쎀쎀mfj0쎯yhs쎯fd0쎯	-9.92678
bpa0쎯	-9.92682
cwa0쎯vmnom쎯	-9.92688
ym0쎯ylb쎯	-9.92711
nc쎯mng0쎯	-9.92739
rau0쎯	-9.92825
kqqni쎯qnbk1쎯	-9.92838
.jd1쎯	-9.92856
ycn쎯	-9.93006
qobhu쎯holq쎯	-9.93099
tksc쎯sjtk쎯	-9.93147
i쎯	-9.93174
ombn쎯	-9.93183
crp0쎯ci0쎯smr쎯	-9.93213
쎉쎄	-9.93222
gr0쎯dd쎯fhbu0쎯	-9.93263
bmi쎯mmok쎯iodi쎯	-9.93282
oiks쎯	-9.93327
vr쎯ymp0쎯	-9.9336
nk0쎯hdnf쎯	-9.93378
khmg쎯	-9.934
oymr쎯fcymr쎯	-9.93405
tybb0쎯	-9.93451
8쎯	-9.93462
abbt쎯	-9.93598
omgn쎯oh쎯	-9.93604
cwa0쎯ohg쎯	-9.93613
fqq쎯	-9.93619
ksr쎯qif0쎯	-9.93623
vio0쎯iksi쎯	-9.93625
ornin쎯	-9.93637
tcg0쎯wk0쎯	-9.93668
tchml쎯hqgdi쎯	-9.93682
jmso쎯ysook0쎯	-9.93733
kb0쎯m쎯	-9.9374
ivo쎯ivrc쎯	-9.9381
c	-9.93841
쎁쎉쎈쎁oq0쎯	-9.93847
omg0쎯fhbu0쎯	-9.93848
mvnm0쎯	-9.93869
mhaf0쎯wk0쎯	-9.9393
jvd쎯omnn0쎯	-9.93996
d쎯nvsm쎯	-9.94022
.tmmc0쎯l0쎯	-9.94132
nini0쎯jmso쎯	-9.94139
tvii0쎯	-9.94174
쎅-	-9.94192
her0쎯vmnhe쎯	-9.94197
homr0쎯	-9.9423
vio0쎯tbln0쎯	-9.94268
ylb쎯sk0쎯	-9.94282
lwu0쎯rmher쎯	-9.94413
yth쎯de0쎯	-9.94484
jcik쎯mrdhe쎯	-9.94488
yaj쎯	-9.94521
onao쎯qmvif쎯	-9.9454
,qamo쎯yrbr0쎯	-9.94543
jksc쎯bmks0쎯	-9.94574
gog0쎯	-9.94578
nbks0쎯	-9.94614
llp쎯	-9.94625
yhjr쎯	-9.94635
hqok0쎯	-9.94697
mthhh쎯ihs0쎯nn0쎯	-9.94724
mrukf쎯	-9.94754
amyo쎯m쎯gfno쎯	-9.94781
pdk쎯hvd쎯	-9.94851
epi0쎯ynib쎯	-9.9486
kd0쎯yrf0쎯	-9.94968
bd0쎯sje0쎯	-9.94969
f쎯kq0쎯ytyr쎯	-9.94972
ci0쎯jv0쎯	-9.94977
arf0쎯ab0쎯	-9.94979
thjg0쎯	-9.9508
,md쎯	-9.95103
nklq쎯yhgr0쎯	-9.95156
hmhne쎯	-9.95238
ivyhs쎯	-9.95243
end0쎯	-9.95248
lyp쎯	-9.95291
k0쎯ykq0쎯	-9.95327
omg0쎯odm0쎯	-9.95344
yid0쎯	-9.9535
5쎯	-9.95356
jv0쎯qlmy쎯	-9.95376
oog0쎯tehr0쎯klg0쎯	-9.95409
ylmo0쎯	-9.95409
jphu0쎯ggdi쎯	-9.95428
bopi쎯	-9.95464
mbog0쎯	-9.95523
bu0쎯hapi0쎯	-9.95533
ylb쎯vmnhe쎯	-9.95571
u쎯e쎯	-9.95575
qsle쎯mjln쎯	-9.95584
oq0쎯lsa쎯	-9.95593
n0쎯	-9.956
oom0쎯ids쎯	-9.95615
dhn0쎯dpi1쎯.	-9.95649
vio0쎯ma0쎯ite쎯	-9.95653
ydi0쎯gi0쎯	-9.95655
ite쎯gpd쎯whey0쎯	-9.95672
j쎯ho0쎯	-9.9573
djbm0쎯	-9.95767
nlav쎯	-9.95801
ydi0쎯eypp1쎯	-9.95916
a0쎯bkq쎯	-9.95961
jphu0쎯mrnvm쎯	-9.95961
gpd쎯whey0쎯fvok쎯	-9.95962
dqkq쎯	-9.96027
crp0쎯nklq쎯hmhn0쎯	-9.96035
,fsm0쎯	-9.96035
t0쎯emhf0쎯md쎯ma0쎯	-9.96048
sjrc0쎯qmbo0쎯	-9.96063
qsjr쎯iksi쎯imog쎯.	-9.96076
dm0쎯fvok쎯qsjr쎯d	-9.96076
oylm0쎯	-9.96107
.("/////	-9.96113
.",(){(	-9.96113
vmnom쎯nmomm쎯,	-9.96131
stv쎯mt0쎯	-9.96153
쎁쎀쎀쎀쎀쎈쎀쎁);});	-9.96186
qpp0쎯	-9.96187
ol1쎯phqm쎯	-9.96221
sim쎯pwjo쎯	-9.96284
ci0쎯jwlb쎯	-9.96314
esd쎯ythu쎯	-9.96314
gbtc쎯	-9.96326
ho	-9.9634
nmsu0쎯	-9.96389
ynib쎯ythu쎯	-9.96395
hhsli쎯	-9.96403
쎀쎉	-9.96442
hsyhs0쎯smig쎯	-9.96442
yrbr0쎯mgi1쎯	-9.96444
rc0쎯amyo쎯	-9.96497
(쎃)	-9.96499
tytr0쎯tnlh0쎯	-9.96505
yeoiv0쎯	-9.96541
―	-9.96585
dtak쎯gdk쎯	-9.96629
fbrhu쎯vmbm0쎯	-9.96687
hdl0쎯nd0쎯	-9.96727
쎈-	-9.96746
wc0쎯k0쎯	-9.96795
sqnl0쎯ypmm쎯	-9.96832
kq0쎯ytyr쎯	-9.96852
qhlo1쎯	-9.9692
,amyo쎯l0쎯wmgi쎯	-9.96949
yrbr0쎯eqmb0쎯	-9.97024
hbyi쎯	-9.97034
rhbr0쎯	-9.97069
kb0쎯za8쎯	-9.97116
ivke쎯miks0쎯	-9.97127
ehsk0쎯fmu쎯	-9.97143
lmp0쎯yhs쎯	-9.97172
shr쎯mt0쎯	-9.97236
mwsl쎯edi0쎯	-9.97238
etrg쎯	-9.97258
쎉쎃	-9.97315
lln쎯	-9.97316
oos쎯tc1쎯	-9.97344
,ymf0쎯	-9.97357
gtj쎯ifmrw쎯	-9.97359
jvd쎯ohq쎯	-9.97407
qni0쎯tjka0쎯	-9.97414
lsdh쎯	-9.97475
omn1쎯napo쎯	-9.97499
moob쎯obon쎯	-9.97516
fbrhu쎯hapi0쎯	-9.97542
쎂쎅쎀	-9.97546
boaph쎯	-9.97579
nmsu0쎯nlomm쎯	-9.97592
쎂)	-9.97593
su1쎯kb0쎯	-9.97605
iku0쎯	-9.97674
mfj0쎯ir0쎯,	-9.9776
og0쎯	-9.97792
tbfe쎯	-9.97818
dmmf0쎯gp0쎯	-9.97837
ytt0쎯hdrhg쎯	-9.97886
nlqu쎯bkq쎯	-9.97913
ohvl쎯	-9.9793
qpp0쎯ivke쎯	-9.97958
,tc0쎯	-9.97972
//	-9.97983
,wk0쎯iksi쎯	-9.98005
eowy쎯qike쎯	-9.98037
opj0쎯kd0쎯	-9.981
wmgi쎯nlyhs쎯	-9.98101
mj쎯frrd쎯	-9.98146
4쎯	-9.98158
m쎯gfno쎯	-9.98198
uu0쎯hqm쎯,	-9.98245
3쎯	-9.98281
l0쎯niy쎯	-9.98332
mnp0쎯yv쎯	-9.98341
,mlwk쎯	-9.98362
wljka쎯	-9.98387
nn0쎯m쎯ol1쎯	-9.98496
po0쎯ite쎯	-9.98567
eeog쎯	-9.98597
fh쎯ivoj쎯	-9.98654
,gisl쎯	-9.98657
쎁쎉쎆쎃oq0쎯	-9.98659
goru쎯ik1쎯	-9.98696
쎅.	-9.9871
fbrbo쎯	-9.9871
txc쎯ohg쎯	-9.98725
osk0쎯tchml쎯tmm0쎯	-9.98749
mbrse쎯	-9.98888
jid0쎯gytr쎯	-9.98905
쎁쎉쎇쎉oq0쎯	-9.98928
yg0쎯odm0쎯	-9.98934
klg0쎯omg0쎯wmgi쎯	-9.98989
hqphh쎯tc1쎯	-9.99005
ifm쎯ivyvo쎯	-9.99031
oyhv0쎯qhp0쎯	-9.99064
yit쎯	-9.99088
em0쎯jbtj쎯	-9.99155
rudi0쎯ncwj쎯	-9.99172
yrbr0쎯rrr0쎯hjbo쎯	-9.99228
yhvl쎯	-9.99273
jjon0쎯nlhem0쎯	-9.99287
leg0쎯	-9.99299
hdph0쎯jphu0쎯	-9.99342
nwu쎯	-9.99389
ehk쎯	-9.9942
yfe쎯	-9.99444
mfj0쎯yhs쎯	-9.99465
efb0쎯nlyhs쎯	-9.99527
vlok쎯nmme0쎯	-9.99529
bopi쎯nyk쎯	-9.99536
hdb0쎯	-9.99587
fcb쎯	-9.99587
쎅oq0쎯	-9.99591
hqm쎯rudi0쎯llmb쎯	-9.99622
imog쎯mrnbg쎯	-9.99626
,ysok쎯oh쎯	-9.99694
mmm쎯wmgi쎯	-9.99698
oyg쎯hsyhs0쎯	-9.99735
khtw쎯	-9.99768
ksc쎯mgwg쎯	-9.99835
m쎯ksmi쎯	-9.99855
jmso쎯sjr0쎯	-9.99883
fos쎯	-9.99894
hdv쎯ids쎯ivsu쎯	-9.99897
jesmm쎯	-9.99898
dmmf0쎯imog쎯op0쎯	-9.9992
bsle0쎯heks0쎯,	-9.99927
ol1쎯odm0쎯	-9.99944
qmv쎯yk2쎯	-9.99961
za9쎯hgdi쎯.	-9.99974
m쎯eyiu0쎯	-9.99988
,za2쎯	-9.99998
bjv쎯	-10.0001
fate쎯	-10.0002
ymmu0쎯hdrhg쎯	-10.0007
쎀쎁	-10.0008
k0쎯nlo쎯	-10.001
lmuo쎯	-10.0013
yg0쎯fdyj쎯:	-10.0025
nir쎯o쎯	-10.0026
opbo0쎯hqphh쎯	-10.0026
ydhml0쎯ksr쎯gdhe쎯	-10.003
ino0쎯tbln0쎯	-10.0034
kqijb쎯	-10.0036
eqmb0쎯opj0쎯	-10.0036
gthhh쎯	-10.0037
ksr쎯orq0쎯k0쎯	-10.0037
emwj0쎯	-10.0038
fbnd0쎯jmso쎯	-10.0049
tmmv0쎯mig0쎯	-10.0064
eqmb0쎯adhl쎯	-10.0065
rlmi쎯bkf0쎯	-10.0071
gpd쎯whey0쎯	-10.0071
ombb0쎯	-10.0075
gtj쎯	-10.0075
,ksr쎯oh쎯	-10.0077
m쎯gnsh쎯	-10.0079
jcm쎯bkq쎯	-10.0081
ymmi쎯oos쎯	-10.0082
hlb0쎯	-10.0084
rks0쎯	-10.0085
goshr쎯vmnhe쎯	-10.0085
jmam0쎯klb쎯	-10.0086
hjr0쎯	-10.009
.za3쎯ab0쎯	-10.0094
oq0쎯yuoii1쎯	-10.0096
쎁쎉쎆쎄oq0쎯	-10.0097
my쎯ivhne쎯	-10.0105
bip쎯	-10.0107
mtln0쎯	-10.0107
qobhu쎯boln0쎯	-10.0108
ejmo0쎯fdcsh쎯	-10.0109
oiav0쎯hqphh쎯	-10.0109
jbtj쎯yhs쎯	-10.0113
tmpt쎯	-10.0118
okvif0쎯	-10.012
egr쎯	-10.0122
jphu0쎯ite쎯	-10.0122
otniq쎯ir0쎯	-10.0123
okmrt쎯oymr쎯	-10.0124
ivmn쎯	-10.0125
nnqo0쎯ksc쎯	-10.0126
jka쎯.	-10.0128
l0쎯yk0쎯nir쎯	-10.0129
yrnl0쎯ohq쎯	-10.0131
mihui쎯	-10.0131
jf0쎯	-10.0137
qi0쎯mgln0쎯	-10.0139
asje쎯iksi쎯	-10.0139
ci0쎯tcbt쎯	-10.014
mrihr쎯	-10.0141
qig0쎯	-10.0142
gylm쎯	-10.0144
ivo쎯jbmc0쎯	-10.0148
mwln쎯ommi0쎯po0쎯	-10.0149
쎀쎇	-10.0151
lsoi쎯lis쎯	-10.0163
,ci0쎯smr쎯	-10.0168
hshml쎯klg0쎯	-10.0168
imnvm쎯	-10.0172
hnd1쎯	-10.0173
,hghu쎯hmr0쎯	-10.0176
쎁쎆쎀	-10.0184
ivsu쎯jikq쎯	-10.0185
dss0쎯	-10.0186
tm0쎯llfl0쎯	-10.0187
thbu0쎯hghu쎯	-10.0187
rsln1쎯wng0쎯	-10.0193
kb0쎯nlav쎯ci0쎯s	-10.0196
hdph0쎯ids쎯	-10.0201
hdhah0쎯	-10.0207
oll쎯hjbo쎯	-10.0212
za23쎯	-10.0212
nir쎯jnd0쎯	-10.0212
j쎯mdm쎯	-10.0213
sje0쎯hoami쎯nn0쎯	-10.0215
ivgdi쎯mrno0쎯	-10.0216
mks1쎯lk쎯ym0쎯	-10.0217
opbk쎯ophqo쎯	-10.022
ipf0쎯	-10.0226
hmr0쎯dt0쎯	-10.0233
ynn0쎯	-10.0239
jp쎯olis쎯	-10.0244
pknio쎯	-10.0251
giok0쎯	-10.0254
ivhne쎯ivj쎯llmb쎯	-10.0257
j쎯oq0쎯	-10.0261
jmmu0쎯tgk쎯	-10.0268
onkq쎯hxh쎯	-10.0269
nini0쎯mks0쎯ibpp쎯	-10.0271
bhqm쎯hdln0쎯	-10.0275
bfqm0쎯	-10.0279
yyk쎯amyo쎯	-10.0281
ejmc0쎯raa쎯	-10.0284
qvio쎯	-10.0289
iksi쎯yg0쎯hapi0쎯	-10.0292
ehbk0쎯k0쎯hdln0쎯	-10.0294
yhjr쎯mwsu쎯rrikr쎯	-10.0298
sh	-10.0301
ni1쎯	-10.0303
opd0쎯olis쎯hapi0쎯	-10.0306
nklq쎯ddh쎯	-10.0311
ik0쎯	-10.0313
hrok1쎯o쎯	-10.0315
yblb쎯wmgi쎯	-10.0316
eqmb0쎯oip0쎯	-10.0317
kdi0쎯	-10.0321
hjtm쎯jbmm0쎯	-10.0323
egi쎯fbnd0쎯	-10.0325
.쎉	-10.0325
mrgg쎯	-10.0325
khsu쎯wllmy쎯	-10.0325
gpd쎯ophqo쎯	-10.0326
)i1쎯za8쎯	-10.0328
nini0쎯oq0쎯hapi0쎯	-10.0329
rno0쎯	-10.033
쎀쎃	-10.0332
mgwg쎯jlln쎯,	-10.0332
kqyck쎯iksi쎯	-10.0335
l0쎯wmgi쎯jr쎯oip0쎯	-10.0335
hhoe0쎯	-10.0337
jc0쎯	-10.0338
ab0쎯oip0쎯	-10.034
onnom쎯	-10.0341
bq쎯yomd쎯	-10.0342
rpu0쎯	-10.0342
shr쎯	-10.0344
csh0쎯opl쎯	-10.0345
lwu0쎯vmliu쎯	-10.0345
omg0쎯wmgi쎯phqm쎯	-10.0347
odm0쎯mgbhu쎯	-10.0349
hnlh0쎯쎁	-10.0362
qywm쎯po0쎯	-10.0371
ylmo1쎯yth쎯	-10.0375
ab0쎯ahqm0쎯	-10.0381
ifg쎯wdh쎯	-10.0386
쎁쎂쎈	-10.0388
bomm쎯	-10.0391
eyiu0쎯hdrhg쎯	-10.0392
rmpru쎯	-10.0395
lsa쎯,	-10.0397
hbk1쎯ymmi쎯ommi0쎯	-10.0397
vmjoa쎯	-10.04
tlmy쎯	-10.0403
khta쎯	-10.0408
gonsm쎯qiks쎯	-10.0408
mbo1쎯	-10.0409
쎈쎃	-10.0415
쎆)	-10.0415
srtq0쎯odm0쎯	-10.0417
hapi0쎯gpd쎯yhs쎯	-10.0417
vmnom쎯opfb쎯	-10.0418
oinr쎯kb0쎯	-10.0425
fdyr쎯	-10.0425
nnnao쎯	-10.0427
rg쎯	-10.0427
bq쎯dt0쎯	-10.0428
oini0쎯o쎯	-10.043
yhsb0쎯	-10.0432
yt0쎯odm0쎯	-10.0435
toll0쎯hqm쎯	-10.0438
jkp0쎯oq0쎯	-10.0439
×쎁	-10.0442
jjon0쎯	-10.0442
ivdi쎯ivop0쎯	-10.0445
.cwa0쎯ohg쎯	-10.0445
,lw쎯md쎯	-10.0447
oahe쎯knd0쎯	-10.0447
smdi쎯qi0쎯	-10.0448
rrikr쎯i1쎯	-10.0448
qis쎯mgwg쎯	-10.0455
hdnf쎯rmvs쎯.	-10.0456
oyhs0쎯	-10.0456
ivmfj쎯ivop0쎯	-10.0456
fsm0쎯oq0쎯	-10.0457
kqomn쎯	-10.046
tmvh쎯	-10.0462
ee1쎯yhs쎯	-10.0466
ogd0쎯wdh쎯k	-10.0479
opyr쎯	-10.048
nlav쎯hbln0쎯	-10.0481
---	-10.0481
hapi0쎯hqm쎯yth쎯	-10.0484
p쎯mgwg쎯fbnd0쎯	-10.0484
쎂oq0쎯	-10.0485
thbu0쎯janl쎯	-10.0486
rvp쎯tbrr쎯	-10.0488
쎇-	-10.0491
tbln0쎯hmr0쎯	-10.0494
wpp0쎯oinl0쎯	-10.0502
nmfdq쎯	-10.0505
wqs쎯vmjpu쎯	-10.0506
za3쎯hgdi쎯	-10.0506
eyiu0쎯ynib쎯	-10.0506
chmbo쎯ivke쎯	-10.0506
qpru쎯	-10.0507
ogdi쎯	-10.0508
hdnf쎯iksi쎯za2쎯	-10.0508
hapi0쎯yhs쎯ipm0쎯	-10.0509
ftmm0쎯	-10.0509
gpim쎯iksi쎯	-10.051
ylmh0쎯hommn0쎯	-10.0511
mmvs0쎯	-10.0517
mm0쎯j쎯	-10.0524
orq0쎯	-10.0526
hshml쎯klg0쎯gpd쎯	-10.0526
qbbe0쎯de0쎯	-10.0526
dl0쎯	-10.0531
u쎯bmi쎯	-10.0531
mlm쎯oos쎯;	-10.0533
쎀.쎁	-10.0534
ommi0쎯rbo0쎯i1쎯	-10.0534
yjhoj쎯	-10.0543
ilil쎯ylb쎯	-10.0545
쎈ol1쎯	-10.055
libt0쎯jbof쎯	-10.0554
mthhh쎯,	-10.0559
ipyhv0쎯	-10.0561
hqm쎯klnd쎯	-10.0562
tbnh0쎯	-10.0568
yrnl0쎯po0쎯	-10.0573
uu0쎯nn0쎯	-10.0577
hssmm쎯	-10.0578
vvh쎯mmok쎯iodi쎯	-10.0579
mhaf0쎯vir쎯	-10.0581
hqm쎯ihs0쎯	-10.0583
wc0쎯oq0쎯	-10.0583
bl쎯	-10.0583
/쎃	-10.0584
hn0쎯hfd0쎯	-10.0587
jdok0쎯mrmt쎯jmig쎯	-10.0589
kqqni쎯hdnin0쎯	-10.0597
yhmbo1쎯	-10.0599
ids쎯ivsu쎯i1쎯	-10.0601
hdl0쎯fdk0쎯	-10.0603
ehdw쎯	-10.0604
ayrf0쎯yrf1쎯	-10.0606
crp0쎯vmyiu쎯	-10.0609
gcv쎯	-10.061
ejcr0쎯	-10.0611
ee0쎯ivmmr쎯	-10.0617
j쎯yc쎯	-10.0618
esd쎯	-10.0618
qsle쎯tkymr쎯	-10.0622
ytap쎯ik1쎯	-10.0622
romn0쎯	-10.0625
tmd0쎯ypmm쎯	-10.0625
yk0쎯hqphh쎯ord0쎯	-10.0627
vmomi쎯	-10.0632
amyo쎯ol1쎯	-10.0637
hnlh0쎯쎃	-10.0653
eypp1쎯	-10.0656
gytr쎯	-10.066
mwta쎯	-10.0661
oop0쎯ydok0쎯	-10.0661
qmr쎯stv쎯	-10.0662
jkmvs쎯jbof쎯	-10.0662
imgce쎯	-10.0664
amyo쎯za2쎯	-10.0669
hqgdi쎯yrf1쎯:	-10.0672
tkhk0쎯hoami쎯nn0쎯	-10.0672
ci0쎯smr쎯.	-10.0678
hdb0쎯wher0쎯	-10.0679
nklq쎯kb0쎯	-10.0683
hdcru1쎯heks0쎯	-10.0694
sok0쎯hqm쎯	-10.0694
rau1쎯	-10.0695
yck0쎯qnbk1쎯	-10.0697
oos쎯bq쎯.	-10.0698
m쎯hjhne쎯	-10.0698
nvno0쎯oiav0쎯	-10.0703
mk쎯elq쎯ylb쎯	-10.0708
ll0쎯	-10.071
nlykb1쎯dhn0쎯	-10.071
,shlb0쎯	-10.071
qtbk쎯	-10.0712
dhn0쎯rrikr쎯	-10.0712
mmok쎯egi쎯	-10.0715
hdnf쎯za2쎯	-10.0718
nla쎯bmi쎯	-10.0718
ymso0쎯	-10.0718
bir쎯	-10.0722
qi0쎯	-10.0724
okvif0쎯opj0쎯	-10.0728
yth쎯amwg쎯	-10.0739
qlmo쎯yri0쎯	-10.0743
,ymp0쎯	-10.0744
쎇쎀쎀	-10.0745
ouln0쎯yt0쎯	-10.0747
tjblb0쎯oimbo0쎯	-10.0748
nlomd쎯nn0쎯	-10.0749
m쎯tjblb0쎯	-10.0753
atc0쎯mmf0쎯stt쎯	-10.0755
qni0쎯tc1쎯op0쎯	-10.0757
thbu0쎯qpp0쎯	-10.0758
쎃.쎅	-10.076
tlll0쎯	-10.0763
,hqi0쎯	-10.0766
nlyhs쎯qis쎯	-10.0766
opqki쎯	-10.0769
yms0쎯	-10.0769
m쎯yrf1쎯	-10.0771
ytt0쎯uu0쎯r쎯	-10.0771
de0쎯ihmv쎯	-10.0771
whey0쎯jvd쎯	-10.0773
outrg쎯	-10.0775
jbof쎯	-10.0777
jbmc0쎯jyk쎯	-10.0782
ks0쎯fbnd0쎯	-10.0783
pp0쎯omnn0쎯	-10.0783
afhhh쎯onao쎯	-10.0786
.mgbhu쎯	-10.0786
bmr0쎯ylmh0쎯	-10.079
qsje0쎯	-10.0794
mh0쎯jmso쎯	-10.0795
m쎯jmyo쎯hapi0쎯	-10.0795
kd0쎯jbtj쎯mtc0쎯	-10.0796
eawe쎯	-10.0798
yhs쎯opj1쎯	-10.0801
hdv쎯rbo0쎯.	-10.081
takb쎯	-10.0811
opbo0쎯hlb0쎯	-10.0811
asje쎯nini0쎯	-10.0817
쎃쎀쎀쎀	-10.0817
crp0쎯vmgr쎯	-10.0819
iksi쎯yg0쎯mwv쎯	-10.0826
.za3쎯쎂.	-10.083
iomvn쎯	-10.084
×쎂	-10.0847
hapi0쎯hjrr쎯mgwg쎯	-10.0848
ivrc쎯rsln1쎯	-10.085
hsbt0쎯	-10.0853
lsh쎯l0쎯	-10.0866
dybs0쎯	-10.0873
ynib쎯ivhjr쎯	-10.0873
ldhe쎯hdnf쎯iksi쎯	-10.0874
yfiku0쎯mnr쎯vio0쎯	-10.0874
npo쎯)	-10.0876
nmkmr쎯	-10.0878
ojrk쎯uu0쎯	-10.0878
vmgr쎯dl0쎯	-10.0878
fbnd0쎯rbo0쎯	-10.0879
mnr쎯yk2쎯	-10.0881
yg0쎯tbrr쎯	-10.0882
mbhes쎯	-10.0885
yhds쎯ab0쎯	-10.0885
]	-10.0887
mwpa쎯	-10.089
vmrc쎯	-10.0903
jlv0쎯	-10.0904
,tt1쎯klg0쎯	-10.0906
ytrhu쎯nsd0쎯ks0쎯	-10.0915
tenh쎯	-10.0916
ihs0쎯yt0쎯nn0쎯	-10.0916
grtr0쎯bbke쎯	-10.0918
omrl쎯nir쎯	-10.0918
opj0쎯o쎯	-10.0921
ivmmr쎯yk0쎯	-10.0927
oymr쎯bq쎯	-10.0929
arf0쎯llml쎯	-10.0929
mgln0쎯yk2쎯	-10.0933
ymso0쎯ylmh0쎯	-10.0935
쎀쎈	-10.0945
nyvi쎯	-10.0945
mh0쎯hsyhs0쎯	-10.0946
gr0쎯dd쎯	-10.095
qqo쎯	-10.0951
hqgdi쎯hdl0쎯	-10.0954
csh0쎯mwsu쎯	-10.0956
yyk쎯wg0쎯	-10.0965
m쎯mmbo쎯	-10.0965
rc0쎯ibpp쎯	-10.0965
i1쎯yrbr0쎯	-10.0966
hyyhn쎯mk쎯	-10.0967
fbnd0쎯i1쎯	-10.097
fkvc쎯	-10.0971
쎆-	-10.0971
cnlh0쎯	-10.0972
lnmcw쎯elw쎯	-10.0972
lwnl쎯	-10.0974
ylmh0쎯dosu쎯	-10.0975
ydl쎯ci0쎯rmher쎯	-10.0979
rrikr쎯,	-10.098
jdok0쎯qbbe0쎯i1쎯	-10.0981
miks0쎯eawe쎯	-10.0997
yh쎯ehio쎯ifm쎯bq쎯	-10.1
hxvyv쎯	-10.1001
nl0쎯rudi0쎯	-10.1004
hycr쎯hyha쎯	-10.1009
쎁쎉쎇쎀oq0쎯	-10.101
za3쎯iksi쎯	-10.1011
onjv쎯tcg0쎯	-10.1011
gmf0쎯	-10.1012
ontq쎯op0쎯	-10.1012
wlpli쎯	-10.1015
hapi0쎯k0쎯	-10.1015
쎇.	-10.1017
hdyj0쎯i1쎯	-10.1027
ids쎯hqda0쎯	-10.1029
wp쎯vmog쎯	-10.103
qwli0쎯	-10.1032
lnbo쎯bq쎯	-10.1033
e쎯esp0쎯	-10.1035
pqmb쎯qsle쎯	-10.1035
gpd쎯yth쎯	-10.1042
hnlh0쎯yc쎯	-10.1044
y쎯	-10.1044
,dav쎯qsjr쎯	-10.1045
eyok쎯mgi1쎯	-10.1051
mthhh쎯lmik쎯	-10.1052
nlyhs쎯ylm쎯	-10.1055
edi0쎯yhs쎯	-10.106
nini0쎯oq0쎯dt0쎯	-10.1064
dt0쎯emhf0쎯	-10.1067
hdv쎯qhp0쎯	-10.1069
kn1쎯	-10.107
hdl1쎯nnqo0쎯	-10.1072
za3쎯hdr0쎯za2쎯	-10.1073
hodi쎯	-10.1074
imkd쎯	-10.108
쎁×	-10.1082
vmbm0쎯ihs0쎯.	-10.1087
her0쎯k0쎯	-10.1091
쎀ms0쎯onao쎯qmvif쎯	-10.1093
bhne쎯mwmmf0쎯	-10.1093
mbll쎯bm0쎯	-10.1102
ivke쎯yib쎯	-10.1103
gwg쎯	-10.1105
hd	-10.1107
hjrr쎯ythu쎯	-10.1109
bocwa0쎯	-10.1111
lic0쎯	-10.1113
tca0쎯nhe쎯	-10.1116
hqgdi쎯jmyo쎯	-10.1118
mf0쎯okr0쎯	-10.1119
nloll쎯	-10.1121
,hqgdi쎯rsln1쎯	-10.1124
jkmvs쎯oh쎯	-10.1125
klg0쎯tgk쎯wmgi쎯	-10.1125
hgdi쎯nini0쎯hdl0쎯	-10.1131
mbll쎯ihs0쎯	-10.1131
lnk0쎯msks0쎯	-10.1142
hapi0쎯mlm쎯oos쎯	-10.1148
ybo0쎯	-10.115
qive쎯	-10.1153
lmsy쎯eill쎯	-10.1157
eir쎯mgwg쎯	-10.1163
-쎁쎀	-10.1163
eqmb0쎯e쎯	-10.1165
mt0쎯ivhne쎯	-10.1167
.fsm0쎯	-10.117
goiv쎯dt0쎯goiv쎯	-10.117
onnme쎯	-10.1171
hshml쎯ivwb쎯	-10.1176
qmn0쎯mt0쎯	-10.1183
yrbr0쎯dfsm쎯	-10.1189
ytwa쎯	-10.119
jmrw쎯kb0쎯	-10.119
쎁쎉쎅쎀oq0쎯	-10.1198
vvh쎯ddi쎯	-10.1201
쎁쎉쎅쎇oq0쎯	-10.1204
iogm쎯	-10.1205
ym0쎯ylb쎯adi쎯lsa쎯	-10.1207
iksi쎯l0쎯wmgi쎯	-10.1209
mrfdq쎯	-10.1214
qjlo쎯	-10.1216
\	-10.122
hapi0쎯qje쎯id1쎯	-10.1224
qrrd쎯	-10.1225
dhjd쎯	-10.1226
rhfd쎯rnhe0쎯	-10.1226
of0쎯ofq0쎯	-10.1228
sjrc0쎯heks0쎯	-10.123
rbo0쎯,	-10.1233
yfiku0쎯ommi0쎯	-10.1238
쎉쎁	-10.1246
krru0쎯	-10.1251
.cwa0쎯	-10.1252
yhjr쎯jbm0쎯	-10.1256
jr쎯tbc0쎯	-10.1261
qtw0쎯yid0쎯:	-10.1267
쎈쎁	-10.127
mt0쎯ivke쎯hapi0쎯	-10.1273
ebcd쎯glll쎯ylb쎯	-10.1273
gpd쎯oyt쎯	-10.1274
cwj0쎯mmu0쎯	-10.1276
tnih쎯	-10.1281
iobt쎯	-10.1284
qpa0쎯jmyo쎯	-10.1286
쎀쎂	-10.1287
ykok0쎯ks0쎯md쎯	-10.1292
brog0쎯tbg0쎯	-10.1293
ci0쎯ifg쎯	-10.1296
m쎯hqm쎯	-10.1301
wmgi쎯g쎯	-10.1301
jc	-10.1303
sok0쎯hdyj0쎯	-10.1304
oylm0쎯tc1쎯hapi0쎯	-10.1304
hml쎯	-10.1312
eykl0쎯jbtj쎯	-10.1315
jher쎯is0쎯hapi0쎯	-10.1316
oiav0쎯bq쎯	-10.1317
ehio쎯	-10.1319
hdv쎯fbrlb쎯hdv쎯	-10.1319
.amyo쎯	-10.1321
her0쎯woll0쎯	-10.1321
nmks0쎯	-10.1321
eyok쎯aaa0쎯	-10.1323
mbo1쎯jbik0쎯.	-10.1324
phqm쎯hjbo쎯	-10.1326
nrli쎯op0쎯	-10.1326
moob쎯imno0쎯	-10.1329
gosje쎯	-10.1332
mwhgr쎯	-10.1333
app0쎯ab0쎯	-10.1337
za2쎯mmm쎯	-10.1338
oiva쎯	-10.1338
oin쎯mk쎯	-10.1341
ivgdi쎯ivsmr쎯	-10.1344
enl0쎯	-10.1344
lnk0쎯.	-10.1344
po0쎯efh0쎯	-10.1348
ck0쎯ytd0쎯	-10.1349
raa쎯llml쎯	-10.135
쎉쎀쎀	-10.1354
eno0쎯	-10.1355
ivke쎯qmv쎯ivop0쎯	-10.1356
tc	-10.1357
kqmj0쎯	-10.136
mmmv쎯	-10.1362
쎁쎁쎀	-10.1362
kb0쎯ypmm쎯	-10.1364
ivhne쎯klg0쎯	-10.1372
qruc쎯bysm쎯	-10.1373
umgg0쎯	-10.1384
yce0쎯ihs0쎯	-10.1387
hbks0쎯	-10.1389
wyi0쎯ytd0쎯	-10.1391
mgyrf쎯	-10.1395
eyiu0쎯miks0쎯	-10.1401
za9쎯hdr0쎯za8쎯	-10.1406
dhn0쎯dpi1쎯,	-10.1408
ci0쎯smr쎯qbq쎯kb0쎯	-10.1409
pi1쎯	-10.1411
dtmc0쎯	-10.1414
쎂쎂쎀	-10.1418
oj1쎯	-10.1421
nir쎯iksi쎯	-10.1427
ym0쎯vmnhe쎯	-10.1427
zxcy쎯	-10.143
ifbhu쎯fbbhu쎯	-10.143
sip0쎯	-10.1431
ab0쎯mrnbg쎯	-10.1431
hjrr쎯kqjqr쎯	-10.1432
hmr0쎯hapi0쎯	-10.1432
oghn쎯ota쎯	-10.1433
otc쎯lwu0쎯	-10.1433
etmb쎯ytap쎯	-10.144
j쎯mmm쎯	-10.1444
fdqmb쎯tlbk0쎯	-10.1444
tomr0쎯	-10.1444
(-)	-10.1446
fsm0쎯tbln0쎯	-10.1455
ihs0쎯nn0쎯	-10.1456
vmm0쎯bkq쎯	-10.1457
ppj쎯	-10.1459
.mbll쎯	-10.146
tgk쎯mbib쎯hapi0쎯	-10.1463
jlln쎯hqphh쎯	-10.1464
crp0쎯ssr쎯	-10.147
qjcm쎯bhne쎯	-10.1473
libt0쎯hjrr쎯	-10.1477
tt1쎯mf0쎯	-10.1478
ftmd쎯ukf0쎯	-10.1479
dbln쎯ehsk0쎯	-10.1481
otc쎯ifm쎯ycbr0쎯	-10.1483
yks쎯vmvno쎯	-10.1494
ebon쎯jmyo쎯	-10.1495
k0쎯hoggn쎯	-10.1497
ivtt쎯llmb쎯	-10.1497
yihu0쎯lwu0쎯	-10.1497
klg0쎯md쎯	-10.1501
tkhk0쎯lnk0쎯	-10.1503
qdtt쎯	-10.1505
tgk쎯mbib쎯	-10.1506
hbv0쎯oos쎯hqphh쎯	-10.151
qpa0쎯fvok쎯	-10.1514
ma0쎯oq0쎯	-10.1517
gihs쎯vvh쎯	-10.1521
no0쎯	-10.1522
opmys쎯	-10.1524
쎁쎉쎇쎆oq0쎯	-10.1531
dhn0쎯hxh쎯	-10.1538
,vmnom쎯ydi0쎯	-10.1539
eyiu0쎯amwg쎯	-10.154
nd0쎯,	-10.1543
ebhu0쎯ebon쎯	-10.1545
hbv0쎯oos쎯hqphh쎯.	-10.1549
iklu0쎯	-10.1549
za3쎯amyo쎯	-10.1549
tjblb0쎯kb0쎯	-10.155
ivhne쎯ivj쎯,	-10.155
fjks쎯	-10.1552
nir쎯jmso쎯	-10.1554
tbnf0쎯	-10.1558
,ylnc쎯	-10.1561
쎁쎉쎆쎀oq0쎯	-10.1564
쎁쎉쎇쎅oq0쎯	-10.1564
uk0쎯	-10.1566
tkymr쎯jbof쎯	-10.1573
.hqi0쎯olis쎯	-10.1573
tcb0쎯lsa쎯,	-10.1581
qjnau쎯	-10.1582
쎇쎁	-10.1585
wg0쎯hapi0쎯	-10.1588
jrlr0쎯yhs쎯	-10.1589
mrt0쎯ioib쎯	-10.1589
crp0쎯qhne0쎯iobo쎯	-10.159
ytrhu쎯jtco0쎯	-10.1592
쎀.쎂	-10.1593
jrb쎯dyfe쎯fdcsh쎯	-10.1595
nbg0쎯ite쎯	-10.16
nk0쎯nir쎯	-10.16
nklq쎯md쎯	-10.16
ytap쎯bhu0쎯	-10.1601
7쎯	-10.1603
nahi쎯	-10.1603
fusmg쎯	-10.1603
iku0쎯tmmc0쎯amyo쎯	-10.1604
:쎂	-10.1606
mvr쎯	-10.1611
ehjr쎯miks0쎯,	-10.1612
hed0쎯omnn0쎯	-10.1613
tca0쎯yhsb0쎯	-10.1614
hdv쎯fbrhu쎯dyck0쎯	-10.1615
impko쎯	-10.1618
yuoii1쎯	-10.1618
oimbo0쎯rudi0쎯my쎯	-10.1625
qme쎯jrhu쎯hnk0쎯	-10.1632
hqm쎯yth쎯hapi0쎯	-10.1633
tcg0쎯c쎯ommi0쎯	-10.1639
egi쎯za9쎯	-10.1639
vmrlu쎯	-10.164
amg쎯	-10.1645
olln쎯u쎯	-10.1646
vsql쎯	-10.1648
hovie쎯	-10.1648
nlytj쎯mrami쎯	-10.1648
phqm쎯hdr0쎯	-10.1652
mrjnu쎯	-10.1653
쎀～	-10.1653
pdk쎯qjlo쎯	-10.1654
famj0쎯qytv0쎯	-10.1655
tlwc쎯emnr쎯	-10.1661
qni0쎯eyg0쎯md쎯	-10.1669
pd0쎯mnr쎯vio0쎯	-10.1674
ohxu0쎯	-10.168
ev0쎯	-10.1686
obmc쎯	-10.1688
yhsk쎯ivqmb쎯	-10.1691
tcsh쎯	-10.1691
dedi쎯bpa0쎯	-10.1693
mfj0쎯mhaf0쎯	-10.1694
mhaf0쎯nir쎯	-10.1696
oos쎯hqphh쎯	-10.1697
vmisb쎯mrnvm쎯	-10.1697
.za3쎯ilr0쎯	-10.17
dmnr쎯	-10.1704
쎀쎆	-10.1704
:쎃	-10.1708
mwsl쎯hdrc쎯쎃	-10.1709
l0쎯jbtj쎯	-10.1711
mbtjb0쎯	-10.1716
rj쎯llml쎯	-10.1719
쎁쎉쎅쎉oq0쎯	-10.172
qsm쎯qtw0쎯	-10.172
eabt0쎯hae쎯	-10.1721
tod0쎯rj쎯	-10.1721
dyfe쎯	-10.1723
yhml쎯oq0쎯dt0쎯	-10.1724
o쎯fvok쎯	-10.1724
tc1쎯vmqmo쎯	-10.1728
ihs0쎯o쎯	-10.1732
쎀.쎀	-10.1734
mfj0쎯yhs쎯fd0쎯.	-10.1735
su1쎯ihs0쎯iksi쎯	-10.1736
kqmob쎯	-10.1736
쎁.쎂	-10.1743
oinl0쎯	-10.1751
l0쎯mhaf0쎯	-10.1753
ehsk0쎯	-10.1756
ifg쎯ommi0쎯hdyj0쎯	-10.1756
yri0쎯hohne0쎯	-10.1757
≥	-10.1762
mm0쎯oq0쎯	-10.1762
nn0쎯.	-10.1766
hmr0쎯tcb0쎯	-10.1767
phqm쎯i1쎯	-10.1768
bkk쎯ke0쎯	-10.1771
klg0쎯sjrc0쎯	-10.1774
mwyoj쎯	-10.1778
za9쎯tkhk0쎯	-10.1778
ypmm쎯	-10.178
l0쎯kb0쎯	-10.178
qhvl쎯hbln0쎯	-10.1784
ym0쎯kb0쎯	-10.1787
ivj쎯amwg쎯	-10.1787
imir쎯c쎯	-10.1788
dpi1쎯nklq쎯	-10.179
hdbm쎯	-10.1791
ip	-10.1794
쎁쎉쎆쎅oq0쎯	-10.1794
hapi0쎯her0쎯hdl0쎯	-10.1808
hqu0쎯eeq0쎯kd0쎯	-10.181
oik1쎯ipm0쎯	-10.1811
tbok0쎯yk0쎯	-10.1814
rhu쎯	-10.1825
jhgu쎯	-10.1825
qrbo쎯hqo0쎯	-10.1826
tm0쎯llfl0쎯fhbu0쎯	-10.1827
dgce쎯	-10.1829
mnr쎯bhu0쎯	-10.1835
ehjr쎯miks0쎯.	-10.1836
m쎯my쎯	-10.1838
opnir쎯	-10.1838
!za3쎯	-10.1841
쎁쎉쎀	-10.1843
tvip쎯	-10.1844
famj0쎯	-10.1844
nmmbo쎯	-10.1849
m쎯odm0쎯op0쎯	-10.1851
dm0쎯gpd쎯	-10.1854
vep쎯	-10.1854
rrikr쎯ddh쎯	-10.1857
dpi1쎯yhgr0쎯	-10.186
ile쎯oahe쎯	-10.186
opjbc쎯mmok쎯iodi쎯	-10.1861
sjb0쎯	-10.1865
ekql쎯	-10.1866
ebcd쎯ite쎯	-10.1869
hghu쎯ytt0쎯ol1쎯o쎯	-10.1873
opbk쎯mgoin0쎯	-10.1874
ojlk쎯bq쎯.	-10.1875
yrnd쎯kb0쎯	-10.1877
csho쎯	-10.1878
fubkq쎯fhag쎯	-10.188
vmnau쎯edi0쎯	-10.1883
fdqmb쎯bdhhh0쎯	-10.1883
eeem0쎯	-10.1883
ma0쎯vhqm쎯	-10.1885
onlln쎯	-10.1897
hjwg쎯nklq쎯	-10.19
jnk쎯ymy0쎯rrikr쎯	-10.1903
za9쎯knd0쎯gp0쎯	-10.1903
쎅csh0쎯opl쎯	-10.1908
쎁쎉쎅쎄oq0쎯	-10.1909
mk쎯gpd쎯	-10.1913
mgbhu쎯iksi쎯	-10.1919
qmb쎯qka쎯	-10.1932
dam0쎯ivpa0쎯	-10.1937
ejoc쎯	-10.1939
pav쎯	-10.1942
jiog쎯	-10.1943
kqomn쎯ytk쎯	-10.1944
vmog쎯hqm쎯qmvif쎯	-10.1945
yrbb0쎯	-10.1951
쎀쎄	-10.1954
niy쎯wmgi쎯	-10.1956
qlmy쎯mnln쎯	-10.1961
ivsu쎯pn0쎯	-10.1962
se0쎯	-10.1966
am0쎯	-10.1966
mfhnk쎯	-10.1967
vlok쎯ogd0쎯	-10.1968
쎁쎉쎅쎅oq0쎯	-10.1969
ophej쎯	-10.1974
vmsu0쎯nmme0쎯	-10.1981
wmgi쎯ythu쎯	-10.1983
bkk쎯mbo0쎯	-10.1984
쎉-	-10.1986
nmyg쎯gpd쎯	-10.1989
hnlh0쎯mm0쎯slw0쎯	-10.199
gah쎯yta0쎯	-10.1995
ppj쎯tc1쎯hmr0쎯	-10.1997
kb0쎯hshml쎯	-10.2004
mf0쎯fh쎯	-10.2007
ahvl쎯	-10.2008
dtmm0쎯bu0쎯	-10.2009
qytv0쎯vlok쎯	-10.201
l0쎯u쎯ylb쎯	-10.2014
mwsl쎯hdrc쎯vmpi쎯	-10.2017
qrbo쎯	-10.2018
mryiu0쎯	-10.2021
ki0쎯mfj0쎯etq0쎯	-10.2025
iksi쎯yg0쎯.	-10.2026
eev0쎯	-10.2026
l0쎯mcw쎯sok0쎯	-10.2027
hapi0쎯adi쎯lsa쎯	-10.2029
crp0쎯mwsl쎯hdrc쎯	-10.2033
homm0쎯	-10.2036
yqs쎯	-10.2036
lbyr쎯	-10.2037
쎁쎉쎆쎂oq0쎯	-10.2048
ivmym쎯ab0쎯	-10.205
nl0쎯tkq쎯	-10.2052
j쎯k0쎯	-10.2054
za9쎯hapi0쎯	-10.2056
쎁쎉쎅쎂oq0쎯	-10.206
yh쎯ilil쎯ylb쎯	-10.2061
mwsu쎯kb0쎯	-10.2061
rapv쎯	-10.2061
oos쎯uu0쎯	-10.2062
bmr0쎯dtq쎯	-10.2063
ombp0쎯	-10.2065
,m쎯	-10.2067
,je0쎯qgdi쎯	-10.2074
mwsu쎯hew쎯	-10.2077
/쎂	-10.2078
ng0쎯	-10.2081
쎇ol1쎯	-10.2083
tc0쎯fbrhu쎯rbo0쎯	-10.2084
hapi0쎯ifg쎯ommi0쎯	-10.2088
,rmss쎯yukb0쎯	-10.209
쎃)	-10.2094
nnmbo0쎯ebon쎯	-10.21
skno쎯tgk쎯	-10.2102
ob1쎯niy쎯	-10.2105
.qsjr쎯	-10.2108
zxcq쎯	-10.2108
hqm쎯yth쎯vmij0쎯	-10.2115
ik1쎯heks0쎯	-10.2115
pru쎯qhjr쎯:	-10.2117
kqjqr쎯sk0쎯	-10.2118
ivnj쎯	-10.2123
if	-10.2126
lsh쎯vmnhe쎯	-10.213
eapp0쎯impko쎯g쎯	-10.213
vmfh쎯	-10.2131
tqsmm쎯	-10.2135
liwvf쎯	-10.2138
dt0쎯mgln0쎯	-10.2142
oq0쎯kqnom쎯	-10.2143
ichui쎯egi쎯	-10.2144
쎁쎉쎆쎈oq0쎯	-10.2144
eomd0쎯fdyj쎯	-10.2152
쎁쎉쎇쎁oq0쎯	-10.2154
pcru1쎯	-10.2154
timo쎯	-10.2155
wd1쎯eog0쎯	-10.2155
aisl쎯mnr쎯.	-10.2164
hdyj0쎯tca0쎯	-10.2166
jcik쎯bkf0쎯	-10.2167
rbo0쎯.	-10.2168
:je0쎯qgdi쎯	-10.217
bb	-10.217
,tkhk0쎯	-10.217
omrl쎯nir쎯iksi쎯	-10.2173
dfsm쎯	-10.2176
hvif쎯vmyiu쎯i1쎯	-10.2177
-쎂-	-10.2182
hdr0쎯ivke쎯stv쎯	-10.2185
oppi1쎯	-10.2185
fdk0쎯ovio쎯	-10.2191
amyo쎯m쎯nir쎯	-10.2191
nkhg쎯	-10.2193
l0쎯nc쎯oylm0쎯tc1쎯	-10.2195
tgk쎯oiav0쎯	-10.2197
mlm쎯ommi0쎯	-10.2201
dbu쎯oymr쎯	-10.2202
dlnbo쎯	-10.2207
kb0쎯m쎯ol1쎯	-10.2207
oum쎯	-10.2208
m쎯yrnl0쎯csh0쎯	-10.2208
iobo쎯ebcd쎯	-10.2209
hnlh0쎯mm0쎯imno0쎯	-10.2212
woll0쎯mwsl쎯	-10.2219
yhgu쎯fcq0쎯	-10.2222
mhaf0쎯ouln0쎯	-10.2226
----	-10.2234
fate쎯fos쎯	-10.2236
쎁rmvs쎯	-10.2236
pw쎯	-10.2243
g쎯gyrv쎯	-10.2251
dm0쎯rrr0쎯	-10.2251
ehkp쎯ksr쎯	-10.2253
ivke쎯stv쎯,	-10.2255
oqni쎯za9쎯	-10.2255
mh0쎯ycbr0쎯	-10.2256
mmm쎯mtc0쎯	-10.2258
klg0쎯yyk쎯wg0쎯	-10.2258
m쎯qpp0쎯	-10.2261
yhml쎯oip0쎯	-10.2261
cism0쎯	-10.2272
ite쎯orse쎯	-10.2274
mwbmr쎯	-10.2278
dcnh쎯	-10.2279
qtc쎯	-10.2293
ydhml0쎯nklq쎯	-10.2293
okn0쎯	-10.2297
o쎯srtq0쎯	-10.2298
wg0쎯mwsl쎯	-10.2303
dbu쎯vmgr쎯omr0쎯	-10.2303
qnsh쎯gah쎯rrikr쎯	-10.2304
쎂쎀쎀쎃	-10.2305
une쎯fvok쎯	-10.2306
ci0쎯hml쎯	-10.2308
pmmr0쎯	-10.231
∶	-10.2312
yjdl쎯	-10.2315
m쎯llml쎯	-10.2318
ivmfj쎯yhgu쎯	-10.2319
mlm쎯tn0쎯tgk쎯id1쎯	-10.232
oaa쎯rudi0쎯	-10.2321
mku쎯nlav쎯	-10.2321
qj0쎯jmrw쎯,	-10.2323
honkn0쎯	-10.2325
mmue쎯lis쎯	-10.2326
dav쎯qsjr쎯gpd쎯	-10.2327
dnib쎯	-10.2328
hbu0쎯eir쎯bmi쎯	-10.2328
wlni쎯nvsm쎯	-10.2334
lloa쎯adi쎯	-10.2339
pym쎯	-10.2343
ine쎯ymmu0쎯	-10.2345
vmpi쎯쎁	-10.2346
oip0쎯mrnvm쎯	-10.2347
pd0쎯yfiku0쎯amyo쎯	-10.2348
ci0쎯smr쎯amyo쎯	-10.2349
yooj쎯	-10.2352
moob쎯oq0쎯	-10.2356
jrb쎯bmr0쎯	-10.2361
ee0쎯ids쎯zxaf쎯	-10.2366
쎁쎀-	-10.2367
rsnl0쎯	-10.2372
qni0쎯mmbo쎯	-10.2378
djr쎯	-10.2382
tmff0쎯	-10.2382
okvif0쎯tbd1쎯	-10.2387
ivke쎯uu0쎯	-10.2393
rmher쎯vmij0쎯	-10.2395
mlwk쎯amyo쎯	-10.2395
gjbc쎯	-10.2395
(쎁	-10.2396
oiku쎯iav0쎯	-10.2397
ilr0쎯oip0쎯	-10.24
hbv0쎯rvp쎯o쎯gpim쎯	-10.2402
v쎯o쎯	-10.2403
holq쎯llmb쎯	-10.2405
boij0쎯	-10.2406
쎂쎀쎁쎃oq0쎯	-10.2408
eylh0쎯	-10.2412
쎁쎉쎄쎅oq0쎯	-10.2413
fhbu0쎯ylb쎯	-10.2416
nmsu0쎯dhn0쎯	-10.2419
yukb0쎯nd0쎯	-10.242
oylm0쎯tc1쎯,	-10.2423
ifu쎯rrr0쎯	-10.2425
owyi0쎯m쎯ol1쎯	-10.2429
jdok0쎯sjrc0쎯mlm쎯	-10.2429
whey0쎯mthhh쎯	-10.243
ynbo0쎯hoami쎯nn0쎯	-10.2433
eqmb0쎯ehgu쎯	-10.2445
m쎯rc0쎯	-10.2447
.eqmb0쎯	-10.2448
olhh0쎯oahe쎯	-10.2451
,mf0쎯vdhml쎯	-10.2453
mrmbo0쎯	-10.2455
mmm쎯nbg0쎯	-10.2455
ahbu0쎯	-10.2461
ojrk쎯mgln0쎯	-10.2462
yg0쎯miks0쎯	-10.2463
pog0쎯	-10.2463
eowy쎯ob1쎯niy쎯	-10.2464
ivmmr쎯yta0쎯	-10.2466
qmku쎯	-10.2469
tlit쎯mvdh쎯	-10.247
lwnl쎯mmok쎯	-10.2472
dbu쎯tk0쎯hapi0쎯	-10.2473
yyyx	-10.2481
qhne0쎯afhhh쎯	-10.2484
eqki0쎯	-10.2486
mrmlk쎯ohq쎯	-10.249
jkmvs쎯dyvo쎯	-10.249
ogr0쎯	-10.2491
mgwg쎯jlln쎯i1쎯	-10.2492
ypd0쎯	-10.2493
irp0쎯bbe쎯	-10.2493
,mks1쎯ohg쎯	-10.2494
bodh쎯jmrw쎯	-10.25
bsle0쎯nvolb쎯	-10.2502
csh0쎯yrnd쎯	-10.2502
m쎯gdk쎯	-10.2505
enib쎯	-10.2505
vmjpu쎯	-10.2509
bq쎯oos쎯	-10.2511
쎁쎉쎆쎆oq0쎯	-10.2511
cwa0쎯klg0쎯	-10.2514
ddni쎯dup쎯	-10.2515
lwnl쎯mwmmf0쎯	-10.2516
mmm쎯hdl0쎯	-10.2516
wdmbo쎯	-10.2518
oylm0쎯jlln쎯tc1쎯	-10.2518
janl쎯ommi0쎯	-10.2519
jcmvh쎯goiv쎯	-10.2522
csh0쎯hjrr쎯	-10.2525
yjilj쎯	-10.2532
ytqmb쎯	-10.2533
hlno0쎯	-10.2535
l0쎯wmgi쎯k0쎯nlqu쎯	-10.2537
jlk쎯	-10.2538
kn0쎯ikp0쎯	-10.2539
nahu쎯khne쎯	-10.254
lw쎯l0쎯wmgi쎯	-10.2543
ebhu0쎯oinp0쎯	-10.2545
je0쎯qfbq쎯	-10.255
iml쎯qu0쎯	-10.2551
hnk0쎯ayrf0쎯sk0쎯	-10.2552
mgi1쎯vmjoa쎯	-10.2553
goru쎯,	-10.2553
%,	-10.2554
hqm쎯hqphh쎯fbnd0쎯	-10.2555
mmu0쎯ohq쎯	-10.2555
efb0쎯op0쎯	-10.2558
terd쎯	-10.2559
qamo쎯uu0쎯nn0쎯	-10.256
.쎇	-10.2563
opwg쎯lwu0쎯epd0쎯	-10.2565
tknl1쎯ilil쎯	-10.2565
hohne0쎯	-10.2569
ivhne쎯hew쎯i1쎯	-10.257
wrbo쎯mthhh쎯	-10.2573
ylnc쎯hdnf쎯	-10.2578
ouln0쎯vir쎯o쎯	-10.2584
.yyk쎯hdl0쎯	-10.2584
egi쎯hbln0쎯	-10.2585
dembo쎯	-10.2586
nolmi0쎯ha쎯hjbo쎯	-10.2588
ivtq쎯	-10.2588
ofq0쎯	-10.2589
쎁쎉쎆쎉oq0쎯	-10.2592
mks1쎯oip0쎯	-10.2594
쎁쎉쎅쎃oq0쎯	-10.2597
qytv0쎯yhml쎯	-10.2598
≤	-10.2604
khiav쎯	-10.2604
kbnl1쎯	-10.2609
fjcr쎯	-10.261
m쎯oip0쎯	-10.261
fbmmi쎯	-10.261
emg쎯	-10.2611
jyk쎯odm0쎯	-10.2612
ids쎯l0쎯	-10.2618
mwsl쎯fdcsh쎯	-10.262
mrmt쎯jckn쎯jmig쎯	-10.2622
za14쎯	-10.2622
dkmym0쎯mthhh쎯	-10.2625
ycbr0쎯hhbo0쎯	-10.2625
re0쎯	-10.2627
mdm쎯ol1쎯	-10.263
ommi0쎯rbo0쎯.	-10.2631
yg0쎯dhe1쎯	-10.2637
.쎄i1쎯	-10.2637
hapi0쎯oos쎯bq쎯	-10.2642
.vr쎯	-10.2642
쎅쎀쎀쎀	-10.2644
eysd0쎯jher쎯	-10.2644
elw쎯muw쎯	-10.2645
hdkkb쎯	-10.2648
klg0쎯m쎯goru쎯	-10.2652
qkni0쎯egi쎯	-10.2653
yrhv쎯	-10.2658
jcks쎯	-10.2658
jmd쎯jlw쎯	-10.2658
jtco0쎯jlln쎯	-10.2661
thbu0쎯jmso쎯	-10.2661
kqkn쎯	-10.2662
sk0쎯.	-10.2667
lswl쎯	-10.2669
ehf1쎯	-10.2669
bd0쎯bq쎯nn0쎯	-10.2669
je0쎯yrnl0쎯	-10.267
bgr0쎯tcb0쎯	-10.267
bd0쎯ogd0쎯	-10.267
k0쎯dhkl쎯	-10.2671
khxe쎯	-10.2671
ivsu쎯za9쎯	-10.2674
ycbr0쎯ommi0쎯	-10.2677
ydhml0쎯sk0쎯	-10.2682
bdlw쎯	-10.2683
l0쎯wmgi쎯tgk쎯id1쎯	-10.2695
lwu0쎯mrtvi0쎯	-10.2696
쎂쎀쎀쎆	-10.2698
lllo쎯hdln0쎯	-10.27
ykok0쎯ifm쎯	-10.2702
yhgu쎯q쎯	-10.2703
bpa0쎯byhs쎯	-10.2703
qytv0쎯hogdi쎯	-10.271
fdqmb쎯iflwl쎯,	-10.2711
dnlb1쎯wrbo쎯	-10.2717
jcrob쎯	-10.2718
쎁쎃쎀	-10.2719
jkmvs쎯ypp0쎯	-10.2719
vio0쎯tmmc0쎯	-10.2723
yk0쎯rsln1쎯nir쎯:	-10.2725
ophqo쎯ythu쎯	-10.2726
bkf0쎯hmr0쎯	-10.2738
.mgbhu쎯iksi쎯	-10.2743
쎃.쎀	-10.2746
tk0쎯opnkq쎯	-10.2752
ivshr쎯	-10.2754
de0쎯tcbt쎯	-10.2756
buav쎯buqmb쎯	-10.2759
vlmo0쎯	-10.2762
쎀.쎃	-10.2762
ehgu쎯imnsd쎯,	-10.2763
rks0쎯m쎯	-10.2766
thdn0쎯	-10.2766
nmsk쎯	-10.2767
mgije쎯nlo쎯	-10.2767
쎄)	-10.2767
쎁쎉쎇쎇oq0쎯	-10.2768
hqm쎯ehjr쎯hapi0쎯	-10.2769
qobhu쎯ytaj0쎯	-10.277
l0쎯yk0쎯hvif쎯	-10.2772
yyyce쎯,oq0쎯	-10.2773
jiyhv0쎯	-10.2775
mm0쎯imno0쎯	-10.2777
qhpm쎯	-10.278
yrnl0쎯oyt쎯	-10.2781
tlit쎯nau0쎯	-10.2783
sjtk쎯omr0쎯wmgi쎯	-10.2787
yhej0쎯	-10.2787
lwu0쎯miks0쎯	-10.2789
ksr쎯abbt쎯	-10.279
khndt쎯	-10.279
lso쎯	-10.2791
fmu쎯hybt0쎯	-10.2792
kmob쎯o쎯	-10.2792
,ymf0쎯kb0쎯	-10.28
km0쎯kr0쎯,	-10.28
tomr0쎯tmm0쎯	-10.2801
.iksi쎯nn0쎯	-10.2809
ojlk쎯bq쎯hapi0쎯	-10.2818
dby0쎯	-10.2819
mtch쎯ivtlm쎯	-10.2821
tbln0쎯hxh쎯amyo쎯	-10.2821
쎁쎉쎇쎂oq0쎯	-10.2822
jav쎯	-10.2827
eijb쎯kd0쎯	-10.2829
ysono0쎯kqqni쎯	-10.283
qdhqu쎯	-10.2832
hnk0쎯fmu쎯	-10.2832
dhn0쎯id0쎯	-10.2834
lsr0쎯aombo쎯,	-10.2835
mpylm쎯id1쎯	-10.2835
bk0쎯	-10.2836
hlsa쎯oll쎯	-10.2836
sbln0쎯	-10.2837
jmn쎯edhe쎯	-10.2837
je0쎯odi0쎯	-10.2839
ifbhu쎯nbg0쎯	-10.2839
yrbr0쎯yk2쎯	-10.2842
crp0쎯odm0쎯	-10.2845
ppj쎯tc1쎯,	-10.2848
bu0쎯nmme0쎯	-10.2853
mnr쎯otc쎯	-10.2857
oam쎯amyo쎯	-10.2859
ninn쎯	-10.2859
nhs쎯mig0쎯	-10.2861
hqm쎯miks0쎯	-10.2861
tapv쎯	-10.2862
.mks1쎯ohg쎯	-10.2864
sjtk쎯jtco0쎯	-10.2865
eune0쎯tgbt쎯	-10.2871
gomj쎯	-10.2879
ivhne쎯hew쎯k	-10.288
ifnme쎯	-10.2883
za3쎯(	-10.2887
lllb쎯	-10.2887
.wk0쎯	-10.2888
,ksr쎯	-10.2888
ivhne쎯jmyo쎯	-10.2892
ymb쎯	-10.2894
l0쎯tc0쎯l0쎯lbk0쎯	-10.2896
hdnf쎯ino0쎯iksi쎯	-10.2897
vmng쎯vmpi쎯	-10.2898
sp쎯mtc0쎯	-10.2898
heo쎯,	-10.2899
hgdi쎯hgdi쎯	-10.2906
okt쎯	-10.2907
sjr0쎯hdv쎯ommi0쎯	-10.2918
dtak쎯hqgdi쎯	-10.2918
ksr쎯pdk쎯	-10.2921
jmmu0쎯ihs0쎯nn0쎯	-10.2921
tcg0쎯mruu쎯ym0쎯,	-10.2921
is0쎯niy쎯	-10.2922
[	-10.2926
kd0쎯hnk0쎯	-10.2926
jr쎯gihs쎯	-10.2928
yg0쎯mwv쎯amyo쎯	-10.2929
mnr쎯hgrly쎯	-10.293
bnmu0쎯	-10.2935
itxc쎯	-10.2937
hbu0쎯hommn0쎯	-10.2939
vmbme쎯	-10.2944
m쎯je0쎯	-10.2946
쎁쎉쎆쎁oq0쎯	-10.2946
9쎯	-10.2949
tbmo쎯jr쎯	-10.2951
yg0쎯ohg쎯,	-10.2951
crp0쎯vlok쎯oh쎯	-10.2953
hjrr쎯mgwg쎯hdr0쎯	-10.2956
hew쎯bq쎯	-10.296
wks0쎯v쎯	-10.2963
kb0쎯:	-10.2964
gam쎯jrhu쎯	-10.2965
oqni쎯nnqo0쎯	-10.2966
ifsmr쎯	-10.2969
.vpd쎯	-10.2972
,yyk쎯amyo쎯	-10.2973
qtt0쎯	-10.2975
ym0쎯bkk쎯	-10.2976
viav쎯	-10.2983
tlj쎯	-10.2984
fbnd0쎯mks1쎯,	-10.2984
srln0쎯za8쎯	-10.2987
jdok0쎯vmkvc쎯	-10.2988
ebcd쎯yoln0쎯	-10.299
ofj쎯	-10.2991
dmlk쎯	-10.2994
ivyvo쎯ddi쎯	-10.2997
oq0쎯mfj0쎯gpim쎯	-10.2999
wdmbo쎯fdyt쎯	-10.2999
bodh쎯yth쎯	-10.3003
.쎁쎂	-10.3004
qbcd쎯ivdi쎯	-10.3006
goiv쎯jbtj쎯	-10.3007
gihs쎯bmi쎯	-10.3007
oq0쎯oip0쎯	-10.301
k0쎯amwg쎯hapi0쎯	-10.3014
쎀yyycg쎯	-10.3022
amyo쎯m쎯hshml쎯	-10.3028
rog0쎯m쎯hapi0쎯	-10.3029
mpylm쎯ee0쎯ylb쎯	-10.303
eyiu0쎯oqni쎯	-10.3031
eqmb0쎯egr쎯	-10.3035
eatc쎯ite쎯	-10.3036
klnd쎯klg0쎯hapi0쎯	-10.3037
albk0쎯	-10.3039
ooo0쎯hqm쎯	-10.3042
cimbo쎯	-10.3047
wr쎯mgln0쎯	-10.3049
ylb쎯gnsh쎯hapi0쎯	-10.3049
yh쎯ehio쎯hapi0쎯	-10.3053
yaj쎯goiv쎯	-10.3055
ioib쎯	-10.3056
tbc0쎯mng0쎯	-10.3057
rsln1쎯nir쎯	-10.3059
lwu0쎯ir0쎯	-10.3064
o쎯k0쎯fbrlb쎯hdv쎯	-10.3066
ihu쎯ivoj쎯	-10.3068
,m쎯hyhne쎯	-10.3069
rhg0쎯mgbhu쎯	-10.3071
ycbr0쎯gihs쎯	-10.3075
ebu0쎯	-10.3078
tcg0쎯yrnl0쎯	-10.3078
suok0쎯vmisb쎯	-10.3084
hdph0쎯	-10.3085
lmnii쎯tmmc0쎯	-10.3092
ohpm쎯eabt0쎯	-10.3094
ni1쎯qnsh쎯	-10.3096
gamo쎯	-10.3096
qog0쎯uu0쎯hapi0쎯	-10.3099
levif쎯jphu0쎯	-10.3101
ci0쎯wg0쎯.	-10.3108
lcor쎯	-10.3109
(.)	-10.3109
yt0쎯ryo0쎯	-10.3113
mgmf0쎯tsl쎯	-10.3114
ni0쎯	-10.3117
l0쎯nc쎯fbnd0쎯	-10.3117
mlm쎯oos쎯o쎯rbo0쎯	-10.3118
ibpp쎯amwg쎯	-10.3119
lscru쎯	-10.3126
fbrhu쎯dyck0쎯	-10.3128
edd0쎯	-10.3131
amyo쎯hqi0쎯wmgi쎯	-10.3131
hqm쎯yib쎯	-10.3131
#	-10.3133
mbdbu쎯	-10.3134
sqnl0쎯ol1쎯	-10.3135
txc쎯sjrc0쎯	-10.3137
쎁.쎀	-10.3141
ivjka쎯nini0쎯	-10.3146
vmvfd쎯nnqo0쎯	-10.3149
po0쎯jv0쎯	-10.3157
m쎯mgok0쎯	-10.3158
gam쎯	-10.3163
,mthhh쎯ihs0쎯	-10.3164
klg0쎯wmgi쎯ob1쎯	-10.3166
qsm쎯	-10.3167
mnmbo쎯vmnhe쎯	-10.3167
top0쎯jt0쎯	-10.3168
k0쎯omn1쎯	-10.3168
qmv쎯yjhhh0쎯	-10.3171
.bu0쎯tbln0쎯,	-10.3173
mmm쎯vmnhe쎯	-10.3175
vmshr0쎯	-10.3176
brog0쎯yoln0쎯	-10.3176
mhaf0쎯nd0쎯	-10.3179
qje쎯id1쎯hdr0쎯	-10.3182
쎂쎀쎀쎅	-10.3185
hapi0쎯tcg0쎯mruu쎯	-10.3186
hapi0쎯yhs쎯egi쎯	-10.3188
oin쎯oq0쎯	-10.3191
쎈)	-10.3192
쎀쎀	-10.3195
wmv쎯	-10.3198
jm0쎯fbnd0쎯oyt쎯.	-10.32
goshr쎯ylb쎯	-10.3201
vis쎯	-10.3202
tk0쎯tsl쎯	-10.3208
mwln쎯yrnl0쎯po0쎯	-10.3215
yvp0쎯	-10.3217
ohg쎯jdok0쎯	-10.322
ept쎯	-10.322
lmik쎯,	-10.322
yrbr0쎯smmi0쎯	-10.3221
nlyto쎯ythu쎯	-10.3221
hapi0쎯ob1쎯jcor쎯	-10.3224
vmkvc쎯sim쎯	-10.3226
mmok쎯eir쎯yrnl0쎯	-10.3227
fvok쎯j쎯	-10.3227
bmi쎯vmnhe쎯	-10.323
hapi0쎯dyvo쎯p쎯	-10.3234
gydk쎯	-10.3235
fpu쎯	-10.3237
qbou1쎯	-10.3239
hshml쎯kb0쎯hapi0쎯	-10.3241
쎁쎉쎃쎈oq0쎯	-10.3242
viks0쎯lu0쎯	-10.3245
sj0쎯dhn0쎯	-10.3245
tbg0쎯byck0쎯	-10.3247
qbme쎯	-10.3249
hdyj0쎯fbnd0쎯ysm쎯	-10.3253
nsbt0쎯	-10.3258
owyi0쎯mk쎯	-10.3259
yg0쎯ejmc0쎯	-10.326
,bd0쎯bq쎯	-10.326
sqnl0쎯hi0쎯	-10.3268
qy쎯	-10.3272
pim쎯	-10.3272
vsu쎯	-10.3272
hqi0쎯hapi0쎯	-10.3274
rudi0쎯hyyhn쎯	-10.3276
qje쎯id1쎯i1쎯	-10.3277
vmj쎯	-10.3281
kw쎯	-10.3281
jkp0쎯o쎯	-10.3282
ihs0쎯yt0쎯,	-10.3287
yrnl0쎯yrnl0쎯po0쎯	-10.3288
j쎯wc0쎯	-10.3292
hhw쎯fbnd0쎯	-10.3295
kmmf0쎯	-10.3296
hodhe쎯	-10.3297
mblmi0쎯iobo쎯	-10.3298
hyhne쎯	-10.33
my쎯shlb0쎯	-10.33
hne0쎯hnhag0쎯	-10.3305
jmmf0쎯pa1쎯	-10.3307
rnhe0쎯nl0쎯	-10.3308
kb0쎯za2쎯	-10.3308
lloa쎯ehml0쎯	-10.3308
yks쎯,rmss쎯yukb0쎯	-10.331
wks0쎯,	-10.3311
jv0쎯bmi쎯	-10.3313
fbln쎯	-10.3314
dy쎯	-10.3314
k0쎯nini0쎯fvok쎯	-10.3318
uni0쎯hapi0쎯	-10.3323
qopd0쎯	-10.3326
dbu쎯ifm쎯	-10.3326
omr0쎯dher쎯	-10.333
oqni쎯ycnh쎯	-10.3334
uu0쎯dt0쎯hapi0쎯	-10.3335
tyv0쎯	-10.3344
wmgi쎯yt0쎯	-10.3345
yrnd쎯	-10.3345
hxh쎯ocsh쎯	-10.335
sjtk쎯qjnl0쎯	-10.335
ogr0쎯hmr0쎯	-10.3353
le0쎯shlb0쎯	-10.3354
mboii0쎯ogr0쎯	-10.3355
uog0쎯	-10.3355
bbpm쎯	-10.3358
nvhe쎯iyr쎯	-10.336
oiku쎯tgk쎯	-10.336
m쎯wdmbo쎯	-10.336
hnlh0쎯m쎯slw0쎯	-10.3361
nup쎯	-10.3361
ubk쎯oyt쎯	-10.3367
rine쎯	-10.3367
bhae쎯	-10.3369
onff쎯	-10.337
gpim쎯kb0쎯	-10.337
wmgi쎯nlmmf쎯op0쎯	-10.3371
hwmvs1쎯	-10.3372
wvif쎯	-10.3373
yptc0쎯qvio쎯	-10.3378
nir쎯fcymr쎯	-10.3381
ohkl쎯	-10.3382
hqphh쎯rrr0쎯	-10.3382
oi0쎯	-10.3385
jphu0쎯psh0쎯	-10.3389
jlln쎯mmbo쎯	-10.3392
yg0쎯ohg쎯i1쎯	-10.3393
tkr0쎯mj쎯	-10.3395
kqrsj쎯	-10.3396
hab쎯dmmf0쎯jtco0쎯	-10.3397
qmmv쎯miks0쎯	-10.34
,mgbhu쎯klg0쎯	-10.34
쎅)	-10.3402
,v쎯,	-10.3405
kd0쎯eowy쎯	-10.3406
asje쎯vnd쎯hapi0쎯	-10.3408
tbrr쎯tc1쎯	-10.341
(쎄	-10.3411
tmfj쎯wd0쎯	-10.3412
ebhu0쎯yrf1쎯	-10.3412
oylm0쎯tc1쎯jmso쎯	-10.3413
ommi0쎯mgwg쎯jlln쎯	-10.3414
,nini0쎯	-10.3415
ehbk0쎯lis쎯	-10.3415
vjr쎯	-10.3417
lwu0쎯nlbm0쎯	-10.3418
oomn0쎯	-10.3418
fvok쎯qjcm쎯	-10.3418
ym0쎯ivke쎯qmv쎯	-10.342
lwnl쎯ohq쎯	-10.342
yyk쎯dtq쎯hapi0쎯	-10.3424
i1쎯lwu0쎯nd0쎯	-10.3428
hnk0쎯pqmb쎯	-10.343
eqhl쎯	-10.3431
tmm0쎯ilil쎯	-10.3432
stv쎯ommi0쎯	-10.3432
|	-10.3434
ddi쎯le0쎯shlb0쎯md	-10.3437
csh0쎯klb쎯md쎯	-10.3437
hapi0쎯mgwg쎯dup쎯	-10.3437
hlsa쎯oll쎯:	-10.3438
htbn쎯	-10.344
ci0쎯pmbo0쎯	-10.344
ylmo1쎯oqni쎯	-10.3441
쎄쎈쎀	-10.3446
ivtt쎯yid0쎯	-10.3449
yndf1쎯	-10.3449
dhkl쎯ecd0쎯	-10.3449
nhe쎯tmmc0쎯opd0쎯	-10.345
mlwk쎯iksi쎯	-10.3459
ehjr쎯phqm쎯	-10.3468
쎇)	-10.3468
thjg0쎯jlln쎯	-10.3471
fdyj쎯emcw0쎯	-10.3472
mmm쎯j쎯	-10.3473
yhe0쎯	-10.3476
쎯mmi쎯jbtj쎯fhbu0쎯	-10.3476
vmyhj쎯	-10.3477
mgdd쎯	-10.3477
k0쎯vmpi쎯	-10.3479
qshr쎯hqm쎯	-10.3482
tj	-10.3482
dm0쎯tqbu쎯	-10.3483
qmbo0쎯	-10.3484
tefh쎯	-10.3485
mgmmu쎯bmmc쎯	-10.3489
gytr쎯yib쎯	-10.349
jbtj쎯eowy쎯	-10.3494
ouln0쎯ksc쎯md쎯	-10.3495
jkmvs쎯jr쎯	-10.3496
ivke쎯yk2쎯	-10.3497
lim0쎯	-10.3502
.kb0쎯	-10.3504
l0쎯vmnhe쎯	-10.3504
,mgbhu쎯kb0쎯	-10.3505
kkkk0쎯	-10.3505
ooks쎯jqjr쎯	-10.3506
쎃쎂쎀	-10.3507
oyrn쎯ylm쎯	-10.3509
uu0쎯dt0쎯	-10.3509
vhk쎯	-10.351
쎁쎉쎇쎃oq0쎯	-10.3514
dhn0쎯,	-10.3514
yukb0쎯mt0쎯	-10.3521
mbib쎯em0쎯	-10.3523
nc쎯lu0쎯	-10.3529
,su1쎯	-10.3531
jphi0쎯	-10.3534
(쎃	-10.3535
쎁쎉쎄쎈oq0쎯	-10.3541
fb0쎯	-10.3542
ivmfj쎯jlwl0쎯	-10.3543
slm쎯hqm쎯yrnl0쎯	-10.3543
ids쎯zxaf쎯	-10.3544
ehbv쎯ite쎯	-10.3548
yhgu쎯bq쎯	-10.355
app0쎯	-10.3558
hqmcw쎯hqhqm0쎯	-10.3559
hdr0쎯tmmc0쎯opd0쎯	-10.3562
nkhym쎯olwl쎯	-10.3562
qka쎯hdf0쎯	-10.3563
fcq0쎯ksc쎯hapi0쎯	-10.3568
amyo쎯tgk쎯wmgi쎯	-10.3569
쎁/쎂	-10.357
cwj0쎯oyt쎯.	-10.3571
vmbm0쎯ihs0쎯,	-10.3572
hbt0쎯eyok쎯	-10.3578
쎂쎀쎀쎄	-10.3582
ifm쎯bq쎯md쎯	-10.359
kqyck쎯k0쎯	-10.3592
houfk0쎯	-10.3598
(vio0쎯my쎯hlsa쎯	-10.3604
hdw0쎯	-10.3604
opta쎯ivrmk쎯	-10.3608
m쎯ocsh쎯	-10.3609
ly쎯yihu0쎯	-10.361
o쎯rvp쎯egi쎯nljmu쎯	-10.3611
nlmnr쎯qyt0쎯oha쎯	-10.3613
hnlh0쎯ju쎯	-10.3615
mwsl쎯hdrc쎯쎄	-10.3616
qruc쎯	-10.3616
mwg0쎯fd0쎯	-10.3617
yknl0쎯	-10.3618
vmisb쎯tjka0쎯	-10.362
nlodi쎯ohq쎯	-10.3622
bsle0쎯heks0쎯md쎯	-10.3622
ywln쎯kqrsj쎯	-10.3623
amyo쎯wmgi쎯ob1쎯	-10.3624
uu0쎯g쎯	-10.3627
bbke쎯wmgi쎯	-10.3628
klg0쎯za8쎯	-10.3628
mvnm0쎯dbu쎯	-10.3629
qshr쎯sjlws쎯	-10.3632
.ab0쎯	-10.3633
emcw1쎯	-10.3634
wl쎯tcg0쎯	-10.3636
().	-10.3643
vmnau쎯vmvno쎯	-10.3645
ino0쎯l0쎯	-10.3645
mf0쎯ydi0쎯	-10.3646
쎂쎄쎀	-10.365
niy쎯yrnl0쎯	-10.3658
ynib쎯ydi0쎯nn0쎯	-10.3662
oymr쎯dlnbo쎯	-10.3663
yt0쎯aisl쎯	-10.3664
m쎯npo쎯	-10.3664
wfik쎯	-10.3666
,hdrc쎯dnhe쎯	-10.3666
lslmi쎯	-10.3669
amyo쎯m쎯yrnl0쎯	-10.3672
lsh쎯tcb0쎯	-10.3673
iiil0쎯	-10.3674
jdok0쎯jmig쎯	-10.3676
dtmm0쎯	-10.3677
aisl쎯lmnii쎯	-10.3678
on0쎯	-10.3679
je0쎯nlo쎯	-10.368
hqki쎯	-10.3681
.hbu0쎯	-10.3682
dnhe쎯iksi쎯	-10.3682
fmu쎯nmsk쎯	-10.3683
mnr쎯qgdi쎯vmjnk쎯	-10.3683
qybk0쎯	-10.3685
ogd0쎯lwnl쎯	-10.3691
ivtxc쎯	-10.3692
i1쎯k0쎯	-10.37
cwj0쎯oyt쎯,	-10.3707
jmn쎯muhe0쎯	-10.371
ynbo0쎯hoami쎯	-10.3711
mrmt쎯ivdi쎯ommi0쎯	-10.3711
ci0쎯yg0쎯	-10.3718
pqmb쎯imrhu쎯my쎯	-10.372
nlmmf쎯	-10.3726
mwln쎯yg0쎯ohg쎯i1쎯	-10.3726
vmhey쎯md쎯	-10.3728
op0쎯lmv쎯rrr0쎯	-10.373
qlr쎯	-10.3731
emms0쎯	-10.3734
oo0쎯mbll쎯	-10.3739
iobo쎯hjbo쎯	-10.3741
hqm쎯mgwg쎯	-10.3743
za2쎯za3쎯	-10.3743
,gpd쎯heo쎯	-10.3743
hshml쎯mbmbl0쎯	-10.3743
piku쎯	-10.3744
l0쎯p쎯i1쎯	-10.3744
vio0쎯o쎯iksi쎯dm0쎯	-10.3746
.hmr0쎯	-10.3747
boln0쎯amyo쎯	-10.3751
jchwe쎯r쎯	-10.3751
suu0쎯	-10.3751
jrok쎯nlytj쎯	-10.3751
qytv0쎯r쎯:	-10.3754
m쎯mk쎯	-10.3757
nlnhx쎯	-10.376
thbu0쎯itlb쎯	-10.3761
srytj0쎯	-10.3761
o쎯tmmc0쎯l0쎯	-10.3761
ym0쎯ht0쎯	-10.3762
o쎯lsa쎯	-10.3763
qbq쎯	-10.3765
so0쎯di0쎯:	-10.3765
op0쎯mr0쎯	-10.3767
r쎯honom쎯	-10.3774
asje쎯ohpm쎯	-10.3775
ki0쎯mfj0쎯	-10.3775
yso0쎯	-10.3779
gpd쎯yrf1쎯	-10.378
rut0쎯fbrlb쎯	-10.378
hikp쎯	-10.3781
niy쎯ivmmr쎯	-10.3787
dpi1쎯	-10.3787
mt0쎯ivke쎯i1쎯	-10.3788
csh0쎯je0쎯	-10.3793
mrmt쎯jckn쎯hdr0쎯	-10.3796
eha쎯	-10.3796
lbabu쎯	-10.3797
qosu쎯	-10.38
mmm쎯vmog쎯	-10.3806
dm0쎯hxh쎯	-10.3807
mrnvm쎯yk1쎯	-10.3807
()i1쎯	-10.3808
ydhml0쎯gihs쎯	-10.3809
opob쎯	-10.381
쎉ol1쎯	-10.3811
cnlh0쎯nd0쎯	-10.3812
gnsh쎯ym0쎯	-10.3815
ond쎯	-10.3817
yk0쎯op0쎯tn0쎯id1쎯	-10.3818
k0쎯emcw0쎯iyr쎯	-10.3819
yg0쎯dhn0쎯	-10.3819
yad쎯	-10.3821
krnvm쎯	-10.3822
hoyg쎯hoyg쎯	-10.3822
llmb쎯hqm쎯	-10.3824
ldhe쎯fcymr쎯iksi쎯	-10.3827
knn0쎯ykok0쎯	-10.3827
:l0쎯wmgi쎯	-10.3829
dbu쎯ovio쎯	-10.3834
mwln쎯nljmu쎯po0쎯	-10.3834
rvl쎯ojrk쎯	-10.3836
hdp0쎯	-10.3838
dbu쎯bmr0쎯	-10.3838
sehho쎯omr0쎯	-10.3845
hqphh쎯iobo쎯	-10.3847
nc쎯qme쎯	-10.385
sje0쎯uu0쎯	-10.3853
qkdi쎯omrl쎯	-10.3855
rmhk쎯	-10.3858
hdbhx쎯	-10.3859
yrbr0쎯jkmvs쎯	-10.3863
nini0쎯fh쎯	-10.3864
hdr0쎯hjrr쎯mgwg쎯	-10.3866
쎁쎀jrhu쎯	-10.3867
ivhmy쎯	-10.3869
omg0쎯sk0쎯	-10.387
buhjm0쎯	-10.3871
giks1쎯	-10.3875
hdnhs0쎯mbib쎯	-10.3878
,jyk쎯mgbhu쎯	-10.3882
ammv쎯	-10.3882
asje쎯vnd쎯	-10.3883
dt0쎯ivcru쎯	-10.3883
hsyhs0쎯lsa쎯	-10.3887
crp0쎯jiyhv0쎯	-10.3889
ssu쎯	-10.3889
ydhml0쎯fmc쎯	-10.3893
m2	-10.3895
ivtt쎯yid0쎯nn0쎯	-10.3896
쎉)	-10.3899
eowy쎯ummj0쎯	-10.3899
mbll쎯ihs0쎯.	-10.3901
e쎯heo쎯mgwg쎯	-10.3903
jbmm0쎯eyiu0쎯	-10.3904
nhe쎯dbu쎯tk0쎯	-10.3905
khhw쎯	-10.3905
mwahm쎯	-10.3906
i1쎯hqm쎯yth쎯i1쎯	-10.3912
hgdi쎯hommn0쎯tc1쎯	-10.3914
qif0쎯bbke쎯	-10.3919
odm0쎯po0쎯	-10.3921
,asje쎯hmr0쎯	-10.3925
wg0쎯.	-10.3927
wp쎯jkmvs쎯	-10.3927
ci0쎯wg0쎯	-10.3932
ivke쎯qsuu쎯	-10.3942
rksr쎯rlmy쎯	-10.3947
au0쎯hhoe0쎯	-10.3947
a1쎯:za2쎯	-10.395
쎁쎀ol1쎯	-10.3951
etct쎯	-10.3953
ukf0쎯	-10.3953
opj0쎯lmp0쎯	-10.3954
ord0쎯hhw쎯	-10.3956
ke0쎯vnd쎯	-10.3961
kqhml쎯	-10.3961
pa1쎯klg0쎯	-10.3963
qhjx쎯dtwa쎯	-10.3964
,m쎯ol1쎯	-10.397
ytap쎯niy쎯	-10.397
dncr쎯	-10.3971
vmyiu쎯eir쎯	-10.3971
suf0쎯	-10.3972
tpfd쎯	-10.3972
쎉.	-10.3972
jrln쎯	-10.3972
pa1쎯	-10.3979
,yfiku0쎯amyo쎯	-10.398
tlbk0쎯di0쎯	-10.3983
yg0쎯npo쎯	-10.3986
m쎯dm0쎯	-10.3986
ldi쎯	-10.399
mms쎯	-10.3994
ejcr0쎯ylln0쎯	-10.3997
ilb0쎯	-10.3998
쎅jrhu쎯	-10.4
olhh0쎯nklq쎯	-10.4001
po0쎯,	-10.4003
he0쎯edi0쎯	-10.4004
hapi0쎯yta0쎯hvd쎯	-10.4005
yvvv0쎯	-10.4014
?za3쎯	-10.4016
hbu0쎯mfp0쎯	-10.4018
mrmt쎯jckn쎯za9쎯	-10.4019
mwsl쎯hdrc쎯쎅	-10.4021
rc0쎯mwv쎯	-10.4022
mhaf0쎯dt0쎯	-10.4022
ofp0쎯hapi0쎯	-10.4026
qmn0쎯qu0쎯	-10.403
tbln0쎯hoyg쎯	-10.403
(vr쎯	-10.4031
jk0쎯	-10.4032
ysopd쎯hommn0쎯.	-10.4037
,nhs쎯	-10.4039
hmr0쎯tmks0쎯	-10.4043
yg0쎯ks0쎯	-10.4047
ytt0쎯mok0쎯	-10.4054
pi0쎯	-10.4058
hijd쎯ks0쎯	-10.4059
yhhhh0쎯	-10.4068
ysrj쎯nahu쎯	-10.4069
,mgok0쎯ks0쎯md쎯	-10.4071
,jnd0쎯	-10.4074
m쎯i1쎯	-10.4074
moog0쎯	-10.4076
쎁쎉쎃쎇oq0쎯	-10.4078
,bmr0쎯adi쎯pd0쎯	-10.4081
j쎯m쎯	-10.4084
tb	-10.4088
mlm쎯oos쎯jmig쎯	-10.4088
dbmr0쎯	-10.409
lb0쎯	-10.409
kmym쎯lmik쎯	-10.4092
jmso쎯po0쎯	-10.4096
ylb쎯rvp쎯	-10.4096
ebhu0쎯fmu쎯	-10.4098
gpd쎯mgwg쎯oyt쎯	-10.4099
ci0쎯heks0쎯rbo0쎯	-10.4101
oghn쎯	-10.4102
ci0쎯ooo0쎯	-10.4102
ifmrw쎯ilil쎯	-10.4105
쎆.	-10.4107
nini0쎯fvok쎯	-10.4108
oqni쎯miks0쎯	-10.4108
opno0쎯	-10.4109
pir쎯	-10.411
쎁쎉쎅쎁oq0쎯	-10.4111
ob1쎯ivhne쎯	-10.4119
uu0쎯itlb쎯	-10.4121
kb0쎯nn0쎯	-10.4123
vmhab쎯	-10.4124
rks0쎯niy쎯	-10.4129
fog0쎯	-10.4134
yhs쎯ipm0쎯:	-10.4139
i1쎯hdyj0쎯mrmt쎯	-10.4143
tlmi0쎯	-10.4147
vmhey쎯ytumb쎯	-10.4149
qfq쎯	-10.415
yrbn0쎯ite쎯	-10.4151
v쎯ndyvo쎯	-10.4151
(쎄)	-10.4155
vmgr쎯aaa0쎯	-10.4156
qlmo쎯	-10.4157
qoa쎯	-10.416
etcu0쎯r쎯	-10.4162
op0쎯hapi0쎯	-10.4163
dyck0쎯sk0쎯	-10.4163
ytrhu쎯	-10.4165
omg0쎯pt0쎯woll0쎯	-10.4171
tqm쎯rut0쎯	-10.4171
,mbll쎯amyo쎯	-10.4173
stv쎯mgbhu쎯	-10.4177
dhn0쎯ommi0쎯	-10.4179
oyhv0쎯hgrly쎯	-10.418
ddi쎯i1쎯	-10.4184
nvsmr쎯toll0쎯	-10.4193
yh쎯k0쎯jher쎯is0쎯	-10.4194
ywmv0쎯	-10.4198
ci0쎯mmu0쎯	-10.4202
ifbm쎯wmgi쎯	-10.4203
hbt0쎯hjrr쎯	-10.4203
napo쎯homym쎯	-10.4205
hapi0쎯bu0쎯hapi0쎯	-10.4206
hvif쎯vmyiu쎯,	-10.4216
eog0쎯vio0쎯	-10.4219
mbll쎯ihs0쎯hapi0쎯	-10.422
yg0쎯eyiu0쎯	-10.4221
hwsmm쎯ffh0쎯	-10.4221
ylmr쎯	-10.4222
imnsd쎯op0쎯	-10.4225
smf0쎯ehjr쎯	-10.4228
boae쎯yrnl0쎯	-10.4229
kb0쎯m쎯jmyo쎯	-10.4231
kbhq0쎯	-10.4232
ids쎯ivsu쎯.	-10.4232
sup0쎯	-10.4237
oppu쎯	-10.4237
kb0쎯vmij0쎯	-10.4239
fdqmb쎯opj0쎯	-10.4241
m쎯hshml쎯	-10.4242
tpib쎯tpou쎯	-10.4246
jlwl0쎯dyvo쎯	-10.4247
mnp1쎯	-10.4249
ym0쎯yid0쎯	-10.4255
쎄.쎅	-10.4259
.za1쎯	-10.4268
ci0쎯klb쎯	-10.4269
ijb0쎯	-10.4271
yhs쎯ymmr0쎯	-10.4271
q쎯miks0쎯	-10.4272
ophnr쎯	-10.4272
lsehr쎯	-10.4276
osp0쎯hi0쎯	-10.4278
hapi0쎯bkk쎯vmher쎯	-10.428
ha쎯fdilr쎯	-10.4286
jyk쎯adi쎯	-10.4287
vmnhe쎯rsln1쎯	-10.4288
쎁쎉쎄쎆oq0쎯	-10.429
imir쎯	-10.4293
oip0쎯qmv쎯oos쎯	-10.4296
rrikr쎯dit0쎯	-10.4298
yeoiv0쎯mmn0쎯	-10.43
tn0쎯o쎯	-10.4301
vio0쎯ki0쎯bkk쎯	-10.4303
efb0쎯nlomd쎯	-10.4303
쎁쎀csh0쎯opl쎯	-10.431
qo0쎯o쎯	-10.4311
khivk쎯	-10.4312
yk0쎯op0쎯hapi0쎯	-10.4314
jyk쎯tc1쎯	-10.4314
iksi쎯tcg0쎯mruu쎯	-10.4314
eomn0쎯	-10.4319
wlyaj쎯	-10.432
쎯yth쎯tc1쎯o쎯fvok쎯	-10.432
oo0쎯jlln쎯hnlh0쎯m	-10.4321
ei1쎯tw1쎯	-10.4323
k0쎯yri0쎯	-10.4326
my쎯hapi0쎯	-10.4326
omlk쎯hdln0쎯,	-10.4327
ftmd쎯mri0쎯	-10.433
eher쎯nla쎯	-10.4331
mnp1쎯pklb0쎯	-10.4332
mand쎯ite쎯	-10.4332
(aisl쎯	-10.4333
opj0쎯jbtj쎯	-10.4335
qif0쎯pqmb쎯	-10.4335
m쎯vmij0쎯	-10.4336
qapv쎯	-10.4339
hogdi쎯dhn0쎯	-10.4342
ddi쎯,	-10.4342
ss0쎯k0쎯hapi0쎯	-10.4342
hnlh0쎯mmm쎯slw0쎯	-10.4343
dtak쎯ipm0쎯,	-10.4344
eiav쎯eawe쎯	-10.4346
za3쎯za2쎯	-10.4346
.oos쎯iksi쎯	-10.4352
qfq쎯pim쎯	-10.4354
elfl쎯	-10.4358
hdcru1쎯vlok쎯	-10.4362
mmu0쎯oip0쎯	-10.4367
ebhu0쎯fbrbo쎯	-10.4374
hxh쎯ym0쎯	-10.4379
jcm쎯l0쎯	-10.4382
kb0쎯ykok0쎯hapi0쎯	-10.4387
i1쎯dnd0쎯	-10.4389
(쎂).	-10.4392
bq쎯is0쎯qamo쎯otc쎯	-10.4392
jdok0쎯yib쎯ssr쎯	-10.4393
fmc쎯nklq쎯	-10.4393
ecr쎯eowy쎯	-10.4394
fdqmb쎯yhgu쎯	-10.4396
mf0쎯iav0쎯	-10.4398
,tmmv0쎯mig0쎯	-10.4398
niy쎯gbhn1쎯	-10.4411
jcor쎯rrikr쎯	-10.4414
mthhh쎯jcor쎯	-10.4415
tesu쎯wqs쎯:	-10.4415
lykq0쎯	-10.4416
yce0쎯mthhh쎯	-10.4419
vnd쎯ivmfj쎯.	-10.4419
oiva쎯klnd쎯	-10.4419
yomd쎯honom쎯	-10.4421
;쎂i1쎯	-10.4424
hqm쎯ehjr쎯l0쎯	-10.4425
hdhqo쎯inin0쎯	-10.4426
rmvs쎯mrnvm쎯	-10.4428
.bmr0쎯adi쎯	-10.4429
ydhml0쎯yth쎯rrr0쎯	-10.443
fdqmb쎯vmw쎯	-10.4433
jmn쎯bmi쎯	-10.4433
hhdi쎯qu0쎯	-10.4433
rhbr0쎯ifm쎯	-10.4434
ogsk쎯	-10.4438
vmomr쎯ninn쎯	-10.4438
:whey0쎯ids쎯>	-10.4443
yc쎯oq0쎯	-10.4443
)hdr0쎯	-10.4444
pqmb쎯irp0쎯	-10.4446
,ppha쎯	-10.4451
eyg0쎯oh쎯	-10.4452
qau쎯qsmg0쎯	-10.4454
ecor쎯	-10.4455
rmher쎯,	-10.4457
ihs0쎯yt0쎯.	-10.4462
mf0쎯mgb0쎯	-10.4464
osu쎯oiva쎯	-10.4464
nvomd쎯	-10.4465
k0쎯dfdv쎯	-10.4468
zc45쎯	-10.4468
ivhne쎯yt0쎯hapi0쎯	-10.4473
oip0쎯qoa쎯	-10.4475
yjdl쎯dyfe쎯	-10.4479
abu쎯	-10.448
yitf0쎯	-10.448
,yrbr0쎯	-10.4482
sk1쎯	-10.4491
imp0쎯	-10.4491
ivdi쎯	-10.4495
au0쎯mcw쎯	-10.4497
mku쎯fvok쎯	-10.4505
dtak쎯ipm0쎯:	-10.4505
j쎯ju쎯	-10.4507
쎁쎉쎄쎇oq0쎯	-10.4513
쎅쎀jrhu쎯	-10.4515
yrnn쎯	-10.4517
mri0쎯tc1쎯	-10.452
qeq쎯	-10.4522
yioj0쎯hghu쎯	-10.4522
umr0쎯mr0쎯	-10.4524
e쎯,	-10.4525
bmr0쎯fbnd0쎯	-10.4525
hqm쎯rudi0쎯llmb쎯.	-10.4527
kosu쎯	-10.453
hdnsp쎯	-10.453
.쎁쎈	-10.4532
tc1쎯omd0쎯	-10.4532
(hlsa쎯hdnf쎯	-10.4533
oin쎯a0쎯	-10.4534
쎃쎆쎀	-10.4534
iksi쎯dyvo쎯p쎯	-10.4535
eog1쎯	-10.4536
za32쎯	-10.4537
,po0쎯	-10.4542
fq0쎯pysu쎯	-10.4542
asje쎯aj0쎯hapi0쎯	-10.4543
hnd0쎯	-10.4543
opcru쎯	-10.4543
qmr쎯	-10.4544
ycbr0쎯jmso쎯	-10.4544
mjok0쎯	-10.4546
pp0쎯romn0쎯	-10.4549
hdeq쎯ysok쎯	-10.4549
ivym쎯o쎯	-10.455
takp0쎯	-10.455
hopsh쎯ihpm쎯	-10.4553
jyk쎯omnn0쎯	-10.4554
,ihs0쎯yt0쎯md쎯	-10.456
.lw쎯	-10.4564
mf0쎯bq쎯	-10.4565
gp0쎯za9쎯	-10.4569
tjln0쎯	-10.4569
owyi0쎯m쎯	-10.4575
jf0쎯jqjr쎯	-10.4576
mrnbg쎯ord0쎯	-10.4578
qfsm쎯	-10.4581
hnlh0쎯m쎯jmso쎯	-10.4583
mnhjd쎯	-10.4583
,shlb0쎯md쎯	-10.4584
m쎯fdk0쎯	-10.4585
qpa0쎯mmf0쎯	-10.4586
:za8쎯	-10.4587
thrj0쎯	-10.4587
쎁쎂쎀쎀	-10.4587
jbmc0쎯ivihs쎯	-10.4592
nlyhs쎯e쎯	-10.4594
qijb쎯	-10.4596
adi쎯tcb0쎯hapi0쎯	-10.4599
lw쎯ymp0쎯	-10.4602
olwl쎯	-10.4604
id1쎯ivmmr쎯,	-10.4608
jbmc0쎯jcm쎯	-10.4616
phqm쎯dher쎯	-10.4616
mlm쎯tc1쎯wmmu0쎯	-10.462
bhn0쎯bqo쎯	-10.4622
(m쎯)	-10.4624
pawe쎯phqm쎯	-10.4624
ybou1쎯	-10.4625
%.	-10.4629
mgwg쎯dup쎯	-10.4637
lbpo쎯	-10.4638
qhdw쎯uu0쎯	-10.4639
csh0쎯klb쎯klg0쎯	-10.4642
fh쎯amwg쎯	-10.4643
qhmy쎯	-10.4644
i1쎯tlwc쎯	-10.4644
hdnsp쎯jmyo쎯phqm쎯	-10.4645
hjbu쎯	-10.4647
a0쎯qsle쎯	-10.4648
eowy쎯jbtj쎯fhbu0쎯	-10.465
onjv쎯mwice0쎯	-10.465
ksr쎯ydl쎯	-10.4652
hdln0쎯mtc0쎯	-10.4656
hlo0쎯	-10.4657
hu	-10.4657
hda쎯tvjr쎯	-10.4659
rnvm쎯?	-10.4662
,fbrlb쎯	-10.4664
mwsl쎯dhe1쎯	-10.4666
opqki쎯yhgr0쎯	-10.4667
쎁쎀쎈쎀	-10.4669
iksi쎯oj0쎯hi0쎯	-10.4673
eowy쎯ym0쎯	-10.4674
쎁쎉쎄쎀oq0쎯	-10.4675
ids쎯nljmu쎯	-10.4677
mgumb쎯tbc0쎯	-10.4677
ivo쎯mnr쎯	-10.4683
nlyhs쎯hooml쎯	-10.4683
gpd쎯ym0쎯	-10.4686
,rmvs쎯	-10.4687
,vr쎯wd0쎯	-10.4688
yg0쎯ksc쎯hapi0쎯	-10.469
wjr쎯odm0쎯	-10.4691
oahe쎯hbln0쎯	-10.4694
.ymp0쎯niy쎯,	-10.4695
ol1쎯phqm쎯op0쎯	-10.47
jmso쎯,	-10.4704
hqgdi쎯yrf1쎯amyo쎯	-10.4705
onhs쎯bkf0쎯	-10.4706
imoii쎯gisl쎯	-10.4708
vsm쎯hdyj0쎯	-10.4709
,ytpo0쎯	-10.4709
mgbhu쎯lmik쎯	-10.4714
khllb쎯	-10.4715
ejmc0쎯qkhk쎯	-10.4718
fdjrb쎯	-10.4724
ddi쎯hdv쎯ommi0쎯,	-10.4725
lsh쎯ylmh0쎯	-10.4728
fh쎯v쎯	-10.4729
za13쎯	-10.4731
yth쎯hqm쎯hapi0쎯	-10.4732
eysd0쎯ei1쎯l0쎯	-10.4734
ppj쎯tc1쎯hqm쎯	-10.4736
pd0쎯mnr쎯	-10.4737
osp0쎯dtq쎯	-10.474
쎁쎉쎃쎉oq0쎯	-10.4744
rphh0쎯	-10.4747
hda쎯elw쎯	-10.4748
jmyo쎯ik1쎯	-10.4748
hapi0쎯hjbo쎯amwg쎯	-10.4749
.vmnom쎯ydi0쎯	-10.475
i1쎯nc쎯	-10.4752
efb0쎯hup0쎯	-10.4753
omrl쎯oini0쎯	-10.4757
crp0쎯vmij0쎯	-10.4758
i1쎯ydhml0쎯	-10.476
hy	-10.476
l0쎯wmgi쎯muw쎯	-10.4761
ywlb쎯mgln0쎯	-10.4762
asje쎯lsh쎯	-10.4763
.(쎂)	-10.4764
my쎯kqjqr쎯	-10.4766
ejjb쎯eyiu0쎯	-10.4767
shml쎯	-10.4768
oiku쎯qiks쎯,	-10.4772
ykll쎯omg0쎯,	-10.4774
opbk쎯hjrr쎯	-10.4776
srln0쎯pqmb쎯	-10.4777
hapi0쎯ifm쎯bq쎯	-10.4779
olhh0쎯ivmn쎯	-10.478
yjivj쎯	-10.478
kd0쎯rmher쎯	-10.478
csh0쎯nbshq쎯	-10.478
oiku쎯mhog0쎯	-10.4782
hgdi쎯sjrc0쎯.	-10.4786
.yyk쎯amyo쎯	-10.4791
kf0쎯nau0쎯	-10.4796
nnf0쎯	-10.4797
yg0쎯qgdi쎯o쎯	-10.4799
zb	-10.48
tkhk0쎯sje0쎯	-10.4803
mks0쎯ibpp쎯,	-10.4803
kq0쎯lsa쎯	-10.4809
yth쎯rrr0쎯.	-10.4811
eabt0쎯ilil쎯	-10.4816
hdrc쎯wvif쎯	-10.482
oncsh쎯wqs쎯	-10.4823
ebkq쎯	-10.4824
hshne0쎯	-10.4825
jki쎯ebhu0쎯	-10.4825
쎁%	-10.4826
shlb0쎯md쎯u쎯sk0쎯	-10.4828
bov쎯	-10.483
qsle쎯vmhvp쎯	-10.4831
hvd쎯rrikr쎯	-10.4834
쎄쎀쎀쎀	-10.4835
tk0쎯lsdh쎯	-10.4845
vhpa쎯vwk쎯	-10.4845
쎁쎉쎄쎁oq0쎯	-10.4846
(mhaf0쎯	-10.4847
opoii쎯	-10.4848
.vr쎯wd0쎯	-10.4849
,csh0쎯rsln1쎯	-10.485
쎂쎅쎆	-10.4852
....	-10.4857
gpim쎯omn1쎯eabt0쎯	-10.4861
.쎄.	-10.4862
nqlmi쎯	-10.4862
e쎯hdbhx쎯	-10.4863
쎁쎀쎀%	-10.4866
kiog쎯mand쎯hapi0쎯	-10.4868
tc0쎯yth쎯fbrhu쎯,	-10.4868
ivhne쎯hew쎯hapi0쎯	-10.4871
yjheo쎯	-10.4872
yg0쎯nbg0쎯	-10.4874
hsk0쎯	-10.4877
em0쎯bmi쎯	-10.4879
bmr0쎯adi쎯pd0쎯	-10.4879
zf35쎯	-10.4882
i1쎯ym0쎯eowy쎯	-10.4882
hapi0쎯mwv쎯ije0쎯	-10.4883
qke0쎯wmgi쎯	-10.4886
mgwg쎯ivop0쎯ysm쎯	-10.4887
bsle0쎯heks0쎯i1쎯	-10.4897
hoav0쎯k0쎯	-10.4897
eqmb0쎯jjb0쎯	-10.4897
mrptd쎯	-10.4899
mt0쎯tc1쎯	-10.4899
wc0쎯bgr0쎯	-10.49
une쎯	-10.4903
mmm쎯ukt0쎯	-10.4906
c0쎯	-10.4906
shr쎯rnbk1쎯	-10.4908
mylm쎯amyo쎯	-10.4911
fdk0쎯rsln1쎯	-10.4915
lbytg쎯	-10.492
wks0쎯phqm쎯	-10.4922
ihs0쎯mks0쎯hapi0쎯	-10.4922
rsln1쎯o쎯	-10.4928
amyo쎯hqi0쎯olis쎯	-10.493
ids쎯egi쎯jmso쎯	-10.4933
(pru쎯qhjr쎯	-10.4935
sk0쎯hdv쎯	-10.4938
e쎯wd0쎯	-10.4939
ncwj쎯phqm쎯	-10.494
vnhs쎯	-10.4945
쎁zxae쎯	-10.4947
tt1쎯klg0쎯	-10.4947
vlok쎯lnbo쎯	-10.4948
hlno0쎯fbrbo쎯	-10.495
rvp쎯ocor쎯	-10.4951
nrli쎯ivbgr쎯	-10.4952
,omlk쎯	-10.4954
wks0쎯o쎯	-10.4955
vmbv0쎯	-10.4955
shlb0쎯phqm쎯	-10.4956
ei0쎯	-10.4957
tk0쎯yrnl0쎯lis쎯	-10.4957
egi쎯nljmu쎯	-10.4958
tcp0쎯	-10.4961
za5쎯	-10.4962
jibi쎯jm0쎯hmr0쎯	-10.4978
mwsl쎯hdrc쎯쎂	-10.4978
fmc쎯gosje쎯	-10.4983
jyk쎯tc1쎯k	-10.4984
ss0쎯k0쎯	-10.4985
fbrlb쎯qobhu쎯	-10.4989
쎀.쎈	-10.499
oip0쎯qmv쎯phqm쎯	-10.4991
l0쎯opj0쎯sok0쎯	-10.4992
ydhml0쎯nmtq쎯	-10.4994
fqln0쎯vdhml쎯	-10.4994
oy0쎯	-10.4999
wd1쎯	-10.4999
rmher쎯i1쎯	-10.5
dbu쎯ifm쎯hapi0쎯	-10.5004
bje쎯	-10.5005
ivcru쎯,	-10.5005
′	-10.5007
hqo0쎯book쎯	-10.5008
쎂×	-10.5008
dbu쎯fsm0쎯md쎯	-10.5008
csh0쎯ssr쎯	-10.5009
m쎯tcb0쎯	-10.501
qdhe쎯	-10.5013
amyo쎯:	-10.5013
nmp0쎯phqm쎯	-10.5014
top0쎯dyfe쎯	-10.5015
yebu쎯	-10.5017
nini0쎯mmu0쎯op0쎯	-10.5018
nu0쎯mwyrd쎯	-10.5019
i1쎯wmgi쎯jmso쎯	-10.502
f쎯u쎯	-10.502
nnmbo0쎯hbut0쎯	-10.5021
eowy쎯tk0쎯	-10.5021
yrf0쎯srln0쎯	-10.5022
.dav쎯qsjr쎯	-10.5023
eks0쎯	-10.5023
hapi0쎯tn0쎯id1쎯	-10.5025
iksi쎯oylm0쎯tc1쎯	-10.5027
edam쎯	-10.5031
crp0쎯amyo쎯	-10.5036
hjwg쎯amwg쎯:	-10.5039
aombo쎯ddh쎯	-10.504
po0쎯qka쎯	-10.5042
rbo0쎯i1쎯	-10.5054
tbrr쎯yhgr0쎯	-10.5054
odm0쎯ob1쎯	-10.5054
fsm0쎯yhgu쎯iksi쎯	-10.5056
ojrk쎯uu0쎯nn0쎯	-10.5056
mhaf0쎯boln0쎯,	-10.5057
oiku쎯iav0쎯hapi0쎯	-10.506
hbv0쎯gnsh쎯	-10.5062
qng쎯	-10.5063
ivsu쎯zxaf쎯	-10.5064
ojbm0쎯hoami쎯	-10.5067
teib쎯	-10.5068
m쎯ma0쎯	-10.5072
mg0쎯jjb0쎯	-10.5072
za26쎯	-10.5073
m쎯a0쎯	-10.5073
(,)	-10.5074
wr쎯ysook0쎯	-10.5076
lapv쎯nau0쎯	-10.5078
ccc쎯	-10.5078
gpd쎯gylm쎯:	-10.5079
t쎯	-10.508
.ym0쎯eowy쎯	-10.508
qnkg쎯	-10.508
q쎯egi쎯	-10.508
fbnd0쎯qni0쎯tc1쎯	-10.5085
hlit쎯mgije쎯	-10.5096
hapi0쎯oymr쎯hup0쎯	-10.5097
hapi0쎯bmr0쎯adi쎯,	-10.5099
yck0쎯ei0쎯	-10.5102
쎁쎉쎇쎄oq0쎯	-10.5103
wd0쎯jyk쎯	-10.5104
fhbu0쎯hdv쎯	-10.5107
kd0쎯ee0쎯	-10.5108
yg0쎯mwv쎯bq쎯md쎯	-10.5109
auam쎯	-10.5112
sfdv쎯	-10.5113
-쎃-	-10.5113
i1쎯ifg쎯ommi0쎯	-10.5116
hapi0쎯nir쎯jnd0쎯	-10.512
bhwj쎯	-10.512
ksc쎯egi쎯za9쎯	-10.5121
m쎯ythu쎯	-10.5122
ojlk쎯hoami쎯	-10.5125
ddi쎯ig0쎯	-10.5125
fbnd0쎯jm0쎯	-10.5126
taj쎯mhaf0쎯	-10.5127
ivhne쎯ivj쎯hapi0쎯	-10.5127
qpa0쎯jbtj쎯	-10.513
fqln0쎯	-10.5131
rog0쎯	-10.5134
hoami쎯vio0쎯	-10.5136
nkhym쎯po0쎯	-10.5136
hed0쎯omnn0쎯za9쎯	-10.5137
qhxe쎯	-10.5141
sjlws쎯	-10.5144
mks0쎯ykok0쎯	-10.5146
i1쎯ha쎯	-10.5146
.za1쎯za3쎯	-10.5148
ebhu0쎯yta0쎯	-10.5148
yce0쎯ogf0쎯	-10.5152
ikp0쎯yk1쎯	-10.5155
u쎯gpd쎯	-10.5155
bta0쎯	-10.5158
jd1쎯oip0쎯	-10.516
ju쎯oq0쎯	-10.5162
shoe0쎯hommn0쎯	-10.5162
hoav0쎯pdk쎯	-10.5164
fmu쎯lwu0쎯	-10.5165
ー	-10.5165
,cwa0쎯ohg쎯	-10.5168
mgumb쎯jm0쎯	-10.5173
mku쎯nau0쎯	-10.5174
ihs0쎯iksi쎯nn0쎯	-10.5175
쎁쎇쎀	-10.5175
peg쎯cwmr쎯	-10.5175
pha0쎯	-10.5177
()amyo쎯	-10.5179
oahe쎯am0쎯	-10.518
쎁.쎄	-10.518
jksc쎯oos쎯	-10.5181
eabt0쎯gehda쎯	-10.5184
.vio0쎯	-10.5184
lsr0쎯aombo쎯.	-10.5185
ydhml0쎯l0쎯wmgi쎯	-10.5187
(쎂	-10.5188
ks	-10.5191
le0쎯	-10.5192
ohg쎯sjrc0쎯	-10.5194
:쎄	-10.5194
yk1쎯yrnl0쎯	-10.5202
ydhml0쎯pdmbo0쎯	-10.5203
asje쎯nc쎯	-10.5204
,iksi쎯nn0쎯	-10.5207
쎂i1쎯	-10.5209
ivbgr쎯mrmt쎯	-10.5209
쎁쎄쎀	-10.521
knn0쎯egi쎯	-10.521
dbu쎯vmvfd쎯	-10.5211
ivohh쎯	-10.5212
llnsh쎯	-10.5212
qyrb0쎯	-10.5217
쎁쎈쎆	-10.5224
moob쎯k0쎯	-10.5227
vio0쎯ym0쎯hapi0쎯	-10.5227
gcwa0쎯ojbm0쎯	-10.5229
tc1쎯woll0쎯	-10.523
mcw쎯rmher쎯	-10.523
k0쎯lis쎯	-10.5234
ms0쎯o쎯	-10.5235
ojrk쎯nn0쎯	-10.5236
opd0쎯o쎯	-10.5236
jlwl0쎯jmyo쎯	-10.5241
qrbo쎯ooks쎯	-10.5242
ssr쎯po0쎯	-10.5243
ord0쎯jmyo쎯	-10.5243
fate쎯ivke쎯	-10.5244
yg0쎯eir쎯	-10.5244
kb0쎯vvh쎯ddi쎯o쎯r쎯	-10.5248
hapi0쎯yrbr0쎯	-10.5251
a0쎯tcb0쎯	-10.5254
dbu쎯oinl0쎯	-10.5255
gpd쎯girm쎯	-10.5257
qycb0쎯	-10.5257
bompm쎯za9쎯:za2쎯	-10.5261
lsylb쎯	-10.5268
-쎂쎀	-10.5268
mnr쎯bq쎯	-10.5269
hnlh0쎯쎄	-10.5271
libhu0쎯	-10.5272
hed0쎯ohq쎯my쎯	-10.5272
ym0쎯yrnl0쎯	-10.5273
mgbhu쎯su1쎯	-10.5279
bmr0쎯oq0쎯	-10.528
ebcd쎯bbe쎯	-10.5281
tykq쎯top0쎯	-10.5283
imrhu쎯	-10.5286
jmso쎯wmmu0쎯	-10.5286
nlmnr쎯nf0쎯	-10.5287
ohg쎯ytap쎯	-10.5288
qjbf0쎯	-10.5291
lgyhv쎯wl쎯	-10.5293
adi쎯oip0쎯hapi0쎯	-10.5294
app0쎯lmi쎯	-10.5294
my쎯nlheq쎯	-10.5294
rmea쎯	-10.5297
mgohh0쎯lmbo0쎯	-10.5301
hbv0쎯mks1쎯	-10.5302
oryo0쎯	-10.5303
php0쎯	-10.5303
enot쎯	-10.5311
jbtj쎯rmher쎯	-10.5313
,nbo쎯qmbo0쎯	-10.5315
pd0쎯mf0쎯	-10.5315
jlwl0쎯fqln0쎯	-10.5317
ydhml0쎯hbv0쎯ddi쎯	-10.532
ym0쎯mwsl쎯	-10.5322
hnlh0쎯ho0쎯	-10.5323
yrbr0쎯hjbo쎯amwg쎯	-10.5324
qogs0쎯tjblb0쎯	-10.5324
hdln0쎯elsg쎯	-10.5324
tino쎯	-10.5327
tbc0쎯mng0쎯hapi0쎯	-10.533
vmisb쎯rmvs쎯	-10.5331
ivnib쎯	-10.5331
oahe쎯hpsl0쎯	-10.5335
ino0쎯rmher쎯	-10.5335
iksi쎯ofp0쎯	-10.5338
mcw쎯jbtj쎯yrnl0쎯	-10.5338
ommi0쎯ivj쎯llmb쎯	-10.5339
ydhml0쎯opj0쎯	-10.5339
jmyo쎯hbln0쎯	-10.5348
dhn0쎯kq0쎯	-10.5349
ibpp쎯ks0쎯,	-10.535
odm0쎯hdrc쎯	-10.5351
.emcw0쎯iyr쎯	-10.5352
jher쎯ymmi쎯	-10.5352
leg0쎯qgdi쎯za2쎯	-10.5355
mr0쎯op0쎯	-10.5359
.opd0쎯olis쎯	-10.5362
ki0쎯nla쎯ibpp쎯	-10.5362
dm0쎯ci0쎯smr쎯	-10.5363
etjb쎯	-10.5363
wljbm쎯oiku쎯goiv쎯	-10.5363
mnln쎯kq0쎯	-10.5364
oqmo쎯fqsh쎯	-10.5365
a쎯	-10.5369
bkk쎯ytyr쎯.	-10.537
gtje쎯msks0쎯	-10.5371
sje0쎯oip0쎯	-10.5373
hynkg0쎯	-10.5374
jyk쎯mgbhu쎯nn0쎯	-10.5375
lihej쎯	-10.5376
ykll쎯omg0쎯	-10.5377
쎅～	-10.538
mwln쎯dyck0쎯po0쎯	-10.5386
쎁쎂쎅	-10.5387
bss쎯	-10.5388
ikhhh쎯fvok쎯ivtq쎯	-10.5389
ord0쎯qis쎯sk0쎯	-10.5391
fbnd0쎯mrmt쎯jckn쎯	-10.5391
mylm쎯mwsl쎯	-10.5392
-쎄-	-10.5392
bg쎯	-10.5394
jlln쎯,	-10.5397
rmvs쎯vmij0쎯	-10.5397
fhbu0쎯mmok쎯iodi쎯	-10.5399
yth쎯tc1쎯op0쎯	-10.5399
jlwl0쎯qpp0쎯	-10.5404
nmsu0쎯jqjr쎯	-10.5406
vmw쎯oymr쎯hup0쎯--	-10.5411
hapi0쎯yce0쎯op0쎯	-10.5413
lita쎯	-10.5415
my쎯mwsl쎯	-10.5417
hqm쎯yth쎯ksr쎯mlm쎯	-10.5417
vmhds쎯	-10.5418
gnsh쎯ayrf0쎯	-10.5421
vr쎯oin쎯	-10.5421
h쎯	-10.5424
olln쎯fbnd0쎯	-10.5428
mgmf0쎯vmjpu쎯	-10.5432
mgilg쎯,	-10.5436
jhq쎯	-10.5441
kklb0쎯bta0쎯	-10.5441
"="	-10.5445
dsmg0쎯krd0쎯	-10.5451
yfiku0쎯ivjnk쎯md쎯	-10.5455
llfl0쎯	-10.5459
쎄oq0쎯	-10.5459
lu0쎯nd0쎯	-10.5461
bwli0쎯	-10.5461
tmd0쎯hdl0쎯	-10.5462
ord0쎯jv0쎯	-10.5463
mri0쎯u쎯	-10.5464
op0쎯i1쎯	-10.5466
dhml0쎯	-10.5466
hqphh쎯odm0쎯	-10.5468
a0쎯tcbt쎯	-10.5471
tk0쎯hvif쎯.	-10.5472
nini0쎯hhsb쎯	-10.5473
csh0쎯dyck0쎯	-10.5474
dhhh쎯	-10.5476
nklq쎯ivhne쎯,	-10.5476
hbu0쎯bkf0쎯hdyj0쎯	-10.5477
yyk쎯yfiku0쎯amyo쎯	-10.5478
,onf0쎯	-10.5481
c쎯lnk0쎯	-10.5482
hamg쎯jmso쎯	-10.5484
i1쎯npo쎯	-10.5484
sk0쎯i1쎯	-10.5485
fjmu쎯	-10.5486
bmr0쎯m쎯	-10.5489
lk쎯ym0쎯	-10.5492
쎁쎉쎆쎇oq0쎯	-10.5497
oh쎯yg0쎯mwv쎯vio0쎯	-10.5498
tjblb0쎯yk1쎯o쎯	-10.5499
hapi0쎯mrmt쎯ivke쎯	-10.5501
쎈%	-10.5504
쎁.쎈	-10.5506
iksi쎯dm0쎯	-10.5507
vmisb쎯srln0쎯	-10.5508
hvd쎯wdh쎯	-10.5508
gnsh쎯gpd쎯	-10.551
쎁.쎆	-10.5511
ms0쎯mmu0쎯	-10.5512
pjbc0쎯	-10.5513
fbkf쎯fjpu쎯	-10.5515
o쎯omn1쎯	-10.5516
nlkmb0쎯	-10.5517
hbr0쎯ym0쎯	-10.5519
sehho쎯ogd0쎯	-10.5519
e쎯yth쎯	-10.552
hdyj0쎯k0쎯fbnd0쎯	-10.552
mboii0쎯ohq쎯	-10.5521
ths쎯	-10.5525
okmr쎯	-10.5528
oprob쎯l0쎯	-10.553
fdqmb쎯mrnbg쎯	-10.553
mwd쎯	-10.5533
oos쎯rrr0쎯za8쎯	-10.5535
hapi0쎯oos쎯rrr0쎯	-10.5536
yc	-10.5537
nlnsp쎯tims쎯	-10.554
wbp0쎯	-10.5541
qcsh쎯ejmc0쎯	-10.5542
niy쎯,	-10.5545
suok0쎯hdnf쎯	-10.5547
fbnd0쎯qsle쎯	-10.555
qyhn쎯yri0쎯	-10.5551
hnk0쎯rjd0쎯	-10.5552
m쎯srtq0쎯	-10.5553
,oos쎯iksi쎯	-10.5556
mks1쎯lk쎯yk0쎯op0쎯	-10.5557
emnr쎯eyiu0쎯	-10.5559
wjbo쎯	-10.556
dyhn쎯	-10.5562
amyo쎯iksi쎯nn0쎯	-10.5562
ob1쎯eune0쎯	-10.5563
vmher쎯	-10.5565
mylf쎯	-10.5565
lmp0쎯rmher쎯	-10.5569
qbcd쎯ebon쎯	-10.5569
nhvo쎯	-10.5569
yyk쎯gfno쎯	-10.5569
wp쎯rmher쎯	-10.557
.쎁쎁	-10.5572
쎁쎅쎀쎀	-10.5574
ho0쎯oq0쎯	-10.5579
smf0쎯mihui쎯	-10.558
hrln0쎯	-10.5581
u쎯bine쎯	-10.5582
k쎯	-10.5583
mdm쎯j쎯	-10.5584
ksc쎯ci0쎯mmn0쎯	-10.5587
mrfdq쎯mwice0쎯	-10.5587
hgdi쎯)	-10.5589
mob0쎯fkkb0쎯	-10.559
omlk쎯qjlo쎯	-10.5591
fdqmb쎯etmv쎯	-10.5593
yg0쎯mwv쎯kb0쎯	-10.5593
pd0쎯rvl쎯	-10.5596
llml쎯,	-10.5596
neln0쎯	-10.5596
csh0쎯hommn0쎯	-10.5596
pomr0쎯	-10.5598
kn0쎯oq0쎯	-10.5598
csh0쎯tbok0쎯	-10.56
wl	-10.56
ob1쎯kb0쎯	-10.5605
ih0쎯	-10.5609
쎂쎁pt0쎯vmsu0쎯	-10.561
jbmm0쎯mgln0쎯	-10.5612
.bmr0쎯adi쎯,	-10.5614
oos쎯nn0쎯	-10.5617
ivke쎯stv쎯.	-10.5628
oiku쎯jip쎯	-10.5628
ord0쎯eabt0쎯	-10.5628
ksr쎯vio0쎯	-10.5629
mdm쎯k0쎯	-10.563
opytj쎯	-10.563
uu0쎯hbu0쎯	-10.5632
fdqmb쎯mgok0쎯	-10.5634
hdyj0쎯hdyj0쎯po0쎯	-10.5637
쎁쎉쎄쎂oq0쎯	-10.5639
r쎯bjcm쎯	-10.5639
homm0쎯vmpi쎯	-10.5639
mmok쎯hdb0쎯hdr0쎯	-10.5642
k0쎯md쎯	-10.5643
lpwtc쎯	-10.5646
yrf1쎯qu0쎯	-10.5647
(쎁쎉쎀	-10.5647
,yyk쎯hdl0쎯	-10.5651
m쎯edi0쎯	-10.5653
hapi0쎯tk0쎯hvif쎯	-10.5653
yvbu쎯	-10.5656
mnij쎯kok쎯o쎯	-10.5656
,mgbhu쎯iksi쎯	-10.5657
liwvf쎯ysono0쎯	-10.5657
vmpi쎯jjosm0쎯	-10.5659
sj	-10.566
ivyvo쎯dyck0쎯	-10.566
mri0쎯yth쎯	-10.5661
l0쎯u쎯k0쎯fbnd0쎯	-10.5664
om	-10.5665
tw1쎯vmij0쎯	-10.5668
klnd쎯jcor쎯amwg쎯	-10.5669
yg0쎯o쎯	-10.5669
ydhml0쎯m쎯oip0쎯	-10.5671
za3쎯)	-10.5671
yyk쎯npo쎯ymy0쎯	-10.5677
eysd0쎯qu0쎯	-10.5677
stv쎯uu0쎯	-10.5679
쎁쎈쎈	-10.568
ymrw쎯	-10.5683
mnf0쎯jm0쎯	-10.5687
mnr쎯yhgu쎯	-10.5689
dhnk0쎯	-10.5693
krnvm쎯nmlk쎯	-10.5697
ve쎯	-10.5698
jher쎯ebhu0쎯	-10.57
khey쎯knib쎯	-10.5709
efb0쎯hqo0쎯	-10.571
쎁쎉쎄쎄oq0쎯	-10.5713
hgdi쎯hgdi쎯.	-10.5713
hapi0쎯pt0쎯woll0쎯	-10.5714
k0쎯qo0쎯	-10.5715
ddhni0쎯	-10.5715
nnqo0쎯pru쎯	-10.5716
mrmt쎯ivke쎯i1쎯	-10.5718
mg0쎯wmgi쎯	-10.5719
ihs0쎯mng0쎯	-10.572
hxvyv쎯dmmf0쎯	-10.5724
jdok0쎯llmb쎯,	-10.5724
omr0쎯bau쎯	-10.5728
쎁a0쎯goru쎯	-10.5728
dsk쎯vmng쎯	-10.5729
hyhxe쎯	-10.573
oos쎯tw1쎯	-10.5738
hapi0쎯omr0쎯oos쎯	-10.5738
qsle쎯za9쎯i1쎯za8쎯	-10.5738
쎁쎀oq0쎯	-10.5741
za3쎯;	-10.5741
on1쎯mmu0쎯,	-10.5742
gcwa0쎯ksr쎯nn0쎯	-10.5748
vnvm쎯vnvm쎯	-10.5749
쎀.쎄	-10.5749
mcw쎯obon쎯	-10.5751
kqqni쎯op0쎯	-10.5752
ynib쎯hnk0쎯	-10.5755
tvjr쎯	-10.5756
nlodi쎯tjblb0쎯	-10.5758
oymr쎯ohvl쎯	-10.5758
iobo쎯bmks0쎯	-10.576
mrmlk쎯ite쎯	-10.5761
ommi0쎯stv쎯	-10.5767
hghu쎯hmr0쎯klg0쎯	-10.5767
fbnd0쎯tcg0쎯c쎯	-10.5768
ci0쎯smr쎯klg0쎯	-10.5768
yyydb쎯	-10.577
itf0쎯	-10.5774
qytg쎯	-10.5775
-쎀쎁	-10.5783
jrlr0쎯rbo0쎯	-10.5784
qomr0쎯	-10.5785
ylb쎯mmok쎯	-10.5791
ma0쎯omd0쎯	-10.5793
llnsh쎯opfb쎯	-10.5798
iksi쎯yh쎯k0쎯	-10.5799
mgwg쎯ivop0쎯hdr0쎯	-10.5801
jdok0쎯mrmt쎯	-10.5802
hvno0쎯yoln0쎯	-10.5804
kav쎯	-10.5807
dsmg0쎯	-10.5809
yck쎯	-10.5811
oksr쎯	-10.5811
opj0쎯ohkl쎯	-10.5813
mmok쎯de0쎯	-10.5813
ylb쎯l0쎯p쎯	-10.5816
khonk쎯	-10.5816
ob1쎯,	-10.5817
fvok쎯ma0쎯	-10.5818
쎀.쎆	-10.582
×쎄	-10.582
,veks쎯ks0쎯	-10.5821
yohne0쎯	-10.5822
kqomn쎯oh쎯egi쎯	-10.5824
goshr쎯goiv쎯	-10.5827
mn	-10.5827
vmob0쎯fd0쎯	-10.5828
qrb쎯	-10.5829
ksc쎯ci0쎯jmig쎯i1쎯	-10.583
hbv0쎯yth쎯rrr0쎯	-10.5831
쎁쎉쎃쎆oq0쎯	-10.5831
ki0쎯nd0쎯	-10.5831
.쎁쎀	-10.5832
d쎯ddh쎯	-10.5834
hqm쎯mnjbm0쎯	-10.5835
hj0쎯fd0쎯	-10.5837
m쎯smmi0쎯	-10.584
l0쎯hgdi쎯	-10.584
mwsl쎯hdrc쎯쎆	-10.584
adi쎯olnk0쎯	-10.5847
^	-10.5857
khkt쎯	-10.5858
rsp0쎯?	-10.5859
eysd0쎯eine쎯	-10.5859
ma0쎯opbo0쎯	-10.5862
srnl1쎯	-10.5862
k0쎯qobhu쎯dtak쎯	-10.5862
bkk쎯amyo쎯	-10.5863
vsp0쎯	-10.5865
tgk쎯v쎯	-10.5866
tjblb0쎯tqbu쎯	-10.5868
,bmr0쎯oq0쎯	-10.5869
jbmc0쎯twhd0쎯	-10.587
.yyk쎯ypmm쎯	-10.5871
ehsk0쎯mnf0쎯	-10.5872
hgdi쎯o쎯	-10.5873
kqqni쎯yce0쎯	-10.5874
쎁～	-10.5879
wc0쎯j쎯	-10.5881
ihu쎯	-10.5881
mmu0쎯oq0쎯	-10.5882
hj0쎯oq0쎯	-10.5886
nklq쎯ivhne쎯hdr0쎯	-10.5887
txc쎯jcor쎯	-10.5891
oino1쎯	-10.5892
mig0쎯fh쎯	-10.5892
oyub0쎯	-10.5895
qamo쎯mmf0쎯	-10.5896
tjblb0쎯miks0쎯	-10.5896
m쎯o쎯	-10.5897
ivke쎯lwu0쎯	-10.5899
bmr0쎯fdk0쎯	-10.5904
,my쎯	-10.5904
liptd쎯	-10.5905
yk0쎯vmbk0쎯nir쎯	-10.5909
sok0쎯llmb쎯,	-10.591
f쎯htbn쎯	-10.591
ivke쎯ytk쎯	-10.5911
jrmbo쎯jmyo쎯	-10.5912
yrnl0쎯wljka쎯	-10.5915
huik0쎯	-10.5916
qdj쎯	-10.5918
ihs0쎯janl쎯ylb쎯	-10.5918
ytice쎯mlm쎯	-10.5919
mf0쎯mgln0쎯	-10.5923
nvno0쎯fdyj쎯	-10.5929
"i1쎯"	-10.593
i1쎯fhbu0쎯	-10.5931
hq	-10.5931
mlm쎯oos쎯l0쎯	-10.5934
fbnd0쎯hqm쎯hapi0쎯	-10.5937
vjd0쎯	-10.5937
eysd0쎯qu0쎯nlo쎯	-10.5939
yt	-10.594
)(	-10.594
qtor쎯nklq쎯	-10.594
nlikp쎯	-10.5941
mrpsh쎯	-10.5943
vmnom쎯wmgi쎯jmso쎯	-10.5943
moob쎯ummj0쎯	-10.5944
ytt0쎯stv쎯	-10.5945
mrnbg쎯ivo쎯	-10.595
wmgi쎯mg0쎯	-10.595
ihs1쎯	-10.5951
opfh쎯	-10.5951
ipfdq0쎯	-10.5953
tlbk0쎯hqgdi쎯nf0쎯	-10.5954
".	-10.5955
tmd0쎯m쎯	-10.5957
hapi0쎯ivke쎯stv쎯,	-10.5957
mrmlk쎯op0쎯	-10.5959
q쎯bbm0쎯	-10.5959
ymy0쎯llml쎯	-10.5959
mlwk쎯vnd쎯hapi0쎯	-10.5959
hqm쎯emgg쎯	-10.5961
bmr0쎯ytap쎯	-10.5963
hq0쎯obo쎯	-10.5966
vmw쎯tsl쎯	-10.5967
ci0쎯rvp쎯	-10.5967
leyt쎯	-10.5968
hdnin0쎯rvp쎯	-10.5969
m쎯rmher쎯	-10.597
qhne0쎯iobo쎯jka쎯	-10.5972
,tgk쎯wmgi쎯	-10.5977
ivbgr쎯oh쎯	-10.5978
i1쎯lmp0쎯yrf0쎯	-10.5981
jmso쎯vvh쎯	-10.5984
쎁쎈쎅	-10.5985
rvp쎯nc쎯vmbm0쎯,	-10.5986
u쎯i1쎯	-10.5987
mlm쎯tc1쎯sk0쎯	-10.5988
za9쎯,za8쎯	-10.5988
ycbr0쎯gnsh쎯	-10.5988
vmog쎯qgdi쎯	-10.599
jnd0쎯wyi0쎯	-10.5993
tchml쎯zxaf쎯	-10.5993
vio0쎯hmr0쎯,	-10.5993
jtbu1쎯tjblb0쎯	-10.5994
mtc0쎯ki0쎯	-10.5995
vmw쎯bipo쎯	-10.5997
ythu쎯jdok0쎯	-10.6002
bmr0쎯hommn0쎯	-10.6003
yth쎯hqm쎯nn0쎯	-10.6005
mthhh쎯qiks쎯	-10.6005
nir쎯llhwj쎯	-10.6006
hgdi쎯sjrc0쎯	-10.6011
sc쎯	-10.6015
jyfe쎯	-10.6016
ivmwj쎯	-10.6016
csh0쎯nd0쎯amwg쎯	-10.6017
moob쎯o쎯	-10.6018
tub쎯	-10.6019
o쎯ikhhh쎯	-10.6023
ord0쎯slm쎯	-10.6026
kip0쎯ite쎯	-10.6026
ytahu0쎯	-10.6027
-쎁쎅	-10.6027
ids쎯nir쎯:	-10.6035
eqmb0쎯ydhml0쎯	-10.6038
nl0쎯goru쎯hapi0쎯	-10.6038
쎈.	-10.6039
lmg0쎯k0쎯	-10.604
op0쎯omr0쎯hqphh쎯	-10.6043
tk0쎯p쎯	-10.6044
yk0쎯sjtk쎯	-10.6045
nmomm쎯	-10.6046
hqphh쎯hdl0쎯	-10.6049
ab0쎯eqmb0쎯	-10.6049
crp0쎯fvok쎯	-10.6049
쎁쎀쎈	-10.605
wc0쎯hdnd0쎯	-10.6051
쎈쎀oq0쎯oip0쎯	-10.6053
gonsm쎯	-10.6054
dbu쎯ykq0쎯	-10.6054
csh0쎯dje0쎯	-10.6055
nv	-10.6055
wmgi쎯yth쎯	-10.6057
nrli쎯mnf0쎯	-10.6058
yce0쎯mgi1쎯rrikr쎯	-10.6058
qjcn0쎯	-10.6059
mks0쎯ibpp쎯:	-10.606
쎅yyyce쎯	-10.6061
쎆oq0쎯	-10.6062
ssr쎯yrnl0쎯	-10.6064
pyv0쎯	-10.6064
aqmb쎯	-10.6065
ifrhu0쎯	-10.6068
ci0쎯wg0쎯,	-10.6068
mwsl쎯hdrc쎯쎁	-10.6069
rnlr쎯	-10.6071
mbll쎯ihs0쎯,	-10.6072
vmisb쎯hdv쎯	-10.6072
roin쎯	-10.6073
vmm0쎯niy쎯	-10.6074
wlgi쎯	-10.6082
e쎯l0쎯	-10.6083
ejpu0쎯	-10.6084
m쎯jmso쎯ogd0쎯	-10.6084
쎁쎀쎅	-10.6085
ninh쎯hjbu쎯	-10.6086
oprob쎯fhs쎯	-10.6086
omlk쎯hdln0쎯.	-10.6087
,qpa0쎯	-10.6088
.qpa0쎯	-10.609
ifbhu쎯wgnin쎯	-10.6091
mmbo쎯bu0쎯hapi0쎯	-10.6091
iflwl쎯kmnr0쎯	-10.6098
ord0쎯olhh0쎯	-10.6101
oudk쎯hino0쎯	-10.6107
nwm쎯fdk0쎯	-10.6108
jyk쎯nlmmf쎯ym0쎯	-10.6108
.쎃	-10.6111
omr0쎯iobo쎯	-10.6116
bq쎯gpd쎯	-10.6118
niy쎯yck0쎯	-10.6119
쎂쎀쎁쎄oq0쎯	-10.612
yvv0쎯	-10.6121
omn1쎯hup0쎯	-10.6122
."	-10.6122
ivnkv쎯hqm쎯	-10.6125
hapi0쎯bu0쎯dmmf0쎯	-10.6125
orpym쎯	-10.6128
ukt0쎯	-10.6128
rjd0쎯fdqmb쎯	-10.613
opjbc쎯fbrhu쎯hdv쎯	-10.6131
iflwl쎯ivhjr쎯	-10.6131
ebym쎯	-10.6134
jdks쎯	-10.6135
lsa쎯hapi0쎯	-10.6135
etq0쎯tpkp쎯	-10.6136
yomd쎯	-10.6138
쎅.쎅	-10.6139
ivke쎯stv쎯k	-10.6141
jbm0쎯hdl0쎯djbm0쎯	-10.6143
qybk0쎯opfb쎯	-10.6143
mwhd0쎯	-10.615
nvsmr쎯fdyj쎯	-10.615
bmln0쎯nlomd쎯	-10.6153
쎁쎂ol1쎯	-10.6156
omg0쎯hdrhg쎯	-10.6156
mr0쎯jmso쎯ig0쎯	-10.6162
za8쎯tk0쎯md쎯	-10.6163
dt0쎯ivcru쎯,	-10.6163
hapi0쎯fbnd0쎯hqm쎯	-10.6165
vmhj쎯	-10.6166
qtor쎯mwsu쎯	-10.6166
(irm쎯	-10.6167
ehjr쎯ks0쎯	-10.617
yg0쎯ohg쎯.	-10.6171
쎁.쎁	-10.6172
nklq쎯wmgi쎯	-10.6172
쎈rmvs쎯	-10.6174
쎁imno0쎯	-10.6176
yt0쎯odm0쎯gah쎯	-10.6178
vpd쎯olis쎯	-10.6178
eate쎯klb쎯	-10.6178
qnsh쎯ilil쎯	-10.6184
domm0쎯jbof쎯	-10.6186
sk0쎯mmok쎯iodi쎯	-10.6188
.nlykb1쎯tqbu쎯	-10.6192
df0쎯uu0쎯	-10.6193
tcuj쎯	-10.6197
hi0쎯	-10.6198
hapi0쎯ooll쎯dher쎯	-10.6199
k0쎯qni0쎯	-10.62
쎁쎉쎃쎅oq0쎯	-10.6201
ifm쎯nmp0쎯	-10.6207
nljmu쎯po0쎯	-10.6211
janl쎯ibpp쎯	-10.6212
iksi쎯m쎯	-10.6219
top0쎯hqm쎯	-10.6222
qpa0쎯uu0쎯	-10.6224
iov0쎯	-10.6227
ywk0쎯	-10.6227
jmyo쎯tcb0쎯	-10.6229
,omg0쎯	-10.6235
ehio쎯qpa0쎯	-10.6236
oyrn쎯kq0쎯gnsh쎯	-10.6238
omn1쎯eabt0쎯	-10.6244
kqyck쎯nrli쎯	-10.6244
nau0쎯eeq0쎯	-10.6246
kokr쎯	-10.6248
ci0쎯pmbo0쎯,	-10.6249
l0쎯tcb0쎯	-10.6249
abu쎯nlomm쎯	-10.625
cwj0쎯khlmi쎯	-10.625
qwl쎯	-10.625
(oinr쎯	-10.6251
jkmvs쎯hqm쎯	-10.6251
tmmc0쎯jyk쎯	-10.6252
nnqo0쎯ivtkr쎯	-10.6253
hhsb쎯,	-10.6254
kb0쎯o쎯	-10.6254
tcb0쎯opbo0쎯	-10.6259
ydok0쎯	-10.6259
hapi0쎯ylb쎯gnsh쎯	-10.6262
;쎃i1쎯	-10.6263
tbln0쎯ecr쎯	-10.6266
쎁쎉쎄쎃oq0쎯	-10.6266
lim0쎯dhkl쎯	-10.6266
qlmy쎯nir쎯	-10.6267
.m쎯hyhne쎯	-10.6267
slm쎯ecor쎯	-10.6268
qshr쎯ycbr0쎯	-10.627
ghrj쎯	-10.6271
쎄.쎀	-10.6273
rsql쎯	-10.6275
쎁쎉쎃쎃oq0쎯	-10.6278
eyg0쎯bbm0쎯iobo쎯	-10.6278
uice쎯	-10.628
irp0쎯mgln0쎯	-10.6281
yw쎯,	-10.6281
goru쎯taj쎯	-10.6283
쎂쎀csh0쎯opl쎯	-10.6284
oii쎯	-10.6284
kq0쎯hdrhg쎯	-10.6286
mku쎯opaph쎯	-10.6286
domm0쎯jbvif0쎯	-10.6289
ivo쎯jmyo쎯	-10.6289
zd1	-10.6291
pqmb쎯tsl쎯	-10.6296
amj0쎯	-10.6296
zc1	-10.6301
mwln쎯yg0쎯ohg쎯,	-10.6302
ivke쎯stv쎯hdr0쎯	-10.6305
pa0쎯	-10.6306
jlln쎯tc1쎯hapi0쎯	-10.6306
ndpru쎯	-10.6306
yg0쎯rudi0쎯	-10.6306
쎇.쎅	-10.6309
ocor쎯hdnf쎯	-10.6313
hdl1쎯nnqo0쎯za2쎯	-10.6315
sk0쎯,	-10.6315
ivo쎯	-10.6316
ifu쎯oik1쎯	-10.6317
ivipm쎯yrf1쎯	-10.6319
okss쎯	-10.6321
owyi0쎯imno0쎯	-10.6321
jrhu쎯tchml쎯	-10.6321
mlm쎯hdrhg쎯hvif쎯	-10.6327
qkq쎯jbik0쎯	-10.6329
hapi0쎯m쎯yrnl0쎯	-10.6329
tvip쎯tgtr쎯	-10.633
fdk0쎯rsln1쎯:	-10.6332
yyk쎯yrnl0쎯	-10.6338
mkr쎯	-10.6341
ymmu0쎯opfb쎯	-10.6342
amyo쎯bu0쎯tbln0쎯	-10.6343
ysok쎯hhdi쎯	-10.6344
bt쎯	-10.6345
odf0쎯	-10.6348
yhe0쎯wr쎯	-10.6351
hjwg쎯vmbm0쎯	-10.6351
hgdi쎯wmgi쎯jmso쎯	-10.6353
hnlh0쎯wc0쎯slw0쎯	-10.6354
ehkp쎯	-10.6358
qjcn0쎯qsuu쎯	-10.6361
kqyck쎯k0쎯hapi0쎯	-10.6362
rrik0쎯	-10.6362
,wk0쎯mbll쎯	-10.6362
moo쎯	-10.6368
vmgr쎯vhpa쎯	-10.6371
tc0쎯qmb쎯wdh쎯	-10.6371
de0쎯hdln0쎯	-10.6373
쎂/	-10.6374
vmshr0쎯fmc쎯	-10.6376
qlymr쎯	-10.6377
lwl0쎯qsle쎯	-10.6383
heo쎯heo쎯po0쎯	-10.6383
vmpu쎯vlok쎯oh쎯	-10.6384
hsyhs0쎯yth쎯	-10.6385
khjka쎯obo쎯	-10.6386
ikhhh쎯ebhu0쎯	-10.6386
dm0쎯g쎯	-10.6389
tt1쎯vmbm0쎯vmrc쎯	-10.639
enl0쎯nc쎯mfj0쎯	-10.6392
ids쎯za9쎯:za2쎯	-10.6394
oos쎯yk0쎯	-10.6396
mbw쎯yk2쎯	-10.6397
jlln쎯yylc쎯	-10.6397
hlbi0쎯	-10.6398
dbdb0쎯	-10.6399
hllb0쎯	-10.6399
osu쎯ikq쎯	-10.64
ivcru쎯:za2쎯	-10.6404
mnhjd쎯elq쎯boyr0쎯	-10.6404
rmav쎯rmjmf쎯	-10.6406
mfj0쎯jv0쎯	-10.641
쎃쎅쎀	-10.6415
tcg0쎯gpd쎯.	-10.6416
.mgbhu쎯klg0쎯	-10.6418
ol1쎯ddi쎯rvp쎯nc쎯	-10.6419
ivbgr쎯rjd0쎯	-10.642
쎂～	-10.6424
,yyk쎯ypmm쎯	-10.6424
ysm쎯hjrr쎯mgwg쎯	-10.6424
fdqmb쎯ite쎯	-10.6426
qbnsd쎯kip0쎯	-10.6427
po0쎯gihs쎯	-10.6429
sk0쎯ob1쎯	-10.643
tmmc0쎯lsa쎯	-10.6431
ninn쎯vio0쎯	-10.6434
srtq0쎯pysu쎯	-10.6434
mmm쎯imno0쎯	-10.6435
fsm0쎯l0쎯	-10.6435
tgk쎯vnd쎯	-10.6436
ytt0쎯sje0쎯	-10.6436
mlm쎯hdv쎯	-10.6442
hohju쎯	-10.6444
쎁쎀쎂쎄	-10.6446
pikh0쎯	-10.6448
yav쎯od쎯	-10.645
mtln0쎯jlln쎯	-10.645
rvp쎯mmok쎯yrnl0쎯	-10.6451
qtor쎯	-10.6452
id1쎯ivmmr쎯	-10.6455
mgwg쎯jlln쎯ommi0쎯	-10.6456
za24쎯	-10.6457
nl0쎯ivke쎯	-10.6458
jdok0쎯hdv쎯	-10.6464
:쎅	-10.647
vmnom쎯za9쎯	-10.6472
쎂%	-10.6472
-쎁쎂	-10.6473
q쎯mlm쎯	-10.6473
ino0쎯lsa쎯,	-10.6473
ifmrw쎯hdln0쎯	-10.6475
hqo0쎯gi0쎯	-10.6478
une쎯qbbe0쎯	-10.648
zd82쎯	-10.6481
jpmu쎯	-10.6485
mks0쎯yioj0쎯:	-10.6487
fbkf쎯fdyj쎯	-10.6488
mm0쎯o쎯	-10.6489
mt0쎯hsr1쎯	-10.649
ivyfd쎯	-10.6495
dhe1쎯gdk쎯	-10.6497
i1쎯mg0쎯	-10.6497
쎀yw쎯,	-10.6498
bhne쎯ocsh쎯	-10.6499
,yihu0쎯csh0쎯	-10.6499
ddkq0쎯	-10.65
hx	-10.6502
gi0쎯pt0쎯	-10.6502
ivke쎯mwjkd쎯	-10.6502
ejcr0쎯md쎯	-10.6503
ivohh쎯knn0쎯	-10.6503
nlykb1쎯adi쎯	-10.6503
onjv쎯	-10.6504
is0쎯mng0쎯	-10.6505
mwv쎯qmvif쎯	-10.6506
mrmt쎯jckn쎯i1쎯	-10.6506
ivym쎯onf0쎯	-10.6506
-쎁쎁	-10.6506
nvlmi쎯	-10.6507
mbmbl0쎯ije0쎯,	-10.6508
jher쎯o쎯	-10.6516
dmcw0쎯	-10.6516
amyo쎯vmnom쎯	-10.6518
jbtj쎯aa0쎯	-10.652
oyhv0쎯bkf0쎯	-10.6521
ci0쎯yck0쎯	-10.6522
eune0쎯	-10.6526
qni0쎯kqrsj쎯za8쎯	-10.6526
mr쎯amyo쎯m쎯jmso쎯	-10.6527
uu0쎯llhe쎯hapi0쎯	-10.6529
gpd쎯tjblb0쎯	-10.653
mrogf쎯	-10.653
kq	-10.6531
hdl0쎯djbm0쎯tc1쎯	-10.6532
.쎂	-10.6533
vmgr쎯dpi1쎯,	-10.6536
tgk쎯fbnd0쎯	-10.6537
.mgbhu쎯kb0쎯	-10.6542
ndu쎯nd0쎯	-10.6545
ohg쎯l0쎯tc0쎯	-10.6548
쎂쎄nc쎯adi쎯	-10.6548
mdm쎯oip0쎯	-10.6551
eyg0쎯bbm0쎯qmv쎯	-10.6552
,mf0쎯oe0쎯	-10.6556
vsll0쎯	-10.6559
ahqm0쎯hvif쎯	-10.656
c쎯bkln0쎯	-10.6565
yomn0쎯	-10.6567
mwsu쎯yhs쎯	-10.6568
vf	-10.6572
qam쎯	-10.6574
kok쎯kmob쎯hapi0쎯	-10.6575
lu0쎯hdyj0쎯	-10.6577
hbv0쎯is0쎯	-10.6578
enwm쎯tc1쎯	-10.6579
,hbr0쎯	-10.6579
lapv쎯	-10.6579
,crp0쎯	-10.658
kd0쎯obon쎯	-10.658
hqgdi쎯vmpi쎯	-10.6582
wg0쎯,eowy쎯qike쎯쎁	-10.6585
쎂.쎄	-10.6589
nlo쎯po0쎯	-10.6589
dnot쎯	-10.6591
hbln0쎯imoii쎯	-10.6593
csh0쎯fdk0쎯:	-10.6593
mlwk쎯yrbr0쎯	-10.6594
dyhn쎯ilil쎯ylb쎯	-10.6594
hbv0쎯tc1쎯o쎯r쎯	-10.6596
hfp0쎯	-10.6596
tak쎯tchml쎯hdyj0쎯	-10.6597
v쎯lu0쎯	-10.66
omg0쎯hbu0쎯miks0쎯	-10.6601
vvwd쎯	-10.6604
dbu쎯oqni쎯	-10.6605
slm쎯ifbhu쎯	-10.6606
ee0쎯jnd0쎯	-10.6608
moob쎯wmgi쎯	-10.6609
jdok0쎯fbrg쎯	-10.661
fmbo0쎯pyuk쎯	-10.6611
kn0쎯em0쎯	-10.6614
쎂쎀oq0쎯	-10.6615
쎁쎈쎇	-10.6616
fsm0쎯oin쎯	-10.6617
ymf0쎯mhaf0쎯	-10.662
qogs0쎯q쎯	-10.6621
,dav쎯qsjr쎯za8쎯	-10.6626
hdbm쎯ogbo쎯	-10.6626
nc쎯md쎯	-10.6626
ym0쎯ylb쎯ci0쎯smr쎯	-10.6628
oos쎯bq쎯,	-10.6633
vjmo0쎯	-10.6636
jdok0쎯rudi0쎯	-10.6636
yce0쎯hdl0쎯	-10.6636
yth쎯md쎯	-10.6638
lbhni쎯	-10.6638
qywm쎯	-10.6639
ivhds쎯	-10.6639
vmbm0쎯po0쎯	-10.6641
nmpru쎯	-10.6643
lb	-10.6646
쎁쎆쎀쎀	-10.6646
srln0쎯nljmu쎯	-10.6646
m쎯heo쎯	-10.6651
imog쎯boln0쎯	-10.6652
ohqi쎯wmgi쎯	-10.6655
lmnii쎯ommi0쎯	-10.6656
tsl쎯vmpi쎯	-10.6657
gybt쎯tc1쎯	-10.6658
kw쎯yj0쎯	-10.6659
nomrt0쎯nlqu쎯	-10.666
goru쎯yrf1쎯	-10.6661
k0쎯ks0쎯	-10.6661
(쎁쎉쎁	-10.6666
jyk쎯yri0쎯	-10.6668
irp0쎯pqmb쎯	-10.667
afhhh쎯rhbr0쎯.	-10.6672
miks0쎯bine쎯	-10.6673
yhsb0쎯klb쎯	-10.6674
eyiu0쎯odm0쎯	-10.6675
ilo쎯	-10.6675
rsp0쎯	-10.6676
lmbo0쎯ysook0쎯	-10.6677
rjhr쎯	-10.6678
ab0쎯mghjd쎯	-10.6678
yfiku0쎯ibpp쎯	-10.6679
ivwd쎯fbrg쎯	-10.6681
grtr0쎯srln0쎯	-10.6683
rvp쎯bq쎯	-10.6692
mcw쎯lmp0쎯yrnl0쎯	-10.6693
wr쎯vlok쎯	-10.6694
yyk쎯imno0쎯	-10.6694
hbu0쎯fbnd0쎯	-10.6695
niy쎯hhbo0쎯	-10.6695
hqm쎯rudi0쎯llmb쎯,	-10.6698
ora0쎯ks0쎯	-10.6698
o0쎯	-10.67
za9쎯l0쎯hapi0쎯	-10.6702
dbb쎯	-10.6709
mbowy쎯	-10.6711
hhw쎯my쎯	-10.6714
csh0쎯rsln1쎯iksi쎯	-10.6714
vmw쎯twhd0쎯	-10.6718
hbu0쎯eir쎯ilil쎯	-10.6718
csh0쎯yjilj쎯	-10.6719
za22쎯	-10.6723
hoav0쎯yrbr0쎯	-10.6724
jyk쎯sim쎯	-10.6724
by0쎯qme쎯	-10.6725
nvjpu쎯	-10.6726
qykl0쎯	-10.6726
qni0쎯sjrc0쎯	-10.6726
,쎀쎀쎀	-10.6731
hbln0쎯tvmi2쎯	-10.6732
nmme0쎯hbln0쎯	-10.6733
jrb쎯twln1쎯y쎯	-10.6733
,rc0쎯	-10.6734
mnr쎯oos쎯iksi쎯	-10.6737
,mhaf0쎯	-10.6737
nc쎯vbm쎯	-10.6739
vnd쎯,	-10.6741
po0쎯yk2쎯	-10.6743
okr1쎯	-10.6744
ejcr0쎯eyok쎯	-10.6744
vmjoa쎯bysm쎯	-10.6744
phh쎯	-10.6745
yrbr0쎯nf0쎯qo0쎯	-10.6745
bsle0쎯hohne0쎯	-10.6747
ab0쎯jjb0쎯	-10.675
leg0쎯qgdi쎯vio0쎯	-10.675
obmc쎯hvd쎯yrnl0쎯.	-10.6751
,tc0쎯kb0쎯	-10.6751
ivoj쎯mnr쎯ivmym쎯	-10.6753
ajka0쎯	-10.6759
sjtk쎯vmher쎯	-10.676
ytd0쎯hbu0쎯	-10.6762
oo0쎯ymp0쎯	-10.6765
쎅yrbu0쎯fd0쎯	-10.6768
hapi0쎯m쎯gfno쎯	-10.6769
yprmk쎯	-10.677
atc0쎯mmf0쎯rrikr쎯	-10.6773
bb0쎯	-10.6775
hipym0쎯	-10.6778
jmgi쎯jmgi쎯	-10.6781
쎂쎀쎁쎃	-10.6786
ommi0쎯po0쎯	-10.6788
eyrd쎯	-10.6789
)o쎯.	-10.679
nkhym쎯jv0쎯	-10.6791
odm0쎯hvif쎯,	-10.6791
wmgi쎯muw쎯	-10.6792
ids쎯bysm쎯	-10.6793
tbln0쎯hxh쎯iksi쎯	-10.6794
bdoe쎯	-10.6796
pt0쎯lsa쎯	-10.6798
hdr0쎯opfb쎯ogr0쎯	-10.6798
tnef쎯eomn0쎯	-10.6799
hjwg쎯oahe쎯	-10.6803
ejbc쎯	-10.6805
omg0쎯hxh쎯	-10.6807
,hlsa쎯hdnf쎯	-10.6808
iksi쎯o쎯	-10.681
za10쎯	-10.6811
.hghu쎯hmr0쎯	-10.6813
lmsy쎯tbrr쎯hdln0쎯	-10.6813
,md쎯amyo쎯	-10.6814
p쎯smf0쎯	-10.6816
mfj0쎯fd0쎯	-10.6817
optgk쎯	-10.682
hghu쎯ophej쎯	-10.6825
j쎯kn0쎯	-10.6825
hapi0쎯jmmf0쎯pa1쎯	-10.6826
qobhu쎯tesu쎯op0쎯	-10.6826
wgnin쎯hqm쎯	-10.6827
k0쎯gpd쎯	-10.6829
nklq쎯ivhne쎯i1쎯	-10.683
eowy쎯girm쎯	-10.683
qis쎯cwj0쎯oyt쎯.	-10.6835
ggdi쎯nklq쎯	-10.6841
(쎁쎈	-10.6845
fmu쎯ab0쎯	-10.6846
hounk쎯hqm쎯hqphh쎯	-10.6846
ycn쎯tw1쎯	-10.6847
.쎅i1쎯	-10.6848
mca0쎯ht0쎯iksi쎯	-10.6849
qdhe쎯opj1쎯mthhh쎯	-10.6849
o쎯k0쎯oip0쎯qmv쎯	-10.6851
adi쎯opl쎯	-10.6852
nl0쎯oimbo0쎯	-10.6854
rvp쎯ksc쎯	-10.6854
(쎂쎀쎀	-10.6855
wc0쎯yhs쎯	-10.6858
hbv0쎯tc1쎯yrnl0쎯	-10.6858
srln0쎯wdh쎯	-10.686
tnlb0쎯	-10.6861
kb0쎯qdtt쎯gpd쎯	-10.6862
fqhe쎯	-10.6862
jlv0쎯nd0쎯	-10.6862
kd0쎯lmp0쎯yrnl0쎯	-10.6864
ki0쎯mhaf0쎯	-10.6864
mf0쎯no1쎯	-10.6865
ouln0쎯oos쎯hapi0쎯	-10.6866
dlbu0쎯	-10.6867
jk0쎯qo0쎯	-10.6868
za3쎯,za2쎯	-10.6873
ode쎯	-10.6874
ids쎯ivsu쎯,	-10.6874
.oyt쎯md쎯	-10.6874
irp0쎯ifm쎯	-10.6876
jcor쎯amwg쎯:	-10.6878
bmi쎯o쎯.	-10.6878
zf3	-10.688
bq쎯yomd쎯:	-10.688
kd1쎯jqjr쎯	-10.6883
tt1쎯oh쎯	-10.6885
nmomm쎯vlok쎯	-10.6886
.yyk쎯ol1쎯	-10.6887
heo쎯.	-10.6887
dhn0쎯mng0쎯	-10.6891
ikhhh쎯ivtmd쎯po0쎯	-10.6891
ym0쎯nn0쎯	-10.6892
jlln쎯pqmb쎯	-10.6895
heyr0쎯	-10.6895
opbo0쎯ymmi쎯	-10.6895
opmn쎯	-10.6896
bq쎯is0쎯hapi0쎯	-10.6897
qje쎯id1쎯,	-10.6897
ino0쎯ythu쎯	-10.6898
llmb쎯iobo쎯	-10.69
mik쎯	-10.69
쎁쎉쎃쎄oq0쎯	-10.6903
qhk0쎯	-10.6903
.쎁i1쎯	-10.6904
쎉쎀%	-10.6912
yce0쎯hoami쎯	-10.6913
wks0쎯ndyvo쎯	-10.6917
쎂.쎂	-10.6918
amyo쎯edi0쎯	-10.692
yth쎯rrr0쎯hdr0쎯	-10.6922
mku쎯o쎯	-10.6922
etrg쎯eaiu쎯	-10.6924
uni0쎯.	-10.6926
mj쎯qiku쎯	-10.6926
tsj쎯	-10.6933
ivsmr쎯es쎯	-10.6934
onnme쎯op0쎯	-10.694
ino0쎯heo쎯	-10.6941
my쎯yrnl0쎯	-10.6941
(쎆	-10.6944
uu0쎯mgbhu쎯klg0쎯	-10.6945
opij쎯,	-10.6945
opj0쎯muhe0쎯	-10.6949
zbc0쎯	-10.6949
mgwg쎯jlln쎯.	-10.695
edi0쎯q쎯	-10.6952
ycbr0쎯wfqu0쎯	-10.6952
hqm쎯.	-10.6957
-쎁쎆	-10.696
l0쎯hdyj0쎯nljmu쎯	-10.6961
쎁-쎂	-10.6962
bgr0쎯oq0쎯	-10.6963
ovio쎯hfd0쎯	-10.6963
jmch쎯	-10.6964
ouln0쎯yhgr0쎯nn0쎯	-10.6965
fbnd0쎯jibi쎯jm0쎯	-10.6966
ihpm쎯,	-10.6969
e쎯mwsl쎯	-10.697
tk0쎯hvif쎯,	-10.6972
:쎁쎀	-10.6973
,hmr0쎯dt0쎯	-10.6978
kd0쎯jbtj쎯yrnl0쎯	-10.6978
yhs쎯ipm0쎯,	-10.6979
vmoo쎯dtlc쎯	-10.6979
lmp0쎯jd1쎯	-10.6981
ha쎯mmi쎯	-10.6982
ino0쎯hshml쎯	-10.6982
emhf0쎯md쎯	-10.6983
nmpd쎯	-10.6984
omg0쎯a0쎯hbln0쎯	-10.6987
rmher쎯r쎯	-10.6987
mlwk쎯vnd쎯gpd쎯	-10.6987
hdyj0쎯yg0쎯ohg쎯	-10.6987
,mgbhu쎯su1쎯	-10.6988
ymf0쎯mnr쎯vio0쎯	-10.6991
yha쎯	-10.6994
r쎯rjd0쎯	-10.6995
mmok쎯heks0쎯	-10.6996
olhh0쎯mylm쎯	-10.6997
qtbs쎯uu0쎯	-10.6997
her0쎯kb0쎯	-10.6997
rudi0쎯llmb쎯	-10.6999
ykq0쎯jikq쎯	-10.7
mgok1쎯mghui쎯	-10.7002
he0쎯hhdi쎯	-10.7002
nini0쎯iksi쎯	-10.7003
mmm쎯nbg0쎯mthhh쎯	-10.7003
ivke쎯mgbhu쎯nn0쎯	-10.7004
ehbv쎯kbnl1쎯	-10.7006
ok0쎯	-10.7008
mnr쎯vio0쎯klg0쎯	-10.7009
wmn0쎯	-10.701
yfiku0쎯klg0쎯	-10.7011
etrg쎯d쎯	-10.7013
hvif쎯fvok쎯	-10.7015
ci0쎯smr쎯yg0쎯mwv쎯	-10.7019
eyiu0쎯llnsh쎯	-10.7019
쎁/	-10.7021
vmnom쎯nmomm쎯.	-10.7028
hj0쎯jrhu쎯	-10.7029
nn0쎯k0쎯amwg쎯	-10.7031
ile쎯suf0쎯	-10.7031
mryiu0쎯mwice0쎯	-10.7032
za7쎯	-10.7033
aate쎯fmu쎯	-10.7034
kgg0쎯	-10.7035
fdnd쎯	-10.704
bhn0쎯obo쎯	-10.704
,bq쎯md쎯	-10.7041
adi쎯yoln0쎯	-10.7041
omlk쎯md쎯	-10.7042
ik1쎯pvsm쎯	-10.7043
okr0쎯nir쎯ite쎯	-10.7047
ids쎯muw쎯jmso쎯	-10.7048
l0쎯qmwyi0쎯	-10.7048
hqm쎯ehjr쎯klg0쎯	-10.7053
je0쎯qbme쎯	-10.7054
bq쎯e쎯	-10.7055
ejmc0쎯yce0쎯	-10.7055
ilr0쎯ids쎯zxaf쎯	-10.7055
k0쎯k0쎯	-10.7057
to	-10.7062
jcos쎯	-10.7063
mku쎯ivop0쎯	-10.7063
-쎁쎈	-10.7064
k0쎯slsl0쎯	-10.7065
ydi0쎯hdrhg쎯l0쎯,	-10.7068
o쎯p쎯	-10.7072
uu0쎯mgbhu쎯nn0쎯	-10.7073
fbmmi쎯ivipm쎯	-10.7074
omr0쎯oos쎯,	-10.7078
,nk0쎯hdnf쎯	-10.708
lllo쎯inin0쎯	-10.7081
fvok쎯qsjr쎯vmij0쎯	-10.7084
iksi쎯tmmc0쎯	-10.7084
iok0쎯	-10.7086
ojlk쎯omrl쎯	-10.7086
,jbtj쎯	-10.7087
ycnh쎯	-10.709
ci0쎯smr쎯oyt쎯md쎯	-10.7091
쎁쎈쎉	-10.7093
wmgi쎯jmso쎯hdr0쎯	-10.7095
hapi0쎯mf0쎯bmr0쎯	-10.7098
쎂쎀쎀쎂	-10.71
vmfft쎯ysook0쎯	-10.71
mri0쎯hqphh쎯	-10.71
opd0쎯klg0쎯	-10.7101
tbc0쎯mhog0쎯	-10.7104
hqki쎯nklq쎯	-10.7113
쎁쎉쎂	-10.7115
janl쎯mnr쎯vio0쎯	-10.7119
mlm쎯iobo쎯	-10.713
vmcsh쎯	-10.7132
dhab쎯top0쎯	-10.7141
cwj0쎯oyt쎯i1쎯	-10.7141
nc쎯ivcru쎯za8쎯	-10.7142
kna0쎯	-10.7142
omg0쎯ids쎯	-10.7142
sjtk쎯ivjbm쎯	-10.7143
lwu0쎯ytyr쎯	-10.7144
yg0쎯fdyj쎯	-10.7147
:쎀쎀	-10.7147
lwu0쎯dcnh쎯	-10.7149
ophje쎯fkvc쎯	-10.7149
qyt0쎯tchml쎯	-10.715
dt0쎯lwu0쎯	-10.7153
m쎯ol1쎯o쎯	-10.7156
쎀-	-10.7156
yk0쎯op0쎯yrnl0쎯	-10.7156
fmbo0쎯	-10.7157
qmb쎯eowy쎯	-10.7157
qamo쎯uu0쎯hapi0쎯	-10.7158
hapi0쎯yk0쎯op0쎯	-10.716
쎂rmvs쎯	-10.7162
mlm쎯hdrhg쎯k	-10.7164
opite쎯	-10.7165
l0쎯wmgi쎯ids쎯muw쎯	-10.7167
yrbr0쎯u쎯	-10.7167
fd0쎯,	-10.7169
ifrob쎯	-10.7169
i1쎯fbrhu쎯vmbm0쎯	-10.7171
bayc쎯	-10.7172
gyt쎯gnhe쎯	-10.7172
qosu쎯ieok0쎯	-10.7173
bqo쎯	-10.7173
hapi0쎯m쎯hshml쎯	-10.7174
rks0쎯m쎯ol1쎯	-10.7176
ikhhh쎯ivtmd쎯	-10.7177
ta0쎯	-10.7178
pd0쎯hdnf쎯	-10.7182
ihs0쎯wd0쎯lnk0쎯	-10.7183
ivke쎯hqm쎯hapi0쎯	-10.7183
qha0쎯jnyk쎯	-10.7185
hounk쎯jibi쎯	-10.7186
fdilr쎯se0쎯kmob쎯	-10.7188
nini0쎯nir쎯	-10.719
yck0쎯woll0쎯	-10.7191
bpru쎯	-10.7194
ylmh0쎯nmseo쎯	-10.7196
vmnom쎯lnbo쎯	-10.7199
k0쎯vmbk0쎯	-10.72
kb0쎯adi쎯	-10.72
emwf0쎯	-10.7203
mrmt쎯jckn쎯,	-10.7204
yg0쎯o쎯ci0쎯	-10.7208
nn0쎯za2쎯	-10.7208
vlok쎯bopi쎯	-10.7209
shlb0쎯csh0쎯fdk0쎯	-10.721
m쎯ylmh0쎯	-10.7211
rmvs쎯:	-10.7213
mmok쎯hdb0쎯,	-10.7213
moob쎯mwsl쎯	-10.7213
쎁쎀쎀jrhu쎯	-10.7213
dav쎯dm0쎯	-10.7215
mwsl쎯wdh쎯	-10.7216
aaa0쎯odm0쎯	-10.7217
phqm쎯,	-10.7217
bodh쎯mmok쎯yrnl0쎯	-10.722
bbke쎯vnd쎯	-10.7222
pt0쎯jibi쎯ommi0쎯	-10.7222
mgije쎯gnsh쎯	-10.7223
.wk0쎯ymp0쎯,	-10.7223
hdr0쎯gpd쎯sk0쎯	-10.7225
yrf1쎯,	-10.7225
thbu0쎯yhgu쎯	-10.7229
iml쎯jcik쎯	-10.723
knd0쎯yck0쎯	-10.723
ly쎯ofbi쎯	-10.7235
okhdv쎯	-10.7235
ff0쎯i1쎯	-10.7238
hey쎯hdnd0쎯	-10.7238
m쎯ohq쎯	-10.724
.wk0쎯iksi쎯	-10.7242
.쎄	-10.7243
phqm쎯ibpp쎯:	-10.7244
rd0쎯	-10.7249
fh쎯lu0쎯	-10.7249
mt0쎯mlm쎯	-10.725
qa	-10.7251
nl0쎯oh쎯	-10.7251
tlbk0쎯yk0쎯nir쎯	-10.7253
wp쎯dup쎯mmok쎯eir쎯	-10.7258
ymuo쎯kqop쎯	-10.7259
hqki쎯hew쎯	-10.726
o쎯yhgr0쎯	-10.7262
ympog쎯	-10.7262
oip0쎯ivhhi쎯	-10.7268
쎀쎀mfj0쎯yhs쎯fd0쎯,	-10.7269
j쎯jnd0쎯	-10.727
hdr0쎯qje쎯id1쎯	-10.7271
fdcsh쎯dj쎯	-10.7273
vio0쎯nau0쎯mnln쎯	-10.7275
avno0쎯	-10.7275
mk쎯bkf0쎯omn1쎯	-10.7277
nlykb1쎯hmr0쎯	-10.7282
tsl쎯a0쎯	-10.7284
m쎯jmso쎯qni0쎯tc1쎯	-10.7285
nnqo0쎯qytv0쎯	-10.7287
hamg쎯hmr0쎯	-10.7287
nini0쎯o쎯	-10.7293
,yyk쎯ol1쎯	-10.7294
ebcd쎯op0쎯	-10.7296
isok쎯	-10.7297
fbr0쎯ids쎯	-10.7304
jmso쎯lwu0쎯	-10.7307
fbbhu쎯hoami쎯	-10.7308
ibpp쎯ks0쎯.	-10.7309
hapi0쎯nbg0쎯ite쎯	-10.7311
yg0쎯mwv쎯hqm쎯yth쎯	-10.7311
.ynib쎯ydi0쎯	-10.7311
ksr쎯ym0쎯	-10.7312
kla쎯	-10.7313
osk0쎯iib0쎯	-10.7314
owyi0쎯a0쎯	-10.7315
ivke쎯qmv쎯md쎯za8쎯	-10.7315
hvd쎯wmmu0쎯	-10.7316
nini0쎯bdhhh0쎯	-10.732
dhn0쎯dosu쎯	-10.732
oahe쎯fmc쎯	-10.7323
ouln0쎯yt0쎯md쎯	-10.7324
mwsl쎯tbln0쎯	-10.7325
mfj0쎯hommn0쎯	-10.7326
r쎯,	-10.7326
mnr쎯bq쎯md쎯	-10.7327
pdmbo0쎯	-10.7328
qif0쎯e쎯	-10.7328
dedi쎯yt0쎯	-10.733
hoav0쎯vnd쎯hapi0쎯	-10.733
ylnc쎯oos쎯	-10.7331
m쎯adi쎯	-10.7331
;nbo쎯qmbo0쎯	-10.7332
oq0쎯vmnhe쎯	-10.7333
tyvw쎯	-10.7334
crp0쎯libt0쎯	-10.7337
yjilj쎯yioj0쎯:	-10.734
gno0쎯	-10.7343
hbln0쎯yhgr0쎯tc1쎯	-10.7343
lpb쎯mwsl쎯	-10.7344
.ivwb쎯	-10.7345
ejmc0쎯vmeq쎯	-10.7346
,amyo쎯qpa0쎯	-10.7348
mgbhu쎯klnd쎯	-10.735
mt0쎯ouln0쎯	-10.7358
eyr쎯	-10.7359
crp0쎯mgwg쎯	-10.7359
qobhu쎯iln0쎯i1쎯	-10.736
hgdi쎯her0쎯hdl0쎯	-10.7361
iksi쎯:	-10.7362
ysopd쎯hommn0쎯	-10.7362
oimbo0쎯llw쎯	-10.7363
vmpi쎯iksi쎯	-10.7365
hqi0쎯ylb쎯	-10.7365
ob1쎯hapi0쎯	-10.7371
sk0쎯rsln1쎯	-10.7372
nljp쎯	-10.7373
ahqm0쎯tcb0쎯	-10.7375
,asje쎯k0쎯	-10.7376
he0쎯oahe쎯	-10.7376
ifm쎯fsm0쎯	-10.7376
khlmi쎯yt0쎯hapi0쎯	-10.7379
hnlh0쎯m쎯yrnl0쎯	-10.7379
쎂.쎁	-10.7381
l0쎯mcw쎯	-10.7382
ms0쎯rpu0쎯	-10.7385
odm0쎯hjwg쎯	-10.7385
m쎯thbu0쎯	-10.7385
goru쎯mgln0쎯	-10.7388
hapi0쎯fbnd0쎯id1쎯	-10.7389
mfr쎯	-10.7393
o쎯dh쎯gytr쎯toll0쎯	-10.7393
mgbbm쎯mgjrb쎯	-10.7394
ogd0쎯omr0쎯	-10.7395
wgf0쎯ha쎯	-10.7395
nrli쎯k0쎯	-10.7398
ejcr0쎯nbshq쎯	-10.74
qje쎯id1쎯k	-10.7403
oprr쎯omr0쎯c쎯	-10.7404
qam쎯ord0쎯	-10.7409
ivhne쎯ivj쎯ysm쎯	-10.7409
ldhe쎯qbbe0쎯ninn쎯	-10.741
ino0쎯nd0쎯	-10.7411
tc1쎯kb0쎯nlav쎯	-10.7414
hapi0쎯ksc쎯fbnd0쎯	-10.7415
wpp0쎯	-10.7416
ronk쎯	-10.7416
쎀.쎇	-10.7425
mig0쎯oin쎯,	-10.7426
qjv쎯icq0쎯	-10.7426
u쎯,	-10.7427
hgdi쎯yth쎯rrr0쎯	-10.7429
jmmf0쎯pa1쎯,	-10.7431
hqm쎯mnp0쎯	-10.7433
fcq0쎯hommn0쎯.	-10.7433
ucor쎯	-10.7434
,nlomd쎯	-10.7434
쎃%	-10.7435
hqg쎯by0쎯	-10.7438
yhs쎯egi쎯,	-10.7439
mf0쎯aphh0쎯	-10.744
쎁쎉쎉쎉	-10.7441
onkq쎯omg0쎯	-10.7442
ke0쎯ivjbm쎯	-10.7443
mwcsh쎯	-10.7447
egi쎯o쎯	-10.7448
mgilg쎯nd0쎯	-10.745
yhs쎯jvd쎯.	-10.7452
vmsu0쎯domm0쎯	-10.7453
.rvp쎯wmgi쎯	-10.7453
asje쎯hjwg쎯mwv쎯	-10.7457
pawe쎯pawe쎯	-10.7458
쎁쎉쎃쎀oq0쎯	-10.7458
amyo쎯m쎯oyt쎯	-10.7459
ibpp쎯ks0쎯hapi0쎯	-10.7465
lsylb쎯opl쎯	-10.7465
hoopn쎯	-10.7466
jyk쎯bq쎯phqm쎯	-10.7466
kd0쎯u쎯	-10.7468
hn0쎯j쎯	-10.7468
ob1쎯p쎯	-10.747
phqm쎯.	-10.7472
krd0쎯dpi1쎯	-10.7472
gpim쎯mnr쎯	-10.7476
fbrlb쎯fbrlb쎯	-10.7476
hodi쎯rmvs쎯	-10.748
dhn0쎯odm0쎯	-10.748
hbu0쎯ihs0쎯yt0쎯	-10.7481
ids쎯nir쎯	-10.7482
쎃rmvs쎯	-10.7485
qgg0쎯llhwj쎯	-10.7486
m쎯dtq쎯,	-10.7486
():	-10.7487
gytr쎯ivlll쎯l0쎯p쎯	-10.7489
tab쎯	-10.7489
vmij1쎯	-10.7491
ota쎯lic0쎯	-10.7493
za3쎯yce0쎯hdl0쎯	-10.7493
ytwa쎯mgln0쎯	-10.7494
dt0쎯hapi0쎯	-10.7496
hpa0쎯	-10.7496
wfoin쎯	-10.7497
dbu쎯pp0쎯	-10.7502
rmvs쎯)	-10.7505
yfiku0쎯kb0쎯	-10.7505
ohpm쎯mrukf쎯	-10.751
nir쎯ivsmr쎯	-10.7511
eatc쎯gpd쎯	-10.7511
jikp쎯	-10.7512
j쎯omd0쎯	-10.7514
쎁쎅jrhu쎯	-10.7516
ol1쎯wmgi쎯jmso쎯	-10.7517
ooll쎯ojbm0쎯.	-10.7517
muhe0쎯hdnd0쎯	-10.7518
suok0쎯nir쎯iksi쎯	-10.7518
niy쎯wmgi쎯ivmmr쎯	-10.7522
vmij0쎯,	-10.7522
emnr쎯r쎯	-10.7523
hnlh0쎯mdm쎯slw0쎯	-10.7523
ylb쎯gnsh쎯ym0쎯	-10.7524
mwsu쎯ytk쎯	-10.7526
,edi0쎯md쎯	-10.7526
ph	-10.7528
쎃～	-10.7529
oyok0쎯irp0쎯	-10.7529
mks1쎯hdrhg쎯	-10.7529
yrbu0쎯	-10.7529
csho쎯wd1쎯	-10.7534
hojwp0쎯yib쎯	-10.7534
yri0쎯wmgi쎯	-10.7541
crp0쎯ommi0쎯	-10.7543
bhpi쎯	-10.7545
e쎯csh0쎯	-10.7545
,amyo쎯m쎯ol1쎯	-10.7545
adi쎯tcb0쎯,	-10.7548
ymb쎯jmyo쎯	-10.7548
yk0쎯dm0쎯	-10.7549
ym0쎯albk0쎯	-10.7552
dkmr쎯	-10.7553
gpd쎯qiks쎯	-10.7553
쎂-쎃	-10.7553
ebon쎯vmomi쎯	-10.7554
twdi0쎯hjwg쎯	-10.7554
smr쎯oini0쎯yrnl0쎯	-10.7556
쎇쎅쎀	-10.7556
jbmm0쎯vmij0쎯	-10.7556
wvif쎯ivj쎯	-10.7556
ysm쎯ivke쎯stv쎯	-10.756
pt0쎯jmso쎯	-10.7561
tjomk쎯	-10.7562
fkkb0쎯	-10.7563
cksl쎯	-10.7568
쎈oq0쎯	-10.7568
쎁쎅csh0쎯opl쎯	-10.7569
hbu0쎯yhjr쎯ifm쎯	-10.7573
쎃/	-10.7573
omn1쎯miks0쎯	-10.7576
jlln쎯jyk쎯	-10.7576
qpa0쎯hapi0쎯amyo쎯	-10.7579
nlqu쎯vmjnk쎯	-10.7582
hshml쎯hshml쎯po0쎯	-10.7584
klg0쎯hda쎯etcu0쎯	-10.7585
ksr쎯k0쎯	-10.7589
mku쎯vmij0쎯lwu0쎯	-10.7592
hdnin0쎯djbm0쎯	-10.7596
.(쎃)	-10.7598
ha	-10.7598
qiks쎯ks0쎯	-10.7598
mnr쎯csh0쎯iksi쎯	-10.7599
tcb0쎯hogdi쎯	-10.76
mj쎯jlln쎯	-10.7602
hqmcw쎯hqhqm0쎯.	-10.7602
p쎯big쎯	-10.7603
,aimvu쎯	-10.7604
srln0쎯dm0쎯	-10.7608
dm0쎯o쎯	-10.761
mdm쎯ma0쎯	-10.761
yhs쎯opj1쎯i1쎯	-10.7618
lmp0쎯tgk쎯	-10.7618
okvif0쎯mnjbm0쎯	-10.7619
edhe쎯tmm0쎯	-10.762
mgph0쎯	-10.7622
mghjd쎯jmgi쎯	-10.7624
ids쎯za9쎯	-10.7624
mgije쎯rbo0쎯	-10.7625
omlk쎯amyo쎯	-10.7628
쎈mfj0쎯yhs쎯ci0쎯	-10.763
ino0쎯a0쎯goru쎯	-10.763
tkhk0쎯fhbu0쎯	-10.7632
mgwg쎯fbnd0쎯	-10.7633
amyo쎯a0쎯dm0쎯	-10.7633
oos쎯uu0쎯nn0쎯	-10.7635
opij쎯hlb0쎯	-10.7641
tehw0쎯	-10.7643
eabt0쎯abme0쎯	-10.7644
slmy0쎯	-10.7648
mwsl쎯hdrc쎯yk2쎯	-10.7648
hklmi0쎯	-10.7649
pd0쎯ommi0쎯	-10.765
vsm쎯yth쎯hdyj0쎯	-10.7652
fbrhu쎯mmok쎯	-10.7653
fjcr쎯yrf1쎯	-10.7654
gytu0쎯woll0쎯	-10.7656
vmnom쎯hhbo0쎯	-10.7656
wr쎯llsm쎯	-10.7658
oqni쎯ivcru쎯l0쎯	-10.7659
uu0쎯iobo쎯	-10.7662
hwj쎯	-10.7663
ivbgr쎯fdyj쎯	-10.7664
hvif쎯ivo쎯ivmym쎯	-10.7665
l0쎯wmgi쎯ids쎯egi쎯	-10.7665
fcymr쎯	-10.7666
qklu쎯	-10.7667
qibi쎯	-10.7669
mf0쎯bhu0쎯	-10.767
tgk쎯ebhu0쎯	-10.7671
hj0쎯ms0쎯	-10.7672
hdi0쎯o쎯	-10.7672
opd0쎯amyo쎯	-10.7674
bkk쎯ytyr쎯,	-10.7676
ikhhh쎯jtco0쎯	-10.7676
of0쎯	-10.7677
llmb쎯,	-10.7677
,omg0쎯mwsl쎯	-10.768
hbk1쎯ymmi쎯	-10.768
ehsk0쎯pqmb쎯	-10.768
hapi0쎯asje쎯ogg0쎯	-10.7683
sqnl0쎯dtq쎯	-10.7684
klg0쎯a0쎯dm0쎯	-10.7687
oiku쎯hghu쎯	-10.7687
oymr쎯ivyhs쎯	-10.7689
za2	-10.769
hnk0쎯mlby쎯	-10.7692
vmqmo쎯	-10.7693
nmme0쎯za9쎯	-10.7693
mgoii쎯	-10.7694
g쎯mrt0쎯	-10.7695
yk1쎯,	-10.7697
cwj0쎯m쎯	-10.7697
ota쎯bmks0쎯	-10.7699
ymp0쎯niy쎯	-10.77
dnhe쎯tmmc0쎯	-10.77
klg0쎯yyk쎯ol1쎯	-10.7701
dyck0쎯fbnd0쎯hqm쎯	-10.7703
jlwl0쎯dam0쎯	-10.7706
쎇쎂쎀	-10.7706
mok0쎯tk0쎯	-10.7709
ivke쎯hqm쎯nn0쎯	-10.7709
m쎯ytyr쎯ipm0쎯	-10.7709
k0쎯mgwg쎯	-10.7714
,tkr0쎯	-10.7717
hyosu쎯	-10.7717
qobhu쎯jmyo쎯,	-10.7721
tsl쎯qkhk쎯	-10.7722
lstuo쎯	-10.7724
ivoj쎯mnr쎯	-10.7728
fyaj쎯	-10.7728
mk쎯ojlk쎯	-10.7729
mk쎯omn1쎯	-10.7729
mgwg쎯jlln쎯po0쎯	-10.773
dbu쎯dhn0쎯	-10.7732
mwln쎯hdyj0쎯po0쎯	-10.7732
%%*/	-10.7734
쎁쎈쎄	-10.7734
jmso쎯o쎯	-10.7737
,mwv쎯	-10.7739
쎀.쎀쎀	-10.774
csh0쎯mwsu쎯mgln0쎯	-10.774
hdyj0쎯po0쎯	-10.7741
mf0쎯bbe쎯	-10.7742
fmu쎯vmhj쎯	-10.7742
ogd0쎯za9쎯	-10.7743
mwsl쎯hdrc쎯iksi쎯	-10.7745
bklu쎯	-10.7746
mgwg쎯bodh쎯	-10.7747
nk0쎯kb0쎯	-10.7748
ysotc쎯my쎯hapi0쎯	-10.7749
smsim쎯hqu0쎯	-10.775
ylln0쎯i1쎯	-10.7752
hjwg쎯olhh0쎯	-10.7754
mf0쎯oam쎯	-10.7757
yrbr0쎯mhaf0쎯	-10.776
cwj0쎯oyt쎯:	-10.776
gpd쎯nir쎯	-10.776
쎀*	-10.7762
eikh0쎯	-10.7763
hapi0쎯mks0쎯ibpp쎯	-10.7764
hdrc쎯wvif쎯nn0쎯	-10.7767
fbrhu쎯hdr0쎯	-10.7767
u쎯opjbc쎯	-10.7769
nsnd0쎯	-10.7769
hapi0쎯lloa쎯id0쎯	-10.7769
amyo쎯ym0쎯eowy쎯	-10.7771
o쎯klg0쎯	-10.7777
nlhem0쎯hjwg쎯	-10.7778
tgtr쎯md쎯	-10.7779
p1쎯	-10.7779
jhgu쎯egi쎯	-10.7782
c쎯llhwj쎯	-10.7785
ivcru쎯egi쎯	-10.7786
gpd쎯mthhh쎯	-10.7786
twla0쎯	-10.7787
eqmb0쎯qif0쎯	-10.7789
ivhne쎯ivj쎯hdr0쎯	-10.7792
dyvo쎯hbut0쎯	-10.7792
hgr0쎯ivhmy쎯	-10.7797
tbok0쎯qif0쎯	-10.7798
shi0쎯	-10.7802
zc7	-10.7804
tino쎯idd쎯	-10.7804
mj쎯imnsd쎯	-10.7807
fbkf쎯	-10.7807
mt0쎯vir쎯nn0쎯	-10.7808
hn0쎯oq0쎯	-10.781
hbln0쎯hew쎯	-10.7811
hnk0쎯mmi쎯	-10.7813
mt0쎯e쎯	-10.7813
wjbo쎯jcmvh쎯	-10.7822
yp	-10.7827
쎆.쎅	-10.7827
dher쎯ssr쎯	-10.7828
i1쎯nlkd쎯	-10.783
tbln0쎯ytt0쎯	-10.7832
okp0쎯no1쎯	-10.7836
ommi0쎯ym0쎯	-10.7836
-쎄쎅	-10.7836
jbtj쎯jd1쎯	-10.7836
,oq0쎯	-10.7837
opbk쎯ddh쎯	-10.7839
qoa쎯oip0쎯	-10.7841
o쎯phqm쎯op0쎯	-10.7841
ydl쎯yioj0쎯	-10.7844
tvmt쎯	-10.7845
rc0쎯mbmbl0쎯	-10.7845
oh쎯r쎯	-10.7849
jomc쎯jher쎯	-10.7849
hnlh0쎯쎅	-10.7849
mks1쎯vmnom쎯	-10.785
hapi0쎯hnlh0쎯m쎯	-10.785
p쎯hbt0쎯hjrr쎯	-10.7852
fb쎯	-10.7855
vbm쎯	-10.7856
oe0쎯kb0쎯	-10.7857
yhs쎯egi쎯.	-10.7858
psh0쎯jrln쎯	-10.7858
gcwa0쎯yth쎯	-10.7858
f쎯byav쎯	-10.7859
lb쎯	-10.7859
eomr0쎯ivff쎯	-10.7859
bmi쎯o쎯,	-10.7864
mr쎯ihs0쎯yt0쎯md쎯	-10.7866
npo쎯qni0쎯kqrsj쎯	-10.7868
lsh쎯,	-10.7868
adi쎯hapi0쎯	-10.7871
ayrf0쎯nau0쎯	-10.7872
,lmp0쎯	-10.7872
wr쎯:za2쎯	-10.7872
mwln쎯crp0쎯	-10.7874
hgdi쎯nini0쎯ol1쎯	-10.7877
yrnl0쎯csh0쎯.	-10.7877
o쎯,tmmc0쎯l0쎯	-10.7878
odm0쎯mgbhu쎯nn0쎯	-10.7879
fbnd0쎯dyck0쎯.	-10.788
쎇쎆쎈	-10.7882
vmcsh쎯vmcsh쎯	-10.7883
yr	-10.7884
jyk쎯heks0쎯	-10.7884
mf0쎯gtj쎯	-10.7885
oiku쎯goiv쎯	-10.789
쎉쎅%	-10.789
ogg0쎯ibpp쎯	-10.7891
k0쎯hrytj0쎯tbc0쎯	-10.7892
vhkl쎯	-10.7893
oimbo0쎯rudi0쎯o쎯	-10.7896
adi쎯lsa쎯ob1쎯	-10.7897
jka쎯hapi0쎯	-10.7898
iksi쎯쎁	-10.7898
hdbgr쎯	-10.79
l0쎯p쎯,	-10.7902
jm0쎯fbnd0쎯oyt쎯,	-10.7904
ivhne쎯hew쎯hdr0쎯	-10.7904
dr0쎯	-10.7905
qbbe0쎯ninn쎯za2쎯	-10.7905
ihmv쎯bksc쎯	-10.7909
hvo쎯	-10.791
쎇쎀oq0쎯oip0쎯	-10.7911
jdok0쎯yib쎯mmn0쎯	-10.7914
bmr0쎯nir쎯	-10.7914
hopsh쎯	-10.7914
l0쎯wmgi쎯o쎯	-10.7916
,ehne쎯kb0쎯	-10.7917
yviw쎯	-10.7919
mrmt쎯jckn쎯rbo0쎯,	-10.7921
mt0쎯ksc쎯	-10.7921
yck0쎯qnbk1쎯dhn0쎯	-10.7922
jrhu쎯wp쎯yg0쎯ik1쎯	-10.7923
쎁쎀.	-10.7926
woll0쎯hapi0쎯	-10.7926
nir쎯:	-10.7926
jmyo쎯yrf1쎯	-10.7926
hlsa쎯egr쎯	-10.7928
hapi0쎯hshml쎯kb0쎯	-10.7928
u쎯ym0쎯	-10.7929
opher쎯	-10.793
oq0쎯yth쎯	-10.7933
ejmc0쎯raa쎯ommi0쎯	-10.7934
hommn0쎯,	-10.7934
l0쎯qni0쎯	-10.7936
nlyhs쎯fate쎯	-10.7939
vmoo쎯nlo쎯	-10.7939
imoii쎯e쎯	-10.7941
j쎯ogg0쎯	-10.7941
po0쎯yomd쎯	-10.7942
pvsm쎯jrhu쎯tmm0쎯	-10.7943
rmhqo쎯	-10.7945
,mcw쎯	-10.7945
mlm쎯fbnd0쎯nljmu쎯	-10.7945
daiu쎯	-10.7947
-쎅-	-10.7947
mmti쎯	-10.7948
dnhe쎯bmmc쎯	-10.7949
ee1쎯smmi0쎯	-10.795
ngmwm쎯	-10.7952
e쎯ym0쎯	-10.7953
ma0쎯ms0쎯	-10.7956
mhaf0쎯ddh쎯fdyj쎯	-10.7957
ivyvo쎯ids쎯	-10.7958
hoemn쎯	-10.7958
psh0쎯qnbk1쎯	-10.7959
rrikr쎯jrlr0쎯	-10.7959
nwma쎯ynj0쎯	-10.7961
oq0쎯,	-10.7961
roks쎯	-10.7962
odm0쎯ommi0쎯	-10.7963
rrikr쎯ohq쎯	-10.7963
vmij0쎯ym0쎯	-10.7963
pqmb쎯imrhu쎯,	-10.7966
qamo쎯otc쎯asje쎯	-10.7967
jjb0쎯nkhg쎯	-10.7967
fmu쎯tbd1쎯	-10.7967
ci0쎯mmu0쎯tbln0쎯	-10.7967
yta0쎯rhbr0쎯	-10.7967
hbv0쎯tvmi2쎯	-10.7968
dmam쎯	-10.7968
lscwj쎯yid0쎯	-10.7968
ehbk0쎯	-10.797
oyhs0쎯jbmc0쎯	-10.7973
hqgdi쎯sjlws쎯	-10.7974
aimvu쎯kb0쎯	-10.7975
hshml쎯mgok0쎯	-10.7976
ode쎯yid0쎯	-10.7976
egi쎯llmb쎯	-10.7978
mhaf0쎯dm0쎯	-10.7979
hpsl0쎯napo쎯	-10.798
hdv쎯ommi0쎯	-10.7982
oyg쎯joma쎯	-10.7982
tir0쎯	-10.7983
e쎯aaa0쎯	-10.7984
nyk쎯jnyk쎯	-10.7986
vnd쎯ivmfj쎯	-10.7987
ids쎯muw쎯tn0쎯id1쎯	-10.7992
lsp0쎯	-10.7993
,eyg0쎯bbm0쎯iobo쎯	-10.7993
emn쎯	-10.7994
쎀×	-10.7995
suok0쎯hbln0쎯	-10.7995
amyo쎯oo0쎯	-10.7995
yk	-10.7996
hapi0쎯mt0쎯ivke쎯	-10.8
jcjnk쎯	-10.8001
ig0쎯ddi쎯	-10.8004
fbrlb쎯hdv쎯	-10.8008
bbnq쎯	-10.801
lmp0쎯obon쎯	-10.8012
mok0쎯ivjnk쎯	-10.8012
vjr쎯viav쎯	-10.8013
e쎯lwu0쎯	-10.8013
ysohv쎯jher쎯	-10.8013
ylmh0쎯omc0쎯	-10.8014
m쎯yks쎯	-10.8014
osme0쎯	-10.8015
oqmo쎯	-10.8017
edi0쎯hdnf쎯	-10.8017
rmher쎯ym0쎯	-10.8018
,amyo쎯m쎯hshml쎯	-10.802
vr쎯my쎯	-10.802
mfj0쎯yhs쎯ci0쎯	-10.802
vmbme쎯klnd쎯	-10.802
,a0쎯dm0쎯	-10.8025
nfdn쎯	-10.8027
gpd쎯hjhne쎯	-10.8028
.jp쎯amyo쎯	-10.8034
hsyhs0쎯i1쎯	-10.8034
ivwb쎯ino0쎯	-10.8035
rvp쎯ooo0쎯	-10.804
bu0쎯hapi0쎯amyo쎯	-10.8043
csh0쎯mnyhv0쎯	-10.8046
owy쎯	-10.8047
jmso쎯bq쎯	-10.8049
on1쎯mmu0쎯	-10.8049
qbnsd쎯lwu0쎯	-10.8052
ytrhu쎯qje쎯	-10.8053
qni0쎯tc1쎯phqm쎯	-10.8053
yhn쎯	-10.8054
yrnl0쎯,	-10.8056
i1쎯ysohv쎯eysd0쎯	-10.8056
oprob쎯ob1쎯	-10.806
mnr쎯hgrly쎯phqm쎯	-10.8062
mku쎯mbmbl0쎯	-10.8065
os쎯	-10.807
ci0쎯wg0쎯heo쎯	-10.8071
fbrhu쎯crp0쎯je0쎯	-10.8072
yta0쎯ykok0쎯	-10.8073
jjb0쎯nla쎯	-10.8075
za2쎯mdm쎯	-10.8076
vio0쎯lmp0쎯	-10.808
,qllb0쎯bmks0쎯	-10.8081
ol0쎯jiyhv0쎯	-10.8081
dm0쎯hdyj0쎯hqm쎯	-10.8082
mwln쎯yg0쎯vmisb쎯	-10.8084
hapi0쎯wp쎯dup쎯	-10.8085
쎂쎀쎀쎁	-10.8086
eir쎯jv0쎯	-10.8087
qiku쎯	-10.8088
쎂.쎈	-10.8089
hjrr쎯mgwg쎯odm0쎯	-10.8091
otc쎯e쎯	-10.8092
la0쎯gylm쎯	-10.8092
omg0쎯po0쎯	-10.8093
ihq쎯	-10.8094
lmg0쎯ysook0쎯	-10.8095
......	-10.8097
ee1쎯hjwg쎯	-10.8098
nd0쎯i1쎯	-10.8098
llhe쎯)	-10.8101
쎆쎀쎀쎀	-10.8102
tcg0쎯yebu쎯jdok0쎯	-10.8103
po0쎯vmpi쎯	-10.8104
nlytr쎯	-10.8104
ivop0쎯za9쎯	-10.8105
lnk0쎯za3쎯	-10.8105
em0쎯ejrb쎯	-10.8106
tkhk0쎯wmgi쎯jmso쎯	-10.8109
yrrv0쎯	-10.811
쎅쎀쎀jrhu쎯	-10.8112
,ivqmb쎯	-10.8115
ytt0쎯jm0쎯	-10.8115
qif0쎯heo쎯mgwg쎯	-10.8115
,nk0쎯nir쎯	-10.8116
psh0쎯llml쎯	-10.8117
쎃쎀jrhu쎯	-10.8118
adi쎯jcm쎯	-10.8119
pp0쎯jtco0쎯l0쎯	-10.812
za8쎯l0쎯opj0쎯	-10.8123
b쎯mjln쎯	-10.8128
mgbou1쎯	-10.8128
yhs쎯mwsl쎯,	-10.8129
my쎯dt0쎯	-10.8129
gmam쎯	-10.8129
gp0쎯zxaf쎯	-10.813
쎂쎅yyycg쎯	-10.8131
hlsa쎯cwj0쎯hapi0쎯	-10.8131
amyo쎯wmgi쎯jmso쎯	-10.8132
wr쎯pn0쎯	-10.8132
ms0쎯wg0쎯	-10.8134
uu0쎯hbt0쎯	-10.8135
vmbm0쎯ohq쎯	-10.8135
+쎁	-10.8136
쎉rmvs쎯	-10.8137
yc쎯j쎯	-10.8137
jir쎯	-10.8137
mvdi쎯	-10.8138
ksmi쎯hsyhs0쎯	-10.814
,ynib쎯fbrlb쎯	-10.814
.yhml쎯oq0쎯dt0쎯,	-10.814
(쎅)	-10.8143
ior0쎯ivpa0쎯i1쎯	-10.8144
ino0쎯niy쎯	-10.8146
domn0쎯	-10.815
,mf0쎯ydi0쎯	-10.8157
anau0쎯ommi0쎯	-10.8157
tcg0쎯gpd쎯,	-10.8157
nc쎯f쎯	-10.8158
mdbu쎯	-10.8158
hgrly쎯yhml쎯	-10.8158
zd6	-10.8159
qog0쎯hommn0쎯	-10.8161
hdyj0쎯rbo0쎯	-10.8162
yrbr0쎯sjrc0쎯	-10.8166
bopo쎯	-10.8167
ydi0쎯hapi0쎯	-10.817
hap0쎯	-10.8172
쎃쎀csh0쎯opl쎯	-10.8173
nlo쎯rbo0쎯	-10.8175
mlm쎯tn0쎯rrr0쎯	-10.8178
o쎯dher쎯	-10.8178
m쎯vmbm0쎯	-10.8179
jtbu1쎯ite쎯	-10.8179
nsd0쎯ivik쎯	-10.8181
goru쎯nn0쎯	-10.8182
mrmt쎯jckn쎯ysm쎯	-10.8183
her0쎯hbu0쎯	-10.8186
yt0쎯egi쎯	-10.8187
≤쎀.	-10.819
hdyj0쎯jmig쎯	-10.819
gr0쎯opd0쎯	-10.8192
m쎯l0쎯	-10.8194
jwlb쎯	-10.8196
amyo쎯wk0쎯iksi쎯	-10.8199
qshr쎯dmmf0쎯	-10.8203
hq0쎯vnhs쎯	-10.8204
pd0쎯ivoj쎯	-10.8204
pt0쎯woll0쎯dmf쎯	-10.8204
쎂쎀쎀fd0쎯	-10.8204
nljmu쎯nljmu쎯po0쎯	-10.8205
uu0쎯hapi0쎯	-10.8206
ms0쎯omd0쎯	-10.8209
hqi0쎯ci0쎯smr쎯	-10.8209
hapi0쎯kd0쎯mcw쎯	-10.821
qfh쎯	-10.8212
jcpsh쎯	-10.8213
zc6	-10.8213
ivrmk쎯tqm쎯	-10.8214
yck0쎯hoyg쎯	-10.8217
edi0쎯ivhjr쎯	-10.8218
elw쎯w쎯	-10.822
emms0쎯e쎯	-10.822
uu0쎯hxh쎯	-10.8223
hdnd0쎯tsl쎯	-10.8225
ommi0쎯hshml쎯	-10.8226
yck0쎯ksc쎯hapi0쎯	-10.8226
,rc0쎯kb0쎯	-10.8228
hnlh0쎯kn0쎯	-10.8229
쎃i1쎯	-10.8229
hxkc쎯	-10.823
esme0쎯epru쎯	-10.823
oh쎯lis쎯	-10.8231
tims쎯ids쎯	-10.8232
쎂mfj0쎯yhs쎯ci0쎯	-10.8233
mrno0쎯ivsmr쎯	-10.8234
ivipm쎯ylln0쎯	-10.8238
ysm쎯ifg쎯ommi0쎯	-10.8242
hhqu쎯muw쎯	-10.8243
mfj0쎯hgdi쎯	-10.8245
jbtj쎯obon쎯	-10.8247
mgohh0쎯mghjd쎯	-10.8248
ytt0쎯ylmh0쎯lnk0쎯	-10.8248
,amyo쎯lw쎯	-10.8253
ym0쎯pt0쎯vmsu0쎯	-10.8254
opj1쎯nof0쎯	-10.8255
,nini0쎯imno0쎯	-10.8257
쎁쎉쎃쎁oq0쎯	-10.8258
쎄쎅쎀	-10.8258
ybou1쎯qjcm쎯	-10.826
is0쎯,	-10.8265
bo	-10.8265
lmo0쎯	-10.8266
uu0쎯mgbhu쎯hapi0쎯	-10.827
hd0쎯	-10.827
ivcru쎯ab0쎯ids쎯	-10.827
tbln0쎯dt0쎯	-10.8271
,owyi0쎯oq0쎯	-10.8273
yviw쎯hqok0쎯	-10.8273
mmbo쎯bu0쎯.	-10.8275
wgfg쎯mcw쎯mrnr쎯	-10.8277
m쎯yhs쎯	-10.8277
ynib쎯ocor쎯	-10.828
hogdi쎯bq쎯	-10.8282
hapi0쎯bmr0쎯adi쎯	-10.8283
ytwi0쎯	-10.8283
yrbr0쎯uhej0쎯	-10.8284
,pd0쎯kb0쎯	-10.8285
l0쎯qmb쎯oq0쎯	-10.8285
i1쎯jbtj쎯	-10.8286
쎂쎁쎀	-10.8295
ob1쎯gpd쎯	-10.8298
pqmb쎯vmjka쎯	-10.8298
silq쎯	-10.8302
aisl쎯ihs0쎯.	-10.8303
쎃쎀oq0쎯	-10.8305
za21쎯	-10.8305
hapi0쎯m쎯ypmm쎯	-10.831
qje쎯egi쎯	-10.831
vmhey쎯hxh쎯	-10.831
lll쎯bmi쎯	-10.8311
qmb쎯eowy쎯fhbu0쎯	-10.8312
po0쎯hhsb쎯	-10.8313
nlyhs쎯ioib쎯	-10.8314
-쎀쎁hshml쎯shlb0쎯	-10.8315
ids쎯,	-10.8315
buav쎯opytu쎯	-10.8324
쎁/쎃	-10.8324
uni0쎯adi쎯	-10.8325
쎁쎀쎁	-10.8326
dnhb쎯	-10.833
hapi0쎯ytap쎯wp쎯	-10.8333
qmn0쎯hpsl0쎯dhn0쎯	-10.8334
de0쎯ks0쎯	-10.8335
쎅쎀%	-10.8337
smr쎯nvsm쎯	-10.8338
ma0쎯ite쎯	-10.8339
nd0쎯ci0쎯smr쎯	-10.834
djk0쎯	-10.8342
om0쎯nlgce쎯	-10.8342
bks쎯	-10.8342
e쎯mfj0쎯hapi0쎯	-10.8343
iln0쎯csh0쎯	-10.8344
uu0쎯ohg쎯	-10.8345
ino0쎯l0쎯,	-10.835
oq0쎯kqnom쎯o쎯	-10.8351
mgilg쎯yg0쎯ohg쎯	-10.8351
ivbgr쎯ivipm쎯	-10.8351
anau0쎯tcb0쎯	-10.8351
ynbo0쎯	-10.8352
ytwi0쎯hohju쎯	-10.8352
he0쎯albk0쎯nn0쎯	-10.8356
m쎯fq0쎯	-10.8357
srln0쎯bu0쎯	-10.8358
mk쎯nd0쎯	-10.8359
bmi쎯o쎯	-10.836
hqm쎯tgv쎯	-10.8361
(mgbhu쎯	-10.8367
gi0쎯dhe0쎯	-10.8367
vmpi쎯쎂	-10.8368
nlb0쎯nla쎯	-10.8371
hs	-10.8373
qhvl쎯	-10.8376
jp쎯amyo쎯	-10.838
-쎁-	-10.838
ndok쎯	-10.8381
ir0쎯lmp0쎯	-10.8383
hapi0쎯eysd0쎯ei1쎯	-10.8384
쎀~	-10.8385
쎁쎉쎉쎆	-10.8386
fmu쎯eeq0쎯	-10.8386
mk쎯yk0쎯	-10.8388
yrnl0쎯yg0쎯ohg쎯	-10.8389
kff쎯	-10.8391
mbll쎯nk0쎯	-10.8393
kqyck쎯nini0쎯	-10.8393
v0쎯	-10.8395
jjosm0쎯	-10.8397
쎁o쎯,	-10.8399
tkhk0쎯omg0쎯wmgi쎯	-10.8399
쎁쎉쎃쎂oq0쎯	-10.84
ysm쎯jyk쎯rmij쎯	-10.8401
yr쎯	-10.8401
asje쎯yhml쎯	-10.8402
쎂쎃쎂	-10.8405
,jp쎯amyo쎯	-10.8406
.rks0쎯niy쎯,	-10.8407
shoe0쎯	-10.8407
ho0쎯rmher쎯bkq쎯	-10.8408
djmf쎯	-10.8412
hnk0쎯dhn0쎯	-10.8412
fbrlb쎯hdv쎯i1쎯	-10.8413
쎅rmvs쎯	-10.8415
ophud쎯	-10.8417
ommi0쎯ivik쎯jmig쎯	-10.842
mwln쎯bmi쎯po0쎯	-10.8421
nsd0쎯sje0쎯	-10.8423
ynib쎯ivnj쎯nmme0쎯	-10.8428
yr0쎯oimbo0쎯	-10.843
쎁쎀쎂	-10.843
m쎯kn0쎯kn0쎯	-10.8431
fd0쎯.	-10.8432
yhgu쎯yib쎯	-10.8432
m쎯wjbo쎯	-10.8433
sip1쎯	-10.8434
.hmr0쎯dt0쎯	-10.8435
쎁쎉쎉쎅	-10.8435
rbsmr쎯	-10.8435
mwyfd쎯	-10.8436
hdv쎯jmam0쎯oqni쎯	-10.8437
k0쎯lnk0쎯	-10.8438
hapi0쎯ivhjr쎯	-10.8439
쎂쎀a0쎯	-10.8439
jher쎯dij0쎯	-10.844
쎂쎉a0쎯	-10.8441
cmvs쎯	-10.8442
edi0쎯tmmc0쎯	-10.8442
u쎯gdhe쎯	-10.8444
zf47쎯	-10.8444
rrr0쎯llhwj쎯.	-10.8444
qmb쎯pysu쎯ylb쎯	-10.8445
hg0쎯	-10.8449
vmbm0쎯ihs0쎯rbo0쎯	-10.8449
tc0쎯yth쎯fbrhu쎯.	-10.8453
,jrok쎯hdnf쎯	-10.8456
hapi0쎯onkq쎯ile쎯	-10.8456
hbln0쎯ivmn쎯	-10.8457
byck0쎯jbrrv쎯	-10.8458
쎇a0쎯	-10.846
mg0쎯nd0쎯	-10.846
,hdnf쎯iksi쎯	-10.8461
mhaf0쎯kb0쎯	-10.8462
.bq쎯md쎯	-10.8463
hdyj0쎯hdv쎯	-10.8467
zbc2쎯	-10.847
eikh0쎯yhds쎯	-10.847
ehjr쎯rmhk쎯	-10.8471
bq쎯hapi0쎯	-10.8472
k0쎯nini0쎯	-10.8476
l0쎯lsa쎯odm0쎯	-10.8479
jbtj쎯bmi쎯	-10.848
eomn1쎯	-10.8482
tt1쎯lmsy쎯	-10.8485
ms0쎯jnd0쎯	-10.8488
쎁쎇쎈	-10.849
ipyhv0쎯qu0쎯	-10.8491
k0쎯qni0쎯yk0쎯op0쎯	-10.8492
o쎯.l0쎯tc0쎯fbrhu쎯	-10.8494
klg0쎯ob1쎯hapi0쎯	-10.8495
ivbgr쎯fdyj쎯:	-10.8498
,tkhk0쎯hoami쎯	-10.8498
temj0쎯	-10.8499
nvjrr쎯i1쎯	-10.8501
khf0쎯	-10.8505
oog0쎯dmmf0쎯	-10.8507
qqo쎯csho쎯	-10.8508
kqijb쎯fdyj쎯:	-10.8509
gtmv쎯	-10.851
hodhe쎯ymp0쎯	-10.8511
i1쎯vmnom쎯eykl0쎯	-10.8513
ha쎯tbd0쎯	-10.8516
yth쎯gpd쎯	-10.8517
qog0쎯uu0쎯nn0쎯	-10.8519
hapi0쎯omr0쎯egi쎯	-10.8521
dt0쎯mcw쎯mtc0쎯	-10.8523
fmu쎯ebbb0쎯	-10.8525
kd0쎯mtc0쎯	-10.8527
쎂쎃쎀	-10.8527
wk0쎯nd0쎯	-10.8528
yrnl0쎯tehr0쎯	-10.8529
okr0쎯nir쎯hapi0쎯	-10.853
yw쎯.	-10.8531
qmv쎯ab0쎯	-10.8531
yw쎯;kb0쎯dd쎯gpd쎯	-10.8533
nblmi쎯qtak0쎯	-10.8535
edi0쎯pp0쎯	-10.8536
egg0쎯	-10.8537
amyo쎯ogd0쎯	-10.8537
,ojlk쎯hoami쎯	-10.8541
qnhd쎯	-10.8544
hhsb쎯ivop0쎯yk0쎯	-10.8544
lnk0쎯mmbo쎯	-10.8545
dnhe쎯yrbr0쎯	-10.8546
nog1쎯	-10.8547
hnlh0쎯mm0쎯j쎯	-10.8548
ymp0쎯imno0쎯	-10.8548
ubb0쎯	-10.8552
vmbm0쎯vmbm0쎯po0쎯	-10.8552
tchml쎯gam쎯	-10.8555
teii0쎯btak쎯	-10.8555
moob쎯hed0쎯	-10.8557
fg0쎯	-10.8559
o쎯,l0쎯tc0쎯fbrhu쎯	-10.8562
vr쎯dt0쎯	-10.8566
쎁쎃쎅	-10.8566
ids쎯muw쎯nljmu쎯	-10.8567
hj0쎯wg0쎯	-10.8568
mt0쎯ynib쎯	-10.8568
mwsl쎯ym0쎯	-10.857
qrbo쎯jqjr쎯	-10.8573
ih	-10.8573
ejoc쎯eowy쎯	-10.8574
mf0쎯okr0쎯ythu쎯	-10.8577
yk0쎯ids쎯	-10.8578
.mmu0쎯	-10.8578
sfdi0쎯	-10.8579
omm0쎯jbof쎯nljmu쎯	-10.8579
mnmbo쎯ytumb쎯	-10.858
oiku쎯tgk쎯,	-10.858
m쎯am0쎯	-10.8581
쎃쎀a0쎯	-10.8585
eijb쎯kd0쎯ydhml0쎯	-10.8588
pd0쎯ibpp쎯	-10.859
ivyvo쎯ci0쎯smr쎯	-10.8591
dmmf0쎯homm0쎯	-10.8591
쎆mfj0쎯yhs쎯ci0쎯	-10.8594
qbou1쎯eycv1쎯	-10.8595
irp0쎯miks0쎯	-10.8596
mt0쎯ivke쎯k	-10.8597
,mthhh쎯ihs0쎯nn0쎯	-10.8598
emcw0쎯rau0쎯	-10.8602
hdr0쎯wmgi쎯jmso쎯	-10.8605
mlm쎯hdrhg쎯i1쎯	-10.8606
mmm쎯smmi0쎯	-10.8607
vmsu0쎯holq쎯	-10.8608
ln0쎯	-10.8609
opj0쎯l0쎯	-10.8609
nl	-10.8613
amcw쎯	-10.8613
l0쎯rmher쎯	-10.8613
za9쎯:za2쎯zxcp쎯	-10.8614
)-	-10.8619
yrnl0쎯lis쎯hapi0쎯	-10.862
ypp0쎯	-10.8622
ivke쎯lwu0쎯dhn0쎯	-10.8628
.za8쎯hmr0쎯ee0쎯	-10.8629
mt0쎯dm0쎯:쎁쎆mt0쎯	-10.8631
mbll쎯ymmr0쎯	-10.8632
edi0쎯ifm쎯	-10.8632
yk0쎯op0쎯,	-10.8632
mgb0쎯hqm쎯	-10.8633
nn0쎯za8쎯	-10.8633
jtco0쎯hdnd0쎯	-10.8634
tlwc쎯hvio0쎯	-10.8635
kq0쎯mng0쎯	-10.8636
jksc쎯ycbr0쎯	-10.8637
qni0쎯sk0쎯	-10.8638
fd	-10.8641
i1쎯e쎯	-10.8641
ntks쎯	-10.8641
hapi0쎯jyk쎯nlmmf쎯	-10.8642
tjka0쎯kb0쎯	-10.8645
qbnsd쎯bine쎯	-10.8646
mmti쎯hsyhs0쎯	-10.8646
쎁.쎃	-10.8646
q쎯dosu쎯	-10.8647
oos쎯hnk0쎯	-10.8649
mmue쎯	-10.8651
yhgr0쎯vmhvp쎯	-10.8653
bbke쎯p쎯	-10.8653
crp0쎯yr0쎯gpd쎯	-10.8656
glwl쎯	-10.8658
bjnu쎯	-10.8659
omnl0쎯	-10.866
u쎯mnmbo쎯	-10.866
jbtj쎯yrf0쎯ylb쎯	-10.8662
hnlh0쎯ho0쎯slw0쎯	-10.8663
mh0쎯i1쎯	-10.8664
fbrlb쎯oq0쎯	-10.8664
omg0쎯mwsl쎯hapi0쎯	-10.8664
nini0쎯smmi0쎯	-10.8665
hnk0쎯dher쎯hapi0쎯	-10.8665
tyhj0쎯	-10.8667
okp0쎯	-10.8668
uvii쎯wfik쎯	-10.8668
dmmf0쎯mwsu쎯	-10.867
a0쎯,	-10.8671
hlw쎯	-10.8672
fdqmb쎯tgk쎯	-10.8674
lw쎯mhaf0쎯	-10.8674
,mhaf0쎯nir쎯	-10.8677
mbmbl0쎯ije0쎯.	-10.8678
hapi0쎯bb0쎯ke0쎯	-10.8681
nklq쎯dyck0쎯	-10.8682
,leg0쎯qgdi쎯	-10.8683
hapi0쎯hjwg쎯k0쎯	-10.8683
a0쎯qsle쎯za9쎯	-10.8686
mwsl쎯pru쎯	-10.8688
yif0쎯hdp0쎯	-10.8691
.mmm쎯	-10.8691
hapi0쎯egi쎯holq쎯	-10.8693
ukmr0쎯	-10.8695
vmij0쎯hed0쎯	-10.8695
mjln쎯hqphh쎯ym0쎯	-10.8696
lmp0쎯mwsl쎯	-10.8699
쎁o쎯	-10.8699
yaj쎯goiv쎯hapi0쎯	-10.8699
holq쎯egi쎯qobhu쎯	-10.8702
dyvo쎯dlmo0쎯	-10.8702
hoau쎯	-10.8704
(-	-10.8705
hdl1쎯	-10.8707
hapi0쎯kb0쎯tk0쎯	-10.8708
heks0쎯jyk쎯	-10.8711
jdok0쎯hdrhg쎯	-10.8711
mgwg쎯dup쎯hapi0쎯	-10.8713
ddi쎯le0쎯shlb0쎯	-10.8715
ivke쎯hqm쎯klg0쎯	-10.8717
쎅쎀쎀nrli쎯	-10.8718
eowy쎯e쎯	-10.8719
-)	-10.872
mks1쎯lk쎯hapi0쎯	-10.872
r쎯irp0쎯	-10.8721
ykmpm쎯	-10.8722
mr0쎯elw쎯op0쎯mlm쎯	-10.8722
uu0쎯ejmc0쎯	-10.8727
쎂imno0쎯	-10.873
lwu0쎯afhhh쎯za8쎯	-10.8731
ivke쎯qmv쎯md쎯	-10.8731
zxaw쎯	-10.8733
nbo쎯tomr0쎯	-10.8741
,bbe쎯mgln0쎯	-10.8742
efh0쎯etak쎯	-10.8742
eyfe쎯	-10.8742
hapi0쎯gnsh쎯omr0쎯	-10.8745
yrbu0쎯fd0쎯,yhjr쎯	-10.8746
hgdi쎯hqgdi쎯yrf1쎯	-10.8746
ssr쎯i1쎯	-10.8747
nlfaf쎯	-10.8747
,janl쎯	-10.8748
hapi0쎯yrbr0쎯ite쎯	-10.8748
tbg0쎯yhgr0쎯	-10.8751
rmher쎯ysm쎯	-10.8751
hbv0쎯vmm0쎯bkq쎯	-10.8753
,qjv쎯	-10.8758
csh0쎯nljmu쎯	-10.8758
ym0쎯yhs쎯	-10.876
eqmb0쎯nlomd쎯	-10.8762
mk쎯jcm쎯	-10.8762
pqmb쎯imrhu쎯my쎯,	-10.8763
hgdi쎯hogdi쎯	-10.8763
rjd0쎯ythu쎯	-10.8765
csh0쎯rsln1쎯amyo쎯	-10.8765
ynib쎯okr0쎯	-10.8768
(쎁쎀	-10.877
jmyo쎯sjr0쎯	-10.8773
yg0쎯ivtt쎯	-10.8773
qmmv쎯fmc쎯	-10.8773
yqhl쎯	-10.8775
ino0쎯ym0쎯	-10.8775
ll	-10.8776
ifm쎯edi0쎯	-10.8778
hapi0쎯ykok0쎯wd0쎯	-10.8779
tgk쎯id1쎯nvjrr쎯	-10.8782
dig0쎯	-10.8782
mtch쎯dher쎯hapi0쎯	-10.8783
kqqni쎯mng0쎯	-10.8783
b쎯쎂쎀a0쎯	-10.8784
ytwg쎯ivhjr쎯	-10.8786
tnok0쎯	-10.8786
ehjr쎯eive쎯	-10.8786
hda쎯rjd0쎯	-10.8787
zbc1쎯	-10.8788
iksi쎯yg0쎯aombo쎯	-10.8789
yioj0쎯oimbo0쎯	-10.8793
edi0쎯mwsl쎯	-10.8794
ci0쎯smr쎯i1쎯	-10.8795
ykok0쎯ks0쎯	-10.8795
elsa쎯	-10.8797
qtw0쎯bysm쎯	-10.8798
,her0쎯	-10.8799
ni쎯	-10.8799
,wpp0쎯oinl0쎯	-10.88
yc쎯ol1쎯	-10.88
ym0쎯eysd0쎯	-10.8801
bhne쎯ocsh쎯hbln0쎯	-10.8804
qif0쎯yrf1쎯	-10.8805
wgf0쎯ayta쎯	-10.8807
mfj0쎯bmi쎯	-10.8807
qi1쎯nklq쎯	-10.8808
fdqmb쎯smf0쎯	-10.8809
efb0쎯qmwyi0쎯	-10.8812
ee0쎯oip0쎯	-10.8813
ino0쎯my쎯	-10.8813
ikp쎯	-10.8816
oma0쎯	-10.8818
gyk0쎯	-10.8818
qpp0쎯imog쎯,	-10.8821
esim1쎯	-10.8823
qss쎯vmnau쎯	-10.8823
m쎯ite쎯	-10.8824
hapi0쎯oyt쎯wljbm쎯	-10.8826
hdr0쎯l0쎯wmgi쎯	-10.8826
vmhsk0쎯	-10.8826
qgdi쎯kb0쎯	-10.8827
ihs0쎯rrr0쎯	-10.8828
omr0쎯mgwg쎯hapi0쎯	-10.8828
tpib쎯tpou쎯emcw0쎯	-10.883
cwj0쎯tw1쎯	-10.8834
nnqo0쎯bbe쎯	-10.8835
ihs0쎯ksmi쎯	-10.884
wjr쎯op0쎯	-10.8841
iksi쎯jmmf0쎯pa1쎯	-10.8842
.쎁쎉쎄쎉oq0쎯	-10.8844
쎁rc0쎯	-10.8845
m쎯odm0쎯	-10.8846
,mrnbg쎯ord0쎯	-10.8847
ifnl0쎯	-10.8848
bcmj쎯	-10.8849
yblb쎯mg0쎯	-10.885
tmd1쎯	-10.8851
hojwp0쎯zxaf쎯	-10.8853
mgilg쎯fbnd0쎯sim쎯	-10.8853
fsm0쎯bkf0쎯	-10.8853
hommn0쎯mmok쎯sk0쎯	-10.8854
hnlh0쎯j쎯slw0쎯	-10.8854
쎂쎀jrhu쎯	-10.8856
쎃mfj0쎯yhs쎯ci0쎯	-10.8857
>>	-10.8858
yg0쎯mwv쎯vio0쎯	-10.8858
ks0쎯ije0쎯	-10.8859
gyo쎯uu0쎯	-10.8864
yhsb0쎯nhe쎯	-10.8865
쎈쎀쎀쎀	-10.8866
bkf0쎯mbll쎯	-10.8867
homym쎯vlok쎯	-10.8868
bq쎯tvmi2쎯	-10.8868
nbshq쎯qmwyi0쎯	-10.887
쎁쎀쎆	-10.8871
jikp쎯hqphh쎯	-10.8871
yyk쎯oyt쎯	-10.8877
vmog쎯mmr0쎯nf0쎯	-10.8879
eqoa쎯hynkg0쎯	-10.888
qyt0쎯mn0쎯	-10.8881
eyg0쎯hhdi쎯	-10.8883
ykok0쎯wd0쎯.	-10.8888
fdk0쎯i1쎯	-10.8889
mm0쎯j쎯oq0쎯	-10.8891
ydhml0쎯o쎯	-10.8892
qkns쎯	-10.8892
쎁쎉쎉쎄	-10.8893
,nlykb1쎯tqbu쎯	-10.8893
hgdi쎯tbd1쎯fcymr쎯	-10.8894
ytap쎯wp쎯	-10.8896
쎂ci0쎯wg0쎯	-10.8897
bu0쎯nmme0쎯my쎯	-10.8899
ophds쎯	-10.8903
dhn0쎯vmbm0쎯	-10.8904
tkld쎯	-10.8905
bkq쎯csh0쎯sk0쎯	-10.8907
쎅쎀yyyce쎯	-10.8909
;(	-10.8913
oj0쎯hi0쎯amyo쎯	-10.8913
.mm0쎯i1쎯	-10.8914
ytapv쎯ivihs쎯	-10.8916
dha쎯dd쎯	-10.8917
vmm0쎯ysotc쎯	-10.8918
jksc쎯bmr0쎯	-10.892
rnvm쎯	-10.8921
bhne쎯kd0쎯	-10.8922
za8쎯za9쎯	-10.8924
hbv0쎯dhn0쎯	-10.8924
sk0쎯hapi0쎯	-10.8926
qhml0쎯:za2쎯	-10.8927
v쎯hqm쎯	-10.8929
jmso쎯.	-10.8931
ypvif쎯nau0쎯	-10.8933
i1쎯mwln쎯	-10.8934
쎃.쎂	-10.8935
qjv쎯opnkq쎯	-10.8935
yfiku0쎯onao쎯	-10.8935
x	-10.8938
ioib쎯nvlmi쎯	-10.8938
qamo쎯yrbr0쎯nn0쎯	-10.8939
mwv쎯ije0쎯,	-10.894
i1쎯mr0쎯	-10.8942
쎁쎀omd0쎯	-10.8943
opbo1쎯	-10.8948
kdln0쎯	-10.8948
ebhu0쎯hqbu쎯	-10.8949
i1쎯wmgi쎯nlmmf쎯	-10.8949
fwk쎯taj쎯	-10.8951
ihmv쎯itxc쎯zxaf쎯	-10.8951
smmi0쎯,	-10.8952
ino0쎯vvh쎯	-10.8953
pmam0쎯ahqm0쎯	-10.8953
ivtt쎯nbshq쎯	-10.8959
oahe쎯knd0쎯hapi0쎯	-10.8959
,vmgr쎯omr0쎯	-10.896
i1쎯mcw쎯	-10.896
nir쎯sok0쎯	-10.896
bkk쎯ymy0쎯	-10.8961
mbll쎯hoami쎯nir쎯.	-10.8963
jmmu0쎯tgk쎯hapi0쎯	-10.8963
enom쎯	-10.8966
bysm쎯jnd0쎯dfdv쎯	-10.8966
ytwi0쎯jdi0쎯	-10.8967
nnmbo0쎯ivj쎯	-10.8974
,fsm0쎯adi쎯	-10.8975
za9쎯.ivyvo쎯za8쎯	-10.8976
hapi0쎯yhs쎯opj1쎯	-10.8977
inin0쎯za9쎯:za2쎯	-10.8978
쎅mfj0쎯yhs쎯ci0쎯	-10.8978
,pd0쎯mnr쎯vio0쎯	-10.8979
eqoa쎯ks0쎯	-10.8981
za6쎯	-10.8981
,kqjqr쎯	-10.8985
lskr쎯	-10.8985
ysm쎯tmmc0쎯opd0쎯	-10.8986
mlm쎯hdrhg쎯llmb쎯.	-10.8988
djmf쎯nau0쎯	-10.8988
mmok쎯hdv쎯	-10.8988
쎁쎅a0쎯	-10.8989
hwhj쎯	-10.8989
hnlh0쎯j쎯	-10.8991
klg0쎯oin쎯	-10.8992
bubbq쎯lsa쎯	-10.8993
imoii쎯imkd쎯	-10.8993
e쎯imog쎯	-10.8994
ohpm쎯md쎯	-10.8995
hoav0쎯fh쎯	-10.8997
tc1쎯yg0쎯	-10.8997
yrbr0쎯hbt0쎯mgi1쎯	-10.8998
msu쎯	-10.8998
lwu0쎯mlm쎯	-10.8998
tvks0쎯qbcd쎯	-10.9
kd1쎯o쎯	-10.9
a0쎯ivmmr쎯	-10.9001
ejmc0쎯tn0쎯	-10.9003
vmyhs쎯	-10.9003
ylb쎯hdv쎯i1쎯ylb쎯	-10.9003
goru쎯dt0쎯,	-10.9006
ehuk쎯	-10.9008
lwnl쎯lwu0쎯	-10.9009
tm	-10.9009
hbln0쎯oos쎯hapi0쎯	-10.9009
ivym쎯hqi0쎯olis쎯	-10.9012
ohg쎯heks0쎯.	-10.9013
eqmb0쎯ddnyo쎯	-10.9014
qis쎯cwj0쎯oyt쎯	-10.9019
dhn0쎯rrikr쎯o쎯	-10.9022
fdk0쎯,	-10.9023
ino0쎯gpd쎯	-10.9024
;za8쎯	-10.9025
ehsk0쎯ivke쎯	-10.9025
.oam쎯amyo쎯	-10.9026
ivhne쎯hew쎯;	-10.9026
tw	-10.9026
bommf쎯ifru쎯	-10.9027
jikq쎯odm0쎯	-10.9027
hbr0쎯tbln0쎯	-10.9029
,yhjr쎯jbm0쎯hdl0쎯	-10.9031
yri0쎯id1쎯	-10.9031
hdl0쎯hdl0쎯	-10.9031
ivke쎯stv쎯ebhu0쎯	-10.9036
ivbgr쎯hbln0쎯	-10.9037
hnlh0쎯yc쎯slw0쎯	-10.9037
.edi0쎯	-10.9037
takg쎯gpd쎯	-10.9038
mwsl쎯hdrc쎯쎈	-10.9043
*쎂	-10.9043
fhks쎯	-10.9045
hdl0쎯.	-10.9052
roks쎯ytaj0쎯	-10.9053
ivcru쎯ivhjr쎯	-10.9054
,pa1쎯klg0쎯	-10.9054
ivbgr쎯qjcm쎯	-10.9054
eqmb0쎯jbmc0쎯	-10.9054
oybs쎯	-10.9054
knn0쎯	-10.9057
ehsk0쎯qmvif쎯	-10.9057
mk쎯fbrg쎯	-10.9059
,m쎯jbmm0쎯	-10.906
jmig쎯,	-10.9061
*쎁	-10.9062
khlmi쎯bmmc쎯	-10.9062
pn0쎯	-10.9063
fbnd0쎯ivcru쎯	-10.9065
nlodi쎯ksr쎯	-10.9068
tbln0쎯ayrf0쎯	-10.9068
쎄mfj0쎯yhs쎯ci0쎯	-10.907
zb1쎯	-10.9072
oyt쎯md쎯ym0쎯eowy쎯	-10.9072
l0쎯kd0쎯	-10.9075
qpa0쎯oini0쎯	-10.9075
hqgdi쎯kb0쎯hapi0쎯	-10.9077
쎅yyycg쎯	-10.9078
qi1쎯	-10.9079
hvif쎯vmyiu쎯l0쎯	-10.908
lpb쎯hmr0쎯	-10.9081
jclb쎯	-10.9082
v쎯,	-10.9082
efb0쎯qdhqu쎯	-10.9083
r쎯bsle0쎯	-10.9083
qeog쎯	-10.9084
ddi쎯.	-10.9084
adi쎯lgyhv쎯	-10.9084
e쎯hjbo쎯	-10.9087
ddixp0쎯	-10.909
rwk쎯	-10.9092
omr0쎯oos쎯ifg쎯	-10.9093
yclmi0쎯	-10.9093
fq0쎯rudi0쎯odm0쎯	-10.9094
,yyk쎯dtq쎯	-10.9094
i1쎯bsle0쎯heks0쎯	-10.9095
c쎯u쎯	-10.9095
tbln0쎯tcb0쎯	-10.9096
ph쎯mwv쎯	-10.9097
쎀.쎉	-10.9097
k0쎯bam쎯	-10.91
,vio0쎯za2쎯	-10.9101
yrbr0쎯phqm쎯ibpp쎯	-10.9103
fqsh쎯	-10.9103
vnd쎯ke0쎯	-10.9104
iobo쎯emhf0쎯,	-10.9117
lk쎯fdyj쎯	-10.9117
ep0쎯	-10.9117
epou쎯	-10.912
ahqm0쎯vmnhe쎯	-10.912
lwu0쎯bkk쎯	-10.9123
ddi쎯ob1쎯	-10.9123
oini0쎯hnlh0쎯	-10.9124
edi0쎯hdb0쎯	-10.9124
cwa0쎯tkhk0쎯	-10.9125
qi	-10.9127
za9쎯hnlh0쎯mm0쎯	-10.9129
qmb쎯u쎯	-10.9134
twdi0쎯jka쎯	-10.9134
,vmog쎯qis쎯	-10.9137
hapi0쎯o쎯hqm쎯	-10.9137
my쎯eysd0쎯	-10.9138
f쎯jf0쎯	-10.9141
crp0쎯nlo쎯	-10.9144
nb	-10.9144
vmbm0쎯,	-10.9149
klg0쎯yyk쎯	-10.915
mnr쎯dav쎯qsjr쎯	-10.915
jytj쎯	-10.9151
mlwk쎯qnbk1쎯	-10.9152
쎈쎀%	-10.9152
gc	-10.9153
ivhne쎯ivj쎯nljmu쎯	-10.9153
쎁쎉쎂쎇oq0쎯	-10.9153
qsle쎯ifg쎯	-10.9157
mblmi0쎯oh쎯	-10.9158
uu0쎯jmso쎯	-10.916
k0쎯f쎯	-10.916
km0쎯kr0쎯.	-10.9162
ojlk쎯tmmc0쎯	-10.9162
niy쎯,ymf0쎯	-10.9167
yk0쎯odm0쎯	-10.9167
o쎯jmso쎯	-10.9168
mwsl쎯hdrc쎯쎇	-10.9168
janl쎯klg0쎯	-10.9168
omc0쎯wdh쎯	-10.9169
nbshq쎯dhml0쎯	-10.9169
hdw0쎯tksr쎯	-10.9172
hdl0쎯,	-10.9173
hhsb쎯nc쎯ivcru쎯	-10.9174
hmr0쎯mwsl쎯	-10.9175
nsnl쎯	-10.9178
.ee0쎯	-10.9178
mrbhu쎯	-10.9179
omr0쎯egi쎯	-10.9181
hapi0쎯peg쎯cwmr쎯	-10.9181
e쎯i1쎯	-10.9181
aisl쎯adi쎯	-10.9183
hapi0쎯tc1쎯heks0쎯	-10.9185
hdhah0쎯tchml쎯dd쎯	-10.9188
쎃ci0쎯wg0쎯	-10.9188
oudk쎯nlnhx쎯	-10.9189
,amyo쎯m쎯hdl0쎯	-10.919
ou0쎯o쎯	-10.9191
nbshq쎯imdk쎯nn0쎯	-10.9193
wqs쎯vdln0쎯za3쎯	-10.9194
yri0쎯yj0쎯dhn0쎯	-10.9195
쎁쎂쎃	-10.9203
fbnd0쎯dyck0쎯i1쎯	-10.9206
vmvl쎯vmcsh쎯	-10.9208
oq0쎯hqm쎯taj쎯dm0쎯	-10.9209
,fbnd0쎯dyck0쎯	-10.921
vlok쎯tcbt쎯	-10.9211
ci0쎯mfj0쎯	-10.9211
opki쎯	-10.9212
mwln쎯yg0쎯ohg쎯.	-10.9212
yhv쎯bsle0쎯	-10.9215
ho0쎯nbg0쎯	-10.922
oo0쎯nc쎯	-10.9221
쎁쎈a0쎯	-10.9223
iiig0쎯	-10.9225
▁	-10.9228
taks쎯	-10.9229
jher쎯ioog0쎯	-10.923
yks쎯woll0쎯	-10.923
ksc쎯jlln쎯	-10.923
sjcrp쎯ab0쎯	-10.9232
omc0쎯rrikr쎯	-10.9235
hiyj쎯	-10.9235
oimbo0쎯girm쎯.	-10.9236
jiwtc쎯tyhs쎯elsw쎯	-10.9237
ouog0쎯	-10.9239
nf0쎯zxaf쎯	-10.9241
,oin쎯	-10.9242
fdyr쎯qytv0쎯	-10.9242
hlit쎯	-10.9245
lsnvm쎯	-10.9246
likq쎯	-10.9246
omr0쎯쎁iv	-10.925
쎁:	-10.925
쎀쎀yw쎯,	-10.9252
oi	-10.9252
dup쎯mwv쎯	-10.9253
.yyk쎯wg0쎯	-10.9253
qamo쎯sje0쎯	-10.9254
uni0쎯,	-10.9254
nblmi쎯qtak0쎯stt쎯	-10.9254
opbk쎯vmgr쎯dpi1쎯	-10.9255
쎁쎆쎈	-10.9257
nklq쎯hbln0쎯	-10.9258
hn0쎯omnr쎯	-10.9261
쎇.쎆	-10.9262
vio0쎯hoyg쎯	-10.9263
lloa쎯ehml0쎯ylb쎯	-10.9264
su1쎯ldhe쎯	-10.9264
.rlmi쎯bkf0쎯	-10.9266
lmnii쎯md쎯	-10.9266
,kd0쎯	-10.9267
qlmy쎯e쎯	-10.9267
nmjpa쎯	-10.9267
ci0쎯wg0쎯.wmgi쎯	-10.9269
dh	-10.9269
rrikr쎯hapi0쎯	-10.9271
oin쎯hmr0쎯	-10.9273
goru쎯ohg쎯	-10.9274
쎁쎀jrhu쎯,	-10.9281
쎂쎆쎀	-10.9281
yth쎯fbrhu쎯rbo0쎯	-10.9283
tlmy쎯holq쎯jomc쎯	-10.9285
iok0쎯.za3쎯	-10.9286
mf0쎯mjok0쎯	-10.9287
mgije쎯skno쎯eill쎯	-10.9288
,kb0쎯hapi0쎯	-10.9288
쎁쎇쎆	-10.9291
yk2쎯mgln0쎯nn0쎯	-10.9292
hbv0쎯rvp쎯vlok쎯	-10.9293
jmgi쎯mr0쎯	-10.9295
ehjr쎯miks0쎯l0쎯	-10.9296
ysono0쎯holq쎯	-10.9297
fbnd0쎯hvif쎯	-10.9298
ddh쎯fdyj쎯hapi0쎯	-10.9298
qogs0쎯	-10.9299
m쎯hj0쎯	-10.9301
vlok쎯vmjoa쎯	-10.9301
k0쎯ks0쎯je0쎯qgdi쎯	-10.9302
ysm쎯tmmc0쎯	-10.9306
elln쎯yrf1쎯	-10.9308
libt0쎯mgwg쎯	-10.931
ivsu쎯za9쎯:za2쎯	-10.931
.(mm0쎯)	-10.9311
ckhml쎯	-10.9313
kmob쎯i1쎯	-10.9315
mf0쎯mbmbl0쎯mwv쎯	-10.9319
nlmrb0쎯yukb0쎯	-10.9319
yri0쎯gnsh쎯	-10.9319
thbu0쎯ol1쎯	-10.932
mrno0쎯srln0쎯	-10.9321
hounk쎯kqno쎯	-10.9321
nlheq쎯e쎯amwg쎯	-10.9322
hbu0쎯hommn0쎯kq0쎯	-10.9322
tksc쎯vmog쎯giok0쎯	-10.9322
kb0쎯ykok0쎯gpd쎯	-10.9323
yhjr쎯fsm0쎯	-10.9325
wdh쎯bopi쎯	-10.9328
쎁쎀%	-10.9328
op1쎯	-10.9329
gmd쎯	-10.9332
tydl0쎯	-10.9332
qamo쎯otc쎯ycbr0쎯	-10.9332
nmice쎯	-10.9335
kbhq0쎯nl0쎯	-10.9337
,nklq쎯yt0쎯	-10.9338
kqyck쎯vnd쎯hapi0쎯	-10.9339
hapi0쎯fvok쎯qsjr쎯	-10.934
ihpm쎯yrnl0쎯	-10.9341
omrl쎯aombo쎯	-10.9342
hbk1쎯dd쎯sc쎯jrhu쎯	-10.9343
hapi0쎯dbu쎯tk0쎯	-10.9344
i1쎯ykln0쎯	-10.9348
ytyr쎯klg0쎯	-10.935
hyhne쎯hapi0쎯	-10.9355
sjcrp쎯	-10.9356
gpd쎯dhe1쎯	-10.9357
쎄/	-10.9357
;쎄i1쎯	-10.936
hxh쎯yks쎯	-10.9361
mtc0쎯mks1쎯u쎯k0쎯	-10.9362
,lmsy쎯	-10.9363
hhdi쎯hdrhg쎯	-10.9363
,쎅	-10.9363
pk	-10.9363
tsfi쎯	-10.9371
(쎄쎀	-10.9376
l0쎯p쎯yg0쎯ohg쎯	-10.9378
eog0쎯ite쎯	-10.938
phqm쎯ooll쎯pp0쎯	-10.9382
ab0쎯mk쎯	-10.9382
ipm0쎯hapi0쎯	-10.9383
ddi쎯o쎯.	-10.9385
ino0쎯ysohv쎯	-10.939
yg0쎯dhn0쎯쎁	-10.939
hnlh0쎯kn0쎯slw0쎯	-10.939
쎅×	-10.9392
.za3쎯(쎃).	-10.9392
klb쎯wljbm쎯	-10.9394
amyo쎯qni0쎯tc1쎯	-10.9398
fdmbb0쎯fd0쎯	-10.9398
.쎂쎀쎀쎅oq0쎯	-10.9399
atc0쎯hoami쎯	-10.94
쎀fd0쎯,oq0쎯mfj0쎯	-10.94
qpyu쎯	-10.94
dgg쎯dd쎯	-10.9401
llmb쎯oo0쎯	-10.9402
inin0쎯mnln쎯	-10.9403
gytr쎯ivlll쎯i1쎯	-10.9404
oppim쎯	-10.9405
vmm0쎯dfdv쎯ddni쎯	-10.941
gg0쎯	-10.9411
mnln쎯iksi쎯	-10.9411
.쎁쎉쎈쎅oq0쎯	-10.9412
m쎯mwsl쎯	-10.9413
hrj쎯	-10.9416
hapi0쎯bbke쎯pqmb쎯	-10.9418
mt0쎯ivke쎯hdr0쎯	-10.9419
nd0쎯.	-10.942
mnmbo쎯yrnl0쎯	-10.942
ikhhh쎯stv쎯	-10.9422
ik2쎯ifrhu0쎯	-10.9422
yomd쎯l0쎯	-10.9422
ivke쎯fmu쎯	-10.9423
po0쎯hapi0쎯	-10.9423
e쎯mfj0쎯.	-10.9426
khlmi쎯jmso쎯	-10.9427
hshml쎯ivcru쎯	-10.9428
i1쎯opfb쎯ogr0쎯	-10.9429
dt0쎯,	-10.9431
i1쎯jdok0쎯fbnd0쎯	-10.9432
jm0쎯omc0쎯	-10.9434
hda쎯tbd0쎯	-10.9434
ysok쎯wljbm쎯	-10.9436
dhe1쎯i1쎯	-10.9436
bhu0쎯md쎯	-10.9436
vmnom쎯mks1쎯nn0쎯	-10.9437
mm0쎯tcb0쎯	-10.9438
ivop0쎯yid0쎯	-10.9438
uje쎯	-10.9439
ebhg쎯	-10.9439
ofq0쎯nlykb1쎯	-10.9439
vmisb쎯hdrhg쎯	-10.944
za8쎯pt0쎯woll0쎯	-10.9443
sjtk쎯ynib쎯	-10.9443
oqni쎯zxaf쎯	-10.9443
hbut0쎯egi쎯	-10.9444
)hgdi쎯	-10.9444
hjrr쎯mgwg쎯k	-10.9445
쎈b쎯ikhhh쎯ksr쎯	-10.9448
k0쎯fbnd0쎯i1쎯	-10.9448
ehml0쎯	-10.9449
eqmb0쎯mgwg쎯	-10.945
omrl쎯ymmi쎯	-10.945
u쎯ddi쎯	-10.9451
mdm쎯b쎯	-10.9454
f쎯kq0쎯	-10.9455
tt1쎯ehne쎯kb0쎯	-10.9455
on	-10.9463
%;	-10.9463
쎄～	-10.9465
omg0쎯wmgi쎯her0쎯	-10.9469
ifg쎯hdyj0쎯	-10.947
llw쎯	-10.9472
mrno0쎯otniq쎯	-10.9473
hapi0쎯mhaf0쎯wk0쎯	-10.9476
bkq쎯jrlr0쎯	-10.9476
tdm쎯tcg0쎯	-10.9477
kqyck쎯vnd쎯	-10.9477
mnmbo쎯fk0쎯	-10.9479
ytwa쎯ywlb쎯	-10.9479
owlb쎯onao쎯	-10.948
emwf0쎯yrbn0쎯	-10.9481
ab0쎯atc0쎯hapi0쎯	-10.9482
hgdi쎯qni0쎯tc1쎯	-10.9482
eapv쎯	-10.9482
,qog0쎯miks0쎯	-10.9484
쎅/	-10.9485
.쎁쎉쎈쎂oq0쎯	-10.9485
ythu쎯,	-10.9486
mks0쎯ibpp쎯.	-10.9487
nini0쎯yrnl0쎯	-10.9493
oiva쎯hew쎯	-10.9494
ifgi쎯	-10.9495
cwa0쎯hghu쎯hmr0쎯	-10.9496
mf0쎯vr쎯	-10.9498
hapi0쎯jlln쎯pqmb쎯	-10.9498
irm쎯amyo쎯	-10.9499
tvmi2쎯bq쎯	-10.9499
hhsb쎯.	-10.9499
atc0쎯ymy0쎯atc0쎯	-10.95
hn	-10.95
g쎯gpd쎯tlj쎯omrl쎯	-10.9503
hnlh0쎯ju쎯slw0쎯	-10.9503
qsje0쎯onao쎯dhn0쎯	-10.9505
ysm쎯l0쎯wmgi쎯	-10.9505
ojk쎯	-10.9507
jmlc쎯	-10.9508
kqjqr쎯sk0쎯ob1쎯	-10.9508
wdh쎯nlo쎯,	-10.951
bov쎯lu0쎯	-10.951
qytv0쎯gyrv쎯	-10.9514
ivjnk쎯hqphh쎯	-10.9515
ayrf0쎯hojwp0쎯	-10.9515
nmwp쎯	-10.9515
gdi0쎯nljmu쎯	-10.9515
wfq쎯	-10.952
쎀)	-10.9522
dci0쎯em0쎯	-10.9522
hmy0쎯	-10.9526
homm0쎯ivmn쎯	-10.9532
lmnii쎯klg0쎯	-10.9535
mmm쎯o쎯	-10.9535
,ksr쎯nrli쎯	-10.9536
dyck0쎯omjr쎯	-10.9536
l0쎯a0쎯	-10.9536
eyiu0쎯girm쎯	-10.9536
.aisl쎯	-10.9539
mr0쎯yk1쎯	-10.9539
,qamo쎯otc쎯	-10.954
쎃imno0쎯	-10.954
her0쎯yrnl0쎯lis쎯	-10.9543
vmsu0쎯hdv쎯	-10.9543
vmomi쎯hbln0쎯	-10.9544
dbu쎯bmr0쎯hapi0쎯	-10.9546
vio0쎯kd0쎯	-10.9548
ehsk0쎯msks0쎯	-10.9549
dytj0쎯	-10.9549
yif0쎯vmkvc쎯	-10.9552
쎁쎁ol1쎯	-10.9553
dsk쎯	-10.9555
ihs0쎯rbo0쎯.	-10.9556
bkk쎯rvp쎯	-10.9556
gr0쎯iftq쎯	-10.9557
쎃a0쎯	-10.9557
ndpru쎯nd0쎯	-10.9557
nvolb쎯ejmc0쎯	-10.9557
em	-10.9558
kqqni쎯hbr0쎯	-10.9559
egi쎯holq쎯i1쎯	-10.956
,omnn0쎯vr쎯	-10.9562
qbkq쎯	-10.9562
opsjr쎯	-10.9563
ifru쎯	-10.9566
ouln0쎯ydhml0쎯i1쎯	-10.9568
jyk쎯hqphh쎯	-10.9569
fbkf쎯omn1쎯	-10.9569
edi0쎯qyhn쎯	-10.957
mnr쎯hgrly쎯hapi0쎯	-10.9573
csht0쎯gpd쎯	-10.9573
jv0쎯wljbm쎯	-10.9574
hshml쎯hoami쎯	-10.9574
.dm0쎯ci0쎯smr쎯	-10.9574
fsm0쎯yhgu쎯	-10.9575
eine쎯	-10.9576
ivjka쎯onmk0쎯	-10.9578
hbln0쎯yhgr0쎯i1쎯	-10.9578
hapi0쎯bmmc쎯odm0쎯	-10.9579
쎃쎀쎄	-10.958
rmkms쎯wmgi쎯	-10.9581
hgdi쎯dbu쎯tk0쎯	-10.9582
쎉쎀oq0쎯oip0쎯	-10.9584
쎅ci0쎯wg0쎯	-10.9584
mwice0쎯nu0쎯mwpa쎯	-10.9587
mnln쎯oh쎯	-10.9588
,rlmi쎯bkf0쎯	-10.9589
l0쎯p쎯.	-10.9589
/쎁	-10.9591
nlytj쎯	-10.9592
enpo쎯	-10.9593
fvok쎯ojbm0쎯	-10.9594
hhbo0쎯	-10.9594
mghjd쎯em0쎯	-10.9596
ytap쎯ik1쎯.	-10.9596
fvok쎯:	-10.9598
hgdi쎯mks0쎯ibpp쎯	-10.9598
mwsl쎯bhhau쎯	-10.9598
,kb0쎯adi쎯	-10.9599
,bmmc쎯	-10.9601
tbd0쎯cwj0쎯	-10.9602
nir쎯llmb쎯	-10.9604
yyk쎯hi0쎯	-10.9605
iksi쎯ylm쎯	-10.9606
hklq0쎯	-10.9607
ivohh쎯eir쎯	-10.9607
vmnom쎯vmsu0쎯	-10.9607
gybt쎯mwice0쎯	-10.9607
mt0쎯vir쎯,	-10.9608
za3쎯ino0쎯	-10.9608
oos쎯ivsmr쎯	-10.9608
qni0쎯eyg0쎯	-10.9609
ivgdi쎯yk0쎯	-10.961
knd0쎯gp0쎯za9쎯	-10.9614
nklq쎯yt0쎯hapi0쎯	-10.9615
mbo0쎯,hdyj0쎯	-10.9616
tw0쎯ysook0쎯	-10.9616
asje쎯hghu쎯ytt0쎯	-10.9617
ysok쎯k0쎯	-10.9624
m쎯jmyo쎯mwv쎯	-10.9626
jbtj쎯mwsl쎯	-10.9628
mrtbc쎯	-10.9628
mmm쎯ma0쎯	-10.9629
aisl쎯iksi쎯	-10.9632
eatc쎯ite쎯:	-10.9633
za9쎯m쎯ids쎯	-10.9633
쎁쎁쎂	-10.9634
ms0쎯oq0쎯	-10.9636
khllb쎯nd0쎯	-10.9636
ymf0쎯mwv쎯	-10.9636
giok0쎯nhe쎯	-10.9636
jmue쎯	-10.9637
ibpp쎯ks0쎯hdr0쎯	-10.9637
ir0쎯,	-10.9639
b쎯쎁쎀a0쎯	-10.9639
jlwl0쎯tgk쎯	-10.9641
mlwk쎯vnd쎯	-10.9641
nini0쎯mmu0쎯	-10.9641
zf24쎯	-10.9642
yrbr0쎯csh0쎯nd0쎯	-10.9642
vio0쎯jbtj쎯	-10.9643
,ibpp쎯prnin쎯	-10.9644
okr0쎯ivrc쎯hdr0쎯	-10.9646
dmmf0쎯dm0쎯	-10.9646
쎉%	-10.9646
qje쎯tn0쎯	-10.9647
vmmwl쎯pw쎯	-10.9647
asje쎯kb0쎯	-10.965
hqm쎯yth쎯i1쎯	-10.965
dm0쎯tqbu쎯za2쎯	-10.9651
qtt0쎯yta0쎯	-10.9652
nloll쎯vmnhe쎯	-10.9652
ivbgr쎯rjd0쎯fdyj쎯	-10.9652
m쎯rmvs쎯	-10.9652
,ebcd쎯bbe쎯	-10.9655
klg0쎯m쎯ol1쎯	-10.9656
ci0쎯wg0쎯heo쎯,	-10.9657
kqjqr쎯쎁ol1쎯ddi쎯	-10.9659
rvp쎯hqm쎯	-10.9659
m쎯lbmrw쎯	-10.9661
mnr쎯klg0쎯	-10.9662
mbmbl0쎯mwv쎯,	-10.9663
skr쎯nd0쎯	-10.9663
omnn0쎯vr쎯	-10.9664
.쎁쎉쎅쎈oq0쎯	-10.9664
adi쎯lsa쎯ifbhu쎯	-10.9664
.edi0쎯md쎯	-10.9664
ouln0쎯mjln쎯	-10.9666
icq0쎯qhp0쎯kq0쎯	-10.9667
lgyhv쎯mwsu쎯	-10.9669
qpr쎯	-10.9675
qhne0쎯yth쎯	-10.9676
쎁쎁쎅	-10.9677
sje0쎯efb0쎯	-10.9677
yrf0쎯janl쎯	-10.9677
ytumb쎯nd0쎯	-10.9679
쎁쎀쎀fd0쎯	-10.9681
hapi0쎯jv0쎯omg0쎯	-10.9683
hdv쎯vmbm0쎯vmrc쎯	-10.9685
bq쎯ids쎯	-10.9685
yyyce쎯	-10.9686
yv	-10.9687
lgyhv쎯kb0쎯	-10.9688
(쎁쎉쎂	-10.9688
lnk0쎯,	-10.969
za9쎯hnlh0쎯m쎯	-10.9692
opwl쎯	-10.9694
mrmt쎯jckn쎯rbo0쎯.	-10.9694
muw쎯nljmu쎯	-10.9696
opmo쎯odyj쎯	-10.9703
ejmc0쎯ivtt쎯	-10.9704
goru쎯emhf0쎯	-10.9705
levif쎯nmp0쎯	-10.9707
mhni쎯wjr쎯	-10.9707
mmbo쎯bu0쎯,	-10.9707
elmi쎯	-10.9711
vmgr쎯dpi1쎯hapi0쎯	-10.9712
oy	-10.9713
qshr쎯vlok쎯	-10.9714
omg0쎯iobo쎯nd0쎯	-10.9714
ab0쎯yrbn0쎯	-10.9715
bgr0쎯mgln0쎯	-10.9716
yrbr0쎯md쎯	-10.9717
jher쎯kq0쎯	-10.972
.쎁쎉쎉쎂oq0쎯	-10.9724
ouln0쎯ydhml0쎯,	-10.9725
jmmf0쎯pa1쎯amyo쎯	-10.9727
vmbm0쎯vmrc쎯.	-10.9727
mks1쎯adi쎯	-10.9728
lhhh쎯	-10.9728
rmkms쎯goiv쎯	-10.9729
쎁쎉쎂쎉oq0쎯	-10.9729
hqgdi쎯yrf1쎯,	-10.9729
:쎁i1쎯	-10.973
쎁쎂.	-10.9732
hapi0쎯ogr0쎯hmr0쎯	-10.9733
nsdhe쎯	-10.9735
ks쎯	-10.9737
mmok쎯iodi쎯hqgdi쎯	-10.974
idd쎯mwyoj쎯	-10.974
쎁쎉쎉쎂	-10.9743
hag쎯	-10.9743
ojrk쎯egi쎯	-10.9745
nvpru쎯	-10.9746
rmike쎯	-10.9747
hqm쎯a0쎯	-10.9748
.쎈	-10.9748
flsp쎯	-10.9748
buav쎯hdyj0쎯	-10.9752
,nklq쎯hmhn0쎯	-10.9752
pysu쎯uysm쎯	-10.9753
쎁쎀쎄	-10.9753
fdqmb쎯gybt쎯	-10.9753
hdyj0쎯jksc쎯	-10.9754
hoyg쎯dt0쎯	-10.9756
qpa0쎯vmyk0쎯	-10.9757
hnk0쎯ocor쎯	-10.9758
ysok쎯p쎯	-10.9758
lis쎯,	-10.976
lk쎯ivsu쎯zxaf쎯	-10.9761
쎆쎀oq0쎯oip0쎯	-10.9761
mig0쎯md쎯	-10.9761
ddmmf쎯ylm쎯	-10.9763
fdk0쎯mng0쎯hapi0쎯	-10.9764
jmso쎯i1쎯	-10.9767
imihr0쎯kqnom쎯	-10.9769
kqyck쎯nc쎯	-10.977
uu0쎯oprob쎯	-10.977
ogd0쎯mrmt쎯ivke쎯	-10.9771
hpsl0쎯ivke쎯	-10.9772
yyk쎯ioog0쎯	-10.9772
jr쎯o쎯	-10.9774
,yyk쎯wg0쎯	-10.9775
i1쎯c쎯	-10.9775
쎃쎁쎀	-10.9775
gbmt0쎯	-10.9776
dhui쎯	-10.9777
heii0쎯	-10.9778
usuu0쎯goru쎯	-10.9779
i1쎯yrbr0쎯ykok0쎯	-10.9779
bbe쎯mgln0쎯nn0쎯	-10.9782
jphu0쎯ogd0쎯	-10.9783
k0쎯mrt0쎯	-10.9783
dedi쎯d쎯	-10.9783
ivtt쎯ioog0쎯	-10.9784
bkk쎯yrf1쎯	-10.9785
hnlh0쎯m쎯nir쎯	-10.9785
ivhjr쎯srln0쎯	-10.9787
rvp쎯hyyhn쎯	-10.9787
hqm쎯yth쎯mlm쎯tn0쎯	-10.9788
atc0쎯hounk쎯	-10.9788
stt쎯takb쎯csh0쎯	-10.9789
gytu0쎯mbll쎯jmyo쎯	-10.979
opog쎯	-10.9793
mrmt쎯jckn쎯.	-10.9794
hapi0쎯gpd쎯oyt쎯	-10.9794
l0쎯oll쎯	-10.9796
ojlk쎯bq쎯mgmf0쎯	-10.9797
hdr0쎯fbr0쎯	-10.9798
qamo쎯otc쎯m쎯ol1쎯	-10.9798
lw쎯wmgi쎯jmso쎯	-10.98
hbu0쎯eir쎯	-10.9804
yk2쎯ihs0쎯	-10.9805
knib쎯tjr쎯	-10.9806
nmisb0쎯	-10.9808
tgv쎯llml쎯	-10.981
쎆%	-10.981
ylmo1쎯yylc쎯	-10.9811
mm	-10.9811
bd0쎯ivyhs쎯	-10.9813
je0쎯eyiu0쎯	-10.9814
dj쎯,	-10.9816
,gpim쎯	-10.9817
fbr0쎯jd0쎯	-10.9819
odm0쎯mng0쎯	-10.9819
qbq쎯kb0쎯m쎯je0쎯	-10.9819
.kqjqr쎯	-10.982
qni0쎯jmso쎯i1쎯	-10.9821
yvhg쎯	-10.9822
m쎯ho0쎯	-10.9823
amyo쎯pt0쎯woll0쎯	-10.9824
m쎯bmr0쎯	-10.9824
쎀mfj0쎯yhs쎯ci0쎯	-10.9825
ord0쎯toll0쎯	-10.9825
nvnhx쎯	-10.9826
ofqu쎯	-10.9829
,pd0쎯mnr쎯	-10.9833
ivmmr쎯:	-10.9834
crp0쎯o쎯r쎯	-10.9834
sok0쎯knn0쎯hvif쎯	-10.9835
yck0쎯es쎯heo쎯	-10.9835
qytv0쎯yk1쎯	-10.9838
uhqi0쎯	-10.984
쎂:	-10.984
,ivwb쎯	-10.9841
ekql쎯ekql쎯	-10.9841
hapi0쎯tk0쎯opnkq쎯	-10.9842
.bmr0쎯oq0쎯	-10.9845
.omg0쎯ddi쎯	-10.9846
wljbm쎯md쎯	-10.9847
tgk쎯rjd0쎯	-10.9849
bq쎯vio0쎯	-10.9849
za3쎯jnd0쎯	-10.985
tvks0쎯jbof쎯	-10.985
hmr0쎯slm쎯	-10.9851
fkt0쎯	-10.9853
eyiu0쎯e쎯	-10.9857
tk0쎯pmf쎯	-10.9858
nomrt0쎯gnsh쎯	-10.9859
ylln0쎯,	-10.9863
nvolb쎯)	-10.9863
ihs0쎯onao쎯	-10.9864
uni0쎯b쎯	-10.9864
ora0쎯ibpp쎯op0쎯	-10.9864
nla쎯ylb쎯	-10.9865
dlmo0쎯top0쎯	-10.9865
fyvi쎯	-10.9866
.쎂쎀쎀쎆oq0쎯	-10.9868
ai쎯	-10.987
mylm쎯ik1쎯	-10.987
ncwj쎯htlc쎯	-10.987
lwu0쎯ibpp쎯	-10.9872
hapi0쎯jdok0쎯yib쎯	-10.9876
hgdi쎯;	-10.9877
hoomd0쎯ilil쎯	-10.9877
;쎂.	-10.9878
,csh0쎯	-10.9878
gkf0쎯	-10.9879
-(	-10.988
ddf0쎯	-10.9881
쎃.쎆	-10.9881
heo쎯po0쎯	-10.9884
pta쎯	-10.9886
쎇rmvs쎯	-10.9886
쎁쎉쎉쎀	-10.9888
mnr쎯ibpp쎯amyo쎯	-10.989
khnk쎯khmg쎯	-10.9891
vmjka쎯	-10.9891
jmyo쎯iksi쎯	-10.9891
ksr쎯jphu0쎯	-10.9893
m쎯ids쎯	-10.9893
qkni0쎯tc1쎯	-10.9894
쎆rmvs쎯	-10.9895
×쎅	-10.9897
o쎯ino0쎯	-10.9899
hsog쎯	-10.99
kqyck쎯ohpm쎯	-10.9901
od쎯hup0쎯	-10.9903
mdm쎯hommn0쎯	-10.991
yrnf0쎯nvhg쎯	-10.9911
dj쎯ytumb쎯	-10.9912
ydi0쎯eite쎯	-10.9915
oqmo쎯heks0쎯	-10.9917
hvif쎯yg0쎯ohg쎯	-10.9917
ylnc쎯kb0쎯	-10.9918
qobhu쎯dher쎯:	-10.9921
qi1쎯npo쎯	-10.9924
top0쎯vmyk0쎯	-10.9926
nmkmr쎯jm0쎯	-10.9926
thbu0쎯ouln0쎯	-10.993
yg0쎯ksc쎯,	-10.993
nbshq쎯ivjnk쎯	-10.9934
hapi0쎯gah쎯yta0쎯	-10.9936
hae쎯ilil쎯	-10.9937
yh쎯ehio쎯bq쎯md쎯	-10.9937
.쎅.	-10.9937
;klg0쎯	-10.9938
i1쎯ycbr0쎯heks0쎯	-10.9939
twk0쎯jmyo쎯nn0쎯	-10.9941
c쎯tlwc쎯nau0쎯	-10.9942
b쎯쎃a0쎯	-10.9942
rqyt쎯	-10.9942
edi0쎯arf0쎯	-10.9944
oymr쎯hup0쎯:	-10.9945
jmso쎯ig0쎯	-10.9946
jr쎯oin쎯	-10.9947
,jbmm0쎯mgln0쎯	-10.9948
ll쎯	-10.9948
gp0쎯mfp0쎯jka쎯	-10.9949
,omg0쎯ddi쎯	-10.995
rs	-10.9951
po0쎯k0쎯	-10.9952
bmi쎯po0쎯	-10.9954
crp0쎯jrmbo쎯	-10.9954
,쎁쎈	-10.9956
ms0쎯onao쎯qmvif쎯	-10.996
i1쎯mgmf0쎯gytu0쎯	-10.9965
rrr0쎯llhwj쎯,	-10.9967
uu0쎯hommn0쎯	-10.997
쎁쎄쎀쎀	-10.9972
thbu0쎯iodi쎯	-10.9974
,ojlk쎯bq쎯	-10.9975
mf0쎯qobhu쎯boln0쎯	-10.9977
levif쎯oinl0쎯	-10.998
쎅쎅쎀	-10.9981
fbnd0쎯nir쎯	-10.9982
sk0쎯iln0쎯	-10.9983
csh0쎯eph쎯	-10.9983
dytj1쎯	-10.9983
-쎄쎀	-10.9984
kb0쎯inin0쎯	-10.9986
mf0쎯yce0쎯	-10.9988
wr쎯jmso쎯	-10.9989
ohg쎯sjrc0쎯md쎯	-10.9989
dtq쎯rrr0쎯	-10.9989
dt0쎯emhf0쎯md쎯	-10.999
k0쎯stv쎯	-10.9991
og	-10.9991
gyo쎯ytt0쎯	-10.9992
lmp0쎯hvhui쎯	-10.9992
nn0쎯ivoj쎯nini0쎯	-10.9993
il쎯	-10.9993
쎁쎉쎉쎃	-10.9993
.쎁.	-10.9994
edi0쎯l0쎯wmgi쎯	-10.9994
yhs쎯omlk쎯,	-10.9995
dtlc쎯hbr0쎯	-10.9996
etvi0쎯	-10.9996
hapi0쎯ycbr0쎯tc1쎯	-10.9997
vmij0쎯i1쎯	-11.0001
oip0쎯mgwg쎯ycbr0쎯	-11.0001
jdok0쎯llmb쎯.	-11.0001
bojka쎯	-11.0002
opbk쎯dhe1쎯	-11.0003
,oe0쎯	-11.0003
ime0쎯hdbu쎯	-11.0003
ry	-11.0004
bine쎯iml쎯	-11.0004
l0쎯wmgi쎯mr0쎯elw쎯	-11.0006
lmnii쎯ihs0쎯iksi쎯	-11.001
jr쎯opjbc쎯	-11.0011
ykok0쎯tp쎯llml쎯	-11.0014
anau0쎯ym0쎯	-11.0014
hnlh0쎯j쎯mm0쎯	-11.0017
bbe쎯eno0쎯yhvl쎯	-11.0017
sjlws쎯ivqmb쎯	-11.0017
,tt1쎯lmnii쎯	-11.0018
ryo0쎯prnin쎯	-11.0019
gpim쎯honkn0쎯	-11.0022
jdok0쎯ommi0쎯	-11.0023
tqm쎯rsln1쎯	-11.0024
dnhe쎯nlav쎯	-11.0024
ymy0쎯qyt0쎯	-11.0024
l0쎯mng0쎯	-11.0025
nmtq쎯ab0쎯	-11.0025
쎅.쎀	-11.0026
쎂쎆a0쎯	-11.0027
es쎯sehho쎯	-11.0031
bbb0쎯hdyj0쎯	-11.0034
eav0쎯tjr쎯	-11.0036
tn0쎯id1쎯rrr0쎯	-11.0039
omg0쎯ks0쎯	-11.004
ysok쎯yit쎯	-11.0043
jrok쎯jlln쎯.	-11.0045
girm쎯nir쎯	-11.0046
fvok쎯jnd0쎯op0쎯	-11.0047
yhs쎯hbr0쎯iksi쎯	-11.0047
nvolb쎯rrr0쎯	-11.0048
nmme0쎯zxaf쎯	-11.0049
hgdi쎯md쎯	-11.005
nnqo0쎯ivo쎯	-11.0052
m쎯ir0쎯	-11.0052
hapi0쎯hbu0쎯bkf0쎯	-11.0053
pt0쎯jibi쎯	-11.0054
tgk쎯eill쎯	-11.0054
oioi0쎯	-11.0055
ehkp쎯ksr쎯ylln0쎯	-11.0055
csh0쎯ihs0쎯	-11.0057
wd0쎯dedi쎯	-11.0064
gg쎯	-11.0066
dup쎯napo쎯	-11.0068
쎃.쎃	-11.0068
,hghu쎯	-11.0069
tlwc쎯lapv쎯nau0쎯	-11.0069
fmu쎯emhf0쎯	-11.0071
쎅쎀fd0쎯	-11.0071
쎂쎅a0쎯	-11.0071
i1쎯oiav0쎯rrr0쎯	-11.0071
levif쎯npo쎯	-11.0072
jbmm0쎯yt0쎯	-11.0073
쎂쎇a0쎯	-11.0073
vmnhe쎯vio0쎯ym0쎯	-11.0075
lln쎯heks0쎯hshml쎯	-11.0075
fmob쎯	-11.0076
ynib쎯ydi0쎯edi0쎯	-11.0076
.쎁쎉쎈쎈oq0쎯	-11.0078
wmgi쎯jmso쎯hapi0쎯	-11.0078
.쎂쎀쎀쎇oq0쎯	-11.008
쎁쎉쎂쎅oq0쎯	-11.008
eykl0쎯jbtj쎯ylb쎯	-11.0081
kmnr0쎯yylc쎯	-11.0082
okmrt쎯tcb0쎯	-11.0082
epym쎯obo쎯	-11.0082
l0쎯oymr쎯	-11.0083
yhds쎯ydi0쎯	-11.0085
flmi0쎯	-11.0086
vjnu쎯	-11.0087
qtcl쎯	-11.0088
mnr쎯vio0쎯ivcru쎯	-11.0088
vmisb쎯hbuf0쎯	-11.0089
+쎂	-11.0089
eowy쎯qike쎯쎁	-11.009
bf쎯	-11.0091
vvh쎯fbrhu쎯hdv쎯	-11.0091
hqgdi쎯yth쎯	-11.0093
mku쎯hshml쎯	-11.0094
smh쎯	-11.0095
쎁쎄a0쎯	-11.0096
w쎯honom쎯	-11.0097
.쎂쎀쎀쎈oq0쎯	-11.0098
qsmg0쎯	-11.0099
tk0쎯hvif쎯hapi0쎯	-11.01
mfj0쎯dhe1쎯	-11.01
,sqnl0쎯hi0쎯	-11.0101
쎂쎈쎀	-11.0101
odm0쎯yib쎯nvjrr쎯	-11.0102
mf0쎯bmr0쎯,	-11.0103
l0쎯asje쎯	-11.0104
aj0쎯klg0쎯	-11.0107
쎂.쎆	-11.0107
dapp쎯	-11.0109
=쎁/	-11.0109
lnk0쎯ytaj0쎯	-11.011
ymp0쎯ids쎯	-11.0111
oo0쎯tc1쎯o쎯rbo0쎯	-11.0112
nlyhs쎯f쎯	-11.0112
nbshq쎯ysok쎯hmr0쎯	-11.0112
yk0쎯op0쎯yth쎯tc1쎯	-11.0113
amyo쎯dav쎯qsjr쎯	-11.0114
dmmf0쎯ivrc쎯	-11.0115
ma0쎯jmso쎯	-11.0117
hooml쎯lk쎯	-11.012
yrbr0쎯fbr0쎯	-11.0121
yad쎯mwsl쎯	-11.0122
oinl0쎯yhml쎯	-11.0124
ms0쎯hqphh쎯	-11.0125
oyhv0쎯arf0쎯	-11.0128
hhsk쎯	-11.0128
쎆～	-11.013
mwln쎯ylb쎯po0쎯	-11.0134
vsm쎯nwma쎯d쎯ykll쎯	-11.0136
mwv쎯yrf1쎯	-11.0137
iln0쎯llsm쎯	-11.0137
hdr0쎯jmmu0쎯tgtr쎯	-11.0139
qlmy쎯ysok쎯	-11.0139
vhqm쎯hvp0쎯	-11.0141
k0쎯bmr0쎯	-11.0141
nir쎯cwj0쎯	-11.0142
egi쎯,	-11.0142
l0쎯po0쎯tcb0쎯	-11.0143
veks쎯	-11.0143
bsle0쎯heks0쎯tc1쎯	-11.0144
a1쎯:	-11.0148
,rmss쎯bmi쎯gihs쎯	-11.0149
,rlmi쎯	-11.0149
bgth쎯bpo0쎯	-11.0149
omg0쎯rvp쎯	-11.015
hbu0쎯hxh쎯hapi0쎯	-11.0151
otc쎯vmomr쎯	-11.0151
rmybb0쎯	-11.0152
i1쎯yk0쎯op0쎯	-11.0153
oyt쎯,	-11.0154
khqmb쎯	-11.0154
mbll쎯su1쎯	-11.0156
yg0쎯mwv쎯lw쎯	-11.0158
iksi쎯rudi0쎯hbr0쎯	-11.0161
ytap쎯iksi쎯	-11.0162
mrnr쎯mrnr쎯	-11.0164
,tt1쎯md쎯	-11.0166
qni0쎯iksi쎯	-11.0168
쎀%	-11.0169
ino0쎯p쎯	-11.0169
du0쎯	-11.0171
;쎄	-11.0172
o쎯hdnf쎯	-11.0176
tsl쎯fhbu0쎯	-11.0181
pp0쎯hdln0쎯adi쎯	-11.0182
,vir쎯nklq쎯md쎯	-11.0183
bmr0쎯hommn0쎯tc1쎯	-11.0183
fqsu0쎯,	-11.0184
klg0쎯tmmc0쎯	-11.0184
jcik쎯qu0쎯	-11.0186
mjln쎯nomrt0쎯	-11.0186
atc0쎯klnd쎯	-11.0187
ymf0쎯ibpp쎯	-11.0187
es쎯ogd0쎯	-11.0188
,o쎯olis쎯	-11.019
dowy쎯top0쎯	-11.0193
mf0쎯ab0쎯	-11.0193
kb0쎯ivoj쎯nini0쎯	-11.0195
wlivn쎯	-11.0195
vmqs쎯	-11.0195
쎀쎀yrbu0쎯fd0쎯	-11.0196
iksi쎯wmgi쎯jmso쎯	-11.0197
uu0쎯ivke쎯	-11.0198
:쎃쎀	-11.02
o쎯k0쎯	-11.02
쎃.쎁	-11.02
sj0쎯dhn0쎯kqomn쎯	-11.0201
afhhh쎯rhbr0쎯,	-11.0202
yk0쎯lk쎯	-11.0202
g쎯sj0쎯tmmc0쎯	-11.0203
omh쎯omi0쎯mgije쎯	-11.0206
mr0쎯yoln0쎯	-11.0207
쎂.쎃	-11.0207
tmks0쎯kw쎯	-11.0208
jckn쎯ytahu0쎯	-11.0211
ino0쎯lsh쎯	-11.0211
rmvs쎯hpsl0쎯ivke쎯	-11.0212
fwk쎯ir0쎯	-11.0213
yrnl0쎯vmnhe쎯	-11.0214
eyok쎯aaa0쎯stt쎯	-11.0214
mwsl쎯hdrc쎯쎁쎀	-11.0215
mca0쎯ht0쎯	-11.0216
ksr쎯ilil쎯	-11.0221
bmr0쎯eykl0쎯	-11.0222
hhdi쎯vmij0쎯	-11.0223
쎂쎀ol1쎯	-11.0226
c쎯opav쎯	-11.0226
oiku쎯hdnhs0쎯tc0쎯	-11.0227
vir쎯md쎯	-11.0228
mr0쎯ddh쎯	-11.0228
qamo쎯nir쎯	-11.0228
kmob쎯mgwg쎯	-11.023
─	-11.0231
yr0쎯kb0쎯	-11.0231
쎁.쎇	-11.0233
vmjnk쎯hyyhn쎯	-11.0234
nmeq쎯	-11.0234
mgtmc쎯	-11.0239
her0쎯yhs쎯mwsl쎯	-11.0241
ino0쎯jlln쎯	-11.0243
jkp0쎯oq0쎯o쎯	-11.0243
kb0쎯bmks0쎯md쎯	-11.0245
ff	-11.0249
oqni쎯jbmc0쎯	-11.025
hkll쎯d쎯	-11.0251
쎅fd0쎯,	-11.0253
omn1쎯hjbo쎯	-11.0261
쎇oq0쎯	-11.0262
hed0쎯,hbu0쎯	-11.0266
oyhv0쎯imno0쎯	-11.0267
hbln0쎯ite쎯,	-11.0267
mrnbg쎯	-11.0268
ophqo쎯rmher쎯ssr쎯	-11.0269
쎁쎉쎂쎈oq0쎯	-11.0271
yhgu쎯qike쎯	-11.0271
bsle0쎯bq쎯	-11.0271
qhdw쎯hdl0쎯	-11.0272
hnk0쎯e쎯	-11.0273
khlmi쎯iobo쎯	-11.0274
e쎯girm쎯	-11.0274
csh0쎯sk0쎯	-11.0274
ysmbo쎯	-11.0276
ivmfj쎯hdv쎯	-11.0276
qje쎯id1쎯ysm쎯	-11.0277
,jp쎯olis쎯	-11.0278
쎁-쎁	-11.0281
쎂쎀-	-11.0281
fdqmb쎯iav0쎯	-11.0281
o쎯gpim쎯	-11.0282
,,,	-11.0284
amyo쎯omg0쎯wmgi쎯	-11.0286
elsg쎯ebbb0쎯	-11.0289
mdm쎯top0쎯obo쎯	-11.0289
vmng쎯	-11.0291
omn1쎯oncsh쎯	-11.0292
쎅쎀쎀fd0쎯	-11.0292
yk1쎯knib쎯	-11.0292
hapi0쎯oip0쎯qmv쎯	-11.0292
yfiku0쎯ivjnk쎯	-11.0293
mm0쎯yri0쎯	-11.0293
hhbo0쎯aphh0쎯k	-11.0294
bh	-11.0294
mgln0쎯ihpm쎯	-11.0298
lk쎯za9쎯	-11.0301
tims쎯ysook0쎯	-11.0303
okr0쎯bmi쎯	-11.0303
ndyvo쎯nd0쎯olis쎯	-11.0304
ouog0쎯op0쎯	-11.0306
bhu0쎯nbshq쎯	-11.0307
olhh0쎯hommn0쎯	-11.031
hew쎯jvd쎯	-11.0311
qfbu0쎯	-11.0316
b쎯쎂쎅a0쎯	-11.0318
f0쎯	-11.0319
kqijb쎯fdyj쎯	-11.0319
l0쎯wmgi쎯mlm쎯	-11.0323
fsm0쎯adi쎯hapi0쎯	-11.0324
o쎯rvp쎯d	-11.0325
oh쎯osme0쎯	-11.0326
pt0쎯o쎯	-11.0328
,amyo쎯wmgi쎯ob1쎯	-11.0328
ieok0쎯qbme쎯	-11.033
mf쎯	-11.033
e쎯lwu0쎯ytyr쎯	-11.033
zd5	-11.0336
za25쎯	-11.0337
nlodi쎯nmme0쎯	-11.0338
vhqm쎯nir쎯	-11.0338
hgdi쎯cwj0쎯oyt쎯	-11.0339
tc1쎯ob1쎯	-11.034
ivke쎯qmv쎯nn0쎯	-11.0344
eqmb0쎯dj쎯	-11.0344
uu0쎯hqm쎯klg0쎯	-11.0344
qytv0쎯tqbu쎯	-11.0346
nn0쎯m쎯	-11.0347
oip0쎯rmvs쎯	-11.0348
,ymf0쎯amyo쎯	-11.0349
쎄쎈쎅	-11.0351
쎅쎁쎂	-11.0351
nkhym쎯vmjnk쎯	-11.0353
janl쎯mwv쎯	-11.0354
vmyiu쎯hqki쎯	-11.0355
burvp쎯	-11.0356
po0쎯homym쎯	-11.0357
ytyr쎯yrf1쎯	-11.0357
(vmpi쎯	-11.0358
ppj쎯tc1쎯.	-11.0359
vmij0쎯bkk쎯ymy0쎯	-11.0359
ytt0쎯op0쎯	-11.0361
쎂fd0쎯	-11.0362
wmmu0쎯tn0쎯	-11.0363
odm0쎯hvif쎯.	-11.0364
-쎃쎀	-11.0364
hqm쎯op0쎯	-11.0365
amyo쎯m쎯dm0쎯	-11.0365
dgr쎯	-11.0367
oylm0쎯tc1쎯hdr0쎯	-11.037
ehgu쎯imnsd쎯psh0쎯	-11.0371
hapi0쎯gihs쎯ylb쎯	-11.0371
rsln1쎯nir쎯:	-11.0371
ino0쎯o쎯	-11.0371
ymmu0쎯yukb0쎯	-11.0372
jbmm0쎯ht0쎯dhn0쎯	-11.0373
ycbr0쎯iyr쎯	-11.0374
ci0쎯ipm0쎯	-11.0374
hapi0쎯her0쎯mmbo쎯	-11.0375
ivo쎯okr0쎯	-11.0376
쎃쎂.	-11.0378
opyr쎯mr0쎯	-11.0379
b쎯쎂a0쎯	-11.038
i1쎯sok0쎯knn0쎯	-11.038
hvif쎯vmyiu쎯.	-11.0384
쎁쎀ms0쎯	-11.0384
c쎯jrmbo쎯	-11.0385
opav쎯hommn0쎯i1쎯	-11.0387
hqm쎯yth쎯hdr0쎯	-11.0388
vlok쎯mgln0쎯	-11.0388
ino0쎯ahqm0쎯	-11.039
jbmc0쎯hapi0쎯	-11.0392
tnef쎯eomn0쎯mgi1쎯	-11.0393
i1쎯oymr쎯hup0쎯	-11.0394
yth쎯rrr0쎯kb0쎯	-11.0397
bkk쎯eysd0쎯	-11.0398
hapi0쎯oos쎯bq쎯.	-11.0398
nlkq쎯gpd쎯	-11.0398
my쎯yhs쎯	-11.0401
emnr쎯wfq쎯	-11.0401
thbu0쎯ivke쎯	-11.0401
,hdln0쎯bq쎯	-11.0401
hapi0쎯hqm쎯omrl쎯	-11.0402
tt1쎯mf0쎯amyo쎯	-11.0402
mbll쎯hoami쎯nir쎯	-11.0402
.쎁쎉쎈쎄oq0쎯	-11.0402
uyrb0쎯	-11.0404
mwln쎯hshml쎯po0쎯	-11.0404
oybo쎯jbof쎯	-11.0406
gah쎯fcymr쎯	-11.0408
wg0쎯,qdtt쎯gpd쎯	-11.0409
tbln0쎯ytumb쎯	-11.041
,moob쎯	-11.0413
쎂o쎯,	-11.0414
bv0쎯	-11.0414
hougk0쎯	-11.0415
qpp0쎯ivmfj쎯	-11.0418
elw쎯,	-11.0418
hnk0쎯dher쎯,	-11.0419
nrli쎯mnf0쎯hapi0쎯	-11.042
iksi쎯mhaf0쎯fdyj쎯	-11.0423
nc쎯eysd0쎯ei1쎯	-11.0425
gisl쎯amyo쎯	-11.0425
o쎯olis쎯hapi0쎯	-11.0425
lpb쎯nmjpa쎯	-11.0428
smg쎯	-11.0428
bkk쎯gylm쎯	-11.0428
쎁쎀a0쎯	-11.0428
emks0쎯	-11.0431
an	-11.0433
lwd0쎯	-11.0434
m쎯m쎯	-11.0434
ivop0쎯za9쎯:za2쎯	-11.0436
쎂쎀쎀jrhu쎯	-11.0438
hoav0쎯nrli쎯	-11.0438
m쎯mm0쎯	-11.0439
mdm쎯ahqm0쎯vmnhe쎯	-11.044
egi쎯qobhu쎯hdr0쎯	-11.0441
hj0쎯omd0쎯	-11.0442
hqm쎯qlw쎯	-11.0442
mnp0쎯hmr0쎯	-11.0442
nhd쎯hqu0쎯	-11.0445
hdnf쎯rmvs쎯,	-11.0445
oos쎯rrr0쎯.	-11.0446
avg쎯	-11.0446
cwj0쎯vmpu쎯	-11.0447
nvhn쎯	-11.0448
bmso1쎯	-11.0448
.ivyvo쎯ddi쎯	-11.0449
tnm	-11.0449
nir쎯rvl쎯	-11.0449
her0쎯gpd쎯hapi0쎯	-11.045
쎂쎀%	-11.0453
uu0쎯ivke쎯,	-11.0453
aisl쎯amyo쎯	-11.0454
b쎯쎂쎄a0쎯	-11.0456
nir쎯gihs쎯	-11.0456
mku쎯dhn0쎯	-11.0457
aphh0쎯md쎯	-11.0457
e쎯mfj0쎯,	-11.0458
iksi쎯ksr쎯nrli쎯	-11.0458
hnlh0쎯쎇	-11.046
ivos쎯	-11.0461
qamo쎯tbln0쎯	-11.0463
쎁쎁-	-11.0465
eowy쎯ukt0쎯	-11.0465
i1쎯omg0쎯wmgi쎯	-11.0465
iksi쎯tcg0쎯mruu쎯,	-11.0466
ee1쎯dyvo쎯	-11.0466
jcik쎯ivke쎯	-11.0468
,rhg0쎯	-11.0468
hed0쎯,	-11.0469
dbbm쎯	-11.047
dmf쎯za3쎯	-11.047
쎂쎃a0쎯	-11.0471
ino0쎯jmso쎯	-11.0472
i1쎯asje쎯	-11.0476
쎁쎇쎅	-11.0477
ms0쎯nini0쎯	-11.0477
vis쎯dup쎯	-11.0478
,tt1쎯vio0쎯	-11.0479
hqgdi쎯vmnhe쎯	-11.048
vmisb쎯rmvs쎯:	-11.048
ihs0쎯ocsh쎯	-11.0481
,irm쎯jka쎯	-11.0481
l0쎯p쎯nc쎯fbnd0쎯	-11.0483
lscru쎯libhu0쎯	-11.0483
ids쎯iyr쎯	-11.0484
oyhv0쎯dlnbo쎯	-11.0485
oos쎯rrr0쎯kb0쎯	-11.0485
ryck쎯	-11.0486
qka쎯mk쎯	-11.0486
wf	-11.0487
sok0쎯llmb쎯.	-11.0487
ivke쎯qif0쎯	-11.0487
oj	-11.0491
bohe쎯	-11.0491
쎈.쎅	-11.0491
nc쎯ron쎯	-11.0492
jyk쎯ivlll쎯	-11.0492
m쎯kqmob쎯	-11.0492
,oini0쎯	-11.0494
,ikhhh쎯ksr쎯nn0쎯	-11.0495
nu0쎯tcg0쎯	-11.0495
mpylm쎯yblb쎯	-11.0495
mk쎯vmij0쎯	-11.0503
vmqmo쎯ykok0쎯	-11.0503
mrtvi0쎯hybt0쎯	-11.0505
×쎃	-11.0506
ylb쎯mmok쎯jksc쎯	-11.0507
쎁쎉쎈쎂	-11.0508
hounk쎯fd0쎯	-11.0508
nhd쎯kqno쎯	-11.0509
쎅jrhu쎯,	-11.0509
gpd쎯bhhau쎯	-11.0509
hhqu쎯nir쎯	-11.0511
mmn0쎯i1쎯	-11.0511
omr0쎯m쎯	-11.0512
ym	-11.0512
ybye0쎯	-11.0513
ksr쎯e쎯	-11.0514
ohqi쎯ivmmr쎯	-11.0516
ihs0쎯rbo0쎯i1쎯	-11.0518
p쎯l0쎯	-11.0518
mmvs1쎯	-11.0519
hqm쎯fdcsh쎯	-11.0522
slmbo쎯	-11.0523
ms0쎯mmu0쎯.	-11.0525
ihs0쎯yif0쎯hapi0쎯	-11.0527
yhgr0쎯ivpa1쎯	-11.0527
쎇%	-11.0528
hounk쎯mng0쎯	-11.0529
l0쎯fmc쎯	-11.053
rmher쎯mwsl쎯	-11.0531
bmmc쎯kb0쎯m쎯jmyo쎯	-11.0531
lmv쎯	-11.0533
쎅mwg0쎯fd0쎯	-11.0537
suok0쎯iav0쎯	-11.0539
hapi0쎯opfb쎯ogr0쎯	-11.0546
vgg0쎯	-11.0548
fbnd0쎯dyck0쎯,	-11.0549
nau0쎯c쎯shlb0쎯	-11.055
ij0쎯	-11.0551
vmvl쎯	-11.0551
mk쎯,	-11.0552
oq0쎯lsa쎯,	-11.0553
hbv0쎯w쎯	-11.0556
mwtog쎯	-11.0557
,eowy쎯qike쎯	-11.0561
ewb쎯	-11.0562
apv쎯	-11.0562
llml쎯i1쎯	-11.0564
powy쎯	-11.0564
twln1쎯y쎯	-11.0564
,ysok쎯	-11.0565
.쎁쎉쎉쎀oq0쎯	-11.0566
yce0쎯miks0쎯	-11.0567
imdk쎯jtco0쎯	-11.0568
hghu쎯hmr0쎯ohg쎯	-11.0569
rvp쎯mmok쎯	-11.057
hda쎯fdyj쎯	-11.0571
qmv쎯mgbhu쎯uu0쎯	-11.0572
jyk쎯rmij쎯l0쎯	-11.0573
end0쎯fdyj쎯	-11.0576
hapi0쎯kip0쎯ite쎯	-11.0577
,mfj0쎯gpim쎯	-11.0577
uhvi쎯	-11.0578
hapi0쎯m쎯jmso쎯	-11.0579
.za3쎯쎃.	-11.0581
쎁쎉pt0쎯vmsu0쎯	-11.0582
inkg쎯nljmu쎯	-11.0584
ivtt쎯qbbe0쎯	-11.0585
fcq0쎯ksc쎯nn0쎯	-11.0585
jtco0쎯kq0쎯	-11.0586
pru쎯wqs쎯	-11.0587
omn1쎯qiks쎯	-11.0588
vlok쎯tkhk0쎯	-11.0588
ee1쎯hbr0쎯	-11.0588
쎆.쎀	-11.059
i1쎯a0쎯dm0쎯	-11.059
tlbk0쎯dher쎯tmm0쎯	-11.0591
jdok0쎯fbnd0쎯ysm쎯	-11.0594
yyk쎯fdk0쎯	-11.0595
b쎯쎂쎂a0쎯	-11.0596
.쎁쎉쎉쎅oq0쎯	-11.0598
hdr0쎯hdyj0쎯mrmt쎯	-11.06
mt0쎯bd0쎯	-11.06
wks0쎯ee0쎯ysook0쎯	-11.0601
jm0쎯fbnd0쎯oyt쎯;	-11.0601
.쎀쎇	-11.0603
쎁쎉쎉쎈	-11.0603
hnlh0쎯mmm쎯yhs쎯	-11.0603
efh0쎯eeog쎯	-11.0604
b쎯쎄a0쎯	-11.0608
k0쎯tmff0쎯	-11.0608
mnr쎯r쎯	-11.0609
,bbe쎯	-11.0609
hgdi쎯mlm쎯oos쎯	-11.0612
ym0쎯yblb쎯	-11.0613
nl쎯	-11.0615
ivke쎯klb쎯hapi0쎯	-11.0617
nuks0쎯	-11.0621
uu쎯	-11.0621
nd0쎯zxaf쎯	-11.0622
ifg쎯ommi0쎯fbnd0쎯	-11.0622
dkmym0쎯dhn0쎯	-11.0623
:쎈	-11.0624
:쎀.	-11.0624
libt0쎯khivk쎯	-11.0626
vmisb쎯bysm쎯nn0쎯	-11.0634
qobhu쎯iln0쎯hdr0쎯	-11.0635
amyo쎯lw쎯l0쎯wmgi쎯	-11.0637
eysd0쎯libhu0쎯	-11.0637
,vmomr쎯	-11.0638
쎃쎁쎆	-11.0641
yj쎯	-11.0643
mbo쎯	-11.0644
o쎯iksi쎯	-11.0645
elsw쎯	-11.0645
nma	-11.0645
hapi0쎯ks0쎯amwg쎯	-11.0647
～쎁	-11.0647
fbnd0쎯ehhv쎯	-11.0649
쎂쎂a0쎯	-11.0649
lmp0쎯k0쎯	-11.0649
ikp0쎯lis쎯	-11.0649
hdr0쎯mrmt쎯jckn쎯	-11.0652
sk0쎯girm쎯ob1쎯	-11.0655
jrhu쎯qyt0쎯	-11.0656
hdi0쎯tbrr쎯	-11.0658
pysu쎯ym0쎯	-11.0658
mwsl쎯fdyj쎯	-11.0659
tc0쎯ivj쎯	-11.066
ophjm쎯	-11.0661
ivipm쎯aombo쎯	-11.0661
bmi쎯i1쎯	-11.0662
pthg쎯	-11.0662
mnr쎯bbke쎯	-11.0662
쎁쎂쎂	-11.0663
eylh0쎯niy쎯	-11.0663
쎁쎉쎈쎅	-11.0664
hapi0쎯oiku쎯qiks쎯	-11.0665
za4쎯	-11.0665
toll1쎯	-11.0667
lyyhv쎯	-11.0667
,sqnl0쎯	-11.0668
.owyi0쎯	-11.0668
tkymr쎯yhs쎯	-11.0669
levif쎯imqkk쎯	-11.0669
lmsy쎯egi쎯	-11.0669
sqnl0쎯wg0쎯	-11.0671
tgk쎯bkq쎯	-11.0671
hdb0쎯iln0쎯i1쎯	-11.0672
),amyo쎯	-11.0672
mfj0쎯adi쎯	-11.0672
jmn쎯edhe쎯ylb쎯	-11.0672
hjrr쎯mgwg쎯fbnd0쎯	-11.0675
.쎁쎉쎈쎇oq0쎯	-11.0675
p0쎯	-11.0676
jkp0쎯dhe1쎯	-11.0677
ivsmr쎯tbc0쎯	-11.0681
.nk0쎯	-11.0681
쎂.쎇	-11.0683
lmnii쎯vio0쎯	-11.0683
bpo0쎯	-11.0684
mpylm쎯tkymr쎯	-11.0685
:"	-11.0686
tbs쎯	-11.0688
b쎯쎁쎂a0쎯	-11.0688
mm0쎯hgdi쎯lnk0쎯.	-11.069
쎁쎀쎇	-11.069
oqni쎯ivsu쎯	-11.069
odm0쎯yib쎯gnsh쎯	-11.0691
amyo쎯bq쎯	-11.0691
nmomm쎯ivmym쎯	-11.0692
jv0쎯omg0쎯phqm쎯	-11.0693
ivhne쎯hew쎯.	-11.0694
oyt쎯md쎯l0쎯wmgi쎯	-11.0699
nmkk쎯	-11.07
hoav0쎯kb0쎯	-11.0701
kjt쎯bfqm0쎯	-11.0701
/-	-11.0703
쎃쎈쎀	-11.0703
vlok쎯nmme0쎯nn0쎯	-11.0704
gpd쎯oyt쎯.	-11.0707
gpd쎯smmi0쎯	-11.0709
nlmmu쎯	-11.071
app0쎯ab0쎯ylb쎯	-11.0713
(fbnd0쎯nir쎯:)	-11.0713
uu0쎯nau0쎯hapi0쎯	-11.0713
mylm쎯qobhu쎯	-11.0714
mm0쎯j쎯pt0쎯vmsu0쎯	-11.0718
yks쎯gytu0쎯	-11.0719
oymr쎯nla쎯	-11.072
mig0쎯oin쎯klg0쎯	-11.0721
ksc쎯ci0쎯dfdv쎯	-11.0723
쎁mfj0쎯yhs쎯ci0쎯	-11.0724
mm0쎯j쎯wc0쎯	-11.0724
etmb쎯ytap쎯hapi0쎯	-11.0724
mf0쎯jbm0쎯	-11.0724
ynib쎯hoyg쎯	-11.0725
쎈a0쎯	-11.0725
ivipm쎯whey0쎯	-11.0727
hqgdi쎯po0쎯	-11.0727
,hogdi쎯	-11.0727
llhe쎯muw쎯	-11.0729
hapi0쎯fbnd0쎯sim쎯	-11.073
ol1쎯jdok0쎯fbnd0쎯	-11.0731
kqqni쎯ivym쎯	-11.0731
fbrlb쎯ilil쎯	-11.0733
,tcg0쎯yrnl0쎯	-11.0733
yr0쎯qsjr쎯	-11.0734
mwfd쎯	-11.0734
rrr0쎯rjd0쎯	-11.0735
iikp쎯	-11.0736
fmu쎯vmjka쎯	-11.0737
yhmbo1쎯nau0쎯:	-11.074
ynib쎯kq0쎯	-11.074
,tc0쎯bmr0쎯	-11.0742
pjto쎯	-11.0744
uu0쎯llhe쎯.	-11.0745
tw1쎯qhml0쎯	-11.0746
bq쎯amwg쎯	-11.0747
djbm0쎯dhjd쎯	-11.0747
yk0쎯dfsm쎯	-11.0749
ylb쎯po0쎯	-11.0751
tims쎯rrr0쎯	-11.0753
rpu0쎯,	-11.0754
uu0쎯nau0쎯	-11.0755
ebon쎯ivipm쎯oik1쎯	-11.0757
hgdi쎯nini0쎯mmbo쎯	-11.0758
bdu쎯bhae쎯	-11.0758
ol1쎯ahqm0쎯hvif쎯.	-11.0759
omg0쎯opjbc쎯	-11.076
쎇mfj0쎯yhs쎯ci0쎯	-11.076
tm0쎯taj쎯	-11.0761
oll쎯vmshr0쎯:	-11.0761
vmnme쎯gpd쎯	-11.0763
쎁쎉쎁	-11.0764
qmwyi0쎯phqm쎯	-11.0766
wr쎯omr0쎯	-11.0766
bojm쎯klnd쎯	-11.0766
쎃mwg0쎯fd0쎯	-11.0768
,lmp0쎯yrf0쎯	-11.0771
hjwg쎯mng0쎯	-11.0771
hgf0쎯	-11.0774
쎂o쎯	-11.0774
ivppa쎯	-11.0775
frrd쎯	-11.0776
ooks쎯jtcy0쎯	-11.0778
ogd0쎯zxaf쎯	-11.0779
쎂쎆쎄	-11.0779
(쎈	-11.078
hed0쎯vmpi쎯	-11.0782
md쎯ymp0쎯	-11.0783
libt0쎯ifbhu쎯	-11.0785
top0쎯yjhoj쎯	-11.0786
,jrok쎯nir쎯	-11.0786
hoav0쎯k0쎯hapi0쎯	-11.0788
taka쎯	-11.0789
mwsl쎯lloa쎯	-11.0791
,ob1쎯jcor쎯	-11.0794
)jnd0쎯	-11.0795
p쎯,	-11.0795
m쎯k0쎯	-11.0799
:쎆	-11.0799
ci0쎯hgr0쎯	-11.0799
vmiwg쎯	-11.08
gnsh쎯hshml쎯.	-11.0801
ord0쎯jphu0쎯	-11.0803
쎁쎀쎉	-11.0803
yyyd	-11.0804
wr쎯qsle쎯	-11.0807
hpm쎯	-11.0808
dhjd쎯ipm0쎯ommi0쎯	-11.0808
hogdi쎯ywlb쎯	-11.0809
bkq쎯wdh쎯	-11.0809
kohh쎯	-11.0812
ddi쎯opjbc쎯	-11.0812
,mf0쎯ibpp쎯	-11.0814
mig0쎯ym0쎯	-11.0815
,jbtj쎯ysm쎯	-11.0815
yihu0쎯ryo0쎯	-11.0816
vmgr쎯hbut0쎯	-11.0816
fmu쎯ivtca쎯	-11.0817
i1쎯rjd0쎯fdqmb쎯	-11.0817
qni0쎯jmso쎯,	-11.0818
쎁쎉쎇쎈	-11.0819
쎁쎉쎈쎃	-11.0821
mmm쎯nbg0쎯eill쎯	-11.0823
hvif쎯vmyiu쎯gpd쎯	-11.0823
owyi0쎯ol1쎯o쎯	-11.0825
fbnd0쎯sim쎯,	-11.0829
wmgi쎯nlmmf쎯phqm쎯	-11.0832
nljmu쎯jm0쎯	-11.0834
iksi쎯l0쎯p쎯	-11.0835
쎅ms0쎯	-11.0836
쎃o쎯	-11.0836
fhbu0쎯i1쎯ylb쎯	-11.0837
ldhe쎯yha쎯	-11.0839
yhs쎯ipm0쎯.	-11.084
tp쎯llml쎯vmbm0쎯	-11.0841
eate쎯	-11.0842
oq0쎯dt0쎯,	-11.0842
dppa쎯	-11.0842
hnlh0쎯m쎯qpp0쎯	-11.0843
ivcru쎯amyo쎯	-11.0843
gsav쎯	-11.0844
kqu0쎯	-11.0845
mgfbo쎯	-11.0845
hmr0쎯klg0쎯	-11.0846
l0쎯wmgi쎯yk0쎯op0쎯	-11.0847
vio0쎯ymp0쎯	-11.0848
l0쎯ophqo쎯	-11.0848
zbb	-11.085
.za3쎯(쎂).qpa0쎯	-11.085
tbks0쎯heks0쎯	-11.0851
ivjbm쎯	-11.0852
za2쎯m쎯	-11.0853
fbrlb쎯hdv쎯ommi0쎯	-11.0855
k0쎯mmn0쎯	-11.0855
rhwj쎯emcw0쎯	-11.0858
tt0쎯bk0쎯u쎯	-11.0858
omsl쎯	-11.0859
hapi0쎯okr0쎯ivrc쎯	-11.086
쎂쎀omd0쎯	-11.0861
,ikhhh쎯ksr쎯	-11.0861
.opd0쎯hapi0쎯	-11.0862
ejrb쎯eha쎯	-11.0862
ino0쎯ytap쎯	-11.0863
tyu쎯	-11.0863
uu0쎯rrr0쎯	-11.0863
ioog0쎯hapi0쎯m쎯	-11.0865
vmop쎯	-11.0867
nbks0쎯md쎯	-11.0868
nlkd쎯mnln쎯	-11.0868
gmfm쎯	-11.0869
쎁쎃쎃	-11.0869
qpa0쎯rudi0쎯rbo0쎯	-11.087
hapi0쎯ibpp쎯ks0쎯	-11.0873
mmok쎯iodi쎯hapi0쎯	-11.0873
쎁쎉쎇쎉	-11.0874
hbln0쎯ylln0쎯	-11.0874
pqmb쎯ayrf0쎯	-11.0875
pysm쎯fdk0쎯	-11.0875
쎁쎉쎈쎇	-11.0875
gb0쎯	-11.0876
hjbo쎯amwg쎯odm0쎯	-11.0876
.쎂쎀쎀쎄oq0쎯	-11.0877
ewc0쎯	-11.0878
lw쎯ym0쎯eowy쎯	-11.088
mwiav쎯	-11.0881
hnk0쎯bd0쎯	-11.0881
md쎯m쎯odm0쎯	-11.0882
yhml쎯oq0쎯	-11.0883
.쎁쎉쎉쎃oq0쎯	-11.0883
bo0쎯nf0쎯	-11.0886
yhml쎯ma0쎯	-11.0886
iksi쎯onf0쎯	-11.0888
cnh쎯	-11.0889
쎂jrhu쎯	-11.089
hqi0쎯olis쎯lmnii쎯	-11.0891
lic0쎯fbrbo쎯	-11.0893
rjpa쎯	-11.0893
ldhe쎯qijb쎯	-11.0893
wl쎯vmnhe쎯	-11.0896
bmr0쎯abbt쎯	-11.0896
ivhjr쎯aombo쎯	-11.0898
tcg0쎯c쎯mmbo쎯bu0쎯	-11.0898
gpd쎯sk0쎯.	-11.09
djcr쎯	-11.0902
쎁쎉a0쎯	-11.0904
nlykb1쎯ytap쎯	-11.0907
idd쎯elw쎯	-11.0908
nn0쎯m쎯qpp0쎯	-11.0913
ymp0쎯gpd쎯	-11.0914
i1쎯hda쎯etcu0쎯	-11.0914
po0쎯i1쎯	-11.0915
ibpp쎯klg0쎯	-11.0916
bbke쎯hapi0쎯	-11.0917
yth쎯ojbm0쎯	-11.0917
,pp0쎯vr쎯	-11.0918
mumbo1쎯	-11.0919
ksc쎯yg0쎯ohg쎯	-11.0921
fh쎯lmnii쎯	-11.0921
owlb쎯bkf0쎯	-11.0921
.kd0쎯	-11.0923
ivop0쎯ivmym쎯	-11.0924
joma쎯omjr쎯	-11.0926
j쎯nini0쎯oq0쎯	-11.0928
gdk쎯,	-11.0929
ymf0쎯klg0쎯	-11.0929
fdv쎯	-11.0931
.쎁쎉쎉쎈oq0쎯	-11.0931
mku쎯ykok0쎯	-11.0931
ddh쎯fdyj쎯,	-11.0932
ru0쎯	-11.0933
쎃mmbo쎯	-11.0933
fdqmb쎯ynib쎯	-11.0934
.쎁쎉쎉쎇oq0쎯	-11.0936
f쎯fpru쎯	-11.0937
smdi쎯ije0쎯	-11.0939
wmgi쎯ivmmr쎯	-11.0939
jmso쎯wg0쎯	-11.094
쎁쎈쎀쎀	-11.094
vmbm0쎯vmrc쎯hdr0쎯	-11.0941
lsa쎯nlmrb0쎯	-11.0941
jniu쎯	-11.0942
cwj0쎯oyt쎯hapi0쎯	-11.0942
mfp0쎯ybhg0쎯	-11.0943
mtc0쎯hdyj0쎯	-11.0944
big쎯	-11.0944
tjrb0쎯ths쎯	-11.0946
trok0쎯tc1쎯	-11.0948
opndt쎯	-11.0948
qke0쎯u쎯	-11.0949
hommn0쎯ahqm0쎯	-11.095
qytv0쎯oh쎯	-11.095
za8쎯ydhml0쎯	-11.0955
ofbi쎯	-11.0955
za9쎯)	-11.0957
ivik쎯ommi0쎯	-11.0959
oop0쎯mgwg쎯	-11.096
hw	-11.0961
crp0쎯is0쎯fvok쎯	-11.0962
b쎯쎅a0쎯	-11.0962
ou0쎯v쎯	-11.0963
쎁쎉쎉쎇	-11.0965
omg0쎯hdnf쎯	-11.0966
kb0쎯ks0쎯	-11.0967
/쎄	-11.0968
lbybo쎯	-11.0968
qyrf0쎯	-11.0969
eytj0쎯	-11.097
nmhkl쎯	-11.0971
za9쎯amyo쎯lw쎯	-11.0974
qir0쎯	-11.0976
nc쎯ivcru쎯,	-11.0977
qtw0쎯vmomi쎯	-11.0978
.쎀쎀	-11.0979
hnlh0쎯쎆	-11.098
ki0쎯jcm쎯	-11.098
kysy쎯	-11.098
ivym쎯ofp0쎯	-11.0981
bohio쎯	-11.0981
tbln0쎯mwsl쎯	-11.0983
eyiu0쎯ehhv쎯	-11.0983
hgdi쎯nini0쎯	-11.0983
bklu쎯hbln0쎯	-11.0984
fbnd0쎯fbnd0쎯jm0쎯	-11.0985
hshml쎯oos쎯	-11.0987
ojrk쎯ihs0쎯	-11.0987
opjbc쎯,	-11.0987
ms0쎯yw쎯	-11.0992
uu0쎯llhe쎯nn0쎯	-11.0992
ldhe쎯irp0쎯end0쎯	-11.0993
tlwc쎯u쎯	-11.0995
ogdi쎯iinl0쎯	-11.0997
her쎯	-11.0998
tmd0쎯ol1쎯	-11.1
kb0쎯hoav0쎯nini0쎯	-11.1004
sjg쎯muw쎯	-11.1005
tcg0쎯mruu쎯.	-11.1008
oahe쎯sim쎯	-11.101
csh0쎯dhml0쎯i1쎯	-11.101
ohq쎯,	-11.1011
쎁쎆쎂	-11.1013
oymr쎯qhp0쎯	-11.1013
khhvo쎯	-11.1013
tjcr0쎯	-11.1015
nljmu쎯qpp0쎯imog쎯	-11.1016
nd0쎯v쎯	-11.1016
ioog0쎯,	-11.1017
qqo쎯qgdi쎯	-11.1019
쎃o쎯,	-11.102
hapi0쎯lwu0쎯nd0쎯	-11.1021
.쎁쎉쎉쎄oq0쎯	-11.1021
(쎁쎈쎉	-11.1022
byck0쎯tjblb0쎯	-11.1023
fdyt쎯nd0쎯	-11.1026
homr0쎯jvd쎯	-11.1026
hbln0쎯rrr0쎯k	-11.1028
mmm쎯hgdi쎯lnk0쎯.	-11.1028
yri0쎯yj0쎯l0쎯	-11.1031
l0쎯fbnd0쎯hqm쎯	-11.1031
mthhh쎯ipm0쎯,	-11.1033
mrihr쎯phqm쎯	-11.1034
jid0쎯	-11.1035
bipo쎯	-11.1037
dhn0쎯miks0쎯	-11.1037
.ivyvo쎯ids쎯	-11.1038
hvno0쎯	-11.1038
-쎆쎀	-11.1038
jnk쎯	-11.1039
ivke쎯qnsh쎯	-11.1039
yta0쎯onao쎯	-11.104
ino0쎯egi쎯	-11.104
lloa쎯e	-11.1041
po0쎯qkdi쎯	-11.1042
moob쎯jka쎯	-11.1043
op0쎯fbnd0쎯hvif쎯	-11.1043
ik쎯	-11.1044
,ikhhh쎯ysm쎯	-11.1044
jmig쎯yg0쎯ohg쎯	-11.1044
kmnr0쎯hqgdi쎯	-11.1048
rmylm쎯	-11.1048
hahui0쎯	-11.1052
odm0쎯hjbo쎯	-11.1052
bgr쎯	-11.1053
,iku0쎯tmmc0쎯	-11.1057
j쎯omd0쎯oq0쎯	-11.1058
.쎁쎉쎈쎆oq0쎯	-11.1059
k0쎯jlln쎯	-11.1059
opjv쎯	-11.1063
b쎯쎇a0쎯	-11.1065
je0쎯hommn0쎯	-11.1065
oymr쎯opbo1쎯	-11.1065
qruc쎯bysm쎯hapi0쎯	-11.1065
쎁쎁.	-11.1066
lwu0쎯dnhe쎯	-11.1066
a0쎯my쎯oj1쎯	-11.1067
쎁쎁쎄	-11.1067
toll0쎯jkp0쎯	-11.1067
쎃ms0쎯	-11.1069
,rc0쎯mwv쎯	-11.1071
vio0쎯ym0쎯,	-11.1071
ydi0쎯hdrhg쎯.	-11.1073
gah쎯hvd쎯	-11.1073
yw	-11.1074
vnvm쎯	-11.1074
kb0쎯hbv0쎯is0쎯	-11.1075
.tkr0쎯	-11.1076
쎂쎄a0쎯	-11.1079
ivmfj쎯iksi쎯za2쎯	-11.1079
ino0쎯niy쎯,	-11.1079
:za0쎯	-11.1081
.jp쎯hapi0쎯	-11.1082
yksr쎯	-11.1085
,lmp0쎯ysm쎯	-11.1086
nnmbo0쎯qsle쎯	-11.1087
,nlykb1쎯	-11.1089
,omnr쎯	-11.1089
bu0쎯dmmf0쎯amyo쎯	-11.109
qss쎯	-11.1095
,oos쎯jka쎯	-11.1096
쎁쎉쎈쎉	-11.1097
kdi0쎯hoami쎯	-11.1099
onqmb쎯	-11.1101
woll0쎯o쎯jm0쎯	-11.1103
.쎁쎉쎈쎃oq0쎯	-11.1104
jbmc0쎯dbu쎯	-11.1104
jlln쎯.	-11.1105
mnr쎯jcor쎯vmob0쎯	-11.1108
niy쎯qmv쎯	-11.111
kb0쎯tk0쎯hapi0쎯	-11.1111
mmbo쎯bu0쎯oyt쎯md쎯	-11.1111
mku쎯jcks쎯	-11.1111
di쎯	-11.1112
mng0쎯oylm0쎯tc1쎯	-11.1113
suok0쎯nir쎯	-11.1113
ommi0쎯kb0쎯	-11.1113
iomvn쎯rrikr쎯	-11.1114
bcru1쎯yukb0쎯	-11.1115
yhs쎯mthhh쎯	-11.1115
hmr0쎯nk0쎯	-11.1116
po0쎯yhs쎯mthhh쎯	-11.1117
dhkl쎯opjbc쎯	-11.1118
쎉a0쎯	-11.1118
ino0쎯ob1쎯	-11.112
klnd쎯ysok쎯	-11.1123
mbll쎯hoami쎯	-11.1124
opbk쎯hbks0쎯	-11.1125
qhml0쎯eeem0쎯	-11.1125
qytv0쎯r쎯,	-11.1125
쎀쎀쎀	-11.1125
dkmym0쎯ykll쎯	-11.1126
rmjmf쎯	-11.1126
mlm쎯hdrhg쎯llmb쎯,	-11.1128
pknio쎯eog0쎯	-11.1129
obo쎯hjbo쎯	-11.113
twk1쎯	-11.1131
k0쎯mgok0쎯	-11.1132
fdtgf쎯	-11.1133
ycbr0쎯tc1쎯hoggn쎯	-11.1133
tpib쎯tpou쎯mvdh쎯	-11.1133
m쎯lsa쎯	-11.1135
klg0쎯hqi0쎯wmgi쎯	-11.1136
mbdi쎯icmr쎯	-11.1136
uu0쎯ythu쎯	-11.1137
lmg0쎯ebhu0쎯	-11.1138
yqs쎯egi쎯	-11.114
wr쎯wmgi쎯	-11.1142
ivomg쎯hdeq쎯	-11.1144
ydhml0쎯wc0쎯bkq쎯	-11.1144
--쎂-	-11.1144
dhn0쎯mgwg쎯	-11.1144
qliu쎯	-11.1144
b쎯쎈a0쎯	-11.1144
her0쎯ipm0쎯	-11.1145
fbrlb쎯bq쎯hapi0쎯	-11.1145
nir쎯iksi쎯za2쎯	-11.1145
o쎯o쎯	-11.1146
jmig쎯niy쎯	-11.115
yhmbo1쎯fdyj쎯	-11.1151
b쎯쎉a0쎯	-11.1152
(/)	-11.1152
yta쎯	-11.1154
yce0쎯tlj쎯	-11.1154
yvo쎯	-11.116
oh쎯rjd0쎯	-11.116
쎀쎀쎀쎀	-11.1161
amwg쎯hapi0쎯	-11.1162
ivhmy쎯ivci쎯	-11.1162
dhe0쎯tlj쎯	-11.1165
hakj쎯	-11.1165
쎂a0쎯	-11.1167
ymmi쎯tbrr쎯ycbr0쎯	-11.1167
ebnd쎯brog0쎯	-11.1169
rvp쎯jlln쎯	-11.1169
ommi0쎯klg0쎯	-11.117
gpd쎯khivk쎯	-11.117
gpd쎯gdk쎯	-11.1171
ndf쎯l0쎯u쎯	-11.1171
mghjd쎯eowy쎯	-11.1172
zd2	-11.1173
sk쎯	-11.1173
m쎯jbmm0쎯klg0쎯	-11.1174
r쎯ummj0쎯	-11.1176
dd쎯gnsh쎯	-11.118
oq0쎯dt0쎯	-11.1181
psh0쎯jyk쎯	-11.1183
awe쎯	-11.1183
rks0쎯kb0쎯	-11.1184
iksi쎯ymp0쎯	-11.1186
hbln0쎯yhgr0쎯k	-11.1186
crp0쎯mlm쎯ommi0쎯	-11.1187
gasm쎯	-11.1188
dsjl0쎯	-11.1189
usu0쎯	-11.1189
ivhne쎯yt0쎯nn0쎯	-11.119
omwm쎯s쎯	-11.1191
fnbk1쎯	-11.1195
f쎯ks0쎯	-11.1195
jnd0쎯fvok쎯:	-11.1196
jv0쎯nlyhs쎯	-11.1197
i1쎯eomn0쎯kq0쎯	-11.1197
qta쎯	-11.1198
oomm쎯	-11.12
za9쎯ivgdi쎯ino0쎯	-11.1201
hjlp쎯	-11.1202
nlmnr쎯dav쎯nkhg쎯	-11.1202
oinr쎯ik1쎯	-11.1202
쎆쎅쎀	-11.1207
hyyhn쎯ymmi쎯	-11.1209
ylb쎯gnsh쎯,	-11.121
eno0쎯hvd쎯	-11.1213
oqni쎯ytk쎯	-11.1215
qvio쎯jmyo쎯	-11.1215
qkns쎯fmu쎯	-11.1216
hapi0쎯ihs0쎯mks0쎯	-11.1218
쎇b쎯ppj쎯tc1쎯md쎯	-11.122
pd0쎯klg0쎯	-11.122
nljmu쎯nljmu쎯jm0쎯	-11.1221
omg0쎯oq0쎯	-11.1221
,le0쎯shlb0쎯	-11.1222
tno0쎯	-11.1222
e쎯bmi쎯	-11.1223
hmr0쎯ohg쎯	-11.1225
r쎯mrhwj쎯	-11.1226
hqphh쎯fdyj쎯	-11.1226
omn1쎯,	-11.123
my쎯gi0쎯	-11.123
m쎯hgdi쎯lnk0쎯.	-11.1233
crhu1쎯	-11.1235
lijrb쎯liptd쎯	-11.1237
vhpa쎯ifu쎯	-11.1239
yrbu0쎯fd0쎯	-11.124
q쎯qpa0쎯	-11.1241
yck0쎯eyiu0쎯ysm쎯	-11.1241
moob쎯oyt쎯	-11.1242
mcw쎯ejrb쎯	-11.1242
kn0쎯ilil쎯	-11.1244
qvio쎯ivmn쎯	-11.1248
mlm쎯hbv0쎯	-11.1249
mf0쎯hgdi쎯	-11.1249
ldhe쎯mnln쎯iksi쎯	-11.125
__	-11.1253
yth쎯tc1쎯opykq쎯	-11.1253
ord0쎯jmyo쎯ylb쎯	-11.1254
ebcd쎯ymmu0쎯	-11.1256
ms0쎯mks1쎯	-11.1256
mgwg쎯phqm쎯	-11.1257
gpd쎯hdv쎯	-11.1258
buhjm0쎯burvp쎯	-11.1261
tc0쎯ynbo0쎯	-11.1264
qpa0쎯jmyo쎯hapi0쎯	-11.1264
mgmf0쎯mgije쎯	-11.1265
sjf쎯	-11.1265
mgok0쎯jmrw쎯	-11.1265
mtln0쎯egi쎯	-11.1265
(쎁쎅	-11.1267
hapi0쎯mwv쎯ije0쎯,	-11.1268
eabt0쎯hdr0쎯	-11.1271
ivtt쎯ivhjr쎯	-11.1272
쎅o쎯	-11.1273
jdok0쎯rbo0쎯	-11.1274
oqni쎯wher0쎯	-11.1274
,쎁쎉쎈쎄oq0쎯	-11.1276
쎁쎅쎀jrhu쎯	-11.1276
hjwg쎯ks0쎯	-11.1278
mpylm쎯aa0쎯	-11.1279
dfdv쎯i1쎯	-11.1279
ytahu0쎯bkf0쎯	-11.1279
fmn쎯bmmc쎯	-11.1279
jka쎯iksi쎯	-11.1282
yt0쎯ryo0쎯md쎯	-11.1283
niy쎯qytv0쎯	-11.1286
qhye쎯	-11.1286
쎁쎆ol1쎯	-11.1287
mf0쎯uu0쎯	-11.1288
hlsa쎯omlk쎯	-11.129
ikhhh쎯arf0쎯	-11.1291
hapi0쎯mmok쎯eir쎯	-11.1293
yhsk쎯	-11.1295
.fsm0쎯adi쎯	-11.1295
lln쎯wg0쎯hojwp0쎯	-11.1296
qni0쎯po0쎯	-11.1297
iflwl쎯ou0쎯	-11.1297
iksi쎯yg0쎯odm0쎯	-11.13
,ifm쎯	-11.13
hlsa쎯vmpi쎯	-11.1301
qhjx쎯oh쎯	-11.1301
hqi0쎯dyck0쎯	-11.1304
hnlh0쎯j쎯mmm쎯	-11.1304
hbln0쎯ipm0쎯	-11.1304
onf0쎯olis쎯	-11.1304
moob쎯ytumb쎯	-11.1307
nblmi쎯nbg0쎯	-11.1308
rwmv쎯	-11.1309
ivmfj쎯jmyo쎯	-11.1309
hbu0쎯oymr쎯	-11.1309
e쎯iobo쎯emhf0쎯	-11.131
hapi0쎯ojlk쎯bq쎯	-11.1312
goru쎯dt0쎯hapi0쎯	-11.1312
opjbc쎯oyt쎯md쎯	-11.1313
eosu쎯	-11.1313
tcg0쎯dm0쎯ym0쎯	-11.1314
,ogd0쎯	-11.1314
mks0쎯qdhqu쎯	-11.1314
쎈～	-11.1315
ci0쎯smr쎯vio0쎯	-11.1317
쎄a0쎯	-11.1318
쎃jrhu쎯	-11.1318
oq0쎯ommi0쎯	-11.132
dice쎯	-11.132
쎁쎀쎃	-11.1323
i1쎯nvsm쎯	-11.1323
()hapi0쎯	-11.1323
hapi0쎯vnd쎯ivmfj쎯	-11.1325
dbu쎯qytv0쎯	-11.1326
hh	-11.1329
ids쎯.	-11.1329
쎈쎀쎂.쎁쎁//mku쎯	-11.133
pfb쎯	-11.1331
.쎂쎀쎀쎂oq0쎯	-11.1332
elbu쎯nla쎯ylb쎯	-11.1335
ukt0쎯cor쎯	-11.1338
mwill0쎯	-11.1339
nbshq쎯yrln0쎯	-11.134
mcwm쎯	-11.1341
tytr0쎯qamo쎯	-11.1341
qpp0쎯amwg쎯	-11.1343
hdnf쎯rhfd쎯	-11.1343
ym0쎯za9쎯:za2쎯	-11.1345
쎁쎆a0쎯	-11.1346
vr쎯my쎯:	-11.1346
,mylm쎯	-11.1347
tgk쎯vnd쎯hapi0쎯	-11.1348
rmvs쎯:쎂	-11.1348
yqhl쎯pt0쎯	-11.1349
eabt0쎯ilil쎯ylb쎯	-11.135
klnd쎯gfno쎯	-11.1351
ino0쎯.za3쎯	-11.1354
qamo쎯oaa쎯	-11.1355
ym0쎯vmij0쎯	-11.1355
jmgi쎯lmbo0쎯	-11.1357
hapi0쎯nbg0쎯nau0쎯	-11.1357
fb	-11.136
ycp0쎯bbke쎯	-11.1363
eff0쎯tlwc쎯nau0쎯	-11.1364
mnhj1쎯	-11.1365
qqkq쎯	-11.1365
tqda쎯	-11.1366
rmui쎯	-11.1367
nbks0쎯mjok0쎯	-11.1367
mbll쎯ymmr0쎯,	-11.1369
hjrr쎯i1쎯	-11.1369
쎂csh0쎯nd0쎯amwg쎯:	-11.1369
qme쎯jrhu쎯hnk0쎯k	-11.137
fmu쎯vmij0쎯	-11.137
lssj쎯nir쎯	-11.1372
bt	-11.1373
ci0쎯csh0쎯	-11.1375
za9쎯hnlh0쎯mmm쎯	-11.1376
tc0쎯csh0쎯	-11.1376
mj쎯vmij0쎯	-11.1377
emhf0쎯hbu0쎯	-11.1377
,oo0쎯ymp0쎯	-11.1378
hvif쎯mnln쎯i1쎯	-11.138
mfj쎯	-11.1382
mdm쎯m쎯	-11.1387
쎇b쎯ikhhh쎯ksr쎯	-11.1389
nir쎯fbnd0쎯hqm쎯	-11.1389
qryo쎯	-11.1389
ticr쎯tvjr쎯	-11.139
hbk1쎯gpd쎯hdln0쎯	-11.1391
•	-11.1391
dembo쎯kb0쎯	-11.1394
qhne0쎯iobo쎯k	-11.1394
ikhhh쎯bhu0쎯	-11.1395
c쎯opij쎯	-11.1398
ydhml0쎯ddi쎯	-11.14
wijb쎯	-11.1401
olhh0쎯mgwg쎯	-11.1401
m쎯hhsb쎯	-11.1402
vr쎯bmr0쎯	-11.1402
쎁쎀쎀-쎂쎄쎀	-11.1404
ivke쎯kmob쎯	-11.1404
쎁nir쎯	-11.1404
,ord0쎯ivmym쎯	-11.1405
hqphh쎯hapi0쎯	-11.1408
hmr0쎯mgb0쎯	-11.1408
nklq쎯ihs0쎯hmr0쎯	-11.1409
vmbm0쎯csh0쎯	-11.1411
mmm쎯hj0쎯	-11.1411
ytap쎯ik1쎯ym0쎯	-11.1413
kd0쎯goru쎯	-11.1414
yw쎯yth쎯	-11.1415
oybo쎯qbcd쎯	-11.1415
mr0쎯tlbk0쎯	-11.1417
qu1쎯jyk쎯	-11.142
jcsuu쎯	-11.1422
hqda0쎯wjbo쎯	-11.1423
asje쎯hmr0쎯m쎯	-11.1423
llhe쎯de0쎯	-11.1424
orse쎯a0쎯	-11.1425
tikt쎯	-11.1426
yviw쎯hqok0쎯tc1쎯	-11.1427
iksi쎯ino0쎯	-11.1428
,asje쎯	-11.1428
nsd쎯	-11.1428
ommi0쎯stv쎯l0쎯p쎯	-11.1429
hqbu쎯bhu0쎯	-11.1429
i1쎯nklq쎯hmhn0쎯	-11.1429
miks0쎯rbo0쎯	-11.1429
ivqmb쎯ije0쎯	-11.143
ylln0쎯amwg쎯	-11.1433
a0쎯ivsu쎯	-11.1433
nmfdq쎯llml쎯	-11.1433
쎂nir쎯	-11.1434
md쎯쎂쎀쎀쎉oq0쎯	-11.1435
wgf0쎯jher쎯	-11.1437
hjrr쎯hdv쎯ommi0쎯	-11.1439
(쎇	-11.1439
mf0쎯vnd쎯	-11.144
,jtbu1쎯	-11.1443
gjka쎯	-11.1446
amyo쎯iksi쎯	-11.1447
oo0쎯tc1쎯	-11.1447
djmn쎯dtbo0쎯	-11.1448
쎁쎂쎁	-11.1449
teii0쎯llml쎯	-11.145
vmij0쎯phqm쎯	-11.145
sev0쎯	-11.1452
mcw쎯jv0쎯ylb쎯	-11.1452
kqhkl쎯kq0쎯	-11.1453
.lmnii쎯	-11.1453
nbo쎯tomr0쎯쎀:	-11.1453
.omg0쎯ids쎯	-11.1453
la0쎯adi쎯	-11.1455
hnk0쎯bhhau쎯	-11.1455
hdi0쎯yt0쎯	-11.1456
l0쎯mtc0쎯	-11.1456
crp0쎯mwsl쎯hdrc쎯쎁	-11.1458
쎁쎉쎈쎈	-11.1458
muhe0쎯mk쎯	-11.1458
nc쎯opjbc쎯	-11.1458
za3쎯,amyo쎯	-11.1459
ysohv쎯eysd0쎯sk0쎯	-11.146
vmw쎯mgok0쎯	-11.1461
mmvs0쎯jrhu쎯ks0쎯	-11.1461
ehgu쎯ehed쎯	-11.1463
ligg쎯	-11.1463
쎄i1쎯	-11.1465
yrbr0쎯q쎯	-11.1468
dfdv쎯hybt0쎯	-11.1468
uu0쎯ogr0쎯	-11.1469
nlbm0쎯ylm쎯	-11.1469
mmm쎯fhbu0쎯	-11.147
tcb0쎯nlav쎯	-11.147
bu0쎯tbln0쎯su1쎯	-11.147
ynj0쎯	-11.1471
nlnhx쎯oh쎯	-11.1472
eysd0쎯ei1쎯,	-11.1472
nob쎯	-11.1472
boij1쎯	-11.1472
ddi쎯tehr0쎯	-11.1472
ojlk쎯bq쎯jka쎯	-11.1474
oymr쎯bq쎯ymy0쎯	-11.1475
omn1쎯rjd0쎯	-11.1475
mt0쎯stv쎯nn0쎯	-11.1478
ms0쎯yt0쎯yhs쎯fd0쎯	-11.148
d쎯sj0쎯	-11.1481
olln쎯onao쎯	-11.1482
쎁쎉쎈쎆	-11.1484
kqapp쎯	-11.1485
fd0쎯,jtbu1쎯	-11.1486
ehhv쎯uu0쎯	-11.1487
takg쎯tmpt쎯	-11.1487
,amyo쎯bu0쎯tbln0쎯	-11.1488
eune0쎯tgbt쎯nn0쎯	-11.1488
hmr0쎯o쎯	-11.1489
etmb쎯ysook0쎯	-11.149
o쎯hxh쎯	-11.1491
bbe쎯ooks쎯	-11.1492
ymmi쎯emnr쎯	-11.1492
mf0쎯vdhml쎯gpd쎯	-11.1497
hommn0쎯ojlk쎯	-11.1497
i1쎯ir0쎯eycn쎯	-11.1498
roog쎯	-11.1499
wkmr쎯mthhh쎯	-11.1499
.쎆i1쎯	-11.1501
tca0쎯ynib쎯yrbr0쎯	-11.1501
mf0쎯k0쎯	-11.1506
쎈×	-11.1506
opmo쎯hbr0쎯	-11.1507
onf0쎯mnr쎯vio0쎯	-11.1508
csh0쎯mt0쎯	-11.1508
yhs쎯jvd쎯,	-11.1508
쎁ci0쎯wg0쎯	-11.1509
md쎯amyo쎯	-11.151
smf0쎯oyok0쎯ite쎯	-11.1511
gihs쎯ggcw쎯	-11.1513
qu	-11.1513
쎁jrhu쎯	-11.1514
ioog0쎯tehr0쎯md쎯	-11.1516
niy쎯dt0쎯	-11.1516
yhvl쎯qytv0쎯	-11.1517
rmvs쎯,	-11.1518
goru쎯oik0쎯	-11.152
tc0쎯fbrhu쎯rbo0쎯.	-11.1521
mlm쎯bmmc쎯,	-11.1521
k0쎯byuk쎯	-11.1523
efb0쎯mf1쎯	-11.1525
tc0쎯nklq쎯	-11.1527
u쎯rmher쎯	-11.1528
kd0쎯tbrr쎯	-11.153
jd0쎯ibpp쎯	-11.153
tkhk0쎯hoami쎯jka쎯	-11.153
mf0쎯vdhml쎯hapi0쎯	-11.153
ph쎯bkf0쎯	-11.153
boytr쎯ofbi쎯	-11.1534
tcno0쎯	-11.1534
mnr쎯vio0쎯bq쎯md쎯	-11.1535
i1쎯mku쎯	-11.1535
쎁쎂a0쎯	-11.1535
.쎀쎈	-11.154
okr0쎯ivrc쎯,	-11.1543
vjd0쎯vjd0쎯	-11.1543
za8쎯k0쎯	-11.1544
jbmm0쎯ebhu0쎯	-11.1545
ivke쎯stv쎯mgln0쎯	-11.1545
qomn쎯oh쎯qytv0쎯r쎯	-11.1547
wg0쎯kklb0쎯zxaf쎯	-11.1547
kqyck쎯fh쎯	-11.1548
jrr쎯nkhg쎯	-11.1549
vmng쎯tjblb0쎯	-11.155
bkln0쎯bkln0쎯	-11.1551
ho0쎯k0쎯	-11.1556
epru쎯edj0쎯	-11.1558
vahu쎯	-11.1559
oos쎯iksi쎯m쎯ol1쎯	-11.1559
,le0쎯shlb0쎯md쎯	-11.1562
yrbr0쎯ohpm쎯	-11.1567
dm	-11.1568
phqm쎯nrli쎯	-11.1568
tgk쎯jksc쎯	-11.157
nlo쎯omdm0쎯,	-11.1577
,qywm쎯po0쎯	-11.158
tc1쎯heks0쎯hapi0쎯	-11.1581
hqgdi쎯yhsk쎯	-11.1581
tjblb0쎯dt0쎯nn0쎯	-11.1582
mwice0쎯phqm쎯	-11.1582
smmi0쎯mwsl쎯	-11.1583
[...]
