[UNK]	0
[PAD]	0
[CLS]	0
[SEP]	0
[MASK]	0
,	-3.64195
hapi0쎯	-3.85126
.	-4.09867
i1쎯	-4.15743
hdr0쎯	-5.09843
klg0쎯	-5.48859
iksi쎯	-5.57542
amyo쎯	-5.6413
l0쎯	-5.75291
(	-5.81286
ysm쎯	-5.84332
kb0쎯	-5.87228
:	-5.87449
hgdi쎯	-5.95058
o쎯	-5.96256
;	-6.02196
k0쎯	-6.0315
za8쎯	-6.08634
)	-6.10175
ym0쎯	-6.22519
nhe쎯	-6.24498
za2쎯	-6.26019
m쎯	-6.29923
ino0쎯	-6.30387
vio0쎯	-6.32729
nn0쎯	-6.36332
md쎯	-6.44272
k0쎯fbnd0쎯	-6.48022
mf0쎯	-6.49339
za3쎯	-6.49645
e쎯	-6.54121
l0쎯wmgi쎯	-6.56176
u쎯	-6.59897
ylb쎯	-6.61307
bmi쎯	-6.6652
hmr0쎯	-6.66686
yrbr0쎯	-6.68613
hjrr쎯mgwg쎯	-6.69738
ci0쎯smr쎯	-6.69949
irm쎯	-6.72457
edi0쎯	-6.7364
sk0쎯	-6.74809
쎂	-6.75686
qje쎯id1쎯	-6.76412
쎃	-6.77042
za9쎯	-6.7717
nc쎯	-6.7719
mlm쎯oos쎯	-6.78868
mmm쎯	-6.79243
gpd쎯	-6.80556
ydhml0쎯	-6.80583
zxaf쎯	-6.80686
nd0쎯	-6.81708
bsle0쎯heks0쎯	-6.82033
adi쎯	-6.82246
mbll쎯	-6.82621
bq쎯	-6.83291
mgln0쎯	-6.84023
oylm0쎯tc1쎯	-6.8454
phqm쎯	-6.84626
쎁	-6.87136
my쎯	-6.87568
yth쎯rrr0쎯	-6.87973
fbnd0쎯nljmu쎯	-6.88279
nini0쎯	-6.90278
-	-6.91936
jmso쎯	-6.92355
ldhe쎯	-6.93967
lmnii쎯	-6.94004
hshml쎯	-6.9557
po0쎯	-6.96899
qni0쎯tc1쎯	-6.96929
mk쎯	-6.97401
ob1쎯	-6.98211
jdok0쎯yib쎯	-6.98531
mrmt쎯jckn쎯	-6.98591
vmnom쎯eykl0쎯	-6.98858
uu0쎯	-7.02806
yrnl0쎯	-7.03452
ommi0쎯	-7.03803
mig0쎯	-7.03877
c쎯	-7.05243
nir쎯	-7.05835
hqm쎯	-7.07956
쎄	-7.07998
lw쎯	-7.08011
mnr쎯	-7.08566
yk0쎯	-7.08779
fbnd0쎯	-7.08812
tmmc0쎯	-7.09615
dm0쎯	-7.09907
ihs0쎯	-7.10615
mku쎯	-7.12491
opjbc쎯	-7.12659
hvif쎯vmyiu쎯	-7.14011
mg0쎯	-7.14576
mcw쎯	-7.14805
ddi쎯	-7.14892
/	-7.15455
fhbu0쎯	-7.16307
p쎯	-7.16642
wmgi쎯jmso쎯	-7.16693
쎅	-7.1734
oo0쎯	-7.17991
mm0쎯	-7.18442
ivke쎯stv쎯	-7.18465
hqm쎯yth쎯	-7.19067
csh0쎯	-7.20057
mlm쎯hdrhg쎯	-7.20645
rmher쎯	-7.21593
tt1쎯	-7.22403
egi쎯	-7.22411
wmgi쎯nlmmf쎯	-7.22485
dt0쎯	-7.2278
fbnd0쎯dyck0쎯	-7.23401
jbtj쎯	-7.24322
eowy쎯	-7.24803
kd0쎯	-7.26176
jka쎯	-7.27773
wg0쎯	-7.2802
oyt쎯md쎯	-7.29021
mr0쎯	-7.29226
wmgi쎯	-7.29364
yk0쎯op0쎯	-7.29995
gihs쎯	-7.30402
top0쎯	-7.31684
tbln0쎯	-7.31834
oq0쎯	-7.32222
hdyj0쎯	-7.32422
b0쎯nlav쎯ci0쎯smr쎯	-7.32737
za9쎯i1쎯za8쎯	-7.33144
ohg쎯	-7.33168
vvh쎯	-7.33552
hojwp0쎯	-7.33887
ivhne쎯ivj쎯	-7.34201
r쎯	-7.34318
nvsm쎯	-7.34635
쎆	-7.35056
pd0쎯	-7.35249
wc0쎯	-7.36557
m쎯ol1쎯	-7.37049
,amyo쎯	-7.37324
op0쎯	-7.37862
janl쎯	-7.38612
odm0쎯	-7.39551
ytt0쎯hommn0쎯	-7.40387
hbu0쎯	-7.40854
jdok0쎯fbnd0쎯	-7.41058
ikp0쎯	-7.41437
()	-7.41451
yk1쎯	-7.41556
dhn0쎯	-7.41812
mdm쎯	-7.42979
a0쎯	-7.43714
,klg0쎯	-7.44011
yg0쎯mwv쎯	-7.44199
jv0쎯	-7.44274
ha쎯	-7.45037
쎈	-7.45199
hommn0쎯	-7.45739
ythu쎯	-7.46059
opd0쎯	-7.46139
ipm0쎯	-7.46979
hdyj0쎯qje쎯	-7.47174
nklq쎯ivhne쎯	-7.47189
mfj0쎯	-7.47495
lis쎯	-7.47917
niy쎯	-7.48604
쎇	-7.48709
"	-7.49602
ab0쎯	-7.4967
l0쎯p쎯	-7.49984
vmbm0쎯vmrc쎯	-7.50274
omg0쎯wmgi쎯	-7.50282
hdyj0쎯fbnd0쎯	-7.50475
lmp0쎯	-7.51416
hvif쎯	-7.51456
ibpp쎯	-7.51473
fmu쎯	-7.52577
emnr쎯	-7.53127
mwsl쎯	-7.53706
vmnom쎯	-7.54246
tqbu쎯	-7.54465
qamo쎯otc쎯	-7.54694
opj0쎯	-7.54803
nklq쎯hmhn0쎯	-7.54873
oh쎯	-7.54996
ks0쎯	-7.54998
ifg쎯ommi0쎯	-7.5547
dd쎯	-7.55477
ydi0쎯	-7.55648
eqmb0쎯	-7.55651
moob쎯	-7.55928
rrikr쎯	-7.56082
쎁쎀	-7.56477
tlwc쎯	-7.56512
mng0쎯	-7.56991
bmmc쎯kb0쎯	-7.57202
vmij0쎯	-7.57533
hnk0쎯	-7.57651
lmp0쎯yrf0쎯	-7.58317
hqgdi쎯	-7.58997
jr쎯	-7.59235
bkq쎯	-7.59782
oo0쎯jlln쎯	-7.60523
ms0쎯	-7.60727
omg0쎯	-7.61015
mmu0쎯	-7.61084
rj쎯	-7.61168
mmbo쎯bu0쎯	-7.61699
mt0쎯	-7.62327
vmm0쎯	-7.62579
q쎯	-7.63288
.za3쎯	-7.63475
vio0쎯nhe쎯	-7.63593
hjwg쎯	-7.63728
ynib쎯	-7.63908
ir0쎯	-7.63925
jrhu쎯	-7.63949
gpd쎯sk0쎯	-7.64054
bkk쎯vmher쎯	-7.64862
mylm쎯	-7.65166
ivke쎯	-7.65324
tgk쎯	-7.65982
bkk쎯	-7.66094
yrf1쎯	-7.66159
mhaf0쎯	-7.66775
npo쎯	-7.67022
쎉	-7.67031
d쎯	-7.67125
asje쎯	-7.67503
oos쎯	-7.67574
yk2쎯	-7.67601
hbr0쎯	-7.67766
pt0쎯woll0쎯	-7.67819
vr쎯	-7.67851
oymr쎯hup0쎯	-7.67987
,tt1쎯	-7.6832
v쎯	-7.6865
mgmf0쎯gytu0쎯	-7.68888
ogd0쎯	-7.68981
bmr0쎯	-7.69018
ilil쎯	-7.69036
oiku쎯hdnhs0쎯	-7.69098
yfiku0쎯	-7.6911
her0쎯	-7.69227
hdv쎯rbo0쎯ommi0쎯	-7.69757
ite쎯	-7.69919
ylb쎯gnsh쎯	-7.70192
e	-7.7043
em0쎯	-7.70892
ids쎯	-7.71048
hoami쎯	-7.71349
yhs쎯	-7.71563
),	-7.72278
omn1쎯	-7.72376
,vio0쎯	-7.72575
goru쎯	-7.7303
fdk0쎯	-7.73045
ksr쎯	-7.73811
mnr쎯vio0쎯	-7.7387
tchml쎯	-7.74206
o쎯,	-7.74384
dbu쎯	-7.74766
vnd쎯	-7.75012
ci0쎯	-7.76394
mlm쎯	-7.76704
ojlk쎯bq쎯	-7.76749
iflwl쎯	-7.77277
llmb쎯	-7.77591
shlb0쎯	-7.78214
ym0쎯eowy쎯	-7.78288
dmmf0쎯imog쎯	-7.78369
tn0쎯id1쎯	-7.78448
hjbo쎯amwg쎯	-7.78711
mwv쎯	-7.78763
ee1쎯	-7.78763
heo쎯	-7.79235
su1쎯	-7.79269
hnlh0쎯m쎯	-7.79973
hbln0쎯	-7.80041
dnd0쎯	-7.80042
fd0쎯	-7.80206
gi0쎯	-7.80421
vmnom쎯tbrr쎯	-7.80645
b쎯	-7.80781
ivhne쎯hew쎯	-7.80839
t	-7.81437
ynib쎯ydi0쎯	-7.8164
whey0쎯	-7.81644
mwln쎯	-7.81731
nf0쎯	-7.81979
kq0쎯	-7.82093
hdln0쎯	-7.83303
mtc0쎯	-7.83535
za3쎯.	-7.83821
hqi0쎯	-7.83965
tjblb0쎯	-7.84345
ogd0쎯wdh쎯	-7.84363
mlm쎯tc1쎯	-7.84379
llml쎯	-7.84573
elw쎯	-7.84676
qmb쎯	-7.84834
qif0쎯	-7.84894
hdl0쎯	-7.85001
rmvs쎯	-7.8523
vmnhe쎯	-7.85274
crp0쎯	-7.86056
ssr쎯	-7.86216
hjrr쎯	-7.86442
ikhhh쎯ksr쎯	-7.86783
fvok쎯	-7.86883
qpa0쎯	-7.8711
mmi쎯	-7.87122
jdok0쎯llmb쎯	-7.87356
mt0쎯ivke쎯	-7.8762
gihs쎯ylb쎯	-7.87795
nklq쎯	-7.88027
qau쎯	-7.88187
tkhk0쎯	-7.88203
nau0쎯	-7.8824
ymy0쎯	-7.88271
yg0쎯	-7.88331
eyiu0쎯	-7.88337
r	-7.88404
f쎯	-7.88702
jkp0쎯	-7.8923
wlni쎯	-7.89287
cwj0쎯oyt쎯	-7.8954
jnd0쎯	-7.8956
kmob쎯	-7.89944
nk0쎯	-7.89968
jdok0쎯	-7.90114
l0쎯fbnd0쎯	-7.90245
qyt0쎯	-7.9032
ivyvo쎯	-7.90433
tgk쎯wmgi쎯	-7.90675
g쎯	-7.91066
bbke쎯	-7.91171
k	-7.91464
fbnd0쎯sim쎯	-7.9151
o쎯.	-7.91817
ihs0쎯iksi쎯	-7.9187
za9쎯:za2쎯	-7.92295
nwm쎯	-7.92298
쎁쎂	-7.92365
쎂쎀	-7.92598
mj쎯	-7.92807
yhml쎯	-7.93052
nla쎯	-7.93436
amwg쎯	-7.93535
hqm쎯ehjr쎯	-7.93695
tcb0쎯	-7.94102
hommn0쎯tc1쎯	-7.9445
hda쎯	-7.94536
ppj쎯tc1쎯md쎯	-7.94769
oyt쎯	-7.95275
sok0쎯nljmu쎯	-7.95277
fbnd0쎯ommi0쎯	-7.95577
qbq쎯kb0쎯	-7.9575
fbnd0쎯hqm쎯	-7.95773
ojlk쎯	-7.96009
nljmu쎯	-7.96086
mks0쎯ibpp쎯	-7.96342
w쎯	-7.9652
wk0쎯	-7.9688
ytyr쎯	-7.96993
yc쎯	-7.97023
omr0쎯	-7.97042
je0쎯qgdi쎯	-7.9711
lwu0쎯nd0쎯	-7.97359
hxh쎯	-7.97533
!	-7.9767
yt0쎯	-7.97708
rrr0쎯llhwj쎯	-7.97875
pp0쎯	-7.98108
yrbr0쎯vmnhe쎯	-7.98766
jksc쎯ommi0쎯	-7.98985
ymp0쎯	-7.99065
ycbr0쎯	-7.99318
lwu0쎯	-7.9955
bgr0쎯	-7.99571
qjcm쎯hbln0쎯	-7.99654
jrlr0쎯	-7.99857
hghu쎯ytt0쎯	-7.99924
.klg0쎯	-7.9993
dhe0쎯	-8.00209
pt0쎯	-8.00599
ehjr쎯miks0쎯	-8.00723
tsl쎯	-8.01424
her0쎯hdl0쎯	-8.01433
qhne0쎯iobo쎯	-8.01484
jlln쎯	-8.01613
hqphh쎯	-8.01865
cwj0쎯	-8.02319
tcg0쎯	-8.02576
ivgdi쎯	-8.02833
yta0쎯hvd쎯	-8.03075
q	-8.03267
ivcru쎯	-8.03314
ytt0쎯	-8.03882
yck0쎯ynib쎯	-8.0413
vmbm0쎯	-8.04446
ee0쎯	-8.04967
nlkd쎯	-8.0523
fsm0쎯	-8.05409
jv0쎯omg0쎯	-8.05833
kqno쎯ohq쎯	-8.05859
o	-8.0614
hvd쎯	-8.06253
oos쎯rrr0쎯	-8.06398
jmgi쎯	-8.06631
eysd0쎯ei1쎯	-8.06654
,iksi쎯	-8.07063
hbv0쎯tc1쎯	-8.07271
mmok쎯iodi쎯	-8.07353
mh0쎯	-8.0736
bhu0쎯	-8.07643
aisl쎯	-8.08032
fqsu0쎯	-8.08129
쎁쎉	-8.08152
tc0쎯	-8.08212
vmpi쎯	-8.083
ykq0쎯	-8.08357
wr쎯	-8.08657
ju쎯	-8.08715
ebcd쎯	-8.08754
muw쎯	-8.08772
smmi0쎯	-8.08984
hvif쎯mnln쎯	-8.0908
ymf0쎯	-8.0909
ivmmr쎯	-8.09251
dhn0쎯dpi1쎯	-8.09512
dhkl쎯	-8.0955
ejrb쎯	-8.09585
lsa쎯	-8.1005
mt0쎯vir쎯	-8.10568
hdnf쎯	-8.10781
klb쎯	-8.10782
jmyo쎯	-8.10811
gnsh쎯	-8.10955
nrli쎯	-8.11053
lk쎯	-8.11099
mlwk쎯	-8.11222
vmgr쎯dpi1쎯	-8.1126
oip0쎯	-8.11568
mgwg쎯ivop0쎯	-8.11862
쎁쎅	-8.12273
oos쎯iksi쎯	-8.12373
ifg쎯sk0쎯	-8.12566
tkhk0쎯hoami쎯	-8.12605
h	-8.12687
taj쎯	-8.12893
cwa0쎯	-8.13158
zxay쎯zxay쎯	-8.13214
lsh쎯	-8.13238
tc1쎯	-8.13474
kn0쎯	-8.13489
yks쎯	-8.13711
mgbhu쎯oip0쎯	-8.13851
a0쎯dm0쎯	-8.13883
emcw0쎯iyr쎯	-8.13963
za3쎯hapi0쎯	-8.14127
gah쎯	-8.14149
mgilg쎯	-8.14231
ho0쎯	-8.14271
onf0쎯	-8.14362
mgi0쎯	-8.14521
mpylm쎯	-8.14605
adi쎯lsa쎯	-8.14673
mthhh쎯	-8.14758
wgf0쎯	-8.14878
wdh쎯	-8.1503
emhf0쎯	-8.15078
wd0쎯	-8.151
dhe1쎯	-8.15213
ahqm0쎯	-8.1536
nlmnr쎯	-8.15548
boln0쎯	-8.1564
rvp쎯	-8.15758
vmjmf쎯omr0쎯	-8.1584
imno0쎯	-8.15993
쎃쎀	-8.16074
pru쎯qhjr쎯	-8.16352
hgdi쎯.	-8.16646
qmn0쎯	-8.1677
lmik쎯	-8.16949
lmsy쎯	-8.17161
hjwg쎯yrf1쎯	-8.17222
oqni쎯	-8.17401
hed0쎯	-8.17559
ddh쎯fdyj쎯	-8.17563
is0쎯	-8.17691
hjbo쎯	-8.17832
dfdv쎯	-8.17842
dedi쎯	-8.18633
gtor0쎯	-8.18657
bd0쎯bq쎯	-8.18736
oiav0쎯	-8.18757
dyck0쎯	-8.18897
yk0쎯fbnd0쎯	-8.1905
opfb쎯ogr0쎯	-8.19071
iobo쎯emhf0쎯	-8.19144
j쎯	-8.19217
au0쎯	-8.19392
ykln0쎯	-8.19748
hounk쎯	-8.19887
wmmu0쎯	-8.20194
ojrk쎯	-8.20571
yrnl0쎯csh0쎯	-8.20795
l0쎯hapi0쎯	-8.20905
ysohv쎯eysd0쎯	-8.2118
jdok0쎯qbbe0쎯	-8.21265
yioj0쎯	-8.21906
qka쎯	-8.22095
oqni쎯vmyiu쎯	-8.2211
hoggn쎯	-8.22203
omr0쎯oos쎯	-8.2232
efh0쎯	-8.22351
lwu0쎯ifbhu쎯	-8.22385
hqu0쎯	-8.23003
mks1쎯lk쎯	-8.23049
hsyhs0쎯	-8.2313
djbm0쎯hqphh쎯	-8.23249
bbe쎯	-8.23519
oymr쎯	-8.23624
nlo쎯	-8.23656
tc1쎯heks0쎯	-8.23688
).	-8.23692
rrr0쎯	-8.2377
pqmb쎯	-8.23781
hbu0쎯bkf0쎯	-8.23867
kqqni쎯	-8.2414
uu0쎯llhe쎯	-8.24219
tbd0쎯	-8.24353
jmig쎯	-8.24486
nvjrr쎯	-8.24646
쎁쎁	-8.24722
ivbgr쎯	-8.24955
miks0쎯	-8.24991
qobhu쎯iln0쎯	-8.2508
fdqmb쎯	-8.25187
tjka0쎯nir쎯	-8.25418
sjtk쎯	-8.25432
wmgi쎯ob1쎯	-8.25619
o쎯rbo0쎯	-8.26042
ymmu0쎯	-8.2615
yri0쎯	-8.26247
za3쎯i1쎯za2쎯	-8.2633
ifm쎯bq쎯	-8.26417
dher쎯	-8.26461
tmm0쎯	-8.26508
gytr쎯ivlll쎯	-8.26606
sok0쎯fbnd0쎯	-8.26639
～	-8.267
yh쎯	-8.26844
ik1쎯	-8.27087
obo쎯	-8.27291
gpim쎯	-8.27348
mrmbo0쎯jm0쎯	-8.27364
yhgu쎯	-8.27375
emcw0쎯	-8.27432
he0쎯	-8.27502
dhn0쎯dit0쎯	-8.27601
,oam쎯	-8.27895
oimbo0쎯girm쎯	-8.27906
hghu쎯	-8.27992
za3쎯,	-8.28177
sjrc0쎯tc1쎯	-8.28221
tw1쎯	-8.28318
hbu0쎯su0쎯	-8.28386
ytaj0쎯	-8.28749
op	-8.28872
ma0쎯	-8.28914
vmomr쎯	-8.28953
hybt0쎯	-8.28971
ycbr0쎯heks0쎯	-8.28979
yhs쎯egi쎯	-8.29135
yfiku0쎯amyo쎯	-8.29197
nbg0쎯	-8.2927
tvmi2쎯	-8.29277
ohpm쎯	-8.29323
p	-8.29327
l0쎯lbk0쎯	-8.29349
edhe쎯	-8.29495
jbmc0쎯	-8.29531
sje0쎯	-8.29754
dav쎯	-8.29887
ord0쎯qis쎯	-8.29917
jmn쎯	-8.30304
thbu0쎯	-8.30312
,wks0쎯,	-8.3035
hbt0쎯	-8.30619
d	-8.30684
goshr쎯	-8.30779
gp0쎯	-8.31044
hvp0쎯	-8.31045
ivop0쎯	-8.31173
eir쎯knn0쎯	-8.31253
ifm쎯	-8.31346
o쎯rvp쎯	-8.3166
ob1쎯jcor쎯	-8.31749
fq0쎯	-8.31843
ytap쎯	-8.31878
jm0쎯	-8.32078
llhe쎯	-8.32085
쎅쎀	-8.32153
ol1쎯	-8.3228
쎁쎆	-8.32352
vpd쎯	-8.3239
vvm0쎯	-8.32541
fbrlb쎯	-8.32556
fmc쎯	-8.32557
yyk쎯	-8.32748
rvp쎯ysook0쎯	-8.32781
hdyj0쎯mrmt쎯	-8.33165
b	-8.3326
tmmc0쎯opd0쎯	-8.33395
dci0쎯	-8.33414
,tmmc0쎯	-8.3351
bmmc쎯	-8.33586
tk0쎯	-8.33603
ymmr0쎯	-8.33628
csh0쎯dhml0쎯	-8.33704
sjr0쎯	-8.33815
ihpm쎯	-8.34046
jv0쎯houfk0쎯	-8.34426
ymmi쎯miks0쎯	-8.34471
hommn0쎯mmok쎯	-8.34528
lll쎯	-8.34617
jp쎯	-8.34686
tod0쎯	-8.34914
pysu쎯	-8.34918
yta0쎯	-8.3507
ouln0쎯ydhml0쎯	-8.35365
ord0쎯	-8.35828
omc0쎯	-8.35944
쎁쎈	-8.36008
ysok쎯	-8.36055
ophqo쎯	-8.36067
lsr0쎯aombo쎯	-8.36331
1쎯	-8.36716
ki0쎯	-8.36748
mf0쎯bmr0쎯	-8.36841
쎄쎀	-8.36961
.za8쎯	-8.36969
ihs0쎯yt0쎯	-8.36983
nc쎯fbnd0쎯	-8.37286
hnlh0쎯mm0쎯	-8.37339
gybt쎯	-8.3736
ivhne쎯ysopd쎯	-8.37388
wl쎯	-8.37413
oahe쎯	-8.37619
jibi쎯jm0쎯	-8.37775
ayrf0쎯	-8.37854
tlbk0쎯	-8.37859
buav쎯	-8.3847
pru쎯	-8.38509
ifmrw쎯	-8.38528
hmr0쎯,	-8.38555
gdi0쎯	-8.38568
jher쎯is0쎯	-8.38583
yce0쎯	-8.38605
mgije쎯	-8.38748
qni0쎯jmso쎯	-8.3894
rbo0쎯	-8.38951
mbmbl0쎯mwv쎯	-8.39024
yth쎯	-8.39074
tcg0쎯mruu쎯	-8.3913
쎆쎀	-8.39182
nbo쎯qmbo0쎯	-8.39259
mgb0쎯	-8.39381
hqbu쎯	-8.39385
hbln0쎯oos쎯	-8.39446
okr0쎯ivrc쎯	-8.39538
ilr0쎯	-8.3958
fh쎯	-8.39593
heo쎯mgwg쎯	-8.39694
jmmf0쎯	-8.39703
ehhv쎯	-8.3974
srtq0쎯	-8.39807
jbmm0쎯	-8.40001
qamo쎯yrbr0쎯	-8.40089
eir쎯	-8.40211
yth쎯tc1쎯	-8.40236
rmk쎯	-8.40692
qmv쎯	-8.40747
ifg쎯	-8.40843
adi쎯,	-8.40869
hbln0쎯yhgr0쎯	-8.40904
ehne쎯kb0쎯	-8.41755
vmw쎯	-8.41782
o쎯rvp쎯mmok쎯iodi쎯	-8.41846
쎁쎃	-8.41938
qsle쎯	-8.42031
lwu0쎯afhhh쎯	-8.4206
hqgdi쎯nau0쎯	-8.42284
hqi0쎯olis쎯	-8.42571
u쎯kd0쎯	-8.42627
bbb0쎯	-8.42674
vmbm0쎯ihs0쎯	-8.42696
no2쎯	-8.42813
dnsh쎯	-8.43106
ksr쎯mlm쎯	-8.43176
okr0쎯	-8.43538
jcm쎯	-8.4366
bkk쎯ytyr쎯	-8.43662
fbrg쎯	-8.43786
wks0쎯	-8.43821
fdcsh쎯	-8.43896
mlm쎯oos쎯,	-8.44027
,kb0쎯	-8.4416
oimbo0쎯rudi0쎯	-8.44199
hdln0쎯bq쎯	-8.44216
oip0쎯qmv쎯	-8.44321
ifmrw쎯nklq쎯	-8.44534
jjb0쎯	-8.4484
tcg0쎯dm0쎯	-8.44878
op0쎯fbnd0쎯	-8.44949
fbnd0쎯id1쎯	-8.45138
mwice0쎯	-8.4543
쎂쎅	-8.45434
jibi쎯	-8.45754
eomn0쎯kq0쎯	-8.46036
ivj쎯iln0쎯	-8.46187
lnk0쎯	-8.46222
hoav0쎯	-8.46439
ksc쎯	-8.46441
hjhne쎯	-8.46683
umr0쎯	-8.46946
hj0쎯	-8.46958
bu0쎯	-8.47024
dnhe쎯	-8.47237
nl0쎯	-8.47289
jyk쎯	-8.47438
fdk0쎯mng0쎯	-8.47493
mgmf0쎯	-8.47556
vmgr쎯omr0쎯	-8.47918
eysd0쎯	-8.47989
hqm쎯hqphh쎯	-8.48078
mthhh쎯ihs0쎯	-8.48197
woll0쎯	-8.48254
?	-8.48469
ryo0쎯mgije쎯	-8.485
qytv0쎯	-8.48505
ihs0쎯yt0쎯md쎯	-8.4879
de0쎯	-8.48814
hq0쎯	-8.49049
mrmt쎯jckn쎯hqm쎯	-8.49052
qrrd쎯oos쎯	-8.49055
g	-8.49239
ine쎯	-8.49712
yg0쎯ohg쎯	-8.49733
,mbll쎯	-8.49881
ivj쎯hbut0쎯dhn0쎯	-8.49881
tksc쎯	-8.49979
lgyhv쎯	-8.50016
irp0쎯	-8.50198
vmob0쎯	-8.50406
sok0쎯	-8.50416
olhh0쎯	-8.50455
dh쎯	-8.50688
afhhh쎯rhbr0쎯	-8.50704
+	-8.50785
ino0쎯m쎯	-8.50802
eg0쎯	-8.50951
ino0쎯m쎯.	-8.51029
h0쎯	-8.5105
o쎯dh쎯	-8.51263
mgbhu쎯	-8.51318
eqhl쎯em0쎯	-8.51458
tlj쎯omrl쎯	-8.51485
iyr쎯	-8.51608
eabt0쎯	-8.5169
ksc쎯ci0쎯jmig쎯	-8.51693
ivop0쎯yk0쎯	-8.51699
ebvk쎯	-8.5171
jmmu0쎯ihs0쎯	-8.51926
sqnl0쎯	-8.52167
tmmc0쎯l0쎯	-8.52234
ivym쎯	-8.52515
vmnom쎯nmomm쎯	-8.52641
kmnr0쎯	-8.52709
ibpp쎯ks0쎯	-8.52783
rut0쎯	-8.52865
jlln쎯tc1쎯	-8.52967
smf0쎯	-8.5301
ndu쎯	-8.53123
wp쎯	-8.53165
jyk쎯ysopd쎯	-8.53193
qpa0쎯rudi0쎯	-8.53236
m쎯hdl0쎯	-8.53593
txc쎯	-8.53611
k0쎯mng0쎯	-8.53622
llmb쎯tesu쎯	-8.53909
su1쎯vmnom쎯	-8.54267
m쎯hyhne쎯	-8.54386
qam쎯ohg쎯	-8.54737
aphh0쎯	-8.54865
vmgr쎯	-8.55124
ysook0쎯	-8.55139
ensh쎯	-8.55163
ivmmr쎯ymmr0쎯	-8.55302
hbv0쎯	-8.55374
isbt쎯	-8.55511
ojbm0쎯	-8.55578
dtak쎯ipm0쎯	-8.55595
zxay쎯	-8.55657
wrbo쎯	-8.55722
omm0쎯	-8.55853
mwv쎯ije0쎯	-8.55914
kb0쎯tk0쎯	-8.55943
nbshq쎯	-8.56085
vmog쎯	-8.56107
mgi1쎯	-8.56222
쎁쎄	-8.56376
nlyhs쎯	-8.56477
ylln0쎯	-8.56481
쎁쎀쎀	-8.56509
hda쎯etcu0쎯	-8.56525
jtbu1쎯	-8.56533
mlm쎯tn0쎯	-8.56735
psh0쎯	-8.56833
ioog0쎯	-8.56995
ihs0쎯wd0쎯	-8.57116
rc0쎯	-8.57164
oiav0쎯rrr0쎯	-8.5726
mn0쎯	-8.57277
jmso쎯jksc쎯ommi0쎯	-8.57291
a	-8.57381
okmrt쎯	-8.5739
mf0쎯vdhml쎯	-8.57405
uhej0쎯	-8.57639
yhs쎯ipm0쎯	-8.57663
yh쎯mcw쎯	-8.57682
yck0쎯	-8.57754
bq쎯is0쎯	-8.57759
ouln0쎯oos쎯	-8.57815
miks0쎯hqphh쎯	-8.57843
jrr쎯	-8.57876
sp쎯	-8.57961
fdqmb쎯iflwl쎯	-8.57979
lloa쎯id0쎯	-8.5799
yck0쎯eyiu0쎯	-8.58113
uu0쎯llhe쎯ifg쎯	-8.58183
mbw쎯	-8.58253
ommi0쎯rbo0쎯	-8.58291
bysm쎯	-8.58635
mwln쎯yg0쎯ohg쎯	-8.58665
rmss쎯yukb0쎯	-8.58689
jd0쎯	-8.58731
dav쎯qsjr쎯	-8.58816
tca0쎯	-8.58826
rjd0쎯	-8.59043
yukb0쎯	-8.59081
qjv쎯	-8.59405
epym쎯	-8.59552
hhqu쎯	-8.59765
onkq쎯ile쎯	-8.5978
qytv0쎯r쎯	-8.59893
qke0쎯	-8.59979
egi쎯holq쎯	-8.60059
wc0쎯lll쎯	-8.60091
asje쎯k0쎯	-8.60266
mwsl쎯hdrc쎯	-8.60289
mrmt쎯jckn쎯hshml쎯	-8.60316
phqm쎯ibpp쎯	-8.60327
hpsl0쎯	-8.60588
opbk쎯	-8.60659
mmok쎯	-8.60902
srln0쎯	-8.60938
kqyck쎯	-8.61019
ebmr쎯	-8.61041
ivke쎯mgbhu쎯	-8.61071
slm쎯hqm쎯	-8.61162
hapi0쎯m쎯hdl0쎯	-8.61258
vmisb쎯	-8.61349
ivsmr쎯	-8.61357
tims쎯	-8.61378
tgk쎯id1쎯	-8.6173
tehr0쎯	-8.61779
vmnme쎯	-8.61792
hbu0쎯su0쎯hapi0쎯	-8.61939
mylm쎯ipm0쎯	-8.61964
vmhvp쎯	-8.61971
tbok0쎯	-8.61981
ile쎯	-8.62031
ebhu0쎯	-8.62108
cor쎯	-8.62495
m	-8.62578
dup쎯	-8.62646
gr0쎯	-8.62704
jd1쎯	-8.62822
uni0쎯	-8.63176
amyo쎯qpa0쎯	-8.63209
gyo쎯	-8.63249
ir0쎯eycn쎯	-8.63335
ivhne쎯	-8.63479
tbrr쎯	-8.63593
쎈쎀	-8.63612
yg0쎯ik1쎯	-8.63637
mnp0쎯	-8.63742
vmw쎯bpru쎯	-8.63742
yyk쎯ol1쎯	-8.64027
u쎯kd0쎯fhbu0쎯	-8.64045
fvok쎯qsjr쎯	-8.64056
onao쎯	-8.64087
쎁쎇	-8.64262
mgwg쎯	-8.64338
hhsb쎯	-8.64473
etcu0쎯	-8.64532
yrnl0쎯lis쎯	-8.64624
stv쎯	-8.64686
lloa쎯	-8.64704
muhe0쎯	-8.64966
mfj0쎯ir0쎯	-8.65056
ymmi쎯	-8.65072
.ci0쎯smr쎯	-8.65154
dowy쎯	-8.65222
qlmy쎯	-8.65292
mhog0쎯	-8.65318
qmb쎯oq0쎯	-8.65397
qo0쎯	-8.65465
,lw쎯	-8.65507
her0쎯fdk0쎯	-8.65711
jyk쎯mgbhu쎯	-8.65738
omg0쎯mwsl쎯	-8.65923
y	-8.66137
쎂쎄	-8.66178
ig0쎯	-8.66289
tgtr쎯	-8.66483
wyi0쎯	-8.66542
nwma쎯	-8.66546
ksr쎯oh쎯l0쎯wmgi쎯	-8.66561
ycbr0쎯tc1쎯	-8.66597
jmrw쎯	-8.66625
vlok쎯	-8.66673
lmsy쎯fbrlb쎯	-8.66904
rhg0쎯	-8.66925
hbu0쎯miks0쎯	-8.66979
suok0쎯tlj쎯	-8.67051
ytumb쎯	-8.67355
ol1쎯o쎯	-8.67361
mlm쎯oos쎯.	-8.67479
bu0쎯tbln0쎯	-8.67546
iodi쎯	-8.67711
omd0쎯	-8.67777
hdf0쎯	-8.67833
fbrhu쎯	-8.6785
qmvif쎯	-8.67881
ytd0쎯	-8.67894
amyo쎯m쎯ol1쎯	-8.68019
ci0쎯rmher쎯	-8.68153
ydhml0쎯lssj쎯	-8.68155
mgbhu쎯kb0쎯	-8.68203
ivke쎯qmv쎯	-8.68227
ohq쎯	-8.68241
ids쎯egi쎯	-8.68312
moob쎯ol1쎯	-8.68351
ommi0쎯ivik쎯	-8.68392
hqi0쎯wmgi쎯	-8.68442
ryo0쎯	-8.68535
opij쎯	-8.68594
ikq쎯	-8.68597
sk0쎯girm쎯	-8.68622
jyk쎯nmomm쎯	-8.68653
ivke쎯hqm쎯	-8.68745
ooll쎯ojbm0쎯	-8.68801
wgnin쎯	-8.68823
,opd0쎯	-8.69182
tgbt쎯	-8.69304
i	-8.69361
ytt0쎯oh쎯	-8.69367
qyhn쎯	-8.69376
fdyj쎯	-8.69614
bkf0쎯	-8.69723
jbtj쎯yrf0쎯	-8.69806
ldhe쎯ivmfj쎯iksi쎯	-8.69846
hbk1쎯	-8.69908
olln쎯	-8.70155
jikq쎯	-8.70229
opav쎯hommn0쎯	-8.70297
nlomd쎯	-8.70314
suok0쎯	-8.70435
tcg0쎯gpd쎯	-8.70459
qkni0쎯hommn0쎯	-8.70488
mt0쎯stv쎯	-8.707
mlby쎯	-8.70701
omlk쎯	-8.70726
owyi0쎯	-8.70738
mrno0쎯	-8.7082
yhgu쎯qeq쎯	-8.70863
mmok쎯eir쎯	-8.70897
lu0쎯	-8.71012
v	-8.7124
ophqo쎯rmher쎯	-8.71296
khlmi쎯yt0쎯	-8.71358
rrr0쎯hdl0쎯	-8.71692
yk0쎯ohq쎯	-8.71764
,ojlk쎯	-8.7181
l0쎯,	-8.71826
hae쎯	-8.71836
yr0쎯gpd쎯	-8.7197
nlykb1쎯	-8.7198
o쎯hqphh쎯	-8.72024
:za2쎯	-8.72079
ksr쎯oh쎯	-8.72145
nini0쎯imno0쎯	-8.72303
m쎯ypmm쎯	-8.72367
ndf쎯	-8.72376
ihs0쎯mks0쎯	-8.72413
u	-8.72506
yhv쎯	-8.7253
--	-8.72537
odm0쎯yib쎯	-8.7255
mand쎯	-8.72555
)i1쎯	-8.72565
dj쎯	-8.72717
gytr쎯toll0쎯	-8.72791
nklq쎯yt0쎯	-8.72815
yw쎯	-8.72817
za10쎯za10쎯	-8.72848
yh쎯kd0쎯	-8.72866
ivwd쎯hdrhg쎯	-8.72912
llsm쎯	-8.72945
yk2쎯mgln0쎯	-8.73021
oini0쎯	-8.73081
fdilr쎯	-8.73088
bmr0쎯adi쎯	-8.73129
opav쎯	-8.73278
fbnd0쎯hdyj0쎯	-8.73335
*	-8.73374
tt0쎯	-8.73595
ht0쎯	-8.73614
mnln쎯	-8.73688
nc쎯ivcru쎯	-8.73848
ybhg0쎯	-8.73875
dbu쎯tk0쎯	-8.73904
kmob쎯qmwyi0쎯	-8.73915
oin쎯	-8.74177
hn0쎯	-8.7451
qj0쎯	-8.74551
hqm쎯md쎯	-8.7458
,tmmc0쎯l0쎯	-8.74646
bsle0쎯	-8.74661
c쎯mblmi0쎯	-8.74986
amyo쎯lw쎯	-8.75074
mbsm0쎯	-8.75131
쎂쎂	-8.75153
tbrr쎯opfb쎯	-8.75164
lmi쎯	-8.75191
yr0쎯	-8.75299
ggdi쎯	-8.75405
dyvo쎯	-8.75416
dm0쎯hdyj0쎯	-8.756
l0쎯opj0쎯	-8.75646
shqu쎯	-8.75708
tlbk0쎯ivmmr쎯	-8.7573
gok0쎯	-8.75813
nbshq쎯imdk쎯	-8.75848
li	-8.75972
mvni쎯	-8.75975
etmb쎯	-8.76003
jphu0쎯	-8.76044
ecd0쎯	-8.76095
lllo쎯	-8.76125
po0쎯tcb0쎯	-8.76222
sh0쎯	-8.76237
yh쎯kd0쎯fhbu0쎯	-8.76309
ivke쎯hommn0쎯	-8.76357
je0쎯	-8.76378
ddi쎯hdv쎯ommi0쎯	-8.76438
yhs쎯mwsl쎯	-8.76501
ci0쎯wmmu0쎯	-8.76533
hdv쎯	-8.76536
goiv쎯	-8.76553
yonk0쎯	-8.76576
eog0쎯	-8.7659
omnr쎯	-8.76632
mthhh쎯ipm0쎯	-8.76882
iv	-8.7714
kqop쎯	-8.7718
slm쎯	-8.77222
lwu0쎯emhf0쎯	-8.77429
쎂쎀쎀	-8.77508
ou0쎯	-8.77516
sok0쎯knn0쎯	-8.77581
>	-8.77884
ije0쎯	-8.78027
odm0쎯hvif쎯	-8.78053
llhwj쎯	-8.78082
opd0쎯olis쎯	-8.78279
qhp0쎯	-8.78367
mnmbo쎯	-8.78381
jmso쎯inkg쎯	-8.78398
ejrb쎯jbtj쎯	-8.78444
ikhhh쎯ysm쎯	-8.78509
dm0쎯ids쎯	-8.78735
ksmi쎯	-8.78802
mj쎯yrnl0쎯	-8.78825
hnlh0쎯mmm쎯	-8.78879
yhs쎯hbr0쎯	-8.78959
hjd0쎯	-8.79051
.ivyvo쎯	-8.79094
쎃쎂	-8.79096
skr쎯	-8.79368
jtco0쎯	-8.79408
nm	-8.79458
hqm쎯kip0쎯	-8.79589
l0쎯tc0쎯	-8.79619
yoln0쎯	-8.79772
yk0쎯ab0쎯	-8.79805
libt0쎯yebu쎯	-8.7994
hycr쎯	-8.80038
gisl쎯	-8.80066
pp0쎯kqyck쎯	-8.80177
la0쎯	-8.80196
l	-8.80242
hghu쎯hqm쎯	-8.80324
pvsm쎯	-8.80453
oos쎯bq쎯	-8.80577
mmbo쎯	-8.80637
osk0쎯	-8.80679
dtlc쎯	-8.80748
e쎯mfj0쎯	-8.80799
jmam0쎯oqni쎯	-8.80862
hapi0쎯m쎯ol1쎯	-8.80866
rmss쎯	-8.81032
domm0쎯ebon쎯	-8.81192
nlb0쎯	-8.81203
eyg0쎯bbm0쎯	-8.81205
hapi0쎯za2쎯	-8.81316
hhw쎯	-8.81335
bdhhh0쎯	-8.81487
opbmr쎯	-8.81506
mmok쎯hdb0쎯	-8.81549
ifu쎯	-8.81596
em0쎯tksc쎯	-8.81598
wmgi쎯ob1쎯niy쎯	-8.81605
쎀	-8.81612
jrb쎯	-8.81638
fmn쎯	-8.81782
fdk0쎯mng0쎯:	-8.81912
hoami쎯mgln0쎯	-8.81913
bq쎯md쎯	-8.82111
wp쎯dup쎯	-8.82122
oam쎯	-8.82158
vlok쎯oh쎯	-8.82284
aa0쎯	-8.82353
smr쎯	-8.82367
ylnc쎯	-8.82486
yh쎯ilil쎯	-8.82504
ouln0쎯	-8.82627
hbln0쎯ite쎯	-8.82706
sj0쎯	-8.82802
ooks쎯	-8.83025
jv0쎯lgyhv쎯	-8.83053
ifbhu쎯	-8.83066
쎇쎀	-8.83076
,edi0쎯	-8.83141
hshml쎯kb0쎯	-8.83141
toll0쎯	-8.83181
hojwp0쎯wmgi쎯	-8.83305
qamo쎯	-8.83381
,oyt쎯md쎯	-8.83425
ivmym쎯	-8.8353
ivsu쎯	-8.83675
mbib쎯	-8.8398
yrf0쎯	-8.84031
tesu쎯wqs쎯	-8.84106
mgumb쎯	-8.84107
iobo쎯fdyj쎯	-8.84206
tk0쎯hvif쎯	-8.84375
,aisl쎯	-8.84612
hdrhg쎯inin0쎯	-8.84613
mca0쎯	-8.84707
qobhu쎯dtak쎯	-8.84751
kd1쎯	-8.84878
hdnhs0쎯	-8.84888
tlbk0쎯wmgi쎯	-8.84949
shlb0쎯md쎯	-8.85177
hqphh쎯mgwg쎯	-8.85192
mf0쎯ibpp쎯	-8.85298
jher쎯	-8.85299
rsln1쎯	-8.85331
mfj0쎯yhs쎯fd0쎯	-8.85341
jmmu0쎯tgtr쎯	-8.85397
yrbr0쎯hgdi쎯	-8.8544
gpd쎯yhs쎯	-8.85447
btak쎯	-8.85468
jdok0쎯ddh쎯	-8.85471
asje쎯k0쎯hapi0쎯	-8.85487
rbo0쎯mlm쎯	-8.85551
ron쎯	-8.85668
jrok쎯	-8.85733
ivjnk쎯	-8.85785
hdl0쎯djbm0쎯	-8.85864
iksi쎯m쎯odm0쎯	-8.8592
eyok쎯	-8.85934
emnr쎯jbtj쎯	-8.86013
ihs0쎯rbo0쎯	-8.86097
ino0쎯lsa쎯	-8.86136
uoii0쎯	-8.86313
twhd0쎯	-8.86366
tlit쎯	-8.86374
em0쎯tksc쎯fhbu0쎯	-8.8645
hdv쎯rbo0쎯	-8.86582
hbv0쎯ddi쎯	-8.86614
lwu0쎯byuk쎯	-8.86696
s	-8.86705
oha쎯	-8.86845
amyo쎯m쎯hdl0쎯	-8.86883
ivjka쎯	-8.86896
mks0쎯	-8.86917
l0쎯sok0쎯	-8.87033
vmnau쎯	-8.87146
epi0쎯	-8.87175
tak쎯	-8.87256
0쎯	-8.87318
yblb쎯	-8.87351
afhhh쎯	-8.87358
byck0쎯	-8.87455
hed0쎯ohq쎯	-8.87553
gdk쎯	-8.87562
o쎯r쎯	-8.8765
ykll쎯	-8.87653
tbks0쎯miks0쎯	-8.87745
soy쎯	-8.87757
ivj쎯	-8.87984
tc0쎯bmr0쎯	-8.88079
kqnom쎯	-8.88091
hghu쎯hmr0쎯	-8.88126
vmnom쎯ydi0쎯	-8.88191
slw0쎯	-8.88332
zxae쎯	-8.88536
m쎯imno0쎯	-8.88546
yh쎯hgr0쎯	-8.88884
pdk쎯	-8.88989
f	-8.89032
ifbhu쎯yhmbo0쎯	-8.89085
~	-8.891
mcw쎯jbtj쎯	-8.89152
hdrc쎯dnhe쎯	-8.89163
mmn0쎯	-8.89165
yri0쎯wher0쎯	-8.8917
asje쎯yrbr0쎯	-8.89175
쎃쎅	-8.89188
sjg쎯	-8.89193
ypvif쎯	-8.892
imoii쎯	-8.89228
za9쎯hgdi쎯	-8.8924
mg	-8.89303
ee0쎯ysook0쎯,	-8.89307
opytu쎯	-8.89316
adi쎯tcb0쎯	-8.8933
jbmm0쎯qytv0쎯	-8.89346
ior0쎯ivpa0쎯	-8.89347
c쎯shlb0쎯	-8.8936
vmvno쎯	-8.89444
eqhl쎯em0쎯fhbu0쎯	-8.89491
jcm쎯lsa쎯	-8.8955
ysopd쎯mlm쎯	-8.89566
hjwg쎯mwv쎯	-8.89702
쎂쎃	-8.89779
khlmi쎯hqgdi쎯	-8.89846
omgn쎯	-8.89896
qj0쎯jmrw쎯hapi0쎯	-8.89922
wkp0쎯	-8.89952
쎂쎈	-8.90024
egi쎯wmgi쎯	-8.90082
lgyhv쎯nvolb쎯	-8.90134
uu0쎯mgbhu쎯	-8.90137
lnbo쎯	-8.90275
sjtk쎯omr0쎯	-8.9034
fsm0쎯oip0쎯	-8.90395
fwk쎯	-8.90752
vmsu0쎯	-8.90753
oos쎯jka쎯	-8.90828
ytk쎯	-8.90856
쎉쎀	-8.90873
nhe쎯tmmc0쎯	-8.90886
mgwg쎯oinp0쎯	-8.91129
ykq0쎯vmjnk쎯	-8.91171
eycn쎯	-8.91237
kd0쎯lmp0쎯	-8.91244
km0쎯	-8.91255
uu0쎯hqm쎯md쎯	-8.91496
tqm쎯	-8.91534
by0쎯	-8.91546
jrok쎯jlln쎯	-8.91621
mfj0쎯yhs쎯fd0쎯,	-8.91705
fbrlb쎯heks0쎯	-8.91813
yg0쎯qgdi쎯	-8.91872
idd쎯	-8.91884
mwsu쎯ksmi쎯	-8.91945
vio0쎯ym0쎯	-8.92021
qmv쎯mwsl쎯	-8.92126
vmnme쎯nau0쎯	-8.92367
mrmt쎯ivke쎯	-8.92546
nini0쎯hdl0쎯	-8.92547
qni0쎯	-8.92569
m쎯jbmm0쎯	-8.92634
hoggn쎯ythu쎯	-8.92636
,mnr쎯	-8.92673
pmf쎯	-8.92733
krd0쎯	-8.92746
iml쎯	-8.92796
vdhml쎯	-8.92804
ivipm쎯	-8.9281
ids쎯muw쎯	-8.92836
etc쎯	-8.92859
fcq0쎯	-8.92933
hoomd0쎯	-8.92933
homym쎯	-8.93221
bhqm쎯	-8.93238
omln0쎯	-8.93282
tn0쎯	-8.93346
janl쎯amyo쎯	-8.93349
쎄쎅	-8.93481
ysoy쎯	-8.93542
bo0쎯	-8.93641
hqgdi쎯rsln1쎯	-8.93666
fhbu0쎯vmnhe쎯	-8.93707
wc0쎯lll쎯fhbu0쎯	-8.93746
dyvo쎯p쎯	-8.93841
fbnd0쎯mks1쎯	-8.94099
so0쎯di0쎯	-8.94134
,yg0쎯mwv쎯	-8.94187
wher0쎯	-8.94217
pysm쎯	-8.94226
iav0쎯	-8.9432
mwsu쎯	-8.94338
aombo쎯	-8.94368
romr0쎯	-8.94419
kiog쎯	-8.9444
hhbo0쎯aphh0쎯	-8.94717
jkmvs쎯	-8.94875
epd0쎯	-8.9494
tjr쎯	-8.94958
mgbhu쎯ohg쎯	-8.95008
쎂쎆	-8.95053
sehho쎯	-8.95067
ylmh0쎯	-8.9512
lu0쎯ytwg쎯	-8.95259
mgok0쎯ks0쎯md쎯	-8.95316
ihmv쎯	-8.95412
j	-8.95594
쎈b쎯	-8.95628
yif0쎯	-8.95739
vmyk0쎯	-8.95837
ppj쎯tc1쎯	-8.95838
hne0쎯	-8.96042
oinr쎯	-8.96094
jdi0쎯	-8.96228
ydl쎯	-8.96368
tc0쎯yth쎯fbrhu쎯	-8.96399
bu0쎯dmmf0쎯	-8.96453
qbnsd쎯	-8.96461
ysopd쎯	-8.96467
tkr0쎯	-8.96476
le0쎯shlb0쎯md쎯	-8.96644
.tmmc0쎯	-8.96666
jtcy0쎯	-8.96753
sjrc0쎯	-8.96769
omg0쎯mgije쎯	-8.96803
yyk쎯hdl0쎯	-8.96846
tq0쎯	-8.96869
adi쎯oip0쎯	-8.96894
adi쎯fbr0쎯	-8.96967
jmmu0쎯omg0쎯	-8.96976
emnr쎯jbtj쎯fhbu0쎯	-8.97013
klnd쎯	-8.97118
dmf쎯	-8.97137
ogg0쎯	-8.97152
ly쎯	-8.97174
lpb쎯	-8.97212
napo쎯	-8.97334
yj0쎯	-8.9736
mcw쎯lmp0쎯	-8.97389
yphn0쎯	-8.9741
yyk쎯ypmm쎯	-8.97442
hnk0쎯dher쎯	-8.97468
hommn0쎯iksi쎯	-8.97796
hqo0쎯	-8.97849
pd0쎯amyo쎯	-8.97871
ivwd쎯aombo쎯	-8.97934
opl쎯	-8.97997
ilw쎯	-8.98015
ik2쎯	-8.9806
,vr쎯	-8.98081
dmmf0쎯	-8.98084
ke0쎯	-8.981
fbrhu쎯rbo0쎯	-8.9818
csh0쎯iksi쎯	-8.98216
qj0쎯jmrw쎯	-8.98265
tbrr쎯toll0쎯	-8.98356
mlm쎯oos쎯jka쎯	-8.98433
tk0쎯md쎯	-8.98448
ym0쎯hapi0쎯	-8.98462
ivipm쎯nmomm쎯	-8.98483
ymmi쎯hommn0쎯	-8.98538
eher쎯	-8.98676
hapi0쎯ivke쎯stv쎯	-8.98733
iobo쎯yth쎯	-8.98754
dhn0쎯tk0쎯	-8.98872
tca0쎯ynib쎯	-8.98877
ejrb쎯lmp0쎯	-8.9896
tmmc0쎯jp쎯	-8.98973
tjks0쎯	-8.99126
yhs쎯omlk쎯	-8.99226
za9쎯(	-8.99268
n	-8.99295
omrl쎯	-8.99298
,lmnii쎯	-8.99316
mgbhu쎯klg0쎯	-8.99378
yri0쎯nsd0쎯	-8.99425
hdnf쎯iksi쎯	-8.9944
ncwj쎯	-8.99528
.opd0쎯	-8.9959
ddni쎯	-8.99594
ime0쎯	-8.99659
aj0쎯	-8.99725
wljbm쎯	-8.99848
kok쎯kmob쎯	-8.99881
mrt0쎯	-8.99951
oik1쎯	-8.99969
mri0쎯	-8.99974
kqlw쎯	-9.00094
m쎯vmnhe쎯	-9.00114
ydi0쎯hdrhg쎯	-9.00137
bgil쎯	-9.00137
pt0쎯vmsu0쎯	-9.00236
ymmi쎯kqomn쎯	-9.00285
쎂쎁	-9.00309
tbmo쎯	-9.004
ibpp쎯prnin쎯	-9.00422
ivhjr쎯	-9.00515
pru쎯lgyhv쎯	-9.00531
fdyt쎯	-9.00636
쎁.	-9.00683
emnr쎯lmp0쎯	-9.00777
qog0쎯yh쎯	-9.00795
ykok0쎯wd0쎯	-9.00835
.yg0쎯mwv쎯	-9.009
nmtq쎯	-9.00917
rudi0쎯	-9.00942
jvd쎯	-9.01097
ifbm쎯	-9.01115
vmpu쎯	-9.01156
ivo쎯ivmym쎯	-9.01321
oiku쎯hjbo쎯	-9.01328
oyhv0쎯	-9.01512
vio0쎯dt0쎯	-9.01534
za9쎯,	-9.0162
ino0쎯m쎯,	-9.01879
qu0쎯	-9.01902
yth쎯hqm쎯	-9.01981
id1쎯	-9.01982
yhs쎯jvd쎯	-9.02272
mpylm쎯ee0쎯	-9.02295
ivhne쎯kb0쎯	-9.02352
o쎯olis쎯	-9.02416
omg0쎯yrnl0쎯	-9.02421
oiku쎯	-9.02616
tbd1쎯	-9.02677
kqno쎯	-9.02761
olis쎯	-9.02761
jjqs쎯	-9.02774
wgfg쎯	-9.02788
yyk쎯m쎯	-9.02802
ivwd쎯	-9.02811
hoyg쎯	-9.02832
hdnsp쎯jmyo쎯	-9.02931
qsje0쎯afhhh쎯	-9.0298
ytt0쎯ylmh0쎯	-9.03
wjr쎯	-9.03037
skno쎯eill쎯	-9.03049
oll쎯vmshr0쎯	-9.03265
ikhhh쎯fvok쎯	-9.03333
jtcg0쎯	-9.03364
oe0쎯	-9.03377
knd0쎯	-9.03463
knd0쎯gp0쎯	-9.03479
oyg쎯	-9.03502
gilr쎯	-9.03582
yck0쎯aphh0쎯	-9.03609
khlmi쎯	-9.03685
grtr0쎯	-9.03706
qkdi쎯	-9.03725
eabt0쎯ite쎯	-9.03764
byuk쎯	-9.03792
jdok0쎯qbbe0쎯,	-9.03887
nlqu쎯	-9.04075
jyk쎯rmij쎯	-9.04089
jbm0쎯	-9.04102
lmbo0쎯ilil쎯	-9.04135
mgok0쎯	-9.04256
mlm쎯bmmc쎯	-9.04306
lmp0쎯yrf0쎯ylb쎯	-9.04519
wmgi쎯jmso쎯vmnhe쎯	-9.04529
atc0쎯mmf0쎯	-9.04531
qllb0쎯bmks0쎯	-9.04566
no1쎯	-9.04566
bhne쎯	-9.04617
pdk쎯ydl쎯	-9.04656
rhml쎯	-9.04694
yrbn1쎯	-9.049
yrbr0쎯ydl쎯	-9.04921
vm	-9.05007
mgbhu쎯oip0쎯op0쎯	-9.05044
o쎯hapi0쎯	-9.05081
gcwa0쎯	-9.05118
oos쎯jmso쎯	-9.05141
hqgdi쎯homym쎯	-9.05297
rrr0쎯hjbo쎯	-9.05384
oyt쎯wljbm쎯	-9.05436
nomrt0쎯	-9.05457
csh0쎯rsln1쎯	-9.05633
hjwg쎯ik2쎯	-9.05652
srtq0쎯ooo0쎯	-9.05715
eff0쎯	-9.05718
mks1쎯	-9.05757
hbu0쎯eir쎯sk0쎯	-9.0576
hey쎯	-9.05764
mthhh쎯napo쎯	-9.05811
bine쎯	-9.05866
ykq0쎯qytv0쎯	-9.05949
lw쎯md쎯	-9.05981
ora0쎯	-9.05982
ivtkr쎯	-9.06004
ph쎯	-9.06032
쎂쎇	-9.06116
qmn0쎯yhgr0쎯	-9.06182
hqgdi쎯mnhjd쎯	-9.06208
obon쎯	-9.06214
ym0쎯eowy쎯ylb쎯	-9.06354
mmm쎯ol1쎯	-9.06392
bm0쎯	-9.06479
hapi0쎯mrmt쎯jckn쎯	-9.06481
hdrhg쎯	-9.06639
jmam0쎯	-9.0664
jip쎯	-9.06811
,oo0쎯	-9.06895
kr0쎯	-9.06938
oryo0쎯ytt0쎯	-9.06955
mk쎯elq쎯	-9.07045
jbvif0쎯	-9.07346
qmvif쎯hjbo쎯	-9.07419
tknl1쎯	-9.07429
mghjd쎯	-9.07507
iav0쎯vnd쎯hapi0쎯	-9.07574
bau쎯	-9.07779
dkmym0쎯	-9.07818
hqgdi쎯yrf1쎯	-9.07843
kqomn쎯uu0쎯	-9.07852
gfno쎯	-9.07869
,ysm쎯	-9.07876
ord0쎯nlomm쎯	-9.07948
qmwyi0쎯	-9.0798
bdu쎯	-9.08339
he0쎯ifm쎯	-9.08572
wdh쎯nlo쎯	-9.08577
pqmb쎯imrhu쎯	-9.08707
ivoj쎯nini0쎯	-9.08745
awle쎯	-9.08798
mgmf0쎯ord0쎯	-9.08805
iksi쎯yg0쎯	-9.08919
vmisb쎯kqrsj쎯	-9.08943
wfqu0쎯	-9.09092
gbhn1쎯	-9.0914
oqni쎯qhdw쎯	-9.0923
otc쎯	-9.09264
grtr1쎯	-9.0933
boae쎯	-9.09372
쎉b쎯	-9.09397
ikhhh쎯	-9.0948
쎁쎀b쎯	-9.09512
nmyg쎯	-9.09522
hbv0쎯rvp쎯	-9.09527
tdt0쎯	-9.0954
iflwl쎯vmnom쎯	-9.09555
ivwb쎯	-9.0962
amyo쎯m쎯jmso쎯	-9.09659
jkmvs쎯ivipm쎯	-9.09737
otniq쎯	-9.09814
yptc0쎯	-9.09928
dyck0쎯wmmu0쎯	-9.09964
kf0쎯	-9.09974
jcor쎯	-9.10009
qkhd0쎯	-9.10054
ooll쎯	-9.10266
ylw쎯	-9.10322
sjrc0쎯mlm쎯	-9.10349
etq0쎯	-9.10384
,mf0쎯	-9.10506
ehjr쎯	-9.10547
ooll쎯dher쎯	-9.10561
쎃쎆	-9.10877
qobhu쎯jmyo쎯	-9.10948
q쎯dhn0쎯	-9.11047
qiks쎯	-9.11051
g쎯gpd쎯	-9.11137
qis쎯	-9.11259
ivtt쎯	-9.11409
ddd0쎯	-9.1142
iksi쎯nn0쎯	-9.11427
쎆b쎯	-9.11524
nlhem0쎯	-9.11621
ejrb쎯lmp0쎯fhbu0쎯	-9.11636
yrbr0쎯l0쎯	-9.11716
tcb0쎯lsa쎯	-9.11722
lssj쎯	-9.11833
atc0쎯	-9.11957
hamg쎯	-9.12107
eij0쎯	-9.12132
wks0쎯,	-9.12249
ysok쎯oh쎯	-9.12309
kb0쎯nlav쎯	-9.12312
mlm쎯hdrhg쎯llmb쎯	-9.12339
etmb쎯ryo0쎯	-9.1237
okr0쎯nir쎯	-9.12447
ff0쎯	-9.12472
hommn0쎯mmok쎯ddi쎯	-9.12526
j쎯csh0쎯	-9.12546
ycbr0쎯rrr0쎯	-9.126
쎃쎀쎀	-9.12616
imdk쎯jmyo쎯	-9.12621
yh쎯ehio쎯	-9.12632
m쎯goru쎯	-9.12809
fk0쎯	-9.12906
jyk쎯nmomm쎯jmig쎯	-9.1296
쎄쎈	-9.13046
oog0쎯	-9.13186
=	-9.13238
bmui쎯	-9.13372
hapi0쎯hjwg쎯mwv쎯	-9.13521
fdbm쎯	-9.1354
stt쎯takb쎯	-9.13556
csh0쎯klb쎯	-9.13574
jyk쎯nlmmf쎯	-9.13593
hnlh0쎯	-9.13693
bbe쎯mgln0쎯	-9.13766
gdhe쎯	-9.13774
op0쎯mlm쎯	-9.13853
omnn0쎯	-9.13999
fbrhu쎯hdv쎯	-9.14029
sjr0쎯rvp쎯	-9.14037
veks쎯ks0쎯	-9.14067
ivo쎯iksi쎯	-9.1415
,jp쎯	-9.14217
dhn0쎯gnsh쎯	-9.14254
fvok쎯fbnd0쎯	-9.14284
vir쎯	-9.14285
qmv쎯mmf0쎯	-9.14482
jjqs쎯wmgi쎯	-9.14565
rvl쎯	-9.14567
teii0쎯	-9.14804
nlheq쎯	-9.14877
za9쎯amyo쎯	-9.1489
eyg0쎯	-9.15051
oop0쎯	-9.15074
kb0쎯ykok0쎯	-9.1508
gcwa0쎯ksr쎯	-9.15205
ejrb쎯jbtj쎯fhbu0쎯	-9.1522
nlgce쎯	-9.15326
,nk0쎯	-9.1533
tc0쎯hdr0쎯wmgi쎯	-9.15395
qtw0쎯yid0쎯	-9.15398
dg0쎯	-9.15401
kmym쎯	-9.15491
vmvfd쎯	-9.15556
mmi쎯jbtj쎯	-9.15567
ysotc쎯	-9.15619
lwu0쎯ks0쎯	-9.15763
ebcd쎯glll쎯	-9.15832
irm쎯jka쎯	-9.15834
fvok쎯jnd0쎯	-9.15896
dje0쎯	-9.15916
orse쎯	-9.15918
bd0쎯	-9.15943
쎁ol1쎯	-9.16066
mbmbl0쎯ije0쎯	-9.16198
khjka쎯	-9.16232
mrdhe쎯	-9.16325
쎅쎀쎀	-9.16336
nlpou쎯	-9.1642
hbu0쎯lw쎯	-9.16477
ubk쎯	-9.16478
yav쎯	-9.16645
dbln쎯	-9.16677
ej0쎯	-9.16693
em0쎯mcw쎯	-9.16731
heks0쎯	-9.16875
ppha쎯	-9.16878
esp0쎯	-9.16883
ivlll쎯vmkvc쎯	-9.16918
hqphh쎯hjbo쎯	-9.16974
dkmym0쎯ol1쎯	-9.16995
opbo0쎯	-9.17101
vmsu0쎯oinp0쎯	-9.17112
.mgbhu쎯ohg쎯	-9.1712
tbks0쎯	-9.17135
o쎯fdk0쎯	-9.17208
쎂쎉	-9.17268
gpd쎯heo쎯	-9.17286
nmme0쎯	-9.17323
gpd쎯mgwg쎯	-9.17373
pr0쎯	-9.17439
km0쎯kr0쎯	-9.17753
fjpu쎯	-9.17769
tbd1쎯tkhk0쎯	-9.17885
tgv쎯	-9.18026
tlbk0쎯yk0쎯	-9.18038
nini0쎯oq0쎯	-9.18133
vtmd쎯odm0쎯	-9.18147
ivbgr쎯dam0쎯	-9.18239
qnsh쎯	-9.18245
ouln0쎯yhgr0쎯	-9.18283
eeq0쎯	-9.18366
qog0쎯	-9.18392
opd0쎯hapi0쎯	-9.18423
qobhu쎯tesu쎯	-9.18428
dhhl쎯	-9.18503
hqm쎯,	-9.18503
bcru1쎯	-9.18562
leg0쎯qgdi쎯	-9.18607
takg쎯	-9.18661
mt0쎯ivke쎯sk0쎯	-9.18685
hdcru1쎯	-9.18738
tm0쎯	-9.18793
ivoj쎯	-9.18804
mwln쎯ids쎯ivsu쎯	-9.18885
wjr쎯jmyo쎯	-9.18912
ouln0쎯nklq쎯	-9.18984
oytr0쎯	-9.19003
fbnd0쎯oyt쎯	-9.19015
df0쎯	-9.19019
ohsb0쎯	-9.19106
hdnin0쎯miks0쎯	-9.19187
srnl0쎯	-9.19254
ms0쎯mmu0쎯	-9.19284
ffh0쎯	-9.19324
yce0쎯op0쎯	-9.19546
oimbo0쎯	-9.19598
ei1쎯	-9.19697
yfd쎯	-9.19729
ids쎯ivsu쎯	-9.19752
ayta쎯	-9.19757
ooo0쎯	-9.19765
,bmmc쎯kb0쎯	-9.19829
grtr0쎯eno0쎯	-9.19924
yh쎯gnsh쎯	-9.20009
ino0쎯hmr0쎯	-9.20022
yh쎯qhdw쎯	-9.20087
vrmk쎯hvd쎯	-9.20099
anau0쎯	-9.20212
arf0쎯	-9.2023
opj1쎯	-9.20266
mgdhe쎯mgyub쎯	-9.20278
ivhne쎯wljbm쎯	-9.20285
gbo쎯	-9.2036
rvp쎯lsa쎯	-9.20591
qme쎯	-9.20666
mrmlk쎯	-9.20689
lp0쎯	-9.20698
icmr쎯	-9.20766
ord0쎯nlytj쎯	-9.20782
lebo쎯	-9.20819
nir쎯hdnf쎯	-9.20851
ynib쎯oymr쎯	-9.20891
mrhwj쎯	-9.20935
oip0쎯mgwg쎯	-9.20936
vmjmf쎯omr0쎯phqm쎯	-9.20936
gytu0쎯	-9.20939
jr쎯oip0쎯	-9.20975
gpd쎯hjbo쎯	-9.21006
ihs0쎯vmqmo쎯	-9.21012
dyhn쎯ilil쎯	-9.2106
nlmrb0쎯	-9.21101
imyrf쎯	-9.21106
ohg쎯heks0쎯	-9.21124
mrmt쎯jckn쎯nljmu쎯	-9.21202
elsg쎯	-9.21272
schne0쎯	-9.21327
vmyiu쎯m쎯	-9.21332
za9쎯.	-9.21333
es쎯	-9.21454
u쎯mcw쎯	-9.21505
fbr0쎯	-9.21531
hqphh쎯eyiu0쎯	-9.21604
hyyhn쎯jcm쎯	-9.21604
ydhml0쎯ngmwm쎯	-9.21716
id0쎯	-9.2178
za9쎯za8쎯	-9.21886
hdbu쎯	-9.21976
yh쎯k0쎯	-9.2198
dyg쎯	-9.22036
nnqo0쎯	-9.22108
쎃쎈	-9.22207
vr쎯omnr쎯	-9.22215
tsl쎯bu0쎯	-9.22341
asje쎯ydhml0쎯	-9.22347
hsyhs0쎯gpd쎯yth쎯	-9.2238
ejjb쎯	-9.22518
nvolb쎯	-9.2253
epru쎯	-9.22537
qmv쎯mgbhu쎯	-9.22575
쎂쎀쎀쎀	-9.22628
wgf0쎯ikp0쎯em0쎯	-9.22645
ora0쎯ibpp쎯	-9.22675
slsl0쎯	-9.22685
lsr0쎯	-9.2269
yrbn0쎯	-9.22759
rm	-9.22938
tcbt쎯	-9.22938
ph쎯hhmbo쎯	-9.22953
qhne0쎯	-9.22953
jcik쎯uu0쎯	-9.2297
wg0쎯,	-9.23013
csh0쎯nd0쎯	-9.23018
jibi쎯hqphh쎯	-9.23159
ehne쎯	-9.2318
ebnd쎯	-9.23213
ha쎯nau0쎯	-9.2322
nlkt쎯mcw쎯	-9.2323
ymf0쎯kb0쎯	-9.23235
mboii0쎯	-9.23389
qpp0쎯imog쎯	-9.23513
goshr쎯ydi0쎯	-9.23545
qhml0쎯	-9.23619
yhj쎯	-9.23695
gtje쎯	-9.23703
ck0쎯	-9.23757
쎂쎀쎀쎆oq0쎯	-9.23991
'	-9.23997
bpuk쎯	-9.24108
쎄b쎯	-9.24253
tlpf0쎯	-9.24343
glnc쎯	-9.24448
lmik쎯kip0쎯	-9.24516
ivhhi쎯	-9.24566
mbdi쎯	-9.24581
tjka0쎯	-9.2466
knib쎯	-9.24673
,bmr0쎯adi쎯	-9.24687
ohg쎯omnr쎯	-9.2469
×	-9.24706
jrmbo쎯	-9.24708
ommi0쎯ivj쎯	-9.24808
iinl0쎯	-9.24866
hlsa쎯	-9.24883
mr	-9.24893
gihs쎯sk0쎯	-9.24894
mig0쎯oin쎯	-9.2496
ymuo쎯	-9.24961
k0쎯ommi0쎯	-9.24986
dgg쎯	-9.25021
hni0쎯	-9.25117
emnr쎯lmp0쎯fhbu0쎯	-9.25117
ymmi쎯bq쎯	-9.25146
ivke쎯klb쎯	-9.25156
,hshml쎯vio0쎯	-9.2533
ci0쎯tc0쎯	-9.25333
쎂쎀쎀쎉oq0쎯	-9.25336
oik1쎯rrikr쎯	-9.25402
mgykg쎯	-9.25525
wk0쎯iksi쎯	-9.25674
mf0쎯bmr0쎯hapi0쎯	-9.25679
lwu0쎯ivhjr쎯	-9.25778
iobo쎯	-9.25811
dt0쎯hbu0쎯	-9.25833
hdyj0쎯qje쎯k	-9.25854
ddd0쎯dd쎯	-9.25895
ichui쎯	-9.2591
vmbm0쎯omr0쎯	-9.25979
k0쎯nc쎯	-9.2601
쎅b쎯	-9.26056
mtch쎯	-9.26093
lmbo0쎯	-9.26267
iobo쎯c쎯	-9.26298
ooo0쎯nini0쎯	-9.26314
ivqmb쎯	-9.26377
tk1쎯	-9.26396
ylm쎯	-9.26465
obmc쎯hvd쎯yrnl0쎯	-9.2665
mrmt쎯jckn쎯ommi0쎯	-9.2682
fbnd0쎯jka쎯	-9.26824
nkhym쎯	-9.26826
nlav쎯ci0쎯smr쎯	-9.2683
ytj0쎯	-9.2683
ob1쎯yrnl0쎯	-9.26963
niy쎯hdyj0쎯	-9.27044
쎃쎄	-9.27057
sok0쎯llmb쎯	-9.27085
쎂쎀쎁쎀oq0쎯	-9.27113
,mgb0쎯	-9.27218
yhgr0쎯	-9.27272
ydl쎯ite쎯	-9.27306
ythu쎯rmher쎯	-9.27308
ogd0쎯ihs0쎯	-9.27342
vio0쎯dt0쎯,	-9.27467
l0쎯yk0쎯	-9.27518
nljmu쎯dyck0쎯	-9.27593
ebon쎯amwg쎯	-9.278
mjln쎯	-9.27832
amyo쎯klg0쎯	-9.27925
jka쎯,	-9.27956
쎂쎀쎀쎈oq0쎯	-9.27998
,pd0쎯	-9.28059
csh0쎯fdk0쎯	-9.28087
bu	-9.28192
twdi0쎯	-9.2824
,pd0쎯amyo쎯	-9.28276
쎁쎉쎉쎆oq0쎯	-9.28435
vmnom쎯tbc0쎯	-9.28484
dosu쎯	-9.28561
,jrok쎯	-9.28585
jtcd쎯	-9.28592
tnlh0쎯	-9.28608
쎁쎉쎉쎇oq0쎯	-9.28616
k0쎯amwg쎯	-9.2864
jaf0쎯	-9.28646
hapi0쎯yg0쎯mwv쎯	-9.2871
ivj쎯hbut0쎯	-9.2872
bkq쎯jlln쎯	-9.28751
mcw쎯jv0쎯	-9.28781
hnlh0쎯wc0쎯	-9.28851
nlnsp쎯	-9.28874
쎁쎉쎉쎄oq0쎯	-9.28931
nn0쎯nbshq쎯	-9.28963
qjv쎯arf0쎯	-9.28996
dkmym0쎯odm0쎯	-9.29
ebon쎯ivipm쎯	-9.29022
qlr쎯fbnd0쎯	-9.29034
sje0쎯hoami쎯	-9.2905
inkg쎯	-9.29213
,vio0쎯nhe쎯	-9.29268
ebbb0쎯	-9.29292
yrnl0쎯nlo쎯	-9.29348
bbm0쎯	-9.29354
yk0쎯tn0쎯	-9.29577
ymmi쎯miks0쎯rbo0쎯	-9.29585
a1쎯	-9.29586
nsd0쎯	-9.29629
hdrc쎯	-9.29667
pp0쎯jtco0쎯	-9.29673
ord0쎯qgdi쎯	-9.29684
eatc쎯	-9.29744
쎇쎅	-9.29846
ykok0쎯	-9.29848
qamo쎯ht0쎯	-9.29867
kb0쎯dhn0쎯	-9.29887
kd0쎯jbtj쎯	-9.29897
ob1쎯tbmo쎯jr쎯	-9.29982
omjr쎯	-9.30037
쎃쎇	-9.3011
vhqm쎯	-9.30129
hru0쎯	-9.30315
,ldhe쎯	-9.30338
qjcm쎯	-9.30424
yg0쎯hjrr쎯	-9.3054
qamo쎯uu0쎯	-9.30542
hapi0쎯qni0쎯tc1쎯	-9.30711
bkln0쎯	-9.30727
tjka0쎯nir쎯hapi0쎯	-9.30746
mcw쎯yrnl0쎯	-9.30754
ihs0쎯janl쎯	-9.30806
mvdh쎯	-9.30823
dam0쎯	-9.30937
hhdi쎯	-9.3097
fhs쎯	-9.31003
ehgu쎯	-9.31056
nnmbo0쎯	-9.31085
쎁쎉쎉쎈oq0쎯	-9.31095
vlok쎯tims쎯	-9.31109
lgyhv쎯hew쎯	-9.31117
mhaf0쎯fdyj쎯	-9.31166
ob1쎯klnd쎯	-9.31282
eykl0쎯	-9.31307
ivik쎯	-9.31315
쎂쎀쎀쎀oq0쎯	-9.3135
,bq쎯	-9.31371
raa쎯	-9.31372
ydi0쎯hdrhg쎯l0쎯	-9.31442
bmi쎯gihs쎯	-9.31477
nhs쎯	-9.31579
sjtk쎯hvif쎯	-9.31663
oprob쎯	-9.31695
쎆쎀쎀	-9.31786
mfj0쎯gpim쎯	-9.31883
mgi1쎯ks0쎯	-9.31911
ayrf0쎯ebhu0쎯	-9.31933
tykq쎯	-9.31958
tcg0쎯c쎯	-9.32062
쎂쎀쎀쎇oq0쎯	-9.32109
jknd0쎯	-9.32189
hdlp쎯	-9.32198
nlodi쎯	-9.32228
yhrr0쎯ije0쎯	-9.32257
ivjnk쎯jka쎯	-9.32302
aisl쎯mnr쎯	-9.32388
domm0쎯dam0쎯	-9.32402
qje쎯ibpp쎯	-9.32459
kd0쎯yhs쎯	-9.32479
ivke쎯stv쎯hapi0쎯	-9.32686
lgyhv쎯wljbm쎯	-9.32728
쎆쎄	-9.32794
lwu0쎯epd0쎯	-9.32823
ebon쎯	-9.32865
iftq쎯	-9.32892
eill쎯	-9.32896
honom쎯	-9.32989
yrbr0쎯dyck0쎯	-9.32992
odg0쎯	-9.32998
쎁쎉쎉쎅oq0쎯	-9.33003
smig쎯	-9.33031
쎂쎀쎀쎅oq0쎯	-9.3307
bsle0쎯lgyhv쎯	-9.33099
mrmt쎯hbln0쎯	-9.332
ytap쎯k0쎯hdln0쎯	-9.33259
mbrmr쎯	-9.33356
stt쎯	-9.33373
ydnl0쎯	-9.33467
u쎯sk0쎯	-9.3347
jcmvh쎯	-9.33476
nmyiu0쎯	-9.33603
쎁쎉쎉쎃oq0쎯	-9.33604
nini0쎯ol1쎯	-9.33611
ofp0쎯	-9.33842
nnqo0쎯qam쎯	-9.33905
vmvfd쎯vmjnk쎯	-9.34063
<	-9.34063
crno0쎯	-9.34101
rc0쎯kb0쎯	-9.34175
eyiu0쎯hommn0쎯	-9.3419
ovio쎯	-9.3423
hghu쎯ytt0쎯hapi0쎯	-9.34245
ydhml0쎯mng0쎯	-9.34278
qsle쎯hgr0쎯	-9.34282
mhaf0쎯mgwg쎯	-9.34298
mf0쎯mnr쎯	-9.34355
hdnd0쎯	-9.34379
,hmr0쎯	-9.34405
2쎯	-9.34463
qmv쎯ejmc0쎯	-9.34472
fbrq쎯	-9.34531
ophab쎯	-9.34544
ebhn쎯	-9.34607
amyo쎯l0쎯wmgi쎯	-9.34617
vmog쎯qis쎯	-9.34617
qkq쎯	-9.34716
nmp0쎯	-9.34738
yhjr쎯omr0쎯	-9.34773
ejmc0쎯	-9.34889
gytu0쎯ob1쎯	-9.34929
wdh쎯odm0쎯	-9.3496
.fbnd0쎯dyck0쎯	-9.34992
ord0쎯ivmym쎯	-9.35239
ddi쎯rvp쎯	-9.35255
rudi0쎯ejmc0쎯	-9.35377
ord0쎯onkq쎯	-9.35414
ksc쎯ci0쎯	-9.35451
ejmc0쎯uu0쎯	-9.3555
ivsu쎯nmme0쎯	-9.35583
ivbgr쎯dkmym0쎯	-9.35677
tw0쎯	-9.35685
,l0쎯wmgi쎯	-9.35698
hogdi쎯	-9.35719
uu0쎯r쎯	-9.35738
mlm쎯ycbr0쎯	-9.35778
od쎯lsd쎯	-9.3578
qha0쎯qsje0쎯	-9.35844
boyr0쎯	-9.3594
twa쎯	-9.3605
lwu0쎯ifbhu쎯ir0쎯	-9.36151
ksc쎯fbnd0쎯	-9.36225
hdrhg쎯ite쎯	-9.36243
nmnim쎯	-9.36249
v쎯phqm쎯	-9.36289
domm0쎯nmomm쎯	-9.36294
p쎯mgwg쎯	-9.3635
쎁쎉쎉쎂oq0쎯	-9.36466
fsm0쎯gpd쎯	-9.36542
);	-9.36545
쎃쎃	-9.36553
tmd0쎯	-9.3656
ivff쎯	-9.36608
vmyiu쎯ivj쎯	-9.36608
qsjr쎯	-9.36742
bhne쎯ocsh쎯k	-9.3676
nc쎯sk0쎯	-9.36795
efb0쎯lnbo쎯jka쎯	-9.36827
hqmqj쎯	-9.36956
qni0쎯hdln0쎯	-9.37023
on1쎯	-9.37036
sok0쎯tvmi2쎯	-9.37071
wqs쎯	-9.37183
toll0쎯mnjbm0쎯	-9.37188
쎁쎂b쎯	-9.37211
쎆쎅	-9.37219
jyk쎯bq쎯	-9.37314
imnsd쎯	-9.37361
hdnf쎯rmvs쎯	-9.37377
mm0쎯vmnhe쎯	-9.37458
tc0쎯kb0쎯	-9.37485
hhk쎯	-9.37502
hqm쎯po0쎯	-9.37563
daiu쎯oinp0쎯	-9.3757
hjwg쎯k0쎯	-9.37578
vmisb쎯bysm쎯	-9.37609
hvhui쎯	-9.37639
w	-9.37651
bl쎯khhw쎯	-9.37728
hrtm0쎯	-9.37782
쎂쎀쎀쎄oq0쎯	-9.37862
ddnyo쎯	-9.37935
kqomn쎯oh쎯	-9.38049
nau0쎯bdhhh0쎯	-9.3807
l0쎯wmgi쎯o쎯rvp쎯	-9.3807
ecr쎯	-9.38108
nc쎯adi쎯	-9.38109
nbo쎯	-9.38164
mk쎯bkf0쎯	-9.38238
oymr쎯rmvs쎯	-9.3833
m쎯oq0쎯	-9.38408
hdb0쎯iln0쎯	-9.3842
yvi0쎯	-9.3842
yhjr쎯bq쎯md쎯	-9.38431
쎅쎅	-9.38451
ymf0쎯amyo쎯	-9.38531
uuhn쎯	-9.38634
asje쎯ogg0쎯	-9.38681
ivmfj쎯	-9.38745
rpym쎯	-9.38761
goy쎯	-9.38797
쎁쎁b쎯	-9.38828
mrmlk쎯hybt0쎯	-9.38879
vir쎯vmhey쎯	-9.38913
qni0쎯lis쎯	-9.38932
vir쎯nklq쎯md쎯	-9.38992
bsle0쎯heks0쎯.	-9.3901
jki쎯	-9.39044
mf0쎯amyo쎯	-9.39074
dbu쎯edi0쎯	-9.39146
dtq쎯	-9.39158
nir쎯.	-9.39186
nk0쎯hdnf쎯	-9.39407
nlo쎯omdm0쎯	-9.39439
mgoin0쎯	-9.39448
ynib쎯fbrlb쎯	-9.39449
ihs0쎯po0쎯	-9.39458
qni0쎯hdyj0쎯	-9.3947
j쎯mm0쎯	-9.39488
hapi0쎯o쎯	-9.39488
hyyhn쎯	-9.39515
kb0쎯tqbu쎯	-9.39655
.jp쎯	-9.39679
tjka0쎯oos쎯	-9.39722
her0쎯gpd쎯	-9.39742
em0쎯mcw쎯fhbu0쎯	-9.39751
hhmbo쎯	-9.39824
쎈쎀쎀	-9.39919
onmk0쎯	-9.39952
hbln0쎯jmyo쎯	-9.39987
ss0쎯	-9.40001
oimbo0쎯hghu쎯	-9.40086
jbtj쎯yrnl0쎯	-9.40108
jnyk쎯	-9.40131
qnbk1쎯	-9.40137
jd0쎯dt0쎯	-9.40144
za1쎯	-9.40147
mbo1쎯jbik0쎯	-9.40186
dtak쎯	-9.4019
bnsh쎯	-9.40232
ks0쎯amwg쎯	-9.40262
쎂쎀쎀쎃oq0쎯	-9.40283
mcp0쎯	-9.40284
쎂ol1쎯	-9.40323
hapi0쎯adi쎯olnk0쎯	-9.4035
mk쎯my쎯	-9.40418
mmi쎯jbtj쎯fhbu0쎯	-9.40493
ggcw쎯	-9.40565
yrnd쎯bbe쎯	-9.40579
yihu0쎯csh0쎯	-9.40626
eowy쎯qike쎯	-9.40698
fpru쎯	-9.40711
huwml쎯	-9.40716
yapim쎯	-9.40729
쎃-	-9.40736
hbln0쎯rrr0쎯	-9.40818
jlln쎯ohq쎯	-9.41004
za8쎯l0쎯wmgi쎯	-9.41041
mmf0쎯tesu쎯	-9.41081
viks0쎯lu0쎯wmmu0쎯	-9.4114
cwmr쎯	-9.41149
hnk0쎯ayrf0쎯	-9.41151
oiku쎯qiks쎯	-9.41196
mvnm0쎯sjtk쎯bkk쎯	-9.41261
wgf0쎯nau0쎯	-9.41374
qdtt쎯gpd쎯	-9.41384
mnyhv0쎯	-9.41448
tnom쎯	-9.41486
mnr쎯ibpp쎯	-9.41505
ilil쎯ylb쎯	-9.41507
jiwtc쎯	-9.41564
hgdi쎯yhs쎯mwsl쎯	-9.41606
yrbr0쎯ite쎯	-9.41627
u쎯mcw쎯fhbu0쎯	-9.4166
irp0쎯end0쎯	-9.41669
,mnr쎯vio0쎯	-9.41678
skno쎯	-9.41699
qmmv쎯	-9.4176
afhhh쎯ifbhu쎯	-9.41765
ytt0쎯hommn0쎯nn0쎯	-9.41817
mgmmu쎯	-9.4184
nklq쎯ihs0쎯	-9.42072
kklb0쎯	-9.42086
bodh쎯heks0쎯	-9.42129
hbut0쎯	-9.42149
eeed0쎯	-9.42246
hrok1쎯	-9.42258
vio0쎯my쎯	-9.42341
za14쎯za13쎯	-9.42367
dlmo0쎯	-9.42402
ouln0쎯tc1쎯	-9.4244
sjrc0쎯hdnf쎯	-9.42489
bmmc쎯odm0쎯	-9.42517
whey0쎯ids쎯	-9.42529
ls	-9.42565
ivihs쎯	-9.4257
vmhj쎯vmog쎯	-9.42572
qytv0쎯bbe쎯	-9.42581
jyk쎯ks0쎯	-9.42582
쎄쎀쎀	-9.42642
ieok0쎯	-9.42669
nlodi쎯yhml쎯	-9.42707
kklb0쎯ybhg0쎯	-9.42723
ksr쎯nrli쎯	-9.42729
tvmi2쎯hqphh쎯	-9.42741
efb0쎯	-9.42769
ymmi쎯tbrr쎯	-9.42777
ftmd쎯	-9.42857
tesu쎯	-9.42892
hqm쎯omrl쎯	-9.42899
hgrly쎯	-9.43003
edi0쎯napo쎯	-9.43013
yhrr0쎯	-9.43097
klnd쎯oiva쎯	-9.43201
ebcd쎯glll쎯ylb쎯	-9.43207
llp쎯jka쎯	-9.43209
ddh쎯	-9.43343
쎄쎂	-9.43348
uu0쎯hqm쎯	-9.4335
onhs쎯	-9.43404
hlsa쎯cwj0쎯	-9.4343
-쎁	-9.43495
bmwv쎯	-9.43628
aimvu쎯	-9.43666
qshr쎯	-9.4368
nahu쎯lnbo쎯	-9.43705
쎂.	-9.43772
mt0쎯ysok쎯	-9.43867
쎁쎀쎀쎀	-9.43938
ivmfj쎯ooll쎯	-9.43974
eijb쎯	-9.4408
mwhoe쎯tgbt쎯	-9.44197
쎁b쎯	-9.44205
nl0쎯ytt0쎯	-9.4424
hdfb0쎯	-9.44251
hoav0쎯nini0쎯	-9.44266
jksc쎯ivbgr쎯	-9.44306
smsim쎯	-9.44319
ino0쎯lsa쎯hapi0쎯	-9.4443
qobhu쎯dher쎯	-9.44507
dher쎯ipm0쎯	-9.44656
ommi0쎯rbo0쎯,	-9.44705
ttmvn쎯	-9.44724
mrtvi0쎯	-9.44752
rr0쎯	-9.44786
m쎯psh0쎯	-9.44794
vmog쎯olhh0쎯	-9.44795
쎁쎉쎉쎉oq0쎯	-9.44809
쎂b쎯	-9.44849
smwtc0쎯	-9.44876
opyhv0쎯	-9.44943
ejmc0쎯rbo0쎯	-9.44962
jher쎯hsyhs0쎯	-9.44989
crp0쎯vmnom쎯mgwg쎯	-9.45202
nloll쎯hjhne쎯	-9.45242
iksi쎯za2쎯	-9.4532
eowy쎯etq0쎯	-9.45337
ys0쎯	-9.45448
yhjr쎯amwg쎯	-9.45479
m쎯hed0쎯	-9.45497
vmoo쎯	-9.45548
oik0쎯	-9.456
hxh쎯odm0쎯	-9.45604
yk0쎯jnd0쎯	-9.45623
ee0쎯ysook0쎯	-9.45708
yg0쎯vmisb쎯	-9.45747
쎃쎁	-9.45754
pmam0쎯	-9.45761
쎃쎉	-9.45826
wjbo쎯hopsh쎯	-9.45833
mumbo0쎯lsr0쎯	-9.45872
qamo쎯otc쎯nn0쎯	-9.45898
lmp0쎯yrnl0쎯	-9.45902
eawe쎯muw쎯	-9.45936
mylm쎯fbrlb쎯	-9.45942
oylm0쎯tc1쎯.	-9.45979
쎃b쎯	-9.45996
,wk0쎯ymp0쎯	-9.46116
qhne0쎯oh쎯	-9.4635
ynj0쎯ydl쎯	-9.46359
fbrq쎯qsmg0쎯	-9.46463
ysohv쎯	-9.46477
hdr0쎯ivppa쎯	-9.46541
rjto0쎯	-9.4663
mrmt쎯	-9.46642
gpd쎯mgije쎯	-9.46733
onkq쎯	-9.46774
kqjqr쎯	-9.46891
dhe0쎯bqo쎯	-9.46994
mok0쎯	-9.47021
ikhhh쎯jkmvs쎯	-9.47078
tksc쎯ilil쎯	-9.47088
,ihs0쎯iksi쎯	-9.47264
mtc0쎯eill쎯	-9.47276
stv쎯mmf0쎯	-9.47277
,wk0쎯	-9.47313
edi0쎯md쎯	-9.47393
nlkt쎯mcw쎯fhbu0쎯	-9.47421
쎄쎃	-9.47453
fsm0쎯adi쎯	-9.47491
omg0쎯ddi쎯	-9.47509
ykok0쎯tcbt쎯	-9.47539
qni0쎯bq쎯	-9.47578
ohqi쎯wlni쎯tchml쎯	-9.47582
ebcd쎯oh쎯	-9.47586
yrbo0쎯	-9.47603
yhmbo1쎯nau0쎯	-9.4761
mgnvm쎯	-9.4761
쎄-	-9.47696
쎅-	-9.47717
쎄쎄	-9.47735
jksc쎯	-9.47808
ihs0쎯dm0쎯	-9.47837
mlwk쎯ksr쎯	-9.47839
omg0쎯bmi쎯	-9.47842
yk0쎯ytaj0쎯	-9.4785
vwyi쎯	-9.47902
iveq쎯	-9.4791
fdqmb쎯rrr0쎯	-9.48012
k0쎯ythu쎯	-9.48014
gpd쎯mbmmv쎯	-9.48038
hui0쎯	-9.48184
hup0쎯	-9.48243
tmmv0쎯	-9.48271
gpd쎯my쎯	-9.48459
n쎯	-9.48468
imihr0쎯	-9.48476
za11쎯	-9.48493
ksc쎯jlln쎯heo쎯	-9.4856
fcq0쎯hommn0쎯	-9.48604
sjr0쎯oyg쎯	-9.48609
tbg0쎯fdyj쎯	-9.48653
za12쎯	-9.4866
쎉쎈	-9.48705
,yyk쎯	-9.48717
mrfh쎯	-9.48833
쎂쎀쎀쎁oq0쎯	-9.48842
odyj쎯	-9.48865
trok0쎯	-9.4902
om0쎯	-9.49031
hwsmm쎯	-9.49068
쎃ol1쎯	-9.49085
hdv쎯rbo0쎯,	-9.49126
hjwg쎯ik2쎯ylb쎯	-9.49143
kd0쎯mcw쎯	-9.49161
tkymr쎯	-9.4917
sim쎯	-9.49213
pyrf쎯	-9.49224
ujmf0쎯	-9.49246
elq쎯	-9.4928
bmj쎯	-9.49328
opykq쎯	-9.49349
hqda0쎯	-9.4938
ylmo1쎯	-9.49474
wb0쎯	-9.49493
fbrlb쎯bhu0쎯	-9.49504
ogd0쎯odm0쎯	-9.49515
whey0쎯llml쎯	-9.49617
stv쎯libhu0쎯	-9.49745
ajpu쎯	-9.49777
hdi0쎯	-9.49803
,rmss쎯	-9.4985
qgg0쎯	-9.4986
ivgdi쎯o쎯	-9.49909
ydhml0쎯hapi0쎯	-9.49942
opijb쎯	-9.50027
bb0쎯ke0쎯	-9.50038
mnij쎯	-9.50048
lscru쎯ivjnk쎯	-9.50049
jdok0쎯yib쎯yrnl0쎯	-9.50053
phqm쎯hapi0쎯	-9.50071
icq0쎯	-9.50091
miks0쎯muw쎯	-9.50174
vmm0쎯nau0쎯	-9.50244
my쎯,	-9.50332
:쎁	-9.50346
hshml쎯shlb0쎯	-9.50369
ylmo1쎯gylm쎯	-9.50371
hpsl0쎯ite쎯	-9.50394
i0쎯	-9.50503
yta0쎯yhmbo0쎯	-9.50618
yg0쎯itlb쎯	-9.50656
hdnin0쎯	-9.5077
qbcd쎯	-9.50849
rnhe0쎯	-9.50858
ixp쎯	-9.50919
nyk쎯	-9.50963
hew쎯	-9.51058
ouln0쎯nklq쎯md쎯	-9.51067
nir쎯hdnf쎯:	-9.51147
omg0쎯ylb쎯	-9.51179
mmm쎯oq0쎯	-9.51216
ivhne쎯yt0쎯	-9.51285
levif쎯	-9.51371
ysono0쎯	-9.51381
,mbll쎯bm0쎯	-9.51438
k0쎯jtco0쎯	-9.51459
iib0쎯	-9.51511
,pru쎯qhjr쎯	-9.51523
oyrn쎯	-9.51561
md쎯m쎯odm0쎯hapi0쎯	-9.51567
쎁쎉쎉쎀oq0쎯	-9.51567
oinr쎯amwg쎯	-9.5161
(oin쎯	-9.51671
tbc0쎯	-9.51739
klg0쎯l0쎯wmgi쎯	-9.51877
hvio0쎯	-9.52002
qbbe0쎯	-9.52034
jmd쎯	-9.52042
.za2쎯	-9.52191
fvok쎯amwg쎯	-9.52199
ibpp쎯emhf0쎯	-9.52217
nahu쎯	-9.52232
tyhs쎯	-9.52329
fbrhu쎯vmbm0쎯	-9.52397
쎄쎆	-9.52402
mrnr쎯	-9.52453
mgmmu쎯jmso쎯	-9.525
top0쎯wmmu0쎯	-9.52519
jmmu0쎯dkmym0쎯	-9.52628
(),	-9.52696
tk0쎯eyg0쎯	-9.52711
쎂쎀쎀쎂oq0쎯	-9.52731
hbu0쎯miks0쎯op0쎯	-9.5274
hogyo쎯	-9.52742
ytt0쎯m쎯ylmh0쎯	-9.52876
mlwk쎯nini0쎯	-9.52906
ivmfj쎯iksi쎯	-9.5298
.ymp0쎯	-9.53022
ogd0쎯l0쎯	-9.53028
yk0쎯hqphh쎯	-9.53126
suok0쎯yce0쎯	-9.53195
쎄ol1쎯	-9.53203
ivohh쎯vdhml쎯	-9.53264
wlpym쎯	-9.53322
kt0쎯	-9.53323
mblmi0쎯	-9.53323
tgk쎯jcor쎯	-9.53342
hqgdi쎯phqm쎯	-9.53354
hjwg쎯mwv쎯hapi0쎯	-9.5336
jbmc0쎯mylm쎯	-9.53372
nbshq쎯ysok쎯bkq쎯	-9.53403
mr0쎯elw쎯	-9.53529
tcb0쎯mjln쎯	-9.53572
oj0쎯hi0쎯	-9.53682
tbd1쎯fcymr쎯	-9.53718
omu0쎯	-9.53807
vmkvc쎯	-9.53808
l0쎯opj0쎯o쎯rvp쎯	-9.53874
gmmi쎯	-9.53917
mgbhu쎯napo쎯	-9.54032
쎅쎂	-9.54184
yhgr0쎯mng0쎯	-9.54216
hbu0쎯bkf0쎯ddi쎯	-9.54235
eite쎯	-9.54247
m쎯jmyo쎯	-9.54266
klnd쎯klg0쎯	-9.54267
bgr0쎯yks쎯	-9.54276
inin0쎯	-9.5442
ivihs쎯oymr쎯	-9.54431
hdjip쎯	-9.54505
yeoiv0쎯	-9.54553
dkd쎯	-9.54602
nnmbo0쎯nlyhs쎯	-9.5461
vmgr쎯wd0쎯	-9.54617
hpsl0쎯sbln0쎯	-9.54654
lsher쎯	-9.54664
gpim쎯pim쎯	-9.54807
mf0쎯oe0쎯	-9.54829
rog0쎯m쎯	-9.54974
mrqni쎯	-9.55003
iive쎯	-9.55008
joma쎯	-9.55012
pd0쎯kb0쎯	-9.55055
brog0쎯	-9.55124
mylm쎯klg0쎯	-9.55149
kb0쎯nlav쎯qmbo0쎯	-9.55168
mwln쎯ssr쎯po0쎯	-9.5518
i쎯	-9.55264
v쎯nd0쎯	-9.55276
hgdi쎯gpd쎯	-9.55377
,cwa0쎯	-9.55447
tniu쎯	-9.55456
ybyhs쎯	-9.55497
yhmbo0쎯yioj0쎯	-9.55534
c	-9.55556
ymso0쎯ekql쎯	-9.55563
ylb쎯mmok쎯iodi쎯	-9.55564
qjnl0쎯	-9.55615
ivtca쎯	-9.55621
tjgg쎯	-9.55628
janl쎯kb0쎯	-9.55632
쎁.쎅	-9.55711
tpkp쎯	-9.55715
ynn0쎯jmn쎯fhbu0쎯	-9.55716
쎁쎉쎈쎈oq0쎯	-9.55723
oll쎯vmshr0쎯nn0쎯	-9.55731
bgr0쎯wqs쎯	-9.55755
tmks0쎯	-9.55822
q쎯id1쎯	-9.55853
peg쎯	-9.55875
mwmmf0쎯	-9.55956
yhds쎯	-9.55974
fbbhu쎯	-9.55988
bmks0쎯	-9.56004
jbmm0쎯honom쎯	-9.56057
asje쎯hmr0쎯	-9.56082
eyg0쎯ytap쎯	-9.56087
yg0쎯aombo쎯	-9.56087
qhdw쎯	-9.56211
vmbm0쎯nklq쎯	-9.56219
,qbq쎯kb0쎯	-9.56223
o쎯hqm쎯	-9.56223
ym0쎯,	-9.56266
omr0쎯mgwg쎯	-9.56293
hooml쎯	-9.56312
.lw쎯md쎯	-9.56401
oprr쎯	-9.56467
viks0쎯	-9.56508
쎅쎈	-9.56509
mbmbl0쎯	-9.56514
jlwl0쎯	-9.56527
ddi쎯oyt쎯md쎯	-9.5657
pumbo쎯	-9.56595
yhgr0쎯ihs0쎯	-9.56598
hapi0쎯mks1쎯lk쎯	-9.56628
eapp0쎯omr0쎯	-9.56653
ivbgr쎯tsl쎯	-9.56664
qu1쎯	-9.56697
,mgbhu쎯	-9.56699
wmmu0쎯dd쎯	-9.56709
bjb쎯	-9.56715
ohg쎯ci0쎯smr쎯	-9.56749
m쎯dtq쎯	-9.56767
qni0쎯tc1쎯hapi0쎯	-9.56779
ivrc쎯	-9.5678
hrytj0쎯	-9.56781
mgwg쎯oinp0쎯,	-9.56849
tybb0쎯	-9.56865
khiku쎯	-9.56912
whey0쎯ids쎯nvjrr쎯	-9.56947
dhab쎯	-9.56955
elbu쎯	-9.57037
mgwg쎯jlln쎯	-9.57188
mrnbg쎯jmyo쎯	-9.57207
qbcd쎯jbvif0쎯	-9.57214
jmyo쎯oyt쎯	-9.5722
tosu0쎯	-9.57269
omr0쎯tt1쎯	-9.5729
nklq쎯yt0쎯nn0쎯	-9.57293
,yck0쎯ynib쎯	-9.573
opaph쎯	-9.57301
,ynib쎯ydi0쎯	-9.57311
qmb쎯pysu쎯	-9.57334
pkf0쎯oahe쎯	-9.57382
k0쎯jmso쎯	-9.57382
,mgbhu쎯ohg쎯	-9.57409
eapp0쎯	-9.57423
iobo쎯dher쎯	-9.5746
vmisb쎯hbln0쎯	-9.57504
dmj쎯	-9.57517
ouln0쎯ksc쎯	-9.57557
mrno0쎯q쎯	-9.57642
mbo0쎯	-9.57671
jcoju쎯	-9.57707
vnd쎯hapi0쎯	-9.57711
쎄쎇	-9.57727
dkmym0쎯omr0쎯	-9.57754
gcglc쎯	-9.57768
nhd쎯	-9.57852
miks0쎯ks0쎯	-9.57871
tnef쎯	-9.5789
l0쎯yrnl0쎯	-9.57911
hdv쎯rbo0쎯i1쎯	-9.57942
iksi쎯yg0쎯,	-9.57954
o쎯jm0쎯	-9.58098
imog쎯	-9.58191
suok0쎯tgtr쎯	-9.582
otniq쎯rmbhx쎯	-9.58224
mthhh쎯kip0쎯	-9.58233
,ivyvo쎯	-9.58247
limy쎯	-9.5828
qha0쎯	-9.58284
wmgi쎯niy쎯	-9.58294
nlheq쎯ohpm쎯	-9.5831
ivke쎯qbkq쎯	-9.58383
ocsh쎯	-9.5843
dha쎯	-9.58476
쎁쎅쎀	-9.58527
muw쎯jmso쎯	-9.58538
ob1쎯wljbm쎯	-9.58582
ywlb쎯	-9.58693
lic0쎯jmyo쎯	-9.5872
oinp0쎯	-9.58792
,boln0쎯	-9.58844
hqok0쎯	-9.58876
-쎂	-9.58882
qhdw쎯ysok쎯	-9.58897
i1쎯l0쎯wmgi쎯	-9.58904
jkp0쎯llmb쎯	-9.5896
oqni쎯kqomn쎯	-9.58984
mmok쎯jksc쎯	-9.59028
쎁쎉쎈쎅oq0쎯	-9.59116
쎁-	-9.59136
bmi쎯hdv쎯	-9.59179
lsoi쎯	-9.59194
ota쎯	-9.5926
cwa0쎯ohg쎯	-9.59284
tnmu쎯tbd0쎯	-9.59308
쎅쎆	-9.59314
hsb0쎯	-9.59339
lijp쎯	-9.59372
tlbk0쎯di0쎯	-9.59407
rnhe0쎯vlok쎯	-9.59509
yrbr0쎯ykok0쎯	-9.5955
ogpym쎯	-9.59565
,owyi0쎯	-9.5958
ei1쎯srln0쎯	-9.59585
tbof0쎯	-9.5962
hapi0쎯tcg0쎯dm0쎯	-9.59642
hsr1쎯	-9.59692
kqlw쎯nnqo0쎯	-9.59705
bodh쎯mmok쎯	-9.59728
mamr쎯	-9.59751
tc0쎯fbrhu쎯rbo0쎯,	-9.59791
qpa0쎯qbkq쎯	-9.59809
ayrf0쎯sk0쎯	-9.59829
hwsmm쎯iveq쎯	-9.59868
qni0쎯kqrsj쎯	-9.59873
goru쎯dt0쎯	-9.59917
yib쎯	-9.59917
nir쎯,	-9.5995
csh0쎯opl쎯	-9.60043
buvml0쎯	-9.60074
mmf0쎯	-9.60097
ynib쎯ivnj쎯	-9.60137
ivhne쎯ivj쎯i1쎯	-9.60162
dhn0쎯i1쎯	-9.60172
nl0쎯goru쎯	-9.60182
rmav쎯	-9.602
k0쎯llmb쎯	-9.60205
mhaf0쎯boln0쎯	-9.60259
쎇b쎯	-9.60374
nbshq쎯hdeq쎯	-9.60402
vio0쎯za2쎯	-9.60424
jlln쎯heks0쎯	-9.60442
imihr0쎯fh쎯	-9.60449
mgi0쎯fd0쎯	-9.6045
efb0쎯lnbo쎯	-9.6047
쎁쎉쎈쎄oq0쎯	-9.60476
omr0쎯ihs0쎯	-9.60478
qs쎯	-9.60553
cwa0쎯vmnom쎯	-9.60607
dok0쎯	-9.60631
rvp쎯wmgi쎯	-9.60718
leb쎯	-9.60761
ogf0쎯	-9.60787
bkq쎯sk0쎯	-9.60814
hdr0쎯ifg쎯ommi0쎯	-9.6086
omg0쎯ydhml0쎯	-9.60915
sok0쎯hdyj0쎯	-9.60918
jcm쎯omn1쎯	-9.60941
hjrr쎯mgwg쎯ssr쎯	-9.60947
hodi쎯omr0쎯	-9.60965
qje쎯id1쎯o쎯rbo0쎯	-9.60976
쎁쎉쎈쎆oq0쎯	-9.6103
jid0쎯gytr쎯	-9.61057
amyo쎯vio0쎯	-9.61063
edbu쎯	-9.61112
e쎯hdln0쎯	-9.61239
eylh0쎯nhe쎯	-9.61255
owyi0쎯oq0쎯	-9.61379
vr쎯wd0쎯	-9.61417
miks0쎯kip0쎯	-9.6151
eomd0쎯	-9.61514
쎁쎉쎉쎁oq0쎯	-9.61571
adi쎯lsa쎯:	-9.61577
yhjr쎯bq쎯	-9.61597
쎁쎉쎈쎉oq0쎯	-9.61738
mku쎯egi쎯	-9.61791
mryoj쎯	-9.61812
dyck0쎯po0쎯	-9.61837
쎁쎉쎈쎇oq0쎯	-9.61899
qbbe0쎯ninn쎯	-9.61988
po0쎯em0쎯	-9.62007
nu0쎯	-9.62073
atc0쎯tjka0쎯	-9.62126
jomc쎯	-9.62233
qmbo0쎯ohg쎯	-9.62253
nbshq쎯ysok쎯	-9.62294
nlpou쎯iomvn쎯	-9.6234
mmu0쎯qmvif쎯	-9.62342
nk0쎯nir쎯	-9.62365
mt0쎯qmr쎯	-9.62444
ytwg쎯	-9.62485
nolmi0쎯	-9.62523
,bkf0쎯hmr0쎯	-9.62541
smdi쎯	-9.62574
쎃oq0쎯	-9.62575
ornin쎯yhjr쎯	-9.62641
,oo0쎯mbll쎯	-9.62672
za0쎯	-9.6271
pu0쎯	-9.6275
ehbv쎯	-9.62779
mfp0쎯	-9.62837
mrmt쎯jckn쎯l0쎯p쎯	-9.62886
ndyvo쎯nd0쎯	-9.62922
,ohg쎯	-9.6293
,ivym쎯	-9.62974
o쎯odm0쎯	-9.63068
qog0쎯ytt0쎯	-9.63114
yrbr0쎯hdyj0쎯qje쎯	-9.63192
lgyhv쎯olhh0쎯	-9.63223
nolmi0쎯ha쎯	-9.63245
rypb0쎯	-9.63247
lbha쎯	-9.6327
ashr쎯	-9.63276
dbu쎯mvnm0쎯	-9.63296
vmbk0쎯	-9.6331
fbrhu쎯je0쎯yrnl0쎯	-9.63334
쎈쎅	-9.63344
쎁쎂쎀	-9.63367
tcg0쎯mruu쎯ym0쎯	-9.63421
yri0쎯jm0쎯	-9.63436
쎂-	-9.63453
ykmbl쎯	-9.63459
ontq쎯	-9.63482
gmfj쎯	-9.63503
hdyrb쎯	-9.63507
nini0쎯vtmd쎯odm0쎯	-9.6359
yyk쎯dtq쎯	-9.63619
nlyhs쎯eir쎯	-9.63645
opnkq쎯	-9.63727
ivtmd쎯	-9.6382
empm쎯	-9.63832
bmmc쎯hew쎯	-9.63888
romr0쎯nf0쎯ejoc쎯	-9.63942
ynn0쎯jmn쎯	-9.63977
ab0쎯atc0쎯	-9.64045
oudk쎯	-9.64052
niy쎯mthhh쎯	-9.64063
oog0쎯tehr0쎯klg0쎯	-9.64262
k0쎯nlqu쎯	-9.643
mok0쎯qu0쎯	-9.64317
opj1쎯edi0쎯	-9.64342
jcor쎯aphh0쎯	-9.64352
6쎯	-9.64354
sjtk쎯abbt쎯	-9.64384
ummj0쎯	-9.64415
ppj쎯tc1쎯hmr0쎯	-9.64452
dpi1쎯ihs0쎯	-9.64476
ivop0쎯gmmi쎯	-9.64496
za9쎯l0쎯	-9.64525
hapi0쎯yth쎯rrr0쎯	-9.64563
ol0쎯	-9.64645
gyhs쎯	-9.64684
fcq0쎯ksc쎯	-9.64715
hgr0쎯	-9.64722
bopi쎯hqphh쎯	-9.6475
opfb쎯	-9.64881
jcor쎯amwg쎯	-9.64906
opta쎯	-9.64923
odm0쎯nmomm쎯	-9.64931
rmkms쎯	-9.64982
,v쎯,	-9.64988
aaa0쎯	-9.65002
쎅쎄	-9.65007
쎆쎈	-9.65008
jomc쎯nvjrr쎯	-9.65017
rau0쎯	-9.6504
tbfe쎯	-9.65109
jmig쎯i1쎯	-9.65114
yihu0쎯	-9.65199
qgdi쎯	-9.652
oqni쎯za9쎯:za2쎯	-9.65206
yyyx	-9.65347
쎆쎆	-9.65358
쎅쎇	-9.6539
fh쎯oq0쎯	-9.65404
ivke쎯ab0쎯	-9.65409
moob쎯hdl0쎯	-9.65412
libt0쎯	-9.65454
heo쎯md쎯	-9.65501
lnmcw쎯	-9.65508
wllmy쎯	-9.65581
za9쎯ivgdi쎯:za2쎯	-9.65628
쎉쎆	-9.65638
tp쎯llml쎯	-9.65784
ids쎯ivsu쎯i1쎯	-9.65795
kh	-9.65806
fubkq쎯	-9.65834
s쎯	-9.65838
ivtq쎯vmw쎯	-9.65943
nlkq쎯	-9.65986
csh0쎯ommi0쎯	-9.6599
vfh쎯	-9.66057
rmlmo쎯	-9.66083
lne0쎯	-9.66087
쎁oq0쎯	-9.66089
edi0쎯niy쎯	-9.66113
osu쎯	-9.66204
bopi쎯	-9.66266
ykok0쎯yioj0쎯	-9.66316
mrno0쎯tw1쎯	-9.66321
ndbt0쎯	-9.66338
bodh쎯	-9.66454
...	-9.66459
hshml쎯klg0쎯gpd쎯	-9.66466
ci0쎯mt0쎯	-9.66585
oyg쎯jhp쎯	-9.66597
hjrr쎯mgwg쎯i1쎯	-9.66611
heks0쎯nljmu쎯	-9.66725
kd0쎯yrnl0쎯	-9.66734
mlm쎯mh0쎯	-9.66811
niy쎯ebhu0쎯	-9.669
,yr0쎯gpd쎯	-9.66951
aj0쎯tcb0쎯	-9.66956
쎉쎉	-9.66962
oog0쎯tehr0쎯md쎯	-9.66975
jphu0쎯ite쎯	-9.66986
jdok0쎯qbbe0쎯.	-9.67117
psh0쎯ihs0쎯	-9.67142
dhn0쎯hbln0쎯	-9.67169
ddmmf쎯	-9.67357
jmmu0쎯	-9.67363
omn1쎯olnk0쎯	-9.67387
yhjr쎯	-9.67395
jbrrv쎯	-9.67458
lwu0쎯mgi1쎯	-9.67462
qywm쎯po0쎯	-9.67466
mrmt쎯jckn쎯rbo0쎯	-9.67479
orbt쎯	-9.67507
ylb쎯hdv쎯	-9.67589
suok0쎯yhgr0쎯	-9.67617
iav0쎯vnd쎯	-9.67625
jesmm쎯	-9.67745
mwowy0쎯	-9.67844
hapi0쎯nc쎯	-9.67847
gihs쎯opjbc쎯	-9.67848
ykok0쎯ks0쎯md쎯	-9.67914
,tt1쎯bm0쎯	-9.6794
yhjr쎯ifm쎯	-9.6796
쎄쎉	-9.6798
mm0쎯hgdi쎯lnk0쎯	-9.68067
ocwa쎯	-9.68186
ihs0쎯csh0쎯	-9.68259
fh쎯ivoj쎯	-9.68261
atc0쎯ymy0쎯	-9.68313
vvh쎯opjbc쎯	-9.68366
yhs쎯mwsl쎯hapi0쎯	-9.68398
vmnme쎯op0쎯	-9.68437
qog0쎯uu0쎯	-9.68487
fh쎯fvok쎯	-9.68487
ihs0쎯yif0쎯	-9.68585
egi쎯qobhu쎯	-9.68604
grhv쎯	-9.68692
쎂.쎀	-9.687
holq쎯	-9.68719
crp0쎯yrnl0쎯	-9.68734
hjwg쎯ydhml0쎯	-9.68734
domm0쎯	-9.68786
vmyiu쎯	-9.68796
,vpd쎯	-9.68836
쎈쎈	-9.6887
qllb0쎯	-9.68885
쎅쎃	-9.68885
vdlk쎯	-9.68958
tjblb0쎯dt0쎯	-9.68999
edoe쎯	-9.69041
wk0쎯qmvif쎯	-9.69068
ytrhu쎯nsd0쎯	-9.69069
mf1쎯	-9.69143
djbm0쎯	-9.69157
lpb쎯ayrf0쎯	-9.69164
mtch쎯dher쎯	-9.69172
iobo쎯dm0쎯	-9.69221
nvhe쎯	-9.69235
lwu0쎯omn1쎯	-9.69255
klg0쎯sjrc0쎯	-9.69299
mwsu쎯wljbm쎯	-9.69386
dh쎯ibpp쎯	-9.6941
smyoj쎯	-9.69481
yfiku0쎯tc1쎯	-9.69563
omg0쎯fhbu0쎯	-9.69574
mgwg쎯mlm쎯	-9.69626
iln0쎯	-9.69713
miks0쎯oos쎯	-9.69715
쎅%	-9.69726
eno0쎯yhvl쎯	-9.69749
elbu쎯nla쎯	-9.69928
hohju쎯mgmf0쎯	-9.6994
heo쎯mgwg쎯rrikr쎯	-9.70006
hnlh0쎯mdm쎯	-9.70051
.bu0쎯tbln0쎯	-9.70091
bam쎯	-9.70138
vsm쎯v쎯	-9.70166
thbu0쎯slw0쎯	-9.70247
mre1쎯	-9.70248
.dm0쎯	-9.70263
mwsu쎯omr0쎯	-9.7029
tyvu0쎯	-9.70293
oahe쎯omr0쎯	-9.70304
wmmu0쎯sk0쎯	-9.70436
yk0쎯jbik0쎯	-9.70457
hdl0쎯fdk0쎯	-9.7047
ytt0쎯r쎯	-9.70478
jyk쎯hommn0쎯	-9.70497
sjrc0쎯ibpp쎯	-9.70535
nklq쎯ivik쎯	-9.70558
lbmrw쎯	-9.70561
hapi0쎯jrok쎯jlln쎯	-9.70809
l0쎯lsa쎯	-9.70827
asje쎯aj0쎯	-9.70848
mk쎯elq쎯ylb쎯	-9.70855
tlwc쎯nau0쎯	-9.70888
jmmf0쎯jdok0쎯	-9.70983
bpa0쎯	-9.71012
tlwc쎯c쎯	-9.71126
omlk쎯hdln0쎯	-9.71139
jmig쎯ob1쎯	-9.71165
oyok0쎯	-9.71181
vmjnk쎯	-9.71223
qytv0쎯nblmi쎯	-9.71319
ytu0쎯	-9.71332
fbnd0쎯jmso쎯	-9.71335
yeoiv0쎯nvno0쎯	-9.71376
jqjr쎯	-9.71436
opfbo쎯	-9.71449
fdiav쎯	-9.71501
hdph0쎯ids쎯	-9.71521
nbg0쎯nau0쎯	-9.71528
bq쎯rrr0쎯	-9.71558
owyi0쎯ol1쎯	-9.7161
okm쎯	-9.71644
vmhey쎯	-9.71664
bbke쎯pqmb쎯	-9.71699
mwsl쎯hbr0쎯	-9.71741
nrli쎯ite쎯	-9.71919
ylb쎯sk0쎯	-9.71936
ivyhs쎯lsr0쎯	-9.71983
쎁쎉쎈쎀oq0쎯	-9.72023
kip0쎯	-9.72028
ytt0쎯olhh0쎯	-9.72042
qog0쎯miks0쎯	-9.72079
ihs0쎯yfiku0쎯	-9.72091
dfsm쎯jvd쎯	-9.7212
vio0쎯hmr0쎯	-9.72172
yri0쎯yj0쎯	-9.72198
hhail0쎯	-9.72214
bmr0쎯gp0쎯	-9.72236
mbog0쎯	-9.72249
emms0쎯end0쎯	-9.7226
lwl0쎯	-9.72342
lmg0쎯	-9.72355
olln쎯jdok0쎯	-9.72366
mmm쎯hgdi쎯lnk0쎯	-9.72424
rlmi쎯	-9.72471
ssr쎯ssr쎯po0쎯	-9.72494
쎁쎉쎆쎄oq0쎯	-9.72537
dtak쎯mng0쎯	-9.72543
mwbo쎯	-9.72544
mks0쎯yioj0쎯	-9.72545
yhmbo1쎯	-9.72576
k쎯	-9.72581
ocor쎯	-9.72618
hqm쎯rudi0쎯llmb쎯	-9.72634
hapi0쎯hqm쎯ehjr쎯	-9.72763
kqyck쎯yrbr0쎯	-9.72918
girm쎯	-9.72943
orq0쎯	-9.73003
yv쎯	-9.73011
nini0쎯mmbo쎯	-9.73125
nhe쎯adi쎯	-9.73168
dbu쎯fsm0쎯	-9.73196
nlykb1쎯tqbu쎯	-9.73211
yyk쎯wg0쎯	-9.73265
쎂쎀쎁쎁oq0쎯	-9.73315
mhaf0쎯nir쎯	-9.73353
oh쎯yhgu쎯	-9.73402
bjcm쎯	-9.73414
ksr쎯orq0쎯k0쎯	-9.73494
hdfh쎯	-9.73505
wmgi쎯rvp쎯	-9.73534
lwu0쎯rrikr쎯	-9.73601
llhe쎯dm0쎯	-9.73656
tsl쎯ibpp쎯	-9.73698
imog쎯hew쎯	-9.73719
ki0쎯nla쎯	-9.7374
mwsu쎯ohq쎯	-9.73751
oice쎯	-9.73771
bmui쎯bkq쎯	-9.73775
tlbk0쎯kiog쎯	-9.73868
lmnii쎯bkq쎯	-9.7392
dtak쎯tesu쎯	-9.73951
ykq0쎯opfbo쎯	-9.74008
tlmy쎯	-9.74063
bhn0쎯	-9.7419
m쎯ioog0쎯	-9.74247
ysotc쎯my쎯	-9.74247
mf0쎯ophds쎯opbk쎯	-9.74273
oiav0쎯bq쎯	-9.7428
쎅ol1쎯	-9.74288
pd0쎯.za3쎯	-9.74295
klg0쎯ymp0쎯	-9.74334
ob1쎯hdyj0쎯	-9.74368
wc0쎯ol1쎯	-9.7437
mks1쎯ohg쎯	-9.74386
yh쎯ilil쎯ylb쎯	-9.74392
jbtj쎯lmp0쎯	-9.74454
쎁쎉쎆쎅oq0쎯	-9.74467
yth쎯rrr0쎯hapi0쎯	-9.74493
mgln0쎯nn0쎯	-9.74543
eqmb0쎯oip0쎯	-9.74577
a0쎯fbrlb쎯	-9.74591
her0쎯mmbo쎯	-9.74607
jksc쎯bmks0쎯	-9.74645
od쎯	-9.74686
vmnom쎯fbrlb쎯	-9.74706
tbks0쎯miks0쎯ks0쎯	-9.74797
mgbhu쎯jyk쎯	-9.748
nlodi쎯shlb0쎯	-9.74827
wdh쎯vmgr쎯	-9.74858
hjr0쎯	-9.74916
tbg0쎯	-9.75044
thjg0쎯jlln쎯po0쎯	-9.75054
janl쎯ylb쎯	-9.75062
eeog쎯	-9.75132
hqbu쎯mgln0쎯	-9.75132
.oo0쎯	-9.75163
tbnf0쎯	-9.75185
fdiav쎯oiav0쎯	-9.75191
mbll쎯mf0쎯	-9.75218
ycbr0쎯dmmf0쎯	-9.75243
oqs쎯	-9.75262
o쎯mlm쎯	-9.75375
qgdi쎯vmjnk쎯	-9.75387
nbks0쎯	-9.75442
쎅쎁	-9.75597
mgbhu쎯gnsh쎯	-9.7562
쎆ol1쎯	-9.75646
ivlll쎯	-9.75667
bysm쎯oos쎯	-9.75693
gyhn쎯	-9.75776
dtak쎯qvio쎯	-9.75776
ornin쎯	-9.75783
thbu0쎯imno0쎯	-9.75787
qi1쎯k0쎯	-9.7582
e쎯ikq쎯	-9.75848
쎉쎅	-9.7587
mb	-9.75919
mm0쎯j쎯	-9.75936
dmob쎯	-9.75951
hapi0쎯ydhml0쎯	-9.75967
qta쎯ysopd쎯	-9.76024
yks쎯vmvno쎯	-9.76028
yrnl0쎯i1쎯	-9.76052
hd	-9.76083
mfj0쎯honkn0쎯	-9.76097
hjwg쎯amwg쎯	-9.76104
,oam쎯amyo쎯	-9.7612
k0쎯fbnd0쎯hqm쎯	-9.76136
jcm쎯ivbgr쎯	-9.76262
hamg쎯yblb쎯	-9.76316
----------------	-9.76359
쎆쎂	-9.76409
hgdi쎯vmnhe쎯	-9.76465
m쎯nir쎯	-9.76606
uu0쎯hqm쎯,	-9.7663
쎁쎉쎈쎃oq0쎯	-9.76631
yihu0쎯etmb쎯	-9.7664
mpylm쎯rrikr쎯	-9.76658
qhjx쎯	-9.76659
sly쎯	-9.76785
쎁쎉쎈쎂oq0쎯	-9.76844
bq쎯dt0쎯	-9.76878
mbmmv쎯	-9.76944
hnlh0쎯쎁	-9.76946
mlm쎯oos쎯hapi0쎯	-9.76952
쎀쎁	-9.76961
afhhh쎯llml쎯	-9.76972
mlwk쎯nir쎯iksi쎯	-9.76975
eycv1쎯	-9.76984
lln쎯	-9.76991
)amyo쎯	-9.77001
lsd쎯	-9.77132
쎂.쎅	-9.77204
&	-9.77229
jjon0쎯nlhem0쎯	-9.77265
krbo0쎯	-9.77293
eycb0쎯	-9.77312
jmso쎯bmmc쎯	-9.77324
mnf0쎯	-9.77426
gbtc쎯	-9.77431
q쎯hjhne쎯	-9.77442
qpa0쎯dmmf0쎯	-9.77444
mwln쎯yg0쎯itlb쎯	-9.77452
yhmbo0쎯	-9.77467
o쎯yk0쎯	-9.77471
eiav쎯	-9.77528
he0쎯albk0쎯	-9.77613
mrnvm쎯	-9.77614
nvno0쎯	-9.77627
iomvn쎯	-9.77647
atce쎯	-9.77691
oyhv0쎯qsjr쎯	-9.7779
irp0쎯fbbhu쎯	-9.77805
onf0쎯hapi0쎯	-9.77915
hqphh쎯tc1쎯	-9.77948
,mku쎯	-9.77964
u쎯e쎯	-9.78015
hbu0쎯hqi0쎯	-9.78023
mmue쎯lis쎯	-9.78056
fdyr쎯	-9.78058
gthhh쎯	-9.78093
tm0쎯llfl0쎯	-9.78106
hbln0쎯ihs0쎯	-9.78124
mumbo0쎯	-9.78127
za9쎯hgdi쎯.	-9.78179
k0쎯yrnl0쎯csh0쎯	-9.78213
jbik0쎯	-9.78224
.cwa0쎯ohg쎯	-9.78257
쎇쎂	-9.78266
bompm쎯	-9.78293
hnk0쎯nlomm쎯	-9.78302
qif0쎯tjblb0쎯	-9.78333
hbu0쎯yg0쎯	-9.78371
fg1쎯	-9.78375
쎅쎉	-9.78421
yrbr0쎯ydhml0쎯	-9.78422
ivog쎯	-9.78427
gnsh쎯hshml쎯	-9.78436
hdl0쎯nd0쎯	-9.78454
hdeq쎯	-9.78514
oiku쎯op0쎯	-9.78519
mrukf쎯	-9.78519
ycp0쎯	-9.78541
book쎯	-9.78549
fqq쎯	-9.78558
hbu0쎯hxh쎯	-9.7857
lsh쎯l0쎯	-9.78679
yj0쎯nsd0쎯	-9.78704
tchml쎯hqgdi쎯	-9.78716
smmi0쎯imno0쎯	-9.78736
rmpru쎯	-9.78742
mw	-9.78749
m쎯oyt쎯	-9.78823
쎁쎉쎆쎂oq0쎯	-9.78829
mcw쎯tims쎯	-9.78832
amyo쎯mfr쎯	-9.78846
rg쎯	-9.78915
ejmo0쎯fdcsh쎯	-9.79037
mgohh0쎯	-9.79038
abme0쎯	-9.79044
vmomi쎯muw쎯	-9.79093
nvtt쎯	-9.79123
hlsa쎯hdnf쎯	-9.79136
m쎯eyiu0쎯hapi0쎯	-9.79146
qje쎯mmvs0쎯	-9.79243
wmgi쎯rvp쎯fbrhu쎯	-9.7937
takb쎯	-9.7943
epym쎯nolmi0쎯	-9.79574
ouln0쎯ytap쎯	-9.79602
쎆쎃	-9.79643
hdph0쎯ids쎯po0쎯	-9.79643
jjb0쎯nmtq쎯	-9.79659
%	-9.79666
mwyrd쎯	-9.79781
oos쎯yri0쎯	-9.79803
mrdhe쎯gmf0쎯	-9.79824
ehgu쎯imnsd쎯	-9.79908
-쎃	-9.80042
hnd1쎯	-9.80045
amyo쎯m쎯nir쎯	-9.80049
itlb쎯	-9.80083
byav쎯	-9.80085
iku0쎯	-9.80093
eqoa쎯	-9.80107
esme0쎯	-9.80208
m쎯jmso쎯	-9.80236
mcw쎯yhs쎯	-9.8024
mcw쎯mgilg쎯mvdh쎯	-9.80339
m쎯hgdi쎯lnk0쎯	-9.80339
hdv쎯rbo0쎯.	-9.80364
gcwa0쎯po0쎯	-9.80391
mbo1쎯	-9.80433
쎂쎀쎁쎂oq0쎯	-9.80489
ord0쎯klnd쎯	-9.80503
dhjd쎯	-9.80512
vmyhs쎯vmrc쎯	-9.80618
ytap쎯ivrc쎯	-9.80722
mwsl쎯hdrc쎯쎃	-9.80779
ivmym쎯ids쎯	-9.8085
wk0쎯ymp0쎯	-9.80862
tcru0쎯	-9.80869
eowy쎯bkq쎯	-9.80938
kqmrw쎯hhdi쎯	-9.8094
kok쎯	-9.80991
hxvyv쎯	-9.8108
eykl0쎯jbtj쎯	-9.81222
ck0쎯ytd0쎯	-9.81252
vmnom쎯mks1쎯	-9.81257
bhhau쎯	-9.8126
klg0쎯vmij0쎯	-9.813
oymr쎯hup0쎯op0쎯	-9.8134
yjhoj쎯	-9.81345
oqni쎯ivcru쎯	-9.81371
쎁쎉쎆쎃oq0쎯	-9.81386
ihmr쎯	-9.81447
hnlh0쎯쎂	-9.81462
kni0쎯	-9.81477
,hqi0쎯olis쎯	-9.81663
,yfiku0쎯	-9.81705
ivmym쎯fqsh쎯	-9.81738
mku쎯vmij0쎯	-9.81751
hdyj0쎯i1쎯	-9.81773
쎈쎆	-9.81811
su0쎯	-9.81818
쎀쎀쎀mfj0쎯yhs쎯fd0쎯	-9.81853
쎁쎉쎅쎆oq0쎯	-9.81895
hhoe0쎯	-9.81922
opmo쎯	-9.8194
rks0쎯	-9.81944
nla쎯bmi쎯	-9.82008
k0쎯ykq0쎯	-9.82012
uvii쎯	-9.8203
yylc쎯	-9.82033
gcwa0쎯nrli쎯	-9.82049
,irm쎯	-9.82062
hbmr0쎯	-9.82073
fvok쎯mrnvm쎯	-9.82076
hdph0쎯	-9.82098
쎀쎈	-9.82127
,vmnom쎯	-9.8216
qsle쎯ythu쎯	-9.82162
l쎯	-9.82272
pknio쎯	-9.82285
nini0쎯jmso쎯	-9.82321
.yyk쎯	-9.82338
mlm쎯o쎯	-9.82473
hommn0쎯miks0쎯	-9.82479
쎃.	-9.82494
eowy쎯jbtj쎯	-9.82518
ydl쎯ci0쎯rmher쎯	-9.82598
ci0쎯hml쎯	-9.82705
ora0쎯qjsmp쎯	-9.82751
kb0쎯za8쎯	-9.82769
jlwl0쎯ivj쎯	-9.82804
nlomm쎯	-9.8281
hybhu쎯	-9.82845
tdm쎯	-9.82854
jchwe쎯	-9.82856
etrg쎯	-9.82969
쎁쎉쎇쎀oq0쎯	-9.82969
imdk쎯	-9.83019
hnlh0쎯m쎯ol1쎯	-9.8303
asje쎯vmhey쎯	-9.83033
qlw쎯	-9.83045
tcg0쎯md쎯	-9.83046
tih쎯	-9.83095
ivsu쎯jka쎯	-9.83108
khpr쎯	-9.83143
bir쎯	-9.83146
emj쎯	-9.83154
em0쎯jbtj쎯	-9.83162
ks0쎯iobo쎯emhf0쎯	-9.83169
ivrmk쎯	-9.83199
vpd쎯hapi0쎯	-9.83212
asje쎯bmmc쎯	-9.83236
fbnd0쎯mks1쎯,	-9.83266
llp쎯	-9.83274
hqi0쎯olis쎯hapi0쎯	-9.83277
oiku쎯hjbo쎯hapi0쎯	-9.83314
mgwg쎯nbshq쎯	-9.83426
qyaj쎯	-9.83452
k0쎯mmue쎯	-9.83455
po0쎯efh0쎯	-9.83482
f쎯kq0쎯ytyr쎯	-9.8353
ohnb0쎯	-9.83534
ejcr0쎯	-9.83538
tkhk0쎯lnk0쎯	-9.83567
gylm쎯	-9.8361
쎇쎈	-9.83612
mthhh쎯,	-9.83632
ytt0쎯hdrhg쎯	-9.83752
쎁쎉쎇쎆oq0쎯	-9.83884
lic0쎯	-9.83948
it0쎯	-9.83956
lwu0쎯rmher쎯	-9.84022
khtw쎯	-9.84107
qi1쎯stv쎯	-9.84108
):	-9.84212
enwm쎯	-9.84242
csh0쎯yukb0쎯	-9.84264
쎄쎁	-9.84367
whey0쎯onao쎯	-9.84382
muw쎯mwsl쎯	-9.84412
hapi0쎯k0쎯mng0쎯	-9.84528
dd쎯tc1쎯	-9.84569
,hbu0쎯	-9.84583
gr0쎯dd쎯fhbu0쎯	-9.84627
wljka쎯	-9.84693
rj쎯llml쎯	-9.84694
nlav쎯	-9.8478
qkni0쎯	-9.84798
liwvf쎯	-9.84803
mrjnu쎯	-9.8483
mumbo0쎯jher쎯	-9.84839
libt0쎯ebon쎯	-9.84842
mf0쎯ommi0쎯	-9.84906
bkk쎯ym0쎯	-9.84977
쎁쎉쎅쎈oq0쎯	-9.84984
nmmbo쎯	-9.85056
gpd쎯gylm쎯	-9.85058
imnvm쎯	-9.85063
.oam쎯	-9.85104
qyhn쎯a0쎯	-9.85132
쎀쎇	-9.85135
jksc쎯ivik쎯	-9.85153
hubo쎯	-9.8516
giok0쎯	-9.85163
ylb쎯vmnhe쎯	-9.85174
ytpo0쎯	-9.85217
tknl1쎯ilil쎯	-9.85229
vmomi쎯	-9.85287
kb0쎯nlav쎯ci0쎯	-9.85291
ehgr쎯	-9.85345
crp0쎯vlok쎯oh쎯	-9.85345
tn0쎯id1쎯jmso쎯	-9.85451
jp쎯hapi0쎯	-9.85511
ynai쎯	-9.85518
j쎯oq0쎯	-9.85525
m쎯hvif쎯mnln쎯	-9.85559
owlb쎯	-9.85623
tvii0쎯	-9.85637
ivmfj쎯ojr쎯	-9.85723
oqni쎯vtmd쎯	-9.85727
abbt쎯	-9.85765
ivyhs쎯	-9.85795
hshml쎯ivwb쎯	-9.85803
her0쎯ol1쎯	-9.85815
hapi0쎯gpd쎯yhs쎯	-9.85829
g쎯gyrv쎯	-9.85837
쎀.쎀	-9.85886
qog0쎯tkld쎯	-9.85928
thjg0쎯	-9.85936
mfj0쎯mwsl쎯	-9.85983
mbll쎯bm0쎯	-9.86008
tc0쎯yth쎯fbrhu쎯,	-9.86023
4쎯	-9.8604
bmks0쎯mgwg쎯	-9.86083
yhml쎯oq0쎯dt0쎯	-9.86255
rvp쎯yg0쎯	-9.86328
rbo0쎯.	-9.86333
hapi0쎯oylm0쎯tc1쎯	-9.86348
wmgi쎯kb0쎯	-9.86386
nblmi쎯	-9.86395
yhjr쎯jbm0쎯	-9.86445
sjtk쎯omr0쎯ommi0쎯	-9.86489
shlb0쎯md쎯u쎯sk0쎯.	-9.86529
vmhey쎯vmgr쎯wd0쎯	-9.86543
bomm쎯	-9.86544
dtwa쎯	-9.86549
ivjnk쎯ids쎯	-9.8659
jdok0쎯qbbe0쎯i1쎯	-9.86592
쎀.쎅	-9.86604
omr0쎯bmr0쎯	-9.86652
ehdw쎯	-9.86721
suok0쎯iksi쎯	-9.86732
pt0쎯woll0쎯ym0쎯	-9.86766
qike쎯	-9.86775
eyg0쎯hjwg쎯	-9.86782
vhpa쎯	-9.86854
mtln0쎯	-9.86882
,bm0쎯	-9.86939
grtr0쎯bbke쎯	-9.86995
rhfd쎯	-9.87058
hjwg쎯ifbhu쎯	-9.87061
ylmo0쎯	-9.87063
tvip쎯	-9.87121
ohg쎯jdok0쎯	-9.8714
vio0쎯ma0쎯ite쎯	-9.87146
vmnom쎯mgwg쎯	-9.87155
gpd쎯whey0쎯fvok쎯	-9.87166
qmb쎯fh쎯oq0쎯	-9.87179
tjblb0쎯oimbo0쎯	-9.8718
tm0쎯llfl0쎯fhbu0쎯	-9.87181
txc쎯ohg쎯	-9.87186
vvh쎯mmok쎯iodi쎯	-9.87252
pd0쎯.	-9.87256
okr0쎯ythu쎯	-9.87262
n0쎯	-9.87278
mtch쎯hjwg쎯	-9.87279
mhaf0쎯wk0쎯	-9.87281
hn0쎯hfd0쎯	-9.87316
fbrlb쎯bq쎯	-9.87347
ndhvo쎯	-9.87357
gpd쎯whey0쎯,asje쎯	-9.874
mhf0쎯md쎯ma0쎯ite쎯	-9.87419
fvok쎯qsjr쎯dt0쎯e	-9.87427
kq0쎯kqmob쎯	-9.87436
qsjr쎯iksi쎯imog쎯.	-9.8745
.("/////	-9.87516
.",(){(	-9.87516
jdok0쎯sjrc0쎯mlm쎯	-9.87533
쎁쎀쎀쎀쎀쎈쎀쎁);});	-9.87555
nlbm0쎯	-9.87573
.dm0쎯ids쎯	-9.87617
crp0쎯mwsl쎯hdrc쎯	-9.87648
ipf0쎯	-9.8768
ivsu쎯jikq쎯	-9.87709
k0쎯nlo쎯	-9.87773
rhu쎯cnlh0쎯	-9.87778
ivcru쎯ab0쎯	-9.87818
mgwg쎯jlln쎯,	-9.87823
csht0쎯	-9.87865
nklq쎯yhgr0쎯	-9.87877
oq0쎯lsa쎯	-9.87877
qkhk쎯	-9.87898
jkmr쎯	-9.88002
no2쎯dhn0쎯	-9.88015
bommf쎯	-9.88023
nomrt0쎯ivsu쎯	-9.88079
qobhu쎯holq쎯	-9.88109
nla쎯fmu쎯	-9.88205
yaj쎯	-9.88237
,qau쎯	-9.88247
.쎂i1쎯	-9.88273
oinr쎯kb0쎯	-9.88306
7쎯	-9.88315
쎁쎉쎇쎅oq0쎯	-9.88315
ebhu0쎯jbof쎯	-9.88343
쎆쎇	-9.88361
.za3쎯za8쎯	-9.88434
oj0쎯	-9.88442
hdbhx쎯	-9.88442
ik0쎯	-9.8846
jkp0쎯oq0쎯	-9.88469
fos쎯	-9.8852
,ibpp쎯	-9.88573
tt1쎯bm0쎯	-9.88642
ytap쎯bhu0쎯	-9.88666
ehbk0쎯k0쎯hdln0쎯	-9.88684
yrbo0쎯opj0쎯	-9.88685
imog쎯mrnbg쎯	-9.8874
hmhne쎯	-9.88742
쎁쎉쎆쎈oq0쎯	-9.88796
ombp0쎯	-9.88804
gpd쎯oyt쎯	-9.88827
m쎯mmbo쎯	-9.88915
wlni쎯nvsm쎯	-9.88943
vmij0쎯rmher쎯	-9.88954
ppj쎯tc1쎯,	-9.88987
qni0쎯tjka0쎯	-9.89016
kqijb쎯rudi0쎯	-9.89023
hshml쎯vio0쎯	-9.89041
crp0쎯o쎯r쎯	-9.89047
u쎯bmi쎯	-9.8906
mmm쎯k0쎯	-9.89078
ysohv쎯hommn0쎯	-9.89079
ycn쎯	-9.89134
gpd쎯mwsl쎯	-9.89145
qpp0쎯	-9.89198
.mgbhu쎯	-9.89213
pdk쎯hvd쎯	-9.8923
qje쎯	-9.89299
쎇쎆	-9.89385
mh0쎯jmso쎯	-9.89398
bodh쎯vmnom쎯	-9.8943
iobo쎯ivnj쎯	-9.8943
hdnf쎯rmvs쎯.	-9.89461
ydhml0쎯ksr쎯gdhe쎯	-9.89465
gtj쎯ifmrw쎯	-9.89593
,bu0쎯tbln0쎯	-9.8961
otniq쎯ir0쎯	-9.89628
kjt쎯	-9.89664
hdv쎯ids쎯ivsu쎯	-9.89676
rbo0쎯,	-9.89677
bkq쎯nlo쎯	-9.89798
m쎯tjblb0쎯	-9.89802
쎂쎀pt0쎯vmsu0쎯	-9.89812
.cwa0쎯	-9.89851
쎇쎃	-9.89868
,ymf0쎯	-9.89901
rudi0쎯mgok0쎯	-9.89943
tvmi2쎯rrr0쎯	-9.89989
쎉쎇	-9.90019
qhlo1쎯	-9.9006
shr쎯	-9.90064
libt0쎯qjcm쎯	-9.90067
fbrbo쎯	-9.90164
kqijb쎯bmks0쎯	-9.90199
pp0쎯omnn0쎯	-9.9021
:쎂	-9.90228
oymr쎯fcymr쎯	-9.90232
tcg0쎯wk0쎯	-9.90271
qr쎯	-9.90338
mj쎯frrd쎯	-9.90339
za3쎯hgdi쎯	-9.90343
쎁쎉쎅쎇oq0쎯	-9.9035
so0쎯di0쎯:	-9.90397
og0쎯	-9.90403
omr0쎯c쎯	-9.90443
쎀쎅	-9.90497
jmyo쎯ik1쎯	-9.90506
qruc쎯	-9.90531
mwln쎯ommi0쎯po0쎯	-9.9054
ksr쎯qif0쎯	-9.90542
쎆쎉	-9.90684
moob쎯obon쎯	-9.90705
tlll0쎯	-9.9072
ydi0쎯gi0쎯	-9.90721
hew쎯bq쎯	-9.90754
o쎯jlln쎯	-9.90786
oahe쎯knd0쎯	-9.90802
5쎯	-9.90802
kb0쎯ypmm쎯	-9.90833
jmso쎯ysook0쎯	-9.90942
nlomd쎯nn0쎯	-9.9104
hshml쎯klg0쎯	-9.91056
bfqm0쎯	-9.9121
j쎯mdm쎯	-9.91248
pdk쎯qjlo쎯	-9.91305
,ci0쎯smr쎯	-9.91316
.tmmc0쎯l0쎯	-9.91321
tmvh쎯	-9.91322
쎇쎉	-9.91339
qka쎯hdf0쎯	-9.91352
bbb0쎯mj쎯	-9.91383
mrihr쎯	-9.91403
hhsli쎯	-9.91455
p쎯mgwg쎯fbnd0쎯	-9.91464
csho쎯	-9.91476
kq0쎯ytyr쎯	-9.91509
쎅oq0쎯	-9.91509
csh0쎯hjrr쎯	-9.91514
hapi0쎯za8쎯	-9.91526
jmmu0쎯tgk쎯	-9.91528
.쎂.	-9.91574
8쎯	-9.91594
mrt0쎯ioib쎯	-9.91609
,amyo쎯m쎯jmso쎯	-9.9162
쎀쎆	-9.91632
lwl0쎯ivqmb쎯	-9.91647
dss0쎯	-9.91657
bdlw쎯	-9.9175
qpru쎯	-9.91761
my쎯jikq쎯	-9.91778
쎆-	-9.91805
mvnm0쎯	-9.91809
amyo쎯m쎯gfno쎯	-9.9185
kb0쎯m쎯	-9.91877
o쎯rvp쎯hlb0쎯	-9.91921
쎁쎉쎇쎈oq0쎯	-9.9193
smr쎯egi쎯	-9.91932
vsm쎯	-9.9198
eqmb0쎯opj0쎯	-9.92011
ck0쎯wyi0쎯	-9.92014
ivke쎯hhdi쎯	-9.92014
mmvs0쎯	-9.92029
yfe쎯	-9.9205
mnp0쎯yv쎯	-9.92062
,hghu쎯hmr0쎯	-9.92154
쎀쎃	-9.92165
mjln쎯hqphh쎯	-9.92179
ksc쎯egi쎯	-9.92204
.mgbhu쎯iksi쎯	-9.92283
mrgg쎯	-9.9234
jbmm0쎯shlb0쎯	-9.92536
ivke쎯qmv쎯ivop0쎯	-9.92558
쎈ol1쎯	-9.92564
ci0쎯jwlb쎯	-9.92585
jhp쎯	-9.92594
lsh쎯vmnhe쎯	-9.92597
csh0쎯ci0쎯smr쎯	-9.926
oghn쎯ota쎯	-9.92685
so0쎯	-9.92723
thbu0쎯janl쎯	-9.92724
ysok쎯klg0쎯	-9.92742
lmp0쎯yhs쎯	-9.92748
ehk쎯	-9.92754
oiav0쎯hqphh쎯	-9.92766
hdnf쎯za2쎯	-9.92834
mwsl쎯hdrc쎯vmpi쎯	-9.92839
mfj0쎯yhs쎯	-9.92857
tc0쎯yrnd쎯	-9.92886
yooj쎯	-9.92926
쎈쎂	-9.92955
ikhhh쎯ksr쎯nn0쎯	-9.92963
.쎉	-9.92965
hmhn0쎯	-9.92985
yrbr0쎯eabt0쎯	-9.93089
jcik쎯	-9.93089
ab0쎯oip0쎯	-9.93105
hjtm쎯	-9.93109
zxcy쎯	-9.93113
nmkmr쎯	-9.93128
imgce쎯	-9.93188
homr0쎯	-9.93194
jbm0쎯hdl0쎯djbm0쎯	-9.93199
mhnl쎯	-9.93219
dpi1쎯yhgr0쎯	-9.9327
mmr0쎯	-9.93276
qvio쎯	-9.93314
yuoii1쎯	-9.93337
mwta쎯	-9.93379
oiks쎯	-9.93419
yhvl쎯	-9.93434
egi쎯fbnd0쎯	-9.93504
l0쎯sok0쎯tvmi2쎯	-9.93516
pru쎯oinr쎯	-9.93545
lsdh쎯	-9.93549
nc쎯mng0쎯	-9.9369
sp쎯mtc0쎯	-9.93698
dhn0쎯lwu0쎯	-9.937
ontq쎯op0쎯	-9.93741
enl0쎯	-9.93753
l0쎯niy쎯	-9.93779
crp0쎯nklq쎯hmhn0쎯	-9.93794
mnr쎯yk2쎯	-9.93821
,mlwk쎯	-9.93843
fkvc쎯	-9.93858
jc0쎯	-9.93905
hvd쎯nlo쎯	-9.93958
hsr1쎯miks0쎯	-9.94038
cnlh0쎯	-9.9404
imdk쎯hdb0쎯	-9.94088
ol1쎯phqm쎯	-9.94095
tenh쎯	-9.94138
ydhml0쎯qje쎯id1쎯	-9.94183
3쎯	-9.94187
rvp쎯tbrr쎯	-9.94213
opyr쎯	-9.94214
ivo쎯ivrc쎯	-9.94249
wpp0쎯oinl0쎯	-9.94289
ytqmb쎯	-9.94296
ivmmr쎯yk0쎯	-9.94303
mf0쎯ryo0쎯	-9.94329
dt0쎯emhf0쎯	-9.94358
su1쎯kb0쎯	-9.94358
nwu쎯	-9.94398
omn1쎯odm0쎯	-9.94418
iksi쎯jher쎯is0쎯	-9.94459
쎇쎇	-9.94508
쎂쎀쎁쎀	-9.94515
emwj0쎯	-9.94547
쎀쎉	-9.94614
ynn0쎯	-9.94625
vlok쎯nmme0쎯	-9.94636
boaph쎯	-9.94641
hnlh0쎯yc쎯	-9.94654
nini0쎯oq0쎯dt0쎯	-9.94693
ldhe쎯hdnf쎯iksi쎯	-9.94697
-쎄	-9.94706
,rmvs쎯	-9.94716
gog0쎯	-9.94846
nc쎯vmbm0쎯	-9.94854
쎁쎉쎆쎉oq0쎯	-9.9487
,wk0쎯iksi쎯	-9.9494
ysrj쎯	-9.94973
jdok0쎯mrmt쎯jmig쎯	-9.95
honkn0쎯	-9.95026
ks0쎯fbnd0쎯	-9.95028
ee0쎯ivmmr쎯	-9.95058
nklq쎯md쎯	-9.95068
bocwa0쎯	-9.95074
쎁쎉쎈쎁oq0쎯	-9.95088
vmrc쎯	-9.95144
mgbhu쎯iksi쎯	-9.95187
m쎯ksmi쎯	-9.95204
ipyhv0쎯	-9.95263
ivgdi쎯mrno0쎯	-9.95321
sjnl쎯	-9.95334
khmg쎯	-9.95344
lapv쎯nau0쎯	-9.95379
opjbc쎯mmok쎯iodi쎯	-9.95395
jbtj쎯yhs쎯	-9.95457
쎁쎉쎄쎉oq0쎯	-9.95461
tgk쎯mbib쎯	-9.95505
mylm쎯mrnbg쎯	-9.95507
bmi쎯mmok쎯iodi쎯	-9.95515
hdhah0쎯	-9.95578
yg0쎯odm0쎯	-9.95591
mdm쎯oq0쎯	-9.95599
gpd쎯sk0쎯hapi0쎯	-9.95684
쎀쎂	-9.9576
yyk쎯amyo쎯	-9.95807
yrbr0쎯ytumb쎯	-9.95825
mlm쎯oos쎯;	-9.95874
nmsk쎯miks0쎯	-9.95898
mvnm0쎯miks0쎯	-9.95948
lslmi쎯	-9.95962
쎇-	-9.95968
e쎯esp0쎯	-9.95992
qsle쎯za9쎯	-9.95999
hn0쎯ol1쎯	-9.9604
dqkq쎯	-9.96047
oq0쎯ite쎯	-9.96048
ol1쎯ddi쎯rvp쎯nc쎯	-9.96049
dnlb1쎯wrbo쎯	-9.96056
,opd0쎯olis쎯	-9.96116
qmv쎯yk2쎯	-9.96126
qsje0쎯onao쎯yk1쎯	-9.96194
nbo쎯qmbo0쎯o쎯	-9.96196
yrbr0쎯dfsm쎯	-9.96208
fate쎯	-9.96245
odi0쎯	-9.9628
쎁쎈쎀	-9.96392
dl0쎯	-9.96467
nrli쎯k0쎯hapi0쎯	-9.96471
rks0쎯m쎯	-9.96495
쎁쎉쎆쎆oq0쎯	-9.965
lwu0쎯eyiu0쎯	-9.96514
cwj0쎯mmu0쎯	-9.96563
oll쎯	-9.96586
쎉쎄	-9.96602
kqnom쎯dci0쎯	-9.96619
bl쎯	-9.9662
rlb0쎯	-9.9663
otc쎯ifm쎯	-9.96655
mbrse쎯	-9.96669
nd0쎯,	-9.9673
jbof쎯	-9.96732
dnao쎯byck0쎯	-9.96762
ihs0쎯yt0쎯hapi0쎯	-9.9684
,shlb0쎯	-9.96863
ehsk0쎯fmu쎯	-9.96869
hapi0쎯yhs쎯egi쎯	-9.96925
sh	-9.96926
ythu쎯hojwp0쎯	-9.9695
ivo쎯mnr쎯	-9.9698
rpu0쎯	-9.96984
hdbm쎯	-9.97034
dtak쎯bmmc쎯	-9.97047
yhmbo0쎯ythu쎯	-9.97049
mwln쎯nljmu쎯po0쎯	-9.97086
nini0쎯oq0쎯hapi0쎯	-9.97098
pawe쎯	-9.97173
ivo쎯jbmc0쎯	-9.97216
&;	-9.97224
hoami쎯mgln0쎯nn0쎯	-9.97233
une쎯fvok쎯	-9.97252
ivgdi쎯ivsmr쎯	-9.97258
kqqni쎯qnbk1쎯	-9.97267
oos쎯hqphh쎯	-9.9727
klb쎯ssr쎯	-9.97326
fcymr쎯	-9.97355
fcb쎯	-9.97369
eeem0쎯	-9.97448
쎁쎉쎇쎂oq0쎯	-9.97497
oj1쎯	-9.9756
jp쎯olis쎯	-9.97628
쎁쎉쎅쎄oq0쎯	-9.97632
hdnf쎯iksi쎯za2쎯	-9.97655
thbu0쎯qpp0쎯	-9.97702
쎄oq0쎯	-9.97728
qis쎯mgwg쎯	-9.97741
sok0쎯hqm쎯	-9.97818
ywmv0쎯	-9.97827
,fsm0쎯	-9.97865
hapi0쎯ivhne쎯ivj쎯	-9.97875
nir쎯o쎯	-9.97882
jr쎯tbc0쎯	-9.97888
%,	-9.97905
end0쎯	-9.97912
no2쎯hommn0쎯	-9.97975
amyo쎯m쎯hshml쎯	-9.97978
olnk0쎯	-9.98058
l0쎯tvmi2쎯	-9.9806
mthhh쎯ihs0쎯nn0쎯	-9.98061
slm쎯ahqm0쎯	-9.98096
klg0쎯lmp0쎯yrf0쎯	-9.98215
ebhu0쎯ooo0쎯	-9.98319
//	-9.98331
yyyce쎯	-9.98354
hsyhs0쎯smig쎯	-9.9842
,tkhk0쎯	-9.98421
amg쎯	-9.98425
쎁쎉쎇쎉oq0쎯	-9.98434
yhds쎯ab0쎯	-9.98434
gytr쎯	-9.98455
mihui쎯	-9.98461
hqm쎯yth쎯vmij0쎯	-9.98474
nmks0쎯	-9.98529
kqyck쎯iksi쎯	-9.98569
ym0쎯my쎯	-9.98613
qobhu쎯	-9.98632
ifg쎯wdh쎯	-9.98782
nyvi쎯	-9.98785
ci0쎯mmu0쎯	-9.98825
mlwk쎯ydhml0쎯	-9.98965
qmn0쎯hpsl0쎯	-9.98998
mhaf0쎯vir쎯	-9.99028
lwu0쎯dhn0쎯	-9.99086
hkll쎯	-9.99136
oyhv0쎯qhp0쎯	-9.99175
odm0쎯hbln0쎯	-9.99222
.ilr0쎯	-9.99244
yg0쎯ejmc0쎯	-9.99315
vmisb쎯mrnvm쎯	-9.99316
mwhoe쎯	-9.99319
ifcwj쎯	-9.99354
oq0쎯yuoii1쎯	-9.99411
k0쎯ooo0쎯	-9.99419
mthhh쎯lmik쎯	-9.9945
jkmvs쎯oh쎯	-9.99465
klg0쎯omg0쎯wmgi쎯	-9.99474
ouln0쎯yt0쎯	-9.99497
,m쎯hyhne쎯	-9.99499
opnkq쎯hybt0쎯	-9.99512
gihs쎯bmi쎯	-9.99656
yid0쎯	-9.99661
omg0쎯yhs쎯oyt쎯	-9.99682
kdi0쎯	-9.99695
bhqm쎯hdln0쎯	-9.99704
eowy쎯niy쎯	-9.99745
tgk쎯mbib쎯hapi0쎯	-9.99778
ejmc0쎯raa쎯	-9.99817
eyiu0쎯miks0쎯	-9.9982
mgt쎯	-9.99836
arf0쎯llml쎯	-9.99853
yms0쎯	-9.9986
csh0쎯klb쎯md쎯	-9.99877
bu0쎯hapi0쎯	-9.99912
qhxe쎯jbvif0쎯	-9.99948
j쎯ho0쎯	-10.0004
ivsu쎯pn0쎯	-10.0005
leg0쎯	-10.0013
tmd0쎯ypmm쎯	-10.0017
eqmb0쎯e쎯	-10.0019
ibpp쎯amwg쎯	-10.002
ki0쎯mfj0쎯	-10.002
mgije쎯nlo쎯	-10.0023
rlmi쎯bkf0쎯	-10.0023
opqki쎯	-10.0026
okvif0쎯	-10.0026
jcik쎯mrdhe쎯	-10.003
hapi0쎯oos쎯bq쎯	-10.003
di0쎯	-10.0031
outrg쎯	-10.0037
ogdi쎯	-10.0037
nmsu0쎯	-10.0045
rhbr0쎯	-10.0046
ivke쎯yib쎯	-10.005
mfj0쎯mhaf0쎯	-10.0053
yukb0쎯nd0쎯	-10.006
ma0쎯oq0쎯	-10.0069
rc0쎯amyo쎯	-10.007
tlj쎯	-10.0073
iflwl쎯hdph0쎯	-10.0079
oq0쎯mfj0쎯gpim쎯	-10.008
kqomn쎯	-10.008
khsu쎯	-10.0081
nlqu쎯bkq쎯	-10.0083
():	-10.0084
hqm쎯miks0쎯	-10.0086
iogm쎯	-10.0088
opmys쎯	-10.0089
hdb0쎯wher0쎯	-10.0092
fjks쎯	-10.0095
vmog쎯hqm쎯qmvif쎯	-10.0095
ybo0쎯	-10.0097
,jnd0쎯	-10.0098
dbu쎯bmr0쎯	-10.0101
m쎯yrf1쎯	-10.0102
hbks0쎯	-10.0102
omgn쎯oh쎯	-10.0113
jvd쎯omnn0쎯	-10.0113
쎂oq0쎯	-10.0117
,m쎯	-10.0118
bd0쎯sje0쎯	-10.0119
hrok1쎯o쎯	-10.0123
()amyo쎯	-10.0127
dmnr쎯	-10.0132
sim쎯pwjo쎯	-10.0133
ivrc쎯rsln1쎯	-10.0142
dybs0쎯	-10.0143
kqqni쎯hdnin0쎯	-10.0143
tbnh0쎯	-10.0146
fb0쎯	-10.0149
,lw쎯md쎯	-10.0153
amyo쎯ol1쎯	-10.0154
wqs쎯vmjpu쎯	-10.0157
mn	-10.0164
qdhqu쎯	-10.0169
tbok0쎯yk0쎯	-10.0169
쎁쎉쎇쎄oq0쎯	-10.0172
sqnl0쎯ypmm쎯	-10.0172
her0쎯woll0쎯	-10.0174
jlln쎯jrok쎯	-10.0177
yg0쎯eir쎯	-10.0178
mwsl쎯edi0쎯	-10.0181
tb	-10.0183
bip쎯	-10.0184
oom0쎯ids쎯	-10.0186
nahu쎯khne쎯	-10.0188
uu0쎯nn0쎯	-10.0195
ino0쎯hmr0쎯,	-10.0196
y쎯	-10.02
kmym쎯lmik쎯	-10.0204
kqijb쎯	-10.0208
fdqmb쎯p쎯	-10.0212
wlpli쎯	-10.0216
,tc0쎯	-10.0218
tmmv0쎯mig0쎯	-10.0219
oini0쎯o쎯	-10.022
oiku쎯tgk쎯	-10.0221
,gisl쎯	-10.0221
crp0쎯vmgr쎯	-10.0222
tc0쎯fbrhu쎯rbo0쎯	-10.0223
wp쎯vmog쎯	-10.0224
ms0쎯rpu0쎯	-10.0227
fusmg쎯	-10.0228
mvr쎯	-10.0229
oiku쎯iav0쎯	-10.0232
po0쎯,	-10.0232
wdmbo쎯fdyt쎯	-10.0234
esd쎯	-10.0239
jka쎯.	-10.0243
쎁쎉쎇쎇oq0쎯	-10.0247
eyok쎯odm0쎯	-10.0251
hbv0쎯oos쎯hqphh쎯	-10.0257
hssmm쎯	-10.0259
qtbk쎯	-10.026
ejoc쎯	-10.0262
qsle쎯mjln쎯	-10.0269
yrnl0쎯po0쎯	-10.0272
sjr0쎯hdv쎯ommi0쎯	-10.0273
se0쎯	-10.0279
nklq쎯ddh쎯	-10.0281
ab0쎯ahqm0쎯	-10.0282
hbyi쎯	-10.0287
lmik쎯,	-10.0289
rno0쎯	-10.029
yjilj쎯yioj0쎯	-10.0292
viks0쎯lu0쎯	-10.0294
vmjoa쎯	-10.0295
hmr0쎯dt0쎯	-10.0295
hodi쎯	-10.0301
kqjqr쎯sk0쎯	-10.0301
fvok쎯j쎯	-10.0305
dembo쎯	-10.0306
qj0쎯jmrw쎯,	-10.0314
ogd0쎯wdh쎯k	-10.032
j쎯yc쎯	-10.0321
cism0쎯	-10.0326
oq0쎯oip0쎯	-10.0331
eypp1쎯	-10.0336
lnk0쎯msks0쎯	-10.0339
bb	-10.0341
phqm쎯dher쎯	-10.0343
famj0쎯	-10.0344
mpylm쎯lgyhv쎯	-10.0344
nkhg쎯	-10.0345
mblmi0쎯omr0쎯	-10.0349
egr쎯	-10.0355
ytumb쎯r쎯	-10.0359
bpa0쎯byhs쎯	-10.0359
mwsl쎯hdrc쎯쎄	-10.0361
lyp쎯	-10.0364
lnk0쎯.	-10.0371
oqni쎯kmnr0쎯	-10.0371
mf0쎯hoami쎯	-10.0375
wmgi쎯nlyhs쎯	-10.0382
tlwc쎯emnr쎯	-10.0389
vlmo0쎯	-10.0392
yfiku0쎯ommi0쎯	-10.0392
rau1쎯	-10.0397
omr0쎯dher쎯	-10.0397
lmik쎯imrhu쎯	-10.0398
po0쎯ite쎯	-10.0403
ydi0쎯eypp1쎯	-10.0403
my쎯ivhne쎯	-10.0404
쎈쎇	-10.0406
,mks1쎯ohg쎯	-10.0409
mwsl쎯hdrc쎯쎂	-10.0413
hdr0쎯mfj0쎯	-10.0413
etmb쎯ytap쎯	-10.0415
jmn쎯edhe쎯	-10.0417
hsbt0쎯	-10.0417
opytu쎯yk1쎯	-10.0417
hnd0쎯	-10.0418
mng0쎯rmvs쎯	-10.042
omg0쎯odm0쎯	-10.0424
onkq쎯hxh쎯	-10.043
opj0쎯o쎯	-10.0432
ppj쎯	-10.0438
qfbu0쎯qfq쎯	-10.0444
su1쎯ihs0쎯iksi쎯	-10.0446
oin쎯mk쎯	-10.0448
ll0쎯	-10.0453
hdln0쎯tcbt쎯	-10.0454
nklq쎯kb0쎯	-10.0456
nini0쎯mks0쎯ibpp쎯	-10.0458
mthhh쎯jcor쎯	-10.0462
j쎯mmm쎯	-10.0467
k0쎯hoggn쎯	-10.0468
hjrr쎯kqjqr쎯	-10.0471
bdhhh0쎯nau0쎯	-10.0474
fmu쎯fbnd0쎯	-10.0476
nmme0쎯yta0쎯	-10.0479
ci0쎯wg0쎯	-10.0481
vlok쎯ogd0쎯	-10.0482
nolmi0쎯ha쎯hjbo쎯	-10.0484
yjdl쎯	-10.0484
dm0쎯rrr0쎯	-10.0487
m쎯hqm쎯	-10.0489
qwli0쎯	-10.0497
dkmym0쎯mgwg쎯	-10.0498
mt0쎯ivhne쎯	-10.0499
쎈쎉	-10.05
qytv0쎯r쎯:	-10.0502
ekql쎯	-10.0504
holq쎯llmb쎯	-10.0506
m쎯jmyo쎯hapi0쎯	-10.0513
m쎯eyiu0쎯	-10.0514
ommi0쎯rbo0쎯i1쎯	-10.0515
qjsmp쎯	-10.0517
nmsu0쎯nlomm쎯	-10.052
e쎯hdbhx쎯	-10.052
fbnd0쎯i1쎯	-10.0521
lmuo쎯	-10.0522
hlb0쎯	-10.0523
yblb쎯wmgi쎯	-10.0524
tmpt쎯	-10.0528
ilr0쎯oip0쎯	-10.0528
imkd쎯	-10.0535
dhn0쎯ommi0쎯	-10.0541
okvif0쎯opj0쎯	-10.0543
쎁쎆쎀	-10.0545
dmmf0쎯imog쎯op0쎯	-10.0546
vio0쎯tbln0쎯	-10.0547
yth쎯amwg쎯	-10.0549
mks1쎯lk쎯ym0쎯	-10.0553
ogr0쎯hmr0쎯	-10.0555
nbg0쎯ite쎯	-10.0557
za3쎯iksi쎯	-10.0565
fd	-10.0567
nlytj쎯mrami쎯	-10.0568
le0쎯shlb0쎯	-10.0574
gr0쎯dd쎯	-10.0574
crp0쎯qhne0쎯iobo쎯	-10.0575
wc0쎯oq0쎯	-10.0576
mfj0쎯yhs쎯fd0쎯.	-10.0578
쎈쎄	-10.0579
iksi쎯yg0쎯hapi0쎯	-10.0582
chmbo쎯ivke쎯	-10.0583
tapv쎯	-10.0588
mt0쎯tk0쎯	-10.0588
of0쎯ofq0쎯	-10.0589
k0쎯dhkl쎯	-10.0591
vmng쎯vmpi쎯	-10.0591
ht0쎯vmnhe쎯	-10.0592
dmmf0쎯gp0쎯	-10.0592
ynib쎯bq쎯	-10.0593
쎁쎉쎇쎃oq0쎯	-10.0595
yrbr0쎯mgi1쎯	-10.0595
jlwl0쎯jmyo쎯	-10.0596
jv0쎯bmi쎯	-10.0601
hdv쎯fbrlb쎯hdv쎯	-10.0603
rhfd쎯rnhe0쎯	-10.0604
eno0쎯	-10.0606
jf0쎯	-10.0609
,ysok쎯oh쎯	-10.0614
wg0쎯hapi0쎯	-10.0617
hqm쎯rudi0쎯llmb쎯.	-10.0618
bsle0쎯heks0쎯,	-10.0619
tnih쎯	-10.0621
hqm쎯klnd쎯	-10.0626
mbhes쎯	-10.0627
m쎯je0쎯	-10.0628
sje0쎯hoami쎯nn0쎯	-10.0628
쎆쎁	-10.0628
ci0쎯smr쎯hapi0쎯	-10.0629
vmnom쎯nmomm쎯,	-10.0636
crp0쎯vmyiu쎯	-10.0636
emg쎯	-10.0641
vsql쎯	-10.0648
mmmv쎯	-10.0649
srtq0쎯odm0쎯	-10.065
ojrk쎯vnd쎯	-10.0655
krnvm쎯	-10.0655
ivmn쎯	-10.0658
wmgi쎯g쎯	-10.0659
mf0쎯ydi0쎯	-10.066
bhne쎯mwmmf0쎯	-10.0661
bkf0쎯hmr0쎯	-10.0662
hapi0쎯hqm쎯yth쎯	-10.0669
yg0쎯mwv쎯amyo쎯	-10.0676
opbo0쎯hqphh쎯	-10.0677
mmm쎯j쎯	-10.0679
dtmc0쎯	-10.0681
nn0쎯m쎯ol1쎯	-10.0682
qmb쎯qka쎯	-10.0684
dy쎯	-10.0686
쎇쎄	-10.0687
tcsh쎯	-10.0695
쎁.쎂	-10.0696
qni0쎯aombo쎯	-10.0696
mwhgr쎯	-10.0699
thbu0쎯hghu쎯	-10.07
bbke쎯vnd쎯jka쎯	-10.07
khiav쎯	-10.0701
m쎯yrnl0쎯csh0쎯	-10.0703
dyfe쎯	-10.0709
sj0쎯dhn0쎯	-10.0713
vmrlu쎯	-10.0713
imir쎯c쎯	-10.0713
fbnd0쎯rbo0쎯	-10.0714
de0쎯ihmv쎯	-10.0716
vr쎯ymp0쎯	-10.0717
ivmfj쎯ivop0쎯	-10.072
bopi쎯nyk쎯	-10.0721
,mgbhu쎯kb0쎯	-10.0722
goshr쎯vmnhe쎯	-10.0726
yg0쎯ohg쎯,	-10.0728
ophej쎯	-10.0729
ids쎯hqda0쎯	-10.073
ombb0쎯	-10.073
jm0쎯fbnd0쎯oyt쎯	-10.0734
wd1쎯eog0쎯	-10.0735
tjblb0쎯yk1쎯o쎯	-10.0738
fbrhu쎯hapi0쎯	-10.0742
(쎁)	-10.0742
eabt0쎯hae쎯	-10.0749
쎂쎀쎁쎃oq0쎯	-10.0749
쎄.	-10.0751
qqo쎯	-10.0752
kq0쎯hdrhg쎯	-10.0753
hbv0쎯oos쎯hqphh쎯.	-10.0755
asje쎯iksi쎯	-10.0761
hml쎯	-10.0764
ftmm0쎯	-10.0765
oq0쎯kqnom쎯	-10.0769
jmrw쎯kb0쎯	-10.077
afhhh쎯rhbr0쎯ks0쎯	-10.0771
srln0쎯za8쎯	-10.0777
ol1쎯odm0쎯	-10.0777
oyhs0쎯	-10.0782
owyi0쎯mk쎯	-10.0783
gtj쎯	-10.0785
mob0쎯	-10.0797
(쎂)	-10.0798
tesu쎯wqs쎯ob1쎯	-10.0798
on1쎯mmu0쎯	-10.0803
lsa쎯,	-10.0804
tcg0쎯smmi0쎯	-10.0811
yth쎯de0쎯	-10.0811
쎂쎀쎀쎃	-10.0811
ynib쎯ythu쎯	-10.0812
eapp0쎯impko쎯g쎯	-10.0814
hdcru1쎯heks0쎯	-10.082
hwmvs1쎯	-10.0823
crp0쎯fvok쎯	-10.0826
khndt쎯	-10.0826
ni1쎯	-10.0832
쎁쎂쎈	-10.0832
opnir쎯	-10.0832
tkhk0쎯hoami쎯nn0쎯	-10.0834
goru쎯ik1쎯	-10.0835
yhsb0쎯	-10.0836
tehr0쎯jyk쎯	-10.0841
,tt1쎯klg0쎯	-10.085
ivhne쎯ivj쎯llmb쎯	-10.085
ihs0쎯nn0쎯	-10.0855
,ksr쎯oh쎯	-10.0858
lmsy쎯eill쎯	-10.086
krru0쎯	-10.0861
ci0쎯jv0쎯	-10.0871
nmyg쎯gpd쎯	-10.0871
crp0쎯ci0쎯smr쎯	-10.0872
nvjpu쎯	-10.0877
nvno0쎯oiav0쎯	-10.0878
wyi0쎯ytd0쎯	-10.0881
ihs0쎯o쎯	-10.0884
jphi0쎯	-10.0886
rsnl0쎯	-10.089
fvok쎯qsjr쎯ikq쎯	-10.0892
gosje쎯	-10.0893
hfd0쎯	-10.0896
yeoiv0쎯mmn0쎯	-10.0897
suok0쎯ytt0쎯	-10.0898
csh0쎯mwsu쎯	-10.0899
vmfh쎯	-10.0902
moob쎯oq0쎯	-10.0902
wc0쎯k0쎯	-10.0902
ci0쎯smr쎯qbq쎯kb0쎯	-10.0905
amyo쎯m쎯yrnl0쎯	-10.0907
eykn쎯libhu0쎯	-10.0908
ikp0쎯yk1쎯	-10.0909
gyo쎯hbr0쎯	-10.091
efb0쎯op0쎯	-10.091
tj	-10.0911
ym0쎯vmnhe쎯	-10.0912
olhh0쎯suok0쎯	-10.0912
onnom쎯	-10.0914
lnbo쎯bq쎯	-10.0915
oom0쎯	-10.0917
tesu쎯k0쎯fbnd0쎯	-10.092
nnnao쎯	-10.0924
mbll쎯ihs0쎯	-10.0925
yit쎯	-10.0926
쎉쎃	-10.0928
qig0쎯	-10.0929
wr쎯:za2쎯	-10.0929
ivke쎯yk2쎯	-10.0935
쎃.쎅	-10.0936
miks0쎯eawe쎯	-10.0936
tp쎯	-10.0939
qbcd쎯ivdi쎯	-10.094
fdk0쎯ovio쎯	-10.0942
nahi쎯	-10.0942
esmb0쎯	-10.0944
jdok0쎯jmig쎯	-10.0947
dbln쎯ehsk0쎯	-10.0947
nir쎯jmso쎯	-10.0953
쎁쎉쎅쎅oq0쎯	-10.0955
cwa0쎯klg0쎯	-10.0956
ivke쎯goru쎯	-10.0958
쎁쎉쎆쎀oq0쎯	-10.0962
gpd쎯whey0쎯	-10.0963
qpp0쎯ivke쎯	-10.097
jv0쎯qlmy쎯	-10.0977
kb0쎯za2쎯	-10.0977
ofq0쎯	-10.0978
hqi0쎯hapi0쎯	-10.0979
yt	-10.0981
ykll쎯omg0쎯	-10.0982
onao쎯qmvif쎯	-10.0985
,gpd쎯heo쎯	-10.0985
hgdi쎯nini0쎯hdl0쎯	-10.0987
o쎯fvok쎯	-10.0991
qjlo쎯	-10.0992
dav쎯qsjr쎯gpd쎯	-10.0996
opd0쎯olis쎯hapi0쎯	-10.1002
―	-10.1002
libt0쎯jbof쎯	-10.1003
lso쎯	-10.1004
kqmj0쎯	-10.1005
gpim쎯iksi쎯	-10.1006
oos쎯bq쎯.	-10.1007
dm0쎯gpd쎯	-10.101
qi0쎯	-10.1011
쎀×	-10.1011
ymso0쎯	-10.1011
ayrf0쎯yrf1쎯	-10.1014
mgb0쎯imno0쎯	-10.1019
ym0쎯ivke쎯qmv쎯	-10.102
rsln1쎯wng0쎯	-10.102
tbln0쎯hmr0쎯	-10.1022
hdnsp쎯	-10.1023
ifnme쎯	-10.1026
쎀쎄	-10.1029
liptd쎯	-10.1032
nlmmf쎯	-10.1035
hdl1쎯nnqo0쎯	-10.1038
쎆oq0쎯	-10.104
eawe쎯	-10.1043
hapi0쎯qje쎯id1쎯	-10.105
쎉쎂	-10.1052
dbu쎯ovio쎯	-10.1053
쎅)	-10.1063
impko쎯	-10.107
mf0쎯mwv쎯	-10.1074
qive쎯	-10.1075
umr0쎯mr0쎯	-10.1075
tmmc0쎯jyk쎯	-10.1076
l0쎯p쎯i1쎯	-10.108
iklu0쎯	-10.108
kqomn쎯ytk쎯	-10.1081
eqmb0쎯adhl쎯	-10.1082
lnmcw쎯elw쎯	-10.1083
hapi0쎯yhs쎯ipm0쎯	-10.1086
hdph0쎯jphu0쎯	-10.1088
,shlb0쎯md쎯	-10.1093
ahbu0쎯	-10.1095
whey0쎯jvd쎯	-10.1101
,ksr쎯	-10.1104
hdv쎯fbrhu쎯dyck0쎯	-10.111
쎂쎂쎀	-10.111
hqmcw쎯hqhqm0쎯	-10.1112
phqm쎯hdr0쎯	-10.1119
qlmy쎯mnln쎯	-10.1124
thdn0쎯	-10.1126
timo쎯	-10.113
dhkl쎯ecd0쎯	-10.1133
ysrj쎯nahu쎯	-10.1138
ino0쎯tbln0쎯	-10.1142
ykok0쎯ifm쎯	-10.1146
bmr0쎯dtq쎯	-10.1152
tjln0쎯	-10.1156
hjrr쎯ythu쎯	-10.1158
쎂쎅쎀	-10.1159
sjtk쎯jtco0쎯	-10.116
hmr0쎯tcb0쎯	-10.116
fdqmb쎯jphu0쎯	-10.1161
ddh쎯hjbo쎯	-10.1161
wks0쎯nd0쎯	-10.1163
jiog쎯	-10.1167
hqgdi쎯jmyo쎯	-10.1167
khta쎯	-10.1167
dlnbo쎯	-10.1168
쎁rmvs쎯	-10.1168
za3쎯hdr0쎯za2쎯	-10.1171
wmgi쎯ythu쎯	-10.1171
,ylnc쎯	-10.1172
hvif쎯ivo쎯ivmym쎯	-10.1173
yri0쎯hohne0쎯	-10.1174
)i1쎯za8쎯	-10.1174
ci0쎯wg0쎯.	-10.1178
pawe쎯phqm쎯	-10.1182
omr0쎯bau쎯	-10.1183
opbk쎯ophqo쎯	-10.1183
bd0쎯bopi쎯	-10.1184
terd쎯	-10.1188
hnlh0쎯m쎯imno0쎯	-10.1193
hq	-10.1193
ifmrw쎯ilil쎯	-10.1194
mh0쎯hsyhs0쎯	-10.1196
쎉.	-10.1199
bk0쎯	-10.1199
dhn0쎯dpi1쎯.	-10.1206
9쎯	-10.121
nloll쎯	-10.1211
ymmi쎯oos쎯	-10.1212
m쎯my쎯	-10.1214
ivtt쎯llmb쎯	-10.1214
hbu0쎯eir쎯bmi쎯	-10.1215
hghu쎯ytt0쎯ol1쎯o쎯	-10.1215
hnk0쎯ayrf0쎯sk0쎯	-10.1219
eyiu0쎯amwg쎯	-10.1222
iku0쎯tmmc0쎯amyo쎯	-10.1223
hbv0쎯rvp쎯o쎯gpim쎯	-10.1225
sjrc0쎯heks0쎯	-10.1225
hdb0쎯	-10.1226
fsm0쎯oq0쎯	-10.1228
jmso쎯sjr0쎯	-10.1235
쎂쎀쎀쎇	-10.1236
쎇쎀쎀	-10.1237
ouln0쎯ksc쎯md쎯	-10.1237
vio0쎯tmmc0쎯	-10.124
qni0쎯tc1쎯op0쎯	-10.1244
tod0쎯rj쎯	-10.1244
tt1쎯mf0쎯	-10.1244
yrnl0쎯oyt쎯	-10.1246
ids쎯ivsu쎯.	-10.1246
ddi쎯i1쎯	-10.1247
jbmc0쎯jyk쎯	-10.1251
umgg0쎯	-10.1261
쎈쎃	-10.1263
tomr0쎯	-10.1265
nmfdq쎯	-10.1266
ihs0쎯janl쎯ylb쎯	-10.1269
ymmu0쎯hdrhg쎯	-10.127
qbbe0쎯de0쎯	-10.1273
gpd쎯ophqo쎯	-10.1273
,hqgdi쎯rsln1쎯	-10.1274
arf0쎯ab0쎯	-10.1275
tmm0쎯ilil쎯	-10.1282
gjbc쎯	-10.1287
mt0쎯ivke쎯hapi0쎯	-10.1287
tk0쎯tsl쎯	-10.129
smdi쎯qi0쎯	-10.1294
vio0쎯iksi쎯	-10.1297
dby0쎯	-10.1299
ahvl쎯	-10.1303
.쎇	-10.1305
hjtm쎯jbmm0쎯	-10.1306
ifm쎯ivyvo쎯	-10.1311
eyiu0쎯hdrhg쎯	-10.1312
ho	-10.1321
.mks1쎯ohg쎯	-10.1329
asje쎯nini0쎯	-10.1331
tgk쎯oiav0쎯	-10.1333
ichui쎯egi쎯	-10.1334
sjrc0쎯qmbo0쎯	-10.1335
epi0쎯ynib쎯	-10.1339
ivyvo쎯ddi쎯	-10.1341
ommi0쎯mgwg쎯jlln쎯	-10.1344
uu0쎯dt0쎯	-10.1346
nv	-10.1347
app0쎯lmi쎯	-10.1349
쎂쎀쎀쎈	-10.1352
l0쎯yk0쎯hvif쎯	-10.1354
oinl0쎯	-10.136
lis쎯is0쎯	-10.136
mnr쎯bhu0쎯	-10.1369
쎁쎉쎇쎁oq0쎯	-10.137
i1쎯yrbr0쎯	-10.1375
,md쎯	-10.1377
uu0쎯g쎯	-10.1379
pqmb쎯irp0쎯	-10.1381
tjblb0쎯kb0쎯	-10.1389
iksi쎯yg0쎯mwv쎯	-10.1392
lwu0쎯vmliu쎯	-10.1393
ymso0쎯ylmh0쎯	-10.1398
her0쎯vmnhe쎯	-10.1399
ocor쎯hdnf쎯	-10.1403
dhn0쎯rrikr쎯	-10.1404
omn1쎯napo쎯	-10.1405
rks0쎯niy쎯	-10.1407
nir쎯iksi쎯	-10.1407
stv쎯mt0쎯	-10.141
jrb쎯dyfe쎯fdcsh쎯	-10.1421
obmc쎯	-10.1422
rhu쎯	-10.1422
쎁)	-10.1429
efb0쎯nlyhs쎯	-10.1431
yrnl0쎯ohq쎯	-10.1436
oos쎯tc1쎯	-10.1437
ydhml0쎯sk0쎯	-10.144
albk0쎯	-10.144
tpib쎯tpou쎯	-10.1441
sbln0쎯	-10.1443
amyo쎯za2쎯	-10.1443
nl0쎯rudi0쎯	-10.1444
sjb0쎯	-10.1447
ddni쎯dup쎯	-10.1448
mgyrf쎯	-10.1451
.쎁쎂	-10.1452
nlav쎯hbln0쎯	-10.1453
ommi0쎯rbo0쎯.	-10.1454
npo쎯)	-10.1457
hqm쎯ihs0쎯	-10.1459
쎁쎉쎅쎂oq0쎯	-10.1465
wd0쎯jyk쎯	-10.1465
hdkkb쎯	-10.1466
쎇ol1쎯	-10.147
oik1쎯qmv쎯	-10.1474
hgdi쎯hgdi쎯	-10.1482
ym0쎯kb0쎯	-10.1491
aisl쎯mnr쎯.	-10.1491
eir쎯mgwg쎯	-10.1491
jphu0쎯ggdi쎯	-10.1492
ksc쎯mgwg쎯	-10.1495
kbnl1쎯	-10.1495
mm0쎯oq0쎯	-10.1496
vmgr쎯dl0쎯	-10.1496
hbt0쎯eyok쎯	-10.1499
쎈-	-10.15
bhae쎯	-10.1502
tbmo쎯jr쎯	-10.1503
vep쎯	-10.1506
za23쎯	-10.1507
gihs쎯vvh쎯	-10.1507
lwnl쎯	-10.151
nmsk쎯	-10.1512
l0쎯kb0쎯	-10.1513
odm0쎯mgbhu쎯	-10.1518
wvif쎯	-10.1523
mpylm쎯ee0쎯ylb쎯	-10.1525
mwg0쎯fd0쎯	-10.1527
:za8쎯	-10.1529
jlv0쎯	-10.1531
ivyvo쎯dyck0쎯	-10.1532
omrl쎯nir쎯	-10.1533
goiv쎯dt0쎯goiv쎯	-10.1534
yck0쎯qnbk1쎯	-10.1535
.jd1쎯	-10.1536
ei0쎯	-10.1541
yfiku0쎯mnr쎯vio0쎯	-10.1551
za9쎯hapi0쎯	-10.1552
opj0쎯kd0쎯	-10.1557
jibi쎯libhu0쎯	-10.156
tbln0쎯hxh쎯amyo쎯	-10.1562
zb	-10.1572
qobhu쎯boln0쎯	-10.1573
uog0쎯	-10.1575
ivnj쎯	-10.1575
l0쎯mcw쎯sok0쎯	-10.1575
yrbr0쎯rrr0쎯hjbo쎯	-10.1579
ydhml0쎯nklq쎯	-10.1581
nir쎯:	-10.1584
.vpd쎯	-10.1586
.fsm0쎯	-10.1586
mlm쎯tc1쎯wmmu0쎯	-10.1586
tca0쎯yhsb0쎯	-10.1587
ytwa쎯	-10.1589
nini0쎯hhsb쎯	-10.1589
yg0쎯ohg쎯i1쎯	-10.159
m쎯mgok0쎯	-10.1591
qmn0쎯mt0쎯	-10.1592
hapi0쎯adi쎯lsa쎯	-10.1597
yh쎯ehio쎯ifm쎯bq쎯	-10.1599
mgwg쎯jlln쎯i1쎯	-10.1599
ouln0쎯vir쎯o쎯	-10.1602
hvif쎯vmyiu쎯i1쎯	-10.161
,vmnom쎯ydi0쎯	-10.1611
bq쎯yomd쎯	-10.1612
hnlh0쎯ju쎯	-10.1612
jkmvs쎯jbof쎯	-10.1612
gmf0쎯	-10.1617
qjnau쎯	-10.162
.쎃i1쎯	-10.162
ivke쎯miks0쎯dhn0쎯	-10.1621
rc0쎯ibpp쎯	-10.1622
esd쎯ythu쎯	-10.1622
khsu쎯wllmy쎯	-10.1629
sk0쎯.	-10.1634
qi0쎯mgln0쎯	-10.1635
ivmym쎯ab0쎯	-10.1639
tqsmm쎯	-10.1641
jc	-10.1641
rog0쎯	-10.1649
j쎯k0쎯	-10.1651
qpa0쎯jmyo쎯	-10.1651
za3쎯amyo쎯	-10.1652
eomn0쎯	-10.1652
ebon쎯jmyo쎯	-10.166
ile쎯oahe쎯	-10.1664
vmbm0쎯ihs0쎯.	-10.1675
klg0쎯tgk쎯wmgi쎯	-10.1675
o쎯tmmc0쎯l0쎯	-10.1675
nlykb1쎯dhn0쎯	-10.1676
쎁쎉쎅쎉oq0쎯	-10.1677
ohqi쎯	-10.1678
dkmym0쎯mthhh쎯	-10.1684
ylmo1쎯yth쎯	-10.1685
bmr0쎯ylmh0쎯	-10.1685
ddi쎯le0쎯shlb0쎯md	-10.1692
tcg0쎯yrnl0쎯	-10.1692
v쎯ndyvo쎯	-10.1692
oppi1쎯	-10.1694
fhbu0쎯ylb쎯	-10.1697
goshr쎯ylb쎯	-10.1697
gwg쎯	-10.17
kb0쎯m쎯ol1쎯	-10.1703
eqhl쎯	-10.1707
yk0쎯hqphh쎯ord0쎯	-10.1712
dm0쎯hxh쎯	-10.1713
쎀.쎁	-10.1714
niy쎯wmgi쎯	-10.1718
iksi쎯yg0쎯.	-10.1719
쎃쎀쎀쎀	-10.1723
moob쎯imno0쎯	-10.1724
m쎯gnsh쎯	-10.1724
ci0쎯tcbt쎯	-10.1727
opbk쎯mgoin0쎯	-10.1729
ojrk쎯uu0쎯	-10.1733
opbo1쎯gfno쎯	-10.1744
-쎅	-10.1744
ifbhu쎯fbbhu쎯	-10.1748
oyhv0쎯egi쎯	-10.1751
obmc쎯hvd쎯yrnl0쎯.	-10.1757
쎯mmi쎯jbtj쎯fhbu0쎯	-10.1757
yvvv0쎯	-10.1758
ci0쎯smr쎯amyo쎯	-10.176
jphu0쎯mrnvm쎯	-10.1766
yrbb0쎯	-10.1768
l0쎯u쎯	-10.1773
nl	-10.1776
phqm쎯hjbo쎯	-10.1778
yptc0쎯qvio쎯	-10.1778
tcb0쎯lsa쎯,	-10.178
qruc쎯bysm쎯	-10.1782
enib쎯	-10.1785
mwyoj쎯	-10.1786
ehsk0쎯	-10.1786
vvwd쎯	-10.1786
oll쎯hjbo쎯	-10.1787
pi0쎯	-10.1789
mwahm쎯	-10.179
ci0쎯yg0쎯	-10.179
yav쎯od쎯	-10.1796
ammv쎯	-10.1797
ytap쎯ik1쎯	-10.1797
tbrr쎯tc1쎯	-10.1798
v쎯,	-10.1801
쎂)	-10.1802
pw쎯	-10.1805
mbo1쎯jbik0쎯.	-10.1805
hjwg쎯amwg쎯:	-10.1805
enot쎯	-10.1806
yyyce쎯,oq0쎯	-10.1808
lsh쎯tcb0쎯	-10.1808
쎁쎉쎅쎀oq0쎯	-10.181
nc쎯lu0쎯	-10.1814
hapi0쎯mlm쎯oos쎯	-10.1816
,nini0쎯	-10.1816
app0쎯	-10.1817
ivhne쎯klg0쎯	-10.1822
tmff0쎯	-10.1826
m쎯yrnl0쎯	-10.184
qkni0쎯egi쎯	-10.1847
yhe0쎯	-10.1851
suok0쎯vmisb쎯	-10.1859
hapi0쎯her0쎯hdl0쎯	-10.1859
pcru1쎯	-10.1859
oylm0쎯tc1쎯,	-10.186
zxan쎯	-10.1862
lim0쎯	-10.1862
klg0쎯za8쎯	-10.1871
iobt쎯	-10.1873
qlmo쎯yri0쎯	-10.1874
dpi1쎯nklq쎯	-10.188
okt쎯	-10.1882
ma0쎯vhqm쎯	-10.1885
boij0쎯	-10.1889
jmn쎯muhe0쎯	-10.1889
yjdl쎯dyfe쎯	-10.189
txc쎯sjrc0쎯	-10.1891
qbou1쎯	-10.1894
hnk0쎯rjd0쎯	-10.1902
yad쎯	-10.1904
jher쎯is0쎯hapi0쎯	-10.1905
ci0쎯ifg쎯	-10.1905
csh0쎯dje0쎯	-10.1906
kd0쎯jbtj쎯mtc0쎯	-10.1906
ev0쎯	-10.1906
bbke쎯wmgi쎯	-10.1911
fubkq쎯fhag쎯	-10.1911
vmvfd쎯nnqo0쎯	-10.1916
eabt0쎯ilil쎯	-10.1924
r쎯bjcm쎯	-10.1924
mfhnk쎯	-10.1925
klg0쎯yyk쎯wg0쎯	-10.1929
ym0쎯ylb쎯	-10.1931
ebcd쎯ite쎯	-10.1931
tksc쎯sjtk쎯	-10.1932
m쎯oip0쎯	-10.1937
wp쎯jkmvs쎯	-10.1942
ylmo1쎯oqni쎯	-10.1944
mmok쎯egi쎯	-10.1944
ftmd쎯ukf0쎯	-10.1947
tlit쎯nau0쎯	-10.1949
am0쎯	-10.195
hnlh0쎯쎃	-10.1951
쎀.쎂	-10.1954
qmr쎯stv쎯	-10.1959
,rmss쎯yukb0쎯	-10.1959
olhh0쎯nklq쎯	-10.1967
hne0쎯hnhag0쎯	-10.1968
mbtjb0쎯	-10.1968
jvd쎯ohq쎯	-10.1969
kqkn쎯ythu쎯	-10.197
lcor쎯	-10.1974
rnhe0쎯nl0쎯	-10.1974
hqm쎯yth쎯hapi0쎯	-10.1975
mk쎯gpd쎯	-10.1977
nc쎯qme쎯	-10.1979
rrikr쎯i1쎯	-10.1991
,po0쎯	-10.1994
쎁쎉쎅쎃oq0쎯	-10.1995
,mf0쎯vdhml쎯	-10.1996
crp0쎯odm0쎯	-10.1999
qdtt쎯	-10.1999
ths쎯	-10.2001
ivtt쎯yid0쎯nn0쎯	-10.2003
oymr쎯bq쎯	-10.2008
쎂쎀쎀쎅	-10.2008
ojlk쎯bq쎯hapi0쎯	-10.2009
smf0쎯ehjr쎯	-10.2011
tomr0쎯tmm0쎯	-10.2012
hhqu쎯ivsu쎯dm0쎯	-10.2015
쎅csh0쎯opl쎯	-10.2016
fdqmb쎯tlbk0쎯	-10.2016
kosu쎯	-10.2017
oiku쎯mhog0쎯	-10.2018
ytrhu쎯jtco0쎯	-10.202
csh0쎯klb쎯klg0쎯	-10.2021
(쎁쎉쎁	-10.2024
lbyr쎯	-10.2026
ogd0쎯za9쎯	-10.2028
(-)	-10.203
:쎃	-10.203
′	-10.2042
ehjr쎯miks0쎯,	-10.2045
wrbo쎯mthhh쎯	-10.2047
mwsl쎯fdcsh쎯	-10.205
opbo0쎯hlb0쎯	-10.2055
yg0쎯tbrr쎯	-10.2062
hqm쎯hqphh쎯fbnd0쎯	-10.2068
mrmbo0쎯	-10.2069
ohvl쎯	-10.2069
klg0쎯md쎯	-10.207
qrbo쎯	-10.2074
eev0쎯	-10.2077
dtak쎯gdk쎯	-10.2078
tchml쎯zxaf쎯	-10.2079
oip0쎯qmv쎯oos쎯	-10.2082
fh쎯v쎯	-10.2086
쎇.	-10.2095
hmr0쎯hapi0쎯	-10.2096
top0쎯jt0쎯	-10.2099
qtt0쎯	-10.2103
sok0쎯llmb쎯,	-10.2106
nn0쎯.	-10.2107
hapi0쎯hjrr쎯mgwg쎯	-10.2109
,hqi0쎯	-10.2111
vmnau쎯edi0쎯	-10.2112
kqyck쎯k0쎯	-10.2113
yg0쎯ksc쎯	-10.2113
ivsu쎯za9쎯	-10.2114
lswl쎯	-10.2115
yrbu0쎯fd0쎯,yhjr쎯	-10.2123
kmob쎯o쎯	-10.2128
au0쎯hhoe0쎯	-10.2129
nlmnr쎯nf0쎯	-10.213
raa쎯llml쎯	-10.2131
toll0쎯hqm쎯	-10.2131
fvok쎯qjcm쎯	-10.2132
yjheo쎯	-10.2132
gpim쎯kb0쎯	-10.2141
dbu쎯oinl0쎯	-10.2142
gam쎯	-10.2145
elw쎯muw쎯	-10.2147
yce0쎯ihs0쎯	-10.2149
m쎯hjhne쎯	-10.215
uu0쎯llhe쎯ifg쎯:	-10.215
jcrob쎯	-10.2158
hycr쎯hyha쎯	-10.2162
쎁쎉쎃쎆oq0쎯	-10.2164
mtch쎯ivtlm쎯	-10.2165
tc	-10.2167
za9쎯hdr0쎯za8쎯	-10.2167
rapv쎯	-10.217
qhvl쎯hbln0쎯	-10.2171
(쎁쎉쎀	-10.2171
tmfj쎯wd0쎯	-10.2172
mgln0쎯yk2쎯	-10.2177
vmjpu쎯	-10.2178
sk0쎯rsln1쎯	-10.2178
gonsm쎯qiks쎯	-10.2181
sip0쎯	-10.2182
brog0쎯yoln0쎯	-10.2183
hgdi쎯sjrc0쎯.	-10.2185
adi쎯olnk0쎯	-10.2187
eyok쎯mgi1쎯	-10.2189
tlmi0쎯	-10.2189
l0쎯yk0쎯nir쎯hdnf쎯	-10.2192
ccc쎯	-10.2192
---	-10.2193
k0쎯qni0쎯	-10.2195
qytv0쎯vlok쎯	-10.2196
janl쎯ommi0쎯	-10.2196
qtc쎯	-10.2197
i1쎯fbrhu쎯vmbm0쎯	-10.2197
qfq쎯	-10.2204
mhaf0쎯ouln0쎯	-10.2204
ci0쎯smr쎯.	-10.2208
.mbll쎯	-10.2214
,ymp0쎯	-10.2215
khhw쎯	-10.2216
bnmu0쎯	-10.2217
atc0쎯klnd쎯	-10.2219
llnsh쎯	-10.2221
lwu0쎯ir0쎯	-10.2222
qrrd쎯	-10.2225
hj0쎯oq0쎯	-10.2226
homm0쎯	-10.223
oqni쎯za9쎯	-10.2236
쎈oq0쎯	-10.2239
asje쎯lsh쎯	-10.2242
bmi쎯vmnhe쎯	-10.2244
pog0쎯	-10.2247
nlyhs쎯ylm쎯	-10.2249
iobo쎯ebcd쎯	-10.2249
eqki0쎯	-10.2251
.vr쎯	-10.2253
nrli쎯op0쎯	-10.2256
m쎯qpp0쎯	-10.2258
tpfd쎯	-10.2259
/쎂	-10.226
oqni쎯irp0쎯rrikr쎯	-10.2261
ehio쎯	-10.2262
hhw쎯fbnd0쎯	-10.2263
mwsl쎯hdrc쎯쎅	-10.2265
jlln쎯hqphh쎯	-10.2265
vmpi쎯쎁	-10.2265
pim쎯	-10.2269
.yyk쎯hdl0쎯	-10.227
nir쎯jnd0쎯	-10.227
mhaf0쎯nd0쎯	-10.227
hqm쎯rudi0쎯llmb쎯,	-10.227
lmnii쎯tmmc0쎯	-10.2271
gydk쎯	-10.2276
쎁.쎀	-10.2278
mwsu쎯hew쎯	-10.228
heo쎯heo쎯po0쎯	-10.228
l0쎯wmgi쎯hdyj0쎯	-10.2282
kn1쎯	-10.2284
kqyck쎯nrli쎯	-10.2286
쎉쎀쎀	-10.2286
yrnl0쎯yrnl0쎯po0쎯	-10.2287
mf0쎯iav0쎯	-10.2288
rut0쎯fbrlb쎯	-10.2289
yhs쎯ipm0쎯:	-10.229
gamo쎯	-10.2293
wfik쎯	-10.2293
qbq쎯	-10.2293
nsbt0쎯	-10.2294
jcm쎯bkq쎯	-10.2294
vmhds쎯	-10.2297
mr0쎯jmso쎯ig0쎯	-10.2297
mwln쎯yg0쎯ohg쎯i1쎯	-10.2299
her0쎯k0쎯	-10.2299
mrfdq쎯	-10.2301
phqm쎯i1쎯	-10.2305
쎁쎉쎆쎁oq0쎯	-10.2306
쎂쎀쎀쎆	-10.2308
dyck0쎯sk0쎯	-10.2312
vnhs쎯	-10.2314
nvhe쎯iyr쎯	-10.2318
bgr0쎯tcb0쎯	-10.2319
ylmh0쎯hommn0쎯	-10.2319
쎁쎀-	-10.232
ivtq쎯	-10.2324
afhhh쎯onao쎯	-10.2328
pd0쎯mf0쎯	-10.2329
jr쎯gihs쎯	-10.2332
ifsmr쎯	-10.2333
wmgi쎯yt0쎯	-10.2333
za9쎯tkhk0쎯	-10.2342
hbt0쎯hjrr쎯	-10.2342
hohne0쎯	-10.2344
hnk0쎯fmu쎯	-10.2345
ynbo0쎯hoami쎯nn0쎯	-10.2347
goiv쎯jbtj쎯	-10.2348
,qamo쎯yrbr0쎯	-10.235
uu0쎯dt0쎯hapi0쎯	-10.2351
eha쎯	-10.2355
teib쎯	-10.2356
oip0쎯mrnvm쎯	-10.2358
klg0쎯wmgi쎯ob1쎯	-10.2363
dgce쎯	-10.2365
mdm쎯ol1쎯	-10.2366
hlo0쎯	-10.2369
lwu0쎯oymr쎯	-10.2371
pd0쎯mnr쎯vio0쎯	-10.2374
my쎯shlb0쎯	-10.2377
nini0쎯fvok쎯	-10.238
mgilg쎯,	-10.2382
ehs쎯	-10.2383
dnhe쎯iksi쎯	-10.2386
jchwe쎯r쎯	-10.2389
ha쎯fdilr쎯	-10.2397
oyub0쎯	-10.2398
jav쎯	-10.2401
dbu쎯ykq0쎯	-10.2401
yjilj쎯	-10.2402
.hqi0쎯olis쎯	-10.2409
l0쎯wmgi쎯k0쎯nlqu쎯	-10.2409
mwln쎯yrnl0쎯po0쎯	-10.2411
ijb0쎯	-10.2416
,fbrlb쎯	-10.2416
her0쎯wmgi쎯	-10.2418
ddi쎯o쎯.	-10.2428
to	-10.2438
qmku쎯	-10.2439
t쎯	-10.2443
ohkl쎯	-10.2443
rvl쎯ojrk쎯	-10.2443
vmm0쎯bkq쎯	-10.2445
olhh0쎯oahe쎯	-10.2453
irp0쎯pqmb쎯	-10.2459
hdln0쎯mtc0쎯	-10.2461
wg0쎯.	-10.2463
qpa0쎯fvok쎯	-10.2467
쎁i1쎯	-10.2471
nir쎯fcymr쎯	-10.2477
yt0쎯odm0쎯	-10.2477
hapi0쎯oos쎯rrr0쎯	-10.2481
jhgu쎯	-10.2482
m쎯rc0쎯	-10.2487
if	-10.2488
eyg0쎯:za2쎯	-10.249
gcv쎯	-10.249
hqgdi쎯yrf1쎯:	-10.2493
ivke쎯stv쎯,	-10.2498
(fbnd0쎯nir쎯:)	-10.2503
kkkk0쎯	-10.2507
쎅쎀쎀쎀	-10.2512
bmi쎯o쎯,	-10.2515
k0쎯emcw0쎯iyr쎯	-10.2515
tino쎯	-10.2521
pd0쎯yfiku0쎯amyo쎯	-10.2521
hqgdi쎯hdl0쎯	-10.2522
fdjrb쎯	-10.2526
ypd0쎯	-10.253
.qsjr쎯	-10.253
hijd쎯ks0쎯	-10.2531
ehjr쎯miks0쎯.	-10.2532
tc1쎯vmqmo쎯	-10.2538
,oryo0쎯ytt0쎯	-10.2541
ivtt쎯yid0쎯	-10.2546
bbpm쎯	-10.2547
pp0쎯romn0쎯	-10.2549
hnlh0쎯mm0쎯slw0쎯	-10.255
fqln0쎯	-10.2552
app0쎯ab0쎯	-10.2555
dtmm0쎯	-10.2557
tk0쎯opnkq쎯	-10.2559
uk0쎯	-10.2561
thrj0쎯	-10.2561
pav쎯	-10.2566
pmmr0쎯	-10.2567
hdv쎯qhp0쎯	-10.2568
rmvs쎯:	-10.257
쎁쎉쎃쎉oq0쎯	-10.2576
dyhn쎯	-10.2577
mnf0쎯jm0쎯	-10.2577
rjd0쎯fdqmb쎯	-10.2581
m쎯odm0쎯op0쎯	-10.2582
hed0쎯ohq쎯my쎯	-10.2592
hsyhs0쎯lsa쎯	-10.2592
thjg0쎯jlln쎯	-10.2597
onnme쎯	-10.2598
fmc쎯gosje쎯	-10.2602
tn0쎯o쎯	-10.2602
eog1쎯	-10.261
vis쎯	-10.2613
pru쎯qhjr쎯:	-10.2616
za9쎯l0쎯hapi0쎯	-10.2616
ivj쎯amwg쎯	-10.2617
pi1쎯	-10.2618
kmmf0쎯	-10.262
yukb0쎯mt0쎯	-10.262
tefh쎯	-10.2621
uu0쎯hbu0쎯	-10.2625
ypmm쎯	-10.2625
mpylm쎯id1쎯	-10.2626
mh0쎯ycbr0쎯	-10.2629
brog0쎯tbg0쎯	-10.263
vmshr0쎯	-10.2632
ubk쎯oyt쎯	-10.2634
famj0쎯qytv0쎯	-10.2636
mwsl쎯hdrc쎯쎁	-10.2636
yhsk쎯ivqmb쎯	-10.2641
쎂쎀쎁쎂	-10.2641
j쎯m쎯	-10.2642
hjwg쎯nklq쎯	-10.2644
kb0쎯hbv0쎯is0쎯	-10.2647
ivdi쎯ivop0쎯	-10.265
ivshr쎯	-10.2652
houfk0쎯	-10.266
,su1쎯	-10.266
ond쎯	-10.2663
dbmr0쎯	-10.2663
eyiu0쎯ynib쎯	-10.2664
.wk0쎯	-10.267
-쎆	-10.2675
rbo0쎯i1쎯	-10.2682
ci0쎯pmbo0쎯	-10.2682
,amyo쎯l0쎯wmgi쎯	-10.2686
opjbc쎯fbrhu쎯hdv쎯	-10.2695
amyo쎯tgk쎯wmgi쎯	-10.2696
hdnf쎯ino0쎯iksi쎯	-10.2698
fbrhu쎯dyck0쎯	-10.2699
mwsu쎯kb0쎯	-10.2701
kd0쎯jbtj쎯yrnl0쎯	-10.2702
쎁쎉쎄쎀oq0쎯	-10.2704
edi0쎯yhs쎯	-10.2705
suf0쎯	-10.2709
tbln0쎯hxh쎯iksi쎯	-10.2709
qsm쎯qtw0쎯	-10.271
""	-10.2711
hxh쎯ocsh쎯	-10.2712
ob1쎯niy쎯	-10.2714
mcw쎯lmp0쎯yrnl0쎯	-10.2715
mf0쎯okr0쎯	-10.2716
mrmlk쎯ohq쎯	-10.2717
qjcm쎯bhne쎯	-10.2719
aombo쎯ddh쎯	-10.272
hlno0쎯	-10.2724
wg0쎯mwsl쎯	-10.2725
쎇쎁	-10.2725
yce0쎯mthhh쎯	-10.2725
wdmbo쎯	-10.2725
owyi0쎯m쎯	-10.2734
hqphh쎯rrr0쎯	-10.2734
쎁쎁쎀	-10.2735
kb0쎯hshml쎯	-10.2735
mnr쎯otc쎯	-10.2735
ydhml0쎯gihs쎯	-10.2739
dtmm0쎯bu0쎯	-10.2741
k0쎯nini0쎯fvok쎯	-10.2744
oomn0쎯	-10.2747
ehgu쎯imnsd쎯,	-10.2747
mlm쎯tn0쎯tgk쎯id1쎯	-10.2752
nkhym쎯olwl쎯	-10.2757
yrnd쎯kb0쎯	-10.2758
,mthhh쎯ihs0쎯	-10.2767
ybou1쎯	-10.2767
jmd쎯jlw쎯	-10.2768
za3쎯(	-10.2768
ysono0쎯kqqni쎯	-10.2769
쎈쎁	-10.2771
qapv쎯	-10.2776
fjcr쎯	-10.2776
쎈b쎯ikhhh쎯ksr쎯	-10.2777
tkr0쎯mj쎯	-10.278
bo	-10.2785
ivym쎯o쎯	-10.2796
oibi쎯	-10.2801
edd0쎯	-10.2811
hbln0쎯tvmi2쎯	-10.2811
jkp0쎯o쎯	-10.2812
mrptd쎯	-10.2812
ki0쎯mfj0쎯etq0쎯	-10.2815
()i1쎯	-10.2817
za14쎯	-10.2818
gpim쎯omn1쎯eabt0쎯	-10.2819
ywlb쎯mgln0쎯	-10.2819
ojlk쎯bq쎯.	-10.2825
yrnd쎯	-10.2825
qsm쎯	-10.2827
mbll쎯ihs0쎯.	-10.2828
vmbme쎯	-10.283
ci0쎯mmu0쎯tbln0쎯	-10.2832
)o쎯.	-10.2834
iiil0쎯	-10.2835
ivhne쎯hew쎯,	-10.2837
hlsa쎯oll쎯	-10.2837
eher쎯nla쎯	-10.2845
opoii쎯	-10.285
klg0쎯m쎯goru쎯	-10.285
k0쎯omn1쎯	-10.2852
hdyj0쎯fbnd0쎯ysm쎯	-10.2853
hqm쎯ehjr쎯hapi0쎯	-10.2862
vmnom쎯opfb쎯	-10.2863
쎂쎀쎀쎄	-10.2864
moog0쎯	-10.2864
omrl쎯nir쎯iksi쎯	-10.2868
qytv0쎯gyrv쎯	-10.287
itxc쎯	-10.287
ommi0쎯po0쎯	-10.2871
j쎯wc0쎯	-10.2873
mku쎯nlav쎯	-10.288
hovie쎯	-10.2882
irp0쎯bbe쎯	-10.2883
khivk쎯	-10.2883
fsm0쎯tbln0쎯	-10.2883
gomj쎯	-10.2885
m쎯llml쎯	-10.2889
omdm0쎯	-10.2893
vsm쎯hdyj0쎯	-10.2894
mlm쎯ommi0쎯	-10.2895
ytt0쎯uu0쎯r쎯	-10.2895
qni0쎯eyg0쎯md쎯	-10.2905
peg쎯cwmr쎯	-10.2907
wr쎯mgln0쎯	-10.2908
za9쎯knd0쎯gp0쎯	-10.2911
eylh0쎯	-10.2913
yrbr0쎯yk2쎯	-10.2915
zxao쎯	-10.2917
lsehr쎯	-10.2919
za2쎯l0쎯wmgi쎯	-10.292
piku쎯	-10.2921
qytv0쎯hogdi쎯	-10.2921
mwhd0쎯	-10.2923
vhk쎯	-10.2923
mf0쎯ivtq쎯	-10.2924
ci0쎯wg0쎯,	-10.2927
mbdbu쎯	-10.2938
kd0쎯yrf0쎯	-10.2938
bss쎯	-10.2939
qke0쎯wmgi쎯	-10.294
ehjr쎯phqm쎯	-10.2941
bkk쎯ymy0쎯	-10.2941
ino0쎯heo쎯	-10.2941
hghu쎯hmr0쎯klg0쎯	-10.2943
:쎁.	-10.2945
owyi0쎯m쎯ol1쎯	-10.2946
jdok0쎯yib쎯ssr쎯	-10.2947
jcks쎯	-10.295
jkmvs쎯ypp0쎯	-10.2951
ycbr0쎯hhbo0쎯	-10.2955
gpd쎯yth쎯	-10.2955
k0쎯amwg쎯hapi0쎯	-10.2956
×쎂	-10.2956
yks쎯,rmss쎯yukb0쎯	-10.2957
nl0쎯goru쎯hapi0쎯	-10.2959
fpu쎯	-10.296
mgdd쎯	-10.2962
mnr쎯hgrly쎯	-10.2969
oam쎯amyo쎯	-10.2971
ldhe쎯fcymr쎯iksi쎯	-10.2971
mgbhu쎯su1쎯	-10.2973
bov쎯	-10.2976
crp0쎯vmij0쎯	-10.2977
wks0쎯v쎯	-10.2982
yrbr0쎯ydhml0쎯qj	-10.2984
sje0쎯uu0쎯	-10.2985
gpd쎯yrf1쎯	-10.2986
hikp쎯	-10.2986
qif0쎯pqmb쎯	-10.2993
ycbr0쎯gnsh쎯	-10.2993
nmp0쎯phqm쎯	-10.2994
,mgbhu쎯klg0쎯	-10.2995
e쎯id1쎯oylm0쎯tc1쎯	-10.2998
km0쎯kr0쎯,	-10.2999
oylm0쎯	-10.3005
,yfiku0쎯amyo쎯	-10.3006
on1쎯mmu0쎯,	-10.3008
mfj0쎯ir0쎯.	-10.3008
hoyg쎯hoyg쎯	-10.3008
gpd쎯gylm쎯:	-10.301
fbnd0쎯qni0쎯tc1쎯	-10.3012
ykll쎯omg0쎯,	-10.3013
ab0쎯mrnbg쎯	-10.3014
ssu쎯	-10.3014
쎁쎀csh0쎯opl쎯	-10.3015
쎁쎉쎃쎈oq0쎯	-10.3017
iksi쎯dm0쎯	-10.3017
().	-10.3024
oylm0쎯tc1쎯hapi0쎯	-10.3025
lb	-10.3029
qytv0쎯yhml쎯	-10.3033
yc쎯oq0쎯	-10.3036
yhs쎯opj1쎯	-10.3042
m쎯hshml쎯	-10.3042
miks0쎯bine쎯	-10.3043
atc0쎯mmf0쎯stt쎯	-10.3043
a1쎯:za2쎯	-10.3045
whey0쎯mthhh쎯	-10.3047
fq0쎯pysu쎯	-10.3048
oyg쎯hsyhs0쎯	-10.3057
vmyhj쎯	-10.3058
gah쎯yta0쎯	-10.3058
ojrk쎯mgln0쎯	-10.306
dtak쎯hqgdi쎯	-10.3067
napo쎯homym쎯	-10.3069
jrb쎯twln1쎯y쎯	-10.307
omlk쎯hdln0쎯,	-10.3072
c쎯lnk0쎯	-10.3074
.hmr0쎯	-10.3084
ywln쎯kqrsj쎯	-10.3085
쎈.	-10.3087
dhml0쎯	-10.309
bhwj쎯	-10.3091
nlyhs쎯qis쎯	-10.3093
vio0쎯o쎯iksi쎯dm0쎯	-10.31
]	-10.3101
kqrsj쎯	-10.3102
vr쎯oin쎯	-10.3102
hapi0쎯tcg0쎯mruu쎯	-10.3102
ytrhu쎯nsd0쎯ks0쎯	-10.3106
쎁쎉쎆쎇oq0쎯	-10.311
쎀.쎃	-10.3111
.za3쎯eqmb0쎯	-10.312
nlnhx쎯	-10.3124
skno쎯tgk쎯	-10.3136
eyrd쎯	-10.3138
qsje0쎯	-10.3139
vmisb쎯hdv쎯	-10.314
eqmb0쎯jjb0쎯	-10.314
opij쎯,	-10.3144
cwj0쎯oyt쎯.	-10.3146
nqlmi쎯	-10.3147
jdok0쎯vmkvc쎯	-10.3151
bkk쎯mbo0쎯	-10.3152
ogr0쎯	-10.3163
쎉-	-10.3165
j쎯ju쎯	-10.3168
vmisb쎯rmvs쎯:	-10.3171
jdok0쎯mrmt쎯	-10.3172
za9쎯m쎯ids쎯	-10.3176
,ymf0쎯kb0쎯	-10.3178
jrok쎯nlytj쎯	-10.3179
mku쎯opaph쎯	-10.3184
dfsm쎯	-10.3184
ebhu0쎯fbrbo쎯	-10.3185
eysd0쎯qu0쎯nlo쎯	-10.3188
쎁쎉쎄쎅oq0쎯	-10.319
om	-10.3191
vmpu쎯vlok쎯oh쎯	-10.3195
mf0쎯fh쎯	-10.3195
쎂쎀쎁쎁	-10.3196
my쎯hapi0쎯	-10.3196
mrmt쎯jckn쎯jmig쎯	-10.3203
po0쎯jv0쎯	-10.3204
jjon0쎯	-10.3204
viav쎯	-10.3209
eowy쎯ummj0쎯	-10.3209
thbu0쎯itlb쎯	-10.321
쎂쎅쎆	-10.321
oo0쎯mbll쎯	-10.321
ehkp쎯ksr쎯	-10.3214
dpi1쎯	-10.322
rog0쎯m쎯hapi0쎯	-10.3221
hapi0쎯mgwg쎯dup쎯	-10.3222
sj	-10.3222
id1쎯ivmmr쎯	-10.3223
v쎯o쎯	-10.3225
mlwk쎯amyo쎯	-10.3225
bsle0쎯nvolb쎯	-10.3227
oop0쎯ydok0쎯	-10.3229
shr쎯mt0쎯	-10.3229
oimbo0쎯rudi0쎯my쎯	-10.3234
edam쎯	-10.3241
.iksi쎯nn0쎯	-10.3241
mmok쎯eir쎯yrnl0쎯	-10.3242
(.)	-10.3242
kb0쎯qdtt쎯gpd쎯	-10.3242
_	-10.3242
q쎯egi쎯	-10.3245
쎀%	-10.3246
opcru쎯	-10.3246
fbln쎯	-10.325
wks0쎯o쎯	-10.3252
otc쎯lwu0쎯	-10.3259
쎇oq0쎯	-10.3261
l0쎯vmnhe쎯	-10.3262
yg0쎯dhe1쎯	-10.3262
qybk0쎯	-10.3266
hhsb쎯,	-10.3274
lwu0쎯mrtvi0쎯	-10.3277
ehf1쎯	-10.3278
owyi0쎯a0쎯	-10.3283
je0쎯nlo쎯	-10.329
e쎯wd0쎯	-10.3292
fmu쎯nmsk쎯	-10.3294
쎆.	-10.3297
rrikr쎯ddh쎯	-10.3297
qrbo쎯ooks쎯	-10.3298
lihej쎯	-10.3299
llmb쎯hqm쎯	-10.3302
ss0쎯k0쎯	-10.3304
fbmmi쎯	-10.3307
mdm쎯c쎯	-10.3309
csh0쎯je0쎯	-10.3309
rsln1쎯o쎯	-10.331
levif쎯jphu0쎯	-10.3314
lw쎯ymp0쎯	-10.3315
re0쎯	-10.3318
llml쎯,	-10.3323
srnl1쎯	-10.3323
cwj0쎯oyt쎯,	-10.3324
eomd0쎯fdyj쎯	-10.3325
fog0쎯	-10.3325
uni0쎯.	-10.3332
sk1쎯	-10.3334
yrbr0쎯smmi0쎯	-10.3335
ee1쎯yhs쎯	-10.3339
hoav0쎯yrbr0쎯	-10.3339
rksr쎯rlmy쎯	-10.3339
tc1쎯kb0쎯nlav쎯	-10.3342
hdyj0쎯rbo0쎯	-10.3346
fdqmb쎯vmw쎯	-10.3347
lwnl쎯mmok쎯	-10.3347
rine쎯	-10.3352
iksi쎯dyvo쎯p쎯	-10.3353
hsk0쎯	-10.3354
tkymr쎯jbof쎯	-10.3354
tyv0쎯	-10.3354
ymb쎯	-10.3358
qfq쎯pim쎯	-10.3358
khey쎯knib쎯	-10.3366
kd0쎯lmp0쎯yrnl0쎯	-10.3367
nau0쎯eeq0쎯	-10.3369
dt0쎯mgln0쎯	-10.3373
pqmb쎯qsle쎯	-10.3373
|	-10.3374
jiyhv0쎯	-10.3375
vmbm0쎯ihs0쎯,	-10.3375
wks0쎯ee0쎯ysook0쎯	-10.3378
bmi쎯o쎯.	-10.3378
fdqmb쎯bdhhh0쎯	-10.3384
yg0쎯ohg쎯.	-10.339
hlsa쎯oll쎯:	-10.3391
ssr쎯po0쎯	-10.3392
쎀yyycg쎯	-10.3393
fdqmb쎯gybt쎯	-10.3395
ni0쎯	-10.3396
jcor쎯amwg쎯:	-10.3397
dbu쎯vmgr쎯omr0쎯	-10.3399
ebhu0쎯ebon쎯	-10.3402
omg0쎯a0쎯hbln0쎯	-10.3403
mcw쎯jbtj쎯yrnl0쎯	-10.3404
ivke쎯uu0쎯	-10.3406
쎯yth쎯tc1쎯o쎯fvok쎯	-10.3412
oo0쎯jlln쎯hnlh0쎯m	-10.3413
tca0쎯nhe쎯	-10.3417
jdok0쎯llmb쎯,	-10.342
hdyj0쎯hdyj0쎯po0쎯	-10.342
(mhaf0쎯	-10.3421
tc0쎯yth쎯fbrhu쎯.	-10.3425
쎁쎉쎄쎁oq0쎯	-10.3427
l0쎯wmgi쎯tgk쎯id1쎯	-10.3429
ytt0쎯jm0쎯	-10.343
eqmb0쎯qif0쎯	-10.3434
ids쎯egi쎯jmso쎯	-10.3434
\	-10.3437
dbu쎯oymr쎯	-10.3438
vmsu0쎯hdv쎯	-10.3439
hmr0쎯tmks0쎯	-10.344
hbk1쎯ymmi쎯ommi0쎯	-10.344
hshml쎯kb0쎯hapi0쎯	-10.3441
oum쎯	-10.3443
hyyhn쎯mk쎯	-10.3452
kf0쎯nau0쎯	-10.3457
etjb쎯	-10.3457
qlr쎯	-10.3458
hjrr쎯mgwg쎯hdr0쎯	-10.3459
(vr쎯	-10.3462
nnmbo0쎯ebon쎯	-10.3463
gytr쎯yib쎯	-10.3464
,kd0쎯	-10.3469
jd1쎯oip0쎯	-10.3483
bmr0쎯oq0쎯	-10.3484
eqmb0쎯egr쎯	-10.3488
.mgbhu쎯kb0쎯	-10.3488
yg0쎯mwv쎯kb0쎯	-10.3489
쎅jrhu쎯	-10.3489
jibi쎯jm0쎯hmr0쎯	-10.3497
j쎯kn0쎯	-10.3497
j쎯omd0쎯	-10.3497
ydhml0쎯pdmbo0쎯	-10.35
hqu0쎯eeq0쎯kd0쎯	-10.3503
ejpu0쎯	-10.3503
lwnl쎯ohq쎯	-10.3503
mfj0쎯ir0쎯,	-10.3507
otc쎯ifm쎯ycbr0쎯	-10.3508
qrbo쎯hqo0쎯	-10.3509
khxe쎯	-10.3513
ylb쎯l0쎯p쎯	-10.3516
yhhhh0쎯	-10.3517
buav쎯buqmb쎯	-10.3518
쎁쎉쎄쎂oq0쎯	-10.3518
tk0쎯p쎯	-10.3522
kqkn쎯	-10.3523
suu0쎯	-10.3524
hqmcw쎯hqhqm0쎯.	-10.3525
hapi0쎯dyvo쎯p쎯	-10.3525
kb0쎯:	-10.3527
pjbc0쎯	-10.3527
niy쎯ivmmr쎯	-10.3528
em0쎯bmi쎯	-10.353
kq0쎯lsa쎯	-10.3531
djr쎯	-10.3531
yrhv쎯	-10.3532
qdhe쎯opj1쎯mthhh쎯	-10.3533
hxvyv쎯dmmf0쎯	-10.3533
wd1쎯	-10.3534
hqm쎯.	-10.3539
boae쎯yrnl0쎯	-10.354
hqm쎯mgwg쎯	-10.354
rrikr쎯,	-10.354
ine쎯ymmu0쎯	-10.354
asje쎯ohpm쎯	-10.3541
ehbk0쎯lis쎯	-10.3545
oprob쎯l0쎯	-10.3545
qlmo쎯	-10.3547
za2쎯mmm쎯	-10.355
ebu0쎯	-10.3551
nvsmr쎯fdyj쎯	-10.3554
qopd0쎯	-10.3558
fdyj쎯emcw0쎯	-10.3559
au0쎯mcw쎯	-10.3568
taj쎯mhaf0쎯	-10.3572
onjv쎯tcg0쎯	-10.3573
ivke쎯miks0쎯	-10.3574
ommi0쎯ivj쎯llmb쎯	-10.3577
mms쎯	-10.3581
nup쎯	-10.3584
buhjm0쎯	-10.3587
jcmvh쎯goiv쎯	-10.3587
eyiu0쎯oqni쎯	-10.3589
mks1쎯oip0쎯	-10.3591
vmkvc쎯sim쎯	-10.3593
ebcd쎯yoln0쎯	-10.3594
h쎯	-10.3598
qy쎯	-10.3598
tbok0쎯qif0쎯	-10.3599
ppj쎯tc1쎯hqm쎯	-10.3602
ecr쎯eowy쎯	-10.3602
ng0쎯	-10.3605
zc7	-10.3607
k0쎯vmpi쎯	-10.3607
hdnhs0쎯mbib쎯	-10.361
ddi쎯,	-10.3612
qosu쎯	-10.3613
yhej0쎯	-10.3613
쎁쎉쎅쎁oq0쎯	-10.3615
tbc0쎯mng0쎯	-10.3619
쎁/	-10.3622
bkk쎯ke0쎯	-10.3623
hqm쎯yib쎯	-10.3626
amj0쎯	-10.3627
f쎯u쎯	-10.3628
o쎯rvp쎯oip0쎯qmv쎯	-10.3633
rmhk쎯	-10.3634
ioib쎯	-10.3636
vvh쎯ddi쎯	-10.3637
m쎯smmi0쎯	-10.3637
#	-10.3637
jmn쎯bmi쎯	-10.3638
iksi쎯l0쎯wmgi쎯	-10.3647
,hdrc쎯dnhe쎯	-10.3648
qje쎯id1쎯i1쎯	-10.3649
rmher쎯vmij0쎯	-10.3649
vsll0쎯	-10.3649
mbll쎯ihs0쎯hapi0쎯	-10.3649
je0쎯qfbq쎯	-10.3651
tbc0쎯mng0쎯hapi0쎯	-10.3652
opno0쎯	-10.3653
mrnvm쎯yk1쎯	-10.3654
ehjr쎯ks0쎯	-10.3654
fhbu0쎯mmok쎯iodi쎯	-10.3656
ksr쎯abbt쎯	-10.3657
oos쎯tw1쎯	-10.3658
kklb0쎯bta0쎯	-10.3658
쎉쎁	-10.366
lbabu쎯	-10.3663
srtq0쎯pysu쎯	-10.3669
za3쎯za2쎯	-10.3672
of0쎯	-10.3673
bhn0쎯bqo쎯	-10.3675
.vr쎯wd0쎯	-10.3675
dbu쎯tk0쎯hapi0쎯	-10.3675
ebhu0쎯oinp0쎯	-10.3677
rjd0쎯ythu쎯	-10.3679
×쎁	-10.3686
jmmu0쎯ihs0쎯nn0쎯	-10.3688
dcnh쎯	-10.3689
je0쎯odi0쎯	-10.3689
wp쎯rmher쎯	-10.3689
fdqmb쎯iflwl쎯,	-10.3692
mgi1쎯vmjoa쎯	-10.3694
hdyj0쎯tca0쎯	-10.3695
쎁쎉쎄쎄oq0쎯	-10.3695
yaj쎯goiv쎯	-10.3696
eyg0쎯bbm0쎯iobo쎯	-10.3697
mmm쎯vmnhe쎯	-10.3698
ids쎯zxaf쎯	-10.3701
ytt0쎯sje0쎯	-10.3704
hqm쎯emgg쎯	-10.3705
ids쎯l0쎯	-10.3707
hapi0쎯ob1쎯jcor쎯	-10.3707
oi0쎯	-10.3709
bjv쎯	-10.3711
iok0쎯	-10.3715
m쎯fdk0쎯	-10.3716
pir쎯	-10.372
thbu0쎯jmso쎯	-10.3721
ivmfj쎯jlwl0쎯	-10.3721
yndf1쎯	-10.3722
쎀쎀	-10.3723
wc0쎯hdnd0쎯	-10.3723
o쎯rvp쎯egi쎯nljmu쎯	-10.3731
.emcw0쎯iyr쎯	-10.3731
fmc쎯nklq쎯	-10.3731
fbnd0쎯jibi쎯jm0쎯	-10.3732
)hdr0쎯	-10.3732
m쎯gdk쎯	-10.3734
oaa쎯rudi0쎯	-10.3735
ei1쎯tw1쎯	-10.3743
hapi0쎯m쎯yrnl0쎯	-10.3744
qhpm쎯	-10.3753
oos쎯jka쎯:	-10.3754
yhml쎯oip0쎯	-10.3755
ivo쎯	-10.3757
pd0쎯mnr쎯	-10.3758
yihu0쎯lwu0쎯	-10.3759
kd0쎯tjmu0쎯ylb쎯	-10.3761
etcu0쎯r쎯	-10.3762
mri0쎯hqphh쎯	-10.3767
yso0쎯	-10.3767
oos쎯rrr0쎯za8쎯	-10.3768
dav쎯dm0쎯	-10.3772
mg0쎯jjb0쎯	-10.3773
omg0쎯sk0쎯	-10.3775
hvno0쎯yoln0쎯	-10.3776
top0쎯hqm쎯	-10.3776
hbv0쎯is0쎯	-10.378
hgdi쎯sjrc0쎯	-10.3781
fdqmb쎯yhgu쎯	-10.3781
ma0쎯omd0쎯	-10.3785
htbn쎯	-10.3785
jrlr0쎯yhs쎯	-10.3786
,vr쎯wd0쎯	-10.3786
jphu0쎯psh0쎯	-10.3788
rhg0쎯mgbhu쎯	-10.3788
u쎯gpd쎯	-10.3788
l0쎯jbtj쎯	-10.3789
jmmf0쎯pa1쎯	-10.379
ivhmy쎯	-10.379
no0쎯	-10.3792
r쎯rjd0쎯	-10.3794
knn0쎯ykok0쎯	-10.3798
fmu쎯ebbb0쎯	-10.38
mlm쎯oos쎯l0쎯	-10.3802
hbv0쎯tc1쎯o쎯r쎯	-10.3803
,mgbhu쎯iksi쎯	-10.3803
(쎁	-10.3804
,jyk쎯mgbhu쎯	-10.3804
yhgu쎯bq쎯	-10.3805
ik1쎯heks0쎯	-10.3805
ssr쎯yrnl0쎯	-10.3807
romn0쎯	-10.3809
vmhab쎯	-10.3809
dhn0쎯id0쎯	-10.3811
za2쎯za3쎯	-10.3812
hapi0쎯ifg쎯ommi0쎯	-10.3812
cnlh0쎯nd0쎯	-10.3817
jlln쎯,	-10.3824
imoii쎯gisl쎯	-10.3824
ydhml0쎯yth쎯rrr0쎯	-10.3825
emnr쎯eyiu0쎯	-10.3828
hnk0쎯pqmb쎯	-10.3829
,jbtj쎯	-10.383
ob1쎯kb0쎯	-10.383
mlm쎯oos쎯jmig쎯	-10.3831
vjr쎯	-10.3832
i1쎯fhbu0쎯	-10.3833
ivhne쎯hew쎯i1쎯	-10.3833
mboii0쎯ogr0쎯	-10.3837
dhn0쎯dpi1쎯,	-10.3839
쎁쎈쎆	-10.384
kb0쎯vvh쎯ddi쎯o쎯r쎯	-10.384
.eqmb0쎯	-10.384
gybt쎯tc1쎯	-10.3842
ypvif쎯nau0쎯	-10.3842
csh0쎯yrnd쎯	-10.3845
opta쎯ivrmk쎯	-10.3845
cimbo쎯	-10.3849
eysd0쎯jher쎯	-10.3849
odm0쎯ob1쎯	-10.3854
ki0쎯nd0쎯	-10.3854
sup0쎯	-10.3855
iml쎯qu0쎯	-10.3859
oi	-10.386
qk	-10.386
op0쎯hapi0쎯	-10.3861
bta0쎯	-10.3862
yw쎯.	-10.3863
ehbv쎯ite쎯	-10.3863
elfl쎯	-10.3864
,cwa0쎯ohg쎯	-10.3864
wmv쎯	-10.3864
ninn쎯	-10.3865
hqphh쎯hdl0쎯	-10.3865
tgk쎯ebhu0쎯	-10.3866
%.	-10.3867
hbu0쎯bkf0쎯hdyj0쎯	-10.3874
jcik쎯bkf0쎯	-10.3874
ivhne쎯ivj쎯,	-10.3874
emcw1쎯	-10.3877
onff쎯	-10.3878
egi쎯hbln0쎯	-10.3881
takp0쎯	-10.3883
mwsl쎯hdrc쎯쎆	-10.3891
l0쎯nc쎯fbnd0쎯	-10.3891
sfdi0쎯	-10.3897
-쎈	-10.3899
opj0쎯lmp0쎯	-10.3902
nl0쎯tkq쎯	-10.3903
etct쎯	-10.3911
ooks쎯jqjr쎯	-10.3916
k0쎯qo0쎯	-10.3917
yrbr0쎯jkmvs쎯	-10.3917
stv쎯mgbhu쎯	-10.3918
jbtj쎯aa0쎯	-10.392
vmsu0쎯nmme0쎯	-10.3923
tqm쎯rut0쎯	-10.3924
쎁쎉쎄쎈oq0쎯	-10.3925
.쎃.	-10.3926
쎂쎀쎀쎉	-10.3927
쎁쎀ol1쎯	-10.3927
yrbu0쎯fd0쎯	-10.393
qkq쎯jbik0쎯	-10.393
mfj0쎯fd0쎯	-10.3931
khllb쎯	-10.3932
opwg쎯lwu0쎯epd0쎯	-10.3933
,asje쎯hmr0쎯	-10.3933
.hbu0쎯	-10.3935
eqmb0쎯ehgu쎯	-10.394
kb0쎯ykok0쎯hapi0쎯	-10.3941
lsoi쎯lis쎯	-10.3942
ivtxc쎯	-10.3943
쎆)	-10.3943
ci0쎯smr쎯oyt쎯md쎯	-10.3947
wgnin쎯hqm쎯	-10.3947
ebcd쎯bbe쎯	-10.3949
lllo쎯hdln0쎯	-10.395
vsu쎯	-10.3953
l0쎯mhaf0쎯	-10.3954
,bmr0쎯oq0쎯	-10.3956
mf0쎯mgb0쎯	-10.3958
ophnr쎯	-10.3958
yfiku0쎯ivjnk쎯md쎯	-10.3958
qijb쎯	-10.3959
mt0쎯ivke쎯i1쎯	-10.396
ydhml0쎯opj0쎯	-10.3963
yg0쎯mwv쎯bq쎯md쎯	-10.3967
rhbr0쎯ifm쎯	-10.3968
mgije쎯gnsh쎯	-10.3969
ejmc0쎯qkhk쎯	-10.397
,yrbr0쎯	-10.3972
:je0쎯qgdi쎯	-10.3973
o쎯lsa쎯	-10.3976
yyk쎯dtq쎯hapi0쎯	-10.3976
ob1쎯ivhne쎯	-10.3979
vmomr쎯ninn쎯	-10.398
moob쎯o쎯	-10.3983
,nk0쎯nir쎯	-10.3983
rudi0쎯ncwj쎯	-10.3985
jmso쎯po0쎯	-10.3985
dam0쎯ivpa0쎯	-10.3985
ohg쎯sjrc0쎯	-10.3985
wmgi쎯mg0쎯	-10.3986
qmr쎯	-10.3987
qnsh쎯ilil쎯	-10.3988
kn0쎯oq0쎯	-10.3988
rc0쎯mwv쎯	-10.3991
yk0쎯sjtk쎯	-10.3991
oos쎯uu0쎯	-10.3992
쎃)	-10.3992
ino0쎯rmher쎯	-10.3998
ldi쎯	-10.3999
ivdi쎯	-10.3999
asje쎯vnd쎯hapi0쎯	-10.4
lllb쎯	-10.4
nrli쎯ivbgr쎯	-10.4001
kqyck쎯nini0쎯	-10.4002
okvif0쎯mnjbm0쎯	-10.4003
qje쎯id1쎯hdr0쎯	-10.4004
ivyfd쎯	-10.4006
ym0쎯mwsl쎯	-10.4007
hdcru1쎯vlok쎯	-10.4012
i1쎯lwu0쎯nd0쎯	-10.4013
ym0쎯bkk쎯	-10.4016
mwln쎯dyck0쎯po0쎯	-10.4023
yg0쎯miks0쎯	-10.4028
hdv쎯ommi0쎯	-10.4028
amyo쎯a0쎯dm0쎯	-10.403
po0쎯qka쎯	-10.403
eabt0쎯gehda쎯	-10.403
쎉ol1쎯	-10.403
lykq0쎯	-10.4031
yhs쎯ymmr0쎯	-10.4031
pqmb쎯imrhu쎯my쎯	-10.4034
ite쎯orse쎯	-10.4035
imnsd쎯op0쎯	-10.4041
qo0쎯o쎯	-10.4045
hshml쎯mbmbl0쎯	-10.4045
gpd쎯hjhne쎯	-10.4047
gnsh쎯ym0쎯	-10.4051
nnqo0쎯ksc쎯	-10.4057
.oyt쎯md쎯	-10.4057
jdok0쎯hdv쎯	-10.4058
mf0쎯mgln0쎯	-10.4061
lwu0쎯miks0쎯	-10.4064
heo쎯,	-10.4072
쎅.	-10.4072
yri0쎯wmgi쎯	-10.4075
kav쎯	-10.4075
odm0쎯po0쎯	-10.4075
l0쎯qni0쎯	-10.4076
l0쎯wmgi쎯jr쎯oip0쎯	-10.4078
jm0쎯fbnd0쎯oyt쎯,	-10.408
kb0쎯m쎯jmyo쎯	-10.408
ifrhu0쎯	-10.4083
a1쎯:za0쎯	-10.4083
hqm쎯ehjr쎯l0쎯	-10.4084
vmob0쎯fd0쎯	-10.4084
mryiu0쎯	-10.4086
ee0쎯ids쎯zxaf쎯	-10.4092
onlln쎯	-10.4094
qamo쎯uu0쎯nn0쎯	-10.4094
mwd쎯	-10.4096
mnhjd쎯elq쎯boyr0쎯	-10.4097
l0쎯nc쎯oylm0쎯tc1쎯	-10.41
omg0쎯ids쎯	-10.4101
dm0쎯tqbu쎯	-10.4102
ept쎯	-10.4103
kw쎯	-10.4106
hdeq쎯ysok쎯	-10.4107
ofp0쎯hapi0쎯	-10.4111
nmomm쎯	-10.4111
jlv0쎯nd0쎯	-10.4111
nlheq쎯e쎯amwg쎯쎁	-10.4111
ihs0쎯yt0쎯nn0쎯	-10.4112
bg쎯	-10.4113
woll0쎯mwsl쎯	-10.4114
vnd쎯ivmfj쎯.	-10.4116
쎂쎀쎀쎂	-10.4117
eiav쎯eawe쎯	-10.4117
bje쎯	-10.4117
boln0쎯amyo쎯	-10.4122
mmm쎯wmgi쎯	-10.4122
[	-10.4123
qmv쎯yjhhh0쎯	-10.4126
bodh쎯jmrw쎯	-10.4134
hmr0쎯ohg쎯	-10.4135
mlwk쎯iksi쎯	-10.4137
nlikp쎯	-10.414
wks0쎯phqm쎯	-10.4141
hlit쎯mgije쎯	-10.4141
za32쎯	-10.4143
nlo쎯po0쎯	-10.4145
qnkg쎯	-10.4148
ile쎯suf0쎯	-10.4149
hdw0쎯	-10.4149
nmsu0쎯dhn0쎯	-10.4149
jm0쎯fbnd0쎯oyt쎯.	-10.415
.쎁쎁	-10.4154
asje쎯nc쎯	-10.4155
ddi쎯ig0쎯	-10.4157
yt0쎯ryo0쎯	-10.4158
qtw0쎯yid0쎯:	-10.4161
쎁쎉쎄쎆oq0쎯	-10.4161
oqni쎯ycnh쎯	-10.4164
eowy쎯jbtj쎯fhbu0쎯	-10.4164
gi0쎯pt0쎯	-10.4164
yck0쎯woll0쎯	-10.4166
kqhml쎯	-10.4168
ivjka쎯nini0쎯	-10.4169
gp0쎯za9쎯	-10.4172
hyhne쎯	-10.4179
pym쎯	-10.418
okn0쎯	-10.4182
hnlh0쎯ho0쎯	-10.4183
쎁쎉쎃쎇oq0쎯	-10.4185
adi쎯tcb0쎯hapi0쎯	-10.4186
jkmvs쎯dyvo쎯	-10.4186
u쎯bine쎯	-10.4186
hda쎯tvjr쎯	-10.4187
odm0쎯hdrc쎯	-10.4187
ksr쎯pdk쎯	-10.4189
ebhu0쎯yrf1쎯	-10.4193
okmrt쎯oymr쎯	-10.4193
jlk쎯	-10.4196
ord0쎯qis쎯sk0쎯	-10.4197
ydhml0쎯fmc쎯	-10.4197
쎅쎀jrhu쎯	-10.42
qkdi쎯omrl쎯	-10.4202
vmyiu쎯eir쎯	-10.4206
ids쎯nljmu쎯	-10.4209
i1쎯hdyj0쎯mrmt쎯	-10.4211
eysd0쎯qu0쎯	-10.4212
ddi쎯hdv쎯ommi0쎯,	-10.4214
mgbhu쎯lmik쎯	-10.4214
opj0쎯jbtj쎯	-10.422
lsr0쎯aombo쎯,	-10.4224
ftmd쎯mri0쎯	-10.4225
crp0쎯jiyhv0쎯	-10.4232
fbnd0쎯tcg0쎯c쎯	-10.4235
oq0쎯yth쎯	-10.4237
ord0쎯hhw쎯	-10.4237
mmm쎯hdl0쎯	-10.4237
kd0쎯tjmu0쎯	-10.4242
ifu쎯rrr0쎯	-10.4246
my쎯kqjqr쎯	-10.4246
hapi0쎯hjbo쎯amwg쎯	-10.4251
sk0쎯hdv쎯	-10.4252
ifg쎯ommi0쎯hdyj0쎯	-10.4253
tcg0쎯mruu쎯ym0쎯,	-10.4254
tir0쎯	-10.4257
l0쎯hgdi쎯	-10.4258
ohg쎯l0쎯tc0쎯	-10.4258
쎅～	-10.4258
r쎯honom쎯	-10.426
srytj0쎯	-10.4261
hapi0쎯ksc쎯fbnd0쎯	-10.4263
d쎯nvsm쎯	-10.4265
hapi0쎯bu0쎯hapi0쎯	-10.4265
ebhu0쎯fmu쎯	-10.427
mlm쎯oos쎯o쎯rbo0쎯	-10.4271
amyo쎯vmnom쎯	-10.4272
hdr0쎯ivke쎯stv쎯	-10.4273
yhgu쎯q쎯	-10.4273
쎄)	-10.4277
mrpsh쎯	-10.4279
mks0쎯ykok0쎯	-10.4281
efb0쎯hup0쎯	-10.4282
bu0쎯nmme0쎯	-10.4284
oghn쎯	-10.4286
pomr0쎯	-10.4287
vmw쎯twhd0쎯	-10.4288
opqki쎯yhgr0쎯	-10.4292
nhe쎯tmmc0쎯opd0쎯	-10.4294
osp0쎯hi0쎯	-10.4295
gpd쎯ym0쎯	-10.4297
iobo쎯hjbo쎯	-10.4299
mand쎯ite쎯	-10.43
,bd0쎯bq쎯	-10.4304
fbrlb쎯hdv쎯	-10.4305
fbnd0쎯jm0쎯	-10.4307
mwln쎯yg0쎯ohg쎯,	-10.4311
,쎀쎀쎀	-10.432
i1쎯hqm쎯yth쎯i1쎯	-10.432
ukf0쎯	-10.4329
ncwj쎯phqm쎯	-10.4335
oymr쎯dlnbo쎯	-10.4335
yth쎯md쎯	-10.434
:쎄	-10.4341
yc	-10.4343
쎁쎈쎈	-10.4345
ymf0쎯mnr쎯vio0쎯	-10.4346
dt0쎯ivcru쎯	-10.4351
sjtk쎯qjnl0쎯	-10.4351
srln0쎯pqmb쎯	-10.4352
jyk쎯tc1쎯	-10.4354
hdr0쎯hjrr쎯mgwg쎯	-10.4356
hq0쎯obo쎯	-10.4357
liwvf쎯ysono0쎯	-10.4357
!za3쎯	-10.4358
쎁쎃쎀	-10.4362
.m쎯hyhne쎯	-10.4362
rsln1쎯nir쎯	-10.4362
wk0쎯tmmc0쎯	-10.4363
ivmwj쎯	-10.4364
sqnl0쎯hi0쎯	-10.4367
o쎯srtq0쎯	-10.4368
tytr0쎯tnlh0쎯	-10.4368
쎇b쎯ikhhh쎯ksr쎯	-10.4369
hdr0쎯tmmc0쎯opd0쎯	-10.4373
nwm쎯fdk0쎯	-10.4375
ebym쎯	-10.4377
niy쎯,	-10.4378
쎁쎉쎄쎃oq0쎯	-10.4378
rks0쎯kb0쎯	-10.438
mgwg쎯ivop0쎯ysm쎯	-10.439
csh0쎯dyck0쎯	-10.439
yknl0쎯	-10.4391
bmr0쎯fbnd0쎯	-10.4393
vmij1쎯	-10.4394
oh쎯yg0쎯mwv쎯vio0쎯	-10.4399
nhs쎯mig0쎯	-10.4401
tbrr쎯yhgr0쎯	-10.4403
ynib쎯ivhjr쎯	-10.4404
oppu쎯	-10.4404
crp0쎯ssr쎯	-10.4407
,tmmv0쎯mig0쎯	-10.4408
.dav쎯qsjr쎯	-10.4411
csh0쎯ssr쎯	-10.4411
쎀～	-10.4413
dhn0쎯,	-10.4414
쎁쎉쎂쎉oq0쎯	-10.4414
j쎯omrl쎯yj0쎯nsd0쎯	-10.4424
libt0쎯hjrr쎯	-10.4424
hapi0쎯ifm쎯bq쎯	-10.4425
nlodi쎯ohq쎯	-10.4426
yvp0쎯	-10.4427
tbln0쎯hoyg쎯	-10.4432
hbv0쎯yth쎯rrr0쎯	-10.4432
tcp0쎯	-10.4433
ytap쎯iksi쎯	-10.4434
쎀-	-10.4436
hxh쎯ym0쎯	-10.4439
vmqmo쎯	-10.4439
oryo0쎯	-10.4439
ydhml0쎯hbv0쎯ddi쎯	-10.4444
sk0쎯ob1쎯	-10.4445
lapv쎯	-10.4446
mdm쎯j쎯	-10.445
.za3쎯jd1쎯	-10.445
lb0쎯	-10.4452
kff쎯	-10.4455
hshne0쎯	-10.4455
dyhn쎯ilil쎯ylb쎯	-10.4456
mhaf0쎯dt0쎯	-10.4456
eyg0쎯oh쎯	-10.4456
qcsh쎯ejmc0쎯	-10.446
mks1쎯vmnom쎯	-10.4463
wjr쎯odm0쎯	-10.4469
≤	-10.4471
ks	-10.4475
yomd쎯	-10.4476
vmbv0쎯	-10.4477
hdyj0쎯jmig쎯	-10.4484
ukt0쎯	-10.4484
qshr쎯hqm쎯	-10.4487
hqda0쎯wjbo쎯	-10.4488
쎀쎀mfj0쎯yhs쎯fd0쎯,	-10.4493
oylm0쎯tc1쎯jmso쎯	-10.4498
yth쎯hqm쎯hapi0쎯	-10.45
jbtj쎯eowy쎯	-10.45
쎄.쎅	-10.4502
ord0쎯olhh0쎯	-10.4504
lita쎯	-10.4505
쎀yw쎯,	-10.4507
dhhh쎯	-10.4508
ym0쎯yrnl0쎯	-10.451
m쎯ythu쎯	-10.4515
ihu쎯ivoj쎯	-10.4518
shlb0쎯phqm쎯	-10.4519
uu0쎯hapi0쎯	-10.4521
hhw쎯my쎯	-10.4523
qmbo0쎯	-10.4525
.bu0쎯tbln0쎯,	-10.4525
omn1쎯eabt0쎯	-10.4527
wjbo쎯	-10.453
yyydb쎯	-10.4536
qmb쎯pysu쎯ylb쎯	-10.4536
쎁쎉쎀	-10.4536
omrl쎯ymmi쎯	-10.4537
ydhml0쎯nmtq쎯	-10.454
ly쎯yihu0쎯	-10.454
ki0쎯nla쎯ibpp쎯	-10.4553
qif0쎯bbke쎯	-10.4553
c0쎯	-10.4555
,onf0쎯	-10.4558
mrmt쎯jckn쎯za9쎯	-10.4562
hbv0쎯gnsh쎯	-10.4564
oiva쎯	-10.4566
k0쎯yri0쎯	-10.4568
nc쎯ivcru쎯za8쎯	-10.4572
hda쎯elw쎯	-10.4572
oylm0쎯jlln쎯tc1쎯	-10.4573
emms0쎯	-10.4573
hoav0쎯k0쎯	-10.4575
goru쎯,	-10.4575
leyt쎯	-10.4578
ym0쎯ht0쎯	-10.458
tino쎯idd쎯	-10.4582
wmgi쎯muw쎯	-10.4587
lbpo쎯	-10.4588
nla쎯ylb쎯	-10.4591
jlln쎯mmbo쎯	-10.4591
.hghu쎯hmr0쎯	-10.4592
dr0쎯	-10.4594
nnf0쎯	-10.4596
.ymp0쎯niy쎯,	-10.4598
dm0쎯ci0쎯smr쎯	-10.4598
mgmf0쎯tsl쎯	-10.4599
ivmmr쎯yta0쎯	-10.4599
hqo0쎯book쎯	-10.4601
efb0쎯nlomd쎯	-10.4604
m쎯odm0쎯	-10.4606
ivhne쎯jmyo쎯	-10.4607
ynbo0쎯hoami쎯	-10.4608
hdyj0쎯yg0쎯ohg쎯	-10.4609
wfoin쎯	-10.4609
tub쎯	-10.4614
ophqo쎯ythu쎯	-10.4614
p쎯smf0쎯	-10.4617
nini0쎯fh쎯	-10.4617
shlb0쎯md쎯u쎯sk0쎯	-10.4617
vmgr쎯aaa0쎯	-10.4618
yth쎯rrr0쎯.	-10.462
mrnbg쎯ord0쎯	-10.462
eyok쎯aaa0쎯	-10.462
ivke쎯ytk쎯	-10.4623
jbmc0쎯jcm쎯	-10.4626
oprob쎯ob1쎯	-10.4629
ksr쎯ydl쎯	-10.4633
hapi0쎯tk0쎯hvif쎯	-10.4635
ilb0쎯	-10.4636
yg0쎯qgdi쎯o쎯	-10.4641
qfsm쎯	-10.4641
hqm쎯mnjbm0쎯	-10.4642
fh쎯amwg쎯	-10.4643
hgdi쎯)	-10.4644
ylb쎯gnsh쎯hapi0쎯	-10.4652
쎁쎉쎄쎇oq0쎯	-10.4653
hdeq쎯ik1쎯	-10.4654
ebhu0쎯yta0쎯	-10.4655
.vio0쎯	-10.4657
jbtj쎯yrf0쎯ylb쎯	-10.4658
tykq쎯top0쎯	-10.4658
jmam0쎯klb쎯	-10.4663
hwsmm쎯ffh0쎯	-10.4663
mg0쎯wmgi쎯	-10.4665
nhvo쎯	-10.4666
i1쎯ha쎯	-10.4667
wc0쎯bgr0쎯	-10.4668
jmso쎯vvh쎯	-10.4669
hapi0쎯tn0쎯id1쎯	-10.4669
yohne0쎯	-10.467
fsm0쎯bkf0쎯	-10.4671
asje쎯vnd쎯	-10.4673
ci0쎯klb쎯	-10.4673
dyck0쎯fbnd0쎯hqm쎯	-10.4674
ndpru쎯nd0쎯	-10.4677
lmg0쎯ysook0쎯	-10.4677
kiog쎯mand쎯hapi0쎯	-10.4685
쎁쎀jrhu쎯	-10.4685
on	-10.4686
i1쎯ydhml0쎯	-10.4687
o쎯k0쎯fbrlb쎯hdv쎯	-10.4689
쎁.쎈	-10.4691
oyhv0쎯hgrly쎯	-10.4697
hlbi0쎯	-10.4698
qtw0쎯bysm쎯	-10.4699
fbnd0쎯qsle쎯	-10.4701
mj쎯jlln쎯	-10.4701
df0쎯uu0쎯	-10.4708
(,)	-10.4715
za13쎯	-10.4716
ivym쎯onf0쎯	-10.4717
eune0쎯tgbt쎯	-10.472
leg0쎯qgdi쎯za2쎯	-10.4722
.쎁i1쎯	-10.4722
mvnm0쎯dbu쎯	-10.4724
ob1쎯eune0쎯	-10.4725
hapi0쎯bmr0쎯adi쎯,	-10.4726
gi0쎯dhe0쎯	-10.4727
k0쎯dfdv쎯	-10.473
cwa0쎯tkhk0쎯	-10.473
ksc쎯ci0쎯mmn0쎯	-10.473
hklmi0쎯	-10.4732
je0쎯yrnl0쎯	-10.4732
jrln쎯	-10.4733
mf0쎯oam쎯	-10.4734
i1쎯mcw쎯	-10.4734
쎃쎂쎀	-10.4737
,mbll쎯amyo쎯	-10.4743
ki0쎯mhaf0쎯	-10.4748
yhs쎯egi쎯.	-10.4753
쎁쎈쎅	-10.4757
fbnd0쎯hqm쎯hapi0쎯	-10.4762
vmshr0쎯fmc쎯	-10.4763
ivnkv쎯hqm쎯	-10.4763
domm0쎯jbof쎯	-10.4764
oqni쎯nnqo0쎯	-10.4767
vmbm0쎯po0쎯	-10.4768
hapi0쎯yce0쎯op0쎯	-10.4773
yhe0쎯wr쎯	-10.4773
ddi쎯o쎯	-10.4773
tvjr쎯	-10.4774
jdok0쎯yib쎯mmn0쎯	-10.4778
ofj쎯	-10.4779
vjmo0쎯	-10.478
qmmv쎯miks0쎯	-10.478
eog0쎯vio0쎯	-10.478
ojrk쎯uu0쎯nn0쎯	-10.4786
,yyk쎯hdl0쎯	-10.4786
llnsh쎯opfb쎯	-10.4787
hu	-10.4788
os쎯	-10.4789
pa1쎯	-10.4793
klg0쎯ym0쎯eowy쎯	-10.4793
ivohh쎯	-10.4794
dsmg0쎯	-10.4799
ehjr쎯rmhk쎯	-10.4799
jcor쎯rrikr쎯	-10.4801
(aisl쎯	-10.4802
iksi쎯ofp0쎯	-10.4802
fmu쎯hybt0쎯	-10.4803
my쎯mwsl쎯	-10.4805
vmw쎯bipo쎯	-10.4806
po0쎯gihs쎯	-10.4807
mks1쎯lk쎯yk0쎯op0쎯	-10.481
hounk쎯hqm쎯hqphh쎯	-10.4812
ihs0쎯mng0쎯	-10.4814
i1쎯nc쎯	-10.4814
bd0쎯ogd0쎯	-10.4814
,iksi쎯nn0쎯	-10.4816
ylb쎯mmok쎯	-10.4818
mkr쎯	-10.4819
okvif0쎯tbd1쎯	-10.4821
dedi쎯bpa0쎯	-10.4822
dnot쎯	-10.4825
.l0쎯wmgi쎯	-10.4825
쎁쎈쎇	-10.4826
top0쎯dyfe쎯	-10.4826
ok0쎯	-10.4828
hvif쎯fvok쎯	-10.483
vmhey쎯ytumb쎯	-10.4834
sfdv쎯	-10.4835
itf0쎯	-10.4836
ympog쎯	-10.4837
j쎯ogg0쎯	-10.4839
nlyhs쎯e쎯	-10.484
egi쎯nljmu쎯	-10.4841
moo쎯	-10.4844
eowy쎯ob1쎯niy쎯	-10.4846
jyk쎯odm0쎯	-10.4848
nlyhs쎯hooml쎯	-10.4853
oncsh쎯wqs쎯	-10.4854
yioj0쎯hghu쎯	-10.4856
jher쎯ymmi쎯	-10.4858
nf0쎯zxaf쎯	-10.486
hvd쎯rrikr쎯	-10.4864
yqs쎯	-10.4868
hnlh0쎯mm0쎯imno0쎯	-10.4869
sjtk쎯omr0쎯wmgi쎯	-10.4869
ytrhu쎯	-10.4869
smr쎯nvsm쎯	-10.4879
qdhe쎯	-10.488
m쎯edi0쎯	-10.4881
,ytpo0쎯	-10.4882
sk0쎯i1쎯	-10.4882
rvp쎯ocor쎯	-10.4882
hapi0쎯mrmt쎯ivke쎯	-10.4885
,yyk쎯amyo쎯	-10.4887
omnl0쎯	-10.4891
aisl쎯lmnii쎯	-10.4891
fbnd0쎯nir쎯	-10.4892
hhsb쎯.	-10.4894
vsp0쎯	-10.4896
hhbo0쎯	-10.4899
hamg쎯jmso쎯	-10.49
khkt쎯	-10.4901
i1쎯tlwc쎯	-10.4902
hapi0쎯mwv쎯ije0쎯	-10.4905
.bmr0쎯adi쎯	-10.4906
nmsu0쎯jqjr쎯	-10.4907
omlk쎯hdln0쎯.	-10.4909
my쎯dt0쎯	-10.4911
eatc쎯ite쎯	-10.4915
yg0쎯nbg0쎯	-10.4918
ksr쎯vio0쎯	-10.4919
fhbu0쎯hdv쎯	-10.492
mri0쎯yth쎯	-10.4922
on0쎯	-10.4924
vmpi쎯jjosm0쎯	-10.4925
e쎯heo쎯mgwg쎯	-10.4927
,dav쎯qsjr쎯	-10.4928
yth쎯tc1쎯op0쎯	-10.4929
dhnk0쎯	-10.493
nlmnr쎯qyt0쎯oha쎯	-10.4931
hqphh쎯odm0쎯	-10.4932
ecor쎯	-10.4936
amyo쎯m쎯oyt쎯	-10.4937
,bmr0쎯adi쎯pd0쎯	-10.4937
,amyo쎯m쎯hshml쎯	-10.4938
ehbv쎯kbnl1쎯	-10.4939
qhjx쎯dtwa쎯	-10.4944
hi0쎯	-10.4948
omr0쎯iobo쎯	-10.4948
jbtj쎯bmi쎯	-10.4949
vmj쎯	-10.4956
hqgdi쎯yrf1쎯amyo쎯	-10.4956
yg0쎯dhn0쎯	-10.4958
bwli0쎯	-10.4959
le0쎯	-10.4959
eysd0쎯ei1쎯l0쎯	-10.496
khonk쎯	-10.4961
srln0쎯wdh쎯	-10.4963
ycbr0쎯gihs쎯	-10.4964
omlk쎯qjlo쎯	-10.4964
aaa0쎯odm0쎯	-10.4966
u쎯gdhe쎯	-10.4966
oahe쎯hbln0쎯	-10.4967
mmm쎯nbg0쎯	-10.497
ronk쎯	-10.4977
srln0쎯nljmu쎯	-10.4979
hgdi쎯hommn0쎯tc1쎯	-10.4984
vmvl쎯opta쎯	-10.4989
.쎁쎀	-10.4991
knn0쎯egi쎯	-10.4993
쎁.쎆	-10.4993
op0쎯i1쎯	-10.4995
mbll쎯ihs0쎯,	-10.4999
e쎯yth쎯	-10.5
,mgok0쎯ks0쎯md쎯	-10.5
vjd0쎯	-10.5005
iksi쎯yh쎯k0쎯	-10.5006
fdqmb쎯etmv쎯	-10.5007
hbr0쎯ym0쎯	-10.5007
hapi0쎯fbnd0쎯hqm쎯	-10.5009
emwf0쎯	-10.501
qhxe쎯	-10.501
hoopn쎯	-10.501
fbnd0쎯dyck0쎯.	-10.5011
nfdn쎯	-10.5011
ivbgr쎯oh쎯	-10.5011
tmd0쎯hdl0쎯	-10.5013
쎃.쎀	-10.5013
pd0쎯hdnf쎯	-10.5017
kqqni쎯yce0쎯	-10.5018
hdln0쎯elsg쎯	-10.5018
jlwl0쎯fqln0쎯	-10.502
rmher쎯i1쎯	-10.5024
hapi0쎯m쎯hshml쎯	-10.5024
sc쎯	-10.503
qog0쎯uu0쎯hapi0쎯	-10.5032
op0쎯mr0쎯	-10.5032
(쎃)	-10.5034
lwu0쎯afhhh쎯za8쎯	-10.5036
tesu쎯wqs쎯:	-10.5037
fdnd쎯	-10.504
dmlk쎯	-10.5041
hshml쎯mgok0쎯	-10.5042
mgwg쎯fbnd0쎯	-10.5043
kb0쎯nn0쎯	-10.5044
fdqmb쎯opj0쎯	-10.5044
bq쎯egi쎯	-10.5045
wr쎯ysook0쎯	-10.5046
osp0쎯dtq쎯	-10.5048
dnib쎯	-10.505
lpwtc쎯	-10.5051
.쎈	-10.5051
okhdv쎯	-10.5056
.mgbhu쎯klg0쎯	-10.5057
bq쎯oos쎯	-10.5061
쎁쎉쎃쎅oq0쎯	-10.5062
dsk쎯vmng쎯	-10.5063
mrmlk쎯op0쎯	-10.5063
hojwp0쎯zxaf쎯	-10.5064
qme쎯jrhu쎯hnk0쎯	-10.5068
bsle0쎯heks0쎯i1쎯	-10.5068
dmcw0쎯	-10.5069
uu0쎯hxh쎯	-10.507
,ihs0쎯yt0쎯md쎯	-10.5074
omn1쎯hup0쎯	-10.5075
ylb쎯rvp쎯	-10.5076
ha쎯mmi쎯	-10.5076
bklu쎯	-10.5077
is0쎯niy쎯	-10.5077
mgwg쎯dup쎯	-10.5079
yhsb0쎯klb쎯	-10.508
yomd쎯honom쎯	-10.5081
m쎯jmso쎯ogd0쎯	-10.5082
mmu0쎯ohq쎯	-10.5082
a0쎯tcb0쎯	-10.509
tmd0쎯m쎯	-10.5093
hapi0쎯bkk쎯vmher쎯	-10.5095
gpd쎯tjblb0쎯	-10.5095
une쎯qbbe0쎯	-10.5096
kbhq0쎯	-10.5097
,je0쎯qgdi쎯	-10.5097
hshml쎯hshml쎯po0쎯	-10.5097
qbme쎯	-10.5099
ol1쎯jdok0쎯fbnd0쎯	-10.5104
l0쎯wmgi쎯ids쎯muw쎯	-10.5105
.쎄	-10.5105
mfj0쎯bmi쎯	-10.5106
yce0쎯hdl0쎯	-10.5108
(hlsa쎯hdnf쎯	-10.511
ifbhu쎯nbg0쎯	-10.5114
쎁쎈쎉	-10.5114
jmyo쎯yrf1쎯	-10.5114
kb0쎯o쎯	-10.5117
kok쎯kmob쎯hapi0쎯	-10.5118
asje쎯aj0쎯hapi0쎯	-10.512
mgumb쎯jm0쎯	-10.5121
yh쎯ehio쎯hapi0쎯	-10.5121
hnlh0쎯mmm쎯slw0쎯	-10.5122
qbbe0쎯ninn쎯za2쎯	-10.5123
opj0쎯ohkl쎯	-10.5126
쎀.쎈	-10.5126
lbytg쎯	-10.5127
ylmr쎯	-10.5129
sk0쎯mmok쎯iodi쎯	-10.5146
zc6	-10.5149
ebkq쎯	-10.515
vmisb쎯tjka0쎯	-10.515
o쎯.l0쎯tc0쎯fbrhu쎯	-10.5151
zd6	-10.5151
jmso쎯wmmu0쎯	-10.5154
qeq쎯	-10.5156
fsm0쎯oin쎯	-10.5156
imir쎯	-10.5156
m쎯tcb0쎯	-10.5159
yitf0쎯	-10.5163
yk0쎯op0쎯tn0쎯id1쎯	-10.5164
hjbu쎯	-10.5178
쎄쎀쎀쎀	-10.5178
heks0쎯jyk쎯	-10.518
kqyck쎯k0쎯hapi0쎯	-10.519
opbo0쎯ymmi쎯	-10.5191
oyrn쎯kq0쎯gnsh쎯	-10.5193
vmisb쎯srln0쎯	-10.5193
llfl0쎯	-10.5194
ho0쎯oq0쎯	-10.5197
ym0쎯nn0쎯	-10.52
twla0쎯	-10.5201
.쎀쎀	-10.5205
ynib쎯ydi0쎯nn0쎯	-10.5208
hqphh쎯iobo쎯	-10.5208
eqmb0쎯ydhml0쎯	-10.5209
,omg0쎯	-10.5209
fsm0쎯yhgu쎯iksi쎯	-10.521
쎂쎄쎀	-10.5216
qycb0쎯	-10.5219
gpd쎯girm쎯	-10.5228
mks1쎯hdrhg쎯	-10.5228
crp0쎯amyo쎯	-10.5229
dbu쎯ifm쎯hapi0쎯	-10.5232
쎁쎀쎀%	-10.5232
vmisb쎯rmvs쎯	-10.5233
gno0쎯	-10.5233
ydok0쎯	-10.5235
.oam쎯amyo쎯	-10.5235
fmu쎯lwu0쎯	-10.5237
vmnhe쎯rsln1쎯	-10.5239
쎁쎄쎀	-10.5239
----	-10.524
lscru쎯	-10.5243
amyo쎯hqi0쎯wmgi쎯	-10.5243
pa0쎯	-10.5244
m쎯heo쎯	-10.5244
kb0쎯adi쎯	-10.5245
yh쎯k0쎯jher쎯is0쎯	-10.5246
iksi쎯oylm0쎯tc1쎯	-10.5251
wl	-10.5254
,oq0쎯	-10.5258
kd0쎯rmher쎯	-10.526
za3쎯;	-10.5261
hbln0쎯imoii쎯	-10.5262
hy	-10.5263
dncr쎯	-10.5264
pyv0쎯	-10.5265
yrf1쎯qu0쎯	-10.5265
ino0쎯nd0쎯	-10.5266
de0쎯tcbt쎯	-10.5267
쎁쎂쎀쎀	-10.5269
mnp1쎯	-10.5269
mhaf0쎯kb0쎯	-10.5271
hnlh0쎯쎄	-10.5271
;쎁	-10.5273
oprob쎯fhs쎯	-10.5277
yp	-10.5278
jmso쎯,	-10.5278
smr쎯amyo쎯m쎯jmso쎯	-10.528
mri0쎯u쎯	-10.5283
mm0쎯imno0쎯	-10.5284
mlm쎯hdrhg쎯hvif쎯	-10.5285
bmi쎯o쎯	-10.5285
fbkf쎯	-10.5287
쎈)	-10.5289
d쎯ddh쎯	-10.5291
쎃jrhu쎯	-10.5293
hqki쎯	-10.5295
qsle쎯tkymr쎯	-10.5296
jyk쎯omnn0쎯	-10.53
ihs0쎯rbo0쎯i1쎯	-10.53
pha0쎯	-10.5301
kgg0쎯	-10.5302
tbc0쎯mhog0쎯	-10.5303
쎈%	-10.5304
zf35쎯	-10.5304
ojlk쎯hoami쎯	-10.5307
tcg0쎯c쎯ommi0쎯	-10.5308
gnsh쎯gpd쎯	-10.5309
bq쎯is0쎯qamo쎯otc쎯	-10.5311
hapi0쎯nir쎯jnd0쎯	-10.5311
mwln쎯bmi쎯po0쎯	-10.5314
ghrj쎯	-10.5318
,hlsa쎯hdnf쎯	-10.5319
temj0쎯	-10.5322
hdl0쎯djbm0쎯tc1쎯	-10.5322
olwl쎯	-10.5323
nir쎯llhwj쎯	-10.5323
k0쎯ks0쎯	-10.5328
ksc쎯ci0쎯jmig쎯i1쎯	-10.5332
vio0쎯ym0쎯hapi0쎯	-10.5336
ywk0쎯	-10.5338
mnp1쎯pklb0쎯	-10.5341
mt0쎯tc1쎯	-10.5346
roin쎯	-10.5348
eomn1쎯	-10.5356
qhne0쎯afhhh쎯	-10.5357
ifbm쎯wmgi쎯	-10.5358
jyk쎯adi쎯	-10.5359
jrhu쎯tchml쎯	-10.5359
yhs쎯egi쎯,	-10.5365
hmr0쎯slm쎯	-10.5366
nvolb쎯ejmc0쎯	-10.5367
yrbr0쎯u쎯	-10.5368
djmf쎯	-10.5372
,mcw쎯	-10.5376
lwu0쎯ytyr쎯	-10.5377
vhpa쎯vwk쎯	-10.5378
ivke쎯lwu0쎯	-10.538
jmso쎯bq쎯	-10.5382
mwsl쎯hdrc쎯iksi쎯	-10.5383
vmsu0쎯domm0쎯	-10.5385
ivcru쎯,	-10.5385
tchml쎯gam쎯	-10.5387
m쎯wdmbo쎯	-10.5387
sqnl0쎯ol1쎯	-10.5389
l0쎯yk0쎯nir쎯:	-10.5391
jbtj쎯rmher쎯	-10.5392
ss0쎯k0쎯hapi0쎯	-10.5392
e쎯csh0쎯	-10.5393
hlno0쎯fbrbo쎯	-10.5396
ycbr0쎯ommi0쎯	-10.54
ytahu0쎯	-10.5402
m쎯npo쎯	-10.5402
ifm쎯bq쎯md쎯	-10.5404
ym0쎯yid0쎯	-10.5405
vmbm0쎯,	-10.5406
(irm쎯	-10.5409
,hmr0쎯dt0쎯	-10.541
,amyo쎯m쎯ol1쎯	-10.5411
ino0쎯l0쎯	-10.5414
ibpp쎯ks0쎯,	-10.5414
tc0쎯qmb쎯wdh쎯	-10.5416
,nk0쎯hdnf쎯	-10.5421
za9쎯,za8쎯	-10.5422
쎇)	-10.5424
oos쎯bq쎯,	-10.5426
efb0쎯hqo0쎯	-10.5428
po0쎯vmpi쎯	-10.5431
ids쎯ivsu쎯,	-10.5432
nrli쎯k0쎯	-10.5434
a0쎯qsle쎯	-10.5435
.rvp쎯wmgi쎯	-10.5436
.oos쎯iksi쎯	-10.544
tw1쎯vmij0쎯	-10.5441
eosu쎯	-10.5443
lw쎯l0쎯wmgi쎯	-10.5446
omg0쎯pt0쎯woll0쎯	-10.545
qpa0쎯jbtj쎯	-10.545
neln0쎯	-10.5451
fdilr쎯se0쎯kmob쎯	-10.5452
ks쎯	-10.5454
bodh쎯yth쎯	-10.5459
iksi쎯ylm쎯	-10.5462
uu0쎯hbt0쎯	-10.5462
op0쎯lmv쎯rrr0쎯	-10.5464
ab0쎯jjb0쎯	-10.5467
,mhaf0쎯nir쎯	-10.5468
nmpru쎯	-10.547
mgwg쎯jlln쎯.	-10.5478
qrb쎯	-10.5485
jmmf0쎯pa1쎯,	-10.5485
nlyto쎯ythu쎯	-10.5488
a0쎯bkq쎯	-10.5489
omg0쎯hxh쎯	-10.549
,crp0쎯	-10.5492
amyo쎯wmgi쎯ob1쎯	-10.5495
ajka0쎯	-10.5495
hodhe쎯	-10.5496
oq0쎯hqm쎯taj쎯dm0쎯	-10.55
dbdb0쎯	-10.5501
mblmi0쎯iobo쎯	-10.5502
krnvm쎯nmlk쎯	-10.5504
ci0쎯yck0쎯	-10.5508
fdqmb쎯mgok0쎯	-10.5508
jbmc0쎯ivihs쎯	-10.551
qni0쎯sjrc0쎯	-10.5512
tjblb0쎯miks0쎯	-10.5516
mf0쎯no1쎯	-10.5519
hipym0쎯	-10.5519
mgilg쎯nd0쎯	-10.5519
jdok0쎯fbrg쎯	-10.5521
ejjb쎯eyiu0쎯	-10.5523
csh0쎯nbshq쎯	-10.5524
lmp0쎯jd1쎯	-10.5525
yrrv0쎯	-10.5527
oik1쎯ipm0쎯	-10.5527
hdrc쎯wvif쎯	-10.5529
ivke쎯stv쎯.	-10.5531
opob쎯	-10.5532
fdk0쎯rsln1쎯	-10.5533
qshr쎯sjlws쎯	-10.5535
jf0쎯jqjr쎯	-10.5536
ivhne쎯hew쎯hapi0쎯	-10.5539
쎁%	-10.5539
wlgi쎯	-10.5542
jk0쎯	-10.5543
k0쎯lis쎯	-10.5549
qjbf0쎯	-10.5551
lloa쎯adi쎯	-10.5552
mrogf쎯	-10.5555
dlbu0쎯	-10.5555
yce0쎯hoami쎯	-10.556
,nbo쎯qmbo0쎯	-10.5561
ff0쎯i1쎯	-10.5564
mwsl쎯ym0쎯	-10.5566
nnmbo0쎯hbut0쎯	-10.5568
onhs쎯bkf0쎯	-10.5574
,wk0쎯mbll쎯	-10.5575
tgk쎯vnd쎯	-10.5577
ejcr0쎯eyok쎯	-10.5578
klnd쎯klg0쎯hapi0쎯	-10.5579
wlyaj쎯	-10.5579
adi쎯oip0쎯hapi0쎯	-10.558
domn0쎯	-10.5583
knd0쎯yck0쎯	-10.5583
vnvm쎯vnvm쎯	-10.5585
,eyg0쎯bbm0쎯iobo쎯	-10.5586
lu0쎯nd0쎯	-10.5587
giks1쎯	-10.5591
mlm쎯hdrhg쎯llmb쎯.	-10.5591
ln0쎯	-10.5593
mok0쎯ivjnk쎯	-10.5594
yk0쎯op0쎯hapi0쎯	-10.5595
he0쎯edi0쎯	-10.5595
nlkmb0쎯	-10.5596
ivhne쎯hew쎯k	-10.5598
l0쎯wmgi쎯muw쎯	-10.5599
yck쎯	-10.5599
쎂rmvs쎯	-10.5601
vmher쎯	-10.5602
bsle0쎯heks0쎯md쎯	-10.5605
vmyhs쎯	-10.5606
ju쎯oq0쎯	-10.561
mnr쎯oos쎯iksi쎯	-10.5611
mgbhu쎯klnd쎯	-10.5615
mks0쎯ibpp쎯:	-10.5617
my쎯yrnl0쎯	-10.5617
shml쎯	-10.5619
ph	-10.562
yg0쎯o쎯	-10.5622
vnd쎯,	-10.5622
k0쎯slsl0쎯	-10.5625
fvok쎯ma0쎯	-10.5625
m쎯a0쎯	-10.5627
odf0쎯	-10.5628
fbrlb쎯qobhu쎯	-10.5629
osme0쎯	-10.5629
oip0쎯qoa쎯	-10.5634
쎂%	-10.5635
iksi쎯tcg0쎯mruu쎯	-10.5639
eks0쎯	-10.5639
hoami쎯vio0쎯	-10.5642
my쎯eysd0쎯	-10.5643
쎂쎀oq0쎯	-10.5644
sjlws쎯	-10.5645
ihs0쎯mks0쎯hapi0쎯	-10.5648
mrmt쎯jckn쎯hdr0쎯	-10.565
쎁쎂ol1쎯	-10.5651
yebu쎯	-10.5651
ivke쎯mwjkd쎯	-10.5652
,rc0쎯	-10.5655
emhf0쎯md쎯	-10.5658
jbtj쎯jd1쎯	-10.566
rmea쎯	-10.566
ys	-10.5661
vnd쎯ivmfj쎯	-10.5662
tlit쎯mvdh쎯	-10.5664
my쎯nlheq쎯	-10.5665
qobhu쎯ytaj0쎯	-10.5667
mrmt쎯ivke쎯i1쎯	-10.5667
mng0쎯oylm0쎯tc1쎯	-10.5674
mjok0쎯	-10.5678
hbu0쎯viks0쎯	-10.568
ddi쎯le0쎯shlb0쎯	-10.5682
ipfdq0쎯	-10.5683
fjmu쎯	-10.569
kla쎯	-10.5691
wg0쎯,eowy쎯qike쎯쎁	-10.5693
hnlh0쎯m쎯slw0쎯	-10.5694
ihs0쎯rbo0쎯.	-10.5696
jyk쎯nlmmf쎯ym0쎯	-10.5697
쎈쎀oq0쎯oip0쎯	-10.5698
mcw쎯rmher쎯	-10.5698
,fbnd0쎯dyck0쎯	-10.5699
fbkf쎯fjpu쎯	-10.57
hmr0쎯nk0쎯	-10.5701
jksc쎯oos쎯	-10.5701
tt1쎯klg0쎯	-10.5702
yv	-10.5703
mgumb쎯tbc0쎯	-10.5704
abu쎯nlomm쎯	-10.5705
niy쎯yrnl0쎯	-10.5708
tbln0쎯ecr쎯	-10.571
yha쎯	-10.571
fqln0쎯vdhml쎯	-10.571
mnmbo쎯vmnhe쎯	-10.5711
llmb쎯,	-10.5712
gam쎯jrhu쎯	-10.5712
,ikhhh쎯ksr쎯nn0쎯	-10.5713
ldhe쎯qbbe0쎯ninn쎯	-10.5717
amyo쎯iksi쎯nn0쎯	-10.5717
jka쎯hapi0쎯	-10.572
fdqmb쎯ite쎯	-10.5721
nbshq쎯hdeq쎯:	-10.5723
uni0쎯hapi0쎯	-10.5725
bmr0쎯adi쎯pd0쎯	-10.5727
yrbr0쎯hjbo쎯amwg쎯	-10.5729
qsle쎯za9쎯i1쎯za8쎯	-10.5732
-쎇	-10.5736
mku쎯fvok쎯	-10.5739
쎂～	-10.574
zd4	-10.5741
dtak쎯ipm0쎯,	-10.5743
nini0쎯iksi쎯	-10.5744
dbu쎯ifm쎯	-10.5745
,lmp0쎯	-10.5746
.lw쎯	-10.5747
amyo쎯edi0쎯	-10.5747
ni쎯	-10.5749
yg0쎯npo쎯	-10.575
eune0쎯	-10.5753
ob1쎯hapi0쎯	-10.5755
lsr0쎯aombo쎯.	-10.5757
yg0쎯eyiu0쎯	-10.5757
mf0쎯bq쎯	-10.5759
ikhhh쎯vmisb쎯	-10.576
po0쎯i1쎯	-10.5762
tc1쎯woll0쎯	-10.5763
vmfft쎯ysook0쎯	-10.5766
ykq0쎯jikq쎯	-10.5766
l0쎯opj0쎯sok0쎯	-10.5767
tc1쎯omd0쎯	-10.5769
hgdi쎯tbd1쎯fcymr쎯	-10.577
ihs0쎯wd0쎯lnk0쎯	-10.577
lsylb쎯	-10.5772
ycbr0쎯jmso쎯	-10.5772
jmig쎯yg0쎯ohg쎯	-10.5773
qni0쎯mmbo쎯	-10.5773
j쎯jnd0쎯	-10.5775
slm쎯hqm쎯yrnl0쎯	-10.5777
fbrlb쎯hdv쎯i1쎯	-10.5778
jkmvs쎯jr쎯	-10.5778
uu0쎯heo쎯	-10.578
lnk0쎯mmbo쎯	-10.5781
tnlb0쎯	-10.5781
e쎯l0쎯	-10.5784
odm0쎯hjwg쎯	-10.5785
etrg쎯eaiu쎯	-10.5789
mnr쎯csh0쎯iksi쎯	-10.579
mwln쎯crp0쎯	-10.5792
,amyo쎯qpa0쎯	-10.5792
mhaf0쎯boln0쎯,	-10.5795
쎉쎀%	-10.5796
hllb0쎯	-10.5797
fcq0쎯ksc쎯hapi0쎯	-10.5797
ivwd쎯fbrg쎯	-10.5797
hqm쎯tgv쎯	-10.5799
쎁/쎂	-10.5802
nini0쎯mmu0쎯op0쎯	-10.5802
mwpa쎯	-10.5802
bq쎯gpd쎯	-10.5802
,mhaf0쎯	-10.5803
opytj쎯	-10.5804
zc45쎯	-10.5805
vmhey쎯md쎯	-10.5807
쎁쎀%	-10.5809
janl쎯ibpp쎯	-10.5809
ymb쎯jmyo쎯	-10.581
ohpm쎯eabt0쎯	-10.5812
edi0쎯hdnf쎯	-10.5813
hda쎯rjd0쎯	-10.5817
ehbk0쎯	-10.5817
sehho쎯omr0쎯	-10.5821
쎅ci0쎯wg0쎯	-10.5822
쎀ms0쎯onao쎯qmvif쎯	-10.5824
mnr쎯bq쎯	-10.5825
sehho쎯ogd0쎯	-10.5829
,ynib쎯fbrlb쎯	-10.5829
(쎁).	-10.5831
쎁쎅쎀쎀	-10.5831
k0쎯k0쎯	-10.5833
mfr쎯	-10.5833
hj0쎯fd0쎯	-10.5842
jcm쎯l0쎯	-10.5846
hapi0쎯yta0쎯hvd쎯	-10.5847
mwln쎯yg0쎯ohg쎯.	-10.5853
hgdi쎯hgdi쎯.	-10.5853
yhgu쎯fcq0쎯	-10.5854
mgohh0쎯lmbo0쎯	-10.5859
hj0쎯jrhu쎯	-10.5859
abu쎯	-10.5862
tk0쎯hvif쎯.	-10.5863
m쎯mk쎯	-10.5871
etrg쎯d쎯	-10.5876
,omlk쎯	-10.5882
nbshq쎯qmwyi0쎯	-10.5888
tm0쎯taj쎯	-10.5891
libhu0쎯	-10.5891
tkhk0쎯sje0쎯	-10.5892
mmu0쎯oq0쎯	-10.5894
.ab0쎯	-10.5897
ksr쎯ym0쎯	-10.5898
쎁.쎄	-10.5899
lmg0쎯k0쎯	-10.5901
hn	-10.5906
mgmf0쎯vmjpu쎯	-10.5912
khjka쎯obo쎯	-10.5913
hdp0쎯	-10.5915
aqmb쎯	-10.5915
hdl1쎯nnqo0쎯za2쎯	-10.5916
ivke쎯stv쎯k	-10.5921
ycnh쎯	-10.5921
mgph0쎯	-10.5922
,csh0쎯rsln1쎯	-10.5923
mwv쎯qmvif쎯	-10.5924
iflwl쎯ivhjr쎯	-10.5928
l0쎯wmgi쎯ids쎯egi쎯	-10.5928
ndu쎯nd0쎯	-10.5929
ivke쎯stv쎯hdr0쎯	-10.5933
ivmfj쎯yhgu쎯	-10.5936
yg0쎯rudi0쎯	-10.5937
ig0쎯ddi쎯	-10.5942
kqmob쎯	-10.5942
yrbr0쎯eqmb0쎯	-10.5943
ycn쎯tw1쎯	-10.5943
쎁쎉쎃쎄oq0쎯	-10.5946
rphh0쎯	-10.5949
ihs0쎯iksi쎯nn0쎯	-10.5951
ke0쎯vnd쎯	-10.5951
qau쎯qsmg0쎯	-10.5951
;nbo쎯qmbo0쎯	-10.5952
mgmmu쎯bmmc쎯	-10.5954
mfj0쎯jv0쎯	-10.5954
qpa0쎯hapi0쎯amyo쎯	-10.5958
쎀.쎆	-10.5959
qjcn0쎯qsuu쎯	-10.5959
bmr0쎯m쎯	-10.596
mmm쎯ahqm0쎯	-10.5962
csh0쎯nd0쎯amwg쎯	-10.5965
.yyk쎯ypmm쎯	-10.5966
qhmy쎯	-10.5966
nsnl쎯	-10.5971
,nhs쎯	-10.5971
k0쎯md쎯	-10.5973
huik0쎯	-10.5974
ivbgr쎯rjd0쎯	-10.5974
r쎯irp0쎯	-10.5975
smh쎯	-10.5976
qyrb0쎯	-10.5977
hdnin0쎯rvp쎯	-10.5979
m2	-10.5982
fbnd0쎯fbnd0쎯jm0쎯	-10.5983
hpa0쎯	-10.5986
bhn0쎯obo쎯	-10.5986
yhgu쎯yib쎯	-10.5992
qmb쎯eowy쎯	-10.5992
dhn0쎯hxh쎯	-10.5992
tmmc0쎯lsa쎯	-10.5993
nn0쎯za2쎯	-10.5993
jher쎯o쎯	-10.6001
,amyo쎯m쎯hdl0쎯	-10.6004
yta0쎯hdbu쎯	-10.6004
mt0쎯ivke쎯k	-10.6005
ids쎯muw쎯jmso쎯	-10.6006
.bq쎯md쎯	-10.6006
ifg쎯hdyj0쎯	-10.6006
zf3	-10.6007
nljmu쎯po0쎯	-10.6011
oin쎯oq0쎯	-10.6013
hsyhs0쎯yth쎯	-10.6014
k0쎯gpd쎯	-10.6015
ms0쎯omd0쎯	-10.6016
mwln쎯hdyj0쎯po0쎯	-10.6017
쎈mfj0쎯yhs쎯ci0쎯	-10.6023
niy쎯wmgi쎯ivmmr쎯	-10.603
쎁o쎯,	-10.6032
mnr쎯qgdi쎯vmjnk쎯	-10.6033
oq0쎯vmnhe쎯	-10.6039
ucor쎯	-10.604
v쎯lu0쎯	-10.6041
vmog쎯qgdi쎯	-10.6041
.vmnom쎯ydi0쎯	-10.6041
hopsh쎯ihpm쎯	-10.6041
yhjr쎯fsm0쎯	-10.6042
nvomd쎯	-10.6043
qhdw쎯uu0쎯	-10.6043
nc쎯ron쎯	-10.6045
,my쎯	-10.6048
yviw쎯	-10.6049
ivhne쎯ivj쎯hapi0쎯	-10.6053
ytice쎯mlm쎯	-10.6057
(pru쎯qhjr쎯	-10.6058
dsmg0쎯krd0쎯	-10.6061
oino1쎯	-10.6062
ymmu0쎯opfb쎯	-10.6063
쎁쎀쎀jrhu쎯	-10.6063
u쎯opjbc쎯	-10.6064
pa쎯	-10.6065
mrbhu쎯	-10.6065
fbrhu쎯crp0쎯je0쎯	-10.6066
m쎯vmij0쎯	-10.6067
eikh0쎯yhds쎯	-10.6068
zd1	-10.607
tims쎯ids쎯	-10.607
yif0쎯hdp0쎯	-10.6071
eikh0쎯	-10.6074
hnlh0쎯kn0쎯	-10.6079
ihs0쎯ivmmr쎯	-10.6079
nvno0쎯fdyj쎯	-10.6079
llmb쎯iobo쎯	-10.608
....	-10.6081
mku쎯hqu0쎯	-10.6088
jdok0쎯rudi0쎯	-10.6095
hqg쎯by0쎯	-10.6095
grtr0쎯srln0쎯	-10.6095
k0쎯nini0쎯	-10.6095
kip0쎯ite쎯	-10.6096
쎁쎉쎃쎃oq0쎯	-10.6097
byck0쎯jbrrv쎯	-10.61
oahe쎯am0쎯	-10.6103
m쎯ocsh쎯	-10.6106
jmyo쎯tcb0쎯	-10.6115
bpru쎯	-10.6116
.쎄i1쎯	-10.6117
optgk쎯	-10.6121
mylm쎯amyo쎯	-10.6122
ouln0쎯oos쎯hapi0쎯	-10.6122
omg0쎯po0쎯	-10.6123
po0쎯.	-10.6125
mwsu쎯yhs쎯	-10.6126
oh쎯r쎯	-10.6127
hqm쎯ehjr쎯klg0쎯	-10.6127
gcwa0쎯yth쎯	-10.6134
iov0쎯	-10.6134
ha	-10.6137
hdr0쎯opfb쎯ogr0쎯	-10.6137
moob쎯k0쎯	-10.614
eowy쎯tk0쎯	-10.6142
oiku쎯iav0쎯hapi0쎯	-10.6142
op0쎯omr0쎯hqphh쎯	-10.6142
smf0쎯mihui쎯	-10.6145
djbm0쎯hqphh쎯.	-10.6146
hqgdi쎯vmpi쎯	-10.6147
fbnd0쎯mrmt쎯jckn쎯	-10.6148
jlwl0쎯dyvo쎯	-10.6148
zc1	-10.6156
lk쎯ym0쎯	-10.6157
쎁o쎯	-10.616
mr0쎯op0쎯	-10.6163
tmto쎯	-10.6165
qtbs쎯uu0쎯	-10.6166
vmqs쎯	-10.6166
ytt0쎯mok0쎯	-10.617
쎁쎂쎅	-10.6171
yprmk쎯	-10.6173
nir쎯ivsmr쎯	-10.6174
쎂쎀쎁쎄oq0쎯	-10.6176
mg0쎯nd0쎯	-10.6179
ehkp쎯	-10.6181
iobo쎯bmks0쎯	-10.6182
gonsm쎯	-10.6182
jyk쎯mgbhu쎯nn0쎯	-10.6187
o쎯,tmmc0쎯l0쎯	-10.6192
jyk쎯sim쎯	-10.6192
oudk쎯hino0쎯	-10.6196
rjhr쎯	-10.6198
mgwg쎯ivop0쎯hdr0쎯	-10.62
ysok쎯hhdi쎯	-10.6201
쎁～	-10.6202
leg0쎯qgdi쎯vio0쎯	-10.6206
nkhym쎯po0쎯	-10.6207
nl0쎯oimbo0쎯	-10.621
qobhu쎯tesu쎯op0쎯	-10.6211
mgok1쎯mghui쎯	-10.6217
ol1쎯phqm쎯op0쎯	-10.6218
he0쎯hhdi쎯	-10.6219
mcw쎯obon쎯	-10.6223
lmp0쎯rmher쎯	-10.6223
,ppha쎯	-10.6224
,yyk쎯ypmm쎯	-10.6225
쎈rmvs쎯	-10.6225
oy0쎯	-10.6226
jmn쎯edhe쎯ylb쎯	-10.6226
쎃쎆쎀	-10.6229
tgk쎯eill쎯	-10.6231
vmm0쎯niy쎯	-10.6233
eowy쎯ym0쎯	-10.6234
smsim쎯hqu0쎯	-10.6234
jpmu쎯	-10.624
tkhk0쎯wmgi쎯jmso쎯	-10.624
dbu쎯fsm0쎯md쎯	-10.624
ivke쎯qsuu쎯	-10.6245
oip0쎯qmv쎯phqm쎯	-10.6245
hoav0쎯pdk쎯	-10.6246
une쎯	-10.6248
cwj0쎯tw1쎯	-10.6251
qoa쎯	-10.6256
mks0쎯yioj0쎯:	-10.6257
qjcn0쎯	-10.6259
ms0쎯mmu0쎯.	-10.626
tjka0쎯kb0쎯	-10.626
edi0쎯ifm쎯	-10.6261
q쎯miks0쎯	-10.6262
hdl0쎯,	-10.6263
eysd0쎯eine쎯	-10.6263
jrlr0쎯rbo0쎯	-10.627
p쎯big쎯	-10.627
쎄쎈쎀	-10.627
qmv쎯ab0쎯	-10.6272
ytap쎯niy쎯	-10.6277
hdnsp쎯jmyo쎯phqm쎯	-10.6278
ab0쎯eqmb0쎯	-10.6278
쎆mfj0쎯yhs쎯ci0쎯	-10.6278
dgg쎯dd쎯	-10.628
qni0쎯kqrsj쎯za8쎯	-10.6281
qam쎯	-10.6281
oiku쎯goiv쎯	-10.6282
crp0쎯mgwg쎯	-10.6283
쎁쎀oq0쎯	-10.6284
bq쎯e쎯	-10.6285
wc0쎯j쎯	-10.6286
nl쎯	-10.6292
qpa0쎯mmf0쎯	-10.6292
m쎯mwsl쎯	-10.6296
qhne0쎯iobo쎯jka쎯	-10.6296
rvp쎯ksc쎯	-10.6297
pdmbo0쎯	-10.6297
nljp쎯	-10.6304
oyrn쎯ylm쎯	-10.6306
wmgi쎯nlmmf쎯op0쎯	-10.6308
lmbo0쎯ysook0쎯	-10.6308
mrmt쎯jckn쎯rbo0쎯,	-10.631
tcg0쎯gpd쎯.	-10.6311
hapi0쎯bu0쎯dmmf0쎯	-10.6312
dbu쎯oqni쎯	-10.6313
ms0쎯o쎯	-10.6313
ino0쎯gpd쎯	-10.6321
.bmr0쎯adi쎯,	-10.6321
bbke쎯vnd쎯	-10.6322
v0쎯	-10.6326
vmoo쎯dtlc쎯	-10.6326
vmnom쎯za9쎯	-10.6327
jcos쎯	-10.6329
kna0쎯	-10.633
uu0쎯ejmc0쎯	-10.633
nklq쎯dyck0쎯	-10.6331
쎂mfj0쎯yhs쎯ci0쎯	-10.6331
nklq쎯ivhne쎯,	-10.6331
jtbu1쎯tjblb0쎯	-10.6332
ifmrw쎯hdln0쎯	-10.6333
bkf0쎯mbll쎯	-10.6336
jdok0쎯llmb쎯.	-10.6337
rudi0쎯hyyhn쎯	-10.6337
tyhj0쎯	-10.6337
mgohh0쎯mghjd쎯	-10.6338
qtor쎯mwsu쎯	-10.634
i1쎯ifg쎯ommi0쎯	-10.634
mfj0쎯yhs쎯ci0쎯	-10.6342
hamg쎯hmr0쎯	-10.6346
nhe쎯dbu쎯tk0쎯	-10.6346
ci0쎯ooo0쎯	-10.635
mwsl쎯hdrc쎯쎈	-10.635
p쎯hbt0쎯hjrr쎯	-10.6352
gpd쎯qiks쎯	-10.6355
ifnl0쎯	-10.6355
kb0쎯ks0쎯	-10.6357
oiku쎯qiks쎯,	-10.6357
oyg쎯joma쎯	-10.636
ー	-10.6361
,tgk쎯wmgi쎯	-10.6363
kw쎯yj0쎯	-10.6373
ophqo쎯rmher쎯ssr쎯	-10.6374
ob1쎯,	-10.6377
,omg0쎯ddi쎯	-10.6385
hsyhs0쎯i1쎯	-10.6389
쎁zxae쎯	-10.6391
zbc0쎯	-10.6392
homm0쎯vmpi쎯	-10.6392
lsa쎯hapi0쎯	-10.6393
yg0쎯o쎯ci0쎯	-10.6394
vio0쎯ymp0쎯	-10.6395
tkhk0쎯fhbu0쎯	-10.6396
vmgr쎯vhpa쎯	-10.6397
nvlmi쎯	-10.6399
mri0쎯tc1쎯	-10.64
～쎁	-10.64
eykl0쎯jbtj쎯ylb쎯	-10.6403
amyo쎯hqi0쎯olis쎯	-10.6403
yj쎯	-10.6405
mig0쎯ym0쎯	-10.6407
mgbou1쎯	-10.6409
yta0쎯ykok0쎯	-10.6409
ifu쎯oik1쎯	-10.6411
쎃ci0쎯wg0쎯	-10.6412
smr쎯ihs0쎯yt0쎯md쎯	-10.6416
m쎯ma0쎯	-10.6416
mk쎯ojlk쎯	-10.6416
ord0쎯slm쎯	-10.6417
tw0쎯ysook0쎯	-10.6418
e쎯mwsl쎯	-10.6419
klg0쎯yyk쎯	-10.6421
hapi0쎯hnlh0쎯m쎯	-10.6423
,ebcd쎯bbe쎯	-10.6423
mh0쎯i1쎯	-10.6423
gc	-10.6425
rwk쎯	-10.643
oip0쎯ivhhi쎯	-10.643
vmnom쎯nmomm쎯.	-10.6432
i1쎯mmm쎯	-10.6437
ve쎯	-10.6437
qmn0쎯qu0쎯	-10.6444
쎉)	-10.6445
kqqni쎯op0쎯	-10.6448
-쎉	-10.6448
jmyo쎯hbln0쎯	-10.6454
rrikr쎯dit0쎯	-10.6454
o쎯omn1쎯	-10.6457
u쎯i1쎯	-10.6458
.za3쎯ilr0쎯	-10.6459
nini0쎯dtq쎯	-10.646
쎁imno0쎯	-10.646
hbu0쎯eir쎯ilil쎯	-10.6461
.yhml쎯oq0쎯dt0쎯,	-10.6461
ms0쎯jnd0쎯	-10.6462
,md쎯amyo쎯	-10.6466
za3쎯ino0쎯	-10.6466
쎁쎆쎀쎀	-10.6466
imrhu쎯	-10.6467
thbu0쎯iodi쎯	-10.6469
uni0쎯,	-10.6469
dm0쎯hdyj0쎯hqm쎯	-10.6471
ord0쎯eabt0쎯	-10.6472
uu0쎯rrr0쎯	-10.6474
wmn0쎯	-10.6475
bd0쎯bq쎯nn0쎯	-10.6477
vmhj쎯	-10.6477
rudi0쎯llmb쎯	-10.6477
(쎁쎈	-10.6478
q쎯bbm0쎯	-10.6478
fdcsh쎯dj쎯	-10.6479
.nlykb1쎯tqbu쎯	-10.648
ino0쎯ytap쎯	-10.6482
slmy0쎯	-10.6483
bq쎯is0쎯hapi0쎯	-10.6483
hhsb쎯ivop0쎯yk0쎯	-10.6486
is0쎯mng0쎯	-10.6487
nnqo0쎯pru쎯	-10.6489
yg0쎯ivtt쎯	-10.649
ayrf0쎯nau0쎯	-10.6491
,tc0쎯kb0쎯	-10.6491
ydi0쎯hdrhg쎯l0쎯,	-10.6494
lbhni쎯	-10.6494
i1쎯dnd0쎯	-10.6495
)(	-10.6497
opwl쎯	-10.6497
ivhds쎯	-10.6497
rmvs쎯vmij0쎯	-10.6499
ydhml0쎯l0쎯wmgi쎯	-10.6499
-)	-10.65
hdbm쎯ogbo쎯	-10.65
vmij0쎯,	-10.6502
mgije쎯rbo0쎯	-10.6502
crp0쎯libt0쎯	-10.6503
yt0쎯aisl쎯	-10.6503
hgdi쎯wmgi쎯jmso쎯	-10.6504
lnk0쎯za3쎯	-10.6504
hojwp0쎯yib쎯	-10.6507
쎃%	-10.6508
pa1쎯klg0쎯	-10.6512
ikhhh쎯ivtmd쎯	-10.6513
vlok쎯lnbo쎯	-10.6513
csh0쎯tbok0쎯	-10.6517
qtor쎯	-10.6518
nd0쎯ci0쎯smr쎯	-10.6518
?za3쎯	-10.6519
쎁쎉쎉쎈	-10.6522
dm0쎯o쎯	-10.6522
ino0쎯oos쎯	-10.6528
yk1쎯yrnl0쎯	-10.6531
vmisb쎯oh쎯	-10.6535
yck0쎯ei0쎯	-10.6536
mtln0쎯jlln쎯	-10.6538
qyt0쎯mn0쎯	-10.654
mwsl쎯hdrc쎯쎇	-10.6542
ojrk쎯nn0쎯	-10.6543
hqo0쎯gi0쎯	-10.6544
hapi0쎯m쎯gfno쎯	-10.6547
ivmmr쎯:	-10.6548
hrln0쎯	-10.655
mt0쎯e쎯	-10.6555
hd0쎯	-10.6555
gpd쎯mthhh쎯	-10.6555
tab쎯	-10.6557
ioib쎯nvlmi쎯	-10.656
eyiu0쎯odm0쎯	-10.6562
rnlr쎯	-10.6563
"="	-10.6564
mdbu쎯	-10.6566
opjbc쎯oyt쎯md쎯	-10.6567
hdyj0쎯po0쎯	-10.657
wfq쎯	-10.6571
psh0쎯llml쎯	-10.6573
ihs0쎯rrr0쎯	-10.6574
ma0쎯opbo0쎯	-10.6575
mrmt쎯ivdi쎯ommi0쎯	-10.6576
dhab쎯top0쎯	-10.6584
hapi0쎯mf0쎯bmr0쎯	-10.6585
hbu0쎯hommn0쎯	-10.6588
pikh0쎯	-10.6591
oii쎯	-10.6592
m쎯gfno쎯	-10.6593
mgwg쎯jlln쎯po0쎯	-10.6593
ommi0쎯ivik쎯jmig쎯	-10.6595
cmvs쎯	-10.6597
ci0쎯smr쎯yg0쎯mwv쎯	-10.6597
nl0쎯oh쎯	-10.6599
쎂.쎄	-10.6602
ee0쎯jnd0쎯	-10.6602
r쎯,	-10.6603
i1쎯jbtj쎯	-10.6606
hhqu쎯muw쎯	-10.6607
i1쎯wmgi쎯jmso쎯	-10.6612
nmpd쎯	-10.6614
,mgbhu쎯su1쎯	-10.6614
yth쎯gpd쎯	-10.6614
쎅쎁쎂	-10.6615
ihs1쎯	-10.6617
ysm쎯hjrr쎯mgwg쎯	-10.6617
fate쎯fos쎯	-10.6622
쎀.쎄	-10.6624
;쎂i1쎯	-10.6624
f0쎯	-10.6631
쎁쎉쎉쎉	-10.6631
fbnd0쎯oyt쎯.	-10.6631
eqoa쎯ks0쎯	-10.6632
qyhn쎯yri0쎯	-10.6634
ymp0쎯adi쎯	-10.6637
ogsk쎯	-10.6639
ivhne쎯ivj쎯ysm쎯	-10.664
pd0쎯rvl쎯	-10.664
wp쎯dup쎯mmok쎯eir쎯	-10.6643
om0쎯nlgce쎯	-10.6643
qywm쎯	-10.6645
goru쎯nn0쎯	-10.6646
fbrlb쎯fbrlb쎯	-10.665
jlwl0쎯qpp0쎯	-10.6651
yrbr0쎯mhaf0쎯	-10.6651
amyo쎯:	-10.6651
opd0쎯o쎯	-10.6654
vmw쎯tsl쎯	-10.6654
oiku쎯tgk쎯,	-10.6654
fsm0쎯l0쎯	-10.6657
쎁×	-10.6657
.omg0쎯ddi쎯	-10.6658
omrl쎯oini0쎯	-10.6659
goshr쎯goiv쎯	-10.6663
ci0쎯heks0쎯rbo0쎯	-10.6664
tnok0쎯	-10.6664
g쎯mrt0쎯	-10.6667
i1쎯lmp0쎯yrf0쎯	-10.6671
dm0쎯ids쎯amyo쎯	-10.6672
tjomk쎯	-10.6673
phqm쎯.	-10.6673
a0쎯tcbt쎯	-10.6674
tk0쎯hvif쎯,	-10.6676
ms0쎯yw쎯	-10.6676
ivcru쎯:za2쎯	-10.6681
ivhne쎯yt0쎯hapi0쎯	-10.6681
lu0쎯hdyj0쎯	-10.6682
nvsmr쎯toll0쎯	-10.6684
vpd쎯olis쎯	-10.6685
쎁쎉쎂쎈oq0쎯	-10.6685
.wk0쎯iksi쎯	-10.6686
fbnd0쎯hvif쎯	-10.6686
쎃～	-10.6687
iksi쎯:	-10.6687
za24쎯	-10.6689
qamo쎯sje0쎯	-10.6689
nb	-10.6689
kq	-10.6692
ntks쎯	-10.6693
hapi0쎯pt0쎯woll0쎯	-10.6694
omg0쎯hbu0쎯miks0쎯	-10.6696
,bmmc쎯	-10.6696
po0쎯yk2쎯	-10.6697
dyvo쎯dlmo0쎯	-10.6699
nn0쎯k0쎯amwg쎯	-10.6699
ivsmr쎯es쎯	-10.6701
쎂imno0쎯	-10.6701
psh0쎯jrln쎯	-10.6708
m쎯ohq쎯	-10.6708
,nini0쎯imno0쎯	-10.6709
mca0쎯ht0쎯iksi쎯	-10.6711
hapi0쎯ivke쎯stv쎯,	-10.6712
edi0쎯q쎯	-10.6713
rj쎯dmob쎯	-10.6715
nnmbo0쎯ivj쎯	-10.6717
djbm0쎯dhjd쎯	-10.6721
kqyck쎯nc쎯	-10.6721
mgbbm쎯mgjrb쎯	-10.6722
it쎯	-10.6727
ninh쎯hjbu쎯	-10.673
hdnd0쎯tsl쎯	-10.673
dbb쎯	-10.6731
adi쎯tcb0쎯,	-10.6732
hshml쎯oos쎯	-10.6733
bhu0쎯md쎯	-10.6734
po0쎯hhsb쎯	-10.674
jlln쎯yylc쎯	-10.6741
mt0쎯hsr1쎯	-10.6741
qmb쎯budt쎯	-10.6741
nmomm쎯vlok쎯	-10.6744
tksc쎯sk0쎯	-10.6745
cwj0쎯oyt쎯i1쎯	-10.6747
hgdi쎯o쎯	-10.6749
i1쎯rjd0쎯fdqmb쎯	-10.6749
mwsl쎯lloa쎯	-10.675
tgk쎯rjd0쎯	-10.675
rvp쎯nc쎯vmbm0쎯,	-10.675
ndpru쎯	-10.6751
php0쎯	-10.6751
owyi0쎯imno0쎯	-10.6754
iflwl쎯kmnr0쎯	-10.6757
jp쎯amyo쎯	-10.6757
gyt쎯gnhe쎯	-10.6758
jdks쎯	-10.6759
rsql쎯	-10.676
jbmm0쎯mgln0쎯	-10.6761
wmgi쎯yth쎯	-10.6767
ino0쎯lsa쎯,	-10.6768
jmue쎯	-10.6769
ytwi0쎯hohju쎯	-10.6769
ivtt쎯nbshq쎯	-10.677
qamo쎯mmf0쎯	-10.6771
uu0쎯llhe쎯hapi0쎯	-10.6771
niy쎯gbhn1쎯	-10.6773
dhe1쎯gdk쎯	-10.6774
ivbgr쎯mrmt쎯	-10.6774
(쎄)	-10.6775
jrhu쎯wp쎯yg0쎯ik1쎯	-10.6775
yg0쎯mwv쎯vio0쎯	-10.6775
mylf쎯	-10.6775
,oos쎯iksi쎯	-10.6775
bmr0쎯fdk0쎯	-10.6776
he0쎯oahe쎯	-10.6778
hey쎯hdnd0쎯	-10.6781
mlwk쎯yrbr0쎯	-10.6782
q쎯mlm쎯	-10.6783
djmf쎯nau0쎯	-10.6783
lwu0쎯nlbm0쎯	-10.6785
o쎯k0쎯oip0쎯qmv쎯	-10.6787
iksi쎯tmmc0쎯	-10.6787
yrbr0쎯hbt0쎯mgi1쎯	-10.6789
.쎂쎀쎀쎆oq0쎯	-10.679
yk	-10.6791
ymrw쎯	-10.6791
esme0쎯epru쎯	-10.6793
hapi0쎯oymr쎯hup0쎯	-10.6794
yjivj쎯	-10.6796
ivcru쎯egi쎯	-10.6797
쎀쎀yw쎯,	-10.6797
a쎯	-10.6799
eatc쎯gpd쎯	-10.6801
,veks쎯ks0쎯	-10.6802
iksi쎯l0쎯p쎯	-10.6804
vmnau쎯vmvno쎯	-10.6806
mwln쎯yg0쎯vmisb쎯	-10.6809
.opd0쎯olis쎯	-10.6809
ylnc쎯hdnf쎯	-10.6811
jki쎯ebhu0쎯	-10.6813
yyk쎯yfiku0쎯amyo쎯	-10.6814
uni0쎯adi쎯	-10.6815
iksi쎯m쎯	-10.6816
ids쎯muw쎯nljmu쎯	-10.6817
md쎯ymp0쎯	-10.6817
kd0쎯obon쎯	-10.6821
mwbmr쎯	-10.6821
nd0쎯i1쎯	-10.6823
hnlh0쎯m쎯jmso쎯	-10.6824
yvbu쎯	-10.6826
a0쎯,	-10.6826
tk0쎯lsdh쎯	-10.6826
dfdv쎯yrbr0쎯	-10.6829
txc쎯jcor쎯	-10.6829
yrnn쎯	-10.6832
tgtr쎯md쎯	-10.6834
her0쎯hbu0쎯	-10.6837
jmgi쎯mr0쎯	-10.6837
ikp쎯	-10.6841
m쎯ylmh0쎯	-10.6841
yyk쎯yrnl0쎯	-10.6842
za3쎯,za2쎯	-10.6842
fate쎯ivke쎯	-10.6847
kd0쎯eowy쎯	-10.6847
vmng쎯	-10.6847
mwsl쎯dhe1쎯	-10.6848
쎁쎇쎀	-10.685
ivohh쎯knn0쎯	-10.685
enpo쎯	-10.6851
cwj0쎯oyt쎯:	-10.6851
쎂.쎂	-10.6852
ssr쎯fbrhu쎯vmbm0쎯	-10.6854
tbg0쎯yhgr0쎯	-10.6856
쎂쎀csh0쎯opl쎯	-10.6856
ikhhh쎯ivtmd쎯po0쎯	-10.6857
yg0쎯ks0쎯	-10.6857
uu0쎯ohg쎯	-10.6859
ihs0쎯yt0쎯,	-10.6864
eag쎯	-10.6864
nlnsp쎯tims쎯	-10.6866
ip	-10.6869
vsm쎯yth쎯hdyj0쎯	-10.6869
pysu쎯uysm쎯	-10.687
eate쎯klb쎯	-10.687
dbu쎯vmvfd쎯	-10.6872
omg0쎯hdnf쎯	-10.6882
qdj쎯	-10.6882
amyo쎯m쎯ythu쎯	-10.6884
ojbm0쎯hoami쎯	-10.6885
.wk0쎯ymp0쎯,	-10.6885
po0쎯efh0쎯ylb쎯	-10.6889
mthhh쎯qiks쎯	-10.6891
efb0쎯qdhqu쎯	-10.6893
oo0쎯ymp0쎯	-10.6894
mj쎯qiku쎯	-10.6896
ifm쎯nmp0쎯	-10.6898
e쎯bmi쎯	-10.6899
lpb쎯mwsl쎯	-10.6902
hyhxe쎯	-10.6903
wgfg쎯mcw쎯mrnr쎯	-10.6904
pt0쎯jmso쎯	-10.6908
쎁쎀쎈	-10.6911
bb0쎯	-10.6912
ifbhu쎯wgnin쎯	-10.6915
ihu쎯	-10.6919
m쎯dm0쎯	-10.692
lsh쎯ylmh0쎯	-10.6921
qsle쎯vmhvp쎯	-10.6922
hoomd0쎯ilil쎯	-10.6923
za8쎯ydhml0쎯	-10.6923
ojlk쎯omrl쎯	-10.6924
(쎁쎈쎉	-10.6926
vlok쎯bopi쎯	-10.6928
hfp0쎯	-10.6929
ooll쎯ojbm0쎯.	-10.6934
jher쎯ebhu0쎯	-10.6935
wl쎯tcg0쎯	-10.6936
za7쎯	-10.6938
lscru쎯libhu0쎯	-10.6943
nrli쎯mnf0쎯	-10.6944
l0쎯p쎯,	-10.6944
ydl쎯yioj0쎯	-10.6946
ejcr0쎯md쎯	-10.6952
roks쎯ytaj0쎯	-10.6957
opj0쎯muhe0쎯	-10.696
mcw쎯jv0쎯ylb쎯	-10.6967
eabt0쎯ilil쎯ylb쎯	-10.697
ddkq0쎯	-10.697
moob쎯mwsl쎯	-10.6972
tpib쎯tpou쎯emcw0쎯	-10.6972
hbu0쎯fbnd0쎯	-10.6973
pqmb쎯tsl쎯	-10.6973
쎁쎅csh0쎯opl쎯	-10.6974
ni1쎯qnsh쎯	-10.6981
lsp0쎯	-10.6983
쎁쎉쎃쎀oq0쎯	-10.6985
yqhl쎯pt0쎯	-10.6985
moob쎯ummj0쎯	-10.6988
sjtk쎯vmher쎯	-10.699
hqi0쎯ci0쎯smr쎯	-10.6991
bopo쎯	-10.6993
wgf0쎯ha쎯	-10.6994
muhe0쎯hdnd0쎯	-10.6994
oq0쎯dt0쎯,	-10.6995
fdqmb쎯smf0쎯	-10.6996
tgk쎯fbnd0쎯	-10.6998
nlheq쎯e쎯amwg쎯	-10.6999
ci0쎯smr쎯klg0쎯	-10.7
taks쎯	-10.7
ha쎯tbd0쎯	-10.7001
.kqjqr쎯	-10.7001
l0쎯tcb0쎯	-10.7002
goru쎯ohg쎯	-10.7003
irp0쎯mgln0쎯	-10.7007
ayrf0쎯hojwp0쎯	-10.7007
bmr0쎯nir쎯	-10.7008
opmn쎯	-10.7009
rrik0쎯	-10.7012
gnsh쎯ayrf0쎯	-10.7013
uu0쎯mgbhu쎯hapi0쎯	-10.7014
쎃쎅쎀	-10.7015
mlm쎯hdv쎯	-10.7016
uu0쎯mgbhu쎯klg0쎯	-10.7021
dm0쎯g쎯	-10.7021
oqni쎯miks0쎯	-10.7024
top0쎯yjhoj쎯	-10.7026
쎃mfj0쎯yhs쎯ci0쎯	-10.703
tgk쎯v쎯	-10.703
jjb0쎯nla쎯	-10.7031
qibi쎯	-10.7034
ivoj쎯mnr쎯ivmym쎯	-10.7034
yrf1쎯,	-10.7034
gah쎯fcymr쎯	-10.7035
hhqu쎯nir쎯	-10.7036
oyok0쎯irp0쎯	-10.7038
jhq쎯	-10.7039
oos쎯nn0쎯	-10.704
etq0쎯tpkp쎯	-10.7044
yth쎯rrr0쎯hdr0쎯	-10.7044
de0쎯hdln0쎯	-10.7046
wdh쎯hdv쎯	-10.7047
jk0쎯qo0쎯	-10.7048
ytt0쎯ylmh0쎯lnk0쎯	-10.7048
hlsa쎯cwj0쎯hapi0쎯	-10.705
kqqni쎯ydl쎯	-10.7052
mf0쎯aphh0쎯	-10.7052
hxh쎯yrbr0쎯	-10.7052
hqgdi쎯sjlws쎯	-10.7052
mik쎯	-10.7053
hooml쎯lk쎯	-10.7057
mgb0쎯hqm쎯	-10.7057
vvh쎯fbrhu쎯hdv쎯	-10.7058
frrd쎯	-10.7059
ivo쎯jmyo쎯	-10.706
nklq쎯wmgi쎯	-10.706
atc0쎯mmf0쎯rrikr쎯	-10.7062
pqmb쎯ayrf0쎯	-10.7065
osk0쎯tchml쎯tmm0쎯	-10.7067
ylln0쎯i1쎯	-10.707
yth쎯hqphh쎯	-10.7072
),ifmrw쎯nklq쎯	-10.7072
hoav0쎯vnd쎯hapi0쎯	-10.7075
tkhk0쎯omg0쎯wmgi쎯	-10.7076
hed0쎯omnn0쎯	-10.7077
쎂ci0쎯wg0쎯	-10.7077
ythu쎯jdok0쎯	-10.7077
nsnd0쎯	-10.7078
ynbo0쎯	-10.7078
tbg0쎯byck0쎯	-10.7079
pd0쎯ommi0쎯	-10.7082
jikp쎯	-10.7083
gg쎯	-10.7084
yg0쎯mwv쎯hqm쎯yth쎯	-10.7084
janl쎯mnr쎯vio0쎯	-10.7089
yrnl0쎯,	-10.7089
qyt0쎯tchml쎯	-10.709
slm쎯ifbhu쎯	-10.709
hxh쎯yks쎯	-10.7091
mwsl쎯hdrc쎯yk2쎯	-10.7092
mgoii쎯	-10.7093
,qpa0쎯	-10.7097
.csh0쎯klb쎯md쎯	-10.7098
쎅fd0쎯	-10.71
mnij쎯kok쎯o쎯	-10.7102
hohju쎯	-10.7102
,aimvu쎯	-10.7103
hapi0쎯omr0쎯oos쎯	-10.7103
,eowy쎯qike쎯	-10.7107
orpym쎯	-10.7111
mmti쎯	-10.7112
vmisb쎯hdrhg쎯	-10.7112
쎁.쎃	-10.7114
heo쎯.	-10.7115
dt0쎯ivcru쎯,	-10.7117
(쎁쎉쎂	-10.7118
.jp쎯amyo쎯	-10.7118
l0쎯p쎯nc쎯fbnd0쎯	-10.712
mmok쎯de0쎯	-10.7121
(?	-10.7122
쎅mfj0쎯yhs쎯ci0쎯	-10.7123
hjrr쎯mgwg쎯odm0쎯	-10.7124
,m쎯ol1쎯	-10.713
hodi쎯rmvs쎯	-10.713
.hmr0쎯dt0쎯	-10.7132
쎅쎀쎀jrhu쎯	-10.7134
bmr0쎯hommn0쎯	-10.7139
dig0쎯	-10.7142
nini0쎯o쎯	-10.7145
qwl쎯	-10.7146
smmi0쎯,	-10.7146
fmbo0쎯	-10.7148
vmbme쎯klnd쎯	-10.7153
-쎁쎀	-10.7156
vmjoa쎯bysm쎯	-10.7156
mok0쎯tk0쎯	-10.7158
o0쎯	-10.7158
쎀쎀쎀쎀	-10.7162
wjbo쎯jcmvh쎯	-10.717
irp0쎯ifm쎯	-10.7173
tsj쎯	-10.7173
eapv쎯	-10.7174
mnhjd쎯	-10.7178
jtbu1쎯ite쎯	-10.7178
hdbgr쎯	-10.7179
elsg쎯ebbb0쎯	-10.7179
za5쎯	-10.7182
goru쎯mgln0쎯	-10.7187
qje쎯egi쎯	-10.7189
쎂쎀-	-10.719
obo쎯hjbo쎯	-10.7193
opd0쎯klg0쎯	-10.7194
nmme0쎯za9쎯	-10.7197
i1쎯e쎯	-10.7197
,hqm쎯md쎯	-10.7198
a0쎯ivmmr쎯	-10.7199
lsh쎯,	-10.7202
ymp0쎯niy쎯	-10.7204
hnk0쎯mlby쎯	-10.7207
vlok쎯tcbt쎯	-10.7207
fdk0쎯rsln1쎯:	-10.7208
qni0쎯fbnd0쎯mks1쎯	-10.7209
tjblb0쎯tqbu쎯	-10.721
쎂쎄nc쎯adi쎯	-10.7213
iksi쎯o쎯	-10.7217
csh0쎯mnyhv0쎯	-10.7217
fmu쎯tbd1쎯	-10.7217
yviw쎯hqok0쎯	-10.7221
isok쎯	-10.7226
/쎃	-10.7227
,ehne쎯kb0쎯	-10.7228
lmp0쎯tgk쎯	-10.7231
,mf0쎯oe0쎯	-10.7233
qiku쎯	-10.7236
khf0쎯	-10.7237
uvii쎯wfik쎯	-10.7238
ymf0쎯mhaf0쎯	-10.7239
fbnd0쎯dyck0쎯i1쎯	-10.7239
bks쎯	-10.7243
hbv0쎯tc1쎯yrnl0쎯	-10.7246
nkhym쎯jv0쎯	-10.7248
eyfe쎯	-10.7249
bq쎯vio0쎯	-10.7252
egg0쎯	-10.7254
hnlh0쎯wc0쎯slw0쎯	-10.7254
elbu쎯nla쎯ylb쎯	-10.7254
i1쎯ysohv쎯eysd0쎯	-10.7257
(쎂	-10.7257
yr	-10.7258
qif0쎯e쎯	-10.726
egi쎯o쎯	-10.7264
eowy쎯e쎯	-10.7265
ppj쎯tc1쎯.	-10.7266
jmgi쎯jmgi쎯	-10.7268
hapi0쎯ylb쎯gnsh쎯	-10.7269
,jp쎯amyo쎯	-10.7269
mrnbg쎯ivo쎯	-10.727
gcwa0쎯ojbm0쎯	-10.727
gmd쎯	-10.7272
×쎄	-10.7275
ouln0쎯yt0쎯md쎯	-10.7276
oog0쎯dmmf0쎯	-10.728
ehml0쎯	-10.728
mmok쎯heks0쎯	-10.7281
uu0쎯itlb쎯	-10.7285
ssr쎯i1쎯	-10.7285
edhe쎯tmm0쎯	-10.7288
m쎯dtq쎯,	-10.7288
mm	-10.7291
쎀.쎀쎀	-10.7293
hjwg쎯oahe쎯	-10.7296
fwk쎯ir0쎯	-10.7299
fbrlb쎯oq0쎯	-10.7299
fbrlb쎯ilil쎯	-10.7302
okp0쎯no1쎯	-10.7302
qbnsd쎯bine쎯	-10.7302
smr쎯oini0쎯yrnl0쎯	-10.7302
hvd쎯wmmu0쎯	-10.7303
mlm쎯iobo쎯	-10.7303
gpim쎯mnr쎯	-10.7305
nk0쎯kb0쎯	-10.7307
bdoe쎯	-10.7307
pysm쎯fdk0쎯	-10.7308
amyo쎯bu0쎯tbln0쎯	-10.7309
쎁쎀omd0쎯	-10.731
mgilg쎯yg0쎯ohg쎯	-10.7311
≥	-10.7311
m쎯ol1쎯o쎯	-10.7311
yfiku0쎯kb0쎯	-10.7312
mlm쎯fbnd0쎯nljmu쎯	-10.7314
yfiku0쎯ibpp쎯	-10.7318
ci0쎯pmbo0쎯,	-10.732
kqyck쎯vnd쎯	-10.7322
dhn0쎯hdbu쎯	-10.7324
jyk쎯yri0쎯	-10.7324
hapi0쎯ooll쎯dher쎯	-10.7325
ivnib쎯	-10.7332
mmbo쎯bu0쎯hapi0쎯	-10.7337
rd0쎯	-10.7338
vio0쎯jbtj쎯	-10.734
mhaf0쎯iksi쎯	-10.7344
zxcq쎯	-10.7344
vmbm0쎯vmbm0쎯po0쎯	-10.7344
omr0쎯oos쎯,	-10.7347
egi쎯za9쎯	-10.7347
,bbe쎯mgln0쎯	-10.7349
hdr0쎯gpd쎯sk0쎯	-10.7349
kokr쎯	-10.7359
쎂.쎁	-10.7361
ivke쎯hqm쎯hapi0쎯	-10.7366
ohg쎯ytap쎯	-10.7369
yr쎯	-10.7371
oiku쎯jip쎯	-10.7373
qmb쎯eowy쎯fhbu0쎯	-10.7373
mlwk쎯vnd쎯hapi0쎯	-10.7374
hgdi쎯her0쎯hdl0쎯	-10.7374
hbv0쎯vmm0쎯bkq쎯	-10.7375
fdqmb쎯mrnbg쎯	-10.7375
쎂mmbo쎯	-10.7375
쎆%	-10.7375
nnqo0쎯ivtkr쎯	-10.7376
ivke쎯hqm쎯klg0쎯	-10.7381
amyo쎯oo0쎯	-10.7381
ehsk0쎯mnf0쎯	-10.7382
hn0쎯j쎯	-10.7384
glwl쎯	-10.7386
giok0쎯nhe쎯	-10.7393
kn0쎯ikp0쎯	-10.7393
.za3쎯ab0쎯	-10.7394
bhne쎯ocsh쎯hbln0쎯	-10.7395
rmher쎯,	-10.7398
amyo쎯ogd0쎯	-10.7401
gytr쎯ivlll쎯l0쎯p쎯	-10.7403
fbr0쎯ids쎯	-10.7404
dt0쎯mcw쎯mtc0쎯	-10.7405
l0쎯qmb쎯oq0쎯	-10.7406
rmylm쎯	-10.7406
lmnii쎯ommi0쎯	-10.7407
rrikr쎯jrlr0쎯	-10.7407
dfdv쎯i1쎯	-10.7408
sok0쎯llmb쎯.	-10.7412
emnr쎯r쎯	-10.7412
쎁.쎁	-10.7413
hx	-10.7414
wr쎯llsm쎯	-10.7415
yashr쎯	-10.7416
hapi0쎯ytap쎯wp쎯	-10.7418
),jnd0쎯	-10.7419
eabt0쎯abme0쎯	-10.7419
lll쎯bmi쎯	-10.742
hdnin0쎯djbm0쎯	-10.7422
yhml쎯hn0쎯oq0쎯	-10.7429
dmam쎯	-10.743
adi쎯yoln0쎯	-10.743
쎁쎉쎉쎇	-10.7431
eyg0쎯hhdi쎯	-10.7432
cwj0쎯khlmi쎯	-10.7432
e쎯aaa0쎯	-10.7433
hvo쎯	-10.7433
hoav0쎯fh쎯	-10.7434
suok0쎯hbln0쎯	-10.7436
yrbn0쎯ite쎯	-10.7436
hq0쎯vnhs쎯	-10.7437
mmm쎯vmog쎯	-10.7437
hvif쎯yg0쎯ohg쎯	-10.7439
hae쎯ilil쎯	-10.7441
okr1쎯	-10.7441
nljmu쎯nljmu쎯po0쎯	-10.7441
fdtgf쎯	-10.7443
jid0쎯	-10.7444
auam쎯	-10.7445
klg0쎯oin쎯	-10.7445
쎄mfj0쎯yhs쎯ci0쎯	-10.7456
jmso쎯.	-10.7456
ejcr0쎯nbshq쎯	-10.7456
fmu쎯eeq0쎯	-10.7457
k0쎯qobhu쎯dtak쎯	-10.7462
쎁쎉쎉쎆	-10.7468
shoe0쎯hommn0쎯	-10.7468
fdmbb0쎯fd0쎯	-10.747
dnhe쎯tmmc0쎯	-10.7472
ivwb쎯ino0쎯	-10.7474
enwm쎯tc1쎯	-10.7474
vmw쎯mgok0쎯	-10.748
oos쎯ivwb쎯ivmmr쎯	-10.7481
jmch쎯	-10.7481
po0쎯yomd쎯	-10.7484
l0쎯p쎯yg0쎯ohg쎯	-10.7485
amyo쎯m쎯ioog0쎯	-10.7485
mmm쎯imno0쎯	-10.7486
mm0쎯o쎯	-10.7487
mfj0쎯hommn0쎯	-10.7487
jbmm0쎯yt0쎯	-10.7488
,mthhh쎯ihs0쎯nn0쎯	-10.7489
csh0쎯mwsu쎯mgln0쎯	-10.7489
asje쎯hjwg쎯mwv쎯	-10.749
쎇.쎅	-10.7494
jiog쎯ylm쎯	-10.7497
ejmc0쎯yce0쎯	-10.7501
쎀fd0쎯,	-10.7501
hdr0쎯qje쎯id1쎯	-10.7503
bqo쎯	-10.7504
ids쎯muw쎯tn0쎯id1쎯	-10.7508
ifrob쎯	-10.7512
hjwg쎯mwv쎯ikhhh쎯	-10.7514
tlwc쎯hvio0쎯	-10.7515
bhne쎯ocsh쎯	-10.7517
vbm쎯	-10.7522
ahqm0쎯vmnhe쎯	-10.7524
(mgbhu쎯	-10.7525
vmij0쎯ym0쎯	-10.7525
ibpp쎯ks0쎯.	-10.7525
쎃rmvs쎯	-10.7529
ngmwm쎯	-10.7529
eyiu0쎯girm쎯	-10.7531
opite쎯	-10.7531
jikp쎯hqphh쎯	-10.7533
mblmi0쎯oh쎯	-10.7533
yrf0쎯srln0쎯	-10.7534
afhhh쎯rhbr0쎯.	-10.7535
m쎯srtq0쎯	-10.7537
yri0쎯yj0쎯l0쎯	-10.7538
ouln0쎯yhgr0쎯nn0쎯	-10.7539
u쎯ylb쎯	-10.7539
veks쎯	-10.7542
mig0쎯oin쎯,	-10.7546
tnef쎯eomn0쎯	-10.7548
rks0쎯m쎯ol1쎯	-10.755
hbv0쎯tvmi2쎯	-10.7551
qni0쎯jmso쎯,	-10.7552
esim1쎯	-10.7554
big쎯	-10.7555
mmok쎯iodi쎯hqgdi쎯	-10.7555
ogd0쎯omr0쎯	-10.7555
nlykb1쎯adi쎯	-10.756
fbkf쎯fdyj쎯	-10.7561
쎁쎅jrhu쎯	-10.7564
kd0쎯ee0쎯	-10.7566
ynib쎯hnk0쎯	-10.7572
o쎯,l0쎯tc0쎯fbrhu쎯	-10.7573
dbu쎯ybhg0쎯	-10.7581
qamo쎯yrbr0쎯nn0쎯	-10.7584
(oinr쎯	-10.7585
쎃쎀jrhu쎯	-10.7586
stv쎯uu0쎯	-10.7592
hiyj쎯	-10.7599
hnlh0쎯m쎯yrnl0쎯	-10.76
gcwa0쎯ksr쎯nn0쎯	-10.76
쎀)	-10.7603
ta0쎯	-10.7604
kb0쎯vmij0쎯	-10.7604
niy쎯yck0쎯	-10.7606
onjv쎯mwice0쎯	-10.7607
jrmbo쎯jmyo쎯	-10.7607
hqgdi쎯yth쎯	-10.7607
ebon쎯vmomi쎯	-10.7608
qhdw쎯hdl0쎯	-10.7608
lwl0쎯qsle쎯	-10.7609
zxaw쎯	-10.761
dedi쎯d쎯	-10.7614
.yyk쎯wg0쎯	-10.7615
jr쎯oin쎯	-10.7615
ilo쎯	-10.7615
zd5	-10.7615
gtje쎯msks0쎯	-10.7618
ytd0쎯hbu0쎯	-10.7619
nc쎯f쎯	-10.7622
hdv쎯vmbm0쎯vmrc쎯	-10.7624
fbbhu쎯hoami쎯	-10.7626
nini0쎯nir쎯	-10.7631
okmr쎯	-10.7635
rsp0쎯	-10.7636
roks쎯	-10.7637
csh0쎯rsln1쎯iksi쎯	-10.7641
ivbgr쎯fdyj쎯	-10.7649
goru쎯yrf1쎯	-10.7653
nl0쎯ivke쎯	-10.7653
jkmvs쎯hqm쎯	-10.7654
hbv0쎯mks1쎯	-10.7657
hapi0쎯kd0쎯mcw쎯	-10.7659
oiva쎯klnd쎯	-10.7659
fqsu0쎯,	-10.7659
m쎯jmso쎯qni0쎯tc1쎯	-10.766
쎁쎀쎅	-10.766
ykmpm쎯	-10.7662
mlm쎯hdrhg쎯k	-10.7663
ob1쎯p쎯	-10.7663
(/	-10.7665
okr0쎯bmi쎯	-10.7667
anau0쎯tcb0쎯	-10.7667
okr0쎯nir쎯ite쎯	-10.7669
ovio쎯hfd0쎯	-10.7672
utmo쎯	-10.7675
nini0쎯yrnl0쎯	-10.7681
za3쎯)	-10.7681
tbln0쎯ytt0쎯	-10.7681
fbrhu쎯mmok쎯	-10.7682
vio0쎯hmr0쎯,	-10.7682
jomc쎯jher쎯	-10.7684
ke0쎯ivjbm쎯	-10.7685
lslmi쎯kd0쎯	-10.7686
rmav쎯rmjmf쎯	-10.7686
nini0쎯bdhhh0쎯	-10.7687
ivyvo쎯ci0쎯smr쎯	-10.7689
zd82쎯	-10.7689
ofbi쎯	-10.7691
hnlh0쎯j쎯	-10.7692
o쎯gpim쎯	-10.7694
쎀.쎇	-10.7695
okp0쎯	-10.7696
shoe0쎯	-10.7698
hhdi쎯qu0쎯	-10.7699
yomn0쎯	-10.77
eyiu0쎯llnsh쎯	-10.7701
.쎂쎀쎀쎇oq0쎯	-10.7704
ytt0쎯stv쎯	-10.7706
,edi0쎯md쎯	-10.7709
shi0쎯	-10.7712
zbc1쎯	-10.7713
bkq쎯sok0쎯	-10.7714
ci0쎯wg0쎯heo쎯	-10.7715
hqm쎯a0쎯	-10.7715
l0쎯qmwyi0쎯	-10.7717
qlmy쎯nir쎯	-10.7718
ivyvo쎯ids쎯	-10.7723
hhsb쎯nc쎯ivcru쎯	-10.7726
fbrlb쎯bq쎯hapi0쎯	-10.7727
mku쎯ivop0쎯	-10.7727
hvif쎯vmyiu쎯,	-10.773
m쎯l0쎯	-10.7731
qykl0쎯	-10.7737
.ynib쎯ydi0쎯	-10.7738
iksi쎯oj0쎯hi0쎯	-10.7741
yhs쎯ipm0쎯,	-10.7741
mnr쎯vio0쎯klg0쎯	-10.7742
tbln0쎯hxh쎯	-10.7742
lwu0쎯dcnh쎯	-10.7742
ddi쎯.	-10.7743
yrbu0쎯	-10.7744
jbmm0쎯eyiu0쎯	-10.7749
.쎂쎀쎀쎈oq0쎯	-10.7749
ehjr쎯eive쎯	-10.775
쎁쎉쎃쎂oq0쎯	-10.7751
쎃mwg0쎯fd0쎯	-10.7752
nhd쎯hqu0쎯	-10.7754
yrnl0쎯yg0쎯ohg쎯	-10.7754
mwsl쎯hdrc쎯쎁쎀	-10.7756
qnsh쎯gah쎯rrikr쎯	-10.776
hbu0쎯ihs0쎯yt0쎯	-10.7761
hapi0쎯jmmf0쎯pa1쎯	-10.7764
hpsl0쎯napo쎯	-10.7764
bhpi쎯	-10.7768
k0쎯stv쎯	-10.7768
ebhn쎯hdrc쎯	-10.7768
tsl쎯vmpi쎯	-10.777
hgdi쎯nini0쎯ol1쎯	-10.7774
쎆쎀쎀쎀	-10.7776
pqmb쎯vmjka쎯	-10.7778
mwsu쎯ytk쎯	-10.7779
쎂쎀omd0쎯	-10.778
wvif쎯ivj쎯	-10.7781
hmy0쎯	-10.7783
.bmr0쎯oq0쎯	-10.7783
hn0쎯oq0쎯	-10.7787
hdrc쎯wvif쎯nn0쎯	-10.7787
hapi0쎯wp쎯dup쎯	-10.7787
)hgdi쎯	-10.7787
mbowy쎯	-10.7791
hoav0쎯nrli쎯	-10.7792
hogdi쎯dhn0쎯	-10.7796
u쎯ddi쎯	-10.7796
,amyo쎯lw쎯	-10.7798
niy쎯hhbo0쎯	-10.7801
qoa쎯oip0쎯	-10.7801
kohh쎯	-10.7802
dnhe쎯bmmc쎯	-10.7805
-쎂쎀	-10.7808
hgdi쎯qni0쎯tc1쎯	-10.7808
vmm0쎯ysotc쎯	-10.781
i1쎯npo쎯	-10.7811
fmu쎯vmjka쎯	-10.7813
qsjr쎯ivcru쎯	-10.7813
ykok0쎯wd0쎯.	-10.7816
mf0쎯yce0쎯	-10.7818
qogs0쎯tjblb0쎯	-10.7818
hapi0쎯vnd쎯	-10.7821
hn0쎯omnr쎯	-10.7821
emms0쎯e쎯	-10.7821
.yyk쎯ol1쎯	-10.7825
hnk0쎯eatc쎯	-10.7828
hynkg0쎯	-10.7831
nklq쎯ivhne쎯i1쎯	-10.7833
gpd쎯smmi0쎯	-10.7839
joc쎯	-10.7842
ivhne쎯hew쎯hdr0쎯	-10.7846
ly쎯ofbi쎯	-10.7847
yfiku0쎯klg0쎯	-10.7848
ebvk쎯bmi쎯	-10.7852
k0쎯qni0쎯yk0쎯op0쎯	-10.7853
ma0쎯ite쎯	-10.7853
uice쎯	-10.7855
omnn0쎯vr쎯	-10.7856
wmgi쎯jmso쎯hdr0쎯	-10.7861
jjb0쎯nkhg쎯	-10.7861
tsl쎯qkhk쎯	-10.7863
mcw쎯ejrb쎯	-10.7863
nd0쎯.	-10.7865
elsw쎯	-10.7867
ivmfj쎯iksi쎯za2쎯	-10.7868
jyk쎯bq쎯phqm쎯	-10.7869
ukmr0쎯	-10.787
,tkhk0쎯hoami쎯	-10.7871
dav쎯qsjr쎯za8쎯	-10.7872
ir0쎯lmp0쎯	-10.7873
fmu쎯ab0쎯	-10.7873
dj쎯,	-10.7874
otc쎯e쎯	-10.7875
rsp0쎯?	-10.7876
qam쎯ord0쎯	-10.7876
vmnom쎯hhbo0쎯	-10.7876
wr쎯vlok쎯	-10.7876
dyck0쎯omjr쎯	-10.7877
k0쎯f쎯	-10.7878
omr0쎯oos쎯ifg쎯	-10.7879
hdv쎯jmam0쎯oqni쎯	-10.7879
nc쎯vbm쎯	-10.7879
qbnsd쎯lwu0쎯	-10.7879
gpd쎯sk0쎯.	-10.788
oyhv0쎯bkf0쎯	-10.7881
쎀쎀yw쎯	-10.7883
,yihu0쎯csh0쎯	-10.7884
ci0쎯wg0쎯.wmgi쎯g쎯	-10.7885
hwj쎯	-10.7886
mf0쎯gtj쎯	-10.7886
oin쎯a0쎯	-10.7888
qshr쎯ycbr0쎯	-10.789
hab쎯dmmf0쎯jtco0쎯	-10.7891
m쎯rmher쎯	-10.7893
ejbc쎯	-10.7893
ivipm쎯yrf1쎯	-10.7893
nlkt쎯	-10.7894
tsl쎯a0쎯	-10.7895
yhs쎯hbr0쎯iksi쎯	-10.7896
qha0쎯jnyk쎯	-10.7901
,asje쎯vmhey쎯	-10.7906
mbll쎯nk0쎯	-10.7906
nklq쎯ivhne쎯hdr0쎯	-10.7907
ym0쎯eysd0쎯	-10.7907
amyo쎯bq쎯	-10.7912
mt0쎯ggdi쎯	-10.7912
fdqmb쎯tgk쎯	-10.7914
khlmi쎯bmmc쎯	-10.7915
쎄쎅쎀	-10.7916
phh쎯	-10.7916
nvnhx쎯	-10.7917
mku쎯mbmbl0쎯	-10.7917
mwv쎯yrf1쎯	-10.7917
kmob쎯i1쎯	-10.792
.qpa0쎯	-10.7921
fbnd0쎯dyck0쎯,	-10.7921
cwj0쎯m쎯	-10.7923
jtco0쎯jlln쎯	-10.7925
omg0쎯hdrhg쎯	-10.7927
hvif쎯vmyiu쎯:	-10.793
mt0쎯mlm쎯	-10.793
mgilg쎯fbnd0쎯sim쎯	-10.7931
rmher쎯ysm쎯	-10.7931
hj0쎯ms0쎯	-10.7933
mrmt쎯jckn쎯rbo0쎯.	-10.7933
klg0쎯a0쎯dm0쎯	-10.7938
ejmc0쎯rbo0쎯,	-10.7938
k0쎯hrytj0쎯tbc0쎯	-10.7941
.쎂쎀쎀쎅oq0쎯	-10.7945
odm0쎯hvif쎯,	-10.7946
ydi0쎯hapi0쎯	-10.7946
yyyy	-10.7949
srln0쎯dm0쎯	-10.7951
tc0쎯fbrhu쎯rbo0쎯.	-10.7951
jikq쎯odm0쎯	-10.7952
vhkl쎯	-10.7952
tlbk0쎯dher쎯tmm0쎯	-10.7953
tk0쎯yrnl0쎯lis쎯	-10.7953
heyr0쎯	-10.7956
smg쎯	-10.7959
,wpp0쎯oinl0쎯	-10.796
.yyk쎯amyo쎯	-10.796
rrikr쎯ohq쎯	-10.796
onkq쎯omg0쎯	-10.7961
dytj1쎯	-10.7963
vmpi쎯쎂	-10.7964
oh쎯omdm0쎯	-10.7964
쎁쎈쎄	-10.7965
khlmi쎯yt0쎯hapi0쎯	-10.7968
hqm쎯yth쎯ksr쎯mlm쎯	-10.797
mk쎯omn1쎯	-10.7972
sm	-10.7973
ibpp쎯ks0쎯hapi0쎯	-10.7973
,tcg0쎯yrnl0쎯	-10.7977
nir쎯llmb쎯	-10.7978
hopsh쎯	-10.7979
yck0쎯woll0쎯heo쎯	-10.7981
soy쎯hjrr쎯	-10.7983
qfh쎯	-10.7984
yvo쎯	-10.7985
mbmbl0쎯ije0쎯,	-10.7986
fd0쎯.	-10.7986
amcw쎯	-10.7986
쎂쎁pt0쎯vmsu0쎯	-10.7988
pp0쎯jtco0쎯l0쎯	-10.7988
epou쎯	-10.7989
epym쎯fdqmb쎯	-10.7991
hapi0쎯yk0쎯op0쎯	-10.7992
enom쎯	-10.7993
x	-10.7994
yhjr쎯mwsu쎯rrikr쎯	-10.7995
k0쎯mrt0쎯	-10.7995
jjosm0쎯	-10.7995
ylb쎯gnsh쎯ym0쎯	-10.7995
dh	-10.7998
mboii0쎯ohq쎯	-10.7998
qi1쎯nklq쎯	-10.7999
ab0쎯mghjd쎯	-10.7999
hdi0쎯o쎯	-10.8
amyo쎯m쎯dm0쎯	-10.8001
oinr쎯ik1쎯	-10.8001
top0쎯inin0쎯	-10.8005
yrnf0쎯nvhg쎯	-10.8006
hnlh0쎯mdm쎯slw0쎯	-10.8007
heo쎯po0쎯	-10.8007
hnlh0쎯쎅	-10.8008
nomrt0쎯gnsh쎯	-10.8012
wgf0쎯ayta쎯	-10.8013
k0쎯mgwg쎯	-10.8019
ddixp0쎯	-10.8019
yk0쎯ids쎯	-10.8021
,rmss쎯bmi쎯gihs쎯	-10.8022
ivgdi쎯yk0쎯	-10.8026
mylm쎯mwsl쎯	-10.8028
vmbm0쎯ihs0쎯rbo0쎯	-10.8028
c쎯bkln0쎯	-10.8029
je0쎯eyiu0쎯	-10.803
qjv쎯icq0쎯	-10.8031
opj1쎯nof0쎯	-10.8031
tc1쎯ob1쎯	-10.8033
nnqo0쎯qytv0쎯	-10.8036
aimvu쎯kb0쎯	-10.8039
vmhsk0쎯	-10.8039
hapi0쎯mks0쎯ibpp쎯	-10.804
hapi0쎯ivhjr쎯	-10.8041
vvh쎯oyt쎯md쎯	-10.8043
쎃쎀oq0쎯	-10.8045
ode쎯	-10.8045
m쎯o쎯	-10.8046
mmm쎯nbg0쎯mthhh쎯	-10.8046
......	-10.8047
mdm쎯k0쎯	-10.8048
tcg0쎯yebu쎯jdok0쎯	-10.8049
o쎯hqphh쎯,	-10.8051
jwlb쎯	-10.8057
쎃쎀csh0쎯opl쎯	-10.8059
ojrk쎯egi쎯	-10.8061
qamo쎯uu0쎯hapi0쎯	-10.8061
qpyu쎯	-10.8062
f쎯htbn쎯	-10.8064
bmi쎯po0쎯	-10.8065
hapi0쎯bmr0쎯adi쎯	-10.8065
mku쎯o쎯	-10.807
ydi0쎯oyok0쎯	-10.8071
ddhni0쎯	-10.8073
i1쎯egi쎯qobhu쎯	-10.8073
tehw0쎯	-10.8077
imno0쎯oq0쎯	-10.8078
hdl0쎯hdl0쎯	-10.808
nmfdq쎯llml쎯	-10.808
o쎯hqphh쎯.	-10.808
hdw0쎯tksr쎯	-10.8081
jmso쎯o쎯	-10.8083
mrnbg쎯	-10.8084
osu쎯oiva쎯	-10.8085
mj쎯imnsd쎯	-10.8086
iln0쎯csh0쎯	-10.8091
kb0쎯hdln0쎯md쎯	-10.8091
.쎁쎉쎄쎉oq0쎯	-10.8093
yrbr0쎯sjrc0쎯	-10.8096
ejcr0쎯ylln0쎯	-10.8096
tcg0쎯gpd쎯,	-10.8096
lw쎯mhaf0쎯	-10.8098
efb0쎯qmwyi0쎯	-10.8098
eqmb0쎯ddnyo쎯	-10.8099
-쎁쎂	-10.8101
eyr쎯	-10.8102
hgdi쎯yth쎯rrr0쎯	-10.8106
pp0쎯vr쎯	-10.8109
lscwj쎯yid0쎯	-10.811
lwu0쎯mlm쎯	-10.8111
mlm쎯tc1쎯sk0쎯	-10.8112
qje쎯id1쎯k	-10.8112
tcb0쎯opbo0쎯	-10.8114
lmv쎯	-10.8116
dhjd쎯yrbr0쎯	-10.8116
b쎯쎁쎅a0쎯	-10.8117
qomr0쎯	-10.8118
,omg0쎯mwsl쎯	-10.8118
yk1쎯knib쎯	-10.8119
쎅.쎅	-10.8119
zbc2쎯	-10.812
tcuj쎯	-10.812
,pd0쎯kb0쎯	-10.8121
mrmlk쎯ite쎯	-10.8121
yrnl0쎯vmnhe쎯	-10.8123
,vir쎯nklq쎯md쎯	-10.8124
eir쎯jv0쎯	-10.8124
em0쎯ejrb쎯	-10.8125
m쎯kn0쎯kn0쎯	-10.8125
hrj쎯	-10.8127
쎀fd0쎯,oq0쎯mfj0쎯	-10.8127
ejmc0쎯vmeq쎯	-10.8128
vr쎯:	-10.813
,yyk쎯wg0쎯	-10.8131
csht0쎯gpd쎯	-10.8133
rbsmr쎯	-10.8134
qlmy쎯e쎯	-10.8136
nlodi쎯ksr쎯	-10.8137
ivohh쎯eir쎯	-10.8137
hbv0쎯rvp쎯vlok쎯	-10.8137
nlo쎯rbo0쎯	-10.8138
zd2	-10.8138
khhvo쎯	-10.8138
nmeq쎯	-10.8138
yk2쎯dmmf0쎯	-10.8139
omg0쎯wmgi쎯phqm쎯	-10.8139
hapi0쎯lloa쎯id0쎯	-10.814
emnr쎯wfq쎯	-10.8142
ym0쎯albk0쎯	-10.8145
mgilg쎯po0쎯	-10.8145
mku쎯nau0쎯	-10.8147
nk0쎯rvl쎯	-10.8147
hlsa쎯egr쎯	-10.8147
.쎄.	-10.815
ymmi쎯emnr쎯	-10.8151
ytap쎯wp쎯	-10.8152
쎂o쎯,	-10.8153
qiks쎯ks0쎯	-10.8156
mks0쎯ibpp쎯,	-10.8157
yfiku0쎯onao쎯	-10.8157
bt쎯	-10.8161
mnr쎯yhgu쎯	-10.8161
yhmbo0쎯yioj0쎯:	-10.8165
j쎯omd0쎯oq0쎯	-10.8165
edi0쎯pp0쎯	-10.8167
mhaf0쎯dm0쎯	-10.8168
wr쎯pn0쎯	-10.817
ifgi쎯	-10.8174
hapi0쎯nbg0쎯ite쎯	-10.8174
ids쎯ivsu쎯;	-10.8176
vir쎯md쎯	-10.8176
쎃o쎯	-10.8181
jlln쎯.	-10.8181
쎁moob쎯,	-10.8184
dkmr쎯	-10.8184
yw쎯;kb0쎯dd쎯gpd쎯	-10.8185
vlok쎯vmjoa쎯	-10.8185
b쎯쎂쎈a0쎯	-10.8186
mnr쎯r쎯	-10.8186
.edi0쎯	-10.8188
yg0쎯ksc쎯hapi0쎯	-10.8189
amyo쎯wk0쎯iksi쎯	-10.8189
yw쎯yth쎯	-10.8189
쎂mwg0쎯fd0쎯	-10.819
asje쎯yhml쎯	-10.8191
nc쎯md쎯	-10.8191
hlit쎯	-10.8193
bq쎯tvmi2쎯	-10.8193
yib쎯o쎯	-10.8194
phqm쎯kok쎯kmob쎯	-10.8195
쎅yrbu0쎯fd0쎯	-10.8195
ydhml0쎯m쎯oip0쎯	-10.82
jcpsh쎯	-10.82
dhui쎯	-10.8201
nini0쎯mmu0쎯	-10.8202
dedi쎯yt0쎯	-10.8202
.za1쎯za3쎯	-10.8204
goru쎯taj쎯	-10.8206
rnvm쎯?	-10.821
쎅yyyce쎯	-10.821
wk0쎯nd0쎯	-10.8212
hqgdi쎯kb0쎯hapi0쎯	-10.8213
mjln쎯hqphh쎯ym0쎯	-10.8214
gmam쎯	-10.8216
oos쎯ivsmr쎯	-10.8217
fmu쎯vmhj쎯	-10.8217
ry	-10.8221
hqphh쎯fdyj쎯	-10.8225
쎀mfj0쎯yhs쎯ci0쎯	-10.8225
lskr쎯	-10.8227
lllo쎯inin0쎯	-10.8231
eine쎯	-10.8235
sjtk쎯dup쎯	-10.8235
tmbw쎯	-10.8235
mbll쎯hoami쎯nir쎯.	-10.8237
tvip쎯tgtr쎯	-10.8237
amyo쎯wmgi쎯jmso쎯	-10.8238
:쎅	-10.8239
(vio0쎯my쎯hlsa쎯	-10.824
mgwg쎯dup쎯hapi0쎯	-10.824
gr0쎯iftq쎯	-10.8243
mk쎯fbrg쎯	-10.8244
i1쎯ycbr0쎯heks0쎯	-10.8245
,vio0쎯za2쎯	-10.8247
쎉%	-10.8249
hdhqo쎯inin0쎯	-10.825
odm0쎯mgbhu쎯nn0쎯	-10.8251
oos쎯uu0쎯nn0쎯	-10.8252
ewc0쎯	-10.8255
onjv쎯	-10.8256
za6쎯	-10.8256
ejoc쎯eowy쎯	-10.8257
fg0쎯	-10.8259
jytj쎯	-10.8259
tvmi2쎯bq쎯	-10.826
ma0쎯ms0쎯	-10.8261
mghjd쎯jmgi쎯	-10.8262
mk쎯bkf0쎯omn1쎯	-10.8263
e쎯lwu0쎯ytyr쎯	-10.8264
mig0쎯fh쎯	-10.8266
jyfe쎯	-10.8267
vio0쎯lmp0쎯	-10.8267
rrr0쎯llhwj쎯.	-10.8269
쎁쎉쎂쎆oq0쎯	-10.8271
o쎯klg0쎯	-10.8274
bjnu쎯	-10.8276
libt0쎯mgwg쎯	-10.8276
hapi0쎯m쎯thbu0쎯	-10.8278
hubo쎯fcymr쎯	-10.8278
mnln쎯kq0쎯	-10.8279
,nklq쎯hmhn0쎯	-10.828
eqmb0쎯zxaf쎯	-10.8282
yta0쎯rhbr0쎯	-10.8282
oe0쎯kb0쎯	-10.8284
jher쎯ioog0쎯	-10.8284
yub쎯	-10.8287
de0쎯ks0쎯	-10.8288
.쎂쎀쎀쎄oq0쎯	-10.8292
mlm쎯hdrhg쎯i1쎯	-10.8293
eff0쎯e쎯	-10.8293
lmp0쎯obon쎯	-10.8294
쎁쎉쎃쎁oq0쎯	-10.8296
rhwj쎯emcw0쎯	-10.8306
ord0쎯jv0쎯	-10.8307
ejmc0쎯tn0쎯	-10.8312
쎅o쎯	-10.8316
tknl1쎯ilil쎯ylb쎯	-10.8317
lmp0쎯mwsl쎯	-10.832
moob쎯hed0쎯	-10.832
rmhqo쎯	-10.832
crp0쎯yr0쎯gpd쎯	-10.8321
hj	-10.8324
ivke쎯qif0쎯	-10.8326
mnmbo쎯ytumb쎯	-10.8328
mtch쎯dher쎯hapi0쎯	-10.833
vf	-10.8335
;쎃i1쎯	-10.8336
csho쎯wd1쎯	-10.8336
bmln0쎯nlomd쎯	-10.8337
pthg쎯	-10.8342
yyk쎯imno0쎯	-10.8343
qis쎯cwj0쎯oyt쎯.	-10.8345
l0쎯asje쎯	-10.8348
qhk0쎯	-10.835
mumbo1쎯	-10.8353
jbmm0쎯vmij0쎯	-10.8354
klb쎯wljbm쎯	-10.8359
sqnl0쎯dtq쎯	-10.8361
ksc쎯jlln쎯	-10.8361
ids쎯za9쎯	-10.8361
yth쎯hqm쎯nn0쎯	-10.8362
.omnn0쎯vr쎯	-10.8363
ymuo쎯kqop쎯	-10.8366
b쎯쎂쎅a0쎯	-10.8366
bbke쎯hapi0쎯	-10.8366
yk1쎯,	-10.8368
fq0쎯rudi0쎯odm0쎯	-10.837
sje0쎯oip0쎯	-10.8374
m쎯adi쎯	-10.8376
top0쎯vmyk0쎯	-10.8379
vnd쎯ke0쎯	-10.8379
mku쎯vmij0쎯lwu0쎯	-10.838
ihpm쎯yrnl0쎯	-10.8381
tt1쎯oh쎯	-10.8382
mng0쎯rmvs쎯:	-10.8382
imp0쎯	-10.8383
edi0쎯tmmc0쎯	-10.8383
kqjqr쎯sk0쎯ob1쎯	-10.8383
hvd쎯wdh쎯	-10.8385
pqmb쎯imrhu쎯my쎯,	-10.8385
ci0쎯rvp쎯	-10.8387
mmf0쎯omnn0쎯	-10.8388
yhn쎯	-10.8389
hapi0쎯ibpp쎯ks0쎯	-10.839
km0쎯kr0쎯.	-10.839
i1쎯jdok0쎯fbnd0쎯	-10.839
hdl0쎯.	-10.8391
u쎯ym0쎯	-10.8392
mcw쎯ee0쎯	-10.8393
mmok쎯hdv쎯	-10.8394
nini0쎯smmi0쎯	-10.8395
vmhey쎯hxh쎯	-10.8397
d0쎯	-10.8397
쎄%	-10.8399
쎂×	-10.8399
.hqm쎯md쎯	-10.84
jmyo쎯sjr0쎯	-10.84
i1쎯bsle0쎯heks0쎯	-10.8401
mlm쎯tn0쎯rrr0쎯	-10.8402
qje쎯tn0쎯	-10.8402
o쎯dh쎯gytr쎯toll0쎯	-10.8404
쎂o쎯	-10.8407
,gpim쎯	-10.8408
gkf0쎯	-10.8408
ksr쎯mlm쎯i1쎯	-10.8409
쎅쎀쎀fd0쎯	-10.8411
ivhne쎯ivj쎯hdr0쎯	-10.8413
hajmu쎯	-10.8414
qpa0쎯oini0쎯	-10.8415
i1쎯opfb쎯ogr0쎯	-10.8417
vmnom쎯wmgi쎯jmso쎯	-10.842
toll1쎯	-10.8421
dlmo0쎯top0쎯	-10.8422
crp0쎯is0쎯fvok쎯	-10.8422
yks쎯woll0쎯	-10.8423
,pd0쎯mnr쎯vio0쎯	-10.8424
tt1쎯vmbm0쎯vmrc쎯	-10.8424
thbu0쎯yhgu쎯	-10.843
ino0쎯vvh쎯	-10.8431
쎉b쎯mig0쎯	-10.8433
ivke쎯kmob쎯	-10.8435
vmog쎯mmr0쎯nf0쎯	-10.8435
efh0쎯etak쎯	-10.8437
mhaf0쎯fdyj쎯:	-10.8439
hqgdi쎯yrf1쎯,	-10.8441
dhn0쎯odm0쎯	-10.8442
eowy쎯girm쎯	-10.8442
ids쎯bysm쎯	-10.8443
쎁ci0쎯wg0쎯	-10.8446
bpo0쎯	-10.8448
dt0쎯emhf0쎯:	-10.8449
cwa0쎯hghu쎯hmr0쎯	-10.8449
u쎯mnmbo쎯	-10.845
hqki쎯nklq쎯	-10.845
pysu쎯ym0쎯	-10.8451
nmkmr쎯jm0쎯	-10.8451
fbmmi쎯ivipm쎯	-10.8452
쎇mfj0쎯yhs쎯ci0쎯	-10.8452
dm0쎯hjbo쎯	-10.8452
fsm0쎯yhgu쎯	-10.8455
i1쎯mwln쎯	-10.8455
qmb쎯u쎯	-10.8457
nk0쎯amyo쎯	-10.8459
yc쎯ol1쎯	-10.8459
vmnme쎯nau0쎯,	-10.8459
elsa쎯	-10.846
csh0쎯eph쎯	-10.8462
mryiu0쎯mwice0쎯	-10.8463
yvhg쎯	-10.8464
ihq쎯	-10.8466
mrfdq쎯mwice0쎯	-10.8469
,kb0쎯adi쎯	-10.8473
lnk0쎯,	-10.8474
mdm쎯oip0쎯	-10.8475
mwln쎯ylb쎯po0쎯	-10.8476
daiu쎯	-10.8476
rvp쎯bq쎯	-10.8477
opd0쎯amyo쎯	-10.8478
vmnom쎯lnbo쎯	-10.8479
쎂.쎈	-10.8481
.qywm쎯po0쎯	-10.8484
mt0쎯ksc쎯	-10.8486
jrhu쎯qyt0쎯	-10.8487
ojrk쎯ihs0쎯	-10.8488
owy쎯	-10.8489
phqm쎯ibpp쎯:	-10.849
he0쎯albk0쎯nn0쎯	-10.8491
qytg쎯	-10.8493
yrbr0쎯csh0쎯nd0쎯	-10.8493
oimbo0쎯llw쎯	-10.8495
l0쎯p쎯.	-10.8495
suok0쎯nir쎯iksi쎯	-10.8495
i1쎯eomn0쎯kq0쎯	-10.8496
yk0쎯lk쎯	-10.8497
hsyhs0쎯mng0쎯	-10.8499
l0쎯tc0쎯l0쎯lbk0쎯	-10.85
bfqe쎯	-10.8505
ylmh0쎯nmseo쎯	-10.8506
shr쎯rnbk1쎯	-10.8508
qtt0쎯yta0쎯	-10.851
yyyxw쎯yyyy	-10.8512
i1쎯fbrhu쎯hdv쎯	-10.8513
m쎯am0쎯	-10.8515
domm0쎯jbvif0쎯	-10.8515
jlln쎯pqmb쎯	-10.8515
phqm쎯vnd쎯	-10.8516
-쎁쎆	-10.8516
vmij0쎯hed0쎯	-10.8518
tjfb쎯	-10.8522
elw쎯w쎯	-10.8523
qhye쎯	-10.8524
,m쎯jbmm0쎯	-10.8525
wmgi쎯heks0쎯	-10.8525
llmb쎯oo0쎯	-10.8529
oahe쎯fmc쎯	-10.8531
qtw0쎯vmomi쎯	-10.8533
gtmv쎯hdnf쎯	-10.8534
opj0쎯mbib쎯	-10.8534
oymr쎯ohvl쎯	-10.8535
ivcru쎯ab0쎯ids쎯	-10.8536
qke0쎯u쎯	-10.854
ep0쎯	-10.854
nog1쎯	-10.8542
oos쎯yk0쎯	-10.8543
쎁-쎂	-10.8543
c쎯llhwj쎯	-10.8544
bf쎯	-10.8545
yce0쎯mgi1쎯rrikr쎯	-10.8545
rjpa쎯	-10.8547
tmks0쎯kw쎯	-10.8547
hqgdi쎯po0쎯	-10.8548
djk0쎯	-10.8552
쎅ms0쎯	-10.8553
dhn0쎯rrikr쎯o쎯	-10.8553
oos쎯rrr0쎯kb0쎯	-10.8553
ycbr0쎯wfqu0쎯	-10.8553
,yyk쎯ol1쎯	-10.8554
o쎯hdnf쎯	-10.8558
oahe쎯hpsl0쎯	-10.856
her0쎯kb0쎯	-10.8562
mm0쎯j쎯oq0쎯	-10.8563
yrnl0쎯tehr0쎯	-10.8563
ab0쎯zxaf쎯	-10.8564
,hbr0쎯	-10.8564
cksl쎯	-10.8566
,mf0쎯ydi0쎯	-10.8567
th	-10.8568
hgrly쎯yhml쎯	-10.8572
ubb0쎯	-10.8572
yclmi0쎯	-10.8575
uje쎯	-10.858
knn0쎯	-10.858
hnk0쎯dher쎯hapi0쎯	-10.858
(쎂쎀쎀	-10.8582
e쎯lwu0쎯	-10.8582
mwsl쎯pru쎯	-10.8583
hghu쎯ophej쎯	-10.8583
wbp0쎯	-10.8583
쎂쎀쎀jrhu쎯	-10.8588
fh쎯lmnii쎯	-10.8591
(쎃	-10.8592
yk0쎯dm0쎯	-10.8593
ysm쎯tmmc0쎯	-10.8595
nlb0쎯nla쎯	-10.8597
:쎀쎀	-10.8597
zf24쎯	-10.8599
wd0쎯dedi쎯	-10.86
bayc쎯	-10.8601
쎀*	-10.8601
qhne0쎯yth쎯	-10.8603
hdl1쎯	-10.8606
qog0쎯hommn0쎯	-10.861
my쎯nn0쎯	-10.8614
lyyhv쎯	-10.8614
ehsk0쎯pqmb쎯	-10.8615
쎀ms0쎯mmu0쎯,	-10.8616
hpsl0쎯ivke쎯	-10.8617
lwnl쎯mwmmf0쎯	-10.8618
bbnq쎯	-10.8618
mnr쎯ivwb쎯	-10.8619
yfiku0쎯ivjnk쎯	-10.8628
f쎯byav쎯	-10.863
m쎯k0쎯	-10.863
-쎀	-10.8631
tyvw쎯	-10.8632
omg0쎯opjbc쎯	-10.8633
jbtj쎯obon쎯	-10.8634
m쎯vmbm0쎯	-10.8636
fb	-10.8637
ytwi0쎯	-10.8638
,janl쎯	-10.864
jnd0쎯wyi0쎯	-10.8642
hapi0쎯mt0쎯ivke쎯	-10.8643
yrbr0쎯nf0쎯qo0쎯	-10.8644
nlytr쎯	-10.8644
tlmy쎯holq쎯jomc쎯	-10.8649
ivmfj쎯jmyo쎯	-10.8649
qklu쎯	-10.8649
쎇%	-10.865
rmher쎯mwsl쎯	-10.865
r쎯bsle0쎯	-10.8651
ino0쎯niy쎯	-10.8651
쎁mmbo쎯	-10.8652
.za3쎯(쎂).	-10.8656
kmob쎯yce0쎯	-10.866
yk0쎯fbnd0쎯jmso쎯	-10.866
crp0쎯ommi0쎯	-10.8662
emwf0쎯yrbn0쎯	-10.8662
wmgi쎯jmso쎯nlo쎯	-10.8662
vhqm쎯nir쎯	-10.8662
fmob쎯	-10.8663
qobhu쎯iln0쎯i1쎯	-10.8664
,nlomd쎯	-10.8665
tq	-10.8667
mnr쎯bq쎯md쎯	-10.8668
ddi쎯ob1쎯	-10.8669
aj0쎯yeoiv0쎯	-10.8669
qpa0쎯uu0쎯	-10.8672
bkk쎯amyo쎯	-10.8674
,hdnf쎯iksi쎯	-10.8675
ksr쎯k0쎯	-10.8676
e1쎯	-10.8679
gg0쎯	-10.8681
ophje쎯fkvc쎯	-10.8683
dt0쎯lwu0쎯	-10.8683
,rc0쎯kb0쎯	-10.8683
m쎯thbu0쎯	-10.8684
omlk쎯amyo쎯	-10.8689
쎅yyycg쎯	-10.869
fqhe쎯	-10.8691
rrr0쎯oyt쎯	-10.8693
쎁쎀쎂쎄	-10.8696
hbln0쎯hew쎯	-10.8699
jclb쎯	-10.8699
ora0쎯ks0쎯	-10.87
ewb쎯	-10.8701
dytj0쎯	-10.8703
쎂쎀쎀fd0쎯	-10.8703
niy쎯,ymf0쎯	-10.8707
opj0쎯l0쎯	-10.8708
mbw쎯yk2쎯	-10.8708
쎁쎉쎉쎅	-10.8709
hbln0쎯oos쎯hapi0쎯	-10.8709
llmb쎯.	-10.8709
za8쎯za9쎯	-10.871
jbof쎯nljmu쎯	-10.8712
zd	-10.8713
ksc쎯egi쎯za9쎯	-10.8713
ha쎯nau0쎯,	-10.8714
b쎯쎁쎈a0쎯	-10.8715
쎂ms0쎯	-10.8716
tak쎯tchml쎯hdyj0쎯	-10.8717
rmkms쎯goiv쎯	-10.8719
,lmp0쎯ysm쎯	-10.872
sip1쎯	-10.8721
hap0쎯	-10.8722
tksc쎯ilil쎯ylb쎯	-10.8723
fjpu쎯qif0쎯	-10.8724
imoii쎯e쎯	-10.8724
mwsl쎯tbln0쎯	-10.8724
hoemn쎯	-10.8727
ismh쎯	-10.873
vmpi쎯iksi쎯	-10.873
adi쎯jcm쎯	-10.8731
tlwc쎯u쎯	-10.8731
oymr쎯ohg쎯	-10.8737
:쎁i1쎯	-10.8737
쎅jrhu쎯,	-10.874
쎅쎀fd0쎯	-10.8742
ilil쎯sk0쎯	-10.8743
ynib쎯ocor쎯	-10.8744
oqmo쎯	-10.8745
opfh쎯	-10.8745
llml쎯i1쎯	-10.8746
sehq0쎯	-10.8747
emcw0쎯rau0쎯	-10.8749
dt0쎯emhf0쎯md쎯	-10.875
qlymr쎯	-10.8751
yhs쎯mthhh쎯	-10.8752
hapi0쎯eysd0쎯ei1쎯	-10.8752
qogs0쎯q쎯	-10.8752
jyk쎯tc1쎯k	-10.8755
hyhne쎯hapi0쎯	-10.8757
pawe쎯pawe쎯	-10.8758
fjks쎯fwk쎯	-10.8758
쎂/	-10.8759
yc쎯j쎯	-10.8759
fbrlb쎯vmnme쎯	-10.8762
usu0쎯	-10.8762
tcg0쎯c쎯mmbo쎯bu0쎯	-10.8765
teii0쎯btak쎯	-10.8767
khllb쎯nd0쎯	-10.8769
ysm쎯ifg쎯ommi0쎯	-10.877
tc0쎯ivj쎯	-10.877
ids쎯,	-10.8771
hapi0쎯jyk쎯nlmmf쎯	-10.8771
.hshml쎯vio0쎯	-10.8772
hvif쎯vmyiu쎯l0쎯	-10.8772
hbu0쎯mfp0쎯	-10.8772
buav쎯hdyj0쎯	-10.8772
mt0쎯ynib쎯	-10.8772
ryck쎯	-10.8774
ivtt쎯qbbe0쎯	-10.8779
mnln쎯oh쎯	-10.878
vhqm쎯hvp0쎯	-10.8782
nloll쎯vmnhe쎯	-10.8785
dowy쎯top0쎯	-10.8787
ukt0쎯cor쎯	-10.8794
dmf쎯za3쎯	-10.8795
mmbo쎯bu0쎯.	-10.8797
sjtk쎯ivjbm쎯	-10.8799
hjwg쎯olhh0쎯	-10.88
o쎯p쎯	-10.8803
쎃/	-10.8807
iikp쎯	-10.8809
ysohv쎯jher쎯	-10.8809
oahe쎯knd0쎯hapi0쎯	-10.881
yw	-10.8811
b쎯쎂쎀a0쎯	-10.8812
ms0쎯nini0쎯	-10.8817
dher쎯ssr쎯	-10.8818
hs	-10.8818
mgbhu쎯tims쎯	-10.8818
po0쎯hapi0쎯	-10.8819
hmr0쎯klg0쎯	-10.8819
sjcrp쎯ab0쎯	-10.882
jyk쎯ivlll쎯	-10.8821
qpa0쎯rudi0쎯my쎯	-10.8822
ophds쎯	-10.8824
ommi0쎯ym0쎯	-10.8825
jrb쎯bmr0쎯	-10.8826
mnp0쎯hmr0쎯	-10.8828
o쎯ikhhh쎯	-10.8829
lb쎯	-10.8829
ysm쎯ivke쎯stv쎯	-10.8832
llw쎯	-10.8833
k0쎯lnk0쎯	-10.8836
hbut0쎯egi쎯	-10.8836
쎃ms0쎯	-10.8836
yhs쎯hdrhg쎯	-10.8837
hapi0쎯egi쎯holq쎯	-10.8838
avno0쎯	-10.8838
ino0쎯ythu쎯	-10.884
a0쎯qsle쎯za9쎯	-10.884
hdyj0쎯hdv쎯	-10.8843
ydhml0쎯o쎯	-10.8845
-쎁쎈	-10.8848
nem0쎯	-10.8849
ohpm쎯md쎯	-10.885
ytrhu쎯qje쎯	-10.8851
쎂.쎃	-10.8855
ab0쎯atc0쎯hapi0쎯	-10.8855
hgdi쎯hqgdi쎯yrf1쎯	-10.8858
ivbgr쎯ivipm쎯	-10.886
rmvs쎯mrnvm쎯	-10.8862
mmue쎯	-10.8863
fhbu0쎯ythu쎯	-10.8864
klg0쎯dyck0쎯	-10.8867
ehgu쎯yhv쎯	-10.8869
tjcr0쎯	-10.8869
taj쎯dm0쎯	-10.8871
ode쎯yid0쎯	-10.8872
tbln0쎯ayrf0쎯	-10.8872
wc0쎯yhs쎯	-10.8873
o쎯phqm쎯op0쎯	-10.8875
ombn쎯	-10.8875
je0쎯omn1쎯hjrr쎯	-10.8877
eyg0쎯bbm0쎯qmv쎯	-10.8881
mcw쎯mtc0쎯	-10.8881
za22쎯	-10.8882
dbu쎯pp0쎯	-10.8884
jmig쎯,	-10.8886
omlk쎯md쎯	-10.8886
hjd쎯	-10.8889
yjilj쎯yioj0쎯:	-10.8889
,qjv쎯	-10.889
jlln쎯jyk쎯	-10.889
rqyt쎯	-10.889
omr0쎯bau쎯ylb쎯	-10.8898
ysmbo쎯	-10.8898
dgr쎯	-10.89
olhh0쎯ivmn쎯	-10.8901
ligg쎯	-10.8904
쎉쎅%	-10.8906
muw쎯nljmu쎯	-10.8906
bbe쎯eno0쎯yhvl쎯	-10.8908
aj0쎯oq0쎯	-10.8908
(tmmc0쎯l0쎯	-10.891
(vmpi쎯	-10.8911
fh쎯lu0쎯	-10.8912
kd0쎯hnk0쎯	-10.8912
rc0쎯mbmbl0쎯	-10.8915
쎁쎅a0쎯	-10.8916
kqu0쎯	-10.8919
hapi0쎯m쎯ypmm쎯	-10.8919
zc4	-10.8921
janl쎯klg0쎯	-10.8921
yif0쎯vmkvc쎯	-10.8921
hbv0쎯dhn0쎯	-10.8921
wks0쎯ndyvo쎯	-10.8923
yri0쎯gnsh쎯	-10.8926
nwma쎯ynj0쎯	-10.8926
qrbo쎯jqjr쎯	-10.8927
ytapv쎯ivihs쎯	-10.8928
bcmj쎯bhu0쎯	-10.8929
(-	-10.8929
fvok쎯:	-10.8929
bbke쎯p쎯	-10.893
.(쎂)	-10.8931
qhjr쎯	-10.8935
omn1쎯qiks쎯	-10.8935
hapi0쎯hshml쎯kb0쎯	-10.8936
suok0쎯hdnf쎯	-10.8937
쎈쎀%	-10.894
opbk쎯dhe1쎯	-10.8943
,jbtj쎯ysm쎯	-10.8943
^	-10.8946
uu0쎯iobo쎯	-10.8946
yqhl쎯	-10.8949
m쎯yhs쎯	-10.895
ehgu쎯mj쎯imnsd쎯	-10.8952
쎅ci0쎯wg0쎯,	-10.8955
ylb쎯mmok쎯jksc쎯	-10.8956
hapi0쎯oyt쎯wljbm쎯	-10.8959
bhne쎯kd0쎯	-10.8959
l0쎯mcw쎯	-10.8961
쎂쎀쎀쎁	-10.8962
omg0쎯mwsl쎯hapi0쎯	-10.8962
osu쎯ikq쎯	-10.8964
vmjka쎯	-10.8966
.owyi0쎯	-10.8967
ota쎯lic0쎯	-10.8975
adi쎯lsa쎯ob1쎯	-10.8977
hapi0쎯asje쎯ogg0쎯	-10.8978
쎄.쎀	-10.8978
쎉rmvs쎯	-10.8979
ysm쎯tmmc0쎯opd0쎯	-10.8982
tvks0쎯qbcd쎯	-10.8984
쎅rmvs쎯	-10.8985
za9쎯)	-10.8988
nlkd쎯mnln쎯	-10.8988
mrno0쎯ivsmr쎯	-10.8988
po0쎯homym쎯	-10.8989
hgr0쎯ivhmy쎯	-10.899
nhd쎯kqno쎯	-10.8991
tjka0쎯hdnf쎯	-10.8991
ota쎯bmks0쎯	-10.8992
ejrb쎯eha쎯	-10.8992
vjr쎯viav쎯	-10.8992
yth쎯fbrhu쎯rbo0쎯	-10.8994
hapi0쎯oos쎯bq쎯.	-10.8997
jdok0쎯fbnd0쎯ysm쎯	-10.8999
mf0쎯bhu0쎯	-10.9002
jbmc0쎯twhd0쎯	-10.9003
llhe쎯)	-10.9003
v쎯yg0쎯nbg0쎯	-10.9004
dha쎯dd쎯	-10.9005
,iku0쎯	-10.9006
enl0쎯nc쎯mfj0쎯	-10.9006
.쎁쎉쎈쎂oq0쎯	-10.9007
mbll쎯hoami쎯nir쎯	-10.9008
vmcsh쎯	-10.9008
dyvo쎯hbut0쎯	-10.9008
.쎂쎀쎁쎃oq0쎯	-10.9009
.쎁쎉쎉쎈oq0쎯	-10.9009
vmw쎯po0쎯	-10.901
tbd0쎯kkb0쎯	-10.9013
mku쎯dhn0쎯	-10.9014
쎉쎀oq0쎯oip0쎯	-10.9016
mk쎯yk0쎯	-10.9017
ytwa쎯mgln0쎯	-10.9019
ytt0쎯op0쎯	-10.9019
yhgr0쎯vmhvp쎯	-10.902
zd7	-10.9022
oo0쎯nc쎯	-10.9022
e0쎯	-10.9022
쎁쎀ci0쎯wg0쎯	-10.9023
ob1쎯gpd쎯	-10.9026
gtmv쎯	-10.9026
owyi0쎯bsle0쎯	-10.9032
,le0쎯shlb0쎯	-10.9033
eog0쎯ite쎯	-10.9034
yyk쎯fdk0쎯	-10.9034
op1쎯	-10.9034
aj0쎯klg0쎯	-10.9035
olln쎯u쎯ylb쎯	-10.9035
zf2	-10.9037
쎂-쎃	-10.9038
edi0쎯mwsl쎯	-10.9038
twln1쎯y쎯	-10.9039
mmok쎯hdb0쎯hdr0쎯	-10.904
qsje0쎯onao쎯dhn0쎯	-10.904
mf0쎯bbe쎯	-10.9043
쎆ms0쎯	-10.9043
yth쎯rrr0쎯kb0쎯	-10.9047
ir0쎯,	-10.9047
:쎁쎀	-10.9052
opog쎯	-10.9053
m쎯ite쎯	-10.9054
za2	-10.9055
bmfm쎯	-10.9056
gpd쎯dhe1쎯	-10.9058
b쎯쎁쎀a0쎯	-10.9059
ksr쎯ilil쎯	-10.906
nn0쎯za8쎯	-10.9062
ggdi쎯nklq쎯	-10.9064
jtco0쎯hdnd0쎯	-10.9064
bbb0쎯hdyj0쎯	-10.9065
ivhmy쎯ivci쎯	-10.9066
ikhhh쎯ebhu0쎯	-10.9069
oinl0쎯yhml쎯	-10.907
ivop0쎯yid0쎯	-10.907
mt0쎯ouln0쎯	-10.907
쎆.쎅	-10.9071
hdi0쎯yt0쎯	-10.9072
쎄o쎯	-10.9072
tjrb0쎯ths쎯	-10.9074
dup쎯mwv쎯	-10.9078
rwk쎯ronk쎯	-10.9079
ommi0쎯hshml쎯	-10.9079
hapi0쎯ivohh쎯eir쎯	-10.9081
gpd쎯nir쎯	-10.9081
atc0쎯hoami쎯	-10.9083
hgdi쎯ob1쎯jcor쎯	-10.9086
amyo쎯qpa0쎯klg0쎯	-10.9087
tbln0쎯tcb0쎯	-10.909
csh0쎯fdk0쎯:	-10.9091
hapi0쎯mhaf0쎯wk0쎯	-10.9092
bsle0쎯bq쎯	-10.9092
dmj쎯twhd0쎯	-10.9094
.rks0쎯niy쎯,	-10.9096
.ivyvo쎯ddi쎯	-10.9097
gpd쎯bhhau쎯	-10.9098
iksi쎯쎁	-10.91
kt쎯	-10.9101
hshml쎯bq쎯	-10.9101
쎃.쎃	-10.9101
tims쎯ysook0쎯	-10.9102
b쎯쎃a0쎯	-10.9103
m쎯dtq쎯hapi0쎯	-10.9105
nyk쎯jnyk쎯	-10.9108
gyk0쎯	-10.9109
,leg0쎯qgdi쎯	-10.9111
,nlykb1쎯	-10.9113
qnhd쎯	-10.9113
mrmt쎯jckn쎯.	-10.9114
ysok쎯yit쎯	-10.9115
hqgdi쎯vmnhe쎯	-10.9116
owlb쎯onao쎯	-10.9118
,qllb0쎯bmks0쎯	-10.9118
hapi0쎯fbnd0쎯id1쎯	-10.9119
npo쎯qni0쎯kqrsj쎯	-10.9119
mbdi쎯icmr쎯	-10.9121
,mfj0쎯gpim쎯	-10.9121
ino0쎯l0쎯,	-10.9124
yrnl0쎯thbu0쎯:	-10.9125
ehsk0쎯qmvif쎯	-10.9126
za3쎯hdnf쎯rmvs쎯.	-10.9127
hbk1쎯ymmi쎯	-10.9128
쎃o쎯,	-10.9129
mks1쎯lk쎯hapi0쎯	-10.913
yck0쎯es쎯heo쎯	-10.9131
jbtj쎯mwsl쎯	-10.9132
mgwg쎯bodh쎯	-10.9134
,ojlk쎯hoami쎯	-10.9137
dnhb쎯	-10.9139
ybs쎯	-10.9139
쎇쎀oq0쎯oip0쎯	-10.9141
hbln0쎯ylln0쎯	-10.9142
mnr쎯bbke쎯	-10.9143
o쎯hqphh쎯ino0쎯m쎯.	-10.9144
ipm0쎯hapi0쎯	-10.9146
oymr쎯ivyhs쎯	-10.9149
tw	-10.9149
nbshq쎯imdk쎯nn0쎯	-10.915
nlyhs쎯ioib쎯	-10.9151
ysok쎯p쎯	-10.9152
(쎁쎉쎃	-10.9155
vmgr쎯dpi1쎯,	-10.9155
hoau쎯	-10.9157
oos쎯hnk0쎯	-10.9158
hlw쎯	-10.9159
,bq쎯md쎯	-10.916
hj0쎯wg0쎯	-10.9161
,vmgr쎯omr0쎯	-10.9161
tcb0쎯hogdi쎯	-10.9162
jyk쎯heks0쎯	-10.9166
hoav0쎯kb0쎯	-10.9167
qkns쎯	-10.9168
eqmb0쎯dj쎯	-10.9169
gsav쎯	-10.917
쎁/쎃	-10.9173
ehjr쎯miks0쎯l0쎯	-10.9177
bhqm쎯gpd쎯	-10.9178
mwf쎯	-10.9183
kmob쎯mgwg쎯	-10.9184
jphu0쎯ogd0쎯	-10.9188
vmyk0쎯nvolb쎯	-10.9188
쎇쎆쎈	-10.9188
hommn0쎯,	-10.9191
omg0쎯wmgi쎯her0쎯	-10.9192
▁	-10.9193
;klg0쎯	-10.9194
mt0쎯bd0쎯	-10.9197
wdh쎯bopi쎯	-10.9198
ym0쎯pt0쎯vmsu0쎯	-10.9198
hwhj쎯	-10.9199
jlwl0쎯dam0쎯	-10.9199
fvok쎯ojbm0쎯	-10.9205
ommi0쎯ommi0쎯po0쎯	-10.9207
k0쎯ykq0쎯ylb쎯	-10.9211
yyk쎯oyt쎯	-10.9213
taj쎯gpd쎯	-10.9214
nvjrr쎯i1쎯	-10.9217
쎄～	-10.9218
,qywm쎯po0쎯	-10.922
쎃.쎂	-10.9223
ksr쎯e쎯	-10.9224
m쎯lbmrw쎯	-10.9225
epym쎯obo쎯	-10.9227
ninn쎯vio0쎯	-10.9229
jmso쎯lwu0쎯	-10.923
tvmt쎯	-10.923
jmmu0쎯hew쎯	-10.923
i1쎯nlkd쎯	-10.9233
aisl쎯ihs0쎯.	-10.9233
iomvn쎯rrikr쎯	-10.9237
.rlmi쎯bkf0쎯	-10.9238
ab0쎯mk쎯	-10.9238
hoami쎯nir쎯	-10.9242
jcm쎯ha쎯	-10.9244
hodhe쎯ymp0쎯	-10.9245
mr0쎯yk1쎯	-10.9246
dnhe쎯yrbr0쎯	-10.9246
asje쎯kb0쎯	-10.9249
yooj쎯md쎯	-10.9252
쎂쎈a0쎯	-10.9252
i1쎯tgk쎯wmgi쎯	-10.9252
m쎯wjbo쎯	-10.9252
rmike쎯	-10.9253
l0쎯u쎯k0쎯fbnd0쎯	-10.9255
kcf쎯	-10.9255
mgwg쎯jlln쎯ommi0쎯	-10.9256
tksc쎯vmog쎯giok0쎯	-10.9256
mwln쎯hshml쎯po0쎯	-10.9258
dapp쎯	-10.9259
fbkf쎯omn1쎯	-10.9259
ifm쎯fsm0쎯	-10.926
irm쎯amyo쎯	-10.9262
mrmt쎯jckn쎯ysm쎯	-10.9262
d쎯hjbo쎯	-10.9268
mgtmc쎯	-10.9268
yhsb0쎯nhe쎯	-10.9269
fwk쎯taj쎯	-10.9275
i1쎯ym0쎯eowy쎯	-10.9278
tcg0쎯dm0쎯ikhhh쎯	-10.9279
ejds쎯eowy쎯	-10.9279
qgdi쎯kb0쎯	-10.9279
sk쎯	-10.9279
vjnu쎯	-10.9282
vhpa쎯ifu쎯	-10.9282
olln쎯u쎯	-10.9283
omc0쎯wdh쎯	-10.9284
oudk쎯nlnhx쎯	-10.9285
qbq쎯kb0쎯m쎯je0쎯	-10.9285
p쎯l0쎯	-10.9288
nmjpa쎯	-10.9288
rrikr쎯hapi0쎯	-10.9289
m쎯jmyo쎯mwv쎯	-10.929
hapi0쎯hbu0쎯bkf0쎯	-10.9294
ihmv쎯bksc쎯	-10.9294
okr0쎯nir쎯hapi0쎯	-10.9297
dkmym0쎯ykll쎯	-10.9298
qsmg0쎯	-10.9298
쎁쎉쎂	-10.9298
bommf쎯ifru쎯	-10.93
yaj쎯goiv쎯hapi0쎯	-10.9301
vmyck쎯	-10.9301
ysm쎯jyk쎯rmij쎯	-10.9303
ho0쎯nbg0쎯	-10.9305
nau0쎯qmvif쎯	-10.9311
jcjnk쎯	-10.9312
jbtj쎯ynib쎯	-10.9313
oos쎯rrr0쎯.	-10.9315
qamo쎯otc쎯asje쎯	-10.9319
wmgi쎯ivmmr쎯	-10.932
hg0쎯	-10.932
jdok0쎯yib쎯i1쎯	-10.9322
mbll쎯ymmr0쎯	-10.9322
mrno0쎯otniq쎯	-10.9322
ehsk0쎯ivke쎯	-10.9324
쎄ci0쎯wg0쎯	-10.9325
lwnl쎯lwu0쎯	-10.9327
ma0쎯omr0쎯	-10.9327
ivop0쎯za9쎯	-10.9327
jd1쎯zxaf쎯	-10.9327
ytwg쎯ivhjr쎯	-10.9332
bgth쎯bpo0쎯	-10.9335
jlln쎯tc1쎯hapi0쎯	-10.9335
qqo쎯csho쎯	-10.9336
쎀omd0쎯hhsb쎯	-10.9336
vio0쎯ym0쎯,	-10.9336
쎂쎀jrhu쎯	-10.9336
edi0쎯ivhjr쎯	-10.9338
mmu0쎯oip0쎯	-10.9338
ldhe쎯qijb쎯	-10.9338
mri0쎯id0쎯	-10.934
,suok0쎯	-10.934
qtor쎯nklq쎯	-10.9341
tkld쎯	-10.9342
mk쎯jcm쎯	-10.9342
lmp0쎯eowy쎯	-10.9342
ksc쎯yg0쎯ohg쎯	-10.9343
iksi쎯yg0쎯aombo쎯	-10.9344
yrnl0쎯lis쎯hapi0쎯	-10.9344
gr0쎯opd0쎯	-10.9344
odm0쎯mng0쎯	-10.9345
vmm0쎯dfdv쎯ddni쎯	-10.9345
,jp쎯olis쎯	-10.9346
쎆rmvs쎯	-10.9348
ykok0쎯ks0쎯	-10.9349
rvp쎯ooo0쎯	-10.9355
,ysok쎯	-10.9356
egi쎯llmb쎯	-10.9357
ddi쎯opjbc쎯	-10.9359
mrno0쎯srln0쎯	-10.9361
iml쎯jcik쎯	-10.9361
hjwg쎯vmbm0쎯	-10.9367
hbln0쎯hapi0쎯	-10.9367
yihu0쎯ryo0쎯	-10.9368
mtc0쎯hdl0쎯	-10.9369
nlmmu쎯	-10.9369
쎁쎉쎉쎂	-10.937
jrok쎯vvh쎯	-10.937
bgr0쎯oq0쎯	-10.937
uyrb0쎯	-10.937
,yyk쎯dtq쎯	-10.9377
ol1쎯wmgi쎯jmso쎯	-10.9378
p쎯pqmb쎯	-10.938
u쎯my쎯	-10.9384
mghjd쎯em0쎯	-10.9384
twdi0쎯hjwg쎯	-10.9384
opbk쎯hjrr쎯	-10.9385
쎁:	-10.9385
.쎁쎉쎉쎂oq0쎯	-10.9386
쎁쎁쎂	-10.9387
mnr쎯ifbhu쎯	-10.9387
klg0쎯tmmc0쎯	-10.9387
za26쎯	-10.9391
ik	-10.9392
ifg쎯sk0쎯oyt쎯md쎯	-10.9393
hogdi쎯bq쎯	-10.9393
uu0쎯hqm쎯klg0쎯	-10.9394
mnmbo쎯yrnl0쎯	-10.9396
oprr쎯omr0쎯c쎯	-10.9396
ino0쎯hdnf쎯	-10.9397
ym0쎯ylb쎯adi쎯lsa쎯	-10.9397
,mwv쎯	-10.9397
mwsl쎯wdh쎯	-10.9397
,rhg0쎯	-10.9398
hqi0쎯ylb쎯	-10.9398
mm0쎯tcb0쎯	-10.9399
bmr0쎯ytap쎯	-10.94
amyo쎯dav쎯qsjr쎯	-10.9401
hqm쎯op0쎯	-10.9403
nlykb1쎯hmr0쎯	-10.9404
ysotc쎯my쎯hapi0쎯	-10.9404
fsm0쎯llsm쎯	-10.9404
쎀.쎉	-10.9405
mmm쎯ukt0쎯	-10.9406
wpp0쎯	-10.9407
mghjd쎯eowy쎯	-10.9407
qamo쎯nir쎯	-10.9408
f쎯kq0쎯	-10.9409
rmher쎯ym0쎯	-10.9409
oimbo0쎯rudi0쎯o쎯	-10.9409
i1쎯vmnom쎯eykl0쎯	-10.9413
bu0쎯hapi0쎯amyo쎯	-10.9414
bcmj쎯	-10.9414
ydhml0쎯wc0쎯bkq쎯	-10.9415
nmtq쎯ab0쎯	-10.9423
fdk0쎯mng0쎯hapi0쎯	-10.9424
dt0쎯hapi0쎯	-10.9425
()hapi0쎯	-10.9426
,irm쎯jka쎯	-10.9426
mwiav쎯	-10.9428
mf0쎯jbm0쎯	-10.9436
,owyi0쎯oq0쎯	-10.9436
ilr0쎯jjb0쎯	-10.944
klg0쎯yyk쎯ol1쎯	-10.9441
qi1쎯npo쎯	-10.9441
mbo쎯	-10.9442
ytapv쎯	-10.9444
odm0쎯ommi0쎯	-10.9448
hqm쎯yooj쎯oq0쎯	-10.9452
kmob쎯yqhl쎯	-10.9453
hgdi쎯;	-10.9454
jrr쎯nkhg쎯	-10.9454
i1쎯omg0쎯wmgi쎯	-10.9454
ivke쎯mgbhu쎯nn0쎯	-10.9457
,ikhhh쎯ysm쎯	-10.9457
hnlh0쎯yc쎯slw0쎯	-10.9458
쎁쎁ol1쎯	-10.9458
ofqu쎯	-10.9458
edbu쎯emwj0쎯	-10.9458
m쎯fq0쎯	-10.9459
,omnn0쎯vr쎯	-10.946
,ivqmb쎯	-10.9463
b쎯쎄a0쎯	-10.9464
omr0쎯egi쎯	-10.9466
hqgdi쎯zxaf쎯	-10.9467
bq쎯yomd쎯:	-10.9469
nbo쎯tomr0쎯	-10.947
쎁mfj0쎯yhs쎯ci0쎯	-10.9471
jmso쎯i1쎯	-10.9472
ksmi쎯hsyhs0쎯	-10.9474
dm	-10.9476
ll쎯	-10.9476
jbtj쎯jmn쎯ylb쎯	-10.9478
hgdi쎯ivwd쎯hdrhg쎯	-10.9479
id1쎯ivop0쎯yk0쎯	-10.9479
.쎁.	-10.948
wrbo쎯mthhh쎯,	-10.9481
omn1쎯hjbo쎯	-10.9481
woll0쎯hapi0쎯	-10.9483
irp0쎯miks0쎯	-10.9483
hjrr쎯mgwg쎯fbnd0쎯	-10.9483
쎇쎅쎀	-10.9483
ivcru쎯ivhjr쎯	-10.9484
bh	-10.9489
kysy쎯	-10.949
hnk0쎯hssmm쎯	-10.9492
fqsh쎯	-10.9493
.쎂쎀쎀쎃oq0쎯	-10.9495
mnr쎯jcor쎯vmob0쎯	-10.9496
idd쎯mwyoj쎯	-10.9496
b쎯쎂a0쎯	-10.9499
pwjo쎯	-10.95
tlbk0쎯yk0쎯nir쎯	-10.95
fq0쎯oq0쎯	-10.9502
.쎁쎉쎈쎄oq0쎯	-10.9503
o쎯jmso쎯	-10.9503
fdyt쎯nd0쎯	-10.9504
ikp0쎯lis쎯	-10.9504
eowy쎯ukt0쎯	-10.9505
ymy0쎯qyt0쎯	-10.9506
쎁쎄쎀쎀	-10.9507
쎈쎀쎀쎀	-10.9507
lmp0쎯k0쎯	-10.9516
uu0쎯mgbhu쎯nn0쎯	-10.9518
pd0쎯ibpp쎯	-10.9519
qis쎯cwj0쎯oyt쎯	-10.9519
i1쎯od쎯lsd쎯	-10.952
hnk0쎯mmi쎯	-10.9522
(쎆	-10.9522
dppa쎯	-10.9522
tgv쎯llml쎯	-10.9523
vr쎯my쎯	-10.9523
.쎂쎀쎀쎉oq0쎯	-10.9525
oq0쎯lsa쎯,	-10.9526
m쎯yks쎯	-10.9528
k0쎯bmr0쎯	-10.9528
쎂쎅jrhu쎯	-10.9529
tt1쎯lmsy쎯	-10.953
qeog쎯	-10.9531
mnr쎯ibpp쎯amyo쎯	-10.9532
hghu쎯hmr0쎯ohg쎯	-10.9533
mf0쎯qobhu쎯boln0쎯	-10.9534
etmb쎯ysook0쎯	-10.9535
.za1쎯	-10.9536
gytu0쎯woll0쎯	-10.9537
ym0쎯ylb쎯ci0쎯smr쎯	-10.9537
ogdi쎯iinl0쎯	-10.9538
ab0쎯yrbn0쎯	-10.9541
rmvs쎯)	-10.9543
.쎁쎉쎉쎃oq0쎯	-10.9544
yrbr0쎯uhej0쎯	-10.9544
yhs쎯mwsl쎯,	-10.9544
po0쎯쎁	-10.9545
tgk쎯id1쎯nvjrr쎯	-10.9552
ophjm쎯	-10.9552
za2쎯mdm쎯	-10.9555
hgdi쎯nini0쎯	-10.9556
fyaj쎯	-10.9556
.쎁쎉쎈쎈oq0쎯	-10.9557
yw쎯,tmmc0쎯l0쎯o쎯	-10.9559
ino0쎯ahqm0쎯	-10.9562
vmmwl쎯pw쎯	-10.9563
쎁.쎇	-10.9564
hapi0쎯yrbr0쎯ite쎯	-10.9565
bov쎯lu0쎯	-10.9567
klg0쎯m쎯ol1쎯	-10.9567
ehio쎯qpa0쎯	-10.9569
ggdi쎯lsdh쎯	-10.9571
niy쎯qmv쎯	-10.9572
fbrhu쎯hdr0쎯	-10.9573
nn0쎯ivoj쎯nini0쎯	-10.9574
쎆o쎯	-10.9576
jmmu0쎯tgk쎯hapi0쎯	-10.958
mfj0쎯adi쎯	-10.958
,tkr0쎯	-10.958
mf0쎯mbmbl0쎯mwv쎯	-10.958
hda쎯tbd0쎯	-10.9581
oq0쎯kqnom쎯o쎯	-10.9581
nbshq쎯ysok쎯hmr0쎯	-10.9584
쎁쎀jrhu쎯,	-10.9584
lgyhv쎯wl쎯	-10.9588
hnlh0쎯m쎯nir쎯	-10.9588
bkq쎯jrlr0쎯	-10.959
yrf1쎯.	-10.9593
쎅o쎯,	-10.9593
ddh쎯fdyj쎯hapi0쎯	-10.9595
on쎯	-10.9595
iksi쎯ymp0쎯	-10.9595
bgr0쎯mgln0쎯	-10.9596
ihpm쎯,	-10.9598
eyiu0쎯e쎯	-10.9599
jv0쎯wljbm쎯	-10.96
fbrlb쎯hdv쎯ommi0쎯	-10.96
jdok0쎯hdrhg쎯	-10.9602
mnln쎯iksi쎯	-10.9604
yhgr0쎯ivpa1쎯	-10.9604
oyhv0쎯dlnbo쎯	-10.9605
jbtj쎯mt0쎯	-10.9605
fvok쎯yth쎯rrr0쎯	-10.9607
lihqi쎯	-10.9607
rmui쎯	-10.9608
:l0쎯wmgi쎯	-10.9608
mwsl쎯hdrc쎯쎀.	-10.9608
nkhym쎯vmjnk쎯	-10.961
mwcsh쎯	-10.9611
dmcw0쎯hup0쎯	-10.9612
qje쎯id1쎯ks0쎯	-10.9613
mrttc쎯	-10.9613
ci0쎯wg0쎯,rmss쎯	-10.9616
yt0쎯egi쎯	-10.9617
wmmu0쎯tn0쎯	-10.9618
elmi쎯	-10.9618
jmso쎯ig0쎯	-10.9618
dhkl쎯opjbc쎯	-10.9621
hj0쎯omd0쎯	-10.9623
bhbv쎯	-10.9624
yth쎯ojbm0쎯	-10.9624
ino0쎯ym0쎯	-10.9634
jrok쎯jlln쎯.	-10.9634
,oin쎯	-10.9635
tbln0쎯dt0쎯	-10.9637
em0쎯ylb쎯	-10.9641
ivmfj쎯hdv쎯	-10.9642
ryvo쎯rdlo0쎯	-10.9642
za10쎯	-10.9645
kqyck쎯vnd쎯hapi0쎯	-10.9645
c쎯u쎯	-10.9646
etvi0쎯	-10.9647
inin0쎯mnln쎯	-10.9647
hmr0쎯jka쎯	-10.9648
nsd0쎯sje0쎯	-10.9649
qmv쎯mgbhu쎯iksi쎯	-10.965
fbnd0쎯fbrg쎯	-10.9651
mlwk쎯kb0쎯	-10.9654
쎅쎀%	-10.9655
,pd0쎯mnr쎯	-10.9656
ino0쎯hshml쎯	-10.9657
dhe1쎯i1쎯	-10.9657
odm0쎯hapi0쎯	-10.966
hnk0쎯e쎯	-10.966
hjbo쎯amwg쎯odm0쎯	-10.9661
i1쎯mg0쎯	-10.9662
rrrd0쎯yta0쎯	-10.9662
nmme0쎯hbln0쎯	-10.9665
e쎯ym0쎯	-10.9665
okmrt쎯tcb0쎯	-10.9668
lijrb쎯liptd쎯	-10.967
ddf0쎯	-10.9674
mwsl쎯hdrc쎯:	-10.9674
e쎯hjbo쎯	-10.9674
nblmi쎯qtak0쎯	-10.9675
qbkq쎯	-10.9677
fdcsh쎯vvm0쎯	-10.9678
hh	-10.9678
쎁쎉쎂쎅oq0쎯	-10.9679
,kb0쎯hapi0쎯	-10.9681
lssj쎯nir쎯	-10.9681
b쎯쎈a0쎯	-10.9684
.쎁쎈	-10.9687
eqmb0쎯nlomd쎯	-10.9689
ee1쎯hjwg쎯	-10.969
emhf0쎯hbu0쎯	-10.9691
elw쎯,	-10.9692
oybs쎯	-10.9692
tsfi쎯	-10.9694
ylnc쎯kb0쎯	-10.9696
tlwc쎯nau0쎯,	-10.9696
imog쎯boln0쎯	-10.9697
hqi0쎯dyck0쎯	-10.9698
vjd0쎯vjd0쎯	-10.97
쎄oq0쎯)	-10.9701
ivsu쎯zxaf쎯	-10.9702
ojlk쎯tmmc0쎯	-10.9707
hqm쎯qlw쎯	-10.9707
nvpru쎯	-10.9707
∶	-10.9708
쎁쎀b쎯hqm쎯,	-10.9711
(쎄	-10.9712
crp0쎯jrmbo쎯	-10.9713
jusmm쎯	-10.9715
qkni0쎯tc1쎯	-10.9715
hbu0쎯eir쎯	-10.9716
ivhne쎯hew쎯.	-10.9716
쎀yrbu0쎯fd0쎯	-10.9718
쎁쎀쎀fd0쎯	-10.9718
za9쎯amyo쎯lw쎯	-10.972
qhvl쎯	-10.9721
mmti쎯hsyhs0쎯	-10.9724
slm쎯ecor쎯	-10.9725
hvif쎯vmyiu쎯gpd쎯	-10.9727
tbln0쎯ophej쎯	-10.9729
쎃.쎆	-10.9729
p1쎯	-10.9732
atc0쎯hounk쎯	-10.9733
mca0쎯ht0쎯	-10.9736
쎁쎉쎉쎃	-10.974
v쎯hqm쎯	-10.9741
,fsm0쎯adi쎯	-10.9742
mku쎯hshml쎯	-10.9742
wf	-10.9743
mm0쎯hgdi쎯lnk0쎯.	-10.9743
ymy0쎯llml쎯	-10.9745
ymf0쎯mwv쎯	-10.9746
nh	-10.9747
쎉쎀쎀쎁	-10.9749
ytap쎯wp쎯amyo쎯	-10.975
mf0쎯mjok0쎯	-10.975
.쎁쎉쎈쎅oq0쎯	-10.9751
hbr0쎯tbln0쎯	-10.9755
zf4	-10.9755
쎁쎀쎀nini0쎯	-10.9756
qosu쎯ieok0쎯	-10.9757
"i1쎯"	-10.9758
ifm쎯ks0쎯	-10.9761
fdk0쎯i1쎯	-10.9763
gmfm쎯	-10.9764
hqm쎯yth쎯mlm쎯tn0쎯	-10.9764
쎆ci0쎯wg0쎯	-10.9764
jlwl0쎯tgk쎯	-10.9764
buav쎯opytu쎯	-10.9765
쎁쎉쎉쎄	-10.9765
hnk0쎯dher쎯,	-10.9766
ivbgr쎯hbln0쎯	-10.9766
ora0쎯ibpp쎯op0쎯	-10.9767
쎃imno0쎯	-10.9767
ouln0쎯ydhml0쎯,	-10.9767
dnhe쎯nlav쎯	-10.9769
hapi0쎯nbg0쎯nau0쎯	-10.9769
iksi쎯yg0쎯odm0쎯	-10.977
zc3	-10.9772
qmv쎯mgbhu쎯uu0쎯	-10.9773
hgdi쎯nini0쎯mmbo쎯	-10.9774
vmij0쎯hdrhg쎯	-10.9775
oppim쎯	-10.9776
daiu쎯ivop0쎯	-10.9776
tc0쎯csh0쎯	-10.9777
bmr0쎯hommn0쎯tc1쎯	-10.9777
eylh0쎯niy쎯	-10.9777
wr쎯jmso쎯	-10.9778
mylm쎯ik1쎯	-10.9782
nmice쎯	-10.9783
gpd쎯mgwg쎯oyt쎯w	-10.9784
hapi0쎯bb0쎯ke0쎯	-10.9784
emn쎯	-10.9785
iiig0쎯	-10.9789
rmher쎯r쎯	-10.979
hbk1쎯gpd쎯hdln0쎯	-10.979
mfj0쎯ebbb0쎯	-10.979
yon쎯oin쎯	-10.9792
mwfd쎯	-10.9796
hdf0쎯hdnd0쎯	-10.9797
mrnr쎯mrnr쎯	-10.9798
.tjka0쎯kb0쎯za8쎯	-10.9798
onkq쎯bhwj쎯	-10.9799
nvno0쎯bq쎯	-10.9799
쎅mwg0쎯fd0쎯	-10.9801
fnbk1쎯	-10.9802
hapi0쎯ks0쎯amwg쎯	-10.9804
hgdi쎯hogdi쎯	-10.9809
msu쎯	-10.981
hounk쎯fd0쎯	-10.981
qshr쎯vlok쎯	-10.9811
mwsl쎯bhhau쎯	-10.9812
trok0쎯tc1쎯	-10.9812
omg0쎯vvh쎯	-10.9814
쎂쎀%	-10.9814
bubbq쎯lsa쎯	-10.9816
lis쎯,	-10.9817
쎈쎀쎂.쎃	-10.9818
klb쎯qyt0쎯	-10.9818
mku쎯ivop0쎯amyo쎯	-10.9819
yyk쎯ioog0쎯	-10.9821
mwg0쎯fd0쎯,jtbu1쎯	-10.9822
hapi0쎯ykok0쎯wd0쎯	-10.9828
hdmj0쎯	-10.983
pn0쎯	-10.983
oyhs0쎯jbmc0쎯	-10.983
hoav0쎯vnd쎯	-10.9831
rrr0쎯.	-10.9831
thbu0쎯ouln0쎯	-10.9834
dhn0쎯vmbm0쎯	-10.9835
kb0쎯ivoj쎯nini0쎯	-10.9838
쎁moob쎯	-10.984
쎁쎉쎉쎀	-10.9841
ihs0쎯ksmi쎯	-10.9842
pp0쎯hdln0쎯adi쎯	-10.9844
yt0쎯odm0쎯gah쎯	-10.9845
ci0쎯ipm0쎯	-10.9845
emks0쎯	-10.9846
ylnc쎯oos쎯za2쎯	-10.9846
oiku쎯hdnhs0쎯tc0쎯	-10.9846
oiav0쎯ivtca쎯	-10.9847
mk쎯yg0쎯jdok0쎯	-10.9847
ojrk쎯hapi0쎯	-10.9848
쎁oq0쎯)	-10.9849
okp0쎯no1쎯hapi0쎯	-10.985
쎁쎀쎂	-10.9851
쎈ci0쎯wg0쎯	-10.9851
,ob1쎯jcor쎯	-10.9854
e쎯mfj0쎯.	-10.9855
homym쎯vlok쎯	-10.9856
쎁쎆쎈	-10.9857
쎆o쎯,	-10.9858
쎀쎀ms0쎯mmu0쎯	-10.986
w쎯honom쎯	-10.986
ylb쎯ci0쎯jv0쎯ssr쎯	-10.9862
쎁쎃쎅	-10.9863
hapi0쎯jlln쎯pqmb쎯	-10.9867
okr0쎯ivrc쎯hdr0쎯	-10.9867
yvv0쎯	-10.9867
-쎁쎁	-10.9867
i1쎯mr0쎯	-10.9871
ino0쎯my쎯	-10.9872
mku쎯jcks쎯	-10.9874
hag쎯	-10.9874
cwj0쎯vmpu쎯	-10.9882
kdln0쎯	-10.9885
fhbu0쎯ob1쎯	-10.9887
gah쎯hvd쎯	-10.9889
wr쎯wmgi쎯	-10.989
.쎂쎀쎀쎂oq0쎯	-10.9891
ihs0쎯rbo0쎯,	-10.9891
.쎁쎉쎉쎇oq0쎯	-10.9891
opbk쎯hbks0쎯	-10.9892
hjbo쎯gpd쎯	-10.9893
jrhu쎯zxaf쎯	-10.9894
qni0쎯jmso쎯.	-10.9894
kqqni쎯hbr0쎯	-10.9899
mf	-10.9901
hjrr쎯hdv쎯ommi0쎯	-10.9903
her쎯	-10.9911
b쎯쎁쎂a0쎯	-10.9912
,rlmi쎯bkf0쎯	-10.9912
ybou1쎯qjcm쎯	-10.9912
ci0쎯wg0쎯heo쎯,	-10.9913
qni0쎯ohg쎯	-10.9913
yk0쎯ogd0쎯	-10.9914
rvno0쎯	-10.9914
sjmgi쎯	-10.9915
쎁fd0쎯	-10.9916
qbou1쎯eycv1쎯	-10.9916
lmo0쎯	-10.9918
ehsk0쎯msks0쎯	-10.9918
hapi0쎯bbke쎯pqmb쎯	-10.9921
ynib쎯ydi0쎯edi0쎯	-10.9921
ohg쎯heks0쎯.	-10.9921
fdqmb쎯iav0쎯	-10.9921
za3쎯jnd0쎯	-10.9921
ff	-10.9924
mlm쎯hdrhg쎯llmb쎯,	-10.9925
uu0쎯ythu쎯	-10.9926
mwln쎯heo쎯po0쎯	-10.9928
쎂.쎆	-10.9928
omg쎯	-10.9929
k0쎯bam쎯	-10.9929
dbu쎯qytv0쎯	-10.9929
yk0쎯op0쎯yrnl0쎯	-10.9929
qobhu쎯jmyo쎯,	-10.993
tbks0쎯heks0쎯	-10.993
,mcw쎯ysm쎯	-10.9931
srln0쎯bu0쎯	-10.9931
k0쎯yhs쎯	-10.9932
wljbm쎯md쎯	-10.9933
tlwc쎯lapv쎯nau0쎯	-10.9939
hnk0쎯dhn0쎯	-10.994
phqm쎯nrli쎯	-10.9942
jbtj쎯u쎯	-10.9945
omsl쎯	-10.9946
likq쎯	-10.9947
쎄mwg0쎯fd0쎯	-10.9947
hqm쎯yth쎯i1쎯	-10.9949
dtlc쎯hbr0쎯	-10.995
fbnd0쎯mks1쎯.	-10.9951
쎇oq0쎯)	-10.9951
쎁쎅쎀jrhu쎯	-10.9952
ysono0쎯holq쎯	-10.9953
bysm쎯jnd0쎯dfdv쎯	-10.9955
dm0쎯tqbu쎯za2쎯	-10.9955
dd쎯gpd쎯	-10.9956
e쎯mfj0쎯hapi0쎯	-10.9956
mlm쎯hbv0쎯	-10.9956
omn1쎯oncsh쎯	-10.9956
tbln0쎯slm쎯	-10.9957
bo0쎯nf0쎯	-10.9958
b쎯쎁쎆a0쎯	-10.996
tg	-10.996
hbv0쎯hdyj0쎯	-10.996
kd1쎯jqjr쎯	-10.9962
bsle0쎯hohne0쎯	-10.9963
bmmc쎯kb0쎯m쎯jmyo쎯	-10.9963
yioj0쎯oimbo0쎯	-10.9967
jhgu쎯egi쎯	-10.9967
ljbm쎯oiku쎯goiv쎯	-10.9967
,a0쎯dm0쎯	-10.9967
qbcd쎯ebon쎯	-10.9969
eav0쎯tjr쎯	-10.9969
yck0쎯hoyg쎯	-10.9973
hbv0쎯w쎯	-10.9974
eomr0쎯ivff쎯	-10.9975
.edi0쎯md쎯	-10.9976
uu0쎯gnsh쎯	-10.9976
.쎂쎀쎁쎀oq0쎯	-10.9977
nlqu쎯vmjnk쎯	-10.9977
,crp0쎯mwsl쎯hdrc쎯	-10.9977
ycp0쎯bbke쎯	-10.9978
jbtj쎯jmn쎯	-10.9979
levif쎯oinl0쎯	-10.9982
fbnd0쎯jibi쎯jm0쎯,	-10.9983
ydhml0쎯mcw쎯tmm0쎯	-10.9984
nob쎯	-10.9984
yw쎯,tmmc0쎯l0쎯	-10.9986
edi0쎯arf0쎯	-10.9988
janl쎯mwv쎯	-10.9989
.쎂쎀쎀쎀oq0쎯	-10.9991
ivppa쎯	-10.9991
tydl0쎯	-10.9991
mf쎯	-10.9992
nir쎯fbnd0쎯hqm쎯	-10.9994
hapi0쎯ogr0쎯hmr0쎯	-10.9994
.opd0쎯hapi0쎯	-10.9994
mnr쎯dav쎯qsjr쎯	-10.9994
fhbu0쎯i1쎯ylb쎯	-10.9996
yoln0쎯nmme0쎯	-10.9997
nbshq쎯dhml0쎯	-10.9997
b쎯mjln쎯	-10.9997
tgk쎯hapi0쎯	-10.9999
m쎯ytyr쎯ipm0쎯	-10.9999
sjf쎯	-11
lsnvm쎯	-11
쎈mwg0쎯fd0쎯	-11
i1쎯nvsm쎯	-11.0004
qpa0쎯rudi0쎯rbo0쎯	-11.0005
vmnhe쎯vio0쎯ym0쎯	-11.0007
suok0쎯nklq쎯	-11.0008
ivo쎯okr0쎯	-11.001
e쎯imog쎯	-11.0012
klg0쎯hda쎯etcu0쎯	-11.0014
dmmf0쎯homm0쎯	-11.0014
,mcw쎯oinl0쎯	-11.0014
mt0쎯ivke쎯hdr0쎯	-11.0015
ivhne쎯ivj쎯nljmu쎯	-11.0016
mpylm쎯yblb쎯	-11.0016
,qamo쎯otc쎯	-11.0018
,ibpp쎯prnin쎯	-11.0019
byuk쎯hbt0쎯hjrr쎯	-11.002
yib쎯hdl0쎯	-11.002
k0쎯tmff0쎯	-11.0024
silq쎯	-11.0025
hdb0쎯iln0쎯i1쎯	-11.0028
ih0쎯	-11.003
bkk쎯eysd0쎯	-11.0031
hapi0쎯fbnd0쎯sim쎯	-11.0031
okss쎯	-11.0034
nrli쎯mnf0쎯hapi0쎯	-11.0034
,nlykb1쎯tqbu쎯	-11.0038
gp0쎯mfp0쎯jka쎯	-11.004
yhds쎯ydi0쎯	-11.004
levif쎯npo쎯	-11.0041
,mrnbg쎯ord0쎯	-11.0043
쎅fd0쎯,	-11.0044
avg쎯	-11.0045
─	-11.0048
mhaf0쎯ddh쎯fdyj쎯	-11.0051
oiva쎯hew쎯	-11.0051
rrr0쎯llhwj쎯,	-11.0051
ynib쎯ivnj쎯nmme0쎯	-11.0052
mpylm쎯aa0쎯	-11.0052
쎁쎈쎃	-11.0053
rpu0쎯,	-11.0055
ymje쎯	-11.0057
kb0쎯ykok0쎯gpd쎯	-11.0059
.쎂쎀쎀쎁oq0쎯	-11.0059
hapi0쎯m쎯jmso쎯	-11.0061
o쎯;	-11.0062
nir쎯sok0쎯	-11.0064
ejmc0쎯rbo0쎯.	-11.0065
opki쎯	-11.0067
jbtj쎯nla쎯	-11.0067
oq0쎯hqm쎯yth쎯	-11.0068
yr0쎯kb0쎯	-11.0068
vhqm쎯nir쎯:	-11.0068
top0쎯pysm쎯	-11.0068
쎂oq0쎯)	-11.0072
erob쎯	-11.0073
ime0쎯hdbu쎯	-11.0073
쎁zxay쎯	-11.0075
nsh쎯	-11.0075
vmvl쎯vmcsh쎯	-11.0076
mig0쎯oin쎯ohg쎯	-11.0078
dt0쎯,	-11.0083
ee0쎯oip0쎯	-11.0084
yk0쎯odm0쎯	-11.0086
i1쎯jv0쎯omg0쎯	-11.0089
gnsh쎯hshml쎯.	-11.009
yrnl0쎯csh0쎯.	-11.0091
ifg쎯ommi0쎯hapi0쎯	-11.0091
joma쎯omjr쎯	-11.0093
nklq쎯hbln0쎯	-11.0095
su1쎯ldhe쎯	-11.0095
flsp쎯	-11.0096
qobhu쎯iln0쎯hdr0쎯	-11.0096
,쎁쎉쎈쎄oq0쎯	-11.0096
-쎁쎅	-11.0097
,kqjqr쎯	-11.0099
crp0쎯mlm쎯ommi0쎯	-11.0099
kb0쎯tcbt쎯	-11.0104
;za8쎯	-11.0105
oksr쎯	-11.0106
ydi0쎯eite쎯	-11.0106
쎁쎀쎆	-11.0108
,oos쎯jka쎯	-11.0109
%%*/	-11.0111
pk	-11.0111
lwd0쎯	-11.0112
oh쎯lis쎯	-11.0114
amyo쎯m쎯ythu쎯tgk쎯	-11.0115
hnlh0쎯쎆	-11.0115
:whey0쎯ids쎯>	-11.0116
ebnd쎯brog0쎯	-11.0117
dbu쎯bmr0쎯hapi0쎯	-11.0119
ihpm쎯tvmt쎯	-11.012
i1쎯mgmf0쎯gytu0쎯	-11.0122
dtak쎯ipm0쎯:	-11.013
u쎯rmher쎯	-11.0132
ilil쎯dbln쎯lk쎯	-11.0132
jdok0쎯rbo0쎯	-11.0132
ifmrw쎯ilil쎯ylb쎯	-11.0133
쎁쎉쎈쎃	-11.0133
kqyck쎯ohpm쎯	-11.0135
b쎯쎂쎆a0쎯	-11.0135
ylmh0쎯omc0쎯	-11.0138
jmlc쎯	-11.0142
ddi쎯vmnom쎯eykl0쎯	-11.0143
,o쎯olis쎯	-11.0145
qpp0쎯imog쎯,	-11.0147
ior0쎯ivpa0쎯i1쎯	-11.0154
.....	-11.0154
od쎯hup0쎯	-11.0157
vmyk0쎯,	-11.0158
mbll쎯uu0쎯	-11.0158
b쎯쎅a0쎯	-11.0161
nklq쎯yt0쎯hapi0쎯	-11.0161
yr0쎯oimbo0쎯	-11.0162
,oe0쎯	-11.0163
uhnk쎯	-11.0163
,hdln0쎯bq쎯	-11.0163
qkni0쎯rudi0쎯	-11.0163
.쎅i1쎯	-11.0163
ifg쎯ommi0쎯fbnd0쎯	-11.0163
ivbgr쎯ohg쎯	-11.0168
knib쎯tjr쎯	-11.0171
lk쎯za9쎯	-11.0172
qje쎯llmb쎯	-11.0174
l0쎯mng0쎯	-11.0174
ksc쎯ci0쎯dfdv쎯	-11.0174
i1쎯vmm0쎯	-11.0175
gihs쎯jbtj쎯	-11.0175
mbmbl0쎯ije0쎯.	-11.0175
klg0쎯hqi0쎯wmgi쎯	-11.0177
elln쎯e쎯	-11.0177
쎃oq0쎯)	-11.0177
iksi쎯wmgi쎯jmso쎯	-11.0181
ine쎯no1쎯	-11.0181
ytyr쎯yrf1쎯	-11.0182
yomd쎯l0쎯	-11.0184
쎁쎀ms0쎯	-11.0184
ivtt쎯ioog0쎯	-11.0187
nomrt0쎯nlqu쎯	-11.019
vmoo쎯nlo쎯	-11.0191
elmo1쎯knsh쎯	-11.0191
mwsl쎯hdrc쎯쎉	-11.0192
u쎯ig0쎯	-11.0196
og	-11.0197
edi0쎯hdb0쎯	-11.0197
za8쎯tk0쎯md쎯	-11.0198
쎁쎉쎂쎇oq0쎯	-11.0199
uvii쎯mhog0쎯	-11.0201
tbln0쎯qamo쎯	-11.0204
libt0쎯khivk쎯	-11.0205
imihr0쎯kqnom쎯	-11.0206
hakj쎯	-11.0207
m쎯rmvs쎯	-11.0209
sok0쎯nljmu쎯i1쎯	-11.0209
mt0쎯vir쎯nn0쎯	-11.021
yck0쎯ksc쎯hapi0쎯	-11.021
hg	-11.0216
dice쎯	-11.0216
egi쎯tmm0쎯	-11.0217
qss쎯vmnau쎯	-11.022
l0쎯kd0쎯	-11.022
쎀쎀쎀	-11.0221
og쎯	-11.0223
ij0쎯	-11.0223
hyosu쎯	-11.0223
i1쎯yrbr0쎯ykok0쎯	-11.0224
jkp0쎯oq0쎯o쎯	-11.0226
,vmomr쎯	-11.0227
nir쎯gihs쎯	-11.0227
omr0쎯m쎯	-11.0227
pta쎯	-11.0229
omr0쎯mgwg쎯hapi0쎯	-11.0231
hapi0쎯gah쎯yta0쎯	-11.0233
쎉mfj0쎯yhs쎯ci0쎯	-11.0233
mt0쎯srytj0쎯	-11.0235
ytap쎯ik1쎯.	-11.0236
nvhn쎯	-11.0236
nlmnr쎯dav쎯nkhg쎯	-11.0237
쎅oq0쎯)	-11.0239
homm0쎯ivmn쎯	-11.0241
,sqnl0쎯hi0쎯	-11.0242
mk쎯khlmi쎯mand쎯	-11.0242
mmok쎯hdb0쎯,	-11.0242
twk0쎯jmyo쎯nn0쎯	-11.0243
hpm쎯	-11.0244
mmm쎯smmi0쎯	-11.0244
ioog0쎯tehr0쎯md쎯	-11.0244
.쎁쎉쎉쎅oq0쎯	-11.0245
jmyo쎯iksi쎯	-11.0245
tkhk0쎯hoami쎯jka쎯	-11.0246
hjrr쎯mgwg쎯k	-11.0248
ph쎯hew쎯	-11.0248
vio0쎯ym0쎯.	-11.0249
kd0쎯bmi쎯	-11.0249
krd0쎯dpi1쎯	-11.0249
tca0쎯ynib쎯yrbr0쎯	-11.025
mf0쎯bmr0쎯,	-11.0252
ph쎯mwv쎯	-11.0252
nsd0쎯adi쎯tcb0쎯	-11.0252
tjln0쎯ilil쎯	-11.0257
gytr쎯ivlll쎯i1쎯	-11.0258
crp0쎯nlo쎯	-11.0259
ivbgr쎯fdyj쎯:	-11.026
쎁쎇쎆	-11.0261
mgok0쎯jmrw쎯	-11.0262
ih	-11.0263
srln0쎯gnsh쎯	-11.0264
hhsli쎯mthhh쎯	-11.0266
tbln0쎯ytumb쎯	-11.0266
ldhe쎯wmgi쎯jmso쎯	-11.0267
sok0쎯knn0쎯hvif쎯	-11.0268
hapi0쎯fvok쎯qsjr쎯	-11.0268
qmb쎯top0쎯	-11.0269
bbe쎯mgln0쎯nn0쎯	-11.0269
lmbo0쎯nla쎯	-11.0269
()hdr0쎯	-11.0271
uhvi쎯	-11.0271
ifru쎯	-11.0272
asje쎯hghu쎯ytt0쎯	-11.0273
jdok0쎯ommi0쎯	-11.0273
hapi0쎯okr0쎯ivrc쎯	-11.0275
hapi0쎯g쎯gpd쎯tl	-11.0275
ydi0쎯hdrhg쎯.	-11.0277
opbk쎯vmgr쎯dpi1쎯	-11.0277
ms0쎯mks1쎯	-11.0279
jir쎯	-11.028
heo쎯yhs쎯	-11.028
쎁쎂쎃	-11.0285
qobhu쎯dher쎯:	-11.0289
vis쎯dup쎯	-11.0291
ei	-11.0291
ma0쎯jmso쎯	-11.0292
mlm쎯fbnd0쎯	-11.0292
yyk쎯gfno쎯	-11.0294
mmbo쎯bu0쎯oyt쎯md쎯	-11.0295
ogd0쎯opjbc쎯	-11.0296
o쎯dher쎯	-11.0296
,jbmm0쎯mgln0쎯	-11.0298
o쎯olis쎯hapi0쎯	-11.0298
mnr쎯hgrly쎯phqm쎯	-11.03
yksr쎯	-11.0301
iksi쎯rudi0쎯hbr0쎯	-11.0301
icq0쎯qjbf0쎯	-11.0302
mrmt쎯jckn쎯i1쎯	-11.0303
쎁쎁쎅	-11.0303
jbmm0쎯yk2쎯	-11.0305
mgbhu쎯c쎯	-11.0306
goru쎯dt0쎯,	-11.0308
taka쎯	-11.0308
flmi0쎯	-11.0309
ylmo1쎯yylc쎯	-11.0311
opyrv0쎯	-11.0312
yb	-11.0314
klg0쎯dyck0쎯hqm쎯	-11.0314
ikp0쎯u쎯	-11.0316
wc0쎯nbg0쎯	-11.0317
smr쎯oini0쎯	-11.0318
eowy쎯ejoc쎯	-11.0318
ym0쎯yhs쎯	-11.032
em	-11.032
fjpu쎯mt0쎯	-11.032
iksi쎯jmmf0쎯pa1쎯	-11.0321
ks0쎯ije0쎯	-11.0321
i1쎯c쎯	-11.0325
hxkc쎯	-11.0325
hapi0쎯gihs쎯ylb쎯	-11.0326
mnr쎯vio0쎯ivcru쎯	-11.0326
ivke쎯hqm쎯nn0쎯	-11.0328
쎂i1쎯	-11.033
kb0쎯hoav0쎯nini0쎯	-11.0332
hapi0쎯dbu쎯tk0쎯	-11.0336
kmnr0쎯hqgdi쎯	-11.0336
e쎯girm쎯	-11.0336
qogs0쎯	-11.0337
dbu쎯dhn0쎯	-11.0341
hhsk쎯	-11.0341
yhml쎯ma0쎯	-11.0341
,mylm쎯	-11.0342
fbg쎯	-11.0342
쎇rmvs쎯	-11.0343
m쎯bmr0쎯	-11.0344
adi쎯lsa쎯:쎂쎀쎀	-11.0344
fsm0쎯adi쎯hapi0쎯	-11.0347
afhhh쎯rhbr0쎯,	-11.0347
lk쎯fdyj쎯	-11.0349
tgce쎯	-11.035
jmgi쎯bo0쎯	-11.0351
nsd0쎯ivik쎯	-11.0352
b쎯쎂쎃a0쎯	-11.0353
tghu0쎯	-11.0353
i1쎯gybt쎯	-11.0353
ino0쎯jmso쎯	-11.0354
aisl쎯iksi쎯	-11.0354
yhv쎯bsle0쎯	-11.0355
dembo쎯kb0쎯	-11.0355
sjg쎯muw쎯	-11.0357
쎈o쎯,	-11.0358
ythu쎯,	-11.0359
mvdi쎯	-11.036
by0쎯qme쎯	-11.036
rvp쎯jlln쎯	-11.0361
,txc쎯	-11.0363
ivdk쎯	-11.0363
hnlh0쎯j쎯mm0쎯	-11.0364
ndok쎯	-11.0365
.쎁쎉쎈쎃oq0쎯	-11.0366
yukb0쎯od쎯	-11.0366
,tt1쎯md쎯	-11.0366
gb0쎯	-11.0367
omg0쎯ks0쎯	-11.0367
licwj쎯	-11.0368
amyo쎯qni0쎯tc1쎯	-11.0368
viks0쎯lmi쎯	-11.0368
yy쎯	-11.037
za3쎯,amyo쎯	-11.037
hsog쎯	-11.0371
mks0쎯ibpp쎯.	-11.0371
hapi0쎯eir쎯knn0쎯	-11.0374
hbln0쎯yhgr0쎯i1쎯	-11.0375
쎂쎈쎀	-11.0377
bojm쎯	-11.0377
ikhhh쎯fvok쎯:	-11.0377
bsle0쎯.	-11.0378
klb쎯nwma쎯	-11.0378
쎅쎀jrhu쎯,	-11.0379
mrmlk쎯hhqu쎯ids쎯	-11.0379
쎁쎂쎂	-11.0379
yrbr0쎯fbr0쎯	-11.038
ymp0쎯ids쎯	-11.038
(쎁쎉쎄	-11.0382
ahqm0쎯hvif쎯	-11.0382
qmmv쎯fmc쎯	-11.0384
ll	-11.0384
k0쎯fbnd0쎯sok0쎯	-11.0386
csh0쎯rsln1쎯amyo쎯	-11.039
po0쎯k0쎯	-11.039
ivke쎯fmu쎯	-11.0391
jdi0쎯qis쎯	-11.0392
쎅쎀-	-11.0393
ymf0쎯ibpp쎯	-11.0393
anau0쎯oq0쎯	-11.0394
ylm쎯knib쎯	-11.0395
kd0쎯mig0쎯	-11.0396
k0쎯fd0쎯	-11.0397
ivsmr쎯tbc0쎯	-11.0398
o쎯rvp쎯domm0쎯	-11.0399
nom쎯	-11.04
ki0쎯jcm쎯	-11.0401
hvd쎯gosje쎯	-11.0401
oyt쎯,	-11.0403
hapi0쎯jv0쎯omg0쎯	-11.0404
yhmbo1쎯nau0쎯:	-11.0405
hommn0쎯mmok쎯sk0쎯	-11.0406
쎁쎀.	-11.0408
.쎁쎉쎉쎆oq0쎯	-11.0409
hbu0쎯hxh쎯hapi0쎯	-11.0409
tc0쎯ouln0쎯	-11.0409
imoii쎯imkd쎯	-11.0409
adi쎯lgyhv쎯	-11.0413
ysm쎯ifm쎯bq쎯	-11.0413
쎁쎀b쎯uu0쎯hqm쎯,	-11.0413
cnh쎯	-11.0414
쎈oq0쎯)	-11.0416
mcp0쎯phqm쎯	-11.0417
yrnl0쎯wljka쎯	-11.0417
csh0쎯ihs0쎯	-11.0417
pd0쎯ivoj쎯	-11.0418
mf0쎯okr0쎯ythu쎯	-11.0419
lstuo쎯	-11.0422
hounk쎯kqno쎯	-11.0423
egi쎯fbnd0쎯nljmu쎯	-11.0423
m쎯hgdi쎯lnk0쎯.	-11.0424
ymf0쎯mnr쎯	-11.0425
.쎁쎉쎉쎉oq0쎯	-11.0426
kqjqr쎯쎁ol1쎯ddi쎯	-11.0429
yhs쎯hbr0쎯:	-11.0431
levif쎯imqkk쎯	-11.0432
nau0쎯,	-11.0433
vmyiu쎯hdnf쎯	-11.0435
fdqmb쎯ynib쎯	-11.0436
yioj0쎯iksi쎯	-11.0436
heii0쎯	-11.0437
)jnd0쎯	-11.0439
qnau0쎯	-11.044
suok0쎯iav0쎯	-11.0444
ivmmr쎯egi쎯	-11.0445
nmisb0쎯	-11.0445
mmn0쎯i1쎯	-11.0448
khnk쎯khmg쎯	-11.0448
qif0쎯amwg쎯	-11.0448
tkt0쎯	-11.045
fkt0쎯	-11.045
sjlws쎯ivqmb쎯	-11.0451
jr쎯jkp0쎯hapi0쎯	-11.0452
vio0쎯kd0쎯	-11.0452
tmd0쎯ol1쎯	-11.0453
bompm쎯za9쎯:za2쎯	-11.0454
쎉oq0쎯)	-11.0456
nvolb쎯)	-11.0458
yblb쎯mg0쎯	-11.046
eysd0쎯ei1쎯za8쎯	-11.046
iksi쎯ifg쎯ommi0쎯	-11.0462
mylm쎯qobhu쎯	-11.0462
uni0쎯b쎯	-11.0463
lhhh쎯	-11.0464
vlok쎯tkhk0쎯	-11.0465
tawe쎯	-11.0468
rs	-11.0469
hdnf쎯rmvs쎯,	-11.047
,gpd쎯mgwg쎯oyt쎯w	-11.0472
hapi0쎯lu0쎯nd0쎯	-11.0473
shlb0쎯hapi0쎯	-11.0474
lmp0쎯hvhui쎯	-11.0475
qmn0쎯hpsl0쎯dhn0쎯	-11.0476
bq쎯ids쎯	-11.0478
i1쎯oiav0쎯rrr0쎯	-11.0478
zc2	-11.048
do	-11.0483
fdv쎯	-11.0485
tbmo쎯jr쎯ysook0쎯	-11.0486
mfj0쎯dhe1쎯	-11.0487
cwj0쎯oyt쎯za3쎯	-11.0487
hbu0쎯hommn0쎯kq0쎯	-11.0488
k0쎯mmn0쎯	-11.0488
omc0쎯rrikr쎯	-11.0488
쎅.쎀	-11.0489
skmvn쎯	-11.0491
tk0쎯pmf쎯	-11.0492
sjrc0쎯heks0쎯.	-11.0492
ob1쎯csh0쎯eph쎯	-11.0493
e쎯hdbhx쎯i1쎯	-11.0494
쎂쎁쎀	-11.0495
lsnhx쎯	-11.0496
powy쎯	-11.0497
eytj0쎯	-11.0498
wc0쎯bje쎯	-11.05
rumb쎯	-11.0501
dywm쎯	-11.0502
ms0쎯wg0쎯	-11.0503
pqmb쎯imrhu쎯,	-11.0503
hdr0쎯hdyj0쎯mrmt쎯	-11.0503
bmi쎯(oin쎯	-11.0503
g쎯sj0쎯tmmc0쎯	-11.0504
jbtj쎯jjb0쎯ecd0쎯	-11.0505
ikp0쎯hae쎯	-11.0505
ddhh쎯	-11.0505
hx쎯	-11.0507
ydhml0쎯ddi쎯	-11.0507
jdok0쎯llmb쎯i1쎯	-11.0508
nlo쎯omdm0쎯,	-11.0508
dyck0쎯vmnhe쎯	-11.0509
ckhml쎯	-11.051
ehkp쎯ksr쎯ylln0쎯	-11.051
vmgr쎯dpi1쎯hapi0쎯	-11.0512
ijbt쎯	-11.0518
klg0쎯ob1쎯hapi0쎯	-11.0518
olis쎯hapi0쎯	-11.0519
쎁쎉pt0쎯vmsu0쎯	-11.052
ebcd쎯op0쎯	-11.052
khlmi쎯iobo쎯	-11.0523
goru쎯emhf0쎯md쎯	-11.0523
vmop쎯	-11.0523
gpim쎯honkn0쎯	-11.0524
yk2쎯mgln0쎯nn0쎯	-11.0525
쎅/	-11.0525
jbtj쎯sk0쎯	-11.0526
,her0쎯	-11.0527
ooo0쎯hqm쎯	-11.0535
bykl0쎯	-11.0535
eqmo쎯	-11.0536
jr쎯o쎯	-11.0537
vmomi쎯hbln0쎯	-11.0538
lpb쎯hmr0쎯	-11.0539
je0쎯qbme쎯	-11.0542
ifbm쎯hqda0쎯	-11.0542
l0쎯wmgi쎯mlm쎯	-11.055
ytyr쎯i1쎯	-11.055
ndyvo쎯nd0쎯olis쎯	-11.0551
gdi0쎯nljmu쎯	-11.0551
csh0쎯mlm쎯	-11.0553
asje쎯po0쎯	-11.0554
kqop쎯bir쎯	-11.0555
dmmf0쎯omc0쎯	-11.0556
hapi0쎯yg0쎯	-11.0556
eowy쎯ihpm쎯	-11.0557
ftc0쎯	-11.0558
쎉b쎯ikhhh쎯ksr쎯	-11.0563
ivjnk쎯hqphh쎯	-11.0564
tt1쎯mf0쎯amyo쎯	-11.0564
bnai쎯	-11.0567
hapi0쎯opfb쎯ogr0쎯	-11.0567
bompm쎯ninn쎯	-11.0567
쎀yyyce쎯	-11.0569
oh쎯fbrhu쎯,	-11.0569
goru쎯emhf0쎯	-11.0571
mr0쎯yoln0쎯	-11.0575
lnk0쎯ytaj0쎯	-11.0577
mlwk쎯vnd쎯gpd쎯	-11.0578
io	-11.0578
md쎯m쎯odm0쎯	-11.0579
hbk1쎯dd쎯sc쎯jrhu쎯	-11.058
l0쎯yk0쎯nir쎯	-11.0582
ibpp쎯ks0쎯hdr0쎯	-11.0582
jv0쎯nlyhs쎯	-11.0584
yrbr0쎯md쎯	-11.0584
crp0쎯iobo쎯yth쎯	-11.0586
tjka0쎯kb0쎯za8쎯	-11.0588
ahqm0쎯tcb0쎯	-11.0588
dbbm쎯	-11.0588
skr쎯nd0쎯	-11.0589
suok0쎯nir쎯	-11.0589
,tt1쎯lmnii쎯	-11.059
ymy0쎯ynib쎯	-11.059
ichui쎯cwmr쎯	-11.0591
".	-11.0592
opyr쎯mr0쎯	-11.0598
vnvm쎯	-11.0599
u쎯tvmi2쎯	-11.0601
fbr0쎯jd0쎯	-11.0602
c쎯tlwc쎯nau0쎯	-11.0604
k0쎯vmbk0쎯	-11.0604
burvp쎯	-11.0605
goru쎯oik0쎯	-11.0605
,asje쎯	-11.0606
yce0쎯ogf0쎯	-11.0607
lpb쎯fmu쎯	-11.0609
b쎯쎁쎇a0쎯	-11.0609
mfj0쎯gam쎯	-11.0611
hmr0쎯mwsl쎯	-11.0612
mgln0쎯ihpm쎯	-11.0612
ytyr쎯klg0쎯	-11.0613
vgg0쎯	-11.0613
b쎯쎂쎂a0쎯	-11.0613
.oos쎯rrr0쎯	-11.0615
jmrw쎯oinr쎯	-11.0615
쎃mmbo쎯	-11.0615
yyk쎯hi0쎯	-11.0616
djbj쎯	-11.0617
,rc0쎯mwv쎯	-11.0618
쎁쎈a0쎯	-11.0622
ycbr0쎯iyr쎯	-11.0623
za21쎯	-11.0623
e쎯iobo쎯emhf0쎯	-11.0624
bhu0쎯nbshq쎯	-11.0626
,pp0쎯edi0쎯arf0쎯	-11.0627
ihs0쎯yif0쎯hapi0쎯	-11.0627
sjhhl쎯	-11.0628
쎂쎀ci0쎯wg0쎯	-11.0628
.쎁쎉쎈쎇oq0쎯	-11.0629
fvok쎯jnd0쎯op0쎯	-11.063
pt0쎯woll0쎯dmf쎯	-11.063
op0쎯lmv쎯	-11.063
jyk쎯rmij쎯l0쎯	-11.063
hdyj0쎯jksc쎯	-11.0631
fbnd0쎯ivcru쎯	-11.0632
vmm0쎯dby0쎯	-11.0632
gasm쎯	-11.0632
iobo쎯emhf0쎯,	-11.0633
b쎯쎂쎁a0쎯	-11.0635
쎀쎀ms0쎯mmu0쎯,	-11.0635
o쎯yhgr0쎯	-11.0638
ivym쎯hqi0쎯olis쎯	-11.0638
+쎁	-11.0641
app0쎯u쎯	-11.0644
yhs쎯omlk쎯,	-11.0646
i1쎯i1쎯i1쎯	-11.0647
:쎀.	-11.0648
kd1쎯mnp0쎯	-11.0648
,jtbu1쎯	-11.0648
.dm0쎯ci0쎯smr쎯	-11.0648
emnr쎯ythu쎯	-11.065
gbmt0쎯	-11.0651
hhsli쎯mthhh쎯,	-11.0651
amyo쎯hqi0쎯	-11.0651
hounk쎯jibi쎯	-11.0651
ci0쎯ksc쎯	-11.0652
amyo쎯ynib쎯ydi0쎯	-11.0655
vmnom쎯vmsu0쎯	-11.0655
qpp0쎯ivmfj쎯	-11.0655
oybo쎯	-11.0656
쎇b쎯ppj쎯tc1쎯md쎯	-11.0656
nir쎯nmme0쎯	-11.0657
fbnd0쎯mrmbo0쎯	-11.0658
yk0쎯dfsm쎯	-11.0661
.쎁쎉쎈쎆oq0쎯	-11.0662
fkkb0쎯	-11.0663
.쎅mwg0쎯fd0쎯	-11.0663
,iku0쎯tmmc0쎯	-11.0666
r쎯mrhwj쎯	-11.0674
ikhhh쎯bhu0쎯	-11.0674
edi0쎯qyhn쎯	-11.0674
쎁쎉쎈쎂	-11.0674
qtcl쎯	-11.0675
phqm쎯rsln1쎯	-11.0676
,ppj쎯tc1쎯md쎯	-11.0676
tt1쎯ehne쎯kb0쎯	-11.068
nlmrb0쎯yukb0쎯	-11.0682
nlmnr쎯qyt0쎯	-11.0683
mgije쎯mthhh쎯	-11.0685
hoyg쎯dt0쎯	-11.0688
ivbgr쎯mrmt쎯rbo0쎯	-11.0689
,moob쎯	-11.069
～쎂	-11.0695
tc1쎯yg0쎯	-11.0697
쎁쎀쎁	-11.0697
jbtj쎯lmsy쎯	-11.0701
yhml쎯oq0쎯	-11.0701
cshu0쎯	-11.0704
phqm쎯lmik쎯	-11.0705
nsdhe쎯	-11.0707
rsln1쎯nir쎯:	-11.0708
imihr0쎯bau쎯	-11.0709
쎁쎇쎈	-11.0709
qje쎯id1쎯ysm쎯	-11.0709
ss쎯	-11.0709
vmcsh쎯vmcsh쎯	-11.0711
ci0쎯csh0쎯	-11.0713
쎃.쎁	-11.0713
hmr0쎯ldhe쎯	-11.0713
mrdhe쎯mryoj쎯	-11.0714
쎈o쎯	-11.0715
l0쎯hdyj0쎯nljmu쎯	-11.0716
hdr0쎯l0쎯wmgi쎯	-11.0717
yri0쎯id1쎯	-11.0719
crp0쎯yebu쎯	-11.072
ythu쎯fmu쎯	-11.0726
),amyo쎯	-11.0727
qi	-11.0728
mmok쎯iodi쎯hapi0쎯	-11.0728
ymy0쎯nf0쎯	-11.073
hounk쎯mng0쎯	-11.0733
bkq쎯csh0쎯sk0쎯	-11.0734
mt0쎯ivke쎯ycbr0쎯	-11.0735
oh쎯osme0쎯	-11.0738
jkmr쎯hqm쎯	-11.0739
oqmo쎯fqsh쎯	-11.0739
rj	-11.074
yyk쎯amyo쎯m쎯ol1쎯	-11.0741
l0쎯rmher쎯	-11.0741
du0쎯	-11.0742
yr0쎯qsjr쎯	-11.0743
b쎯쎂쎇a0쎯	-11.0745
dj쎯ytumb쎯	-11.0746
b쎯쎂쎄a0쎯	-11.0746
hoav0쎯k0쎯hapi0쎯	-11.0747
hed0쎯,	-11.0747
aisl쎯ojlk쎯	-11.0748
qlmy쎯po0쎯	-11.0749
thml0쎯	-11.0752
lscwj쎯yid0쎯nn0쎯	-11.0753
omn1쎯,	-11.0753
i1쎯bkk쎯vmher쎯	-11.0754
,yg0쎯qgdi쎯	-11.0756
wmmu0쎯ob1쎯	-11.0761
hnlh0쎯ho0쎯slw0쎯	-11.0764
쎃쎀omd0쎯	-11.0765
ybye0쎯	-11.0766
(m쎯)	-11.0768
psh0쎯qnbk1쎯	-11.0768
zf25쎯	-11.0769
mku쎯opaph쎯ylb쎯	-11.0769
hbln0쎯yhgr0쎯tc1쎯	-11.0769
tc1쎯iksi쎯yg0쎯.	-11.077
ivcru쎯amyo쎯	-11.0771
mf0쎯oinr쎯	-11.0772
nd0쎯v쎯	-11.0772
hgf0쎯	-11.0773
i1쎯wmgi쎯nlmmf쎯	-11.0773
mlwk쎯qnbk1쎯	-11.0774
mf0쎯pnbq쎯	-11.0775
khqmb쎯	-11.0776
ci0쎯hml쎯,	-11.0777
,kd0쎯lloa쎯	-11.0778
oiku쎯rut0쎯	-11.0779
쎂쎆쎀	-11.078
ivik쎯ommi0쎯	-11.0781
omg0쎯dyck0쎯	-11.0782
vio0쎯mcw쎯	-11.0783
쎁쎁-	-11.0783
qfbk쎯	-11.0784
djmn쎯dtbo0쎯	-11.0785
쎆oq0쎯)	-11.0785
mwsl쎯fdyj쎯	-11.0787
qif0쎯yrf1쎯	-11.0787
ypp0쎯	-11.0788
smm쎯	-11.0788
uu0쎯oprob쎯	-11.0791
mnyhv0쎯llml쎯	-11.0792
mmbo쎯bu0쎯,	-11.0793
yhs쎯ipm0쎯.	-11.0793
hjwg쎯ks0쎯	-11.0795
kb0쎯nir쎯hapi0쎯	-11.0795
omg0쎯rvp쎯	-11.0795
ivbgr쎯qjcm쎯	-11.0796
onnme쎯op0쎯	-11.0796
ha쎯emcw0쎯	-11.0797
mk쎯nd0쎯	-11.0798
mt0쎯top0쎯	-11.0798
iksi쎯su0쎯ohg쎯	-11.0798
i1쎯yk0쎯op0쎯	-11.0801
쎁쎂b쎯ikhhh쎯ksr쎯	-11.0805
hdr0쎯mrmt쎯jckn쎯	-11.0806
u쎯cor쎯	-11.0807
hmr0쎯mgb0쎯	-11.0807
gisl쎯amyo쎯	-11.0809
ivhjr쎯srln0쎯	-11.0811
hapi0쎯dtq쎯nd0쎯	-11.0817
ecsh0쎯	-11.0818
wl쎯lmik쎯bhae쎯	-11.0819
nu0쎯mwyrd쎯	-11.0819
yviw쎯hqok0쎯tc1쎯	-11.0824
zd3	-11.0824
jcor쎯vmob0쎯	-11.0825
awe쎯	-11.0827
asje쎯nrli쎯	-11.0828
za2쎯wqs쎯vdln0쎯	-11.0828
ebcd쎯mand쎯	-11.0828
domm0쎯khne쎯	-11.0831
qni0쎯eyg0쎯	-11.0831
kjt쎯bfqm0쎯	-11.0832
qybk0쎯opfb쎯	-11.0839
mku쎯ykok0쎯	-11.0843
mwsl쎯yrnl0쎯	-11.0843
u쎯vvh쎯	-11.0844
,yhjr쎯omr0쎯	-11.0846
hapi0쎯tk0쎯opnkq쎯	-11.0846
gp0쎯zxaf쎯	-11.0846
i1쎯ykln0쎯	-11.0847
la0쎯gylm쎯	-11.0849
ivsmr쎯ivmmr쎯	-11.085
aa0쎯bmi쎯	-11.085
yhs쎯jvd쎯.	-11.0851
klnd쎯jcor쎯amwg쎯	-11.0854
ci0쎯mfj0쎯	-11.0855
lmik쎯mmu0쎯	-11.0856
zb1쎯	-11.0857
i1쎯nklq쎯hmhn0쎯	-11.0857
(쎁쎅	-11.0857
dd쎯l0쎯	-11.0857
eowy쎯qike쎯쎂	-11.0857
vdhml쎯mnyhv0쎯	-11.0858
qgg0쎯llhwj쎯	-11.0859
nlyhs쎯f쎯	-11.0859
ohpm쎯mgi1쎯	-11.086
쎆～	-11.0862
ki0쎯ejrb쎯	-11.0863
mnr쎯klg0쎯	-11.0863
쎀쎀ci0쎯wg0쎯	-11.0865
goru쎯dt0쎯hapi0쎯	-11.0865
fyvi쎯	-11.0865
.쎁쎉쎅쎈oq0쎯	-11.0866
ms0쎯mfj0쎯fd0쎯	-11.0866
fdbm쎯lmg0쎯	-11.0866
mmu0쎯oq0쎯(	-11.0868
ord0쎯toll0쎯	-11.0868
eysd0쎯libhu0쎯	-11.0869
b쎯쎁쎄a0쎯	-11.087
dhn0쎯miks0쎯	-11.087
eqoa쎯p쎯	-11.087
쎁쎈쎀쎀	-11.0871
qir0쎯	-11.0871
ee1쎯hbr0쎯	-11.0874
/쎁	-11.0874
hbv0쎯jmso쎯	-11.0875
idd쎯elw쎯	-11.0876
.nk0쎯	-11.0879
sk0쎯iln0쎯	-11.0882
쎂.쎇	-11.0885
qamo쎯otc쎯ycbr0쎯	-11.0887
qvio쎯ohg쎯	-11.089
쎂쎀쎁쎃	-11.0893
tt1쎯tkhk0쎯	-11.0894
csh0쎯nljmu쎯	-11.0894
uu0쎯llhe쎯.	-11.0896
,rlmi쎯	-11.0896
i1쎯hda쎯etcu0쎯	-11.0897
,pp0쎯vr쎯	-11.0897
ejmc0쎯ivtt쎯	-11.0897
hnk0쎯ocor쎯	-11.0897
,jbtj쎯oinl0쎯	-11.0897
tpkp쎯top0쎯	-11.0897
k0쎯mgok0쎯	-11.0897
jtcg0쎯nf0쎯	-11.0897
oll쎯oh쎯	-11.0899
hkll쎯d쎯	-11.09
쎁쎉쎈쎈	-11.0903
mgi0쎯fd0쎯hgdi쎯	-11.0904
orse쎯a0쎯	-11.0904
ynib쎯okr0쎯	-11.0907
epou쎯jmgi쎯	-11.0909
nini0쎯oq0쎯hqm쎯	-11.091
쎁쎅oq0쎯	-11.091
po0쎯yhs쎯mthhh쎯	-11.0911
.po0쎯tcb0쎯	-11.0913
tw1쎯qhml0쎯	-11.0916
,tt1쎯vio0쎯	-11.0916
iku0쎯tmmc0쎯	-11.0917
ormbo1쎯	-11.0917
oq0쎯(ci0쎯mmu0쎯	-11.0918
쎂ci0쎯wg0쎯,	-11.0919
dcru1쎯heks0쎯ssr쎯	-11.0919
lsa쎯odm0쎯l0쎯yk0쎯	-11.0919
쎃ci0쎯wg0쎯,	-11.0921
kd0쎯u쎯	-11.0921
ivyvo쎯mmbo쎯bu0쎯	-11.0921
eqmb0쎯jbmc0쎯	-11.0923
.쎁쎉쎉쎀oq0쎯	-11.0923
ehgu쎯imnsd쎯psh0쎯	-11.0924
ysok쎯wljbm쎯	-11.0924
ophud쎯	-11.0925
gdk쎯,	-11.0927
lloa쎯ehml0쎯	-11.0928
쎁쎁b쎯hqm쎯,	-11.093
,mgmf0쎯gytu0쎯	-11.093
moob쎯jka쎯	-11.0931
nlykb1쎯ytap쎯	-11.0932
qtmm쎯	-11.0932
쎆쎀oq0쎯oip0쎯	-11.0938
qruc쎯bysm쎯hapi0쎯	-11.0938
hapi0쎯bmmc쎯odm0쎯	-11.0938
amwg쎯hapi0쎯	-11.0941
lwu0쎯bkk쎯	-11.0944
iyr쎯)	-11.0944
hdr0쎯wmgi쎯jmso쎯	-11.0946
opsjr쎯ymuo쎯	-11.0947
wmgi쎯hqda0쎯	-11.0949
hvno0쎯	-11.0951
,hghu쎯ytumb쎯	-11.0952
ohg쎯sjrc0쎯md쎯	-11.0954
ivyvo쎯rrr0쎯hdl0쎯	-11.0957
lmg0쎯ebhu0쎯	-11.0957
b쎯쎆a0쎯	-11.0957
mwsl쎯hdrc쎯쎁쎂	-11.0958
nlyhs쎯fate쎯	-11.0959
csh0쎯ab0쎯	-11.0959
hnlh0쎯ju쎯slw0쎯	-11.096
ik쎯	-11.096
mmm쎯hgdi쎯mks0쎯	-11.0961
ekql쎯ekql쎯	-11.0962
ho0쎯rmher쎯bkq쎯	-11.0962
mrfb쎯	-11.0962
nvjrr쎯tims쎯	-11.0963
bahm쎯	-11.0965
.쎁쎉쎉쎄oq0쎯	-11.0965
bq쎯amwg쎯	-11.0966
hgdi쎯gpd쎯.	-11.0967
bojka쎯	-11.0968
oiav0쎯rrr0쎯k	-11.0968
쎅×	-11.0969
slmbo쎯	-11.0973
쎄o쎯,	-11.0976
vmij0쎯i1쎯	-11.0978
nljmu쎯nljmu쎯jm0쎯	-11.0978
lbybo쎯	-11.0978
vr쎯bmr0쎯	-11.0982
ejrb쎯sk0쎯	-11.0985
hapi0쎯vmgr쎯dpi1쎯	-11.0985
pt0쎯woll0쎯hapi0쎯	-11.0986
ysok쎯k0쎯	-11.0987
eog1쎯jbtj쎯	-11.0987
jbmc0쎯hapi0쎯	-11.0988
쎁쎃쎃	-11.0988
hshml쎯hoami쎯	-11.0988
쎅쎀/	-11.099
hbln0쎯ivmn쎯	-11.0991
hdi0쎯tbrr쎯	-11.0992
pru쎯bsle0쎯heks0쎯	-11.0993
hogdi쎯ywlb쎯	-11.0993
hdlbk쎯	-11.0994
,jp쎯hapi0쎯	-11.0994
o쎯k0쎯	-11.0996
qfbu0쎯	-11.0997
togf쎯	-11.0999
ddmmf쎯ylm쎯	-11.1
nuks0쎯	-11.1001
yg0쎯yhmbo0쎯	-11.1005
djcr쎯	-11.1005
hgdi쎯mks0쎯ibpp쎯	-11.1007
tpib쎯tpou쎯mvdh쎯	-11.1007
ki0쎯ifbm쎯	-11.1008
ynib쎯hoyg쎯	-11.101
k0쎯ik2쎯	-11.1012
qni0쎯jmso쎯i1쎯	-11.1012
jcmvh쎯ydi0쎯	-11.1014
ivke쎯stv쎯ebhu0쎯	-11.1014
yad쎯mwsl쎯	-11.1016
.yg0쎯qgdi쎯	-11.1016
mmm쎯hgdi쎯lnk0쎯.	-11.1019
,tt1쎯kb0쎯	-11.1019
okmrt쎯hhsb쎯	-11.102
a0쎯arf0쎯	-11.1021
mt0쎯lsehr쎯	-11.1022
b쎯쎃쎀a0쎯	-11.1024
em0쎯sk0쎯	-11.1024
ivke쎯lwu0쎯dhn0쎯	-11.1026
thok0쎯	-11.1028
)-	-11.1028
쎁쎂b쎯hqm쎯,	-11.1029
zg3	-11.1029
gyo쎯ytt0쎯	-11.1031
dup쎯napo쎯	-11.1031
bmso1쎯	-11.1033
u쎯kd0쎯k0쎯fbnd0쎯	-11.1033
,kd0쎯ysm쎯	-11.1033
rmjmf쎯	-11.1034
mf0쎯ab0쎯	-11.1034
hapi0쎯tc1쎯heks0쎯	-11.1035
qlmy쎯ysok쎯	-11.1036
ivoj쎯mnr쎯	-11.1036
mf0쎯vr쎯	-11.1037
nbks0쎯md쎯	-11.1037
ryo0쎯prnin쎯	-11.1037
b쎯쎁쎉a0쎯	-11.1038
vsm쎯sjtk쎯	-11.1039
qka쎯mk쎯	-11.1039
hapi0쎯oiku쎯qiks쎯	-11.104
ommi0쎯yg0쎯itlb쎯	-11.1041
bohe쎯	-11.1044
gihs쎯odg0쎯	-11.1044
fhe	-11.1048
쎀oq0쎯)	-11.1048
ikhhh쎯jtco0쎯	-11.1048
fvok쎯qsjr쎯vmij0쎯	-11.1049
ddk0쎯	-11.1049
op0쎯fbnd0쎯hvif쎯	-11.105
dhn0쎯ywlb쎯	-11.105
vmog쎯nf0쎯	-11.1053
,쎁쎉쎈쎅oq0쎯	-11.1053
b쎯쎁쎁a0쎯	-11.1055
rvp쎯hqm쎯	-11.1055
bine쎯iml쎯	-11.1057
gehda쎯	-11.1058
mig0쎯md쎯	-11.1058
ticr쎯tvjr쎯	-11.1059
anau0쎯ym0쎯	-11.106
uu0쎯ogr0쎯	-11.1061
kb0쎯bmks0쎯md쎯	-11.1063
qshr쎯dmmf0쎯	-11.1068
aisl쎯adi쎯	-11.1068
yrbr0쎯phqm쎯ibpp쎯	-11.1068
ids쎯za9쎯:za2쎯	-11.1069
쎆mwg0쎯fd0쎯	-11.1069
o쎯iksi쎯	-11.107
lmsy쎯tbrr쎯hdln0쎯	-11.107
i1쎯mku쎯	-11.107
hgdi쎯md쎯	-11.1074
qi1쎯	-11.1076
sk0쎯girm쎯ob1쎯	-11.1076
mnp1쎯ikp0쎯	-11.1076
whey0쎯za9쎯	-11.1077
uhqi0쎯	-11.108
mmm쎯ma0쎯	-11.1081
nbshq쎯ivjnk쎯	-11.1083
her0쎯ipm0쎯	-11.1083
jdok0쎯yib쎯jmso쎯	-11.1084
vmgr쎯tc1쎯	-11.1084
odm0쎯yib쎯gnsh쎯	-11.1085
ifhml0쎯	-11.1092
kqyck쎯fh쎯	-11.1093
vio0쎯ki0쎯bkk쎯	-11.1094
qu1쎯jyk쎯	-11.1095
bkk쎯mgije쎯	-11.1096
tqo0쎯tjcr0쎯	-11.1096
hnvm쎯	-11.1099
md쎯쎂쎀쎀쎉oq0쎯	-11.1099
dm0쎯ddi쎯	-11.1099
gpd쎯oyt쎯.	-11.1102
qje쎯id1쎯yth쎯tc1쎯	-11.1103
jm0쎯fbnd0쎯oyt쎯;	-11.1104
쎂쎀쎁	-11.1104
쎁쎉쎉쎁	-11.1104
fhks쎯	-11.1105
mfj0쎯hgdi쎯	-11.1105
vmrb0쎯	-11.1106
쎂쎅쎀jrhu쎯	-11.1108
쎃쎀a0쎯	-11.1108
ehbk0쎯eill쎯	-11.1109
ihs0쎯yt0쎯.	-11.111
jnk쎯	-11.1111
nmwp쎯	-11.1111
ihs0쎯ocsh쎯	-11.1113
mnr쎯hgrly쎯hapi0쎯	-11.1113
dtq쎯rrr0쎯	-11.1115
wr쎯qsle쎯	-11.1117
;(	-11.1117
(gi0쎯	-11.1121
쎂쎀ol1쎯	-11.1122
fbnd0쎯qsle쎯za9쎯	-11.1123
tmd1쎯	-11.1125
gyo쎯uu0쎯	-11.1125
i1쎯jmyo쎯ivmmr쎯;	-11.1126
ym	-11.1128
yce0쎯amwg쎯	-11.1128
qlmy쎯bbb0쎯	-11.1128
qpr쎯	-11.1128
etmb쎯ytap쎯hapi0쎯	-11.113
hapi0쎯vnd쎯ivmfj쎯	-11.113
hjbo쎯ord0쎯	-11.1131
vmnom쎯mks1쎯nn0쎯	-11.1132
nd0쎯jrr쎯	-11.1132
adi쎯opl쎯	-11.1133
tt1쎯tkhk0쎯hoami쎯	-11.1136
ilr0쎯ids쎯zxaf쎯	-11.1136
ylb쎯hdv쎯i1쎯ylb쎯	-11.1136
i1쎯yeoiv0쎯nvno0쎯	-11.1137
kd1쎯twhd0쎯	-11.1137
쎃쎂.	-11.1138
hdnf쎯rhfd쎯	-11.1138
nc쎯eysd0쎯ei1쎯	-11.1138
asje쎯hmr0쎯m쎯	-11.114
uu0쎯hommn0쎯	-11.114
,le0쎯shlb0쎯md쎯	-11.1141
ndyvo쎯nd0쎯hapi0쎯	-11.1141
hshml쎯tjka0쎯	-11.1142
쎃zxay쎯	-11.1143
yhgu쎯qike쎯	-11.1143
hew쎯jvd쎯	-11.1148
,nklq쎯yt0쎯	-11.1149
ebhu0쎯hqbu쎯	-11.115
쎁쎇쎅	-11.1151
hlsa쎯vmpi쎯	-11.1155
hbu0쎯slm쎯	-11.1155
쎅zxay쎯	-11.1156
oiku쎯tgk쎯hapi0쎯	-11.1157
mwsl쎯hdrc쎯쎁.	-11.1157
hed0쎯omnn0쎯za9쎯	-11.1159
ibi쎯hqphh쎯nljmu쎯	-11.1159
eijb쎯kd0쎯	-11.116
(쎁쎈쎈	-11.1164
ivjka쎯onmk0쎯	-11.1169
hqi0쎯olis쎯lmnii쎯	-11.1169
ytwa쎯ywlb쎯	-11.1171
,쎁쎉쎉쎈oq0쎯	-11.1172
쎁쎃ol1쎯	-11.1172
.쎁쎉쎈쎉oq0쎯	-11.1172
ydhml0쎯hqm쎯	-11.1173
fdmbb0쎯	-11.1173
sqnl0쎯wg0쎯	-11.1173
eabt0쎯hdr0쎯	-11.1174
dbu쎯he0쎯	-11.1175
mt0쎯tc1쎯adi쎯lsa쎯	-11.1175
dhn0쎯hgdi쎯	-11.1176
elw쎯tbd0쎯	-11.1179
hounk쎯edhe쎯	-11.118
qng쎯	-11.118
yrbr0쎯mhog0쎯	-11.1181
evmg0쎯gyhs쎯	-11.1182
hdeq쎯yk0쎯:	-11.1184
쎁쎀쎄	-11.1185
gpd쎯hdv쎯	-11.1188
girm쎯nir쎯	-11.1189
dmjk쎯dliu쎯	-11.119
ylmh0쎯dosu쎯	-11.1191
fmu쎯ivtca쎯	-11.1192
kq0쎯i1쎯	-11.1193
,hogdi쎯	-11.1194
쎂쎃쎀	-11.1195
khjka쎯elw쎯	-11.1196
ycbr0쎯bq쎯	-11.1197
mmue쎯lis쎯ylb쎯	-11.1197
i1쎯ouln0쎯ydhml0쎯	-11.1198
vmnme쎯gpd쎯	-11.1201
hqphh쎯hapi0쎯	-11.1201
nklq쎯ihs0쎯hmr0쎯	-11.1201
kb0쎯jqjr쎯	-11.1202
tgk쎯jksc쎯	-11.1203
yhs쎯opj1쎯,	-11.1205
mgbhu쎯napo쎯.	-11.1206
쎁쎅ol1쎯	-11.1206
tcno0쎯	-11.1206
uu0쎯nau0쎯hapi0쎯	-11.1207
qa	-11.1207
m쎯ids쎯	-11.1212
yce0쎯iksi쎯	-11.1215
yhs쎯opj1쎯i1쎯	-11.1217
oqni쎯ivcru쎯l0쎯	-11.1218
쎄쎀omd0쎯	-11.1221
ldhe쎯mnln쎯iksi쎯	-11.1223
mnmbo쎯fk0쎯	-11.1224
tqbu쎯hjwg쎯	-11.1226
-쎀쎁	-11.1229
za8쎯l0쎯opj0쎯	-11.1229
yh쎯ehio쎯bq쎯md쎯	-11.123
yhqo쎯	-11.1232
mmvs1쎯	-11.1232
ddi쎯rvp쎯vmbm0쎯	-11.1233
쎁쎃쎉	-11.1233
hqki쎯hew쎯	-11.1233
za2쎯omg0쎯wmgi쎯	-11.1233
dhn0쎯mgwg쎯	-11.1233
,ifm쎯	-11.1234
sfb0쎯	-11.1235
qamo쎯tbln0쎯	-11.1236
anau0쎯ommi0쎯	-11.1242
ihs0쎯onao쎯	-11.1243
nvsm쎯nf0쎯	-11.1243
sok0쎯llmb쎯i1쎯	-11.1243
hqm쎯fdcsh쎯	-11.1243
ci0쎯mylm쎯	-11.1245
vmbm0쎯ohq쎯	-11.1245
jher쎯jmso쎯	-11.1245
jyk쎯hqphh쎯	-11.1246
쎁쎈쎂	-11.1247
sjka쎯	-11.1248
ouln0쎯ydhml0쎯i1쎯	-11.1249
쎀bgr0쎯oq0쎯	-11.125
hapi0쎯o쎯hqm쎯	-11.1251
khlmi쎯jmso쎯	-11.1253
hapi0쎯hqm쎯omrl쎯	-11.1254
mdm쎯ahqm0쎯vmnhe쎯	-11.1254
(쎁쎆	-11.1255
ig0쎯opjbc쎯	-11.1257
jckn쎯	-11.1257
,ikhhh쎯ksr쎯	-11.1258
hdr0쎯fbr0쎯	-11.1262
jiog쎯mig0쎯	-11.1262
jbtj쎯ummj0쎯	-11.1263
jrb쎯dyfe쎯	-11.1263
i1쎯mbdi쎯	-11.1264
ojk쎯	-11.1264
po0쎯wrbo쎯mthhh쎯	-11.1265
lsa쎯nlmrb0쎯	-11.1265
vmisb쎯jlwl0쎯	-11.1266
hklq0쎯	-11.1267
yhs쎯omlk쎯.	-11.1267
jkp0쎯dhe1쎯	-11.1267
odm0쎯hvif쎯.	-11.1268
bkq쎯wdh쎯	-11.1268
za16쎯	-11.127
rmybb0쎯	-11.1272
jmso쎯wg0쎯	-11.1275
hgdi쎯sjrc0쎯tc1쎯	-11.1276
bhu0쎯mgln0쎯	-11.1276
za15쎯	-11.1278
hapi0쎯onkq쎯ile쎯	-11.1278
mmvs0쎯vfh쎯	-11.1284
hapi0쎯her0쎯mmbo쎯	-11.1284
hn0쎯oq0쎯dt0쎯	-11.1285
b쎯쎉a0쎯	-11.1287
cnlh0쎯cnlh0쎯	-11.1287
lpru쎯	-11.1289
,쎂쎀쎀쎄oq0쎯	-11.1289
bodh쎯mmok쎯ssr쎯	-11.1291
tk0쎯hvif쎯hapi0쎯	-11.1292
ddi쎯vmnhe쎯	-11.1294
dfdv쎯hybt0쎯	-11.1296
hlsa쎯cwj0쎯,	-11.1297
ije0쎯sjrc0쎯	-11.1299
dhn0쎯dit0쎯k	-11.13
yce0쎯yhmbo0쎯	-11.1302
vnhs쎯elw쎯	-11.1302
tpru쎯	-11.1303
oyt쎯md쎯l0쎯wmgi쎯	-11.1304
kdi0쎯hoami쎯	-11.1305
wdh쎯nlo쎯,	-11.1305
o쎯gpim쎯vlok쎯oh쎯	-11.1306
eno0쎯hvd쎯	-11.1307
oip0쎯rmvs쎯	-11.1307
mgok0쎯ks0쎯	-11.131
inin0쎯za9쎯:za2쎯	-11.131
k0쎯hbu0쎯bkf0쎯	-11.1311
tm0쎯titf0쎯	-11.1311
hapi0쎯oip0쎯qmv쎯	-11.1315
wijb쎯	-11.1315
dher쎯nf0쎯	-11.1315
,ymf0쎯amyo쎯	-11.1316
m쎯jbmm0쎯klg0쎯	-11.1318
쎀쎀omd0쎯o쎯	-11.1319
ejmc0쎯raa쎯hapi0쎯	-11.1319
bipo쎯	-11.1325
aphh0쎯md쎯	-11.1326
ytwi0쎯jdi0쎯	-11.1326
ymp0쎯gpd쎯	-11.1327
qje쎯mlm쎯	-11.1327
mrukf쎯mwice0쎯	-11.1329
mgwg쎯phqm쎯	-11.133
rvp쎯mmok쎯	-11.1331
hgdi쎯mlm쎯oos쎯	-11.1334
ki0쎯jdi0쎯	-11.1335
hapi0쎯ycbr0쎯tc1쎯	-11.1335
tn0쎯id1쎯rrr0쎯	-11.1335
thbu0쎯ivke쎯	-11.1336
ibpp쎯klg0쎯	-11.1338
emnr쎯bmi쎯	-11.1338
lmik쎯top0쎯inin0쎯	-11.134
fjcr쎯yrf1쎯	-11.1342
mwhgr쎯ybmcu쎯	-11.1343
qje쎯id1쎯o쎯dh쎯	-11.1344
mmu0쎯.	-11.1345
opd0쎯ymf0쎯	-11.1346
dhe0쎯tlj쎯	-11.1347
(mm0쎯)	-11.135
csh0쎯dhml0쎯i1쎯	-11.135
omh쎯omi0쎯mgije쎯	-11.1351
hhsli쎯lmik쎯	-11.1351
l0쎯sok0쎯nljmu쎯	-11.1352
miks0쎯ks0쎯fbnd0쎯	-11.1353
쎀is0쎯,	-11.1353
vdln0쎯	-11.1355
fvok쎯hj0쎯	-11.1361
ivdwf쎯	-11.1362
mylm쎯hdyj0쎯vm	-11.1362
,lwnl쎯mmok쎯	-11.1364
jbtj쎯jjb0쎯	-11.1365
쎂쎀a0쎯	-11.1365
nd0쎯cnlh0쎯	-11.1365
goshr쎯gah쎯	-11.1367
bmr0쎯eykl0쎯	-11.1368
oyhv0쎯imno0쎯	-11.1374
on1쎯mmu0쎯.	-11.1377
o쎯,qdtt쎯gpd쎯	-11.1377
,hghu쎯	-11.1379
,oini0쎯	-11.1379
,sje0쎯hoami쎯nn0쎯	-11.138
mr0쎯tlbk0쎯	-11.138
,mf0쎯ibpp쎯	-11.1381
hhdi쎯vmij0쎯	-11.1381
uu0쎯ivke쎯,	-11.1381
kqqni쎯mng0쎯	-11.1382
lmnii쎯oimbo0쎯	-11.1383
op0쎯bmi쎯	-11.1383
tq0쎯obo쎯	-11.1383
fytr쎯	-11.1386
;쎄i1쎯	-11.1387
niy쎯es쎯	-11.1387
omn1쎯miks0쎯	-11.1387
qytv0쎯tqbu쎯	-11.1387
j쎯nini0쎯oq0쎯	-11.1388
k0쎯ks0쎯je0쎯qgdi쎯	-11.1388
ihs0쎯oq0쎯	-11.1389
tbd1쎯tkhk0쎯za2쎯	-11.1392
rmss쎯oin쎯	-11.1393
nir쎯rvl쎯	-11.1393
oiku쎯hghu쎯	-11.1393
tm	-11.1395
opsjr쎯	-11.1399
ymf0쎯klg0쎯	-11.14
bv0쎯	-11.1401
ikhhh쎯jkmvs쎯ids쎯	-11.1401
oin쎯hmr0쎯	-11.1401
mgykg쎯yrf1쎯	-11.1401
tmmc0쎯ck0쎯	-11.1403
hbu0쎯bmks0쎯	-11.1403
hmr0쎯o쎯	-11.1403
hapi0쎯ck0쎯ytd0쎯	-11.1404
ikhhh쎯ksr쎯ydi0쎯	-11.1404
쎇쎂쎀	-11.1406
opher쎯	-11.1407
ytap쎯gp0쎯	-11.1407
bbke쎯nf0쎯tmm0쎯	-11.1407
m쎯hhsb쎯	-11.1409
aj0쎯yif0쎯	-11.1409
ho0쎯k0쎯	-11.1411
pru쎯wqs쎯	-11.1412
o쎯l0쎯tc0쎯fbrhu쎯	-11.1412
,jrok쎯hdnf쎯	-11.1413
ogd0쎯mrmt쎯ivke쎯	-11.1413
kb0쎯inin0쎯	-11.1414
heo쎯mwln쎯heo쎯	-11.1416
tbd0쎯cwj0쎯	-11.1418
hapi0쎯vmgr쎯wd0쎯	-11.1419
im	-11.1424
ivbgr쎯rjd0쎯fdyj쎯	-11.1424
lwu0쎯mh0쎯	-11.1425
ydi0쎯nini0쎯	-11.1429
.쎁쎉쎉쎁oq0쎯	-11.143
amyo쎯pt0쎯woll0쎯	-11.143
eog0쎯aombo쎯	-11.143
qje쎯id1쎯rbo0쎯	-11.1432
ivik쎯rbo0쎯	-11.1433
mrhvd쎯	-11.1435
nc쎯opjbc쎯	-11.1436
yks쎯gytu0쎯	-11.1438
쎁쎀쎉	-11.1439
ahln쎯	-11.1441
ommi0쎯stv쎯	-11.1441
moob쎯ytumb쎯	-11.1441
opbo1쎯	-11.1442
i1쎯asje쎯	-11.1443
obmc쎯hvd쎯yrnl0쎯,	-11.1444
llmb쎯k0쎯	-11.1445
lihej쎯jphi0쎯	-11.1448
ivop0쎯ivmym쎯	-11.1449
jphu0쎯ldhe쎯	-11.1451
hqgdi쎯yhsk쎯	-11.1452
nc쎯ivcru쎯,	-11.1453
m쎯hj0쎯	-11.1455
rrr0쎯rjd0쎯	-11.1459
qo0쎯jlv0쎯	-11.1459
khiku쎯vr쎯	-11.146
mf0쎯hgdi쎯	-11.1461
b쎯쎁쎃a0쎯	-11.1462
vio0쎯hoyg쎯	-11.1462
dsjl0쎯	-11.1463
qqkq쎯	-11.1464
,쎁쎉쎈쎈oq0쎯	-11.1465
whey0쎯ids쎯jmig쎯	-11.1466
nnqo0쎯ivo쎯	-11.1467
md쎯쎂쎀쎁쎀oq0쎯	-11.1468
ylnc쎯mnr쎯	-11.1469
qif0쎯heo쎯mgwg쎯	-11.147
ommi0쎯kb0쎯	-11.1471
m2,	-11.1471
qj0쎯bmi쎯	-11.1472
iksi쎯mhaf0쎯fdyj쎯	-11.1472
dd쎯gnsh쎯	-11.1473
tbln0쎯mnln쎯bhae쎯	-11.1473
daiu쎯yid0쎯	-11.1473
janl쎯mf0쎯	-11.1474
her0쎯rut0쎯	-11.1478
ije0쎯jyk쎯	-11.1479
uu0쎯ivke쎯	-11.1479
wk0쎯mbll쎯	-11.1481
ino0쎯tgk쎯	-11.1481
쎁쎀쎈쎀	-11.1483
rmav쎯nlykb1쎯	-11.1483
ivop0쎯yk0쎯za8쎯	-11.1484
vahu쎯	-11.1485
ihmr쎯qj0쎯	-11.1486
pjto쎯	-11.1486
mm0쎯j쎯wc0쎯	-11.1486
lyyk쎯	-11.1486
jaf0쎯yif0쎯	-11.1486
hbv0쎯tc1쎯hdyj0쎯	-11.1488
.mthhh쎯jcor쎯	-11.149
,sje0쎯	-11.1492
iksi쎯tcg0쎯mruu쎯,	-11.1492
dd쎯tc1쎯ssr쎯	-11.1493
jibi쎯jher쎯	-11.1494
ol0쎯jiyhv0쎯	-11.1496
ibpp쎯q쎯	-11.1496
ynj0쎯	-11.1499
elw쎯i1쎯	-11.1499
ghe0쎯	-11.1501
lgyhv쎯mwsu쎯	-11.1501
ihymf쎯	-11.1501
hahui0쎯	-11.1502
[...]
