[UNK]	0
[PAD]	0
[CLS]	0
[SEP]	0
[MASK]	0
,	-3.2331
的	-3.72942
。	-4.01994
、	-4.08629
▁	-4.49297
和	-5.12213
在	-5.32396
为	-5.42454
是	-5.42549
:	-5.46771
人	-5.47213
一	-5.49755
大	-5.49893
有	-5.54335
中	-5.56563
(	-5.6843
年	-5.75231
等	-5.77046
了	-5.79772
与	-5.86531
上	-5.89818
)	-5.89924
1	-5.97311
;	-5.98337
不	-6.03048
于	-6.04217
.	-6.04709
《	-6.0626
市	-6.07574
长	-6.09418
“	-6.09564
地	-6.10329
水	-6.11023
部	-6.13716
2	-6.1379
以	-6.14297
高	-6.17797
之	-6.18128
3	-6.18829
家	-6.19284
性	-6.28238
区	-6.30199
后	-6.30584
4	-6.31273
”	-6.31391
用	-6.32308
及	-6.32416
5	-6.35257
山	-6.36079
名	-6.36388
日	-6.36439
-	-6.36543
子	-6.37916
生	-6.37998
中国	-6.39221
下	-6.40373
新	-6.40581
县	-6.41762
体	-6.42828
多	-6.43135
学	-6.43812
会	-6.44697
机	-6.44897
出	-6.4572
对	-6.47459
小	-6.51265
化	-6.51395
外	-6.51781
》	-6.52224
法	-6.53119
三	-6.54144
到	-6.54741
所	-6.55715
成	-6.56548
南	-6.56789
而	-6.58044
国	-6.59129
公司	-6.60738
7	-6.615
管理	-6.6167
6	-6.62708
内	-6.6359
分	-6.63662
时	-6.64191
天	-6.65098
企业	-6.66144
本	-6.66483
个	-6.6734
电	-6.69619
技术	-6.70517
可	-6.70832
西	-6.73049
发	-6.73308
19	-6.73427
面	-6.73856
海	-6.73961
被	-6.74336
产品	-6.74555
·	-6.74606
道	-6.74741
工作	-6.76149
文	-6.76688
8	-6.76806
服务	-6.77153
科	-6.77268
无	-6.78454
力	-6.79218
东	-6.79469
前	-6.79767
总	-6.82265
将	-6.82506
大学	-6.84456
路	-6.84589
全	-6.85331
或	-6.85387
村	-6.85984
级	-6.86001
0	-6.86056
自	-6.86759
9	-6.87388
明	-6.87504
作	-6.8817
其	-6.88221
主	-6.88648
10	-6.88851
光	-6.88939
镇	-6.89428
来	-6.89549
度	-6.90467
制	-6.91022
入	-6.91497
/	-6.91802
开	-6.92008
行	-6.92547
克	-6.92564
书	-6.92629
清	-6.92782
器	-6.93008
线	-6.93464
美	-6.93598
动	-6.93642
心	-6.94047
金	-6.94182
专业	-6.94391
军	-6.94521
十	-6.94557
花	-6.95242
发展	-6.96732
教育	-6.96861
20	-6.96917
者	-6.97348
业	-6.97664
任	-6.98828
平	-6.99974
至	-6.99997
定	-7.00732
生产	-7.00754
研究	-7.00863
物	-7.01232
集	-7.01554
流	-7.02006
四	-7.02399
同	-7.0306
北	-7.03621
也	-7.03857
口	-7.0509
风	-7.05174
省	-7.05538
相	-7.06013
石	-7.06067
经	-7.0656
最	-7.06661
城	-7.06675
原	-7.0673
局	-7.06805
处	-7.06911
点	-7.07805
公	-7.08509
数	-7.08863
二	-7.08929
能	-7.08986
并	-7.09252
乡	-7.09649
方	-7.09932
气	-7.10079
师	-7.10089
建	-7.10223
工	-7.10525
米	-7.10593
国家	-7.10595
利	-7.11511
实	-7.1153
两	-7.11541
都	-7.11791
从	-7.12288
安	-7.12671
华	-7.12966
通	-7.13014
中心	-7.13215
型	-7.13463
头	-7.13505
系统	-7.13551
林	-7.1411
产	-7.14917
里	-7.15624
设计	-7.1568
位于	-7.16375
由	-7.16908
五	-7.16922
学校	-7.17563
门	-7.18009
特	-7.18114
万	-7.18437
主要	-7.188
号	-7.19062
重	-7.1912
事	-7.193
斯	-7.19412
经济	-7.19573
得	-7.19727
理	-7.2003
州	-7.20076
王	-7.2128
精	-7.21362
学院	-7.21562
过	-7.21751
加	-7.21872
形	-7.21955
此	-7.22844
文化	-7.22998
种	-7.23072
达	-7.23258
进	-7.2335
工程	-7.23374
尔	-7.23667
热	-7.23884
起	-7.23992
一个	-7.24053
期	-7.24056
江	-7.241
次	-7.24321
量	-7.24677
片	-7.24939
合	-7.25266
就	-7.26236
()	-7.26402
德	-7.265
教	-7.26515
手	-7.26607
白	-7.27122
各	-7.27147
网	-7.27935
带	-7.28089
元	-7.28415
好	-7.2873
女	-7.28934
正	-7.28978
首	-7.29731
车	-7.29776
商	-7.30639
式	-7.31377
代	-7.31556
河	-7.32187
200	-7.32282
黄	-7.32514
马	-7.32778
古	-7.32846
国际	-7.32989
间	-7.33164
民	-7.33529
向	-7.34055
身	-7.34154
约	-7.3483
病	-7.34868
类	-7.35082
油	-7.35316
副	-7.35822
龙	-7.3594
色	-7.36312
语	-7.36357
系	-7.36925
着	-7.37444
如	-7.37444
余	-7.37471
品	-7.37561
管	-7.38349
场	-7.38997
传	-7.39158
可以	-7.3926
全国	-7.40173
位	-7.40266
台	-7.40413
质	-7.40568
当	-7.40753
要	-7.41006
获	-7.41116
人,	-7.41962
画	-7.42099
%	-7.42351
情	-7.43184
他	-7.43201
"	-7.43209
建设	-7.4336
校	-7.44035
科技	-7.44238
字	-7.44299
观	-7.44381
红	-7.44504
阳	-7.44514
立	-7.44645
有限公司	-7.44717
已	-7.45405
层	-7.45439
属	-7.45635
张	-7.45736
奖	-7.46194
我	-7.46287
选	-7.46294
第一	-7.46551
变	-7.4696
开发	-7.47193
队	-7.47553
员	-7.47656
强	-7.47797
基	-7.47869
称	-7.48598
战	-7.48666
院	-7.48776
应	-7.49834
意	-7.50582
,是	-7.5076
现	-7.50769
更	-7.50888
。”	-7.5123
百	-7.51635
曾	-7.51676
报	-7.51716
30	-7.5198
》、《	-7.5204
12	-7.52391
老	-7.52906
指	-7.52915
室	-7.52955
节	-7.5296
项目	-7.52997
教学	-7.53075
亚	-7.53665
近	-7.54219
,并	-7.54332
该	-7.54508
图	-7.54534
转	-7.54537
组织	-7.54653
防	-7.55012
拉	-7.55364
进行	-7.55416
去	-7.55422
信	-7.55577
具有	-7.5582
交	-7.55844
设备	-7.56018
信息	-7.57009
调	-7.57536
干	-7.57628
比	-7.5789
星	-7.57927
木	-7.57949
提供	-7.57967
世界	-7.58358
通过	-7.58409
社会	-7.58732
做	-7.58775
,在	-7.59006
乐	-7.59512
职	-7.59761
回	-7.59866
房	-7.59991
党	-7.60205
叶	-7.6025
士	-7.60277
15	-7.60445
站	-7.60856
接	-7.61431
使	-7.61509
状	-7.6168
因	-7.61998
组	-7.62041
药	-7.62057
艺术	-7.62096
质量	-7.62134
常	-7.62214
厂	-7.62774
取	-7.62793
人。	-7.63089
八	-7.63252
支	-7.63334
少	-7.63658
这	-7.64009
共	-7.64149
团	-7.64396
50	-7.64476
北京	-7.64513
专	-7.64684
音	-7.64689
火	-7.6483
还	-7.64953
具	-7.65016
市场	-7.65353
较	-7.6586
说	-7.65916
收	-7.65973
卡	-7.65976
月	-7.66197
编	-7.66258
以及	-7.66449
爱	-7.66478
青	-7.66575
布	-7.66633
修	-7.66668
深	-7.66823
初	-7.66843
第	-7.67089
治	-7.67174
球	-7.67508
使用	-7.68033
九	-7.68286
单	-7.68374
联	-7.68384
双	-7.68864
见	-7.68938
武	-7.69628
感	-7.69642
园	-7.69681
地区	-7.70049
料	-7.70177
环境	-7.70296
密	-7.70374
神	-7.7117
世	-7.71327
保	-7.71377
香	-7.71576
件	-7.71709
学生	-7.71842
成为	-7.72007
18	-7.7201
),	-7.72177
委	-7.72487
兴	-7.72555
温	-7.73085
直	-7.73532
太	-7.73651
网络	-7.7368
声	-7.73821
诗	-7.73822
农	-7.73969
六	-7.74011
义	-7.74035
每	-7.74077
户	-7.74092
放	-7.74292
压	-7.74375
关	-7.75181
板	-7.75855
导	-7.75876
周	-7.76525
拥有	-7.76587
政府	-7.77023
味	-7.77123
又	-7.7753
兰	-7.77727
优	-7.7819
项	-7.78275
展	-7.78282
生活	-7.78357
边	-7.78658
解	-7.78759
科学	-7.78869
汉	-7.79007
楼	-7.79226
条	-7.79411
功能	-7.79612
格	-7.80242
真	-7.80275
16	-7.8045
男	-7.80953
改	-7.81159
别	-7.81207
然	-7.81245
作品	-7.81355
草	-7.81392
标准	-7.81488
把	-7.81518
配	-7.81772
土	-7.81945
程	-7.82797
论	-7.83106
我们	-7.83334
美国	-7.83341
表	-7.83413
七	-7.83503
,以	-7.83559
你	-7.83744
工业	-7.83838
集团	-7.83878
曲	-7.8401
连	-7.84176
政	-7.848
优秀	-7.84895
建筑	-7.85032
率	-7.85071
行业	-7.85275
复	-7.85293
考	-7.85492
即	-7.85682
界	-7.85739
景	-7.8585
罗	-7.85996
活动	-7.86083
教师	-7.86276
剧	-7.86354
食	-7.86418
资	-7.86614
血	-7.86637
史	-7.87106
千	-7.87159
宝	-7.87603
均	-7.88015
先	-7.88113
上海	-7.88311
官	-7.88412
切	-7.88488
届	-7.88532
游	-7.88656
运	-7.88945
很	-7.88982
远	-7.89169
受	-7.89432
极	-7.89804
再	-7.89889
40	-7.9
11	-7.90205
云	-7.90434
朝	-7.9086
社	-7.90867
篇	-7.91077
居	-7.91494
源	-7.9163
果	-7.91868
微	-7.91901
抗	-7.92192
让	-7.92317
只	-7.92369
装	-7.92652
离	-7.92768
桥	-7.92885
排	-7.92899
角	-7.92964
协会	-7.93053
视	-7.93319
应用	-7.93408
给	-7.93502
办	-7.93618
80	-7.93801
族	-7.94254
端	-7.94492
权	-7.94701
1.	-7.94757
支持	-7.94824
李	-7.9489
春	-7.95075
非	-7.95157
从事	-7.95288
造	-7.9536
湖	-7.95403
系列	-7.95501
～	-7.95608
25	-7.95683
树	-7.95723
除	-7.95943
设	-7.96048
列	-7.96179
营	-7.9628
100	-7.96922
包括	-7.9694
单位	-7.96942
投资	-7.97208
章	-7.97336
则	-7.97446
引	-7.97474
打	-7.97781
今	-7.97788
酒	-7.97822
田	-7.98289
像	-7.98331
空	-7.98408
》:“	-7.98413
”。	-7.98465
客	-7.98729
品牌	-7.99427
低	-7.99433
结	-7.99434
人员	-7.99555
她	-7.99756
学习	-7.99873
词	-7.99933
半	-8.00231
获得	-8.0085
60	-8.00945
机构	-8.01064
安全	-8.0118
肉	-8.01418
14	-8.01705
超	-8.01715
皮	-8.01907
各种	-8.0191
菜	-8.0191
城市	-8.01925
看	-8.02228
写	-8.02273
参加	-8.02355
巴	-8.02614
鱼	-8.02659
反	-8.02915
时间	-8.02985
阿	-8.02986
部分	-8.03342
历史	-8.03391
目	-8.03713
宁	-8.0374
思	-8.04032
作为	-8.04079
客户	-8.04122
经营	-8.04128
公里	-8.04249
材	-8.04422
班	-8.04452
主任	-8.04459
细	-8.04614
志	-8.05051
知	-8.05061
13	-8.05136
几	-8.05204
唐	-8.05278
录	-8.05583
盐	-8.05641
务	-8.05934
标	-8.0608
钢	-8.06244
底	-8.06457
!	-8.06459
面积	-8.06468
代表	-8.0702
17	-8.07411
落	-8.07465
创	-8.07654
目前	-8.07781
卷	-8.07783
医院	-8.0797
便	-8.08026
宽	-8.08357
版	-8.08413
临	-8.08549
铁	-8.08921
成立	-8.08996
销售	-8.09016
备	-8.09178
演	-8.09304
结构	-8.09507
负责	-8.09568
自然	-8.09576
维	-8.09674
存	-8.09919
藏	-8.10256
记	-8.10449
酸	-8.10544
日本	-8.10859
方法	-8.10862
农业	-8.11137
盘	-8.11278
产业	-8.11386
教授	-8.11398
波	-8.11421
液	-8.11425
国内	-8.11652
命	-8.11797
讲	-8.12129
矿	-8.12543
人民	-8.12789
亩	-8.12905
游戏	-8.12908
材料	-8.13396
控制	-8.13435
群	-8.13586
音乐	-8.1372
儿	-8.1374
赛	-8.1381
粉	-8.13875
承	-8.13903
座	-8.13923
骨	-8.14315
酒店	-8.14449
尼	-8.14715
第二	-8.14841
兼	-8.14863
委员会	-8.14873
益	-8.14882
毛	-8.15113
歌	-8.15234
剂	-8.15396
基础	-8.15478
理论	-8.15551
中学	-8.15767
宋	-8.15875
福	-8.15926
击	-8.16004
增	-8.16218
足	-8.16222
步	-8.16225
飞	-8.16246
陈	-8.16272
同时	-8.16408
难	-8.16455
纳	-8.1668
致	-8.16713
随	-8.16789
电子	-8.16833
那	-8.17213
证	-8.17241
提	-8.17552
合作	-8.17591
吉	-8.17699
能力	-8.1771
处理	-8.18265
黑	-8.18634
7月	-8.1866
消	-8.19041
灵	-8.19076
奇	-8.19084
读	-8.19165
采用	-8.19242
刻	-8.19288
综合	-8.19351
兵	-8.19381
升	-8.19426
异	-8.19469
越	-8.1949
服	-8.19601
批	-8.19623
夫	-8.19699
著名	-8.19793
就是	-8.19846
交通	-8.19958
中的	-8.20333
岛	-8.20341
毕业于	-8.20361
短	-8.20422
包	-8.20528
先进	-8.20738
开始	-8.20756
根据	-8.20917
卫	-8.20933
其中	-8.21022
活	-8.21062
素	-8.21086
参	-8.214
往	-8.21416
笔	-8.2148
言	-8.21567
普	-8.21603
堂	-8.21687
样	-8.21702
环	-8.21898
资源	-8.22226
先后	-8.22257
库	-8.22283
英	-8.22312
其他	-8.2246
,但	-8.22524
创新	-8.22567
软件	-8.22636
岁	-8.22707
馆	-8.22716
话	-8.22852
富	-8.23014
广	-8.23064
段	-8.23369
”的	-8.23438
培训	-8.23447
街	-8.23465
厚	-8.23593
厅	-8.2368
后,	-8.23877
苏	-8.23885
沙	-8.2392
容	-8.24014
照	-8.24036
采	-8.24144
载	-8.24175
养	-8.24191
丽	-8.24203
值	-8.24242
育	-8.2425
失	-8.24514
眼	-8.24573
学会	-8.24713
:“	-8.24788
核	-8.2496
旅游	-8.25106
股	-8.25268
作用	-8.2555
永	-8.25596
领	-8.25624
它	-8.25655
典	-8.25708
24	-8.2596
——	-8.26001
—	-8.26179
等。	-8.26236
松	-8.26322
9月	-8.26399
提高	-8.26411
丝	-8.26493
根	-8.26511
规划	-8.26525
庄	-8.26556
快	-8.26582
想	-8.26632
茶	-8.26741
著	-8.26747
求	-8.26748
业务	-8.26985
套	-8.27184
留	-8.27241
距	-8.27302
科研	-8.27329
陆	-8.27401
店	-8.27641
走	-8.27821
射	-8.28168
散	-8.28237
问题	-8.28317
基本	-8.28427
”,	-8.28715
岩	-8.28752
,为	-8.28832
模	-8.2901
现代	-8.29334
机械	-8.29484
方式	-8.29624
玉	-8.29937
鲜	-8.29975
易	-8.30041
审	-8.30065
博	-8.30141
助	-8.30226
历	-8.30336
?	-8.3059
中央	-8.30679
送	-8.30718
内容	-8.30732
。在	-8.30761
辖	-8.30808
人口	-8.30855
文学	-8.30914
为主	-8.30916
注	-8.31531
款	-8.3167
12月	-8.31767
侧	-8.31936
8月	-8.32019
不断	-8.32072
块	-8.32185
分析	-8.32445
方面	-8.32511
毕业	-8.32659
但	-8.32683
组成	-8.33123
评	-8.33154
题	-8.33404
加工	-8.33422
社区	-8.33884
止	-8.34006
×	-8.34124
货	-8.34129
重点	-8.3414
一般	-8.34238
派	-8.34396
专家	-8.34489
依	-8.34506
部门	-8.34852
故	-8.3507
人才	-8.35125
且	-8.35336
案	-8.35462
生物	-8.35519
保护	-8.35523
用户	-8.35832
,而	-8.35886
小学	-8.35904
影响	-8.36129
整	-8.36189
计	-8.36212
众	-8.36256
指导	-8.36291
供	-8.3632
甲	-8.36532
领导	-8.36563
护	-8.36971
塔	-8.37103
10月	-8.37437
顶	-8.37451
含	-8.37664
制造	-8.3769
没有	-8.37717
高级	-8.37785
彩	-8.37836
医	-8.37893
印	-8.37899
亲	-8.37998
牌	-8.3814
不同	-8.38252
,其中	-8.38526
夏	-8.38549
伤	-8.38647
500	-8.38667
领域	-8.38706
治疗	-8.38766
以上	-8.38775
未	-8.38815
”、“	-8.39015
轻	-8.39029
效	-8.39208
刘	-8.39521
川	-8.39532
测	-8.39591
他们	-8.4014
封	-8.40307
实现	-8.4034
冷	-8.4034
康	-8.40364
象	-8.40475
独	-8.40693
住	-8.40762
预	-8.4081
制作	-8.40934
友	-8.40951
职业	-8.41009
美术	-8.41066
)。	-8.41202
牛	-8.41333
电视	-8.41403
世纪	-8.41484
氏	-8.41526
菌	-8.41543
运动	-8.41545
害	-8.41575
植物	-8.41722
经验	-8.41756
学术	-8.41767
影	-8.41822
用于	-8.41853
雅	-8.42278
聚	-8.42468
述	-8.42649
令	-8.42652
泉	-8.42741
附	-8.42833
察	-8.42835
出版	-8.42927
销	-8.42971
工艺	-8.4298
补	-8.42989
州市	-8.43265
末	-8.43271
才	-8.433
传统	-8.43319
有关	-8.43415
卫生	-8.43692
平台	-8.44048
行政	-8.44467
佛	-8.4456
大型	-8.4456
费	-8.4457
例	-8.44595
份	-8.44754
数据	-8.4513
按	-8.45171
医学	-8.45328
论文	-8.45446
需要	-8.45552
厘米	-8.45559
仪	-8.45728
形成	-8.46061
6月	-8.46122
圆	-8.46179
司	-8.46234
相关	-8.46453
试	-8.46629
寺	-8.46734
盛	-8.46865
死	-8.47019
政治	-8.472
换	-8.47258
港	-8.47311
纪	-8.4737
要求	-8.47373
亦	-8.4741
泰	-8.47412
3月	-8.47456
顺	-8.47476
查	-8.47495
委员	-8.47552
,有	-8.47764
母	-8.47887
28	-8.48132
由于	-8.48276
成立于	-8.48439
势	-8.48611
宗	-8.48677
艺	-8.48736
豆	-8.49005
模式	-8.49109
现有	-8.4918
35	-8.49382
银	-8.49472
利用	-8.49689
胜	-8.50019
杀	-8.50116
症	-8.50143
汇	-8.50391
京	-8.50403
占	-8.50433
激	-8.5057
,其	-8.50579
自己	-8.50582
功	-8.50667
奥	-8.50698
汽车	-8.50723
托	-8.50762
礼	-8.50769
贵	-8.5098
精神	-8.50995
置	-8.51074
锅	-8.51175
关系	-8.51545
却	-8.51729
完成	-8.51776
昌	-8.51838
纸	-8.51855
速	-8.52183
宫	-8.52686
5月	-8.52734
控	-8.52796
70	-8.52933
限	-8.52997
鲁	-8.5322
祖	-8.5378
胶	-8.5384
汤	-8.53889
纹	-8.54028
会员	-8.54028
结合	-8.54098
距离	-8.54169
绝	-8.54209
发表	-8.54225
书法	-8.54314
设施	-8.54432
圣	-8.54468
属于	-8.54527
待	-8.5458
收入	-8.54637
26	-8.54685
轮	-8.54791
电影	-8.55246
糖	-8.55272
您	-8.55315
守	-8.55358
特色	-8.55417
健康	-8.55698
网站	-8.55794
时,	-8.55802
帝	-8.5586
冲	-8.55882
钱	-8.55976
第三	-8.56199
接口	-8.56293
商业	-8.56428
鸡	-8.56559
1月	-8.56902
规	-8.5692
基地	-8.56961
之间	-8.57024
实施	-8.57258
紧	-8.57286
化学	-8.57306
积	-8.57311
个人	-8.57335
孔	-8.57377
望	-8.57441
4月	-8.57449
溪	-8.57485
硬	-8.57502
中文	-8.57734
早	-8.57846
野	-8.57847
这个	-8.57905
本书	-8.58001
归	-8.58005
00	-8.58088
毒	-8.58137
11月	-8.58285
威	-8.58301
也是	-8.58304
码	-8.58376
纯	-8.58409
食品	-8.58435
香港	-8.58525
术	-8.5854
*	-8.58541
知识	-8.58636
善	-8.5866
成果	-8.58676
22	-8.58702
虫	-8.58721
研发	-8.58767
丰	-8.58772
革命	-8.58819
学历	-8.5888
季	-8.59047
久	-8.59384
航	-8.59495
注册	-8.59547
水平	-8.5958
公里,	-8.59647
雄	-8.59688
称为	-8.59822
尽	-8.5987
2006年	-8.59893
耳	-8.60042
征	-8.60237
全面	-8.60311
峰	-8.60322
--	-8.60339
绿	-8.60345
湿	-8.60411
弹	-8.60429
府	-8.60496
加入	-8.60501
地方	-8.60581
庆	-8.60653
+	-8.60757
招	-8.60769
饰	-8.60986
最大	-8.6105
杨	-8.6108
似	-8.61131
良	-8.61146
副主任	-8.61217
书画	-8.61281
雷	-8.61382
分钟	-8.61386
32	-8.61934
固	-8.61957
23	-8.61959
谷	-8.62004
架	-8.62017
粒	-8.62122
珠	-8.62207
梁	-8.62251
洋	-8.6232
缘	-8.62367
90	-8.62388
操作	-8.62478
小说	-8.625
培养	-8.62545
价	-8.62855
特点	-8.62872
21	-8.62894
静	-8.62979
山东	-8.63028
发生	-8.63034
2008年	-8.6322
已经	-8.63228
我国	-8.63245
延	-8.63427
建立	-8.63487
性能	-8.63542
范围	-8.63702
秋	-8.63757
会议	-8.6397
谓	-8.64023
烧	-8.64133
办公室	-8.64148
,使	-8.64279
联合	-8.64527
》等	-8.64528
研究生	-8.64539
2007年	-8.64815
熟	-8.65006
断	-8.65034
籍	-8.65065
自动	-8.65078
仅	-8.65097
许	-8.65286
脉	-8.65302
警	-8.65347
洲	-8.6546
序	-8.65463
情况	-8.65481
财	-8.65492
交流	-8.65509
阴	-8.65687
)、	-8.6569
成功	-8.65702
叫	-8.65783
膜	-8.65832
刊	-8.6586
船	-8.65912
青年	-8.66051
宜	-8.66252
计划	-8.66393
类型	-8.66416
:1	-8.66512
降	-8.66574
研	-8.66723
所有	-8.66733
000	-8.66748
盖	-8.66755
扬	-8.66802
邻	-8.66813
2010年	-8.66849
工作。	-8.66857
呈	-8.66934
人民政府	-8.67058
统	-8.6708
镜	-8.6712
炎	-8.67258
满	-8.67333
2009年	-8.67557
政策	-8.67566
吴	-8.67579
经过	-8.67627
广州	-8.67728
开展	-8.67847
痛	-8.67905
达到	-8.67929
目标	-8.67971
认	-8.67984
晋	-8.68199
齐	-8.68235
嘉	-8.68369
临床	-8.68465
灯	-8.68612
得到	-8.6863
万元	-8.68766
二十	-8.68829
改革	-8.68838
人物	-8.68851
博士	-8.68939
额	-8.68969
优质	-8.69042
检	-8.69048
显	-8.69101
民族	-8.69103
理事	-8.69236
核心	-8.69462
担任	-8.69563
梅	-8.69647
27	-8.69793
法律	-8.69818
思想	-8.69831
们	-8.69888
洛	-8.70003
之一。	-8.70048
址	-8.70123
差	-8.70159
蓝	-8.70209
坚持	-8.70371
箱	-8.70401
2005年	-8.705
据	-8.70588
平方米	-8.70688
计算机	-8.70736
麻	-8.7085
生,	-8.70871
舞	-8.70941
终	-8.71092
体育	-8.71138
构	-8.71148
境	-8.71151
各类	-8.71197
税	-8.71223
作者	-8.71294
体系	-8.71295
丁	-8.71352
劳动	-8.71372
仁	-8.71453
,也	-8.71489
横	-8.71517
理念	-8.71577
中,	-8.71581
尚	-8.71582
创作	-8.71726
背	-8.71746
麦	-8.71804
品种	-8.71896
胡	-8.72146
是指	-8.72186
移	-8.72232
透	-8.72287
投	-8.7232
诸	-8.72327
时期	-8.72443
烟	-8.72531
简	-8.72753
探	-8.72812
洞	-8.7288
价值	-8.72924
佳	-8.73003
伊	-8.73056
始	-8.73175
45	-8.73468
一种	-8.73541
为了	-8.73636
医疗	-8.73648
遗	-8.73727
岸	-8.73774
出现	-8.73776
必	-8.738
互	-8.73805
是一个	-8.74153
丹	-8.74204
商务	-8.74232
浙江	-8.74238
现在	-8.74265
认证	-8.74299
语言	-8.74341
,他	-8.74349
300	-8.74484
瑞	-8.74518
-1	-8.74653
算	-8.7467
方向	-8.74684
旅	-8.74704
唱	-8.74732
参与	-8.74739
若	-8.7478
产生	-8.75018
亮	-8.75052
穿	-8.75155
多年	-8.75175
皇	-8.75208
竹	-8.7532
沿	-8.75369
域	-8.75413
监	-8.75471
一定	-8.75495
净	-8.755
积极	-8.75596
发现	-8.75761
软	-8.75773
床	-8.75817
台湾	-8.75822
名称	-8.75871
自己的	-8.75904
登	-8.75912
因为	-8.7593
事业	-8.75935
研究所	-8.75949
举	-8.75961
荣	-8.76007
繁	-8.76164
课	-8.76305
衣	-8.76317
监督	-8.76445
耐	-8.76724
广大	-8.76845
是由	-8.76998
2004年	-8.77125
亩,	-8.7716
2000	-8.77199
确	-8.77526
洗	-8.77709
中华	-8.77759
围	-8.77788
规模	-8.77841
故事	-8.77863
这种	-8.78094
请	-8.78183
......	-8.78196
启	-8.78242
融	-8.78266
2月	-8.78296
多次	-8.78307
雨	-8.78443
咨询	-8.78471
紫	-8.78475
夜	-8.78505
晚	-8.78554
欧	-8.78606
某	-8.78687
之一	-8.78707
400	-8.78756
一些	-8.78868
,不	-8.78964
两个	-8.79206
协	-8.79415
课程	-8.79488
介绍	-8.79533
秀	-8.79608
区域	-8.79641
授	-8.79721
长期	-8.8009
重要	-8.80142
急	-8.8016
杂	-8.80293
推	-8.80352
烈	-8.80365
苦	-8.80375
分别	-8.80383
何	-8.80422
旧	-8.80431
文件	-8.80437
出生	-8.80447
滑	-8.80511
生于	-8.80544
南京	-8.80559
,由	-8.80691
实验	-8.80725
主持	-8.80746
习	-8.80791
梦	-8.80802
独立	-8.80864
条件	-8.8102
陵	-8.81193
的发展	-8.81199
动物	-8.81257
俗	-8.81491
蒙	-8.81513
润	-8.8154
充	-8.8155
攻	-8.81662
现任	-8.81705
一直	-8.81809
购	-8.82016
好的	-8.82027
径	-8.82057
孙	-8.82064
人的	-8.82128
银行	-8.82186
这些	-8.82242
哈	-8.82304
绘	-8.82353
晶	-8.82365
雕	-8.82392
乌	-8.82424
显示	-8.82439
救	-8.82488
沟	-8.82507
尺寸	-8.82577
健	-8.82628
2003年	-8.8281
释	-8.82852
倒	-8.82854
仙	-8.82866
=	-8.82924
泽	-8.82952
姓	-8.83133
至今	-8.83143
选择	-8.83344
执行	-8.83357
中共	-8.83407
息	-8.83414
铜	-8.8342
频	-8.83435
出版社	-8.83501
宣传	-8.83702
种植	-8.83919
些	-8.83938
伯	-8.83945
示	-8.83988
肥	-8.84061
铁路	-8.84157
本科	-8.84213
年代	-8.84214
正式	-8.84306
范	-8.84474
墨	-8.84703
伦	-8.8476
因此	-8.84794
腹	-8.84802
效果	-8.84822
贝	-8.84874
完善	-8.84944
缩	-8.84946
瓦	-8.84961
天津	-8.85006
多种	-8.85032
员工	-8.85226
丰富	-8.85273
29	-8.85433
形式	-8.85461
有效	-8.85543
寿	-8.85615
雪	-8.85672
惠	-8.85745
泥	-8.85801
努力	-8.85857
文明	-8.86003
》(	-8.86148
的一种	-8.86409
细胞	-8.8648
年)	-8.86509
农村	-8.86657
促进	-8.86695
继	-8.86895
检测	-8.86903
井	-8.86921
特别	-8.86942
枝	-8.87
巨	-8.87013
票	-8.87018
时代	-8.87144
被评为	-8.87338
吸	-8.87354
态	-8.87427
迁	-8.87469
魔	-8.87572
尾	-8.87648
听	-8.87765
怀	-8.87809
左右	-8.87837
学科	-8.88024
潮	-8.88061
职工	-8.88132
,可	-8.88172
▁公司	-8.88185
疾病	-8.882
萨	-8.88202
共同	-8.88311
工作,	-8.88321
金属	-8.88384
议	-8.88417
杂志	-8.88434
生态	-8.88457
实践	-8.8862
2002年	-8.88664
广西	-8.8873
位置	-8.88738
品质	-8.88772
进入	-8.88944
非常	-8.89024
姜	-8.89058
刺	-8.89111
的“	-8.89172
途	-8.89225
破	-8.89355
饮	-8.894
33	-8.89484
诚	-8.8958
溶	-8.89767
煤	-8.8981
灰	-8.89868
零	-8.89872
柱	-8.9
塑	-8.90013
四川	-8.90027
索	-8.90041
风格	-8.90101
吃	-8.90103
。《	-8.90107
虚	-8.90156
人们	-8.90221
营销	-8.90381
靠	-8.90405
山东省	-8.90441
需	-8.90459
新闻	-8.90561
。公司	-8.90719
损	-8.90876
下,	-8.90929
壮	-8.90976
愿	-8.91043
技	-8.91159
参数	-8.91227
塞	-8.91317
诺	-8.91507
施	-8.91519
驻	-8.91642
折	-8.9172
全球	-8.91782
鸟	-8.91805
是一种	-8.91837
小时	-8.92031
减	-8.92032
广泛	-8.92067
冰	-8.92245
刀	-8.92299
,男,	-8.92312
800	-8.92392
制度	-8.92444
98	-8.92463
朱	-8.92738
喜	-8.92847
建筑面积	-8.92914
炒	-8.93024
的一个	-8.9314
壁	-8.93169
略	-8.93254
岗	-8.93336
需求	-8.93429
上的	-8.93528
英语	-8.93528
脱	-8.93608
持	-8.93618
方便	-8.93645
干部	-8.93648
洪	-8.93819
君	-8.93824
遇	-8.93941
执	-8.9407
绿色	-8.94215
东北	-8.94288
受到	-8.94385
36	-8.94435
》,	-8.94636
34	-8.9465
徐	-8.94687
安装	-8.94795
批准	-8.94951
脚	-8.95014
600	-8.95165
致力于	-8.95215
斗	-8.95217
打造	-8.95297
尤	-8.9533
莱	-8.95362
西南	-8.95407
屏	-8.95408
凤	-8.95482
严	-8.95496
猪	-8.95698
一次	-8.95796
邮	-8.96047
>	-8.9605
不能	-8.96051
普通	-8.96264
金融	-8.96274
错	-8.96335
练	-8.96451
广东	-8.96686
施工	-8.96693
乳	-8.96796
国内外	-8.96831
稳定	-8.9684
觉	-8.96927
知名	-8.96975
东南	-8.97056
杯	-8.97112
实际	-8.97324
杰	-8.97398
宣	-8.97437
识	-8.97443
洁	-8.97533
2011年	-8.9762
英国	-8.97647
智	-8.97778
表现	-8.97793
公路	-8.97822
他的	-8.97994
准	-8.98278
浓	-8.98298
既	-8.98431
恩	-8.98456
岭	-8.9847
2000年	-8.98587
空间	-8.98646
插	-8.9865
农民	-8.98732
湾	-8.98764
冬	-8.98778
2001年	-8.9892
左	-8.98973
誉	-8.98973
硕士	-8.98974
战略	-8.98977
规范	-8.99012
1000	-8.99014
负	-8.99097
旋	-8.99238
创造	-8.9926
推广	-8.99268
公园	-8.99336
迹	-8.9954
是一家	-8.99573
比较	-8.9959
妇	-8.99598
牙	-8.99762
脑	-8.99777
敌	-8.99904
海拔	-8.99959
直接	-8.99973
拟	-9.00219
曰	-9.00245
多个	-9.00277
75	-9.00334
分子	-9.00339
分为	-9.00724
突	-9.00778
哥	-9.00823
家庭	-9.00889
适	-9.00967
武汉	-9.00995
幼	-9.01025
提出	-9.01029
过程	-9.01046
规定	-9.01261
。该	-9.01278
缺	-9.01305
磁	-9.01374
,即	-9.01399
西北	-9.01447
心理	-9.01481
可能	-9.01716
争	-9.01719
物理	-9.0184
地处	-9.01872
31	-9.02016
战争	-9.02113
占地面积	-9.02122
薄	-9.02131
尖	-9.02162
钟	-9.02183
找	-9.02193
97	-9.02218
裂	-9.02266
隔	-9.02306
圈	-9.02398
,它	-9.02438
资产	-9.0252
江苏	-9.02575
电源	-9.02679
如果	-9.02696
先生	-9.02746
优势	-9.02841
秘	-9.02865
坚	-9.02908
赵	-9.03072
奉	-9.03145
病毒	-9.03194
腐	-9.03274
甘	-9.03282
最高	-9.03294
碑	-9.03334
资料	-9.03477
简称	-9.03484
还有	-9.03542
婚	-9.03557
广东省	-9.0364
99	-9.03772
壳	-9.0387
湖南	-9.0394
机关	-9.03957
进步	-9.03972
期间	-9.03995
墙	-9.0412
能够	-9.04186
庙	-9.04218
勤	-9.04242
。他	-9.04263
扩	-9.04307
葱	-9.04436
化工	-9.04546
价格	-9.0456
宾	-9.04568
株	-9.04625
许多	-9.0463
出生,	-9.04667
露	-9.0485
墓	-9.04861
参加工作	-9.04935
团队	-9.04988
贴	-9.05074
摩	-9.05091
最大的	-9.05279
程序	-9.05335
德国	-9.0535
磨	-9.05392
一起	-9.05392
宗旨	-9.05411
大量	-9.05468
贸易	-9.05469
趣	-9.05472
办公	-9.05522
旗	-9.05587
95	-9.05611
~	-9.05626
屋	-9.05657
针	-9.05824
试验	-9.05827
成员	-9.05865
平方米,	-9.05982
羊	-9.06042
闻	-9.06088
册	-9.06132
退	-9.06177
广告	-9.06274
订	-9.0634
恶	-9.06344
放入	-9.0641
池	-9.06464
隆	-9.06497
振	-9.06527
及其	-9.06655
介	-9.06668
温度	-9.06687
基金	-9.06844
关于	-9.0689
连续	-9.06966
,对	-9.06986
瓜	-9.06993
劳	-9.07034
泡	-9.07089
环保	-9.07174
省级	-9.07186
称号	-9.07273
丰富的	-9.07277
贸	-9.07331
山区	-9.07399
为“	-9.07425
播	-9.07462
寒	-9.0751
父	-9.07512
电脑	-9.07538
桃	-9.07555
1998年	-9.07596
教材	-9.07622
曾任	-9.07654
兽	-9.07748
坐	-9.07751
肝	-9.0777
秦	-9.07801
珍	-9.0781
享	-9.07887
发行	-9.07901
全村	-9.07921
党员	-9.07928
苗	-9.07971
鼓	-9.07979
刚	-9.08073
荷	-9.08185
河南	-9.08257
变化	-9.08305
律	-9.08647
私	-9.08685
分布	-9.0887
昆	-9.09023
村委会	-9.0907
帮助	-9.09073
-19	-9.09086
聘	-9.09116
淡	-9.09272
之后	-9.09335
县城	-9.09383
认为	-9.094
荣获	-9.09403
残	-9.09623
潜	-9.09655
勒	-9.09696
装饰	-9.1003
秘书	-9.10297
儿童	-9.10359
资金	-9.10462
存在	-9.10568
戏	-9.10596
沉	-9.10664
900	-9.10799
阻	-9.10809
配套	-9.10841
肠	-9.10853
爆	-9.10868
江苏省	-9.10893
纵	-9.10968
疗	-9.11032
这里	-9.11103
慢	-9.11106
隐	-9.11135
辞	-9.11163
地理	-9.11389
涂	-9.11442
视频	-9.11654
这一	-9.11677
卖	-9.11714
第四	-9.11799
桂	-9.11806
都是	-9.11834
运行	-9.11873
增加	-9.11963
的研究	-9.12063
独特	-9.1209
出口	-9.12095
齿	-9.12224
,如	-9.12371
贡献	-9.12385
其它	-9.12444
...	-9.12537
右	-9.12646
尊	-9.1271
48	-9.12866
英文	-9.12907
出生于	-9.12911
设有	-9.13175
译	-9.13267
名。	-9.13507
名:	-9.13535
课题	-9.13535
行为	-9.13555
之一,	-9.13586
贯	-9.13612
坡	-9.13664
表面	-9.13773
十二	-9.13786
十分	-9.13834
土地	-9.13953
乃	-9.14151
娱乐	-9.14271
,同时	-9.14272
办学	-9.14406
问	-9.14462
亿元	-9.14486
任务	-9.14492
济	-9.14505
交易	-9.14533
舍	-9.14617
//	-9.14702
停	-9.14713
锦	-9.1472
素质	-9.1474
历任	-9.15028
莫	-9.15047
乙	-9.15071
保证	-9.15105
皆	-9.15193
琴	-9.15238
满足	-9.15246
判	-9.15331
类型:	-9.15399
盟	-9.15418
驱	-9.15487
。其	-9.15512
良好的	-9.15548
焦	-9.15698
塘	-9.15704
宿	-9.15736
谢	-9.15872
医药	-9.15885
书记	-9.15921
2-	-9.1605
乘	-9.16155
敏	-9.16208
植	-9.16243
赏	-9.1627
阀	-9.16275
代理	-9.16301
38	-9.16353
剑	-9.16355
44	-9.16463
1999年	-9.16484
,主要	-9.16503
当代	-9.16558
轴	-9.1663
85	-9.16675
示范	-9.16765
完全	-9.16775
中医	-9.16841
谈	-9.16863
漫	-9.16884
时尚	-9.16892
平均	-9.16907
遍	-9.16958
-2	-9.17026
挂	-9.17056
炉	-9.17291
编辑	-9.17329
速度	-9.17391
困	-9.17394
追	-9.17612
会计	-9.17709
浙江省	-9.17759
寻	-9.17783
页	-9.17839
解决	-9.17854
仍	-9.17873
实验室	-9.17876
燃	-9.17954
法国	-9.17968
假	-9.18034
运输	-9.1807
描述	-9.18172
数字	-9.18204
1997年	-9.18237
容量	-9.18334
宇	-9.18403
工具	-9.18532
,从	-9.18575
虎	-9.18587
,又	-9.18632
特殊	-9.18794
枪	-9.18846
或者	-9.18899
浪	-9.18911
创办	-9.19066
粗	-9.19081
续	-9.19123
煮	-9.19191
肌	-9.19246
脂	-9.19264
65	-9.19274
0.0	-9.19338
灌	-9.19401
冠	-9.19421
念	-9.19546
加入中国共产党	-9.19578
砂	-9.19631
快速	-9.19701
,中国	-9.19717
原料	-9.19746
现代化	-9.19777
谱	-9.19833
授予	-9.20118
奏	-9.20328
1996年	-9.20415
当时	-9.2046
主义	-9.20514
安徽	-9.20517
院长	-9.20881
物质	-9.20957
白色	-9.20959
幅	-9.21096
▁《	-9.21226
屏幕	-9.21247
跨	-9.21256
电池	-9.21273
,将	-9.21426
智能	-9.21448
储	-9.21452
韩	-9.21458
新的	-9.21553
杭州	-9.21606
赤	-9.21626
柔	-9.21649
划	-9.21659
谋	-9.21778
杜	-9.21783
包装	-9.2179
成都	-9.21842
希	-9.21849
》。	-9.21856
浅	-9.21944
陶	-9.21982
臣	-9.22039
汁	-9.22074
群众	-9.22143
是在	-9.22151
殿	-9.22205
数学	-9.22307
作家	-9.2236
》是	-9.22372
师范大学	-9.225
形象	-9.22538
全部	-9.22674
即可	-9.22677
染	-9.22694
讨	-9.22709
休闲	-9.22771
蒸	-9.22773
莲	-9.2279
赢	-9.22806
特征	-9.22917
出了	-9.22926
第十	-9.22998
保障	-9.23042
万元,	-9.23099
加强	-9.23139
四川省	-9.2317
街道	-9.23236
迪	-9.23313
诊	-9.23319
柳	-9.23365
宏	-9.23457
浦	-9.2348
档	-9.23514
营养	-9.23525
国家级	-9.23635
对于	-9.23687
稻	-9.23763
不仅	-9.23772
句	-9.23785
灾	-9.23804
最后	-9.23874
电力	-9.23885
这样	-9.23898
唯一	-9.23938
河南省	-9.23967
以来	-9.23999
传播	-9.2412
96	-9.24122
1995年	-9.24185
▁2.	-9.2424
斑	-9.24278
目的	-9.24337
什么	-9.24407
是中国	-9.24411
86	-9.24418
阳市	-9.2442
丛	-9.24462
付	-9.24506
校园	-9.24514
恒	-9.24721
一级	-9.24742
郑	-9.24751
贫	-9.24795
2012年	-9.24902
浮	-9.24922
的专业	-9.24988
欧洲	-9.25062
平方公里,	-9.25066
响	-9.25109
,这	-9.25312
键	-9.25385
坝	-9.25457
队伍	-9.2548
以下	-9.25513
凡	-9.25538
过程中	-9.25546
完	-9.25616
引起	-9.25674
人类	-9.2572
解放	-9.25733
御	-9.25741
孩子	-9.25818
按照	-9.25844
保险	-9.25906
先进的	-9.2591
37	-9.26008
三年	-9.26035
卵	-9.26043
毫米	-9.26088
暗	-9.26149
’	-9.2618
售	-9.26251
演员	-9.26349
输入	-9.26352
承担	-9.26378
力量	-9.26419
胃	-9.26475
羽	-9.26605
又称	-9.26619
这是	-9.2669
190	-9.26795
迷	-9.26894
统一	-9.26922
郎	-9.27096
河北	-9.27143
锡	-9.27145
充分	-9.27174
古代	-9.27197
三个	-9.27221
於	-9.27293
工商	-9.27328
喷	-9.27385
..	-9.27397
怪	-9.27504
借	-9.27647
仓	-9.27889
亭	-9.27908
连接	-9.27913
简单	-9.27923
地质	-9.27935
测试	-9.27936
圆形	-9.27941
1993年	-9.27956
决	-9.28053
摄影	-9.28239
囊	-9.28499
决定	-9.28659
坦	-9.28663
湖北	-9.28767
保持	-9.2889
弟	-9.29021
伟	-9.29045
励	-9.29078
突出	-9.29118
自治区	-9.2919
,故	-9.29215
87	-9.29227
北京市	-9.29235
现为	-9.293
生命	-9.29345
腔	-9.29391
共有	-9.29491
1个	-9.29511
考试	-9.297
并且	-9.29749
螺	-9.29791
超过	-9.29859
55	-9.29871
很多	-9.29967
占地	-9.30014
上海市	-9.30021
勇	-9.3007
的重要	-9.30216
1992年	-9.30218
闭	-9.30251
°	-9.30265
通常	-9.30304
堡	-9.30359
肾	-9.30387
督	-9.30467
乱	-9.30526
商品	-9.30536
重庆	-9.30551
跟	-9.30661
反应	-9.30958
链	-9.30973
顿	-9.31033
竞争	-9.31042
适合	-9.31043
窗	-9.311
崇	-9.31242
津	-9.31284
福建省	-9.31297
忠	-9.31298
魏	-9.31302
比赛	-9.31339
随着	-9.31387
否	-9.314
危	-9.31417
天然	-9.31608
举办	-9.3164
设立	-9.31644
告	-9.31694
实用	-9.31762
调查	-9.3181
签	-9.31847
西安	-9.31978
玩	-9.32064
败	-9.3207
曼	-9.32181
不可	-9.32262
楚	-9.32311
高中	-9.32333
表示	-9.32345
酱	-9.32355
神经	-9.32409
倍	-9.32444
。它	-9.32524
庭	-9.32638
疑	-9.32697
创建	-9.3274
输出	-9.32748
大小	-9.32795
贵州	-9.32816
名为	-9.32832
广场	-9.32878
起来	-9.32915
凉	-9.32933
公元	-9.32949
成绩	-9.33004
姆	-9.33064
统计	-9.33075
各地	-9.33346
胸	-9.33444
弱	-9.33526
公共	-9.33708
°C	-9.33739
居民	-9.33781
喜欢	-9.33838
署	-9.33844
碎	-9.33885
祥	-9.33945
辛	-9.33963
开放	-9.34074
最佳	-9.34098
1994年	-9.34202
废	-9.34202
罪	-9.34263
委会	-9.34265
2.0	-9.34301
席	-9.34308
中共党员	-9.34402
赞	-9.3446
韩国	-9.34493
龄	-9.34497
主席	-9.34502
150	-9.34598
64	-9.34616
汉族	-9.34745
手机	-9.34776
云南	-9.348
物流	-9.34869
灭	-9.34884
诚信	-9.34901
1984年	-9.34919
深圳	-9.34949
广播	-9.34956
设置	-9.34974
媒体	-9.34997
&	-9.35051
民间	-9.35087
缓	-9.35111
提升	-9.3512
只有	-9.35144
必须	-9.35148
一样	-9.35662
固定	-9.35669
翻	-9.35733
重大	-9.35753
策划	-9.35811
朋友	-9.35858
众多	-9.35921
二等奖	-9.35973
建成	-9.36136
道路	-9.36138
94	-9.36162
检查	-9.36247
顾	-9.36295
为一体的	-9.36354
蛋白	-9.36375
杆	-9.36406
88	-9.36469
仪器	-9.36475
粘	-9.36489
机场	-9.36592
外科	-9.36632
训练	-9.36639
没	-9.36727
吧	-9.36741
‘	-9.36772
一条	-9.36834
饭	-9.36837
推出	-9.36938
以来,	-9.3694
安徽省	-9.36963
状态	-9.37051
适应	-9.37063
来自	-9.37112
玻璃	-9.37173
筹	-9.3721
鉴	-9.37234
炮	-9.37251
福建	-9.37255
政协	-9.37268
(今	-9.37278
亿	-9.37391
革	-9.37408
收藏	-9.37439
享受	-9.37448
整个	-9.37452
森	-9.37491
予	-9.37662
餐	-9.37888
移动	-9.37913
财政	-9.37917
专辑	-9.38067
敬	-9.38101
主编	-9.38105
航空	-9.38154
貌	-9.38176
埃	-9.38248
1.5	-9.38347
芯片	-9.38437
炼	-9.38476
计算	-9.38552
疏	-9.38597
触	-9.38645
还是	-9.38681
制定	-9.38819
城区	-9.38926
通信	-9.39021
滨	-9.39096
奋	-9.39098
茎	-9.39207
铺	-9.39212
顾问	-9.39259
房地产	-9.39345
偏	-9.39355
览	-9.39392
召	-9.39435
保健	-9.39577
任何	-9.3958
湖北省	-9.39761
笑	-9.39801
78	-9.39829
租	-9.39841
淮	-9.39978
高度	-9.40011
装置	-9.40033
取得	-9.40084
不同的	-9.40094
高速	-9.40251
甜	-9.40285
生长	-9.40298
刑	-9.40349
未来	-9.40358
当地	-9.40395
描	-9.40461
平方公里	-9.40599
原则	-9.40643
1985年	-9.40648
滤	-9.40653
76	-9.40683
《中国	-9.40724
自由	-9.40777
市委	-9.40784
'	-9.40825
伏	-9.40968
哲学	-9.40993
纪念	-9.41109
青岛	-9.41127
纲	-9.41147
颗	-9.41272
甘肃	-9.4128
运营	-9.41341
坊	-9.41352
江西	-9.41371
丘	-9.41372
邦	-9.41402
欲	-9.4147
研究院	-9.41501
呼	-9.41512
黄色	-9.4163
明显	-9.41859
验	-9.41938
衡	-9.41996
发布	-9.41997
拍	-9.42179
图书	-9.42253
东西	-9.42268
候	-9.42347
追求	-9.42381
技能	-9.42425
66	-9.42505
碳	-9.42511
副教授	-9.42552
整体	-9.42591
景区	-9.4261
朗	-9.4263
万平方米	-9.42648
方案	-9.42831
规格	-9.43001
石油	-9.43087
读者	-9.43111
役	-9.4315
最新	-9.43248
畅	-9.43263
1988年	-9.43304
校长	-9.43354
测量	-9.43355
函	-9.43458
桑	-9.43479
纽	-9.43493
重要的	-9.4353
寨	-9.43589
湖南省	-9.43703
赋	-9.43707
电话	-9.43719
献	-9.43729
内存	-9.43756
震	-9.43831
研究会	-9.43832
一等奖	-9.43918
耗	-9.4401
协调	-9.44014
惊	-9.44036
伴	-9.44107
实力	-9.44111
具体	-9.44238
铸	-9.44245
抓	-9.44257
学者	-9.44337
误	-9.44341
垂	-9.44345
》中	-9.44517
时间:	-9.44535
合理	-9.44558
境内	-9.44589
玄	-9.44655
1990年	-9.44684
▁1.	-9.44712
维护	-9.44753
报告	-9.44759
高效	-9.44789
专利	-9.44799
齐全	-9.44803
胆	-9.44867
栏	-9.44924
分类	-9.44964
滚	-9.45006
财务	-9.45032
研究员	-9.45066
内部	-9.45122
湘	-9.45169
战斗	-9.45274
拜	-9.45328
参考	-9.45333
如何	-9.45357
幽	-9.45433
奶	-9.45451
68	-9.45511
检验	-9.45543
综合性	-9.45674
歌曲	-9.45682
压力	-9.45786
戴	-9.45805
童	-9.4585
输	-9.45931
村民	-9.45934
供应	-9.46064
严格	-9.46084
全县	-9.46096
了解	-9.46138
成长	-9.46185
伸	-9.46208
扎	-9.46317
幻	-9.46344
红色	-9.46353
始终	-9.46354
闽	-9.46439
险	-9.46451
暴	-9.46467
始建于	-9.46479
46	-9.46491
涵	-9.46588
研制	-9.46609
继续	-9.46609
市政府	-9.46727
相对	-9.46828
调整	-9.46893
运用	-9.47112
皮肤	-9.47243
概	-9.47352
褐色	-9.47354
一位	-9.47379
资本	-9.47489
访	-9.47562
消费者	-9.47628
侯	-9.47872
节目	-9.47879
师范	-9.47908
赴	-9.47912
炸	-9.47916
高校	-9.4793
文艺	-9.47935
洗净	-9.47957
阔	-9.48011
铝	-9.48159
联系	-9.48189
集成	-9.48211
吨	-9.48264
艾	-9.48343
组合	-9.48355
1986年	-9.484
制品	-9.4842
》《	-9.48431
玉米	-9.48452
1987年	-9.48462
新疆	-9.48485
裁	-9.48501
椒	-9.48538
领先	-9.48632
持续	-9.48651
。现任	-9.48651
主题	-9.48662
以“	-9.48742
犹	-9.48812
大专	-9.48826
有着	-9.4884
山西	-9.48875
斗争	-9.48997
免费	-9.49019
氧	-9.49087
黎	-9.49116
动力	-9.49192
公安	-9.49233
工程师	-9.49347
凝	-9.4938
犯	-9.49385
程度	-9.49434
责任	-9.49472
森林	-9.49484
棉	-9.49512
轨	-9.49587
蛋	-9.49596
第五	-9.49596
流行	-9.49655
委副书记	-9.49722
贤	-9.49725
县委	-9.49784
院校	-9.4986
景观	-9.49865
腺	-9.49875
总面积	-9.49924
钻	-9.49934
陕西	-9.49946
一切	-9.50029
博物馆	-9.50035
训	-9.50074
织	-9.50203
胎	-9.50299
展示	-9.5032
评为	-9.50325
禁	-9.50332
新型	-9.50376
玛	-9.50434
也有	-9.50537
买	-9.50594
渡	-9.50604
绩	-9.50633
著作	-9.50636
答	-9.50638
专门	-9.50646
结果	-9.50817
民国	-9.50878
阶	-9.50982
柏	-9.50992
39	-9.51038
医学院	-9.51068
脏	-9.51237
装备	-9.51253
常委	-9.51357
廷	-9.51431
成本	-9.51581
锋	-9.51598
郭	-9.51606
小区	-9.5175
主管	-9.51784
癌	-9.51839
诉	-9.51961
郡	-9.51985
每年	-9.52009
通讯	-9.52054
澳	-9.52105
休	-9.52118
担	-9.52131
河北省	-9.52148
旁	-9.52181
肺	-9.52193
服装	-9.522
暖	-9.52586
鼎	-9.526
(18	-9.528
1989年	-9.52812
常见	-9.52838
效益	-9.53014
幕	-9.53044
意义	-9.53051
翅	-9.53096
1991年	-9.53223
全市	-9.53262
浆	-9.53373
深入	-9.53382
阵	-9.53435
燕	-9.53515
赖	-9.53524
后来	-9.53556
引进	-9.53574
调节	-9.53745
曹	-9.53758
存储	-9.53807
无线	-9.53816
创业	-9.5386
贯彻	-9.53898
1982年	-9.53901
混	-9.53959
颜色	-9.53959
舰	-9.54038
出来	-9.54051
确定	-9.54083
牧	-9.54151
重量	-9.54189
穗	-9.54195
另	-9.54279
经典	-9.54312
妙	-9.54342
部队	-9.54352
三等奖	-9.54364
科技有限公司	-9.54392
内置	-9.54504
氧化	-9.54582
针对	-9.54615
提供了	-9.54634
仿	-9.54642
一座	-9.54661
鼻	-9.54719
捕	-9.54742
纤维	-9.54745
币	-9.54849
发挥	-9.54887
免	-9.54906
太阳	-9.54928
峡	-9.54949
信号	-9.55021
徒	-9.55059
抽	-9.55061
悬	-9.5515
演出	-9.55257
匙	-9.55287
巧	-9.55287
人士	-9.55565
焊	-9.55618
资格	-9.55622
高新技术	-9.55754
稀	-9.55759
寄	-9.55796
团体	-9.55808
编写	-9.55813
军事	-9.55856
说明	-9.55897
侵	-9.5601
方针	-9.5602
袋	-9.56091
鼠	-9.56142
公斤	-9.56185
2.5	-9.56236
文字	-9.56266
功率	-9.56374
掌	-9.56391
空气	-9.56457
配置	-9.56504
色彩	-9.56508
替	-9.56577
苏州	-9.5663
和谐	-9.56686
报》	-9.56836
评价	-9.56867
竞	-9.56924
葡萄	-9.56996
添	-9.57001
频率	-9.57096
互联网	-9.57299
感染	-9.57333
倾	-9.57339
黑色	-9.5744
每个	-9.57444
表演	-9.5749
企	-9.57495
欢迎	-9.57495
邀	-9.57544
冶	-9.5761
党委	-9.57635
更多	-9.57665
东方	-9.57751
记录	-9.5778
偶	-9.57802
电视台	-9.57825
▁3.	-9.57855
英寸	-9.57858
投入	-9.57886
造成	-9.57909
原理	-9.57924
凯	-9.57968
它们	-9.58002
渠	-9.58169
印度	-9.58181
董	-9.58248
渐	-9.5834
申	-9.58504
大赛	-9.58551
接受	-9.58579
内蒙古	-9.58671
进一步	-9.58747
▁2、	-9.58763
擅长	-9.58768
<	-9.58807
咸	-9.58825
腾	-9.58916
意大利	-9.58938
截	-9.58943
寓	-9.58991
解释	-9.59022
岳	-9.59057
腰	-9.59189
尘	-9.59313
豪	-9.59345
维修	-9.59382
坪	-9.59386
数量	-9.59405
等方面	-9.59407
养殖	-9.59439
现象	-9.59451
导演	-9.59485
浴	-9.59542
患者	-9.5956
拔	-9.59695
希望	-9.5972
槽	-9.59759
芳	-9.59773
廉	-9.59799
尺	-9.59836
建立了	-9.5998
特性	-9.6008
展览	-9.6014
阁	-9.60209
股份有限公司	-9.60307
改变	-9.60312
二级	-9.60357
家协会会员	-9.60364
的时候	-9.60407
1983年	-9.60415
菲	-9.60431
拓	-9.60496
拿	-9.60522
89	-9.6054
韵	-9.60618
稳	-9.60684
更加	-9.60721
最早	-9.60727
斜	-9.60755
电器	-9.60811
毫	-9.60811
手术	-9.60813
操	-9.60895
绪	-9.61041
概念	-9.61042
各项	-9.61108
遵	-9.61124
坛	-9.61161
殖	-9.61207
相当	-9.61216
另一	-9.61277
孝	-9.61296
专用	-9.61319
女性	-9.61418
阶段	-9.61448
进行了	-9.61614
默	-9.61647
拍摄	-9.61658
事务	-9.61695
郁	-9.61732
挑	-9.61803
醇	-9.6185
覆盖	-9.61888
尿	-9.62079
实行	-9.62203
巡	-9.62284
成熟	-9.62324
多项	-9.62429
卜	-9.62491
迅速	-9.62546
职称	-9.62652
推动	-9.62753
适用于	-9.62761
药物	-9.62828
幼儿园	-9.62852
构成	-9.62911
国务院	-9.62911
适量	-9.62969
′	-9.62976
又名	-9.63006
好评	-9.63039
地位	-9.63076
泵	-9.63136
遂	-9.63142
肿瘤	-9.63153
组建	-9.6319
●	-9.63234
搭	-9.63294
辅	-9.63349
原名	-9.63359
培	-9.63406
鬼	-9.63424
(2)	-9.63477
对象	-9.63484
十五	-9.63555
委员会委员	-9.6356
地震	-9.63667
秒	-9.63669
居住	-9.63697
茂	-9.6372
指挥	-9.63873
虽然	-9.64013
3000	-9.64018
酷	-9.64096
美容	-9.64129
正常	-9.64143
符	-9.64194
住宅	-9.64215
事件	-9.64415
花园	-9.64415
陷	-9.64421
夹	-9.64452
文章	-9.64605
累	-9.6462
注意	-9.64655
来源	-9.64732
理想	-9.64774
形成了	-9.64795
(1)	-9.6483
须	-9.6487
遭	-9.64977
近年来	-9.64987
烤	-9.65108
仲	-9.6511
亡	-9.65262
主任医师	-9.65299
况	-9.6533
精品	-9.6542
疾	-9.65471
氨	-9.65642
南北	-9.65643
能源	-9.657
事业单位	-9.65737
参加了	-9.65804
血管	-9.65821
映	-9.65874
鉴定	-9.65909
铃	-9.65948
深圳市	-9.66109
援	-9.66125
携	-9.66156
消费	-9.66232
淋	-9.66376
粮	-9.66501
,从而	-9.66631
显卡	-9.66775
掌握	-9.66814
带来	-9.66814
诊断	-9.66842
拳	-9.6698
动画	-9.67051
自身	-9.67063
任教	-9.67268
颁	-9.67301
证书	-9.67452
真正	-9.67456
漫画	-9.67485
填	-9.67508
影视	-9.67592
梯	-9.67624
降低	-9.67683
瓶	-9.68025
际	-9.68042
编制	-9.6807
渔	-9.68089
副主席	-9.68146
乔	-9.68276
滩	-9.68278
栋	-9.68304
妻	-9.68353
江西省	-9.68353
稍	-9.68358
汽	-9.685
姐	-9.68524
盆	-9.6865
匀	-9.68725
炭	-9.68727
砖	-9.68763
旦	-9.68774
恋	-9.68872
颈	-9.69033
颜	-9.69051
扶	-9.69104
柄	-9.69496
芝	-9.69568
晓	-9.69982
妹	-9.7023
卒	-9.7049
跳	-9.70549
腿	-9.70622
朴	-9.70655
颇	-9.70671
遥	-9.70676
\	-9.71178
赫	-9.71285
孟	-9.71469
「	-9.71529
缝	-9.71548
」	-9.71584
辉	-9.7163
纷	-9.71675
责	-9.72052
喻	-9.72241
漆	-9.72277
返	-9.72358
鸣	-9.72533
菇	-9.7258
蒜	-9.72679
弯	-9.72821
弗	-9.72882
萝	-9.72919
棋	-9.72953
绍	-9.73001
丸	-9.73272
俄	-9.73481
夺	-9.73483
骑	-9.7363
嫩	-9.73719
衰	-9.73776
详	-9.7386
恐	-9.74019
瓷	-9.7402
迎	-9.74076
浸	-9.7425
虾	-9.74281
锁	-9.74302
沃	-9.74323
蒂	-9.74389
翼	-9.74391
厦	-9.74457
跃	-9.74512
潭	-9.74714
卢	-9.75223
绕	-9.75291
鞋	-9.75685
稿	-9.75743
辑	-9.75775
肿	-9.75892
弃	-9.75929
瓣	-9.76127
趋	-9.76168
脊	-9.76585
闪	-9.76867
I	-9.76986
拼	-9.7711
甚	-9.77152
虽	-9.77222
枚	-9.77558
摄	-9.77768
肯	-9.77855
熙	-9.78365
扫	-9.78372
慈	-9.78731
番	-9.78879
侨	-9.78932
污	-9.78973
午	-9.79484
涉	-9.79515
摇	-9.79731
绵	-9.8029
郊	-9.80306
跑	-9.80443
沈	-9.80478
避	-9.80793
掉	-9.80872
叉	-9.80964
赠	-9.81281
硫	-9.81369
碱	-9.81467
奔	-9.81637
敦	-9.81683
硅	-9.81742
纠	-9.81753
乎	-9.81819
翠	-9.82028
魂	-9.8216
盗	-9.82276
ㄧ	-9.82392
锐	-9.82432
腊	-9.82726
弦	-9.82869
蚀	-9.82973
靖	-9.83121
苑	-9.8315
孩	-9.83249
篮	-9.83366
筑	-9.83376
漏	-9.83382
旺	-9.83471
鸭	-9.83654
勘	-9.83891
蜜	-9.8395
筋	-9.84017
割	-9.84038
辽	-9.84112
僧	-9.84368
颖	-9.84391
窑	-9.84422
娘	-9.84538
抵	-9.84588
愈	-9.84605
鸿	-9.84777
鹿	-9.85038
递	-9.85312
剪	-9.85362
吕	-9.85365
妈	-9.85417
枣	-9.85571
肤	-9.8564
禅	-9.8571
嘴	-9.85721
己	-9.85785
_	-9.85896
邓	-9.85925
斋	-9.86148
祭	-9.86157
抚	-9.86166
蔡	-9.86369
阅	-9.86404
揭	-9.86477
贷	-9.8653
弘	-9.86556
孤	-9.86569
逐	-9.86648
患	-9.86661
络	-9.86904
筒	-9.87007
么	-9.87127
莞	-9.8721
缆	-9.87222
柜	-9.873
苍	-9.87423
碧	-9.87757
昭	-9.87936
逃	-9.88117
饲	-9.8822
析	-9.88332
碗	-9.8842
束	-9.88557
毁	-9.8856
幸	-9.8861
煎	-9.88612
鹤	-9.88634
霞	-9.88668
尝	-9.89044
吾	-9.89087
荒	-9.89121
叠	-9.89179
促	-9.89376
翰	-9.89442
怎	-9.89613
蛇	-9.8974
掘	-9.90121
敢	-9.9029
抑	-9.90294
悉	-9.9034
旨	-9.90499
债	-9.90583
袁	-9.9089
盒	-9.90898
谁	-9.9098
穴	-9.90989
俱	-9.91144
忘	-9.91203
酶	-9.91316
孕	-9.91673
肩	-9.91696
帮	-9.91725
浩	-9.91725
帕	-9.9177
违	-9.9188
滋	-9.92063
逝	-9.92203
葬	-9.92385
鳞	-9.92499
泌	-9.92553
欣	-9.9267
醒	-9.92689
扁	-9.92814
汗	-9.92833
霍	-9.9291
舒	-9.93035
倡	-9.93189
铭	-9.93223
诞	-9.93296
栖	-9.93323
迫	-9.93422
扇	-9.93453
捷	-9.93506
泊	-9.9358
磷	-9.93674
芦	-9.93695
丙	-9.93807
拌	-9.93895
策	-9.94072
迈	-9.94092
狂	-9.94229
廊	-9.94253
佩	-9.94303
欢	-9.94374
拨	-9.95193
荆	-9.95199
沸	-9.95317
冻	-9.95866
舟	-9.96082
障	-9.96117
抱	-9.96128
狱	-9.96335
袭	-9.96391
冒	-9.96619
柴	-9.96642
凭	-9.96647
悲	-9.96673
屯	-9.96674
虑	-9.96701
藤	-9.96894
堆	-9.96944
纤	-9.97009
伍	-9.97014
儒	-9.97169
芽	-9.97261
坏	-9.97285
摆	-9.9732
逆	-9.97325
吐	-9.9736
穆	-9.97754
猎	-9.97763
脾	-9.98206
猫	-9.98614
谨	-9.98727
饼	-9.98742
彼	-9.99103
侍	-9.9933
萧	-9.9947
壤	-9.99936
粤	-9.99951
耶	-10.0003
挖	-10.0006
踪	-10.0038
伐	-10.0056
烯	-10.0061
蜂	-10.0076
偿	-10.0079
虹	-10.0089
捐	-10.009
泳	-10.0093
彰	-10.0094
滴	-10.0155
串	-10.0163
俊	-10.0185
卿	-10.0186
冯	-10.0187
艳	-10.0189
朵	-10.0217
ˋ	-10.0237
贡	-10.0252
佐	-10.0255
劲	-10.0267
究	-10.0278
翔	-10.0287
桐	-10.0308
盾	-10.0309
伪	-10.0319
邪	-10.0323
雾	-10.0337
赣	-10.034
榜	-10.0359
抢	-10.0361
贾	-10.0363
坑	-10.0376
仰	-10.0402
耕	-10.0411
疫	-10.0414
熔	-10.0422
蝶	-10.0426
氯	-10.0427
罐	-10.0449
纱	-10.0452
穷	-10.0473
贺	-10.0475
芬	-10.0482
熊	-10.0494
衔	-10.0495
撰	-10.05
烂	-10.0508
葛	-10.0508
姿	-10.0508
暂	-10.0514
枢	-10.0524
逸	-10.0526
渗	-10.0547
冈	-10.0553
扣	-10.0555
框	-10.0616
ㄨ	-10.0616
茅	-10.0619
醉	-10.0624
狮	-10.0627
捞	-10.0628
扰	-10.0632
彭	-10.0652
撒	-10.0653
卧	-10.0658
竟	-10.0666
娜	-10.0681
棒	-10.073
卓	-10.0731
般	-10.075
匹	-10.0754
拆	-10.0776
桌	-10.0783
旱	-10.0831
巷	-10.0832
孢	-10.0836
m	-10.0836
湛	-10.0865
什	-10.0879
畔	-10.0887
壶	-10.0898
狭	-10.0917
荡	-10.0928
谊	-10.0929
菊	-10.0955
屈	-10.0959
苯	-10.0963
悠	-10.0985
兹	-10.0985
漂	-10.0988
狗	-10.1046
糊	-10.1083
泛	-10.1107
梨	-10.1119
肢	-10.115
爵	-10.1158
棕	-10.1159
允	-10.1162
纬	-10.1163
椭	-10.1163
舌	-10.1169
宪	-10.1174
崖	-10.1181
凌	-10.1218
勋	-10.1221
毕	-10.1228
脸	-10.1237
弥	-10.125
酯	-10.126
杏	-10.1261
阐	-10.1262
竭	-10.1279
祝	-10.1291
睡	-10.1303
撤	-10.1312
晰	-10.1313
肖	-10.1313
篆	-10.1316
姚	-10.1326
迅	-10.134
霸	-10.1342
宴	-10.1344
侦	-10.1346
氛	-10.1348
甸	-10.1354
沧	-10.1357
讯	-10.1361
韦	-10.1379
婴	-10.141
爽	-10.1422
醋	-10.1426
辣	-10.1428
芯	-10.1444
兆	-10.1449
豫	-10.1469
覆	-10.147
吹	-10.1472
潘	-10.1472
祠	-10.1472
戈	-10.1474
箭	-10.1481
叙	-10.149
噪	-10.1506
ˊ	-10.1511
〕	-10.152
釉	-10.1526
盈	-10.1528
悦	-10.1534
戒	-10.1545
忧	-10.1555
侠	-10.156
奈	-10.1563
〔	-10.1573
邑	-10.1584
厨	-10.1607
扮	-10.1621
耀	-10.163
询	-10.1644
勃	-10.1651
晨	-10.1669
艰	-10.1674
贞	-10.1702
摸	-10.1715
蓄	-10.1721
乏	-10.1721
仔	-10.1726
喉	-10.1755
闲	-10.177
悟	-10.1771
墅	-10.1777
剿	-10.1789
膏	-10.1806
辰	-10.1809
沪	-10.1825
猛	-10.184
牵	-10.1843
辨	-10.1844
裕	-10.185
姑	-10.187
矩	-10.1874
彻	-10.1882
循	-10.1902
伙	-10.1906
绣	-10.1931
唯	-10.1936
吊	-10.1942
缸	-10.1953
巢	-10.1956
蕴	-10.1972
丈	-10.1975
忍	-10.1987
氢	-10.2006
鄂	-10.2009
宅	-10.2037
烦	-10.204
闹	-10.2041
驰	-10.2089
辟	-10.2146
脆	-10.217
撑	-10.2182
踏	-10.2185
赐	-10.2194
慧	-10.2206
瘦	-10.2213
沂	-10.2224
钙	-10.2234
履	-10.2287
嵌	-10.2293
怕	-10.2299
握	-10.2299
襄	-10.2304
蓬	-10.2308
雌	-10.2319
阜	-10.2343
眉	-10.2352
琼	-10.2363
椅	-10.2384
馨	-10.2386
沥	-10.2426
犬	-10.2431
隶	-10.2431
腻	-10.2468
枯	-10.252
辈	-10.2529
眠	-10.2539
龟	-10.255
怒	-10.2575
昂	-10.2579
聊	-10.2585
鹰	-10.2586
柯	-10.2603
藻	-10.261
笋	-10.2612
★	-10.2612
堪	-10.2614
搞	-10.2624
叔	-10.2635
帅	-10.2637
茄	-10.2646
轩	-10.2654
纺	-10.266
诱	-10.2661
呢	-10.2666
魅	-10.2675
勾	-10.2677
禽	-10.2683
莉	-10.2699
擦	-10.2724
夷	-10.2726
奠	-10.2746
哪	-10.2747
懂	-10.2787
泄	-10.2824
锂	-10.2839
胀	-10.2841
垫	-10.2843
『	-10.2854
搜	-10.2856
』	-10.2862
鳍	-10.2872
薯	-10.2878
吏	-10.2901
椎	-10.2903
镀	-10.2912
蒋	-10.2929
蒲	-10.2939
艇	-10.2941
凸	-10.2966
逻	-10.2972
烹	-10.2973
刷	-10.2982
锥	-10.2986
弄	-10.2994
寸	-10.2996
傅	-10.3002
涯	-10.3014
汕	-10.3023
丧	-10.3032
浙	-10.3033
催	-10.3036
饱	-10.304
梗	-10.3046
淘	-10.3073
搬	-10.3086
驾	-10.31
摘	-10.3102
剖	-10.313
飘	-10.3133
硕	-10.3136
雀	-10.316
翁	-10.3167
拥	-10.3171
削	-10.3233
矣	-10.3239
瘤	-10.3245
婆	-10.3251
臂	-10.3254
惟	-10.3256
髓	-10.3262
蜀	-10.3274
绳	-10.3293
汪	-10.332
绒	-10.3325
慕	-10.3328
舶	-10.3335
衍	-10.3345
麓	-10.3359
―	-10.3398
宠	-10.3425
胺	-10.343
锻	-10.3431
拱	-10.3444
杭	-10.3445
疼	-10.3461
畜	-10.3464
甫	-10.3477
狼	-10.3525
拖	-10.3532
唇	-10.3552
徽	-10.3583
账	-10.3607
痕	-10.3618
契	-10.3622
妖	-10.3635
酵	-10.3638
邵	-10.3639
淀	-10.3645
霉	-10.3645
搏	-10.3676
窝	-10.3694
饶	-10.3703
忽	-10.3719
陀	-10.3726
漠	-10.3761
兔	-10.3785
仕	-10.3789
夕	-10.3818
莎	-10.3825
贼	-10.383
旬	-10.3831
罕	-10.3837
筛	-10.3837
遣	-10.3839
奴	-10.3858
埋	-10.3861
→	-10.3861
牡	-10.3873
宙	-10.3877
涌	-10.3902
闸	-10.3926
禄	-10.3946
酿	-10.3947
涛	-10.3948
籽	-10.3977
聪	-10.3982
凰	-10.4008
鑫	-10.4026
芒	-10.4058
庵	-10.4065
凹	-10.4094
扭	-10.41
械	-10.4121
尸	-10.413
杉	-10.4136
±	-10.4148
咽	-10.4172
茨	-10.4179
菩	-10.4207
隙	-10.4209
挤	-10.4216
抛	-10.4222
卉	-10.4233
够	-10.4236
鹅	-10.4244
撞	-10.426
霜	-10.4263
苹	-10.4271
睛	-10.4272
攀	-10.4279
袖	-10.4304
逢	-10.4304
蚕	-10.4308
迟	-10.4312
帽	-10.4317
渊	-10.4328
澄	-10.4371
弧	-10.4377
泻	-10.4398
隋	-10.4409
辩	-10.4427
庞	-10.4467
幢	-10.4493
擎	-10.4499
芜	-10.4532
洒	-10.4542
忌	-10.4551
哲	-10.4561
暨	-10.4562
屿	-10.4568
淄	-10.4572
伞	-10.4572
乾	-10.4576
慎	-10.4581
糕	-10.4608
锌	-10.4613
咳	-10.4615
腌	-10.462
崔	-10.4641
汝	-10.4661
罚	-10.4663
钦	-10.4677
胞	-10.4677
麟	-10.4717
钩	-10.4737
惜	-10.4749
埠	-10.4752
庐	-10.4758
唤	-10.4775
逊	-10.4792
睿	-10.4794
赶	-10.4801
兄	-10.481
妆	-10.4832
帖	-10.4836
堤	-10.4839
窄	-10.4839
剩	-10.4848
帐	-10.4851
勺	-10.4861
仇	-10.4863
溢	-10.4879
泪	-10.4884
蓉	-10.4885
挺	-10.4896
鹏	-10.49
冀	-10.4927
浑	-10.4928
漳	-10.4996
彦	-10.4999
笼	-10.5001
毅	-10.5022
沫	-10.5023
忆	-10.5029
鞍	-10.5044
栗	-10.5052
挡	-10.5056
棱	-10.5064
疮	-10.5123
颂	-10.5128
蟹	-10.514
酥	-10.5141
棚	-10.5149
贮	-10.5159
吗	-10.5161
爷	-10.5174
彝	-10.5192
钠	-10.5211
膨	-10.5232
○	-10.5243
巾	-10.5244
宰	-10.5258
肃	-10.5311
怡	-10.5315
娃	-10.5328
墩	-10.533
叛	-10.5344
#	-10.5361
雍	-10.5385
喝	-10.5396
碟	-10.5445
潍	-10.5446
暑	-10.5465
恨	-10.5487
尉	-10.5493
诏	-10.5498
逼	-10.5499
姻	-10.551
懈	-10.5521
牢	-10.5545
偷	-10.5548
痰	-10.5554
渣	-10.5572
押	-10.5575
糯	-10.558
妃	-10.5589
辆	-10.5616
珊	-10.5639
|	-10.5652
氮	-10.5656
瀑	-10.5659
烘	-10.5664
祀	-10.5679
後	-10.5688
券	-10.5692
荫	-10.5699
薛	-10.5699
谦	-10.5704
臭	-10.5712
嫁	-10.5728
榆	-10.5734
凶	-10.5745
殊	-10.5755
矛	-10.5764
隧	-10.5765
埔	-10.5777
缠	-10.5782
掩	-10.5787
卸	-10.5793
溃	-10.5795
叹	-10.5811
琳	-10.5821
雁	-10.5829
估	-10.5853
忙	-10.5864
衬	-10.5875
铅	-10.5878
瑰	-10.5891
浇	-10.5904
轧	-10.5915
氟	-10.593
缴	-10.5967
斤	-10.6021
禹	-10.6026
拒	-10.6049
喀	-10.6065
巩	-10.6078
猴	-10.6089
扑	-10.6113
橙	-10.6131
皖	-10.6135
瑶	-10.6144
稽	-10.6191
讼	-10.6209
匠	-10.6269
渴	-10.628
惑	-10.6284
淳	-10.6287
韧	-10.6293
ˇ	-10.6298
剥	-10.6306
滞	-10.6326
禾	-10.6329
ー	-10.635
晒	-10.6357
披	-10.6372
咏	-10.6377
≤	-10.6378
怨	-10.6406
括	-10.6439
烫	-10.6467
虞	-10.6486
恰	-10.6487
砌	-10.6493
综	-10.652
馅	-10.6536
爪	-10.6548
萃	-10.6569
鲍	-10.6614
丑	-10.6614
姬	-10.6655
亨	-10.6675
楷	-10.668
劫	-10.6695
哀	-10.6704
傲	-10.6706
尹	-10.6722
酮	-10.6764
芹	-10.6769
跌	-10.678
玲	-10.6787
灸	-10.6811
炖	-10.6832
碰	-10.6836
厌	-10.6843
昏	-10.6852
裔	-10.6856
谜	-10.6868
弓	-10.687
泼	-10.6908
桶	-10.6926
肴	-10.6929
陇	-10.6934
寂	-10.6953
菱	-10.6959
帆	-10.6961
狐	-10.6964
洽	-10.6965
吻	-10.6969
栽	-10.6973
鞘	-10.7003
钓	-10.7022
疲	-10.7036
蔽	-10.7041
锯	-10.7077
斩	-10.7082
蜡	-10.7117
坎	-10.7117
堰	-10.7121
裹	-10.7141
昔	-10.7156
樱	-10.7165
屡	-10.7177
黔	-10.7192
秩	-10.7199
镶	-10.7228
胁	-10.7229
晕	-10.7238
瑟	-10.7257
绥	-10.7262
殷	-10.7275
爸	-10.7294
媒	-10.7305
谐	-10.7306
竖	-10.7322
竣	-10.7323
谭	-10.7333
の	-10.7348
疆	-10.7382
歇	-10.7396
遮	-10.7408
陕	-10.7409
馈	-10.7423
瞬	-10.7441
恭	-10.7442
枫	-10.7444
匪	-10.7475
贪	-10.7524
挥	-10.7533
顽	-10.7558
怖	-10.7558
骤	-10.7562
吞	-10.7566
萼	-10.7567
妮	-10.7573
厢	-10.7576
抹	-10.7594
伽	-10.7624
皱	-10.7633
罩	-10.7634
锈	-10.764
擅	-10.7714
钝	-10.7715
玫	-10.7729
渝	-10.7749
苔	-10.7757
褐	-10.7776
缅	-10.7789
祛	-10.7791
邱	-10.7795
删	-10.7801
焉	-10.7805
仑	-10.7845
蹄	-10.7849
溉	-10.7866
尧	-10.7866
卤	-10.7869
赁	-10.7874
ㄢ	-10.7878
μ	-10.7893
劝	-10.7897
榄	-10.7905
帘	-10.793
敞	-10.7944
坤	-10.7958
秉	-10.7959
栓	-10.7961
丞	-10.8001
绎	-10.8042
轰	-10.8048
檐	-10.8054
屠	-10.8087
奎	-10.8099
吟	-10.8116
罢	-10.8118
萍	-10.8125
胚	-10.8127
迄	-10.8148
垃	-10.815
喘	-10.8152
枕	-10.8159
沼	-10.8159
圾	-10.8177
〉	-10.8187
焰	-10.8204
祸	-10.8214
庸	-10.822
垦	-10.8222
苞	-10.8262
孜	-10.8265
矮	-10.8287
梧	-10.8298
刹	-10.8303
喇	-10.8304
〈	-10.8352
捉	-10.8357
粹	-10.836
渭	-10.8366
硝	-10.8392
睐	-10.8395
酰	-10.8397
爬	-10.8408
粥	-10.8418
膝	-10.8423
ン	-10.843
肚	-10.8439
钾	-10.8441
黏	-10.8457
拾	-10.8478
烷	-10.8493
膀	-10.8495
梵	-10.8503
晴	-10.8528
疹	-10.8589
镁	-10.8604
肇	-10.8635
桔	-10.8654
惯	-10.8655
邹	-10.8673
稠	-10.8684
疯	-10.869
巫	-10.8718
啊	-10.8725
劣	-10.8727
涨	-10.8747
旭	-10.8755
峻	-10.8761
薇	-10.8768
棘	-10.8775
畏	-10.882
蕉	-10.8849
舆	-10.8855
盲	-10.8877
邢	-10.8879
桩	-10.8906
陪	-10.8906
樊	-10.8916
酬	-10.8918
蕾	-10.8933
钮	-10.8938
◆	-10.894
峪	-10.8955
择	-10.8974
刮	-10.899
涤	-10.9033
募	-10.9034
礁	-10.9073
锤	-10.9074
亥	-10.9097
仆	-10.9121
葫	-10.9124
惨	-10.9137
涡	-10.9142
奸	-10.9147
砚	-10.9191
蕊	-10.9191
澜	-10.9204
抒	-10.9212
祁	-10.9258
薪	-10.9276
崩	-10.928
芙	-10.9287
煲	-10.929
藩	-10.9297
杞	-10.931
◎	-10.9312
朔	-10.9319
肛	-10.9329
汾	-10.9336
屑	-10.9337
萌	-10.934
簧	-10.9343
寇	-10.9356
颠	-10.9381
惧	-10.9394
傍	-10.9394
荔	-10.9394
馀	-10.9394
厉	-10.9397
艘	-10.9408
拘	-10.9414
瑚	-10.9467
纂	-10.9481
≥	-10.9491
鞭	-10.9495
钉	-10.9499
啤	-10.9507
凑	-10.9518
詹	-10.9551
敷	-10.957
绞	-10.9582
沁	-10.9612
蛛	-10.965
哭	-10.9655
熏	-10.9657
缀	-10.9661
奢	-10.9723
芋	-10.973
涅	-10.9735
邯	-10.9739
梭	-10.9757
矢	-10.976
骗	-10.9793
炳	-10.9805
葵	-10.9805
蕨	-10.9807
а	-10.981
卦	-10.9825
橄	-10.9839
愤	-10.9839
诵	-10.9845
骄	-10.9849
逾	-10.9853
抄	-10.9861
汀	-10.9891
橘	-10.9894
诣	-10.9896
–	-10.9908
峨	-10.9922
佑	-10.9936
垒	-10.9978
灿	-11
蔗	-11.0003
愁	-11.0023
圩	-11.0028
斌	-11.0042
庚	-11.0058
兮	-11.0075
搅	-11.0079
颌	-11.0084
鸽	-11.0107
焕	-11.0109
淑	-11.0128
町	-11.0134
斥	-11.0142
瘟	-11.0146
措	-11.0151
堵	-11.0157
窦	-11.02
恼	-11.0204
糙	-11.0204
魁	-11.0212
赔	-11.0227
痴	-11.0229
韶	-11.023
裸	-11.0241
卑	-11.0247
寡	-11.0252
闷	-11.0265
榴	-11.0281
蔓	-11.029
柿	-11.0318
宛	-11.0321
瑜	-11.0353
茸	-11.036
濒	-11.037
庶	-11.0385
燥	-11.0391
欺	-11.0415
坞	-11.0416
匈	-11.0416
洼	-11.0419
疡	-11.0433
灶	-11.0441
梳	-11.0444
琅	-11.046
兑	-11.047
慰	-11.0504
腕	-11.052
圭	-11.0542
胰	-11.0552
肋	-11.0557
梓	-11.056
桓	-11.0574
豹	-11.0579
瘀	-11.058
棠	-11.058
勐	-11.0582
柠	-11.0594
迦	-11.0602
曝	-11.0606
о	-11.0614
央	-11.0624
亏	-11.0626
郸	-11.0638
溯	-11.0649
趾	-11.0653
绸	-11.0666
芡	-11.0678
倚	-11.0684
涩	-11.0701
祈	-11.0701
凿	-11.0701
]	-11.0717
驿	-11.0722
刃	-11.0729
沛	-11.0741
渤	-11.0743
莆	-11.0745
矫	-11.0745
滇	-11.0755
努	-11.0759
崎	-11.0776
泗	-11.0782
饪	-11.0805
缔	-11.0905
蚁	-11.0934
丢	-11.0938
泾	-11.0941
窟	-11.0943
槐	-11.0953
侣	-11.0956
朋	-11.0976
娇	-11.0989
脓	-11.0994
檬	-11.0995
棵	-11.0998
и	-11.0999
蘑	-11.1013
裙	-11.1017
炙	-11.1023
琉	-11.1049
捧	-11.1055
廖	-11.1061
煌	-11.1063
嗣	-11.1085
荧	-11.1095
窃	-11.1096
捣	-11.1097
沾	-11.1106
蚌	-11.1117
坠	-11.1182
萎	-11.1216
愉	-11.1222
い	-11.1223
垣	-11.1257
衢	-11.1262
狠	-11.1265
泸	-11.1274
嫌	-11.1293
咬	-11.1302
膳	-11.131
轿	-11.1326
皂	-11.1334
笛	-11.1337
狄	-11.1351
戚	-11.1375
畸	-11.1392
颅	-11.1412
嗽	-11.1423
誓	-11.1428
乒	-11.1443
涧	-11.1464
岐	-11.1465
莹	-11.147
胖	-11.147
滕	-11.1493
愚	-11.1525
椰	-11.1526
樟	-11.153
嗜	-11.1561
鲤	-11.1564
蛮	-11.1582
廓	-11.1588
茫	-11.1596
冥	-11.1622
钞	-11.1622
瞻	-11.163
夸	-11.1653
舜	-11.1658
熬	-11.1695
钛	-11.1701
芭	-11.1708
坯	-11.1724
坟	-11.1729
岂	-11.1731
^	-11.174
铣	-11.1789
钥	-11.1813
厥	-11.1831
醛	-11.1831
α	-11.1836
阮	-11.1841
啦	-11.1843
棍	-11.1848
摊	-11.1857
厄	-11.1865
舱	-11.1866
杖	-11.187
苓	-11.187
眩	-11.1872
芥	-11.1898
枸	-11.1898
裴	-11.1898
俞	-11.1901
畴	-11.1908
栈	-11.1908
诠	-11.1909
谣	-11.1947
帜	-11.1955
汶	-11.1965
柑	-11.1977
荟	-11.1983
蛙	-11.2
犀	-11.2007
¥	-11.2017
琪	-11.202
荐	-11.205
茵	-11.2051
蠕	-11.2055
孵	-11.2063
勿	-11.2063
淹	-11.2071
菠	-11.2075
牟	-11.2077
酚	-11.2086
乞	-11.209
倦	-11.21
揉	-11.2108
秧	-11.211
跋	-11.2125
呕	-11.2142
俯	-11.2152
沐	-11.2157
魄	-11.2164
骏	-11.2164
娄	-11.2219
挪	-11.2222
呆	-11.2233
[	-11.2245
婉	-11.2268
乓	-11.2272
裤	-11.2275
轼	-11.2302
哺	-11.2308
栅	-11.2312
敛	-11.2332
─	-11.239
蔚	-11.2395
藕	-11.2416
衷	-11.244
壹	-11.2443
浊	-11.2462
蝴	-11.2466
鸦	-11.249
簇	-11.2494
翘	-11.2494
歧	-11.2509
弊	-11.2511
靡	-11.252
毗	-11.252
咒	-11.253
陂	-11.2535
嵩	-11.2544
痒	-11.2551
秆	-11.2567
醚	-11.263
钧	-11.2644
谥	-11.266
欠	-11.2669
雇	-11.2674
衫	-11.2681
∶	-11.2699
矶	-11.2719
镍	-11.2731
抬	-11.2734
绑	-11.2738
闯	-11.2747
崭	-11.2754
璧	-11.2754
崛	-11.2767
焚	-11.2776
嘎	-11.2778
妄	-11.2801
旷	-11.2812
褶	-11.2817
俭	-11.2829
驶	-11.2832
俘	-11.2853
巍	-11.2876
耿	-11.29
粟	-11.2918
祯	-11.2925
帧	-11.294
肆	-11.296
戊	-11.2998
挽	-11.3007
铬	-11.3009
烛	-11.3022
寅	-11.3053
纶	-11.3055
蝉	-11.3057
贬	-11.3061
岚	-11.3066
辱	-11.3079
塌	-11.3083
辊	-11.309
檀	-11.3096
龚	-11.3123
蛾	-11.3127
煸	-11.3132
敲	-11.3138
悔	-11.3155
饥	-11.3159
躯	-11.3164
阎	-11.3166
羌	-11.3168
戎	-11.3203
妥	-11.3205
苷	-11.3218
彬	-11.3229
陡	-11.3241
莓	-11.3244
皋	-11.3244
揽	-11.3257
ㄐ	-11.3259
拦	-11.3284
匾	-11.3286
簿	-11.3289
勉	-11.3291
痹	-11.331
颐	-11.332
暮	-11.3323
е	-11.3337
冤	-11.3339
腋	-11.3343
哉	-11.3348
渍	-11.3361
喙	-11.3369
诀	-11.3373
焯	-11.338
斧	-11.3407
赌	-11.3409
н	-11.3432
瓯	-11.3443
撕	-11.346
浒	-11.3483
锰	-11.3496
肽	-11.3523
荚	-11.353
洱	-11.3562
赚	-11.3566
猜	-11.3576
炫	-11.358
盏	-11.3597
贩	-11.3609
驼	-11.3613
岔	-11.3615
楠	-11.3625
耸	-11.363
绅	-11.3648
榕	-11.3654
毯	-11.3711
僵	-11.3714
阙	-11.3728
仗	-11.3748
歼	-11.3752
栩	-11.3758
圃	-11.3768
潢	-11.377
β	-11.3775
ス	-11.3797
ㄣ	-11.3799
呵	-11.3799
斐	-11.3803
◇	-11.3809
羲	-11.3833
焖	-11.3841
楔	-11.3841
躲	-11.3855
脐	-11.3885
澈	-11.3885
犁	-11.3911
昼	-11.3913
炬	-11.3917
垢	-11.3927
茯	-11.3935
札	-11.3939
楹	-11.3963
鹃	-11.3965
陌	-11.4007
ル	-11.4029
榨	-11.4034
峭	-11.4052
莘	-11.4054
袍	-11.4076
ㄥ	-11.4079
窥	-11.4103
う	-11.4103
磅	-11.4129
逮	-11.413
剁	-11.4136
迭	-11.4136
哩	-11.4138
腥	-11.414
磺	-11.4144
慨	-11.416
橡	-11.4173
冢	-11.4175
摔	-11.4177
徙	-11.4185
骚	-11.4197
し	-11.4205
骆	-11.4228
酪	-11.4255
藉	-11.4272
掠	-11.4274
潇	-11.4276
宦	-11.4282
叭	-11.4297
惩	-11.4303
淫	-11.4328
诈	-11.4347
霖	-11.4355
剔	-11.4362
焙	-11.4364
莽	-11.4368
р	-11.4382
笃	-11.4387
媚	-11.4412
珀	-11.4416
撇	-11.442
粪	-11.4437
锣	-11.4445
垩	-11.446
か	-11.4462
绢	-11.4482
碍	-11.4484
挚	-11.4533
坂	-11.455
筝	-11.4554
蕃	-11.4554
玻	-11.4582
芍	-11.4582
钳	-11.4597
璋	-11.4612
谏	-11.4628
イ	-11.4659
哮	-11.4663
羟	-11.4705
闵	-11.4709
怜	-11.4714
倪	-11.472
臀	-11.4722
峦	-11.4731
砾	-11.4733
琢	-11.475
喂	-11.477
兢	-11.4783
瘫	-11.4792
岱	-11.481
啸	-11.4873
沦	-11.4889
蛤	-11.4904
讽	-11.4911
禧	-11.4926
璃	-11.4938
娶	-11.4945
拯	-11.4946
碘	-11.4975
黛	-11.4984
鳃	-11.4993
遐	-11.4995
瞩	-11.5
咀	-11.5009
佼	-11.5018
妊	-11.506
〗	-11.5069
郝	-11.5074
〖	-11.5081
垄	-11.5083
躁	-11.5144
濮	-11.5162
漓	-11.5164
巅	-11.5164
恳	-11.5164
汲	-11.5175
韭	-11.5175
琐	-11.5178
晖	-11.5178
昧	-11.518
雏	-11.5201
渲	-11.5205
眺	-11.521
酉	-11.5226
寝	-11.5226
菏	-11.526
悄	-11.5265
驳	-11.5271
霄	-11.5272
灼	-11.5297
侈	-11.5302
哨	-11.5306
撼	-11.5327
ㄒ	-11.5352
苟	-11.5361
溜	-11.5364
胱	-11.5368
衙	-11.5369
鲸	-11.5402
砍	-11.5413
摧	-11.5415
杠	-11.5415
娠	-11.5424
聂	-11.5424
隅	-11.5431
蔬	-11.5451
朽	-11.5506
棺	-11.5506
绰	-11.5532
睹	-11.5546
趁	-11.5593
滥	-11.5601
琶	-11.5605
禺	-11.5608
踢	-11.5615
沽	-11.5638
塾	-11.5651
眷	-11.5657
靓	-11.5677
徵	-11.5682
诛	-11.5684
骂	-11.5696
挫	-11.5701
锚	-11.5703
诡	-11.5705
娱	-11.5715
摹	-11.5722
蒿	-11.5725
驴	-11.5725
晏	-11.5742
绚	-11.5753
曙	-11.5773
哦	-11.5795
伺	-11.5809
潼	-11.5814
麒	-11.5819
た	-11.584
ㄌ	-11.5848
羞	-11.5858
糟	-11.5858
】	-11.586
泣	-11.5909
痢	-11.5918
瞄	-11.5924
褒	-11.5924
な	-11.5933
牲	-11.5987
兜	-11.6012
翡	-11.6019
с	-11.6032
阪	-11.6042
咫	-11.6086
荀	-11.6116
蚝	-11.6136
喊	-11.6149
【	-11.6159
•	-11.6166
觅	-11.6172
恪	-11.6174
翌	-11.6177
咪	-11.6182
}	-11.619
钵	-11.6204
芸	-11.6207
鲨	-11.6214
Ω	-11.6217
亢	-11.6229
癫	-11.6234
痘	-11.6235
酌	-11.6242
践	-11.6247
淤	-11.6262
в	-11.6288
梢	-11.6288
忱	-11.6293
陋	-11.6306
晾	-11.6318
ん	-11.6321
祐	-11.6331
盼	-11.6334
蝠	-11.6362
厕	-11.6369
鹦	-11.637
{	-11.6372
娟	-11.6387
靶	-11.639
铲	-11.6392
彪	-11.6398
匡	-11.6403
恤	-11.6408
ㄙ	-11.6411
ㄠ	-11.6436
掀	-11.6446
琦	-11.6449
岑	-11.6465
桦	-11.6485
霹	-11.6491
臻	-11.6498
稚	-11.6522
噬	-11.6532
竿	-11.6556
苇	-11.6558
嗓	-11.6571
佣	-11.6608
峙	-11.6611
@	-11.6619
鳌	-11.6642
忻	-11.6658
雳	-11.6666
悍	-11.6668
豌	-11.6698
愧	-11.6713
壬	-11.6718
懒	-11.6727
傣	-11.6732
骼	-11.6735
擢	-11.6738
硒	-11.674
宵	-11.6753
凄	-11.6785
と	-11.6799
ト	-11.6801
捏	-11.6807
侗	-11.6841
寞	-11.6842
蒴	-11.6842
蚊	-11.685
缚	-11.6858
哑	-11.686
囚	-11.6863
唑	-11.6884
郴	-11.6887
拙	-11.6893
狩	-11.6895
恢	-11.6918
谕	-11.692
聋	-11.6922
僚	-11.6931
硼	-11.6936
耻	-11.6936
谍	-11.6939
箔	-11.6947
к	-11.6948
姊	-11.6955
拐	-11.6958
劈	-11.6958
藓	-11.6971
辍	-11.6974
馏	-11.698
铎	-11.698
粳	-11.6993
癸	-11.7012
昨	-11.7034
耘	-11.7045
烃	-11.7067
蜘	-11.7075
リ	-11.7086
奕	-11.7092
敕	-11.7098
颉	-11.71
贱	-11.71
娥	-11.7114
浏	-11.7118
□	-11.7126
卯	-11.7175
ラ	-11.7186
饿	-11.7189
昊	-11.7191
蘖	-11.7214
狸	-11.7239
搓	-11.7247
鳄	-11.725
墟	-11.7261
ア	-11.7274
铵	-11.7278
颍	-11.7284
拂	-11.7292
き	-11.7314
莒	-11.732
痫	-11.7331
镂	-11.7351
侄	-11.7351
鹭	-11.7368
虏	-11.7377
颤	-11.738
刨	-11.7382
汰	-11.7385
窖	-11.739
肘	-11.7394
癣	-11.7399
蜥	-11.7414
熹	-11.7422
碾	-11.7422
抖	-11.7439
娴	-11.7445
蝇	-11.7474
噶	-11.7479
僻	-11.7488
谛	-11.7488
・	-11.7491
虐	-11.7502
孚	-11.7513
弛	-11.7531
$	-11.7557
贿	-11.7571
槟	-11.7574
绮	-11.7583
辐	-11.7583
呀	-11.7589
俩	-11.7591
樵	-11.7603
拷	-11.7618
钨	-11.7623
蔷	-11.7623
喧	-11.7623
猿	-11.765
溴	-11.7652
戟	-11.7661
л	-11.7667
茹	-11.7681
娅	-11.7696
豉	-11.7705
窍	-11.772
掺	-11.7731
ㄏ	-11.7758
顷	-11.7771
睦	-11.7773
蜗	-11.7784
琵	-11.782
悼	-11.7832
淇	-11.7838
敖	-11.7841
惹	-11.785
蓟	-11.787
絮	-11.7873
瀚	-11.7879
ク	-11.7882
暇	-11.7888
饺	-11.7888
楞	-11.7897
傻	-11.7912
柚	-11.7918
毓	-11.7921
ㄤ	-11.7924
镌	-11.7942
锭	-11.7947
ま	-11.7978
堕	-11.7996
茗	-11.8032
脯	-11.8032
鹊	-11.8032
淬	-11.8059
晃	-11.806
铀	-11.8062
耆	-11.8084
痔	-11.8102
豚	-11.8111
磊	-11.8111
嚼	-11.8124
翟	-11.8139
缕	-11.8179
匿	-11.8209
ㄕ	-11.8216
珑	-11.8216
橱	-11.824
讳	-11.824
涪	-11.8243
秃	-11.8247
粱	-11.8253
鸠	-11.8253
绛	-11.8253
腑	-11.8274
颊	-11.8287
滁	-11.8299
驯	-11.8305
缪	-11.8315
嘛	-11.8318
阱	-11.8324
饵	-11.8327
缉	-11.8349
吓	-11.8355
笺	-11.8362
袜	-11.8364
鹉	-11.8381
戌	-11.8415
芷	-11.8424
婷	-11.8424
筷	-11.8424
厝	-11.844
茧	-11.8475
畲	-11.8478
踞	-11.8484
ㄉ	-11.8506
懿	-11.8516
甬	-11.8522
汛	-11.8535
椿	-11.8538
榻	-11.8544
る	-11.8547
浚	-11.8548
莺	-11.8579
鸾	-11.8583
笨	-11.8621
祺	-11.8624
佰	-11.8631
贰	-11.8637
挠	-11.8637
り	-11.8646
柘	-11.8656
扼	-11.8663
羡	-11.8698
璨	-11.8705
т	-11.871
薰	-11.8711
疣	-11.8715
篷	-11.8721
掷	-11.8725
毡	-11.8783
痈	-11.8793
捆	-11.8809
舅	-11.8816
☆	-11.882
漕	-11.8822
掖	-11.8825
乖	-11.8848
嘱	-11.8862
憾	-11.8865
佚	-11.8868
氰	-11.8881
ㄟ	-11.8881
〇	-11.8888
盔	-11.8891
耍	-11.8908
沅	-11.8908
擒	-11.8928
涟	-11.8944
茜	-11.8951
厘	-11.8965
瞳	-11.8967
挣	-11.899
丫	-11.8997
靴	-11.9007
矾	-11.9017
巳	-11.9037
妾	-11.9051
釜	-11.9054
芪	-11.9064
邸	-11.9078
玺	-11.9078
帛	-11.9084
璀	-11.9094
襟	-11.9094
妓	-11.9101
g	-11.9101
蟠	-11.9108
ㄚ	-11.9125
壑	-11.9128
冕	-11.9128
甄	-11.9131
毙	-11.9139
楂	-11.9145
み	-11.9158
亳	-11.9172
羁	-11.9182
鸳	-11.9185
蝎	-11.9212
涝	-11.9213
挛	-11.9219
妨	-11.9226
匣	-11.923
嚣	-11.9233
夯	-11.9233
辕	-11.9243
啶	-11.926
稷	-11.9261
祷	-11.9264
铂	-11.9271
擀	-11.9274
镰	-11.9278
に	-11.9283
殉	-11.9295
龛	-11.9306
弈	-11.9312
辄	-11.9312
陨	-11.9329
冉	-11.9346
跻	-11.9363
迩	-11.9363
荞	-11.9371
渚	-11.9381
韬	-11.9398
滔	-11.9402
羹	-11.9412
裳	-11.944
瑙	-11.9482
ッ	-11.9495
芎	-11.9499
豁	-11.9513
皿	-11.9531
踩	-11.9563
桨	-11.9591
盂	-11.9591
笙	-11.9622
鱿	-11.9633
歪	-11.9633
闺	-11.9644
磐	-11.9644
皓	-11.9665
逍	-11.9672
窜	-11.9673
こ	-11.9683
倭	-11.9687
ㄑ	-11.9722
酋	-11.9747
遁	-11.9751
箐	-11.9755
哇	-11.9759
烽	-11.9769
旌	-11.9773
く	-11.9773
寮	-11.9798
烁	-11.9805
秤	-11.982
兀	-11.9823
潞	-11.9823
竺	-11.9837
胥	-11.9838
乍	-11.9841
钼	-11.9845
恬	-11.9845
倩	-11.9856
瀛	-11.9856
糜	-11.9863
琥	-11.9867
■	-11.9885
嫡	-11.9885
盎	-11.9889
ㄓ	-11.9914
蜒	-11.9921
ㄛ	-11.9921
ㄩ	-11.9922
臼	-11.9936
颚	-11.994
俏	-11.9954
鄞	-11.9958
疽	-11.9973
寰	-11.9984
碌	-11.9987
晦	-12.0006
嫂	-12.0006
偃	-12.0006
潺	-12.0013
歙	-12.0013
稣	-12.002
烙	-12.002
慌	-12.0032
蛟	-12.0058
邕	-12.0058
穹	-12.0061
谒	-12.0069
紊	-12.008
迥	-12.0095
蘸	-12.0128
胫	-12.0173
帷	-12.0177
蟾	-12.018
葡	-12.112
咖	-12.1124
咨	-12.3726
蹈	-12.7961
础	-13.2096
啡	-13.3322
圳	-13.3863
牺	-13.541
C	-13.7918
萄	-14.9473
肪	-15.0984
