[UNK]	0
[PAD]	0
[CLS]	0
[SEP]	0
[MASK]	0
de❅r쎯	-3.82724
,	-4.15494
zzbd쎯	-4.29074
.	-4.3973
han❄t쎯	-5.28191
shi❄j쎯	-5.56831
zai❄d쎯	-5.61363
shi❄ymhj쎯	-5.62471
wei❄o쎯	-5.69947
zhong❁k쎯	-5.73086
ji	-5.79985
deng❃tffu쎯	-5.80572
yu❂gf쎯	-5.83165
sheng❁tg쎯	-5.83678
yu❃gn쎯	-5.97634
(	-5.98654
jiao❁ftbt쎯	-6.0452
le❅b쎯	-6.05869
:	-6.11763
zhang❃ta쎯	-6.14165
you❃e쎯	-6.14171
shang❃h쎯	-6.14634
zhong❁k쎯guo❂l쎯	-6.16284
cheng❂dn쎯	-6.19476
gong❁wc쎯si❁ngk쎯	-6.20104
shan❁mmm쎯	-6.21078
)	-6.21555
ren❂w쎯	-6.2363
;	-6.27999
《	-6.29868
da❄dd쎯	-6.29871
wen❂yygy쎯	-6.31321
sheng❃ith쎯	-6.31395
yong❄et쎯	-6.35386
z	-6.36841
xing❄ntg쎯	-6.3842
xian❄egc쎯	-6.40881
yan❂dga쎯jiu❁pwv쎯	-6.41203
xin❁usr쎯	-6.42786
cheng❂tkgg쎯	-6.42864
zhou❁ytyh쎯	-6.43585
zhi❄rmhj쎯	-6.4743
ji❂ey쎯	-6.47484
da❄dd쎯xue❂ip쎯	-6.47656
yi❃c쎯	-6.52859
jia❁pe쎯	-6.57235
cheng❂fd쎯	-6.57494
hui❄wf쎯	-6.57854
shui❃ii쎯	-6.59978
zhi❁pp쎯	-6.60106
chong❂tgj쎯	-6.63065
”	-6.63323
“	-6.6372
chuan❂wfny쎯	-6.64067
dong❄fcl쎯	-6.64624
chang❂ipkh쎯	-6.65889
guan❃tp쎯li❃gj쎯	-6.68444
ming❂qk쎯	-6.70331
jian❄vfhp쎯	-6.70385
wang❃mqq쎯	-6.7078
yi❁g쎯gan❄wh쎯	-6.72108
gong❁a쎯zuo❄wt쎯	-6.73033
zhen❄qfhw쎯	-6.73943
ji❄rfc쎯shu❂sy쎯	-6.74335
chang❃fnrt쎯	-6.74772
bei❄puhc쎯	-6.74855
chuang❄wbj쎯	-6.75031
chong❂tkh쎯	-6.75751
xing❂gajf쎯	-6.76684
bu❂i쎯	-6.7673
yi❁g쎯	-6.77384
xi❁sghg쎯	-6.78591
gao❁ym쎯	-6.80531
xiao❃ih쎯	-6.81043
jin❁qqqq쎯	-6.81469
tian❁gd쎯	-6.82481
zhuan❁fny쎯	-6.82776
dui❄cf쎯	-6.83756
jiang❁uqf쎯	-6.84309
xue❂ip쎯	-6.85765
huo❄ak쎯	-6.85792
hou❄rg쎯	-6.85979
suo❃rn쎯	-6.87266
dong❁ai쎯	-6.87628
de❅f쎯	-6.87859
zhi❄gcf쎯	-6.88049
duo❁qq쎯	-6.88536
liang❃gmww쎯	-6.89052
xing❂gae쎯	-6.90305
tong❁cep쎯	-6.91596
zi❃bb쎯	-6.93314
shi❂jf쎯	-6.93918
gong❁a쎯	-6.94232
zong❃ukn쎯	-6.94617
zhuang❁ufy쎯	-6.94745
pin❃kkk쎯	-6.95497
xiang❁sh쎯	-6.95722
san❁dg쎯	-6.96114
dan❄dgtg쎯	-6.9626
xi	-6.96499
qi❃whf쎯qiu❁og쎯	-6.96577
neng❂ce쎯	-6.96793
ben❄wsg쎯	-6.97036
xiang❁xte쎯	-6.97372
xue❂ip쎯yuan❄bpf쎯	-6.97656
dao❄uthp쎯	-6.98182
huo❂itd쎯	-6.98682
guo❂l쎯jia❁pe쎯	-6.99168
nian❂rh쎯	-6.99742
dang❃ipk쎯	-6.99968
wei❄wug쎯yu❂gf쎯	-7.00111
qu❁aq쎯	-7.00314
zheng❁ghd쎯	-7.00448
er❂dmj쎯	-7.00829
zheng❄ght쎯	-7.01125
bu❄uk쎯	-7.0228
jiang❁ia쎯	-7.02493
ying❁yid쎯	-7.02584
kou❃kkkk쎯	-7.04339
you❃e쎯xian❄bv쎯	-7.04455
dao❄gc쎯	-7.05564
chan❃u쎯pin❃kkk쎯	-7.05674
fu❂eb쎯wu❄tl쎯	-7.06421
fa❁v쎯zhan❃nae쎯	-7.06786
ying❃jyie쎯	-7.07355
dian❃hko쎯	-7.07987
-	-7.08036
zhu❃y쎯yao❁s쎯	-7.08548
liang❂jg쎯	-7.08928
huan❁fny쎯qiu❁og쎯	-7.0923
xia❄gh쎯	-7.09435
hua❁wx쎯	-7.09598
shi❃wgkq쎯	-7.10217
ming❂je쎯	-7.10875
biao❁sfi쎯	-7.11551
hang❂tf쎯	-7.11664
ren❂wtf쎯	-7.11741
cun❁sf쎯	-7.11865
jing❁x쎯ji❄iyj쎯	-7.12224
fang❁yy쎯	-7.12258
guang❁iq쎯	-7.1229
na❄mw쎯	-7.1295
dou❁ftjb쎯	-7.13548
qing❁ige쎯	-7.13987
mei❃ugdu쎯	-7.14314
qing❁gef쎯	-7.15485
you❂mh쎯	-7.15517
xiang❄tm쎯	-7.16035
xi❄txi쎯tong❃xyc쎯	-7.16079
dian❄jn쎯	-7.16199
ji❁sm쎯	-7.16418
쎂	-7.16817
xue❂ip쎯jiao❄suq쎯	-7.16818
lei❄od쎯	-7.16838
wen❂yygy쎯hua❁wx쎯	-7.16983
sheng❁tg쎯chan❃u쎯	-7.17182
yuan❄bpf쎯	-7.17849
shi❁jgm쎯	-7.18154
》	-7.18252
bian❁xyna쎯	-7.19108
,shi❄j쎯	-7.19234
zhe❃ftj쎯	-7.19505
she❄ymc쎯ji❄yf쎯	-7.20387
/	-7.21292
hua❁awx쎯	-7.22084
zhong❁k쎯xin❁ny쎯	-7.22346
qi❂adw쎯	-7.22783
heng❄ght쎯fu❃ywf쎯	-7.23261
huang❂amw쎯	-7.23669
hai❃itx쎯	-7.24013
yuan❂fqb쎯	-7.24036
dan❁ujfj쎯	-7.24068
쎃	-7.24149
qian❂ue쎯	-7.24665
ling❃wycm쎯	-7.25049
an❁yygt쎯	-7.25617
quan❂wg쎯	-7.25902
cheng❁tq쎯	-7.25917
chu❁bm쎯	-7.26354
wang❂ggg쎯	-7.27203
ping❂gu쎯	-7.27703
jing❁oge쎯	-7.28291
jian❄wrh쎯	-7.29215
hua❂wxf쎯	-7.29485
xiang❁tjf쎯	-7.30174
shang❁um쎯	-7.31116
huan❂ggi쎯	-7.32576
ben❃sg쎯	-7.33077
cong❂ww쎯	-7.33127
shi❄aa쎯	-7.33233
tou❂udi쎯	-7.33544
zao❄tfkp쎯	-7.33689
bei❃ux쎯jing❁yiu쎯	-7.33757
wu❂fq쎯	-7.33787
ke❃sk쎯	-7.33832
쎁	-7.33838
jiao❄suq쎯	-7.34269
wei❄wug쎯	-7.34311
zhao❁udh쎯	-7.34417
guo❄fp쎯	-7.3517
feng❁mq쎯	-7.35502
shu❁nnh쎯	-7.35851
zhuang❄udy쎯	-7.36135
yuan❂km쎯	-7.37194
ao❁ftbt쎯yu❄yce쎯	-7.37218
pian❁thg쎯	-7.38051
fen❁wv쎯	-7.3838
ri❄jjjj쎯	-7.39825
bing❄ugm쎯	-7.40339
jun❁pl쎯	-7.40409
guo❂l쎯ji❄bf쎯	-7.40704
wei❁tv쎯yuan❂km쎯	-7.41516
ke❁tu쎯ji❄rfc쎯	-7.4241
lai❂go쎯	-7.42553
guo❂l쎯	-7.42937
jian❁ga쎯	-7.43242
mian❄dm쎯	-7.43514
diao❄ymf쎯	-7.43769
gan❄wh쎯	-7.44207
she❄py쎯hui❄wf쎯	-7.44248
ke❁tu쎯	-7.44959
yang❃udyj쎯	-7.44962
men❂uyh쎯	-7.45065
xuan❃tfqp쎯	-7.45447
long❂dx쎯	-7.46234
jin❄fj쎯hang❂tf쎯	-7.46284
bai❂rrr쎯	-7.46934
yang❂bj쎯	-7.46967
fa❃if쎯	-7.47089
ke❃sk쎯yi❃c쎯	-7.47161
si❄lh쎯	-7.47599
ye❃bn쎯	-7.47784
wai❄qh쎯	-7.47927
xin❁ny쎯	-7.48485
yi❁g쎯chong❂tkh쎯	-7.48729
liu❂iyc쎯	-7.48748
zhan❄hka쎯	-7.48939
you❂img쎯	-7.49291
bing❁ua쎯	-7.49916
nan❂fm쎯	-7.50143
bi❄xxf쎯qiu❁og쎯	-7.50639
shi❄an쎯jie❄lwj쎯	-7.50966
can❁cd쎯jia❁lk쎯	-7.51134
quan❂wg쎯guo❂l쎯	-7.51351
xian❄xg쎯	-7.5172
gan❃dgkn쎯	-7.51918
shi❄pgc쎯	-7.52276
ke❁tu쎯xue❂ip쎯	-7.52442
shen❁tmd쎯	-7.5273
"	-7.5287
de❂tfl쎯	-7.53136
.”	-7.53212
di❄tx쎯yi❁g쎯	-7.53243
ju❂nnk쎯	-7.53633
jian❁ga쎯fa❁v쎯	-7.53943
zi❄thd쎯	-7.54701
er❄fg쎯	-7.5509
쎄	-7.55184
an❁pv쎯	-7.55445
shen❂pyj쎯	-7.55724
()	-7.56134
yuan❂idr쎯	-7.56153
ma❃cn쎯	-7.56417
jie❁ruv쎯	-7.56428
chu❁bm쎯sheng❁tg쎯	-7.56693
yun❃fcp쎯	-7.5682
ti❂rj쎯gong❁waw쎯	-7.56944
,zai❄d쎯	-7.57014
lian❂lpk쎯	-7.57049
shang❃h쎯hai❃itx쎯	-7.573
zheng❃gkih쎯	-7.57638
xi❄txi쎯	-7.57792
you❂iytb쎯	-7.57992
te❄trf쎯	-7.58184
zheng❄ygh쎯	-7.58233
ying❁amd쎯	-7.58316
qing❂nge쎯	-7.58772
yi❄anb쎯shu❂sy쎯	-7.59061
zhu❃y쎯ren❂wtf쎯	-7.59217
jing❁x쎯	-7.59474
lu❄kht쎯	-7.5972
shu❃ntk쎯	-7.59854
zuo❄wt쎯	-7.60065
shou❃rt쎯	-7.60137
chu❁bm쎯ban❃thgc쎯	-7.60229
shou❄epc쎯	-7.60326
xian❁tfq쎯	-7.6066
cheng❂dn쎯li❄uu쎯	-7.60758
li❃jfd쎯	-7.60932
li❄tjh쎯	-7.61335
hong❂xa쎯	-7.61358
an❄vfhp쎯zhu❂tam쎯	-7.61625
tong❁cep쎯guo❄fp쎯	-7.6165
zhan❄uh쎯	-7.61679
qiu❁og쎯	-7.62191
zu❃xeg쎯zhi❁xkw쎯	-7.6291
ji❁adwe쎯	-7.63029
zhuan❃lfn쎯	-7.63618
zhou❁mfk쎯	-7.64237
ying❂apk쎯	-7.64362
y	-7.64605
gong❁wc쎯	-7.64683
jing❄fuj쎯	-7.65555
gan❁fggh쎯	-7.65644
shu❄ovt쎯	-7.65998
》zzbd쎯《	-7.68357
luo❄xtk쎯	-7.68478
xin❄wy쎯xi❁thn쎯	-7.69004
zhi❄ick쎯	-7.6955
ru❄ty쎯	-7.69732
qi❄kkd쎯	-7.69801
qi❃rnb쎯	-7.69814
cong❂ww쎯shi❄gk쎯	-7.70005
he❂isk쎯	-7.70106
yuan❂dr쎯	-7.70946
chuan❁kthh쎯	-7.7101
che❁lg쎯	-7.71057
re❄rvyo쎯	-7.71178
ju❄hw쎯you❃e쎯	-7.71761
fang❂yny쎯	-7.71795
쎅	-7.71927
xie❂fl쎯hui❄wf쎯	-7.72119
zhun❃uwy쎯	-7.72881
zhang❁xt쎯	-7.72882
kong❄rpw쎯	-7.72893
si❄ck쎯	-7.73052
),	-7.73065
shuang❁cc쎯	-7.733
fu❄gkl쎯	-7.7357
ruan❃lqw쎯	-7.73719
she❄ymc쎯bei❄tlf쎯	-7.74046
jiang❃uqd쎯	-7.74129
mei❃ugdu쎯guo❂l쎯	-7.74192
wu❃gg쎯	-7.74298
hao❂kgn쎯	-7.74561
ding❄pg쎯	-7.74976
guan❁ud쎯	-7.75024
xing❁jtg쎯	-7.75121
shi❄fghg쎯	-7.75805
gang❃iawn쎯	-7.75988
gong❁al쎯neng❂ce쎯	-7.76169
yi❃c쎯ji❂ey쎯	-7.76175
pai❂thgf쎯	-7.76433
fei❁djd쎯	-7.76779
tiao❂ts쎯	-7.7705
zhi❃rxj쎯	-7.77249
zui❄jb쎯	-7.77264
shen❁ipw쎯	-7.77392
fa❁v쎯	-7.77504
xiang❄qje쎯	-7.77813
cang❂adnt쎯	-7.78441
guan❃tp쎯	-7.78786
lin❂ss쎯	-7.78802
ji❂wys쎯	-7.78923
wan❂pfq쎯	-7.78988
gai❁yynw쎯	-7.79047
zhi❄rfm쎯	-7.79838
du❄ya쎯	-7.80313
bian❄yo쎯	-7.81098
쎆	-7.81234
xian❄gm쎯	-7.81395
tong❃xyc쎯	-7.81464
chao❂fje쎯	-7.81517
mian❄dm쎯ji❁tkw쎯	-7.81676
dang❁iv쎯	-7.81875
zi❄thd쎯ji❃nng쎯	-7.82844
li❄dl쎯shi❃kq쎯	-7.82849
gong❁a쎯qiu❁og쎯	-7.82869
ming❄wgkb쎯	-7.83341
an❄vfhp쎯she❄ymc쎯	-7.8362
dai❄gkp쎯	-7.83632
zhan❃nae쎯	-7.8385
si❁adwr쎯	-7.83995
bian❁lp쎯	-7.84202
xue❂ip쎯sheng❁tg쎯	-7.84294
ru❂vk쎯	-7.84466
mu❄ssss쎯	-7.84604
lian❂bu쎯	-7.84633
,bing❁ua쎯	-7.85535
jiang❄xk쎯	-7.85572
yi❃nnnn쎯	-7.85648
de❅f쎯qu❁aq쎯	-7.85702
”.	-7.85936
jin❁wynb쎯	-7.8612
shou❃uth쎯	-7.86158
쎈	-7.86303
gu❃dgh쎯	-7.86321
ke❄dq쎯	-7.86448
li❄lt쎯	-7.87248
ping❂gu쎯fang❁yy쎯	-7.87469
xiang❄adm쎯	-7.87472
chu❄th쎯	-7.87646
zi❄thd쎯ran❂qd쎯	-7.87681
xie❂kf쎯	-7.87693
nv❃vvv쎯	-7.87694
ta❁wb쎯	-7.87846
xiang❄wqj쎯	-7.88064
,yi❃c쎯	-7.88156
rong❂pww쎯	-7.88181
쎁쎀	-7.88188
zuo❄wt쎯pin❃kkk쎯	-7.88192
jia❁lk쎯	-7.88443
ji❂wys쎯qiu❂lft쎯	-7.88464
you❄ccc쎯	-7.88814
cheng❂dn쎯wei❄o쎯	-7.88845
jiu❄yi쎯	-7.88904
zhen❁fhw쎯	-7.89366
sh	-7.89855
jie❁tffh쎯	-7.89869
qi❃fhn쎯	-7.90129
mu❄hhhh쎯	-7.90319
da❂dp쎯	-7.90477
tu❂ltu쎯	-7.9049
ji❂xe쎯	-7.91052
wan❂lfq쎯	-7.91133
guan❃qnp쎯	-7.91156
hao❃vb쎯	-7.91162
qing❄fnr쎯	-7.91213
lao❃ftx쎯	-7.91921
ge❄tk쎯	-7.92021
zhi❄lfhf쎯	-7.92035
chong❂tgj쎯yao❁s쎯	-7.92065
》:“	-7.92217
jian❄mqb쎯	-7.92392
g	-7.92597
ge❃wgk쎯	-7.9264
zong❁xp쎯ge❃wgk쎯	-7.92643
kong❁pw쎯	-7.92759
ren❂w쎯min❂n쎯	-7.93037
tai❄dyn쎯	-7.93105
tong❂m쎯	-7.93143
huo❄aqt쎯	-7.93183
jiu❃isgg쎯	-7.93476
dao❃qynm쎯	-7.93781
huo❃ooo쎯	-7.93905
she❄py쎯	-7.94102
zhang❁ujj쎯	-7.942
yi❁atd쎯yuan❄bpf쎯	-7.94259
geng❁gjq쎯	-7.94299
yao❁s쎯	-7.94472
zhao❂aft쎯	-7.94572
zu❃xeg쎯cheng❂dn쎯	-7.94706
xiu❁wht쎯	-7.94716
tian❂lll쎯	-7.94963
yun❂fcu쎯	-7.95128
you❂iytb쎯xi❄ca쎯	-7.95201
bei❃ux쎯	-7.95326
xian❄gm쎯dai❄wa쎯	-7.95363
쎇	-7.95386
gai❃nty쎯	-7.95448
jia❁lk쎯ru❄ty쎯	-7.95868
yin❁ujf쎯	-7.96284
tou❂rmc쎯zi❁uqwm쎯	-7.96507
ri❄jjjj쎯ben❃sg쎯	-7.96963
qu❄fcu쎯	-7.9729
shi❂jf쎯jian❁uj쎯	-7.97761
zu❃xeg쎯	-7.97818
fu❂pyg쎯	-7.97836
shu❃ntk쎯yu❂gf쎯	-7.98013
dian❄jn쎯zi❃bb쎯	-7.9807
nong❂pei쎯qiu❁og쎯	-7.98074
ka❃hhu쎯	-7.98121
guan❁cm쎯	-7.9815
han❃dgt쎯	-7.98191
de❂tj쎯	-7.98354
c	-7.98399
ang❄adm쎯mu❄hhhh쎯	-7.98859
li❃sb쎯	-7.99075
lun❄ywx쎯	-7.99628
ren❂w쎯,	-7.99828
guo❂l쎯na❄mw쎯	-8.00011
ge❄tk쎯chong❂tkh쎯	-8.00061
!	-8.00401
qiao❂std쎯	-8.00426
yin❁ujf쎯le❄qi쎯	-8.00454
yuan❃fqp쎯	-8.0138
bo❂fge쎯shi❄fghg쎯	-8.01393
zhao❄jvko쎯	-8.01398
zhong❁k쎯gong❄aw쎯	-8.01467
wei❂lfnh쎯	-8.01616
jin❄fj쎯	-8.01639
쎇yue❄eee쎯	-8.01678
gong❄aw쎯	-8.01996
qiu❂gfi쎯	-8.02175
shou❄rep쎯	-8.02205
dian❄jn쎯shi❄pym쎯	-8.02291
쎂쎀	-8.02316
qing❄yd쎯	-8.02462
yu❂qgf쎯	-8.03796
yong❁reh쎯you❃e쎯	-8.04021
ban❄lw쎯gong❁wc쎯	-8.04156
bu❂i쎯tong❂m쎯	-8.04247
ceng❂nfc쎯	-8.04688
kang❄rymn쎯	-8.04705
zui❄jb쎯da❄dd쎯	-8.04821
lan❂uff쎯	-8.0496
sha❁iit쎯	-8.05266
tu❃ffff쎯	-8.05628
li❄uu쎯	-8.05633
luo❁lq쎯	-8.05634
you❁wdn쎯xiu❄te쎯	-8.05759
xian❁tfq쎯jin❄fj쎯	-8.0596
bu❄uk쎯fen❁wv쎯	-8.05973
hang❂tf쎯qiu❁og쎯	-8.06438
zhong❁k쎯de❅r쎯	-8.06851
shi❂wyv쎯	-8.06903
mu❄hhhh쎯qian❂ue쎯	-8.06907
ji❁ad쎯chu❃dbm쎯	-8.06952
bao❃pgy쎯	-8.07102
er❃qiu쎯	-8.07188
se❄qc쎯	-8.07193
mi❃oy쎯	-8.07283
li❃gj쎯lun❄ywx쎯	-8.07308
wu❃gah쎯	-8.07391
lv❃ytey쎯	-8.07596
ba❃rcn쎯	-8.07699
chun❁dw쎯	-8.07782
gong❁al쎯	-8.07811
ci❄uqw쎯	-8.07866
la❁ru쎯	-8.07915
jian❁uj쎯	-8.07973
jian❁ga쎯shi❃vck쎯	-8.07976
ya❄gog쎯	-8.08157
xian❄gm쎯ren❂wtf쎯	-8.08249
wei❄kfi쎯	-8.08338
chuang❂ysi쎯	-8.0872
lin❂jty쎯	-8.08792
dai❄wa쎯biao❃ge쎯	-8.08839
쎁쎆	-8.08897
bian❄wgj쎯	-8.09118
xue❂ip쎯xi❂nu쎯	-8.09173
shang❄imkf쎯	-8.09373
jing❁x쎯ying❂apk쎯	-8.09606
she❄ymc쎯	-8.09641
fang❁yy쎯mian❄dm쎯	-8.09678
zuo❄wt쎯wei❄o쎯	-8.09704
zi❄pb쎯	-8.09815
zhong❁k쎯xue❂ip쎯	-8.09862
zhong❁qkhh쎯	-8.09896
tui❁rwyg쎯	-8.09989
jin❄rp쎯	-8.10069
bi❃xx쎯	-8.10599
xi❄txi쎯lie❄gq쎯	-8.10862
nan❂ll쎯	-8.11045
cai❂sft쎯liao❄ou쎯	-8.11131
wen❁ijl쎯	-8.11475
f	-8.11483
shi❁yff쎯	-8.11703
xing❄iw쎯	-8.11711
bao❃wk쎯	-8.1201
쎁쎅	-8.12057
zhu❃y쎯	-8.12211
쎉yue❄eee쎯	-8.12228
wo❃q쎯	-8.12236
yuan❂lkmi쎯	-8.123
shi❄gk쎯	-8.12301
shi❄pym쎯	-8.12359
t	-8.12604
huo❄aqt쎯de❂tj쎯	-8.12617
qiu❂lft쎯	-8.12849
gong❁wc쎯li❃jfd쎯,	-8.12889
shou❁nh쎯	-8.12962
shan❄uduk쎯	-8.13188
guan❁pn쎯	-8.13276
ji❁ad쎯	-8.13284
pi❂hc쎯	-8.13506
shuo❁yu쎯	-8.13537
yin❁ld쎯	-8.13851
d	-8.14003
an❁yygt쎯dong❁ai쎯	-8.14165
duan❁umd쎯	-8.14173
xin❄wy쎯	-8.14235
mo❄dnv쎯	-8.14597
jie❂ab쎯	-8.14609
wei❁tmg쎯	-8.14681
wu❄tr쎯	-8.1477
쎈yue❄eee쎯	-8.14914
song❁swc쎯	-8.14933
liu❄uy쎯	-8.15002
zhong❁k쎯yang❁md쎯	-8.15187
fu❂gip쎯	-8.15222
쎁쎂yue❄eee쎯	-8.15265
ai❄ep쎯	-8.15452
shu❄ovt쎯ju❁rnd쎯	-8.15496
kuai❄nnw쎯	-8.15617
qi❂adw쎯ta❁wb쎯	-8.15715
u❃isgg쎯dian❄yhk쎯	-8.15769
shi❄an쎯	-8.1589
ji❁ad쎯ben❃sg쎯	-8.15932
shu❁nnh쎯ji❄yn쎯	-8.16
쎁쎂	-8.16002
,wei❄o쎯	-8.16072
an❁pv쎯quan❂wg쎯	-8.16132
dao❃nf쎯	-8.16282
wen❂yygy쎯xue❂ip쎯	-8.16306
ao❁uq쎯tong❁cep쎯	-8.16454
chen❂ba쎯	-8.16691
yong❄et쎯yu❂gf쎯	-8.17102
pan❂tel쎯	-8.17122
xian❁qgu쎯	-8.17151
ceng❂ul쎯	-8.17199
k	-8.17312
xie❃pgn쎯	-8.17699
chan❃u쎯qiu❁og쎯	-8.17717
zhi❁fc쎯chi❂rf쎯	-8.17924
you❁wdn쎯	-8.1804
.zai❄d쎯	-8.1838
bao❁qn쎯	-8.1856
rou❄mww쎯	-8.18563
jing❃jy쎯	-8.18623
pian❁tyna쎯	-8.1882
ren❂w쎯yuan❂km쎯	-8.18884
suan❁sgc쎯	-8.18962
zong❁pfi쎯	-8.18972
ji❂vcb쎯	-8.19203
gang❁qmq쎯	-8.19371
l	-8.19553
xiao❁qie쎯	-8.19898
yue❄eee쎯	-8.19956
ren❂w쎯.	-8.2001
jie❂xf쎯gou❃sq쎯	-8.20232
bao❁qn쎯gua❁rtd쎯	-8.20388
jiao❁uq쎯	-8.20461
su❁alw쎯	-8.20671
tang❂yvh쎯	-8.20776
쎃쎀	-8.2078
,nan❂ll쎯,	-8.20878
).	-8.2101
쎁쎀yue❄eee쎯	-8.21149
ban❃src쎯	-8.21583
쎉	-8.21964
zheng❁tgh쎯	-8.2212
chu❄th쎯li❃gj쎯	-8.22366
쎁쎈	-8.22618
du❂gxgu쎯	-8.227
mei❃ugdu쎯shu❂sy쎯	-8.22738
bu❄dmh쎯	-8.22914
xiong❂dcw쎯	-8.2296
n	-8.23106
nong❂pei쎯	-8.23108
ci❃hx쎯	-8.23125
a❁bs쎯	-8.23296
deng❃tffu쎯.	-8.23366
ji❄yf쎯suan❄tha쎯	-8.2339
jiang❁ia쎯su❁alw쎯	-8.23533
xue❂ip쎯hui❄wf쎯	-8.23632
hui❂lkd쎯	-8.23756
ban❄uf쎯	-8.23844
le❄qi쎯	-8.24014
fang❁yy쎯fa❃if쎯	-8.24087
cao❃ajj쎯	-8.24143
qi❂adw쎯zhong❁k쎯	-8.24339
yu❃ygk쎯	-8.2439
ji❁sm쎯gou❃sq쎯	-8.2451
pei❄sgn쎯	-8.2451
hu❂ide쎯	-8.24804
hua❄gl쎯	-8.2491
yi❁atd쎯xue❂ip쎯	-8.24949
shi❄qnth쎯	-8.24969
jin❁ivfh쎯	-8.25047
xie❃tld쎯	-8.25052
di❄tx쎯er❄fg쎯	-8.25184
ban❁gyt쎯	-8.25741
zhi❂sfhg쎯	-8.25762
jiu❄yi쎯shi❄j쎯	-8.25957
hei❁lfo쎯	-8.25968
쎁쎇	-8.26122
han❄ic쎯	-8.26183
tang❂ipkf쎯	-8.26183
yu❄gy쎯	-8.26271
ning❂ps쎯	-8.26401
lou❂sov쎯	-8.2669
ao❁qie쎯shou❄wyk쎯	-8.26795
kuang❄dyt쎯	-8.27077
fan❄aib쎯	-8.27176
zhi❄rmhj쎯zuo❄wt쎯	-8.27182
zhi❂sfhg쎯wu❄tr쎯	-8.27575
xiao❃ih쎯shuo❁yu쎯	-8.27913
ta❃fawk쎯	-8.27934
min❂n쎯	-8.2797
quan❂riu쎯	-8.28143
jiang❃yfj쎯	-8.28146
jian❁uvo쎯	-8.28167
zhu❄wygg쎯	-8.28301
wen❄ukd쎯ti❂jghm쎯	-8.28399
da❂rs쎯	-8.28414
xiao❁iie쎯	-8.28443
shu❄scf쎯	-8.28449
wang❃tyg쎯	-8.28536
xiang❃ktm쎯	-8.28783
w	-8.28984
kuo❄tdp쎯	-8.29027
fang❄yt쎯	-8.29076
쎅쎀	-8.2926
chao❁fhv쎯	-8.29284
yong❃yni쎯	-8.29336
jian❄vfhp쎯yu❂gf쎯	-8.29434
jie❃qev쎯	-8.29493
ni❃wq쎯	-8.29772
gen❁sve쎯ju❁rnd쎯	-8.29834
ba❁wty쎯	-8.29977
lv❄yx쎯	-8.30446
cai❃es쎯yong❄et쎯	-8.30749
gui❁fwm쎯hua❂aj쎯	-8.30885
leng❃uwyc쎯	-8.3096
wei❁tv쎯	-8.31106
she❄rbcc쎯	-8.3118
sheng❁tg쎯wu❄tr쎯	-8.31351
de❅r쎯z	-8.31484
ji❁dskf쎯	-8.31532
hang❂tey쎯	-8.31591
mao❂tfn쎯	-8.31931
i❁uqwm쎯yuan❂idr쎯	-8.31944
na❄mw쎯rong❂pww쎯	-8.32169
xiang❃shn쎯	-8.32195
yi❄ujn쎯	-8.32332
%	-8.32389
fen❃ow쎯	-8.32688
cheng❂bd쎯	-8.32824
bao❃wk쎯hu❄ryn쎯	-8.32846
gen❁sve쎯	-8.33174
쎆yue❄eee쎯	-8.33338
shi❃kq쎯	-8.33342
liu❂yj쎯	-8.33702
shao❃it쎯	-8.33825
dian❄yhk쎯	-8.33966
feng❁fffy쎯	-8.34003
쎁쎃	-8.34007
?	-8.34098
xian❁tfq쎯hou❄rg쎯	-8.34224
dian❃maw쎯	-8.34521
duan❃tdg쎯	-8.34623
gui❄khgm쎯	-8.34632
ji❁sm쎯xie❄sa쎯	-8.34725
bing❁rgw쎯	-8.34787
duan❄wdm쎯	-8.34817
qi❁ag쎯	-8.35073
yan❂mdf쎯	-8.35077
fen❁wv쎯xi❁sr쎯	-8.35109
yun❂fcu쎯nan❂fm쎯	-8.35112
ze❂mj쎯	-8.35142
su❄gkip쎯	-8.35307
ke❄yjs쎯	-8.3541
”de❅r쎯	-8.35412
zheng❁qv쎯	-8.35432
shang❁wtl쎯	-8.35525
ke❄pt쎯hu❄yne쎯	-8.3557
,qi❂adw쎯zhong❁k쎯	-8.35654
fei❁nui쎯	-8.35748
jiao❃qe쎯	-8.35749
shang❁um쎯wu❄tl쎯	-8.35911
pei❂fuk쎯xun❄yk쎯	-8.35975
lao❂apl쎯	-8.36026
yue❁xq쎯	-8.36061
ping❂ygu쎯	-8.36094
dai❄wa쎯	-8.36108
tang❁inr쎯	-8.36445
쎃yue❄eee쎯	-8.36477
fei❄xjm쎯	-8.36737
dui❄bw쎯	-8.36873
ban❃thgc쎯	-8.37269
gong❄aw쎯chan❃u쎯	-8.37357
xiao❃ih쎯xue❂ip쎯	-8.37504
ju❄hw쎯	-8.37681
ban❄lw쎯	-8.37754
zhi❄fn쎯	-8.37869
”,	-8.38132
fo❂wxj쎯	-8.38242
wei❂xwy쎯	-8.38433
zuo❄wdt쎯	-8.38526
chang❄kjj쎯	-8.38587
feng❁dh쎯fu❄pgk쎯	-8.38784
ling❂vo쎯	-8.38813
sai❄pfjm쎯	-8.38813
he❂isk쎯nan❂fm쎯	-8.38846
juan❃udbb쎯	-8.38865
xuan❁pgj쎯	-8.38908
bei❄tlf쎯	-8.38958
쎁yue❄eee쎯	-8.39192
me❅im쎯you❃e쎯	-8.39417
cheng❂dnnl쎯	-8.39546
yan❂fhl쎯	-8.3955
she❄py쎯qu❁aq쎯	-8.39871
쎁쎄	-8.39961
ju❁nd쎯	-8.40135
bo❁ihc쎯	-8.40233
jian❁jtyl쎯	-8.40312
jiu❃vt쎯	-8.40484
zhong❁k쎯hua❂wxf쎯	-8.40638
쎁쎁yue❄eee쎯	-8.40793
쎅yue❄eee쎯	-8.40811
mo❄dnv쎯yuan❂fqb쎯	-8.40812
liao❄ou쎯	-8.40843
chu❁puv쎯	-8.40861
yuan❂km쎯,	-8.40915
shi❂pu쎯yan❄cwg쎯	-8.40944
chong❂jhny쎯	-8.40984
zhi❁pp쎯yi❁g쎯.	-8.41198
shi❃vck쎯	-8.41354
guo❃js쎯	-8.414
ge❂st쎯	-8.4145
jia❁lk쎯gong❁a쎯	-8.41495
cha❂pwfi쎯	-8.4156
qu❁ma쎯	-8.41584
jiao❄lu쎯	-8.4181
ge❃wgk쎯zuo❄wt쎯	-8.41817
cai❄ae쎯	-8.41946
qun❂vtk쎯	-8.42303
ba❁cnh쎯	-8.42341
zhi❂bk쎯qiu❁og쎯	-8.42535
fu❂eb쎯	-8.42582
an❄rpv쎯	-8.42607
yi❂naj쎯	-8.42633
hi❄ick쎯liao❂ubk쎯	-8.4278
yan❂yyy쎯	-8.42974
gei❃xw쎯	-8.43078
yao❄ax쎯	-8.4315
peng❂yfd쎯	-8.43152
,you❃e쎯	-8.43474
hou❄rg쎯,	-8.43545
tie❃qr쎯	-8.43687
jia❃lhnh쎯	-8.43975
zhi❁td쎯shi❂ykw쎯	-8.4402
ben❃sg쎯shu❁nnh쎯	-8.44173
shang❁um쎯qiu❁og쎯	-8.44183
p	-8.44419
shi❁jgm쎯fan❄aib쎯	-8.44529
쎄yue❄eee쎯	-8.44596
man❃iagw쎯	-8.44724
qu❃bc쎯	-8.44795
qiu❂fiy쎯	-8.4481
biao❃ge쎯	-8.44868
cha❂aws쎯	-8.4498
da❄dd쎯xing❂gajf쎯	-8.45138
fang❂by쎯	-8.45204
hu❂ide쎯nan❂fm쎯	-8.45273
tang❂oyvk쎯	-8.4534
sheng❁tak쎯	-8.45439
fu❄qm쎯ze❂gmu쎯	-8.45512
shou❁nh쎯ru❄ty쎯	-8.45612
jie❄lwj쎯	-8.45722
쎄쎀	-8.4607
ge❁sksw쎯	-8.46221
neng❂ce쎯li❄lt쎯	-8.46231
cai❂sft쎯	-8.46257
,qi❂adw쎯	-8.46342
zai❄gmf쎯	-8.4646
fu❄tjt쎯	-8.46496
gong❁waw쎯	-8.46524
shi❄qa쎯	-8.46532
shao❁oat쎯	-8.46596
,dan❄wjg쎯	-8.46818
zeng❁fu쎯	-8.46875
ren❂w쎯min❂n쎯z	-8.46918
min❂n쎯zu❂ytt쎯	-8.47
fa❁v쎯sheng❁tg쎯	-8.47343
zi❄thd쎯dong❄fcl쎯	-8.47376
ge❂af쎯ming❄wgkb쎯	-8.47645
jian❄vfhp쎯li❄uu쎯	-8.47744
ding❃sdm쎯	-8.47758
j	-8.47785
wei❁tv쎯hui❄wf쎯	-8.47814
zhi❁pp쎯yi❁g쎯	-8.47825
si❁xxg쎯	-8.4797
qian❁tfk쎯	-8.48051
quan❂sc쎯	-8.48304
jun❁fqu쎯	-8.48389
chong❁ukh쎯	-8.48414
f쎯	-8.48532
wei❄bg쎯sheng❁tg쎯	-8.48667
guan❁pfqf쎯	-8.48749
zzbd쎯zzbd쎯	-8.48773
zhe❄p쎯	-8.48776
yi❁g쎯ban❁tem쎯	-8.48779
wang❄yneg쎯	-8.48806
zhi❂fh쎯	-8.48813
zzsx쎯	-8.48839
chun❂xgb쎯	-8.48864
yue❄fha쎯	-8.48872
san❃aet쎯	-8.48931
gong❁a쎯yi❄anb쎯	-8.48951
hua❁wx쎯xue❂ip쎯	-8.49011
gao❁ym쎯ji❂xe쎯	-8.49112
쎁쎁	-8.49393
jing❁yiu쎯	-8.49592
쎆쎀	-8.49745
shi❄j쎯yi❁g쎯	-8.49973
zuo❄yww쎯	-8.50045
cheng❂kg쎯	-8.50045
de❅yqa쎯	-8.50048
shi❄j쎯zhi❃rxj쎯	-8.5012
gan❄wh쎯ren❂w쎯	-8.50254
ni❂nx쎯	-8.5046
te❄trf쎯dian❃hko쎯	-8.50504
tai❄dy쎯	-8.50641
kan❁rhf쎯	-8.50659
bao❄rb쎯	-8.50726
zhong❁xtu쎯	-8.50752
qiu❁og쎯wu❄tl쎯	-8.50776
cha❁yq쎯	-8.50971
쎂쎅	-8.50989
gong❁pk쎯	-8.51068
na❄xmw쎯	-8.51251
yin❄qgb쎯	-8.51377
di❁wqa쎯	-8.51417
hen❃tve쎯	-8.51433
fang❁yy쎯shi❄aa쎯	-8.52057
sheng❁tg쎯,	-8.52146
qi❄irn쎯che❁lg쎯	-8.52289
cheng❁tq쎯wei❄o쎯	-8.52293
jie❄nm쎯	-8.52365
yong❄et쎯hu❄yne쎯	-8.52366
yi❁g쎯ben❄wsg쎯	-8.52633
ta❁vbn쎯	-8.52804
쎂쎄	-8.53162
zhi❁pp쎯jian❁uj쎯	-8.53234
niu❂rhk쎯	-8.53362
xi❄xl쎯	-8.53497
guang❁sam쎯	-8.53644
chu❂bwt쎯	-8.53659
su❄gxi쎯	-8.53825
tai❄dwiu쎯	-8.53925
de❅r쎯ji	-8.53981
ting❁ds쎯	-8.54026
sui❂bde쎯	-8.54095
bing❁nua쎯	-8.54205
s	-8.54294
jin❄gogj쎯	-8.54305
hi❄rfm쎯liang❂jg쎯	-8.54313
liang❂ivw쎯	-8.54323
pai❄ire쎯	-8.54432
kang❁yvi쎯	-8.54569
gao❄tfkf쎯	-8.54784
yan❃hv쎯	-8.54788
ke❁tu쎯yan❂dga쎯	-8.54852
jie❄wj쎯shao❄xvk쎯	-8.54878
m	-8.54921
zuo❄wt쎯yong❄et쎯	-8.551
rang❄yh쎯	-8.55181
qing❁lc쎯	-8.55312
shi❂fgh쎯	-8.55337
ci❂yngk쎯	-8.55387
zhi❃rxj쎯dao❃nf쎯	-8.55549
gong❁wc쎯lu❄kht쎯	-8.55636
.《	-8.55863
mi❄pnt쎯	-8.56069
xiang❃ybf쎯	-8.56079
bie❂klj쎯	-8.56081
jie❂xf쎯	-8.56468
an❁pv쎯hui❁tmgt쎯	-8.5648
tun❁kgd쎯	-8.56578
”zzbd쎯“	-8.56672
kao❃ftg쎯	-8.56741
cao❁rkk쎯zuo❄wt쎯	-8.57035
huang❂rgf쎯	-8.57196
yang❂sn쎯	-8.57233
li❄tjh쎯yong❄et쎯	-8.5724
liang❂yv쎯	-8.57254
fan❃rc쎯	-8.57308
bai❃dj쎯	-8.57363
tong❂m쎯shi❂jf쎯	-8.57392
uo❄ddm쎯shi❄fghg쎯	-8.57524
hu❂ide쎯bei❃ux쎯	-8.5753
song❄psu쎯	-8.57647
si❄ck쎯wan❁iyo쎯	-8.57792
you❃e쎯guan❁ud쎯	-8.5789
ya❃ahty쎯	-8.57916
shou❂ybv쎯	-8.58029
zi❁uqwm쎯	-8.58209
lian❂bu쎯ge❃wgk쎯	-8.58274
zzts쎯	-8.58361
kong❃bnn쎯	-8.58419
chuan❁pwat쎯	-8.58426
hua❄ytd쎯	-8.58485
g쎯	-8.5855
yan❃ipg쎯	-8.58572
chu❁bm쎯xian❄gm쎯	-8.58656
hu❄yne쎯	-8.58772
jian❃tuj쎯	-8.58877
shu❁nnh쎯fa❃if쎯	-8.58921
+	-8.59051
zhi❂wfhg쎯	-8.59096
tan❄rpws쎯	-8.59244
gong❁a쎯zuo❄wt쎯,	-8.59279
dan❁rjg쎯ren❂wtf쎯	-8.59359
si❄ff쎯	-8.59517
쎈쎀	-8.59531
*	-8.59765
jie❂xf쎯ge❃wgk쎯	-8.59766
feng❁dh쎯	-8.5977
yuan❂xxe쎯	-8.59859
yu❃ygk쎯yan❂yyy쎯	-8.59902
xue❂ip쎯shu❂sy쎯	-8.59964
ji❄yjjh쎯	-8.60031
ku❁cff쎯	-8.60054
zhou❁iyt쎯	-8.60264
ju❄ndj쎯	-8.60278
xu❁fdm쎯yao❁s쎯	-8.60334
dou❃ufk쎯	-8.60375
mai❄eyni쎯	-8.6045
shi❂pu쎯	-8.60538
song❄udp쎯	-8.60728
duo❁qq쎯nian❂rh쎯	-8.60887
gong❁wc쎯li❃jfd쎯	-8.61054
gu❃me쎯	-8.61135
yu❄fakg쎯	-8.61355
zu❂ytt쎯	-8.6139
zhu❂ttg쎯	-8.61545
she❄ymc쎯shi❁ytb쎯	-8.61656
he❂isk쎯bei❃ux쎯	-8.6168
yin❂qve쎯	-8.61691
shi❂jf쎯,	-8.61756
mei❂stx쎯	-8.61759
jie❄wwj쎯	-8.61783
h	-8.6207
ji❄yf쎯hua❂aj쎯	-8.62102
yu❄yce쎯	-8.62118
fa❁v쎯biao❃ge쎯	-8.62209
han❂wynk쎯	-8.623
xiao❄uqt쎯	-8.62342
deng❁wgku쎯	-8.6235
jing❃aqky쎯	-8.62357
tie❃qr쎯lu❄kht쎯	-8.62368
si❁ln쎯	-8.62385
cheng❁uqv쎯	-8.62446
kuan❁pa쎯	-8.62528
niao❃qyng쎯	-8.62612
xian❄fmud쎯	-8.62836
shi❂wyv쎯pin❃kkk쎯	-8.62877
dong❄imgk쎯	-8.63084
sheng❁tg쎯yu❂gf쎯	-8.63162
yan❂dga쎯	-8.63348
qie❁av쎯	-8.63432
feng❁mtd쎯	-8.63676
ha❁kwg쎯	-8.63701
ling❂wyc쎯	-8.6373
di❄tx쎯san❁dg쎯	-8.63764
ku❄ylk쎯	-8.63833
xi❁iex쎯	-8.63863
hui❄wf쎯yuan❂km쎯	-8.63881
ya❁dfy쎯	-8.63908
ren❂w쎯kou❃kkkk쎯	-8.64011
xu❄ycb쎯	-8.64045
bu❄uk쎯men❂uyh쎯	-8.64074
zou❃fhu쎯	-8.64152
kuai❄fnw쎯	-8.64221
dong❄fcl쎯wu❄tr쎯	-8.64254
yi❁g쎯ding❄pg쎯	-8.64567
zhe❄p쎯gan❄wh쎯	-8.64654
wei❄fii쎯	-8.64711
he❂synw쎯	-8.64926
zhi❁kw쎯	-8.65125
chan❃u쎯sheng❁tg쎯	-8.6518
chi❁yb쎯	-8.65261
an❄wvf쎯kang❁yvi쎯	-8.65268
er❄fg쎯shi❂fgh쎯	-8.65379
ying❄dgj쎯	-8.65477
de❅f쎯fang❁yy쎯	-8.65503
cun❂dhb쎯	-8.65769
suo❃rn쎯you❃e쎯	-8.65822
pai❂rdj쎯	-8.65877
zhong❁k쎯,	-8.65878
ping❂gu쎯jun❁fqu쎯	-8.65956
zheng❄ugh쎯	-8.66122
rui❄gmd쎯	-8.66157
ren❂wfg쎯	-8.66396
he❂synw쎯xin❁ny쎯	-8.66407
,you❂mh쎯	-8.66507
,er❂dmj쎯	-8.66584
yang❂iu쎯	-8.66738
zhi❁td쎯	-8.66739
ji❂fk쎯	-8.66878
❁sghg쎯sheng❃ith쎯	-8.6691
zu❂khu쎯qiu❂gfi쎯	-8.66991
na❃vfb쎯	-8.67165
yu❂wtu쎯	-8.67189
쎂yue❄eee쎯	-8.67243
yi❁g쎯xie❁hxf쎯	-8.67306
shi❂jf쎯ji❁adwe쎯	-8.67464
chuan❂temk쎯	-8.67582
pu❃uo쎯	-8.6777
zh	-8.67806
zhang❃ta쎯,	-8.67955
zhi❂bk쎯	-8.68022
nan❂fm쎯jing❁yiu쎯	-8.68056
diao❁mfky쎯	-8.68175
quan❂wg쎯mian❄dm쎯	-8.6822
can❁cd쎯shu❄ovt쎯	-8.6847
zhe❄p쎯chong❂tkh쎯	-8.68563
fu❁fw쎯	-8.68636
ti❂rj쎯gao❁ym쎯	-8.68742
yi❃nnnn쎯jing❁x쎯	-8.688
fa❃if쎯lv❄tvfh쎯	-8.68894
shi❄rvyl쎯	-8.68932
ta❁px쎯	-8.68932
zheng❄udb쎯	-8.68945
ding❁sgh쎯	-8.68959
ji❂se쎯	-8.69104
yang❂rnr쎯	-8.69141
ti❂jghm쎯	-8.6917
jia❁fkuk쎯	-8.69441
dang❃ipk쎯wei❁tv쎯	-8.69701
duan❄on쎯	-8.69765
lv❄xv쎯	-8.69793
te❄trf쎯se❄qc쎯	-8.69875
쎃쎂	-8.69878
fu❃ywf쎯	-8.70037
li❃gj쎯	-8.70245
an❁yygt쎯xi❁sghg쎯	-8.70286
wo❃q쎯guo❂l쎯	-8.70415
suo❃fpx쎯	-8.70501
ruo❄adk쎯	-8.70517
hui❄wf쎯yi❄yyq쎯	-8.7059
si❁ln쎯xiang❃shn쎯	-8.7061
pai❁rrg쎯	-8.70674
shu❁nnh쎯hua❄gl쎯	-8.70779
chuang❁aqrn쎯	-8.7079
lei❂flf쎯	-8.70846
er❂qt쎯	-8.70882
ke❄ynt쎯	-8.70915
ji❁cqy쎯	-8.71
zhi❄tdkj쎯	-8.7108
ben❄wsg쎯yu❄yce쎯	-8.71116
fen❁wv쎯bu❄dmh쎯	-8.71158
:“	-8.71529
쎂쎀쎁쎀nian❂rh쎯	-8.71598
gu❃wwk쎯	-8.71755
ling❂bfw쎯	-8.71853
he❄irr쎯jiang❁ia쎯	-8.71899
쎁쎀쎀	-8.71994
.gai❁yynw쎯	-8.72079
chan❃u쎯	-8.72101
yi❁atd쎯liao❂ubk쎯	-8.72132
di❄tx쎯	-8.72291
zu❂khu쎯	-8.72584
ren❂w쎯wu❄tr쎯	-8.72605
qian❂qg쎯	-8.72632
shi❄j쎯you❂mh쎯	-8.728
fa❁v쎯xian❄gm쎯	-8.72821
cai❂ft쎯	-8.72836
guan❁ud쎯xi❄txi쎯	-8.72869
chang❁jj쎯	-8.72876
xian❃bwg쎯	-8.72885
wei❃ntf쎯	-8.72976
ye❃jfc쎯	-8.73011
tao❄ddu쎯	-8.73038
jing❄geq쎯	-8.7305
pei❂fuk쎯	-8.73054
zhi❃xqa쎯	-8.73117
she❄tmdf쎯	-8.73315
yan❂dga쎯fa❁v쎯	-8.736
mei❃txg쎯	-8.73668
du❂qtj쎯li❄uu쎯	-8.73946
xian❁wm쎯	-8.74164
cai❃ese쎯	-8.74499
xue❃fv쎯	-8.74608
sui❄mqu쎯	-8.74889
lve❄ltk쎯	-8.74921
xi❄xl쎯bao❁eqn쎯	-8.74997
gu❄dty쎯shi❄gk쎯	-8.75062
zhang❃ta쎯zzbd쎯	-8.75068
yi❄jqr쎯	-8.75163
shui❃ii쎯ping❂gu쎯	-8.75175
meng❄ssq쎯	-8.75183
bo❁rtol쎯	-8.75304
hao❂aft쎯ming❂qk쎯	-8.754
lu❃qgj쎯	-8.75408
jiao❁uq쎯liu❂iyc쎯	-8.75416
yan❂thp쎯	-8.75417
bu❂i쎯duan❄on쎯	-8.75446
bing❁ui쎯	-8.75547
yi❃c쎯shang❃h쎯	-8.75554
shi❄an쎯ji❄xn쎯	-8.75619
jun❁alt쎯	-8.75645
wo❃q쎯wu쎯	-8.75663
yin❂qve쎯hang❂tf쎯	-8.75723
ju❄whw쎯le❄qi쎯	-8.758
shi❂jf쎯dai❄wa쎯	-8.758
jiao❃efcb쎯	-8.75885
lie❄gq쎯	-8.75956
wei❄o쎯zhu❃y쎯	-8.7601
mo❂saj쎯shi❄aa쎯	-8.76018
ce❄wmj쎯	-8.76172
feng❄mc쎯	-8.76227
shi❂pu쎯xian❄gm쎯	-8.76235
ju❄kha쎯chi❁yb쎯	-8.76273
r	-8.76303
zuo❄wt쎯zhe❃ftj쎯	-8.76325
cun❁sf쎯min❂n쎯	-8.76441
hou❄djb쎯	-8.76575
쎇쎀	-8.76626
hu❂de쎯	-8.76631
mu❃xgu쎯	-8.76727
bo❂fge쎯	-8.76744
fu❄pgk쎯	-8.76904
ji❂utd쎯bing❄ugm쎯	-8.76952
qing❄etg쎯	-8.77069
ji❂lkb쎯	-8.77189
ceng❂ul쎯ren❂wtf쎯	-8.77221
gong❁wc쎯wan❂lfq쎯	-8.77248
zhu❃y쎯cha❁yq쎯	-8.77592
shou❄dtf쎯	-8.77697
ran❂qd쎯	-8.77827
jing❃fjk쎯	-8.77997
cheng❂dn쎯guo❃js쎯	-8.78151
gu❄dty쎯	-8.78194
yao❁s쎯qiu❂fiy쎯	-8.78234
zhu❄iy쎯ce❄mm쎯	-8.78387
ping❂gu쎯si❄ck쎯	-8.78446
zhao❁rvk쎯	-8.78494
xia❄dht쎯	-8.78696
bi❃tt쎯	-8.78955
jing❁x쎯yan❄cwg쎯	-8.79002
tong❂qmgk쎯	-8.79022
gou❁iqc쎯	-8.79045
xian❃jo쎯shi❄fi쎯	-8.79128
qing❃yge쎯	-8.79154
ping❂ygu쎯wei❄o쎯	-8.79168
xing❂gae쎯shi❄aa쎯	-8.79193
쎀	-8.79409
dai❁tffy쎯	-8.79482
ze❂rcf쎯	-8.7949
gai❃nty쎯ge❂af쎯	-8.79658
ren❂w쎯cai❂ft쎯	-8.79709
cun❄fghy쎯	-8.79781
an❁yygt쎯fan❄itp쎯	-8.80012
shi❂pu쎯shi❁ytb쎯	-8.80073
ling❂mwyc쎯	-8.80103
gai❄ugl쎯	-8.80299
zhan❁hk쎯de❅f쎯	-8.80352
li❃gj쎯nian❄wynn쎯	-8.80377
qin❁us쎯	-8.80386
gong❁a쎯zuo❄wt쎯.	-8.8045
ben❃sg쎯ke❁tu쎯	-8.80597
jin❃nyu쎯	-8.8071
ran❃ivs쎯	-8.80724
yuan❂km쎯.	-8.80756
jue❂ipmq쎯	-8.80954
쎂쎀쎀쎈nian❂rh쎯	-8.81021
chao❂ifj쎯	-8.81044
que❄fcb쎯	-8.81166
zhu❄iy쎯	-8.81203
zhuang❄ufg쎯	-8.81284
dan❄xuj쎯	-8.8135
쎂쎀쎀쎉nian❂rh쎯	-8.81397
mian❄dm쎯ji❁tkw쎯쎁	-8.81406
jia❁wffg쎯	-8.81539
ye❃bn쎯shi❄j쎯	-8.81619
liu❂qyvl쎯	-8.81721
gao❁ym쎯su❄gkip쎯	-8.81899
shun❄kd쎯	-8.81974
yi❁g쎯jia❁pe쎯	-8.81986
xin❁usr쎯wen❂ub쎯	-8.82074
gui❁fwm쎯mo❂saj쎯	-8.8245
la❄ait쎯	-8.82753
yi❁ye쎯	-8.82791
쎂쎂	-8.82947
ye❄ywt쎯	-8.83049
dong❁ai쎯bei❃ux쎯	-8.83224
,shi❃wgkq쎯	-8.83265
nan❂cw쎯	-8.83293
ye❄iyw쎯	-8.83344
xi❁sghg쎯nan❂fm쎯	-8.83363
qiu❁to쎯	-8.83415
ting❂ytfp쎯	-8.83415
shi❄yaa쎯	-8.83416
dai❄vii쎯shu❃ntk쎯	-8.83553
ying❁amd쎯yu❃ygk쎯	-8.8359
ju❃iwf쎯	-8.8365
쎂쎀쎀쎆nian❂rh쎯	-8.83654
chong❁yc쎯	-8.83673
b	-8.83892
pu❃uo쎯tong❁cep쎯	-8.83947
deng❁os쎯	-8.83959
,ji	-8.84005
xiao❄uqt쎯guo❃js쎯	-8.84062
zhu❁qtfj쎯	-8.84106
shi❄gk쎯qiu❁og쎯	-8.84161
han❄ic쎯zu❂ytt쎯	-8.84164
yin❁be쎯	-8.84371
gui❁jv쎯	-8.84622
bo❂wr쎯	-8.84647
jiang❁ugv쎯	-8.8474
wa❃gny쎯	-8.85153
쎂쎀쎀쎇nian❂rh쎯	-8.85281
huan❄rq쎯	-8.85476
un❄ywx쎯wen❂yygy쎯	-8.85618
guan❄xfm쎯	-8.85843
qu❁aq쎯yu❄fakg쎯	-8.85923
xian❄gm쎯you❃e쎯	-8.85959
zi❄thd쎯zhi❄ick쎯	-8.85966
dui❁wnnp쎯	-8.85977
fang❁yy쎯mi❃oy쎯,	-8.86008
>	-8.86031
zhi❂rvy쎯hang❂tf쎯	-8.86269
jiang❄bt쎯	-8.86292
wu❃gah쎯han❄ic쎯	-8.86331
xu❂twt쎯	-8.86341
ji❄yn쎯	-8.86343
biao❃ge쎯xian❄gm쎯	-8.86414
쎁쎉	-8.86644
shang❃h쎯de❅r쎯	-8.86679
jie❃qev쎯fang❄yt쎯	-8.86728
)zzbd쎯	-8.86766
xing❂gajf쎯:	-8.86785
yan❂god쎯	-8.86834
mei❂vaf쎯ben❄wsg쎯	-8.8696
yi❁wvt쎯	-8.87072
쎁.	-8.87114
tou❂rmc쎯	-8.87214
ke❄pt쎯	-8.873
yin❃xh쎯	-8.87313
jin❄fj쎯ru❄ty쎯	-8.87332
ying❁amd쎯guo❂l쎯	-8.87338
ao❄tmo쎯	-8.87364
er❂dmj쎯cheng❂dn쎯	-8.87541
quan❂wg쎯qiu❂gfi쎯	-8.87553
nong❂pei쎯cun❁sf쎯	-8.87592
heng❂tqdh쎯	-8.8772
쎄쎅	-8.87896
cun❁sf쎯dai❄vii쎯	-8.87957
jun❁vtkd쎯	-8.88096
jian❄qvfp쎯	-8.88133
jue❂xqc쎯	-8.88148
a	-8.88163
,wei❄wug쎯yu❂gf쎯	-8.88264
de❂tj쎯dao❄gc쎯	-8.88414
zhu❁ri쎯	-8.88441
q	-8.88497
~	-8.88577
,ji❂vcb쎯	-8.8858
xiang❁tsh쎯	-8.88593
zhang❃ta쎯.	-8.88702
hong❂iaw쎯	-8.88937
ge❄tk쎯lei❄od쎯	-8.89004
qi❂yjj쎯	-8.89011
zai❄fa쎯	-8.89057
yu❃fghy쎯	-8.89106
gu❃emc쎯	-8.89261
fan❂txgi쎯	-8.89296
jian❄wgi쎯	-8.89303
》shi❄j쎯	-8.89355
d쎯	-8.89402
wu❄tr쎯li❃gj쎯	-8.89679
an❁ujfj쎯wei❄wug쎯	-8.89756
an❁yygt쎯da❄dd쎯	-8.89766
bi❃xx쎯jiao❄lu쎯	-8.8977
wen❂xyy쎯	-8.89779
--	-8.89802
cai❂mf쎯	-8.89809
long❁btg쎯	-8.89856
mo❄lfof쎯	-8.89857
de❅r쎯“	-8.89869
쎂쎃	-8.89884
zhi❁fc쎯	-8.89906
xi❁sghg쎯bei❃ux쎯	-8.89938
fa❁v쎯hang❂tf쎯	-8.90004
sun❁bi쎯	-8.90011
,zhu❃y쎯yao❁s쎯	-8.9009
jing❄quj쎯	-8.90126
jie❃qev쎯jue❂un쎯	-8.90169
wei❄bg쎯	-8.90225
ti❂rj쎯	-8.90288
zi❁uqwk쎯xun❂yqj쎯	-8.90306
shu❁lwg쎯	-8.90369
liang❄ypm쎯	-8.90476
li❃pynn쎯	-8.905
xian❃jo쎯	-8.90603
bu❃puh쎯	-8.90603
dao❁vn쎯	-8.90613
da❂dp쎯dao❄gc쎯	-8.90664
쎃쎅	-8.9067
yan❃ipg쎯yuan❂km쎯	-8.90728
er❃bgh쎯	-8.90833
zhao❄fhq쎯	-8.90847
mo❂saj쎯	-8.90944
chao❃oi쎯	-8.91005
ma❂yss쎯	-8.91059
kuan❃ffi쎯	-8.91109
x	-8.9121
wu쎯	-8.91222
du❂yfn쎯	-8.9125
hang❂sym쎯	-8.91349
ji❁fmk쎯	-8.91358
can❁cd쎯yu❃gn쎯	-8.91366
nuo❄yad쎯	-8.91417
wu❁ywu쎯	-8.91429
luo❄itk쎯	-8.9143
si❃gqx쎯	-8.91519
gang❁mqj쎯	-8.91648
nian❄wynn쎯	-8.9167
yang❂udj쎯	-8.91771
jiao❁eu쎯	-8.91795
tu❂ltu쎯shu❁nnh쎯	-8.91847
shan❁mmm쎯dong❁ai	-8.91965
han❂pfj쎯	-8.92003
nong❂pei쎯min❂n쎯	-8.92068
zhu❃ftjo쎯	-8.92122
jiu❄hj쎯	-8.92198
pi❁rx쎯zhun❃uwy쎯	-8.92241
zuo❄wt쎯jia❁pe쎯	-8.92274
ch	-8.9236
en❁ldn쎯	-8.92434
li❃gj쎯shi❄gk쎯	-8.92575
sai❁pfjf쎯	-8.92677
mo❂eajd쎯	-8.92705
xue❂ip쎯ke❁tu쎯	-8.92767
ji❁ad쎯jin❁qqqq쎯	-8.92912
gan❁fggh쎯bu❄uk쎯	-8.92941
yi❁g쎯zhi❂fh쎯	-8.92992
쎉쎀	-8.93158
miao❂ral쎯	-8.93167
cheng❂ydn쎯	-8.93266
yi❁g쎯ci❄uqw쎯	-8.93295
shi❁rw쎯	-8.9334
zhu❃y쎯chi❂rf쎯	-8.93343
feng❁mq쎯ge❂st쎯	-8.93541
bei❁uxe쎯	-8.93558
mo❄gs쎯	-8.93613
yi❁g쎯qi❃fhn쎯	-8.93738
fen❁wv쎯zi❃bb쎯	-8.93863
zhi❁pp쎯yi❁g쎯,	-8.93888
wei❁dgv쎯	-8.93955
geng❁dif쎯de❅f쎯	-8.93986
he❂wsk쎯	-8.94024
tuo❁rta쎯	-8.94129
xuan❂ytn쎯	-8.94193
xiu❄te쎯	-8.94255
ren❂w쎯de❅r쎯	-8.94269
fang❄yt쎯ru❄ty쎯	-8.94424
zhi❄gcft쎯	-8.9445
,dui❄cf쎯	-8.94547
》,	-8.94684
shi❂pu쎯jian❄khg쎯	-8.94717
zhu❁yft쎯	-8.94828
xu❃ytf쎯duo❁qq쎯	-8.95068
kong❁pw쎯jian❁uj쎯	-8.95095
jia❄lks쎯	-8.95339
chen❂ipq쎯	-8.95398
lun❂lwx쎯	-8.95636
쎂쎀쎀쎅nian❂rh쎯	-8.95703
bian❄wgj쎯li❄tjh쎯	-8.9572
xia❂lpdk쎯	-8.95724
wei❄o쎯le❅b쎯	-8.95923
can❁cd쎯	-8.95966
,shu❃ntk쎯yu❂gf쎯	-8.96019
lan❂ajt쎯	-8.96048
shi❄pym쎯pin❂hid쎯	-8.96094
ju❄bct쎯	-8.96221
wu❁qng쎯	-8.96254
liang❂yv쎯hao❃vb쎯	-8.96375
쎂쎆	-8.96424
bi❄tn쎯shu❁nnh쎯	-8.96435
=	-8.96473
zi❃hxx쎯	-8.96562
shan❁mmm쎯qu❁aq쎯	-8.96571
ming❂qk쎯wei❄o쎯	-8.96581
shou❄epc쎯dao❄gc쎯	-8.9659
ta❁wb쎯wu쎯	-8.96617
zui❄jb쎯gao❁ym쎯	-8.96655
meng❁apg쎯gu❃dgh쎯	-8.96716
gu❃dgh쎯dai❄wa쎯	-8.97002
ju❂nnk쎯zhang❃ta쎯	-8.97071
shu❄syp쎯	-8.97076
zhu❃y쎯xi❂yam쎯	-8.97258
lin❂wycb쎯	-8.97291
fen❁wv쎯wei❄o쎯	-8.97343
li❄gmy쎯	-8.97421
chi❁ktn쎯	-8.97966
yi❁atd쎯	-8.97984
you❁wdn쎯zhi❄rfm쎯	-8.9809
an❁jtyl쎯du❁hich쎯	-8.9817
te❄trf쎯shu❁gqr쎯	-8.98172
juan❁lud쎯	-8.9821
bu❂i쎯neng❂ce쎯	-8.98801
huan❄kkhn쎯	-8.98802
sha❁qsu쎯	-8.98821
dan❄io쎯	-8.98875
e❄wwj쎯zhi❂wfhg쎯	-8.98975
man❄ijlc쎯	-8.99032
li❄dl쎯	-8.99056
si❁ngk쎯	-8.99169
gong❄aw쎯tong❂m쎯	-8.99201
쎂쎈	-8.99411
fang❁yy쎯mi❃oy쎯	-8.99443
,ke❃sk쎯	-8.99507
piao❄sfiu쎯	-8.99566
xi❃fku쎯	-8.99571
fen❁wv쎯bie❂klj쎯	-8.99711
쎂쎀쎁쎁nian❂rh쎯	-8.99733
gou❄qkqq쎯	-8.99739
dong❁tuu쎯	-8.9975
shou❃pf쎯	-8.99895
liang❂oyv쎯	-8.99961
ze❂gmu쎯ren❂wtf쎯	-9.00002
쎂쎁	-9.00015
shen❃pj쎯	-9.0014
yu❂vkgd쎯le❄qi쎯	-9.00194
yuan❂dr쎯liao❄ou쎯	-9.00199
dong❁ai쎯nan❂fm쎯	-9.00234
li❄oug쎯	-9.00244
zi❁uqwm쎯liao❄ou쎯	-9.00371
ji❁mt쎯	-9.00664
dan❁myd쎯	-9.00715
wan❁iyo쎯	-9.00866
mao❄qyv쎯yi❄jqr쎯	-9.00882
mian❃qkq쎯	-9.00898
bei❁sgi쎯	-9.00955
you❃e쎯xiao❄uqt쎯	-9.01039
ling❂fwyc쎯	-9.01047
kuang❄ukq쎯	-9.0107
xin❁ny쎯li❃gj쎯	-9.01099
cheng❂dn쎯le❅b쎯	-9.0117
er❂qt쎯tong❂ujff쎯	-9.01369
ji❁ad쎯de❅f쎯	-9.01478
kuo❄tdp쎯yong❄et쎯	-9.01813
de❂tfl쎯guo❂l쎯	-9.01836
duo❁qq쎯ci❄uqw쎯	-9.01894
yin❃bq쎯	-9.01985
liao❂bp쎯ning❂ps쎯	-9.02227
ji❂ey쎯qi❂adw쎯	-9.02239
pin❂hid쎯	-9.02367
shou❄ulg쎯	-9.02372
lu❄bfm쎯	-9.0238
zhan❁hk쎯	-9.02381
yi❄you쎯	-9.02424
,you❄ccc쎯	-9.02545
rong❂ipwk쎯	-9.026
cun❂dhb쎯zai❄d쎯	-9.02645
yi❂khgp쎯	-9.02806
da❄dd쎯liang❂jg쎯	-9.02831
hui❄wf쎯fu❄gkl쎯	-9.02969
zhi❁td쎯ming❂qk쎯	-9.03044
chang❂enr쎯	-9.03072
hua❁wx쎯gong❁a쎯	-9.03116
ji❁sm쎯guan❁ud쎯	-9.03116
쎂쎀쎀쎄nian❂rh쎯	-9.03154
qian❁tfp쎯	-9.03211
jian❁jcf쎯chi❂rf쎯	-9.03219
ju❄kha쎯	-9.03257
qin❂dwt쎯	-9.03368
xue❂ip쎯li❄dl쎯	-9.03375
,ta❁wb쎯	-9.03378
hu❃ha쎯	-9.03422
you❂mh쎯yu❂gf쎯	-9.03541
dian❄jn쎯nao❃eyb쎯	-9.03618
le❄afl쎯	-9.03626
tong❄uce쎯	-9.0365
bi❄nkuf쎯	-9.03701
xing❄vtg쎯	-9.0373
bang❁dt쎯zhu❄egl쎯	-9.03849
xue❂ip쎯wei❄wug쎯	-9.03864
bei❄mhny쎯	-9.03956
hui❄gjh쎯	-9.04041
zuo❃da쎯	-9.04046
feng❄dwf쎯	-9.04297
zhi❂fh쎯jie❁ruv쎯	-9.04392
fa❃if쎯guo❂l쎯	-9.04422
ji❁adwe쎯jian❁uj쎯	-9.04521
duo❃vs쎯	-9.04584
dou❄gku쎯	-9.04599
zhi❂gqf쎯	-9.04627
shi❂fgh쎯fen❁wv쎯	-9.04656
gui❁fwm쎯ding❄pg쎯	-9.04668
lou❄fkhk쎯	-9.04745
》deng❃tffu쎯	-9.04771
zhi❁ifh쎯	-9.0483
qiang❂ffuk쎯	-9.0487
mai❃nudu쎯	-9.04887
gang❃mmq쎯	-9.04895
쎃쎆	-9.04981
zu❃pye쎯	-9.05039
biao❃ge쎯mian❄dm쎯	-9.05136
yan❁ol쎯	-9.05195
》(	-9.05369
di❄up쎯	-9.0546
ren❂w쎯jun❁fqu쎯	-9.05475
hao❂ypeu쎯	-9.055
zi❁uqwm쎯chan❃u쎯	-9.05505
,bu❂i쎯	-9.05511
lian❂alp쎯	-9.05516
jian❁id쎯	-9.05626
cong❂wwg쎯	-9.05629
jing❄ukqb쎯	-9.05723
ke❃sk쎯neng❂ce쎯	-9.05877
zhu❁gr쎯	-9.06009
l쎯	-9.06021
wen❄ukd쎯	-9.06034
qian❃igt쎯	-9.06053
xian❄gm쎯zai❄d쎯	-9.06144
jing❁x쎯guo❄fp쎯	-9.06216
fen❄wwv쎯	-9.06217
fu❄ng쎯	-9.06291
de❅f쎯chu❄th쎯	-9.06352
gu❃emc쎯fen❄wwv쎯	-9.06538
쎯sheng❃ith쎯	-9.06634
ou❁aqq쎯zhou❁iyt쎯	-9.06786
쎯	-9.06824
hui❄wf쎯ji❄yf쎯	-9.06992
heng❄ght쎯ce❄tgm쎯	-9.07194
fu❂ieb쎯	-9.07203
ting❁kr쎯	-9.07243
zong❄xww쎯	-9.07261
jian❄wvf쎯	-9.07402
zhong❁k쎯yi❁atd쎯	-9.07527
hu❄ryn쎯	-9.07553
rong❂gkm쎯	-9.07671
jiang❄uqsg쎯	-9.07716
쎂쎀쎀쎃nian❂rh쎯	-9.07746
bao❂aig쎯	-9.07852
dong❄fcl쎯li❄lt쎯	-9.07904
you❃dc쎯	-9.07942
heng❄ght쎯cun❁sf쎯	-9.07949
shang❃ipkm쎯	-9.08028
shi❂pu쎯ji❄bf쎯	-9.08124
.qi❂adw쎯	-9.08148
nao❃eyb쎯	-9.08156
xu❁hao쎯	-9.08194
쎂쎇	-9.08269
liu❃sqt쎯	-9.08475
feng❁mq쎯jing❃jy쎯	-9.08488
bei❁drt쎯	-9.08556
lv❄xv쎯se❄qc쎯	-9.0857
dao❃wgc쎯	-9.0859
cha❁uda쎯	-9.08626
jiang❁xfg쎯	-9.08682
,jiang❁uqf쎯	-9.08737
rou❂cbts쎯	-9.08902
bo❂fge쎯wu❄tr쎯	-9.09141
nai❄dmjf쎯	-9.09173
ren❂w쎯lei❄od쎯	-9.09177
zuo❄wwf쎯la❄ait쎯	-9.09374
hui❄ian쎯	-9.09408
lai❂ago쎯	-9.09519
hui❁do쎯	-9.09529
du❂qtj쎯te❄trf쎯	-9.09576
zzbd쎯ji	-9.09623
miao❄ymd쎯	-9.09645
bao❃wksf쎯	-9.09697
mai❄fnud쎯	-9.09795
shao❃it쎯nian❂rh쎯	-9.09827
wan❂pfq쎯quan❂wg쎯	-9.0985
ji❄xn쎯	-9.09911
s쎯	-9.09928
lang❄iyv쎯	-9.10007
쎃쎃	-9.10017
'	-9.10057
su❄ubtf쎯	-9.10067
liang❂uyiy쎯	-9.10123
pin❃kkk쎯zhi❄rfm쎯	-9.10186
da❂rs쎯zao❄tfkp쎯	-9.10208
ben❄wsg쎯xi❄txi쎯	-9.10268
guan❁ud쎯yu❂gf쎯	-9.10275
yun❃fcp쎯hang❂tf쎯	-9.10322
wen❃tqv쎯ding❄pg쎯	-9.10379
쎂쎀쎀쎂nian❂rh쎯	-9.10499
huang❂amw쎯se❄qc쎯	-9.10633
ru❃ebn쎯	-9.10638
lai❂go쎯yuan❂idr쎯	-9.10663
ming❂qk쎯:	-9.10671
lan❃jtyq쎯	-9.10708
tang❂fyv쎯	-9.10711
man❄jlc쎯	-9.10734
wu❄tr쎯zhi❄rfm쎯	-9.10874
wei❂kwyg쎯yi❁g쎯	-9.11019
shui❄tuk쎯	-9.11043
,bei❄puhc쎯	-9.11166
jiao❁uq쎯yi❄jqr쎯	-9.11166
di❂mp쎯	-9.11347
,ru❂vk쎯	-9.11464
zhe❄p쎯xie❁hxf쎯	-9.11499
zhen❄rdf쎯	-9.11526
jing❄tca쎯	-9.11567
zhi❄gcft쎯li❄lt쎯	-9.11659
chen❁ipm쎯	-9.11676
xiao❄uqt쎯li❄lt쎯	-9.11746
yan❂oo쎯	-9.1176
,tong❂m쎯shi❂jf쎯	-9.11812
yi❁wye쎯	-9.11865
dou❁ftjb쎯shi❄j쎯	-9.12076
fu❄etj쎯	-9.12082
ce❄aps쎯	-9.12092
(jin❁wynb쎯	-9.12112
mu❄ajdf쎯	-9.12231
zzxx쎯	-9.1226
pei❄sgn쎯tao❄ddu쎯	-9.12314
jing❁aca쎯	-9.12323
han❂fjfh쎯	-9.12376
jiu❄fiyt쎯	-9.12428
su❂wwwk쎯	-9.12446
jie❄wwj쎯ge❂st쎯	-9.12652
ni❂inx쎯	-9.12673
.zhu❃y쎯yao❁s쎯	-9.12732
you❄dk쎯	-9.12774
xiu❁ws쎯xian❂usi쎯	-9.12776
xi❃fku쎯huan❁cqw쎯	-9.12866
xing❂gae쎯,	-9.12891
gua❁rcy쎯	-9.12901
lie❄gqje쎯	-9.12935
de❅f쎯chan❃u쎯	-9.12998
gong❁wc쎯li❃jfd쎯.	-9.1303
an❄pvs쎯	-9.13043
yi❄anb쎯	-9.13133
ku❃adf쎯	-9.13184
❁kthh쎯sheng❃ith쎯	-9.13293
ng❁ia쎯sheng❃ith쎯	-9.13301
zhi❁sfc쎯	-9.13328
jing❁jjj쎯	-9.13356
chi❂ib쎯	-9.13385
zhu❄syg쎯	-9.13401
wu❃rlg쎯	-9.13401
jie❄waj쎯	-9.1344
xuan❂yxu쎯	-9.13454
zun❁usg쎯	-9.1353
sheng❃ith쎯ji❂xe쎯	-9.13568
lun❂wwx쎯	-9.13574
yin❁ld쎯wei❄o쎯	-9.13586
du❂yfn쎯zhe❃ftj쎯	-9.13768
zao❃jh쎯	-9.13875
cai❃es쎯	-9.13915
dan❄wjg쎯	-9.13944
zhou❂lm쎯	-9.14005
n❁qqqq쎯rong❂gkm쎯	-9.14098
ji❄yf쎯	-9.14122
e쎯	-9.14196
zhai❂pta쎯	-9.14207
ren❄yw쎯	-9.14226
yi❁g쎯kuan❃ffi쎯	-9.14231
shen❄adwn쎯	-9.14283
쎄쎈	-9.14348
쎂쎀쎀	-9.14418
bu❄hi쎯	-9.14432
gou❄mqc쎯	-9.14464
ti❂rj쎯chu❁bm쎯	-9.14654
gui❁fwm쎯fan❄aib쎯	-9.14813
yin❃xh쎯qi❃fhn쎯	-9.14933
meng❂jel쎯	-9.14962
yuan❄drin쎯	-9.14965
qi❂adw쎯ta❁px쎯	-9.15011
,ju❄kha쎯chi❁yb쎯	-9.15204
e	-9.15212
zuo❄wwf쎯	-9.15249
bai❂rrr쎯se❄qc쎯	-9.15284
yi❂wyq쎯	-9.15346
shi❄pgc쎯zzbd쎯	-9.15495
tui❄euk쎯	-9.15688
pan❄udjh쎯	-9.15694
zhe❃ftj쎯,	-9.15744
luan❃qyt쎯	-9.15757
du❂qtj쎯	-9.15823
qiu❁rgd쎯	-9.15823
wu❄tl쎯	-9.15863
ya❂ah쎯	-9.15897
lian❂lpk쎯xu❄xfn쎯	-9.16117
yi❄yyq쎯	-9.16178
yin❂www쎯	-9.16216
tu❃ffff쎯de❅f쎯	-9.16246
te❄trf쎯bie❂klj쎯	-9.16284
mo❂yssc쎯	-9.16361
mo❂yssd쎯	-9.16376
shu❄ovt쎯xue❂ip쎯	-9.16384
gao❁ym쎯zhong❁k쎯	-9.16421
meng❁apg쎯	-9.16428
you❄xln쎯er❂qt쎯	-9.16519
cu❁oe쎯	-9.1655
su❄gkip쎯du❄ya쎯	-9.16567
zhen❁qf쎯	-9.16599
qin❂ggw쎯	-9.16634
run❄iugg쎯	-9.16742
hai❂bynw쎯zi❃bb쎯	-9.16846
shi❁ytb쎯	-9.16964
yi❁g쎯suo❃rn쎯	-9.16982
chong❂mpf쎯	-9.16992
xi❃itf쎯	-9.17001
쎂쎀쎀쎀nian❂rh쎯	-9.17203
wen❂ub쎯	-9.1722
,yu❃gn쎯	-9.17273
mo❄ajd쎯	-9.17284
쎂.	-9.17291
jiu❃qy쎯	-9.17433
yi❁g쎯ji❂xe쎯	-9.17536
,cong❂ww쎯	-9.17543
zhi❄rmhj쎯du❄ya쎯	-9.17575
wei❄yle쎯	-9.17669
kao❃ftg쎯shi❄yaa쎯	-9.1792
yun❃fcp쎯shu❁lwg쎯	-9.1793
❄vfhp쎯sheng❃ith쎯	-9.18018
shi❁ijo쎯	-9.18059
lie❄gqjo쎯	-9.18109
pao❁iqn쎯	-9.18192
fan❁toln쎯	-9.18215
gui❁fwm쎯	-9.18262
jian❃sw쎯ce❄imj쎯	-9.183
shu❄ovt쎯zi❄pb쎯	-9.18334
li❄tjh쎯ya❄gog쎯	-9.18342
kan❁fjh쎯	-9.18349
tou❄tep쎯	-9.186
lang❂yvcb쎯	-9.18709
shi❂pu쎯yong❄et쎯	-9.18778
zhi❂bk쎯gong❁a쎯	-9.18825
gou❁qkd쎯	-9.18856
sen❁sss쎯	-9.18888
shi❂fgh쎯er❄fg쎯	-9.18983
ci❁gmi쎯	-9.18988
cheng❂fd쎯qu❁aq쎯	-9.19057
shi❄ymhj쎯wei❁tv쎯	-9.19067
shu❁lwg쎯ru❄ty쎯	-9.19071
xiao❄ttd쎯	-9.19381
huo❄ak쎯zhe❃ftj쎯	-9.19417
zhong❃ek쎯	-9.19465
zhong❁khn쎯	-9.19516
duo❃vs쎯zhi❄fn쎯	-9.19606
jin❃qrm쎯	-9.19617
ting❂yps쎯	-9.19623
ren❄yw쎯wei❄o쎯	-9.19643
shen❂pyj쎯jing❁x쎯	-9.19754
ge❂bgk쎯	-9.19784
gu❄ldd쎯	-9.19804
shi❁ytb쎯gong❁a쎯	-9.19805
min❂n쎯jian❁uj쎯	-9.19874
de❅f쎯zhi❄rfm쎯	-9.19879
zhu❄cy쎯	-9.19912
쎅쎀쎀	-9.20069
gong❄am쎯	-9.20158
bian❄yo쎯hua❁wx쎯	-9.2016
y쎯	-9.2032
yi❂peg쎯	-9.20386
suo❃qim쎯	-9.20424
gua❄rffg쎯	-9.20691
xi❄ca쎯	-9.20753
heng❂ngj쎯	-9.20803
quan❂wg쎯cun❁sf쎯	-9.20853
rao❄xat쎯	-9.20862
jian❃udg쎯	-9.20979
she❂rr쎯	-9.21028
쎆쎄	-9.21057
쎇쎅	-9.2106
an❄ju쎯	-9.2114
wen❂yygy쎯wu❄tr쎯	-9.21336
qu❃bc쎯de❂tj쎯	-9.21354
ta❁wb쎯de❅r쎯	-9.21422
guan❄iak쎯	-9.21458
쎂쎀쎀쎁nian❂rh쎯	-9.21511
liao❂ubk쎯	-9.21516
huo❄wxm쎯	-9.21545
lu❄vi쎯	-9.21593
ao❁ftbt쎯shi❁jgm쎯	-9.21593
zhe❂rrk쎯xue❂ip쎯	-9.21645
tian❂tdaf쎯	-9.21706
yi❁atd쎯yao❄ax쎯	-9.21742
po❄dhc쎯	-9.21814
fan❃rc쎯ying❁yid쎯	-9.2201
yu❃nny쎯	-9.2202
nian❂rh쎯dai❄wa쎯	-9.22084
chu❃ssn쎯	-9.22094
she❂wfh쎯ma❅tc쎯	-9.22115
shu❁nhy쎯	-9.22146
e❂ptkm쎯	-9.22296
tan❂yoo쎯	-9.22317
xun❄ynf쎯	-9.22348
쎂쎀쎁쎂nian❂rh쎯	-9.22366
tao❂bqr쎯	-9.22383
bao❃wk쎯xian❃bwg쎯	-9.22452
hen❃tve쎯duo❁qq쎯	-9.22582
yi❃c쎯lai❂go쎯	-9.22585
mu❄hhhh쎯de❅r쎯	-9.22623
suan❄tha쎯	-9.22683
n쎯	-9.22728
jing❁x쎯li❃gj쎯	-9.22731
bu❂i쎯ke❃sk쎯	-9.2288
shu❁lwg쎯chu❁bm쎯	-9.22905
ze❂icf쎯	-9.22921
qi❂yta쎯	-9.23026
cu❄wkh쎯jin❄fj쎯	-9.23184
tui❄vep쎯	-9.23224
zhe❄irr쎯jia	-9.23282
yuan❂km쎯gong❁a쎯	-9.23299
shi❂jf쎯jian❁uj쎯:	-9.23376
zhang❃ipkr쎯	-9.23379
lian❄xan쎯	-9.23398
chen❂ahn쎯	-9.2342
chu❄qejy쎯	-9.23601
zhai❄pfjs쎯	-9.23604
duo❁qq쎯gan❄wh쎯	-9.23693
hang❂tf쎯wei❄o쎯	-9.23719
pian❁wyna쎯	-9.23744
ban❁gyg쎯	-9.23929
gu❃fkuc쎯	-9.23968
di❄tx쎯si❄lh쎯	-9.24025
,ta❁px쎯	-9.2409
shou❃rt쎯ji❁sm쎯	-9.24137
jia❃wnh쎯	-9.24208
yi❄uwl쎯	-9.24254
she❄ymc쎯you❃e쎯	-9.24375
san❁dg쎯gan❄wh쎯	-9.24449
jin❄fj쎯bu❄hi쎯	-9.24534
zuo❃da쎯you❄dk쎯	-9.24568
xue❂ip쎯shi❄fghg쎯	-9.24604
da❄dd쎯xiao❃ih쎯	-9.24787
dong❁ai쎯xi❁sghg쎯	-9.25131
ji❂fk쎯lin❂ss쎯	-9.25158
da❄dd쎯lu❄bfm쎯	-9.25167
yong❄et쎯de❅r쎯	-9.25171
fan❄qnr쎯	-9.25208
gong❁a쎯ju❄hw쎯	-9.25254
han❂fjfh쎯guo❂l쎯	-9.25257
po❁fhc쎯	-9.25377
xing❄ntg쎯de❅r쎯	-9.2544
cheng❂tux쎯	-9.25493
》.	-9.25561
yu❄cbd쎯	-9.25652
bang❁dtb쎯	-9.25701
jie❃qev쎯shi❄toc쎯	-9.25713
quan❂wg쎯bu❄uk쎯	-9.25722
쎃쎈	-9.25779
yu❄gy쎯mi❃oy쎯	-9.25792
xian❄egc쎯wei❁tv쎯	-9.25833
ju❁nd쎯min❂n쎯	-9.25834
fang❁yy쎯an❄pvs쎯	-9.26263
dan❄nhj쎯bai❂rrr쎯	-9.26273
tian❁gd쎯ran❂qd쎯	-9.2647
fu❄wcy쎯	-9.26546
bi❃xx쎯sai❄pfjm쎯	-9.26633
jiao❄kn쎯	-9.26655
jiang❃uqd쎯.	-9.26702
zui❄jb쎯jia❁wffg쎯	-9.26709
ce❄imj쎯	-9.26794
yan❂imk쎯	-9.26878
mei❂oa쎯	-9.26912
dai❄falw쎯	-9.2693
xu❃ytf쎯	-9.26944
dun❄gbnm쎯	-9.26997
shu❁wfkb쎯	-9.27021
쎂쎉	-9.27097
xian❂jcm쎯	-9.27131
an❁yygt쎯bo❁rtol쎯	-9.27143
cha❂sj쎯	-9.27217
xi❁sghg쎯an❁pv쎯	-9.27218
mu❄ajdh쎯	-9.27331
jie❂so쎯	-9.27351
chi❄fo쎯	-9.27388
xi❁qdm쎯	-9.27481
man❄ijlc쎯hua❄gl쎯	-9.27537
gong❁a쎯shang❁um쎯	-9.2759
dian❄jn쎯chi❂ib쎯	-9.27598
qian❁twgi쎯	-9.27734
ke❂fpm쎯	-9.28006
hong❂pdc쎯	-9.28071
dai❄wa쎯li❃gj쎯	-9.28094
쎃.	-9.28133
xie❄ytm쎯	-9.28133
xiong❁eq쎯	-9.28178
qiang❁swb쎯	-9.2821
si❄lh쎯chuan	-9.28218
yi❁atd쎯shi❁jgm쎯	-9.28356
,ju❄hw쎯you❃e쎯	-9.28476
쎃쎄	-9.28481
zi❄thd쎯you❂mh쎯	-9.28502
you❄ccc쎯ming❂qk쎯	-9.28631
′	-9.28779
xiang❁ishg쎯	-9.28798
ju❁rnd쎯	-9.28838
zong❁pfi쎯zhi❃xj쎯	-9.28921
qie❃eg쎯	-9.29017
nong❂ipe쎯	-9.2902
shi❄j쎯zai❄d쎯	-9.29071
du❄sfg쎯	-9.29094
yi❁g쎯ming❂qk쎯	-9.29124
ma❃dcg쎯	-9.29248
liu❂iyc쎯hang❂tf쎯	-9.29319
chao❁fhv쎯guo❄fp쎯	-9.29337
qiang❁epw쎯	-9.29381
ou❃ufk쎯zheng❁qv쎯	-9.2976
ting❂tfpd쎯	-9.29798
han❄ic쎯zu❂ytt쎯,	-9.29815
shu❁nnh쎯zzbd쎯	-9.29815
dang❁iv쎯dai❄wa쎯	-9.29911
dan❄nhj쎯	-9.29916
,ye❃bn쎯shi❄j쎯	-9.29917
zui❄jb쎯xin❁usr쎯	-9.29932
bai❄rdfh쎯	-9.29976
.gong❁wc쎯si❁ngk쎯	-9.29979
x쎯	-9.30056
zzbd쎯z	-9.30116
쎃쎀쎀	-9.30231
ling❂hwbc쎯	-9.30271
lai❂go쎯zi❄thd쎯	-9.30303
luo❂jlx쎯	-9.30374
ren❂w쎯wu쎯	-9.30385
yin❄qgb쎯du❄ya쎯	-9.3041
tui❁rwyg쎯chu❁bm쎯	-9.30548
gong❁wc쎯gong❄aw쎯	-9.30557
shi❄yaa쎯yan❄cwg쎯	-9.30609
shang❃h쎯,	-9.30717
dao❄uthp쎯lu❄kht쎯	-9.30801
shi❂ykw쎯	-9.30833
ming❂je쎯xian❃jo쎯	-9.30887
huan❂ggi쎯bao❃wk쎯	-9.30933
mian❄dm쎯ji❁tkw쎯쎂	-9.30941
m쎯	-9.30986
chu❁bm쎯kou❃kkkk쎯	-9.31169
mi❂op쎯	-9.31183
nan❂fm쎯bu❄uk쎯	-9.31246
mou❃afs쎯	-9.31269
hei❁lfo쎯long❂dx쎯	-9.31279
biao❃ge쎯shi❄fi쎯	-9.31285
shi❄fi쎯fan❄aib쎯	-9.31315
i쎯	-9.31403
xia❄gh쎯,	-9.3143
tie❁mhkg쎯	-9.31437
an❄mdfj쎯	-9.31578
shu❂sy쎯	-9.31623
zeng❁fu쎯jia❁lk쎯	-9.31664
dian❄naw쎯	-9.31778
gu❃ime쎯	-9.31847
she❄ymc쎯li❄uu쎯	-9.31868
wen❁ijl쎯du❄ya쎯	-9.31896
can❂gqg쎯	-9.31949
,ye❃bn쎯	-9.32148
xin❁uygh쎯	-9.32175
gan❁afd쎯	-9.32185
fu❄wqu쎯	-9.3226
&	-9.32295
zhu❄egl쎯	-9.32296
guo❂l쎯min❂n쎯	-9.3247
fu❂gip쎯you❃e쎯	-9.32491
sa❄abu쎯	-9.32542
hai❄pd쎯	-9.32558
yin❂www쎯duo❁qq쎯	-9.32559
shi❁jgm쎯,	-9.32586
min❃txgt쎯	-9.32602
yuan❂dr쎯ming❂qk쎯	-9.32662
man❃iagw쎯zu❂khu쎯	-9.32723
tao❂siq쎯	-9.32771
sun❃rkm쎯	-9.32877
tong❃xyc쎯ji❄yf쎯	-9.32918
gan❁afd쎯su❄vij쎯	-9.32987
yi❁g쎯tiao❂ts쎯	-9.32992
yue❁jhng쎯	-9.33073
jue❂un쎯ding❄pg쎯	-9.33145
xiang❁sh쎯dui❄cf쎯	-9.33192
xun❂trfh쎯	-9.33232
pu❃igey쎯	-9.33257
sang❁cccs쎯	-9.33299
wei❄le쎯	-9.3336
zhe❄p쎯yi❁g쎯	-9.33368
luan❄tdn쎯	-9.33418
shi❄ymhj쎯z	-9.33419
jie❁xxr쎯	-9.33431
ji❁tkw쎯	-9.33512
na❄mw쎯wai❄qh쎯	-9.33526
dian❄jn쎯li❄lt쎯	-9.33667
》《	-9.33694
jian❁ga쎯fang❄yt쎯	-9.33699
wan❃jq쎯	-9.33779
ru❂vk쎯he❂wsk쎯	-9.33799
쎁쎉쎉쎈nian❂rh쎯	-9.3398
,gu❄dty쎯	-9.34027
qun❂vtk쎯yin❂www쎯	-9.34059
bao❃wk쎯jian❄wvf쎯	-9.34343
jing❁x쎯dian❃maw쎯	-9.344
xun❄yk쎯lian❄xan쎯	-9.34402
peng❂ee쎯you❃dc쎯	-9.34477
ji❁tkw쎯ji❂se쎯	-9.34572
쎁쎉쎉쎉nian❂rh쎯	-9.34575
jun❄vtkb쎯	-9.34722
quan❄udv쎯	-9.34754
ban❄lw쎯xue❂ip쎯	-9.34755
sen❁sss쎯lin❂ss쎯	-9.34779
chi❃hwb쎯	-9.34803
,zhong❁k쎯guo❂l쎯	-9.34825
yuan❂km쎯zzbd쎯	-9.34842
zhuan❄rnnw쎯	-9.34877
pi❂hc쎯fu❁efw쎯	-9.34953
li❄lt쎯liang❂jg쎯	-9.3497
ge❁sks쎯	-9.34974
can❁cd쎯kao❃ftg쎯	-9.34986
ren❂w쎯da❄dd쎯	-9.3504
jie❂ab쎯mu❄hhhh쎯	-9.35069
wai❄qh쎯ke❁tu쎯	-9.35089
cun❂dhb쎯chu❃wyf쎯	-9.35127
she❄wfk쎯	-9.35184
fa❁v쎯bu❄dmh쎯	-9.35223
di❄tx쎯shi❂fgh쎯	-9.35361
ji❄xn쎯nian❄wynn쎯	-9.3547
sha❁di쎯	-9.35491
,suo❃rn쎯yi❃c쎯	-9.3557
zheng❁abi쎯	-9.35766
ke❄yjs쎯ti❂jghm쎯	-9.35781
bi❄nt쎯	-9.35982
hui❁iqpl쎯	-9.36011
mei❃ugdu쎯li❄gmy쎯	-9.36154
da❄dd쎯zhuan❁fny쎯	-9.36392
’	-9.36446
yan❁au쎯	-9.36456
ai❄aqu쎯	-9.36461
suo❃rn쎯zai❄d쎯	-9.36539
ng❁oge쎯shen❂pyj쎯	-9.36556
yi❂tqq쎯dong❄fcl쎯	-9.36666
qi❃whf쎯qiu❁og쎯.	-9.36704
쎅쎅	-9.36769
zhu❃y쎯bian❁xyna쎯	-9.36781
gao❁ym쎯xin❁usr쎯	-9.36787
li❄wgq쎯	-9.36871
miao❂alf쎯	-9.36958
han❄hka쎯lve❄ltk쎯	-9.3698
xiao❄ftb쎯	-9.37025
un❃fcp쎯dong❄fcl쎯	-9.3704
쎁gan❄wh쎯	-9.3706
ji❄iyj쎯	-9.37097
jiao❁shi쎯	-9.37191
kuo❄tdp쎯ge❃wgk쎯	-9.37193
qin❂akgl쎯	-9.37209
yu❄wwkw쎯	-9.37245
쎆쎅	-9.37423
xian❂dgk쎯	-9.37439
wei❁tv쎯fu❄gkl쎯	-9.37495
xiang❂pyu쎯	-9.37537
tong❁cep쎯xin❄wy쎯	-9.37539
.ta❁wb쎯	-9.37557
쎄쎀쎀	-9.37581
me❅im쎯	-9.37586
lian❄oanw쎯	-9.37589
ou❁aqq쎯	-9.37628
ci❂tduh쎯	-9.3763
lian❄qlp쎯	-9.37763
wen❂yygy쎯zi❄pb쎯	-9.37881
wei❄tvr쎯	-9.3791
ming❂qk쎯.	-9.37921
j쎯	-9.37938
r쎯	-9.37966
zhe❄p쎯li❃jfd쎯	-9.38057
shu❃vnu쎯	-9.38108
shou❄rep쎯yu❂cbj쎯	-9.38266
cheng❁tq쎯“	-9.38358
ba❄fmy쎯	-9.38361
쎆쎀쎀	-9.38376
bei❄wuk쎯	-9.38585
hou❂wnt쎯	-9.38665
ying❂qbp쎯	-9.38665
tong❂ujff쎯	-9.38674
huan❄xnn쎯	-9.38738
bei❃ux쎯bu❄uk쎯	-9.38761
xin❁anu쎯	-9.38791
feng❁qtd쎯	-9.38863
zhu❃y쎯ren❂wtf쎯,	-9.38872
dong❃atg쎯shi❄gk쎯	-9.38968
xie❂wtuf쎯	-9.39055
gu❄ldd쎯ding❄pg쎯	-9.39068
,yi❃c쎯ji❂ey쎯	-9.39072
e❄gogn쎯	-9.39187
ce❄tgm쎯hua❂aj쎯	-9.39203
shi❁jgm쎯.	-9.39257
fang❁ay쎯	-9.39308
ren❂wtf쎯wu❄tl쎯	-9.39372
qiao❂tdj쎯	-9.39374
ji❄rfc쎯neng❂ce쎯	-9.39477
ji❂qvn쎯	-9.39544
kao❄tfkd쎯	-9.3956
diao❄ymf쎯cha❂sj쎯	-9.39569
쎃쎇	-9.39605
gong❁wc쎯an❁pv쎯	-9.39636
qian❂ifw쎯	-9.39659
nin❂wqin쎯	-9.39798
che❄tavn쎯	-9.39849
dong❄fcl쎯hua❄gl쎯	-9.39916
en❁ipw쎯zhen❄fkh쎯	-9.39974
yi❁g쎯nian❂rh쎯	-9.40028
shi❂jf쎯hou❄whn쎯	-9.40031
ji❄xo쎯	-9.40033
yi❄ujn쎯da❄dd쎯	-9.40049
zui❄jb쎯zao❃jh쎯	-9.401
hui❄xwf쎯	-9.40132
gong❁at쎯	-9.40134
쎄쎃	-9.40138
que❁rmn쎯	-9.40244
ren❂wtf쎯he❂wsk쎯	-9.40257
nuan❃jef쎯	-9.40457
ju❄and쎯	-9.40522
쎉쎈	-9.40537
mai❄gtu쎯	-9.40644
쎄쎂	-9.40771
shan❃bgu쎯	-9.40779
jun❁pl쎯shi❄gk쎯	-9.4078
zhang❄buj쎯	-9.4081
gui❄sff쎯	-9.40841
ju❃iwf쎯ban❄lw쎯	-9.40878
쎈쎀쎀	-9.40922
zhi❃hh쎯	-9.40968
hua❁wx쎯de❅r쎯	-9.4107
zhen❁gw쎯	-9.41192
chuang❁pwt쎯	-9.41217
jing❃jy쎯guan❁cm쎯	-9.41251
쎄쎄	-9.41279
bo❁ghc쎯li❂gyb쎯	-9.41342
zhu❃y쎯ti❂jghm쎯	-9.41353
wu❄tr쎯liu❂iyc쎯	-9.41426
wen❂yygy쎯yi❄anb쎯	-9.41493
wei❁qdb쎯	-9.417
fei❂ec쎯	-9.41855
jian❄temq쎯	-9.41898
guo❁qkm쎯	-9.41918
ming❂qk쎯de❅r쎯	-9.4201
fu❄bwf쎯	-9.42014
ping❂wtfm쎯	-9.42039
ji❄tb쎯	-9.42056
mu❃vx쎯	-9.42206
zhao❂aft쎯zuo❄wt쎯	-9.4225
쎁쎉쎉쎅nian❂rh쎯	-9.42273
bao❃wk쎯chi❂rf쎯	-9.4236
gui❃rqc쎯	-9.42372
yun❃fcp쎯yong❄et쎯	-9.42417
yi❁g쎯zuo❄yww쎯	-9.42462
,nv❃vvv쎯,	-9.42512
fen❁wv쎯lei❄od쎯	-9.42519
zhi❂rvy쎯	-9.42677
ge❁sksw쎯shou❃rt쎯	-9.42811
kai❃mnm쎯	-9.42851
bao❁oq쎯	-9.42882
zu❃xeg쎯ge❃wgk쎯	-9.42953
xiao❃ih쎯shi❂jf쎯	-9.42955
zui❄jb쎯hou❄rg쎯	-9.43017
cha❁rtf쎯	-9.43127
b쎯	-9.4313
gong❄aw쎯you❃e쎯	-9.43238
qi❃fhn쎯lai❂go쎯	-9.43251
nv❃vvv쎯xing❄ntg쎯	-9.43291
yi❃nnl쎯	-9.43349
hai❃itx쎯nan❂fm쎯	-9.43385
ui❄jb쎯zhong❁xtu쎯	-9.43435
pen❁kfa쎯	-9.43459
nian❂rh쎯lai❂go쎯	-9.43479
wu❁ngc쎯	-9.4348
chou❂tdtf쎯	-9.4359
tong❃xyc쎯yi❁g쎯	-9.43599
yan❂utem쎯	-9.43622
zhen❄fdf쎯	-9.43643
cun❁sf쎯wei❁tv쎯	-9.43691
zhi❁pp쎯hou❄rg쎯	-9.43716
ren❂w쎯sheng❁tg쎯	-9.4375
qiu❂lft쎯dui❄bw쎯	-9.43771
tu❂tfhy쎯	-9.43773
le❅b쎯jie❃qev쎯	-9.43787
xia❁jghy쎯	-9.43819
ji❂vcb쎯ke❃sk쎯	-9.44082
cheng❂dn쎯de❅r쎯	-9.44197
ma❃gcg쎯	-9.44214
dang❁iv쎯shi❂jf쎯	-9.4426
xing❂gajh쎯	-9.44575
ruo❄xu쎯	-9.44577
yi❁g쎯wei❄wug쎯	-9.44578
nai❃etn쎯	-9.44691
bu❄uk쎯dui❄bw쎯	-9.44717
yi❂tqq쎯	-9.44726
ci❂du쎯	-9.44747
cai❂mf쎯wu❄tl쎯	-9.44785
ai❄ep쎯qing❂nge쎯	-9.44841
,ceng❂ul쎯	-9.44864
zhu❃y쎯guan❃tp쎯	-9.44905
dong❁ai쎯fang❁yy쎯	-9.44997
biao❃ge쎯yan❃ipg쎯	-9.45065
쎁쎉쎉쎇nian❂rh쎯	-9.45102
zi❁uqwm쎯ben❃sg쎯	-9.45193
pu❂aqg쎯tao❂aqr쎯	-9.45197
su❄gxi쎯zhi❄rfm쎯	-9.45215
huan❁cqw쎯	-9.45251
쎁쎉쎉쎆nian❂rh쎯	-9.45299
ji❄yn쎯lu❄vi쎯	-9.45349
ju❁nd쎯zhu❄wygg쎯	-9.45371
shu❃lftj쎯	-9.45382
ce❄imj쎯shi❄yaa쎯	-9.45405
shuo❄ddm쎯	-9.45407
,gai❁yynw쎯	-9.45541
yun❄ujqu쎯	-9.457
yao❁esv쎯	-9.45728
na❄mw쎯bu❄uk쎯	-9.45765
chong❁yc쎯fen❁wv쎯	-9.45803
qie❁av쎯cheng❂dn쎯	-9.45806
쎆쎈	-9.45806
you❄xln쎯	-9.45884
chang❄jhnr쎯	-9.45938
shou❄rep쎯,	-9.45989
gai❁yynw쎯cun❁sf쎯	-9.45999
su❄pwdj쎯	-9.46044
fan❂my쎯	-9.46165
tian❁gd쎯xia❄gh쎯	-9.46254
cai❂fay쎯	-9.46263
mie❄goi쎯	-9.46323
guo❁ybb쎯	-9.46362
zhe❄p쎯shi❄j쎯	-9.46371
gou❃sq쎯cheng❂dn쎯	-9.46376
xiang❂yud쎯xi❄xl쎯	-9.46418
yang❂su쎯	-9.46429
xu❁ed쎯	-9.46454
쎂-	-9.4655
si❄wny쎯	-9.46683
zhong❄wkhh쎯	-9.46716
you❃e쎯ji❁sm쎯	-9.46757
shuo❁yu쎯ming❂je쎯	-9.4676
xian❄bv쎯	-9.46781
de❅f쎯xia❄gh쎯	-9.46851
cao❂gma쎯	-9.46851
쎃쎁	-9.46873
suo❃rn쎯shu❃ntk쎯	-9.47027
xu❁fdm쎯qiu❂fiy쎯	-9.47057
na❄mw쎯cun❂dhb쎯	-9.47107
bin❁pr쎯	-9.47111
쎆쎆	-9.47127
gao❁ym쎯du❄ya쎯	-9.4713
xi❁ke쎯	-9.4717
guai❄nc쎯	-9.47193
xue❂ip쎯li❄dl쎯,	-9.47202
xi❁sghg쎯bu❄uk쎯	-9.47237
shan❁mmm쎯qu❁aq쎯.	-9.47243
jiao❁wyo쎯	-9.47287
hao❄ditn쎯	-9.47304
lu❂oyn쎯	-9.47307
쎂쎀쎀쎀	-9.47316
fu❄qm쎯	-9.47348
쎄.	-9.47379
fu❂gip쎯shi❄j쎯	-9.47417
ran❂oqdo쎯	-9.47427
cheng❂dn쎯ji❁xgm쎯	-9.47432
hu❄gx쎯lian❂bu쎯	-9.4758
ce❄imj쎯liang❂jg쎯	-9.47725
jian❁jcf쎯	-9.47784
ji❂tdij쎯	-9.47901
wei❃wfn쎯	-9.47908
wan❂gfq쎯	-9.47951
qiu❂lft쎯ben❄wsg쎯	-9.47953
wei❄fii쎯lai❂go쎯	-9.47955
xue❂ip쎯zhe❃ftj쎯	-9.47961
bi❂thl쎯	-9.48096
ji❂wys쎯cheng❂dn쎯	-9.48143
di❂tdt쎯	-9.48253
shao❄xvk쎯	-9.48377
yi❁g쎯yang❂su쎯	-9.48386
)shi❄j쎯	-9.48397
nang❂gkh쎯	-9.4861
fei❄ynty쎯	-9.48635
hei❁lfo쎯se❄qc쎯	-9.48778
tai❄dy쎯yang❂bj쎯	-9.48851
san❁dg쎯shi❂fgh쎯	-9.48855
chuan❂wfny쎯》:“	-9.48886
.ta❁px쎯	-9.4891
de❅r쎯xin❁usr쎯	-9.48969
zhi❁kw쎯you❃e쎯	-9.49011
nu❃vcl쎯li❄lt쎯	-9.49056
shi❄gk쎯jian❄wrh쎯	-9.49082
dang❁iv쎯de❅f쎯	-9.49111
de❅r쎯xiao❃ih쎯	-9.49142
ming❂kqy쎯	-9.49241
jiang❁uqi쎯	-9.49261
쎁쎉쎉쎂nian❂rh쎯	-9.49286
yi❂wyq쎯qi❄kkd쎯	-9.49451
,zong❃ukn쎯	-9.49545
hong❂xa쎯se❄qc쎯	-9.49546
pang❂upy쎯	-9.49655
fu❂wdy쎯	-9.49661
de❅f쎯tu❂ltu쎯	-9.49674
lv❄tvfh쎯	-9.49689
zzy쎯	-9.49731
zhan❃nae쎯shi❄fi쎯	-9.49763
yi❁g쎯qie❁av쎯	-9.49809
ban❄rufh쎯	-9.4981
jia❁lk쎯jiang❄xk쎯	-9.49874
shi❄toc쎯	-9.49924
쎁쎀쎀쎀	-9.49966
shao❁tie쎯	-9.50005
miao❄vit쎯	-9.50069
lu❂hn쎯	-9.50085
san❁dg쎯nian❂rh쎯	-9.50093
jing❁nyiy쎯	-9.5013
shi❂wyv쎯yong❄et쎯	-9.50186
t쎯	-9.5019
zan❄tfqm쎯	-9.5022
,z	-9.50265
you❂qtdn쎯	-9.50301
hua❁awx쎯wan❂lfq쎯	-9.50383
gao❁ym쎯jiao❄suq쎯	-9.50413
yuan❂dr쎯li❃gj쎯	-9.50574
xiao❃jat쎯	-9.50605
mo❂yssr쎯	-9.50609
jing❄fuj쎯na❄mw쎯	-9.50629
fu❄fhh쎯	-9.50652
hun❂ijx쎯	-9.50678
ba❁kc쎯	-9.50682
shen❁wjh쎯	-9.5069
yi❄nla쎯	-9.50702
ji❄vca쎯	-9.50799
(),	-9.50949
쎁쎉쎉쎄nian❂rh쎯	-9.51
er❄fg쎯deng❃tffu쎯	-9.51252
shou❄wyk쎯	-9.51314
xin❄wy쎯hao❂kgn쎯	-9.51323
na❂wgkr쎯	-9.51549
,ke❃sk쎯yi❃c쎯	-9.5158
.쎇	-9.51602
jia❁guw쎯	-9.51672
yi❄ycf쎯	-9.51682
gai❃nty쎯bian❄yo쎯	-9.51777
xun❂vf쎯	-9.51831
que❄dqe쎯ding❄pg쎯	-9.51889
,ju❄kha쎯	-9.51907
zhi❁fc쎯bu❄uk쎯	-9.51942
pu❄qge쎯	-9.51968
lang❃yvc쎯	-9.51983
zhu❁sri쎯	-9.52015
k쎯	-9.521
bi❄nt쎯xu❁ed쎯	-9.52163
chou❁rm쎯	-9.52168
ya❁dfy쎯li❄lt쎯	-9.52372
ye❃bn쎯.”	-9.52379
se❄qc쎯cai❃ese쎯	-9.52614
fa❃if쎯gui❁fwm쎯	-9.52627
huan❃xef쎯	-9.52658
,zai❄gmf쎯	-9.5266
ye❃bn쎯you❃e쎯	-9.52721
zhe❄p쎯yang❂su쎯	-9.52752
bu❂i쎯fu❄wcy쎯	-9.52781
dao❃nf쎯yan❃ipg쎯	-9.52806
shen❁jhk쎯	-9.5284
fu❂pyg쎯jian	-9.52845
bao❄jaw쎯	-9.52889
jing❄aqk쎯	-9.52915
zu❃begg쎯	-9.52958
hui❄wf쎯zhang❃ta쎯	-9.53047
qiao❃agnn쎯	-9.53056
ben❄wsg쎯de❅r쎯	-9.5307
qi❂yta쎯xia❄gh쎯	-9.53104
zuan❁qhk쎯	-9.53151
xue❂ip쎯zzbd쎯	-9.53191
que❄dqe쎯	-9.5321
,yin❁ld쎯	-9.53256
xuan❂egcn쎯	-9.53262
xiao❃ih쎯zu❃xeg쎯	-9.53269
chong❂tgj쎯da❄dd쎯	-9.53292
yong❃cel쎯	-9.5341
fang❃yyn쎯	-9.53437
gen❁khv쎯	-9.53454
teng❂eud쎯	-9.53539
쎁쎉쎉쎃nian❂rh쎯	-9.53544
chun❂sgyb쎯	-9.53549
qing❁wxd쎯	-9.53564
c쎯	-9.53744
xiao❃ih쎯qu❁aq쎯	-9.53819
ce❄aps쎯huo❄aqt쎯	-9.53854
cheng❁tq쎯:	-9.53904
shi❁yff쎯ren❂w쎯	-9.53984
shi❄gk쎯wu❄tl쎯	-9.54002
...	-9.54023
bo❁rtol쎯fang❄yt쎯	-9.54054
de❅f쎯qiu❂gfi쎯	-9.54058
ge❁sksw쎯qu❁ma쎯	-9.54109
쎃쎉	-9.54129
xi❂nu쎯	-9.54215
bi❄uft쎯	-9.54239
kun❁jx쎯	-9.54313
쎅쎂	-9.54341
ting❂wyp쎯	-9.5436
tai❄dy쎯ping❂gu쎯	-9.54399
you❃e쎯zhao❁udh쎯	-9.54442
kua❄khd쎯	-9.5446
yi❃c쎯xia❄gh쎯	-9.54528
wei❄o쎯“	-9.54539
ren❂w쎯shi❄fghg쎯	-9.54585
yu❄trh쎯	-9.54622
쎈쎅	-9.54641
he❄fof쎯	-9.54641
o	-9.54675
ge❄tk쎯de❅f쎯	-9.54684
_	-9.54687
cui❄nywf쎯	-9.5483
de❅f쎯zhen❄fdf쎯	-9.54919
ya❄gog쎯zhou❁iyt쎯	-9.54922
》shi❁yff쎯:“	-9.55013
쎄쎆	-9.55135
sui❄dyw쎯	-9.5514
te❄trf쎯xing❄ntg쎯	-9.55145
gong❁at쎯ji❁fmk쎯	-9.5522
hao❃vb쎯de❅r쎯	-9.55231
gai❄svc쎯	-9.55262
jian❃sw쎯cha❂sj쎯	-9.55279
shi❄ymhj쎯qu❁aq쎯	-9.55285
yang❃rnu쎯	-9.5538
lin❂qgo쎯	-9.5541
xing❂gajf쎯de❅r쎯	-9.55414
shen❄jce쎯	-9.5543
de❅r쎯ren❂w쎯	-9.55459
tu❂ltu쎯pian❁thg쎯	-9.55503
ju❄hw쎯ben❄wsg쎯	-9.5553
yan❂utem쎯se❄qc쎯	-9.55714
<	-9.55807
쎅쎆	-9.55823
,er❂dmj쎯qie❃eg쎯	-9.56023
dian❄jn쎯hua❄ytd쎯	-9.56038
ren❂w쎯min❂n쎯gong	-9.56107
❄aw쎯han❄t쎯guo❂l쎯	-9.5611
yi❃c쎯lai❂go쎯,	-9.56141
nian❂rh쎯qing❁lc쎯	-9.56241
bu❂i쎯shi❄j쎯	-9.56261
zhuan❁fny쎯ke❁tu쎯	-9.56292
fu❄bwf쎯jin❄rp쎯	-9.56303
yue❄rgm쎯	-9.56349
ding❄ys쎯	-9.56364
hai❃itx쎯yang❂iu쎯	-9.5639
wu❂fq쎯xian❄xg쎯	-9.56585
쎁쎉쎈쎄nian❂rh쎯	-9.56608
쎂gan❄wh쎯	-9.56611
shan❄ryl쎯	-9.56615
zhu❃y쎯ren❂wtf쎯.	-9.56623
yuan❂fqb쎯su❄gxi쎯	-9.56682
zui❄ldj쎯	-9.56704
e❂wtr쎯luo❁lq쎯	-9.56834
mian❂srm쎯	-9.56851
hai❃itx쎯ba❂rdc쎯쎁	-9.56898
he❄pujn쎯se❄qc쎯	-9.56948
「	-9.5705
li❃gj쎯xiang❃shn쎯	-9.57112
mi❄pntj쎯	-9.57143
chen❂iff쎯	-9.57189
」	-9.57225
jian❄jtyq쎯	-9.5723
fan❃rc쎯ying❄jmd쎯	-9.5732
hao❂kgn쎯:	-9.57369
fei❄egm쎯	-9.57376
nv❃vvv쎯zi❃bb쎯	-9.5739
,hou❄rg쎯	-9.57447
쎅쎇	-9.57476
xin❁usr쎯de❅r쎯	-9.57493
ping❂uag쎯	-9.57554
ya❁lqy쎯	-9.57563
mei❃txg쎯nian❂rh쎯	-9.576
suo❁xpw쎯	-9.57662
tan❂ffc쎯	-9.57805
yi❁g쎯deng❃tffu쎯	-9.57936
bu❄uk쎯.	-9.57954
heng❄ght쎯xie❂fl쎯	-9.57979
쎄쎇	-9.58007
san❁dg쎯jiao❃qe쎯	-9.58225
gou❄mqc쎯wu❄tr쎯	-9.5825
ti❂rj쎯sheng❁tak쎯	-9.58281
,shi❄j쎯yi❁g쎯	-9.58365
ding❃hnd쎯	-9.58418
ji❂wys쎯zhong❁k쎯	-9.58513
ying❄jmd쎯	-9.58521
gan❁ef쎯	-9.58726
jie❂rgv쎯	-9.58756
yao❄ax쎯wu❄tr쎯	-9.5876
bu❄uk쎯zhang❃ta쎯	-9.58788
,bao❁qn쎯gua❁rtd쎯	-9.58819
nian❂rh쎯jian❁uj쎯	-9.5882
쎅-	-9.58835
chi❄fcn쎯	-9.58835
tu❂iwt쎯	-9.58857
ce❄mm쎯	-9.58865
an❃tuj쎯cheng❁tq쎯	-9.58929
shao❄vkf쎯	-9.58935
a❁pe쎯ting❂ytfp쎯	-9.58949
dao❃nf쎯shi❁jgm쎯	-9.59118
fu❂eb쎯wu❄tl쎯.	-9.59156
bian❃ynma쎯	-9.59305
ou❃wjm쎯	-9.59421
,cheng❂dn쎯wei❄o쎯	-9.59619
o쎯	-9.59622
zhi❃rxj쎯hui❁rpl쎯	-9.59625
zhen❃ywe쎯	-9.59699
쎁.쎅	-9.59737
ping❂fgu쎯	-9.59814
qi❃ynk쎯	-9.59815
shen❁ipw쎯ru❄ty쎯	-9.5982
nen❄vgk쎯	-9.59825
de❅r쎯yi❁g쎯	-9.59856
《zhong❁k쎯guo❂l쎯	-9.59867
zzxe쎯zzxe쎯zzxe쎯	-9.59952
bai❃srg쎯	-9.5998
wai❄qh쎯xing❂gae쎯	-9.5999
mao❄eerq쎯	-9.60027
mao❄qyv쎯	-9.60158
:쎁	-9.602
쎁쎉쎈쎅nian❂rh쎯	-9.60291
yin❁ujf쎯pin❂hid쎯	-9.60331
ye❄dmu쎯	-9.60341
i	-9.60354
dui❄cf쎯yu❂gf쎯	-9.60401
si❁tcy쎯	-9.60446
you❂iytb쎯ji❁fmk쎯	-9.60482
.쎆	-9.60545
jin❃jc쎯	-9.60558
);	-9.60571
fang❁fyn쎯	-9.60575
fu❂mhg쎯	-9.60577
shi❄j쎯yi❃c쎯	-9.60586
ju❄ians쎯	-9.60636
ge❂st쎯shi❄aa쎯	-9.60713
er❄fg쎯ji❂xe쎯	-9.60721
yue❄uuk쎯du❂yfn쎯	-9.60871
bao❄rb쎯gao❄tfkf쎯	-9.60881
-쎂	-9.60928
yi❂khgp쎯zhi❃fhg쎯	-9.60951
che❃nyi쎯	-9.60972
쎀gong❁wc쎯li❃jfd쎯	-9.60998
쎅쎃	-9.61019
zhen❁qf쎯dui❄cf쎯	-9.61037
dai❄waye쎯	-9.6116
shu❄syp쎯le❅b쎯	-9.61168
zhao❁jvk쎯	-9.61206
pi❂lxx쎯lin❂wycb쎯	-9.61206
xi❁qjq쎯	-9.61238
zha❁rnn쎯	-9.61269
mei❂vaf쎯	-9.61317
hui❄wf쎯yuan❂km쎯,	-9.61345
zui❃khx쎯	-9.61378
en❄fkh쎯shi❄ymhj쎯	-9.6141
liang❂jg쎯:	-9.61435
shen❁ipw쎯zh	-9.61462
di❄tx쎯wu❃gg쎯	-9.61557
yu❃pgf쎯	-9.61658
gan❁sfh쎯	-9.6182
nan❂fm쎯bei❃ux쎯	-9.61826
\	-9.61879
쎁ri❄jjjj쎯	-9.6188
tu❁pwd쎯	-9.61933
zu❂khu쎯qiu❂gfi쎯y	-9.61968
쎇쎆	-9.62032
zhi❂fh쎯jing❄tca쎯	-9.62038
xi❁thn쎯	-9.6211
,mei❃txg쎯	-9.62118
da❄dd쎯dao❄uthp쎯	-9.62137
쎅gong❁wc쎯li❃jfd쎯	-9.62264
lian❂bu쎯xi❄txi쎯	-9.62352
쎁쎉쎉쎀nian❂rh쎯	-9.6236
tiao❄khi쎯	-9.62386
쎃gan❄wh쎯	-9.62501
yi❁g쎯liu❂iyc쎯	-9.62515
zi❁uqwm쎯ge❂st쎯	-9.62572
fu❄stt쎯gai❄ugl쎯	-9.62582
lu❄ynj쎯	-9.62644
mian❄dm쎯ji❁tkw쎯쎃	-9.62733
.쎉	-9.62802
du❄iya쎯	-9.62913
쎃-	-9.62926
,rang❄yh쎯	-9.62933
an❃tuj쎯dan❁ujfj쎯	-9.63007
di❄aup쎯	-9.63158
yang❃rnu쎯hua❁wx쎯	-9.63176
쎂.쎀	-9.63203
quan❂wg쎯shu❁nnh쎯	-9.63206
cheng❂dn쎯ben❃sg쎯	-9.63273
yi❄ujn쎯cha❁yq쎯	-9.63339
xie❃tld쎯guan❃tp쎯	-9.63355
쎄gan❄wh쎯	-9.63492
ji❄iyj쎯nan❂fm쎯	-9.63498
da❄dd쎯hui❄wf쎯	-9.6355
gou❃sq쎯	-9.63558
cui❁ykge쎯	-9.63683
jing❁x쎯li❄dl쎯	-9.63713
yuan❄aqb쎯	-9.63734
gui❁fwm쎯ge❂st쎯	-9.63826
she❂jpx쎯	-9.6391
dou❁ftjb쎯you❃e쎯	-9.63979
kong❁pw쎯qi❃rnb쎯	-9.64076
luo❂alq쎯bo❅hhy쎯	-9.64077
bei❁uxe쎯jing❃jy쎯	-9.64147
쎁쎉쎈쎈nian❂rh쎯	-9.64169
ri❄jjjj쎯ji❁adwe쎯	-9.64188
meng❄blf쎯	-9.64205
zzjp쎯zzjp쎯zzjp쎯	-9.64327
zhi❁ex쎯	-9.64468
pin❂hid쎯lv❄yx쎯	-9.64544
yue❄khtd쎯	-9.64612
shui❃ii쎯li❄tjh쎯	-9.64615
,yong❄et쎯	-9.64619
nian❂oh쎯	-9.64673
hong❂xa쎯jun❁pl쎯	-9.64698
bin❁ipr쎯	-9.64731
-쎁	-9.64738
yu❄jm쎯	-9.64864
sha❄ddh쎯men❂uyh쎯	-9.64913
fei❄xjm쎯zhe❃ftj쎯	-9.65123
dian❄jn쎯qi❄kkd쎯	-9.65167
you❁wdn쎯yue❄fha쎯	-9.65206
tiao❁riq쎯	-9.6521
ni❂nx쎯ya❄gog쎯	-9.65213
쎅쎈	-9.65226
li❄dl쎯ren❂wtf쎯	-9.65353
쎉쎅	-9.65354
xun❄nfp쎯su❄gkip쎯	-9.65417
gun❃iuc쎯	-9.65419
yi❁g쎯bu❄uk쎯	-9.65463
wang❂ynv쎯	-9.65474
ge❂utk쎯	-9.65524
yu❄yce쎯bu❄uk쎯	-9.65524
shou❁nh쎯lu❄vi쎯	-9.65687
da❄dd쎯sai❄pfjm쎯	-9.65737
zhi❃fhg쎯	-9.65937
min❂n쎯zhu❃y쎯	-9.66054
jian❃sw쎯yan❄cwg쎯	-9.66114
zhu❄qdt쎯	-9.66148
,xian❄gm쎯	-9.66217
cai❄awf쎯	-9.66261
zhen❄bl쎯	-9.66264
zeng❄mu쎯	-9.66327
qi	-9.66359
zhuan❁dfny쎯	-9.66373
jue❂un쎯	-9.66393
xi❄ca쎯ju❄ndj쎯	-9.66401
mu❄trt쎯	-9.66405
,cong❂ww쎯er❂dmj쎯	-9.66493
ru❂vk쎯guo❃js쎯	-9.66537
li❃gj쎯gong❁a쎯	-9.66548
da❄dd쎯lian❂lpk쎯	-9.66632
hua❂aj쎯	-9.66666
wan❂gfq쎯jia❁pe쎯	-9.66677
shi❂pu쎯li❄lt쎯	-9.66738
liang❂jg쎯de❅r쎯	-9.66751
he❄pwy쎯	-9.66754
rang❃fyk쎯	-9.6679
bi❄grd쎯	-9.66932
쎈쎆	-9.67131
』『	-9.67148
chi❂rf쎯xu❄xfn쎯	-9.67203
,quan❂wg쎯	-9.67216
shi❄gk쎯qiu❁og쎯d	-9.67242
dai❄gkp쎯lai❂go쎯	-9.67274
쎁쎉쎈쎆nian❂rh쎯	-9.67312
yin❃qnq쎯	-9.67411
wang❄jgg쎯	-9.67462
kao❃oft쎯	-9.67506
huang❁aynq쎯	-9.67614
xie❂fl쎯diao❄ymf쎯	-9.67671
,ran❂qd쎯hou❄rg쎯	-9.67687
da❂ej쎯	-9.6778
jing❃jy쎯qu❁aq쎯	-9.6782
,ze❂mj쎯	-9.67844
geng❁gjq쎯duo❁qq쎯	-9.67884
zhong❁k쎯jian❁uj쎯	-9.6798
쎅쎄	-9.68008
ren❂w쎯ben❄wsg쎯	-9.68015
de❅f쎯li❃gj쎯	-9.68084
,yin❁ld쎯ci❃hx쎯	-9.6814
()shi❄j쎯	-9.68193
hong❂iaqg쎯	-9.68205
shan❁ynnd쎯	-9.68325
zao❃gmiu쎯	-9.6836
ji❁adwe쎯kan❁fjh쎯	-9.68403
‘	-9.68431
du❁hich쎯	-9.6846
dan❁rjg쎯	-9.68467
chu❁bm쎯lai❂go쎯	-9.68503
yao❂pwr쎯	-9.68513
zhai❁ydm쎯	-9.686
tao❃yfy쎯	-9.68632
chi❂rf쎯	-9.68648
lan❂tjtl쎯	-9.68653
yu❄cbd쎯fang❂by쎯	-9.68714
ji❂ifk쎯	-9.68849
hun❂ijx쎯ge❃wgk쎯	-9.68852
쎈쎈	-9.68927
쎁쎉쎈쎇nian❂rh쎯	-9.68934
xu❄xfn쎯	-9.6896
can❁hq쎯yin❃qnq쎯	-9.68994
쎄-	-9.69064
zhu❂epi쎯jian❄il쎯	-9.69085
ming❂qk쎯zi❄pb쎯	-9.69133
wan❂lfq쎯qu❁aq쎯	-9.69245
duo❁qq쎯shu❄ovt쎯	-9.69311
zhi❂bk쎯cheng❁tq쎯	-9.69315
pei❄wmg쎯	-9.69337
p쎯	-9.69405
he❃nyi쎯cun❄fghy쎯	-9.69487
zhua❁rrhy쎯	-9.69504
,zhe❄p쎯	-9.69555
jian❁uejo쎯	-9.69596
chu❄th쎯,	-9.69615
iang❄bt쎯shui❃ii쎯	-9.69653
gu❄db쎯wen❄ukd쎯	-9.69934
v쎯	-9.69959
pu❃yuo쎯	-9.70009
tu❁pwd쎯chu❁bm쎯	-9.70017
liang❄lgm쎯	-9.70103
쎆쎂	-9.70123
shou❃rt쎯shu❂sy쎯	-9.70142
dong❄sai쎯	-9.70209
xie❂fl쎯	-9.70247
wei❂xwy쎯xiu❁wht쎯	-9.70256
.“	-9.70296
ai❂ukk쎯	-9.7035
쎅.	-9.70392
ai❄ep쎯hao❃vb쎯	-9.70454
su❄ubtf쎯liao❄ou쎯	-9.70455
.shi❄j쎯	-9.70474
kuang❂qtg쎯	-9.70494
xiang❁sh쎯tong❂m쎯	-9.70587
da❄dd쎯shi❁jgm쎯	-9.7062
wei❄o쎯yi❁g쎯	-9.70621
ge❃wgk쎯bing❁ua쎯	-9.7063
jiao❃qe쎯se❄qc쎯	-9.70634
mao❁qtal쎯	-9.70659
shao❃it쎯xu❃ytf쎯	-9.70727
cang❁wbb쎯	-9.70734
shi❄pgc쎯na❄mw쎯	-9.70757
쎁쎉쎈쎉nian❂rh쎯	-9.70796
an❁ga쎯zhan❃nae쎯	-9.70867
jian❃ddg쎯	-9.70871
wei❂xwy쎯hu❄ryn쎯	-9.71043
pao❃khq쎯	-9.71095
wan❂lfq쎯lin❂ss쎯	-9.71216
fu❄wqu쎯qin❁us쎯	-9.71223
쎇쎈	-9.71341
dang❃ipk쎯zu❃xeg쎯	-9.71363
》juan❃udbb쎯	-9.71439
cang❁awb쎯	-9.71479
ge❃wgk쎯li❃gj쎯	-9.71501
tao❂iqp쎯	-9.71755
ji❂wys쎯ben❄wsg쎯	-9.71805
ren❂w쎯wen❂yygy쎯	-9.7184
-쎃	-9.71877
chang❂ipf쎯	-9.71877
쎉쎉	-9.71901
ba❂rdc쎯	-9.7192
xie❂afff쎯	-9.71943
geng❁gjq쎯jia❁lk쎯	-9.71985
lv❃kk쎯	-9.72028
lian❂yuvo쎯	-9.72066
mao❄jhf쎯	-9.72087
zhen❁fhw쎯shi❂pu쎯	-9.72199
ji❄rfc쎯	-9.72433
ren❂w쎯shu❄ovt쎯	-9.72465
----------------	-9.72518
fan❁toln쎯yi❄ycf쎯	-9.72535
bing❃tgv쎯	-9.72537
zuo❄wt쎯zhan❄hka쎯	-9.72566
yi❁atd쎯ke❁tu쎯	-9.72596
.ben❃sg쎯	-9.72624
jian❃tuj쎯jie❄wj쎯	-9.72641
.ci❃hx쎯	-9.72649
shu❁anh쎯cai❄ae쎯	-9.72701
lian❄yon쎯	-9.72707
re❄rvyo쎯dai❄gkp쎯	-9.72711
zzbd쎯fu❄gkl쎯	-9.72807
zao❄okk쎯	-9.72846
shan❃bgu쎯xi	-9.72854
yong❄et쎯.	-9.72935
.you❂mh쎯yu❂gf쎯	-9.7299
쎁쎉쎉쎁nian❂rh쎯	-9.73016
na❄mw쎯zhi❄lfhf쎯	-9.73032
쎇쎂	-9.73048
jiang❄xk쎯da❄dd쎯	-9.73144
,jing❁x쎯	-9.73151
deng❃tffu쎯ji❂xe쎯	-9.7322
bu❄uk쎯zzbd쎯	-9.73231
hang❂tf쎯z	-9.73328
jian❄adh쎯	-9.73412
tan❂isj쎯	-9.73502
gan❄wh쎯xing❄ntg쎯	-9.73519
zhe❃ftj쎯.	-9.73547
쎄쎁	-9.73576
jun❁pl쎯qu❁aq쎯	-9.7365
쎆쎇	-9.73738
yi❁g쎯shou❃uth쎯	-9.73753
xian❁xtf쎯	-9.73907
ge❃wgk쎯cheng❂dn쎯	-9.74001
can❁hq쎯	-9.74012
쎆쎃	-9.74098
xiu❁ws쎯	-9.74106
ng❁a쎯cheng❂tkgg쎯	-9.74117
yi❄wn쎯	-9.74193
wu❃rlg쎯dao❃khev쎯	-9.74199
fa❁v쎯hui❁rpl쎯	-9.74204
jiao❃qe쎯du❄ya쎯	-9.74215
jing❃cad쎯	-9.74253
wei❁tv쎯zzbd쎯	-9.7428
,yong❁reh쎯you❃e쎯	-9.74295
ning❂ps쎯bo❁ihc쎯	-9.74319
chu❃wyf쎯	-9.7448
jia❃smu쎯	-9.74498
dao❄gc쎯le❅b쎯	-9.74523
zi❄thd쎯shen❁tmd쎯	-9.74598
hao❂kgn쎯.	-9.7461
쎁쎅쎀	-9.74616
yi❁g쎯ben❃sg쎯	-9.74639
cheng❁tq쎯wei❄o쎯“	-9.74649
wei❄o쎯zhu❃y쎯,	-9.74711
zuo❃wda쎯	-9.74857
reng❂we쎯	-9.74858
쎁/	-9.74862
shi❄fi쎯	-9.74865
tun❂gb쎯	-9.74873
pi❁rx쎯	-9.74901
tong❃tmgk쎯	-9.74915
wu❂fq쎯fa❃if쎯	-9.75032
ju❂nnk쎯fu❄gkl쎯	-9.75092
yan❃ipg쎯chu❁bm쎯	-9.75094
bai❃dj쎯du❄ya쎯	-9.75125
.ben❃sg쎯shu❁nnh쎯	-9.75152
〕	-9.75191
zuo❄wt쎯yong❄et쎯.	-9.75205
she❄ihi쎯ji❂ey쎯	-9.75358
you❃e쎯yi❁g쎯	-9.75368
shi❂fgh쎯wu❃gg쎯	-9.75386
dong❄fcl쎯zuo❄wt쎯	-9.7539
da❄dd쎯jia❁pe쎯	-9.75404
a쎯	-9.75456
nong❂pei쎯zuo❄wt쎯	-9.75519
ding❄pg쎯wei❄wug쎯	-9.75613
bao❄rqn쎯	-9.75618
quan❂wg쎯xin❁usr쎯	-9.75669
lin❂ss쎯qiu❁og쎯	-9.7592
ju❃iwf쎯hang❂tf쎯	-9.75928
jia❁pe쎯zu❂ytt쎯	-9.75975
쎅쎁	-9.76023
kan❁fjh쎯wu❄tr쎯	-9.76054
쎄쎉	-9.76141
gao❃tym쎯	-9.76186
lv❃qkk쎯	-9.76258
wang❃mqq쎯ka❃hhu쎯	-9.76259
lao❃ftx쎯shi❁jgm쎯	-9.76267
zhu❄egl쎯li❃gj쎯	-9.76275
hua❄gl쎯jia❁pe쎯	-9.76308
rong❂pww쎯yi❄jqr쎯	-9.7631
tan❄dmd쎯	-9.76343
mou❂yaf쎯	-9.76356
cun❁sf쎯,	-9.76403
bing❃qnu쎯	-9.76502
xiang❁sh쎯hu❄gx쎯	-9.76598
dui❄cf쎯wai❄qh쎯	-9.76648
〔	-9.7666
zhi❁td쎯dao❄uthp쎯	-9.76675
wai❄qh쎯guan❁cm쎯	-9.76744
ji❁em쎯	-9.76746
hong❂xcy쎯	-9.76891
jian❁yned쎯	-9.76909
fang❁yy쎯mi❃oy쎯.	-9.77013
yuan❂fke쎯	-9.77055
han❄t쎯xie❂yxxr쎯	-9.77097
qiao❂wtd쎯	-9.77148
che❁lg쎯zhan❄uh쎯	-9.77159
she❂tdd쎯	-9.77247
zhou❁tei쎯	-9.77293
chan❂pyuf쎯	-9.77296
ci❂uxxn쎯	-9.77309
an❁xtf쎯wei❂xwy쎯	-9.77343
han❄t쎯ji	-9.77347
쎅%	-9.77402
jiang❄xk쎯du❄ya쎯	-9.77454
shi❂fgh쎯yi❁g쎯	-9.77518
fang❁yy쎯zhen❁qf쎯	-9.7752
pa❄mhr쎯	-9.77554
han❂wynk쎯you❃e쎯	-9.77593
xue❂ip쎯jia❁pe쎯	-9.77603
gong❁wc쎯jin❁rtt쎯	-9.77646
chang❂ipkh쎯wu❄t	-9.77774
shua❁nmh쎯	-9.77781
teng❂aeu쎯	-9.77824
zao❃jh쎯ji❁adwe쎯	-9.77875
iao❂ral쎯shu❄syp쎯	-9.77886
xi❁ke쎯shou❁nh쎯	-9.77887
cao❂sgmj쎯	-9.77906
zhu❂tam쎯	-9.77984
-쎄	-9.77988
gao❁ym쎯xiao❄uqt쎯	-9.78
diao❄ymf쎯jie❂ab쎯	-9.78032
e❂af쎯ming❄wgkb쎯d	-9.78116
xiao❁avi쎯	-9.78162
lv❄xv쎯hua❁wx쎯	-9.78286
쎂쎀쎁쎀	-9.78334
jin❁ssf쎯	-9.78353
ben❄wsg쎯yan❄cwg쎯	-9.78425
ban❃thgc쎯ben❃sg쎯	-9.7868
gu❁avd쎯	-9.78699
xian❄bqv쎯	-9.78759
쎁쎉쎈쎂nian❂rh쎯	-9.78778
dao❃nf쎯zhi❄gcft쎯	-9.78793
dang❄si쎯an❄pvs쎯	-9.78841
zhong❁k쎯bu❄uk쎯	-9.78872
suo❃rn쎯yi❃c쎯	-9.78928
cao❁rkk쎯	-9.79069
,yi❁g쎯	-9.79079
xian❃jo쎯cun❂dhb쎯	-9.79082
quan❂udr쎯	-9.79095
ni❄ubt쎯	-9.79101
cuo❄qaj쎯	-9.79137
mi❄pnt쎯du❄ya쎯	-9.79153
de❅r쎯zhuan❁fny쎯	-9.79181
tao❂bqr쎯ci❂uqwn쎯	-9.79195
da❂rs쎯yin❄qgb쎯	-9.79269
lou❄infy쎯	-9.79348
쎈쎂	-9.79378
dao❄uqwl쎯	-9.79402
wei❄o쎯zhu❃y쎯.	-9.79405
hou❄whn쎯	-9.7943
jiang❁ia쎯xi	-9.7948
qing❁ige쎯dai❄wa쎯	-9.79519
sui❁kj쎯	-9.79552
,jiu❄yi쎯	-9.7956
nong❂pei쎯hu❄yne쎯	-9.7956
jing❁aga쎯	-9.79569
bang❁dt쎯	-9.79572
.ceng❂ul쎯	-9.79646
gu❁br쎯	-9.79668
zheng❁ghd쎯zai❄d쎯	-9.79757
wu❁ifn쎯ran❃ivs쎯	-9.79785
jun❄wcw쎯	-9.79803
mei❂sgtu쎯	-9.79829
guo❂l쎯wai❄qh쎯	-9.79882
yuan❂dr쎯yin❁ld쎯	-9.79891
nai❃ve쎯	-9.79945
mei❂sty쎯	-9.79956
bi❄nk쎯	-9.80001
tai❁eck쎯	-9.80005
huo❄fwyf쎯	-9.80029
,han❄ic쎯zu❂ytt쎯,	-9.80063
zhe❄irr쎯	-9.80075
%,	-9.80116
fu❄mga쎯	-9.80134
shui❃ii쎯dao❄tev쎯	-9.80147
jun❁fqu쎯jun❁qu쎯	-9.80221
❃itf쎯cheng❁uqv쎯	-9.8031
,bing❁ua쎯qie❃eg쎯	-9.80331
i❁uqwm쎯jin❁qqqq쎯	-9.80383
.쎈	-9.80409
ling❂qwyc쎯	-9.80422
ei❄wug쎯zhi❄lfhf쎯	-9.80505
shi❄wff쎯	-9.80587
cheng❂dn쎯fen❁wv쎯	-9.80593
,huo❄ak쎯	-9.80618
biao❁sfi쎯zhi❄fn쎯	-9.80631
he❂wgkl쎯	-9.80659
jiang❄bt쎯di❁wqa쎯	-9.80691
fu❄tjt쎯duo❃vs쎯	-9.8073
lun❄ywx쎯tan❂ffc쎯	-9.80754
,wu❂fq쎯	-9.80756
쎂.쎅	-9.80786
ai❁fct쎯	-9.80818
ang❃ipkr쎯wo❄rng쎯	-9.80903
bin❁pr쎯guan❃qnp쎯	-9.80932
zzpj쎯zzpj쎯zzpj쎯	-9.8095
xiang❂udng쎯	-9.80972
shao❃it쎯shu❄ovt쎯	-9.81004
you❁xxm쎯	-9.81125
》zhong❁k쎯	-9.81154
ren❂w쎯kou❃kkkk쎯쎁	-9.81242
xue❂ip쎯wei❄wug쎯.	-9.81272
hu❁kt쎯	-9.81303
kuo❄ry쎯zhan❃nae쎯	-9.81306
.쎂	-9.81313
gu❄db쎯	-9.81336
ge❄tk쎯gan❄wh쎯	-9.81364
,neng❂ce쎯	-9.81447
guan❁ud쎯zhu❄iy쎯	-9.81489
yi❄qkqp쎯	-9.8155
di❄uxhp쎯	-9.81595
mao❄adn쎯	-9.81616
쎁쎂쎀	-9.81617
jiao❄lu쎯da❄dd쎯	-9.81623
liu❂uqyl쎯	-9.81633
gong❁al쎯lv❄yx쎯	-9.81663
ben❁dfa쎯	-9.81723
yuan❂dr쎯ze❂mj쎯	-9.81803
fa❁v쎯dong❄fcl쎯	-9.81873
쎉쎆	-9.81906
hen❃ywe쎯duan❄on쎯	-9.82001
fa❂uwa쎯	-9.8201
쎁zzbd쎯	-9.82014
feng❁jtd쎯	-9.82022
tou❂rmc쎯ru❄ty쎯	-9.82038
xi❁sghg쎯ya❄gog쎯	-9.8215
jia❁pe쎯,	-9.82184
hui❁ndo쎯fu❄tjt쎯	-9.82244
de❅r쎯ying❃jyie쎯	-9.82281
shen❃pj쎯ji❄yf쎯	-9.82296
wu❃gah쎯qi❄kkd쎯	-9.82338
ji❄xo쎯xu❄xfn쎯	-9.82354
n❄fj쎯yi❁g쎯bu❄hi쎯	-9.82374
v	-9.82378
yin❁ld쎯ci❃hx쎯	-9.82428
tan❁icw쎯	-9.82585
xia❂fnhc쎯	-9.82589
go쎯	-9.82659
mei❃txg쎯gan❄wh쎯	-9.82687
sui❄uep쎯	-9.82734
hai❃itx쎯ba❂rdc쎯	-9.82753
u쎯	-9.82761
zhu❄iy쎯yi❄ujn쎯	-9.82783
ru❄ty쎯xuan❃tfqp쎯	-9.82858
yi❂xtdh쎯	-9.82883
xin❁rqw쎯	-9.82929
bao❄oja쎯	-9.8296
nan❂ll쎯,	-9.82968
,ta❁vbn쎯	-9.83032
ji❁ad쎯yu❂gf쎯	-9.83042
xian❄gm쎯shi❂pu쎯	-9.83048
xi❁ahko쎯	-9.83082
zou❄dwg쎯	-9.83103
xiong❂cexo쎯	-9.83104
yu❂iqgg쎯	-9.83211
huang❂rgf쎯di❄up쎯	-9.83234
han❄ifh쎯	-9.83304
he❄lkm쎯	-9.83337
》deng❃tffu쎯.	-9.8337
shi❂fgh쎯ba❁wty쎯	-9.83456
ban❁gyt쎯ya❂ah쎯	-9.83536
jin❁telb쎯	-9.83562
xun❄yk쎯	-9.83607
la❄ugk쎯jiao❁shi쎯	-9.8366
miao❃ti쎯	-9.83732
fa❁v쎯biao❃ge쎯l	-9.83776
gui❁fwm쎯ze❂mj쎯	-9.8383
fang❂by쎯zhi❄ick쎯	-9.8384
,ren❂wtf쎯	-9.83853
쎆gan❄wh쎯	-9.84125
jiao❄lu쎯gao❁ym쎯	-9.8414
쎁쎉쎈쎃nian❂rh쎯	-9.84141
yin❁ld쎯su❄gxi쎯	-9.84151
lao❃ftx쎯nian❂rh쎯	-9.84167
ke❄pt쎯fang❂yny쎯	-9.84233
shan❃uw쎯	-9.84255
ji❁cqy쎯dan❄nhj쎯	-9.84292
쎇쎃	-9.84319
qi❁isw쎯	-9.84401
han❄t쎯z	-9.84402
yong❄et쎯lai❂go쎯	-9.84614
jia❁lk쎯na❂wgkr쎯	-9.84647
di❄tx쎯쎁	-9.84662
chi❂jghx쎯	-9.84704
er❂dmj쎯bu❂i쎯	-9.84741
ben❄wsg쎯xian❄gm쎯	-9.84757
,dan❄wjg쎯shi❄j쎯	-9.8477
min❂n쎯guo❂l쎯	-9.84814
tian❂ffh쎯	-9.84854
zai❁fas쎯pei❂fuk쎯	-9.84908
qi❃whf쎯	-9.84938
zi❁uxx쎯	-9.84971
zong❃ukn쎯bu❄uk쎯	-9.85024
zhuang❄udy쎯,	-9.85031
tong❂m쎯zhi❄fn쎯	-9.85059
bie❂klj쎯ming❂qk쎯	-9.85073
chuan❄kkh쎯	-9.85129
ge❄tk쎯xiang❄adm쎯	-9.85131
hao❃vb쎯ping❂ygu쎯	-9.85172
fu❄bwf쎯shu❃ntk쎯	-9.85237
zhi❁xkw쎯	-9.85312
fang❃xy쎯zhi❁xkw쎯	-9.85328
jie❂xf쎯guo❃js쎯	-9.85406
hu❂fpo쎯	-9.85434
wei❂fnh쎯	-9.85435
shu❄ovt쎯ma❃dcg쎯	-9.8547
zhi❂bk쎯neng❂ce쎯	-9.85475
,zi❄thd쎯	-9.8548
dian❄jn쎯qi❃rnb쎯	-9.85481
ming❂qk쎯,	-9.85489
fen❁wv쎯pei❄sgn쎯	-9.85491
shi❂fgh쎯liu❄uy쎯	-9.85624
ge❃wgk쎯tong❂m쎯	-9.85647
xian❃jo쎯ka❃hhu쎯	-9.85652
yi❃c쎯“	-9.85703
shou❃uth쎯ci❄uqw쎯	-9.8578
fu❄tjt쎯ge❃wgk쎯	-9.8579
dong❄fcl쎯de❅r쎯	-9.8588
qing❁qtvb쎯	-9.85967
peng❂fkue쎯	-9.85974
gong❁wc쎯jian❁ga쎯	-9.86028
wo❄ahnh쎯	-9.86035
seng❁wul쎯	-9.86165
san❁dg쎯da❄dd쎯	-9.86197
kuo❄tdp쎯yi❂peg쎯	-9.86242
pen❂wvl쎯	-9.8625
ren❄yw쎯shi❂ykw쎯	-9.8628
hou❂lm쎯cheng❂bd쎯	-9.86289
e❁bwj쎯duan❄wdm쎯	-9.86319
tui❃eve쎯	-9.86375
쎀쎅	-9.86387
dong❁ai쎯bu❄uk쎯	-9.86411
ni❃wq쎯de❅r쎯	-9.86441
zhuo❂hjj쎯	-9.86487
yy쎯	-9.86498
ming❂qqk쎯	-9.8652
ta❁px쎯de❅r쎯	-9.86542
shui❄tuk쎯wu❄tl쎯	-9.86686
ge❁agnt쎯	-9.86706
li❂tjs쎯	-9.86706
fei❁adj쎯	-9.86766
zha❂oth쎯	-9.86818
dong❄uai쎯	-9.86873
qi❃rnb쎯wen❁ijl쎯쎁	-9.86917
xie❃pgn쎯zuo❄wt쎯	-9.86984
.”《	-9.87038
gong❁wc쎯qing❃xd쎯	-9.87151
zhe❃ftj쎯de❅r쎯	-9.8723
yi❃nnnn쎯you❃e쎯	-9.87236
bao❁qn쎯han❂wynk쎯	-9.87276
fu❄vv쎯nv❃vvv쎯	-9.87351
dong❃atg쎯	-9.87375
mo❂saj쎯ni❃rny쎯	-9.87388
si❄lh쎯gan❄wh쎯	-9.87418
lan❂suf쎯	-9.87429
bai❄mty쎯	-9.87462
bi❄tn쎯	-9.87474
chi❁yb쎯zi❃bb쎯	-9.87591
si❁ngk쎯ling❂wyc쎯	-9.87677
zi❃bb쎯zzbd쎯	-9.8769
shi❂fgh쎯nian❂rh쎯	-9.87788
bang❃sup쎯	-9.87815
fang❃wyn쎯	-9.87918
,zhan❁hk쎯de❅f쎯	-9.87925
ju❄and쎯da❄dd쎯	-9.87956
bao❃wk쎯cun❂dhb쎯	-9.8805
shuang❃dqq쎯	-9.88076
de❅r쎯gao❁ym쎯	-9.88156
jian❃sw쎯	-9.88227
qi❃rnb쎯hou❄whn쎯	-9.88232
ji❁sm쎯qi❄kkd쎯	-9.88278
yi❁g쎯xiang❄adm쎯	-9.88322
쎇쎇	-9.88407
yi❁g쎯dai❄wa쎯	-9.88539
xu❁fdm쎯	-9.88558
shui❃ii쎯ku❄ylk쎯	-9.88645
xiang❁xte쎯z	-9.88762
fa❁v쎯zhan❃nae쎯,	-9.88765
di❁ium쎯	-9.88773
di❄tx쎯liu❄uy쎯	-9.88785
yin❃xh쎯jin❄fj쎯	-9.8892
yong❄et쎯pin❃kkk쎯	-9.88969
jiao❃ripq쎯	-9.88999
❁qdm쎯wang❄yneg쎯	-9.89011
xi❁sghg쎯fang❁yy쎯	-9.8902
gou❃qtq쎯	-9.89051
u	-9.89078
xian❄gm쎯yi❃nnnn쎯	-9.89121
gang❁xm쎯	-9.89157
xi❂yam쎯	-9.89207
zhong❁k쎯xiao❃ih쎯	-9.89267
wan❃dpq쎯	-9.89303
bing❁ua쎯bu❂i쎯	-9.89352
fen❁wv쎯hui❄wf쎯	-9.89371
li❂tqt쎯	-9.89501
qi❂sad쎯	-9.89562
you❃e쎯《	-9.89569
쎀.쎅	-9.89595
fei❁nui쎯ji❁sm쎯	-9.89603
yu❄deb쎯	-9.89616
shi❂fgh쎯san❁dg쎯	-9.89627
er❃qiu쎯bin❁ipr쎯	-9.89632
kan❁rhf쎯dao❄gc쎯	-9.89674
chui❂tga쎯	-9.89731
dou❄gku쎯fu❃ywfw쎯	-9.89732
di❃rqa쎯	-9.89739
sui❄tgjn쎯	-9.89782
zhu❃y쎯jiao❃qe쎯	-9.89957
wu❄tr쎯qiu❁og쎯	-9.89987
yi❁g쎯zhi❁fc쎯	-9.89991
bing❃sgm쎯	-9.89992
ban❄ur쎯	-9.89994
xiao❄uqt쎯lv❄yx쎯	-9.9
bei❄tlf쎯yong❄et쎯	-9.90067
xie❂rwye쎯	-9.90127
liao❂bp쎯	-9.9016
shi❄ymhj쎯ji❂xe쎯	-9.90174
bang❄sdw쎯	-9.90262
ding❄pg쎯cha❁yq쎯	-9.90263
die❂cccg쎯	-9.90354
du❄ya쎯jia❃wnh쎯	-9.90366
si❁adwr쎯te❄trf쎯	-9.90387
gong❁a쎯han❃dgt쎯	-9.90394
zuo❄wt쎯wu❄tr쎯	-9.90398
po❄dhc쎯huai❄fgi쎯	-9.90458
ce❄tgm쎯	-9.90531
쎅쎉	-9.90534
ye❃bn쎯.	-9.90548
tui❁rwyg쎯jin❄fj쎯	-9.90563
in❁anu쎯pian❁thg쎯	-9.90596
jiao❁uq쎯jie❄lwj쎯	-9.90652
deng❃tffu쎯de❅f쎯	-9.90678
hui❄xwf쎯hua❄gl쎯	-9.90678
zi❄thd쎯wo❃q쎯	-9.90714
beng❄diu쎯	-9.90722
jia❁pe쎯peng❂yfd쎯	-9.90753
쎂쎀쎁쎃nian❂rh쎯	-9.90833
.쎄	-9.90844
chu❄th쎯yu❂gf쎯	-9.90914
ci❂uqwn쎯	-9.90914
zi❃bb쎯,	-9.90948
piao❁isf쎯	-9.91124
cheng❂dn쎯jiu❄yi쎯	-9.91149
zzbd쎯gao❁ym쎯	-9.91251
ke❁tu쎯zzbd쎯	-9.91287
chong❂tkh쎯zi❃bb쎯	-9.91323
ling❄kl쎯yi❁g쎯	-9.9137
ye❁bbh쎯	-9.91371
.zhe❄p쎯	-9.91481
wu❄ykg쎯	-9.91488
(xue❂ip쎯ming❂qk쎯	-9.91492
xue❂pwu쎯	-9.91499
sheng❃ith쎯z	-9.91539
hu	-9.91539
xing❄ntg쎯han❄t쎯	-9.91553
xie❂fl쎯yi❄yyq쎯	-9.91581
gang❁mqi쎯	-9.91584
jin❄fj쎯xiu❁wht쎯	-9.91625
ji❁sm쎯zzbd쎯	-9.91692
fa❃if쎯yuan❄bpf쎯	-9.91704
hai❃itx쎯jun❁pl쎯	-9.91727
dang❄ain쎯	-9.91945
zi❄thd쎯zhu❃y쎯	-9.92078
fei❁nui쎯hang❂tf쎯	-9.92169
쎀쎀	-9.92184
ren❂w쎯shi❄gk쎯	-9.92196
ling❂ufw쎯	-9.92352
ji❄pds쎯	-9.92408
jia❁pe쎯ji❂wys쎯	-9.92416
shi❄j쎯fou❃gik쎯	-9.92427
pian❁thg쎯,	-9.92436
dian❄ql쎯	-9.92516
zhe	-9.92567
you❁whtn쎯jiu❃qy쎯	-9.92568
xiao❃ih쎯zu❃xeg쎯,	-9.92643
xiang❄awn쎯	-9.92647
쎂쎀쎀쎈	-9.92682
fu❄stt쎯	-9.92695
duo❂df쎯	-9.928
pan❁itol쎯	-9.9284
shu❄gki쎯	-9.9285
yao❁rytp쎯	-9.92853
hua❄gl쎯mian❄dm쎯	-9.92863
zui❄jb쎯ju❄hw쎯	-9.92873
쎅gan❄wh쎯	-9.92874
chu❁puv쎯zhong❁k쎯	-9.92926
쎁쎉쎅쎈nian❂rh쎯	-9.93003
jie❁bwj쎯	-9.93043
”wei❄o쎯	-9.93085
li❃gj쎯jie❃qev쎯	-9.93086
yi❁g쎯jia❁pe쎯z	-9.9317
you❄tom쎯	-9.93175
쎀쎃	-9.93242
cui❄eqd쎯	-9.93272
fu❄gkl쎯yuan❄bpf쎯	-9.93276
xian❂usi쎯	-9.93284
chu❄th쎯zhang❃ta쎯	-9.93287
diao❄rhj쎯	-9.93311
ning❂uxt쎯	-9.93359
lei❄od쎯si❄wny쎯	-9.93379
hu❁tuh쎯	-9.93423
qg	-9.93476
xiao❄uqt쎯yi❄uwl쎯	-9.93495
ceng❂ul쎯jing❁x쎯	-9.93507
sheng❁tg쎯su❄gxi쎯	-9.93581
shi❁jgm쎯zzbd쎯	-9.93622
ren❃vynu쎯	-9.93672
hun❁vq쎯	-9.93768
xie❂kf쎯pian❁thg쎯	-9.93774
suan❄afi쎯	-9.93777
ge❃wgk쎯fei❂ec쎯	-9.93789
gui❁dff쎯	-9.93805
tong❂smgk쎯	-9.93862
luo❁lq쎯ma❃cn쎯	-9.93945
zhi❂fh쎯shu❃ntk쎯	-9.94094
,hao❂kgn쎯	-9.94115
po❄shy쎯	-9.94138
.cong❂ww쎯	-9.94316
yu❄fakg쎯de❅r쎯	-9.94322
ji❁ad쎯yin❁ld쎯	-9.94337
mu❃ylf쎯	-9.94348
le❄qi쎯dui❄bw쎯	-9.94359
chong❂tkh쎯.	-9.94385
niao❄nii쎯	-9.94461
lv❄tvfh쎯shi❁jgm쎯	-9.94497
fu❂xjk쎯	-9.94521
da❄dd쎯dui❄bw쎯	-9.94525
gu❃me쎯gan❁fggh쎯	-9.94529
yi❃c쎯hou❄rg쎯	-9.94575
jiao❁uqb쎯	-9.94642
yi❄ujn쎯si❁ln쎯	-9.94656
zui❄jb쎯hao❃vb쎯	-9.94658
tuo❃sbd쎯yuan❂	-9.94686
jian❄mqb쎯de❅r쎯	-9.94692
kuai❄nnw쎯le❄qi쎯	-9.94694
쎆쎉	-9.94708
jiang❁ia쎯nan❂fm쎯	-9.94718
쎂쎀쎀쎇	-9.94727
xie❂ahtb쎯	-9.94762
”deng❃tffu쎯	-9.94768
ji❄wfi쎯	-9.94792
쎉쎇	-9.94811
xia❄gh쎯xia❂lpdk쎯	-9.94827
jia❁pe쎯ju❄hw쎯	-9.94833
you❂dnv쎯	-9.9484
fa❁v쎯dian❄jn쎯	-9.94903
cai❂ft쎯neng❂ce쎯	-9.94933
tu❃kfg쎯	-9.94961
zzpj쎯	-9.94972
mu❄tri쎯	-9.95018
xia❂qtgw쎯	-9.95059
an❄hka쎯zheng❁qv쎯	-9.95077
dan❄ythp쎯	-9.95106
zai❄d쎯xian❄xg쎯	-9.95157
쎉쎄	-9.95208
he❂awsk쎯	-9.95308
biao❃ge쎯da❂dp쎯	-9.95324
an❃udg쎯shao❃it쎯	-9.95334
liu❂iyjh쎯	-9.95444
mei❃ugdu쎯de❅r쎯	-9.95454
ya❂mdff쎯	-9.95474
cuo❄raj쎯shi❁ytb쎯	-9.95543
.xian❄gm쎯wei❄o쎯	-9.95545
zang❄agq쎯	-9.95547
niang❂vyv쎯	-9.95553
xiao❄ie쎯	-9.95576
rong❂opw쎯	-9.95583
de❅f쎯qu❁aq쎯de❅r쎯	-9.95589
zuo❄wdt쎯chu❁bm쎯	-9.95638
jian❃uejv쎯	-9.95673
xing❄skf쎯	-9.95725
lv❃ytey쎯hang❂tf쎯	-9.95734
dian❄jn쎯ya❁dfy쎯	-9.95751
(쎁쎈	-9.95791
,“	-9.95835
shou❄rep쎯.	-9.95856
chun❁dw쎯qiu❁to쎯	-9.95878
nian❂rh쎯lai❂go쎯,	-9.9588
mian❄dm쎯ji❁tkw쎯쎄	-9.95881
wu❂gkf쎯	-9.95921
wan❂vyi쎯	-9.95939
e❂wtr쎯	-9.95995
jie❂ab쎯neng❂ce쎯	-9.96133
fu❂twf쎯ge❃wgk쎯	-9.96144
huo❃ooo쎯che❁lg쎯	-9.96153
she❂wfh쎯	-9.96185
xing❄fuf쎯fu❂pyg쎯	-9.96192
feng❄xtdp쎯	-9.9625
dian❄jn쎯lu❄kht쎯	-9.96272
n❁qqqq쎯shu❃ntk쎯	-9.9629
da❁tw쎯	-9.96305
zhao❄iqv쎯	-9.96372
keng❁fym쎯	-9.96388
la❄ugk쎯	-9.96388
yan❄dhq쎯	-9.96435
zzbd쎯xin❁usr쎯	-9.96509
,geng❁gjq쎯	-9.9652
ke❁tu쎯zhang❃ta쎯	-9.9654
xia❄gh쎯de❅r쎯	-9.96564
wu❄tl쎯yuan❄bpf쎯	-9.96673
me	-9.96677
fan❄qtb쎯	-9.96678
guo❂l쎯you❃e쎯	-9.96731
chan❃uuj쎯	-9.9674
mian❂xr쎯	-9.96785
,fu❂gip쎯	-9.97003
zhen❄qfhw쎯z	-9.97018
deng❁wgku쎯ji❄yn쎯	-9.97062
ceng❂nfc쎯ci❄uqw쎯	-9.97066
jin❄cal쎯	-9.97066
jia❁pe쎯.	-9.97092
bu❄uk쎯fu❄gkl쎯	-9.97109
fu❄wqu쎯mu❃xgu쎯	-9.9711
jiu❄yi쎯qiu❁og쎯	-9.97161
hi❄tdkj쎯hui❄dhd쎯	-9.97162
ao❄itm쎯da❄dd쎯	-9.97176
zai❄d쎯zhi❂bk쎯	-9.97204
,yi❁g쎯ban❁tem쎯	-9.97217
eg쎯	-9.97283
ping❂gu쎯mian❄dm쎯	-9.97298
na❄mw쎯ke❁tu쎯	-9.97304
.쎂zzbd쎯	-9.97318
jian❄tue쎯	-9.97333
쎇쎉	-9.97394
si❃gqx쎯wang❂ynv쎯	-9.97417
쎆쎁	-9.97437
ji❃nng쎯	-9.97454
de❅f쎯wei❄wug쎯	-9.97491
gan❄ujt쎯	-9.97503
shi❂wyv쎯wu❄tr쎯	-9.97557
kuang❁sagg쎯	-9.97588
dao❃nf쎯shi❁jgm쎯.	-9.97603
kh	-9.97654
da❄dd쎯sha❄ddh쎯	-9.9774
bi❄tmh쎯	-9.97803
,zi❄pb쎯	-9.97857
gong❁wc쎯si❁ngk쎯.	-9.97872
xi❃fku쎯ai❄ep쎯	-9.97924
.tang❂yvh쎯	-9.97959
quan❂sc쎯wei❁dgv쎯	-9.9796
zai❄d쎯ci❃hx쎯	-9.98007
qiu❂gfi쎯dui❄bw쎯	-9.98061
fu❃lgey쎯	-9.98079
쎀쎂	-9.9809
ying❂ynky쎯de❂tj쎯	-9.98135
huai❂iwy쎯	-9.98139
wo❄itdy쎯	-9.98217
chu❁puv쎯ji❂xe쎯	-9.98301
hui❄dhd쎯	-9.98345
fu❂lgk쎯she❄tmdf쎯	-9.98355
(쎁)	-9.98375
bei❁djdn쎯	-9.98387
ya❂aah쎯	-9.98399
chang❃fnrt쎯,	-9.9841
쎂쎀쎀쎉	-9.98438
wei❁tv쎯yuan❂km쎯,	-9.98444
gao❁ypk쎯	-9.98479
dg쎯	-9.985
li❄uu쎯yu❂gf쎯	-9.98531
guo❂l쎯tu❃ffff쎯	-9.98552
hu❁kt쎯xi❁ke쎯	-9.98612
jiu❄yi쎯du❂yfn쎯	-9.98667
hui❂lkd쎯:“	-9.98765
chai❂hxs쎯	-9.98777
yan❄cwg쎯	-9.98788
ong❁kqb쎯di❄uxh쎯	-9.98806
쎈쎇	-9.98816
ji❂utd쎯	-9.98826
.쎃	-9.98908
shi❂pu쎯hang❂tf쎯	-9.98928
zhi❃rxj쎯ding❄pg쎯	-9.98936
ao❄tmo쎯yun❃fcp쎯	-9.98976
(쎂)	-9.98984
chang❄wjjg쎯	-9.99002
cai❂mf쎯jing❁x쎯	-9.99027
wu❄ngkg쎯	-9.99066
fen❁wv쎯chi❁yb쎯	-9.99172
shi❄pgc쎯fu❄gkl쎯	-9.99189
xia❄gh쎯zai❄fa쎯	-9.9919
hao❄itfk쎯	-9.99192
쎇쎄	-9.99252
si❁ngk쎯fa❃if쎯	-9.99334
dong❄fcl쎯,	-9.99367
guan❁ud쎯jie❂ab쎯	-9.99403
shu❁nnh쎯zhong❁k쎯	-9.99406
yue❄nuk쎯	-9.99416
hu❂de쎯jiao❁shi쎯	-9.99438
tou❄tep쎯ming❂je쎯	-9.99461
,xing❂gae쎯	-9.99485
,ba❃rcn쎯	-9.99488
qiao❁iwyf쎯	-9.99505
chu❁bm쎯le❅b쎯	-9.99533
qu❁aq쎯,	-9.99534
ke❃sk쎯kao❄tfkd쎯	-9.99537
ban❄lw쎯li❃gj쎯	-9.99547
q쎯	-9.99558
.song❄psu쎯	-9.99603
shui❂ywyg쎯	-9.99623
di❂mb쎯zheng❄ght쎯	-9.99642
shou❄uvh쎯	-9.99702
gui❁qjn쎯	-9.99707
yu❄iwyf쎯	-9.99712
,qie❃eg쎯	-9.99741
huai❄fgi쎯	-9.99776
ren❂w쎯li❄lt쎯z	-9.99791
ju❃san쎯	-9.99856
shu❁nnh쎯ji❄yn쎯.	-9.99867
shang❃h쎯you❃e쎯	-9.99937
xian❄gm쎯wei❄o쎯	-9.99942
,liang❃gmww쎯	-9.99992
wei❃wyl쎯	-10.0012
w쎯	-10.0016
dao❃wgc쎯ru❄ty쎯	-10.0017
ban❄lw쎯shi❄gk쎯	-10.0018
hu❄gx쎯	-10.0018
jin❄ivp쎯	-10.0027
hou❄djb쎯de❅r쎯	-10.0031
jie❄aak쎯	-10.0031
jin❄fj쎯kou❃kkkk쎯	-10.0034
man❄nj쎯xing❄ntg쎯	-10.0035
chun❂dfek쎯	-10.0038
쎈쎄	-10.0038
fa❃if쎯xue❂ip쎯	-10.0038
ju❄hw쎯bei❄tlf쎯	-10.0041
,huo❄aqt쎯	-10.0047
suo❃rn쎯wei❄yle쎯	-10.0056
-쎀쎁	-10.0061
쎁-	-10.0062
guan❄rmay쎯	-10.0068
,de❅f쎯chu❄th쎯	-10.0072
shu❁hic쎯	-10.0073
hui❃va쎯	-10.0076
deng❄cb쎯	-10.0082
gong❁wc쎯yu❄pjm쎯	-10.0085
chui❁kqw쎯	-10.0088
jiang❃uqd쎯,	-10.0088
yao❄iqny쎯	-10.009
yi❄ujn쎯shi❂ykw쎯	-10.0093
❁trs쎯sheng❁trtg쎯	-10.0095
ban❄wuf쎯	-10.01
rong❂gkm쎯ge❃wgk쎯	-10.0106
gui❁fwm쎯lv❄tvfh쎯	-10.0107
gan❁fjt쎯	-10.0111
ben❃asg쎯	-10.0114
wu❃rlg쎯si❄ck쎯	-10.0123
zao❁gmap쎯	-10.0126
쎉쎂	-10.0131
쎂쎀쎁쎁	-10.0132
wen❃tqv쎯	-10.0133
ta❁vbn쎯de❅r쎯	-10.0137
dian❄ipgh쎯	-10.0143
li❄atj쎯	-10.0147
fu❂twf쎯	-10.0148
hen❃tve쎯da❄dd쎯	-10.015
liu❂dyc쎯	-10.0153
.쎂.	-10.0154
):	-10.0159
쎁쎉쎈쎀nian❂rh쎯	-10.0164
huo❄wxm쎯wu❄tr쎯	-10.0166
%.	-10.0167
bei❃ux쎯fang❁yy쎯	-10.0167
yang❃wqbh쎯	-10.0186
qiang❃rwb쎯	-10.0194
쎇쎀쎀	-10.0195
jia❁pe쎯zzbd쎯	-10.0196
jue❂elv쎯	-10.0198
gao❁ym쎯ceng❂nfc쎯	-10.02
zhu❂epi쎯	-10.0202
xiang❁ykk쎯	-10.0203
쎈쎃	-10.0206
cang❁iwb쎯	-10.0211
qi❃whf쎯qiu❁og쎯,	-10.0214
qu❁fhqv쎯	-10.0215
,yin❁ld쎯wei❄o쎯	-10.0216
xian❄xg쎯lu❄kht쎯	-10.0226
gou❃sq쎯zao❄tfkp쎯	-10.0232
chen❂dfe쎯	-10.0234
nian❂rh쎯de❅r쎯	-10.0241
bu❂i쎯hui❄wf쎯	-10.0242
shou❃uth쎯jie❄nm쎯	-10.0243
hong❂ja쎯	-10.0244
peng❁ybo쎯	-10.0244
nan❂fm쎯chao❂fje쎯	-10.0244
de❅f쎯tie❃qr쎯	-10.0254
long❄gaj쎯	-10.0257
쎁쎉쎆쎃nian❂rh쎯	-10.0257
an❃sw쎯cha❂pwfi쎯	-10.0261
shao❃it쎯nv❃vvv쎯	-10.027
jin❄fj쎯shi❄fghg쎯	-10.027
can❁hq쎯ting❁ds쎯	-10.0273
fu❄wfy쎯	-10.0274
you❁ndn쎯	-10.0277
mao❂acbt쎯	-10.0277
》de❅r쎯	-10.0279
an❄jtyq쎯ding❄pg쎯	-10.0282
feng❂uc쎯	-10.0285
xian❄egc쎯z	-10.0287
lei❃lx쎯	-10.0289
de❅f쎯zhi❃fhg쎯	-10.0289
bi❃tt쎯ji❄yn쎯	-10.0292
fu❄vv쎯	-10.0292
쎈쎉	-10.0293
meng❃qtbl쎯	-10.0294
yi❁g쎯zhi❄gcft쎯	-10.0297
zzbd쎯xi	-10.0298
jing❄uge쎯	-10.0305
ji❁sm쎯zhi❄rmhj쎯	-10.0306
de❅f쎯mian❄dm쎯	-10.0307
zhi❁kw쎯shi❄j쎯	-10.0308
mu❃xgu쎯qin❁us쎯	-10.0311
chu❁bm쎯tu❃ffff쎯	-10.0321
-쎀	-10.0323
zzbd쎯bai❂rrr쎯	-10.0327
qi❂cds쎯	-10.0332
mo❄lfod쎯	-10.0334
li❄uu쎯ben❄wsg쎯	-10.0334
yi❁wye쎯ju❁rnd쎯	-10.0335
shen❂pyj쎯bi❄tn쎯	-10.0344
quan❃dgty쎯	-10.035
pin❄bmg쎯	-10.0353
li❃gj쎯xue❂ip쎯	-10.0355
ci❄mjq쎯	-10.0357
xi❂dxy쎯	-10.0358
,fang❄yt쎯ru❄ty쎯	-10.0359
qiong❂gyiy쎯	-10.0368
bu❂i쎯xiu❄qten쎯	-10.0372
wang❄ynnu쎯	-10.0374
ke❁ssk쎯	-10.0377
쎇.	-10.038
yu❄cbq쎯	-10.038
yan❂god쎯ge❂st쎯	-10.0383
kong❃amyn쎯	-10.0388
bing❃gmw쎯	-10.0388
hun❂fcr쎯	-10.0388
de❅r쎯《	-10.0388
bao❄rb쎯dao❄uthp쎯	-10.0396
쎁쎉쎇쎈nian❂rh쎯	-10.0407
guo❄fp쎯qu❄fcu쎯	-10.041
xuan❁lf쎯	-10.0413
qian❂ue쎯hou❄rg쎯	-10.0414
de❅r쎯da❄dd쎯	-10.0417
di❄uxh쎯	-10.0419
ci❂pynk쎯	-10.0421
xing❄fuf쎯	-10.0432
chen❂jd쎯	-10.0437
wu❃gg쎯nian❂rh쎯	-10.0442
fa❁v쎯she❄tmdf쎯	-10.0451
ben❃dlf쎯	-10.0452
shi❁yff쎯ge❁sksw쎯	-10.0453
cheng❁tq쎯.	-10.0457
duo❁qq쎯jia❁pe쎯	-10.046
ying❃xtd쎯	-10.0461
yong❃iyni쎯	-10.0462
쎀쎄	-10.0476
shui❃ii쎯ni❂inx쎯	-10.0478
nan❂fm쎯fang❁yy쎯	-10.0481
ji❄yn쎯zhe❃ftj쎯	-10.0499
gong❁a쎯nong❂pei쎯	-10.0499
wai❄qh쎯guo❂l쎯	-10.0505
fu❄gkl쎯zong❃ukn쎯	-10.0506
pei❄sgn쎯ge❃wgk쎯	-10.0506
dui❁fwy쎯	-10.0509
zhen❁hm쎯	-10.0522
쎀쎈	-10.0523
jiao❁uq쎯huan❄rq쎯	-10.0525
,kuo❄tdp쎯yi❂peg쎯	-10.0525
쎆.	-10.0526
mian❃qkq쎯yi❄umc쎯	-10.0526
쎂쎂쎀	-10.0527
yan❂dga쎯shi❄pgc쎯	-10.0527
jia❁lk쎯po❁fhc쎯	-10.0528
bai❃rlf쎯	-10.0533
zheng❄ght쎯fa❃if쎯	-10.0535
dang❄si쎯	-10.054
yi❁g쎯duan❄wdm쎯	-10.055
ping❂gu쎯yuan❂dr쎯	-10.0555
kun❁jx쎯ming❂je쎯	-10.0559
shen❁tmd쎯wei❄o쎯	-10.0568
ren❂w쎯gong❁a쎯	-10.0568
쎀쎉	-10.0571
쎀%	-10.0574
shu❃lqj쎯	-10.0577
쎁쎉쎈쎁nian❂rh쎯	-10.0579
gai❃nty쎯wei❄o쎯	-10.0579
lian❃ew쎯	-10.058
fu❃lgey쎯zhu❄egl쎯	-10.0584
.qing❁ige쎯	-10.0584
you❁wdn쎯hua❁wx쎯	-10.0588
er❃bgh쎯ji❁sm쎯	-10.0589
shuai❄jmh쎯	-10.0596
fu❃rfq쎯	-10.06
xian❄egc쎯ren❂w쎯	-10.0605
ge❃wgk쎯jin❁qqqq쎯	-10.0614
han❂bib쎯shu❄ovt쎯	-10.0615
jun❁pl쎯dui❄bw쎯	-10.0617
a❁bs쎯er❃qiu쎯	-10.063
tang❂yvh쎯dai❄wa쎯	-10.0634
mai❄dnp쎯	-10.0636
.dan❄wjg쎯	-10.0637
shi❂fgh쎯yu❂wtu쎯	-10.0641
yue❁xq쎯쎁	-10.0645
zhu❃y쎯ren❂w쎯	-10.0647
gu❃dgh쎯dian❃maw쎯	-10.0651
xiao❁iie쎯hua❁wx쎯	-10.0654
qi❂yjj쎯quan❂wg쎯	-10.0659
qiu❁og쎯de❅r쎯	-10.0664
mou❃afs쎯xie❁hxf쎯	-10.0665
쎀쎆	-10.0665
zi❁uqwm쎯xun❄ynf쎯	-10.0671
쎁쎂쎈	-10.0675
ji❂vcb쎯ke❃sk쎯.	-10.068
ji❁mt쎯gan❄wh쎯	-10.0683
ji❂qta쎯	-10.0683
bu❄uk쎯,	-10.0684
xing❄ntg쎯ge❂st쎯	-10.0688
jiang❄xk쎯de❅r쎯	-10.0692
shi❄j쎯“	-10.0694
yi❄ujn쎯jian❄mqb쎯	-10.0697
fa❁v쎯ming❂je쎯	-10.0698
dong❄fcl쎯.	-10.07
mo❂saj쎯fan❄aib쎯	-10.0709
qu❁nbm쎯	-10.0709
tian❁igd쎯jia❁lk쎯	-10.071
jie❄wj쎯	-10.0713
ju❄ndj쎯《	-10.072
hua❂wxf쎯dong❁ai쎯	-10.0723
zzbd쎯xiang❁tjf쎯	-10.0723
쎃.쎅	-10.0728
lin❂doq쎯	-10.073
xing❃sgj쎯	-10.073
qing❁ige쎯xi❁jsr쎯	-10.0732
쎁쎉쎅쎆nian❂rh쎯	-10.0736
wan❁yox쎯	-10.0738
pian❁tyna쎯,	-10.0739
ping❂ygu쎯gu❁wd쎯	-10.0741
sa❁rae쎯	-10.0749
ce❄aps쎯yu❄iwyf쎯	-10.0754
fang❁yy쎯wei❄wug쎯	-10.0756
jie❂xf쎯shu❄gki쎯	-10.0757
쎁쎉쎆쎄nian❂rh쎯	-10.0757
,wo❃q쎯wu쎯	-10.0759
fu❃lgey쎯dao❃nf쎯	-10.0762
gong❁a쎯ren❂w쎯	-10.0764
bu❄dmh쎯ju❂nnk쎯	-10.0766
xun❂vp쎯	-10.0766
chai❁rry쎯	-10.0766
di❄tx쎯qi❁ag쎯	-10.0785
zu❁teg쎯	-10.0789
weng❁wcn쎯	-10.0789
wu❄ftl쎯	-10.0791
shang❃h쎯xia❄gh쎯	-10.0794
ha	-10.0796
guang❁iq쎯xu❄xft쎯	-10.0801
fang❄yt쎯zai❄d쎯	-10.0802
nv❃vvv쎯ren❂w쎯	-10.0803
ken❃he쎯	-10.0804
li❃jfd쎯,	-10.0808
nai❄dfi쎯	-10.0809
cheng❂tkgg쎯.	-10.081
yuan❂dr쎯shi❃vck쎯	-10.0811
xia❂wgu쎯	-10.0813
zzzy쎯zzzy쎯zzzy쎯	-10.0813
ji❃iwe쎯	-10.0814
ling❄kl쎯	-10.0817
an❄pvs쎯li❄wgq쎯	-10.0819
ji❄yn쎯yi❄nn쎯	-10.082
fa❁v쎯yu❄yce쎯	-10.082
han❄ic쎯yu❃ygk쎯	-10.0823
li❄lt쎯xue❂ip쎯	-10.0828
.쎁쎂	-10.0828
hua❁awx쎯xu❄ycb쎯	-10.083
chuan❂wfny쎯》	-10.0832
cu❄sga쎯	-10.0836
luo❄itk쎯yang❂bj쎯	-10.0837
e❄kkfb쎯	-10.0838
.qi❂adw쎯zhong❁k쎯	-10.0847
쎁쎉쎇쎉nian❂rh쎯	-10.0848
xin❄wy쎯yong❄et쎯	-10.0851
guan❁cm쎯yin❂www쎯	-10.0853
shi❄ymhj쎯ji	-10.0855
zhuo❁hjs쎯	-10.0857
❄rfc쎯qiao❃agnn쎯	-10.086
wu❂fq쎯xi❁qjq쎯	-10.0861
ji❄yop쎯	-10.0865
kou❄rk쎯	-10.0869
su❁alw쎯lian❂bu쎯	-10.0871
ta❁px쎯wu쎯	-10.0887
,gong❄aw쎯	-10.0888
duo❃ms쎯	-10.0889
na❃vfb쎯xie❁hxf쎯	-10.089
ren❂w쎯kou❃kkkk쎯쎂	-10.0891
jiao❄lu쎯wei❄o쎯	-10.0892
pin❂wvm쎯	-10.0893
ni❃rny쎯	-10.0904
zhu❃y쎯yan❃ipg쎯	-10.0905
dian❄jn쎯liu❂iyc쎯	-10.0906
yao❂viq쎯	-10.0907
,shu❃ntk쎯	-10.0916
sk쎯	-10.0918
ying❁ywwg쎯	-10.0924
yuan❂ref쎯	-10.0925
yao❂rer쎯	-10.0925
po❄rpd쎯	-10.0935
e❁ruv쎯kou❃kkkk쎯	-10.0936
qiu❂lft쎯jie❂xf쎯	-10.0937
tong❃xyc쎯de❅r쎯	-10.0939
jian❁ga쎯she❄ymc쎯	-10.0942
shou❄rep쎯zzbd쎯	-10.0945
shou❃uth쎯pi❁rx쎯	-10.0954
shu❃alfj쎯	-10.0955
sheng❁tg쎯yu❄yce쎯	-10.0961
쎈쎁	-10.0961
min❂n쎯zheng❄ght쎯	-10.0967
mi❂xqi쎯	-10.0979
gong❁wc쎯si❁ngk쎯,	-10.0981
jia❁lk쎯re❄rvyo쎯	-10.0986
:《	-10.0988
,nong❂pei쎯min❂n쎯	-10.0989
h쎯	-10.099
er❄fg쎯nian❂rh쎯	-10.0996
mg쎯	-10.1004
de❅r쎯wang❃mqq쎯	-10.1017
xin❁usr쎯qu❁aq쎯	-10.1017
yi❄kcb쎯	-10.1035
chan❃u쎯quan❂sc쎯	-10.1037
juan❁rke쎯	-10.1045
de❅r쎯jing❁oge쎯	-10.1049
shan❁mmm쎯xi	-10.1049
lin❂ss쎯de❅f쎯	-10.1053
min❃uji쎯	-10.1058
shi❄gk쎯chu❄th쎯	-10.1063
xie❃pgn쎯de❅r쎯	-10.1068
bo❂	-10.1069
de❅r쎯yi❁g쎯bu❄uk쎯	-10.1074
ban❄lw쎯yu❂gf쎯	-10.1077
qing❁rnc쎯	-10.108
zhi❁pp쎯hou❄rg쎯,	-10.1082
lang❂qty쎯	-10.1083
zhang❄eta쎯	-10.1091
bu❂i쎯shao❃it쎯	-10.1093
ji❁sm쎯dian❄jn쎯	-10.1096
mo❂yssc쎯fa❃if쎯	-10.1096
zzbd쎯huang❂amw쎯	-10.1106
jian❄wrh쎯,	-10.1108
yu❄wgen쎯	-10.1112
ang❂jqb쎯	-10.1115
gong❁wc쎯yi❄uwl쎯	-10.1118
gong❁wc쎯she❄py쎯	-10.1119
zhen❁whm쎯	-10.1123
shu❁nnh쎯ji❄yn쎯,	-10.113
di❄tx쎯쎂	-10.1131
쎂쎀쎀쎆	-10.1132
xian❄eri쎯	-10.1134
bi❃xx쎯li❄wgq쎯	-10.1138
bai❃dj쎯xing❄vtg쎯	-10.1138
qu❁caq쎯dong❄fcl쎯	-10.1138
pian❁tyna쎯.	-10.1142
ling❂wyc쎯ren❂w쎯	-10.1142
yi❁atd쎯sheng❁tg쎯	-10.1144
jian❁uj쎯,	-10.1147
heng❂bd쎯dan❁rjg쎯	-10.1147
qi❃ynk쎯dong❄fcl쎯	-10.1155
na❄vvf쎯	-10.1157
zhu❄iy쎯:“	-10.1158
gao❁ym쎯duan❁umd쎯	-10.116
zun❁usgp쎯	-10.1163
che❄ryc쎯	-10.1169
yao❄ax쎯pin❃kkk쎯	-10.1169
xi❂nu쎯guan❄nxf쎯	-10.1194
cai❂sft쎯zhi❄rfm쎯	-10.1195
jian❄wrh쎯de❅r쎯	-10.1198
zhu❃y쎯ben❄wsg쎯	-10.1202
hua❁wx쎯zzbd쎯	-10.1203
fen❁wv쎯guan❃tp쎯	-10.1206
sui❁kj쎯ran❂qd쎯	-10.1211
dui❄bw쎯wu❃wgg쎯	-10.1216
di❄up쎯guo❂l쎯	-10.1225
쎈gan❄wh쎯	-10.1226
쎂쎀쎀쎅	-10.1227
shi❂pu쎯qiu❁og쎯	-10.1228
die❂jan쎯	-10.123
,you❂mh쎯yu❂gf쎯	-10.1231
.li❄dl쎯ren❂wtf쎯	-10.1237
bi❄xxf쎯	-10.124
wu❃gg쎯shi❂fgh쎯	-10.1241
ji❄xo쎯cheng❂bd쎯	-10.1243
ban❄lw쎯fa❃if쎯	-10.1244
chu❂dgkf쎯	-10.1244
zhao❃ra쎯	-10.1248
():	-10.1249
le❅b쎯yi❁g쎯	-10.125
nan❂ll쎯zi❃bb쎯	-10.1252
can❁cd쎯mou❂yaf쎯	-10.1253
wo❁pwkw쎯	-10.1254
,que❄fcb쎯	-10.1254
쎇쎁	-10.1255
teng❂utu쎯	-10.1257
wei❄bg쎯xing❁jtg쎯	-10.1261
hu❄gx쎯dong❄fcl쎯	-10.1262
zhu❄cy쎯de❅f쎯	-10.1263
du❂yfn쎯shu❁nnh쎯	-10.1264
쎁쎀-	-10.1268
,xi❁sghg쎯	-10.1269
si❁adwr쎯tan❃fjg쎯	-10.1273
su❁alw쎯qu❁aq쎯	-10.1278
,xian❄gm쎯zai❄d쎯	-10.1279
bian❄uyt쎯	-10.1281
쎈.	-10.1282
shi❂fgh쎯si❄lh쎯	-10.1284
geng❁dif쎯	-10.1285
ye❄iyw쎯ben❄wsg쎯	-10.1289
shu❄jfcf쎯	-10.1292
lan❄oufg쎯	-10.13
zhao❃ra쎯dao❄gc쎯	-10.1303
you❂img쎯zzbd쎯	-10.1313
ji❁sm쎯gou❃sq쎯.	-10.1315
zhu❃y쎯ban❄lw쎯	-10.1315
쎉.	-10.1319
쎀쎁	-10.1321
zuo❄wt쎯qu❁ma쎯	-10.1321
gao❁ym쎯ji❂xe쎯go	-10.1322
man❄nj쎯	-10.1326
jue❂un쎯ce❄tgm쎯	-10.1326
niu❃xnf쎯yue❁xq쎯	-10.1335
xing❄ntg쎯zzbd쎯	-10.1336
she❄ihi쎯	-10.1339
fen❁awv쎯	-10.1345
ke❁jsd쎯li❄oug쎯	-10.1347
zhang❁uje쎯	-10.1347
hu❄ryn쎯li❃gj쎯	-10.1347
gan❄wh쎯hang❂tf쎯z	-10.1349
zai❄d쎯jiao❄suq쎯	-10.135
xi❁ke쎯yin❃xh쎯	-10.1355
chan❃u쎯liang❂jg쎯	-10.1358
chang❃fnrt쎯zzbd쎯	-10.1362
shao❄vkb쎯	-10.1366
쎅zzbd쎯	-10.1372
fang❂yny쎯wu❁ngc쎯	-10.1374
gong❁wc쎯bu❄dmh쎯	-10.1377
bu❃rge쎯	-10.1378
lu❄bfm쎯jun❁pl쎯	-10.1379
xue❂ip쎯z	-10.1382
shu❄ovt쎯shi❂fgh쎯	-10.1382
li❃jfd쎯de❅r쎯	-10.1384
ji❁ad쎯bu❄uk쎯	-10.1389
ao❃wk쎯zhang❄buj쎯	-10.1391
》zhong❁k쎯de❅r쎯	-10.1392
qi❃rnb쎯ben❄wsg쎯	-10.1403
sou❁rvh쎯suo❃fpx쎯	-10.1404
,jia❁lk쎯ru❄ty쎯	-10.1404
쎀.쎀	-10.1406
,dang❁iv쎯	-10.1411
,li❄dl쎯ren❂wtf쎯	-10.1412
bi❄xxf쎯qiu❁og쎯,	-10.1412
yi❃c쎯chong❂tkh쎯	-10.1421
han❄t쎯ping❂gu쎯	-10.1427
zao❃aik쎯	-10.143
wang❁ig쎯	-10.1431
diao❄kmh쎯	-10.1431
zhang❃ta쎯du❄ya쎯	-10.1432
shao❂qyi쎯	-10.1432
dian❃hko쎯,	-10.1434
yin❃qnq쎯shi❂wyv쎯	-10.1438
yan❃tif쎯	-10.144
fan❃rcp쎯	-10.1443
쎂쎄쎀	-10.1445
zei❂madt쎯	-10.1448
hou❄rg쎯lai❂go쎯	-10.1451
ji❄yn쎯zai❄fa쎯	-10.1452
xiu❁wht쎯gai❃nty쎯	-10.1454
mei❂nhd쎯	-10.1457
gao❁ym쎯dang❄si쎯	-10.146
bing❁ua쎯qie❃eg쎯	-10.1461
jian❁ga쎯ta❄rd쎯	-10.1467
xian❂xyx쎯	-10.1467
shu❁nnh쎯ji❂tdij쎯	-10.1469
dao❄uthp쎯de❂tfl쎯	-10.1469
zhai❄wgmy쎯	-10.1473
zui❄jb쎯wei❄o쎯	-10.1476
zhong❁k쎯you❃e쎯	-10.1476
쎃zzbd쎯	-10.1481
zhong❁k쎯yao❄ax쎯	-10.1486
”shi❄j쎯	-10.1492
tu❄qkqy쎯	-10.1493
wy쎯	-10.1495
kuo❄ry쎯da❄dd쎯	-10.1496
-쎅	-10.1501
zhi❂bk쎯.	-10.1504
you❃e쎯:	-10.1504
xian❄egc쎯ren❂w쎯,	-10.1508
geng❁gjq쎯hao❃vb쎯	-10.1512
zhong❁k쎯xin❁ny쎯,	-10.1516
ting❃tet쎯	-10.1517
mu❄hhhh쎯lu❄vi쎯	-10.1518
di❂tdt쎯ren❂w쎯	-10.152
si❁ln쎯wei❂xwy쎯	-10.1522
zhong❁k쎯wai❄qh쎯	-10.1524
han❄jfj쎯	-10.1525
an❁pv쎯xian❄egc쎯	-10.1527
ju❄kha쎯xian❄egc쎯	-10.1528
ku❁sd쎯	-10.1529
shi❁yff쎯ci❂yngk쎯	-10.153
gui❃lv쎯	-10.1533
wei❄wug쎯.	-10.1533
xie❂fl쎯zhu❄egl쎯	-10.1542
rao❃rdn쎯	-10.1544
,yi❃nnnn쎯	-10.1545
gao❁ym쎯wen❁ijl쎯	-10.1551
xia❂lpdk쎯qu❁aq쎯	-10.1551
piao❁sfiq쎯	-10.1559
mian❄dm쎯fen❃ow쎯	-10.156
sun❃tvt쎯	-10.1564
zai❃wbg쎯	-10.1572
ge❂st쎯lan❂uff쎯	-10.1572
nian❂rh쎯du❄ya쎯	-10.1573
jia❄lkc쎯	-10.1579
.’	-10.1584
you❃e쎯“	-10.1588
e❁ruv쎯chu❄qejy쎯	-10.1589
,ta❁wb쎯wu쎯	-10.159
ce❄tgm쎯lve❄ltk쎯	-10.1591
chu❄yxl쎯mu❄trt쎯	-10.1592
ji❁iry쎯	-10.1599
ge❂ajq쎯	-10.1608
wei❄o쎯zhun❃uwy쎯.	-10.1609
qi❄yca쎯	-10.161
chu❄th쎯chu❄th쎯	-10.1611
nao❄uym쎯	-10.1612
쎀쎇	-10.1614
쎉쎃	-10.1615
yi❁g쎯dian❃hko쎯	-10.1617
chao❂vjs쎯	-10.162
jiang❃auq쎯	-10.162
hui❄	-10.1625
han❃pwf쎯	-10.1625
쎁쎉쎆쎂nian❂rh쎯	-10.1626
xie❁hxf쎯	-10.1628
yi❁g쎯dao❄uthp쎯	-10.1632
ceng❂ul쎯zai❄d쎯	-10.1633
da❄dd쎯yin❂www쎯	-10.1636
yi❁g쎯tao❄ddu쎯	-10.1641
hang❄buj쎯ai❄djg쎯	-10.1643
wen❂yygy쎯xi❄txi쎯	-10.1649
ao❁mmgd쎯	-10.165
qing❄etg쎯li❄tjh쎯	-10.1651
xiang❁sh쎯si❄wny쎯	-10.1651
xiao❃ih쎯mai❄gtu쎯	-10.1652
ci❂auqw쎯	-10.1658
an❁fjt쎯long❁btg쎯	-10.166
kao❃ftg쎯ru❄ty쎯	-10.166
ji❁iry쎯guang❁iq쎯	-10.1662
dao❃nf쎯shi❁jgm쎯,	-10.1664
ming❂je쎯dai❄wa쎯	-10.1672
han❂bib쎯	-10.1677
shi❄gk쎯gu❄dty쎯	-10.1681
zhi❁ex쎯fang❂eyn쎯	-10.1682
ci❂hxw쎯	-10.1685
er❂qt쎯zi❃bb쎯	-10.1687
su❁sgty쎯	-10.1699
bi❃xx쎯yu❄kwgj쎯	-10.1701
cu❄ywwf쎯	-10.1709
gao❁ym쎯ji❂xe쎯ji	-10.1717
yi❃c쎯wei❄o쎯	-10.1719
si❄lh쎯shi❂fgh쎯	-10.172
ye❃bn쎯ke❃sk쎯	-10.1722
ji❁mt쎯hu❁tuh쎯	-10.1724
쎁쎉쎆쎅nian❂rh쎯	-10.1726
shu❁nnh쎯.	-10.1727
si❄lh쎯da❄dd쎯	-10.1732
dai❄gkp쎯tou❂udi쎯	-10.174
li	-10.1741
jie❂so쎯chu❁bm쎯	-10.1746
shi❁nngt쎯	-10.1751
yi❁wye쎯tuo❁rta쎯	-10.1754
zhang❁xt쎯)	-10.1758
zhui❁qwy쎯	-10.1759
de❅r쎯di❄tx쎯yi❁g쎯	-10.1759
fei❄ixj쎯	-10.1765
hui❁tmgt쎯	-10.1768
zzzy쎯zzzy쎯ˋ	-10.1771
wo❃q쎯wu쎯de❅r쎯	-10.1771
xiang❂yud쎯	-10.1772
peng❂atdp쎯	-10.1774
(쎁쎉쎀	-10.178
qi❁gv쎯	-10.178
min❂n쎯ying❂apk쎯	-10.1784
ben❃sg쎯pin❃kkk쎯	-10.1785
te❄trf쎯ding❄pg쎯	-10.1795
bi❄tn쎯mi❄pnt쎯	-10.1803
ci❁gmi쎯ji❁iry쎯	-10.1803
:쎂	-10.1803
qu❄fhb쎯	-10.1805
liu❂qyvl쎯xue❂ip쎯	-10.1809
().	-10.1811
―	-10.1812
lang❂yyv쎯	-10.1813
shan❄imh쎯	-10.1815
xiong❁kqb쎯	-10.1817
wu❃tfj쎯	-10.1817
rong❂xad쎯	-10.1827
shou❁nh쎯ji❂wys쎯	-10.1827
xing❄iw쎯qu❄fhb쎯	-10.1832
zhu❃y쎯zhi❄ick쎯	-10.1838
de❅f쎯tu❂ltu쎯,z	-10.1838
guo❁qkm쎯zhong❁k쎯	-10.1841
.("/////	-10.1841
.",(){(	-10.1841
bo❂fpb쎯	-10.1843
qi❁ssg쎯	-10.1843
쎁쎀쎀쎀쎀쎈쎀쎁);});	-10.1846
er❂dmj쎯qie❃eg쎯	-10.1852
쎅fen❁wv쎯	-10.1852
guan❁apfq쎯	-10.1861
san❁dg쎯guo❂l쎯	-10.1863
jie❂xf쎯guo❃js쎯yi	-10.1865
❃c쎯bai❃dj쎯du❄ya쎯	-10.1866
she❄py쎯qiu❂lft쎯	-10.1867
shi❄wfg쎯	-10.1872
ming❂qk쎯ren❂w쎯	-10.1874
cheng❁sfw쎯	-10.1879
cui❁mwy쎯	-10.1883
ju❄whw쎯	-10.1886
zzjp쎯zzjp쎯	-10.1891
xi❁qdm쎯la❄eaj쎯	-10.1891
long❂dx쎯yan❂mdf쎯	-10.1892
chu❂bwt쎯le❅b쎯	-10.1896
쎃쎀쎀쎀	-10.1898
gong❁wc쎯jiao❁uq쎯	-10.19
pu❂aigy쎯	-10.1901
.쎀쎇	-10.1904
an❁ydjn쎯	-10.1904
tn쎯	-10.1914
geng❃sgjq쎯	-10.1916
shi❂ykw쎯bie❂klj쎯	-10.1932
chao❁fhv쎯ji❂xe쎯	-10.1933
mo❂saj쎯ju❄hw쎯	-10.1933
tai❄dy쎯yuan❂dr쎯	-10.1935
zong❃ukn쎯jie❂xf쎯	-10.194
shi❂fgh쎯da❄dd쎯	-10.194
yuan❂dr쎯lai❂go쎯	-10.194
zhen❄qfhw쎯,	-10.1943
fa❃if쎯ren❂w쎯	-10.1949
(쎁	-10.195
tu❂wtp쎯	-10.195
nv❃vvv쎯hai❂bynw쎯	-10.1953
kou❃kkkk쎯,	-10.1953
쎄)	-10.1955
yu❃ygk쎯wen❂yygy쎯	-10.1956
zuo❄wt쎯chu❁bm쎯	-10.196
ao❁ftbt쎯xue❂ip쎯	-10.1963
zhi❃sgx쎯	-10.197
fu❃ywfw쎯	-10.1971
qiong❂pwl쎯	-10.1971
yuan❁ito쎯	-10.1982
si❄lh쎯nian❂rh쎯	-10.1983
nu❄vcn쎯	-10.1991
di❂mb쎯	-10.1992
ge❃wgk쎯wu❄tr쎯	-10.1995
xun❁kml쎯	-10.1995
sheng❂xkjn쎯	-10.1997
.”qing❁ige쎯	-10.1998
guang❁iq쎯xue❂ip쎯	-10.2003
쎂쎀shi❄an쎯ji❄xn쎯	-10.2006
,chuang❄wbj쎯	-10.2007
lu❄vi쎯yin❁ujf쎯	-10.2007
gu❄db쎯ke❄pt쎯	-10.2009
xie❄iann쎯	-10.201
dai❄gkp쎯you❃e쎯	-10.2011
nw쎯	-10.2012
ru❂wfd쎯	-10.2012
,yi❄you쎯	-10.2016
ong❃ek쎯liu❂uqyl쎯	-10.2017
jie❂faw쎯	-10.2023
/쎂	-10.2024
ng❄fuj쎯you❁wdn쎯	-10.2025
nan❂fm쎯chang❁jj쎯	-10.2025
ye❃uck쎯jin❁qqqq쎯	-10.2033
gou❁qqc쎯	-10.2035
xie❄qevj쎯	-10.2039
mian❄dm쎯ji❁tkw쎯쎅	-10.2045
fa❁v쎯qi❃fhn쎯	-10.2047
fu❂rfw쎯	-10.2053
gong❁wc쎯zhu❃y쎯	-10.2053
쎂쎀쎀쎄	-10.2055
bao❄rb쎯kan❁fjh쎯	-10.2061
zhi❁pp쎯qian❂ue쎯	-10.2075
chang❃fnrt쎯de❅r쎯	-10.2079
,wo❃q쎯	-10.2079
gao❁ougo쎯	-10.2083
shen❁tmd쎯shi❄j쎯	-10.2083
,tong❁cep쎯	-10.2084
.you❃e쎯	-10.2087
gu❃dgh쎯lao❃ftx쎯	-10.2095
huang❂mrg쎯	-10.2096
xi❁tqd쎯	-10.21
:쎃	-10.2101
hai❃itx쎯wai❄qh쎯	-10.2103
hu❁qrn쎯	-10.2103
shan❄uduk쎯de❅r쎯	-10.2103
ao❄itm쎯	-10.2107
jing❁oge쎯xin❁ny쎯	-10.2111
,ye❃bn쎯ke❃sk쎯	-10.2112
xiang❃ybf쎯you❃e쎯	-10.2116
ti❁sux쎯	-10.2125
쎁쎈쎀	-10.2129
/쎃	-10.213
da❄dd쎯qiao❂std쎯	-10.2132
gong❃raw쎯	-10.2138
bian❄ynm쎯	-10.2138
ang❄sqj쎯jiao❁eu쎯	-10.2141
jq쎯	-10.2149
쎂gong❁wc쎯li❃jfd쎯	-10.2152
cong❁bukn쎯	-10.2156
qi❄kkd쎯,	-10.2158
,duo❁qq쎯	-10.2165
lan❂ajt쎯se❄qc쎯	-10.217
chui❂tga쎯zhi❂fh쎯	-10.217
ji❄yn쎯》	-10.2172
dian❄jn쎯zhan❄uh쎯	-10.2172
kuo❄uit쎯	-10.2172
xun❂vf쎯zhao❃ra쎯	-10.2178
쎉쎁	-10.218
ng❂qk쎯cheng❁tq쎯:	-10.218
da❄dd쎯jie❁tffh쎯	-10.2181
you❃e쎯xie❁hxf쎯	-10.2183
ji❄xn쎯wei❁tv쎯	-10.2183
nv❃vvv쎯er❂qt쎯	-10.2184
쎂쎈ri❄jjjj쎯	-10.2195
guo❂l쎯dao❄uthp쎯	-10.2195
shang❃h쎯mian❄dm쎯	-10.2202
-쎆	-10.2203
wen❂yygy쎯mi	-10.2203
xian❂tqf쎯	-10.2208
gan❄wh쎯ben❄wsg쎯	-10.2208
xuan❃tfqp쎯wei❄o쎯	-10.221
rui❄quk쎯	-10.2213
wei❂kwyg쎯	-10.2214
han❂ibi쎯gai❄ugl쎯	-10.2218
zui❄sgy쎯	-10.2221
fang❃xy쎯	-10.2225
bu❂i쎯zu❂khu쎯	-10.2226
hua❂wxf쎯ren❂w쎯	-10.2227
yong❄et쎯fa❃if쎯	-10.223
cheng❂dn쎯ren❂w쎯	-10.223
xing❂gae쎯huo❄ak쎯	-10.2232
ta❁wb쎯wu쎯de❅r쎯	-10.2236
ku❄sgtk쎯	-10.2246
bi❄nkue쎯	-10.2249
bao❄rb쎯》	-10.2253
she❄ymc쎯zai❄d쎯	-10.2258
dian❄jn쎯ji❁sm쎯	-10.2258
guo❂l쎯fang❂by쎯	-10.2263
yi❁g쎯sheng❁tg쎯	-10.2275
zzbd쎯xiao❃ih쎯	-10.2276
lai❄gkim쎯	-10.2277
duan❃tdg쎯xin❄wy쎯	-10.2281
xue❂ip쎯wei❄wug쎯,	-10.2288
mai❄gtu쎯ke❄dq쎯	-10.229
shi❂fgh쎯qi❁ag쎯	-10.2291
shuang❁fs쎯	-10.2293
.쎀쎉	-10.2293
쎁쎅ri❄jjjj쎯	-10.2298
,bing❁ua쎯zai❄d쎯	-10.23
zai❁po쎯	-10.231
쎂쎅쎀	-10.2313
.ju❁rnd쎯	-10.2313
shou❄wyk쎯hou❄rg쎯	-10.2316
ji❂ey쎯shi❂jf쎯	-10.2323
liao❂bqt쎯	-10.2326
,shi❃vck쎯	-10.2326
쎃gong❁wc쎯li❃jfd쎯	-10.2329
wen❂ub쎯ming❂qk쎯	-10.233
long❂tdx쎯	-10.2333
jian❄il쎯	-10.2336
te❄trf쎯you❃e쎯	-10.234
ying❂apk쎯qiu❁og쎯	-10.2342
xiu❄pum쎯	-10.2343
xi❁sghg쎯yi❁atd쎯	-10.2344
gong❁a쎯zuo❄wt쎯;	-10.235
ke❃sk쎯da❂dp쎯	-10.2351
zhan❄hka쎯yi❄tmc쎯	-10.2354
yu❄yce쎯ju❂nnk쎯	-10.2358
qun❂vtk쎯ben❄wsg쎯	-10.2371
dao❄tev쎯	-10.2372
lv❄rnv쎯	-10.2372
kong❄rpw쎯gu❃emc쎯	-10.2372
an❁jtyl쎯ce❄imj쎯	-10.2373
qi❄irn쎯	-10.2376
e❁ruv쎯kou❃kkkk쎯:	-10.2385
cha❁cyi쎯	-10.2387
sha❁xi쎯	-10.2391
cai❃es쎯qu❃bc쎯	-10.2392
shi❄gk쎯wu❄tr쎯	-10.2392
pa❄nr쎯	-10.2396
feng❂tdh쎯	-10.2396
tk쎯	-10.24
lei❄ihg쎯	-10.2405
li❄tjh쎯yi❄uwl쎯	-10.2405
(쎁쎉쎁	-10.2408
yu❄kwgj쎯	-10.2414
kan❁adwl쎯	-10.2415
쎆-	-10.2415
ji❁tkw쎯lei❃lx쎯	-10.2416
fei❁vnn쎯	-10.2418
wu❃wgg쎯	-10.2419
tu❂ltu쎯xing❂gae쎯	-10.242
ju❂aqo쎯	-10.2421
hui❄wf쎯yuan❂km쎯.	-10.2425
de❅r쎯chuang❄wbj쎯	-10.2431
bu❄uk쎯wei❄wug쎯	-10.2432
sheng❁tak쎯ji❂xe쎯	-10.2433
yi❁g쎯dai❄gkp쎯	-10.2434
cai❃ese쎯se❄qc쎯	-10.2438
ji❁ad쎯ceng❂nfc쎯	-10.244
쎀쎀hao❂ypt쎯mi❃oy쎯	-10.2443
feng❁dh쎯fu❄pgk쎯,	-10.2452
gao❃rym쎯	-10.2459
chan❃u쎯pin❃kkk쎯z	-10.246
wei❁tv쎯yuan❂km쎯.	-10.2461
chuang❁uwb쎯	-10.2468
.quan❂wg쎯	-10.2471
tao❁idt쎯	-10.2474
de❅r쎯gan❃dgkn쎯	-10.2474
.쎃zzbd쎯	-10.2476
pei❄sgn쎯bei❄tlf쎯	-10.2478
gou❁qci쎯	-10.248
xu❁hao쎯ni❃rny쎯	-10.248
liu❂qyvl쎯xia❄gh쎯	-10.2481
fj쎯	-10.2481
dian❃hko쎯.	-10.2486
dun❄ogbn쎯	-10.2497
mu❄ajdn쎯	-10.2499
zhi❂sfhg쎯qiu❁og쎯	-10.2502
wei❂lfnh쎯na❄mw쎯	-10.2506
쎁쎉쎄쎉nian❂rh쎯	-10.2512
,xian❄gm쎯you❃e쎯	-10.2513
e❃nyi쎯cun❄fghy쎯:	-10.2514
ba❄faf쎯	-10.2515
,jia❁lk쎯	-10.2516
ao❄suq쎯wan❂lfq쎯	-10.2524
gong❁a쎯hui❄wf쎯	-10.2526
,you❂dnv쎯qi❂adw쎯	-10.2526
-쎈	-10.2526
cha❂aws쎯xie❂kf쎯	-10.2531
gong❄aw쎯han❄t쎯	-10.2535
shui❄ht쎯	-10.2545
fen❁wv쎯lei❄od쎯:	-10.2545
ceng❂ul쎯huo❄aqt쎯	-10.2547
xiang❃ktm쎯li❄lt쎯	-10.2548
xing❁jtg쎯ji❂xe쎯	-10.2562
shui❃ii쎯,	-10.2564
zhang❁xt쎯jia❁pe쎯	-10.2569
pu	-10.2574
pan❂uter쎯	-10.2577
yong❄et쎯tu❂wtp쎯	-10.2577
gu❃dgh쎯cheng❂fd쎯	-10.2579
pin❂wvm쎯kun❄ls쎯	-10.2581
lv❄iha쎯	-10.2581
man❃iagw쎯yi❄ujn쎯	-10.2583
yi❂khgp쎯chan❃u쎯	-10.2584
jun❁fqu쎯you❃e쎯	-10.259
yue❄tlo쎯	-10.2591
yuan❂fqb쎯.	-10.2591
ban❄rwv쎯yan❃ipg쎯	-10.2593
bu❂i쎯yao❁s쎯	-10.2593
zhi❄ick쎯li❃gj쎯	-10.2595
she❄rbcc쎯xiang❄	-10.2596
lu❂yyne쎯	-10.2601
tong❂m쎯yang❂su쎯	-10.2615
fang❁yy쎯shi❄aa쎯:	-10.2617
he❂awsk쎯lan❂uff쎯	-10.2618
zui❄jb쎯duo❁qq쎯	-10.2621
mei❃txg쎯tian❁gd쎯	-10.2621
zzbd쎯li❃sb쎯	-10.2623
duo❁qq쎯yuan❂fqb쎯	-10.2623
cheng❂iwgu쎯	-10.2623
ru❃ivg쎯	-10.2623
fan❄qtb쎯zui❄ldj쎯	-10.2628
jiao❄kn쎯zuo❄wdt쎯	-10.2632
sui❂bda쎯	-10.2632
ya❁dfy쎯suo❁xpw쎯	-10.2634
(-)	-10.2637
dan❄jgf쎯	-10.2637
li❃qjf쎯	-10.264
deng❃tffu쎯ji	-10.2641
kan❁fad쎯	-10.2643
mei❃txg쎯yi❁g쎯	-10.2645
zzbd쎯zzbd쎯zzbd쎯	-10.2648
wu❄tr쎯pin❃kkk쎯	-10.265
heng❁tq쎯hao❂kgn쎯	-10.2651
yi❁g쎯pi❁rx쎯	-10.2652
po❂ihcv쎯	-10.2655
,ci❃hx쎯	-10.2658
zai❄d쎯《	-10.2666
ping❂agu쎯guo❃js쎯	-10.267
hu❄aynr쎯	-10.2672
tu❁pwd쎯po❄dhc쎯	-10.2679
쎁쎉쎇쎀nian❂rh쎯	-10.2683
mi❄pnt쎯ma❃dcg쎯	-10.2691
mian❄dm쎯dui❄cf쎯	-10.2691
qin❁qqw쎯	-10.2694
xiu❄xten쎯	-10.2697
fang❁yy쎯fa❃if쎯.	-10.27
jie❂ujqn쎯	-10.2701
hen❄nv쎯	-10.2701
da❁rawk쎯	-10.2703
zai❄gmf쎯ci❄uqw쎯	-10.2705
le❅b쎯“	-10.2711
dian❄rvyf쎯	-10.2718
xia❄gh쎯she❄ymc쎯	-10.2724
ben❃sg쎯de❅f쎯	-10.2724
wu❁ifn쎯	-10.2737
zhai❁rum쎯	-10.2744
ran❂qd쎯hou❄rg쎯	-10.2745
,te❄trf쎯bie❂klj쎯	-10.2746
guo❄fp쎯lv❄iha쎯	-10.2749
mi❃oy쎯,	-10.2756
jie❄wj쎯zhi❄rfm쎯	-10.2758
shi❄gk쎯qing❂nge쎯	-10.276
yi❁wye쎯fa❃if쎯	-10.2766
wei❄wug쎯,	-10.2769
fc쎯	-10.2771
ang❁xte쎯cun❁sf쎯	-10.2771
yu❃ygk쎯zzbd쎯	-10.2776
bo❁rnt쎯	-10.2781
.quan❂wg쎯cun❁sf쎯	-10.2782
shen❁tmd쎯gao❁ym쎯	-10.2784
qu❁aq쎯bie❂klj쎯	-10.2785
yi❄anb쎯ren❂w쎯	-10.2789
shui❃ii쎯zhong❁k쎯	-10.2797
(쎃)	-10.28
fu❂eb쎯shi❄qnth쎯	-10.28
tie❁mhh쎯	-10.2801
hou❄rg쎯de❅r쎯	-10.2802
xiong❁qb쎯	-10.2803
jian❄vfhp쎯de❅r쎯	-10.2806
pi❁rhc쎯zhen❁qf쎯	-10.2806
pu❃uo쎯bian❄ynm쎯	-10.2807
bai❃dj쎯nian❂rh쎯	-10.2821
wei❂nwy쎯	-10.2823
xiao❃ih쎯er❂qt쎯	-10.2827
jian❁ga쎯guan❁ud쎯	-10.2829
ng❂uxt쎯tu❃ffff쎯	-10.283
feng❁mq쎯wei❄kfi쎯	-10.2839
(.)	-10.2848
tan❃fjg쎯	-10.285
ban❄rufh쎯jun❁qu쎯	-10.2856
yi❃c쎯qian❂ue쎯	-10.2866
ge❄tk쎯ji❂xe쎯	-10.2868
da❂rs쎯jian❁ga쎯	-10.2869
zhuang❄ruj쎯	-10.2871
in❄qgb쎯shua❁nmh쎯	-10.2875
yao❁vtd쎯	-10.2881
huo❄wxm쎯yun❃fcp쎯	-10.2888
he❂isk쎯liu❂iyc쎯	-10.289
.”song❄psu쎯	-10.2891
yue❄fha쎯nan❂fm쎯	-10.2892
fa❂wat쎯	-10.2893
cun❁sf쎯ren❂w쎯.	-10.2894
hf쎯	-10.2895
sha❁aiit쎯	-10.2895
hu❄iyn쎯	-10.2905
ben❃sg쎯shen❁tmd쎯	-10.2907
yong❁reh쎯	-10.2909
yong❁yxt쎯	-10.292
hi❄tdkj쎯neng❂ce쎯	-10.292
,jing❁x쎯guo❄fp쎯	-10.2921
yu❄puw쎯	-10.2922
dang❁iv쎯nian❂rh쎯	-10.2926
san❃aet쎯re❄rvyo쎯	-10.2927
you❂img쎯hua❄gl쎯	-10.293
.fen❁wv쎯bu❄dmh쎯	-10.293
sui❂bde쎯ji❁sm쎯	-10.2933
gang❁qmq쎯tie❃qr쎯	-10.2939
mang❂ayn쎯	-10.2946
ga❁klk쎯fei❁kdj쎯	-10.2949
pai❂rdj쎯lie❄gq쎯	-10.2951
km쎯	-10.2958
)ren❂w쎯.	-10.2958
na❄mw쎯you❃e쎯	-10.296
hun❄ptf쎯	-10.2963
쎁쎆쎀	-10.2963
pin❁rua쎯	-10.2969
zu❃xeg쎯zhang❃ta쎯	-10.2971
xue❂ip쎯han❄t쎯	-10.2973
ye❃bn쎯bu❂i쎯	-10.2974
xian❄egc쎯ji❂xe쎯	-10.2975
wei❄nfif쎯	-10.2978
la❄eaj쎯	-10.2982
jue❂xqc쎯dui❄cf쎯	-10.2987
cy쎯	-10.2993
di❄tx쎯ba❁wty쎯	-10.2995
)han❄t쎯	-10.2996
zhai❃pwtf쎯	-10.2996
zhang❁iuj쎯	-10.3001
wei❁tv쎯dang❃ipk쎯	-10.3002
xun❄bip쎯	-10.3004
yi❄tmc쎯	-10.3008
wu❄tr쎯chong❂tkh쎯	-10.3009
qu❁aq쎯zzbd쎯	-10.3011
gui❃lv쎯dao❄uthp쎯	-10.3012
de❅r쎯qing❂nge쎯	-10.3013
shen❄nfh쎯	-10.3022
qian❃khgp쎯	-10.3024
zzbd쎯xi❁sghg쎯	-10.3025
ye❂wqb쎯	-10.3026
yue❄uuk쎯	-10.3026
,chang❂ipkh쎯	-10.3028
zhong❁k쎯ji❂xe쎯	-10.3032
bu❂i쎯dao❄gc쎯	-10.3033
jian❄wrh쎯.	-10.3041
ren❄yw쎯zhen❁fhw쎯	-10.3043
sang❄fue쎯	-10.3044
ge❂af쎯	-10.3045
mo❂saj쎯te❄trf쎯	-10.3045
.xian❄gm쎯	-10.3046
ba❁cnh쎯li❂tqt쎯	-10.3051
”han❄t쎯“	-10.3053
jia❁pe쎯ju❁nd쎯	-10.3057
ti❂jghm쎯cai❂sft쎯	-10.3059
]	-10.306
han❄ojf쎯	-10.3063
ke❁jsd쎯	-10.3072
hun❂ipl쎯	-10.3074
hu❂ode쎯	-10.3074
ji❄bf쎯	-10.3076
zhan❄hka쎯guo❂l쎯	-10.3078
cheng❂swgu쎯	-10.3084
long❂dx쎯tou❂udi쎯	-10.3085
die❂dan쎯	-10.309
jin❄rp쎯dai❄wa쎯	-10.309
쎉쎀쎀	-10.3102
쎁쎈ri❄jjjj쎯	-10.3107
chong❁ice쎯	-10.3108
pi❁rx쎯fa❁v쎯	-10.3113
ning❂ps쎯xia❄dht쎯	-10.3115
liu❄uy쎯nian❂rh쎯	-10.3116
yue❄fha쎯lai❂go쎯	-10.3117
ji❂wys쎯》	-10.312
dun❁fyb쎯	-10.3121
ying❂ynky쎯	-10.3124
fan❄itp쎯	-10.3126
zzzy쎯zzzy쎯zzzy쎯ˋ	-10.3126
shen❁ipw쎯du❄ya쎯	-10.3128
tan❄mdo쎯	-10.313
chu❁puv쎯ji❁adwe쎯	-10.3131
ju❂nnk쎯ju❂nnk쎯	-10.3134
쎀nian❂rh쎯dai❄wa쎯	-10.3136
jian❁ga쎯qiu❁og쎯	-10.3136
쎇gan❄wh쎯	-10.3139
fei❄xjm쎯yong❄et쎯	-10.3141
mei❃txg쎯ri❄jjjj쎯	-10.3145
qin❂wyb쎯	-10.3147
bu❂i쎯zhi❁td쎯	-10.3155
,xi	-10.3163
ke❃sk쎯jian❄mqb쎯	-10.3166
dui❄cf쎯fang❁yy쎯	-10.3171
ban❄uf쎯dao❃qynm쎯	-10.3174
xue❁awnu쎯	-10.3174
hou❄rg쎯ji❁adwe쎯	-10.3175
zi❁uqwm쎯zhi❄rfm쎯	-10.3176
gan❃dgkn쎯qi❄kkd쎯	-10.3178
mai❂fjf쎯	-10.3179
쎁쎉쎇쎆nian❂rh쎯	-10.318
si❁adwr쎯zzbd쎯	-10.3183
jiao❄suq쎯qu❁aq쎯	-10.3183
wyc쎯	-10.3183
chu❁bm쎯shen❁tmd쎯	-10.3188
lkmi쎯xing❂gae쎯,	-10.319
an❁pv쎯pai❂rdj쎯	-10.3191
lu❄pyv쎯	-10.3192
hen❃tve쎯hao❃vb쎯	-10.3195
jiu❄yi쎯hui❄wf쎯	-10.3197
zzbd쎯da❄dd쎯	-10.3197
zhun❃uwy쎯hua❁wx쎯	-10.32
yuan❂dr쎯zi❃bb쎯	-10.32
aj쎯	-10.321
ying❂ecl쎯	-10.3211
shi❄j쎯gan❄wh쎯	-10.3215
쎀mi❃oy쎯,nian❂rh쎯	-10.3222
xue❂ip쎯li❄dl쎯.	-10.3222
qu❁aq쎯wei❁tv쎯	-10.3226
tou❁wwgj쎯	-10.3228
jing❁x쎯yan❄cwg쎯,	-10.323
bu❂i쎯de❂tj쎯	-10.3231
gao❁ym쎯ya❁dfy쎯	-10.3236
hua❁awx쎯hui❄faj쎯	-10.3237
yu❃pgf쎯zhou❄pm쎯	-10.3238
fan❁tol쎯	-10.3244
yi❁g쎯zhi❁kw쎯	-10.3252
l쎯li❃gj쎯shi❄gk쎯	-10.3253
.yin❁ld쎯	-10.3259
lin❂gss쎯	-10.326
쎁쎉쎅쎇nian❂rh쎯	-10.3261
tian❁gd쎯de❅f쎯	-10.3263
qi❄kkd쎯zzbd쎯	-10.3264
xi❁qtny쎯	-10.3266
shi❃vck쎯ren❂w쎯	-10.3278
,qing❁ige쎯	-10.3278
nn쎯	-10.3281
shi❁qtjh쎯	-10.3284
cao❃ajj쎯ben❃sg쎯	-10.3285
rong❂ipwk쎯yu❂gf쎯	-10.3286
chu❄th쎯.	-10.3287
de❅f쎯li❃gj쎯w	-10.3288
de❅r쎯chuan❂wfny쎯	-10.3291
쎁.쎂	-10.3291
zhao❄yvk쎯	-10.3293
a❁k	-10.3293
쎂쎀yu❂wtu쎯	-10.3298
qu❁aq쎯.	-10.3303
chan❂xyj쎯	-10.3303
lai❂go쎯dao❄gc쎯	-10.3304
yue❁jhng쎯:‘	-10.3308
gd쎯	-10.331
xian❄qnqv쎯	-10.331
bian❄uyu쎯	-10.3319
san❃wuh쎯	-10.3321
,fu❂gip쎯you❃e쎯	-10.3321
ru❂vk쎯ci❃hx쎯	-10.3324
po❁hcd쎯	-10.3326
ti❄fwf쎯	-10.3326
xian❄egc쎯ren❂w쎯.	-10.3327
guo❂l쎯yu❃ygk쎯	-10.3328
ye❄iyw쎯jing❁jjj쎯	-10.3329
gan❁fggh쎯shi❄gk쎯	-10.333
ji❂se쎯wei❄o쎯	-10.3334
guo❂l쎯li❄uu쎯	-10.3335
zhi❁ap쎯	-10.3342
zhang❃ta쎯yue❁xq쎯	-10.3343
zai❃puj쎯	-10.3348
yan❄pjv쎯	-10.3355
xie❃tld쎯ye❄iyw쎯	-10.3355
tui❄vep쎯xiu❁ws쎯	-10.3356
tuo❁rtb쎯	-10.3358
ke❄pt쎯yun❃fcp쎯	-10.3358
ming❂qk쎯wei❄o쎯“	-10.3361
huo❄wxm쎯bi❄tmh쎯	-10.3361
:쎁.	-10.3364
ban❁tem쎯	-10.3367
sheng❄tuxj쎯	-10.3371
san❁dg쎯ji❂xe쎯	-10.3373
kuo❄ry쎯	-10.3374
bu❂i쎯liang❂yv쎯	-10.3377
song❄wcd쎯	-10.3378
tu❂ltu쎯an❄pvs쎯	-10.338
zhuang❁uv쎯	-10.3383
쎇-	-10.3384
,ti❂rj쎯gao❁ym쎯	-10.3385
quan❂wg쎯ri❄jjjj쎯	-10.3389
xi❁sr쎯	-10.3391
jian❄vfhp쎯guo❂l쎯	-10.3394
xue❂ip쎯shu❂sy쎯l	-10.3398
tong❂m쎯bu❄hi쎯	-10.3398
kuang❄dyt쎯wu❄tr쎯	-10.3401
yong❃kyn쎯	-10.3403
hai❃itx쎯an❄mdfj쎯	-10.3405
zhi❂bk쎯ze❂gmu쎯	-10.3408
xi❁ton쎯	-10.3409
yi❁g쎯chang❃fnrt쎯	-10.341
zhao❃rhyi쎯	-10.3412
shi❂fgh쎯zi❄pb쎯	-10.3414
nan❂ll쎯ren❂w쎯	-10.3417
yan❄dww쎯	-10.3429
yu❄jm쎯dao❄gc쎯	-10.3429
he❄pujn쎯se❄qc쎯,	-10.3431
bu❄hi쎯hang❂tf쎯	-10.3432
ge❄tk쎯jie❄lwj쎯	-10.3445
liu❂iyc쎯yu❄fakg쎯	-10.3446
nan❂ll쎯nv❃vvv쎯	-10.3451
chan❃u쎯pin❃kkk쎯.	-10.3454
kong❁pw쎯jun❁pl쎯	-10.3455
쎀zzts쎯	-10.3461
guan❃tp쎯li❃gj쎯z	-10.3464
zzxl쎯	-10.3467
gu❄dty쎯shi❄gk쎯.	-10.3469
shi❂fgh쎯jiu❃vt쎯	-10.347
lkmi쎯xing❂gae쎯	-10.3473
yan❃ipg쎯zou❄dwg쎯	-10.3479
yu❂gf쎯yi❁g쎯	-10.3483
ce❄imj쎯ding❄pg쎯	-10.3484
di❁fjgh쎯	-10.3487
dao❄uthp쎯,	-10.349
di	-10.3494
쎁쎉쎆쎈nian❂rh쎯	-10.3495
fu❄pgk쎯you❃e쎯	-10.3498
shi❄rrp쎯	-10.35
yu❄iww쎯	-10.35
si❁ln쎯kao❃ftg쎯	-10.3514
chi❂nyp쎯	-10.3514
kang❁yvi쎯fu❄tjt쎯	-10.3518
jiu❃vt쎯nian❂rh쎯	-10.3521
zzts쎯,nian❂rh쎯j	-10.3532
duan❄qwd쎯	-10.3538
zhi❄fn쎯》	-10.3539
ren❂wtf쎯zhi❂bk쎯	-10.3541
yi❄rqb쎯zhi❄rmhj쎯	-10.3543
su❄yr쎯	-10.3544
pi❂ert쎯	-10.3545
쎁쎉쎀	-10.3548
fu❄wge쎯	-10.3551
yi❄iuw쎯	-10.3555
da❄dd쎯zhan❄hka쎯	-10.356
qian❁yuv쎯	-10.3565
zong❃ukn쎯ji	-10.3565
xiao❃ih쎯huo❃ooo쎯	-10.3566
쎂쎅쎆	-10.357
zuo❄wt쎯pin❃kkk쎯.	-10.3574
jian❄mqb쎯yu❂gf쎯	-10.3574
xiu❄te쎯li❄gmy쎯	-10.3579
wang❃mqq쎯ye❄dmu쎯	-10.3584
mian❄dm쎯ji❁tkw쎯쎆	-10.3585
쎂쎀ri❄jjjj쎯	-10.3587
de❅r쎯guo❄fp쎯	-10.3589
dao❃nf쎯dan❄xuj쎯	-10.3591
lun❂wwx쎯dun❁ybt쎯	-10.3594
zhan❄uh쎯,	-10.3614
ting❂wyp쎯che❁lg쎯	-10.3616
bo❂ir쎯	-10.3618
qin❁wvp쎯	-10.3623
si❁ngk쎯ma❃cn쎯	-10.3623
,shi❂pu쎯xian❄gm쎯	-10.3626
dou❁ftjb쎯hui❄wf쎯	-10.3627
xue❂ip쎯xi❄txi쎯	-10.3628
fk쎯	-10.3629
huo❂hjj쎯yue❄fha쎯	-10.3631
gai❃nty쎯jin❄fj쎯	-10.3633
zhu❃y쎯jiao❁ftbt쎯	-10.3635
qi❂adw쎯shi❂pu쎯	-10.3638
cun❁sf쎯zzbd쎯	-10.3639
ge❄tk쎯da❄dd쎯	-10.364
ai❁yeu쎯	-10.3641
yi❂gxw쎯	-10.3641
ji❂qvn쎯xing❄ntg쎯	-10.3642
bei❄mhny쎯er❃qiu쎯	-10.3649
lu❄vi쎯》	-10.3651
yu❂cbj쎯	-10.3658
쎁.쎀	-10.3663
dao❄gc쎯da❂dp쎯	-10.367
쎁쎉쎇쎅nian❂rh쎯	-10.3672
hua❂wxf쎯zhong❁k쎯	-10.3684
fo❂wxj쎯shan❁mmm쎯	-10.3685
ai❄ep쎯guo❂l쎯	-10.3686
shi❄toc쎯cha❁yq쎯	-10.3686
쎁hao❂kgn쎯	-10.3687
da❄dd쎯li❄lt쎯	-10.369
ting❃rtfp쎯	-10.369
ye❃uck쎯	-10.369
tong❂m쎯nian❂rh쎯	-10.3691
ba❁cnh쎯xi❁sghg쎯	-10.3691
yin❃xh쎯dao❃nf쎯	-10.3692
yuan❄qbn쎯	-10.3694
”(	-10.3698
ke❃sk쎯gong❁waw쎯	-10.3701
zzzy쎯zzzy쎯zzzy쎯ˊ	-10.3702
gang❁rma쎯	-10.3703
yi❁atd쎯shi❁jgm쎯,	-10.3703
zhi❂bk쎯wu❄tl쎯	-10.3704
hao❂ypt쎯	-10.3706
de	-10.3708
jian❄vfhp쎯you❃e쎯	-10.3708
ji❁vah쎯	-10.3708
nt쎯	-10.3709
hou❄txt쎯	-10.3719
qi❃fhn쎯dian❃hko쎯	-10.3722
zuo❃da쎯you❄dk쎯,	-10.3733
ke❃ijq쎯	-10.3739
,xian❄gm쎯wei❄o쎯	-10.3739
cai❃es쎯gou❄mqc쎯	-10.374
,fen❁wv쎯bie❂klj쎯	-10.3743
xue❂ip쎯ban❁gyt쎯	-10.3744
yi❄uem쎯	-10.3747
he❂ttt쎯	-10.3748
zuo❄wt쎯qiu❁og쎯	-10.3755
jing❁oge쎯mi❄pnt쎯	-10.3756
peng❂eeq쎯	-10.3772
』	-10.3776
yu❃tkm쎯	-10.3776
chang❃fnrt쎯.	-10.3778
zhi❂rvy쎯fa❃if쎯	-10.378
tang❄inro쎯	-10.3781
|	-10.3788
.쎀쎃	-10.3789
xiang❄qje쎯.	-10.3792
쎁쎉쎆쎀nian❂rh쎯	-10.3792
(jian❃tuj쎯	-10.3796
song❄psu쎯dai❄wa쎯	-10.3801
kun❄ls쎯	-10.3804
ji❂vcb쎯cheng❂dn쎯	-10.3808
ao❂gqt	-10.3811
bian❄uyt쎯lv❄yx쎯	-10.3814
zzbd쎯jiao❁ftbt쎯	-10.3818
xia❄gh쎯shu❃ntk쎯	-10.3819
zhi❃rxj쎯shu❄ovt쎯	-10.3823
chi❁yb쎯jian❁ga쎯	-10.3828
sao❃rv쎯miao❂ral쎯	-10.3829
xia❂mgu쎯	-10.383
shi❄j쎯:	-10.383
wu❂fq쎯xian❄bv쎯	-10.3832
bu❂i쎯guo❄fp쎯	-10.3833
pan❄udrc쎯	-10.3836
ping❂gu쎯si❄ck쎯.	-10.3838
yao❂er쎯	-10.384
jian❁uvo쎯zhi❂bk쎯	-10.3842
yi❂nck쎯	-10.3847
bao❁qn쎯gua❁rtd쎯:	-10.385
ma❃cn쎯lai❂go쎯	-10.3854
,shen❄adwn쎯	-10.3858
ft쎯	-10.3862
)zzbd쎯《	-10.3863
zzj쎯	-10.3867
.쎁쎈	-10.3869
bi❃xx쎯ya❄gog쎯	-10.3871
,tong❂m쎯nian❂rh쎯	-10.3873
qiao❄afie쎯	-10.3875
xing❄ntg쎯.	-10.3881
bie❂klj쎯ren❂w쎯	-10.3881
tong❂m쎯xue❂ip쎯	-10.3884
tai❄dwiu쎯guo❂l쎯	-10.3887
zhan❄uh쎯.	-10.3889
쎁쎉쎆쎆nian❂rh쎯	-10.3889
tan❄kcy쎯	-10.3892
dian❄jn쎯si❄ck쎯	-10.3893
la❄ait쎯shi❂pu쎯	-10.3902
tao❃yfy쎯lun❄ywx쎯	-10.3902
fu❂eb쎯wu❄tl쎯,	-10.3906
、	-10.3909
ji❄uxl쎯	-10.391
❃itf쎯cheng❁uqv쎯,	-10.3912
lin❂iss쎯	-10.3913
de❅r쎯lin❂jty쎯	-10.3915
fen❁wv쎯mi❄int쎯	-10.3921
tu❁hgm쎯	-10.3921
쎀.쎂	-10.3924
쎂쎀쎀쎃	-10.3924
bao❃wk쎯liu❂qyvl쎯	-10.3927
you❁wdn쎯ya❃ahty쎯	-10.3927
ke❃sk쎯ai❄ep쎯	-10.3932
bi❁gklp쎯	-10.3934
zuo❄wt쎯zhe❃ftj쎯:	-10.3934
ge❄tk쎯guo❂l쎯	-10.3935
mu❃trfg쎯dan❁myd쎯	-10.3937
ang❃yfj쎯shu❄syp쎯	-10.3937
.ta❁vbn쎯	-10.3938
쎂쎀쎁쎂	-10.3939
yi❁g쎯xia❄gh쎯	-10.3939
sheng❁tg쎯li❃gj쎯	-10.3942
fang❁yy쎯yan❂yyy쎯	-10.3945
de❅r쎯you❁wdn쎯	-10.3949
---	-10.3949
xin❁ny쎯zang❄eyf쎯	-10.395
-쎁쎀	-10.3957
dan❄wjg쎯shi❄j쎯	-10.3962
li❃gj쎯shi❄gk쎯,	-10.3967
ff쎯	-10.3967
zu❂ytt쎯zi❄thd쎯zh	-10.3969
쎀-	-10.3971
ying❁mmv쎯	-10.3974
쎂쎅ri❄jjjj쎯	-10.3977
zhong❁xtu쎯yu❂gf쎯	-10.3978
shi❁rw쎯qu❄fcu쎯	-10.398
zzbd쎯dan❄dgtg쎯	-10.3981
ming❂qk쎯jia❁pe쎯	-10.3981
》duo❃vs쎯zhi❄fn쎯	-10.3985
zuo❄wdt쎯hao❃vb쎯	-10.3986
,jiu❄yi쎯shi❄j쎯	-10.3989
zan❄lrj쎯	-10.3991
jun❁fqu쎯wei❄o쎯	-10.3992
zhu❄iy쎯yu❂gf쎯	-10.3992
ge쎯	-10.3995
쎁쎉쎆쎉nian❂rh쎯	-10.3998
wu❃gg쎯gan❄wh쎯	-10.4
chu❁bm쎯zi❄thd쎯	-10.4004
xin❁usr쎯hua❂wxf쎯	-10.4009
yuan❂idr쎯yu❂gf쎯	-10.4011
gai❄qgh쎯	-10.4017
luo❂lqp쎯ji❂lkb쎯	-10.4018
ang❃uqd쎯li❄ddnl쎯	-10.4018
ban❁wvd쎯fa❁v쎯	-10.402
,cu❄wkh쎯jin❄fj쎯	-10.4032
yun❃fcp쎯zuo❄wt쎯	-10.4034
fang❂by쎯zhi❃hh쎯	-10.4035
ta	-10.4036
쎁쎁쎀	-10.4037
[	-10.405
xiao❁iej쎯	-10.4056
wo❃q쎯de❅r쎯	-10.4066
zhi❄igk쎯	-10.407
bh쎯	-10.407
chong❂tkh쎯,	-10.4071
tai❁ack쎯	-10.4077
shou❃uth쎯xi❂yam쎯	-10.408
mei❂oa쎯tan❄mdo쎯	-10.4093
ge❃wgk쎯ge❂st쎯	-10.4094
zhao❂aft쎯you❃e쎯《	-10.4095
en❄yw쎯zheng❄ygh쎯	-10.4098
ju❂nnk쎯zzbd쎯	-10.4099
yu	-10.4099
”zhi❁pp쎯	-10.4099
쎂zzbd쎯	-10.4099
쎁쎉쎅쎅nian❂rh쎯	-10.4101
niang❄sgye쎯	-10.4102
쎁쎉쎇쎂nian❂rh쎯	-10.4103
jie❁ruv쎯jin❄rp쎯	-10.4105
.ming❂je쎯	-10.4106
chi❂cbn쎯	-10.4111
li❄ssu쎯	-10.4112
bing❄ugm쎯ren❂w쎯	-10.4122
wang❃mqq쎯you❃dc쎯	-10.4124
》han❄t쎯《	-10.4124
da❄dd쎯qi❃rnb쎯	-10.4127
yi❂wyq쎯biao❃ge쎯	-10.413
fu❃geh쎯	-10.413
jie❁ruv쎯shou❁nh쎯	-10.4131
qu❁aq쎯na❄mw쎯	-10.4134
shi❄fghg쎯,	-10.4136
an❄pvs쎯jian❄wrh쎯	-10.4136
dang❃riv쎯	-10.4143
qi❃fhn쎯cha❁yq쎯	-10.4145
쎁쎉쎅쎂nian❂rh쎯	-10.4152
qi❁ssg쎯xi❁thn쎯	-10.4152
mu❄ssss쎯ma❃cn쎯	-10.4155
.ru❂vk쎯	-10.416
ling❂vo쎯huo❂itd쎯	-10.4161
gui❄sff쎯lin❂ss쎯	-10.4163
쎅쎀쎀쎀	-10.4168
shui❃ii쎯guo❃js쎯	-10.4173
dun❄rfh쎯	-10.4175
xue❂ip쎯yu❃gn쎯	-10.4176
쎀.	-10.4177
sui❄mqu쎯.	-10.4179
ju❄ndj쎯qing❂nge쎯	-10.418
nan❂fm쎯ning❂ps쎯	-10.4181
zi❄thd쎯hang❂tf쎯	-10.4182
jiao❁uq쎯cha❁cyi쎯	-10.4185
fa❁v쎯chu❁bm쎯	-10.4189
chou❃nfd쎯	-10.4193
xue❂ip쎯yuan❂km쎯	-10.4194
gong❁xng쎯	-10.4195
ren❂w쎯,lao❂apl쎯	-10.4196
,da❄dd쎯	-10.4199
ji❁sm쎯gou❃sq쎯,	-10.4202
shi❃kq쎯shang❃h쎯	-10.4206
:zhi❁fc쎯chi❂rf쎯	-10.4208
guang❁iq쎯gu❃ime쎯	-10.421
쎁쎀ri❄jjjj쎯	-10.4211
쎁)	-10.4211
qian❁dpr쎯	-10.4212
sheng❁tg쎯ya❂idf쎯	-10.4213
-쎇	-10.4229
nian❂rh쎯qian❂ue쎯	-10.423
xin❁qqq쎯	-10.4231
ming❂qk쎯yu❄iwyf쎯	-10.4233
yan❃hv쎯jing❁hg쎯	-10.4233
,zhe❄p쎯shi❄j쎯	-10.4234
zha❂ulk쎯	-10.4235
huo❃wo쎯ban❄wuf쎯	-10.4242
ying❁smmv쎯	-10.4243
uj쎯	-10.4244
sao❃rv쎯	-10.4249
tuo❂bpx쎯	-10.4252
can❁cd쎯jia❁lk쎯g	-10.4255
xie❃tld쎯ya❁dfy쎯	-10.4256
zzbd쎯jin❁qqqq쎯	-10.4257
guang❁iq쎯ze❂icf쎯	-10.4263
:쎄	-10.4265
,an❄rpv쎯	-10.4274
pan❁sqq쎯	-10.4281
bei❄djdl쎯	-10.4288
tong❂m쎯yi❁g쎯	-10.4291
zhu❂epi쎯bu❄hi쎯	-10.4292
쎁쎉쎅쎄nian❂rh쎯	-10.4293
you❂dnv쎯qi❂adw쎯	-10.4298
mei❃ugdu쎯hao❃vb쎯	-10.4299
jian❁ga쎯shui❃ii쎯	-10.43
yu❃ygk쎯yin❁ujf쎯	-10.43
,cheng❂dn쎯li❄uu쎯	-10.43
wen❃kqr쎯	-10.4305
.쎀쎈	-10.4312
ren❂w쎯kou❃kkkk쎯쎃	-10.4313
de❅r쎯ling❃wycm쎯	-10.4322
quan❂sc쎯li❄tjh쎯	-10.4322
xiu❁wht쎯fu❄tjt쎯	-10.4327
iu쎯	-10.4327
,zhi❄gcft쎯li❄lt쎯	-10.4334
hun❁qajf쎯	-10.4337
ri❄jjjj쎯bao❄rb쎯	-10.4339
duo❁qq쎯yang❂su쎯	-10.434
you❁whtn쎯	-10.4341
jiao❄lu쎯hao❃vb쎯	-10.4345
hua❂wxf쎯nan❂fm쎯	-10.4347
gu❁vd쎯	-10.4348
쎁쎉쎅쎀nian❂rh쎯	-10.4356
di❂mb쎯jian❄wrh쎯	-10.4358
niu❂rhk쎯rou❄mww쎯	-10.436
쎈-	-10.4362
wu❃gah쎯shu❂sy쎯	-10.4362
zzdw쎯	-10.4364
()zzbd쎯	-10.4368
shi❂pu쎯ben❄wsg쎯	-10.4368
cao❃ajj쎯yuan❂dr쎯	-10.4371
yin❃vte쎯	-10.4371
zi❃ob쎯	-10.4373
qu❄fcu쎯pi❂hc쎯	-10.4376
ji❄nnu쎯	-10.4376
tai❄dy쎯zi❃bb쎯	-10.4378
wo❄rng쎯	-10.4382
쎀.쎁	-10.4383
ling❄kl쎯wai❄qh쎯	-10.4384
wai❄qh쎯yu❃ygk쎯	-10.4386
쎂쎆ri❄jjjj쎯	-10.4387
ian❄ipgh쎯fen❃ow쎯	-10.4388
mo❂saj쎯kuai❄fnw쎯	-10.4389
rao❂qna쎯	-10.4389
shan❁mmm쎯de❅f쎯	-10.4394
ke❁tu쎯ji❂xe쎯	-10.44
yue❁jhng쎯:“	-10.4401
he❁kjq쎯	-10.4403
gan❃fhfk쎯	-10.441
chou❂wvn쎯	-10.4414
fen❁wv쎯zhi❁fc쎯	-10.4416
//	-10.4417
쎁/쎂	-10.4421
쎃쎀ri❄jjjj쎯	-10.4424
zang❄eyf쎯	-10.4425
tan❂uoo쎯	-10.4428
zui❄jb쎯chu❁puv쎯	-10.443
쎁쎀yu❂wtu쎯	-10.4432
zhang❃ta쎯an❁pv쎯	-10.4434
fq쎯	-10.4434
che	-10.4437
xue❂ip쎯de❅r쎯	-10.4437
lan❂suf쎯mu❄hhhh쎯	-10.4437
you❃e쎯shi❂jf쎯	-10.4439
can❂gdj쎯	-10.444
mang❂nynn쎯	-10.4442
.er❂dmj쎯	-10.4445
guan❁pn쎯fang❁yy쎯	-10.4448
dang❁iv쎯qian❂ue쎯	-10.445
shen❁ipw쎯ke❄ynt쎯	-10.4453
da❄dd쎯fu❁fw쎯	-10.4455
chou❄thdu쎯	-10.4459
ben❃sg쎯zhao❁udh쎯	-10.4469
re❄rvyo쎯shui❃ii쎯	-10.447
hui❂lkd쎯dao❄gc쎯	-10.4474
bao❁vijh쎯	-10.4477
ong❄aw쎯dang❃ipk쎯	-10.4478
.hou❄rg쎯	-10.448
gan❃nb쎯	-10.4482
an❁cqw쎯ying❂qbp쎯	-10.4484
yi❁g쎯jiu❃vt쎯	-10.4484
she❄py쎯:	-10.4485
zhe❂rrk쎯	-10.4489
(ru❂vk쎯	-10.449
쎁쎉쎅쎉nian❂rh쎯	-10.4491
chan❃u쎯zhi❂wfhg쎯	-10.4492
guo❃js쎯shi❂pu쎯	-10.4499
jian❄wrh쎯xia❄gh쎯	-10.4499
e❂trng쎯	-10.4502
hou❄djb쎯,	-10.4503
jin❃jc쎯lin❂wycb쎯	-10.4504
fu❁fw쎯ren❂w쎯	-10.4504
lao❃ftx쎯ren❂w쎯	-10.4507
ce❄aps쎯yu❄iwyf쎯c	-10.4509
bi❃tt쎯hua❄gl쎯:	-10.451
zhu❃y쎯xi❂yam쎯.	-10.4511
shi❄rvyl쎯,	-10.4513
sui❄mqu쎯de❅r쎯	-10.4517
yan❂imk쎯hai❃itx쎯	-10.4518
chu❄yxl쎯	-10.4518
dian❄jn쎯xin❄wy쎯	-10.452
zhang❃ta쎯yu❂gf쎯	-10.452
pi❁rhc쎯	-10.4522
fang❁yy쎯fa❃if쎯,	-10.4528
lin❂ynjh쎯	-10.453
ben❄wsg쎯ji❁tkw쎯	-10.4538
,yuan❂dr쎯	-10.454
,zui❄jb쎯hou❄rg쎯	-10.4542
zzbd쎯wang❂ggg쎯	-10.4542
xu❃ytf쎯ke❃sk쎯	-10.4544
wu❄tl쎯fu❄gkl쎯	-10.4547
,ru❂vk쎯guo❃js쎯	-10.4548
cu❄wkh쎯	-10.4551
bi❄	-10.4553
lian❄xan쎯xi❂nu쎯	-10.4553
(yuan❂dr쎯	-10.4554
you❃e쎯suo❃rn쎯	-10.4558
zhou❁ytyh쎯ren❂w쎯	-10.4559
zhi❁efc쎯	-10.4565
a❁bs쎯la❁ru쎯	-10.4569
de❅f쎯dian❃hko쎯	-10.4574
jn쎯	-10.4575
쎁쎀ke❄dq쎯	-10.4575
xie❄ipgg쎯	-10.4576
jie❂fcln쎯	-10.4578
pi❄rhy쎯	-10.4578
,jian❃tuj쎯	-10.4581
chu❄th쎯fu❄gkl쎯	-10.4582
san❁dg쎯xing❁jtg쎯	-10.4582
ji❂lkb쎯《	-10.4588
kan❃fqw쎯	-10.4589
zhang❄mta쎯	-10.4592
.xian❄gm쎯you❃e쎯	-10.4593
wei❃wfn쎯da❄dd쎯	-10.4595
jiu❁pwv쎯	-10.4596
qi❃fhn쎯,	-10.4599
.yi❁g쎯ban❁tem쎯	-10.4603
,shi❄j쎯zhi❃rxj쎯	-10.4606
lai❂go쎯de❅r쎯	-10.4609
qi❁gv쎯zi❃bb쎯	-10.461
zuo❄wt쎯yong❄et쎯,	-10.4611
deng❃tffu쎯z	-10.4611
ze❂mj쎯shi❄j쎯	-10.4612
zzbd쎯qing❁gef쎯	-10.4612
.dang❁iv쎯	-10.4613
ji❄xn쎯lu❄vi쎯	-10.4614
tu❁pwd쎯ran❂qd쎯	-10.4617
.쎂쎀쎀쎆nian❂rh쎯	-10.4617
th쎯	-10.4621
an❁rnp쎯ji❁ad쎯	-10.4624
ban❁rte쎯	-10.4624
zuo❄wt쎯de❅r쎯	-10.4626
(,)	-10.4633
-쎉	-10.464
dao❄uthp쎯ban❄lw쎯	-10.4642
zha❁isjg쎯	-10.4643
zzzy쎯zzzy쎯ˊ	-10.4644
cuo❄qaj쎯wu❄ykg쎯	-10.4647
an❄epv쎯	-10.4648
bo❂fge쎯lan❃jtyq쎯	-10.4654
zao❄tfkp쎯le❅b쎯	-10.4665
wai❄qh쎯jiao❁uq쎯	-10.4669
zhi❁ap쎯ma❂yss쎯	-10.467
dian❄jn쎯lan❃xjt쎯	-10.467
jiao❁iat쎯	-10.4671
shi❁jgm쎯zi❁uqwm쎯	-10.4677
long❃bdx쎯	-10.4679
sou❁rvh쎯	-10.4681
bao❁aqn쎯	-10.4681
,shen❁ipw쎯	-10.4681
chu❁bm쎯chu❄th쎯	-10.4682
hen❂uve쎯	-10.4685
zzbd쎯san❁dg쎯	-10.4691
li❄dl쎯dai❄wa쎯	-10.4695
mao❄mhj쎯	-10.4696
xin❄wy쎯yu❄iwyf쎯	-10.4696
nan❂ll쎯xing❄ntg쎯	-10.4698
guo❁qkm쎯na❄mw쎯	-10.4698
kao❃ftg쎯gu❃dgh쎯	-10.4698
jia❄lkc쎯shi❃ckq쎯	-10.4699
qi❃fhn쎯yuan❂idr쎯	-10.4701
wei❁qdb쎯ji❁sm쎯	-10.4701
shai❁tjgh쎯	-10.4701
(쎁).	-10.4713
zzbd쎯si❄lh쎯	-10.4714
shan❁mmm쎯po❁fhc쎯	-10.4715
trs쎯sheng❁trtg쎯.	-10.4719
.ru❂vk쎯guo❃js쎯	-10.4721
“”	-10.4721
쎁쎀gan❄wh쎯	-10.4724
hou❂kwn쎯	-10.4732
zhi❁kw쎯neng❂ce쎯	-10.4733
hu❂qtr쎯	-10.4736
bi❄nku쎯	-10.4739
fen❁wv쎯zhi❁sfc쎯	-10.4745
de❅r쎯xi	-10.4747
,gao❁ym쎯	-10.4755
fa❁v쎯da❂dp쎯	-10.4755
쎀쎀쎀ping❂gu쎯	-10.4756
,cai❃es쎯yong❄et쎯	-10.4756
쎁쎉쎇쎄nian❂rh쎯	-10.4757
xian❄xg쎯,	-10.4766
zhi❁fc쎯dui❄bw쎯	-10.4767
cheng❂tkgg쎯z	-10.4767
.쎁쎁	-10.4768
ba❁wty쎯nian❂rh쎯	-10.4775
zui❄jb쎯di❁wqa쎯	-10.4777
kao❃ftg쎯bi❄han쎯	-10.4781
you❄yte쎯	-10.4788
cui❃is쎯	-10.479
dui❄bw쎯zhang❃ta쎯	-10.4797
yue❁xq쎯쎂	-10.4798
shi❄pgc쎯,	-10.48
yu❄qtyd쎯	-10.4801
han❃dgt쎯jia❁pe쎯	-10.4802
li❃jfd쎯mian❄dm쎯	-10.4808
nh쎯	-10.4808
jin❁mhk쎯	-10.4808
쎉쎀쎀쎁	-10.4809
qi❁ag쎯nian❂rh쎯	-10.4812
hun❂ijx쎯ni	-10.4815
hao❂kgn쎯,	-10.4817
ye❃jfc쎯sheng❁tg쎯	-10.4819
guan❁ud쎯de❅r쎯	-10.4825
dian❄jn쎯ci❂du쎯	-10.4826
,《	-10.4826
shu❃ntk쎯de❅r쎯	-10.4828
xiao❁	-10.4831
쎁쎀fen❁wv쎯	-10.4834
kun❄ls쎯nan❂cw쎯	-10.4834
zhang❄mht쎯	-10.484
❂tdij쎯guan❄xfm쎯	-10.4841
ben❄wsg쎯na❄mw쎯	-10.4848
a❁edjn쎯	-10.485
uq쎯	-10.4851
cong❂ww쎯er❂dmj쎯	-10.4851
yi❃c쎯qi❂adw쎯	-10.4852
geng❁gjq쎯shi❄j쎯	-10.4854
qi❄dhv쎯	-10.4855
dong❁ai쎯lin❂jty쎯	-10.4859
ao❄itm쎯men❂uyh쎯	-10.486
hen❃tve쎯gao❁ym쎯	-10.4863
쎁쎉쎅쎃nian❂rh쎯	-10.4874
zhan❃lr쎯	-10.4883
zuo❄wt쎯pin❃kkk쎯《	-10.4885
ye❄iyw쎯ya❁dfy쎯	-10.4888
쎄zzbd쎯	-10.4897
shi❁ijo쎯du❄ya쎯	-10.4898
cheng❂tkgg쎯ji	-10.49
shang❃h쎯ji❂xe쎯	-10.4903
yi❁g쎯ceng❂nfc쎯	-10.491
si❄lh쎯ji❄tb쎯	-10.491
pei❄sgn쎯you❃e쎯	-10.491
an❃r	-10.4911
쎁쎀쎀%	-10.4914
gong❁awnu쎯	-10.4917
#	-10.4918
(쎄	-10.4918
fd쎯	-10.492
zong❁khp쎯	-10.4921
ke❁tu쎯yuan❂km쎯	-10.4922
pai❂rdj쎯ming❂qk쎯	-10.4926
di❄uxh쎯zi❃bb쎯	-10.4927
di❄tx쎯쎃	-10.4931
bao❁wkso쎯	-10.4931
tan❂ysj쎯	-10.4932
dun❁kgb쎯	-10.4933
zhu❃y쎯li❄lt쎯	-10.4939
ta❁px쎯shi❄j쎯	-10.4946
li❄gkq쎯	-10.4949
wen❂yygy쎯ji❂wys쎯	-10.4953
qa	-10.4956
bo❅hhy쎯	-10.4956
,er❂dmj쎯shi❄j쎯	-10.4959
cheng❂big쎯	-10.4962
zhong❁k쎯nan❂fm쎯	-10.4967
yong❄et쎯zuo❄wt쎯	-10.4968
dai❄wa쎯ma❃dcg쎯	-10.4968
jian❁uj쎯de❅r쎯	-10.4968
ping❂gu쎯si❄ck쎯,	-10.497
yan❂fhl쎯zzbd쎯	-10.4971
xi❄ca쎯qu❁ma쎯	-10.4978
sun❃rkm쎯shi❁rw쎯	-10.4981
,sui❂bde쎯	-10.4982
xiao❄uqt쎯.	-10.4983
ren❄yw쎯ke❃sk쎯	-10.4991
ju❂nnk쎯bu❄uk쎯	-10.4993
di❄tx쎯jiu❃vt쎯	-10.4996
guo❂l쎯wang❂ggg쎯	-10.4996
jiang❄ar쎯	-10.5
suo❃rn쎯zhang❃ta쎯	-10.5001
zhu❄pyk쎯	-10.5002
han❄hka쎯dou❃ufk쎯	-10.5008
qian❁qmk쎯	-10.5012
쎂)	-10.5012
shen❄icd쎯	-10.5015
쎁쎆ri❄jjjj쎯	-10.5017
quan❂wg쎯ben❄wsg쎯	-10.5019
guo❂l쎯ji❄bf쎯ji	-10.502
cheng❂bd쎯bao❁qn쎯	-10.5022
han❄ojf쎯jie❁ruv쎯	-10.5022
zhi❁fc쎯fu❄wfy쎯	-10.5024
tong❁cep쎯zhi❁td쎯	-10.5026
zi❁uqwv쎯	-10.5026
쎁쎂ri❄jjjj쎯	-10.5028
wei❁tv쎯tuo❁rta쎯	-10.503
suo❃rn쎯zhi❄gcft쎯	-10.5036
lie❄gq쎯wei❄o쎯	-10.5038
ming❂je쎯que❄dqe쎯	-10.5041
(쎂	-10.5055
rong❂pww쎯ji❁tkw쎯	-10.5056
ang❃yyn쎯wen❄ukd쎯	-10.506
mei❃ugdu쎯,	-10.506
.쎁쎀	-10.5063
da❄dd쎯lou❂sov쎯	-10.5064
쎁쎉쎇쎇nian❂rh쎯	-10.5068
shai❄jsg쎯	-10.5068
qia❄nwgk쎯	-10.5073
,bi❄xxf쎯qiu❁og쎯	-10.5074
shi❄j쎯jing❁x쎯	-10.5074
.yi❃c쎯	-10.5076
hong❁oaw쎯	-10.5085
hong❂xa쎯wai❄qh쎯	-10.5086
wang❂ggg쎯guo❂l쎯	-10.5086
shu❁nnh쎯,	-10.5087
zhu❄iy쎯ru❄ty쎯	-10.5088
》huo❄aqt쎯	-10.5088
ke❃sk쎯xuan❃tfqp쎯	-10.5093
jie❂xf쎯jing❁jjj쎯	-10.5097
xia❄gh쎯lai❂go쎯	-10.5108
쎁쎉쎉쎉	-10.5108
,ni❃wq쎯	-10.511
yun❄axj쎯	-10.5112
쎅ke❄dq쎯	-10.5117
rong❂pww쎯qi❄kkd쎯	-10.512
,qian❂ue쎯	-10.5121
쎃nian❂rh쎯	-10.513
zhong❁qkhh쎯,	-10.5133
yi❄you쎯cheng❁tq쎯	-10.5135
qu❁caq쎯	-10.5138
yu쎯	-10.5138
yi❁g쎯pian❁thg쎯	-10.5146
hu❄yne쎯,	-10.5149
shu❄jcu쎯	-10.5151
yu❂gf쎯쎁쎈	-10.5152
cai❃es쎯ji❂wys쎯	-10.5155
zui❄jb쎯xiao❃ih쎯	-10.5158
bao❁bqn쎯zi❃bb쎯	-10.5159
zzbd쎯zhang❁xt쎯	-10.516
na쎯	-10.516
yi❁g쎯kuai❄fnw쎯	-10.516
guan❁cm쎯ce❄imj쎯	-10.5161
yong❄et쎯de❅f쎯	-10.5166
『	-10.5166
yu❄iwyf쎯wei❄o쎯	-10.5167
she❄py쎯hui❄wf쎯b	-10.5171
jj쎯	-10.5173
tan❁wynm쎯	-10.5174
쎈gong❁wc쎯li❃jfd쎯	-10.5178
xi❄txi쎯.	-10.5178
zhi❄rmhj쎯yao❄ax쎯	-10.5179
쎆zzbd쎯	-10.5182
shi❂pu쎯li❄wgq쎯	-10.5185
쎄.쎅	-10.5195
gen❁sve쎯ben❃sg쎯	-10.5195
zai❄d쎯yu❂gf쎯	-10.5199
yue❁xq쎯han❄fjw쎯	-10.52
cha❁uda쎯yi❂naj쎯	-10.5201
tong❂sgmk쎯	-10.5203
ji❄yf쎯liang❂jg쎯	-10.5205
,gai❃nty쎯	-10.5206
fa❁v쎯bing❄ugm쎯	-10.5208
쎁쎉쎇쎃nian❂rh쎯	-10.5209
dun❁ybt쎯	-10.521
qi❂yjj쎯quan❂wg쎯,	-10.5212
tai❄dyn쎯du❄ya쎯	-10.5213
fu❄bwf쎯jian❄wrh쎯	-10.5215
hua❁wx쎯dan❄dgtg쎯	-10.5215
lu❄kht쎯xian❄xg쎯	-10.5223
xie❃pgn쎯le❅b쎯	-10.5227
zhi❂bk쎯qiu❁og쎯ji	-10.5227
da❄dd쎯yue❁xq쎯	-10.5233
mei❄vfi쎯	-10.5239
ji❁em쎯fu❁efw쎯	-10.5239
쎂쎇ri❄jjjj쎯	-10.5239
lian❂lpk쎯zai❄fa쎯	-10.5241
guo❂l쎯hua❄gl쎯	-10.5242
shi❄j쎯dui❄cf쎯	-10.5244
:쎉	-10.5246
yu❄cbd쎯ce❄imj쎯	-10.5248
wa❁rpwn쎯	-10.5249
nian❂rh쎯,	-10.5252
bu❂i쎯zai❄gmf쎯	-10.5253
zzbd쎯jiang❁ugv쎯	-10.5254
fu❄etj쎯bu❄uk쎯	-10.5254
df쎯	-10.5254
쎉gan❄wh쎯	-10.5266
zhan❄iad쎯	-10.5272
zong❃ukn쎯zhi❁fc쎯	-10.5282
fa❁v쎯zhan❃nae쎯.	-10.5282
diao❁	-10.5284
ta❄rd쎯zhan❃nae쎯	-10.5286
gong❁waw쎯yi	-10.5292
xu❄ayx쎯	-10.5295
쎄gong❁wc쎯li❃jfd쎯	-10.5295
huo❂itd쎯zai❄d쎯	-10.5295
yan❁ol쎯si❄ck쎯	-10.5296
mei❄rqci쎯li❄lt쎯	-10.5297
shi❄gk쎯,	-10.53
yi❂xgo쎯zu❂ytt쎯	-10.5303
shi❁jgm쎯cong❂ww쎯	-10.5305
fu❄vv쎯ke❁tu쎯	-10.5308
xin❁usr쎯xing❄iw쎯	-10.5311
pu❃uo쎯ji❂ey쎯	-10.5311
jun❁qu쎯	-10.5313
wei❄o쎯ben❃sg쎯	-10.5315
zzsx쎯쎂	-10.5318
jing❁oge쎯xi❄xl쎯	-10.532
shi❄pym쎯jiao❃qe쎯	-10.532
liu❄uy쎯shi❂fgh쎯	-10.5321
fen❁wv쎯ju❂nnk쎯	-10.5323
ku	-10.5323
ze❃thfn쎯ma❅tc쎯	-10.5324
cun❁sf쎯peng❂yfd쎯	-10.5324
tf쎯	-10.5327
shan❁set쎯	-10.533
.zhe❄p쎯shi❄j쎯	-10.5331
hui❂lkd쎯zu❂ytt쎯	-10.5338
yan❁rvn쎯	-10.534
huo❂itd쎯de❅r쎯	-10.5341
xin❁ny쎯ling❂vo쎯	-10.5342
jin❃jc쎯mi❄pnt쎯	-10.5342
lu❃hl쎯	-10.5345
shui❃ii쎯fen❁wv쎯	-10.5352
.쎀쎁	-10.5354
yao❂atgq쎯	-10.5354
chu❁bm쎯se❄qc쎯	-10.536
jia❁lk쎯meng❂jel쎯	-10.5369
jia❄vpe쎯	-10.537
ying❃jyie쎯《	-10.5371
da❄dd쎯li❃gj쎯	-10.5373
jiang❄xk쎯hua❁wx쎯	-10.5376
jiao❁dwy쎯	-10.5378
yu❄xox쎯	-10.5379
fa❃if쎯zhi❄rmhj쎯	-10.5382
qing❂nge쎯bao❄rb쎯	-10.5385
mian❃xdmd쎯	-10.5387
shi❄toc쎯fang❄yt쎯	-10.5387
shou❃uth쎯jia❁pe쎯	-10.5388
zui❄jb쎯jin❄rp쎯	-10.539
ren❂w쎯qun❂vtk쎯	-10.5392
ni❁vnx쎯	-10.5393
geng❁gjq쎯wei❄o쎯	-10.5398
xuan❁pgj쎯bu❄dmh쎯	-10.5406
he❄pujn쎯	-10.5411
che❁lg쎯jian❁uj쎯	-10.5414
xiang❁sh쎯xin❄wy쎯	-10.5414
.guo❂l쎯tu❃ffff쎯	-10.5415
쎂쎃ri❄jjjj쎯	-10.5416
qie❁av쎯pian❁thg쎯	-10.5418
ji❂jaj쎯	-10.5425
쎁쎉쎆쎇nian❂rh쎯	-10.543
zhi❄ick쎯bu❄uk쎯	-10.5435
쎁쎉쎉쎇	-10.544
shi❂jf쎯hou❄whn쎯,	-10.5446
zhi❁kw쎯yao❁s쎯	-10.5447
fang❂by쎯hu❄ryn쎯	-10.545
ke❁	-10.5452
zuo❄wt쎯le❅b쎯	-10.5452
sheng❁tak쎯wei❄o쎯	-10.5452
si❄qnnk쎯	-10.5453
pai❂thgf쎯.	-10.5455
yi❁g쎯bai❃dj쎯	-10.5463
sui❂xev쎯	-10.5467
ou❁aqq쎯mei❃ugdu쎯	-10.5468
ke❄dq쎯,	-10.5468
fang❂yny쎯zzbd쎯	-10.5469
na❃kv쎯	-10.5469
de❅r쎯hao❃vb쎯	-10.547
,zhi❃rxj쎯	-10.5472
qiu❁rgb쎯	-10.5474
gong❁a쎯wei❁tv쎯	-10.5474
cheng❂dn쎯yu❃ygk쎯	-10.5476
ti❂rj쎯qu❃bc쎯	-10.5478
lai❂go쎯shuo❁yu쎯	-10.5479
hua❂wxf쎯bei❃ux쎯	-10.548
xi❄xl쎯jun❁alt쎯	-10.548
ji❂gmii쎯	-10.5483
xi❁najg쎯	-10.5486
ji❁ad쎯du❁hich쎯	-10.5487
쎅)	-10.5487
ta❄rd쎯	-10.5487
fu❂rnx쎯	-10.5487
fen❁wv쎯jiao❄suq쎯	-10.5492
bao❄oja쎯fa❁v쎯	-10.5493
dian❃hko쎯ji❁fmk쎯	-10.5493
mi❃oy쎯.	-10.5494
min❃uji쎯dong❁ai쎯	-10.5494
gong❄aw쎯fen❁wv쎯	-10.5496
yan❂god쎯jin❃yak쎯	-10.5497
tang❂oyvk쎯zzbd쎯	-10.55
zhong❁k쎯xin❁ny쎯.	-10.55
.ta❁px쎯shi❄j쎯	-10.5503
cheng❁tq쎯zhi❁pp쎯	-10.5507
cai❂mf쎯fu❄pgk쎯	-10.5507
쎁쎉쎉쎆	-10.551
zong❁sp쎯	-10.551
duo❁qq쎯shao❃it쎯	-10.5517
li❄uu쎯zu❂khu쎯	-10.5518
hua❂aj쎯fen❁wv쎯	-10.5522
qy쎯	-10.5523
de❂tj쎯ming❂qk쎯.	-10.5523
chen❄puf쎯	-10.5525
rong❂pww쎯na❄xmw쎯	-10.5525
ji❁sm쎯,	-10.5526
tun❁gdk쎯	-10.553
mou❃afs쎯yi❁g쎯	-10.5531
.쎃.	-10.5536
guang❁iq쎯qu❁caq쎯	-10.5545
hu❄gx쎯xiang❁sh쎯	-10.5549
liao❂	-10.5549
sui❄bue쎯	-10.5551
ren❂w쎯jian❁uj쎯	-10.5552
nong❂ipe쎯du❄ya쎯	-10.5552
hai❃itx쎯ba❂rdc쎯쎂	-10.5553
fu❄tjt쎯zhi❄rmhj쎯	-10.5553
“san❁dg쎯	-10.5556
hou❂qtw쎯	-10.5556
hui❁do쎯se❄qc쎯	-10.5557
bu❄uk쎯fen❁wv쎯.	-10.5557
mao❂tfn쎯ze❂icf쎯	-10.5558
duan❄wdm쎯,	-10.5558
er❄fg쎯ci❄uqw쎯	-10.5569
ji❁xgm쎯	-10.5571
yi❁wvt쎯si❁adwr쎯	-10.5576
ta❄khij쎯	-10.5576
ke❄dq쎯si❁adwr쎯	-10.5578
feng❁smq쎯	-10.5583
we	-10.5586
ling❂afwt쎯	-10.5597
쎂쎁ri❄jjjj쎯	-10.56
,quan❂wg쎯cun❁sf쎯	-10.5601
bi❄nk쎯mian❃qkq쎯	-10.5603
ey쎯	-10.5603
peng❂yfd쎯cun❁sf쎯	-10.561
yan❄fajv쎯	-10.5614
gan❁afd쎯cao❃ajj쎯	-10.5615
shui❃ii쎯dian❄jn쎯	-10.5615
bei❃ux쎯mei❃ugdu쎯	-10.5617
yan❂oo쎯zzbd쎯	-10.5617
na❄xmw쎯mi❃oy쎯	-10.5617
ong❃amyn쎯bu❄ndm쎯	-10.5618
쎂쎉ri❄jjjj쎯	-10.5625
jue❂adu쎯	-10.5625
guo❂l쎯wu❄tl쎯	-10.5628
ke❁tu쎯fu❄gkl쎯	-10.5629
,쎀쎀쎀	-10.5631
bao❁eqn쎯	-10.5634
la❁ru쎯ding❁sgh쎯	-10.5638
na❄mw쎯de❅r쎯	-10.5641
nong❂ipe쎯yu❄deb쎯	-10.5642
wen❁ijl쎯xin❁fnm쎯	-10.5648
rang❄yh쎯ren❂w쎯	-10.5649
xi❄txi쎯,	-10.565
jian❄vfhp쎯le❅b쎯	-10.5651
neng❂ce쎯li❄lt쎯.	-10.5651
du❃efg쎯	-10.5652
,can❁cd쎯jia❁lk쎯	-10.5654
gu❄ldd쎯ben❄wsg쎯	-10.5655
쎁쎉쎆쎁nian❂rh쎯	-10.5657
shi❁rw쎯bai❄mty쎯	-10.5659
xiao❁iie쎯xi❁thn쎯	-10.5664
jing❁oge쎯du❄ya쎯	-10.5664
쎃ke❄dq쎯	-10.5666
tu❃ffff쎯de❅f쎯g	-10.5667
tu❂ltu쎯shu❁nnh쎯>	-10.5671
jie❄lwj쎯mian❄dm쎯	-10.5672
chu❁bm쎯yan❃ipg쎯	-10.5673
.쎁zzbd쎯	-10.5674
fan❂odm쎯	-10.5675
wei❁qdb쎯hai❄pd쎯	-10.5677
mo❃rgs쎯	-10.5678
you❂iytb쎯ke❄pt쎯	-10.5681
ma❃dcg쎯tou❂udi쎯	-10.5689
chan❃u쎯yu❂gf쎯	-10.5689
zhu❁yft쎯duo❁qq쎯	-10.569
hou❄rg쎯qin❂akgl쎯	-10.5692
.zzts쎯	-10.5694
zhong❁k쎯yuan❂dr쎯	-10.5696
,xia❄gh쎯	-10.57
쎁쎉쎇쎁nian❂rh쎯	-10.5706
cun❁sf쎯.	-10.5707
pu❂auk쎯sa❄abu쎯	-10.5708
,bu❂i쎯duan❄on쎯	-10.5709
lei❄od쎯bie❂klj쎯:	-10.571
tie❃qr쎯dao❄uthp쎯	-10.571
쎉쎀%	-10.5716
suo❃rn쎯xu❁fdm쎯	-10.5717
qian❂lfon쎯	-10.5719
hou❄rg쎯zai❄d쎯	-10.5719
,zhi❁kw쎯	-10.5721
ting❃lsh쎯	-10.5722
peng❄duo쎯	-10.5723
tu❂iwt쎯liao❄ou쎯	-10.5723
su❄vij쎯	-10.5728
wf쎯	-10.5729
gao❁ym쎯yuan❂dr쎯	-10.5731
na❃vfb쎯ma❅tc쎯	-10.5735
li❂	-10.5735
a❄k	-10.5738
ji❂xe쎯bie❂klj쎯	-10.5739
zhang❃ta쎯;	-10.5744
shi❄ymhj쎯min❂n쎯	-10.5746
쎀mu❃ylf쎯,	-10.5753
si❄ck쎯bei❃ux쎯	-10.5753
zzbd쎯hong❂xa쎯	-10.5755
,chong❂tgj쎯	-10.5757
,쎁쎈	-10.5758
lu❄kht쎯zzbd쎯	-10.5762
ze❃thfn쎯yang❂su쎯	-10.5763
bao❄qgq쎯	-10.5764
yi❁g쎯lei❄od쎯	-10.5764
fang❂by쎯yu❄trh쎯	-10.5766
da❄dd쎯pi❁rx쎯	-10.5771
ai❃tdtv쎯	-10.5771
huo❄akgn쎯	-10.5777
xi❃fku쎯ju❄ndj쎯	-10.5777
shu❄scf쎯zhi❁ex쎯	-10.5779
,zhi❁fc쎯chi❂rf쎯	-10.5779
de❅f쎯shang❃h쎯	-10.5783
jia❁lk쎯yi❃c쎯	-10.5786
zhu❄iy쎯she❄tmdf쎯	-10.5792
,ta❁px쎯shi❄j쎯	-10.5793
wu❃gg쎯jin❁qqqq쎯	-10.5797
bei❃ux쎯song❄psu쎯	-10.5799
yu❂qnw쎯	-10.58
쎅쎁쎂	-10.58
lei❄od쎯bie❂klj쎯	-10.5804
jie❃qev쎯du❂gxgu쎯	-10.5807
in❃xh쎯qing❂aqkr쎯	-10.5807
qt	-10.5812
jiang❄xk쎯,	-10.5816
zhu❃y쎯dao❃nf쎯	-10.5817
ling❂	-10.5821
ji❁mt쎯nian❂rh쎯	-10.5822
쎂쎂ri❄jjjj쎯	-10.5822
zhi❃rxj쎯shi❄fi쎯	-10.5827
.you❂mh쎯	-10.583
hu❄yne쎯shu❄ovt쎯	-10.5831
chan❃u쎯de❅f쎯	-10.5832
(ji❂vcb쎯	-10.5834
yong❁yveh쎯	-10.5837
shou❃uth쎯fu❃ywf쎯	-10.5837
쎁쎉ri❄jjjj쎯	-10.5839
wqj쎯tou❂udi쎯	-10.584
ji❄xn쎯jian❃sw쎯	-10.5843
jie❁rjq쎯	-10.585
pi❁aqv쎯	-10.5851
zhi❂sfhg쎯wu❄tr쎯.	-10.5853
zhu❃y쎯dong❄fcl쎯	-10.5854
huo❂itd쎯zhong❁k쎯	-10.5858
fan❁mhm쎯	-10.5862
dai❄wa쎯xie❄ytm쎯	-10.5862
jiao❁awy쎯	-10.5864
bu❃puh쎯chong❁yc쎯	-10.5866
you❂img쎯,	-10.5866
chao❁vjsj쎯	-10.5867
ming❂qk쎯ci❂yngk쎯	-10.5873
ren❄yw쎯ding❄pg쎯	-10.5877
hua❁awx쎯ji❁adwe쎯	-10.5882
ka❁kpt쎯	-10.5887
gong❁wc쎯wu❄tl쎯	-10.5889
bi❃thc쎯	-10.589
쎂쎀쎁쎄nian❂rh쎯	-10.589
yin❂kwyn쎯	-10.5892
zhu❃y쎯ji❁sm쎯	-10.5892
jiang❃uqd쎯zzbd쎯	-10.5893
hun❁vq쎯yin❁vld쎯	-10.5893
xiao❃ih쎯chi❁ktn쎯	-10.5895
ze❂gmu쎯	-10.5896
xi❁esw쎯	-10.5896
.쎁	-10.5899
.쎂쎀쎀쎈nian❂rh쎯	-10.5901
dai❁tffy쎯ji❁sm쎯	-10.591
.쎅	-10.5912
ke❁tu쎯pu❃uo쎯	-10.5913
wu❄tr쎯ben❄wsg쎯	-10.5915
mi❄pnt쎯qie❁av쎯	-10.5917
xie❂fl쎯fu❄gkl쎯	-10.5918
meng❃bll쎯	-10.5921
shi❃wgkq쎯qi❂adw쎯	-10.5929
wan❃rpf쎯	-10.5933
gao❁ym쎯kao❃ftg쎯	-10.5936
pei❂fuk쎯yu❄yce쎯	-10.5937
쎃쎂쎀	-10.594
bao❃qnqn쎯	-10.594
gm쎯	-10.5941
qing❁ige쎯ji❂ifk쎯	-10.5948
qk쎯	-10.5952
ji❂se쎯da❄dd쎯	-10.5952
bai❂rrr쎯yun❂fcu쎯	-10.596
,sui❄uep쎯	-10.5961
fu❃ywfw쎯shi❂qnj쎯	-10.5962
wu❂sgk쎯	-10.5964
huo❂itd쎯li❄lt쎯	-10.5966
.쎂쎀쎀쎉nian❂rh쎯	-10.5968
ke❁tu쎯shi❄pgc쎯	-10.5969
de❅r쎯qian❂ue쎯	-10.5973
bei❃ux쎯wei❃xfnh쎯	-10.5974
ge❁pdhj쎯	-10.5977
hu❂xrc쎯	-10.5982
ji❁sm쎯xiang❁tsh쎯	-10.5983
bu❄fwn쎯	-10.5985
ha❁kwg쎯er❃qiu쎯	-10.5989
.zi❄thd쎯	-10.5991
쎈ri❄jjjj쎯	-10.5992
dun❄qgbn쎯	-10.5996
hou❄djb쎯du❄ya쎯	-10.5998
xue❂ip쎯shuo❄ddm쎯	-10.5998
,hou❄rg쎯lai❂go쎯	-10.6
ma❁vc쎯ma❁vc쎯	-10.6001
jing❄ujq쎯	-10.6002
nan❂cw쎯yi❃c쎯	-10.6003
....	-10.6006
shi❁ytb쎯hang❂tf쎯	-10.6009
yu❂qgf쎯lei❄od쎯	-10.6011
zhi❁pp쎯,	-10.6012
yu❂swgj쎯	-10.6015
wei❂fnhp쎯	-10.6015
쎁쎀쎀ke❄dq쎯	-10.6022
.쎀쎄	-10.6022
xi❄txi쎯shu❄ovt쎯	-10.6023
zhen❃spq쎯	-10.6026
guan❁cm쎯yin❁ujf쎯	-10.6032
yu❄yce쎯ting❁ds쎯	-10.6034
ian❄wgj쎯jie❂rgv쎯	-10.6035
nan❂fm쎯song❄psu쎯	-10.6039
(huo❄ak쎯	-10.6039
쎀.쎃	-10.6039
zuo❄wdt쎯fa❃if쎯	-10.604
쎃쎀yu❂wtu쎯	-10.6042
ren❂w쎯zai❄d쎯	-10.6046
wei❄o쎯:	-10.6047
qu❁aq쎯de❅r쎯	-10.6049
yu❃gn쎯ji	-10.6051
쎅쎀ke❄dq쎯	-10.6052
쎁zzsx쎯	-10.6054
yu❄agf쎯	-10.6055
qi❄dav쎯	-10.6061
shu❁saq쎯niu❃xnf쎯	-10.6061
zong❃ukn쎯ju❂nnk쎯	-10.6066
yi❁g쎯ke❁jsd쎯	-10.6067
chen❁ipm쎯ji❁tkw쎯	-10.6072
kui❂dfff쎯	-10.6074
쎆gong❁wc쎯li❃jfd쎯	-10.6075
chun❂iyb쎯	-10.6076
gao❁ym쎯da❂dp쎯	-10.6078
shi❄gk쎯ji❄yop쎯	-10.6078
.yong❄et쎯yu❂gf쎯	-10.6078
.쎂쎀쎁쎀nian❂rh쎯	-10.6078
yun❃cq쎯xu❃ytf쎯	-10.6079
쎂쎄ri❄jjjj쎯	-10.6082
mian❄dm쎯ji❁tkw쎯쎇	-10.6085
wu❁aww쎯	-10.6088
fei❃adjd쎯	-10.6088
wx쎯	-10.6089
xi❁wgnb쎯	-10.6089
tong❄uce쎯,	-10.6091
na❄mw쎯de❅f쎯	-10.6094
chuang❂mhu쎯	-10.6095
,gong❄aw쎯you❃e쎯	-10.6096
shi❂jf쎯ji❁adwe쎯,	-10.6096
ping❂aigh쎯	-10.6096
se❄qc쎯ze❂icf쎯	-10.6104
qi❄kkd쎯jian❄wrh쎯	-10.6104
fn쎯	-10.6105
shou❃rt쎯fa❃if쎯	-10.6107
gh쎯	-10.6109
da❄dd쎯jiang❃uqd쎯	-10.6109
re❄rvyo쎯ai❄ep쎯	-10.6113
dui❄cf쎯bi❃xx쎯	-10.6113
nan❂fm쎯hai❃itx쎯	-10.6114
zhi❂wfhg쎯de❂tj쎯	-10.6114
shu❃jft쎯	-10.6116
xie❄rhb쎯	-10.6118
jing❁x쎯》	-10.6121
min❂n쎯su❂wwwk쎯	-10.6126
er❃qiu쎯zzbd쎯	-10.613
쎁gong❁wc쎯li❃jfd쎯	-10.613
jin❁rtt쎯	-10.6134
zzsx쎯쎁	-10.6134
mian❄dm쎯shang❃h쎯	-10.6135
liang❂yv쎯de❅r쎯	-10.6137
shi❄gk쎯shi❂pu쎯	-10.6139
gei❃xw쎯yu❂cbj쎯	-10.6139
shi❄fghg쎯.	-10.6139
ji❃ryj쎯	-10.6142
nai❃etn쎯zhi❄gcf쎯	-10.6142
fen❁rnw쎯	-10.6147
,yin❁ld쎯er❂dmj쎯	-10.6148
쎆)	-10.6155
dong❁ai쎯lu❄kht쎯	-10.6155
gao❁ym쎯shan❁mmm쎯	-10.6157
she❄ymc쎯ji❄yf쎯,	-10.6158
na❄mw쎯she❄ymc쎯	-10.616
zhang❄dyi쎯	-10.616
tan❃fjg쎯ke❄dq쎯	-10.6161
.wei❄o쎯le❅b쎯	-10.6169
qi❃rnb쎯xi❁thn쎯	-10.6173
nian❂twik쎯	-10.6175
fu❄gkl쎯jiao❄suq쎯	-10.6175
.”tang❂yvh쎯	-10.6177
yu❂gf쎯shan❁mmm쎯	-10.6177
nd쎯	-10.6178
liang❂jg쎯:쎁	-10.6185
kn쎯	-10.6187
jia❁lk쎯su❄gkip쎯	-10.6187
qi❄kkd쎯cai❂sft쎯	-10.6187
ji❁sm쎯hui❄wf쎯	-10.6189
ge❃wgk쎯fa❃if쎯	-10.6192
ye❃bn쎯cheng❁tq쎯	-10.6193
ju❄ndj쎯qiu❂lft쎯	-10.6194
쎁쎉쎄쎅nian❂rh쎯	-10.6198
de❅r쎯liang❃gmww쎯	-10.62
le❄qi쎯qi❄kkd쎯	-10.6201
hi❁fc쎯cheng❁rip쎯	-10.6207
gong❁a쎯xue❂ip쎯	-10.6216
쎁쎁ri❄jjjj쎯	-10.6219
pin❂hid쎯lv❄yx쎯:	-10.6219
huang❃	-10.623
쎉-	-10.6231
liao❄ou쎯:	-10.6232
shuo❁yu쎯shi❄j쎯	-10.6234
zhi❁pp쎯zhong❁k쎯	-10.6237
run❄iugg쎯gu❃ime쎯	-10.6238
xi❁sghg쎯lu❄kht쎯	-10.624
mian❄dm쎯ji❁tkw쎯쎈	-10.624
si❄qnnk쎯liao❄ou쎯	-10.624
na❃vfb쎯gan❄wh쎯	-10.6242
dai❄wam쎯	-10.6247
yu❃ygk쎯:	-10.625
nan❂fm쎯lin❂wycb쎯	-10.625
de❅f쎯zhi❃fhg쎯:	-10.6252
jing❁x쎯xiao❁qie쎯	-10.6256
fh쎯	-10.6262
),fu❂pyg쎯jian	-10.6262
xiang❁sh쎯ji❁sm쎯	-10.6262
yi❁g쎯zhang❁xt쎯	-10.6269
fen❃ow쎯zzbd쎯	-10.6271
zhu❂tam쎯gong❁a쎯	-10.6271
ang❄ukq쎯xia❄gh쎯	-10.6272
she❄ymc쎯ding❄pg쎯	-10.6275
쎁.쎈	-10.6276
na❄mw쎯han❂ibi쎯	-10.6277
.ling❄kl쎯wai❄qh쎯	-10.6277
lv❃no쎯	-10.6278
fa❁v쎯song❄udp쎯	-10.6282
e❄q	-10.6283
xi❄bij쎯	-10.6285
da❄dd쎯ji	-10.6286
zhu❃y쎯xi❂yam쎯,	-10.6288
du❄ya쎯,	-10.6289
zhi❄	-10.6291
yi❁g쎯dui❄cf쎯	-10.6296
ben❄wsg쎯xi❄txi쎯r	-10.6296
zhun❃uwy쎯de❅r쎯	-10.6303
nian❂rh쎯(	-10.6304
zhen❃uwe쎯	-10.6304
bu❄fgey쎯	-10.6304
zhe❁yaop쎯	-10.6307
shuo❄ubte쎯	-10.6308
liao❂ubk쎯fa❃if쎯	-10.6308
xun❂	-10.6315
quan❄cl쎯	-10.632
hu❄yne쎯,you❃e쎯xi	-10.632
〉	-10.6321
쎁쎀쎈	-10.6323
쎁쎇ri❄jjjj쎯	-10.6324
zhi❁pp쎯cheng❁tq쎯	-10.6329
,쎁쎉쎈쎄nian❂rh쎯	-10.6334
hao❁rvk쎯pin❄bmg쎯	-10.6334
xu❄wtc쎯	-10.6337
de❅f쎯qu❁aq쎯.	-10.6339
cha❂sj쎯xun❂yqj쎯	-10.634
쎁쎉쎅쎁nian❂rh쎯	-10.6341
shi❂rwgk쎯	-10.6344
ji❁mt쎯shi❂fgh쎯	-10.6347
mi	-10.6351
dai❄wa쎯ti❄fwf쎯	-10.636
shun❄kd쎯li❄tjh쎯	-10.636
pai❂rdj쎯shui❃ii쎯	-10.6362
qiu❂gfi쎯yuan❂km쎯	-10.6363
shang❃h쎯wei❄wug쎯	-10.6366
kun❁fjhh쎯	-10.6367
zhu❂tam쎯wu❄tr쎯	-10.6369
da❄dd쎯chen❂ahn쎯	-10.6375
zao❄kkks쎯	-10.6376
쎁쎂쎀쎀	-10.6376
mo❄dnv쎯yu❂wtu쎯	-10.6376
xian❄fmud쎯.	-10.6382
yn쎯	-10.6383
mi❂yopy쎯	-10.6385
guan❁ud쎯xin❁ny쎯	-10.639
dd쎯	-10.6393
,nai❃etn쎯	-10.6394
gu쎯	-10.6394
chu❁bm쎯pin❃kkk쎯	-10.6394
ju❃tda쎯	-10.6394
,hu❂ide쎯nan❂fm쎯	-10.6394
lie❄gq쎯ru❄ty쎯	-10.6402
huan❂ggi쎯ji	-10.6405
dan❁ujfj쎯qu❁ma쎯	-10.641
쎁쎄ri❄jjjj쎯	-10.6416
.”ming❂je쎯	-10.6417
zhong❁k쎯guo❂l쎯ji	-10.6418
mo❄dnv쎯li❄dl쎯	-10.6418
ba❄lfc쎯	-10.6424
pao❁rvl쎯	-10.6425
bei❃ux쎯hai❃itx쎯	-10.6426
wan❁yox쎯qu❁ma쎯	-10.643
yi❃c쎯wai❄qh쎯	-10.6435
cai❂mf쎯chan❃u쎯	-10.6437
fan❃rcp쎯hui❂lkd쎯	-10.6444
.zzy쎯	-10.6451
lan❂iugi쎯	-10.6458
yu❂hak쎯	-10.6459
mei❂ftxu쎯	-10.6465
liang❂jg쎯쎁	-10.6467
,nan❂fm쎯	-10.6471
nin❂wqin쎯de❅r쎯	-10.6471
ping❂ygu쎯wei❄o쎯“	-10.6472
tong❂m쎯ming❂qk쎯	-10.6476
쎁쎉쎃쎄nian❂rh쎯	-10.648
xiang❁dsh쎯	-10.6482
쎁쎉쎉쎅	-10.6487
jiao❁uq쎯hui❄ian쎯	-10.6488
bao❁qn쎯guo❃yjse쎯	-10.649
liang❂jg쎯.	-10.649
yu❂iwgj쎯	-10.6493
zhu❃y쎯ying❂apk쎯	-10.6493
xiao❁iie쎯shi❁rw쎯	-10.6498
“zhong❁k쎯guo❂l쎯	-10.65
cun❁sf쎯ren❂w쎯	-10.6506
wu❄tr쎯.you❃e쎯	-10.651
zzzy쎯zzzy쎯zzbd쎯	-10.6511
die❁khr쎯	-10.6511
qiu❁og쎯ji❁xgm쎯	-10.6513
qi❃rnb쎯wen❁ijl쎯	-10.6514
,wei❄o쎯le❅b쎯	-10.6521
bo❁rtol쎯chu❁bm쎯	-10.6527
zzbd쎯shui❃ii쎯	-10.6529
shan❁gmm쎯hu❂gde쎯	-10.6529
쎅zzts쎯	-10.653
,zui❄jb쎯	-10.6531
xian❄gm쎯cun❂dhb쎯	-10.6534
yu❃gn쎯z	-10.6538
shuo❁yu쎯,	-10.6539
la❁ru쎯si❁adwr쎯	-10.6543
shu❄syp쎯:	-10.6543
wan❂opf쎯	-10.6543
fan❄ssm쎯	-10.6545
xiang❄qje쎯,	-10.6545
yan❃	-10.6559
de❂tfl쎯zzbd쎯	-10.656
ju❂scbk쎯	-10.6562
yi❄ujn쎯wai❄qh쎯	-10.6564
wang❂ggg쎯zi❃bb쎯	-10.6564
kong❃bnn쎯zi❃bb쎯	-10.6565
wei❄lge쎯	-10.6569
de❅r쎯shen❁tmd쎯	-10.6569
ng❂apk쎯xiao❁qie쎯	-10.6571
fen❁wv쎯jie❃qev쎯	-10.6574
jian❁vfh쎯	-10.6576
zuo❄wdt쎯dao❄gc쎯	-10.6577
chu❁bm쎯de❅r쎯	-10.6579
shun❄hep쎯	-10.6585
쎂쎀쎀쎂	-10.6587
ren❂w쎯qi❃rnb쎯	-10.6592
de❅f쎯dai❄gkp쎯	-10.6592
bei❃ux쎯bu❄uk쎯,	-10.6599
kong❁pw쎯zhong❁k쎯	-10.6601
zai❄d쎯jin❁wynb쎯	-10.6607
lu❄kht쎯,	-10.6609
feng❁umq쎯	-10.661
yan❄dmq쎯	-10.6613
,gu❄dty쎯ming❂qk쎯	-10.6613
wu❂fq쎯shu❄ovt쎯	-10.6615
.쎀쎆	-10.6618
ben❄wsg쎯zhong❁k쎯	-10.6619
qi❃fhn쎯dao❄gc쎯	-10.6621
hua❁wx쎯zhuang❁u	-10.6622
guan❃qnp쎯zzbd쎯	-10.6623
nan❂fm쎯xian❄egc쎯	-10.6624
zhong❁k쎯zui❄jb쎯	-10.6624
mh쎯	-10.6626
dan❄rno쎯	-10.6627
guo❂l쎯chan❃u쎯	-10.6628
,zheng❁ghd쎯	-10.6628
zhu❃y쎯ban❃src쎯	-10.6636
쎁쎉쎃쎃nian❂rh쎯	-10.6638
zzbd쎯liu❂yj쎯	-10.6639
mei❂gt쎯gui❁grq쎯	-10.664
shen❃pj쎯ding❄pg쎯	-10.6644
yi❄wn쎯yuan❂fqb쎯,	-10.6654
duo❃vs쎯jiao❁uq쎯	-10.6654
.wei❄wug쎯yu❂gf쎯	-10.6657
쎁xiang❄adm쎯	-10.6658
쎁쎅쎀쎀	-10.6659
de❅f쎯yu❄fakg쎯	-10.6665
kh쎯	-10.6668
miao❂alf쎯zu❂ytt쎯	-10.667
chu❄th쎯ji❂xe쎯	-10.6675
ji❁em쎯rou❄mww쎯	-10.6676
tu❃ffff쎯dou❄gku쎯	-10.6676
chu❁bm쎯xie❃tld쎯	-10.6677
dao❃qynm쎯yu❃mgn쎯	-10.6679
jiang❃uqd쎯;	-10.6679
pu❁why쎯	-10.668
duo❁qq쎯wei❄o쎯	-10.6683
zong❁sp쎯se❄qc쎯	-10.6683
fan❁aitl쎯	-10.6684
guan❁ud쎯xi❄txi쎯.	-10.6685
yin❁abe쎯	-10.6687
nan❂fm쎯lu❄kht쎯	-10.6687
wo❁	-10.669
,zhi❄gcf쎯	-10.6693
min❂n쎯bi❄tmh쎯	-10.6693
li❃pynn쎯pin❃kkk쎯	-10.6695
쎁쎂쎅	-10.6695
lk쎯	-10.67
,zuo❄wwf쎯la❄ait쎯	-10.6702
.xian❄gm쎯zai❄d쎯	-10.6706
du❄ya쎯de❅r쎯	-10.6707
you❃e쎯li❄lt쎯	-10.671
.쎂쎀쎀쎇nian❂rh쎯	-10.6711
bian❄yo쎯de❂tj쎯	-10.6717
han❂ibi쎯	-10.6719
nu❂vcy쎯	-10.6722
lun❄ywx쎯shu❄syp쎯	-10.6723
qi❃fhn쎯ren❂wtf쎯	-10.6724
쎃)	-10.6724
xiang❄qje쎯de❅r쎯	-10.6726
”cheng❁tq쎯	-10.6726
ju❄ndj쎯yuan❄bpf쎯	-10.6726
qing❁ige쎯xi❃itf쎯	-10.6727
zi❃bb쎯.	-10.673
qing❂jge쎯	-10.6732
qu❁ma쎯xian❄xg쎯	-10.6734
ao❄wgqt쎯	-10.6736
yu❄mwwk쎯	-10.6737
쎃.쎀	-10.6743
쎄쎀쎀쎀	-10.6744
ya❄lnn쎯	-10.6745
xie❂kf쎯bing❃sgm쎯	-10.6747
qie❁av쎯huan❄rq쎯	-10.6748
zhi❄fn쎯zzbd쎯	-10.6751
zong❃ukn쎯gong❁a쎯	-10.6752
ge❃wgk쎯zi❁uqwm쎯	-10.6759
zhao❄ynth쎯	-10.6768
tou❂udi쎯,	-10.6769
ju❂nnk쎯dang❃ipk쎯	-10.6771
ri❄jjjj쎯zh	-10.6773
zzpj쎯zzpj쎯	-10.6776
chou❂tonu쎯	-10.6777
quan❂wg쎯qu❁aq쎯	-10.6778
nan❂fm쎯bu❄uk쎯,	-10.678
,jie❁xxr쎯	-10.6791
hou❄rg쎯ren❂wtf쎯	-10.6792
fu❄gkl쎯xian❄egc쎯	-10.6793
dian❄jn쎯gong❁a쎯	-10.6793
,hu❂ide쎯bei❃ux쎯	-10.6796
mu❄ssss쎯cai❂sft쎯	-10.6802
쎁쎄쎀	-10.6803
hua❁awx쎯ban❄ur쎯	-10.6805
hong❁lcc쎯	-10.6806
chang❄kjj쎯de❅r쎯	-10.6808
qiu❂lft쎯wei❁tv쎯	-10.6815
쎁쎉쎉쎃	-10.682
쎁쎂gan❄wh쎯	-10.6828
nan❂fm쎯tong❁cep쎯	-10.683
ji❁sm쎯shen❁tmd쎯	-10.6836
쎅ri❄jjjj쎯	-10.6838
zzbd쎯sh	-10.6842
shu❁nnh쎯ji❄yn쎯;	-10.6842
shu❁nnh쎯》	-10.6843
쎀.쎈	-10.6843
zuo❄wdt쎯le❅b쎯	-10.6845
mei❃ugdu쎯nv❃vvv쎯	-10.6847
feng❁mq쎯shi❁ijo쎯	-10.6849
bai❃dj쎯yu❂wtu쎯	-10.6849
xi❁sghg쎯yang❂iu쎯	-10.6852
se❄ggn쎯	-10.6854
de❅r쎯mu❄hhhh쎯	-10.686
,fei❁djd쎯	-10.6861
bing❄ugm쎯zzbd쎯	-10.6863
yao❁s쎯su❄gxi쎯	-10.6867
zzbd쎯an❁yygt쎯	-10.6869
qu❁aq쎯z	-10.687
쎁쎃ri❄jjjj쎯	-10.6871
wu❄	-10.6876
cong❂ww쎯xiao❃ih쎯	-10.6877
yu❃nny쎯mao❂tfn쎯	-10.6877
can❂gqg쎯ji❂utd쎯	-10.6879
,ji❁ad쎯bu❄uk쎯	-10.688
ji❄pds쎯sheng❁tg쎯	-10.6885
wang❃mqq쎯shi❄j쎯	-10.6887
zzbd쎯hua❁awx쎯	-10.689
zou❁qvb쎯	-10.6891
쎇ri❄jjjj쎯	-10.6891
qiu❁og쎯hua❁wx쎯	-10.6892
xia❄gh쎯you❂iytb쎯	-10.6893
쎁쎉쎃쎈nian❂rh쎯	-10.6893
meng❂aje쎯	-10.6894
yi❃ct쎯	-10.6898
suo❁xpw쎯xie❃pgn쎯	-10.6898
zhi❄lfhf쎯,	-10.6901
niu❃rnf쎯	-10.6901
zuo❄yww쎯la❄ait쎯	-10.6904
huan❂ggi쎯jie❂ab쎯	-10.6904
ma❃cn쎯ke❄dq쎯si❁	-10.6905
(ying❁amd쎯	-10.6906
tu❂wtp쎯jing❄tca쎯	-10.6906
an❃snb쎯lan❃sjtq쎯	-10.6906
bei❃ux쎯lin❂wycb쎯	-10.6909
(쎁쎉쎂	-10.6911
bing❁ua쎯zai❄d쎯	-10.6912
bu❄uk쎯ji❂xe쎯	-10.6917
hao❃vb쎯,	-10.6917
de❅r쎯xing❂gae쎯	-10.692
bi❄nt쎯yao❁s쎯	-10.6927
qie❄	-10.6927
dui❄cf쎯ying❁yid쎯	-10.6931
,zuo❄wt쎯zhe❃ftj쎯	-10.6935
.쎂쎀쎁쎁nian❂rh쎯	-10.6938
wai❄qh쎯bu❄uk쎯	-10.694
.tong❂m쎯shi❂jf쎯	-10.6941
tong❃sce쎯	-10.6945
yao❂ger쎯	-10.6947
neng❂ce쎯li❄lt쎯,	-10.6947
ca❁rpwi쎯	-10.6948
jia❁lk쎯kuai❄nnw쎯	-10.6949
jun❄mcw쎯	-10.6949
shi❃kq쎯zzbd쎯	-10.695
jie❂xf쎯hun❁vq쎯	-10.6952
dui❄cf쎯cheng❁tq쎯	-10.6953
qi❂pyb쎯	-10.6957
le❄qi쎯qiu❂lft쎯	-10.6959
hai❃itx쎯guan❁ud쎯	-10.6962
kui❂awg쎯	-10.6963
ran❃ivs쎯se❄qc쎯	-10.6966
ji❄vcag쎯	-10.6968
shi❄j쎯ji❂wys쎯	-10.6968
ceng❂nfc쎯,	-10.697
wei❃xfnh쎯	-10.6972
쎂zzsx쎯	-10.6982
zhi❃khh쎯	-10.6986
gu	-10.6988
yan❂sqdy쎯	-10.6989
ding❃sdm쎯ji❂xe쎯	-10.6995
yi❁g쎯jie❄nm쎯	-10.6995
you❃e쎯ren❂w쎯	-10.6997
mk쎯	-10.6998
쎁,	-10.6998
zhu❃y쎯liu❂iyc쎯	-10.6999
.ci❃hx쎯wai❄qh쎯,	-10.7002
ju❄bct쎯ji❂wys쎯	-10.7002
gong❁at쎯du❂yfn쎯	-10.7008
yb쎯	-10.7009
fu❄tjt쎯dan❄jgf쎯	-10.7011
you❂mh쎯ci❃hx쎯	-10.7012
chang❃fnrt쎯de❅f쎯	-10.7024
jia❁pe쎯wan❂lfq쎯	-10.7024
쎁쎃쎀	-10.7025
bian❄uyt쎯lv❄yx쎯:	-10.7028
fan❂txgi쎯ce❄aps쎯	-10.7031
kao❃ftg쎯he❂synw쎯	-10.7037
cu❄ywwf쎯nian❂rh쎯	-10.7037
bai❂rrr쎯se❄qc쎯,	-10.7037
xie❄nied쎯	-10.7039
zao❄tfkp쎯de❅r쎯	-10.7042
shui❃ii쎯chan❃u쎯	-10.7045
》yi❁g쎯shu❁nnh쎯	-10.7047
qi❂qgfj쎯	-10.7048
shi❄ymhj쎯ren❂w쎯	-10.705
xi❁sghg쎯ge❁sks쎯	-10.7051
gong❁al쎯lv❄yx쎯:	-10.7053
peng❂efk쎯	-10.7053
zzbd쎯a❁bs쎯	-10.7056
hu❄yne쎯wai❄qh쎯	-10.7057
dian❁fhwm쎯	-10.7058
,쎂	-10.7059
guan❁pn쎯yuan❂km쎯	-10.7059
tian❁igd쎯	-10.7061
,gen❁sve쎯ju❁rnd쎯	-10.7063
ci❂yngk쎯hui❄ian쎯	-10.7067
zhao❄lhj쎯	-10.7067
liu❂iyc쎯shui❃ii쎯	-10.7068
de❅r쎯ying❁yid쎯	-10.7071
gong❁wc쎯si❁ngk쎯(	-10.7073
ln쎯zhu❃y쎯cha❁yq쎯	-10.7074
na❄mw쎯,	-10.7075
shu❄yao쎯	-10.7081
.쎅li❂djfd쎯mi❃oy쎯	-10.7085
),shi❄j쎯	-10.7088
huan❁fny쎯ji❂lkb쎯	-10.7091
mo❄dnv쎯ren❂w쎯	-10.7093
tiao❂ts쎯li❄wgq쎯	-10.7094
cheng❂bd쎯ban❄lw쎯	-10.7095
reng❂we쎯ran❂qd쎯	-10.71
쎅쎀쎀ke❄dq쎯	-10.7104
qi쎯	-10.7107
lin❂jty쎯shi❂jf쎯	-10.7109
zhi❄gcf쎯shang❃h쎯	-10.7112
fu❄vv쎯chan❃u쎯	-10.7114
yan❃rdjn쎯	-10.7114
bei❃ux쎯lu❄kht쎯	-10.7115
쎁.쎆	-10.7115
;쎁	-10.7115
bi❃	-10.7119
zheng❁qv쎯li❄lt쎯	-10.712
feng❁mq쎯yun❂fcu쎯	-10.7122
men❄uni쎯	-10.7122
gui❄khgm쎯zu❂ytt쎯	-10.7124
.쎂쎀쎁쎂nian❂rh쎯	-10.7124
yao❂rer쎯gun❃iuc쎯	-10.7131
wu❄tr쎯zi❁uqwm쎯	-10.7136
ling❂vo쎯hun❂fcr쎯	-10.7139
.쎂쎀쎀쎅nian❂rh쎯	-10.7141
xun❄nfp쎯	-10.7142
beng❁mee쎯	-10.7144
gao❁ym쎯qing❁ige쎯	-10.7146
.쎀쎅	-10.7147
쎁쎀쎅	-10.7147
mu❃ylf쎯;you❃e쎯	-10.7154
zhi❃xj쎯	-10.7155
bian❁afw쎯	-10.7158
zi❁bty쎯	-10.7161
jiang❁ia쎯hu❂ide쎯	-10.7161
niu❃xnf쎯	-10.7164
zuo❄wt쎯wu❄tr쎯.	-10.7165
han❄ic쎯zi❄pb쎯	-10.7168
-쎁쎂	-10.717
hei❁lfo쎯bai❂rrr쎯	-10.7173
rou❄mww쎯zhi❄rfm쎯	-10.7175
쎁쎉쎄쎈nian❂rh쎯	-10.7177
an❁rnp쎯	-10.718
mi❃oy쎯,ji	-10.7182
fang❂by쎯huo❃ooo쎯	-10.7183
af쎯	-10.7184
shi❃wgkq쎯de❂tj쎯	-10.7187
qq쎯	-10.7189
da❁rawk쎯pei❄sgn쎯	-10.7193
》ren❂w쎯wu❄tr쎯	-10.7193
md쎯	-10.7193
shou❂ybv쎯xi❁ton쎯	-10.7193
bang❄wup쎯	-10.7194
sui❄mqu쎯shi❂jf쎯	-10.7197
tou❂udi쎯bu❄uk쎯	-10.7197
de❅f쎯qu❁aq쎯,	-10.7199
zhen❁gw쎯zhu❁gr쎯	-10.7205
de❅r쎯qing❁gef쎯	-10.7206
sui❄mqu쎯,	-10.7209
yi❁wye쎯kao❄tfkd쎯	-10.7211
li❄tjh쎯run❄iugg쎯	-10.7211
de❅r쎯qing❂nge쎯ku	-10.7215
shan❁mmm쎯cun❁sf쎯	-10.7221
kuan❁pa쎯dai❄gkp쎯	-10.7222
jin❄ivp쎯pao❁iqn쎯	-10.7224
쎀*	-10.723
yuan❂dr쎯you❃e쎯	-10.7231
zhi❃xj쎯zai❄d쎯	-10.7233
쎁쎉쎉쎂	-10.7238
ying❄dgj쎯hua❁wx쎯	-10.7238
쎃쎀ke❄dq쎯	-10.7244
mo❁rajd쎯	-10.7246
shi❁ijo쎯de❅f쎯	-10.7247
lou❂sov쎯zzbd쎯	-10.7254
쎃쎆쎀	-10.7255
hui❄wf쎯zhan❃nae쎯	-10.7259
ang❄wqj쎯su❄gxi쎯	-10.7263
,xiao❃ih쎯	-10.7263
jing❁x쎯mao❄qyv쎯	-10.7263
tu	-10.7268
yu❄cbd쎯suan❄tha쎯	-10.727
ba❁wty쎯shi❂fgh쎯	-10.7272
da❄dd쎯de❅f쎯	-10.7272
le❄el쎯	-10.7273
ji❁cqy쎯jing❁oge쎯	-10.7276
쎃쎅쎀	-10.7278
fa❁v쎯jiao❄sgfb쎯	-10.728
,shi❄j쎯you❂mh쎯	-10.7283
huan❃lfn쎯yi❂tqq쎯	-10.7284
huo❄aqt쎯qu❃bc쎯	-10.7284
jie❁bwj쎯ji❂xe쎯	-10.7285
hai❃itx쎯shang❃h쎯	-10.7287
fang❁yy쎯shi❄aa쎯,	-10.7291
jg쎯	-10.7293
yi❄wn쎯yuan❂fqb쎯	-10.7293
de❅f쎯de❅r쎯	-10.7295
fa❁v쎯zhan❃nae쎯z	-10.7296
gai❃nty쎯ming❂qk쎯	-10.7297
han❄fjw쎯	-10.73
xu❄vj쎯	-10.73
li❄lt쎯de❅r쎯	-10.7301
gen❁sve쎯ju❁rnd쎯《	-10.7302
chou❂tmfk쎯	-10.7302
zhu❄mpg쎯	-10.7304
xia❄gh쎯jiang❄bt쎯	-10.731
.쎀쎂	-10.7312
men❂uyh쎯hu❄yne쎯	-10.7315
qing❂nge쎯jie❂ab쎯	-10.7322
nuo❄ofd쎯mi❃oy쎯	-10.7323
yan❁ghg쎯	-10.7324
ren❄fnhy쎯	-10.7324
xx쎯	-10.7325
shang❃h쎯bu❄uk쎯	-10.7327
zhuan❄txe쎯	-10.7329
zhui❄xcc쎯	-10.7331
zhi❄qo쎯	-10.7334
na❃vfb쎯li❃jfd쎯	-10.7338
an쎯	-10.734
ke❁tu쎯ke❁tu쎯	-10.734
hua❁wx쎯ji	-10.7342
li❄ddn쎯	-10.7343
xie❂yxxr쎯	-10.7344
yi❂tqq쎯min❂n쎯	-10.7345
.wo❃q쎯wu쎯	-10.7348
shi❂pu쎯shi❂jf쎯	-10.7348
yi❂wyq쎯shi❄aa쎯	-10.7351
fan❂sqqd쎯	-10.7351
ke❁tu쎯yan❂dga쎯xi	-10.7353
hi❄fn쎯yuan❄drin쎯	-10.7357
heng❁ybj쎯	-10.7359
xian❄xg쎯shang❃h쎯	-10.7369
bei❁uxe쎯mian❄dm쎯	-10.7374
chong❃pdx쎯	-10.7377
dui❄cf쎯shou❃rt쎯	-10.7378
ji❁ad쎯de❅f쎯.	-10.7379
쎁쎅ke❄dq쎯	-10.738
),zi❄pb쎯	-10.7383
nan❂fm쎯yang❂bj쎯	-10.7385
chang❃imkt쎯	-10.7388
zhuang❄udy쎯.	-10.7389
ge❁wgkg쎯	-10.7397
----	-10.74
zzbd쎯lv❃ytey쎯	-10.7402
ku❁kkdu쎯	-10.7402
lu❄ssyx쎯	-10.7403
qn쎯	-10.7404
wei❄o쎯mu❄hhhh쎯	-10.7406
pei❂buk쎯	-10.7413
nb쎯	-10.7413
zhang❄dyi쎯fu❁fw쎯	-10.7413
da❄dd쎯tong❂m쎯	-10.7417
jia❁pe쎯zhang❃ta쎯	-10.7418
wei❄bg쎯shi❄pym쎯	-10.7423
chu❄th쎯fang❁yy쎯	-10.7424
you❁xxm쎯mo❄lfod쎯	-10.7427
qu❃bc쎯chu❁bm쎯	-10.7428
fa❂uwa쎯men❂uyh쎯	-10.7429
wei❄wug쎯:	-10.743
v쎯pin❃kkk쎯	-10.743
chou❂sgyh쎯	-10.7431
que❁rmn쎯fa❂tpi쎯	-10.7434
qin❄in쎯	-10.7434
wei❂xwy쎯chi❂rf쎯	-10.7435
yi❃c쎯nan❂fm쎯	-10.7435
ji❄yjjh쎯zzbd쎯	-10.744
bei❁rtfj쎯	-10.7441
fan❃rc쎯dui❄cf쎯	-10.7442
쎁쎀쎂	-10.7443
zzbd쎯ma❃cn쎯	-10.7446
cong❂ww쎯qiu❁og쎯	-10.7448
rui❃ann쎯	-10.7449
ta❁vbn쎯wu쎯	-10.7452
dong❁ai쎯hai❃itx쎯	-10.7453
rong❂abf쎯	-10.7455
shi❄j쎯cong❂ww쎯	-10.7457
zhu❃y쎯zhang❁xt쎯	-10.7457
an❄h	-10.7458
.zuo❄wt쎯wei❄o쎯	-10.7462
zong❃ukn쎯li❃gj쎯	-10.7462
lao❁rap쎯chu❁bm쎯	-10.7462
,ji❁tkw쎯ji❂se쎯	-10.7464
can❃ncd쎯	-10.7465
huo❄pykw쎯	-10.7465
fang❂yny쎯chan❃u쎯	-10.7467
suo❃rn쎯zuo❄wt쎯	-10.7467
xuan❁	-10.7471
zai❁fas쎯	-10.7472
zai❁po쎯hai❄pd쎯	-10.7473
dong❁tuu쎯ji❄tb쎯	-10.7477
zhu❁gr쎯hai❃itx쎯	-10.748
bian❄wgj쎯,	-10.7483
shi❄symh쎯	-10.7484
yue❁xq쎯쎃	-10.7485
jiu❁xnh쎯cuo❄qaj쎯	-10.749
,dong❁ai쎯	-10.7491
zzbd쎯chen❂ba쎯	-10.7494
su❄yr쎯song❄ywc쎯	-10.75
lv❄xv쎯se❄qc쎯,	-10.75
er❂dmj쎯de❂tj쎯	-10.7502
;쎂zzbd쎯	-10.7509
ren❂w쎯xing❄ntg쎯	-10.7509
gao❄tfkf쎯su❄yr쎯	-10.7509
쎁쎉쎉쎀	-10.751
쎆ri❄jjjj쎯	-10.7511
zhi❂fh쎯li❄uu쎯	-10.7514
,zhe❄p쎯xie❁hxf쎯	-10.7518
mo❄dnv쎯dun❁kgb쎯	-10.7518
jing❃jy쎯de❂tfl쎯	-10.7521
lu❄kht쎯jiao❁uq쎯	-10.7521
qian❁tfk쎯mi❃oy쎯	-10.7522
쎂쎀쎀쎁	-10.7526
huan❄txe쎯ke❄ynt쎯	-10.7529
de❅r쎯fan❃rc쎯“	-10.753
쎁쎉쎉쎄	-10.7533
쎁쎉쎄쎆nian❂rh쎯	-10.7534
luo❃pujs쎯	-10.7535
쎁쎉쎃쎀nian❂rh쎯	-10.7535
ling❂gwy쎯	-10.7536
fa❂ly쎯	-10.7537
de❅r쎯gai❄svc쎯	-10.754
쎇gong❁wc쎯li❃jfd쎯	-10.7546
hu❂adef쎯hu❄aynr쎯	-10.7549
shu❁gqr쎯	-10.7551
yi❁g쎯xian❄xg쎯	-10.7553
zhe❄p쎯bu❄uk쎯	-10.7557
bao❄oja쎯zha❂oth쎯	-10.7559
bing❃ogm쎯	-10.7569
lu❄kht쎯yu❃gn쎯	-10.7569
de❅r쎯dian❄jn쎯	-10.7573
wei❄o쎯nin❂wqin쎯	-10.7573
fan❃rc쎯she❄tmdf쎯	-10.7576
bai❂rrr쎯cai❄ae쎯	-10.7577
yu❁uywu쎯	-10.7581
ping❂gu쎯mi❃oy쎯	-10.7581
:‘	-10.7581
yi❄	-10.7587
yu❄trh쎯shi❃kq쎯	-10.7589
jiu❃isgg쎯zzbd쎯	-10.759
wu❃gah쎯di❄up쎯	-10.7594
chu	-10.7595
gong❁wc쎯yin❂www쎯	-10.7597
hong❂xa쎯qi❂yta쎯	-10.7601
bin❁ihim쎯	-10.7602
de❂tj쎯yi❃c쎯	-10.7602
zu❃pye쎯guo❂l쎯	-10.7606
na	-10.7606
ji❄tb쎯jie❂ab쎯	-10.7607
ren❂w쎯wu❄tr쎯.	-10.7609
qian❁	-10.7609
li❃pynn쎯yi❂wyq쎯	-10.761
xi❁ajf쎯	-10.761
ting❁ish쎯	-10.7615
,zhou❁mfk쎯	-10.7616
tu❂nft쎯	-10.7617
qi❄kkd쎯de❅r쎯	-10.7621
pei❄sgn쎯fang❁yy쎯	-10.7623
suo❃rn쎯suo❃rn쎯	-10.7624
ji❂fk쎯ta❁wb쎯	-10.7624
he❂synw쎯tao❂siq쎯	-10.7625
wu❂fq쎯lun❄ywx쎯	-10.7625
jiong❃	-10.7629
shuo❁yu쎯fa❃if쎯	-10.763
gong❁al쎯de❅r쎯	-10.7631
:쎅	-10.7634
zi❁iux쎯	-10.7634
jiao❄lu쎯xiao❃ih쎯	-10.7639
쎃ri❄jjjj쎯	-10.7644
bao❃wk쎯ding❄pg쎯	-10.7651
쎇.쎅	-10.7655
.”(쎂).	-10.7656
xin❁quh쎯	-10.7658
yi❁g쎯tian❁gd쎯	-10.7662
yi❃sds쎯	-10.7663
ke❁tu쎯yuan❄bpf쎯	-10.7664
bian❄ynm쎯bu❄dmh쎯	-10.7664
,mei❃ugdu쎯guo❂l쎯	-10.7667
yi❁g쎯chu❄th쎯	-10.7672
hui❄wf쎯suo❃rn쎯	-10.7673
e❁ruv쎯rang❃fyk쎯,	-10.7675
ren❂w쎯wu❄tr쎯,	-10.7679
yan❁kld쎯	-10.7683
qiu❁og쎯yu❂wtu쎯	-10.7688
e❄wwj쎯zhi❂wfhg쎯.	-10.769
hao❂kgn쎯xian❄xg쎯	-10.7691
hua❄gl쎯yuan❄bpf쎯	-10.7691
fen❃ow쎯mo❄gs쎯	-10.7692
zhe❄p쎯shou❃uth쎯	-10.7692
kou❃kkkk쎯fu❂eb쎯	-10.7692
an❄wvf쎯shen❁tmd쎯	-10.7693
mian❂hna쎯	-10.7697
jing❁x쎯ji❄xn쎯	-10.7699
쎉ri❄jjjj쎯	-10.7699
fang❂by쎯shui❃ii쎯	-10.7701
fu❂twf쎯hao❂kgn쎯	-10.7702
pian❄cyna쎯	-10.7703
shang❁um쎯hui❄wf쎯	-10.7707
()de❅r쎯	-10.7708
guan❄nxf쎯	-10.7713
e❂ptkm쎯ding❄pg쎯	-10.7713
,sheng❁tg쎯yu❂gf쎯	-10.7717
bao❁bqn쎯	-10.7719
shu❄ovt쎯bai❃dj쎯	-10.7721
(bao❁qn쎯gua❁rtd쎯	-10.7721
《xin❁usr쎯	-10.7722
bao❃wk쎯wei❄bg쎯	-10.7723
yu❃gn쎯gong❁a쎯	-10.7728
쎀쎀쎀	-10.7728
yan❄ddi쎯	-10.7728
pu❃igey쎯dong❁ai쎯	-10.7732
jiang❃uqd쎯”	-10.7732
dang❁iv쎯yu❂gf쎯	-10.7734
jin❄fj쎯gong❁at쎯	-10.7739
ben❃dlf쎯dou❃ufk쎯	-10.7742
dao❃nf쎯de❅r쎯	-10.7742
bao❃pgy쎯bao❃pgy쎯	-10.7742
she❄py쎯ke❁tu쎯	-10.7744
huan❂sgjg쎯	-10.7746
ri❄jjjj쎯jun❁pl쎯	-10.7746
le❅b쎯《	-10.7747
.zhe❄p쎯xie❁hxf쎯	-10.7752
,zuo❄wt쎯wei❄o쎯	-10.7756
ta❁wb쎯ren❂w쎯	-10.7759
yang❂bj쎯qu❁aq쎯	-10.7761
shui❃ii쎯mian❄dm쎯	-10.7761
xia❄dht쎯ji❄tb쎯	-10.7763
dou❄pwfd쎯	-10.7764
shou❃rt쎯ce❄mm쎯	-10.7772
pin❃kkk쎯.	-10.7772
chui❂qtgf쎯	-10.7773
gui❁	-10.7775
ri❄jjjj쎯yu❃ygk쎯	-10.7775
se❄ivy쎯	-10.7776
)(	-10.7776
er❄fg쎯ren❂w쎯	-10.7782
shi❃tdu쎯	-10.7783
jing❁x쎯yan❄cwg쎯.	-10.7788
xiang❃ktm쎯.	-10.7788
dao❃nf쎯hang❂tey쎯	-10.7789
diao❄ymf쎯ru❄ty쎯	-10.779
tong❂	-10.7792
xia❄gh쎯bu❄uk쎯	-10.7793
yi❁g쎯mian❄dm쎯	-10.7793
liang❄ypm쎯du❄ya쎯	-10.7794
.yin❁ld쎯wei❄o쎯	-10.7795
bu❄uk쎯jian❄wrh쎯	-10.7795
,you❃e쎯shi❂jf쎯	-10.7798
.gen❁sve쎯ju❁rnd쎯	-10.7802
gua❁tdjh쎯	-10.7803
쎁쎉쎃쎇nian❂rh쎯	-10.7809
de❅f쎯xing❂gae쎯	-10.7812
nian❂rh쎯ji❂xe쎯	-10.7814
dui❄bw쎯dui❄bw쎯	-10.7814
zzbd쎯wang❃mqq쎯	-10.7817
.쎂쎀쎀쎄nian❂rh쎯	-10.7819
dong❁ai쎯han❄ic쎯	-10.782
xue❂ip쎯bao❄rb쎯	-10.7821
.zhi❃rxj쎯	-10.7821
na❄qmw쎯	-10.7823
yun❄ebf쎯	-10.7823
lei❃	-10.7829
.쎄zzbd쎯	-10.7831
xie❃pgn쎯zi❄pb쎯	-10.7833
jian❁ga쎯qi❃ynk쎯	-10.7834
tan❄rpws쎯ce❄imj쎯	-10.7835
mo❄iaj쎯	-10.7836
mei❃qug쎯	-10.7838
mei❃txg쎯ci❄uqw쎯	-10.784
biao❁	-10.784
bi❃tt쎯ming❂qk쎯	-10.784
shang❃h쎯shu❄syp쎯	-10.7842
bo❁ihc쎯lan❂uff쎯	-10.7844
mian❄dm쎯lin❂jty쎯	-10.7846
yi❃wds쎯	-10.7847
lin❂jty쎯yi❂irh쎯	-10.785
hai❃itx쎯xia❂mgu쎯	-10.7855
xi❁sghg쎯han❄ic쎯	-10.7855
gu❄dty쎯gong❁pk쎯	-10.7856
shi❂fgh쎯ji❁mt쎯	-10.786
jiao❃xry쎯	-10.7862
ni❂nx쎯si❁adwr쎯	-10.7863
,kuo❄tdp쎯ge❃wgk쎯	-10.7865
qian❂ue쎯yan❂imk쎯	-10.7866
bu❄uk쎯shou❃uth쎯:	-10.7867
shu❁ihic쎯	-10.7868
da❄dd쎯duo❁qq쎯	-10.7871
que❄dqe쎯de❅r쎯	-10.7871
he❂isk쎯kou❃kkkk쎯	-10.7872
zhi❁pp쎯jian❁uj쎯,	-10.7873
niu❂rhk쎯nai❃ve쎯	-10.7875
dian❄usgd쎯	-10.7875
gan❁sfh쎯jun❁alt쎯	-10.7875
wan❂gfq쎯ju❄hw쎯	-10.7876
chong❃pdx쎯wu❄tr쎯	-10.7879
lg쎯	-10.7888
fen❁wv쎯san❃aet쎯	-10.7888
jun❄ucw쎯gong❁a쎯	-10.7889
jiao❄lu쎯duo❁qq쎯	-10.7891
zi❃hxx쎯se❄qc쎯	-10.7893
pian❁thg쎯.	-10.7894
ao❄nii쎯bing❄ugm쎯	-10.7894
tang❂oyvk쎯ni	-10.7895
gua❃pde쎯	-10.7896
mian❄dm쎯ban❃src쎯	-10.7896
ba❃rcn쎯wo❄rng쎯	-10.7898
tuo❂	-10.79
쎈쎀쎂.쎁	-10.7901
,yu❂gf쎯shi❄j쎯	-10.7902
kou❄pfqc쎯	-10.7902
si❄lh쎯zhou❁mfk쎯	-10.7902
쎂hao❂kgn쎯	-10.7903
ying❄dgj쎯pan❂te	-10.7906
,cheng❂kg쎯	-10.7913
wa❁iffg쎯	-10.7914
ru❄ty쎯kou❃kkkk쎯	-10.7919
wei❂fgf쎯	-10.7921
yong❄et쎯shui❃ii쎯	-10.7928
kuan❁pa쎯du❄ya쎯	-10.7931
쎄쎈쎀	-10.7931
hui❂lkd쎯guo❂l쎯	-10.7933
wei❄o쎯qi❂adw쎯	-10.7936
쎁쎉쎄쎇nian❂rh쎯	-10.7937
ba❁	-10.7941
tong❄uce쎯zzbd쎯	-10.7944
kuai❄fnw쎯,	-10.7946
yan❃ipg쎯bian❄yo쎯	-10.7947
geng❁yvw쎯	-10.7948
ji❄rfc쎯fa❃if쎯	-10.7948
xiao❃ih쎯jie❃veg쎯	-10.7951
u❄v	-10.7952
yan❂dga쎯tao❃yfy쎯	-10.7953
tang❂ipks쎯	-10.7953
guan❁ud쎯bi❄uft쎯	-10.7953
shi❄j쎯z	-10.7958
ge❄tk쎯zi❄thd쎯	-10.7959
mang❂ynh쎯	-10.7959
zhi❄ick쎯zzbd쎯	-10.7962
an❄qvfp쎯pan❂tel쎯	-10.7963
ken❃vef쎯	-10.7965
,xiang❁tjf쎯	-10.7967
yin❄qgb쎯fa❁v쎯	-10.7971
a❁kb쎯	-10.7972
qin❂arj쎯	-10.7978
쎁쎉쎂쎉nian❂rh쎯	-10.7979
쎁ren❂w쎯,	-10.798
ye❃bn쎯hui❄wf쎯	-10.7982
yin❃xh쎯ru❄ty쎯	-10.7984
zzbd쎯nan❂fm쎯	-10.7984
chan❃u쎯wu❄tr쎯	-10.7986
xiang❄adm쎯.	-10.7987
fa❁v쎯jue❂rnbm쎯	-10.7988
–	-10.7996
na❄mw쎯xin❁ny쎯	-10.7996
shi❂qnj쎯	-10.7997
zhi❃rxj쎯de❅r쎯	-10.7998
you❃e쎯xian❄xg쎯	-10.7999
zhang❃ix쎯	-10.7999
zhi❁fc쎯liu❂iyc쎯	-10.8
(쎃	-10.8001
,bu❂i쎯fu❄wcy쎯	-10.8004
lv	-10.8004
yi❂xtdh쎯nan❂cw쎯	-10.8007
jiu❄yi쎯neng❂ce쎯	-10.8011
rong❂apw쎯	-10.8013
di❁wqa쎯wen❁ijl쎯	-10.8016
ting❂wyp쎯zhi❃hh쎯	-10.8018
fen❁wv쎯lie❄gqje쎯	-10.8018
yu❄iwyf쎯wei❄o쎯“	-10.8018
de❅r쎯shou❃uth쎯	-10.8019
shou❄epc쎯hu	-10.8022
wan❃pq쎯	-10.8022
jia❁pe쎯yong❄et쎯	-10.803
쎁liang❃gmww쎯	-10.8035
chuan❃kmd쎯	-10.8037
ay쎯	-10.8037
deng❃tffu쎯)	-10.8039
쎁.쎄	-10.804
ke❄pt쎯guan❁cm쎯	-10.804
fu❄gkl쎯jiao	-10.804
mi❄int쎯niao❄nii쎯	-10.8043
dx쎯	-10.8043
,쎃	-10.8044
yi❁g쎯fen❄wwv쎯	-10.8044
zhi❂fh쎯dao❄gc쎯	-10.8045
dui❄bw쎯yuan❂km쎯	-10.8045
zai❄d쎯na❄mw쎯	-10.8049
bai❃dj쎯huo❄wxm쎯	-10.8056
ai❄wam쎯kuan❃ffi쎯	-10.8056
fu❂pyg쎯li❄tjh쎯	-10.8056
yi❁g쎯zhong❁k쎯	-10.806
xi❄xl쎯ni❄eaf쎯	-10.806
ping❂gu쎯an❁pv쎯	-10.8062
sai❁pfjf쎯er❃qiu쎯	-10.8065
o❁ftbt쎯shou❄rep쎯	-10.8066
qi❁ag쎯shi❂fgh쎯	-10.8066
you❁wdn쎯yi❂naj쎯	-10.807
xue❂ip쎯lou❂sov쎯	-10.807
you❃e쎯le❅b쎯	-10.8071
wa	-10.8072
ren❂w쎯xin❁ny쎯	-10.8072
yin❃qnq쎯yong❄et쎯	-10.8073
jiu❄yi쎯zai❄d쎯	-10.8075
xian❃jo쎯ka❃hhu쎯x	-10.8075
jiao❁vtdj쎯	-10.8077
ban❄lw쎯fa❃if쎯》	-10.8079
kg쎯	-10.8081
jiu❄yi쎯you❃e쎯	-10.8081
chi❁utdk쎯	-10.8082
쎁쎀/쎁쎀쎀	-10.8082
da❂rs쎯ji❁fmk쎯	-10.8084
fu❄gkl쎯jia	-10.8086
djd쎯	-10.8088
zhan❁hk쎯you❃e쎯	-10.809
yin❃xh쎯fa❁v쎯	-10.8097
qi❄tnp쎯jin❁wynb쎯	-10.8105
ei❄od쎯xing❂gajf쎯	-10.8106
쎂.쎄	-10.8111
qi❂mds쎯	-10.8111
you❄ccc쎯jiao❄kn쎯	-10.8115
ren❂w쎯dou❁ftjb쎯	-10.8118
yi❂irh쎯	-10.8123
lj쎯	-10.8125
tfk쎯	-10.813
lv❃ntt쎯	-10.8132
ei❂ixw쎯fang❁fyn쎯	-10.8133
zheng❁ghd쎯shi❄j쎯	-10.8136
shi❄pym쎯ye❃jfc쎯	-10.8136
zhou❄qvhc쎯	-10.8138
jia❃lhnh쎯ji❁ad쎯	-10.8139
,fen❁wv쎯bu❄dmh쎯	-10.814
dang❁iv쎯zhong❁k쎯	-10.8142
nu❃vcl쎯	-10.8143
wei❄o쎯ren❂w쎯	-10.8145
yin❃qnq쎯liao❄ou쎯	-10.815
zuan❃thdi쎯	-10.8151
ov쎯	-10.8153
te❄trf쎯chan❃u쎯	-10.8153
wen❂yygy쎯:	-10.8153
zi❃bb쎯gong❁pk쎯	-10.8154
,fu❄qm쎯ze❂gmu쎯	-10.8155
ti❂rj쎯shi❄fi쎯	-10.8158
fou❃gik쎯	-10.8158
jiao❃xuq쎯	-10.8158
qi❁adww쎯	-10.8158
zong❃ukn쎯shi❄j쎯	-10.8159
pian❁thg쎯zzbd쎯	-10.816
ding❄pg쎯le❅b쎯	-10.8162
fen❁wv쎯bian❄uyt쎯	-10.8165
,me❅im쎯you❃e쎯	-10.8166
hen❃tve쎯shao❃it쎯	-10.8167
ming❂je쎯zzbd쎯	-10.8167
gq쎯	-10.817
hb쎯	-10.8171
she❄tmdf쎯ji❁fmk쎯	-10.8173
쎁쎉쎈쎄	-10.8173
wei❂lfnh쎯:	-10.8178
ji❂vcb쎯shi❃wgkq쎯	-10.8179
xi❄xl쎯jie❂ab쎯	-10.818
de❅f쎯duan❄wdm쎯	-10.818
ren❂w쎯kou❃kkkk쎯쎄	-10.8183
lv❃ytey쎯ke❄pt쎯	-10.8183
.쎂쎀쎁쎃nian❂rh쎯	-10.8184
jiu❃vt쎯long❂dx쎯	-10.8184
ge❁sksw쎯wu❃rlg쎯	-10.8184
jiu❁xnh쎯	-10.8186
mao❂cbt쎯dun❄rfh쎯	-10.8186
guan❁ud쎯xi❄txi쎯,	-10.8186
ai❁fct쎯ji❂ey쎯	-10.8187
ke❃sk쎯yong❄et쎯	-10.8187
bai❃dj쎯mo❄dnv쎯	-10.8189
fu❃lgey쎯liao❄ou쎯	-10.819
,ye❃bn쎯you❃e쎯	-10.8197
you❃e쎯qu❄fhb쎯	-10.8199
쎂쎀duo❁qq쎯	-10.8199
zhi❁pp쎯lu❄kht쎯	-10.8199
kuo❄tdp쎯dang❁iv쎯	-10.8199
che❄tavn쎯de❅yqa쎯	-10.82
di❄tx쎯쎄	-10.82
zhu❃y쎯jiang❃yfj쎯	-10.8201
biao❃ge쎯ming❂je쎯	-10.8202
qi❄kkd쎯guan❁pn쎯	-10.8203
de❅r쎯qing❄fnr쎯	-10.8203
zhi❁td쎯xian❄egc쎯	-10.8205
te❄trf쎯pin❄bmg쎯	-10.8209
kc쎯	-10.821
쎁쎉쎈쎈	-10.821
jie❄lwj쎯de❅r쎯	-10.821
ting❁ds쎯zzbd쎯	-10.8211
yi❃nnl쎯xi❁oqd쎯	-10.8213
yi❃c쎯ci❃hx쎯	-10.8214
xia❄gh쎯mian❄dm쎯	-10.8215
ping❂gu쎯hang❂tf쎯	-10.8218
:)shi❄j쎯	-10.822
i❁gig	-10.8221
《han❄ic쎯shu❁nnh쎯	-10.8221
xie❁jqw쎯	-10.8223
qiu❁og쎯jie❄lwj쎯	-10.8224
yi❁g쎯qun❂vtk쎯	-10.8225
bing❁nua쎯mu❄ajd	-10.8226
yp쎯	-10.8226
쎁ci❄uqw쎯	-10.8228
de❅f쎯.	-10.8228
kao❃oft쎯yan❁ol쎯	-10.8231
mo❂saj쎯shi❄aa쎯,	-10.8231
wan❂lfq쎯na❄mw쎯	-10.8234
tong❂m쎯lei❄od쎯	-10.8242
shao❂ujv쎯	-10.8245
i❄wn	-10.8247
tq쎯	-10.8252
lian❂pwm쎯	-10.8257
wu❃gg쎯dai❄wa쎯	-10.8258
jie❃veg쎯	-10.826
fan❃rc쎯fu❄tjt쎯	-10.826
wei❃	-10.8261
bao❄ija쎯bu❄dmh쎯	-10.8262
dian❃maw쎯》	-10.8263
xiang❁xte쎯,	-10.8264
hui❄ian쎯ji❂wys쎯	-10.8269
han❂wynk쎯cha❁yq쎯	-10.8269
fu❂gip쎯yuan❂dr쎯	-10.827
hong❂xa쎯he❂isk쎯	-10.8273
ji❂wys쎯ge❃wgk쎯	-10.8274
mu❃ylf쎯.	-10.8276
zhi❂gqf쎯qiu❁og쎯	-10.8277
쎂ci❄uqw쎯	-10.8277
tong❂m쎯shi❂jf쎯,	-10.8277
shou❁nh쎯yi❄uwl쎯	-10.828
-)	-10.8281
.mei❃txg쎯	-10.8282
duo❁qq쎯ceng❂nfc쎯	-10.8291
,shan❄ryl쎯	-10.8291
qi❂adw쎯jian❁uj쎯	-10.8296
yw쎯	-10.8299
yu❄iwyf쎯.	-10.8305
you❃dc쎯hao❃vb쎯	-10.8307
dong❄fcl쎯han❄t쎯	-10.8309
hui❁	-10.8312
ji❄yn쎯zzbd쎯	-10.8313
lao❂prh쎯	-10.8315
lai❂go쎯shuo❁yu쎯,	-10.8317
yao❁s쎯qiu❂fiy쎯,	-10.8318
fu❁efw쎯	-10.8319
rang❄yh쎯ni❃wq쎯	-10.8319
hai❃itx쎯shui❃ii쎯	-10.8324
you❄wdk쎯	-10.8325
ding❁qs쎯	-10.8326
yi	-10.8328
zhang❃ta쎯da❂dp쎯	-10.8328
.xia❂lpdk쎯	-10.8329
huai❂iwy쎯nan❂fm쎯	-10.8334
쎈hao❂kgn쎯	-10.8334
tao❂iqr쎯	-10.8337
ben❃sg쎯tu❃ffff쎯	-10.8337
you❄ccc쎯you❃e쎯	-10.8341
zzsx쎯쎄	-10.8341
wo❁ikm쎯	-10.8342
de❅f쎯ceng❂nfc쎯	-10.8342
zzbd쎯hu❂de쎯	-10.8346
song❄yceh쎯	-10.8349
cong❂ww쎯ci❃hx쎯	-10.835
,huo❄aqt쎯de❂tj쎯	-10.8353
zhi❄ick쎯an❁pv쎯	-10.8356
mao❂tfn쎯,	-10.8358
ai❄ep쎯de❅r쎯	-10.8359
jie❄awj쎯	-10.8362
fa❃if쎯》	-10.8362
bo❂rgef쎯	-10.8369
shu❂sy쎯yu❃ygk쎯	-10.8369
ww쎯	-10.8369
guo❁qkm쎯lu❂oyn쎯	-10.8373
qie❄pwav쎯	-10.8374
bao❄eeqy쎯	-10.8378
쎁쎇쎀	-10.8378
zhan❄uh쎯zzbd쎯	-10.8379
ha❁rtf쎯cao❂sgmj쎯	-10.8382
feng❁mq쎯yu❃fghy쎯	-10.8385
dong❁ai쎯guan	-10.8385
bu❂i쎯yi❄jqr쎯	-10.8386
❁apfq쎯shi❄ymhj쎯	-10.8387
쎃쎁ri❄jjjj쎯	-10.8387
쎁쎉쎃쎅nian❂rh쎯	-10.8387
juan❃udbb쎯,	-10.8388
yi❄yo	-10.839
hua❁awx쎯wen❂xyy쎯	-10.8391
ji❂se쎯qi❂adw쎯	-10.8391
쎃쎀fen❁wv쎯	-10.8391
쎁쎉쎃쎂nian❂rh쎯	-10.8394
쎀hao❂ypt쎯mi❃oy쎯	-10.8395
쎂ri❄jjjj쎯	-10.8397
huan❄kqm쎯	-10.8401
zhu❃y쎯ren❂wtf쎯;	-10.8403
wan❃jq쎯ji❁adwe쎯	-10.8407
gan❃dgkn쎯dao❄gc쎯	-10.8407
yi❃c쎯bei❃ux쎯	-10.8408
shi❂pu쎯zhan❄hka쎯	-10.8408
er❂qt쎯ke❁tu쎯	-10.841
,ji❄vca쎯	-10.8411
zhi❁pp쎯wai❄qh쎯	-10.8412
(yi❃c쎯xia❄gh쎯ji	-10.8415
gu❃dgh쎯jin❁wynb쎯	-10.842
suo❁scw쎯	-10.8422
.tong❂m쎯nian❂rh쎯	-10.8425
peng❂see쎯	-10.8425
kui❂rqcf쎯	-10.8426
uan❄iak쎯gai❄ivc쎯	-10.8432
,he❂isk쎯nan❂fm쎯	-10.8434
ta❁wb쎯zai❄d쎯	-10.8438
nong❂epe쎯	-10.8438
qiu❂	-10.8439
hei❁lfo쎯an❄ju쎯	-10.8439
pai❂thgf쎯,	-10.8439
”,shi❄j쎯	-10.8441
zhong❁k쎯ji❁adwe쎯	-10.8452
❂c	-10.8459
bao❃wk쎯hu❄ryn쎯d	-10.8462
bi❃xx쎯li❄tjh쎯	-10.8463
》shi❄j쎯you❂mh쎯	-10.8463
jian❄wrh쎯zzbd쎯	-10.8467
xi❁sghg쎯lan❂uff쎯	-10.8467
ren❄vyi쎯	-10.8471
chu❁bm쎯ren❂wtf쎯	-10.8472
;fu❄qm쎯ze❂gmu쎯	-10.8475
쎆쎀쎀쎀	-10.8477
sui❂bde쎯shi❂jf쎯	-10.8477
can❁cd쎯jian❄mqb쎯	-10.8478
shou❃rt쎯gong❁a쎯	-10.848
qian❂ifw쎯li❄lt쎯	-10.8481
bin❁yga쎯	-10.8485
man❂ajl쎯	-10.8485
shang❃h쎯zui❄jb쎯	-10.8486
jia❁lk쎯shang❃h쎯	-10.8487
zzbd쎯yan❂fhl쎯	-10.8488
xiu❄qten쎯	-10.8494
nv❃vvv쎯,	-10.8495
qi❂cds쎯shi❄fghg쎯	-10.8496
ying❁yid쎯li❄lt쎯	-10.8497
jing❁yiu쎯ju❄ndj쎯	-10.8497
pai❄ire쎯chu❁bm쎯	-10.85
dao❃rqym쎯	-10.85
ao❁gqto쎯	-10.8501
qb쎯	-10.8502
sai❄pfjm쎯ji❄tb쎯	-10.8502
yi❃jyq쎯	-10.8505
guan❃qnp쎯.	-10.851
ye❁sbb쎯	-10.8512
da❄dd쎯men❂uyh쎯	-10.8513
yan❂fhl쎯qiu❁og쎯	-10.8517
si❁ln쎯lu❄kht쎯	-10.8518
쎁쎉쎈쎉	-10.8518
zhang❁ujj쎯,	-10.8519
zhu❁sri쎯gao❁ym쎯	-10.852
you❃dc쎯yi❄ype쎯	-10.8522
(쎁쎈쎉	-10.8525
peng❃rdw쎯	-10.8526
huo❃ooo쎯tui❃eve쎯	-10.8527
쎂ke❄dq쎯	-10.853
fl쎯	-10.853
.쎀쎀	-10.8532
yan❃ipg쎯yi❄xcf쎯	-10.8541
cui❁wmw쎯hua❁wx쎯	-10.8542
,bian❄wgj쎯	-10.8544
zhu❄iy쎯yin❁ujf쎯:	-10.8546
쎂쎀쎀ke❄dq쎯	-10.8547
ju❄bct쎯ge❃wgk쎯	-10.8554
nong❂pei쎯li❄dl쎯	-10.8556
쎂쎀fen❁wv쎯	-10.8557
ren❄qntf쎯	-10.8557
wu❂fq쎯se❄qc쎯	-10.8562
aw쎯	-10.8564
mu❄ajdl쎯	-10.8564
si❄wny쎯hu❁tuh쎯	-10.8566
huo❃wo쎯	-10.8571
ou❁aqq쎯yang❂bj쎯	-10.8571
zhuang❁syf쎯	-10.8571
쎂,	-10.8576
liang❂jg쎯,	-10.8578
hai❃itx쎯yu❄fakg쎯	-10.8581
쎈)	-10.8582
쎂쎀-	-10.8583
yun❃cq쎯	-10.8597
que❄dqe쎯ren❄yw쎯	-10.8602
(gong❁wc쎯	-10.8605
ding❄pg쎯de❅r쎯	-10.8607
ming❂je쎯ji	-10.8611
.hou❄rg쎯lai❂go쎯	-10.8612
ru❂	-10.8615
shang❁um쎯jia❁pe쎯	-10.8616
쎁쎉쎈쎅	-10.8616
zu❁teg쎯lin❄wtfm쎯	-10.8616
zi❄thd쎯xue❂ip쎯	-10.8617
zi❁ivl쎯bo❂fge쎯	-10.8618
jf쎯	-10.8619
zhan❁ihk쎯	-10.862
ke❄dq쎯zzbd쎯	-10.8621
쎁nian❂rh쎯	-10.8625
huo❂itd쎯po❁inty쎯	-10.8626
dian❁ifhw쎯	-10.8626
ji❁tdnj쎯	-10.863
jie❂ab쎯ri❄jjjj쎯	-10.8633
pei❂djde쎯	-10.8633
tang❂	-10.8636
ti❂khuh쎯	-10.8636
dai❄vii쎯	-10.864
bing❁ua쎯huo❄aqt쎯	-10.864
fu❁geht쎯	-10.8641
zhe❄p쎯kuan❃ffi쎯	-10.8642
wai❄qh쎯,	-10.8642
ng❁yid쎯shang❁um쎯	-10.8643
peng❂	-10.8644
lei❃cccf쎯	-10.8646
qu❁pyfc쎯	-10.8651
bu❂i쎯yong❄et쎯	-10.8653
ao❁ftbt쎯yu❄yce쎯z	-10.8657
-쎁쎈	-10.8659
,xian❁tfq쎯	-10.8661
xue❂ip쎯ban❁gyt쎯,	-10.8662
qi❄kkd쎯xie❄sa쎯	-10.8662
yv쎯	-10.8664
qi❃mn쎯	-10.8664
liu❂iyc쎯ben❄wsg쎯	-10.8665
ju❁	-10.8666
pin❁rua쎯yin❁ujf쎯	-10.8667
gj쎯	-10.867
yi❄a	-10.8671
wu❂fq쎯ren❂w쎯	-10.8674
xin❁aus쎯	-10.8677
uf쎯	-10.8679
shu❄scf쎯mu❄ssss쎯	-10.8682
ne❅knx쎯	-10.8682
tu❃ffff쎯mu❄ssss쎯	-10.8683
qi❃fhn쎯le❅b쎯	-10.8684
ding❄pg쎯wei❄o쎯	-10.8687
,ju❄hw쎯	-10.8688
xian❄xg쎯zzbd쎯	-10.8688
bu❂i쎯bian❄yo쎯	-10.869
bian❁xyna쎯ru❄ty쎯	-10.8691
qun❂puvk쎯	-10.8692
ca쎯	-10.8694
chui❂swy쎯	-10.8695
zzbd쎯tian❁gd쎯	-10.8697
qing❂nge쎯xu❄xft쎯	-10.8697
ya❁rl쎯	-10.8701
la❁fug쎯ji❁fe쎯	-10.8703
gao❁ym쎯zhi❄rfm쎯	-10.8707
dan❁ujfj쎯du❂qtj쎯	-10.8707
:쎀.	-10.8707
xin❄wy쎯lai❄gkim쎯	-10.871
ji❄yjjh쎯,	-10.8715
zhi❃rxj쎯nan❂fm쎯	-10.8716
yuan❂fgjg쎯	-10.8719
tr쎯	-10.872
yi❄you쎯zuo❄wt쎯“	-10.8721
jin❃qrm쎯bi	-10.8721
fu❄wnnf쎯	-10.8721
you❃e쎯jiao❄lu쎯	-10.8723
ming❂pju쎯	-10.8723
쎇)	-10.8723
ao❁sfi쎯sai❄pfjm쎯	-10.8726
bao❄rb쎯zhi❃xqa쎯	-10.8727
,kuo❄tdp쎯	-10.8731
.yin❁ld쎯ci❃hx쎯,	-10.8733
ren❂wtf쎯fu❄gkl쎯	-10.8734
chang❂wi쎯	-10.8738
hun❃uwy쎯que❄dqe쎯	-10.8739
xian❄gm쎯chu❁bm쎯	-10.8742
hua❂wxf쎯xia❄dht쎯	-10.8743
xing❄ntg쎯hao❃vb쎯	-10.8747
xing❂gajf쎯,	-10.8748
ee	-10.8748
lie❄gq쎯che❁lg쎯	-10.875
gu❁	-10.8752
you❂iytb쎯xi❄ca쎯,	-10.8752
ky쎯	-10.8752
bing❄ugm쎯li❃gj쎯	-10.8758
쎂쎀nian❂rh쎯	-10.8759
쎂.쎁	-10.8763
yuan❂dr쎯ben❃sg쎯	-10.8763
wen❂xyy쎯,	-10.8765
dong❄fcl쎯ji❁sm쎯	-10.8765
shuan❁swg쎯	-10.8766
huai❂srq쎯	-10.8767
.ta❁wb쎯wu쎯	-10.8768
e❄dbv쎯	-10.8769
fan❄itp쎯zhi❃rxj쎯	-10.8771
si❄kma쎯	-10.8771
man❂yoj쎯	-10.8771
hen❃ywe쎯zhi❄ick쎯	-10.8772
cai❄ae쎯yao❂qde쎯	-10.8773
hang❂tf쎯li❃sb쎯	-10.8773
da❄dd쎯da❄dd쎯	-10.8775
de❅r쎯nv❃vvv쎯	-10.8775
쎁쎉쎉쎁	-10.8776
,jian❁uvo쎯	-10.8778
쎁쎉쎈쎇	-10.8778
lv❄yx쎯xian❁tfq쎯	-10.8779
zi❁uqwm쎯zhu❄egl쎯	-10.8779
쎁쎉쎄쎀nian❂rh쎯	-10.878
duo❁qq쎯bu❄uk쎯	-10.8782
ji❁adwe쎯huo❄wxm쎯	-10.8785
zi❃suh쎯	-10.8786
yu❄pjm쎯	-10.8786
쎅nian❂rh쎯	-10.8788
ji❁mt쎯he❂wsk쎯	-10.8792
ke❄pt쎯ren❂w쎯	-10.8794
bian❁oyna쎯	-10.8794
shi❄ymhj쎯ren❂w쎯,	-10.8795
쎁쎉쎃쎆nian❂rh쎯	-10.8795
zheng❃gkih쎯de❅r쎯	-10.8798
yu❂jmhn쎯	-10.8799
le❄qi쎯wan❂lfq쎯	-10.8799
yu❂wgep쎯	-10.8804
yan❂thp쎯an❁pv쎯	-10.8805
pen❂wvl쎯de❅f쎯	-10.8806
er❂dmj쎯you❄ccc쎯	-10.8808
bin❁pr쎯ke❄pt쎯	-10.8808
쎈쎀쎂.쎃	-10.881
쎁쎉쎈쎆	-10.881
쎁쎀쎀-	-10.8811
ren❂w쎯can❁cd쎯	-10.8812
l쎯rong❂pww쎯	-10.8812
sha❁iit쎯mo❄iaj쎯	-10.8823
wei❁tv쎯hui❄wf쎯,	-10.8823
que❄dqe쎯bao❃wk쎯	-10.8824
jin❄fj쎯qu❃bc쎯	-10.8827
sai❄pfjm쎯shi❄gk쎯	-10.8827
쎄쎅쎀	-10.8828
jing❄fuj쎯,	-10.883
i❄a	-10.8831
chi❄ryi쎯	-10.8831
you❃e쎯duo❁qq쎯	-10.8833
shang❃h쎯le❅b쎯	-10.8834
ep쎯	-10.8835
wai❄qh쎯ke❂fpm쎯	-10.8835
yi❁g쎯yang❂su쎯,	-10.8838
ji❄ph쎯	-10.8841
ji❂ey쎯xiang❁sh쎯	-10.8842
zhao❂aft쎯you❃e쎯	-10.8843
hui❂lkd쎯yi❄nn쎯	-10.8844
su	-10.8845
bing❁ua쎯ru❄ty쎯	-10.8845
san❁dg쎯ci❄uqw쎯	-10.8847
.쎂쎀쎀쎃nian❂rh쎯	-10.8849
a❁rpwn쎯jue❂rnbm쎯	-10.885
u❄i	-10.8854
af	-10.8854
:쎁쎀	-10.8856
ban❁gyt쎯zi❃bb쎯	-10.8858
ya❂	-10.886
ken❃he쎯ding❄pg쎯	-10.8861
jing❁ica쎯	-10.8869
bu❂i쎯xing❄fuf쎯	-10.8872
cha❄qsj쎯	-10.8879
qian❁tfk쎯mo❄dnv쎯	-10.8879
jh쎯	-10.8881
bi	-10.8881
zhong❁k쎯du❂gxgu쎯	-10.8883
wyn쎯	-10.8884
쎁쎉쎃쎉nian❂rh쎯	-10.8887
zui❄jb쎯you❃e쎯	-10.8888
han❄t쎯xi	-10.8888
쎄ri❄jjjj쎯	-10.8888
zzsx쎯zzsx쎯	-10.8892
,jie❂xf쎯ge❃wgk쎯	-10.8893
mei❃ugdu쎯xue❂ip쎯	-10.8895
쎀.쎆	-10.8895
yi❄ccf쎯	-10.8896
zhu❃y쎯gan❁fggh쎯	-10.8897
zhang❄sdy쎯	-10.89
ji❂se쎯ju❄hw쎯	-10.8901
,de❅f쎯li❃gj쎯w	-10.8901
yao❄ax쎯yong❄et쎯	-10.8903
shun❄kd쎯xu❄ycb쎯	-10.8905
ren❂w쎯min❂n쎯ji	-10.8907
de❅r쎯gong❄am쎯	-10.8908
yi❁g쎯ri❄jjjj쎯	-10.8908
jie❂ab쎯zou❄dwg쎯	-10.891
huang❂or쎯	-10.8911
zai❄d쎯zhe❄p쎯	-10.8915
qiao❂	-10.8918
xi❁sghg쎯hu❂ide쎯	-10.8919
ji❄rfc쎯shu❂sy쎯ji	-10.8919
yuan❂fqb쎯,	-10.892
mo❄ajd쎯si❁adwr쎯	-10.8924
.쎁쎉쎄쎉nian❂rh쎯	-10.8925
xing❄vtg쎯shi❄qa쎯	-10.8926
man❂	-10.8932
tao❁	-10.8932
kao❄tfkd쎯jin❄rp쎯	-10.8933
si❄lh쎯jun❁pl쎯	-10.8935
jian❄iujg쎯	-10.894
,yi❁g쎯zhi❂fh쎯	-10.8941
pin❄bmg쎯wei❄o쎯	-10.8943
shi❂pu쎯xi❂nu쎯	-10.8945
.쎂쎀쎀쎂nian❂rh쎯	-10.8949
qian❁tfk쎯mi❃oy쎯,	-10.895
ji❁cqy쎯rou❄mww쎯	-10.895
yi❁g쎯lu❄kht쎯	-10.8952
mu❄ajdh쎯ch	-10.8958
mo❂yssr쎯tuo❁rta쎯	-10.8958
mian❄dm쎯bao❁qn쎯	-10.8958
yan❃ipg쎯yi❄anb쎯	-10.8959
aq쎯	-10.896
ben❃sg쎯ren❂w쎯	-10.8966
)you❃e쎯xian❄bv쎯	-10.8966
wan❂lfq쎯zzbd쎯	-10.8966
di❂qtoy쎯	-10.8967
dao❃nf쎯xiang❄tm쎯	-10.8968
zhui❄bwff쎯	-10.8969
,쎁쎉쎈쎅nian❂rh쎯	-10.8972
dan❄io쎯shui❃ii쎯	-10.8973
wei❁tv쎯xuan❁pgj쎯	-10.8973
hao❃vb쎯you❃dc쎯	-10.8976
,dui❄cf쎯yu❂gf쎯	-10.8978
chao❁ohj쎯	-10.8982
bin❁ipr쎯hai❃itx쎯	-10.8983
shou❂ybv쎯de❅r쎯	-10.8984
de❅r쎯xian❄gm쎯	-10.8986
lian❂bu쎯luo❄xtk쎯	-10.8988
dong❃nat쎯	-10.899
da❄dd쎯huo❃ooo쎯	-10.8992
yi❁atd쎯shi❁jgm쎯.	-10.8993
lai❂go쎯dian❄jn쎯	-10.8995
wei❂xwy쎯wu❂gkf쎯	-10.8996
you❄	-10.8996
xia❂	-10.8998
han❃dgt쎯zzbd쎯	-10.8999
dian❄jn쎯zu❃begg쎯	-10.9002
shu❄scf쎯li❄uu쎯	-10.9002
shou❁nh쎯gou❄mqc쎯	-10.9004
yi❃c쎯hou❄rg쎯,	-10.9007
qi❂mfc쎯	-10.9008
shan❄uduk쎯yu❂gf쎯	-10.9008
quan❂sc쎯li❄lt쎯	-10.9011
쎁쎆쎀쎀	-10.9011
ji❄vca쎯you❃e쎯	-10.9011
쎂.쎈	-10.9011
zheng❄ght쎯wu❄tl쎯	-10.9013
yi❁g쎯ji❁adwe쎯	-10.9013
zhi❂sfhg쎯wu❄tr쎯,	-10.9016
ta❁wb쎯shi❄j쎯	-10.9017
hai❂bynw쎯	-10.9019
jue❂ipmq쎯de❂tj쎯	-10.902
shi❃vck쎯yu❂gf쎯	-10.9021
si❄ilg쎯	-10.9021
,jin❁wynb쎯	-10.9021
jun❁fqu쎯ke❃sk쎯	-10.9022
geng❁gjq쎯gao❁ym쎯	-10.9022
ri❄jjjj쎯yi❄uwl쎯	-10.9028
.jing❁x쎯guo❄fp쎯	-10.9028
yi❁wye쎯ran❂qd쎯	-10.903
xi❁nir쎯	-10.9031
ne❅knx쎯?	-10.9032
dang❁iv쎯gui❁jv쎯	-10.9034
,ying❁amd쎯	-10.9037
쎁쎅fen❁wv쎯	-10.9039
rui❄hpgh쎯	-10.904
jian❃tuj쎯ji❂ifk쎯	-10.9041
zong❁xp쎯	-10.9042
ren❂wtf쎯yi❄ujn쎯	-10.9042
쎅.쎅	-10.9043
쎁쎉쎃쎁nian❂rh쎯	-10.9045
.min❂n쎯guo❂l쎯	-10.9046
du❂qtj쎯ju❄hw쎯	-10.9051
xue❂ip쎯ming❂qk쎯	-10.9051
te❄trf쎯yue❁xq쎯	-10.9052
qing❂nge쎯ku	-10.9054
ao❄tmo쎯lin❂ss쎯	-10.9057
-쎁쎁	-10.9059
ph쎯	-10.906
shen❃pj쎯he❂synw쎯	-10.906
si❁tcy쎯ren❂w쎯	-10.906
yuan❂dr쎯ze❂mj쎯,	-10.9062
ru❄ty쎯dang❃ipk쎯,	-10.9063
shi❂jf쎯ke❄ynt쎯	-10.9063
kcg쎯?	-10.9063
xu❄wtc쎯shu❄syp쎯	-10.9066
쎅쎀쎀mi❃oy쎯	-10.9069
ban❄lw쎯de❅r쎯	-10.9069
tao❂siq쎯hua❁awx쎯	-10.9075
yi❁g쎯guan❄xfm쎯	-10.9077
ao❁uq쎯tong❁cep쎯b	-10.9077
zhong❁k쎯xue❂ip쎯.	-10.9079
qi❁dhi쎯	-10.9081
.sheng❁tg쎯yu❂gf쎯	-10.9082
fa❁v쎯re❄rvyo쎯	-10.9084
bi❃tt쎯hua❄gl쎯	-10.9085
quan❂sc쎯de❅r쎯	-10.9096
shun❄epqh쎯	-10.9096
bei❃ux쎯mian❄dm쎯	-10.9098
wai❄qh쎯chu❁bm쎯	-10.9098
sheng❃ith쎯ji	-10.9098
sa❄abu쎯ke❄dq쎯	-10.9099
shi❄kftj쎯	-10.91
쎇zzbd쎯	-10.91
rong❂gkm쎯ru❄ty쎯	-10.9111
.zhe❄p쎯gan❄wh쎯	-10.9112
yao❄ax쎯cai❂sft쎯	-10.9115
na❄mw쎯rong❂pww쎯.	-10.9123
zhe❄p쎯zhang❁xt쎯	-10.9127
hui❂lkd쎯gui❁jv쎯	-10.9127
shi❄ymhj쎯ren❂w쎯.	-10.9128
(xian❄gm쎯	-10.9129
shi❄rvyl쎯li❄lt쎯	-10.9131
shi❄ymhj쎯di❄tx쎯	-10.9133
hong❂xa쎯se❄qc쎯,	-10.9135
zuo❃da쎯you❄dk쎯.	-10.9137
shi❄gk쎯.	-10.9137
fu❄wcy쎯you❃e쎯	-10.914
bu❄uk쎯fen❁wv쎯,	-10.9141
zhi❂fh쎯liu❂iyc쎯	-10.9142
hua❂wxf쎯li❄gmy쎯	-10.9142
zzbd쎯wu❂fq쎯	-10.9144
bei❄puhc쎯di❂tdt쎯	-10.9148
chi❃	-10.9149
,shi❂jf쎯ren❂wtf쎯	-10.9149
tx쎯	-10.9151
bai❃dj쎯ge❃wgk쎯	-10.9153
ao❄tmo쎯si❁adwr쎯	-10.9153
wen❂	-10.9153
quan❂sc쎯yi❄uwl쎯	-10.9157
ge❄tk쎯you❃e쎯	-10.9157
,zheng❃gkih쎯	-10.9159
쎃fen❁wv쎯	-10.916
e❁ruv쎯rang❃fyk쎯	-10.9162
ye❃bn쎯jiu❄yi쎯	-10.9163
de❅f쎯,	-10.9163
ying❂apgy쎯	-10.9165
zzbd쎯duo❁qq쎯	-10.9165
ji❂fk쎯xiang❂pyu쎯	-10.9165
yi❁g쎯ren❂w쎯	-10.9168
ju❄ndj쎯ben❃sg쎯	-10.917
chao❁qit쎯	-10.9173
,bei❃ux쎯	-10.9173
lan❂ajt쎯ya❂ah쎯	-10.9174
yu❄yce쎯ren❂w쎯	-10.9175
,si❄lh쎯	-10.9175
chao❁rit쎯	-10.9176
,bu❂i쎯guo❄fp쎯	-10.9177
liang❂jg쎯wei❄o쎯	-10.9178
wu❄tr쎯.	-10.918
xie❂fl쎯zuo❄wt쎯	-10.918
xu❄xft쎯	-10.918
hen❃tve쎯you❃e쎯	-10.918
ming❂je쎯zhu❁gr쎯	-10.9183
^	-10.9184
nan❂ll쎯hai❂bynw쎯	-10.9188
cheng❂fd쎯nan❂fm쎯	-10.9191
ding❄pg쎯ju❁nd쎯	-10.9193
shi❄aa쎯de❅r쎯	-10.9195
wei	-10.9196
shi❂jf쎯kong❁pw쎯	-10.9197
ni❃rny쎯ren❂wtf쎯	-10.9198
se❄qc쎯,	-10.9198
shi❂wyv쎯pu❃yuo쎯	-10.9206
de쎯	-10.9206
ci❁gmi쎯shi❃kq쎯	-10.9207
qian❁tfk쎯ke❄dq쎯	-10.9208
biao❁sfi쎯ben❃sg쎯	-10.9209
shen❃pj쎯pi❁rx쎯	-10.9209
wu❃gg쎯da❄dd쎯	-10.9213
wa❁jff쎯	-10.9213
qie❁av쎯ge❁pdhj쎯	-10.9216
su❄pwdj쎯she❄wfk쎯	-10.9218
쎁쎁쎂	-10.9221
li❄uu쎯ji❂vcb쎯	-10.9223
ru❂vk쎯jin❁wynb쎯	-10.9226
쎀쎀mu❃ylf쎯,	-10.9228
nie❄ijfg쎯	-10.9236
shou❄ulg쎯yi❁atd쎯	-10.9238
gan❄wh쎯yue❄eee쎯	-10.9239
de❅yqa쎯bu❄uk쎯	-10.9239
e❂jtr쎯	-10.924
,bei❃ux쎯yu❃gn쎯	-10.9241
lu❂ihn쎯	-10.9241
zhi❁pp쎯suo❃rn쎯	-10.9241
bian❁lp쎯jie❄lwj쎯	-10.9242
쎀.쎄	-10.9244
peng❂ee쎯	-10.9244
ma❃cn쎯la❁ru쎯	-10.9245
wei❄o쎯zhi❃hh쎯	-10.9247
wei❄ile쎯	-10.925
zhi❂fh쎯xian❄xg쎯	-10.925
쎂쎀ke❄dq쎯	-10.9253
쎂xiang❄adm쎯	-10.926
ou❃adiy쎯	-10.9261
yu❃gn쎯qi❂adw쎯	-10.9263
-쎂쎀	-10.9266
fa❃if쎯,	-10.9267
hui❄kxe쎯	-10.9267
han❂afb쎯dan❁ujf	-10.9269
쎆.쎅	-10.927
cai❄ae쎯dan❁ujfj쎯	-10.9271
teng❂eudi쎯	-10.9272
deng❃tffu쎯ren❂w쎯	-10.9273
,chi❁yb쎯	-10.9277
(-	-10.9279
li❄idl쎯gan❁fggh쎯	-10.928
yan❁idj쎯	-10.9281
shan❄eudk쎯	-10.9283
▁	-10.9283
yuan❂lkmi쎯zh	-10.9285
쎁쎀ke❄dq쎯,	-10.9288
si❄ck쎯shi❄aa쎯	-10.9292
ban❁tem쎯de❅r쎯	-10.9293
huan❄oqm쎯	-10.9299
zhang❁ujj쎯.	-10.93
ben❃sg쎯zhi❄rfm쎯	-10.93
jia❃qlh쎯	-10.9302
lin❂wycb쎯jin❄rp쎯	-10.9311
pei❄sgn쎯liao❄ou쎯	-10.9311
su❄ubtf쎯jiao❁eu쎯	-10.9313
qiu❁og쎯,	-10.9313
qv쎯	-10.9315
(zzpj쎯zzpj쎯zzpj쎯	-10.9317
yi❁g쎯shi❂jf쎯	-10.9318
yi❁g쎯bu❄hi쎯	-10.9319
ma❅tc쎯	-10.932
.sui❂bde쎯	-10.932
yun❂	-10.9326
li❄lt쎯,	-10.9327
,dao❄gc쎯	-10.9328
nian❂rh쎯chan❃u쎯	-10.9333
yun❃fcp쎯he❂isk쎯	-10.9333
쎁쎉쎄쎁nian❂rh쎯	-10.9335
(han❂wynk쎯	-10.9337
kua❁dfn쎯	-10.9342
ye❃bn쎯jiao❄kn쎯	-10.9343
we쎯	-10.9345
bei❃ux쎯da❄dd쎯	-10.9347
lv❄yx쎯wei❄o쎯	-10.9351
heng❁abi쎯qi❄irn쎯	-10.9351
li❄dl쎯jing❁x쎯	-10.9355
쎁쎀nian❂rh쎯	-10.9357
쎁쎉쎄쎂nian❂rh쎯	-10.9359
guo❄fp쎯min❃txgt쎯	-10.936
:쎈	-10.9364
fu❄mga쎯》:“	-10.9365
ang❃mqq쎯zhan❄uh쎯	-10.9366
zzbd쎯fu❂pyg쎯	-10.9367
ke❃sk쎯kou❃kkkk쎯	-10.937
쎂ren❂w쎯,	-10.937
tian❁gd쎯qi❃rnb쎯	-10.9371
wan❂fqd쎯	-10.9371
du❄qya쎯	-10.9377
yu❂wgej쎯	-10.938
luan❂yo	-10.9381
kui❁fnv쎯	-10.9381
du❄ya쎯.	-10.9381
an❁yygt쎯kuo❄uit쎯	-10.9383
qi❂pyr쎯	-10.9383
jun❁pl쎯yi❁atd쎯	-10.9383
er❃qiu쎯si❁adwr쎯	-10.9384
lu❃qgj쎯xun❄nfp쎯	-10.9386
jin❄fj쎯hua❁wx쎯	-10.9387
fu❄tjt쎯xing❄iw쎯	-10.9389
wan❄epq쎯	-10.9392
de❅r쎯mei❃ugdu쎯	-10.9392
,an❁pv쎯hui❁tmgt쎯	-10.9395
.쎁쎉쎈쎂nian❂rh쎯	-10.9395
chu❃wyf쎯cun❂dhb쎯	-10.9399
zi❄pb쎯mu❃xgu쎯	-10.9402
shou❁nh쎯suo❁xpw쎯	-10.9403
wei❁dgv쎯er❃qiu쎯	-10.9404
lv❃ntt쎯hang❂tf쎯	-10.9405
gong❁a쎯zi❁uqwm쎯	-10.9405
ri쎯	-10.9408
쎅ke❄dq쎯,	-10.941
qi❃tnb쎯	-10.941
yan❂dga쎯yuan❂km쎯	-10.9411
qu❂thhh쎯	-10.9414
si❄lh쎯fang❁yy쎯	-10.9414
xiang❄tm쎯wei❄o쎯	-10.9415
jiang❁ia쎯qu❁aq쎯	-10.9416
zao❄rab쎯	-10.9418
duan❃tdg쎯,	-10.942
an❁rnp쎯suan❁sgc쎯	-10.942
chu❁puv쎯,	-10.942
xiang❄tm쎯:	-10.9421
zheng❄ugh쎯wei❄o쎯	-10.9421
ya	-10.9423
bn쎯	-10.9423
gou❁sqk쎯qi❃snn쎯	-10.9424
jk쎯	-10.9424
mei❂stx쎯hua❁awx쎯	-10.9425
han❄t쎯xian❂xyx쎯	-10.9426
ao❁eu쎯nang❂gkh쎯	-10.9428
ye❃bn쎯bei❄puhc쎯	-10.9428
wu쎯de❅r쎯	-10.9432
bu❄hi쎯zhou❄cbc쎯	-10.9433
fu❄bwf쎯jia❁lk쎯	-10.9434
,xi❁sghg쎯yu❃gn쎯	-10.9434
shi❄rryf쎯	-10.9438
hao❂kgn쎯ma❃dcg쎯	-10.9439
zao❄of쎯	-10.944
wei❄o쎯쎁	-10.944
shu❁rcb쎯	-10.9443
쎁ren❂w쎯	-10.9444
san❁dg쎯wei❂xwy쎯	-10.9444
xi❄xl쎯zhi❄gcft쎯	-10.9445
mi❄	-10.9445
bao❃wk쎯wen❁ijl쎯	-10.9446
mi❃oy쎯de❅r쎯	-10.9448
fa❃if쎯lan❂uff쎯	-10.9449
mu❄ssss쎯er❃bgh쎯	-10.9449
쎁쎉쎂쎆nian❂rh쎯	-10.9449
xi❃itf쎯gan❁fggh쎯	-10.945
nong❂pei쎯yao❄ax쎯	-10.9452
chu❁bm쎯dao❄uthp쎯	-10.9453
duo❁qq쎯cai❃ese쎯	-10.9458
shi❂fgh쎯duo❁qq쎯	-10.9458
pw	-10.9458
bei❁bhc쎯	-10.9463
jue❂un쎯sai❄pfjm쎯	-10.9466
bao❃wk쎯xiu❁wht쎯	-10.9466
bu❂i쎯cuo❄qaj쎯	-10.9466
❁ftbt쎯shou❄rep쎯,	-10.947
cao❃ajj쎯de❅f쎯	-10.9476
;쎃zzbd쎯	-10.9476
xiao❁die쎯	-10.9476
nan❂fm쎯mei❃ugdu쎯	-10.9476
bao❄rb쎯》zzbd쎯《	-10.9478
bian❄yo쎯wei❄o쎯	-10.9479
lu❄	-10.9486
pang❂ydx쎯	-10.9488
zhi❁pp쎯chu❄th쎯	-10.949
dui❄cf쎯qi❂adw쎯	-10.9492
ng❄am쎯xian❄fmud쎯	-10.9492
zzbd쎯jing❁oge쎯	-10.9493
shi❁qtjh쎯zi❃bb쎯	-10.9496
ji❁sm쎯zu❃xeg쎯	-10.9496
yi❄yem쎯	-10.9496
ct쎯	-10.9499
dgn쎯	-10.95
wai❄qh쎯,fu❂gip쎯	-10.95
na❃vfb쎯yang❂su쎯	-10.9504
dc쎯	-10.9506
쎁쎉쎄쎄nian❂rh쎯	-10.9506
hou❄rg쎯yin❁ld쎯	-10.9507
di❂tmf쎯	-10.9507
.you❄ccc쎯	-10.9508
dian❄jn쎯ti❁sux쎯	-10.951
diao❄qqy쎯	-10.9512
pei❁egi쎯	-10.9512
li❄	-10.9513
dan❄dgtg쎯qi❄kkd쎯	-10.9514
mang❂aiy쎯	-10.9515
fen❁wv쎯qu❁aq쎯	-10.9515
xian❄xg쎯tiao❂ts쎯	-10.9518
si❁tcy쎯li❄uu쎯	-10.9522
”zi❄pb쎯	-10.9523
wei❂xwy쎯ya❄gog쎯	-10.9523
xiu❁wht쎯ding❄ys쎯	-10.9526
jun❁pl쎯,	-10.9529
쎂쎀쎀mi❃oy쎯	-10.9532
ti❄fwf쎯dai❄wa쎯	-10.9532
zhu❁gr쎯bao❃pgy쎯	-10.9534
lan❃jtyq쎯qi❄kkd쎯	-10.9534
la❁kru쎯	-10.9536
zhen❄qfhw쎯.	-10.9536
dl쎯	-10.9538
:쎆	-10.9538
ke❁sjs쎯	-10.9539
gun❄sjx쎯	-10.9543
zhang❁suj쎯	-10.9544
jia❁pe쎯ren❂w쎯	-10.9547
ying❁yid쎯ji❂qvn쎯	-10.9548
hu❂ide쎯bo❂ir쎯	-10.9549
fu❄gkl쎯hui❄wf쎯	-10.9549
쎀쎉-	-10.9551
zzbd쎯dian❄jn쎯	-10.9554
chou❂ldt쎯	-10.9555
zhang❃ta쎯쎁	-10.9557
쎄zzsx쎯	-10.9565
yu❂gf쎯ci❃hx쎯	-10.9567
❂vt	-10.9568
ye❄eywy쎯	-10.9569
,nan❂fm쎯yu❃gn쎯	-10.9571
shou❂ybv쎯,	-10.9571
zheng❄ght쎯qu❁aq쎯	-10.9571
yu❂iqgg쎯qiu❁og쎯	-10.9573
jian❄wvf쎯pi❂ert쎯	-10.9575
tong❂m쎯meng❂jel쎯	-10.9576
yao❃kuq쎯	-10.9577
ru❂jfdj쎯	-10.9579
chan❃u쎯pin❃kkk쎯,	-10.9582
fen❁xwv쎯	-10.9583
zao❂ogu쎯	-10.9587
zzbd쎯nai❄dmjf쎯	-10.9593
man❄nj쎯man❄nj쎯	-10.9595
zzbd쎯zheng❄ght쎯	-10.9595
de❅r쎯zhan❄hka쎯	-10.9595
wan❃vpq쎯	-10.9599
chu❁puv쎯bu❄hi쎯	-10.9599
xiang❁sh쎯ji❄xo쎯	-10.9599
gu❄dty쎯shi❄gk쎯,	-10.9599
men❄oun쎯	-10.9601
ang❁yvi쎯xi❁ahko쎯	-10.9601
쎁-쎂	-10.9603
hu❂de쎯tong❂m쎯	-10.9604
my쎯	-10.9608
chi❂jghx쎯,	-10.9608
zzbd쎯an❁pv쎯	-10.9612
〈	-10.9612
yin❁be쎯yang❂bj쎯	-10.9613
ge❁sksw쎯ci❂yngk쎯	-10.9614
yong❄et쎯yao❄ax쎯	-10.9614
,zhi❁kw쎯you❃e쎯	-10.9617
shi❄an쎯jia❁pe쎯	-10.9617
lun❄ywx쎯》	-10.9617
zhong❁k쎯xue❂ip쎯,	-10.9623
da❄dd쎯yu❂gf쎯	-10.9623
wu❂afqb쎯hu❂ide쎯	-10.9623
zzbd쎯qing❁ige쎯	-10.9628
cui❁wmw쎯	-10.9628
yuan❂	-10.9629
ma❃cn쎯ke❄dq쎯	-10.9629
qian❂ue쎯wei❄bg쎯	-10.9633
jun❁pl쎯xian❂tqf쎯	-10.9634
《》	-10.9639
yi❂tqq쎯zhi❂sfhg쎯	-10.964
쎂쎅ke❄dq쎯	-10.9642
yin❁ld쎯zi❃bb쎯	-10.9646
qu❃bc쎯dai❄wa쎯	-10.9646
huo❂itd쎯xie❃tld쎯	-10.9646
bai❃dj쎯ke❁tu쎯	-10.9646
lian❄yon쎯ai❄ep쎯	-10.9647
yue❁xq쎯wei❄o쎯	-10.9649
,he❂isk쎯bei❃ux쎯	-10.965
ka❃hhu쎯pian❁thg쎯	-10.9652
bu❄uk쎯la❄ait쎯	-10.9653
,bao❃wk쎯	-10.9654
fang❄yt쎯da❄dd쎯	-10.9654
wai❄qh쎯biao❃ge쎯	-10.9658
liao❄ynw쎯	-10.9659
jin❃nyu쎯guan❃tp쎯	-10.9663
bi❄aum쎯	-10.9664
zzsx쎯쎁쎀	-10.9665
da❄dd쎯zhong❁k쎯	-10.9667
ding❄pg쎯ji❁adwe쎯	-10.9671
mian❄dm쎯ji❁tkw쎯쎉	-10.9672
shou❄rep쎯,sh	-10.9674
yan❁kld쎯hou❂kwn쎯	-10.9676
yong❄et쎯tu❂wtp쎯:	-10.9676
bu❂i쎯dan❄wjg쎯	-10.9678
,쎁쎉쎈쎂nian❂rh쎯	-10.968
du쎯	-10.9682
ji❂lkb쎯,	-10.9683
bai❃srg쎯lin❂ss쎯	-10.9683
mu❄ssss쎯zhi❄rfm쎯	-10.9686
mh	-10.9694
쎁.쎁	-10.9697
cha❁yq쎯wu❄tl쎯	-10.9698
suo❃rn쎯.	-10.9702
쎁ri❄jjjj쎯qi❃fhn쎯	-10.9705
ke❄dq쎯la❁ru쎯	-10.9706
,duo❁qq쎯ci❄uqw쎯	-10.9706
shuo❁yu쎯:“	-10.9709
.zhe❄p쎯li❃jfd쎯	-10.971
shou❁nh쎯fei❄xjm쎯	-10.971
,nian❂rh쎯	-10.9711
quan❂wg쎯zi❁uqwm쎯	-10.9714
cheng❁tq쎯zuo❄wt쎯	-10.9715
sui❃med쎯	-10.9715
si❄lh쎯deng❃tffu쎯	-10.9716
huan❂	-10.9721
쎁쎉쎉쎈	-10.9723
li❃gj쎯shi❄gk쎯.	-10.9723
di❃	-10.9724
)zi❄pb쎯	-10.9725
jin❄fj쎯쎀qiu❂gfi쎯	-10.9727
xi❁sghg쎯ce❄wmj쎯	-10.9728
zhi❄rfm쎯de❅r쎯	-10.9728
chu❁bm쎯fa❁v쎯	-10.973
쎁쎀쎆	-10.973
ba❁wty쎯jiao❃qe쎯	-10.9733
yi❄you쎯you❃e쎯	-10.9735
dan❁ujfj쎯yi❁g쎯	-10.9735
da❄dd쎯dou❄gku쎯	-10.9739
ng❄ntg쎯neng❂ce쎯:	-10.974
wai❄qh쎯mao❄qyv쎯	-10.974
gong❁wc쎯min❂n쎯	-10.9741
xiang❄wqj쎯ji❁sm쎯	-10.9742
zhe❂	-10.9744
kuang❄ukq쎯,	-10.9744
yi❄jqr쎯dong❃nat쎯	-10.9748
lie❄gqjo쎯de❅r쎯	-10.9748
wei❁tmg쎯mi❃oy쎯	-10.9749
쎀쎀쎀쎀	-10.9749
pian❁tyna쎯l	-10.9753
,zhe❄p쎯gan❄wh쎯	-10.9754
shuo❁yu쎯hua❄ytd쎯	-10.9755
hou❄rg쎯bei❄puhc쎯	-10.9756
er❂dmj쎯lai❂go쎯	-10.9756
de❅r쎯lv❃ytey쎯	-10.9757
a❁fkuk쎯jing❄uge쎯	-10.9758
,ji❂wys쎯	-10.9758
ke❄pt쎯zuo❄yww쎯	-10.976
ci❂uqwn쎯qi❄kkd쎯	-10.9764
,dou❁ftjb쎯	-10.9764
de❅f쎯ming❂qk쎯	-10.9768
huang❂tamw쎯	-10.9769
ga❂kdh쎯	-10.9769
,zhe❄p쎯yang❂su쎯	-10.9773
쎉쎀쎀/쎁쎈쎀쎀	-10.9775
jun❁pl쎯.	-10.9778
dao❄uthp쎯.	-10.9785
,쎂쎀쎀쎄nian❂rh쎯	-10.9787
yan❄cwg쎯shou❁nh쎯	-10.9788
de❅r쎯huan❂ggi쎯	-10.9789
lian❃wgit쎯	-10.979
po❄rrqc쎯	-10.979
dm쎯	-10.979
shu❁nnh쎯xie❃pgn쎯	-10.979
mei❄vfi쎯mei❄vfi쎯	-10.9792
hua❁wx쎯wei❄o쎯	-10.9793
you❂mh쎯yuan❂dr쎯	-10.9794
ji❄rfc쎯yi❄anb쎯	-10.9798
쎅zzsx쎯	-10.98
qu❁aq쎯)	-10.9802
jiao❃tdtj쎯	-10.9802
yuan❂fqb쎯dai❄wa쎯	-10.9805
men❂uyh쎯hu❄yne쎯w	-10.9805
yi❁g쎯zu❃xeg쎯	-10.9809
de❅f쎯:	-10.9809
zhe❄p쎯ci❄uqw쎯	-10.9811
zzsx쎯쎃	-10.9813
ji❁ad쎯de❅f쎯,	-10.9816
,fen❁wv쎯	-10.9817
fa❁v쎯yuan❂idr쎯	-10.9819
쎀)	-10.9819
si❄lh쎯jiao❃qe쎯	-10.9823
qi❂gad쎯	-10.9823
쎁쎉쎀쎀	-10.9825
tian❁gd쎯xian❄xg쎯	-10.9832
rou❂rcbs쎯	-10.9833
dui❄cf쎯mian❄dm쎯	-10.9835
yuan❂dr쎯chan❃u쎯	-10.9835
qian❂ue쎯jin❄fj쎯	-10.9836
xian❄xg쎯de❅r쎯	-10.9839
쎂.쎂	-10.984
ng❄quj쎯tou❂udi쎯	-10.9843
wu❄tl쎯gong❁a쎯	-10.9844
ru❄ty쎯dang❃ipk쎯	-10.9845
bi❄xxf쎯qiu❁og쎯.	-10.9847
qian❄aqw쎯	-10.9848
dy쎯	-10.9848
ji❄rfc쎯shu❂sy쎯,	-10.9849
%de❅r쎯	-10.9851
,쎁쎉쎈쎆nian❂rh쎯	-10.9854
mao❂	-10.9855
yong❁	-10.9856
yi❂peg쎯chang❁jj쎯	-10.9859
de❅f쎯shi❄rvyl쎯	-10.9862
bei❃ux쎯bian❁lp쎯	-10.9866
ke❄dq쎯li❃jfd쎯	-10.9866
쎃쎀duo❁qq쎯	-10.9868
,yi❃c쎯“	-10.987
zhi❄rmhj쎯qi❄kkd쎯	-10.9871
qi❃rnb쎯zhi❄rfm쎯	-10.9875
qing❁ige쎯mo❄gs쎯	-10.9877
bo	-10.988
liang❄ypm쎯de❅r쎯	-10.9883
pu❂age쎯tian❂lll쎯	-10.9884
jin❄fj쎯zhan❃nae쎯	-10.9885
쎀/	-10.9885
xiang❃ktm쎯,	-10.9886
hou❄rg쎯wei❄bg쎯	-10.9889
zhi❄gcf쎯shao❃it쎯	-10.9889
yu❃mgn쎯	-10.989
chan❃u쎯zzbd쎯xi	-10.9892
zai❄fa쎯ben❄wsg쎯	-10.9896
zao❃jh쎯nian❂rh쎯	-10.9902
cui❄oyw쎯	-10.9902
yi❁g쎯dan❄jgf쎯	-10.9903
da❄dd쎯xue❂ip쎯ji	-10.9907
zha❁rnn쎯shi❂pu쎯	-10.9909
jia❁pe쎯xie❂fl쎯	-10.991
쎂쎁shi❄an쎯ji❄xn쎯	-10.9913
uan❂temk쎯bo❂ter쎯	-10.9913
pi	-10.9916
쎅쎀ke❄dq쎯,	-10.9924
bei❄	-10.9925
wen❂yygy쎯shi❃kq쎯	-10.9927
suan❄tha쎯fa❃if쎯	-10.9928
gu❁vd쎯niang❂vyv쎯	-10.9929
shou❁nh쎯ru❄ty쎯쎁	-10.9929
ji❁iry쎯lie❄gqjo쎯	-10.9932
tong❂m쎯ji❄iyj쎯	-10.9938
pan❄luf쎯	-10.9938
ji❁sm쎯ben❄wsg쎯	-10.9943
gu❃fkuc쎯li❄ddnl쎯	-10.9943
mian❄dm쎯qian❂ue쎯	-10.9944
pi❂lxx쎯	-10.9947
hu❂jde쎯die❂jan쎯	-10.9948
qing❄fnr쎯qi❄kkd쎯	-10.995
shi❂pu쎯wu❄tl쎯	-10.9952
li❃gj쎯cai❂mf쎯	-10.9957
qian❁tfk쎯li❃jfd쎯	-10.9957
a❁bs쎯gen❁sve쎯	-10.9961
pi❂krt쎯jiu❃isgg쎯	-10.9963
bian❄wgj쎯shi❄j쎯	-10.9964
ya❁ahtg쎯	-10.9967
쎉)	-10.9968
ce❄imj쎯hui❄xwf쎯	-10.9968
dan❄dgtg쎯hua❁wx쎯	-10.9973
bi❃thc쎯ci❃hx쎯	-10.9974
fen❂fy쎯	-10.9975
,sh	-10.9976
u❃e	-10.9977
ruan❃bfq쎯	-10.9982
,zhong❁xtu쎯	-10.9983
ye❃bn쎯neng❂ce쎯	-10.9986
ji❄wfi쎯si❄pynn쎯	-10.9986
yin❁ald쎯	-10.9988
zhi❂wfhg쎯de❅r쎯	-10.9988
guang❁iq쎯ce❄aps쎯	-10.9989
sun❃rkm쎯hai❄pd쎯	-10.9995
shu❃ntk쎯xia❄gh쎯	-10.9996
an❁tol쎯jia❁alkf쎯	-10.9997
la❄ait쎯xie❂kf쎯	-10.9998
.쎁쎉쎈쎄nian❂rh쎯	-11.0001
ma	-11.0002
song❁mym쎯	-11.0005
,huo❄ak쎯zhe❃ftj쎯	-11.0005
di❂mb쎯piao❄sfiu쎯	-11.0007
na❄xmw쎯shui❄tuk쎯	-11.0007
san❁dg쎯jie❄nm쎯	-11.0008
쎁쎈쎈	-11.001
dong❁ai쎯ce❄wmj쎯	-11.0014
wei❄kfi쎯,	-11.0015
nan❂fm쎯bian❁lp쎯	-11.002
zhi❁pp쎯zhong❁k쎯,	-11.002
pai❂thgf쎯de❅r쎯	-11.0021
zhu❁gr쎯jiang❁ia쎯	-11.0022
wen❂yygy쎯ben❃sg쎯	-11.0028
yi❄ujn쎯wei❄o쎯	-11.003
ig쎯	-11.0031
jian❁ga쎯le❅b쎯	-11.0034
shan❁mmm쎯lu❄kht쎯	-11.0035
fu❃wyw쎯	-11.0038
suo❃rn쎯fu❄gkl쎯	-11.0039
쎃hao❂kgn쎯	-11.004
dan❁rjg쎯bao❃wk쎯	-11.0041
su❄sou쎯	-11.0043
de❅r쎯yuan❂dr쎯	-11.005
wei❄nfi쎯	-11.0051
fen❃ow쎯si❁xxg쎯	-11.0052
ju❄whw쎯quan❂wg쎯	-11.0053
qin❁us쎯zi❄thd쎯	-11.0055
vh쎯	-11.0055
bu❄dmh쎯la❁ru쎯	-11.0057
mo❄dnv쎯zi❄pb쎯	-11.0059
,cheng❁tq쎯wei❄o쎯	-11.006
,쎂쎀쎀쎆nian❂rh쎯	-11.006
,쎂쎀쎀쎅nian❂rh쎯	-11.0061
xin❁ny쎯qing❂nge쎯	-11.0064
shi❄pgc쎯wai❄qh쎯	-11.0065
lei❃aflf쎯	-11.0066
yang❃uud쎯	-11.0066
zhi❄tdkj쎯li❄lt쎯	-11.0067
liu❄uy쎯gan❄wh쎯	-11.0067
ang❂ipkh쎯wei❁tv쎯	-11.0071
xun❄	-11.0072
,ge❄tk쎯	-11.0073
......	-11.0073
ban❄rwv쎯	-11.0074
yao❂yer쎯	-11.0074
ru❄ty쎯men❂uyh쎯	-11.0074
qiu❂lft쎯gou❄mqc쎯	-11.0075
,na❄mw쎯rong❂pww쎯	-11.0078
da❄dd쎯suan❄afi쎯	-11.0078
man❃iagw쎯zu❂ytt쎯	-11.0079
쎅mi❃oy쎯,	-11.0083
ge❁sks쎯ge❁sks쎯	-11.0085
hui❄wf쎯you❃e쎯	-11.0086
xun❄ynf쎯lu❄vi쎯	-11.0089
ren❂w쎯.zhong❁k쎯g	-11.0089
ng❄ukqb쎯ji❄rfc쎯	-11.0091
zhi❁fc쎯qi❃rnb쎯	-11.0091
ri❄jjjj쎯bao❄rb쎯》	-11.0093
liang❂jg쎯:쎂	-11.0094
sha❄ddh쎯	-11.0094
mou❂cr쎯	-11.0095
ji❁iry쎯su❄gxi쎯	-11.0096
zhi❄trw쎯xu❄ycb쎯	-11.0099
,ta❁px쎯wu쎯	-11.0099
de❅f쎯mao❄eerq쎯	-11.01
zhe❄p쎯lei❄od쎯	-11.0106
pa❂rhyc쎯	-11.0107
shu❁nnh쎯》:“	-11.0108
쎄ren❂w쎯	-11.0109
nan❂fm쎯mian❄dm쎯	-11.011
bg쎯	-11.0111
wen❄iyy쎯	-11.0112
gun❃	-11.0115
fei❄ixj쎯shui❃ii쎯	-11.012
.쎂쎀쎀쎁nian❂rh쎯	-11.0122
xu❄ycb쎯》:“	-11.0125
qu❄fhb쎯wei❄kfi쎯	-11.0126
bu❂i쎯jiu❃qy쎯	-11.0127
ba❂khdc쎯	-11.0129
bu❂i쎯xie❄nq쎯	-11.013
zhou❄kkm쎯	-11.013
jing❄fuj쎯.	-11.0132
er❂dmj쎯yan❂yyy쎯	-11.0134
mi❄pnt쎯ji❂wys쎯	-11.0135
쎅ren❂w쎯	-11.0135
xi❁iex쎯xian❄egc쎯	-11.014
.chu❁bm쎯chu❄th쎯:	-11.0146
zao❄tfkp쎯chu❁bm쎯	-11.0149
xiang❃shn쎯yao❁s쎯	-11.015
jie❂	-11.0154
bo❂ter쎯	-11.0159
lin❂iss쎯ba❁cnh쎯	-11.016
shi❃kq쎯》	-11.016
juan❄wud쎯	-11.0161
wei❂	-11.0163
쎁쎅쎀ke❄dq쎯	-11.0164
쎁쎉쎄쎃nian❂rh쎯	-11.0165
an❃w	-11.0176
xian❄gm쎯le❅b쎯	-11.0178
min❂n쎯ban❄lw쎯	-11.0178
,쎁쎉쎈쎇nian❂rh쎯	-11.0183
lou❂ov쎯	-11.0184
bu❄dmh쎯zhi❄lfhf쎯	-11.0186
nan❂cw쎯du❄ya쎯	-11.0188
de❅r쎯re❄rvyo쎯	-11.0188
,ti❂rj쎯gong❁waw쎯	-11.019
(qu❄fcu쎯	-11.0194
wang❄ynvf쎯	-11.0195
lai❄hgo쎯	-11.0196
ying❄dgj쎯du❄ya쎯	-11.0199
fang❁yy쎯shi❄aa쎯.	-11.0199
rh쎯	-11.02
ping❂gu쎯gu❃ime쎯	-11.0203
dui❄ukqb쎯	-11.0203
dou❁ftjb쎯zai❄d쎯	-11.0204
bu❃puh쎯chang❂wi쎯	-11.0205
,쎁쎉쎈쎈nian❂rh쎯	-11.0208
.tong❂m쎯shi❂jf쎯,	-11.0209
n❁ivfh쎯tie❁mhkg쎯	-11.0215
.dan❄wjg쎯shi❄j쎯	-11.0215
쎃ren❂w쎯,	-11.0216
yi❁g쎯du❄ya쎯	-11.0218
ding❃sdm쎯bu❄uk쎯	-11.022
chi❄fcn쎯mu❄hhhh쎯	-11.0222
li❄idl쎯	-11.0222
hui❂lkd쎯shou❁nh쎯	-11.0223
bao❃wk쎯an❁pv쎯	-11.0223
fang❄yt쎯qi❄yca쎯	-11.0224
chi❂rf쎯you❃e쎯	-11.0225
se❄qc쎯su❄gxi쎯	-11.0228
deng❃tffu쎯de❅f쎯,	-11.0232
/쎁	-11.0233
xia❂mgu쎯gu❃wwk쎯	-11.0235
jin❃yak쎯	-11.0238
(쎂쎀쎀	-11.0238
》shi❄j쎯yi❁g쎯	-11.0242
chu❁bm쎯guo❁qkm쎯	-11.0246
li❄wgq쎯ru❂vk쎯	-11.0248
xi❁sghg쎯lin❂jty쎯	-11.0254
zhi❄lfhf쎯:	-11.0255
to쎯	-11.0255
bang❃eup쎯	-11.0258
shu❁saq쎯	-11.0259
tian❁gd쎯kong❁pw쎯	-11.0259
wu❄tr쎯liao❄ou쎯	-11.026
ju	-11.0263
gong❄aw쎯ji❄yf쎯	-11.0263
e❃nyi쎯cun❄fghy쎯쎁	-11.0264
zhi❁pp쎯shang❃h쎯	-11.0264
shi❄j쎯fei❁djd쎯	-11.0267
tu❁pwd쎯chu❁bm쎯go	-11.0269
cuo❄raj쎯	-11.0273
ji❁iry쎯qing❂nge쎯	-11.0274
qi❃rnb쎯,	-11.0276
zhong❁k쎯xi❁sghg쎯	-11.0277
ou❁wdn쎯shi❄rvyl쎯	-11.0281
zhuo❂ij쎯	-11.0285
lun❂wxb쎯	-11.0288
zai❁fak쎯	-11.0289
i❁k	-11.029
an❄rpv쎯mo❂yssr쎯	-11.029
qi❃rnb쎯shi❄rvyl쎯	-11.0292
xian❃jo쎯de❂tj쎯	-11.0295
guo❂l쎯ji❂tdij쎯	-11.0296
jia❁alkf쎯	-11.0296
mu❄ajdj쎯	-11.0298
ru❂vk쎯:	-11.0301
mian❄dm쎯qiu❂lft쎯	-11.0302
zhi❃hh쎯tong❄uce쎯	-11.0302
,zhe❄p쎯li❃jfd쎯	-11.0303
de❂tfl쎯li❃jfd쎯	-11.0308
yi❁g쎯fang❁yy쎯	-11.0309
guo❄fp쎯duo❁qq쎯	-11.031
you❂iytb쎯xi❄ca쎯《	-11.0311
ang❄ukq쎯xia❄gh쎯,	-11.0312
ke❃sk쎯shi❄pym쎯	-11.0313
.dui❄cf쎯	-11.0313
quan❂	-11.0313
hun❁vq쎯li❃pynn쎯	-11.0317
(쎁쎅	-11.0317
ao❄tmo쎯de❅f쎯	-11.0318
si❁adwr쎯ji❁ad쎯	-11.0318
쎁:	-11.0319
bu❄uk쎯men❂uyh쎯.	-11.0322
yan❃hv쎯ke❁tu쎯	-11.0323
zhang❃ta쎯tu❂wtp쎯	-11.0324
duo❄msj쎯	-11.0325
wei❁tmg쎯bo❁ihc쎯	-11.0325
tuo❁rta쎯yun❃fcp쎯	-11.0326
lai❂go쎯,	-11.0327
ren❂w쎯wu쎯de❅r쎯	-11.0327
jian❄wrh쎯:	-11.033
()han❄t쎯	-11.0332
you❁wdn쎯hui❄gjh쎯	-11.0334
fan❃rc쎯“	-11.0338
fa❂tpi쎯	-11.0339
li❁kjf쎯	-11.034
.ke❃sk쎯	-11.0341
jiao❁ftbt쎯ke❁tu쎯	-11.0342
wei❁dgv쎯xie❂elw쎯	-11.0343
ytey쎯ke❄pt쎯cheng	-11.0343
dai❄wa쎯biao❃ge쎯.	-11.0347
ji❂se쎯xian❄bv쎯	-11.0348
hi쎯	-11.0349
zzbd쎯dong❁ai쎯	-11.0353
ban❄lw쎯li❃gj쎯lv❃	-11.0355
qiao❄atgn쎯	-11.0358
jian❁ga쎯gong❁a쎯	-11.0364
chu❁bm쎯ru❄ty쎯	-11.0366
shan❁mmm쎯lin❂ss쎯	-11.0369
zzbd쎯gong❁a쎯	-11.037
jie❂xf쎯gou❃sq쎯,	-11.0371
jie❁rjq쎯shi❄fi쎯	-11.0378
chu❁bm쎯zi❁uqwm쎯	-11.0378
”bian❄yo쎯	-11.0384
ntl쎯	-11.0384
lun❂wwx쎯li❃gj쎯	-11.0385
yan❂thp쎯xu❄xfn쎯	-11.0386
pie❁rumt쎯	-11.0386
jiu❃vt쎯jiang❁ia쎯	-11.0387
bei❃ux쎯wei❄tvr쎯	-11.0387
pei❄igmh쎯	-11.0392
bao❂aig쎯mo❂eajd쎯	-11.0394
yuan❂idr쎯zi❄thd쎯	-11.0394
쎃ren❂w쎯	-11.0398
vt쎯	-11.0399
,ri❄jjjj쎯ben❃sg쎯	-11.04
bei❄puhc쎯bu❃rge쎯	-11.0401
jing❃jy쎯se❄qc쎯	-11.0402
yan❂utem쎯se❄qc쎯:	-11.0404
zhi❄lfhf쎯de❅r쎯	-11.0404
,qu❃bc쎯de❂tj쎯	-11.0408
,쎁쎉쎈쎃nian❂rh쎯	-11.041
.쎁쎉쎉쎈nian❂rh쎯	-11.0414
쎂nian❂rh쎯	-11.0416
wu❂fq쎯xu❁fdm쎯	-11.0416
mo❄dnv쎯ping❂gu쎯	-11.0416
jian❁cv쎯ku❃adf쎯	-11.0417
xi❄txi쎯fu❄gkl쎯	-11.0417
wu❂fq쎯suo❃rn쎯	-11.0419
,wei❄kfi쎯	-11.042
dong❁ai쎯feng❁mq쎯	-11.0424
deng❃tffu쎯de❅f쎯.	-11.0427
mian❄dm쎯de❅r쎯	-11.0428
shi❄pym쎯wei❄o쎯	-11.0428
nan❂fm쎯ya❄gog쎯	-11.0429
zhi❁pp쎯xia❄gh쎯	-11.0431
ai❄ep쎯er❃qiu쎯	-11.0434
san❁dg쎯nian❂rh쎯(	-11.0434
yong❄et쎯yi❃c쎯	-11.0434
ren❂w쎯jia❁pe쎯	-11.0438
sheng❁tak쎯,	-11.0439
yi❄uwl쎯qi❃rnb쎯	-11.0441
yi❁g쎯fu❂mhg쎯	-11.0445
qiang❁udnb쎯	-11.0447
ding❄pg쎯yu❃ygk쎯;	-11.045
di❄tx쎯쎅	-11.0451
ge❁sksw쎯ju❄ndj쎯	-11.0451
,xiang❃ybf쎯	-11.0451
yi❃c쎯tai❄dy쎯	-11.0454
wc쎯	-11.0455
jun❁qqug쎯	-11.0456
wu❂fq쎯ji❁sm쎯	-11.0456
.sui❁kj쎯ran❂qd쎯	-11.0457
zzbd쎯mei❃ugdu쎯	-11.0459
zhe❃ftj쎯han❄t쎯	-11.0462
du❃fft쎯	-11.0462
sheng❃ith쎯na❄mw쎯	-11.0464
gu❁wd쎯	-11.0464
huo❄ak쎯shi❄j쎯	-11.0465
쎃쎀nian❂rh쎯	-11.0465
wu❄dny쎯	-11.0466
ying❂apk쎯li❄tjh쎯	-11.0468
ji❁sm쎯dong❄fcl쎯	-11.0468
ying❁mmv쎯er❂qt쎯	-11.047
bi❄nt쎯bei❄tlf쎯	-11.0471
dong❁ai쎯jing❁x쎯쎁	-11.0471
쎀.쎇	-11.0472
cheng❁uqv쎯,	-11.0472
yan❃hv쎯jing❄quj쎯	-11.0472
vk쎯	-11.0473
.bi❃xx쎯yu❄kwgj쎯	-11.0475
di❄up쎯wang❂ggg쎯	-11.048
(ji❂wys쎯qiu❂lft쎯	-11.0482
zhi❄lfhf쎯yu❂gf쎯	-11.0483
쎈쎀쎀쎀	-11.0485
ou❃	-11.0486
쎅.쎀	-11.0486
chuang❃ucd쎯	-11.0489
xiao❃ih쎯yu❂gf쎯	-11.049
,bing❁ua쎯yu❂gf쎯	-11.0493
fu❂eb쎯yi❄tmc쎯	-11.0495
,쎂쎀쎀쎃nian❂rh쎯	-11.0495
zhi❁pp쎯dao❄uthp쎯	-11.0496
쎁.쎃	-11.0497
zao❁gmap쎯dao❄gc쎯	-11.0498
zai❄d쎯qi❂adw쎯	-11.0499
zuo❄yww쎯,	-11.0501
xu❄ycb쎯lie❄gq쎯	-11.0505
.쎁쎉쎈쎅nian❂rh쎯	-11.0505
can❁cd쎯shu❄ovt쎯:	-11.0506
쎁쎀쎁	-11.0508
jiu❃isgg쎯ba❁kc쎯	-11.051
chao❁vjsj쎯”you	-11.051
❂iytb쎯ji❁fmk쎯zh	-11.051
(쎁쎉쎃	-11.0512
jing❁x쎯li❃gj쎯.	-11.0513
zhi❃rxj쎯chu❁bm쎯	-11.0513
zhen❁qf쎯jiu❃qyo쎯	-11.0513
su❄gkip쎯lv❄yx쎯	-11.0514
px쎯	-11.0514
jue❂ynwy쎯	-11.0515
hai❁kynw쎯	-11.0515
zzzy쎯zzzy쎯	-11.0515
,쎄	-11.0516
guo❃js쎯shu❄scf쎯	-11.0517
fa❃if쎯zzbd쎯	-11.0521
zao❃jh쎯zai❄d쎯	-11.0522
wei❄kfi쎯liao❄ou쎯	-11.0524
jie❂xf쎯he❂synw쎯	-11.0524
쎁liang❃gmww쎯,	-11.0524
gn쎯	-11.0525
te❄trf쎯er❃qiu쎯	-11.0525
ji❂se쎯gao❁ym쎯	-11.0526
lei❃lx쎯ji❄yf쎯	-11.0527
biao❃ge쎯ge❂st쎯	-11.0531
zhi❂bk쎯wu❄tl쎯.	-11.0535
an❄vfhp쎯yi❄yyq쎯	-11.0536
jian❁ga쎯cai❃es쎯	-11.0537
shan❁mmm쎯yao❄ax쎯	-11.0539
xin❁usr쎯pin❃kkk쎯	-11.0541
xin❁ny쎯zhong❁k쎯	-11.0542
zhe❄p쎯wei❄wug쎯	-11.0547
xiang❁sh쎯bi❃xx쎯	-11.055
chu❄th쎯de❅r쎯	-11.055
dai❁ks쎯	-11.0551
shi❁jgm쎯da❄dd쎯	-11.0552
jun❄ccw쎯	-11.0553
jiao❁	-11.0554
wu❄tl쎯shi❂pu쎯	-11.0557
.ta❁wb쎯de❅r쎯	-11.0557
nv❃vvv쎯sheng❁tg쎯	-11.0562
fu❂eb쎯.	-11.0566
ren❂w쎯wei❄o쎯	-11.0567
sheng❃ith쎯di❄tx쎯	-11.0568
쎉hao❂kgn쎯	-11.0572
ti❂rj쎯ming❂qk쎯	-11.0572
pai❂rdj쎯gu❃me쎯	-11.0573
zui❄jb쎯jiang❄xk쎯	-11.0573
ge❁sks쎯lun❂wwx쎯	-11.0575
쎆ren❂w쎯,	-11.0575
shi❄j쎯wei❄o쎯	-11.0576
쎁쎁gan❄wh쎯	-11.0579
chi❃hwb쎯lun❂lwx쎯	-11.0581
lu❂hndm쎯	-11.0581
wei❄anf쎯	-11.0583
jiang❁wgl쎯	-11.0584
쎄.쎀	-11.0588
zheng❄ygh쎯.	-11.0589
zuo❄wt쎯ci❂yngk쎯	-11.059
pg쎯	-11.0591
:쎇	-11.0591
hui❁rpl쎯	-11.0592
wang❄yneg쎯,	-11.0593
que❁uub쎯	-11.0595
bing❁ua쎯fei❁djd쎯	-11.0595
cang❂adnt쎯yu❂gf쎯	-11.0598
yi❃c쎯dong❁ai쎯	-11.0598
u❁a	-11.0599
cao❃ajj쎯ben❃sg쎯,	-11.0599
kan❃maf쎯	-11.0603
hk쎯	-11.0603
li❂djfd쎯mi❃oy쎯	-11.0603
chu❁bm쎯xi❂yam쎯	-11.0604
ao❄vkf쎯huan❄kqm쎯	-11.0604
chan❂jujf쎯	-11.0606
lei❂flf쎯da❂dp쎯	-11.061
zhi❄rfm쎯de❅f쎯	-11.0611
zhi❁kw쎯xu❁fdm쎯	-11.0611
shen❁jhk쎯bao❄rb쎯	-11.0611
ban❁wvd쎯	-11.0612
lu❄kht쎯you❂mh쎯	-11.0614
kb쎯	-11.0614
mo❄dnv쎯mu❃ylf쎯	-11.0615
ge❁sksw쎯qu❁ma쎯,	-11.0618
de❅r쎯zhen❃ywe쎯	-11.0619
yi❁g쎯ban❄uf쎯	-11.062
xu❄v	-11.0622
쎁쎀쎀mi❃oy쎯	-11.0623
bu❄tig쎯	-11.0624
nan❂fm쎯shan❁mmm쎯	-11.0625
pi❁rx쎯zhun❃uwy쎯,	-11.0626
yi❄rqb쎯	-11.0627
yu❂cbj쎯yi❃c쎯	-11.0628
shi❂wyv쎯yan❂fhl쎯	-11.0629
du❂qtj쎯dao❄gc쎯	-11.0633
.쎁쎉쎈쎈nian❂rh쎯	-11.0633
yi❂egx쎯	-11.0635
tu❁pwd쎯qi❃fhn쎯	-11.0641
xu❁	-11.0641
ren❂w쎯cheng❁tq쎯	-11.0645
쎁쎉쎈쎃	-11.0645
xian❁tfq쎯de❅r쎯	-11.0646
,dang❁iv쎯shi❂jf쎯	-11.0646
zzbd쎯dang❃ipk쎯	-11.0646
you❂iytb쎯xi❄ca쎯.	-11.0647
dao❃nf쎯xia❄gh쎯	-11.0649
ye❄	-11.0653
bu❂i쎯gan❃nb쎯	-11.0653
tong❂m쎯hang❂tf쎯	-11.0654
eng❁fu쎯jiang❄xk쎯	-11.0655
쎅ren❂w쎯,	-11.0655
shao❃it쎯er❂qt쎯	-11.0655
kou❃kkkk쎯lei❄od쎯	-11.0656
she❄ihi쎯wai❄qh쎯	-11.0659
jian❃sw쎯suo❃fpx쎯	-11.0661
ma❂yss쎯you❂img쎯	-11.0661
wi쎯	-11.0664
jie❄waj쎯zhu❄egl쎯	-11.0665
zuo❄wt쎯《	-11.0667
xu❄	-11.0667
.쎂쎀쎀쎀nian❂rh쎯	-11.0668
zhi❁pp쎯.	-11.0671
wei❁tmg쎯bo❂fge쎯	-11.0672
bo❂ifp쎯hai❃itx쎯	-11.0673
kuo❄tdp쎯pei❄sgn쎯	-11.0674
tu❂ltu쎯wen❂yygy쎯	-11.0676
de❅r쎯ying❂apk쎯	-11.0676
yi❄nn쎯	-11.0677
yu❂wfl쎯	-11.0678
jie❃qev쎯xi❁sr쎯	-11.068
(yi❁g쎯	-11.0683
que❄fcb쎯shi❄j쎯	-11.0683
yi❄ujn쎯cha❁yq쎯.	-11.0683
shou❃uth쎯fa❁v쎯	-11.0684
yi❁wye쎯lai❄gkim쎯	-11.0686
zhi❄rfm쎯bao❃wk쎯	-11.0691
zhen❁pyhm쎯	-11.0693
❁kh	-11.0695
sf쎯	-11.0697
si❄ck쎯,	-11.0699
yg쎯	-11.0701
,jin❄rp쎯	-11.0701
ji❁iry쎯fa❁v쎯	-11.0702
.shan❄ryl쎯	-11.0702
di❁wqa쎯yu❂gf쎯	-11.0703
hu❃sps쎯meng❂sap쎯	-11.0703
xin❄wy쎯fang❃yyn쎯	-11.0703
쎁쎁쎅	-11.0704
an❂j	-11.0707
qu❁tmdq쎯	-11.0709
nan❂fm쎯jian❁ga쎯	-11.0709
ru❃dfef쎯	-11.0711
gan❃tfh쎯	-11.0713
dui❄cf쎯hua❄ytd쎯	-11.0714
cheng❂bd쎯“	-11.0715
wu❄qre쎯	-11.0718
yu❄fakg쎯.	-11.0719
pu❃uo쎯cha❂sj쎯	-11.0722
쎅mi❃oy쎯	-11.0723
djn쎯	-11.0723
,ta❁px쎯de❅r쎯	-11.0727
tfh쎯	-11.0728
.jin❄rp쎯nian❂rh쎯	-11.0729
zhan❃nae쎯chu❁bm쎯	-11.073
er❄fg쎯jie❄nm쎯	-11.0733
cun❁sf쎯na❄mw쎯	-11.0734
fu❂gip쎯yao❁s쎯	-11.0735
jin❄fj쎯chu❁bm쎯	-11.0735
shou❃pf쎯hu❄ryn쎯	-11.0738
san❁dg쎯ya❄gog쎯	-11.0738
pai❂rdj쎯hang❂tf쎯	-11.0738
zuo❄wt쎯wen❂yygy쎯	-11.0745
wei❁tv쎯,	-11.0751
gu❃emc쎯dong❁ai쎯	-11.0756
dian❃hko쎯:	-11.0756
fen❁sgw쎯	-11.0758
쎅mu❃ylf쎯	-11.0759
,jian❁ga쎯	-11.0759
쎄쎀yu❂wtu쎯	-11.076
ping❂gu쎯shi❂jf쎯	-11.0761
yi❁g쎯ben❄wsg쎯,	-11.0764
,jun❁fqu쎯	-11.0765
zhi❁pp쎯.”	-11.0767
vi쎯	-11.0768
,쎁	-11.0769
wu❁ifn쎯shui❃ii쎯	-11.0769
gong❃amy쎯	-11.077
쎆zzsx쎯	-11.0772
ci❂yngk쎯yu❃ygk쎯	-11.0772
zhan❄uh쎯zhi❃fhg쎯	-11.0775
(쎁쎇	-11.0776
de❅r쎯hua❄ytd쎯	-11.0778
;zai❄d쎯	-11.0779
yi❁g쎯shen❁tmd쎯	-11.0784
tai❄dy쎯kong❁pw쎯	-11.0787
ku❄puy쎯	-11.0787
,sui❁kj쎯ran❂qd쎯	-11.0799
쎁쎉shi❄an쎯ji❄xn쎯	-11.0799
쎂ren❂w쎯	-11.0799
jie❁sx쎯	-11.0799
쎁쎂쎃	-11.0801
zhu❃y쎯pin❂hid쎯	-11.0801
)deng❃tffu쎯	-11.0802
shi❄j쎯wo❃q쎯wu쎯	-11.0804
;hua❁awx쎯	-11.0805
,ruo❄adk쎯	-11.0806
hui❄wf쎯hang❂tf쎯z	-11.0806
zzbd쎯tun❁kgd쎯	-11.0808
bi❄nkuy쎯	-11.0808
qi❂hfc쎯	-11.0812
ang❁sh쎯guan❁ud쎯z	-11.0813
sha❁qsu쎯hai❄pd쎯	-11.0815
.....	-11.0818
shi❁ijo쎯du❄ya쎯:	-11.082
,zhuan❁fny쎯	-11.0822
zai❄d쎯de❅f쎯	-11.0824
gong❁dxa쎯	-11.0826
wei❁dgv쎯hai❃itx쎯	-11.0826
quan❂sgag쎯	-11.0828
,쎂쎀쎀쎂nian❂rh쎯	-11.083
gan❁ef쎯yan❂oo쎯	-11.083
long❂dx쎯men❂uyh쎯	-11.0831
fu❂pyg쎯ding❃hnd쎯	-11.0833
li❄uu쎯fa❃if쎯	-11.0834
shi❄qnth쎯)	-11.0834
.ta❁px쎯de❅r쎯	-11.0835
zi❄thd쎯you❄xln쎯	-11.0835
tai❄dy쎯ji❂se쎯	-11.0835
shui❃ii쎯yu❄fakg쎯	-11.0836
xie❁sdh쎯	-11.0839
ju❄nhw쎯	-11.0839
lan❂mmqu쎯	-11.0841
kua❄khd쎯yue❄fha쎯	-11.0842
jun❁pl쎯guan❁pn쎯	-11.0843
gu❃dgh쎯ji❄yop쎯	-11.0843
쎅hao❂kgn쎯	-11.0847
rong❂ade쎯	-11.0849
at	-11.085
qd쎯	-11.085
li❄oug쎯zi❃bb쎯	-11.085
han❄ic쎯dai❄wa쎯	-11.0853
san❁dg쎯yue❄eee쎯	-11.0854
yu❃ygk쎯fa❃if쎯	-11.0855
yin❂pgm쎯	-11.0858
xing❁jtg쎯xi❄txi쎯	-11.086
duo❁qq쎯ren❂w쎯	-11.086
kuang❄jyt쎯	-11.0861
chong❂oj쎯	-11.0862
쎅li❂djfd쎯mi❃oy쎯,	-11.0864
de❂tfl쎯yu❄yce쎯	-11.0866
ong❁qkhh쎯che❁lg쎯	-11.0869
hui❂lkd쎯jia❁pe쎯	-11.087
,shi❃wgkq쎯de❂tj쎯	-11.087
wu❂fq쎯qiong❂pwl쎯	-11.0871
jie❂ab쎯yue❁xq쎯	-11.0872
zhou❁ytyh쎯qu❁aq쎯	-11.0874
tian❁gd쎯zi❃bb쎯	-11.0876
lei❂	-11.0877
si❄lh쎯zhi❁efc쎯	-11.0879
xi❁sghg쎯zhi❄gcf쎯	-11.088
jin❄rp쎯nian❂rh쎯	-11.0881
mo❄gs쎯duan❁umd쎯	-11.0881
ben❄	-11.0882
qiu❁to쎯ji❄tb쎯	-11.0883
du❂yfn쎯wu❄tr쎯	-11.0883
zuo❄wt쎯pin❃kkk쎯,	-11.0885
geng❃bo쎯	-11.0885
qing❁ige쎯g	-11.0886
mo❄dnv쎯duo❁qq쎯	-11.0888
chen❂ba쎯lie❄gq쎯	-11.0889
쎁쎉쎂쎅nian❂rh쎯	-11.089
쎆ren❂w쎯	-11.0891
qing❄fnr쎯ka❃hhu쎯	-11.0892
lu❄kht쎯,jiao❁uq쎯	-11.0892
qiu❁og쎯na❄mw쎯	-11.0892
lu❄kht쎯mian❄dm쎯	-11.0893
ka❃hhu쎯er❃qiu쎯	-11.0896
jian❁ga쎯ban❄lw쎯	-11.0896
shan❁mmm쎯gu❃wwk쎯	-11.0897
yuan❁pqk쎯	-11.0901
de❅r쎯gong❁al쎯	-11.0901
cbt	-11.0903
yi❁g쎯xiao❃ih쎯	-11.0905
tan❂syl쎯	-11.0905
,chu❂bwt쎯	-11.0908
.suo❃rn쎯yi❃c쎯	-11.0909
쎂쎅쎀ke❄dq쎯	-11.0909
,쎂쎀쎀쎇nian❂rh쎯	-11.0912
lu❄kht쎯kou❃kkkk쎯	-11.0913
gf쎯	-11.0914
tu❂wtp쎯zhong❁k쎯	-11.0917
tan❁rcw쎯	-11.0917
gong❁wc쎯ban❄lw쎯	-11.0918
shi❂pu쎯xun❄yk쎯	-11.0919
쎅mu❃ylf쎯,	-11.0922
bian❄	-11.0924
zha❂snn쎯	-11.0924
yi❁g쎯jian❄wrh쎯	-11.0929
bu❂i쎯shou❄epc쎯	-11.0935
jia❁wlk쎯	-11.0935
bc쎯	-11.0935
zhi❄lfhf쎯.	-11.0937
hui❃ntx쎯	-11.094
,fang❄yt쎯	-11.0941
ji❁qnm쎯	-11.0945
gao❁rdfj쎯	-11.0947
jun❁vtkd쎯zi❃bb쎯	-11.0948
xiang❁qyk쎯	-11.0949
yu❂gf쎯zhe❄irr쎯	-11.095
dao❃nf쎯ren❂w쎯	-11.0951
gong❁wc쎯fen❁wv쎯	-11.0953
tj쎯	-11.0954
bian❄wgj쎯yu❂gf쎯	-11.0955
yong❃yni쎯le❄qi쎯	-11.0955
xin❁usr쎯ren❂w쎯	-11.0961
pi❂	-11.0963
쎀쎀ping❂gu쎯	-11.0964
쎇쎅쎀	-11.0964
hui❄wf쎯shang❃h쎯	-11.0964
jian❃udg쎯fei❂ec쎯	-11.0965
yi❁g쎯tong❂m쎯	-11.0966
tu❃ffff쎯er❃bgh쎯	-11.0966
zhu❃y쎯liao❄ou쎯:	-11.0968
n❁ujfj쎯wei❄wug쎯.	-11.0972
,yao❁s쎯	-11.0977
wan❂lfq쎯yi❄anb쎯	-11.0978
gou❄	-11.098
쎁쎀쎀duo❁qq쎯	-11.0983
shi❄j쎯yong❄et쎯	-11.0984
shi❂fgh쎯yue❄eee쎯	-11.0984
쎄xiao❃ih쎯shi❂jf쎯	-11.0985
.쎁쎉쎉쎂nian❂rh쎯	-11.0988
zhan❁hqd쎯	-11.0988
쎃zzsx쎯	-11.0989
gao❁ym쎯feng❁mtd쎯	-11.099
de❂tj쎯tian❁gd쎯	-11.0996
mo❂ays쎯gu❁avd쎯	-11.1002
dan❁myd쎯mai❄gtu쎯	-11.1003
quan❂wg쎯guo❂l쎯z	-11.1008
nian❃	-11.1015
bei❁uxe쎯hou❄rg쎯	-11.1015
ju❄qnd쎯chi❃hwb쎯	-11.1018
sai❁qgl쎯	-11.1018
qian❂ue쎯lie❄gq쎯	-11.1019
wei❁atm쎯	-11.1019
zai❄d쎯xin❁usr쎯	-11.1021
ji❂vcb쎯wei❄o쎯	-11.1021
i❁kynw쎯sou❄kgkw쎯	-11.1022
ka❃hhu쎯la❁ru쎯	-11.1023
di❂mb쎯dian❄jn쎯	-11.1024
yue❄eee쎯kan❁fjh쎯	-11.1024
wei❁tmg쎯ji❁sm쎯	-11.1031
tiao❂ts쎯li❄wgq쎯》	-11.1035
pf쎯	-11.1038
yi❃c쎯xi❁sghg쎯	-11.104
쎁쎃쎅	-11.1044
,nu❃vcl쎯li❄lt쎯	-11.1046
,hua❁awx쎯	-11.1046
db쎯	-11.1048
gang❁ea쎯	-11.105
er❄fg쎯ji❁adwe쎯	-11.1051
zhan❃glf쎯	-11.1051
kuo❄ry쎯zhang❁xt쎯	-11.1051
wu❄tr쎯de❅r쎯	-11.1051
쎁쎂쎁	-11.1054
,kou❃kkkk쎯	-11.1054
an❄aib쎯wei❂lfnh쎯	-11.1055
yang❂su쎯ben❃sg쎯	-11.1059
suo❃rn쎯zhao❂aft쎯	-11.106
shui❃ii쎯shang❃h쎯	-11.1061
si❁rad쎯	-11.1062
bang❃xdt쎯	-11.1063
hun❄ptf쎯fa❃if쎯	-11.1065
xu❁fdm쎯qiu❂fiy쎯,	-11.1066
.쎁쎉쎉쎇nian❂rh쎯	-11.1067
wu❃gg쎯yue❄eee쎯	-11.1068
wu❃gah쎯chang❁jj쎯	-11.1069
qi❂eyj쎯	-11.1069
dou❃bfh쎯	-11.1072
ren❂w쎯cai❂ft쎯.	-11.1074
zi❄pb쎯fu❂twf쎯	-11.1075
yuan❂fqb쎯/	-11.1076
,쎁쎉쎉쎈nian❂rh쎯	-11.1077
de❅r쎯fei❁djd쎯	-11.1078
ban❃thgc쎯)	-11.1079
wv쎯	-11.108
ji❂wys쎯《	-11.1081
ou❁aqgn쎯	-11.1082
si❄pynn쎯	-11.1083
shi❄j쎯wo❃q쎯	-11.1083
-쎁쎅	-11.1085
uc	-11.1087
,si❄lh쎯chuan	-11.1089
,li❄tjh쎯yong❄et쎯	-11.1089
quan❂wg쎯li❄lt쎯	-11.1092
nan❂sfm쎯	-11.1093
de❅r쎯zhu❃y쎯	-11.1093
bao❃wk쎯hu❄ryn쎯da	-11.1093
de❅r쎯xin❁ny쎯	-11.1094
i❂fuk쎯yang❃udyj쎯	-11.1096
ren❂w쎯cai❂ft쎯pe	-11.1096
ren❂w쎯kou❃kkkk쎯쎅	-11.1098
zzbd쎯bei❃ux쎯	-11.1098
cheng❁tq쎯hu❁kt쎯	-11.1099
de❂tj쎯ming❂qk쎯	-11.1101
(쎁쎆	-11.1101
shen❂pyj쎯,	-11.1101
tou❄tep쎯guo❄fp쎯	-11.1103
yu❃gn쎯ying❁yid쎯	-11.1108
wa❂vff쎯	-11.1109
mu❄hhhh쎯,	-11.1109
lin❂ss쎯xia❄gh쎯	-11.111
shi❄ymhj쎯nan❂fm쎯	-11.1111
dan❁	-11.1113
si❄ck쎯zhou❁ytyh쎯	-11.1117
bi❄han쎯	-11.1117
hai❃itx쎯de❅yqa쎯	-11.1118
wu❂fq쎯mao❂tfn쎯	-11.1119
❁ftbt쎯shou❄rep쎯.	-11.1119
fa❃if쎯ding❄pg쎯	-11.1126
hai❃itx쎯bin❁ipr쎯	-11.113
wu❃gg쎯”	-11.1132
〗	-11.1135
nk쎯	-11.1137
mou❃afs쎯gan❄wh쎯	-11.1138
u❂awd쎯ling❂awyc쎯	-11.1138
feng❁mq쎯ge❂st쎯,	-11.114
wei❄yle쎯zhi❁pp쎯	-11.1143
ga	-11.1144
fa❃if쎯shi❁jgm쎯	-11.1146
i❄n	-11.1147
(쎅	-11.115
yan❁ol쎯cao❃ajj쎯	-11.1151
zhi❂rvy쎯qiu❁og쎯	-11.1152
wei❂xwy쎯er❃qiu쎯	-11.1153
gu❃me쎯ke❁tu쎯	-11.1155
,쎂쎀쎀쎀nian❂rh쎯	-11.1155
〖	-11.1158
guo❂l쎯ji❄bf쎯z	-11.1161
da❂rs쎯po❄dhc쎯	-11.1161
ren❂w쎯;	-11.1164
mu❄ajdf쎯de❅f쎯	-11.1164
ren❄yw쎯zhi❁td쎯	-11.1167
쎁쎉쎂쎈nian❂rh쎯	-11.1167
chao❁vjsj쎯”d	-11.1167
da	-11.1169
ma❃cn쎯er❃qiu쎯	-11.1169
fu❂gip쎯ke❃sk쎯	-11.1169
yi❁ye쎯fu❂eb쎯	-11.117
da❄dd쎯fang❁yy쎯	-11.1175
쎈ren❂w쎯,	-11.1176
yi❄umc쎯	-11.1176
fu❄tjt쎯yin❄qgb쎯	-11.1177
zhu❁yft쎯hou❂wnt쎯	-11.1177
tgf쎯	-11.1182
hua❄ytd쎯ju❄ndj쎯	-11.1184
zhi❄lfhf쎯qiu❁og쎯	-11.1185
ma❁vc쎯	-11.1186
zzbd쎯huan❂ggi쎯	-11.1189
."	-11.1189
쎀mu❃ylf쎯	-11.1193
ceng❂nfc쎯de❅r쎯	-11.1193
jia❁pe쎯yi❃c쎯	-11.1193
chao❃oi쎯guo❁qkm쎯	-11.1194
(쎁쎀	-11.1194
jie❂rgv쎯de❅r쎯	-11.1195
chu❁bm쎯zu❁teg쎯	-11.1196
쎂.쎃	-11.1197
gong❁wc쎯shi❄aa쎯	-11.1197
sou❁tevc쎯	-11.12
you❁wdn쎯xiu❄te쎯l	-11.12
,sui❁kj쎯	-11.1201
ju❂nnk쎯shi❄j쎯	-11.1202
ge❂st쎯ju❂nnk쎯	-11.1202
bu❂i쎯yi❂peg쎯	-11.1203
gu❃dgh쎯ren❂w쎯	-11.1203
ping❂gu쎯tan❃fjg쎯	-11.1204
fu❄pgk쎯han❂wynk쎯	-11.1208
bing❁rgw쎯qi❄kkd쎯	-11.1212
cha❄wvmj쎯	-11.1214
pian❁thg쎯zu❃xeg쎯	-11.1215
.쎁쎉쎉쎃nian❂rh쎯	-11.1216
tong❂m쎯yi❄ujn쎯	-11.1218
,쎂쎀쎀쎈nian❂rh쎯	-11.1219
bu❂i쎯tong❂m쎯,	-11.1219
you❄ccc쎯shi❄j쎯	-11.122
si❄dv쎯	-11.1221
mo❄dnv쎯li❃jfd쎯	-11.1224
nian❂rh쎯yue❄eee쎯	-11.1224
chong❁yc쎯zu❂khu쎯	-11.1225
zhao❂aft쎯《	-11.1226
min❂n쎯yin❂www쎯	-11.123
wu❄tr쎯,	-11.123
dou❁ftjb쎯bu❂i쎯	-11.1234
쎁쎂-	-11.1235
mian❄dm쎯,	-11.1238
u❂a	-11.1239
zuo❄wt쎯“	-11.1239
rc쎯	-11.124
zhong❁k쎯huo❄aqt쎯	-11.1245
pi❁fgig쎯	-11.1247
qi❃rnb쎯fen❁rnw쎯	-11.1249
쎀zzbd쎯	-11.1249
shi❄fghg쎯zzbd쎯	-11.1252
uff	-11.1252
zhang❃ta쎯da❄dd쎯	-11.1255
lian❂bu쎯yi❄ype쎯	-11.1258
nan❂fm쎯gua❁rcy쎯	-11.1259
xi❁sghg쎯bian❁lp쎯	-11.126
쎁쎈쎉	-11.1267
gu❄ynwy쎯	-11.1267
kui❄ikh쎯	-11.1267
,ren❂w쎯wu쎯	-11.1268
qin❂	-11.1269
guo❄fp쎯du❄iya쎯	-11.127
an❄u	-11.1272
tun❂	-11.1276
쎀.쎀쎀	-11.1278
.쎁쎉쎈쎃nian❂rh쎯	-11.1278
geng❁dif쎯de❅f쎯쎀.	-11.1279
bu❂i쎯jian❄mqb쎯	-11.128
qing❄fnr쎯le❄qi쎯	-11.1281
hao❂kgn쎯)	-11.1281
yi❁g쎯bian❁lp쎯	-11.1285
tong❄uce쎯ku❃adf쎯	-11.1285
mao❂tfn쎯.	-11.1287
ug쎯	-11.1289
bu❂i쎯xiang❂yud쎯	-11.129
i❄ick쎯qu❁aq쎯	-11.129
wd쎯	-11.1291
zong❃ukn쎯hui❄wf쎯	-11.1293
cheng❂dn쎯hou❄rg쎯	-11.1293
jiao❁shi쎯fen❃ow쎯	-11.1296
❂vu	-11.1297
yi❁g쎯hao❂kgn쎯	-11.1298
쎆hao❂kgn쎯	-11.1299
jian❄wrh쎯han❄t쎯	-11.13
,쎁쎉쎉쎆nian❂rh쎯	-11.1301
huang❂	-11.1302
fen❂iwv쎯	-11.1303
po❁hcd쎯you❃e쎯	-11.1305
,ben❃sg쎯	-11.1308
,jing❁oge쎯	-11.131
,can❁cd쎯yu❃gn쎯	-11.1312
bi❃thc쎯de❂tj쎯	-11.1313
wei❁mtv쎯	-11.1316
ce❄tgm쎯han❄t쎯	-11.1316
쎁쎉쎂쎇nian❂rh쎯	-11.1319
jian❁jtyl쎯li❃gj쎯	-11.1319
dao❄gc쎯de❅yqa쎯	-11.132
you❃e쎯yi❄uwl쎯	-11.1324
wan❃rqkq쎯	-11.1324
ma❂yss쎯zui❄sgy쎯	-11.1327
mo❄dnv쎯mu❃ylf쎯,	-11.1329
guo❄fp쎯de❅r쎯	-11.133
hui❄wf쎯zai❄d쎯	-11.133
bei❄mhny쎯ke❂fpm쎯	-11.1331
du❃mftj쎯	-11.1331
wan❃jq쎯nian❂rh쎯	-11.1334
lian❂i	-11.1334
zhi❁pp쎯de❅f쎯	-11.1336
da❄dd쎯dou❁ftjb쎯	-11.1338
cai❁qtge쎯	-11.1339
da❄dd쎯shi❃wgkq쎯	-11.1339
bu❂i쎯duo❁qq쎯	-11.1343
ji❂xe쎯chong❂tgj쎯	-11.1343
쎂쎈쎀	-11.1345
쎉gong❁wc쎯li❃jfd쎯	-11.1347
ban❄uf쎯dao❃nf쎯	-11.1348
zhun❃uwy쎯ze❂mj쎯	-11.1348
bu❂i쎯ming❂je쎯	-11.1351
da❄dd쎯jiang❁uqf쎯	-11.1351
《guan❁ud쎯yu❂gf쎯	-11.1357
li❄uu쎯fang❁yy쎯	-11.1358
zheng❄ugh쎯zzbd쎯	-11.1361
hou❄rg쎯you❄ccc쎯	-11.1362
qu❁ma쎯she❂rr쎯	-11.1367
,na❃vfb쎯	-11.1372
yue❁xq쎯쎄	-11.1376
de❅f쎯ban❃src쎯	-11.1378
dong❁ai쎯bian❁lp쎯	-11.138
bin❁sse쎯	-11.1382
bu❄dmh쎯lu❃qgj쎯	-11.1382
qi❃fhn쎯fu❂wdy쎯	-11.1382
ran❂qd쎯er❂dmj쎯	-11.1384
gu❄dty쎯cheng❁tq쎯	-11.1385
rw쎯	-11.1388
xing❁ejt쎯	-11.1391
.han❄ic쎯	-11.1391
tai❄dy쎯zu❃pye쎯	-11.1393
yi❂khgp쎯ji❄yop쎯	-11.1394
bu❄hi쎯bing❁rgw쎯	-11.1399
da❄dd쎯gang❁xm쎯	-11.1402
guai❄nc쎯wu❄tr쎯	-11.1405
gan❁aaf쎯	-11.1408
zhi❂fh쎯da❂dp쎯	-11.1408
pi❁aqv쎯ke❄dq쎯	-11.1409
yuan❂km쎯;	-11.1411
er❂dmj쎯bei❄puhc쎯	-11.1412
lv❄yx쎯da❂dp쎯	-11.1413
de❅yqa쎯yun❄axj쎯	-11.1414
huan❄pah쎯	-11.1417
❁sm쎯chang❃fnrt쎯	-11.1418
feng❁mq쎯su❂wwwk쎯	-11.1418
hong❂iaw쎯wu❃gah쎯	-11.1419
le❅b쎯xin❁usr쎯	-11.1419
ti❂rj쎯gong❁waw쎯z	-11.1419
yao❂er쎯kong❄rpw쎯	-11.142
you❄ccc쎯yi❁g쎯	-11.142
nai❃ve쎯you❂img쎯	-11.1422
zhe❄p쎯zuo❄yww쎯	-11.1423
mq쎯	-11.1424
lu❂	-11.1425
min❂n쎯shi❄gk쎯	-11.143
xing❂gae쎯.	-11.1433
jie❂xf쎯ge❃wgk쎯,	-11.1433
wu❁qng쎯lu❃qgj쎯	-11.1434
mm쎯	-11.1434
de❅f쎯wei❄wug쎯.	-11.1435
ji❁dskf쎯te❄trf쎯	-11.1437
e❄waj쎯jian❄jtyq쎯	-11.1438
ai❄ep쎯xin❁ny쎯	-11.1442
zhi❁pp쎯mei❃ugdu쎯	-11.1442
yue❄fha쎯duo❁qq쎯	-11.1446
lou❂sov쎯pan❂tel쎯	-11.1447
jie❃qev쎯du❂yfn쎯	-11.1448
gan❁afd쎯zhe❄aya쎯	-11.1449
a❁u	-11.1451
fu❃wqr쎯	-11.1452
zzbd쎯wu❃gg쎯	-11.1453
fu❄wcy쎯fu❄wcy쎯	-11.1455
zi❄igm쎯	-11.146
bai❃dj쎯fen❁wv쎯	-11.1461
ji❁adwe쎯de❅r쎯	-11.1466
lou❂sov쎯,	-11.1466
bi❄ulgj쎯	-11.1471
.쎁쎉쎃쎄nian❂rh쎯	-11.1471
쎀쎀쎀mi❃oy쎯	-11.1474
yan❂uqvd쎯	-11.1475
쎁쎂쎂	-11.1475
tong❂m쎯“	-11.1477
lao❂apl쎯wu❄tl쎯	-11.1479
,쎁쎉쎉쎇nian❂rh쎯	-11.1482
ren❂w쎯ge❂st쎯	-11.1482
,쎁쎉쎉쎂nian❂rh쎯	-11.1484
:)wei❄o쎯	-11.1486
sui❄mqu쎯yue❄eee쎯	-11.1488
you❃e쎯li❄tjh쎯	-11.1491
gui❄khgm쎯de❅r쎯	-11.1492
le❄qi쎯qu❄fhb쎯	-11.1493
bian❄yo쎯hua❁wx쎯,	-11.1493
an❃q	-11.1497
,dai❄gkp쎯	-11.1498
jiao❄lu쎯di❁wqa쎯	-11.1498
sha❁qsu쎯si❃gqx쎯	-11.1499
shi❄pgc쎯.	-11.1501
di❄uxh쎯di❄uxh쎯	-11.1502
ng쎯	-11.1503
mi❄pnt쎯bei❄puhc쎯	-11.1505
bi❄umia쎯	-11.1507
ge❂jw쎯	-11.1509
ban❁gyt쎯ji❂xe쎯	-11.1511
pang❂ydx쎯da❄dd쎯	-11.1513
ying❂apo쎯	-11.1513
de❅r쎯shuang❁cc쎯	-11.1515
zhuang❁ufy쎯zzbd쎯	-11.1516
,-	-11.1517
,shuang❁cc쎯	-11.1519
shi❄j쎯zui❄jb쎯	-11.1519
rt쎯	-11.1521
sha❁qsu쎯ren❂w쎯	-11.1523
ju❁rqk쎯	-11.1529
ping❂gu쎯fan❂my쎯	-11.1529
jin❃jc쎯zhang❁xt쎯	-11.1529
nan❂fm쎯fei❁djd쎯	-11.1529
qu❁aq쎯hua❂aj쎯	-11.153
쎁쎀쎄	-11.1531
:쎁zzbd쎯	-11.1533
nan❂fm쎯qu❁aq쎯	-11.1535
yi❁g쎯ci❂yngk쎯	-11.1539
geng❁gjq쎯da❄dd쎯	-11.154
,zai❄d쎯zhi❂bk쎯	-11.154
jun❁pl쎯di❄tx쎯	-11.1543
,tui❁rwyg쎯	-11.1544
yi❃ct쎯.”	-11.1544
bo❁ato쎯	-11.1546
jia❄lks쎯gou❃sq쎯	-11.1548
han❄fjw쎯lin❂ss쎯	-11.1549
ui❄ikh쎯yang❂unr쎯	-11.1551
jue❂	-11.1552
shui❃ii쎯hu❃iytf쎯	-11.1553
tiao❂ts쎯wen❂xyy쎯	-11.1554
de❅r쎯zheng❃gkih쎯	-11.1556
he❂wgkm쎯	-11.1558
,쎂쎀쎀쎉nian❂rh쎯	-11.156
tai❄dwiu쎯an❁pv쎯	-11.1562
si❄ck쎯zzbd쎯	-11.1564
(qi❂adw쎯zhong❁k쎯	-11.1565
ya❄gog쎯yun❃fcp쎯	-11.1565
man❃iagw쎯le❅b쎯	-11.1567
feng❁mq쎯shui❃ii쎯	-11.1568
thp쎯	-11.1569
shi❃kq쎯liao❄ou쎯	-11.1571
ben❄wsg쎯hui❄wf쎯	-11.1573
re❄rvyo쎯,	-11.1574
,na❃vfb쎯ma❅tc쎯	-11.1576
zhi❁pp쎯xing❁jtg쎯	-11.1577
min❃uji쎯xi❁sghg쎯	-11.1578
shan❄uduk쎯,	-11.1579
ban❃frc쎯	-11.158
,kuan❁pa쎯	-11.1581
ux쎯	-11.1583
chu❄th쎯zzbd쎯	-11.1587
zzsx쎯쎅	-11.1589
zhong❁k쎯guo❂l쎯z	-11.1589
bei❄ouk쎯	-11.1589
gui❁fff쎯	-11.159
,쎁쎉쎉쎃nian❂rh쎯	-11.159
,zhi❂fh쎯dao❄gc쎯	-11.1591
de❅r쎯lao❃ftx쎯	-11.1591
ban❄uf쎯qiu❂gfi쎯	-11.1593
zhan❄uh쎯zai❄d쎯	-11.1595
ji❁x	-11.1595
shou❄epc쎯guo❂l쎯	-11.1597
zhong❃pey쎯	-11.1597
tao❂iqr쎯bao❃pgy쎯	-11.1609
shan❁pue쎯	-11.1609
ei❄kfi쎯jing❁oge쎯	-11.1611
bei❃ux쎯kao❄tfkd쎯	-11.1615
ran❂oqdo쎯qi❃rnb쎯	-11.1617
fu❄qm쎯he❂awsk쎯	-11.1618
jian❁ga쎯hua❁awx쎯	-11.1618
쎃,	-11.1619
ji❄yjjh쎯.	-11.162
kp쎯	-11.1621
guo❂l쎯tu❃ffff쎯z	-11.1623
da❄dd쎯xing❄iw쎯	-11.1624
duo❂df쎯de❂tj쎯	-11.1627
li❄dqi쎯	-11.1631
luo❁lq쎯si❁adwr쎯	-11.1633
lu❄vi쎯zhi❄rmhj쎯	-11.1633
ben❄wsg쎯xi❄txi쎯,	-11.1633
an❁pv쎯qing❄yd쎯	-11.1633
,hai❃itx쎯ba❂rdc쎯	-11.1635
ren❂wtf쎯wu❄tl쎯.	-11.1642
du❂qtj쎯hou❄djb쎯	-11.1645
,you❃e쎯de❅r쎯	-11.1646
zhu❄egl쎯yu❂gf쎯	-11.1646
ri❄jjjj쎯ji❄yn쎯	-11.1649
you❁xxm쎯ya❃ahty쎯	-11.1649
ci❃hx쎯wai❄qh쎯	-11.1652
zao❄tfkp쎯yi❄yxj쎯	-11.1654
juan❄xke쎯	-11.1656
qiao❁ymkc쎯	-11.1656
mou❂	-11.1657
zao❁gmap쎯yu❄jm쎯	-11.1658
nu❃vcl쎯li❄lt쎯,	-11.1658
pin❃kkk쎯wei❄wug쎯	-11.1659
쎇yue❄eee쎯zai❄d쎯	-11.1659
yong❄et쎯shu❁nnh쎯	-11.166
,gei❃xw쎯	-11.1663
gui❁fwm쎯ge❂st쎯:	-11.1669
ru❄ty쎯qin❁wvp쎯	-11.167
.쎅zzbd쎯	-11.1671
you❃e쎯san❁dg쎯	-11.1671
wu❃gah쎯xia❂wgu쎯	-11.1673
er❄fg쎯nian❂rh쎯(	-11.1675
fa❁v쎯guang❁iq쎯	-11.1675
yao❁s쎯dian❃hko쎯	-11.1675
jian❄ygl쎯	-11.1676
qian❂ue쎯jing❃jy쎯	-11.1677
le❅b쎯ta❁wb쎯	-11.168
wei❄wug쎯de❅r쎯	-11.168
ci❃hx쎯shu❁nnh쎯	-11.1684
cang❁wbb쎯ku❄ylk쎯	-11.1685
de❅f쎯dai❄gkp쎯,	-11.1686
zhong❁ykhe쎯	-11.1686
jun❁pl쎯qiu❂lft쎯	-11.1689
chao❁vjsj쎯”	-11.1689
pi❁rx쎯ping❂ygu쎯	-11.1691
,쎂쎀쎀쎁nian❂rh쎯	-11.1693
xi❁oqd쎯	-11.1694
쎀li❂djfd쎯mi❃oy쎯,	-11.1696
bao❄rb쎯she❄py쎯	-11.1696
zu❃pye쎯ji❂tdij쎯	-11.1697
,bu❂i쎯neng❂ce쎯	-11.1699
yi❂	-11.17
:쎃쎀	-11.1701
ji❄rfc쎯shi❁jgm쎯	-11.1707
》you❂mh쎯	-11.1708
da❄dd쎯mi❃oy쎯	-11.1708
.쎁쎉쎉쎅nian❂rh쎯	-11.171
yi❁g쎯pian❁tyna쎯	-11.1711
xuan❄oyx쎯	-11.1711
tong❂m쎯zhi❄ick쎯	-11.1711
jie❃veg쎯jie❃veg쎯	-11.1712
he❂isk쎯pan❄luf쎯	-11.1713
zhan❄hka쎯shu❂sy쎯	-11.1714
ying❂ap	-11.1715
jiao❄lu쎯shao❃it쎯	-11.1718
up쎯	-11.1719
yin❂iet쎯	-11.1721
,huan❂ggi쎯ji	-11.1721
fm쎯	-11.1722
wei❂xwy쎯ji❁dskf쎯	-11.1724
zhu❄iy쎯ce❄mm쎯z	-11.1725
guan❁pn쎯zhi❄gcf쎯	-11.1726
jing❁x쎯fei❄xjm쎯	-11.1726
pei❄sgn쎯yin❁ujf쎯	-11.1728
zheng❄ght쎯bu❄uk쎯	-11.1732
,fu❄wcy쎯	-11.1733
jia❂aguw쎯	-11.1733
zui❄jb쎯zhang❃ta쎯	-11.1735
xue❂ip쎯shuo❁yu쎯	-11.1739
a❂k	-11.1741
de❅yqa쎯,	-11.1747
ge❂st쎯er❃qiu쎯	-11.1748
ye❃bn쎯xu❃ytf쎯	-11.175
si❄lh쎯jie❄nm쎯	-11.1752
jie❂ab쎯,	-11.1754
ban❄wuf쎯sui❂bde쎯	-11.1754
qu❄fcu쎯shi❄an쎯	-11.1755
xi❂nu쎯xing❄ntg쎯	-11.1755
fen❁wv쎯gong❁a쎯	-11.1755
.쎁쎉쎈쎆nian❂rh쎯	-11.1758
ning❂uxt쎯ju❄bct쎯	-11.1759
,bi❃xx쎯ru❂vk쎯	-11.1761
mei❄vnh쎯	-11.1763
qian❄qw쎯	-11.1763
dou❁ftjb쎯yao❁s쎯	-11.1763
wai❄qh쎯lai❂go쎯	-11.1764
yu❂wtu쎯nian❂rh쎯	-11.1764
qi❃rnb쎯wen❁ijl쎯쎂	-11.1764
tian❁gd쎯cai❂ft쎯	-11.1766
san❁dg쎯xia❂mgu쎯	-11.1766
쎁쎉쎈쎂	-11.1766
xia❄gh쎯ru❄ty쎯	-11.1769
cheng❂fd쎯bei❃ux쎯	-11.1769
suo❃rn쎯de❂tj쎯	-11.177
diao❄ymf쎯li❃gj쎯	-11.177
hua❁wx쎯,	-11.1776
tai❄dy쎯shou❃pf쎯	-11.1778
gua❁rtd쎯	-11.178
zha❄yth쎯	-11.178
bei❃ux쎯ce❄wmj쎯	-11.1781
,li❄wgq쎯ru❂vk쎯	-11.1782
men❂uyh쎯,	-11.1783
,wu❂fq쎯lun❄ywx쎯	-11.1783
ming❂qk쎯shi❁jgm쎯	-11.1784
you❂q	-11.1784
duan❁umd쎯zi❃bb쎯	-11.1786
yong❃yni쎯jiu❃qy쎯	-11.1787
❁d	-11.1788
fen❂sso쎯	-11.179
hang❂ipkh쎯wu❄tl쎯	-11.1794
.쎁쎉쎉쎉nian❂rh쎯	-11.1798
wg쎯	-11.1798
gong❁at쎯guan❁ud쎯	-11.1799
xin❄wy쎯ren❂wtf쎯	-11.18
fu❂eb쎯yong❄et쎯	-11.18
,zhu❃y쎯	-11.1801
.쎁쎉쎈쎇nian❂rh쎯	-11.1802
da❄dd쎯zhi❄gcft쎯	-11.1803
zhe❃ftj쎯wei❄o쎯	-11.1804
zhan❁hk쎯ju❁rnd쎯	-11.1805
ri❄jjjj쎯zi❃bb쎯	-11.1806
shen❃pj쎯cha❂sj쎯	-11.1809
wu❄tl쎯ju❂nnk쎯	-11.181
ia❂lpdk쎯쎁gan❄wh쎯	-11.1811
,su❂wwwk쎯	-11.1811
,bai❂rrr쎯	-11.1813
,zu❃pye쎯ji❂tdij쎯	-11.1818
ta❁fjn쎯	-11.182
zhi❁pp쎯zi❃bb쎯	-11.182
lian❂nwyc쎯	-11.1823
pian❁thg쎯《	-11.1823
xiu❁ws쎯xi❁thn쎯	-11.1825
ji❃iwe쎯chui❂swy쎯	-11.1828
fu❂rfw쎯pin❂wvm쎯	-11.1831
zhu❁jri쎯	-11.1832
bian❁lp쎯de❅r쎯	-11.1834
he❂isk쎯xi❁sghg쎯	-11.1837
,쎁쎉쎉쎅nian❂rh쎯	-11.1839
duo❃tmds쎯	-11.1841
jia❁pe쎯dian❄jn쎯	-11.1843
,zhi❃xj쎯zai❄d쎯	-11.1846
e❄akkn쎯	-11.1848
ji❁iry쎯li❄ddnl쎯	-11.1848
zhi❂gqf쎯min❂n쎯	-11.1849
jie❂faw쎯zhi❄gcf쎯	-11.185
쎁fen❁wv쎯	-11.1851
wan❂pfq쎯bei❄tlf쎯	-11.1854
zong❃ukn쎯e❂ptkm쎯	-11.1855
,xie❂kf쎯	-11.1858
hen❃qtv쎯	-11.1858
yin❁ld쎯qi❂adw쎯	-11.1862
:(	-11.1862
kun❁jx쎯shan❁mmm쎯	-11.1866
an❁pv쎯zhi❄lfhf쎯	-11.1869
쎅쎅쎀	-11.187
yi❁fpg쎯	-11.187
e❄gogn쎯xing❄ntg쎯	-11.1871
fu❁fw쎯qi❁gv쎯	-11.1871
gk쎯	-11.1874
ka❃hhu쎯tong❁cep쎯	-11.1874
ju❄ran쎯jue❂xqc쎯	-11.1875
xun❁tgl쎯	-11.1877
wei❄o쎯ci❃hx쎯	-11.1878
san❁dg쎯fen❁wv쎯	-11.188
zu❂ytt쎯,	-11.1881
dong❁ai쎯zhi❄gcf쎯	-11.1883
chan❂	-11.1887
nong❂pei쎯ji❁sm쎯	-11.1887
cang❁tew쎯	-11.1888
yi❂ahkm쎯	-11.1888
zheng❁tmgt쎯	-11.1888
bu❄hi쎯qiang❁swb쎯	-11.1889
nong❂pei쎯lin❂ss쎯	-11.1889
deng❄cb쎯xiao❃ih쎯	-11.189
qian❂ue쎯ji❁adwe쎯	-11.1891
,쎂쎀쎁쎀nian❂rh쎯	-11.1892
쎄ren❂w쎯,	-11.1894
쎃ci❄uqw쎯	-11.1896
jian❃wwgi쎯	-11.1897
쎈ren❂w쎯	-11.1897
geng❁dif쎯de❅f쎯쎁.	-11.1898
xue❂ip쎯ming❂qk쎯:	-11.1899
zheng❄ugh쎯.	-11.19
mu❄hhhh쎯.	-11.1902
a❁edjn쎯zhi❄rmhj쎯	-11.1903
deng❄	-11.1904
mo❂yssr쎯ca❁rpwi쎯	-11.1905
쎇쎂쎀	-11.1905
,dao❃wgc쎯ru❄ty쎯	-11.1909
qr	-11.1909
jian❄mqb쎯dao❄gc쎯	-11.1912
hou❄rg쎯mian❄dm쎯	-11.1913
pao❂puq쎯	-11.1914
jiu❄hj쎯zhi❃fhg쎯	-11.1915
bi❄nkuf쎯hua❄gl쎯	-11.1916
,zhi❁kw쎯yao❁s쎯	-11.1917
ef쎯	-11.1917
zz	-11.1917
i❂a	-11.192
mang❃ada쎯	-11.1921
쎁쎀쎃	-11.1921
die❂rwp쎯	-11.1926
yi❄ujn쎯wei❄kfi쎯	-11.1927
zzbd쎯yang❃udyj쎯	-11.1929
zi❃bb쎯nv❃vvv쎯	-11.1933
chun❁dw쎯tian❁gd쎯	-11.1934
de❅r쎯guan❁cm쎯	-11.1935
dao❄uthp쎯zzbd쎯	-11.1939
lun❂xwx쎯	-11.1941
ru❂vk쎯tong❂m쎯	-11.1942
chu❁bm쎯hang❂tf쎯	-11.1944
ben❄wsg쎯.	-11.1945
bu❂i쎯ru❂vk쎯	-11.1945
tou❂rmc쎯chan❃u쎯	-11.1946
shui❃ii쎯liu❂iyc쎯	-11.1947
,qing❃yge쎯	-11.1948
he❂isk쎯dao❄uthp쎯	-11.1949
fu❂web쎯	-11.195
ni❃rny쎯ding❄ys쎯	-11.1951
qi❃fhn쎯lai❂go쎯,	-11.1952
qin❂arj쎯cai❄ae쎯	-11.1952
ev쎯	-11.1954
song❃wwb쎯	-11.1956
,wai❄qh쎯	-11.1958
hu쎯	-11.1959
de❅r쎯te❄trf쎯	-11.1959
chu❃wyf쎯bei❄tlf쎯	-11.196
ren❂w쎯zhi❁pp쎯	-11.1961
zhe❃ftj쎯zzbd쎯	-11.1965
dao❄uthp쎯ju❄hw쎯	-11.1965
,fu❂gip쎯shi❄j쎯	-11.1965
wen❁ijl쎯han❄t쎯	-11.1966
xi❁ugt쎯	-11.1966
xian❃jo쎯wei❁tmg쎯	-11.1966
qiu❁og쎯wu❄tl쎯.	-11.1967
zhe❄p쎯ma❅tc쎯	-11.1967
zzbd쎯su❁alw쎯	-11.1968
,chong❁yc쎯	-11.1968
jun❄	-11.1969
zheng❁qv쎯yi❄yyq쎯	-11.1975
》xi❄txi쎯lie❄gq쎯	-11.1976
shang❃h쎯fang❁yy쎯	-11.1978
de❅f쎯wei❁tv쎯	-11.1978
zzbd쎯kang❄rymn쎯	-11.1981
ke❁tu쎯,	-11.1984
lao❃ftx쎯ban❃src쎯	-11.1985
,쎁쎉쎉쎀nian❂rh쎯	-11.1986
jian❁ga쎯kuo❄uit쎯	-11.1987
hao❁aym쎯	-11.199
zzdw쎯,	-11.199
yan❂fhl쎯zzbd쎯w	-11.1991
쎁zhi❁kw쎯	-11.1991
an❁pv쎯de❂tfl쎯	-11.1992
.쎁쎉쎉쎆nian❂rh쎯	-11.1994
quan❂wg쎯cun❁sf쎯x	-11.1994
jing❄fuj쎯na❄mw쎯,	-11.1995
qian❂qg쎯,	-11.1996
ru❄ty쎯wu❃wgg쎯	-11.1997
rong❂spwk쎯	-11.1997
tai❄qdy쎯	-11.2
zhi❂bk쎯yu❂gf쎯	-11.2004
쎂쎁쎀	-11.2005
ck쎯	-11.2007
쎁쎅nian❂rh쎯	-11.2008
jiu❃vt쎯jiu❃vt쎯	-11.201
qiao❄mi쎯	-11.2014
yu❃gn쎯“	-11.2019
jian❁jcf쎯shi❂pu쎯	-11.2019
zzbd쎯xiao❁iie쎯	-11.2019
jian❄il쎯jian❄il쎯	-11.2021
qi❄kkd쎯.	-11.2024
mo❄	-11.2028
ming❂qk쎯jiao❄kn쎯	-11.2029
fu❄gkl쎯shi❄ymhj쎯	-11.203
ri❄jjjj쎯,	-11.2034
min❂	-11.2037
jian❃sw쎯yi❄umc쎯	-11.2044
,ta❁wb쎯de❅r쎯	-11.2044
ban❄uf쎯gan❄wh쎯	-11.2046
wgj쎯	-11.2048
ju❂aqo쎯hua❁awx쎯	-11.2053
bu❃kge쎯ru❃ebn쎯	-11.2054
(yue❁xq쎯	-11.2054
shi❄j쎯ta❁wb쎯	-11.2055
pq쎯	-11.2058
du❂qtj쎯zi❁uqwm쎯	-11.2061
fen❁wv쎯cheng❂dn쎯	-11.2061
,쎁쎉쎈쎁nian❂rh쎯	-11.2062
mian❃qkql쎯	-11.2064
shi❄j쎯jiang❁uqf쎯	-11.2069
xin❁ny쎯bing❄ugm쎯	-11.207
wu❂fq쎯xiao❄uqt쎯	-11.207
deng❃tffu쎯;	-11.2071
mu❄ssss쎯,gao❁ym쎯	-11.2073
san❁dg쎯bai❃dj쎯	-11.2074
du❄sfg쎯juan❁keq쎯	-11.2074
e❄gogn쎯mo❂yssc쎯	-11.2075
ji❂vcb쎯shi❂jf쎯	-11.2076
yu❂gf쎯si❄lh쎯	-11.2077
wang❃tyg쎯lai❂go쎯	-11.2077
zha❄spw쎯	-11.2082
hao❄itfk쎯te❄trf쎯	-11.2082
,쎁쎉쎈쎉nian❂rh쎯	-11.2085
shi❃wgkq쎯zhi❁pp쎯	-11.2087
.wo❃q쎯	-11.2088
hu❂ide쎯qu❁aq쎯	-11.2089
qian❁tfk쎯wa❃gny쎯	-11.2089
lu❄bfm쎯xu❄xfn쎯	-11.2089
xia❄dht쎯tian❁gd쎯	-11.2089
zu❃xeg쎯zu❃xeg쎯	-11.2094
쎁쎃gan❄wh쎯	-11.2094
ba❁wty쎯lu❄kht쎯	-11.2096
.an❄rpv쎯	-11.2096
ba❄fmy쎯qu❁aq쎯	-11.2097
jiu❄hj쎯shi❂jf쎯	-11.2102
yi❃c쎯ren❂w쎯	-11.2104
“wu❃gg쎯	-11.2106
mu	-11.2107
ms쎯	-11.2109
gai❄svc쎯lun❄ywx쎯	-11.2111
da❂dp쎯biao❁sfi쎯	-11.2115
xing❂gae쎯si❄wny쎯	-11.2119
u❂afwu쎯rong❂apw쎯	-11.2123
─	-11.2124
mian❄dm쎯bu❄uk쎯	-11.2124
쎅qian❂qg쎯	-11.2126
ynt쎯	-11.2127
tai❄dyn쎯de❅r쎯	-11.2128
xiang❁sh쎯fan❃rc쎯	-11.2129
ju❄ndj쎯mu❄hhhh쎯	-11.213
lv❄xv쎯de❅f쎯	-11.2131
ta❁vbn쎯shi❄j쎯	-11.2133
fu❄mga쎯yu❂cbj쎯	-11.2133
pi❁	-11.2134
qian❁tfk쎯mi❃oy쎯.	-11.2135
suo❃rn쎯yong❄et쎯	-11.2135
vy쎯	-11.2135
da❄dd쎯ci❂tduh쎯	-11.2141
,zhen❁fhw쎯	-11.2144
lan❂ruf쎯	-11.2144
guan❁pn쎯,	-11.2146
,chan❃u쎯pin❃kkk쎯	-11.2146
chi❁yb쎯xiu❁ws쎯	-11.2152
chi❁	-11.2152
fan❄mr쎯	-11.2154
wei❄kfi쎯.	-11.2156
tai❂rck쎯	-11.2157
dao	-11.2157
,shen❁tmd쎯	-11.2159
zhang❄wdyy쎯	-11.2159
chong❂tgj쎯li❄lt쎯	-11.2161
de❅r쎯di❄tx쎯	-11.2162
yi❁wye쎯shan❁mmm쎯	-11.2164
qing❄etg쎯qu❁aq쎯	-11.2168
can❁cd쎯guan❁cm쎯	-11.2172
xun❂qj쎯	-11.2172
zong❄xww쎯dui❄bw쎯	-11.2175
쎁쎉쎁	-11.2176
xun❂vp쎯shi❄pym쎯	-11.2179
쎁쎁쎁	-11.2179
akk	-11.2179
huan❁cqw쎯le❄qi쎯	-11.2179
shi❄fi쎯li❄wgq쎯	-11.218
xin❁fnm쎯	-11.2184
쎅쎀yu❂wtu쎯	-11.2184
zhi❂fh쎯li❄uu쎯,	-11.2184
po❄dhc쎯sui❄dyw쎯	-11.2185
쎅쎀mi❃oy쎯	-11.2186
쎅mo❄dnv쎯ping❂gu쎯	-11.2188
yao❄ax쎯qiu❁og쎯	-11.219
yan❂imk쎯an❄mdfj쎯	-11.219
hei❁lfo쎯se❄qc쎯,	-11.2191
.쎁쎉쎉쎀nian❂rh쎯	-11.2192
sd	-11.2193
re	-11.2193
dian❄yhk쎯zzbd쎯	-11.2195
쎁쎉쎈쎀	-11.2196
.dui❄cf쎯yu❂gf쎯	-11.2196
쎂쎀쎁쎃	-11.2198
ap쎯	-11.2203
wan❂lfq쎯,	-11.2203
can❁cd쎯kao❃ftg쎯.	-11.2204
xin❁usr쎯cun❁sf쎯	-11.2205
쎇hao❂kgn쎯	-11.2205
sui❂bde쎯yi❄ujn쎯	-11.2205
can❁cd쎯sai❄pfjm쎯	-11.2206
jie❃veg쎯mei❄vfi쎯	-11.2206
tai❄dy쎯hu❂ide쎯	-11.2208
,xia❂lpdk쎯	-11.2209
sheng❁tg쎯si❃gqx쎯	-11.221
da❄dd쎯hui❄wf쎯c	-11.2213
mu❄ssss쎯qi❂yjj쎯	-11.2214
que❄dqe쎯li❄uu쎯	-11.2215
ru❂vk쎯xia❄gh쎯	-11.2216
yang❂su쎯zi❃bb쎯	-11.2216
jia❁lk쎯shui❃ii쎯	-11.2216
ke❁tu쎯huan❄xnn쎯	-11.2217
yi❄yyq쎯hui❄wf쎯	-11.2218
shuo❁yu쎯zhong❁k쎯	-11.2218
jie❂sfk쎯	-11.2221
de❅r쎯yun❃fcp쎯	-11.2222
mn쎯	-11.2222
lv❄rnv쎯hua❁wx쎯	-11.2223
ang❄xk쎯lie❄gqjo쎯	-11.2223
yj쎯	-11.2224
shu❄scf쎯pi❂hc쎯	-11.2225
zzts쎯nian❂rh쎯j	-11.2226
쎁쎀쎇	-11.2226
xiao❄kvi쎯	-11.2229
liu❂sqy쎯	-11.2231
wei❄bg쎯yu❄iww쎯	-11.2231
yi❁g쎯men❂uyh쎯	-11.2231
,bing❁ua쎯yi❃c쎯	-11.2234
zong❃ukn쎯dui❄bw쎯	-11.2235
an❁pv쎯yang❂bj쎯	-11.2236
e❂k	-11.2236
)wei❄o쎯	-11.2237
lu❄vi쎯zzbd쎯	-11.2242
yin❁ld쎯er❂dmj쎯	-11.2244
shi❄yaa쎯tu❂ltu쎯	-11.2244
che❄iyct쎯	-11.2245
i❁q	-11.2248
gui❃yqd쎯	-11.2251
ba❄fmy쎯qu❁aq쎯.	-11.2253
lu❄kht쎯yi❄jqr쎯	-11.2254
lie❄gqjo쎯xi❁	-11.2255
min❂n쎯sheng❁tg쎯	-11.2256
chen❂	-11.2256
liang❂jg쎯han❄t쎯	-11.2257
gong❁	-11.2259
yi❄ujn쎯zhi❄fn쎯	-11.226
xu❁fdm쎯qiu❂fiy쎯.	-11.226
en❁jhk쎯qing❃yge쎯	-11.2266
fang❂by쎯fu❃ywfw쎯	-11.2271
te❄trf쎯zhang❃ta쎯	-11.2275
qiu❂gfi쎯yun❃fcp쎯	-11.2278
ya❂ah쎯chi❃hwb쎯	-11.228
쎁zzbd쎯쎂	-11.228
쎆ke❄dq쎯	-11.2283
,cong❂ww쎯shi❄gk쎯	-11.2283
ci❃hx쎯shi❂jf쎯	-11.2286
chu❁bm쎯shou❄wyk쎯	-11.229
xing❄ntg쎯ji	-11.229
hua❁wx쎯xian❄egc쎯	-11.2291
she❂rr쎯:“	-11.2292
qi❃fhn쎯cao❃ajj쎯	-11.2297
쎅li❂djfd쎯mi❃oy쎯	-11.23
zhu❃y쎯da❂rs쎯	-11.2302
:쎁쎆	-11.2303
lang❂gyv쎯	-11.2303
shui❃ii쎯zi❁uqwm쎯	-11.2303
san❁dg쎯ceng❂nfc쎯	-11.2305
,ye❃bn쎯jiu❄yi쎯	-11.2306
zhuo❁rkh쎯	-11.231
de❅f쎯biao❃ge쎯	-11.231
lv❄yx쎯ling❃wycm쎯	-11.2311
jing❁x쎯li❃gj쎯,	-11.2315
yi❁wye쎯ci❄uqw쎯	-11.2315
liu❄uy쎯yue❄eee쎯	-11.2317
쎁쎄쎀쎀	-11.2317
ji❁sm쎯che❁lg쎯	-11.2318
zhan❄uh쎯shi❄aa쎯	-11.2319
qo	-11.2326
huang❂dam쎯	-11.2326
ta❁px쎯wu쎯de❅r쎯	-11.2327
ag쎯	-11.2331
qian❂ue쎯ti❂rj쎯	-11.2332
ju❄kha쎯jin❁wynb쎯	-11.2333
ba❁wty쎯da❄dd쎯	-11.2334
song❄psu쎯zzbd쎯	-11.2334
mo❄igs쎯	-11.2335
.zuo❄wt쎯pin❃kkk쎯	-11.2337
zai❄d쎯xiang❁tjf쎯	-11.2339
huan❁fny쎯li❄tjh쎯	-11.2339
ji❄vca쎯shi❄j쎯	-11.234
nv❃vvv쎯shen❂pyj쎯	-11.234
쎁qian❂qg쎯	-11.2343
nian❂rh쎯)	-11.2343
mu❃ylf쎯,	-11.2345
jiu❁xnh쎯fen❁xwv쎯	-11.2345
bu❂i쎯deng❃tffu쎯	-11.2346
ben❄wsg쎯,	-11.2346
dan❄dgtg쎯ke❄ynt쎯	-11.2347
xian❃aqgd쎯	-11.2351
쎆쎀zzts쎯	-11.2351
xun❂aqj쎯	-11.2351
jiang❁ugv쎯mo❄gs쎯	-11.2353
zhen❄qfhw쎯ji	-11.2354
쎄nian❂rh쎯	-11.2355
kan❃maf쎯ru❄ty쎯	-11.2357
guo❃yjse쎯	-11.2357
,jiang❃yfj쎯	-11.2357
ni❃rny쎯ding❄pg쎯	-11.2357
si❃gqx쎯hou❄rg쎯	-11.2357
ti❁jqrj쎯	-11.2358
ji❂adi쎯	-11.2359
zi❃bb쎯di❄uxh쎯	-11.2361
jian❁uj쎯ge❂bgk쎯	-11.2361
쎂qian❂qg쎯	-11.2362
bu❄uk쎯zhang❃ta쎯,	-11.2365
bu❄uk쎯han❄t쎯	-11.2367
,쎁쎉쎉쎁nian❂rh쎯	-11.2368
bo❂fge쎯ke❄pt쎯	-11.2369
zhong❁k쎯lu❄kht쎯	-11.2369
cun❁sf쎯dang❃ipk쎯	-11.2369
jin❄rp쎯bai❃dj쎯	-11.2374
xiong❁eq쎯bu❄uk쎯	-11.2374
xiang❁xte쎯ji	-11.2375
si❄ff쎯yuan❄bpf쎯	-11.2377
pi❁fnk쎯li❄fdlb쎯	-11.2382
xian❄egc쎯ji	-11.2383
qi❂adw쎯fu❄wqu쎯	-11.2384
yan❄jpv쎯	-11.2385
mao❄eerq쎯.	-11.2386
ji❁sm쎯deng❃tffu쎯	-11.2388
,huang❂amw쎯	-11.2388
li❄lt쎯qiu❂fiy쎯	-11.2389
shi❃kq쎯xue❂ip쎯	-11.239
shi❄pym쎯ju❄ndj쎯	-11.239
xiao❃ih쎯zhi❁sfc쎯	-11.2391
ao❄itm쎯zhou❁iyt쎯	-11.2391
zhu❃y쎯liao❄ou쎯	-11.2391
fei❁	-11.2391
mo❄gs쎯,	-11.2397
,xiang❄tm쎯	-11.2399
,쎁쎉쎉쎉nian❂rh쎯	-11.24
juan❁lud쎯zu❂khu쎯	-11.2404
쎅쎀nian❂rh쎯	-11.2404
luo❄xtk쎯yi	-11.2405
guan❁pn쎯.	-11.2405
da❄dd쎯zhan❃nae쎯	-11.2406
zhi❁pp쎯gong❁al쎯	-11.2406
dai❄wal쎯	-11.2409
dai❄wa쎯hao❂kgn쎯	-11.241
.쎁쎉쎉쎄nian❂rh쎯	-11.2411
dian❄jn쎯ya❁dfy쎯:	-11.2415
쎁쎈쎀쎀	-11.2415
hei❁lfo쎯ke❄pt쎯	-11.2418
hou❄rg쎯ren❂w쎯	-11.2419
.zuo❄wt쎯zhe❃ftj쎯	-11.242
쎄쎀zzts쎯	-11.2422
a❃k	-11.2425
shi❁yff쎯ji❂wys쎯	-11.2425
you❂img쎯cai❄ae쎯	-11.2426
xian❄egc쎯zhi❄fn쎯	-11.2427
jing❄aqk쎯qiu❁og쎯	-11.2431
ban❃thgc쎯hua❄gl쎯	-11.2432
fa❃if쎯.	-11.2434
,qu❄fcu쎯	-11.2435
xue❂ip쎯xi❂nu쎯,	-11.2435
zheng❁tgh쎯.	-11.2435
,yong❄et쎯yu❂gf쎯	-11.2436
gong❁wc쎯li❄uu쎯	-11.2441
e❂wtr쎯yu❃ygk쎯	-11.2442
쎆쎅쎀	-11.2442
mo❄dnv쎯nian❂rh쎯	-11.2445
jun❁vtkd쎯zhu❃y쎯	-11.2447
jia❁lk쎯li❄tjh쎯	-11.2447
gen❁khv쎯sui❂bde쎯	-11.2448
ji❂qvn쎯jiu❄fiyt쎯	-11.2448
zu❃pye쎯fu❄wqu쎯	-11.2448
jian❁ga쎯ben❃sg쎯:	-11.2448
zu❃xeg쎯fu❄gkl쎯	-11.2449
si❁adwr쎯di❄aup쎯	-11.245
i❃ugdu쎯shi❂wyv쎯,	-11.245
쎁쎈쎅	-11.2453
zi❄thd쎯gu❃dgh쎯	-11.2454
.ceng❂ul쎯zai❄d쎯	-11.2455
ge❃wgk쎯zuo❄wt쎯,	-11.2455
쎀zzsx쎯	-11.2457
ci❃hx쎯de❅f쎯	-11.2457
ji❂lkb쎯.	-11.2458
fen❄nfa쎯	-11.2459
du❂qtj쎯you❃e쎯	-11.246
you❃sgd쎯	-11.2462
guan❁cm쎯kan❁rhf쎯	-11.2463
yk쎯	-11.2464
lu❄kht쎯shang❃h쎯	-11.2464
qian❁tfk쎯yu❂wtu쎯	-11.2465
쎀zzts쎯,nian❂rh쎯j	-11.2468
mo❂yssc쎯shu❂sy쎯	-11.2468
쎆.쎀	-11.247
qiu❂fiy쎯zhi❂bk쎯	-11.2471
yu❄cbd쎯ji❄yf쎯	-11.2473
쎇mi❃oy쎯	-11.2474
zzbd쎯fang❂by쎯	-11.2475
sao❁ccyj쎯	-11.2475
zao❄khks쎯	-11.2476
fei❃djdy쎯	-11.2478
xuan❄ipgg쎯	-11.2481
wh쎯	-11.2483
.yuan❂dr쎯	-11.2483
yi❃nnnn쎯zai❄d쎯	-11.2483
iq쎯	-11.2484
kai❃nvc쎯	-11.2484
zhi❁td쎯shi❂ykw쎯,	-11.2486
zhuan❄muv쎯	-11.2486
ji❄rfc쎯gong❁a쎯	-11.2488
dao❃nf쎯xia❄gh쎯,	-11.2488
쎂쎀gan❄wh쎯	-11.2489
ge❃wgk쎯yi❁g쎯	-11.2491
gai❄svc쎯shu❄syp쎯	-11.2491
ti❂rj쎯qin❂ggw쎯	-11.2493
zzbd쎯yang❂sn쎯	-11.2493
shui❃ii쎯zhi❄rfm쎯	-11.2498
san❁dg쎯ren❂w쎯	-11.2498
ji❂ey쎯z	-11.2499
chen❂ba쎯pi❂hc쎯	-11.2501
쎀쎈-	-11.2503
zai❄d쎯ta❁wb쎯	-11.2503
neng❂ce쎯zai❄d쎯	-11.2503
dang❁iv쎯ran❂qd쎯	-11.2504
hua❄ytd쎯ti❂jghm쎯	-11.2506
fen❁wv쎯yuan❄bpf쎯	-11.2507
er❂dmj쎯guo❄fp쎯	-11.2508
wan❃jq쎯shang❃h쎯	-11.2509
ji❂i	-11.2509
bian❄ynm쎯ji❂ey쎯	-11.2513
ji❁dskf쎯ji❄yop쎯	-11.2513
쎅,	-11.2513
da❄dd쎯qing❄yd쎯	-11.2514
《da❄dd쎯	-11.2514
yue❁xq쎯쎅	-11.2514
gao❁ym쎯shou❃rt쎯	-11.2516
wai❄qh쎯hui❄ian쎯	-11.2518
bai❃dj쎯jia❁pe쎯	-11.2519
nuo❂rvf쎯wei❁dgv쎯	-11.2519
yun❁jp쎯	-11.252
,dai❁tffy쎯	-11.2521
cao❃ajj쎯yao❄ax쎯	-11.2522
쎁쎁-	-11.2524
ju❁nd쎯wei❁tv쎯	-11.2525
zhuo❂	-11.2526
shou❁nh쎯ru❄ty쎯쎂	-11.2526
bei❄tlf쎯an❄pvs쎯	-11.2526
fa❃if쎯yu❃ygk쎯	-11.2528
ding❄pg쎯jie❄wwj쎯	-11.2529
chu❁bm쎯fa❁v쎯,	-11.253
쎅쎄쎀쎀	-11.2532
zheng❄mhhm쎯	-11.2532
fa❁v쎯shou❄wyk쎯	-11.2535
yi❁g쎯dao❄uthp쎯me	-11.2536
gao❁ym쎯tang❁inr쎯	-11.2537
ming❂qk쎯“	-11.2537
cu❁oe쎯cao❁otf쎯	-11.2537
zhi❁pp쎯lv❃ytey쎯	-11.2539
niu❃qnf쎯	-11.2539
lie❄itl쎯	-11.2542
ba❁wty쎯yue❄eee쎯	-11.2543
ming❂qk쎯lu❄vi쎯	-11.2546
쎈zzsx쎯	-11.2546
jia❁pe쎯li❃jfd쎯	-11.2547
xing❂gajf쎯ji	-11.255
.jin❄rp쎯	-11.2551
zzbd쎯shi❄ymhj쎯z	-11.2552
.쎁쎉쎅쎈nian❂rh쎯	-11.2555
,dong❁ai쎯yu❃gn쎯	-11.2557
hm쎯	-11.256
,쎁쎉쎉쎄nian❂rh쎯	-11.2561
wei❄o쎯쎂	-11.2562
an❁yygt쎯cha❁yq쎯	-11.2566
zhi❂bk쎯gong❁a쎯쎁	-11.2566
lv❄yx쎯gao❁ym쎯	-11.2568
kcg쎯	-11.2568
hao❂kgn쎯wei❄o쎯	-11.2572
chuo❄xhj쎯	-11.2572
li❃gj쎯xing❄ntg쎯	-11.2573
lve❄ryiy쎯	-11.2575
ju❃keg쎯	-11.2581
sheng❃ith쎯li❄uu쎯	-11.2581
zai❄d쎯wang❃mqq쎯	-11.2582
zzbd쎯luo❁lq쎯	-11.2583
nan❂fm쎯duan❁umd쎯	-11.2586
li❄lt쎯.	-11.2586
zheng❃rbi쎯	-11.2586
zhan❁qdw쎯	-11.259
hou❄rg쎯zai❄gmf쎯	-11.2592
ren❂w쎯han❄t쎯	-11.2593
zhu❁yri쎯	-11.2594
pi❂ert쎯wei❄le쎯	-11.2595
mu❄ajdh쎯che	-11.2598
ge❁	-11.2598
tai❄edy쎯	-11.2602
gg쎯	-11.2603
mei❄jfi쎯	-11.2605
shi❄an쎯bo❂fge쎯	-11.2607
zao❄tfkp쎯qiu❁og쎯	-11.2607
[...]
