[UNK]	0
[PAD]	0
[CLS]	0
[SEP]	0
[MASK]	0
de❅2쎯	-3.62746
,	-3.99744
.	-4.30091
、	-4.42451
han❄20쎯	-5.10265
shi❄45쎯	-5.39924
wei❄14쎯	-5.42072
zai❄5쎯	-5.45017
yu❂35쎯	-5.63563
zhong❁4쎯	-5.78375
yu❃14쎯	-5.81499
sheng❁16쎯	-5.83355
le❅0쎯	-5.84386
(	-5.88667
deng❃2쎯	-5.9345
shi❄32쎯	-5.96634
you❃11쎯	-5.99654
ren❂1쎯	-6.06234
:	-6.0679
zhong❁4쎯guo❂11쎯	-6.08457
sheng❃9쎯	-6.10266
)	-6.11379
gong❁10쎯si❁16쎯	-6.12147
da❄0쎯	-6.13724
《	-6.13951
;	-6.1618
shang❃1쎯	-6.24784
ji❂37쎯	-6.30331
yan❂50쎯jiu❁16쎯	-6.33243
yi❃10쎯	-6.3661
da❄0쎯xue❂6쎯	-6.39075
hui❄27쎯	-6.46234
cheng❂29쎯	-6.46248
“	-6.49167
zhi❁13쎯	-6.5049
”	-6.52153
yi❁10쎯	-6.56295
bu❂0쎯	-6.57464
gong❁17쎯zuo❄5쎯	-6.60302
yi❁10쎯gan❄3쎯	-6.63791
zhang❃6쎯	-6.6459
ji❄59쎯shu❂7쎯	-6.66062
guan❃9쎯li❃15쎯	-6.66318
xian❄22쎯	-6.66834
xing❄13쎯	-6.68289
hou❄7쎯	-6.68365
chan❃12쎯	-6.69482
jia❁13쎯	-6.71255
huo❄27쎯	-6.74723
bu❄38쎯	-6.75897
zhuan❁1쎯qiu❁9쎯	-6.76379
qu❁15쎯	-6.76414
de❅0쎯	-6.78186
shui❃0쎯	-6.78923
xin❁10쎯	-6.8031
gao❁20쎯	-6.81226
xiao❃2쎯	-6.81401
dui❄14쎯	-6.81736
2쎯	-6.82202
·	-6.84164
suo❃11쎯	-6.84506
shan❁11쎯	-6.86021
qi❃12쎯qiu❁9쎯	-6.86988
zi❃7쎯	-6.87105
chan❃12쎯pin❃0쎯	-6.88694
쎂	-6.89674
hua❁1쎯	-6.89678
쎃	-6.89844
san❁1쎯	-6.90337
guo❂11쎯jia❁13쎯	-6.90822
er❂16쎯	-6.90952
xia❄3쎯	-6.9107
dao❄3쎯	-6.92723
fa❁1쎯zhan❃11쎯	-6.93108
jiao❁20쎯yu❄93쎯	-6.93331
bei❄48쎯	-6.9505
wei❄15쎯yu❂35쎯	-6.95416
쎁	-6.95991
you❃11쎯xian❄61쎯	-6.96016
duo❁5쎯	-6.96079
-	-6.96143
cheng❂17쎯	-6.9648
na❄11쎯	-6.97342
xue❂6쎯yuan❄18쎯	-6.97481
shi❂20쎯	-6.97749
fu❂43쎯wu❄12쎯	-6.98879
9쎯	-6.99272
zhen❄30쎯	-6.99954
chu❁3쎯	-7.03041
zhu❃4쎯yao❁17쎯	-7.03251
yong❄3쎯	-7.04369
jing❁27쎯ji❄72쎯	-7.0507
cun❁1쎯	-7.05074
you❂29쎯	-7.05354
》	-7.05628
zhe❃2쎯	-7.07312
xue❂6쎯	-7.08487
ji❁48쎯	-7.09134
,shi❄45쎯	-7.09683
zheng❄12쎯fu❃14쎯	-7.11395
chong❂17쎯	-7.12107
/	-7.12543
wen❂5쎯hua❁1쎯	-7.13226
tian❁5쎯	-7.14207
guo❂11쎯	-7.14477
jiang❁5쎯	-7.14627
qi❂29쎯	-7.15536
쎄	-7.16036
ke❃4쎯	-7.16241
6쎯	-7.1692
5쎯	-7.17718
xi❄46쎯tong❃9쎯	-7.17948
fu❄28쎯	-7.18268
zhong❁4쎯xin❁7쎯	-7.189
ben❃5쎯	-7.20384
ming❂7쎯	-7.21237
jin❁33쎯	-7.21459
gong❁17쎯cheng❂5	-7.21875
wu❂17쎯	-7.22185
she❄29쎯ji❄116쎯	-7.22419
4쎯	-7.22671
zong❃5쎯	-7.22981
wang❂5쎯	-7.24417
zhi❄88쎯	-7.25188
cong❂6쎯	-7.25487
wen❂5쎯	-7.25536
ju❂23쎯	-7.25538
ke❁16쎯	-7.26809
xi❁143쎯	-7.269
xing❂11쎯	-7.27236
guo❂11쎯ji❄121쎯	-7.27781
ren❂1쎯min❂22쎯	-7.29065
xiang❁1쎯	-7.29406
3쎯	-7.30209
8쎯	-7.30385
fen❁4쎯	-7.3075
er❄5쎯	-7.30828
7쎯	-7.31083
dian❃11쎯	-7.32007
1쎯	-7.32059
dan❄38쎯	-7.32186
xue❂6쎯jiao❄18쎯	-7.32228
fa❃2쎯	-7.32423
bei❃2쎯jing❁3쎯	-7.33154
she❄22쎯hui❄27쎯	-7.33746
hai❃1쎯	-7.33989
lai❂16쎯	-7.34336
zhuang❁10쎯	-7.34358
쎅	-7.34381
zheng❁22쎯	-7.35053
qian❂8쎯	-7.35262
nan❂6쎯	-7.3532
liang❂19쎯	-7.36575
can❁3쎯jia❁7쎯	-7.36808
xin❁7쎯	-7.3692
jin❄61쎯hang❂16쎯	-7.37271
ke❁16쎯ji❄59쎯	-7.37843
wai❄0쎯	-7.37879
qi❄20쎯	-7.38207
bing❁6쎯	-7.38259
quan❂6쎯guo❂11쎯	-7.3878
bi❄73쎯qiu❁9쎯	-7.39889
쎆	-7.39966
cheng❂29쎯li❄141쎯	-7.40174
yi❁10쎯chong❂11쎯	-7.40536
wei❁12쎯yuan❂15쎯	-7.40973
jiang❁10쎯	-7.41054
shi❄15쎯jie❄29쎯	-7.4121
"	-7.41644
lu❄70쎯	-7.41873
ping❂17쎯	-7.41901
ye❃1쎯	-7.42009
xi❄46쎯	-7.42665
hang❂16쎯	-7.42912
shi❄31쎯	-7.43409
di❄45쎯yi❁10쎯	-7.43484
hua❁11쎯	-7.43506
ma❃14쎯	-7.43721
zi❄16쎯	-7.4373
dong❁3쎯	-7.44018
jian❄29쎯zhu❂18쎯	-7.44297
ti❂17쎯gong❁9쎯	-7.44756
dao❄24쎯	-7.45041
ke❁16쎯xue❂6쎯	-7.45088
tou❂4쎯	-7.45249
de❂9쎯	-7.45726
ben❄4쎯	-7.45985
bai❂2쎯	-7.46412
shi❄33쎯	-7.47601
yi❄190쎯shu❂7쎯	-7.48008
()	-7.48435
.”	-7.48852
,zai❄5쎯	-7.48896
jian❁25쎯fa❁1쎯	-7.49235
li❃26쎯	-7.49785
jiao❁20쎯xue❂6쎯	-7.50106
si❄17쎯	-7.50558
ren❂4쎯	-7.50615
ri❄2쎯	-7.50959
》、《	-7.51668
쎈	-7.52568
ke❃4쎯yi❃10쎯	-7.5267
쎁쎀	-7.53079
wu❃9쎯	-7.53411
long❂63쎯	-7.54151
jing❁27쎯	-7.54769
dou❁12쎯	-7.55418
jian❄29쎯	-7.55462
zu❃7쎯zhi❁39쎯	-7.55509
zhao❁6쎯	-7.55627
neng❂2쎯	-7.55938
jian❄29쎯she❄29쎯	-7.56269
xing❂9쎯	-7.56337
shang❃1쎯hai❃1쎯	-7.56416
ming❂8쎯	-7.56736
jun❁2쎯	-7.57076
ru❄2쎯	-7.57095
liang❃5쎯	-7.57231
qing❁10쎯	-7.58521
huang❂56쎯	-7.58599
쎇	-7.58827
li❄58쎯	-7.58968
cong❂6쎯shi❄18쎯	-7.60498
yuan❄18쎯	-7.60574
chang❂15쎯	-7.60714
hong❂44쎯	-7.60745
guo❄2쎯	-7.60829
xin❄8쎯xi❁70쎯	-7.6109
he❂37쎯	-7.61447
si❄15쎯	-7.62087
wang❃14쎯	-7.62615
wang❃14쎯luo❄24쎯	-7.62673
huan❂20쎯jing❄11쎯	-7.62924
chu❄17쎯	-7.63079
zui❄4쎯	-7.63319
yuan❂15쎯	-7.63363
ju❄16쎯you❃11쎯	-7.63519
xie❂14쎯hui❄27쎯	-7.63858
xiang❄24쎯mu❄22쎯	-7.64507
quan❂6쎯	-7.64562
hua❂14쎯	-7.65173
xian❄47쎯	-7.65292
nian❂6쎯	-7.65382
sheng❁16쎯huo❂3쎯	-7.65403
cheng❂29쎯wei❄14쎯	-7.65768
chong❂11쎯	-7.66
guang❁2쎯	-7.66151
men❂19쎯	-7.66166
lin❂19쎯	-7.66288
feng❁58쎯	-7.6677
fa❁1쎯	-7.67682
zhang❁4쎯	-7.67731
yuan❂10쎯	-7.67797
gu❃14쎯	-7.68349
shi❃6쎯yong❄3쎯	-7.68415
zhou❁9쎯	-7.68434
an❁13쎯	-7.68711
mei❃13쎯guo❂11쎯	-7.68849
yi❃10쎯ji❂37쎯	-7.68865
ta❁3쎯	-7.69061
shi❁11쎯	-7.69135
zhu❃4쎯ren❂4쎯	-7.69236
mian❄2쎯	-7.69393
yuan❂12쎯	-7.69825
zhi❄104쎯	-7.69881
ke❄6쎯	-7.69975
kou❃1쎯	-7.70398
shu❁8쎯	-7.70502
li❄59쎯	-7.71133
ji❂83쎯	-7.71316
),	-7.71537
xiang❁9쎯	-7.7184
zhuang❄5쎯	-7.72838
ru❂9쎯	-7.72869
xiang❄6쎯	-7.73375
jian❁25쎯	-7.73566
si❁24쎯	-7.7389
ji❂114쎯	-7.73891
tong❁5쎯guo❄2쎯	-7.73919
de❅0쎯qu❁15쎯	-7.74001
gong❁17쎯qiu❁9쎯	-7.74074
li❄62쎯shi❃8쎯	-7.74192
qi❃25쎯	-7.74483
쎉	-7.74575
gong❁17쎯	-7.74808
xie❂16쎯	-7.7543
xue❂6쎯sheng❁16쎯	-7.7579
ge❄3쎯	-7.76122
te❄5쎯	-7.76242
zi❄16쎯ji❃13쎯	-7.76347
bei❃2쎯	-7.76366
lei❄16쎯	-7.77017
che❁8쎯	-7.77239
qi❃34쎯	-7.77255
du❄8쎯	-7.77919
fang❁4쎯	-7.78184
gong❁10쎯	-7.78296
zuo❄5쎯pin❃0쎯	-7.78311
zuo❄5쎯	-7.78626
zi❄16쎯ran❂12쎯	-7.78912
da❂30쎯	-7.78917
you❂24쎯	-7.79076
dang❃2쎯	-7.79236
tong❁5쎯	-7.79436
she❄29쎯bei❄26쎯	-7.79821
jia❁7쎯	-7.80126
ji❂114쎯qiu❂19쎯	-7.80338
shi❄32쎯chang❃4쎯	-7.80391
ying❁17쎯yong❄3쎯	-7.80442
jiu❄23쎯	-7.81255
shen❂2쎯	-7.81342
,yi❃10쎯	-7.81612
biao❁14쎯zhun❃0쎯	-7.81749
nv❃0쎯	-7.81974
”.	-7.82387
gong❁11쎯neng❂2쎯	-7.82585
mei❃13쎯	-7.82595
yi❃15쎯	-7.83046
de❂7쎯	-7.83053
0쎯	-7.83415
shou❃4쎯	-7.83824
zong❁24쎯ge❃0쎯	-7.83979
hao❃0쎯	-7.84227
shuang❁4쎯	-7.84271
bing❄12쎯	-7.84289
,bing❁6쎯	-7.84321
re❄1쎯	-7.85013
yao❁17쎯	-7.85167
cheng❂17쎯shi❄32쎯	-7.85373
chong❂17쎯yao❁17쎯	-7.85429
》:“	-7.85526
shu❃5쎯	-7.8562
ka❃1쎯	-7.85924
쎁쎂	-7.86931
qing❁20쎯	-7.87016
xian❄37쎯dai❄9쎯	-7.8711
tong❂13쎯	-7.87126
lao❃17쎯	-7.87165
you❁5쎯xiu❄8쎯	-7.87177
li❃11쎯	-7.87296
mi❃19쎯	-7.87315
guo❂11쎯na❄11쎯	-7.87492
zhi❄30쎯	-7.87702
qu❄6쎯	-7.8784
shi❂20쎯jian❁85쎯	-7.88042
er❃6쎯	-7.88654
shang❁4쎯	-7.89083
yun❂4쎯	-7.8937
nong❂5쎯qiu❁9쎯	-7.89896
yong❁17쎯you❃11쎯	-7.90283
chu❁3쎯sheng❁16쎯	-7.90303
huo❄50쎯	-7.90555
mo❄16쎯	-7.90677
la❁7쎯	-7.90684
you❂25쎯xi❄33쎯	-7.90787
tou❂5쎯zi❁45쎯	-7.90912
ge❄3쎯chong❂11쎯	-7.91463
chu❁3쎯ban❃6쎯	-7.91809
qiu❁9쎯	-7.92064
pian❁5쎯	-7.92147
xian❁18쎯jin❄61쎯	-7.92179
jia❁7쎯ru❄2쎯	-7.92276
mu❄15쎯	-7.92498
zhao❂쎯ming❂7쎯	-7.92556
zhong❁4쎯de❅2쎯	-7.92607
gai❁13쎯	-7.92619
dai❄15쎯	-7.92631
dai❄9쎯biao❃5쎯	-7.92897
!	-7.9324
ri❄2쎯ben❃5쎯	-7.93488
ren❂1쎯,	-7.93772
yu❂127쎯	-7.9382
xian❁18쎯	-7.94425
mian❄2쎯ji❁64쎯	-7.94505
shu❄26쎯	-7.9498
jin❄61쎯	-7.95025
ji❁34쎯chu❃14쎯	-7.95087
hang❂16쎯qiu❁9쎯	-7.95109
zhi❃19쎯	-7.95129
dian❄23쎯shi❄71쎯	-7.95169
bu❂0쎯tong❂13쎯	-7.95263
se❄29쎯	-7.95351
shan❁11쎯dong❁3쎯	-7.95379
bu❄38쎯fen❁4쎯	-7.95644
ba❃1쎯	-7.96009
yin❁44쎯le❄3쎯	-7.96106
ban❄4쎯gong❁10쎯	-7.96199
xiang❁26쎯	-7.96227
jiao❁20쎯	-7.96524
gan❁16쎯	-7.96704
yi❁13쎯yuan❄18쎯	-7.97104
dian❄23쎯zi❃7쎯	-7.9729
ci❄16쎯	-7.97448
ge❃0쎯	-7.97542
luo❁4쎯	-7.97851
bi❃20쎯	-7.97999
tu❂14쎯	-7.9806
ai❄26쎯	-7.98086
zi❄6쎯	-7.98095
jin❄60쎯	-7.98113
yun❃16쎯dong❄13쎯	-7.98492
～	-7.98719
chuang❄1쎯	-7.98959
guan❃9쎯	-7.99154
wo❃3쎯	-7.99305
jing❁27쎯ying❂45쎯	-7.9953
gong❄3쎯	-8.00027
liu❂20쎯	-8.00046
pi❂17쎯	-8.00083
dan❁9쎯wei❄15쎯	-8.00253
zhong❁4쎯xue❂6쎯	-8.00294
zhu❃4쎯	-8.005
wei❄15쎯	-8.0079
쎂쎀	-8.01121
huo❂3쎯dong❄13쎯	-8.01143
jiao❁8쎯tong❁5쎯	-8.01402
ya❄7쎯	-8.01833
zhi❁21쎯chi❂20쎯	-8.01953
wan❂5쎯	-8.02137
hao❂6쎯	-8.02288
xian❄37쎯	-8.02366
li❃15쎯lun❄1쎯	-8.02397
huo❄50쎯de❂7쎯	-8.02444
shen❁40쎯	-8.02905
zhan❄17쎯	-8.02947
jian❄62쎯	-8.03351
zuo❄5쎯wei❄14쎯	-8.03429
wu❄36쎯	-8.03559
shi❃6쎯	-8.03743
xi❄46쎯lie❄20쎯	-8.03868
she❄22쎯	-8.0433
zhou❁5쎯	-8.04444
쎁쎅	-8.04735
ci❃2쎯	-8.04947
ren❂1쎯.	-8.05151
xiang❄20쎯	-8.05322
fang❁4쎯mian❄2쎯	-8.0533
cheng❁28쎯	-8.05361
bo❂41쎯shi❄28쎯	-8.05607
liu❄3쎯	-8.05616
ji❁34쎯	-8.05635
dang❁4쎯	-8.0572
yang❂35쎯	-8.05875
ji❁34쎯ben❃5쎯	-8.06015
yin❁11쎯	-8.06115
gao❁20쎯ji❂83쎯	-8.06256
shu❄26쎯ju❁18쎯	-8.06785
fu❂94쎯	-8.06821
wen❂5쎯xue❂6쎯	-8.06842
guan❁6쎯	-8.06967
shi❄15쎯	-8.06988
le❄3쎯	-8.0703
zi❁45쎯yuan❂34쎯	-8.07184
jian❁25쎯shi❃9쎯	-8.07189
ceng❂6쎯	-8.07384
guan❃15쎯	-8.07422
zhong❁4쎯gong❄3쎯	-8.07556
you❄13쎯	-8.07733
xue❂6쎯xi❂9쎯	-8.07738
chan❃12쎯qiu❁9쎯	-8.08366
zhong❁4쎯yang❁4쎯	-8.08379
jiao❁20쎯shi❁11쎯	-8.08428
chen❂41쎯	-8.08539
tu❃1쎯	-8.08613
ji❁47쎯	-8.08821
hua❄18쎯	-8.08995
ruan❃17쎯jian❄15쎯	-8.0947
qi❂29쎯ta❁3쎯	-8.09575
chuan❂4쎯	-8.09846
zu❃7쎯	-8.10137
jie❂69쎯	-8.10281
a❁6쎯	-8.10289
li❄141쎯	-8.10352
huo❃2쎯	-8.10528
ren❂1쎯yuan❂15쎯	-8.10559
jiu❃12쎯dian❄13쎯	-8.11014
lou❂19쎯	-8.11119
nan❂14쎯	-8.11239
zhen❁30쎯	-8.11387
.zai❄5쎯	-8.11981
bao❃9쎯hu❄30쎯	-8.12097
——	-8.12379
kong❄1쎯zhi❄30쎯	-8.12433
zhe❄9쎯jiang❁10쎯	-8.12459
an❁13쎯quan❂6쎯	-8.1256
,wei❄14쎯	-8.12758
yi❁13쎯xue❂6쎯	-8.13368
bian❄19쎯	-8.13501
jie❂67쎯gou❃2쎯	-8.1356
쎁쎆	-8.13774
han❄33쎯	-8.13797
han❃11쎯	-8.1389
da❂14쎯	-8.13928
ban❁12쎯	-8.13987
bao❁4쎯gua❁11쎯	-8.14013
shi❁33쎯	-8.14184
hei❁3쎯	-8.14376
pin❃0쎯pai❂4쎯	-8.14458
wu❃28쎯	-8.14591
쎁쎁	-8.14677
ni❃6쎯	-8.14912
mei❃13쎯shu❂7쎯	-8.14992
bao❃13쎯	-8.15033
xue❂6쎯hui❄27쎯	-8.15303
jian❁85쎯	-8.15469
쎃쎀	-8.15556
).	-8.15646
lv❃14쎯you❂25쎯	-8.16192
qi❂29쎯zhong❁4쎯	-8.16246
gan❄3쎯	-8.16354
bu❄23쎯	-8.16632
qi❁9쎯	-8.16632
dan❁9쎯	-8.16849
qiu❂19쎯	-8.16959
an❁15쎯dong❁3쎯	-8.17033
hui❂1쎯	-8.17067
chu❄17쎯li❃15쎯	-8.17319
?	-8.17323
pin❃0쎯	-8.17374
ba❁9쎯	-8.17536
yu❄70쎯	-8.17618
ding❄2쎯	-8.17622
chu❁4쎯	-8.17835
tian❂16쎯	-8.17916
dui❄33쎯	-8.1801
cai❂3쎯liao❄8쎯	-8.18034
%	-8.18255
ta❃1쎯	-8.18686
dian❄23쎯	-8.18699
hu❂32쎯	-8.18944
lian❂69쎯	-8.18975
shi❄18쎯	-8.19164
wei❁17쎯	-8.19448
yu❃44쎯	-8.19539
ba❁16쎯	-8.19621
shuo❄15쎯shi❄28쎯	-8.19716
ji❄116쎯suan❄3쎯	-8.19888
shi❃8쎯	-8.19971
cao❃5쎯	-8.2005
ji❁48쎯gou❃2쎯	-8.20066
fang❁4쎯fa❃2쎯	-8.20078
shuo❁2쎯	-8.20123
liu❂9쎯	-8.20156
lv❄15쎯	-8.2017
shu❃5쎯yu❂35쎯	-8.20183
shen❁18쎯	-8.20303
jiu❄23쎯shi❄45쎯	-8.2034
chang❃4쎯	-8.20923
dian❄23쎯ying❃11쎯	-8.20993
ze❂11쎯	-8.21027
fei❁15쎯	-8.21156
xiao❁61쎯shou❄5쎯	-8.21271
cai❃11쎯yong❄3쎯	-8.21423
dai❄9쎯	-8.21434
ji❂35쎯	-8.21607
na❄11쎯rong❂21쎯	-8.21661
zhi❂20쎯wu❄36쎯	-8.21843
ke❄14쎯hu❄26쎯	-8.22284
yi❁10쎯ben❄4쎯	-8.22343
ceng❂3쎯	-8.2243
xiu❁11쎯	-8.22458
”de❅2쎯	-8.22544
deng❃2쎯.	-8.23022
shou❄4쎯	-8.23068
xing❁7쎯	-8.23291
zhi❄30쎯zuo❄5쎯	-8.23325
bo❁11쎯	-8.23387
jiang❃8쎯	-8.2339
di❄45쎯er❄5쎯	-8.23493
xiao❃2쎯xue❂6쎯	-8.23496
zu❃7쎯cheng❂29쎯	-8.23549
jiang❄9쎯	-8.23948
sha❁10쎯	-8.24232
zhi❂32쎯qiu❁9쎯	-8.24633
jiu❃12쎯	-8.24806
si❄17쎯chuan❁2쎯	-8.24956
qing❄3쎯	-8.25046
ying❃11쎯xiang❃5쎯	-8.25373
zhang❁13쎯	-8.25384
she❄22쎯qu❁15쎯	-8.2559
geng❁6쎯	-8.25662
jiao❁20쎯shou❄9쎯	-8.25852
lun❄1쎯wen❂5쎯	-8.25962
fen❃1쎯	-8.2598
shu❄28쎯	-8.26113
,qi❂29쎯zhong❁4쎯	-8.26295
tiao❂9쎯	-8.26398
zheng❄12쎯zhi❄61쎯	-8.26433
bian❁16쎯	-8.26694
ban❄5쎯	-8.26877
sheng❁16쎯wu❄36쎯	-8.27348
gen❁0쎯	-8.27411
chuan❂4쎯tong❃9쎯	-8.27845
gui❁35쎯hua❂11쎯	-8.27885
lan❂13쎯	-8.27944
ju❄16쎯	-8.28078
쎁쎈	-8.28149
qu❁25쎯	-8.28198
qiao❂12쎯	-8.28201
dao❃7쎯	-8.2823
,you❃11쎯	-8.28267
shou❃6쎯	-8.28271
wei❂38쎯	-8.28659
yuan❂34쎯	-8.28856
쎁쎇	-8.2891
pan❂10쎯	-8.28931
ge❂54쎯ming❄1쎯	-8.2922
guo❃3쎯	-8.29353
xin❄8쎯	-8.29415
chun❁6쎯	-8.29422
zheng❄12쎯	-8.2948
zhi❄61쎯liao❂24쎯	-8.29538
min❂22쎯	-8.29626
cheng❂52쎯	-8.29768
—	-8.29782
dong❄13쎯	-8.29973
ju❁14쎯	-8.30098
fa❁1쎯biao❃5쎯	-8.30185
xie❃8쎯	-8.30488
,nan❂14쎯,	-8.30575
ji❁48쎯xie❄51쎯	-8.3063
diao❄17쎯	-8.30889
qiu❂36쎯	-8.30974
yao❄12쎯	-8.31026
jiu❃3쎯	-8.3111
jiao❄18쎯	-8.31191
yue❄29쎯	-8.31197
jiang❁10쎯su❁10쎯	-8.31316
쎅쎀	-8.31496
yuan❃4쎯	-8.3161
an❁15쎯	-8.31703
yue❁1쎯	-8.32176
me❅1쎯you❃11쎯	-8.3223
shi❂13쎯yan❄75쎯	-8.32248
pei❂3쎯xun❄25쎯	-8.32541
si❁11쎯	-8.32576
fang❂2쎯	-8.32742
ying❁44쎯	-8.32931
fen❁4쎯xi❁87쎯	-8.32942
juan❃1쎯	-8.33156
”,	-8.33157
fei❁19쎯	-8.33423
yong❄3쎯yu❂35쎯	-8.33537
yi❁10쎯jia❁13쎯	-8.33605
qu❃1쎯	-8.33617
ban❃5쎯	-8.33628
zuo❄7쎯	-8.33759
mao❂11쎯	-8.3379
gong❁11쎯	-8.33908
song❁11쎯	-8.3391
ban❃6쎯	-8.33981
쎁쎄	-8.34005
fu❂60쎯	-8.3417
zhi❄47쎯	-8.34285
ge❂29쎯	-8.34314
de❅1쎯	-8.34405
gei❃1쎯	-8.34789
rou❄1쎯	-8.34793
,qi❂29쎯	-8.34852
lian❂53쎯	-8.34887
xue❂6쎯shu❂7쎯	-8.35046
qiu❁9쎯wu❄12쎯	-8.35077
shang❁4쎯wu❄12쎯	-8.35351
shi❄28쎯	-8.35432
jing❁24쎯	-8.35482
yan❂61쎯	-8.355
gen❁0쎯ju❁18쎯	-8.35624
ying❁17쎯	-8.35641
lei❄16쎯xing❂9쎯	-8.357
da❄0쎯xing❂9쎯	-8.35713
fu❄64쎯ze❂44쎯	-8.35827
ben❃5쎯shu❁8쎯	-8.35864
xiang❁26쎯gang❃6쎯	-8.36123
shi❁11쎯fan❄22쎯	-8.36141
hou❄7쎯,	-8.3629
jiao❃57쎯	-8.3629
yan❂49쎯	-8.36384
fan❃3쎯	-8.36408
쎁쎃	-8.36416
guo❄2쎯cheng❂52쎯	-8.36617
zhuan❃4쎯	-8.36914
쎄쎀	-8.36919
gong❁17쎯yi❄190쎯	-8.36928
,dan❄10쎯	-8.36962
zhi❁13쎯yi❁10쎯.	-8.36963
tie❃5쎯	-8.37101
he❂37쎯nan❂6쎯	-8.37113
xiang❁9쎯guan❁4쎯	-8.37161
qing❂6쎯	-8.37222
jie❄29쎯	-8.37257
jing❃13쎯	-8.37485
zi❄16쎯dong❄13쎯	-8.37626
wei❄16쎯sheng❁16쎯	-8.3764
zhong❁4쎯wen❂5쎯	-8.37744
feng❁8쎯fu❄36쎯	-8.37873
lun❄1쎯	-8.38382
ling❃2쎯dao❃5쎯	-8.38502
hu❂32쎯nan❂6쎯	-8.38525
zhi❁31쎯shi❂35쎯	-8.38578
zhe❄14쎯	-8.38709
min❂22쎯zu❂9쎯	-8.38874
jie❁30쎯	-8.38881
zhi❄30쎯zao❄16쎯	-8.39065
cha❁3쎯	-8.39092
shi❄51쎯	-8.39257
bai❃9쎯	-8.39282
neng❂2쎯li❄59쎯	-8.39667
ling❃2쎯yu❄31쎯	-8.39852
shi❄18쎯qiu❁9쎯	-8.39918
zong❁10쎯	-8.40102
fa❁1쎯sheng❁16쎯	-8.40141
jie❄19쎯	-8.40152
zhi❁13쎯yi❁10쎯	-8.40579
yi❄109쎯	-8.406
zhan❄10쎯	-8.40611
ke❁16쎯yan❂50쎯	-8.40669
nong❂5쎯	-8.40956
chong❂11쎯zhi❂20쎯	-8.41006
jia❁7쎯gong❁17쎯	-8.41066
di❁9쎯	-8.41126
ta❁5쎯	-8.41183
fang❄0쎯	-8.41744
wen❄6쎯ti❂36쎯	-8.41769
zhi❃19쎯dao❃5쎯	-8.41823
ge❃0쎯zuo❄5쎯	-8.41911
bing❁2쎯	-8.42083
na❄20쎯	-8.42105
yi❁10쎯ban❁15쎯	-8.42155
wang❃14쎯zhan❄17쎯	-8.42165
zhong❁4쎯hua❂14쎯	-8.42331
shang❁4쎯qiu❁9쎯	-8.4239
biao❃5쎯	-8.42517
cai❄5쎯	-8.42563
chuang❄1쎯xin❁10쎯	-8.42788
hua❁1쎯xue❂6쎯	-8.42931
yong❄3쎯hu❄26쎯	-8.43015
cheng❁28쎯wei❄14쎯	-8.4302
shu❁8쎯fa❃2쎯	-8.43021
gan❄3쎯ren❂1쎯	-8.43308
si❄21쎯	-8.43521
hang❂16쎯zheng❄1	-8.43679
yan❃42쎯	-8.43768
niu❂3쎯	-8.44022
gong❁10쎯li❃26쎯,	-8.44048
xi❄50쎯	-8.44117
fang❁4쎯shi❄33쎯	-8.44154
쎆쎀	-8.4432
shi❄99쎯	-8.44345
tang❂13쎯	-8.4449
ting❁3쎯	-8.44521
zuo❄5쎯yong❄3쎯	-8.44692
you❃11쎯guan❁4쎯	-8.44926
yin❁44쎯	-8.44942
cha❂27쎯	-8.45057
tang❁5쎯	-8.45362
ni❂10쎯	-8.45363
shi❂39쎯	-8.45446
bao❃9쎯	-8.45617
jie❂67쎯ge❃0쎯	-8.45734
chuan❁2쎯	-8.45801
xu❁37쎯yao❁17쎯	-8.45992
”、“	-8.46092
yan❂31쎯	-8.4611
shi❄45쎯zhi❃19쎯	-8.4621
jian❄29쎯li❄141쎯	-8.46237
kan❁9쎯	-8.46377
zhi❁13쎯jian❁85쎯	-8.46501
tun❁2쎯	-8.4685
tai❄3쎯	-8.46962
gong❁10쎯lu❄70쎯	-8.47133
yi❂38쎯	-8.47175
kong❁9쎯	-8.47393
zhi❂25쎯	-8.47405
jun❁6쎯	-8.47565
xing❄8쎯	-8.47672
wo❃3쎯guo❂11쎯	-8.47717
su❁10쎯	-8.47921
shi❂20쎯,	-8.47962
jia❃14쎯	-8.48109
chuang❄1쎯zuo❄5쎯	-8.48201
fu❄31쎯	-8.48313
+	-8.48388
wen❁6쎯	-8.48438
쎈쎀	-8.48645
zai❄4쎯	-8.48653
li❄58쎯yong❄3쎯	-8.48689
cao❁3쎯zuo❄5쎯	-8.48812
chao❁17쎯	-8.48835
ku❄6쎯	-8.48979
duo❁5쎯nian❂6쎯	-8.48979
tong❂13쎯shi❂20쎯	-8.49009
yang❂16쎯	-8.49083
pu❃3쎯	-8.49137
cheng❂16쎯	-8.49324
.《	-8.49409
an❁15쎯zhou❁9쎯	-8.4948
lin❂7쎯chuang❂6쎯	-8.496
zhu❂15쎯	-8.49645
qie❁1쎯	-8.49803
zhong❁4쎯,	-8.49906
pai❄3쎯	-8.49987
qi❄34쎯che❁8쎯	-8.49998
xuan❃8쎯	-8.50415
lian❂53쎯ge❃0쎯	-8.50491
shi❂10쎯	-8.50631
ku❁11쎯	-8.50642
zhuan❁1쎯jia❁13쎯	-8.50718
ya❁7쎯	-8.50828
mu❄22쎯qian❂8쎯	-8.50974
xiao❃2쎯shuo❁2쎯	-8.51043
쎇yue❄29쎯	-8.51056
jie❃6쎯	-8.51087
zhi❄61쎯	-8.51148
yu❃44쎯yan❂61쎯	-8.51226
ji❄116쎯hua❂11쎯	-8.51296
ji❂57쎯	-8.51449
bao❁4쎯	-8.51461
ti❂17쎯gao❁20쎯	-8.51479
bao❄10쎯	-8.51613
chao❂6쎯	-8.51685
qing❁20쎯nian❂6쎯	-8.51861
chu❁3쎯xian❄37쎯	-8.51863
suan❁3쎯	-8.51883
an❁13쎯hui❁12쎯	-8.51932
ju❄65쎯chi❁23쎯	-8.5261
quan❂12쎯	-8.52622
쎂쎅	-8.52728
......	-8.52796
rong❂21쎯	-8.52796
zhi❄85쎯	-8.52943
chi❁23쎯	-8.53082
de❅0쎯fang❁4쎯	-8.53217
hu❂32쎯bei❃2쎯	-8.5324
guan❁4쎯	-8.53304
duan❄7쎯	-8.53365
mi❄24쎯	-8.53655
wan❂6쎯cheng❂29쎯	-8.53759
kuan❁0쎯	-8.53812
jie❄13쎯shao❄10쎯	-8.53819
su❄56쎯	-8.53971
gong❄3쎯chan❃12쎯	-8.54053
ren❂1쎯cai❂2쎯	-8.54216
qun❂6쎯	-8.54504
shu❁8쎯hua❄18쎯	-8.5454
gu❃59쎯	-8.54692
dong❄13쎯wu❄36쎯	-8.54798
zuo❄12쎯	-8.54824
shu❁8쎯ji❄117쎯	-8.54931
shou❁1쎯ru❄2쎯	-8.55068
ji❁36쎯	-8.55091
*	-8.55359
song❄4쎯	-8.55562
you❂25쎯	-8.55576
kong❃1쎯	-8.55633
kuang❄12쎯	-8.55647
ban❄4쎯	-8.55874
dang❃2쎯yuan❂15쎯	-8.55921
dan❁15쎯ren❂4쎯	-8.55983
ta❁6쎯	-8.55983
fa❁1쎯xian❄37쎯	-8.56007
yi❁10쎯ding❄2쎯	-8.56048
jie❂67쎯	-8.56178
yuan❂17쎯	-8.56182
ji❂39쎯	-8.56211
lei❂30쎯	-8.5622
sui❄16쎯	-8.56245
tang❂15쎯	-8.5648
×	-8.56649
쎁쎂yue❄29쎯	-8.56658
ran❂12쎯	-8.56765
fu❂60쎯jian❄29쎯	-8.56769
zhi❁31쎯	-8.56888
bu❄38쎯men❂19쎯	-8.57044
he❂37쎯bei❃2쎯	-8.57167
di❄45쎯san❁1쎯	-8.57253
ning❂10쎯	-8.5732
rang❄3쎯	-8.57358
si❄15쎯wan❁9쎯	-8.5744
ming❂7쎯cheng❁28쎯	-8.57813
zhe❄14쎯gan❄3쎯	-8.57821
ren❂1쎯kou❃1쎯	-8.58054
xing❄13쎯neng❂2쎯	-8.58098
sheng❁16쎯yu❂35쎯	-8.58254
he❂35쎯xin❁7쎯	-8.58402
guan❁16쎯	-8.58411
jiang❁10쎯xi❁143쎯	-8.58413
hui❄27쎯yi❄214쎯	-8.58448
cheng❂50쎯	-8.58459
suo❃11쎯you❃11쎯	-8.58637
mu❃6쎯	-8.58878
er❄5쎯shi❂10쎯	-8.59054
huan❂20쎯	-8.59105
can❁3쎯shu❄26쎯	-8.59384
,er❂16쎯	-8.59428
쎁쎀yue❄29쎯	-8.59493
shi❂20쎯ji❁47쎯	-8.59504
jian❄17쎯kang❁6쎯	-8.59542
ling❂58쎯	-8.59591
er❂7쎯	-8.59674
ji❁116쎯	-8.59723
yang❂19쎯	-8.59748
쎂쎄	-8.59895
liang❃5쎯gan❄3쎯	-8.60053
mei❃9쎯	-8.60114
gu❃52쎯	-8.6017
yi❁10쎯xie❁3쎯	-8.60235
shi❂13쎯	-8.60271
pian❁7쎯	-8.60278
,you❂29쎯	-8.60301
bi❃24쎯	-8.60341
xiang❄4쎯	-8.60615
shi❂39쎯pin❃0쎯	-8.60867
dian❄13쎯	-8.61016
xiang❃6쎯	-8.61029
:“	-8.61032
yi❃15쎯jing❁27쎯	-8.61147
fo❂2쎯	-8.612
bo❂41쎯	-8.61237
ben❃5쎯ke❁16쎯	-8.613
ge❁16쎯	-8.61303
zhe❄14쎯chong❂11쎯	-8.61406
ya❃9쎯	-8.61406
jiao❄35쎯	-8.61461
zhu❄31쎯ce❄11쎯	-8.61622
chong❂17쎯qing❄4쎯	-8.6163
cang❂5쎯	-8.61643
shao❃2쎯	-8.61746
zheng❁15쎯	-8.6176
tie❃5쎯lu❄70쎯	-8.61912
tai❄9쎯	-8.61959
hu❄26쎯	-8.61969
쎯	-8.62058
zhi❁16쎯	-8.62103
si❁22쎯	-8.62103
si❁22쎯xiang❃6쎯	-8.62131
jiao❁8쎯	-8.62211
wo❃3쎯们	-8.62215
na❃3쎯	-8.6224
dang❃2쎯wei❁12쎯	-8.62248
xian❁18쎯hou❄7쎯	-8.62303
she❄29쎯shi❁13쎯	-8.62325
zhu❃4쎯cha❁3쎯	-8.62425
fu❁13쎯	-8.62469
yong❃21쎯	-8.62493
di❄45쎯	-8.62593
gan❃6쎯	-8.62641
ben❄4쎯yu❄93쎯	-8.62657
zheng❁22쎯shi❄33쎯	-8.62671
bu❂0쎯duan❄4쎯	-8.62732
pai❂2쎯	-8.6309
fang❂4쎯	-8.6314
cai❂2쎯	-8.63146
shi❄15쎯ji❄94쎯	-8.63352
lu❃27쎯	-8.63431
mei❂18쎯	-8.63488
wei❁12쎯hui❄27쎯	-8.63583
san❃7쎯	-8.63627
xia❄6쎯	-8.63647
lin❂7쎯	-8.63682
zheng❄17쎯	-8.63748
liang❂7쎯	-8.63799
yin❄7쎯	-8.63871
ren❂3쎯	-8.63876
gong❁15쎯	-8.64043
zui❄4쎯da❄0쎯	-8.64273
xian❃24쎯shi❄60쎯	-8.64341
ding❁2쎯	-8.64364
duan❃0쎯	-8.64369
yi❃10쎯shang❃1쎯	-8.64377
hen❃2쎯	-8.64493
fu❃14쎯	-8.64717
sun❁0쎯	-8.6481
jing❁24쎯shen❂2쎯	-8.64833
xi❁97쎯	-8.64843
gang❃6쎯	-8.64993
yi❄119쎯	-8.65084
la❄23쎯	-8.65099
guan❁4쎯xi❄46쎯	-8.65182
shi❄45쎯you❂29쎯	-8.65254
fen❁4쎯bu❄23쎯	-8.6526
xie❃4쎯	-8.65268
fan❄22쎯wei❂11쎯	-8.65422
쎁쎀쎀	-8.65449
zhan❄10쎯zheng❁7쎯	-8.65451
jie❁13쎯kou❃1쎯	-8.65511
ju❄18쎯	-8.65666
nan❂6쎯jing❁3쎯	-8.65671
an❄14쎯	-8.65865
feng❁19쎯	-8.65976
shi❂13쎯xian❄37쎯	-8.65998
zu❂11쎯	-8.66161
zu❂9쎯	-8.66218
du❂25쎯li❄141쎯	-8.66363
ping❂17쎯jun❁6쎯	-8.66449
shan❄15쎯	-8.66499
yu❂37쎯	-8.66566
쎃쎂	-8.66726
ci❂29쎯	-8.6673
bu❃11쎯	-8.66742
she❄29쎯	-8.66755
ye❃7쎯	-8.66792
liang❂15쎯	-8.6681
mo❂12쎯shi❄33쎯	-8.66993
zhan❁4쎯de❅0쎯	-8.67172
gai❃2쎯ge❂54쎯	-8.67196
wei❄26쎯	-8.67206
shen❁18쎯zhen❄13쎯	-8.67248
wei❃25쎯	-8.67551
xi❄50쎯bao❁9쎯	-8.67632
bian❁13쎯	-8.67666
kang❁6쎯	-8.67743
shou❁1쎯	-8.67879
xue❃5쎯	-8.68329
gong❁17쎯zuo❄5쎯,	-8.68696
jing❁27쎯yan❄75쎯	-8.68705
yao❁17쎯qiu❂27쎯	-8.68781
duan❁4쎯	-8.6901
si❃0쎯	-8.69061
gu❄12쎯shi❄18쎯	-8.69078
shi❂20쎯dai❄9쎯	-8.69115
cheng❂29쎯guo❃3쎯	-8.69117
yun❂4쎯nan❂6쎯	-8.69221
jiao❁8쎯liu❂20쎯	-8.69294
yi❁13쎯liao❂24쎯	-8.69417
wei❄15쎯zhi❄85쎯	-8.69579
fei❁15쎯chang❂15쎯	-8.69646
hui❄27쎯yuan❂15쎯	-8.69714
xiang❄24쎯	-8.69726
ren❂1쎯wu❄36쎯	-8.69836
zhi❂7쎯	-8.69911
yun❃16쎯	-8.69947
peng❂7쎯	-8.70007
fu❄36쎯	-8.7013
ping❂17쎯si❄15쎯	-8.70296
pei❂3쎯yang❃6쎯	-8.70306
jie❁13쎯	-8.7031
qin❁4쎯	-8.7031
zhi❃32쎯	-8.70353
xue❂6쎯li❄62쎯	-8.70763
sai❄4쎯	-8.70797
an❁15쎯fan❄15쎯	-8.70927
mu❄22쎯	-8.7099
chu❁3쎯sheng❁16쎯,	-8.71042
qian❁13쎯	-8.71507
qing❁16쎯	-8.71691
shi❂13쎯shi❁13쎯	-8.71729
쎁쎉	-8.7197
gang❁32쎯	-8.72001
quan❂6쎯mian❄2쎯	-8.72057
yi❁13쎯	-8.72084
li❃15쎯	-8.72292
nong❂5쎯min❂22쎯	-8.72354
yi❁11쎯	-8.72431
ao❄14쎯	-8.72587
lie❄20쎯	-8.72695
lv❄20쎯	-8.72729
jian❁14쎯	-8.72733
--	-8.72964
ying❁44쎯guo❂11쎯	-8.73003
ji❄36쎯	-8.73166
shui❃0쎯ping❂17쎯	-8.73189
>	-8.73259
feng❁8쎯	-8.73338
ke❄7쎯	-8.73368
gai❄17쎯	-8.73475
yue❄46쎯	-8.73586
dong❄24쎯	-8.73822
fang❁4쎯xiang❄6쎯	-8.73902
xin❁10쎯wen❂23쎯	-8.73942
sheng❁16쎯,	-8.73972
gui❁35쎯mo❂12쎯	-8.74019
.gai❁13쎯	-8.74039
ye❃1쎯shi❄45쎯	-8.74178
man❃4쎯	-8.7431
gao❁20쎯su❄70쎯	-8.74377
zou❃0쎯	-8.74495
ying❂45쎯	-8.74615
duo❁5쎯chong❂11쎯	-8.74628
wu❁3쎯	-8.74635
wen❂5쎯jian❄15쎯	-8.74773
wei❄14쎯zhu❃4쎯	-8.74792
tian❁5쎯jin❁18쎯	-8.74896
wa❃5쎯	-8.75012
cheng❂30쎯	-8.7504
shan❁11쎯xi❁143쎯	-8.75088
qu❁15쎯yu❄31쎯	-8.75108
feng❁17쎯	-8.75209
zuo❄5쎯zhe❃2쎯	-8.75285
yang❃6쎯	-8.75286
zhu❁7쎯	-8.75378
sui❂9쎯	-8.75391
zhi❄104쎯liang❂1	-8.75584
bei❄26쎯	-8.75866
ge❄3쎯lei❄16쎯	-8.76047
jin❄61쎯ru❄2쎯	-8.76118
quan❂17쎯	-8.76125
liao❄8쎯	-8.76229
yin❂44쎯	-8.76277
hu❂46쎯	-8.76536
qiu❁16쎯	-8.76548
yi❁38쎯	-8.76563
dian❄23쎯yuan❂34쎯	-8.76638
fa❃2쎯lv❄9쎯	-8.7671
ye❄26쎯	-8.76724
zhan❃11쎯	-8.76796
dong❁3쎯bei❃2쎯	-8.7688
tang❂28쎯	-8.77059
shi❄71쎯	-8.77064
deng❁7쎯	-8.77065
)、	-8.77182
yin❂44쎯hang❂16쎯	-8.77187
xian❄37쎯you❃11쎯	-8.7727
lao❂11쎯dong❄13쎯	-8.77325
쎂쎀쎁쎀nian❂6쎯	-8.77461
jiao❁29쎯	-8.77883
ha❁0쎯	-8.78104
kang❄5쎯	-8.78105
nong❂5쎯cun❁1쎯	-8.78283
pai❂4쎯	-8.78298
sheng❁16쎯tai❄6쎯	-8.78404
gui❁12쎯	-8.78551
yu❃47쎯	-8.786
jie❄14쎯zhi❂7쎯	-8.78689
gong❁17쎯zuo❄5쎯.	-8.78694
mei❂12쎯ben❄4쎯	-8.78709
wu❃28쎯han❄33쎯	-8.7891
yin❁37쎯	-8.78945
zhi❂16쎯hang❂16쎯	-8.79025
jin❁33쎯shu❃5쎯	-8.79084
gong❁10쎯li❃26쎯	-8.79165
nan❂20쎯	-8.79201
쎈yue❄29쎯	-8.79322
ji❂75쎯bing❄12쎯	-8.79343
qiu❂27쎯	-8.79344
ke❄14쎯	-8.79371
da❂30쎯dao❄3쎯	-8.7945
dao❁1쎯	-8.79552
쎂쎀쎀쎈nian❂6쎯	-8.79743
zheng❄13쎯	-8.79773
wu❄36쎯li❃15쎯	-8.79883
qian❂40쎯	-8.79896
ling❂34쎯	-8.79944
ying❁44쎯yu❃44쎯	-8.80075
쎉yue❄29쎯	-8.80101
쎇쎀	-8.80132
tu❂14쎯shu❁8쎯	-8.80263
xi❁143쎯nan❂6쎯	-8.80311
quan❂6쎯qiu❂36쎯	-8.8042
kuai❄14쎯	-8.80448
쎂쎂	-8.80649
jing❃3쎯	-8.80718
li❃15쎯shi❄18쎯	-8.80843
ye❄44쎯	-8.80869
chun❂18쎯	-8.80885
bing❄12쎯du❂17쎯	-8.80903
jie❃6쎯jue❂33쎯	-8.80923
can❁3쎯yu❃14쎯	-8.80925
jin❃16쎯	-8.80947
chong❂14쎯	-8.80953
chu❂42쎯	-8.80993
cun❂1쎯	-8.80997
ding❃11쎯	-8.81121
쎂쎀쎀쎆nian❂6쎯	-8.81163
he❂35쎯	-8.81241
pu❃3쎯tong❁5쎯	-8.8131
~	-8.81358
li❃17쎯	-8.81397
xuan❃8쎯ze❂19쎯	-8.81441
guang❁8쎯	-8.81508
li❄50쎯	-8.81531
yi❁10쎯ci❄16쎯	-8.81602
ju❄65쎯	-8.81657
tiao❂9쎯jian❄15쎯	-8.81675
an❁15쎯xi❁143쎯	-8.81685
zhu❃4쎯chi❂20쎯	-8.81755
leng❃쎯	-8.81768
jian❃52쎯	-8.81816
jiu❄30쎯	-8.81887
luo❄17쎯	-8.81927
en❁2쎯	-8.82012
gao❁20쎯deng❃2쎯	-8.82053
wang❄4쎯	-8.82109
,wei❄15쎯yu❂35쎯	-8.82146
xian❁13쎯	-8.82287
te❄5쎯dian❃11쎯	-8.82369
zhao❄31쎯	-8.82401
jun❁4쎯	-8.82429
jun❁15쎯	-8.82564
,zhu❃4쎯yao❁17쎯	-8.82621
lei❄16쎯xing❂9쎯:	-8.82636
ji❄117쎯	-8.82686
duo❁5쎯ci❄16쎯	-8.82743
chuan❂13쎯	-8.82819
du❂34쎯	-8.82985
ji❁34쎯jin❁33쎯	-8.83011
zuo❃3쎯	-8.83063
shi❁8쎯	-8.83073
bi❃20쎯jiao❄35쎯	-8.83083
jia❁13쎯ting❂8쎯	-8.83182
fen❁4쎯zi❃7쎯	-8.83258
yi❁10쎯zhi❂25쎯	-8.83408
쎂쎀쎀쎉nian❂6쎯	-8.83461
tuo❁6쎯	-8.83494
de❅2쎯“	-8.83506
,shi❃6쎯	-8.83523
fa❁1쎯hang❂16쎯	-8.83524
shan❃12쎯xi❁143쎯	-8.83545
ji❁21쎯	-8.83558
xiu❄8쎯	-8.83618
si❁16쎯	-8.83801
gan❁16쎯bu❄38쎯	-8.8381
sheng❁3쎯	-8.83886
lun❂28쎯	-8.8392
zai❄8쎯	-8.83991
zhuan❁1쎯	-8.84011
he❂22쎯	-8.84057
10쎯	-8.84077
쎄쎅	-8.84193
zu❂11쎯qiu❂36쎯	-8.8433
lu❄35쎯	-8.84416
fu❂43쎯	-8.84428
ying❃11쎯	-8.8446
》shi❄45쎯	-8.84485
xin❁7쎯li❃15쎯	-8.84492
hou❄6쎯	-8.84515
jing❁3쎯	-8.84551
zheng❄12쎯ce❄26쎯	-8.8464
an❁15쎯da❄0쎯	-8.84745
bo❂37쎯	-8.84778
er❃12쎯	-8.84792
qing❄14쎯	-8.84805
tao❄1쎯	-8.84863
biao❃5쎯xian❄37쎯	-8.851
liu❂28쎯	-8.85104
ke❄29쎯cheng❂52쎯	-8.85119
liang❂15쎯hao❃0쎯	-8.85162
shi❂13쎯jian❄72쎯	-8.85164
,dui❄14쎯	-8.85229
zui❄4쎯da❄0쎯de❅2쎯	-8.8525
gai❃2쎯	-8.85328
,ke❃4쎯	-8.85361
,ji❂35쎯	-8.85377
jian❄15쎯	-8.85506
쎁쎁yue❄29쎯	-8.85597
zhi❁21쎯	-8.85629
ruo❄8쎯	-8.85663
shi❂13쎯ji❄121쎯	-8.85938
feng❁58쎯ge❂29쎯	-8.86073
lan❂41쎯	-8.86145
ying❂45쎯xiao❁61쎯	-8.8626
wei❄16쎯	-8.86344
chong❁10쎯	-8.86393
you❄13쎯cheng❁28쎯	-8.8646
li	-8.86461
sai❁5쎯	-8.86599
fang❁4쎯mi❃19쎯,	-8.86609
pi❁11쎯zhun❃0쎯	-8.86655
wu❁12쎯	-8.86747
jian❁25쎯zhan❃11쎯	-8.86764
ruan❃17쎯	-8.86853
쎂쎀쎀쎇nian❂6쎯	-8.87053
xi❁143쎯bei❃2쎯	-8.87086
fang❄0쎯ru❄2쎯	-8.87129
yi❁10쎯qi❃34쎯	-8.87144
ma❂8쎯	-8.87168
=	-8.87228
kao❃10쎯	-8.87403
xue❂6쎯wei❄15쎯	-8.87528
chi❁8쎯	-8.8753
쎂쎃	-8.87596
bi❄46쎯	-8.87639
》,	-8.87658
wei❄14쎯“	-8.8779
ju❄57쎯	-8.87833
ti❂36쎯	-8.87907
shan❁11쎯qu❁15쎯	-8.87978
xu❃19쎯duo❁5쎯	-8.8801
mo❄30쎯	-8.88027
shun❄11쎯	-8.88086
cheng❂52쎯xu❄36쎯	-8.88223
shang❃1쎯de❅2쎯	-8.88358
zhang❃6쎯ji❁47쎯	-8.88545
xu❂1쎯	-8.88753
xuan❁9쎯chuan❂4쎯	-8.88785
han❄33쎯zu❂9쎯	-8.88885
xian❄37쎯ren❂4쎯	-8.889
ji❁34쎯de❅0쎯	-8.89063
qing❂6쎯kuang❄1쎯	-8.891
shang❁2쎯	-8.89211
ben❄4쎯xi❄46쎯	-8.89228
gong❁10쎯wan❂5쎯	-8.89244
mo❂16쎯	-8.89276
zui❄4쎯gao❁20쎯	-8.89421
deng❃2쎯jiang❃8쎯	-8.89426
ta❁3쎯们	-8.89444
an❄16쎯	-8.89475
yan❂50쎯fa❁1쎯	-8.89495
zi❃18쎯	-8.89609
chang❁6쎯	-8.89768
zuo❄5쎯jia❁13쎯	-8.89846
niao❃17쎯	-8.89867
te❄5쎯shu❁26쎯	-8.89868
xiao❁29쎯fei❄37쎯	-8.90005
chuang❁13쎯	-8.90052
you❁5쎯zhi❄104쎯	-8.90132
fen❁4쎯bie❂4쎯	-8.90187
jue❂92쎯	-8.90201
wei❄18쎯	-8.90236
bei❁8쎯	-8.9025
xing❂11쎯shi❄33쎯	-8.90366
dong❁3쎯nan❂6쎯	-8.90409
fu❄39쎯	-8.90421
zhi❁13쎯yi❁10쎯,	-8.90425
shi❄71쎯pin❂15쎯	-8.90542
jin❁33쎯rong❂50쎯	-8.90652
bu❂0쎯neng❂2쎯	-8.90707
bie❂4쎯	-8.90731
bing❁4쎯	-8.90856
gu❃14쎯dai❄9쎯	-8.90918
ti❂17쎯	-8.91019
jia❄5쎯	-8.91073
chang❂15쎯wei❁12쎯	-8.91086
wen❂5쎯ming❂8쎯	-8.9109
geng❁17쎯de❅0쎯	-8.91235
le❄5쎯	-8.91259
cai❃4쎯	-8.9128
fen❁4쎯wei❄14쎯	-8.91322
pin❃0쎯chong❂11쎯	-8.91354
bian❄16쎯	-8.91356
gong❄3쎯tong❂13쎯	-8.91403
hong❂29쎯	-8.91475
zi❁11쎯xun❂42쎯	-8.91532
you❃11쎯xiao❄14쎯	-8.91584
rui❄12쎯	-8.91654
que❄11쎯	-8.91671
jin❁10쎯	-8.9168
ke❃4쎯neng❂2쎯	-8.91681
wei❄14쎯le❅0쎯	-8.91796
jiang❁4쎯	-8.918
fei❄37쎯	-8.91871
쎃쎅	-8.91904
cun❂1쎯zai❄5쎯	-8.92003
ju❃4쎯	-8.92042
ze❂44쎯ren❂4쎯	-8.92043
qi❂117쎯	-8.92127
,ta❁3쎯	-8.92143
shou❃3쎯	-8.92269
cha❁8쎯	-8.92301
gou❁12쎯	-8.9241
shi❂10쎯fen❁4쎯	-8.92504
zhu❁29쎯	-8.92653
hui❄27쎯fu❄28쎯	-8.92789
jie❁30쎯dao❄24쎯	-8.92965
tong❂48쎯	-8.93003
yi❄67쎯	-8.93255
zhong❁4쎯yi❁13쎯	-8.9336
er❂7쎯tong❂36쎯	-8.93366
song❄9쎯	-8.93405
mao❄39쎯yi❄119쎯	-8.93407
da❄0쎯liang❂19쎯	-8.9346
jin❄32쎯	-8.93527
쎂쎀쎀쎅nian❂6쎯	-8.93577
yuan❂44쎯	-8.93622
kong❁9쎯jian❁85쎯	-8.93669
쎁.	-8.93753
shi❄45쎯yi❁10쎯	-8.93802
wei❁13쎯	-8.93948
zhi❁31쎯ming❂7쎯	-8.94047
dao❃5쎯	-8.94047
kuai❄18쎯	-8.94054
su❄70쎯	-8.94109
bing❁5쎯mu❄10쎯	-8.94278
dan❁5쎯	-8.94291
jian❄20쎯	-8.94344
쎉쎀	-8.94382
ji❂37쎯qi❂29쎯	-8.94443
jing❄48쎯	-8.94562
m	-8.94596
jiao❁20쎯cai❂3쎯	-8.94623
liao❂37쎯ning❂10쎯	-8.94765
dou❄18쎯	-8.94896
yin❃14쎯	-8.94951
jiao❃53쎯	-8.95009
쎂쎆	-8.95023
ji❁22쎯	-8.95024
yuan❂15쎯,	-8.95078
dian❄23쎯nao❃16쎯	-8.95132
pei❄19쎯	-8.95198
pin❃0쎯zhi❄104쎯	-8.95222
te❄5쎯se❄29쎯	-8.95223
fang❁4쎯mi❃19쎯	-8.95236
e❂39쎯	-8.95328
qi❂29쎯ta❁6쎯	-8.95378
쎆yue❄29쎯	-8.9542
jian❄29쎯yu❂35쎯	-8.95535
hui❄27쎯ji❄116쎯	-8.9561
ling❂46쎯	-8.95746
you❂29쎯yu❂35쎯	-8.95917
bei❁15쎯	-8.96066
fa❃2쎯guo❂11쎯	-8.96207
de❂9쎯guo❂11쎯	-8.96264
쎂쎈	-8.9628
mu❄22쎯biao❁14쎯	-8.96284
jian❁52쎯du❁8쎯	-8.96365
13쎯	-8.96435
de❅0쎯chu❄17쎯	-8.9657
wei❁12쎯	-8.96599
》deng❃2쎯	-8.96673
lv❄20쎯se❄29쎯	-8.96674
wen❂12쎯	-8.9669
ru❃0쎯	-8.96704
nuo❄16쎯	-8.96762
hu❃8쎯	-8.9684
xia❄3쎯,	-8.96859
ren❂1쎯de❅2쎯	-8.96946
zhi❂25쎯jie❁13쎯	-8.96996
xu❁29쎯	-8.97031
xue❂6쎯ke❁16쎯	-8.97102
yan❁33쎯	-8.97189
,bu❂0쎯	-8.97407
jing❄44쎯	-8.97475
xi❃1쎯	-8.97641
jing❁27쎯guo❄2쎯	-8.9769
dou❃4쎯	-8.97716
lve❄11쎯	-8.97718
kuo❄15쎯yong❄3쎯	-8.9799
sha❁4쎯	-8.98018
zi❁45쎯chan❃12쎯	-8.98023
zhong❁29쎯	-8.98028
chang❂15쎯wu❄12쎯	-8.98039
zu❃5쎯	-8.98112
zi❁45쎯liao❄8쎯	-8.98128
ren❄30쎯zheng❄17쎯	-8.98151
lun❂5쎯	-8.98161
쎂쎀쎀	-8.98208
feng❄2쎯	-8.98406
们	-8.98432
qing❄4쎯	-8.98468
ke❂0쎯	-8.98715
mai❄9쎯	-8.9875
tong❁5쎯chang❂15쎯	-8.98888
zhan❁4쎯	-8.98896
wan❁9쎯	-8.98902
you❃9쎯	-8.9892
dan❄21쎯	-8.9903
qian❃5쎯	-8.99042
wu❃37쎯	-8.99271
xiong❂2쎯	-8.99313
zhu❁17쎯	-8.99395
쎂쎁	-8.99396
mo❄57쎯	-8.99512
xiao❄14쎯guo❃3쎯	-8.99541
han❂17쎯	-8.99569
feng❁58쎯jing❃13쎯	-8.99634
mo❄22쎯	-8.99645
di❂40쎯	-8.99708
wang❃7쎯	-8.99731
tui❁1쎯	-8.99831
ce❄8쎯	-8.9984
an❁13쎯zhuang❁10쎯	-8.99948
di❄26쎯	-9.00028
yang❂27쎯	-9.0009
.qi❂29쎯	-9.00133
gu❃42쎯fen❄2쎯	-9.00148
zhi❄88쎯jin❁10쎯	-9.00232
zao❃2쎯	-9.00403
dan❄33쎯	-9.00541
suo❃18쎯	-9.00726
hang❂8쎯zhou❁9쎯	-9.0075
gu❄12쎯	-9.00757
ji❁48쎯guan❁4쎯	-9.00973
zhi❄89쎯li❄59쎯	-9.01019
yuan❂15쎯gong❁17쎯	-9.01031
ku❃1쎯	-9.01105
jiu❃1쎯	-9.01206
man❄12쎯	-9.01224
miao❄1쎯	-9.01276
da❂14쎯zao❄16쎯	-9.01291
dan❄10쎯	-9.01341
xian❄37쎯zai❄5쎯	-9.01462
yi❂20쎯	-9.01496
hui❁23쎯	-9.01563
chuang❄1쎯ban❄4쎯	-9.01673
gui❄41쎯	-9.01738
duo❃23쎯	-9.01811
쎂쎀쎀쎄nian❂6쎯	-9.01932
gu❄7쎯	-9.01953
hua❄26쎯	-9.02089
ren❂1쎯lei❄16쎯	-9.02195
wan❂6쎯quan❂6쎯	-9.0226
bo❂41쎯wu❄36쎯	-9.02313
zhi❄89쎯	-9.02322
bei❄52쎯	-9.02395
jiang❄25쎯	-9.02402
zhan❄10쎯lve❄11쎯	-9.02431
dou❃4쎯zheng❁7쎯	-9.02437
shao❃2쎯nian❂6쎯	-9.02607
hu❄30쎯	-9.02709
dao❃2쎯	-9.0274
ting❂4쎯	-9.02771
yi❁10쎯ji❂83쎯	-9.02775
ji❄116쎯	-9.029
ce❄33쎯	-9.02915
yun❃16쎯hang❂16쎯	-9.02952
dou❁12쎯shi❄45쎯	-9.02996
hua❁1쎯gong❁17쎯	-9.0306
yi❁10쎯ming❂7쎯	-9.03163
ming❄1쎯	-9.03189
jiao❁20쎯shou❄9쎯,	-9.03201
shu❄26쎯xue❂6쎯	-9.03222
》(	-9.03223
'	-9.03257
deng❁10쎯	-9.03408
,ru❂9쎯	-9.03488
jie❄14쎯ge❂29쎯	-9.036
zuo❄9쎯la❄23쎯	-9.0364
yi❁10쎯suo❃11쎯	-9.03649
zhe❄14쎯xie❁3쎯	-9.03688
pei❄19쎯tao❄1쎯	-9.0376
duan❄4쎯	-9.03849
yan❂37쎯	-9.0385
lu❄83쎯	-9.03867
an❁15쎯gao❄3쎯	-9.03948
shi❁13쎯	-9.04001
cheng❂29쎯dou❁12쎯	-9.04016
jia❁8쎯	-9.04122
hui❄50쎯	-9.04204
ting❁5쎯	-9.04262
,tong❂13쎯shi❂20쎯	-9.04418
jiao❁8쎯yi❄119쎯	-9.04426
jia❁5쎯	-9.04459
long❁쎯	-9.04479
shu❁44쎯ru❄2쎯	-9.04572
wei❂7쎯yi❁10쎯	-9.04658
wu❄36쎯zhi❄104쎯	-9.04745
ke❄29쎯	-9.04785
,jiang❁5쎯	-9.04874
bing❁5쎯	-9.05092
miao❂5쎯shu❄47쎯	-9.05095
qin❂29쎯	-9.05098
yi❄190쎯	-9.05195
chuan❂4쎯bo❁10쎯	-9.05257
zhi❄56쎯	-9.05472
chi❂23쎯	-9.05592
chuang❄1쎯zao❄16쎯	-9.05637
.zhu❃4쎯yao❁17쎯	-9.0565
guan❁4쎯yu❂35쎯	-9.05762
bi❄100쎯shu❁8쎯	-9.05778
kuan❃7쎯	-9.05789
ni❂15쎯	-9.05814
meng❄8쎯	-9.05839
ji❄94쎯	-9.05883
han❂20쎯	-9.05906
biao❃5쎯mian❄2쎯	-9.06015
ti❂17쎯chu❁3쎯	-9.06117
ying❂45쎯yang❃6쎯	-9.0614
gui❁35쎯fan❄22쎯	-9.06271
nao❃16쎯	-9.06318
쎂쎇	-9.06355
meng❁3쎯gu❃14쎯	-9.06521
huang❂34쎯	-9.06559
duo❁5쎯gan❄3쎯	-9.06689
yin❁11쎯wei❄14쎯	-9.0669
zheng❄18쎯	-9.06785
ci❁2쎯	-9.0679
dai❄45쎯shu❃5쎯	-9.06874
zeng❁2쎯	-9.06898
zhu❁16쎯	-9.06961
an❄15쎯	-9.06985
zi❄16쎯zhi❄61쎯	-9.07034
hui❄60쎯	-9.07055
쎂쎀쎀쎃nian❂6쎯	-9.07173
tui❄5쎯	-9.07214
neng❂2쎯gou❄10쎯	-9.07236
wen❃10쎯ding❄2쎯	-9.07509
쎂.	-9.0765
bu❄28쎯	-9.07683
ou❁8쎯zhou❁11쎯	-9.0785
de❂7쎯dao❄3쎯	-9.07908
쎃쎃	-9.08086
du❂34쎯zhe❃2쎯	-9.08116
te❄5쎯bie❂4쎯	-9.08124
yi❁10쎯kuan❃7쎯	-9.08165
bai❂2쎯se❄29쎯	-9.08267
can❁3쎯	-9.08346
duo❃23쎯zhi❄47쎯	-9.08413
20쎯	-9.08416
yu❂46쎯le❄3쎯	-9.08417
zhi❄30쎯du❄8쎯	-9.08427
xiao❄14쎯li❄59쎯	-9.08453
du❂17쎯	-9.08525
c	-9.08538
yin❃14쎯qi❃34쎯	-9.08549
xuan❁9쎯	-9.08636
po❄17쎯	-9.0864
gou❁10쎯	-9.08693
gao❁20쎯zhong❁4쎯	-9.087
shou❂쎯	-9.08758
yuan❄18쎯zhang❃6쎯	-9.08918
she❄13쎯ying❃11쎯	-9.08999
쎃쎆	-9.09085
zhu❄63쎯	-9.0911
zhou❁9쎯shi❄32쎯	-9.09183
shi❂20쎯shang❄2쎯	-9.09203
쎂쎀쎀쎂nian❂6쎯	-9.09249
fang❁4쎯bian❄16쎯	-9.09263
yi❁12쎯	-9.09265
shi❄32쎯wei❁12쎯	-9.09321
yun❃16쎯shu❁44쎯	-9.09373
you❄14쎯	-9.09488
jie❄14쎯	-9.095
pao❁5쎯	-9.09506
qiang❂2쎯	-9.09536
li❄144쎯	-9.09626
zhu❃4쎯xi❂12쎯	-9.09652
lian❂69쎯jie❁13쎯	-9.0966
ya❂12쎯	-9.09752
쎃yue❄29쎯	-9.0976
meng❁3쎯	-9.09768
jie❂67쎯guo❃3쎯	-9.09798
zhi❂32쎯	-9.09804
쎄쎈	-9.09821
de❅0쎯li❃15쎯	-9.09985
gong❁10쎯yuan❂10쎯	-9.1001
gong❄3쎯han❄20쎯	-9.10017
xian❁57쎯	-9.10037
shu❄26쎯zi❄6쎯	-9.10098
lou❄9쎯	-9.10105
zhi❁22쎯	-9.10228
hang❂16쎯wei❄14쎯	-9.10295
sheng❃9쎯ji❂83쎯	-9.10399
cai❃11쎯	-9.10418
she❂3쎯ma❅1쎯	-9.10454
.xian❄37쎯ren❂4쎯	-9.1047
tao❂20쎯	-9.10495
shi❄31쎯、	-9.10522
ge❂53쎯	-9.10619
ling❂98쎯	-9.10655
shen❂2쎯jing❁27쎯	-9.10781
wen❂23쎯	-9.10863
bang❁5쎯zhu❄20쎯	-9.10888
wan❂6쎯shan❄15쎯	-9.1092
shu❂7쎯	-9.11012
yi❁13쎯yao❄12쎯	-9.11053
lai❂25쎯	-9.11066
yi❃10쎯lai❂16쎯	-9.11109
yuan❂12쎯liao❄8쎯	-9.11139
hen❃2쎯duo❁5쎯	-9.11463
zhi❁27쎯	-9.11472
dang❁4쎯dai❄9쎯	-9.11602
juan❁5쎯	-9.11631
kao❃10쎯shi❄78쎯	-9.11837
bian❄19쎯hua❁1쎯	-9.11874
jian❃36쎯ce❄22쎯	-9.11881
yi❁10쎯bu❄38쎯	-9.11891
du❂25쎯	-9.11921
zhe❃2쎯,	-9.11936
min❂22쎯jian❁85쎯	-9.12063
huo❄56쎯	-9.12151
sen❁0쎯	-9.12185
gong❁9쎯	-9.12264
quan❂6쎯bu❄38쎯	-9.12358
quan❂6쎯cun❁1쎯	-9.12486
shou❄4쎯dao❄3쎯	-9.12696
shi❂10쎯er❄5쎯	-9.12786
she❂5쎯	-9.12858
,cong❂6쎯	-9.12965
shao❁8쎯	-9.12968
guan❁5쎯	-9.13032
xi❃1쎯huan❁7쎯	-9.13129
lian❂69쎯xu❄69쎯	-9.13171
ren❄30쎯wei❄14쎯	-9.132
biao❁14쎯	-9.13243
gu❃42쎯	-9.13328
xi❁143쎯an❁13쎯	-9.13347
huo❄27쎯zhe❃2쎯	-9.13435
fan❃3쎯ying❁17쎯	-9.1356
li❄62쎯	-9.13681
yi❂31쎯	-9.13692
쎂쎀쎀쎀nian❂6쎯	-9.13725
dian❄23쎯chi❂23쎯	-9.13726
bao❁4쎯zhuang❁10쎯	-9.13925
yi❂79쎯	-9.13926
zao❄16쎯	-9.13944
gu❃63쎯	-9.14033
xi❄33쎯	-9.14036
san❁1쎯gan❄3쎯	-9.14081
wu❄12쎯	-9.14168
zhe❂16쎯xue❂6쎯	-9.14189
bao❂9쎯	-9.14244
,yu❃14쎯	-9.14249
lai❂16쎯yuan❂34쎯	-9.14256
po❁2쎯	-9.1427
tui❁1쎯an❁15쎯	-9.14307
fu❄48쎯	-9.14336
sa❄13쎯	-9.14404
bi❃20쎯sai❄4쎯	-9.14449
li❄58쎯ya❄7쎯	-9.14478
tang❂16쎯	-9.14559
ji❁64쎯ji❂57쎯	-9.14567
bao❃9쎯xian❃46쎯	-9.14581
chu❁3쎯kou❃1쎯	-9.14605
cheng❂17쎯qu❁15쎯	-9.14638
shu❁44쎯chu❁3쎯	-9.14649
cheng❂29쎯le❅0쎯	-9.14671
zhou❂3쎯	-9.14717
cu❄9쎯jin❄61쎯	-9.14926
shou❃4쎯ji❁48쎯	-9.14936
ji❁48쎯chang❃4쎯	-9.15055
biao❃5쎯shi❄60쎯	-9.15056
쎅yue❄29쎯	-9.15099
tui❄8쎯	-9.15128
쎆쎄	-9.15196
ren❂1쎯da❄0쎯	-9.1524
bei❄48쎯ping❂36쎯	-9.15314
du❄10쎯	-9.15366
li❃15쎯nian❄4쎯	-9.15441
jun❄36쎯	-9.15524
mai❄16쎯	-9.15547
zhu❄19쎯	-9.15574
cheng❂61쎯	-9.15578
dong❁5쎯	-9.1567
wen❄6쎯	-9.15744
zheng❃4쎯	-9.15757
jiao❄6쎯	-9.15782
shi❁13쎯gong❁17쎯	-9.15842
liu❃3쎯	-9.15904
kuai❄18쎯su❄70쎯	-9.15923
sheng❁16쎯ming❄1쎯	-9.15942
han❂37쎯	-9.16004
wen❁6쎯du❄8쎯	-9.16047
shu❁8쎯ji❄117쎯、	-9.16116
zhen❁52쎯	-9.16216
di❄45쎯si❄17쎯	-9.16232
jing❁30쎯	-9.16245
tu❃1쎯de❅0쎯	-9.16251
hang❂13쎯kong❁9쎯	-9.16254
cha❂17쎯	-9.16314
ying❁44쎯wen❂5쎯	-9.16335
pian❁2쎯	-9.16401
zi❁45쎯jin❁33쎯	-9.1644
zuo❃3쎯you❄14쎯	-9.16494
chuang❂6쎯	-9.16622
de❅0쎯zhi❄104쎯	-9.16639
fang❁4쎯an❄16쎯	-9.16731
jie❃6쎯fang❄0쎯	-9.16739
wai❄0쎯ke❁16쎯	-9.16748
zhong❁10쎯	-9.16771
yi❄165쎯	-9.16847
zhou❁11쎯	-9.1689
she❄29쎯you❃11쎯	-9.16913
chen❂26쎯	-9.16969
chen❁13쎯	-9.17026
huo❂3쎯	-9.17044
kuo❄15쎯liang❂19쎯	-9.17056
ze❂24쎯	-9.17056
chao❂8쎯	-9.17102
wei❄62쎯	-9.17127
chuan❁5쎯	-9.17182
쎅쎀쎀	-9.17325
zhu❄31쎯	-9.1739
zeng❁2쎯jia❁7쎯	-9.1743
me❅1쎯	-9.17495
shi❂13쎯yong❄3쎯	-9.17511
yang❂10쎯	-9.17528
gui❁35쎯ding❄2쎯	-9.17586
gong❁17쎯ju❄16쎯	-9.17633
cu❁0쎯	-9.17798
jia❃2쎯	-9.17843
te❄5쎯zheng❁15쎯	-9.17925
zheng❄12쎯xie❂14쎯	-9.18032
ce❄22쎯	-9.18068
fu❂94쎯you❃11쎯	-9.18194
mi❂38쎯	-9.1823
dan❄43쎯bai❂2쎯	-9.18246
an❁15쎯bo❁10쎯	-9.18312
gong❁17쎯shang❁4쎯	-9.18353
°	-9.18374
lao❂11쎯	-9.18374
tou❄4쎯	-9.18447
zhao❄18쎯	-9.1845
xian❄22쎯wei❁12쎯	-9.18475
shang❄2쎯	-9.18476
fu❄23쎯	-9.18561
쎀	-9.18593
dai❄9쎯li❃15쎯	-9.18626
,bei❄48쎯	-9.18627
gui❄41쎯zhou❁9쎯	-9.18642
,ta❁6쎯	-9.18726
da❄0쎯xiao❃2쎯	-9.18798
zui❄4쎯jia❁5쎯	-9.18925
chao❃7쎯	-9.18937
tian❁5쎯ran❂12쎯	-9.18967
lai❂16쎯zi❄16쎯	-9.18973
ling❃2쎯	-9.19003
she❄29쎯li❄141쎯	-9.19021
shi❄78쎯	-9.19092
qie❃쎯	-9.19232
shi❄78쎯yan❄75쎯	-9.19326
jie❂48쎯	-9.19437
jian❃52쎯dan❁9쎯	-9.19543
fu❄74쎯	-9.19621
bian❁13쎯ji❂107쎯	-9.19679
쎂쎀쎀쎁nian❂6쎯	-9.19687
chang❄2쎯	-9.19693
zi❄16쎯you❂29쎯	-9.19722
ju❁14쎯min❂22쎯	-9.19732
gan❁25쎯	-9.19766
xu❃19쎯	-9.19783
yin❂10쎯	-9.19823
jian❁17쎯chi❂20쎯	-9.19837
shou❄8쎯	-9.19909
ju❂23쎯zhang❃6쎯	-9.19952
zhan❄10쎯dou❃4쎯	-9.1999
jian❁22쎯	-9.20191
you❁5쎯	-9.20237
ke❄29쎯ti❂36쎯	-9.20426
.ta❁3쎯	-9.20518
mu❄9쎯	-9.2053
xian❂50쎯	-9.2054
fen❁4쎯lei❄16쎯	-9.20627
쎃.	-9.20757
zu❂11쎯qiu❂36쎯ju	-9.20825
bei❁12쎯	-9.2086
쎁yue❄29쎯	-9.20943
xian❃24쎯	-9.21074
fu❂51쎯	-9.21102
ta❁3쎯de❅2쎯	-9.21178
&	-9.21181
wei❄52쎯	-9.21217
zhao❂쎯	-9.21331
dong❄13쎯li❄59쎯	-9.21344
su❄70쎯du❄8쎯	-9.21349
ji❁47쎯jian❁85쎯	-9.21361
》.	-9.21422
shang❁4쎯pin❃0쎯	-9.21459
xing❄13쎯de❅2쎯	-9.21546
shi❁16쎯	-9.21699
ju❄30쎯	-9.21722
zhi❂32쎯gong❁17쎯	-9.21752
chi❄49쎯	-9.21781
ji❂39쎯lin❂19쎯	-9.21831
suo❃11쎯zai❄5쎯	-9.21835
yin❃31쎯	-9.21859
ou❁8쎯	-9.21868
shang❃1쎯,	-9.21983
shan❄22쎯zhang❃6쎯	-9.21993
shi❄60쎯fan❄22쎯	-9.22083
yuan❂15쎯.	-9.2214
mo❂26쎯	-9.22151
guo❂11쎯min❂22쎯	-9.22204
zhe❄14쎯yi❁10쎯	-9.22242
xi❃11쎯	-9.22309
bao❃10쎯	-9.22321
xue❂6쎯shi❄28쎯	-9.22424
han❂37쎯guo❂11쎯	-9.22496
run❄4쎯	-9.22554
mo❂14쎯	-9.22587
jing❃23쎯	-9.22624
zhu❃4쎯ren❂4쎯、	-9.22625
qun❂6쎯yin❂10쎯	-9.22803
xie❄84쎯	-9.22904
jie❂69쎯mu❄22쎯	-9.2293
쎄yue❄29쎯	-9.22946
she❄8쎯	-9.22967
yi❁10쎯tiao❂9쎯	-9.23019
tong❄3쎯	-9.23025
chi❃33쎯	-9.23026
liu❂20쎯hang❂16쎯	-9.23057
쎃쎈	-9.23163
xue❂6쎯zhe❃2쎯	-9.23447
gong❁10쎯gong❄3쎯	-9.2346
tui❁1쎯chu❁3쎯	-9.23539
ji❄72쎯	-9.23562
쎂쎀쎁쎁nian❂6쎯	-9.23619
,yong❄3쎯	-9.23687
bei❄21쎯	-9.23761
na❄11쎯wai❄0쎯	-9.23796
shi❂20쎯jian❁85쎯:	-9.23862
e❄47쎯	-9.23865
gan❁25쎯su❄58쎯	-9.2387
,ju❄16쎯you❃11쎯	-9.23899
.gong❁10쎯si❁16쎯	-9.23972
zui❄4쎯xin❁10쎯	-9.24187
lian❂58쎯	-9.24365
xiu❁9쎯xian❂54쎯	-9.24422
qi❂46쎯	-9.2447
yi❁10쎯nian❂6쎯	-9.24634
,ye❃1쎯shi❄45쎯	-9.24767
쎂쎉	-9.24785
ban❄4쎯xue❂6쎯	-9.24818
yin❂10쎯duo❁5쎯	-9.2482
huan❄21쎯	-9.25036
shu❁34쎯	-9.25043
xin❁20쎯	-9.25357
gu❃28쎯	-9.25384
cun❁1쎯wei❁12쎯	-9.25386
fu❄41쎯	-9.25395
fei❂1쎯	-9.25445
쎇쎅	-9.2548
mu❃3쎯	-9.2549
ji❄94쎯nian❄4쎯	-9.25536
xun❄25쎯lian❄22쎯	-9.25603
tou❂5쎯	-9.25651
ling❂99쎯	-9.25663
cai❂9쎯zheng❄12쎯	-9.25664
shi❄45쎯zai❄5쎯	-9.25684
xin❁10쎯jiang❁16쎯	-9.25698
bao❃9쎯zhang❄19쎯	-9.2576
yu❄126쎯	-9.25817
쎃쎀쎀	-9.25906
dong❁3쎯xi❁143쎯	-9.25916
xiang❁9쎯dui❄14쎯	-9.25988
tong❃9쎯ji❄116쎯	-9.26063
wei❂11쎯	-9.26178
li❄59쎯liang❂19쎯	-9.26186
an❁15쎯chang❃4쎯	-9.2621
liang❂5쎯	-9.26261
jian❁25쎯fang❄0쎯	-9.26281
nan❂6쎯bu❄38쎯	-9.26316
jue❂33쎯ding❄2쎯	-9.26368
yan❂46쎯	-9.26369
bao❃9쎯jian❄17쎯	-9.26463
ren❂1쎯们	-9.26566
ㄧ	-9.26633
jie❁23쎯	-9.26672
쎁쎉쎉쎈nian❂6쎯	-9.26697
쎃쎄	-9.26708
sen❁0쎯lin❂19쎯	-9.26743
jiang❃19쎯	-9.26813
,gu❄12쎯	-9.26948
tian❂15쎯	-9.26949
i	-9.27007
yan❂20쎯	-9.27027
jiao❄18쎯wan❂5쎯	-9.27045
tu❁14쎯chu❁3쎯	-9.2711
ai❄35쎯	-9.2714
gao❁20쎯xin❁10쎯	-9.27173
zhu❃4쎯ti❂36쎯	-9.27188
》《	-9.27247
li❄51쎯	-9.27296
zhi❄56쎯neng❂2쎯	-9.27349
nai❄5쎯	-9.2737
pi❂17쎯fu❁39쎯	-9.2739
...	-9.27676
jiang❃19쎯shu❄47쎯	-9.2768
ji❁64쎯	-9.27738
gui❄22쎯	-9.27814
jing❄11쎯na❄11쎯	-9.2782
yi❁10쎯wei❄15쎯	-9.27868
qiu❂19쎯dui❄33쎯	-9.27876
ru❂9쎯he❂22쎯	-9.2792
di❄45쎯shi❂10쎯	-9.27952
wan❃17쎯	-9.28044
che❃7쎯cun❄2쎯	-9.28109
xiao❃2쎯qu❁15쎯	-9.28123
bei❃2쎯bu❄38쎯	-9.28185
xiong❁12쎯	-9.28201
bao❃9쎯chi❂20쎯	-9.28271
쎂쎀쎁쎂nian❂6쎯	-9.28302
bu❂0쎯ke❃4쎯	-9.28321
jing❁27쎯dian❃5쎯	-9.28402
can❁3쎯kao❃10쎯	-9.2843
shou❁1쎯cang❂5쎯	-9.28593
쎁쎉쎉쎉nian❂6쎯	-9.28594
jing❄11쎯	-9.28596
)shi❄45쎯	-9.28631
kuo❄15쎯ge❃0쎯	-9.28746
dui❁14쎯	-9.28774
쎂-	-9.28877
26쎯	-9.28921
yi❂61쎯dong❄13쎯	-9.2896
쎉쎈	-9.2897
ji❄95쎯	-9.28973
bi❄61쎯	-9.28996
ji❄59쎯neng❂2쎯	-9.29008
,suo❃11쎯yi❃10쎯	-9.2901
wen❂5쎯wu❄36쎯	-9.29033
zhu❃14쎯	-9.29047
,zong❃5쎯	-9.29063
kong❄1쎯	-9.29098
she❄29쎯zhi❄85쎯	-9.29107
dang❃2쎯yuan❂15쎯,	-9.29188
jing❁27쎯li❃15쎯	-9.29248
tong❁5쎯xin❄8쎯	-9.29257
mei❃13쎯li❄50쎯	-9.2943
xian❃24쎯ka❃1쎯	-9.29444
dian❄23쎯li❄59쎯	-9.29456
dang❁4쎯de❅0쎯	-9.29473
쎁gan❄3쎯	-9.29518
′	-9.29587
xiao❄22쎯	-9.29751
man❄13쎯hua❄18쎯	-9.29974
zhe❄14쎯li❃26쎯	-9.30161
zu❃7쎯ge❃0쎯	-9.30166
zhu❃4쎯ren❂4쎯,	-9.3021
yan❁37쎯	-9.30231
cheng❂52쎯du❄8쎯	-9.30269
,you❄13쎯	-9.30274
yu❃41쎯	-9.3031
huan❂20쎯bao❃9쎯	-9.30317
luan❄0쎯	-9.30367
cheng❁10쎯	-9.30396
’	-9.30414
dai❁1쎯	-9.3059
ren❂4쎯wu❄12쎯	-9.30641
peng❂11쎯you❃9쎯	-9.30653
diao❄17쎯cha❂17쎯	-9.30712
tie❁5쎯	-9.30771
gu❄7쎯ding❄2쎯	-9.30872
su❁10쎯zhou❁9쎯	-9.30885
ba❄11쎯	-9.3089
zun❁2쎯	-9.30974
shi❃9쎯	-9.31043
wen❂5쎯yi❄190쎯	-9.31071
zuo❄9쎯	-9.31073
zhai❄4쎯	-9.31186
gong❁10쎯an❁13쎯	-9.31293
zhi❁13쎯hou❄7쎯	-9.31336
ban❄4쎯shi❄18쎯	-9.31346
qi❃12쎯qiu❁9쎯.	-9.31375
yuan❄18쎯jiao❄18쎯	-9.31482
qing❁20쎯dao❃7쎯	-9.31486
dao❄24쎯lu❄70쎯	-9.31522
hua❁1쎯de❅2쎯	-9.31579
dong❃8쎯shi❄18쎯	-9.31617
guo❁26쎯	-9.31696
,ye❃1쎯	-9.31708
bian❁13쎯xie❃4쎯	-9.31833
cheng❂15쎯	-9.31891
zuo❄5쎯wu❄36쎯	-9.3192
liang❄2쎯	-9.3201
zhu❄26쎯	-9.32021
ying❄9쎯	-9.32047
gong❄3쎯you❃11쎯	-9.32073
man❃4쎯zu❂11쎯	-9.3214
suan❄3쎯	-9.3214
cao❂8쎯	-9.32187
,yi❃10쎯ji❂37쎯	-9.32219
bo❁13쎯li❂53쎯	-9.32226
15쎯	-9.32258
xi❁143쎯bu❄38쎯	-9.32291
ji❂52쎯	-9.32306
xiang❂6쎯	-9.3233
yi❁13쎯shi❁11쎯	-9.32393
zhang❃2쎯	-9.32485
zhu❄20쎯	-9.3252
shi❄22쎯	-9.32543
gang❃4쎯	-9.32576
fan❄22쎯	-9.32586
qiang❁13쎯	-9.32597
tan❂29쎯	-9.32699
si❄10쎯	-9.32739
gang❁7쎯	-9.32749
hou❂10쎯	-9.32753
yu❄52쎯	-9.32754
bin❁12쎯	-9.32756
ren❂4쎯he❂22쎯	-9.32871
jun❁2쎯shi❄18쎯	-9.32895
bai❄7쎯	-9.32942
쎅쎅	-9.33004
yi❁10쎯zuo❄12쎯	-9.3315
you❂25쎯ji❁22쎯	-9.33195
guo❁22쎯	-9.33243
ce❄33쎯huo❄50쎯	-9.33273
jing❃13쎯guan❁16쎯	-9.3347
lang❂28쎯	-9.33471
shi❂20쎯hou❄5쎯	-9.33511
su❄56쎯zhi❄104쎯	-9.33521
jian❃18쎯	-9.33653
gan❃6쎯ran❃11쎯	-9.33691
ban❁9쎯	-9.33804
jiu❄29쎯	-9.33846
쎆쎀쎀	-9.33878
nin❂5쎯	-9.34027
yi❄109쎯da❄0쎯	-9.34035
zhuan❁1쎯men❂19쎯	-9.34056
dang❃2쎯jiao❄18쎯	-9.34072
,shu❃5쎯yu❂35쎯	-9.34275
tong❃9쎯yi❁10쎯	-9.34353
yi❁10쎯yang❂17쎯	-9.34396
ji❄46쎯	-9.34513
zui❄4쎯zao❃2쎯	-9.34533
<	-9.34536
you❄21쎯er❂7쎯	-9.34674
zhang❃6쎯,	-9.34732
san❁1쎯nian❂6쎯	-9.34819
쎄.	-9.34827
can❂17쎯	-9.34852
sang❁2쎯	-9.34906
쎆쎅	-9.34929
qian❁54쎯	-9.35005
cun❁1쎯min❂22쎯	-9.35118
lian❄27쎯	-9.35186
hao❂25쎯	-9.35206
xing❄9쎯	-9.35262
bao❁6쎯	-9.35342
wu❁8쎯	-9.35444
yi❁10쎯qie❁1쎯	-9.35516
da❄0쎯hui❄27쎯	-9.35607
pai❁0쎯she❄13쎯	-9.35613
shou❄3쎯	-9.35647
ci❂31쎯	-9.35683
se❄29쎯cai❃4쎯	-9.35789
er❂16쎯cheng❂29쎯	-9.35808
fu❂22쎯	-9.35834
ce❄22쎯shi❄78쎯	-9.35885
zhong❁19쎯	-9.35902
kan❁3쎯	-9.35992
kai❃2쎯	-9.3603
le❅0쎯jie❃6쎯	-9.36061
xi❁65쎯	-9.36073
xuan❂15쎯	-9.36109
qi❃34쎯lai❂16쎯	-9.3614
nv❃0쎯xing❄13쎯	-9.36221
shui❄11쎯	-9.36257
jin❃31쎯	-9.36307
jiao❄18쎯zhang❃6쎯	-9.36334
gan❁31쎯	-9.3637
bu❄38쎯dui❄33쎯	-9.36392
na❄11쎯cun❂1쎯	-9.36407
xu❁37쎯qiu❂27쎯	-9.36507
yan❃39쎯yuan❂15쎯	-9.36524
dian❄18쎯	-9.36531
yue❁0쎯	-9.36544
hei❁3쎯se❄29쎯	-9.36553
qing❃9쎯	-9.36596
xing❂11쎯,	-9.36654
쎁쎉쎉쎇nian❂6쎯	-9.36863
dang❁4쎯shi❂20쎯	-9.36913
tu❂25쎯	-9.37011
ce❄33쎯yu❄105쎯	-9.37033
쎄쎀쎀	-9.37045
feng❄3쎯	-9.37066
ruo❄4쎯	-9.37101
dong❁3쎯fang❁4쎯	-9.37105
xiang❁11쎯	-9.37123
zui❄4쎯hou❄7쎯	-9.37157
gui❃37쎯	-9.37167
zhen❄16쎯	-9.37285
du❄8쎯de❅0쎯tu❂14쎯	-9.37343
쎄쎃	-9.37406
쎈쎀쎀	-9.37425
cheng❂30쎯dan❁15쎯	-9.3746
ji❂114쎯cheng❂29쎯	-9.37465
(jin❁10쎯	-9.37476
쎃쎇	-9.37566
yun❃16쎯ying❂45쎯	-9.37587
ji❂35쎯ke❃4쎯	-9.37709
ji❄61쎯	-9.37719
ma❃6쎯	-9.37729
na❄11쎯bu❄38쎯	-9.3775
xin❁17쎯pian❁5쎯	-9.37766
she❄23쎯	-9.37884
pu❂20쎯tao❂13쎯	-9.37944
:쎁	-9.37959
n	-9.37989
쎄쎄	-9.3803
xiang❃3쎯shou❄4쎯	-9.38088
nai❃0쎯	-9.381
zi❁45쎯ben❃5쎯	-9.38205
chao❁17쎯guo❄2쎯	-9.38324
kuo❄15쎯ying❁17쎯	-9.38426
biao❃5쎯yan❃39쎯	-9.38447
쎁쎉쎉쎆nian❂6쎯	-9.38453
yang❂17쎯	-9.38513
ji❄117쎯lu❄35쎯	-9.38519
ren❂1쎯jun❁6쎯	-9.3854
de❅0쎯xia❄3쎯	-9.38621
zhi❁16쎯you❃11쎯	-9.38623
jing❄17쎯	-9.3876
nian❂6쎯lai❂16쎯	-9.38774
er❄5쎯ji❂83쎯	-9.3878
lu❂23쎯	-9.38831
zhu❄19쎯zhai❂1쎯	-9.3884
gao❁20쎯du❄8쎯	-9.38952
miao❂7쎯	-9.38973
ce❄22쎯liang❂19쎯	-9.3909
z	-9.39107
gai❄11쎯nian❄4쎯	-9.39133
fan❁14쎯	-9.39135
tai❄6쎯	-9.39182
xian❁39쎯wei❂38쎯	-9.39187
jing❁11쎯	-9.39228
zhao❁3쎯	-9.39321
you❃11쎯ji❁48쎯	-9.39412
g	-9.39448
28쎯	-9.39452
qian❂8쎯shen❁40쎯	-9.39502
zhuang❄0쎯	-9.39572
dai❄20쎯	-9.39574
ju❁14쎯zhu❄19쎯	-9.39606
xi❁51쎯	-9.39637
xiao❄12쎯	-9.39639
ch	-9.39714
xu❁39쎯	-9.39735
gong❁23쎯	-9.39783
ge❁8쎯	-9.39794
wei❄26쎯lai❂16쎯	-9.39854
,xian❄37쎯ren❂4쎯	-9.39888
jiang❄22쎯	-9.39957
hong❂44쎯se❄29쎯	-9.39994
zhao❂쎯zuo❄5쎯	-9.4003
fu❂94쎯shi❄45쎯	-9.40043
zheng❃4쎯ben❄4쎯	-9.40044
san❁1쎯shi❂10쎯	-9.40073
tian❁5쎯xia❄3쎯	-9.40134
fu❄67쎯	-9.40137
sha❁14쎯	-9.40181
yi❂20쎯qi❄20쎯	-9.40207
he❄27쎯	-9.40224
ai❄26쎯qing❂6쎯	-9.40278
di❂17쎯	-9.40318
heng❂7쎯	-9.40371
tong❁5쎯xun❄26쎯	-9.40385
xi❃11쎯cheng❁10쎯	-9.40402
xiang❂11쎯xi❄50쎯	-9.40442
da❄0쎯lu❄83쎯	-9.40743
ying❃11쎯shi❄71쎯	-9.40769
fu❄64쎯	-9.40779
yao❁15쎯	-9.40839
nian❂6쎯dai❄9쎯	-9.40892
zhu❃4쎯guan❃9쎯	-9.40905
huang❂56쎯se❄29쎯	-9.40911
yun❃16쎯yong❄3쎯	-9.4098
쎂yue❄29쎯	-9.40984
쎄쎂	-9.40988
yi❁10쎯bu❄28쎯	-9.41034
nan❂6쎯sheng❃9쎯	-9.41061
zhe❄14쎯shi❄45쎯	-9.41102
gao❁20쎯jiao❄18쎯	-9.41168
ju❄16쎯ben❄4쎯	-9.41265
gua❄3쎯	-9.41294
mo❂12쎯	-9.41373
yan❂50쎯zhi❄30쎯	-9.41409
dao❃5쎯yan❃39쎯	-9.41442
gua❁16쎯	-9.41445
xiao❄14쎯	-9.41504
bi❂5쎯	-9.41541
fu❂43쎯zhuang❁10쎯	-9.41557
fa❁1쎯bu❄23쎯	-9.41593
dong❄13쎯hua❄18쎯	-9.41648
lie❄45쎯	-9.41693
che❁8쎯zhan❄17쎯	-9.41785
zheng❃4쎯gan❄3쎯	-9.41841
zhan❃11쎯shi❄60쎯	-9.41938
,zhong❁4쎯guo❂11쎯	-9.42009
lian❂53쎯xi❄46쎯	-9.42107
ping❂36쎯wei❄14쎯	-9.42224
gong❁10쎯li❃26쎯.	-9.42232
ping❂36쎯	-9.42232
wan❂12쎯	-9.42302
25쎯	-9.42331
zhi❃22쎯	-9.42371
chong❂17쎯da❄0쎯	-9.42382
쎁쎉쎉쎅nian❂6쎯	-9.42418
cheng❂29쎯shou❂쎯	-9.42421
tai❄3쎯yang❂35쎯	-9.42424
hu❄14쎯lian❂53쎯	-9.42503
jue❂104쎯	-9.42537
shi❄18쎯jian❄15쎯	-9.42564
yuan❂17쎯xing❂11쎯	-9.42599
ming❂8쎯xian❃24쎯	-9.42679
chu❃9쎯	-9.42711
쎁쎉쎉쎂nian❂6쎯	-9.42741
mu❄10쎯	-9.42742
an❄14쎯zhao❄18쎯	-9.42783
yi❃9쎯	-9.42804
ming❂26쎯	-9.42848
ren❂1쎯sheng❁16쎯	-9.4286
dun❄22쎯	-9.42963
wu❄36쎯liu❂20쎯	-9.42989
sui❄29쎯	-9.4318
de❅0쎯zhen❄33쎯	-9.43296
fu❄74쎯jin❄60쎯	-9.43299
wen❂5쎯zhang❁13쎯	-9.43317
.ta❁6쎯	-9.43365
hua❁11쎯wan❂5쎯	-9.43397
l	-9.43431
,nv❃0쎯,	-9.43483
qin❂25쎯	-9.43524
chen❂23쎯yang❂35쎯	-9.43543
,ke❃4쎯yi❃10쎯	-9.4368
mo❂9쎯	-9.43685
lu❂10쎯	-9.4372
chang❂15쎯yong❄3쎯	-9.43738
hai❃1쎯nan❂6쎯	-9.43931
zhuan❁1쎯ji❂107쎯	-9.43944
xiang❁9쎯dang❁4쎯	-9.44031
jia❁10쎯	-9.44092
you❄21쎯	-9.44096
《zhong❁4쎯guo❂11쎯	-9.44108
shi❁33쎯ren❂1쎯	-9.44108
bi❄61쎯xu❁39쎯	-9.44139
쎂쎀쎀쎀	-9.44145
2	-9.44163
쎃쎉	-9.44173
xiao❃3쎯	-9.44177
ba❁11쎯	-9.44248
yan❂50쎯	-9.44256
fan❂14쎯	-9.44277
xin❄8쎯hao❂6쎯	-9.44343
xin❁10쎯xing❂9쎯	-9.44375
yi❄214쎯	-9.44453
pu❄3쎯	-9.44534
fang❂2쎯de❅0쎯	-9.44579
ye❃1쎯you❃11쎯	-9.44582
yi❄183쎯	-9.44605
jin❃24쎯	-9.44724
gai❃2쎯bian❄19쎯	-9.44817
yan❂44쎯	-9.44822
lv❄9쎯	-9.44823
mai❄6쎯	-9.44879
yi❃10쎯xia❄3쎯	-9.44885
bu❂0쎯fu❄23쎯	-9.4494
mi❃19쎯,	-9.44955
wei❄37쎯	-9.44963
ting❂8쎯	-9.44964
zhe❄14쎯yang❂17쎯	-9.4524
da❄0쎯zhuan❁1쎯	-9.45255
yi❄215쎯	-9.45328
ge❄3쎯de❅0쎯	-9.45352
ren❂1쎯shi❄28쎯	-9.45367
쎁쎉쎉쎄nian❂6쎯	-9.45373
shan❁11쎯qu❁15쎯.	-9.45436
shang❃1쎯shi❄32쎯	-9.45463
zi❁45쎯	-9.4547
shen❁40쎯ben❄4쎯	-9.45545
xi❂9쎯	-9.45634
chang❂20쎯	-9.45683
,ju❄65쎯chi❁23쎯	-9.45709
wu❂17쎯xian❄47쎯	-9.45719
zhuan❁1쎯ke❁16쎯	-9.45798
hang❂13쎯	-9.45919
gou❃2쎯cheng❂29쎯	-9.45977
qi❃13쎯	-9.46125
,zhong❁4쎯gong❄3쎯	-9.46227
zao❄16쎯cheng❂29쎯	-9.46257
jian❃36쎯cha❂17쎯	-9.46258
ˋ	-9.4637
yuan❂12쎯li❃15쎯	-9.46391
xiao❁29쎯	-9.46444
you❃11쎯zhao❁6쎯	-9.46447
lv❃14쎯	-9.46514
cheng❂29쎯ji❁74쎯	-9.46583
que❄26쎯ding❄2쎯	-9.46589
cun❂1쎯chu❃3쎯	-9.46592
du❄12쎯	-9.4661
쎁쎉쎉쎃nian❂6쎯	-9.46638
,hou❄7쎯	-9.46653
que❁0쎯	-9.46659
❂22쎯xiao❃2쎯zu❃7쎯	-9.46695
dan❄38쎯you❂24쎯	-9.46701
mian❃10쎯fei❄37쎯	-9.46701
zhi❄30쎯pin❃0쎯	-9.4684
yun❄27쎯	-9.46943
mei❃13쎯rong❂21쎯	-9.46964
dui❄14쎯xiang❄20쎯	-9.47024
ban❄4쎯li❃15쎯	-9.47127
shen❄11쎯	-9.47174
da❄0쎯dao❄24쎯	-9.47239
wen❂5쎯zi❄6쎯	-9.47366
yan❃39쎯	-9.474
yao❄12쎯wu❄36쎯	-9.47471
diao❄17쎯zheng❃4쎯	-9.47487
(),	-9.47523
shu❄26쎯liang❂19쎯	-9.47528
yi❃10쎯lai❂16쎯,	-9.47534
bu❂0쎯shi❄45쎯	-9.47567
qi❂46쎯xia❄3쎯	-9.47607
tao❂5쎯	-9.47614
shi❂13쎯li❄59쎯	-9.47653
,zai❄4쎯	-9.4766
zhuang❄5쎯tai❄6쎯	-9.47664
lang❃9쎯	-9.47703
쎃쎁	-9.47777
xiao❃2쎯shi❂20쎯	-9.47819
xie❂27쎯	-9.47844
chuan❂4쎯》:“	-9.4795
yin❄7쎯du❄8쎯	-9.47957
,yin❁11쎯	-9.48034
zi❁45쎯ge❂29쎯	-9.48084
kong❁9쎯qi❃25쎯	-9.48106
jing❄30쎯zheng❁7쎯	-9.48107
쎂gan❄3쎯	-9.48114
wei❁12쎯fu❄28쎯	-9.48121
yu❄40쎯	-9.48139
_	-9.48194
da❂24쎯	-9.48202
쎆쎆	-9.48311
tai❄3쎯ping❂17쎯	-9.48384
de❅0쎯qiu❂36쎯	-9.48395
fang❁9쎯	-9.48404
yan❂72쎯se❄29쎯	-9.48513
qu❃1쎯de❂7쎯	-9.48547
tu❂14쎯pian❁5쎯	-9.4858
sheng❃9쎯wei❁12쎯	-9.48624
,er❂16쎯qie❃쎯	-9.48639
b	-9.48648
ya❄7쎯zhou❁11쎯	-9.48656
jian❄17쎯	-9.48735
mei❂25쎯	-9.48747
yan❃39쎯chang❄2쎯	-9.48794
yue❄56쎯du❂34쎯	-9.4893
ping❂25쎯	-9.48991
cun❁1쎯dai❄45쎯	-9.49012
shou❃4쎯shu❂7쎯	-9.49026
he❄23쎯se❄29쎯	-9.49027
ce❄26쎯hua❂11쎯	-9.49056
「	-9.4918
yi❁10쎯liu❂20쎯	-9.49196
xu❄36쎯	-9.49241
yue❄21쎯	-9.49253
ce❄11쎯	-9.49286
-쎂	-9.49287
,ceng❂6쎯	-9.49295
」	-9.49327
e❂11쎯luo❁4쎯	-9.49337
jin❄61쎯bu❄28쎯	-9.4934
you❁5쎯shi❄22쎯	-9.49346
gong❁23쎯ji❁22쎯	-9.49377
ge❁16쎯qu❁25쎯	-9.49429
bin❁5쎯	-9.49508
pu❃7쎯	-9.49513
nian❂6쎯qing❁16쎯	-9.49526
bao❄10쎯gao❄3쎯	-9.49536
li❃15쎯xiang❃6쎯	-9.49566
mou❃2쎯	-9.49693
yuan❂10쎯su❄56쎯	-9.49708
쎅쎂	-9.49714
hai❃1쎯yang❂19쎯	-9.49804
ye❄65쎯	-9.49809
zhong❁4쎯shan❁11쎯	-9.49865
ge❁16쎯shou❃4쎯	-9.49945
kao❄5쎯	-9.50045
cai❂9쎯wu❄12쎯	-9.50089
xiao❁61쎯	-9.50094
suo❃11쎯shu❃5쎯	-9.50129
xiang❁7쎯	-9.5014
qin❂12쎯	-9.50212
tan❂8쎯	-9.50263
jing❄19쎯	-9.50299
zui❄11쎯	-9.50312
ㄨ	-9.50337
gong❁9쎯ying❁17쎯	-9.50418
,gai❁13쎯	-9.50716
zheng❁7쎯	-9.50733
ju❁18쎯	-9.50745
ji❂114쎯zhong❁4쎯	-9.50746
zhi❃19쎯hui❁15쎯	-9.50771
zhu❃4쎯ren❂4쎯.	-9.50777
fu❂43쎯wu❄12쎯.	-9.50788
ya❁23쎯	-9.50849
.쎆	-9.5085
qiu❂19쎯ben❄4쎯	-9.50938
jie❁13쎯shou❄4쎯	-9.50944
pen❁1쎯	-9.50951
nian❄4쎯	-9.5105
meng❄7쎯	-9.51103
ji❄72쎯nan❂6쎯	-9.51115
bao❃9쎯zheng❄17쎯	-9.5112
tan❄5쎯	-9.51444
gou❄26쎯wu❄36쎯	-9.51452
쎆쎈	-9.51458
ci❂22쎯	-9.51517
hui❄27쎯yuan❂15쎯,	-9.51544
);	-9.51555
쎁쎉쎈쎄nian❂6쎯	-9.51586
cai❂9쎯	-9.51628
fu❂36쎯	-9.51641
xia❂39쎯	-9.5165
shao❁11쎯	-9.51662
shen❁18쎯ru❄2쎯	-9.51723
shi❂35쎯	-9.51763
ming❄1쎯ming❂7쎯	-9.51779
xi❁70쎯	-9.51791
nv❃0쎯zi❃7쎯	-9.51811
yi❂61쎯	-9.51813
bang❁13쎯	-9.51829
nu❃1쎯li❄59쎯	-9.51861
zhen❃27쎯duan❄4쎯	-9.51901
di❄45쎯wu❃9쎯	-9.51918
wu❄12쎯yuan❄18쎯	-9.51928
,yin❁11쎯ci❃2쎯	-9.51983
ming❂7쎯.	-9.52041
,bao❁4쎯gua❁11쎯	-9.52092
chong❂5쎯	-9.52116
zhang❃6쎯sha❁10쎯	-9.52142
》shi❁33쎯:“	-9.52184
쎃gan❄3쎯	-9.5219
kua❄4쎯	-9.52224
fei❄34쎯	-9.52272
zhang❃2쎯wo❄12쎯	-9.52331
xia❁10쎯	-9.52472
wan❂5쎯qu❁15쎯	-9.52585
chen❂23쎯	-9.52629
fei❄18쎯	-9.52719
huan❄19쎯zhe❃2쎯	-9.52752
\	-9.52823
ge❂29쎯shi❄33쎯	-9.52866
piao❄5쎯	-9.52888
gao❄3쎯	-9.52947
chuang❄1쎯li❄141쎯	-9.53014
qie❁1쎯cheng❂29쎯	-9.53026
gong❄9쎯xian❄35쎯	-9.5307
shou❄9쎯yu❂34쎯	-9.53098
쎄쎆	-9.53102
mu❄22쎯de❅2쎯	-9.53137
pin❂15쎯lv❄15쎯	-9.53159
si❁33쎯	-9.53316
diao❁23쎯	-9.53389
jiang❄25쎯shui❃0쎯	-9.53391
ke❄14쎯fang❂2쎯	-9.53435
쎅.	-9.53436
dui❁14쎯qiu❂27쎯	-9.5344
da❄0쎯sai❄4쎯	-9.53445
jiao❁20쎯yan❂50쎯	-9.5346
,jiao❁8쎯tong❁5쎯	-9.53498
쎅쎆	-9.53531
shi❄32쎯qu❁15쎯	-9.53535
yi❂79쎯zhi❃13쎯	-9.53551
dian❃5쎯xing❂9쎯	-9.53556
dian❄23쎯hua❄26쎯	-9.53575
zu❃7쎯jian❄29쎯	-9.53631
zong❄12쎯	-9.53669
wai❄0쎯xing❂11쎯	-9.53741
zheng❁37쎯	-9.53786
zhen❁52쎯dui❄14쎯	-9.53874
gou❄26쎯	-9.53902
쎁쎀쎀쎀	-9.53911
bai❃6쎯	-9.53928
jiang❁11쎯	-9.54093
gan❁19쎯	-9.54104
zhong❃7쎯liu❂31쎯	-9.54109
bo❁10쎯fang❄0쎯	-9.5415
xi❁161쎯	-9.54179
cai❂3쎯	-9.5435
yu❄93쎯	-9.5436
jie❄15쎯	-9.54366
ren❂1쎯ben❄4쎯	-9.54429
쎁쎉쎉쎀nian❂6쎯	-9.54456
na❂4쎯	-9.54461
dian❃5쎯	-9.54511
dao❃5쎯shi❁11쎯	-9.54541
cheng❂29쎯ben❃5쎯	-9.54548
zhan❃11쎯lan❃28쎯	-9.54595
.쎇	-9.54607
ding❃12쎯	-9.54644
hao❃0쎯de❅2쎯	-9.54687
jia❁7쎯jiang❄9쎯	-9.54761
hai❄8쎯	-9.54852
ya❁7쎯li❄59쎯	-9.54855
zhong❄3쎯	-9.54912
yu❃24쎯	-9.54918
gui❁35쎯ge❂29쎯	-9.54986
chuang❄1쎯qiu❁9쎯	-9.55016
dou❁12쎯you❃11쎯	-9.55066
쎁쎉쎈쎅nian❂6쎯	-9.55239
zhi❄30쎯ding❄2쎯	-9.55409
ting❂5쎯	-9.5541
zui❃0쎯	-9.55454
chuan❂4쎯shuo❁2쎯	-9.55657
xuan❂11쎯	-9.55704
쎃-	-9.55709
mai❃0쎯	-9.55713
cha❁11쎯	-9.5576
ping❂36쎯jie❄14쎯	-9.55788
ji❂81쎯	-9.55905
xun❂11쎯	-9.5591
li❄62쎯ren❂4쎯	-9.55931
dui❄14쎯yu❂35쎯	-9.56039
yan❃39쎯chu❁3쎯	-9.56075
nian❂9쎯	-9.56092
쎄gan❄3쎯	-9.56127
pang❂9쎯	-9.56135
.쎄	-9.56202
23쎯	-9.56205
lu❄91쎯	-9.56403
jing❃13쎯qu❁15쎯	-9.56408
yi❄109쎯cha❁3쎯	-9.56456
shi❄45쎯yi❃10쎯	-9.56473
tong❃9쎯	-9.56549
zhuan❁6쎯	-9.56669
hun❂11쎯	-9.56756
30쎯	-9.56778
yuan❄14쎯	-9.56816
fu❂38쎯	-9.56827
ha❁0쎯er❃6쎯	-9.56884
xun❄28쎯su❄70쎯	-9.5691
jie❃6쎯shi❄89쎯	-9.56975
쎇쎆	-9.57039
jian❃36쎯yan❄75쎯	-9.57124
cang❁14쎯	-9.57129
쎅쎃	-9.57192
쎄쎇	-9.57255
shan❁11쎯shui❃0쎯	-9.5727
ti❂17쎯sheng❁3쎯	-9.57277
su❄33쎯	-9.57518
jing❁27쎯li❄62쎯	-9.57565
쎁쎉쎈쎈nian❂6쎯	-9.57589
an❄13쎯	-9.57612
she❂11쎯	-9.57617
chi❂20쎯xu❄69쎯	-9.57622
lian❄22쎯	-9.57689
mie❄10쎯	-9.57712
di❄51쎯	-9.57727
luo❂18쎯	-9.57793
쎈쎅	-9.57806
ge❃0쎯bing❁6쎯	-9.57836
min❂22쎯zhu❃4쎯	-9.57839
zan❄17쎯	-9.57856
qiu❁8쎯	-9.5786
zhou❂3쎯cheng❂30쎯	-9.57899
쎄-	-9.57925
ji❄95쎯xu❄69쎯	-9.57929
쎇쎂	-9.57934
fu❄41쎯qin❁4쎯	-9.57939
bo❁10쎯	-9.5796
yi❄68쎯	-9.57981
fu❄57쎯gai❄17쎯	-9.58023
nan❂6쎯bei❃2쎯	-9.58025
you❂26쎯	-9.58048
ge❂52쎯	-9.58103
xing❂11쎯tai❄6쎯	-9.58105
da❄0쎯lian❂69쎯	-9.58213
lv❄20쎯hua❁1쎯	-9.5833
tiao❄6쎯	-9.58333
sha❄6쎯men❂19쎯	-9.5851
shou❁1쎯lu❄35쎯	-9.58562
de❅2쎯yi❁10쎯	-9.58627
chong❁9쎯fen❁4쎯	-9.58763
hong❂21쎯	-9.58799
nen❄4쎯	-9.58809
zhi❂32쎯cheng❁28쎯	-9.58898
.xue❂6쎯jiao❄18쎯	-9.58917
yu❄70쎯mi❃19쎯	-9.58931
chen❂15쎯	-9.58988
tu❂28쎯	-9.59089
guan❄33쎯che❄20쎯	-9.59134
de❅2쎯xin❁10쎯	-9.59135
shao❃2쎯xu❃19쎯	-9.59219
22쎯	-9.59254
ceng❂6쎯ren❂4쎯	-9.59299
geng❁6쎯duo❁5쎯	-9.5932
yang❃6쎯zhi❂22쎯	-9.59336
ye❃1쎯.”	-9.59343
,cong❂6쎯er❂16쎯	-9.5935
chu❁3쎯lai❂16쎯	-9.59449
dai❄15쎯lai❂16쎯	-9.59505
te❄5쎯xing❄13쎯	-9.59508
ying❁44쎯xiong❂2쎯	-9.59508
cai❄6쎯	-9.59585
su❂0쎯	-9.59655
he❄35쎯	-9.59669
bi❄98쎯	-9.59698
she❄13쎯xiang❄4쎯	-9.59724
ren❂1쎯wen❂5쎯	-9.59726
ˊ	-9.59728
xi❄33쎯ju❄18쎯	-9.59763
reng❂4쎯	-9.59833
』『	-9.59841
fan❄28쎯	-9.59876
duo❁5쎯shu❄26쎯	-9.59937
쎅쎈	-9.59984
,ze❂11쎯	-9.59989
zheng❄18쎯zhou❁9쎯	-9.59995
wei❂38쎯xiu❁11쎯	-9.60063
,ran❂12쎯hou❄7쎯	-9.60101
zhong❁4쎯jian❁85쎯	-9.60115
fen❁4쎯zhong❁29쎯	-9.60126
yin❁44쎯pin❂15쎯	-9.6013
ji❂114쎯ben❄4쎯	-9.60142
zha❁9쎯	-9.60159
wan❂6쎯zheng❃4쎯	-9.60164
fa❂19쎯	-9.60179
xi❁113쎯sheng❁13쎯	-9.602
》zhong❁4쎯	-9.60352
zhang❃6쎯.	-9.60363
zhen❁25쎯	-9.60385
pai❁0쎯	-9.60414
wan❂12쎯jia❁13쎯	-9.60431
yang❃14쎯hua❁1쎯	-9.60463
ai❁5쎯	-9.60554
pa❄0쎯	-9.60654
du❂25쎯te❄5쎯de❅2쎯	-9.60702
hun❂11쎯ge❃0쎯	-9.60782
쎁쎉쎈쎆nian❂6쎯	-9.60802
gong❁11쎯xiao❄14쎯	-9.6083
hua❂11쎯	-9.60838
chi❂20쎯	-9.60838
cun❁1쎯dai❄45쎯sh	-9.60954
shui❃0쎯li❄58쎯	-9.61017
shen❄17쎯	-9.61106
jian❁67쎯	-9.61166
zhuan❁1쎯li❄58쎯	-9.61249
rong❂50쎯	-9.61269
dan❄43쎯	-9.61295
cuo❄18쎯	-9.61477
11쎯	-9.61505
hong❂67쎯	-9.61552
yao❂43쎯	-9.61561
-쎁	-9.61563
chuan❂4쎯shu❁44쎯	-9.6164
quan❂6쎯xian❄22쎯	-9.61695
jun❁2쎯qu❁15쎯	-9.6181
14쎯	-9.61995
쎁쎉쎈쎇nian❂6쎯	-9.62001
li❃15쎯gong❁17쎯	-9.62005
‘	-9.6213
zhou❁5쎯bian❁16쎯	-9.62179
zhu❄31쎯yi❄109쎯	-9.62179
kang❄5쎯ri❄2쎯	-9.6221
geng❁6쎯jia❁7쎯	-9.62247
da❄0쎯shi❁11쎯	-9.62306
pu❃13쎯	-9.62418
,tong❁5쎯guo❄2쎯	-9.62453
xu❄69쎯	-9.62472
ding❄2쎯wei❄15쎯	-9.62501
huo❄61쎯	-9.62558
shi❄31쎯na❄11쎯	-9.62559
-쎃	-9.62616
quan❂6쎯shi❄32쎯	-9.62623
quan❂10쎯	-9.62663
.“	-9.62664
neng❂2쎯yuan❂34쎯	-9.62728
fan❃3쎯ying❄7쎯	-9.6278
tai❁4쎯	-9.62807
쎀fen❁4쎯zhong❁29쎯	-9.62823
de❅2쎯xiao❃2쎯	-9.62838
chu❁3쎯ban❃6쎯she❄	-9.62852
nang❂2쎯	-9.62886
24쎯	-9.62964
zhou❁5쎯wei❂11쎯	-9.62986
tong❂36쎯	-9.63139
xiang❁9쎯tong❂13쎯	-9.63161
ming❂7쎯zi❄6쎯	-9.63285
hui❁40쎯	-9.63356
lv❃30쎯	-9.63393
쎁쎉쎈쎉nian❂6쎯	-9.634
hai❂6쎯zi❃7쎯	-9.63401
mian❃10쎯	-9.63415
ling❃2쎯xian❁18쎯	-9.6352
,mei❃9쎯	-9.6354
27쎯	-9.63549
.쎉	-9.63597
zhi❂20쎯	-9.63623
jing❁24쎯pin❃0쎯	-9.63663
shu❄26쎯ma❃8쎯	-9.6371
21쎯	-9.63735
da❄0쎯jia❁13쎯	-9.63735
jian❄56쎯	-9.63763
xie❂49쎯	-9.63776
gan❄3쎯xing❄13쎯	-9.63821
wan❂5쎯lin❂19쎯	-9.63823
gen❁1쎯	-9.63921
zhuan❁1쎯yong❄3쎯	-9.63947
chi❄45쎯	-9.63965
쎅-	-9.63978
12쎯	-9.64015
쎉쎉	-9.64019
ai❄26쎯hao❃0쎯	-9.64056
tou❂5쎯ru❄2쎯	-9.64174
yuan❄10쎯	-9.6418
쎀ping❂17쎯fang❁4쎯	-9.64223
()shi❄45쎯	-9.64258
san❁1쎯jiao❃57쎯	-9.64409
fu❄31쎯duo❃23쎯	-9.64417
dou❁12쎯shi❄32쎯	-9.6442
xing❂11쎯rong❂21쎯	-9.64496
guan❁5쎯jun❁2쎯	-9.64547
fa❁1쎯hui❁15쎯	-9.64548
xing❄13쎯zhi❄104쎯	-9.64561
dong❄22쎯	-9.64613
ren❂1쎯shu❄26쎯	-9.64636
shi❂39쎯yong❄3쎯	-9.64716
dian❄19쎯fen❃1쎯	-9.64776
jian❁17쎯	-9.64817
zhu❁8쎯	-9.64842
hong❂44쎯jun❁2쎯	-9.64844
fan❁14쎯yi❄215쎯	-9.64853
xue❂6쎯li❄62쎯,	-9.64952
.you❂29쎯yu❂35쎯	-9.64956
bu❄38쎯、	-9.65018
쎈쎆	-9.65053
쎉쎅	-9.65076
xiang❁1쎯cun❁1쎯	-9.65092
yin❃37쎯	-9.65155
zh	-9.65251
쎇쎈	-9.65261
mei❃9쎯gan❄3쎯	-9.65294
tao❂17쎯	-9.65304
xiang❄4쎯su❄56쎯	-9.65386
can❁13쎯	-9.65387
쎈쎈	-9.65446
wan❂6쎯	-9.65457
jiao❄35쎯gao❁20쎯	-9.65492
쎅쎄	-9.65493
qi❃12쎯	-9.65515
quan❂6쎯xin❁10쎯	-9.65551
zhen❁30쎯shi❂13쎯	-9.65563
jiao❃57쎯se❄29쎯	-9.65638
wu❃37쎯dao❃20쎯	-9.65678
zhao❁4쎯	-9.65701
guai❄7쎯	-9.65734
lv❃7쎯	-9.6574
ge❃0쎯cheng❂29쎯	-9.65763
쎁쎉쎉쎁nian❂6쎯	-9.65803
na❄11쎯zhi❄85쎯	-9.65805
zao❄16쎯xing❂9쎯	-9.65919
yi❁13쎯ke❁16쎯	-9.6595
ju❂23쎯fu❄28쎯	-9.65992
jiang❄9쎯da❄0쎯	-9.66
zi❄16쎯shen❁40쎯	-9.66048
jin❁18쎯	-9.66178
yi❁10쎯ben❃5쎯	-9.66197
bian❁13쎯zhi❄30쎯	-9.66205
,zui❄4쎯zhong❁19쎯	-9.66239
zhi❁43쎯	-9.66261
jian❄85쎯	-9.66347
xing❂7쎯	-9.66349
zhai❁3쎯	-9.66462
yin❄7쎯shua❁1쎯	-9.66489
miao❄0쎯	-9.66499
ning❂10쎯bo❁11쎯	-9.665
hui❁13쎯fu❄31쎯	-9.66608
,zhe❄14쎯	-9.66638
xi❁65쎯wang❄4쎯	-9.66687
쎁.쎅	-9.66813
zhu❃4쎯bian❁13쎯	-9.66861
yu❄113쎯	-9.66882
kuang❄1쎯	-9.66921
ji❁47쎯kan❁3쎯	-9.66946
min❂22쎯guo❂11쎯	-9.66947
,rang❄3쎯	-9.66959
hu❄14쎯	-9.66964
zuo❄5쎯zhan❄10쎯	-9.66977
,jing❁27쎯	-9.67029
wei❄14쎯zhu❃4쎯,	-9.67055
chuang❁11쎯	-9.67091
ren❂1쎯gong❁17쎯	-9.67094
.ben❃5쎯	-9.67101
jiao❁20쎯shou❄9쎯.	-9.67105
lang❄4쎯	-9.67192
han❂17쎯liang❂19쎯	-9.67201
xin❁10쎯de❅2쎯	-9.6726
lian❄8쎯	-9.67268
31쎯	-9.67275
ming❂7쎯,	-9.67302
re❄1쎯dai❄15쎯	-9.67341
han❄20쎯xie❂47쎯	-9.67374
lao❃17쎯shi❁11쎯	-9.67381
tun❂3쎯	-9.67415
wu❂17쎯fa❃2쎯	-9.67424
bu❄38쎯zhang❃6쎯	-9.67428
ju❃4쎯hang❂16쎯	-9.67625
dui❄14쎯wai❄0쎯	-9.67642
.ci❃2쎯	-9.67676
wang❂0쎯	-9.67719
lin❂19쎯qiu❁9쎯	-9.67749
yuan❂53쎯	-9.67751
,ju❄65쎯	-9.67852
jiang❄9쎯du❄8쎯	-9.67859
wei❃14쎯	-9.67896
쎄쎉	-9.67947
bian❄16쎯li❄58쎯	-9.67967
쎅%	-9.68002
shi❄60쎯	-9.68053
,xian❁18쎯hou❄7쎯	-9.68056
she❄17쎯ji❂37쎯	-9.68074
,huo❄50쎯	-9.68158
dai❄35쎯	-9.68198
zhi❁31쎯dao❄24쎯	-9.6821
suo❃23쎯	-9.68239
cheng❁28쎯hao❂6쎯	-9.68267
shi❂10쎯wu❃9쎯	-9.68303
bi❄157쎯	-9.68317
hua❄18쎯jia❁13쎯	-9.68361
zhu❃4쎯jiao❃57쎯	-9.684
yi❁10쎯dao❄24쎯	-9.68408
gao❃12쎯	-9.68421
fo❂2쎯jiao❁20쎯	-9.68439
쎆쎂	-9.68453
jiao❃57쎯du❄8쎯	-9.68498
pi❁11쎯	-9.68549
jiang❃19쎯shi❁11쎯	-9.68707
nong❂10쎯	-9.68763
zheng❃4쎯ge❃0쎯	-9.68765
----------------	-9.68808
쎁쎅쎀	-9.68825
wan❂3쎯	-9.68934
rong❂21쎯yi❄119쎯	-9.68936
zuo❃1쎯	-9.68937
jue❂33쎯	-9.68938
han❄33쎯zu❂9쎯,	-9.68985
fa❁1쎯dong❄13쎯	-9.69026
jia❃17쎯	-9.69032
%,	-9.69051
zheng❁22쎯zai❄5쎯	-9.6907
lian❂53쎯meng❂34쎯	-9.69079
yuan❂15쎯、	-9.69098
zuo❄5쎯yong❄3쎯.	-9.69105
de❅2쎯ren❂1쎯	-9.69138
xiang❁9쎯hu❄14쎯	-9.69171
cha❂12쎯	-9.69188
liang❂11쎯shi❂39쎯	-9.69202
zhe❃2쎯.	-9.69232
xie❂14쎯diao❄17쎯	-9.69244
shi❄18쎯wu❄12쎯	-9.69277
cui❄30쎯	-9.69349
diao❄17쎯jie❂69쎯	-9.6936
jing❁14쎯	-9.69365
pen❂2쎯	-9.6938
xi❁51쎯shou❁1쎯	-9.69442
qing❁3쎯	-9.69508
chong❁9쎯	-9.69512
mou❂17쎯	-9.69601
mu❄20쎯	-9.69604
jia❁13쎯zu❂9쎯	-9.69635
lie❄34쎯	-9.69641
zhen❄31쎯	-9.69709
u❃5쎯yu❂35쎯yun❂4쎯	-9.69743
chu❄17쎯,	-9.69752
bei❁15쎯jing❃13쎯	-9.69763
ji❄59쎯	-9.69775
yu❄126쎯fang❂4쎯	-9.69847
yin❃14쎯jin❄61쎯	-9.69879
chong❂11쎯lei❄16쎯	-9.69896
dong❄13쎯zuo❄5쎯	-9.69919
su❄30쎯liao❄8쎯	-9.69919
wai❄0쎯guan❁16쎯	-9.69935
bing❃29쎯	-9.69937
쎆쎇	-9.69945
,yong❁17쎯you❃11쎯	-9.69949
yang❃14쎯	-9.70006
mian❂13쎯	-9.7007
xiu❁9쎯	-9.70074
qiang❁24쎯	-9.70095
,mu❄22쎯qian❂8쎯	-9.70102
rou❂6쎯	-9.70159
zhun❃0쎯	-9.70167
ji❁80쎯	-9.70182
yi❃10쎯“	-9.70185
shi❂10쎯nian❂6쎯	-9.70204
a	-9.70237
yu❄31쎯	-9.70261
ji❁48쎯、	-9.70313
쎀°C	-9.7035
ju❃4쎯ban❄4쎯	-9.7036
zheng❄17쎯quan❄1쎯	-9.70366
zao❃2쎯ji❁47쎯	-9.70459
zhong❁4쎯bu❄38쎯	-9.70467
-쎄	-9.70504
duo❁5쎯xiang❄24쎯	-9.70594
,ren❂4쎯	-9.70616
geng❁6쎯ming❂7쎯	-9.70665
shu❁38쎯	-9.70774
쎆쎃	-9.70869
huang❁9쎯	-9.70968
fang❁2쎯	-9.70977
tao❂20쎯ci❂20쎯	-9.7099
gun❃8쎯	-9.71002
guo❂11쎯tu❃1쎯	-9.71014
jie❁32쎯duan❄7쎯	-9.71017
yan❂20쎯ge❂29쎯	-9.71043
han❂17쎯you❃11쎯	-9.7113
yan❂72쎯	-9.71148
da❂14쎯yin❄7쎯	-9.71153
jun❁6쎯jun❁3쎯	-9.71154
dang❄12쎯an❄16쎯	-9.71169
wan❂6쎯mei❃13쎯	-9.7126
쎂쎀쎁쎀	-9.71282
.ceng❂6쎯ren❂4쎯	-9.71287
xian❃46쎯	-9.713
yi❃15쎯you❃11쎯	-9.71367
zhen❄33쎯	-9.71382
jin❁24쎯	-9.71406
쎁쎉쎈쎂nian❂6쎯	-9.71445
teng❂14쎯	-9.71496
ju❄14쎯le❄3쎯	-9.71545
she❄29쎯ji❄116쎯、	-9.7157
bin❁5쎯guan❃15쎯	-9.71609
zong❁10쎯zhi❃20쎯	-9.71631
yuan❂12쎯ze❂11쎯	-9.71638
xie❃8쎯guan❃9쎯	-9.71673
ye❁8쎯	-9.71717
ling❄0쎯	-9.71791
y	-9.71827
wu❁17쎯ran❃11쎯	-9.71835
,xian❄37쎯	-9.71872
cheng❂29쎯fen❁4쎯	-9.71943
he❂46쎯	-9.71954
wei❂38쎯hu❄30쎯	-9.71972
〕	-9.72073
18쎯	-9.7211
gu❄23쎯wen❄6쎯	-9.72201
ni❄27쎯	-9.7231
jiao❄35쎯da❄0쎯	-9.72358
she❂9쎯	-9.72364
huan❁7쎯ying❂59쎯	-9.72393
qian❂22쎯	-9.72423
dao❄3쎯le❅0쎯	-9.72438
lun❄1쎯tan❂8쎯	-9.72455
bang❁5쎯	-9.72485
bi❄145쎯	-9.72522
,ta❁5쎯	-9.72527
qi	-9.72529
jian❁52쎯	-9.7253
chuan❂4쎯mei❂12쎯	-9.72533
bian❁16쎯yuan❂44쎯	-9.72549
yan❂20쎯chong❂17쎯	-9.7257
〔	-9.72638
tan❄5쎯suo❃18쎯	-9.72716
shuo❁2쎯ming❂8쎯	-9.72719
suo❃11쎯yi❃10쎯	-9.72719
qi❃25쎯hou❄5쎯	-9.72824
ban❃6쎯ben❃5쎯	-9.72838
kuo❄7쎯zhan❃11쎯	-9.7292
mi❄24쎯du❄8쎯	-9.72941
fang❂4쎯zhi❄61쎯	-9.72943
mei❂43쎯	-9.72954
shao❃2쎯shu❄26쎯	-9.72955
16쎯	-9.72958
.ben❃5쎯shu❁8쎯	-9.72991
hai❃1쎯ba❂11쎯	-9.73026
ying❄9쎯pan❂10쎯	-9.73137
yuan❂12쎯yin❁11쎯	-9.73236
ying❃11쎯pian❁5쎯	-9.73252
쎂.쎀	-9.7326
lian❂69쎯suo❃23쎯	-9.73267
zhu❂24쎯jian❄40쎯	-9.73287
,bing❁6쎯qie❃쎯	-9.73292
ru❂9쎯guo❃3쎯	-9.73353
sui❁12쎯	-9.73358
chong❁9쎯man❃4쎯	-9.73359
gu❁11쎯	-9.73394
dong❄13쎯tai❄6쎯	-9.73447
guan❁4쎯zhu❄31쎯	-9.73515
fa❃2쎯xue❂6쎯	-9.73562
zhi❁21쎯bu❄38쎯	-9.73585
lao❃17쎯nian❂6쎯	-9.73644
nai❃2쎯	-9.73656
er❂16쎯bu❂0쎯	-9.73674
biao❁14쎯zhi❄47쎯	-9.73675
mei❂16쎯	-9.73744
shou❄9쎯	-9.73745
fen❄2쎯	-9.73763
xue❂6쎯、	-9.73848
shu❁8쎯·	-9.73868
pin❂15쎯	-9.73873
jun❄13쎯	-9.73936
jian❄77쎯ding❄2쎯	-9.74007
쎅쎇	-9.74081
shi❃9쎯jian❄29쎯	-9.74189
.쎈	-9.74227
hu❁17쎯	-9.74263
ding❄2쎯cha❁3쎯	-9.74284
gu❄23쎯	-9.74296
du❄8쎯jia❃2쎯	-9.74328
fei❁12쎯	-9.74398
gong❁11쎯lv❄15쎯	-9.74404
hu❂22쎯	-9.74428
.shi❄45쎯	-9.74442
wen❂5쎯xian❄35쎯	-9.7453
jiao❁24쎯	-9.74536
ge❄3쎯xiang❄24쎯	-9.74645
diao❄8쎯	-9.74653
fu❄31쎯ge❃0쎯	-9.74728
yu❂35쎯쎂쎀쎀	-9.74822
쎅쎁	-9.74829
fu❄65쎯	-9.74831
yi❁10쎯shou❃6쎯	-9.74843
chun❂23쎯	-9.74936
huang❂56쎯jin❁33쎯	-9.74958
chu❄17쎯yu❂35쎯	-9.7497
xiao❃2쎯xing❂9쎯	-9.74983
yin❁11쎯ci❃2쎯	-9.75007
쎄쎁	-9.75034
heng❂14쎯	-9.75046
kuo❄15쎯	-9.75106
yi❄225쎯	-9.75147
you❃11쎯《	-9.75313
chong❂17쎯xin❁10쎯	-9.75328
yi❁10쎯xiang❄24쎯	-9.75339
yuan❂12쎯ming❂7쎯	-9.75352
ji	-9.75426
shi❂10쎯yi❁10쎯	-9.75462
shen❃7쎯ji❄116쎯	-9.75465
쎁/	-9.75481
di❄45쎯쎁	-9.75496
can❁13쎯yin❃37쎯	-9.75501
han❄34쎯	-9.75557
zou❄2쎯	-9.75646
쎉쎆	-9.75655
tan❁12쎯	-9.75657
zu❃11쎯	-9.7566
hun❁4쎯	-9.75669
ma❃8쎯	-9.7574
fen❁4쎯pei❄19쎯	-9.75817
jie❁13쎯chu❄36쎯	-9.75918
ping❂17쎯fang❁4쎯	-9.75922
miao❃6쎯	-9.75927
xie❂14쎯	-9.75989
xiang❁1쎯zhen❄30쎯	-9.76033
li❃15쎯xue❂6쎯	-9.7605
쎆gan❄3쎯	-9.76142
wu❃28쎯qi❄20쎯	-9.76142
zong❁10쎯jiao❁20쎯	-9.76145
shu❁40쎯cai❄5쎯	-9.76173
qing❁10쎯shui❃0쎯	-9.7625
,yi❁10쎯	-9.76279
qi❁32쎯	-9.76304
2쎯shi❁11쎯	-9.76314
°C	-9.76399
tong❂13쎯zhi❄47쎯	-9.76428
sui❄33쎯	-9.76435
ni❂10쎯ya❄7쎯	-9.76476
zhu❄59쎯	-9.76485
huang❂34쎯di❄26쎯	-9.76598
cheng❁28쎯hao❂6쎯.	-9.76628
.쎂	-9.76661
he❄26쎯	-9.76675
yu❂66쎯	-9.76703
ji❁34쎯yu❂35쎯	-9.7672
cu❄30쎯	-9.76775
fang❃15쎯zhi❁39쎯	-9.76783
la❄28쎯	-9.76812
nuan❃2쎯	-9.76852
xian❂18쎯	-9.76882
bao❄12쎯	-9.76883
gong❁10쎯jian❁25쎯	-9.7695
ceng❂6쎯jing❁27쎯	-9.76967
wei❄14쎯zhu❃4쎯.	-9.77081
xian❄37쎯shi❂13쎯	-9.77084
쎀.쎅	-9.7714
ou❃3쎯	-9.77175
you❄32쎯	-9.77225
shen❃7쎯	-9.77232
shui❂1쎯	-9.77251
xue❂6쎯jia❁13쎯	-9.77286
xi❁143쎯cang❂5쎯	-9.77349
si❁16쎯ling❂34쎯	-9.77349
zhu❄20쎯li❃15쎯	-9.77386
ping❂10쎯	-9.77455
tan❄9쎯	-9.77471
yin❁11쎯su❄56쎯	-9.77485
su❄30쎯	-9.77497
bi❄51쎯	-9.77504
guan❃9쎯li❃15쎯、	-9.77504
zong❃5쎯bu❄38쎯	-9.77524
ren❂1쎯li❄59쎯	-9.7753
yong❃6쎯	-9.77555
she❂3쎯	-9.77565
dong❁3쎯guan❁11쎯	-9.77608
you❁5쎯liang❂15쎯	-9.77624
ge❃0쎯tong❂13쎯	-9.77662
keng❁7쎯	-9.77663
fu❃34쎯	-9.77768
쎁쎉쎈쎃nian❂6쎯	-9.77776
ren❂4쎯jiao❁20쎯	-9.77789
쎁쎂쎀	-9.77817
chao❂6쎯xian❁57쎯	-9.77826
ban❁12쎯ya❂12쎯	-9.77921
zhi❄30쎯cheng❂29쎯	-9.7793
jia❁7쎯na❂4쎯da❄0쎯	-9.77946
xie❃4쎯zuo❄5쎯	-9.77978
ji❄59쎯qiao❃3쎯	-9.78087
”deng❃2쎯	-9.78122
fu❂62쎯ge❃0쎯	-9.78136
,zhan❁4쎯de❅0쎯	-9.78139
diao❄17쎯wei❄18쎯	-9.78209
chu❄36쎯	-9.78237
yi❂58쎯	-9.78265
deng❃2쎯de❅0쎯	-9.78274
gui❁35쎯ze❂11쎯	-9.78279
zhi❂32쎯neng❂2쎯	-9.78378
si❄17쎯gan❄3쎯	-9.78394
gong❁17쎯han❃11쎯	-9.78423
tong❃5쎯	-9.78427
zi❁9쎯	-9.78499
chi❁23쎯zi❃7쎯	-9.78547
dong❁3쎯bu❄38쎯	-9.78585
fen❁4쎯hui❄27쎯	-9.78593
ren❄30쎯shi❂35쎯	-9.78615
shi❃9쎯zhong❁19쎯	-9.78687
쎀쎀	-9.78709
,dan❄10쎯shi❄45쎯	-9.78729
shou❃6쎯ci❄16쎯	-9.78751
zhi❂16쎯	-9.78795
bao❃9쎯cun❂1쎯	-9.78799
huan❄19쎯	-9.78817
guo❂11쎯wai❄0쎯	-9.78879
shu❃23쎯	-9.78948
wei❁12쎯yuan❂15쎯、	-9.78988
xu❁37쎯	-9.79053
seng❁1쎯	-9.7907
fu❄32쎯nv❃0쎯	-9.79091
mo❂12쎯xing❂9쎯	-9.7915
쎈쎂	-9.79198
bing❃15쎯	-9.79218
xun❄25쎯	-9.79255
,jiu❄23쎯	-9.79315
you❃11쎯yi❁10쎯	-9.79358
yi❃10쎯hou❄7쎯	-9.79379
tui❃7쎯	-9.7944
cheng❁28쎯“	-9.79474
ni❃6쎯de❅2쎯	-9.79489
wo❄8쎯	-9.79558
ri❄2쎯chang❂15쎯	-9.79591
yi❁10쎯zhi❁21쎯	-9.79606
fa❁1쎯ming❂8쎯	-9.79778
zhun❃0쎯bei❄26쎯	-9.7982
shi❂10쎯ba❁9쎯	-9.79897
li❂41쎯	-9.7994
shi❄45쎯fou❃0쎯	-9.79957
yi❄109쎯si❁22쎯	-9.79965
쎁-	-9.80046
peng❂8쎯	-9.80065
xun❂16쎯huan❂20쎯	-9.80096
fang❃18쎯wen❄6쎯	-9.80133
liang❂11쎯	-9.80135
mao❄37쎯	-9.8017
dong❃8쎯	-9.80174
,huo❄27쎯	-9.8018
bi❄100쎯	-9.80209
wang❃14쎯ka❃1쎯	-9.80367
wei❂51쎯	-9.80374
jin❄61쎯xiu❁11쎯	-9.80401
ling❂114쎯	-9.80422
ye❃1쎯.	-9.80455
jiang❁5쎯jun❁2쎯	-9.80493
bai❄15쎯	-9.8052
biao❃5쎯da❂30쎯	-9.80529
min❃13쎯	-9.8057
dang❃2쎯zu❃7쎯	-9.80571
mao❁0쎯	-9.80643
dian❄23쎯qi❃25쎯	-9.80683
tui❁1쎯jin❄61쎯	-9.80713
,wu❂17쎯	-9.80753
zuo❄7쎯chu❁3쎯	-9.80762
bao❁4쎯han❂17쎯	-9.8078
you❄13쎯ming❂7쎯	-9.80791
gong❁10쎯qing❃10쎯	-9.80832
shui❃0쎯ku❄6쎯	-9.80847
shu❄47쎯	-9.80847
쎇쎃	-9.8086
mo❂12쎯ni❃11쎯	-9.80874
sui❂9쎯zhao❁6쎯	-9.80893
yi❁10쎯dai❄9쎯	-9.8091
di❁15쎯	-9.80953
hui❃8쎯	-9.80954
pei❄5쎯	-9.80959
쎅gan❄3쎯	-9.81024
.ceng❂6쎯	-9.81025
》deng❃2쎯.	-9.81034
ta❁6쎯de❅2쎯	-9.81125
shang❃6쎯	-9.81151
ge❁11쎯	-9.81202
ji❁48쎯qi❄20쎯	-9.81396
fa❃2쎯gui❁35쎯	-9.81419
,zi❄16쎯	-9.81447
fa❃2쎯yuan❄18쎯	-9.81509
you❁9쎯	-9.81726
xian❄61쎯	-9.81754
zhi❂25쎯shu❃5쎯	-9.81806
deng❃2쎯nong❂5쎯	-9.8182
hou❄5쎯	-9.81857
pao❃0쎯	-9.81888
xian❄51쎯	-9.81915
yong❄3쎯lai❂16쎯	-9.8192
na❄11쎯ke❁16쎯	-9.81963
ming❂7쎯wei❄14쎯	-9.8201
wan❃26쎯	-9.82019
xi❁143쎯fang❁4쎯	-9.82027
xiao❄14쎯lv❄15쎯	-9.82069
qing❁10쎯hua❂14쎯	-9.82101
tuo❃6쎯yuan❂17쎯	-9.82154
deng❃2쎯ji❂83쎯	-9.82159
ji❂67쎯	-9.8222
chong❂11쎯zi❃7쎯	-9.82239
xi❂12쎯	-9.82248
jian❁52쎯cha❂12쎯	-9.82263
qing❁10쎯dai❄9쎯	-9.82266
li❂98쎯	-9.82291
cheng❂29쎯jiu❄23쎯	-9.82337
ben❄4쎯yan❄75쎯	-9.82386
yi❁10쎯pi❁11쎯	-9.82396
kan❁9쎯dao❄3쎯	-9.82439
jiao❁20쎯shou❄9쎯、	-9.82475
wu❄36쎯qiu❁9쎯	-9.82555
hui❄79쎯hua❄18쎯	-9.82689
ye❃1쎯ke❃4쎯yi❃10쎯	-9.827
zai❄5쎯ci❃2쎯	-9.82753
zhe❃2쎯de❅2쎯	-9.82764
hu❁13쎯	-9.82812
li❃15쎯nian❄4쎯,	-9.82823
zhu❃4쎯ben❄4쎯	-9.82826
xie❂14쎯yi❄214쎯	-9.82849
yang❂35쎯xian❄22쎯	-9.82911
bing❁6쎯bu❂0쎯	-9.82969
xian❄35쎯	-9.83027
fu❄24쎯	-9.8311
tu❁14쎯	-9.83136
yu❄115쎯	-9.83161
dui❄33쎯wu❃11쎯	-9.83317
shi❂10쎯liu❄3쎯	-9.83323
shi❄31쎯fu❄28쎯	-9.83333
ta❁5쎯de❅2쎯	-9.83334
ru❂7쎯	-9.83377
zi❄16쎯zhu❃4쎯	-9.83403
di❄45쎯liu❄3쎯	-9.83441
po❄17쎯huai❄0쎯	-9.83504
ping❂17쎯heng❂14쎯	-9.8352
zi❄16쎯wo❃3쎯	-9.83564
teng❂13쎯	-9.83569
jian❁44쎯	-9.83577
hai❃1쎯jun❁2쎯	-9.8359
gou❃3쎯	-9.83599
shu❁38쎯kuo❄15쎯	-9.83604
guan❁4쎯jian❄85쎯	-9.8361
jian❃36쎯	-9.83809
wen❁6쎯zhou❁9쎯	-9.83812
jiang❄22쎯you❂24쎯	-9.83818
):	-9.83819
”wei❄14쎯	-9.83832
ci❂20쎯	-9.83897
xian❃24쎯zhao❂쎯	-9.83914
.mu❄22쎯qian❂8쎯	-9.83932
dou❄18쎯fu❃28쎯	-9.84038
pei❄19쎯ge❃0쎯	-9.8406
쎂쎀쎁쎃nian❂6쎯	-9.84133
jian❃18쎯shao❃2쎯	-9.84206
zai❁1쎯pei❂3쎯	-9.84259
shi❄89쎯	-9.84267
zeng❄6쎯	-9.84268
dan❁9쎯wei❄15쎯.	-9.84308
ren❂1쎯shi❄18쎯	-9.84361
gu❃59쎯gan❁16쎯	-9.84426
xiang❄10쎯	-9.84426
ban❄13쎯	-9.84478
zhi❄56쎯hui❄51쎯	-9.84518
hui❄79쎯	-9.84554
jing❃27쎯	-9.84597
쎇쎇	-9.84652
si❁16쎯fa❃2쎯	-9.84691
ji❄120쎯	-9.84701
nian❂6쎯lai❂16쎯,	-9.84725
bu❄38쎯fu❄28쎯	-9.84746
16쎯zhi❄61쎯qu❁15쎯	-9.84749
ge❃0쎯fei❂1쎯	-9.84767
wu❄44쎯	-9.84774
22쎯chu❁3쎯ban❃6쎯	-9.84779
mian❄2쎯xiang❄6쎯	-9.84879
fu❄74쎯shu❃5쎯	-9.84881
mei❃9쎯nian❂6쎯	-9.84898
mao❄32쎯	-9.8492
si❁24쎯te❄5쎯	-9.84923
fu❂60쎯zhou❁9쎯	-9.84996
쎉쎇	-9.85034
bao❄11쎯	-9.85042
xing❁7쎯ji❂83쎯	-9.85052
쎀.쎀	-9.85145
mu❃2쎯	-9.85167
zhu❄31쎯chong❂17쎯	-9.85202
jin❄61쎯cheng❂52쎯	-9.85245
chu❁4쎯zhong❁4쎯	-9.85295
kuo❄15쎯yi❂31쎯	-9.85338
ben❄4쎯xian❄37쎯	-9.85355
gao❁20쎯xiao❄14쎯	-9.85362
zhu❂18쎯	-9.85378
feng❁58쎯xian❃46쎯	-9.85387
jia❁13쎯peng❂7쎯	-9.85389
ming❂7쎯:	-9.85407
sui❄42쎯	-9.85421
jiang❄25쎯di❁9쎯	-9.85448
xue❂6쎯wei❄15쎯.	-9.85466
lin❂51쎯	-9.85483
jiao❁8쎯jie❄29쎯	-9.85528
wang❃14쎯shang❃1쎯	-9.85565
dang❄23쎯	-9.85565
feng❂5쎯	-9.85573
fei❁19쎯hang❂16쎯	-9.85605
meng❂34쎯	-9.85617
ben❁2쎯	-9.8568
jie❂69쎯neng❂2쎯	-9.85707
zui❄4쎯hao❃0쎯	-9.85727
feng❁52쎯	-9.85752
shu❃12쎯	-9.85776
ji❁116쎯dan❄43쎯	-9.85813
pei❄19쎯zhi❄85쎯	-9.85898
,hao❂6쎯	-9.8594
ji❂75쎯	-9.85942
shu❄27쎯	-9.86039
jiang❁10쎯nan❂6쎯	-9.86083
gai❃2쎯shan❄15쎯	-9.86087
pan❁4쎯	-9.8609
zhang❃6쎯、	-9.86124
gong❄9쎯	-9.86241
zui❄4쎯ju❄16쎯	-9.86242
ji❁48쎯zhi❄30쎯	-9.86249
zhuo❂8쎯	-9.8631
zhuang❄5쎯,	-9.86361
xia❄3쎯de❅2쎯	-9.86379
wu❄48쎯	-9.86456
xian❄37쎯wei❄14쎯	-9.86489
jian❄29쎯yi❄214쎯	-9.865
hua❄18쎯mian❄2쎯	-9.86521
fu❄57쎯	-9.86595
jiu❄23쎯qiu❁9쎯	-9.86608
duo❂3쎯	-9.86666
mi❄45쎯	-9.86755
cui❄32쎯	-9.86903
nan❂14쎯,	-9.86935
ji❁34쎯yin❁11쎯	-9.86935
ji❄48쎯	-9.86945
ru❄2쎯xuan❃8쎯	-9.86985
li❃15쎯jie❃6쎯	-9.87004
jia❁13쎯ju❄16쎯	-9.87023
gai❃2쎯zao❄16쎯	-9.87057
de❅0쎯wei❄15쎯	-9.8709
.쎂.	-9.87095
shan❁11쎯xian❄22쎯	-9.8725
xia❂45쎯	-9.87284
fei❁19쎯ji❁48쎯	-9.87451
ran❃11쎯	-9.87496
kou❄7쎯	-9.875
fa❁1쎯dian❄23쎯	-9.87511
xian❂54쎯	-9.87564
chuang❄1쎯yi❄109쎯	-9.87576
ba❂11쎯	-9.8759
lv❃14쎯hang❂16쎯	-9.87603
쎉쎄	-9.87611
mo❂12쎯fan❄22쎯	-9.87657
lei❄16쎯si❄10쎯	-9.87671
쎂.쎅	-9.87756
zui❄4쎯zhong❁19쎯	-9.87791
po❄12쎯	-9.87796
ai❂12쎯	-9.8782
fan❂35쎯	-9.87848
guan❄23쎯	-9.87875
lian❃12쎯	-9.88004
he❂52쎯	-9.88015
mu❄24쎯	-9.88034
kuai❄18쎯le❄3쎯	-9.88082
dian❄23쎯ya❁7쎯	-9.88117
le❄3쎯dui❄33쎯	-9.88133
you❂16쎯	-9.88145
zai❄5쎯xian❄47쎯	-9.88184
luo❁4쎯ma❃14쎯	-9.88196
huo❄56쎯wu❄36쎯	-9.88212
쎂쎀쎀쎈	-9.88236
tu❃0쎯	-9.88253
dian❄23쎯lu❄70쎯	-9.88304
ji❄83쎯	-9.88344
ju❃9쎯	-9.8836
cang❁0쎯	-9.88407
ying❄7쎯	-9.88496
hang❂16쎯dong❄13쎯	-9.88533
gan❁7쎯long❁쎯	-9.8856
pi❂11쎯lin❂43쎯	-9.88561
gang❁23쎯	-9.88563
쎅쎉	-9.88565
tu❂14쎯xiang❄4쎯	-9.88569
ke❁16쎯、	-9.88642
shi❂13쎯hang❂16쎯	-9.88645
,shi❄45쎯yi❁10쎯	-9.88675
da❄0쎯dui❄33쎯	-9.88735
sun❃4쎯	-9.88747
cheng❂61쎯xin❄8쎯	-9.88787
zhi❃19쎯biao❁14쎯	-9.88807
.cong❂6쎯	-9.88811
zheng❄12쎯cun❁1쎯	-9.88822
zi❃7쎯,	-9.88891
jun❁6쎯chun❂18쎯	-9.88895
shu❁8쎯ji❄117쎯.	-9.89039
xiong❁2쎯di❄27쎯	-9.89059
la❄28쎯jiao❁21쎯	-9.8908
zhi❃13쎯	-9.89086
kao❃6쎯	-9.89099
cui❁16쎯	-9.89111
ban❄3쎯	-9.89129
liu❂20쎯dong❄13쎯	-9.89187
xiao❁51쎯	-9.89232
shou❃6쎯jie❄19쎯	-9.8925
li❄59쎯de❅2쎯	-9.89305
lian❂53쎯sai❄4쎯	-9.89362
tui❁1쎯dong❄13쎯	-9.89384
duo❁5쎯jia❁13쎯	-9.89412
zai❄5쎯zhi❂32쎯	-9.89436
feng❄7쎯	-9.89449
qing❁1쎯	-9.89479
dian❄23쎯qi❄20쎯	-9.89519
da❁17쎯	-9.89563
17쎯	-9.8959
jin❄61쎯kou❃1쎯	-9.89619
,neng❂2쎯	-9.89622
ying❂59쎯	-9.89629
xie❂48쎯	-9.89679
ge❃0쎯li❃15쎯	-9.89685
bian❃4쎯	-9.89688
er❄5쎯nian❂6쎯	-9.897
xiang❄12쎯	-9.89747
hui❄27쎯zhang❃6쎯	-9.89753
chun❁6쎯qiu❁16쎯	-9.89776
zhu❃4쎯ren❂1쎯	-9.89778
chang❃4쎯shang❃1쎯	-9.89782
ping❂17쎯mian❄2쎯	-9.89801
shen❁23쎯	-9.89833
qing❄3쎯yin❁44쎯	-9.8984
ang❁10쎯sheng❃9쎯	-9.89853
hei❁3쎯long❂63쎯ji	-9.89876
jin❄38쎯	-9.89888
mi❂15쎯	-9.89913
(쎁)	-9.89932
bi❃20쎯li❄51쎯	-9.89961
ceng❂3쎯ci❄16쎯	-9.89978
쎇.	-9.89978
wei❁12쎯yuan❂15쎯,	-9.89989
zhi❁39쎯	-9.90007
cai❂2쎯neng❂2쎯	-9.90051
yong❄3쎯pin❃0쎯	-9.90062
shi❂10쎯san❁1쎯	-9.90064
quan❂12쎯wei❁13쎯	-9.90097
쎂쎀shi❄15쎯ji❄94쎯	-9.90129
wang❄3쎯	-9.90159
fu❂93쎯she❄8쎯	-9.90191
bing❃9쎯	-9.90193
wu❂11쎯	-9.90218
fan❄17쎯	-9.90223
xing❄13쎯han❄20쎯	-9.90241
chuan❄0쎯	-9.90249
ao❄25쎯da❄0쎯	-9.90253
jia❁13쎯ji❂114쎯	-9.90271
,fu❂94쎯	-9.90299
da❄0쎯sha❄6쎯	-9.90302
xiao❃2쎯zu❃7쎯	-9.90342
yue❁1쎯쎁	-9.90345
shen❁40쎯fen❄2쎯	-9.90411
bi❄73쎯	-9.90437
xian❄37쎯chang❃4쎯	-9.90491
shui❄11쎯wu❄12쎯	-9.9056
mian❂22쎯	-9.9058
na❄15쎯	-9.90584
shi❂39쎯wu❄36쎯	-9.90848
(쎁쎈	-9.90922
xing❄12쎯fu❂60쎯	-9.90938
jian❁25쎯ta❄26쎯	-9.9094
(쎂)	-9.90948
xiao❄14쎯yi❄165쎯	-9.90963
ya❂18쎯	-9.90993
de❅0쎯qu❁15쎯de❅2쎯	-9.90996
deng❁10쎯ji❄117쎯	-9.90996
jian❃36쎯cha❂12쎯	-9.91074
쎀쎂	-9.91079
ji❃13쎯	-9.91182
zhi❃19쎯ding❄2쎯	-9.91195
xia❄3쎯zai❄8쎯	-9.91259
guan❁4쎯jie❂69쎯	-9.91261
ju❄16쎯bei❄26쎯	-9.91264
zuan❁4쎯	-9.91289
kong❁9쎯diao❄17쎯	-9.91338
wo❄16쎯	-9.91448
nian❂6쎯jian❁85쎯	-9.91485
cao❂10쎯	-9.91489
cai❂9쎯jing❁27쎯	-9.91504
zhai❂1쎯	-9.91532
chu❁4쎯ji❂83쎯	-9.91566
chou❁5쎯	-9.91594
fen❁4쎯chi❁23쎯	-9.91631
fang❄0쎯zai❄5쎯	-9.91634
guo❂11쎯you❃11쎯	-9.91672
zhi❂25쎯jing❄17쎯	-9.91686
zeng❁2쎯zhang❃6쎯	-9.91698
tu❃1쎯rang❃3쎯	-9.91717
,qie❃쎯	-9.9173
pei❄19쎯jian❄15쎯	-9.91759
wei❃15쎯	-9.91807
dao❃2쎯ru❄2쎯	-9.91823
jiu❄23쎯du❂34쎯	-9.91952
2쎯xue❂6쎯yuan❄18쎯	-9.91976
fu❄41쎯mu❃6쎯	-9.9205
,xing❂11쎯	-9.92065
yi❁10쎯zhi❄89쎯	-9.921
zhuan❄6쎯xie❃4쎯	-9.92153
쎁쎂쎈	-9.92155
ben❃9쎯	-9.92173
ming❂8쎯dai❄9쎯	-9.92223
tou❄4쎯ming❂8쎯	-9.92239
hua❁11쎯xu❄36쎯	-9.92245
❄14쎯le❄3쎯bu❄38쎯	-9.92283
쎆쎉	-9.92321
,yi❁10쎯ban❁15쎯	-9.92369
di❄27쎯	-9.9237
han❄33쎯yu❃44쎯	-9.92382
li❄141쎯ben❄4쎯	-9.92474
xiang❁9쎯lian❂69쎯	-9.92581
lian❄17쎯	-9.92592
huan❃7쎯	-9.92619
xiang❁9쎯ying❁17쎯	-9.92657
yue❄25쎯	-9.92734
shang❃1쎯xia❄3쎯	-9.92741
xiong❂1쎯	-9.92812
hao❄23쎯	-9.92821
ao❄14쎯yun❃16쎯	-9.92875
ge❃0쎯jin❁33쎯	-9.92903
.zhe❄14쎯	-9.92931
쎂쎀쎁쎁	-9.92971
kuo❄7쎯da❄0쎯	-9.93004
shou❃6쎯dou❁12쎯	-9.9301
ang❂7쎯	-9.93045
xing❂9쎯hao❂6쎯	-9.93085
-쎅	-9.9314
shi❄32쎯ji❂83쎯	-9.93149
gong❁17쎯ren❂1쎯	-9.93168
jie❄24쎯	-9.93205
gui❁35쎯	-9.93211
kuang❂3쎯	-9.93255
쎅fen❁4쎯zhong❁29쎯	-9.93344
quan❂6쎯sheng❃9쎯	-9.93388
gui❁35쎯lv❄9쎯	-9.93415
jian❄29쎯zao❄16쎯	-9.9343
bi❃24쎯ji❄117쎯	-9.93452
shang❁4쎯biao❁14쎯	-9.93452
dao❃5쎯zhi❄89쎯	-9.93468
lan❄6쎯	-9.93513
쎇쎉	-9.93638
yi❄109쎯shi❂35쎯	-9.93646
rong❂50쎯ge❃0쎯	-9.9368
yao❄11쎯	-9.93699
gui❁46쎯	-9.93746
qiao❃3쎯	-9.93775
zai❃4쎯	-9.93927
chu❁3쎯le❅0쎯	-9.93941
jiang❃8쎯.	-9.9395
jin❁26쎯	-9.93959
.xian❄37쎯wei❄14쎯	-9.94095
,zi❄6쎯	-9.94121
.쎃	-9.94124
sheng❁16쎯cun❂1쎯	-9.94137
bao❄10쎯dao❄24쎯	-9.94149
deng❄8쎯	-9.94159
shu❁12쎯	-9.94168
쎅ping❂17쎯fang❁4쎯	-9.9419
tian❂8쎯	-9.94203
shui❃0쎯ni❂15쎯	-9.9425
chui❂5쎯	-9.94258
bian❁13쎯ma❃8쎯	-9.94339
kan❁3쎯wu❄36쎯	-9.94353
qi❂104쎯	-9.94444
li❃15쎯shi❄18쎯,	-9.94469
de❅0쎯zhi❃13쎯	-9.94484
chen❂38쎯	-9.9452
wu❃9쎯nian❂6쎯	-9.94521
bao❄15쎯	-9.94602
gong❁10쎯yu❄35쎯	-9.94609
쎀쎅	-9.94613
luan❃0쎯	-9.9462
you❁5쎯hua❁1쎯	-9.94693
ji❁54쎯	-9.94729
쎆.	-9.94748
,ba❃1쎯	-9.9479
쎂쎀쎀쎉	-9.94869
liang❂19쎯:	-9.94888
ge❄3쎯gan❄3쎯	-9.9489
ji❁21쎯gan❄3쎯	-9.94901
beng❄6쎯	-9.9494
ban❄4쎯fa❃2쎯	-9.94977
liao❂37쎯	-9.95036
yang❂35쎯guang❁2쎯	-9.95058
gou❃2쎯zao❄16쎯	-9.95125
zeng❁2쎯jiang❄9쎯	-9.95128
wu❃37쎯si❄15쎯	-9.9513
bu❂0쎯hui❄27쎯	-9.95138
xian❄47쎯lu❄70쎯	-9.95151
fu❂62쎯	-9.95177
zhua❁0쎯	-9.95183
,yin❁11쎯wei❄14쎯	-9.95185
bu❃9쎯	-9.95309
zha❂8쎯	-9.9549
fa❁1쎯zhan❃11쎯,	-9.95522
fang❃18쎯	-9.95536
luo❂15쎯bo❅0쎯	-9.95558
de❅0쎯mian❄2쎯	-9.95561
suo❃11쎯wei❄52쎯	-9.95586
ge❂38쎯	-9.95634
hui❂1쎯:“	-9.95716
lei❃25쎯	-9.95755
ke❁16쎯zhang❃6쎯	-9.95792
du❁8쎯	-9.95803
chuang❄1쎯shi❃9쎯	-9.95807
chun❂11쎯	-9.95817
mo❄75쎯	-9.95867
xin❄8쎯yong❄3쎯	-9.95873
quan❃3쎯	-9.95914
bei❁6쎯	-9.95934
bing❁6쎯qie❃쎯	-9.95982
nu❄2쎯	-9.95992
huan❁7쎯	-9.96041
qi❄23쎯	-9.9614
gan❃6쎯jue❂104쎯	-9.96153
er❃12쎯ji❁48쎯	-9.96165
,de❅0쎯chu❄17쎯	-9.96177
you❁10쎯	-9.96233
mian❃10쎯yi❄159쎯	-9.96245
zheng❄12쎯fa❃2쎯	-9.96301
shi❁33쎯ge❁16쎯	-9.96328
%.	-9.96347
fang❁4쎯wei❄15쎯	-9.96349
yi❁12쎯ju❁18쎯	-9.96353
yu❄109쎯	-9.96353
xiao❁29쎯hua❁1쎯	-9.96362
che❁8쎯liang❄10쎯	-9.96374
lan❂25쎯	-9.96381
meng❃3쎯	-9.96406
san❁1쎯da❄0쎯	-9.96429
.tang❂13쎯	-9.96476
,han❄33쎯zu❂9쎯,	-9.96492
,“	-9.96501
쎁쎉쎈쎀nian❂6쎯	-9.96519
dao❃5쎯shi❁11쎯.	-9.96523
bei❃2쎯fang❁4쎯	-9.96527
hei❁3쎯long❂63쎯	-9.96543
.”《	-9.96558
jian❁14쎯ren❂4쎯	-9.96613
qi❃12쎯qiu❁9쎯,	-9.96626
,shu❃5쎯	-9.96629
ci❄23쎯	-9.96652
hua❁1쎯、	-9.96686
gao❁20쎯ceng❂3쎯	-9.967
qian❂8쎯hou❄7쎯	-9.968
zhi❁16쎯shi❄45쎯	-9.96834
cai❃4쎯se❄29쎯	-9.96936
fa❁1쎯she❄8쎯	-9.96951
ling❄0쎯yi❁10쎯	-9.96955
쎈쎇	-9.96956
xiang❃5쎯	-9.96972
,kuo❄15쎯yi❂31쎯	-9.96996
gan❁16쎯zao❄6쎯	-9.97076
guan❁16쎯cha❂12쎯	-9.9709
long❄5쎯	-9.97113
zhong❁4쎯xin❁7쎯、	-9.9712
xie❂14쎯zhu❄20쎯	-9.97123
dan❁9쎯yuan❂10쎯	-9.97131
de❅0쎯tie❃5쎯	-9.97134
33쎯	-9.97151
kun❁9쎯ming❂8쎯	-9.97184
xi❂22쎯	-9.97221
.dan❄10쎯	-9.97244
gai❃2쎯wei❄14쎯	-9.97255
gong❁10쎯si❁16쎯,	-9.97256
wang❄2쎯	-9.97276
jian❃19쎯	-9.97377
ke❁7쎯	-9.97386
29쎯	-9.97456
hui❄51쎯	-9.97523
jian❃48쎯	-9.9758
jiao❁8쎯huan❄21쎯	-9.97582
nan❂6쎯fang❁4쎯	-9.97633
shao❃2쎯nv❃0쎯	-9.97725
jia❁7쎯po❁2쎯	-9.97733
bai❃4쎯	-9.9774
wai❄0쎯guo❂11쎯	-9.9774
hun❂21쎯	-9.9777
zi❁45쎯xun❄26쎯	-9.97798
fang❁4쎯mi❃19쎯.	-9.97833
shen❂2쎯bi❄100쎯	-9.97898
tan❂20쎯	-9.97904
fu❃34쎯zhu❄20쎯	-9.97929
tui❁1쎯jian❄58쎯	-9.97972
hu❁17쎯xi❁51쎯	-9.97987
yi❁10쎯duan❄7쎯	-9.97999
lin❂43쎯	-9.98037
qiao❂5쎯	-9.98107
lian❂30쎯	-9.98108
、gao❁20쎯	-9.98169
쎀쎃	-9.98204
jian❁25쎯she❄29쎯	-9.98212
fu❃34쎯dao❃5쎯	-9.98236
쎇쎄	-9.98265
die❂19쎯	-9.98306
ti❁6쎯	-9.98308
쎉쎂	-9.98428
lv❄12쎯	-9.98597
dui❁9쎯	-9.98598
ling❂36쎯	-9.98602
쎁쎉쎇쎈nian❂6쎯	-9.98644
ming❂24쎯	-9.98647
쎀×	-9.98666
shi❄20쎯	-9.98676
gong❁10쎯si❁16쎯.	-9.98711
、zhong❁4쎯guo❂11쎯	-9.98731
jun❁2쎯dui❄33쎯	-9.98731
lan❂13쎯zhou❁9쎯	-9.98744
bang❄9쎯	-9.98758
rong❂33쎯	-9.98901
zhu❃4쎯ban❄4쎯	-9.98929
bang❃2쎯	-9.98971
ping❂36쎯gu❁4쎯	-9.99039
li❃28쎯	-9.99052
tian❁7쎯jia❁7쎯	-9.9913
mai❄12쎯	-9.99183
qing❁20쎯hai❃1쎯	-9.99191
("	-9.99195
ying❁17쎯gai❁13쎯	-9.99207
shu❁44쎯	-9.99245
duo❁5쎯pian❁7쎯	-9.99265
gu❃14쎯dian❃5쎯	-9.99284
wan❁7쎯	-9.99302
gui❁28쎯	-9.99334
a❁6쎯er❃6쎯	-9.99385
xing❄13쎯、	-9.99389
sheng❁16쎯su❄56쎯	-9.99459
shu❃16쎯	-9.99476
shou❃4쎯duan❄7쎯	-9.99496
zhen❁44쎯	-9.995
duan❁4쎯kou❃1쎯	-9.99516
fu❃16쎯	-9.9953
쎁쎉쎈쎁nian❂6쎯	-9.99542
ping❂17쎯yuan❂12쎯	-9.99554
qiu❂36쎯dui❄33쎯	-9.9958
xing❃5쎯	-9.99611
쎈gan❄3쎯	-9.99627
bu❄23쎯ju❂23쎯	-9.99683
de❅2쎯gao❁20쎯	-9.99698
you❁5쎯mei❃13쎯	-9.99726
zu❁0쎯	-9.99752
ji❄117쎯zai❄8쎯	-9.99764
san❃7쎯wen❂5쎯	-9.99788
s	-9.99822
pin❂15쎯dao❄24쎯	-9.99873
che❃7쎯	-9.99888
wen❂5쎯ming❂7쎯:	-9.99903
gong❁17쎯nong❂5쎯	-9.99946
di❄45쎯쎂	-9.99957
wu❂17쎯xi❁161쎯	-9.99978
jia❁7쎯re❄1쎯	-9.99991
xi❁143쎯ya❄7쎯	-10.0003
jie❄13쎯	-10.0007
ji❄117쎯zhe❃2쎯	-10.001
su❁10쎯lian❂53쎯	-10.0012
lou❄2쎯	-10.0014
xun❂14쎯	-10.0016
쎈쎄	-10.0018
shi❄45쎯“	-10.0019
si❄17쎯nian❂6쎯	-10.0019
jie❂67쎯shu❄27쎯	-10.0023
tong❁5쎯dao❄24쎯	-10.0024
hua❂14쎯dong❁3쎯	-10.0024
mou❃2쎯xie❁3쎯	-10.0048
niao❄2쎯	-10.0048
gai❁13쎯cun❁1쎯	-10.0052
pa❄1쎯	-10.0057
jing❄46쎯	-10.0057
qi❄20쎯,	-10.0059
qu❁17쎯	-10.0061
sa❁2쎯	-10.0065
yuan❂12쎯shi❃9쎯	-10.0067
han❂15쎯shu❄26쎯	-10.0071
jian❁52쎯ce❄22쎯	-10.0071
shu❁8쎯ji❄117쎯,	-10.0071
zhan❃11쎯jian❁25쎯	-10.0075
zhun❃0쎯que❄26쎯	-10.0077
qing❁16쎯song❁11쎯	-10.008
쎇쎀쎀	-10.0082
ji❂74쎯	-10.0087
hao❂25쎯hua❂14쎯	-10.0087
li❄59쎯xue❂6쎯	-10.0095
xing❄13쎯ge❂29쎯	-10.0097
chan❂33쎯	-10.0099
shang❃1쎯you❃11쎯	-10.0101
zhong❁4쎯xiao❃2쎯	-10.0116
zhuan❃4쎯huan❄21쎯	-10.0117
zhu❃4쎯zhi❄61쎯	-10.0117
fa❁1쎯yu❄93쎯	-10.0118
쎆쎁	-10.0119
jing❄44쎯tou❂4쎯	-10.013
ji❃22쎯	-10.013
mao❂18쎯	-10.0137
cheng❂29쎯de❅2쎯	-10.0143
쎆-	-10.0144
tang❂13쎯dai❄9쎯	-10.0146
jiao❁21쎯	-10.0154
ji❄117쎯yi❄104쎯	-10.0158
guan❁16쎯yin❂10쎯	-10.0158
,dang❁4쎯	-10.0163
qi❃13쎯dong❄13쎯	-10.0164
sheng❁16쎯yu❄93쎯	-10.0167
gong❁10쎯she❄22쎯	-10.017
,geng❁6쎯	-10.0172
jin❄20쎯	-10.0177
po❄21쎯	-10.0178
ta❁6쎯们	-10.0179
jiao❄35쎯wei❄14쎯	-10.0185
yu❄42쎯	-10.0189
an❄16쎯li❄51쎯	-10.0189
weng❁6쎯	-10.0194
luo❄17쎯yang❂35쎯	-10.0194
huo❃2쎯che❁8쎯	-10.0197
man❄13쎯	-10.0197
ni❃11쎯	-10.0205
ken❃6쎯	-10.0206
ji❂35쎯ke❃4쎯.	-10.0209
qu❁15쎯wei❁12쎯	-10.0209
nai❄2쎯	-10.0211
xiu❄19쎯gang❁32쎯	-10.0213
pin❂12쎯	-10.0217
-쎆	-10.0219
mei❃13쎯shi❂39쎯	-10.0223
ju❄18쎯《	-10.0224
pi❁	-10.0229
》de❅2쎯	-10.0231
fen❁4쎯guan❃9쎯	-10.0236
san❁1쎯guo❂11쎯	-10.0243
ying❁67쎯	-10.0249
cun❁1쎯,	-10.025
bo❁8쎯	-10.0253
di❄45쎯qi❁9쎯	-10.0258
yi❃10쎯bai❃9쎯	-10.0261
guan❃9쎯xia❂39쎯	-10.0266
duo❃21쎯	-10.0266
,fang❄0쎯ru❄2쎯	-10.0267
shou❃6쎯pi❁11쎯	-10.027
쎈쎃	-10.0273
qu❁49쎯dong❄13쎯	-10.0278
xian❃24쎯cun❂1쎯	-10.0278
쎂쎂쎀	-10.0278
t	-10.0288
yao❂20쎯	-10.0288
tu❂38쎯	-10.0295
na❃3쎯xie❁3쎯	-10.0295
bu❂0쎯shao❃2쎯	-10.0305
쎀쎀mo❄16쎯yuan❂10쎯	-10.0306
쎈쎉	-10.0307
yi❁13쎯sheng❁16쎯	-10.0313
can❁3쎯mou❂17쎯	-10.0315
쎉.	-10.0315
zhao❄18쎯pian❁5쎯	-10.0315
zhong❁4쎯you❃11쎯	-10.0315
cun❄2쎯	-10.0319
shan❁13쎯	-10.0322
쎀%	-10.0323
xue❂14쎯	-10.0325
yi❄226쎯	-10.0327
34쎯	-10.0334
쎄)	-10.0334
yao❄12쎯pin❃0쎯	-10.0337
★	-10.0337
,wo❃3쎯们	-10.0337
fan❂35쎯hua❂14쎯	-10.0337
she❄22쎯qiu❂19쎯	-10.0338
쎁쎉쎇쎉nian❂6쎯	-10.0342
,ta❁3쎯们	-10.035
cong❂5쎯shu❁8쎯	-10.035
zhuan❁1쎯zhao❂쎯	-10.0354
chang❃4쎯suo❃11쎯	-10.0356
nian❂6쎯ling❂114쎯	-10.0357
xie❂16쎯pian❁5쎯	-10.0359
bai❃9쎯xing❄9쎯	-10.0359
chan❃12쎯quan❂12쎯	-10.0365
zhu❄63쎯de❅0쎯	-10.0366
쎀쎁	-10.0367
guo❂11쎯dao❄24쎯	-10.0369
ya❂7쎯	-10.0371
xin❁10쎯qu❁15쎯	-10.0372
zhong❃7쎯	-10.0375
pan❄2쎯	-10.0377
gao❁20쎯duan❁4쎯	-10.0386
chao❁17쎯ji❂83쎯	-10.0386
,que❄11쎯	-10.0387
min❃24쎯	-10.0392
wu❃9쎯shi❂10쎯	-10.0393
zhou❁17쎯	-10.0393
gong❁10쎯yi❄165쎯	-10.0394
쎀쎆	-10.0401
shi❁33쎯ci❂29쎯	-10.0406
shi❄45쎯gan❄3쎯	-10.0412
si❃0쎯wang❂0쎯	-10.0414
:쎂	-10.0418
wo❃3쎯们de❅2쎯	-10.0418
shi❂13쎯qiu❁9쎯	-10.0421
li❃26쎯,	-10.0421
hu❂46쎯jiao❁21쎯	-10.0422
du❂34쎯shu❁8쎯	-10.0429
xuan❂9쎯	-10.0431
geng❁6쎯hao❃0쎯	-10.0434
hao❄35쎯	-10.0436
ling❂34쎯ren❂1쎯	-10.0436
ce❄26쎯	-10.0441
qing❁20쎯chun❁6쎯	-10.0443
hu❄46쎯	-10.0449
zhi❁13쎯hou❄7쎯,	-10.0451
yi❁10쎯dai❄15쎯	-10.0452
zhu❃4쎯yan❃39쎯	-10.0456
쎀쎀쎀ping❂17쎯	-10.0458
ji❄95쎯cheng❂30쎯	-10.0462
ji❁48쎯dian❄23쎯	-10.0464
suo❁15쎯	-10.0465
pei❂3쎯	-10.0465
po❂3쎯	-10.0475
zhao❃3쎯	-10.0476
dong❁3쎯jing❁3쎯	-10.0476
쎁쎀-	-10.0477
geng❁17쎯	-10.0479
qi❄20쎯、	-10.0481
ceng❂6쎯zai❄5쎯	-10.0483
si❄17쎯shi❂10쎯	-10.0485
jian❄85쎯pan❂10쎯	-10.0487
wen❂23쎯ming❂7쎯	-10.049
sun❃7쎯	-10.0492
lang❂17쎯	-10.05
sui❁12쎯ran❂12쎯	-10.0501
hu❄14쎯dong❄13쎯	-10.0504
gai❄22쎯	-10.051
shu❄26쎯shi❂10쎯	-10.0512
쎀쎈	-10.0513
xiu❄11쎯	-10.0515
jiao❃22쎯ban❄11쎯	-10.0516
qi❃25쎯ben❄4쎯	-10.0517
2쎯guan❃9쎯li❃15쎯	-10.0523
lin❂19쎯de❅0쎯	-10.0524
dang❃2쎯yuan❂15쎯.	-10.0525
xiang❂9쎯	-10.0525
xiao❄23쎯	-10.0529
liang❃5쎯ce❄8쎯	-10.0535
쎂쎄쎀	-10.0536
xi❂9쎯guan❄12쎯	-10.0536
qi❂48쎯	-10.0538
lu❄83쎯jun❁2쎯	-10.0541
zai❄5쎯jiao❄18쎯	-10.0543
jue❂33쎯ce❄26쎯	-10.0543
zhong❁4쎯wai❄0쎯	-10.0544
fan❃4쎯	-10.0544
ku❄18쎯	-10.0545
hu❄30쎯li❃15쎯	-10.0545
shuang❃7쎯	-10.0547
ding❄15쎯	-10.0548
jian❄17쎯shen❁40쎯	-10.0553
huang❂56쎯he❂37쎯	-10.0555
wei❄16쎯xing❁7쎯	-10.0555
gong❄3쎯xiang❃3쎯	-10.0555
ming❂8쎯xing❁7쎯	-10.0565
bao❄10쎯kan❁3쎯	-10.0568
gu❃42쎯piao❄5쎯	-10.0568
ong❂21쎯liang❂19쎯	-10.0573
ting❂9쎯	-10.0579
gao❁20쎯wen❁6쎯	-10.0586
zhao❃3쎯dao❄3쎯	-10.0588
dian❄23쎯zhan❄17쎯	-10.0591
sou❁9쎯suo❃18쎯	-10.0593
si❁24쎯·	-10.0594
dao❄24쎯de❂9쎯	-10.0598
ye❄44쎯ben❄4쎯	-10.0601
cong❂5쎯	-10.0601
si❁24쎯tan❃4쎯	-10.0602
fang❂2쎯wu❁8쎯	-10.061
,you❂29쎯yu❂35쎯	-10.0611
yu❃44쎯wen❂5쎯	-10.0613
man❄11쎯	-10.0615
쎀쎉	-10.0619
xi❁51쎯yin❃14쎯	-10.062
she❄17쎯	-10.0627
xiong❂2쎯hou❄6쎯	-10.063
yan❂31쎯dan❄38쎯	-10.0631
die❂56쎯	-10.0632
dao❄11쎯	-10.0633
xia❂39쎯qu❁15쎯	-10.0638
mo❂26쎯fa❃2쎯	-10.0639
yi❁10쎯tao❄1쎯	-10.0642
ˇ	-10.0643
ke❁34쎯li❄144쎯	-10.0647
kun❁9쎯chong❂14쎯	-10.0648
niu❃9쎯yue❁1쎯	-10.065
gao❁20쎯dang❄12쎯	-10.0652
zhuan❃4쎯yi❂61쎯	-10.0652
diao❄5쎯	-10.0652
yu❂35쎯bai❃9쎯	-10.0653
hong❂25쎯	-10.0653
쎁쎉쎅쎈nian❂6쎯	-10.0659
shui❃0쎯dao❄14쎯	-10.0667
shen❁23쎯qing❃9쎯	-10.0669
chu❄29쎯mu❄20쎯	-10.067
di❄26쎯guo❂11쎯	-10.0672
wo❁5쎯	-10.0674
da❄0쎯jie❁30쎯	-10.0679
wei❁10쎯xian❃46쎯	-10.068
dong❄13쎯man❄13쎯	-10.0682
zhang❃6쎯du❄8쎯	-10.0686
/////.",(){(	-10.0688
an❁13쎯xian❄22쎯	-10.0688
zheng❁22쎯que❄26쎯	-10.0689
e❂11쎯	-10.0692
wei❄14쎯zhun❃0쎯..	-10.0692
쎁쎀쎀쎀쎀쎈쎀쎁);});	-10.0693
sha❁18쎯	-10.0693
.qing❁10쎯	-10.0693
shan❃11쎯	-10.0695
qu❁15쎯,	-10.0709
nan❂14쎯zi❃7쎯	-10.071
kuai❄18쎯jie❂42쎯	-10.071
kao❃10쎯ru❄2쎯	-10.0714
쎂쎀쎀쎅	-10.0715
쎇-	-10.0717
qi❃25쎯xiang❄20쎯	-10.0719
neng❂2쎯liang❂19쎯	-10.072
feng❁43쎯	-10.0721
1	-10.0726
yi❁12쎯tuo❁6쎯	-10.0727
,xian❄37쎯zai❄5쎯	-10.0727
si❁22쎯wei❂38쎯	-10.0729
shen❄11쎯zhi❄88쎯	-10.0734
zhang❃6쎯chun❁6쎯	-10.0739
hou❄7쎯lai❂16쎯	-10.0742
ben❄4쎯zhi❄30쎯	-10.0749
fen❁19쎯	-10.0749
mu❄22쎯lu❄35쎯	-10.0751
nong❂5쎯hu❄26쎯	-10.0752
nian❂6쎯du❄8쎯	-10.0757
zei❂3쎯	-10.0757
niang❂0쎯	-10.0762
zheng❄17쎯shu❁8쎯	-10.0762
,li❄62쎯ren❂4쎯	-10.0762
jia❁13쎯,	-10.0766
ying❂58쎯de❂7쎯	-10.0767
yu❄54쎯	-10.077
zuo❄5쎯qu❁25쎯	-10.0771
han❄20쎯ping❂17쎯	-10.0778
.song❄4쎯	-10.0784
ju❄45쎯	-10.0787
zhong❁4쎯deng❃2쎯	-10.0791
wang❁6쎯	-10.0793
ji❁54쎯guang❁2쎯	-10.0797
gong❁10쎯bu❄23쎯	-10.08
mian❄2쎯ji❁64쎯쎄	-10.0802
dang❁4쎯xuan❃8쎯	-10.0805
da❄0쎯yin❂10쎯	-10.0805
.li❄62쎯ren❂4쎯	-10.0806
man❄11쎯xing❄13쎯	-10.0806
chong❂17쎯shi❄71쎯	-10.0809
mian❄2쎯dui❄14쎯	-10.0816
shao❂3쎯	-10.0817
fu❄32쎯	-10.0821
tu❄1쎯	-10.083
쎂쎀쎀쎇	-10.083
zhong❁4쎯yao❄12쎯	-10.083
qing❄14쎯li❄58쎯	-10.0832
xiang❃3쎯you❃11쎯	-10.0836
cu❄10쎯	-10.0838
chuan❂4쎯ji❁36쎯	-10.0838
bian❄38쎯	-10.0843
shou❄5쎯hou❄7쎯	-10.0843
li❄155쎯	-10.0851
ben❃5쎯pin❃0쎯	-10.0853
piao❁11쎯	-10.0853
wen❁6쎯quan❂17쎯	-10.0856
zhang❄19쎯ai❄33쎯	-10.0858
di❂17쎯ren❂1쎯	-10.086
yin❃37쎯shi❂39쎯	-10.0863
zhao❄9쎯	-10.0864
men❂19쎯hu❄26쎯	-10.0864
di❃10쎯	-10.0864
xia❂10쎯	-10.0871
zhang❁4쎯)	-10.0871
gui❃35쎯	-10.0876
shi❄18쎯gu❄12쎯	-10.0877
zao❃9쎯	-10.0877
ku❁14쎯	-10.0881
ji❁34쎯bu❄38쎯	-10.0881
min❂22쎯ying❂45쎯	-10.0887
mian❄2쎯fen❃1쎯	-10.0891
xian❄22쎯ren❂1쎯	-10.0898
xiu❁11쎯gai❃2쎯	-10.0901
ce❄26쎯lve❄11쎯	-10.0901
fei❁15쎯zhou❁11쎯	-10.0905
jie❂48쎯chu❁3쎯	-10.0905
gu❄23쎯ke❄14쎯	-10.0921
chui❁1쎯	-10.0927
zuo❄5쎯chu❁3쎯	-10.093
yi❃10쎯qian❂8쎯	-10.093
zong❃5쎯tong❃9쎯	-10.0933
guan❄31쎯	-10.0937
zhan❄10쎯shi❄28쎯	-10.0938
쎀쎄	-10.0939
geng❁6쎯xin❁10쎯	-10.0939
ren❃1쎯	-10.0944
jia❄9쎯	-10.0945
gou❃2쎯	-10.0947
xi❁56쎯	-10.095
deng❃2쎯jiang❃8쎯.	-10.0951
shi❂35쎯bie❂4쎯	-10.0959
kang❁6쎯xi❁107쎯	-10.0967
liu❂28쎯xue❂6쎯	-10.0969
su❁10쎯qu❁15쎯	-10.097
mu❃6쎯qin❁4쎯	-10.097
zhu❂24쎯	-10.0973
tong❂22쎯	-10.0978
jian❄40쎯	-10.0979
shi❂10쎯si❄17쎯	-10.0979
,jia❁7쎯	-10.098
huo❄50쎯jiang❃8쎯	-10.0984
an❁16쎯	-10.0986
dong❄11쎯	-10.0986
(xue❂6쎯ming❂7쎯:)	-10.0987
yi❁10쎯dian❃11쎯	-10.0989
er❂16쎯qie❃쎯	-10.0989
quan❂6쎯shu❁8쎯	-10.099
zhi❁43쎯fang❂3쎯	-10.0993
nan❂6쎯chang❁6쎯	-10.0993
ji❁48쎯gou❃2쎯.	-10.0996
xie❁3쎯	-10.0997
guang❁2쎯xue❂6쎯	-10.1001
mi❃19쎯.	-10.101
×쎁	-10.1013
”shi❄45쎯	-10.1018
ji❁21쎯hu❁13쎯	-10.1019
zang❄7쎯	-10.1022
lu❄35쎯yin❁44쎯	-10.1023
ci❂26쎯	-10.1028
lu❄53쎯	-10.1028
jie❁32쎯	-10.1029
쎀쎀gong❁10쎯li❃26쎯	-10.1033
zui❄4쎯wei❄14쎯	-10.1037
.’	-10.1045
xuan❁39쎯	-10.1045
、xin❁10쎯	-10.1047
.쎂、	-10.1054
le❅0쎯“	-10.1055
xin❁17쎯	-10.1055
bie❂4쎯shu❄18쎯	-10.1062
shou❁1쎯ji❂114쎯	-10.1062
ming❂7쎯ren❂1쎯	-10.1067
ge❂29쎯lan❂13쎯	-10.1069
hua❁11쎯sheng❁16쎯	-10.107
le❅0쎯yi❁10쎯	-10.1075
chuan❂4쎯》	-10.1076
zong❃5쎯jie❂67쎯	-10.1077
쎉쎃	-10.1079
ping❂36쎯lun❄1쎯	-10.1081
di❂41쎯	-10.1088
ren❂1쎯kou❃1쎯쎂	-10.109
wu❃15쎯	-10.1091
shi❂10쎯da❄0쎯	-10.1092
man❃4쎯yi❄109쎯	-10.1099
qiu❂19쎯jie❂67쎯	-10.11
ren❂1쎯min❂22쎯jie	-10.1101
❃6쎯fang❄0쎯jun❁2쎯	-10.1101
su❁13쎯	-10.1102
fang❃6쎯	-10.1102
yi❃10쎯wei❄14쎯	-10.1102
jian❁52쎯kong❄1쎯	-10.1104
》zhong❁4쎯de❅2쎯	-10.1113
mai❄16쎯ke❄6쎯	-10.1114
hui❄27쎯yuan❂15쎯、	-10.1114
si❄17쎯da❄0쎯	-10.1115
dian❄23쎯ji❁48쎯	-10.1118
xing❄8쎯qu❄11쎯	-10.1122
qu❄11쎯	-10.1126
wei❂11쎯rao❄2쎯	-10.1126
sheng❂5쎯	-10.1133
―	-10.1134
shi❄19쎯	-10.1138
gong❁10쎯jiao❁8쎯	-10.1139
mo❂12쎯ju❄16쎯	-10.1142
쎈ping❂17쎯fang❁4쎯	-10.1142
pai❂2쎯lie❄20쎯	-10.1143
ci❁2쎯ji❁54쎯	-10.1146
쎇gan❄3쎯	-10.1153
bi❄100쎯mi❄24쎯	-10.1158
yuan❂12쎯lai❂16쎯	-10.116
wen❃10쎯	-10.1165
huo❂3쎯xing❄13쎯	-10.1169
liu❂21쎯lan❃28쎯	-10.1169
qing❂6쎯gan❃6쎯	-10.117
gang❁5쎯	-10.1173
쎁、	-10.1174
gu	-10.1176
ke❃4쎯kao❄5쎯	-10.1185
gong❁17쎯zuo❄5쎯;	-10.1185
te❄5쎯ding❄2쎯	-10.1187
zao❃3쎯	-10.119
tai❄3쎯yuan❂12쎯	-10.119
wu❃28쎯zhuang❁10쎯	-10.119
,jia❁7쎯ru❄2쎯	-10.1196
zhan❃11쎯xian❄37쎯	-10.1196
qing❁7쎯	-10.1198
jing❁24쎯xin❁7쎯	-10.1199
fu❃28쎯	-10.1202
you❃11쎯:	-10.121
bing❃2쎯	-10.1216
dai❄15쎯you❃11쎯	-10.1217
qi❂117쎯quan❂6쎯	-10.1225
qi❁15쎯	-10.1242
jie❁13쎯kou❃1쎯:	-10.1246
xi❁65쎯la❄20쎯	-10.1246
hai❃1쎯wai❄0쎯	-10.1247
ta❁3쎯们de❅2쎯	-10.1248
zi❁13쎯	-10.1248
wu❄26쎯	-10.1251
can❁13쎯ting❁3쎯	-10.1259
huai❂8쎯	-10.126
ji❂107쎯	-10.1265
mian❄2쎯ji❁64쎯쎃	-10.1266
you❁11쎯jiu❃1쎯	-10.127
huan❄18쎯	-10.1273
.you❃11쎯	-10.1274
ji❁34쎯ceng❂3쎯	-10.128
xia❄3쎯xia❂39쎯	-10.1285
bu❂0쎯de❂7쎯	-10.129
tu❁4쎯	-10.1291
cheng❁18쎯	-10.1292
chen❂20쎯	-10.1292
ru❂9쎯ci❃2쎯	-10.1297
qian❁39쎯	-10.1303
cui❁6쎯	-10.1305
jie❂40쎯	-10.1306
guo❂11쎯fang❂4쎯	-10.1308
chu❁3쎯tu❃1쎯	-10.131
qun❂6쎯dao❃7쎯	-10.1318
,bing❁6쎯zai❄5쎯	-10.1319
zheng❃4쎯li❃15쎯	-10.1327
yong❁17쎯	-10.1335
fu❂41쎯	-10.1345
gan❄3쎯ben❄4쎯	-10.1346
쎆ping❂17쎯fang❁4쎯	-10.1346
pu❂22쎯	-10.1348
hang❂8쎯	-10.1351
fa❁1쎯qi❃34쎯	-10.1351
qiong❂28쎯	-10.1353
de❅0쎯tu❂14쎯	-10.1357
bian❄43쎯	-10.136
gai❃2쎯bian❁13쎯	-10.1361
qing❁10쎯xi❁83쎯	-10.1362
lv❄9쎯shi❁11쎯	-10.1363
,gong❄3쎯	-10.1364
xian❂27쎯	-10.1365
da❄0쎯qiao❂12쎯	-10.1367
쎀쎇	-10.1369
jie❂42쎯	-10.1374
dian❄24쎯	-10.1378
(쎁쎉쎀	-10.1378
chou❂29쎯	-10.138
ji❄94쎯wei❁12쎯	-10.1384
hua❂14쎯ren❂1쎯	-10.139
e❄81쎯	-10.139
bi❃20쎯yu❄28쎯	-10.1394
쎀-	-10.1394
ji❂37쎯shi❂20쎯	-10.1395
gong❁17쎯hui❄27쎯	-10.1402
쎂쎅쎀	-10.1411
kun❄1쎯	-10.1416
mei❃13쎯zhou❁11쎯	-10.1417
hu❁23쎯	-10.1421
xie❄80쎯	-10.1421
쎂쎀쎀쎆	-10.1423
쎃.쎅	-10.1426
fa❃2쎯ren❂1쎯	-10.1426
tu❂14쎯an❄16쎯	-10.1426
wei❁10쎯	-10.1428
gou❁23쎯	-10.1428
zhi❁13쎯qian❂8쎯	-10.1429
wei❂7쎯	-10.1429
tong❁5쎯yong❄3쎯	-10.1431
().	-10.1443
zai❁4쎯	-10.1443
ge❃0쎯wu❄36쎯	-10.1448
xiang❁19쎯	-10.1449
chui❂5쎯zhi❂25쎯	-10.1449
():	-10.1452
zhuan❁1쎯zhu❄31쎯	-10.1452
❄14쎯le❄3쎯bu❄38쎯.	-10.1456
bu❂0쎯zu❂11쎯	-10.1456
ying❂45쎯qiu❁9쎯	-10.1457
gan❃6쎯shou❄4쎯	-10.1457
du❂25쎯te❄5쎯	-10.1458
xi❁124쎯	-10.1459
cai❃11쎯qu❃1쎯	-10.146
huai❄0쎯	-10.1461
kuo❄17쎯	-10.1463
jian❄62쎯de❅2쎯	-10.1468
you❃11쎯xie❁3쎯	-10.147
bu❄38쎯wei❄15쎯	-10.1474
ke❃4쎯da❂30쎯	-10.1478
gu❃14쎯lao❃17쎯	-10.148
yan❄45쎯	-10.148
jin❁10쎯tian❁5쎯	-10.1481
ci❂24쎯	-10.1486
gan❁16쎯cheng❁10쎯	-10.1487
dao❃5쎯shi❁11쎯,	-10.1491
cun❁1쎯、	-10.1492
gong❁10쎯zhu❃4쎯	-10.1493
liang❂19쎯de❅2쎯	-10.1503
guo❄2쎯qu❄6쎯	-10.1504
xing❄8쎯jian❄29쎯	-10.1508
dian❄23쎯dong❄13쎯	-10.1509
pei❄19쎯bei❄26쎯	-10.151
duo❁5쎯yuan❂10쎯	-10.151
xing❄12쎯	-10.1511
she❄29쎯zai❄5쎯	-10.1518
쎈쎁	-10.1523
zhuo❂8쎯yue❄46쎯	-10.1528
,ceng❂6쎯ren❂4쎯	-10.1528
쎇쎁	-10.1534
qun❂6쎯ben❄4쎯	-10.154
ning❂6쎯	-10.1541
liu❂20쎯liang❂19쎯	-10.1545
xun❂11쎯zhao❃3쎯	-10.1545
hui❄27쎯yuan❂15쎯.	-10.155
.쎁쎂	-10.1551
bai❃9쎯nian❂6쎯	-10.1558
lai❄19쎯	-10.1563
li❃26쎯de❅2쎯	-10.1565
쎀.쎁	-10.1566
you❁5쎯yue❄46쎯	-10.1579
zhan❄10쎯yi❄103쎯	-10.1581
sha❁17쎯	-10.1588
yi❁10쎯chang❃4쎯	-10.159
rao❄2쎯	-10.1605
dian❄23쎯liu❂20쎯	-10.1607
,wo❃3쎯	-10.1607
shou❃6쎯xian❁18쎯	-10.1608
jing❃13쎯dian❃11쎯	-10.1609
xian❄22쎯ji❂83쎯	-10.1611
qiao❁28쎯	-10.1613
cuo❄7쎯shi❁13쎯	-10.1616
lv❄11쎯	-10.1619
xi❁143쎯yi❁13쎯	-10.1621
zui❄15쎯	-10.1622
tan❄5쎯tao❃3쎯	-10.1633
gan❁7쎯	-10.164
yi❁10쎯sheng❁16쎯	-10.1646
zhi❂32쎯wu❄12쎯	-10.1646
lan❂36쎯qiu❂36쎯	-10.165
,yi❄67쎯	-10.165
pi	-10.165
lan❂41쎯se❄29쎯	-10.1651
.쎀쎇	-10.1653
sheng❁3쎯ji❂83쎯	-10.1655
19쎯	-10.166
ping❂7쎯jie❄15쎯	-10.1663
zhi❄61쎯li❃15쎯	-10.1668
tu❁14쎯po❄17쎯	-10.167
suan❄4쎯	-10.1672
shou❄15쎯	-10.1675
chang❂14쎯	-10.1675
guang❁2쎯xu❄68쎯	-10.1677
ci❂15쎯	-10.168
meng❄8쎯xiang❃6쎯	-10.168
,you❂16쎯qi❂29쎯	-10.1685
(쎁쎉쎁	-10.1687
gou❄26쎯mai❃0쎯	-10.1689
liu❂20쎯yu❄31쎯	-10.1695
li❄58쎯yi❄165쎯	-10.1697
yi❄109쎯jian❄62쎯	-10.1697
tu❂14쎯xing❂11쎯	-10.17
×쎂	-10.1702
chan❃45쎯shu❄47쎯	-10.1702
jia❁13쎯、	-10.1705
te❄5쎯you❃11쎯	-10.1707
liu❂28쎯xia❄3쎯	-10.1713
kong❄1쎯gu❃42쎯	-10.1715
gou❁9쎯	-10.1722
cha❂27쎯xie❂16쎯	-10.1727
ju❁	-10.1728
쎈-	-10.1732
fa❂5쎯	-10.1735
쎀.쎂	-10.174
gao❁16쎯	-10.1743
tao❁16쎯	-10.1743
shang❁4쎯mao❄39쎯	-10.1747
jiu❃3쎯nian❂6쎯	-10.1747
ge❄3쎯ji❂83쎯	-10.1757
(-)	-10.1757
jian❁25쎯guan❁4쎯	-10.1759
yan❄75쎯	-10.176
/쎂	-10.1761
yue❄41쎯	-10.1767
dian❄7쎯	-10.1772
qiong❂23쎯	-10.1774
ya❁7쎯suo❁15쎯	-10.1775
xiong❁2쎯	-10.1776
zhang❁4쎯jia❁13쎯	-10.1777
zhong❁4쎯xin❁7쎯,	-10.1778
쎈.	-10.178
bian❄16쎯li❄58쎯.	-10.178
hun❂11쎯ning❂6쎯	-10.1782
ban❄11쎯	-10.1783
cha❁5쎯	-10.1785
.쎅	-10.1786
wu❃11쎯	-10.1791
de❅0쎯chan❃12쎯	-10.1792
zu❃7쎯cheng❂29쎯.	-10.1796
han❄38쎯	-10.1798
dai❄15쎯ling❃2쎯	-10.1798
,xian❄37쎯you❃11쎯	-10.1799
jun❁6쎯you❃11쎯	-10.1809
jiao❁20쎯lian❄22쎯	-10.1813
쎁쎈쎀	-10.1814
long❂40쎯	-10.1814
.”qing❁10쎯	-10.1815
guo❄2쎯lv❄12쎯	-10.1816
la❁7쎯ding❁2쎯	-10.1828
zou❃0쎯xiang❄6쎯	-10.183
yue❄29쎯쎂쎈ri❄2쎯	-10.1837
xiao❄14쎯ying❁17쎯	-10.1841
zai❄4쎯ci❄16쎯	-10.1844
bu❂0쎯yao❁17쎯	-10.1844
hang❂13쎯tian❁5쎯	-10.1845
jian❄77쎯	-10.1846
ba❄25쎯	-10.1851
chuang❁8쎯	-10.1855
jian❁85쎯,	-10.186
ben❃5쎯de❅0쎯	-10.1861
sui❂9쎯ji❁48쎯	-10.1862
li❃15쎯shi❄18쎯、	-10.1865
chu❂42쎯le❅0쎯	-10.187
yu❄28쎯	-10.1872
yong❄3쎯tu❂38쎯	-10.1878
zui❄4쎯duo❁5쎯	-10.1878
ji❄117쎯》	-10.1883
shi❂10쎯yu❂37쎯	-10.1887
qi❄34쎯	-10.189
lei❄10쎯	-10.1893
pian❁5쎯,	-10.1894
°C,nian❂6쎯	-10.1897
ju❂38쎯	-10.19
xia❄3쎯she❄29쎯	-10.19
liu❂31쎯	-10.1902
fang❁4쎯shi❄33쎯:	-10.1902
fei❁4쎯	-10.1908
tong❂13쎯yang❂17쎯	-10.191
.qi❂29쎯zhong❁4쎯	-10.191
cai❂7쎯	-10.1918
zheng❃4쎯xing❂11쎯	-10.1919
yi❂79쎯chan❃12쎯	-10.1921
jun❁6쎯wei❄14쎯	-10.1923
xiao❃2쎯er❂7쎯	-10.1926
qi❃34쎯cha❁3쎯	-10.1927
쎁쎉쎅쎆nian❂6쎯	-10.1932
wu❁17쎯	-10.1937
duo❁5쎯yang❂17쎯	-10.1941
de❂7쎯dao❄3쎯le❅0쎯	-10.1943
cheng❂45쎯	-10.1943
cheng❂29쎯ren❂1쎯	-10.1948
tie❁0쎯	-10.1951
zhe❄9쎯	-10.1952
feng❁8쎯fu❄36쎯,	-10.1953
mei❂30쎯	-10.1956
shi❄18쎯wu❄36쎯	-10.1958
jiang❄9쎯lie❄34쎯	-10.1963
pan❂4쎯	-10.1967
huo❄56쎯bi❄51쎯	-10.1969
,te❄5쎯bie❂4쎯	-10.1969
he❂52쎯lan❂13쎯	-10.197
bi❄117쎯	-10.197
fan❄17쎯zui❄11쎯	-10.1973
fu❄28쎯zong❃5쎯	-10.1974
ru❃2쎯	-10.1978
쎂ping❂17쎯fang❁4쎯	-10.1979
yi❁12쎯fa❃2쎯	-10.1981
san❃7쎯re❄1쎯	-10.1991
쎃nian❂6쎯	-10.1993
deng❃2쎯zhi❂32쎯	-10.1995
pan❁3쎯	-10.1996
wei❁12쎯yuan❂15쎯.	-10.2
jian❁25쎯qiu❁9쎯	-10.2001
zao❁7쎯	-10.2005
can❂19쎯	-10.2005
zhuan❄6쎯	-10.2005
mao❄18쎯	-10.201
.ju❁18쎯	-10.2015
mu❃2쎯,	-10.2016
bi	-10.2019
na❄11쎯you❃11쎯	-10.202
dan❄27쎯	-10.2022
dang❁4쎯nian❂6쎯	-10.2023
jie❄13쎯zhi❄104쎯	-10.2025
shi❂10쎯qi❁9쎯	-10.2027
ping❂30쎯guo❃3쎯	-10.2028
bao❄10쎯》	-10.2028
jin❄32쎯sheng❁3쎯	-10.2028
hong❂54쎯	-10.203
mi❄24쎯ma❃8쎯	-10.2033
(.)	-10.2034
deng❃2쎯zhi❂32쎯.	-10.2036
dun❄9쎯	-10.2043
fu❂43쎯shi❄99쎯	-10.2044
gu❃14쎯cheng❂17쎯	-10.2046
chong❂11쎯.	-10.2055
shan❁11쎯shi❄32쎯	-10.206
(쎃)	-10.2061
nao❄3쎯	-10.2065
feng❁58쎯wei❄18쎯	-10.2073
da❂14쎯jian❁25쎯	-10.2074
feng❄2쎯huang❂16쎯	-10.2074
hu❄36쎯	-10.2086
ban❄10쎯yan❃39쎯	-10.2096
,dai❄45쎯shu❃5쎯	-10.2098
long❂63쎯yan❂31쎯	-10.2104
bian❄16쎯li❄58쎯,	-10.2105
gang❁32쎯tie❃5쎯	-10.2106
jian❄29쎯cai❂3쎯	-10.211
.tong❂13쎯shi❂20쎯	-10.211
pu❃3쎯bian❄43쎯	-10.211
chang❄2쎯pian❁5쎯	-10.212
qiao❂6쎯	-10.2121
ben❃5쎯shen❁40쎯	-10.2123
shu❁8쎯ji❂81쎯	-10.2124
guai❄7쎯shou❄3쎯	-10.2124
wei❂21쎯	-10.2125
ke❁16쎯ji❄59쎯jin	-10.213
ge❄3쎯jie❄29쎯	-10.2135
shi❄18쎯qing❂6쎯	-10.214
zhu❄31쎯:“	-10.2142
qu❁15쎯na❄11쎯	-10.2145
쎁hao❂6쎯	-10.2147
:쎁.	-10.2153
yang❃4쎯	-10.2159
tan❃4쎯	-10.2162
tan❄8쎯	-10.2164
long❂63쎯tou❂4쎯	-10.2166
kun❁9쎯	-10.2169
yao❂32쎯	-10.2174
lin❂32쎯	-10.2176
jiao❄6쎯zuo❄7쎯	-10.2179
yang❃6쎯sheng❁16쎯	-10.2182
gang❁32쎯qin❂25쎯	-10.2183
gao❁20쎯ya❁7쎯	-10.2184
ran❂12쎯hou❄7쎯	-10.2195
te❄5쎯se❄29쎯de❅2쎯	-10.2195
tong❃9쎯zhi❄61쎯	-10.2198
ga❁1쎯fei❁3쎯	-10.22
qu❁15쎯bie❂4쎯	-10.2202
,ci❃2쎯	-10.2204
hen❃2쎯hao❃0쎯	-10.2205
hen❄1쎯	-10.2207
(쎁	-10.2212
yu❄104쎯	-10.2223
pi❁11쎯fa❁1쎯	-10.2229
xun❄26쎯	-10.223
yong❁33쎯	-10.2233
e❂45쎯	-10.2233
liu❄3쎯nian❂6쎯	-10.2235
an❁13쎯pai❂2쎯	-10.2236
/쎃	-10.224
chu❃3쎯	-10.224
zhong❁4쎯ji❂83쎯	-10.2242
you❂24쎯hua❄18쎯	-10.2242
ke❃4쎯jian❄62쎯	-10.2242
fei❄37쎯yong❄3쎯	-10.2243
gan❃6쎯qing❂6쎯	-10.2244
shao❄10쎯xing❄8쎯	-10.2245
”han❄20쎯“	-10.2248
shua❁1쎯	-10.2253
xiong❁4쎯	-10.2255
yi❄190쎯ren❂1쎯	-10.2264
shou❄9쎯quan❂12쎯	-10.2267
tui❄8쎯xiu❁9쎯	-10.2268
kou❃1쎯qiang❁24쎯	-10.2269
ㄢ	-10.227
pi❁12쎯zhen❁52쎯	-10.2271
te❄5쎯dian❃11쎯:	-10.2275
er❃6쎯·	-10.2278
ying❄9쎯jian❄15쎯	-10.2283
jia❁13쎯ju❁14쎯	-10.2285
쎁쎆쎀	-10.2285
an❄19쎯	-10.2286
쎁쎉쎄쎉nian❂6쎯	-10.2289
ba❁16쎯li❂98쎯	-10.229
xiao❃2쎯mai❄16쎯	-10.229
guo❂11쎯li❄141쎯	-10.2294
zhu❄35쎯	-10.2295
shen❄5쎯	-10.2302
fang❁4쎯zhen❁52쎯	-10.2305
hou❄7쎯ji❁47쎯	-10.2306
gui❃35쎯dao❄24쎯	-10.2307
wai❄0쎯yu❃44쎯	-10.2307
chu❁4쎯ji❁47쎯	-10.2309
쎁.쎂	-10.2311
zhong❁4쎯zhuan❁1쎯	-10.2317
cai❂3쎯zhi❄104쎯	-10.232
mian❄2쎯ji❁64쎯쎆	-10.2321
han❃11쎯jia❁13쎯	-10.2321
qu❁15쎯、	-10.2322
chong❁20쎯	-10.2323
qiao❂12쎯liang❂7쎯	-10.2325
shi❄71쎯jue❂104쎯	-10.2328
bi❄73쎯qiu❁9쎯,	-10.2336
쎁쎉쎀	-10.2339
ju❂23쎯、	-10.2339
wei❄22쎯	-10.234
xian❄61쎯zhi❄30쎯	-10.2341
zi❁45쎯zhi❄104쎯	-10.2343
xiang❂11쎯	-10.2348
.쎀쎉	-10.2353
xie❃8쎯ye❄44쎯	-10.2354
yue❄46쎯nan❂6쎯	-10.2354
,jing❁27쎯guo❄2쎯	-10.2356
zui❄4쎯chu❁4쎯	-10.2359
pin❁3쎯	-10.2359
jing❁27쎯yan❄75쎯,	-10.236
쎅ke❄6쎯	-10.236
jiao❄18쎯qu❁15쎯	-10.2364
ning❂10쎯xia❄6쎯	-10.2369
,duo❁5쎯	-10.237
shen❁18쎯du❄8쎯	-10.2372
//	-10.2375
tian❁5쎯de❅0쎯	-10.2376
zhen❃27쎯zhi❄61쎯	-10.2377
yang❂10쎯zhou❁9쎯	-10.2377
xi❁74쎯	-10.2378
쎂쎀쎀쎃	-10.2378
dai❄9쎯ma❃8쎯	-10.2378
dun❁4쎯	-10.2379
jian❄29쎯you❃11쎯	-10.2383
ben❄4쎯ji❁64쎯	-10.2387
ye❃1쎯bu❂0쎯	-10.2388
hu❂43쎯	-10.2389
,chang❂15쎯	-10.2393
yuan❃4쎯cheng❂52쎯	-10.2396
kuang❄12쎯wu❄36쎯	-10.2397
)ren❂1쎯.	-10.2398
mai❂5쎯	-10.24
hun❄10쎯	-10.2401
yi❂79쎯chuan❂4쎯	-10.2402
yi❄103쎯	-10.2403
hun❂10쎯	-10.2404
xun❄30쎯	-10.2405
jue❂92쎯dui❄14쎯	-10.2406
chan❃12쎯de❅2쎯	-10.2406
shui❄9쎯	-10.2408
쎁쎉쎆쎄nian❂6쎯	-10.2408
mei❃9쎯yi❁10쎯	-10.2412
ming❂7쎯jia❁13쎯	-10.2412
jing❁31쎯	-10.2413
yue❄46쎯lai❂16쎯	-10.2417
fang❁4쎯fa❃2쎯.	-10.2417
jin❄60쎯dai❄9쎯	-10.2422
sang❄0쎯	-10.2423
shao❄5쎯	-10.2425
ge❂54쎯	-10.2426
jiang❃16쎯	-10.2427
fan❄15쎯	-10.2429
jiu❄23쎯hui❄27쎯	-10.2431
gou❁12쎯tong❁5쎯	-10.2433
)、《	-10.2433
ying❂36쎯	-10.2439
shi❄45쎯:	-10.2439
ji❄121쎯	-10.2444
dui❄14쎯fang❁4쎯	-10.2455
ti❂36쎯cai❂3쎯	-10.2455
zhan❄10쎯guo❂11쎯	-10.2456
-쎈	-10.2456
cao❁3쎯	-10.246
zhuan❁1쎯ti❂36쎯	-10.2463
bu❂0쎯dao❄3쎯	-10.2464
쎁)	-10.2467
xi❁87쎯	-10.2469
chu❁3쎯shen❁40쎯	-10.2481
er❂16쎯cheng❂29쎯.	-10.2481
liu❂20쎯chuan❂4쎯	-10.2492
쎁쎉쎆쎃nian❂6쎯	-10.2496
.yin❁11쎯	-10.2497
bing❄12쎯ren❂1쎯	-10.2501
po❁12쎯	-10.2501
yao❁8쎯	-10.2504
diao❄17쎯yan❂50쎯	-10.2506
xue❁2쎯	-10.2508
yi❁10쎯zhi❁16쎯	-10.2509
guo❁26쎯zhong❁4쎯	-10.2509
,ti❂17쎯gao❁20쎯	-10.2511
gai❃2쎯jin❄61쎯	-10.2514
shang❄2쎯shu❁8쎯	-10.2514
hua❁11쎯hui❄31쎯	-10.2517
rong❂36쎯	-10.2525
lai❂16쎯dao❄3쎯	-10.253
qin❂28쎯	-10.253
yi❁13쎯shi❁11쎯,	-10.2532
u	-10.2533
mei❄5쎯	-10.2536
la❄20쎯	-10.254
,jian❃52쎯	-10.2543
guo❃3쎯shi❂13쎯	-10.2544
zhi❃40쎯	-10.2546
]	-10.2547
kong❁9쎯jun❁2쎯	-10.2547
zhao❄30쎯	-10.2548
mang❂29쎯	-10.2549
yuan❂12쎯zi❃7쎯	-10.2549
cheng❂52쎯shi❁11쎯	-10.2553
fen❁4쎯ju❂23쎯	-10.2555
ting❂5쎯che❁8쎯	-10.2558
.ta❁5쎯	-10.2562
di❄45쎯ba❁9쎯	-10.2564
32쎯	-10.2565
die❂47쎯	-10.2571
ye❄44쎯jing❁14쎯	-10.2571
ke❁34쎯	-10.2575
xin❁10쎯cheng❂17쎯	-10.2575
ye❂4쎯	-10.2576
zhi❂32쎯ze❂44쎯	-10.2577
jia❁13쎯.	-10.2579
tong❂13쎯bu❄28쎯	-10.2583
gong❁10쎯si❁16쎯、	-10.2587
yi❂38쎯chang❂15쎯	-10.2588
mo❂12쎯te❄5쎯	-10.2591
xue❂6쎯wei❄15쎯,	-10.2592
bu❂0쎯liang❂15쎯	-10.2593
.fen❁4쎯bu❄23쎯	-10.26
chang❄9쎯	-10.2601
ci❂35쎯	-10.2601
ce❄22쎯ding❄2쎯	-10.2602
si❁22쎯kao❃10쎯	-10.2608
xi❁71쎯	-10.2609
liao❄8쎯jiu❃12쎯	-10.261
na❄11쎯de❅2쎯	-10.2615
yan❃39쎯zou❄2쎯	-10.2616
yan❄25쎯	-10.2619
qing❁10쎯re❄1쎯	-10.2625
xi❃11쎯cheng❁10쎯,	-10.2629
tou❁0쎯	-10.2631
zhi❁44쎯	-10.2633
liu❂20쎯cheng❂52쎯	-10.2638
dang❃2쎯zu❃7쎯ch	-10.2638
쎁쎉쎇쎆nian❂6쎯	-10.2642
ban❄5쎯dao❃7쎯	-10.2643
bian❄16쎯jie❂42쎯	-10.2647
fu❄36쎯you❃11쎯	-10.2649
ning❂10쎯xian❄22쎯	-10.2654
xi❁107쎯	-10.2655
ye❃2쎯jin❁33쎯	-10.2656
san❁1쎯ji❂83쎯	-10.2658
shao❄10쎯	-10.266
shuai❄1쎯	-10.2661
qu❁49쎯	-10.2663
쎃ping❂17쎯fang❁4쎯	-10.2664
ban❁15쎯	-10.2671
.dang❁4쎯	-10.2676
song❄11쎯	-10.2677
mao❄39쎯	-10.2678
qu❁15쎯.	-10.2689
bu❄28쎯hang❂16쎯	-10.2691
yu❃24쎯zhou❄16쎯	-10.2692
lin❂25쎯	-10.2696
gong❃12쎯	-10.2696
ke❄14쎯yun❃16쎯	-10.2699
yin❃14쎯dao❃5쎯	-10.27
qu❃1쎯de❂7쎯le❅0쎯	-10.27
xue❂6쎯yuan❂15쎯	-10.2703
ye❃1쎯ke❃4쎯	-10.2703
zuo❄5쎯qiu❁9쎯	-10.2712
～쎁	-10.2713
ti❄21쎯	-10.2717
.xian❄37쎯	-10.2717
dou❁12쎯hui❄27쎯	-10.2719
di❁11쎯	-10.272
tong❂13쎯nian❂6쎯	-10.2728
tong❁5쎯hua❄26쎯	-10.2742
guan❃9쎯dao❄24쎯	-10.2743
ji❂57쎯wei❄14쎯	-10.2745
cao❃5쎯ben❃5쎯	-10.2745
zheng❄17쎯ming❂8쎯	-10.2747
qi❂111쎯	-10.2747
cai❃11쎯gou❄26쎯	-10.2752
mi❄24쎯feng❁17쎯	-10.2755
쎀mu❃2쎯,	-10.2758
jing❁24쎯mi❄24쎯	-10.2759
±	-10.2765
li❃26쎯mian❄2쎯	-10.2766
feng❁58쎯guang❁2쎯	-10.2771
tiao❁4쎯zhan❄10쎯	-10.2771
hai❃1쎯an❄13쎯	-10.2774
ai❄26쎯guo❂11쎯	-10.2777
ren❂4쎯zhi❂32쎯	-10.2777
sui❂8쎯	-10.2778
shi❂10쎯zi❄6쎯	-10.2785
san❃5쎯	-10.2787
su❄67쎯	-10.2787
쎄ping❂17쎯fang❁4쎯	-10.2791
dao❃5쎯dan❄21쎯	-10.2791
ge❄3쎯da❄0쎯	-10.2791
xian❄22쎯ren❂1쎯,	-10.2794
hu❄26쎯,	-10.2795
yan❄67쎯	-10.2804
bo❂52쎯	-10.2806
hua❂14쎯zhong❁4쎯	-10.2807
chai❂6쎯	-10.2808
yi❄113쎯zhi❄30쎯	-10.2812
ban❁20쎯fa❁1쎯	-10.2812
쎉쎁	-10.2813
bo❂40쎯	-10.2814
zai❄5쎯《	-10.2817
chi❂48쎯	-10.2819
zhao❃5쎯	-10.2821
diao❁23쎯ke❄7쎯	-10.2821
nan❂14쎯nv❃0쎯	-10.2822
li❄141쎯zu❂11쎯	-10.2823
yu❄113쎯dao❄3쎯	-10.2823
wo❃3쎯de❅2쎯	-10.2824
yue❄48쎯	-10.2826
yi❄144쎯	-10.2826
zong❁16쎯	-10.2834
yong❃8쎯	-10.2835
pi❂22쎯	-10.2837
,yuan❂12쎯ming❂7쎯	-10.2839
xiang❁26쎯wei❄18쎯	-10.284
gu❁25쎯	-10.2843
jia❄3쎯	-10.2845
chuan❁5쎯yue❄46쎯	-10.2845
guo❂11쎯yu❃44쎯	-10.2847
xia❄3쎯lai❂16쎯	-10.2848
gong❁17쎯xue❂6쎯	-10.2855
jue❂76쎯	-10.2855
dai❄38쎯kuan❃7쎯	-10.2857
gang❁24쎯	-10.2859
쎁쎉쎇쎀nian❂6쎯	-10.2865
xiu❄8쎯li❄50쎯	-10.2867
dian❄23쎯si❄15쎯	-10.287
zhang❃6쎯jian❁14쎯	-10.2872
.(	-10.2872
ao❁4쎯	-10.2875
xie❄54쎯	-10.2876
,fu❂94쎯you❃11쎯	-10.2877
xian❄63쎯	-10.2877
》duo❃23쎯zhi❄47쎯	-10.2881
zuo❄7쎯hao❃0쎯	-10.2884
:쎃	-10.2884
(jian❃52쎯	-10.2889
ji❃15쎯	-10.2891
xi	-10.2894
dang❃2쎯de❅2쎯	-10.2896
shi❄32쎯zhang❃6쎯	-10.2897
”(	-10.29
shang❃1쎯wang❃14쎯	-10.2902
liang❃5쎯ci❄16쎯	-10.2905
쎂쎅쎆	-10.2906
dan❄47쎯sheng❁16쎯	-10.2908
qing❁10쎯chao❂6쎯	-10.291
dao❄3쎯da❂30쎯	-10.291
nan❂14쎯ren❂1쎯	-10.2915
jian❁14쎯zhi❂32쎯	-10.2918
dao❄14쎯	-10.2919
chuan❂4쎯gan❃6쎯	-10.2919
)han❄20쎯	-10.292
shu❁44쎯song❄9쎯	-10.2921
zuo❃3쎯you❄14쎯,	-10.2921
xin❁10쎯hua❂14쎯	-10.2922
qin❁5쎯	-10.2923
fu❄26쎯	-10.2923
ting❃4쎯	-10.293
la❄23쎯shi❂13쎯	-10.2931
.”song❄4쎯	-10.2932
ge❃0쎯ge❂29쎯	-10.2934
you❃11쎯“	-10.2939
쎂쎀쎁쎂	-10.2941
fan❄28쎯dian❄13쎯	-10.2944
jiang❁5쎯qi❂29쎯	-10.2944
bao❁4쎯gua❁11쎯:	-10.2947
shen❁18쎯shou❄4쎯	-10.295
guo❁26쎯na❄11쎯	-10.2951
hui❁12쎯	-10.2956
bu❄38쎯jian❄15쎯	-10.2956
hou❄10쎯	-10.296
ban❃6쎯she❄22쎯:	-10.2963
yue❁0쎯:‘	-10.2964
ji❂52쎯xing❄13쎯	-10.2964
qian❁52쎯	-10.2964
---	-10.2969
qiang❃2쎯	-10.297
mian❄2쎯ji❁64쎯쎅	-10.297
yun❃16쎯zuo❄5쎯	-10.298
qi❂29쎯shi❂13쎯	-10.2994
xin❄8쎯yu❄105쎯	-10.2995
ju❄14쎯	-10.2996
xiu❁11쎯jian❄29쎯	-10.2996
wang❃14쎯ye❄65쎯	-10.2997
qi❁22쎯	-10.2997
wu❃9쎯gan❄3쎯	-10.2999
hou❄7쎯de❅2쎯	-10.3
min❂22쎯zheng❄12쎯	-10.3
nv❃0쎯ren❂1쎯	-10.3004
he❄23쎯se❄29쎯,	-10.3006
zhou❁5쎯ji❁47쎯	-10.3007
xin❁10쎯jian❄29쎯	-10.3009
yu❂34쎯	-10.3011
yi❄137쎯	-10.3012
shi❃6쎯yong❄3쎯.	-10.3016
ka❁2쎯	-10.3017
shen❁5쎯	-10.3024
|	-10.3024
,fen❁4쎯bie❂4쎯	-10.3027
mei❄24쎯li❄59쎯	-10.3028
,tong❂13쎯nian❂6쎯	-10.3029
bao❃9쎯liu❂28쎯	-10.3032
2쎯ji❄59쎯shu❂7쎯	-10.3032
ji❄35쎯	-10.3036
zi❁45쎯shen❁18쎯	-10.3037
chi❁23쎯jian❁25쎯	-10.305
chuan❂13쎯bo❂73쎯	-10.3052
wu❄36쎯chong❂11쎯	-10.3053
bu❂0쎯zhi❁31쎯	-10.3054
han❂25쎯gai❄17쎯	-10.3056
xin❁13쎯	-10.306
lun❂5쎯dun❁9쎯	-10.3063
jie❁13쎯shou❁1쎯	-10.3066
pan❄3쎯	-10.3066
shou❄5쎯	-10.3071
,cu❄9쎯jin❄61쎯	-10.3072
2쎯cun❁1쎯,shu❃5쎯	-10.3072
ying❃11쎯xiang❄4쎯	-10.3073
shou❄8쎯ming❄1쎯	-10.3073
.ming❂8쎯	-10.3077
xia❂13쎯	-10.3084
shu❃23쎯biao❁14쎯	-10.3085
ai❁1쎯	-10.3086
(쎂	-10.309
bei❄52쎯er❃6쎯	-10.309
jiao❄35쎯hao❃0쎯	-10.3095
sao❃3쎯miao❂5쎯	-10.3095
xia❄3쎯shu❃5쎯	-10.3096
yi❂20쎯biao❃5쎯	-10.3099
fang❄0쎯she❄8쎯	-10.3101
xiang❃3쎯	-10.3103
bu❂0쎯guo❄2쎯	-10.3105
xiao❃2쎯shuo❁2쎯《	-10.3108
ー	-10.311
xin❁7쎯zang❄4쎯	-10.3113
bian❄39쎯	-10.3115
bao❄29쎯	-10.3116
si❁16쎯ma❃14쎯	-10.312
peng❂37쎯	-10.3121
.hou❄7쎯	-10.3122
tang❄2쎯	-10.3123
yao❂55쎯	-10.3128
,shi❂13쎯xian❄37쎯	-10.3133
shuang❁11쎯	-10.3134
ing❂7쎯cheng❁28쎯:	-10.3137
qu❁40쎯shi❄22쎯	-10.3144
xing❄13쎯jiang❄9쎯	-10.3147
qi❃34쎯dian❃11쎯	-10.3147
chu❄17쎯.	-10.3148
huo❃0쎯ban❄3쎯	-10.315
diao❁23쎯su❄30쎯	-10.3153
mei❃13쎯hao❃0쎯	-10.3153
mu❃7쎯dan❁5쎯	-10.3155
ji❁37쎯	-10.3159
liu❂33쎯	-10.3159
bie❂4쎯ren❂1쎯	-10.316
zhen❄16쎯dong❄13쎯	-10.3162
zhi❃19쎯shu❄26쎯	-10.3164
.quan❂6쎯cun❁1쎯	-10.3167
hao❂6쎯:	-10.3168
yi❂28쎯	-10.317
zi❃7쎯·	-10.317
fo❂2쎯shan❁11쎯	-10.3172
yong❄3쎯fa❃2쎯	-10.3173
yi❂44쎯	-10.3173
ba❁16쎯xi❁143쎯	-10.3175
yang❂35쎯shi❄32쎯	-10.3175
he❂47쎯	-10.3175
song❄4쎯dai❄9쎯	-10.3183
yu❃38쎯	-10.3184
da❄0쎯zhan❄10쎯	-10.3187
ben❃3쎯	-10.3188
qing❁10쎯xin❁10쎯	-10.319
、xiao❃2쎯	-10.3191
yi❁10쎯xia❄3쎯	-10.3191
fang❂4쎯zhi❃22쎯	-10.3192
zhao❄18쎯ming❂8쎯	-10.3192
gan❄19쎯	-10.3196
xiang❁9쎯chuan❂4쎯	-10.3196
fen❁4쎯mi❄33쎯	-10.3198
xi❄46쎯tong❃9쎯、	-10.3202
』	-10.3203
bai❂2쎯tang❂28쎯	-10.3204
shi❂10쎯jiu❃3쎯	-10.3207
tai❄9쎯guo❂11쎯	-10.3207
liang❃5쎯nian❂6쎯	-10.3207
yuan❄9쎯	-10.3208
tao❃3쎯lun❄1쎯	-10.3218
jian❄62쎯yu❂35쎯	-10.3219
fan❁11쎯	-10.322
mei❂25쎯tan❄8쎯	-10.3221
ruo❄8쎯gan❁16쎯	-10.3223
shui❃0쎯fen❁4쎯	-10.3223
쎁쎉쎆쎅nian❂6쎯	-10.3224
wei❄18쎯jing❁24쎯	-10.3224
吗	-10.3227
yan❂37쎯shen❁5쎯	-10.3231
jiao❁20쎯shi❄31쎯	-10.3234
ge❄3쎯guo❂11쎯	-10.3235
쎃쎀쎀쎀	-10.3236
shi❁11쎯,	-10.3238
a❃0쎯	-10.324
re❄1쎯shui❃0쎯	-10.3242
an❄16쎯jian❄15쎯	-10.3244
chan❃12쎯pin❃0쎯.	-10.3248
han❂15쎯shou❄9쎯	-10.3249
bian❄19쎯xing❂11쎯	-10.3249
guan❁16쎯shang❃6쎯	-10.325
쎉쎀쎀	-10.3253
chi❂55쎯	-10.3259
zhi❄47쎯yuan❄10쎯	-10.3261
miao❂5쎯shu❄47쎯:	-10.3263
wang❃14쎯you❃9쎯	-10.3268
、da❄0쎯	-10.327
,yi❃15쎯	-10.3272
쎁쎉쎆쎂nian❂6쎯	-10.3272
ling❂95쎯	-10.3275
shao❄12쎯	-10.3275
ji❂114쎯》	-10.3281
zong❃5쎯xian❄47쎯	-10.3283
zhi❁13쎯cheng❁28쎯	-10.3283
;쎂	-10.3284
jian❃52쎯jie❄13쎯:	-10.3291
ling❂58쎯huo❂3쎯	-10.3292
hun❁7쎯	-10.3292
쎄、	-10.3296
wu❄36쎯pin❃0쎯	-10.3297
gu❄12쎯shi❄18쎯.	-10.3298
.xian❄37쎯you❃11쎯	-10.3301
wang❃7쎯wang❃7쎯	-10.3302
zha❂16쎯	-10.3308
-쎁쎀	-10.331
yu❃44쎯yin❁44쎯	-10.3314
zhu❂24쎯bu❄28쎯	-10.3317
tan❄3쎯	-10.3317
chu❁3쎯zi❄16쎯	-10.332
sheng❁16쎯li❃15쎯	-10.332
kao❃10쎯cha❂12쎯	-10.3321
bo❂41쎯lan❃28쎯	-10.3321
ping❂17쎯si❄15쎯.	-10.3322
chao❂6쎯yang❂35쎯	-10.3327
쎂)	-10.3328
liao❂	-10.333
han❃11쎯fang❂2쎯	-10.3331
jiao❁20쎯shi❁11쎯,	-10.3333
bi❃20쎯ya❄7쎯	-10.3336
chu❄17쎯fu❄28쎯	-10.3336
ming❂7쎯yu❄105쎯	-10.3338
you❄21쎯er❂7쎯wan❂	-10.3341
“wei❂11쎯chao❁6쎯”	-10.3341
》han❄20쎯《	-10.3343
xie❃8쎯ya❁7쎯	-10.3344
dan❄10쎯shi❄45쎯	-10.3345
、xi❁143쎯	-10.3349
.ru❂9쎯	-10.3349
shi❄32쎯min❂22쎯	-10.3354
,gao❁20쎯	-10.3355
쎁쎉쎇쎅nian❂6쎯	-10.3357
zuo❄5쎯zhe❃2쎯:	-10.336
he❂37쎯liu❂20쎯	-10.3361
shan❁11쎯de❅0쎯	-10.3364
zhang❃6쎯pian❁7쎯	-10.3366
xiao❁29쎯fang❂4쎯	-10.3366
duan❃0쎯xin❄8쎯	-10.3373
wu❂17쎯xian❄61쎯	-10.3376
shou❃6쎯xi❂12쎯	-10.3377
gui❄22쎯lin❂19쎯	-10.3381
jiao❁41쎯	-10.3386
ji❁48쎯,	-10.339
xu❁29쎯ni❃11쎯	-10.339
,xian❄37쎯wei❄14쎯	-10.3391
luo❂21쎯ji❂107쎯	-10.3392
jing❁24쎯ying❁44쎯	-10.3393
jie❁13쎯jin❄60쎯	-10.3393
xin❁24쎯	-10.3394
()、	-10.3397
쎇ping❂17쎯fang❁4쎯	-10.3398
shen❂2쎯hua❄26쎯	-10.34
zong❃5쎯ben❄4쎯	-10.3401
mo❂12쎯kuai❄14쎯	-10.3403
shi❄89쎯cha❁3쎯	-10.3404
ju❃16쎯	-10.3406
wu❃28쎯shu❂7쎯	-10.341
zheng❄12쎯cun❁1쎯,	-10.3411
you❂16쎯qi❂29쎯	-10.3412
da❄0쎯qi❃25쎯	-10.3413
xiao❁8쎯	-10.3414
fang❁4쎯yan❂61쎯	-10.3416
rui❄20쎯	-10.3417
ying❁11쎯	-10.3418
xuan❂11쎯zhuan❃4쎯	-10.3421
chu❄17쎯chu❄17쎯	-10.3422
zhi❄64쎯	-10.3422
jiang❁10쎯shi❄32쎯	-10.3426
gou❃2쎯jian❄29쎯	-10.3434
shui❃0쎯guo❃3쎯	-10.3438
:《	-10.3448
bie❂4쎯ming❂7쎯	-10.345
de❅0쎯dian❃11쎯	-10.3456
shang❃1쎯ji❂83쎯	-10.3456
fu❄32쎯ke❁16쎯	-10.3457
quan❂6쎯ben❄4쎯	-10.3458
xiu❁11쎯fu❄31쎯	-10.346
、bai❂2쎯	-10.3468
cun❁1쎯ren❂1쎯.	-10.3471
zuo❄5쎯pin❃0쎯.	-10.3472
dang❃3쎯	-10.3475
jing❁24쎯cai❃4쎯	-10.3477
chuang❁11쎯kou❃1쎯	-10.3482
xian❄22쎯ren❂1쎯.	-10.3488
huo❂3쎯dong❄13쎯.	-10.349
dong❄13쎯mai❄9쎯	-10.3493
tuo❂31쎯	-10.3496
jing❃23쎯cha❂12쎯	-10.3508
de❅2쎯fan❃3쎯	-10.3509
liu❂20쎯tong❁5쎯	-10.3509
xue❂6쎯xi❄46쎯	-10.351
쎁.쎀	-10.3513
ng	-10.3518
sao❃3쎯	-10.3521
쎅)	-10.3522
ling❄0쎯wai❄0쎯	-10.3523
zi❄16쎯hang❂16쎯	-10.3523
tai❁5쎯	-10.3524
shan❁11쎯mai❄9쎯	-10.3525
ti❁	-10.3525
ren❄30쎯zhen❁30쎯	-10.3529
chou❃1쎯	-10.3531
shi❁11쎯sheng❁16쎯	-10.3539
ao❄9쎯	-10.3541
mo❄16쎯yuan❂10쎯	-10.3543
hua❂14쎯nan❂6쎯	-10.3546
geng❃8쎯	-10.3547
shi❂13쎯ben❄4쎯	-10.355
hui❂1쎯dao❄3쎯	-10.3552
qian❁35쎯	-10.3552
tong❁5쎯su❂0쎯	-10.3555
fu❂43쎯wu❄12쎯,	-10.3555
dun❄11쎯	-10.3556
,jiu❄23쎯shi❄45쎯	-10.3557
he❁5쎯	-10.3559
feng❂17쎯	-10.3559
[	-10.3565
fan❁14쎯chao❃7쎯	-10.3565
》huo❄50쎯	-10.3569
dian❄23쎯xin❄8쎯	-10.3569
dian❄23쎯lan❃24쎯	-10.3572
fu❃24쎯	-10.3573
gan❃19쎯	-10.3573
zhu❃4쎯ying❂45쎯	-10.3574
qian❁13쎯nian❂6쎯	-10.358
xiang❁26쎯you❂24쎯	-10.358
chan❃12쎯xian❄47쎯	-10.3581
jiao❄35쎯jiang❄9쎯	-10.3581
ke❃4쎯gong❁9쎯	-10.3582
zong❁10쎯zhi❃20쎯,	-10.3584
qi❃34쎯,	-10.3586
xu❃19쎯ke❃4쎯	-10.3587
huo❃2쎯shan❁11쎯	-10.3589
yan❃42쎯jing❁19쎯	-10.3589
lan❂25쎯mu❄22쎯	-10.359
de❅2쎯mu❄22쎯de❅2쎯	-10.3594
kou❃1쎯wei❄18쎯	-10.3599
bian❄38쎯lv❄15쎯	-10.36
,zhe❄14쎯shi❄45쎯	-10.36
li❄98쎯	-10.36
shi❃8쎯shang❃1쎯	-10.3602
fang❂2쎯jian❁85쎯	-10.3604
rao❂9쎯	-10.3607
zong❃5쎯shu❄26쎯	-10.3612
gong❁19쎯	-10.3612
yue❁0쎯:“	-10.3615
.guo❂11쎯tu❃1쎯	-10.3619
sheng❁16쎯ya❂10쎯	-10.3624
mi❂37쎯	-10.3631
nian❂6쎯de❅2쎯	-10.3631
dang❁4쎯qian❂8쎯	-10.3635
yuan❁16쎯	-10.3638
dan❁9쎯wei❄15쎯,	-10.3639
.er❂16쎯	-10.3646
shi❄32쎯zheng❄12쎯	-10.3648
qu❄6쎯pi❂17쎯	-10.365
jian❄50쎯	-10.365
.쎃、	-10.3654
ke❁16쎯ji❂83쎯	-10.3659
jian❃52쎯jie❄13쎯	-10.3675
ji❁47쎯jian❁85쎯,	-10.3679
di❂41쎯zheng❄12쎯	-10.3686
you❁11쎯	-10.3689
ju❄18쎯qing❂6쎯	-10.3702
ju❄45쎯dao❄24쎯	-10.3708
tong❂13쎯yi❁10쎯	-10.3719
lao❃17쎯ren❂1쎯	-10.3721
lie❄34쎯shi❄28쎯	-10.3724
gong❁10쎯jin❁17쎯	-10.3724
ba❁9쎯nian❂6쎯	-10.3727
yi❁10쎯pian❁5쎯	-10.3727
cu❄9쎯	-10.3727
shu❄26쎯kong❄1쎯	-10.3727
zhang❃6쎯an❁13쎯	-10.3727
cao❃5쎯yuan❂12쎯	-10.3728
ji❄55쎯	-10.3735
qin❁16쎯	-10.3736
fen❁4쎯zhi❁21쎯	-10.3737
sun❃4쎯shang❁2쎯	-10.3738
쎅쎀ke❄6쎯	-10.3739
a❁2쎯	-10.3743
qi❁22쎯xi❁70쎯	-10.3749
di❂41쎯jian❄15쎯	-10.3751
jian❁25쎯shui❃0쎯	-10.3752
gu❁9쎯	-10.3755
fa❁1쎯bing❄12쎯	-10.3756
quan❂12쎯li❄58쎯	-10.3757
nan❂6쎯ning❂10쎯	-10.3757
쎉gan❄3쎯	-10.3763
ren❂1쎯kou❃1쎯쎃	-10.3766
mu❄15쎯ma❃14쎯	-10.3769
gan❃8쎯	-10.377
shen❁18쎯ke❄7쎯	-10.3774
dang❄12쎯	-10.3774
xuan❃8쎯shou❃4쎯	-10.3774
zhu❃4쎯xi❂12쎯.	-10.3777
rong❂33쎯yu❂35쎯	-10.3778
쎁쎀쎀%	-10.3778
jing❄30쎯sai❄4쎯	-10.3779
wen❃3쎯	-10.3781
ji❁21쎯nian❂6쎯	-10.3784
zha❁16쎯	-10.3784
yue❄56쎯	-10.3785
(ru❂9쎯	-10.3787
.쎃.	-10.3787
yin❃11쎯	-10.3788
zhe❂16쎯	-10.3789
gong❁17쎯wei❁12쎯	-10.3794
yue❄29쎯쎂쎅ri❄2쎯	-10.3795
,xi❁143쎯	-10.3795
shui❃0쎯zhong❁4쎯	-10.3805
you❃11쎯shi❂20쎯	-10.3806
geng❁6쎯shi❄45쎯	-10.3809
guan❄23쎯mu❄15쎯	-10.3822
yue❁1쎯쎂	-10.3823
niu❃4쎯	-10.3824
li❄62쎯dai❄9쎯	-10.3825
ji❁48쎯gou❃2쎯,	-10.3827
-쎇	-10.3829
wang❂5쎯chao❂6쎯	-10.3832
guan❁6쎯fang❁4쎯	-10.3836
chou❂12쎯	-10.3837
pei❄19쎯you❃11쎯	-10.3841
she❄13쎯	-10.3844
te❄5쎯chong❂11쎯	-10.3844
kao❃10쎯gu❃14쎯	-10.3852
bao❁2쎯	-10.3854
,zui❄4쎯hou❄7쎯	-10.3855
kun❄1쎯nan❂20쎯	-10.3861
yan❁33쎯si❄15쎯	-10.3863
mang❂15쎯	-10.3866
,ye❃1쎯ke❃4쎯	-10.3866
shi❄99쎯yan❃39쎯	-10.3867
ye❄44쎯ya❁7쎯	-10.3868
yan❂44쎯hai❃1쎯	-10.387
an❁18쎯ji❁34쎯	-10.387
yu❂127쎯lei❄16쎯	-10.3872
che❃7쎯cun❄2쎯:	-10.3872
gong❄9쎯xian❄35쎯.	-10.3875
“”	-10.3877
ma❃14쎯ke❄6쎯si❁2	-10.3879
qi❁9쎯nian❂6쎯	-10.388
rong❂33쎯ye❄44쎯	-10.3881
wei❄18쎯dao❄24쎯	-10.3883
tan❂21쎯	-10.3884
da❄0쎯fu❁13쎯	-10.3885
chao❂3쎯	-10.3891
yuan❂26쎯	-10.3894
shi❁11쎯zi❁45쎯	-10.3895
ji❄94쎯lu❄35쎯	-10.3897
zhu❃4쎯dao❃5쎯	-10.3899
guang❁2쎯qu❁49쎯	-10.39
jing❁24쎯xuan❃8쎯	-10.3904
lian❄22쎯xi❂9쎯	-10.3907
sou❁9쎯	-10.3907
쎀.쎃	-10.3907
.쎂쎀쎀쎆nian❂6쎯	-10.3911
bei❄48쎯cheng❁28쎯	-10.3912
di❄45쎯쎃	-10.3914
zhen❃27쎯	-10.3917
gang❃4쎯wei❄15쎯	-10.3919
you❂25쎯yong❃22쎯	-10.392
chong❁9쎯dian❄23쎯	-10.392
zhai❁2쎯	-10.392
mu❄13쎯	-10.3923
hu❂36쎯	-10.393
niu❂3쎯rou❄1쎯	-10.393
gu❄12쎯zhang❄19쎯	-10.3934
,quan❂6쎯	-10.3935
gao❁20쎯da❂30쎯	-10.3938
dun❁2쎯	-10.395
e❄9	-10.395
.쎁쎈	-10.3952
jia❄9쎯shi❃20쎯	-10.3954
wei❃48쎯	-10.3954
pi❄14쎯	-10.3956
zhi❁40쎯	-10.3958
xie❄55쎯	-10.396
se❄23쎯	-10.3961
fan❂35쎯zhi❂22쎯	-10.3963
jiao❁22쎯	-10.3964
-쎉	-10.3966
xing❄13쎯.	-10.3969
zhi❁21쎯dui❄33쎯	-10.3971
pi❁12쎯	-10.3977
you❃11쎯suo❃11쎯	-10.3977
jie❂27쎯	-10.3978
ran❂13쎯	-10.3982
xiao❃2쎯huo❃2쎯	-10.3985
tiao❁4쎯	-10.3986
yi❃10쎯qi❂29쎯	-10.3986
쎁쎀ke❄6쎯	-10.3987
mei❃9쎯tian❁5쎯	-10.3989
fu❁13쎯ren❂1쎯	-10.3993
en❁0쎯ju❁18쎯de❅0쎯	-10.4
kao❃10쎯bi❄126쎯	-10.4003
chu❄17쎯zhang❃6쎯	-10.4008
qi❃34쎯yuan❂34쎯	-10.4015
kan❃4쎯	-10.4018
ren❄30쎯ke❃4쎯	-10.4021
han❄38쎯jie❁13쎯	-10.4023
hen❃2쎯gao❁20쎯	-10.4027
gai❃2쎯ming❂7쎯	-10.4029
cha❁11쎯cao❂10쎯	-10.4029
fa❁1쎯da❂30쎯	-10.4029
wei❃14쎯da❄0쎯	-10.4029
shuang❁4쎯fang❁4쎯	-10.4036
lang❄4쎯man❄13쎯	-10.4042
gong❁9쎯dian❄23쎯	-10.4047
zhi❁44쎯ma❂8쎯	-10.4047
tu❁14쎯ran❂12쎯	-10.4047
nan❂14쎯xing❄13쎯	-10.405
zhao❁3쎯shang❁4쎯	-10.4051
shang❁2쎯hai❄8쎯	-10.4051
zhi❁16쎯neng❂2쎯	-10.4053
ao❄25쎯men❂19쎯	-10.4054
ze❂11쎯shi❄45쎯	-10.4055
xiang❁9쎯lin❂43쎯	-10.4056
hou❂11쎯	-10.4058
zui❄4쎯di❁9쎯	-10.4063
shi❁16쎯du❄8쎯	-10.4069
sui❄16쎯.	-10.407
dang❃2쎯zhi❁21쎯	-10.4071
9쎯guan❃9쎯li❃15쎯	-10.4073
pai❂2쎯ming❂7쎯	-10.4073
hen❂2쎯	-10.4083
yi❁10쎯ceng❂3쎯	-10.4093
》yi❁10쎯shu❁8쎯	-10.4096
bei❄55쎯	-10.4101
han❄29쎯	-10.4103
zhong❁4쎯nan❂6쎯	-10.4108
wei❁12쎯tuo❁6쎯	-10.4108
long❃12쎯	-10.4111
fang❁4쎯fa❃2쎯,	-10.4112
si❄17쎯ji❄46쎯	-10.4118
qu❁40쎯	-10.412
xi❄33쎯qu❁25쎯	-10.4121
ming❄1쎯yun❃16쎯	-10.4122
ying❃24쎯	-10.4122
tong❂13쎯shi❂20쎯,	-10.4125
miao❂5쎯xie❃4쎯	-10.4128
.yi❁10쎯ban❁15쎯	-10.4128
qi❄22쎯	-10.4131
ye❃7쎯sheng❁16쎯	-10.4132
cui❃3쎯	-10.4132
ming❂8쎯que❄26쎯	-10.4133
zong❃5쎯zhi❁21쎯	-10.414
di❄27쎯zi❃7쎯	-10.4151
ri❄2쎯bao❄10쎯	-10.4154
jing❄31쎯	-10.4154
zuo❄5쎯pin❃0쎯《	-10.4155
.xian❁18쎯hou❄7쎯	-10.4156
tuo❁8쎯	-10.4158
wei❁10쎯ji❁48쎯	-10.416
hou❄7쎯ren❂4쎯	-10.4166
bi❄144쎯	-10.4167
bi❃24쎯hua❄18쎯:	-10.4167
fen❁4쎯zhi❁22쎯	-10.4168
dun❄20쎯	-10.4169
bing❄12쎯、	-10.4169
yuan❂34쎯yu❂35쎯	-10.417
shang❃1쎯mian❄2쎯	-10.4186
jiang❃8쎯li❄60쎯	-10.4187
shan❁11쎯po❁2쎯	-10.4193
de❅2쎯tu❃1쎯de❅0쎯	-10.4195
쎁쎉쎇쎂nian❂6쎯	-10.4198
zong❃5쎯cai❂7쎯	-10.4199
mo❄16쎯ping❂17쎯	-10.42
sun❃4쎯shi❁8쎯	-10.4202
ji❁64쎯lei❃25쎯	-10.4202
yue❄29쎯쎂쎆ri❄2쎯	-10.4208
yi❁10쎯kuai❄14쎯	-10.4209
#	-10.4215
shui❃0쎯,	-10.4221
zhuan❃4쎯hua❁1쎯	-10.4223
bo❅0쎯	-10.4228
wai❄0쎯jiao❁8쎯	-10.4228
zu❃7쎯cheng❂29쎯,	-10.4229
yi❁10쎯jiu❃3쎯	-10.423
cheng❂30쎯bao❁4쎯	-10.423
jie❁13쎯rang❃3쎯	-10.4237
gen❁0쎯ben❃5쎯	-10.4238
han❃11쎯shang❁4쎯	-10.4241
tian❁5쎯wen❂5쎯	-10.4241
feng❁58쎯qing❂6쎯	-10.4247
che❄24쎯	-10.4248
che❁8쎯jian❁85쎯	-10.4255
zhan❃16쎯	-10.4256
,shi❄45쎯zhi❃19쎯	-10.426
jiang❄3쎯	-10.4262
,er❂16쎯shi❄45쎯	-10.4263
zhi❁21쎯fu❄24쎯	-10.4264
6쎯,	-10.4265
zhi❄30쎯yao❄12쎯	-10.4266
,si❄17쎯chuan❁2쎯	-10.4268
chan❃12쎯dang❃2쎯,	-10.4268
deng❃2쎯deng❃2쎯	-10.4269
ta❄26쎯zhan❃11쎯	-10.4271
cheng❁28쎯zhi❁13쎯	-10.4271
yong❄3쎯de❅0쎯	-10.4272
2쎯、	-10.4273
ben❄4쎯na❄11쎯	-10.4275
guo❂11쎯wang❂5쎯	-10.4276
yue❄29쎯쎁쎀ri❄2쎯	-10.428
yan❁27쎯	-10.4282
xi❃	-10.4284
shu❁8쎯yuan❄18쎯	-10.4291
lin❂53쎯	-10.4295
gong❁20쎯	-10.4298
qi❂117쎯quan❂6쎯,	-10.4303
yan❁34쎯	-10.4305
guan❄33쎯	-10.4307
jie❃6쎯shi❄89쎯:	-10.4312
(,)	-10.4313
dian❄23쎯ci❂22쎯	-10.4315
bo❂41쎯shi❄28쎯,	-10.4316
ji❄116쎯liang❂19쎯	-10.4316
shang❁4쎯chang❃4쎯	-10.4317
ren❄30쎯	-10.4324
yue❄29쎯쎁쎅ri❄2쎯	-10.4325
lu❄70쎯、	-10.4327
jing❁24쎯du❄8쎯	-10.4338
fen❁4쎯xiang❃3쎯	-10.434
ju❂23쎯bu❄38쎯	-10.4341
qing❂6쎯bao❄10쎯	-10.4342
yue❄29쎯쎃쎀ri❄2쎯	-10.4342
tai❄3쎯zi❃7쎯	-10.4342
guan❁16쎯ce❄22쎯	-10.4347
jiang❄9쎯hua❁1쎯	-10.4348
qian❁61쎯	-10.4349
cong❂6쎯er❂16쎯	-10.435
liao❂24쎯	-10.4351
cai❃11쎯ji❂114쎯	-10.4352
yi❁10쎯lei❄16쎯	-10.4356
hui❁40쎯huang❂28쎯	-10.4357
yi❁10쎯bai❃9쎯	-10.4358
ji❁80쎯fu❁39쎯	-10.4358
쎁쎉쎆쎇nian❂6쎯	-10.4359
tan❂30쎯	-10.4361
쎂쎀쎀쎄	-10.4362
sui❄16쎯de❅2쎯	-10.4367
da❄0쎯lou❂19쎯	-10.4371
shuo❄15쎯	-10.4372
zhu❃4쎯li❄59쎯	-10.4374
gai❁13쎯jiao❄18쎯	-10.4377
,zhi❄89쎯li❄59쎯	-10.4379
fu❄74쎯jian❄15쎯	-10.4381
liang❃5쎯da❄0쎯	-10.4383
.쎀쎈	-10.4386
wei❄14쎯:	-10.4386
ta❁6쎯shi❄45쎯	-10.4391
.gai❁13쎯cun❁1쎯	-10.4394
mei❃13쎯wei❄18쎯	-10.4395
xu❂1쎯zhou❁9쎯	-10.4399
qia❄9쎯	-10.4401
jiao❁8쎯hui❄60쎯	-10.4402
→	-10.4403
cheng❂13쎯	-10.4403
zuo❄12쎯la❄23쎯	-10.4403
le❅0쎯《	-10.4411
xian❄22쎯zhang❃6쎯	-10.4412
shi❁20쎯	-10.4423
yuan❂17쎯zhu❄26쎯	-10.4424
sh	-10.4424
jing❁24쎯xi❄50쎯	-10.4425
쎁쎁쎀	-10.4427
ji❄59쎯shu❂7쎯、	-10.4427
-쎀	-10.4427
chang❄9쎯xiao❁61쎯	-10.4428
yi❂58쎯nan❂20쎯	-10.4436
쎁쎀gan❄3쎯	-10.4438
hong❂44쎯wai❄0쎯	-10.4439
yu❄126쎯ce❄22쎯	-10.4439
li❄68쎯	-10.444
hou❂13쎯	-10.4441
lu❄70쎯xian❄47쎯	-10.4443
、huang❂56쎯	-10.4448
juan❁9쎯	-10.4452
zhuan❁1쎯ji❂107쎯《	-10.4452
yun❄7쎯	-10.4457
쎁쎉쎆쎈nian❂6쎯	-10.446
zhu❄31쎯ru❄2쎯	-10.446
kang❁6쎯fu❄31쎯	-10.4461
cun❁1쎯peng❂7쎯	-10.4462
rong❂21쎯ji❁64쎯	-10.4464
(yuan❂12쎯	-10.4464
xie❁5쎯	-10.4466
jie❁13쎯dai❁1쎯	-10.4466
zhuo❁8쎯	-10.4473
yin❃14쎯qing❂7쎯	-10.4478
fang❂4쎯hu❄30쎯	-10.4478
zhi❄47쎯》	-10.4479
(쎁).	-10.4483
zuo❄5쎯wu❄36쎯.	-10.4488
쎁쎉쎉쎉	-10.4489
ming❂7쎯qing❄14쎯	-10.449
tao❃3쎯	-10.4491
cha❁8쎯yi❂38쎯	-10.4493
wen❂5쎯lian❂53쎯	-10.4494
chu❁3쎯chu❄17쎯	-10.4494
yao❁19쎯qing❃9쎯	-10.4496
gang❃6쎯kou❃1쎯	-10.4497
bao❁5쎯zi❃7쎯	-10.4498
shou❃6쎯jia❁13쎯	-10.4507
ri❄2쎯zhi❄30쎯	-10.4511
yue❄29쎯쎁쎈ri❄2쎯	-10.4511
,jiang❁10쎯su❁10쎯	-10.4516
cheng❂38쎯	-10.4518
❃4쎯yao❁17쎯yi❃10쎯	-10.4521
jie❂67쎯jing❁14쎯	-10.4521
ou❁8쎯mei❃13쎯	-10.4521
shou❁1쎯ru❄2쎯zhu	-10.4522
bao❁7쎯	-10.4522
de❂9쎯·	-10.4526
you❁5쎯ya❃9쎯	-10.4527
,cai❃11쎯yong❄3쎯	-10.4531
huo❂3쎯dong❄13쎯,	-10.4536
wei❄14쎯yi❁10쎯	-10.4544
pu❃3쎯ji❂37쎯	-10.4548
xiang❁9쎯xin❄8쎯	-10.4553
『	-10.4555
lin❂20쎯	-10.4555
shu❄35쎯	-10.4556
rong❂21쎯na❄20쎯	-10.4557
xiang❃5쎯ying❁17쎯	-10.4559
tan❁18쎯	-10.456
wang❂5쎯guo❂11쎯	-10.456
liu❄3쎯shi❂10쎯	-10.4562
쎁쎉쎇쎇nian❂6쎯	-10.4566
yu❂35쎯쎁쎈	-10.4567
쎃ke❄6쎯	-10.4567
shi❄45쎯jing❁27쎯	-10.4567
yong❄3쎯zuo❄5쎯	-10.4568
ri❄2쎯ji❁47쎯	-10.4568
쎁쎉쎇쎄nian❂6쎯	-10.4569
쎁쎉쎆쎀nian❂6쎯	-10.457
sheng❃9쎯shi❄32쎯	-10.457
bu❂0쎯zai❄4쎯	-10.4577
da❄0쎯yue❁1쎯	-10.4577
zui❄4쎯xiao❃2쎯	-10.4577
,zhe❄9쎯jiang❁10쎯	-10.458
lian❂53쎯bang❁13쎯	-10.4583
chu❁3쎯se❄29쎯	-10.4584
xia❂21쎯	-10.4586
fa❃2쎯zhi❄30쎯	-10.4587
а	-10.4592
jing❁24쎯mei❃13쎯	-10.4606
shi❄45쎯dui❄14쎯	-10.4607
xu❄73쎯	-10.4607
lou❂19쎯、	-10.4609
ping❂17쎯si❄15쎯,	-10.4611
xing❄15쎯	-10.4611
jin❃24쎯mi❄24쎯	-10.4611
chong❂11쎯,	-10.4612
jia❁7쎯meng❂34쎯	-10.4617
ban❄11쎯jun❁3쎯	-10.4619
shi❄89쎯fang❄0쎯	-10.462
fen❁4쎯jiao❄18쎯	-10.4621
cha❁3쎯wu❄12쎯	-10.4623
xin❁7쎯ling❂58쎯	-10.4624
,zhi❃19쎯	-10.4627
shao❃2쎯liang❂19쎯	-10.4627
shen❁40쎯shang❃1쎯	-10.4629
yong❃21쎯yuan❃4쎯	-10.4629
mao❂11쎯ze❂24쎯	-10.463
kuan❁0쎯dai❄15쎯	-10.4633
ze❃쎯ma❅1쎯	-10.4634
de❅2쎯di❄45쎯	-10.4636
:zhi❁21쎯chi❂20쎯	-10.4636
lu❃4쎯	-10.4637
hou❄7쎯qin❂12쎯	-10.4637
you❄28쎯	-10.464
zhong❁4쎯yuan❂12쎯	-10.4641
guan❁16쎯nian❄4쎯	-10.4644
xin❁10쎯xing❄8쎯	-10.4647
쎅쎀쎀쎀	-10.4648
chai❁2쎯	-10.4656
zuo❄5쎯yong❄3쎯,	-10.4657
,zhi❁21쎯chi❂20쎯	-10.4661
xin❁10쎯xian❁57쎯	-10.4665
≤	-10.4668
xue❂6쎯jiao❄18쎯.	-10.4668
ke❃4쎯yong❄3쎯	-10.4669
da❄0쎯li❃15쎯	-10.4669
쎀hao❂14쎯mi❃19쎯	-10.467
di❄45쎯jiu❃3쎯	-10.4675
shan❁16쎯	-10.4678
ta❄26쎯	-10.468
bi❄145쎯mian❃10쎯	-10.4681
shi❁11쎯.	-10.4685
bian❁13쎯hao❂6쎯:	-10.4687
hua❁1쎯dan❄38쎯	-10.4687
ben❄4쎯de❅2쎯	-10.4691
wang❃14쎯shi❄45쎯	-10.4693
yu❄67쎯	-10.4693
yan❂46쎯、	-10.4695
fu❄48쎯bu❄38쎯	-10.4695
chen❄10쎯	-10.4695
tu❂28쎯liao❄8쎯	-10.4698
bian❁13쎯ju❄18쎯	-10.4701
shi❄18쎯,	-10.4703
zui❄4쎯jin❄60쎯	-10.4705
nong❂10쎯du❄8쎯	-10.471
shu❃5쎯xing❄13쎯	-10.4714
guan❁16쎯dian❃11쎯	-10.4715
bao❄15쎯fa❁1쎯	-10.4715
ren❂1쎯,lao❂11쎯	-10.4716
san❁1쎯chong❂11쎯	-10.4716
쎁쎉쎅쎇nian❂6쎯	-10.472
ma❃8쎯tou❂4쎯	-10.4724
ren❂1쎯qun❂6쎯	-10.4726
jun❁3쎯	-10.4727
,ru❂9쎯guo❃3쎯	-10.473
zhi❁16쎯yao❁17쎯	-10.4733
ping❂7쎯	-10.4735
xuan❁9쎯bu❄23쎯	-10.4736
guo❂11쎯hua❄18쎯	-10.474
qing❁10쎯xi❃11쎯	-10.4743
,shen❄11쎯zhi❄88쎯	-10.4745
lian❂69쎯zai❄8쎯	-10.4749
shi❂13쎯li❄51쎯	-10.4749
jiang❄9쎯diao❄17쎯	-10.4752
de❅0쎯zhi❃13쎯:	-10.4755
zhi❄47쎯·	-10.4755
hua❂14쎯bei❃2쎯	-10.4757
yue❄29쎯쎁쎆ri❄2쎯	-10.4759
guang❁2쎯pan❂10쎯	-10.476
shu❁8쎯zhong❁4쎯	-10.4761
ji❂94쎯	-10.4762
gan❄3쎯hang❂16쎯	-10.4762
ji❁34쎯du❁8쎯	-10.4768
lu❄70쎯,	-10.4769
yi❁11쎯si❁24쎯	-10.4769
ti❂17쎯qu❃1쎯	-10.4774
mian❄2쎯ji❁64쎯쎇	-10.4775
lian❂58쎯hua❁11쎯	-10.4775
shi❄71쎯jiao❃57쎯	-10.4777
“san❁1쎯	-10.4781
dan❁15쎯	-10.4786
쎁nian❂6쎯	-10.4787
yao❂22쎯	-10.4787
쎀～	-10.4789
ji❁74쎯	-10.479
leng❃쎯que❄11쎯	-10.48
wen❁6쎯xin❁26쎯	-10.48
lao❂23쎯	-10.4804
de❂7쎯ming❂7쎯.	-10.4805
ni❁쎯	-10.4808
cai❂9쎯fu❄36쎯	-10.481
쎁쎉쎆쎉nian❂6쎯	-10.481
.zi❄16쎯	-10.4811
zhu❃4쎯ji❁48쎯	-10.4812
sui❂6쎯	-10.4813
duo❁5쎯shao❃2쎯	-10.4814
xi❄50쎯jun❁15쎯	-10.4815
ling❂99쎯shou❄5쎯	-10.4817
mou❃2쎯yi❁10쎯	-10.4819
dui❄14쎯bi❃20쎯	-10.4819
chan❃12쎯zhi❂7쎯	-10.4822
pu❂19쎯sa❄13쎯	-10.4823
jie❄29쎯mian❄2쎯	-10.4825
feng❁21쎯	-10.4826
yu❄87쎯	-10.4832
na❃2쎯	-10.4833
xiang❁9쎯si❄10쎯	-10.4834
shu❄28쎯zhi❁43쎯	-10.4836
zhao❁3쎯pin❄1쎯	-10.4839
qi❄20쎯jian❄15쎯	-10.4839
.yi❃10쎯	-10.484
lai❂16쎯shuo❁2쎯	-10.4841
fu❂48쎯	-10.4844
쎁/쎂	-10.4847
qiu❁27쎯	-10.4851
wu❃9쎯jin❁33쎯	-10.4852
,ju❄65쎯xian❄22쎯	-10.4854
xuan❃8쎯yong❄3쎯	-10.4855
ren❂1쎯jian❁85쎯	-10.4856
yue❄29쎯쎁쎂ri❄2쎯	-10.4861
.쎅gong❁10쎯li❃26쎯	-10.4863
jing❁24쎯yan❂49쎯	-10.4863
huo❄44쎯	-10.4865
.zhe❄14쎯shi❄45쎯	-10.487
de❅0쎯shang❃1쎯	-10.4871
mou❃2쎯chong❂11쎯	-10.4871
yi❂42쎯zu❂9쎯	-10.4872
hen❃2쎯da❄0쎯	-10.4872
re❄1쎯qing❂6쎯	-10.4873
ren❄30쎯ding❄2쎯	-10.4877
chong❁10쎯ji❁22쎯	-10.4879
na❄20쎯mi❃19쎯	-10.4879
ta❄43쎯	-10.4879
chuan❂4쎯di❄58쎯	-10.4881
gao❃5쎯	-10.4882
a❁3쎯	-10.4883
tie❃5쎯dao❄24쎯	-10.4884
shi❂20쎯hou❄5쎯,	-10.4887
.ru❂9쎯guo❃3쎯	-10.4888
she❄29쎯ji❄116쎯,	-10.4891
(쎄	-10.4894
mo❃2쎯	-10.4895
jiao❁26쎯	-10.4897
jiao❁20쎯tang❂15쎯	-10.4899
tun❁1쎯	-10.4901
rang❄3쎯ren❂1쎯	-10.4903
lou❄	-10.4906
zhu❁29쎯duo❁5쎯	-10.4906
ke❁16쎯pu❃3쎯	-10.4909
.yong❄3쎯yu❂35쎯	-10.4916
quan❂17쎯zhou❁9쎯	-10.4916
zhu❄19쎯fang❂2쎯	-10.4917
fu❃28쎯shi❂32쎯	-10.492
peng❂7쎯cun❁1쎯	-10.4923
hua❂11쎯fen❁4쎯	-10.4924
suo❃11쎯xu❁37쎯	-10.4925
huo❂3쎯li❄59쎯	-10.4927
mian❄2쎯ji❁64쎯쎈	-10.4927
tao❂9쎯	-10.4931
qiu❂36쎯chang❃4쎯	-10.4931
sheng❁16쎯zhi❂22쎯	-10.4935
mao❄16쎯xian❃46쎯	-10.4935
fang❃15쎯	-10.4935
쎁쎉쎅쎀nian❂6쎯	-10.4937
xiao❁29쎯xi❁70쎯	-10.4938
zhu❄31쎯she❄8쎯	-10.4942
dian❃11쎯ji❁22쎯	-10.4944
gao❁20쎯kao❃10쎯	-10.4944
hu❄14쎯xiang❁9쎯	-10.4947
gu❄7쎯ben❄4쎯	-10.4947
の	-10.4947
yuan❂10쎯nian❂6쎯	-10.4954
rao❃1쎯	-10.4956
fu❄31쎯zhi❄30쎯	-10.4962
zhi❃20쎯	-10.4966
shi❁8쎯bai❄15쎯	-10.4966
,zhi❁16쎯	-10.4967
shan❁11쎯zhen❄30쎯	-10.4967
neng❂2쎯li❄59쎯.	-10.4971
yi❁10쎯ri❄2쎯	-10.4971
wan❃24쎯	-10.4971
na❃3쎯ma❅1쎯	-10.4976
qu❃1쎯chu❁3쎯	-10.4977
mo❄16쎯yu❂37쎯	-10.4977
쎀mo❄16쎯yuan❂10쎯,	-10.4978
er❄5쎯ci❄16쎯	-10.498
ku	-10.4983
ji❂58쎯	-10.4984
kong❃2쎯bu❄24쎯	-10.4984
a❁6쎯la❁7쎯bo❂37쎯	-10.4984
hui❁23쎯se❄29쎯	-10.4986
fan❁4쎯	-10.4987
쎁쎉쎉쎆	-10.4987
qian❂46쎯	-10.4988
jiao❁8쎯cha❁5쎯	-10.4991
min❃24쎯dong❁3쎯	-10.4992
wa❁10쎯	-10.4993
쎃쎂쎀	-10.4998
gan❁25쎯cao❃5쎯	-10.5004
cheng❂29쎯yu❃44쎯	-10.5006
qian❂8쎯wang❃7쎯	-10.5006
hu	-10.5007
jian❁52쎯guan❃9쎯	-10.501
nong❂10쎯yu❄115쎯	-10.5011
huang❂34쎯jia❁13쎯	-10.5014
○	-10.5017
yue❄29쎯쎂쎇ri❄2쎯	-10.5023
wu❄36쎯ben❄4쎯	-10.5024
qing❁10쎯ji❂67쎯	-10.5027
zhi❃19쎯shi❄60쎯	-10.5028
jiang❁16쎯	-10.5029
pei❂3쎯yu❄93쎯	-10.5033
gao❁20쎯yuan❂12쎯	-10.5036
쎁쎉쎇쎃nian❂6쎯	-10.5037
shi❄18쎯ji❄120쎯	-10.5038
qi❄20쎯cai❂3쎯	-10.5039
bao❁9쎯	-10.5039
nv❃0쎯hai❂6쎯	-10.504
zong❃5쎯ju❂23쎯	-10.5042
yue❄29쎯쎂쎀ri❄2쎯	-10.5043
wei❁10쎯hai❄8쎯	-10.5043
,gong❄3쎯you❃11쎯	-10.5047
ti❄	-10.5049
qiu❁9쎯ji❁74쎯	-10.505
teng❂9쎯tong❄3쎯	-10.505
zhi❁21쎯cheng❁15쎯	-10.5053
ン	-10.5054
du❃11쎯	-10.5055
luo❂18쎯xuan❂11쎯	-10.5055
pi❁7쎯	-10.5055
5쎯,	-10.5058
,nian❂6쎯	-10.5063
e	-10.5068
ze❃쎯yang❂17쎯	-10.5068
shui❃0쎯dian❄23쎯	-10.5069
,quan❂6쎯cun❁1쎯	-10.5071
su❄58쎯	-10.5071
you❂25쎯ke❄14쎯	-10.5078
nan❂6쎯xian❄22쎯	-10.5081
kong❃2쎯	-10.5083
jing❁14쎯ben❄4쎯	-10.5091
hou❄6쎯du❄8쎯	-10.5096
쎁쎉쎅쎅nian❂6쎯	-10.5098
san❁1쎯xing❁7쎯	-10.5099
jia❁7쎯yi❃10쎯	-10.5103
diao❄17쎯ru❄2쎯	-10.5108
xian❁57쎯ming❂8쎯	-10.5109
....	-10.5109
mi❄24쎯qie❁1쎯	-10.5111
.ta❁6쎯shi❄45쎯	-10.5111
tong❂13쎯xue❂6쎯	-10.5112
bu❃11쎯chong❁9쎯	-10.5115
fan❂26쎯	-10.5115
jing❁27쎯xiao❁61쎯	-10.5118
(ji❂35쎯	-10.5119
gong❄3쎯fen❁4쎯	-10.5124
ji❂83쎯bie❂4쎯	-10.5127
jing❄30쎯	-10.513
쎁ping❂17쎯fang❁4쎯	-10.5136
bu❄38쎯fen❁4쎯.	-10.514
chang❂15쎯zhou❁9쎯	-10.514
쎁쎉쎆쎆nian❂6쎯	-10.5141
shi❄31쎯,	-10.5144
nian❂6쎯,	-10.5147
lei❄16쎯bie❂4쎯:	-10.5149
he❄23쎯	-10.5149
dan❄21쎯xing❄13쎯	-10.515
nian❃	-10.5153
쎁쎉쎅쎂nian❂6쎯	-10.5153
liao❂24쎯xiao❄14쎯	-10.5155
dun❁9쎯	-10.5159
qi❄43쎯	-10.5163
rong❂43쎯	-10.5165
ji❂35쎯jiang❁5쎯	-10.5166
shi❃9쎯jian❄29쎯y	-10.5166
si❄15쎯bei❃2쎯	-10.5166
μ	-10.5166
hu❂26쎯	-10.5168
ai❃12쎯	-10.5169
ke❁16쎯shi❄31쎯	-10.5171
jie❃6쎯du❂17쎯	-10.5172
guan❁16쎯guang❁2쎯	-10.5175
geng❁6쎯wei❄14쎯	-10.518
ze❂44쎯	-10.5188
huo❂3쎯yue❄48쎯	-10.5189
run❄4쎯gu❃28쎯	-10.519
huo❄56쎯yun❃16쎯	-10.5191
rong❂21쎯qi❄20쎯	-10.5191
dai❄9쎯xie❄84쎯	-10.5192
si❄47쎯liao❄8쎯	-10.5192
쎉쎀%	-10.5193
fa❁1쎯zhan❃11쎯.	-10.5193
쎁쎉쎅쎉nian❂6쎯	-10.5197
fang❂4쎯yu❄40쎯	-10.5197
hao❃0쎯ping❂36쎯.	-10.5198
wei❄14쎯ben❃5쎯	-10.5205
hao❃0쎯ping❂36쎯	-10.5209
,쎀쎀쎀	-10.521
chao❁17쎯shi❄32쎯	-10.5211
shu❁8쎯.	-10.5212
쎃gong❁10쎯li❃26쎯	-10.5213
.쎂쎀쎀쎈nian❂6쎯	-10.5214
gong❁10쎯wu❄12쎯	-10.5218
xi❁135쎯	-10.522
yong❁14쎯	-10.5221
zhang❄5쎯	-10.5222
wei❂41쎯	-10.5224
xie❄37쎯	-10.5225
ye❃1쎯cheng❁28쎯	-10.5225
,bu❂0쎯duan❄4쎯	-10.5226
ji❁48쎯chuang❂6쎯	-10.5227
ke❁16쎯fu❄28쎯	-10.5229
zhang❄18쎯	-10.5232
ge❁6쎯	-10.5232
pin❄1쎯	-10.5233
gao❁13쎯	-10.5234
yin❂12쎯	-10.5235
shen❂2쎯ji❁36쎯	-10.5236
yuan❄18쎯shi❄28쎯	-10.5237
쎃)	-10.524
yue❄29쎯쎂쎃ri❄2쎯	-10.5247
re❄1쎯ai❄26쎯	-10.5248
2쎯xi❄46쎯	-10.525
lv	-10.5254
bei❃2쎯song❄4쎯	-10.5254
nan❂20쎯yi❃10쎯	-10.5255
bai❂2쎯yun❂4쎯	-10.5255
jiao❁36쎯	-10.5255
dai❁1쎯ji❁48쎯	-10.5256
jue❂96쎯	-10.526
chang❄1쎯dao❃5쎯	-10.526
hun❁4쎯yin❁14쎯	-10.5261
hu❄26쎯shu❄26쎯	-10.5261
shi❄18쎯xiang❄24쎯	-10.5262
zhao❁3쎯sheng❁16쎯	-10.5263
guan❁4쎯xin❁7쎯	-10.5264
hou❄7쎯zai❄5쎯	-10.5265
shen❃7쎯ding❄2쎯	-10.5265
yin❁44쎯xiang❁11쎯	-10.5266
shen❁18쎯hou❄6쎯	-10.5267
de❅2쎯hao❃0쎯	-10.5268
,sui❄42쎯	-10.5268
ji❄94쎯jian❃36쎯	-10.5269
lun❄1쎯shu❄47쎯	-10.5273
shou❃4쎯fa❃2쎯	-10.5276
.쎀쎃	-10.5285
shao❄5쎯jian❁25쎯	-10.5286
●	-10.5286
zi❃7쎯、	-10.5287
gao❁20쎯shan❁11쎯	-10.5288
쎉-	-10.529
shu❁8쎯ji❄117쎯;	-10.5292
.쎀쎁	-10.5293
fen❁4쎯qu❁15쎯	-10.5296
xi❃1쎯ju❄18쎯	-10.5296
bu❄21쎯	-10.5297
bi❃17쎯	-10.5298
gei❃1쎯yu❂34쎯	-10.5298
xiang❁26쎯gu❁25쎯	-10.53
piao❁4쎯	-10.5302
yun❃7쎯xu❃19쎯	-10.5306
chu❁3쎯yan❃39쎯	-10.5309
yan❃39쎯yuan❂15쎯,	-10.531
lei❄16쎯bie❂4쎯	-10.5312
ke❄6쎯si❁24쎯	-10.5314
쎂gong❁10쎯li❃26쎯	-10.5317
ji❁48쎯hui❄27쎯	-10.5323
shan❁11쎯、	-10.5323
.you❂29쎯	-10.5326
kui❂10쎯	-10.5327
she❄29쎯ding❄2쎯	-10.5327
ping❂17쎯xian❄22쎯	-10.533
zhu❁16쎯rou❄1쎯	-10.5332
quan❂6쎯qu❁15쎯	-10.5338
bian❁13쎯zhao❂쎯	-10.534
yi❁10쎯zhang❁4쎯	-10.5343
,ta❁6쎯shi❄45쎯	-10.5343
,hou❄7쎯lai❂16쎯	-10.5345
zhi❂7쎯de❂7쎯	-10.5346
guan❁16쎯yin❁44쎯	-10.5346
bie❂4쎯ming❂7쎯:	-10.5347
yu❂118쎯	-10.5349
xi❄46쎯shu❄26쎯	-10.535
wen❄6쎯ti❂36쎯,	-10.535
ben❄4쎯zhang❃6쎯	-10.5352
zhu❃4쎯ban❃5쎯	-10.5353
ma❃14쎯lai❂16쎯	-10.5355
zhu❃4쎯xi❂12쎯,	-10.5361
chun❂13쎯	-10.5361
zhong❁4쎯xin❁7쎯.	-10.5362
ji❁48쎯xiang❁11쎯	-10.5363
mian❄2쎯ji❁64쎯쎂	-10.537
pin❂15쎯lv❄15쎯:	-10.5373
mo❄16쎯ren❂1쎯	-10.5381
min❂22쎯su❂0쎯	-10.5385
jin❁17쎯	-10.5386
fei❃3쎯	-10.5386
yue❄29쎯쎂쎁ri❄2쎯	-10.5393
yu❂61쎯	-10.5394
chuang❂5쎯	-10.5395
44쎯	-10.5397
nai❃0쎯zhi❄88쎯	-10.5397
zuo❄7쎯dao❄3쎯	-10.5398
shui❄11쎯shou❁1쎯	-10.5399
se❄29쎯ze❂24쎯	-10.5402
shu❃8쎯	-10.5404
쎁쎉쎅쎄nian❂6쎯	-10.5404
쎅쎁쎂	-10.5406
”zhi❁13쎯	-10.5408
yi❁10쎯ke❁34쎯	-10.5408
yu❄35쎯	-10.5408
li❄62쎯cheng❂52쎯	-10.541
zhong❁4쎯xing❂9쎯	-10.5412
la❁7쎯si❁24쎯	-10.5414
fa❁1쎯song❄9쎯	-10.5416
ting❃9쎯	-10.5417
dang❁4쎯jin❁10쎯	-10.5419
jia❁7쎯su❄70쎯	-10.5419
chen❁13쎯ji❁64쎯	-10.542
nong❂5쎯chang❃4쎯	-10.542
shu❁23쎯niu❃9쎯	-10.5421
gong❁11쎯lv❄15쎯:	-10.5423
쎅gong❁10쎯li❃26쎯	-10.5424
xiao❃2쎯chi❁8쎯	-10.5425
,zhang❃6쎯	-10.5428
,ni❃6쎯	-10.543
nan❂6쎯hai❃1쎯	-10.5434
ju❄18쎯qiu❂19쎯	-10.5436
qi❃25쎯xi❁70쎯	-10.544
.wei❄14쎯le❅0쎯	-10.5442
qian❃14쎯	-10.5446
ping❂36쎯shen❃7쎯	-10.545
zhang❄2쎯	-10.545
ling❂7	-10.5451
shang❃1쎯sheng❁3쎯	-10.5457
,shan❁11쎯dong❁3쎯	-10.5458
쎁쎀쎀ke❄6쎯	-10.5458
,yin❁11쎯er❂16쎯	-10.5459
ying❂58쎯	-10.546
bian❁13쎯hao❂6쎯	-10.546
ming❂8쎯chao❂6쎯	-10.546
shun❄11쎯li❄58쎯	-10.5462
.쎂쎀쎀쎉nian❂6쎯	-10.5462
、shui❃0쎯	-10.5463
you❁5쎯dian❃11쎯	-10.5463
yue❄29쎯쎂쎉ri❄2쎯	-10.5466
qiu❂	-10.5467
jie❁15쎯	-10.5467
zhen❃14쎯	-10.5471
cha❂17쎯xun❂42쎯	-10.5472
shou❃6쎯fu❃14쎯	-10.5474
shen❃7쎯pan❄2쎯	-10.5475
쎁.쎈	-10.5477
ji❁7	-10.5479
zhi❂20쎯wu❄36쎯.	-10.5479
kan❁5쎯	-10.5481
yuan❂10쎯nian❂6쎯(	-10.5483
쎀mu❃2쎯	-10.5484
qing❁10쎯·	-10.5485
lv❃9쎯	-10.5485
.”tang❂13쎯	-10.5486
nan❂6쎯song❄4쎯	-10.5493
,you❄13쎯ming❂7쎯	-10.5499
gong❁11쎯neng❂2쎯:	-10.55
ma❁0쎯ma❁0쎯	-10.55
guan❄33쎯chuan❁5쎯	-10.5502
zhu❄59쎯zao❄16쎯	-10.5509
rui❄12쎯shi❄28쎯	-10.5509
shi❄18쎯shi❂13쎯	-10.551
na❄11쎯han❂25쎯	-10.5512
miao❂5쎯hui❄79쎯	-10.5516
fu❄72쎯	-10.5518
le❄3쎯qi❄20쎯	-10.5519
쎁쎀nian❂6쎯	-10.5521
kuang❁9쎯	-10.5522
chu	-10.5524
pai❂2쎯shui❃0쎯	-10.5528
wu❁9쎯	-10.553
zhi❁13쎯zhong❁4쎯	-10.5532
쎉ping❂17쎯fang❁4쎯	-10.5533
xing❂11쎯huo❄27쎯	-10.5534
zhang❃6쎯yu❂35쎯	-10.5539
nian❂15쎯	-10.5542
zhuan❄9쎯ke❄7쎯	-10.5543
na❃3쎯gan❄3쎯	-10.5544
liang❃5쎯an❄13쎯	-10.5546
mei❂25쎯kuang❄12쎯	-10.5546
zhen❃12쎯	-10.5547
gui❄41쎯yang❂35쎯	-10.5548
.쎁쎀	-10.5549
chuan❁2쎯xian❄22쎯	-10.555
xi❃1쎯ai❄26쎯	-10.5552
《zhong❁4쎯hua❂14쎯	-10.5555
bu❄38쎯ji❂83쎯	-10.5557
쎆)	-10.5558
yuan❄18쎯fu❄28쎯	-10.5558
quan❄2쎯	-10.5563
fan❃4쎯hui❂1쎯	-10.5564
tan❃4쎯ke❄6쎯	-10.5565
jin❁15쎯	-10.5566
meng❃1쎯	-10.5569
bao❃9쎯xiu❁11쎯	-10.557
de❅0쎯dai❄15쎯	-10.557
na❄11쎯she❄29쎯	-10.5573
ju❂23쎯zhang❃6쎯、	-10.5575
mian❄2쎯ji❁64쎯쎁쎀	-10.5578
jian❄29쎯guo❂11쎯	-10.558
zhe❁4쎯	-10.5586
xian❄37쎯yi❃15쎯	-10.5589
zhi❄30쎯pian❁5쎯	-10.5592
fan❄22쎯wei❂11쎯:	-10.5594
da❄0쎯huo❃2쎯	-10.5594
(쎁쎉쎂	-10.5595
quan❂6쎯shen❁40쎯	-10.5595
she❄29쎯bei❄26쎯,	-10.5597
:쎄	-10.5601
(huo❄27쎯	-10.5606
ban❃6쎯)	-10.561
shang❃1쎯ying❄7쎯	-10.5612
xiao❁29쎯chu❂42쎯	-10.5612
yu❄95쎯	-10.5614
shao❃2쎯jiang❁5쎯	-10.5615
shi❂19쎯	-10.5616
,nan❂6쎯	-10.5621
pian❁7쎯,	-10.5621
),fu❂60쎯jian❄29쎯	-10.5633
wen❄6쎯ti❂36쎯.	-10.5648
쎁쎉쎇쎁nian❂6쎯	-10.5648
dan❄30쎯	-10.565
yue❄29쎯쎂쎂ri❄2쎯	-10.5651
zhi❁13쎯,	-10.5653
;쎃	-10.5661
xi❄70쎯	-10.5662
na❄11쎯de❅0쎯	-10.5662
쎀.쎈	-10.5663
쎄.쎅	-10.5664
쎁쎉쎄쎅nian❂6쎯	-10.5667
.쎁쎁	-10.5669
zhi❁13쎯lu❄70쎯	-10.5676
chan❂40쎯	-10.5677
da❄0쎯chen❂26쎯	-10.5678
zhuan❃4쎯bian❄19쎯	-10.568
yue❄29쎯쎅ri❄2쎯	-10.568
yue❄29쎯쎁쎉ri❄2쎯	-10.5682
,yuan❂12쎯	-10.5684
hui❄9	-10.5685
li❃17쎯pin❃0쎯	-10.5692
yi❁10쎯dui❄14쎯	-10.5698
kun❁4쎯	-10.5698
er❂16쎯cheng❂29쎯,	-10.5698
jia❁13쎯xiang❁1쎯	-10.57
qiu❂19쎯wei❁12쎯	-10.57
쎂쎀쎁쎄nian❂6쎯	-10.57
de❅0쎯yu❄31쎯	-10.57
liao❂29쎯	-10.5703
ye❃2쎯	-10.5706
zang❄4쎯	-10.5708
xu❄32쎯	-10.5708
dai❄9쎯ti❄21쎯	-10.5711
qi❃34쎯dao❄3쎯	-10.5712
hua❂14쎯qiao❂6쎯	-10.5712
cuo❄18쎯wu❄44쎯	-10.5713
fan❄12쎯	-10.5717
ba❄21쎯	-10.5717
zha❄	-10.5719
sheng❃9쎯、shi❄32쎯	-10.5723
deng❁10쎯chang❃4쎯	-10.5725
p	-10.5726
shu❃5쎯de❅2쎯	-10.5728
xi❁46쎯	-10.573
》juan❃1쎯	-10.5739
yuan❂10쎯jian❄15쎯	-10.5741
jing❁27쎯》	-10.5747
eng❁16쎯chan❃12쎯、	-10.5755
xiao❁29쎯shi❁8쎯	-10.5757
fang❁4쎯xing❂11쎯	-10.5759
huo❄26쎯	-10.5759
,gen❁0쎯ju❁18쎯	-10.576
40쎯	-10.576
pin❂12쎯kun❄1쎯	-10.576
,nai❃0쎯	-10.5762
huan❂20쎯rao❄2쎯	-10.5764
mei❂47쎯	-10.5769
35쎯	-10.577
9쎯,	-10.5771
yue❄29쎯쎈ri❄2쎯	-10.5773
yu❂67쎯	-10.5773
ming❂7쎯ci❂29쎯	-10.5774
shu❃14쎯	-10.5776
dong❁3쎯lu❄70쎯	-10.5777
nan❂6쎯lu❄70쎯	-10.5783
쎂쎄xiao❃2쎯shi❂20쎯	-10.5785
ji❁21쎯shi❂10쎯	-10.5785
쎂、	-10.5789
liao❂24쎯fa❃2쎯	-10.5791
qiu❂36쎯yuan❂15쎯	-10.5792
shuo❄7쎯	-10.5796
dui❄14쎯ying❁17쎯	-10.5796
mo❄16쎯li❄62쎯	-10.5801
zhu❃4쎯dong❄13쎯	-10.5801
duo❃23쎯jiao❁8쎯	-10.5803
)(	-10.5803
li❃15쎯shi❄18쎯.	-10.5808
tong❁5쎯zhi❁31쎯	-10.5808
dan❁9쎯qu❁25쎯	-10.5812
ceng❂3쎯,	-10.5814
ke❄6쎯,	-10.5818
da❄0쎯duo❁5쎯	-10.5818
ya❄29쎯	-10.5818
suo❃11쎯zhang❃6쎯	-10.582
fa❁1쎯chu❁3쎯	-10.5822
chou❄2쎯	-10.5827
nan❂6쎯tong❁5쎯	-10.5828
na❄11쎯,	-10.5828
“zhong❁4쎯guo❂11쎯	-10.5831
.쎂쎀쎀쎇nian❂6쎯	-10.5837
hu❄26쎯xing❂9쎯	-10.5838
ju❄18쎯yuan❄18쎯	-10.584
che❁8쎯cheng❂52쎯	-10.5842
xiang❄20쎯.	-10.5843
chan❃12쎯yu❂35쎯	-10.585
-쎀쎁	-10.5855
shi❂20쎯ji❁47쎯,	-10.5855
na❄28쎯	-10.5859
쎁쎉쎅쎃nian❂6쎯	-10.5867
chang❃4쎯de❅0쎯	-10.5871
dui❄14쎯cheng❁28쎯	-10.5871
le❄3쎯qiu❂19쎯	-10.5873
.xian❄37쎯zai❄5쎯	-10.5873
zhi❃19쎯nan❂6쎯	-10.5877
rui❄12쎯dian❃5쎯	-10.5877
die❁4쎯	-10.5879
bing❁6쎯zai❄5쎯	-10.588
zai❄5쎯yu❂35쎯	-10.5883
yu❂96쎯	-10.5883
2쎯shi❁11쎯.	-10.5883
yan❂49쎯qiu❁9쎯	-10.5884
cai❂9쎯chan❃12쎯	-10.5888
de❅0쎯qu❁15쎯.	-10.5889
fen❁4쎯jie❃6쎯	-10.589
쎅～	-10.5891
wan❁7쎯qu❁25쎯	-10.5892
zhu❃4쎯xi❂12쎯、	-10.5893
、dian❄23쎯zi❃7쎯	-10.5894
bei❃2쎯hai❃1쎯	-10.5898
bian❄19쎯de❂7쎯	-10.5902
chu❁3쎯pin❃0쎯	-10.5903
,bian❄16쎯	-10.5905
feng❁58쎯shi❁16쎯	-10.5906
yan❄43쎯	-10.5906
yan❂41쎯	-10.5908
cun❁1쎯xia❂39쎯	-10.5914
yue❄29쎯쎂쎄ri❄2쎯	-10.5914
huang❂34쎯hou❄7쎯	-10.5917
chu❁3쎯xie❃8쎯	-10.5921
,쎁쎈	-10.5924
jing❁24쎯shen❂2쎯,	-10.5928
bo❁10쎯chu❁3쎯	-10.5929
lan❂28쎯	-10.593
jia❁13쎯zhang❃6쎯	-10.593
jing❁24쎯zhi❄89쎯	-10.5931
xiang❄6쎯shang❃1쎯	-10.5932
qian❁13쎯mi❃19쎯	-10.5934
wan❂11쎯	-10.5934
jiu❁19쎯cuo❄18쎯	-10.5937
hao❂6쎯xian❄47쎯	-10.5937
,xia❄3쎯	-10.5937
kou❃1쎯,	-10.5939
ni❂	-10.594
xue❂6쎯ming❂7쎯	-10.594
cun❁1쎯ren❂1쎯	-10.5946
jiao❁20쎯wei❁12쎯	-10.5948
shang❃1쎯you❂25쎯	-10.5949
wei❄34쎯	-10.5956
wo❁	-10.5959
lu❄35쎯》	-10.596
yue❄29쎯쎆ri❄2쎯	-10.5961
kong❃1쎯zi❃7쎯	-10.5964
yi❃10쎯wai❄0쎯	-10.5967
쎁ren❂1쎯,	-10.5968
huan❂20쎯jie❂69쎯	-10.5968
duo❁5쎯wei❄14쎯	-10.5969
lie❄20쎯ru❄2쎯	-10.5971
zhi❄30쎯leng❃쎯	-10.5975
guan❃15쎯、	-10.5976
shan❃12쎯	-10.5976
zhou❁5쎯nian❂6쎯	-10.5979
mu❄15쎯cai❂3쎯	-10.5981
dian❃5쎯ya❃9쎯	-10.5983
zai❃5쎯	-10.5983
yi❄109쎯wai❄0쎯	-10.5984
shang❄2쎯wei❄26쎯	-10.5988
qu❁25쎯xian❄47쎯	-10.5989
ke❁16쎯yuan❄18쎯	-10.5991
ren❂1쎯qi❃25쎯	-10.5999
❂1쎯	-10.5999
pu❁3쎯	-10.5999
❃1쎯	-10.6004
tu❂38쎯jing❄17쎯	-10.6004
.ci❃2쎯wai❄0쎯,	-10.6005
tong❂13쎯ming❂7쎯	-10.6005
ji❁48쎯shen❁40쎯	-10.6005
jin❄61쎯shi❄28쎯	-10.6006
jian❁19쎯	-10.6006
liu❂20쎯shui❃0쎯	-10.6012
chan❃12쎯de❅0쎯	-10.6016
xin❁13쎯shang❃6쎯	-10.6016
wu❂17쎯shu❄26쎯	-10.6021
zan❄5쎯	-10.6021
.jiu❃12쎯dian❄13쎯	-10.6021
yuan❂3	-10.6022
qi❃34쎯ren❂4쎯	-10.6024
xue❂6쎯de❅2쎯	-10.6025
jia❁13쎯wan❂5쎯	-10.6026
쎁.쎆	-10.6026
ji❁80쎯rou❄1쎯	-10.6026
yi❁10쎯jie❄19쎯	-10.6027
qi❄20쎯de❅2쎯	-10.6028
zuo❄7쎯le❅0쎯	-10.603
lai❂16쎯de❅2쎯	-10.6031
wang❂5쎯zi❃7쎯	-10.6032
,wei❄14쎯le❅0쎯	-10.6035
qing❂8쎯	-10.6036
kao❃10쎯he❂35쎯	-10.6036
nin❂5쎯de❅2쎯	-10.6037
ying❄9쎯hua❁1쎯	-10.6037
mei❂27쎯gui❁24쎯	-10.6039
쎅nian❂6쎯	-10.604
tou❂5쎯ying❃11쎯	-10.6042
ju❃	-10.6043
fan❁11쎯jia❁30쎯	-10.6047
can❂17쎯ji❂75쎯	-10.6049
3쎯,	-10.605
jin❁33쎯gang❁7쎯	-10.6052
yu❄36쎯	-10.6052
xi❁143쎯lu❄70쎯	-10.6054
guan❁4쎯xi❄46쎯.	-10.6055
er❂7쎯zi❃7쎯	-10.6056
cheng❁10쎯hua❁1쎯	-10.6058
jin❁33쎯jiang❃8쎯	-10.6059
kong❁9쎯zhong❁4쎯	-10.6061
yue❄29쎯쎁쎁ri❄2쎯	-10.6062
gong❁23쎯du❂34쎯	-10.6064
shan❁11쎯cun❁1쎯	-10.6066
fan❁15쎯	-10.6066
.”ming❂8쎯	-10.6069
tu❃1쎯dou❄18쎯	-10.607
han❂25쎯	-10.6075
ju❂27쎯	-10.6075
shan❁23쎯hu❂38쎯	-10.6077
miao❂7쎯zu❂9쎯	-10.6078
xia❄3쎯you❂25쎯	-10.6081
fen❁11쎯wei❂11쎯	-10.6082
5	-10.6083
о	-10.6085
cun❁1쎯.	-10.609
쎄쎈쎀	-10.6092
ca❁4쎯	-10.6093
xu❁	-10.6097
da❄0쎯li❄59쎯	-10.6099
tong❃3쎯	-10.6103
57쎯	-10.6108
쎉yue❄29쎯zhi❄88쎯	-10.6108
ting❃12쎯	-10.6109
bao❁4쎯guo❃11쎯	-10.611
.zhi❃19쎯	-10.6114
yue❄29쎯쎁쎇ri❄2쎯	-10.6116
fan❂35쎯ce❄33쎯	-10.612
peng❂26쎯	-10.612
kou❃1쎯jing❄17쎯	-10.6122
cheng❂30쎯ban❄4쎯	-10.6124
,nong❂5쎯min❂22쎯	-10.6131
ji❄63쎯	-10.6134
w	-10.6135
da❄0쎯men❂19쎯	-10.6138
,zuo❄9쎯la❄23쎯	-10.6141
zong❁16쎯se❄29쎯	-10.6142
zhen❁25쎯gui❄41쎯	-10.6144
hou❄7쎯wei❄16쎯	-10.6147
deng❃2쎯gong❁11쎯	-10.6151
yan❂20쎯jin❃29쎯	-10.6153
ying❂45쎯zao❄16쎯	-10.6162
yue❄29쎯쎉ri❄2쎯	-10.6163
yi❁10쎯tian❁5쎯	-10.6164
wei❃	-10.6165
wei❄14쎯nin❂5쎯	-10.6167
쎁쎉쎉쎅	-10.6168
-쎁쎈	-10.6168
,shen❁18쎯shou❄4쎯	-10.617
ding❃11쎯ji❂83쎯	-10.617
hu❄26쎯wai❄0쎯	-10.6172
tian❁5쎯shi❃6쎯	-10.6173
.쎁、	-10.6173
ren❂1쎯zai❄5쎯	-10.6177
hua❁11쎯niao❃17쎯	-10.6177
,jie❁23쎯	-10.618
r	-10.618
.쎂쎀쎁쎀nian❂6쎯	-10.6187
yu❃41쎯mao❂11쎯	-10.6188
fen❁17쎯	-10.6189
쎁쎉쎃쎈nian❂6쎯	-10.6189
gong❁11쎯de❅2쎯	-10.6198
yao❂42쎯	-10.6198
zhen❁30쎯kong❁9쎯	-10.62
pan❄2쎯duan❄4쎯	-10.6203
nu❂1쎯	-10.6204
ba❁9쎯shi❂10쎯	-10.6204
쎂hao❂6쎯	-10.6211
bi❄61쎯yao❁17쎯	-10.6213
lin❂7쎯shi❂20쎯	-10.6216
dao❃7쎯yu❃26쎯	-10.6216
ke❁16쎯yuan❂15쎯	-10.6217
deng❃2쎯deng❃2쎯.	-10.6224
zheng❄12쎯wei❁12쎯	-10.6229
쎁쎂쎅	-10.6229
jian❁85쎯de❅2쎯	-10.6233
nv❃0쎯er❂7쎯	-10.6234
xun❄28쎯	-10.6234
zhu❃4쎯liu❂20쎯	-10.6235
2쎯zhuan❁1쎯qiu❁9쎯	-10.6238
ran❃11쎯se❄29쎯	-10.6241
qian❁39쎯yue❁1쎯	-10.6243
jun❄18쎯	-10.6246
nian❂6쎯qian❂8쎯	-10.6247
fu❄32쎯chan❃12쎯	-10.6248
fu❄31쎯dan❄27쎯	-10.6248
reng❂4쎯ran❂12쎯	-10.625
cheng❂29쎯xing❂9쎯	-10.6252
yi❄68쎯yuan❂10쎯,	-10.6257
jiang❃19쎯jie❃6쎯	-10.6257
shu❁8쎯,	-10.6258
zou❁8쎯	-10.6259
wei❂28쎯fang❁2쎯	-10.6261
kui❁	-10.6262
lin❂7쎯yi❂54쎯	-10.6262
quan❂6쎯cheng❁28쎯	-10.6262
쎁xiang❄24쎯	-10.6262
mian❄2쎯shang❃1쎯	-10.6262
zhong❁4쎯zui❄4쎯	-10.6263
,ji❁34쎯bu❄38쎯	-10.6263
sui❄16쎯shi❂20쎯	-10.6266
xin❁17쎯pian❁5쎯:	-10.627
ji❄48쎯sheng❁16쎯	-10.627
ru❄2쎯kou❃1쎯	-10.6271
fei❃	-10.6273
yan❂50쎯tao❃3쎯	-10.6275
ge❃0쎯zi❁45쎯	-10.6275
ren❂1쎯xing❄13쎯	-10.6276
fang❂4쎯huo❃2쎯	-10.6279
bu❄38쎯,	-10.628
quan❂12쎯yi❄165쎯	-10.628
ding❄2쎯dian❃11쎯	-10.6281
ran❂13쎯shao❁8쎯	-10.6282
gao❁20쎯qing❁10쎯	-10.6283
shi❄45쎯ji❂114쎯	-10.6284
meng❂40쎯	-10.629
shan❄25쎯tou❂4쎯	-10.6291
chou❂20쎯	-10.6294
ao❄25쎯	-10.6297
deng❃2쎯jiang❃8쎯,	-10.6299
shi❃6쎯de❂7쎯	-10.6301
yi❁12쎯kao❄5쎯	-10.6301
lang❂12쎯	-10.6303
◎	-10.6304
you❂29쎯ci❃2쎯	-10.6308
hai❃1쎯guan❁4쎯	-10.6309
jiao❁20쎯shi❁11쎯.	-10.6311
,ji❁64쎯ji❂57쎯	-10.6314
hua❁11쎯ban❄13쎯	-10.6315
fa❂19쎯men❂19쎯	-10.6315
쎁쎉쎃쎅nian❂6쎯	-10.6317
ju❄57쎯ji❂114쎯	-10.6321
guan❁6쎯yuan❂15쎯	-10.6331
guang❁2쎯dian❄23쎯	-10.6332
yao❁17쎯su❄56쎯	-10.6334
쎈쎀nian❂6쎯dai❄9쎯	-10.6334
zi❁15쎯	-10.6334
lan❃28쎯	-10.6335
zhao❄24쎯	-10.6335
qi❂61쎯	-10.6336
zhan❄16쎯	-10.634
zhai❃2쎯	-10.6345
xian❂44쎯	-10.6345
fa❂4쎯	-10.6345
xi❁143쎯yang❂19쎯	-10.6346
beng❁9쎯	-10.6349
쎃쎆쎀	-10.6353
hai❃1쎯ba❂11쎯쎂	-10.6354
mei❃13쎯nv❃0쎯	-10.6358
li❄1	-10.636
xin❁10쎯ying❃24쎯	-10.6363
suo❃11쎯zhi❄89쎯	-10.6364
you❃11쎯li❄59쎯	-10.6366
bei❄26쎯yong❄3쎯	-10.6368
jia❁13쎯yong❄3쎯	-10.6373
wai❄0쎯bu❄38쎯	-10.6374
50쎯	-10.6376
yi❃24쎯	-10.6377
쎁쎀쎈	-10.6378
fa❁1쎯jiao❄36쎯	-10.6385
xie❄43쎯	-10.6389
xiu❄	-10.639
que❄26쎯	-10.6392
xi❄46쎯,	-10.6392
,zhu❄31쎯ce❄11쎯	-10.6393
su❂0쎯cheng❁28쎯	-10.6394
gan❃10쎯lan❃17쎯	-10.6394
jing❁27쎯mao❄39쎯	-10.64
.쎂쎀쎀쎅nian❂6쎯	-10.64
ge❂54쎯ming❄1쎯g	-10.6402
yuan❂12쎯you❃11쎯	-10.6404
shi❂13쎯shi❂20쎯	-10.6405
쎈)	-10.6409
yong❄3쎯shui❃0쎯	-10.6414
da❄0쎯de❅0쎯	-10.6417
jie❂67쎯hun❁4쎯	-10.6419
she❄29쎯bei❄26쎯、	-10.6421
wu❁	-10.6422
kuang❁9쎯jia❄5쎯	-10.6422
hai❃1쎯shang❃1쎯	-10.6422
li❄58쎯run❄4쎯	-10.6424
qi❃25쎯wen❁6쎯	-10.6425
chu❄29쎯	-10.6427
feng❄3쎯xian❄35쎯	-10.6431
zong❄12쎯guang❁8쎯	-10.6433
쎁쎉쎃쎆nian❂6쎯	-10.6434
и	-10.6436
zhi❂16쎯fa❃2쎯	-10.644
ling❂58쎯hun❂21쎯	-10.644
kui❂21쎯	-10.6442
han❄43쎯	-10.6443
2쎯zhu❃4쎯cha❁3쎯	-10.6445
han❃15쎯	-10.6446
쎅、	-10.6449
yan❃30쎯	-10.6451
----	-10.6452
,xian❄37쎯yi❃15쎯	-10.6454
ru❂1	-10.6455
cong❂6쎯qiu❁9쎯	-10.6455
쎈hao❂6쎯	-10.6456
cang❁7쎯	-10.6456
yue❄29쎯쎁쎄ri❄2쎯	-10.6459
tang❂28쎯niao❄2쎯	-10.6459
、fu❄28쎯	-10.646
bei❃2쎯lu❄70쎯	-10.646
쎀쎀mu❃2쎯,	-10.6462
쎁쎉쎃쎄nian❂6쎯	-10.6466
zhong❁19쎯yu❂35쎯	-10.6468
쎁쎉쎉쎃	-10.6468
jin❄38쎯pao❁5쎯	-10.6468
sui❄46쎯dao❄24쎯	-10.6474
you❄2	-10.6476
xiang❁9쎯ji❁48쎯	-10.6476
쎁쎉쎆쎁nian❂6쎯	-10.6479
hong❂44쎯qi❂46쎯	-10.6484
han❄33쎯zu❂9쎯,쎁쎉쎆	-10.6484
yu❄126쎯suan❄3쎯	-10.6487
wu❄36쎯zi❁45쎯	-10.6489
mei❃9쎯ri❄2쎯	-10.6492
bai❂2쎯cai❄5쎯	-10.6493
zheng❁22쎯shi❄45쎯	-10.6495
zi❃17쎯	-10.6498
yin❁30쎯	-10.6501
shou❂쎯xi❁71쎯	-10.6502
yi❂61쎯min❂22쎯	-10.6504
zhuang❄5쎯.	-10.6505
ci❂29쎯hui❄60쎯	-10.6506
gui❄41쎯zu❂9쎯	-10.651
guang❁2쎯gu❃28쎯	-10.6512
zhi❃37쎯	-10.6513
zhu❃4쎯zhang❁4쎯	-10.6513
ke❃4쎯xuan❃8쎯	-10.6515
xia❄3쎯jiang❄25쎯	-10.6517
쎁쎄쎀	-10.6517
zong❃5쎯li❃15쎯	-10.6519
shu❄20쎯	-10.6522
da❁12쎯pei❄19쎯	-10.6523
zhong❁19쎯duan❁4쎯	-10.6524
qi❂5	-10.6524
tu❂20쎯	-10.6525
mo❄16쎯dun❁2쎯	-10.6527
luo❄24쎯	-10.6528
dian❁19쎯	-10.6529
chou❂28쎯	-10.6531
yi❂20쎯shi❄33쎯	-10.6537
),shi❄45쎯	-10.6537
han❄33쎯zi❄6쎯	-10.6539
shi❄32쎯ren❂1쎯	-10.654
zhen❁25쎯zhu❁17쎯	-10.6542
yue❁1쎯쎃	-10.6543
chao❂8쎯liu❂20쎯	-10.6546
qiu❁8쎯ling❂98쎯	-10.6546
suo❃11쎯zuo❄5쎯	-10.6547
tou❂4쎯,	-10.6547
huo❄50쎯qu❃1쎯	-10.6549
suo❁15쎯xie❃4쎯	-10.6549
쎃ci❄16쎯	-10.6549
shi❁8쎯qu❄6쎯	-10.655
zai❁4쎯hai❄8쎯	-10.6554
shi❂10쎯jia❁5쎯	-10.6556
쎅쎀쎀ke❄6쎯	-10.6557
bu❂0쎯yong❄3쎯	-10.6557
mo❄22쎯xi❁143쎯ge❁	-10.6559
tuo❂	-10.6561
-쎂쎀	-10.6567
bai❃9쎯yu❂37쎯	-10.657
na❃3쎯li❃26쎯	-10.6571
niu❃9쎯	-10.6572
hei❁3쎯bai❂2쎯	-10.6578
xian❁39쎯	-10.6578
ju❂23쎯zhang❃6쎯.	-10.6581
xu❄43쎯	-10.6585
fan❃3쎯dui❄14쎯	-10.6588
zao❄6쎯	-10.659
mo❄16쎯yuan❂10쎯,	-10.6594
liang❂19쎯:쎁	-10.6597
”cheng❁28쎯hao❂6쎯	-10.6598
쎂쎀쎀쎂	-10.66
.wo❃3쎯们	-10.6604
shui❃0쎯xian❄22쎯	-10.6608
hao❃0쎯,	-10.6611
shou❄9쎯yu❂34쎯“	-10.6614
tou❂4쎯bu❄38쎯	-10.6614
zai❁1쎯	-10.6616
bian❁22쎯	-10.6617
shui❃0쎯chan❃12쎯	-10.6617
hu❄26쎯,you❃11쎯	-10.6622
yu❃44쎯:	-10.6625
she❄22쎯ke❁16쎯	-10.6626
men❄9쎯	-10.663
ming❂8쎯qing❁10쎯	-10.6631
쎁쎂gan❄3쎯	-10.6631
zhi❃20쎯zai❄5쎯	-10.6636
zong❃5쎯gong❁17쎯	-10.6638
qing❂6쎯jie❂69쎯	-10.6638
you❃11쎯xian❄47쎯	-10.6642
쎁쎃쎀	-10.6644
.gen❁0쎯ju❁18쎯	-10.6649
zhu❁17쎯hai❃1쎯	-10.6649
쎁쎂쎀쎀	-10.6649
쎁쎅ke❄6쎯	-10.6651
ding❄2쎯zhi❄30쎯	-10.6652
쎁쎉쎄쎁nian❂6쎯	-10.6655
shuo❁2쎯shi❄45쎯	-10.6656
su❄67쎯song❄7쎯	-10.6657
feng❁58쎯yun❂4쎯	-10.6659
zai❄5쎯jin❁10쎯	-10.6661
yao❂32쎯gun❃8쎯	-10.6673
shu❄26쎯bai❃9쎯	-10.6673
de❂7쎯yi❃10쎯	-10.6674
jie❁32쎯ji❂83쎯	-10.6674
guang❁2쎯ze❂24쎯	-10.6676
que❁0쎯fa❂4쎯	-10.6677
nie❄42쎯	-10.6683
zhuan❁1쎯zhi❂32쎯	-10.6685
nan❂6쎯chao❂6쎯	-10.6686
dui❄14쎯shou❃4쎯	-10.6688
-쎁쎂	-10.6692
zu❃5쎯guo❂11쎯	-10.6694
hu❂47쎯hu❄46쎯	-10.6695
li❄59쎯,	-10.6698
yi❁10쎯xian❄47쎯	-10.6699
yue❄29쎯쎁쎃ri❄2쎯	-10.6699
yue❄29쎯쎃ri❄2쎯	-10.6701
hui❄27쎯zhan❃11쎯	-10.6703
bian❄43쎯bu❄23쎯	-10.6704
huang❂56쎯se❄29쎯,	-10.6706
zi❁23쎯	-10.671
yin❃31쎯cang❂5쎯	-10.671
deng❃2쎯zhan❄17쎯	-10.6711
쎀쎀쎀	-10.6712
pei❄19쎯fang❁4쎯	-10.6713
qiu❁9쎯yu❂37쎯	-10.6716
tiao❂9쎯li❄51쎯	-10.6716
can❃4쎯	-10.6718
xin❁25쎯	-10.6723
su❄70쎯lv❄15쎯	-10.6723
ze❂19쎯	-10.6726
쎁gan❄3쎯cun❁1쎯min	-10.6732
.quan❂6쎯shu❁8쎯	-10.6734
yu❂88쎯	-10.6736
heng❁0쎯	-10.6737
shang❃1쎯bu❄38쎯	-10.6742
shui❃0쎯mian❄2쎯	-10.6742
wei❂38쎯chi❂20쎯	-10.6743
lao❁0쎯chu❁3쎯	-10.6744
ta❁3쎯ren❂1쎯	-10.6745
qin❄10쎯	-10.6745
fang❂4쎯shui❃0쎯	-10.6749
xi❄46쎯.	-10.6751
wu❂17쎯lun❄1쎯	-10.6757
di❄58쎯	-10.6758
쎁쎉쎄쎈nian❂6쎯	-10.6759
rong❂50쎯zi❁45쎯	-10.6764
niao❃17쎯lei❄16쎯	-10.6764
쎁쎉쎃쎃nian❂6쎯	-10.6766
ta❁5쎯们	-10.6768
chan❃12쎯、	-10.6769
.zuo❄5쎯wei❄14쎯	-10.6769
le❄16쎯	-10.6769
zong❃5쎯jian❁52쎯	-10.6769
shang❃1쎯shu❄47쎯	-10.6772
dong❁5쎯ji❄46쎯	-10.6774
nuo❄14쎯mi❃19쎯	-10.6776
qian❁13쎯ke❄6쎯	-10.6777
li❄63쎯	-10.678
쎃쎀ke❄6쎯	-10.6782
deng❃2쎯duo❁5쎯	-10.6784
wai❄0쎯ke❂0쎯	-10.6786
mian❄2쎯ji❁64쎯쎁	-10.6788
xun❄1	-10.6789
쎃쎅쎀	-10.6792
jing❁24쎯zhan❄16쎯	-10.6793
pei❂12쎯	-10.6793
bei❁5쎯	-10.6795
huang❂56쎯gua❁16쎯	-10.6797
yi❁10쎯mian❄2쎯	-10.6797
yan❃1	-10.6798
.wei❄15쎯yu❂35쎯	-10.68
wei❄16쎯shi❄71쎯	-10.6802
zi❁21쎯bo❂41쎯	-10.6803
yuan❂17쎯zhui❁6쎯	-10.6809
an❃52쎯cheng❁28쎯	-10.6813
zhi❂25쎯li❄141쎯	-10.6813
:쎉	-10.6814
min❂22쎯ban❄4쎯	-10.6816
jin❁18쎯tie❁5쎯	-10.6816
yi❁10쎯chu❄17쎯	-10.6821
han❄2	-10.6823
neng❂2쎯li❄59쎯,	-10.6825
chu❄17쎯fang❁4쎯	-10.6825
ben❃5쎯zhao❁6쎯	-10.6829
shan❄22쎯	-10.683
xuan❃8쎯ju❃4쎯	-10.6832
shi❄15쎯jia❁13쎯	-10.6833
diao❄17쎯liao❄8쎯	-10.6834
,bi❄73쎯qiu❁9쎯	-10.6837
mei❃16쎯	-10.6837
ke❃10쎯	-10.684
feng❁58쎯shan❁13쎯	-10.684
gui❁35쎯zhang❁13쎯	-10.6841
yi❃22쎯	-10.6843
chong❃2쎯	-10.6843
ben❃3쎯dou❃4쎯	-10.6844
chan❃12쎯han❄20쎯	-10.6844
kou❃1쎯fu❂43쎯	-10.6845
zi❃7쎯.	-10.6845
、li❃11쎯	-10.6846
쎇)	-10.6847
zhang❄2쎯fu❁13쎯	-10.6849
biao❁	-10.6852
yi❁10쎯fen❄2쎯	-10.6853
,can❁3쎯jia❁7쎯	-10.6853
》ren❂1쎯wu❄36쎯	-10.6854
deng❃2쎯)	-10.6855
dui❄33쎯yuan❂15쎯	-10.6858
zhe❄14쎯bu❄38쎯	-10.6859
huan❃7쎯cun❂1쎯	-10.686
),zi❄6쎯	-10.6862
ji❁48쎯dong❄13쎯	-10.6863
k	-10.6863
ji❄36쎯、	-10.6865
du❃	-10.6871
bai❂2쎯se❄29쎯,	-10.6871
chu❄17쎯ji❂83쎯	-10.6872
pao❁3쎯	-10.6874
shi❁16쎯de❅0쎯	-10.6874
xie❂47쎯	-10.6874
shou❃4쎯ce❄11쎯	-10.6877
fu❂43쎯wu❄12쎯、	-10.6878
guang❁2쎯ming❂8쎯	-10.688
tian❁7쎯	-10.6882
di❁9쎯wen❁6쎯	-10.6882
(bao❁4쎯gua❁11쎯	-10.6882
.xia❂39쎯	-10.6887
you❂24쎯,	-10.6888
쎁liang❃5쎯,	-10.6892
jing❁24쎯ling❂58쎯	-10.6894
ku❁9쎯	-10.6894
、san❁1쎯	-10.6899
ji❄46쎯jie❂69쎯	-10.6899
shang❁4쎯hui❄27쎯	-10.69
ge❁33쎯	-10.6901
yuan❂10쎯.	-10.6903
jing❃13쎯de❂9쎯	-10.6905
xuan❁	-10.6905
zhang❁10쎯	-10.6906
bao❃9쎯wei❄16쎯	-10.6906
hui❂1쎯guo❂11쎯	-10.6907
you❁9쎯mo❄75쎯	-10.6907
fan❃3쎯she❄8쎯	-10.6911
bi❁12쎯	-10.6912
gao❄3쎯su❄67쎯	-10.6913
bi❃24쎯ming❂7쎯	-10.6914
zhi❄68쎯	-10.6916
li❂32쎯mi❃19쎯	-10.6917
쎀쎉-	-10.6917
qing❂6쎯jing❃13쎯	-10.692
jing❁27쎯yan❄75쎯.	-10.6921
.쎀쎆	-10.6921
fen❃1쎯mo❄30쎯	-10.6923
bao❃13쎯dan❄38쎯	-10.6923
ling❂95쎯qing❄3쎯	-10.6924
쎁쎉쎉쎀	-10.6925
shai❁2쎯	-10.6926
jiao❁20쎯dao❃5쎯	-10.6927
mu❃2쎯;you❃11쎯	-10.6928
huang❃	-10.693
liu❂28쎯jiao❄18쎯	-10.693
,bei❃2쎯	-10.6931
7쎯,	-10.6932
ying❁44쎯cun❄2쎯	-10.6933
bu❄38쎯.	-10.6935
shu❁26쎯	-10.6936
he❂35쎯tao❂5쎯	-10.6936
qi❂29쎯jian❁85쎯	-10.6937
쎁쎉쎉쎂	-10.6939
bao❄15쎯zha❂8쎯	-10.6942
ban❃5쎯kuai❄14쎯	-10.6943
jiu❄3	-10.6945
shi❁9쎯	-10.6946
fang❂2쎯chan❃12쎯	-10.6948
yu❁6쎯	-10.6954
,shi❄45쎯you❂29쎯	-10.6957
shen❄9쎯	-10.6959
qi❁9쎯shi❂10쎯	-10.6961
you❁5쎯yi❂38쎯	-10.6963
de❅0쎯duan❄7쎯	-10.6964
shou❁1쎯ru❄2쎯쎁	-10.6965
you❁5쎯mei❃13쎯,	-10.6965
bao❁5쎯	-10.6966
yun❄14쎯	-10.6966
biao❃5쎯zhang❁6쎯	-10.6966
chang❃4쎯jing❃13쎯	-10.6967
luo❃15쎯	-10.6968
-쎁쎆	-10.697
ong❁17쎯cheng❂52쎯	-10.6971
han❄20쎯xian❂27쎯	-10.6971
nv	-10.6974
ji❁34쎯de❅0쎯.	-10.6974
jiao❃52쎯	-10.6975
shuo❁2쎯fa❃2쎯	-10.6977
쎀*	-10.6979
、wei❄18쎯jing❁24쎯	-10.6982
jian❄29쎯jiao❄18쎯	-10.6985
dou❁12쎯neng❂2쎯	-10.6986
yuan❂15쎯、fu❄28쎯	-10.6986
de❅0쎯xing❂11쎯	-10.6988
,ying❁44쎯wen❂5쎯	-10.6989
jin❄61쎯gong❁23쎯	-10.699
yu❄40쎯shi❃8쎯	-10.699
.mu❄22쎯qian❂8쎯,	-10.6992
da❁12쎯	-10.6994
.zhe❄14쎯xie❁3쎯	-10.6994
yi❃10쎯nan❂6쎯	-10.6994
cuo❄	-10.6995
da❄0쎯tong❂13쎯	-10.6996
ceng❂6쎯huo❄50쎯	-10.6997
bing❃10쎯	-10.6999
쎃、	-10.7005
hui❂1쎯zu❂9쎯	-10.7006
,zhe❄14쎯xie❁3쎯	-10.7007
jiang❃8쎯”	-10.7008
o	-10.7009
han❃11쎯、	-10.7011
fa❂13쎯	-10.7014
qian❂8쎯yan❂44쎯	-10.7016
n❃5쎯	-10.7017
xue❂6쎯bao❄10쎯	-10.7017
ji❂39쎯ta❁3쎯	-10.702
ling❂62쎯	-10.7021
쎁쎀쎅	-10.7022
jiao❁29쎯nang❂2쎯	-10.7022
wu❃28쎯di❄26쎯	-10.7024
gong❁10쎯yin❂10쎯	-10.7024
jiao❄35쎯duo❁5쎯	-10.7025
jin❃31쎯biao❁14쎯	-10.7026
xing❂7쎯shi❄18쎯	-10.7026
you❄13쎯you❃11쎯	-10.7029
mei❃13쎯guan❁16쎯	-10.7031
yan❄14쎯	-10.7031
bei❃2쎯bu❄38쎯,	-10.7034
chang❂15쎯gui❁35쎯	-10.7034
yan❂37쎯zhang❃6쎯	-10.7034
쎁쎉쎄쎆nian❂6쎯	-10.7037
xun❂16쎯	-10.7038
di❄45쎯쎄	-10.7038
li❃17쎯yi❂20쎯	-10.7039
xia❄6쎯ji❄46쎯	-10.704
쎂ci❄16쎯	-10.704
wan❂12쎯ju❄16쎯	-10.7041
zhi❂20쎯zhu❁8쎯	-10.7041
jun❄31쎯gong❁17쎯	-10.7044
shi❂32쎯	-10.7044
zi❃18쎯se❄29쎯	-10.7047
쎅°C	-10.7048
mo❄16쎯mu❃2쎯	-10.705
lu❂14쎯	-10.7052
jie❄14쎯zhi❂7쎯.	-10.7057
liang❃5쎯ren❂1쎯	-10.7057
xian❄47쎯,	-10.7062
g❃1쎯fa❁1쎯biao❃5쎯	-10.7063
tan❄5쎯ce❄22쎯	-10.7064
fang❁4쎯shi❄33쎯,	-10.7067
쎁쎉쎅쎁nian❂6쎯	-10.7072
,쎁쎉쎈쎄nian❂6쎯	-10.7072
zun❁7쎯	-10.7076
mei❃9쎯ci❄16쎯	-10.7077
tong❂44쎯	-10.7077
,zuo❄5쎯wei❄14쎯	-10.7077
zhang❃6쎯da❂30쎯	-10.7077
ba❃1쎯wo❄12쎯	-10.7078
zhu❄19쎯su❄33쎯	-10.708
ou❃7쎯	-10.7086
gua❁8쎯	-10.7087
yue❄29쎯쎂ri❄2쎯	-10.7089
yin❁44쎯xiao❄14쎯	-10.7093
zhen❄30쎯zhang❃6쎯	-10.7094
fa❁1쎯jue❂58쎯	-10.7095
gan❁19쎯jun❁15쎯	-10.7099
zong❃5쎯shi❄45쎯	-10.7102
jian❁25쎯fa❁1쎯、	-10.7104
ye❃1쎯hui❄27쎯	-10.7106
2쎯,	-10.7108
fen❁4쎯san❃7쎯	-10.7109
chu❃7쎯meng❂29쎯	-10.711
shi❄45쎯cong❂6쎯	-10.7112
dui❄14쎯zhao❄18쎯	-10.7112
,ji❄61쎯	-10.7114
xie❃4쎯zi❄6쎯	-10.7114
gang❁32쎯guan❃9쎯	-10.7114
dao❃5쎯hang❂13쎯	-10.7117
se❄15쎯	-10.7118
쎁쎉쎉쎄	-10.7121
mian❄2쎯ban❃5쎯	-10.7121
ping❂36쎯wei❄14쎯“	-10.7122
mao❄16쎯	-10.7124
dian❃11쎯,	-10.7124
hai❃1쎯xia❂13쎯	-10.7124
.쎂쎀쎀쎄nian❂6쎯	-10.7133
dang❁4쎯zhong❁4쎯	-10.7137
jing❁27쎯ji❄94쎯	-10.7143
shi❄32쎯di❄45쎯	-10.7143
jian❃	-10.7143
쎁.쎄	-10.7144
dou❄13쎯	-10.7145
yin❃37쎯liao❄8쎯	-10.7147
,yu❂35쎯shi❄45쎯	-10.7147
ting❁3쎯、	-10.715
ao❁8쎯	-10.7151
.yin❁11쎯wei❄14쎯	-10.7151
ping❂17쎯an❁13쎯	-10.7153
duo❄	-10.7154
bo❂9	-10.7158
kou❄6쎯	-10.7164
dong❁3쎯han❄33쎯	-10.7166
lie❄20쎯wei❄14쎯	-10.7167
e❂39쎯ding❄2쎯	-10.7167
si❄47쎯yang❃6쎯	-10.7169
ju❃4쎯ban❄4쎯de❅2쎯	-10.7173
dong❁3쎯hai❃1쎯	-10.7173
xi❁81쎯	-10.7177
guan❁4쎯bi❄157쎯	-10.7177
yan❁17쎯	-10.7177
niu❂3쎯nai❃2쎯	-10.7177
guo❁26쎯lu❂23쎯	-10.7179
ju❄30쎯da❄0쎯de❅2쎯	-10.7181
jian❁14쎯rong❂21쎯	-10.7181
hua❁11쎯jiao❁21쎯	-10.7182
xiao❄14쎯guo❃3쎯.	-10.7188
ge❁16쎯wu❃37쎯	-10.7188
er❂7쎯ke❁16쎯	-10.7189
yi❃9쎯xi❁99쎯	-10.7189
bo❁11쎯lan❂13쎯	-10.719
fu❃2	-10.7191
pu❃7쎯dong❁3쎯	-10.7192
ri❄2쎯yu❃44쎯	-10.7194
fu❂62쎯hao❂6쎯	-10.7197
(쎃	-10.7199
ping❂17쎯mi❃19쎯	-10.72
guo❄2쎯de❅2쎯	-10.72
cheng❂17쎯guan❁4쎯	-10.7201
zhan❁4쎯you❃11쎯	-10.7201
mi❄33쎯niao❄2쎯	-10.7202
wa❁13쎯	-10.7202
si❄17쎯zhou❁5쎯	-10.7205
쎂nian❂6쎯	-10.7206
zhu❃4쎯jiang❃19쎯	-10.7207
gai❁13쎯shu❁8쎯	-10.7208
wei❂13쎯	-10.721
쎁쎉쎃쎇nian❂6쎯	-10.721
lu❄70쎯yu❃14쎯	-10.7216
zhi❄61쎯an❁13쎯	-10.7217
hen❃2쎯kuai❄18쎯	-10.7218
geng❁4쎯	-10.7218
yin❃37쎯yong❄3쎯	-10.7219
shi❃15쎯	-10.7221
nian❂6쎯ji❂83쎯	-10.7223
feng❁17쎯bi❄157쎯	-10.7225
you❁5쎯yue❄46쎯,	-10.7226
pian❄3쎯	-10.7227
jian❁25쎯qi❃13쎯	-10.723
dao❄24쎯guang❁2쎯	-10.7231
yong❄3쎯liang❂19쎯	-10.7232
zhu❃4쎯jiao❁20쎯	-10.7239
shu❁29쎯	-10.7239
shen❁40쎯bian❁16쎯	-10.7244
you❃11쎯ren❂1쎯	-10.7244
ting❂	-10.7244
huan❂17쎯	-10.7245
kuo❄15쎯dang❁4쎯	-10.7246
qiu❁9쎯jie❄29쎯	-10.7246
tai❄6쎯du❄8쎯	-10.7249
de❅2쎯ge❃0쎯zuo❄5쎯	-10.7255
ren❂1쎯wu❄36쎯.	-10.7258
mian❄2쎯lin❂7쎯	-10.7259
ming❄1쎯ling❂34쎯	-10.7259
ji❄59쎯fa❃2쎯	-10.7259
bei❃2쎯mei❃13쎯	-10.726
ting❂5쎯zhi❃22쎯	-10.7264
nan❂6쎯bu❄38쎯,	-10.7266
,qing❁10쎯	-10.7269
you❃11쎯liang❃5쎯	-10.7269
you❃9쎯hao❃0쎯	-10.727
쎂ke❄6쎯	-10.727
yue❄29쎯쎄ri❄2쎯	-10.7271
zhong❁4쎯ji❁47쎯	-10.7272
bai❃9쎯huo❄56쎯	-10.7279
fu❂60쎯li❄58쎯	-10.7279
gu❄12쎯gong❁15쎯	-10.7281
yuan❂12쎯liao❄8쎯:	-10.7291
,you❃11쎯shi❂20쎯	-10.7292
mang❂25쎯	-10.7292
zhi❂25쎯dao❄3쎯	-10.7293
kuan❁0쎯du❄8쎯	-10.7293
bao❃13쎯bao❃13쎯	-10.7295
yi❃11쎯	-10.7296
kuang❄12쎯qiu❁9쎯	-10.7298
쎁쎉쎃쎀nian❂6쎯	-10.7308
guan❄23쎯gai❄14쎯	-10.7309
yin❃14쎯ru❄2쎯	-10.7311
:‘	-10.7312
쎂ren❂1쎯,	-10.7312
ren❂1쎯wu❄36쎯,	-10.7313
hong❂21쎯guan❁16쎯	-10.7314
jiu❄23쎯zai❄5쎯	-10.7318
sui❂9쎯shi❂20쎯	-10.732
gua❃7쎯	-10.7321
ri❄2쎯jun❁2쎯	-10.7322
nian❂6쎯chan❃12쎯	-10.7322
yan❃39쎯bian❄19쎯	-10.7322
hua❄18쎯yuan❄18쎯	-10.7323
zuo❄5쎯ci❂29쎯	-10.7323
hui❄27쎯suo❃11쎯	-10.7323
xi❄50쎯ni❄24쎯	-10.7325
da❂14쎯ji❁22쎯	-10.7325
biao❃5쎯ming❂8쎯	-10.7325
쎀.쎆	-10.7328
wa❁10쎯jue❂58쎯	-10.7328
,fu❄64쎯ze❂44쎯	-10.7328
dao❄24쎯jiao❁20쎯	-10.733
heng❂14쎯yang❂35쎯	-10.7331
xia❄3쎯bu❄38쎯	-10.7332
jiu❄23쎯you❃11쎯	-10.7334
zhen❁3	-10.734
쎁쎉쎄쎇nian❂6쎯	-10.7341
,xue❂6쎯jiao❄18쎯	-10.7343
,cheng❂16쎯	-10.7343
shi❄45쎯yong❄3쎯	-10.7349
luan❃0쎯xing❂11쎯	-10.7349
쎃.쎀	-10.7354
mei❃13쎯xue❂6쎯	-10.7354
jin❄61쎯qu❃1쎯	-10.7359
sheng❁16쎯ri❄2쎯:	-10.736
,bu❂0쎯fu❄23쎯	-10.7361
che❄20쎯de❅1쎯	-10.7365
쎁쎆쎀쎀	-10.7367
nv❃0쎯,	-10.7368
쎁쎉쎂쎉nian❂6쎯	-10.737
han❂15쎯	-10.7374
xia❄3쎯mian❄2쎯	-10.7376
,huo❄50쎯de❂7쎯	-10.7376
yi❄18	-10.738
ti❂17쎯shi❄60쎯	-10.7382
ding❃11쎯duan❁4쎯	-10.7382
lin❂51쎯pian❁5쎯	-10.7383
wan❃14쎯	-10.7383
ke❄14쎯ren❂1쎯	-10.7385
.”(쎂).	-10.7385
zuo❄9쎯biao❁14쎯	-10.7395
zhi❃19쎯ling❂34쎯	-10.7395
bao❄14쎯bu❄23쎯	-10.7395
.tong❂13쎯nian❂6쎯	-10.7398
sai❁5쎯er❃6쎯	-10.7399
chao❁17쎯qing❄3쎯	-10.7401
hua❁1쎯zhuang❁0쎯	-10.7402
shang❁4쎯jia❁13쎯	-10.7403
zhi❁21쎯liu❂20쎯	-10.7405
bao❃9쎯ding❄2쎯	-10.7405
fen❁4쎯lie❄45쎯	-10.7407
jia❃14쎯ji❁34쎯	-10.7408
er❄5쎯ren❂1쎯	-10.7413
,sheng❁16쎯yu❂35쎯	-10.7416
chi❁19쎯	-10.7418
ping❂17쎯hang❂16쎯	-10.7418
chan❃12쎯dang❃2쎯.	-10.7421
sheng❃9쎯di❄45쎯	-10.7422
qi❁15쎯zi❃7쎯	-10.7422
chong❃2쎯wu❄36쎯	-10.7425
fa❃2쎯》	-10.7425
shen❄9쎯tou❄4쎯	-10.7427
qi❄56쎯jin❁10쎯	-10.743
fou❃0쎯	-10.7431
fan❃3쎯fu❄31쎯	-10.7432
mao❂15쎯dun❄11쎯	-10.7433
zuo❄5쎯le❅0쎯	-10.7433
xin❄8쎯lai❄19쎯	-10.7437
liu❂20쎯ben❄4쎯	-10.7438
wei❄14쎯qi❂29쎯	-10.7439
쎁쎀gong❁10쎯li❃26쎯	-10.744
shi❄71쎯ye❃7쎯	-10.7443
lan❂41쎯ya❂12쎯	-10.7444
fen❄9쎯	-10.7445
ke❄14쎯guan❁16쎯	-10.7447
xiao❃2쎯jie❃1쎯	-10.7447
ji❄117쎯·	-10.7447
qie❁1쎯pian❁5쎯	-10.745
mian❂13쎯hua❁11쎯	-10.7454
;쎁	-10.7456
yi❂54쎯	-10.7459
na❄11쎯xin❁7쎯	-10.7459
쎀.쎄	-10.7461
jia❁8쎯xing❄8쎯	-10.7461
–	-10.7465
wen❁6쎯nuan❃2쎯	-10.7468
jiao❃51쎯	-10.7468
xi❄50쎯jie❂69쎯	-10.7472
lv❄20쎯se❄29쎯,	-10.7472
gao❁20쎯zhi❄104쎯	-10.7479
xian❄66쎯	-10.7479
pian❁7쎯.	-10.748
lai❂16쎯dian❄23쎯	-10.748
dai❄15쎯zhao❁6쎯	-10.7481
yin❃14쎯fa❁1쎯	-10.7482
yi❁10쎯zhong❁4쎯	-10.7483
kang❄5쎯zhan❄10쎯	-10.7486
te❄5쎯pin❄1쎯	-10.7489
hai❃1쎯shui❃0쎯	-10.7494
chu❁3쎯ren❂4쎯	-10.7494
xiao❁29쎯hao❄35쎯	-10.7499
yan❃39쎯yuan❂15쎯.	-10.75
쎀쎀mi❃19쎯,nian❂6쎯	-10.7501
jiang❁10쎯hu❂32쎯	-10.7501
chan❃12쎯wu❄36쎯	-10.7502
qi❂36쎯	-10.7503
da❄0쎯da❄0쎯	-10.7506
、chuang❁13쎯	-10.751
shan❁11쎯,	-10.7512
min❃13쎯gan❃6쎯	-10.7515
,쎂	-10.7515
、nan❂6쎯	-10.7517
ni❂10쎯si❁24쎯	-10.7518
nu❃1쎯	-10.7521
hai❃1쎯ba❂11쎯쎁	-10.7523
he❂37쎯kou❃1쎯	-10.7524
jin❁10쎯nian❂6쎯	-10.7527
qin❂32쎯	-10.7529
、duo❁5쎯	-10.753
lian❂29쎯	-10.7531
,zuo❄5쎯zhe❃2쎯	-10.7532
bian❁13쎯ru❄2쎯	-10.7533
si❁22쎯lu❄70쎯	-10.7534
hui❄27쎯shang❃1쎯	-10.7534
ai❁5쎯ji❂37쎯	-10.7541
sui❄16쎯,	-10.7542
.쎂쎀쎁쎂nian❂6쎯	-10.7545
she❄8쎯ji❁22쎯	-10.7546
쎂쎀nian❂6쎯	-10.7547
jie❃1쎯	-10.7549
yu❄105쎯	-10.7552
yi❁10쎯qun❂6쎯	-10.7553
ding❁12쎯	-10.7553
guan❁4쎯xi❄46쎯,	-10.7554
gu❃14쎯jin❁10쎯	-10.7555
gan❃6쎯dao❄3쎯	-10.7556
lv❄15쎯xian❁18쎯	-10.7559
zai❄5쎯zhe❄14쎯	-10.7561
ji❂114쎯ge❃0쎯	-10.7562
쎁쎉쎈쎄	-10.7565
.쎀쎂	-10.7567
shuo❁2쎯,	-10.7569
lv❃11쎯	-10.757
ban❁12쎯zi❃7쎯	-10.7572
ke❁16쎯zhang❃6쎯、	-10.7573
hui❄60쎯ji❂114쎯	-10.7573
gong❁10쎯si❁16쎯(	-10.7575
zhi❁31쎯xian❄22쎯	-10.7575
ta❁3쎯zai❄5쎯	-10.7575
zai❄4쎯sheng❁16쎯	-10.7575
rang❄3쎯ni❃6쎯	-10.7577
jiao❁11쎯	-10.7582
bao❄10쎯jing❃23쎯	-10.7583
hao❂14쎯	-10.7584
cong❂6쎯ci❃2쎯	-10.7588
zi❄16쎯xue❂6쎯	-10.7592
;fu❄64쎯ze❂44쎯	-10.7598
3	-10.7599
xun❁3쎯	-10.7601
que❄26쎯bao❃9쎯	-10.7604
fu❁39쎯	-10.7609
mo❂12쎯shi❄33쎯,	-10.7612
쎁쎅쎀쎀	-10.7614
song❄8쎯	-10.762
lai❂16쎯shuo❁2쎯,	-10.7621
jing❁3쎯ju❄18쎯	-10.7622
쎂쎀쎀쎁	-10.7623
bai❃9쎯mo❄16쎯	-10.7627
xun❁3쎯zhang❁13쎯	-10.7628
쎁쎉쎈쎈	-10.7629
fu❄64쎯he❂52쎯	-10.763
qi❁28쎯	-10.763
bo❂47쎯	-10.7631
te❄5쎯chan❃12쎯	-10.7635
bing❄12쎯li❃15쎯	-10.7636
qi❄20쎯guan❁6쎯	-10.7639
fu❂94쎯yuan❂12쎯	-10.7639
yin❄7쎯fa❁1쎯	-10.7641
쎁쎉쎄쎃nian❂6쎯	-10.7642
쎄쎀쎀쎀	-10.7643
zhong❁4쎯chang❃4쎯	-10.7645
4쎯,	-10.7645
pu❃	-10.7645
쎀쎀hao❂14쎯mi❃19쎯	-10.7648
kui❂35쎯	-10.7648
shi❂13쎯zhan❄10쎯	-10.765
≥	-10.765
pai❄3쎯chu❁3쎯	-10.765
shou❁1쎯yi❄165쎯	-10.7657
ben❃5쎯tu❃1쎯	-10.766
bu❂0쎯yi❄119쎯	-10.7661
te❄5쎯yue❁1쎯	-10.7663
jia❁7쎯shang❃1쎯	-10.7664
du❄8쎯:	-10.7665
shu❄28쎯li❄141쎯	-10.7667
bai❃9쎯du❄8쎯	-10.7668
wu❃9쎯dai❄9쎯	-10.7669
ming❂8쎯·	-10.7669
zhen❃27쎯liao❂24쎯	-10.7673
huai❂8쎯nan❂6쎯	-10.7674
wo❁2쎯	-10.7675
hen❃2쎯shao❃2쎯	-10.7681
xi❁143쎯lan❂13쎯	-10.7682
bian❁13쎯wei❁12쎯	-10.7683
feng❁58쎯yu❃47쎯	-10.7685
,ye❃1쎯you❃11쎯	-10.7689
ren❂4쎯fu❄28쎯	-10.7689
san❁1쎯ci❄16쎯	-10.7691
jiu❃3쎯long❂63쎯	-10.7696
bian❄19쎯jiao❁24쎯	-10.7697
qian❂22쎯li❄59쎯	-10.7699
bing❄12쎯de❅2쎯	-10.7701
you❄10쎯	-10.7705
ju❄57쎯ge❃0쎯	-10.7705
duo❁5쎯ceng❂3쎯	-10.7706
쎂쎀-	-10.7708
wan❃17쎯ji❁47쎯	-10.7709
쎁쎀/쎁쎀쎀	-10.771
.쎀쎄	-10.771
xue❂6쎯ke❁16쎯dai❄	-10.7717
shou❃4쎯gong❁17쎯	-10.7717
cui❁3쎯hua❁1쎯	-10.7717
xiu❄19쎯	-10.7718
suo❁11쎯	-10.7718
～쎂	-10.7719
fu❁22쎯	-10.7724
peng❂12쎯	-10.7728
you❃11쎯qu❄11쎯	-10.7728
duan❃0쎯pian❁7쎯	-10.773
zhuan❁1쎯jia❁13쎯,	-10.773
gan❁16쎯shi❄18쎯	-10.7735
ren❂1쎯kou❃1쎯쎄	-10.7743
xian❄37쎯cun❂1쎯	-10.7744
de❅2쎯fa❃2쎯lv❄9쎯	-10.7747
de❅0쎯ceng❂3쎯	-10.7748
,me❅1쎯you❃11쎯	-10.7749
yu❄93쎯ren❂1쎯	-10.7753
ri❄2쎯,	-10.7755
bin❁7쎯	-10.7759
쎁쎉쎈쎉	-10.7762
jing❁24쎯hua❂14쎯	-10.7762
ㄐ	-10.7763
ji❂9	-10.7763
ban❄4쎯fa❃2쎯》	-10.7764
.hou❄7쎯lai❂16쎯	-10.7765
ji❂57쎯qi❂29쎯	-10.7768
yan❃45쎯	-10.7769
zheng❁37쎯qi❄34쎯	-10.7772
nong❂17쎯	-10.7773
ken❃6쎯ding❄2쎯	-10.7779
rong❂33쎯jie❃6쎯	-10.7779
yao❁17쎯qiu❂27쎯,	-10.778
cuo	-10.7781
.min❂22쎯guo❂11쎯	-10.7785
hong❁12쎯	-10.7789
,쎃	-10.7791
zu❁0쎯lin❄15쎯	-10.7793
15쎯tou❂4쎯ren❂1쎯	-10.7796
dai❄15쎯dong❄13쎯	-10.7799
xi❁143쎯han❄33쎯	-10.7802
zhi❁13쎯wai❄0쎯	-10.7803
qie❄25쎯	-10.7804
han❂17쎯cha❁3쎯	-10.7805
na❄11쎯cun❂1쎯r	-10.7805
bu❂0쎯jiu❃1쎯	-10.7807
qi❄20쎯xie❄51쎯	-10.7808
yin❃14쎯ling❃2쎯	-10.7813
、bei❃2쎯jing❁3쎯	-10.7816
jie❄34쎯	-10.7817
mu❄8쎯	-10.7819
ben❄4쎯chong❂17쎯	-10.782
hei❁3쎯an❄15쎯	-10.7822
lu❄92쎯	-10.7822
yao❄12쎯cai❂3쎯	-10.7824
shi❂13쎯xi❂9쎯	-10.7826
hang❂16쎯xing❁7쎯	-10.7826
nong❂5쎯li❄62쎯	-10.7827
dao❃12쎯	-10.7828
man❂20쎯	-10.7828
yong❁2	-10.7828
yun❃7쎯	-10.7828
gan❁2	-10.7829
che❄20쎯	-10.7833
bao❃13쎯bei❄52쎯	-10.7834
dan❁9쎯du❂25쎯	-10.7835
chang❂15쎯lv❄20쎯	-10.7836
dian❄23쎯zu❃11쎯	-10.7836
gan❁16쎯rao❃1쎯	-10.7837
hai❃1쎯yu❄31쎯	-10.784
()de❅2쎯	-10.7843
bao❄10쎯zhi❃32쎯	-10.7844
dai❄45쎯	-10.7846
fen❃1쎯、	-10.7846
ren❂1쎯cheng❁28쎯	-10.7848
yi❁10쎯jian❄15쎯	-10.7849
su❄30쎯zao❄16쎯	-10.785
쎃hao❂6쎯	-10.7851
chao❁17쎯yue❄46쎯	-10.7853
wai❄0쎯,	-10.7855
zhi❁13쎯jian❁85쎯,	-10.7856
ya❁14쎯	-10.7857
ke❄29쎯tang❂15쎯	-10.7858
mei❄	-10.7859
zhang❄15쎯	-10.786
ye❁6쎯	-10.7864
zi❁45쎯zhu❄20쎯	-10.7867
hai❃1쎯kou❃1쎯	-10.7869
peng❁13쎯ren❄41쎯	-10.787
jing❄48쎯mai❄9쎯	-10.787
❁쎯	-10.7871
dian❁12쎯	-10.7877
si❄10쎯hu❁13쎯	-10.7879
zai❄5쎯na❄11쎯	-10.7883
dian❄23쎯gong❁17쎯	-10.7885
shui❃0쎯jing❁14쎯	-10.7888
bao❄20쎯	-10.789
bi❃20쎯li❄58쎯	-10.7894
쎀)	-10.7897
ying❁17쎯li❄59쎯	-10.7903
shi❂20쎯zhong❁29쎯	-10.7904
mu❃2쎯.	-10.7905
쎁쎀쎀-	-10.7907
hua❂14쎯xia❄6쎯	-10.791
rong❂48쎯	-10.7915
you❃9쎯yi❄217쎯	-10.7916
zhi❁13쎯xiang❁1쎯	-10.7916
ren❄9쎯	-10.7917
.yin❁11쎯ci❃2쎯,	-10.7917
geng❁6쎯gao❁20쎯	-10.7918
yan❂37쎯an❁13쎯	-10.7918
shang❃1쎯zui❄4쎯	-10.7919
ou❁8쎯yang❂35쎯	-10.7927
wu❂17쎯se❄29쎯	-10.7927
da❄0쎯pi❁11쎯	-10.7929
huo❂3쎯po❁4쎯	-10.7931
、she❄22쎯hui❄27쎯	-10.7932
xing❄13쎯,	-10.7935
mian❂16쎯	-10.7937
yi❃10쎯bei❃2쎯	-10.7938
zhan❁12쎯	-10.794
duo❁5쎯ren❂1쎯	-10.7942
wei❄14쎯ren❂1쎯	-10.7942
yi❃32쎯	-10.7944
shu❄28쎯mu❄15쎯	-10.7946
쎂쎀쎀ke❄6쎯	-10.7947
yue❄29쎯쎃쎁ri❄2쎯	-10.7949
zhe❄14쎯kuan❃7쎯	-10.7954
chong❂17쎯dian❃	-10.7956
huo❃0쎯	-10.7957
song❄4쎯·	-10.7959
fa❃2쎯,	-10.7959
zhuang❁3쎯	-10.7961
.ta❁3쎯们	-10.7962
yan❃39쎯yi❄176쎯	-10.7965
huo❃2쎯tui❃7쎯	-10.7966
lie❄21쎯	-10.7969
you❁5쎯shi❄22쎯,	-10.797
yi❁10쎯ji❁47쎯	-10.797
zi❃7쎯gong❁15쎯	-10.7971
qu❁29쎯	-10.7972
pi❄	-10.7972
jie❂69쎯ri❄2쎯	-10.7978
deng❃2쎯ren❂1쎯	-10.7978
wei❄14쎯쎁	-10.798
쎁ren❂1쎯	-10.798
kao❃10쎯sheng❁16쎯	-10.798
chong❂17쎯fu❄31쎯	-10.7981
41쎯	-10.7981
la❁6쎯ji❁32쎯	-10.7982
huo❃2쎯jian❄50쎯	-10.7983
쎉쎀쎀쎁	-10.7984
jun❁6쎯ke❃4쎯	-10.7987
de❅0쎯:	-10.7988
xin❁18쎯	-10.7992
shu❂7쎯yu❃44쎯	-10.7996
de❅0쎯qu❁15쎯,	-10.7997
de❂9쎯li❃26쎯	-10.7998
ya❄7쎯chong❂11쎯	-10.7998
nan❂6쎯yang❂35쎯	-10.8001
hong❂44쎯he❂37쎯	-10.8004
❄0쎯	-10.8007
(yi❃10쎯xia❄3쎯ji	-10.8008
qun❂7쎯	-10.8009
lian❂53쎯luo❄24쎯	-10.801
쎁쎉쎈쎇	-10.8012
yan❂50쎯fa❁1쎯、sh	-10.8013
qi❂104쎯shi❄28쎯	-10.8013
lei❃14쎯	-10.8015
쎅쎀쎀mi❃19쎯	-10.8016
ji❁66쎯	-10.8016
bin❁5쎯ke❄14쎯	-10.8021
yi❁10쎯shen❁40쎯	-10.8028
qing❂6쎯xu❄68쎯	-10.8028
yi❁13쎯shi❁11쎯.	-10.8029
tian❁5쎯tang❂15쎯	-10.8029
chu❁4쎯,	-10.8032
que❄26쎯ren❄30쎯	-10.8033
ben❃5쎯ren❂1쎯	-10.8034
peng❃1쎯	-10.8035
de❅2쎯xue❂6쎯xi❂9쎯	-10.8036
si❄16쎯	-10.8036
쎄gong❁10쎯li❃26쎯	-10.8047
쎁ci❄16쎯	-10.8047
shou❃4쎯dong❄13쎯	-10.805
ne❅쎯	-10.805
▁	-10.8054
ji❂35쎯cheng❂29쎯.	-10.8056
jie❂50쎯	-10.8058
xie❂14쎯zuo❄5쎯	-10.8063
ye❃1쎯jiu❄23쎯	-10.8063
,kuo❄15쎯ge❃0쎯	-10.8064
,xi❁143쎯yu❃14쎯	-10.8065
쎁gong❁10쎯li❃26쎯	-10.8067
qian❂8쎯feng❁52쎯	-10.8067
,shou❄4쎯dao❄3쎯	-10.8068
ti❂30쎯	-10.8073
yao❄12쎯yong❄3쎯	-10.8073
cha❄11쎯	-10.8075
jiu❄23쎯neng❂2쎯	-10.8077
(쎂쎀쎀	-10.8078
zhan❄17쎯、	-10.8079
si❄17쎯jun❁2쎯	-10.8079
xiang❁2쎯	-10.8082
쎁쎉쎃쎉nian❂6쎯	-10.8082
、zhang❁4쎯	-10.8083
hen❃2쎯jiang❄9쎯	-10.8084
shao❄5쎯huan❄12쎯	-10.8086
yuan❂12쎯ben❃5쎯	-10.8087
fang❂2쎯、	-10.8089
쎁쎉쎄쎀nian❂6쎯	-10.8094
chuan❂4쎯ran❃11쎯	-10.8095
ying❁17쎯ji❂52쎯	-10.8097
쎁쎉쎈쎅	-10.8101
pan❂1	-10.8103
jing❁16쎯	-10.8103
쎁쎉쎈쎆	-10.8105
mo❄57쎯si❁24쎯	-10.8106
zhe❄14쎯zhang❁4쎯	-10.8111
yin❄7쎯xiang❄20쎯	-10.8115
sai❄4쎯shi❄18쎯	-10.8116
8쎯,	-10.8116
zhong❁4쎯du❂17쎯	-10.8117
”,shi❄45쎯	-10.8117
chao❂6쎯ting❂9쎯	-10.8119
shi❁11쎯、	-10.812
xian❄37쎯cang❂5쎯	-10.8121
dui❄33쎯zhang❃6쎯	-10.8121
rong❂47쎯	-10.8122
shen❃7쎯he❂35쎯	-10.8128
jue❂92쎯yuan❂44쎯	-10.813
:쎅	-10.813
le❄3쎯wan❂5쎯	-10.8131
쎉)	-10.8132
yu❂108쎯	-10.8134
쎃ren❂1쎯,	-10.8134
ren❂4쎯yi❄109쎯	-10.8138
cang❂5쎯shu❁8쎯	-10.814
yuan❂21쎯	-10.8142
jie❂69쎯zou❄2쎯	-10.8143
xing❄13쎯neng❂2쎯:	-10.8144
cong❁36쎯	-10.8145
bei❃2쎯mian❄2쎯	-10.8146
meng❁3쎯gu❃14쎯zi❄	-10.815
du❂25쎯ju❄16쎯	-10.8152
pei❂5쎯	-10.8152
tong❂13쎯lei❄16쎯	-10.816
ri❄2쎯yi❄165쎯	-10.816
bu❂0쎯xing❄12쎯	-10.8164
shang❁4쎯juan❁5쎯	-10.8165
ren❂1쎯dou❁12쎯	-10.8166
zi❃9쎯	-10.8168
lie❄20쎯che❁8쎯	-10.817
쎂.쎄	-10.8171
huai❂7쎯	-10.8171
ran❂13쎯liao❄8쎯	-10.8173
nie❄	-10.8174
shou❁1쎯gou❄26쎯	-10.8175
de❅2쎯xing❂11쎯	-10.8176
tou❂4쎯tong❄3쎯	-10.8176
hui❂1쎯gui❁12쎯	-10.8177
xue❂6쎯jiao❄18쎯,	-10.8178
ren❄38쎯	-10.8178
ji❁21쎯he❂22쎯	-10.8179
yi❄68쎯yuan❂10쎯	-10.8179
cai❄5쎯yao❂47쎯	-10.8182
.쎁쎉쎄쎉nian❂6쎯	-10.8183
shi❂20쎯ke❄7쎯	-10.8184
zheng❃4쎯che❁8쎯	-10.8184
ping❂36쎯xuan❃8쎯	-10.8185
ming❂6쎯	-10.8185
ji❁47쎯huo❄56쎯	-10.8186
쎁쎇쎀	-10.8186
jian❄29쎯she❄29쎯、	-10.8188
gong❁11쎯neng❂2쎯.	-10.8192
chu❂15쎯	-10.8194
luan❂1	-10.8195
bei❃2쎯ce❄8쎯	-10.8196
lin❂19쎯zhong❁4쎯	-10.8196
shou❄3쎯yi❁13쎯	-10.8196
chi❄33쎯	-10.8197
.jiang❁5쎯	-10.8198
yi❄239쎯	-10.8199
xie❂24쎯dai❄15쎯	-10.82
mian❄2쎯bao❁4쎯	-10.8201
chang❃4쎯ge❃0쎯	-10.8204
you❃11쎯ming❂7쎯	-10.8205
yue❄29쎯쎇ri❄2쎯	-10.8205
52쎯	-10.8205
diao❁	-10.8207
de❅0쎯.	-10.821
い	-10.8212
.쎂쎀쎀쎃nian❂6쎯	-10.8223
er❂16쎯you❄13쎯	-10.8223
zheng❄12쎯wu❄12쎯	-10.8223
쎈gong❁10쎯li❃26쎯	-10.8223
ji❄47쎯	-10.8224
,hu❂32쎯bei❃2쎯	-10.8224
sha❁10쎯mo❄37쎯	-10.8225
qi❃21쎯	-10.8226
shi❄32쎯dong❁3쎯	-10.823
ju❄18쎯ben❃5쎯	-10.8231
jia❁8쎯jing❄46쎯	-10.8232
ri❄2쎯zhao❄18쎯	-10.8232
《xin❁10쎯	-10.8233
ㄣ	-10.8233
xing❂11쎯shi❄22쎯	-10.8234
xian❄47쎯shang❃1쎯	-10.8234
mian❄2쎯ji❁64쎯쎁쎂	-10.8235
jue❂104쎯de❂7쎯	-10.8236
》shi❄45쎯you❂29쎯	-10.8237
qing❁20쎯tong❂48쎯	-10.8238
pen❂2쎯de❅0쎯	-10.8238
qie❁1쎯ge❁6쎯	-10.8238
xian❄47쎯、	-10.8239
,nan❂6쎯yu❃14쎯	-10.8239
jiang❃8쎯,	-10.824
sai❄4쎯ji❄46쎯	-10.8246
yi❁10쎯lu❄70쎯	-10.8246
mian❄2쎯ji❁64쎯쎉	-10.8248
zhuang❁0쎯	-10.825
li❄141쎯ji❂35쎯	-10.8251
쎀mi❃19쎯,nian❂6쎯	-10.8251
쎂.쎁	-10.8251
〉	-10.8254
ji❂57쎯ju❄16쎯	-10.8256
man❂21쎯	-10.8256
ren❂1쎯kou❃1쎯쎁	-10.8258
쎁쎀쎂	-10.8262
bao❃9쎯wen❁6쎯	-10.8263
쎁쎉쎉쎁	-10.8265
jiu❁16쎯	-10.8266
jian❄39쎯	-10.8267
hua❁11쎯wen❂12쎯	-10.8269
su❄33쎯she❄23쎯	-10.827
zhong❁4쎯xi❁143쎯	-10.8273
gao❁20쎯zhi❂32쎯	-10.8275
ou❃3쎯xiang❄4쎯	-10.8275
fang❁4쎯xiang❄6쎯:	-10.8277
shi❃8쎯·	-10.8278
guan❃15쎯.	-10.828
nong❂10쎯hou❄6쎯	-10.828
mo❂9쎯tuo❁6쎯	-10.8281
.jing❁27쎯guo❄2쎯	-10.8283
jian❃52쎯ji❂67쎯	-10.8283
pin❃0쎯pai❂4쎯.	-10.8287
jie❄29쎯de❅2쎯	-10.8288
ji❂114쎯《	-10.8288
qian❁13쎯mo❄16쎯	-10.8288
dong❃6쎯	-10.8289
shun❄11쎯xu❄36쎯	-10.8289
hui❂1쎯yi❄104쎯	-10.8291
di❂23쎯	-10.8296
wu❂17쎯ren❂1쎯	-10.8297
yuan❂12쎯ze❂11쎯,	-10.8298
zuo❃3쎯you❄14쎯.	-10.8299
rong❂50쎯ru❄2쎯	-10.8299
mei❃13쎯yuan❂10쎯	-10.8299
.쎂쎀쎀쎂nian❂6쎯	-10.8301
su❄30쎯jiao❁29쎯	-10.8303
jun❁2쎯yi❁13쎯	-10.8303
wai❄0쎯chu❁3쎯	-10.8304
cheng❂29쎯pin❃0쎯	-10.8305
yu❂53쎯	-10.8308
cong❂6쎯xiao❃2쎯	-10.8308
ji❄61쎯you❃11쎯	-10.8309
ren❂1쎯can❁3쎯	-10.8312
jia❁13쎯xie❂14쎯	-10.8316
42쎯	-10.8318
zong❁24쎯	-10.8319
,쎁	-10.832
lan❂36쎯	-10.8321
zhu❄31쎯yin❁44쎯:	-10.8323
ceng❂6쎯bei❄48쎯	-10.8324
zhi❃19쎯de❅2쎯	-10.8324
ling❂80쎯	-10.8325
,ju❄16쎯	-10.8326
.zhe❄14쎯gan❄3쎯	-10.8329
xian❄47쎯xing❄13쎯	-10.8331
ming❂7쎯wei❄14쎯“	-10.8335
jia❃19쎯	-10.8339
si❄26쎯	-10.8342
zhang❄9쎯	-10.8344
xi❄46쎯tong❃9쎯,	-10.8344
쎇.쎅	-10.8346
—쎁	-10.8346
liang❄10쎯	-10.8346
yi❁10쎯yang❂17쎯,	-10.8348
zhi❂25쎯liu❂20쎯	-10.8348
zhuang❄0쎯da❄0쎯	-10.8348
zhui❄0쎯	-10.8349
shi❂10쎯ji❁21쎯	-10.8349
(쎁쎈쎉	-10.8351
hao❃0쎯you❃9쎯	-10.8354
yong❃22쎯	-10.8357
chao❁11쎯	-10.8358
jun❁2쎯jiao❄18쎯	-10.8359
yan❃39쎯yi❄190쎯	-10.8364
dan❄33쎯shui❃0쎯	-10.8364
ne❅쎯?	-10.8364
,pi❂11쎯lin❂43쎯	-10.8366
;(	-10.8367
da❄0쎯jiang❃8쎯	-10.8371
tao❂5쎯hua❁11쎯	-10.8372
qian❁13쎯mi❃19쎯,	-10.8372
wen❂5쎯shu❁8쎯	-10.8372
.sui❂9쎯zhao❁6쎯	-10.8375
de❂7쎯ming❂7쎯	-10.8375
쎁-쎂	-10.8375
쎁쎉쎃쎂nian❂6쎯	-10.8376
jia❁7쎯kuai❄18쎯	-10.8377
yi❁12쎯ran❂12쎯	-10.8378
an❁18쎯suan❁3쎯	-10.838
gai❃2쎯zhi❄30쎯	-10.838
shi❄26쎯	-10.8381
dan❁9쎯wei❄15쎯:	-10.8383
,fen❁4쎯bu❄23쎯	-10.8384
.mei❃9쎯	-10.8391
zui❄4쎯you❃11쎯	-10.8392
α	-10.8393
zhao❂쎯you❃11쎯	-10.8394
fa❁1쎯re❄1쎯	-10.8395
xing❄9쎯shi❄51쎯	-10.8397
jia❂	-10.8397
ju❄30쎯da❄0쎯	-10.8402
,dui❄14쎯yu❂35쎯	-10.8405
fu❂43쎯.	-10.8409
ge❁	-10.841
gan❃6쎯ying❁17쎯	-10.8411
(-	-10.8413
mian❄2쎯ji❁64쎯쎁.	-10.8415
ding❄2쎯ji❁47쎯	-10.8415
xing❄9쎯ming❂7쎯	-10.8419
ni❃11쎯ren❂4쎯	-10.8419
(han❂17쎯	-10.8422
,dou❁12쎯	-10.8423
jing❄30쎯ji❄59쎯	-10.8424
xu❄32쎯shu❄47쎯	-10.8425
쎀.	-10.8427
xi❁114쎯	-10.8431
ding❄2쎯ju❁14쎯	-10.8433
쎁.쎁	-10.8433
quan❂12쎯li❄59쎯	-10.8433
jin❁10쎯ri❄2쎯	-10.8437
yun❃16쎯he❂37쎯	-10.8439
xue❂6쎯jiao❄18쎯、	-10.8439
chuan❂4쎯dong❄13쎯	-10.8449
qi❂34쎯	-10.8449
bing❁6쎯ru❄2쎯	-10.8452
쎀쎀duo❁5쎯ping❂17쎯	-10.8455
chang❂15쎯zhu❄19쎯	-10.8456
fan❄15쎯zhi❃19쎯	-10.8458
xian❂24쎯	-10.8459
shun❄8쎯	-10.8462
xi❁143쎯hu❂32쎯	-10.8463
de❅1쎯bu❄38쎯	-10.8463
yi❃10쎯hou❄7쎯,	-10.8463
쎄쎅쎀	-10.8464
chao❁14쎯	-10.8466
zuo❄7쎯cheng❂29쎯	-10.8467
yi❄67쎯zuo❄5쎯“	-10.8468
fu❄23쎯you❃11쎯	-10.847
cheng❂17쎯nan❂6쎯	-10.8472
н	-10.8472
tang❂13쎯shan❁11쎯	-10.8472
chang❂6쎯	-10.8472
ㄥ	-10.8473
te❄5쎯dian❃11쎯,	-10.8475
kao❄5쎯jin❄60쎯	-10.848
du❄21쎯	-10.8481
ji❁116쎯rou❄1쎯	-10.8482
xing❂9쎯hao❂6쎯:	-10.8483
dang❁4쎯gui❁12쎯	-10.8484
ji❂39쎯xiang❂6쎯	-10.8485
an❁15쎯kuo❄17쎯	-10.8485
wei❄14쎯zhi❃22쎯	-10.8487
xi❄50쎯zhi❄89쎯	-10.8488
xiang❁9쎯ji❄95쎯	-10.8488
,hu❂32쎯nan❂6쎯	-10.849
hua❂14쎯li❄50쎯	-10.849
쎂.쎈	-10.849
、fa❃2쎯gui❁35쎯	-10.8491
si❁33쎯ren❂1쎯	-10.8491
dou❄1	-10.8491
gong❁17쎯zi❁45쎯	-10.8498
ping❂31쎯	-10.8499
you❃11쎯le❅0쎯	-10.85
.쎂쎀쎁쎃nian❂6쎯	-10.8501
、dan❄38쎯	-10.8501
shi❄22쎯li❄59쎯	-10.8502
xiao❃2쎯shuo❁2쎯,	-10.8504
shan❁4쎯chu❂42쎯	-10.8507
mian❃1	-10.8508
ren❂1쎯xin❁7쎯	-10.851
yu❂66쎯qiu❁9쎯	-10.8512
de❅2쎯quan❂6쎯	-10.8515
쎂xiang❄24쎯	-10.8517
쎅ke❄6쎯,	-10.8518
ru❂9쎯jin❁10쎯	-10.852
bu❂0쎯bian❄19쎯	-10.8521
chu❁4쎯bu❄28쎯	-10.8524
wa❁20쎯	-10.8525
,mei❃13쎯guo❂11쎯	-10.8527
zhi❁13쎯suo❃11쎯	-10.8531
,bu❂0쎯guo❄2쎯	-10.8533
li❄62쎯jing❁27쎯	-10.8535
duo❁5쎯cai❃4쎯	-10.8535
쎂쎀쎀mi❃19쎯	-10.8536
guo❄2쎯min❃13쎯	-10.8536
chu❃3쎯cun❂1쎯	-10.8536
shi❂20쎯kong❁9쎯	-10.8537
gan❄3쎯yue❄29쎯	-10.8537
xi❁143쎯ce❄8쎯	-10.8538
cai❄5쎯dan❁9쎯	-10.854
dan❄38쎯hua❁1쎯	-10.8541
ju❂23쎯dang❃2쎯	-10.8543
tian❁5쎯qi❃25쎯	-10.8543
zheng❁22쎯mian❄2쎯	-10.8543
ming❂8쎯zhu❁17쎯	-10.8546
chao❁19쎯	-10.8547
bin❁12쎯hai❃1쎯	-10.8547
zha❁9쎯shi❂13쎯	-10.8547
rong❂33쎯ji❄36쎯	-10.8547
an❁18쎯	-10.855
ben❃5쎯zhi❄104쎯	-10.8555
da❄0쎯lu❄83쎯de❅2쎯	-10.8558
tang❂	-10.8559
qing❁10쎯chu❃9쎯	-10.8562
ling❃2쎯xiu❄13쎯	-10.8563
ke❃4쎯ai❄26쎯	-10.8565
^	-10.8568
-쎁쎁	-10.8568
dan❁9쎯yi❁10쎯	-10.8569
zhi❂25쎯xian❄47쎯	-10.8571
ou❃11쎯	-10.8571
qi❁19쎯	-10.8572
ke❃4쎯kou❃1쎯	-10.8572
qu❁15쎯wei❄15쎯	-10.8575
lian❂53쎯xiang❃6쎯	-10.8576
,yi❁10쎯zhi❂25쎯	-10.8577
,nan❂14쎯,쎁쎉쎆	-10.8578
yan❄75쎯shou❁1쎯	-10.8581
wai❄0쎯,fu❂94쎯	-10.8583
zhuang❄3쎯	-10.8583
han❂34쎯dan❁34쎯	-10.8583
yi❁10쎯guan❄33쎯	-10.8584
쎅ren❂1쎯,	-10.8586
,de❅0쎯li❃15쎯	-10.8587
ao❄14쎯si❁24쎯	-10.8587
hong❂25쎯yang❂10쎯	-10.8589
lv❃11쎯hang❂16쎯	-10.8591
kui❁2쎯	-10.8595
de❅2쎯hua❄26쎯	-10.8595
yi❂61쎯zhi❂20쎯	-10.8595
쎆ren❂1쎯,	-10.8596
huan❄31쎯	-10.8596
ming❂7쎯pai❂4쎯	-10.8596
qie❄1	-10.8598
쎁쎈쎈	-10.8598
ge❄3쎯you❃11쎯	-10.8601
,duo❁5쎯ci❄16쎯	-10.8603
쎈쎀쎂.쎃	-10.8604
쎁liang❃5쎯	-10.861
peng❂11쎯	-10.861
jing❁24쎯que❄26쎯	-10.8613
.dui❄14쎯	-10.862
nan❂14쎯hai❂6쎯	-10.8621
shou❁1쎯fei❄37쎯	-10.8625
wan❂19쎯	-10.8626
liang❂19쎯wei❄14쎯	-10.8629
、hong❂44쎯	-10.863
tao❄1쎯fang❂2쎯	-10.8631
jian❁25쎯feng❁17쎯	-10.8631
jin❁33쎯shan❁11쎯	-10.8632
nong❂5쎯yao❄12쎯	-10.8633
you❂25쎯xi❄33쎯,	-10.8639
wei❄27쎯	-10.8643
san❁1쎯wei❂38쎯	-10.8646
yin❁37쎯yang❂35쎯	-10.8647
shuo❁2쎯:“	-10.8649
shi❁33쎯wen❂5쎯	-10.8649
ni❄	-10.8653
wen❂12쎯,	-10.8653
zun❁7쎯xun❂16쎯	-10.8653
dao❃7쎯shang❃1쎯	-10.8654
zhi❁13쎯chu❄17쎯	-10.8655
fu❄74쎯jia❁7쎯	-10.8658
bu❄38쎯fen❁4쎯,	-10.8659
mo❄16쎯zi❄6쎯	-10.8661
쎀.쎇	-10.8661
.쎁쎉쎈쎂nian❂6쎯	-10.8662
wu❃9쎯da❄0쎯	-10.8663
yi❁10쎯shi❂20쎯	-10.8663
zao❄5쎯	-10.8664
xu❄68쎯	-10.8668
yan❂50쎯jiu❁16쎯》	-10.8669
yi❁10쎯ren❂1쎯	-10.8671
zao❂1쎯	-10.8672
〈	-10.8677
,bei❃2쎯yu❃14쎯	-10.8678
cheng❂17쎯dong❁3쎯	-10.8678
❃8쎯	-10.868
wan❄11쎯	-10.8682
tai❄9쎯shan❁11쎯	-10.8685
ling❂58쎯min❃13쎯	-10.869
jiao❁44쎯	-10.8691
qi❂63쎯	-10.8693
bu❄28쎯zhou❄39쎯	-10.8694
쎉hao❂6쎯	-10.8696
li❄59쎯.	-10.87
piao❁4쎯liang❄2쎯	-10.87
wu❂27쎯hu❂32쎯	-10.8703
shou❁1쎯suo❁15쎯	-10.8704
yan❁30쎯	-10.8704
zeng❁2쎯zhi❂7쎯	-10.8705
teng❂7쎯	-10.8706
ji❄36쎯,	-10.8707
mu❄15쎯er❃12쎯	-10.8708
dui❄14쎯qi❂29쎯	-10.8708
min❂22쎯bi❄51쎯	-10.8708
ling❂99쎯jian❄15쎯	-10.8708
xiang❁26쎯cai❄5쎯	-10.8709
쎁쎉쎂쎆nian❂6쎯	-10.871
zhong❁4쎯wen❂5쎯m	-10.8711
chang❂15쎯nian❂6쎯	-10.8714
eng❂29쎯yuan❂15쎯	-10.8716
zi❄	-10.8717
lv❃14쎯ke❄14쎯che	-10.8717
zi❄6쎯mu❃6쎯	-10.8717
sheng❁16쎯chou❁5쎯	-10.8718
lv❄15쎯wei❄14쎯	-10.8719
.sheng❁16쎯yu❂35쎯	-10.872
bai❃9쎯ge❃0쎯	-10.8724
qi❃34쎯cao❃5쎯	-10.8724
bian❁16쎯jie❄29쎯	-10.8727
wen❂5쎯ben❃5쎯	-10.873
qiao❂12쎯zhen❄30쎯	-10.8731
shi❃8쎯》	-10.8733
fu❄31쎯xing❄8쎯	-10.8734
zhuo❁	-10.8734
la❁4쎯	-10.8734
ge❁16쎯chang❄2쎯	-10.8734
jue❂33쎯sai❄4쎯	-10.8736
yu❃14쎯qi❂29쎯	-10.8744
—쎂쎀쎀	-10.8748
ji❂81쎯guan❄33쎯	-10.8748
쎁쎀ke❄6쎯,	-10.875
xiu❄13쎯	-10.8754
zu❃7쎯zhang❃6쎯	-10.8755
fei❁12쎯lv❄9쎯bin❁	-10.8756
wai❄0쎯mao❄39쎯	-10.8759
ta❁3쎯shi❄45쎯	-10.8759
shi❃6쎯ming❄1쎯	-10.876
쎂쎀ke❄6쎯	-10.8765
tian❁5쎯xian❄47쎯	-10.8765
(xian❄37쎯	-10.8766
lu❃27쎯xun❄28쎯	-10.8766
de❅0쎯ming❂7쎯	-10.8767
mang❂30쎯	-10.8768
wei❁13쎯er❃6쎯	-10.8776
ti❄21쎯dai❄9쎯	-10.8778
li❄108쎯gan❁16쎯	-10.8779
yi❄67쎯cheng❁28쎯	-10.878
fen❁4쎯lei❄16쎯:	-10.878
zi❄16쎯yuan❄10쎯	-10.8782
jin❁33쎯hua❂14쎯	-10.8786
pang❂6쎯	-10.8787
쎁쎉쎃쎁nian❂6쎯	-10.8789
dian❄23쎯ti❁6쎯	-10.879
leng❃쎯shui❃0쎯	-10.879
hao❂6쎯ma❃8쎯	-10.8792
hen❃2쎯you❃11쎯	-10.8793
dan❄38쎯qi❄20쎯	-10.8793
ji❁48쎯zu❃7쎯	-10.8795
❄4쎯	-10.8797
、xiao❁61쎯shou❄5쎯	-10.8798
yu❂38쎯	-10.8799
yi❄203쎯	-10.88
.쎀쎅	-10.8801
cong❁36쎯ming❂8쎯	-10.8802
xi❁97쎯xian❄22쎯	-10.8802
zhen❁30쎯jun❁15쎯	-10.8802
na❃3쎯yang❂17쎯	-10.8803
ke❄6쎯la❁7쎯	-10.8804
tong❂13쎯meng❂34쎯	-10.8804
zhang❁9쎯	-10.8805
de❅0쎯,	-10.8806
mei❂18쎯hua❁11쎯	-10.8806
shai❄1쎯	-10.8807
qu❁15쎯zhang❃6쎯	-10.8809
xian❄47쎯tiao❂9쎯	-10.8809
jin❁33쎯pai❂4쎯	-10.8809
si❄15쎯shi❄33쎯	-10.8811
shi❄74쎯	-10.8812
shi❄79쎯	-10.8812
tong❁5쎯feng❁58쎯	-10.8812
di❂24쎯	-10.8813
dang❃2쎯zheng❄12쎯	-10.8814
da❄0쎯dou❄18쎯	-10.8815
ji❁48쎯ben❄4쎯	-10.8816
wen❂12쎯shi❄99쎯	-10.8817
zao❄8쎯	-10.8819
dou❁12쎯zai❄5쎯	-10.8823
e❂27쎯	-10.8824
cang❂5쎯zu❂9쎯	-10.8824
bu❂0쎯dan❄10쎯	-10.8826
juan❁	-10.8827
nan❂6쎯mian❄2쎯	-10.883
쎂/	-10.8831
bai❃9쎯ke❁16쎯	-10.8834
ban❁15쎯de❅2쎯	-10.8835
bu❄38쎯la❄23쎯	-10.8839
ke❁8쎯	-10.8848
huo❂3쎯xie❃8쎯	-10.885
si❁33쎯li❄141쎯	-10.8854
ban❁7쎯	-10.8854
ma❅1쎯	-10.8855
jiao❁20쎯ke❁16쎯	-10.8858
xiang❄20쎯,	-10.886
kou❃1쎯gan❃6쎯	-10.886
fang❄0쎯da❄0쎯	-10.886
ben❄4쎯xing❂9쎯	-10.8861
cao❃5쎯de❅0쎯	-10.8861
bei❄48쎯di❂17쎯	-10.8862
si❃0쎯hou❄7쎯	-10.8865
yin❁11쎯zi❃7쎯	-10.8866
쎁쎉쎄쎂nian❂6쎯	-10.8868
chu❁3쎯fa❁1쎯	-10.887
ji❄59쎯yi❄190쎯	-10.8873
zhe❃2쎯han❄20쎯	-10.8873
kuo❄15쎯pei❄19쎯	-10.8877
yue❁1쎯wei❄14쎯	-10.8877
qi❃11쎯	-10.8878
bei❃2쎯da❄0쎯	-10.8878
qu❃1쎯dai❄9쎯	-10.888
hong❂44쎯se❄29쎯,	-10.888
ci❂15쎯shan❄15쎯	-10.8882
쎁쎈쎉	-10.8887
bu❂0쎯cuo❄18쎯	-10.8891
쎃ren❂1쎯	-10.8892
hui❄34쎯	-10.8894
dian❃11쎯.	-10.8895
jiao❄18쎯she❄23쎯	-10.8895
jiao❃46쎯	-10.8895
,xiao❃2쎯	-10.8896
duo❁5쎯bu❄38쎯	-10.8896
ye❃1쎯jiao❄6쎯	-10.8899
xuan❃8쎯yu❄93쎯	-10.8901
sheng❃9쎯na❄11쎯	-10.8904
zhu❁17쎯bao❃13쎯	-10.8905
yao❃16쎯	-10.8907
shan❁11쎯shang❃1쎯	-10.8907
mo❄16쎯yuan❂10쎯.	-10.8907
dui❄33쎯dui❄33쎯	-10.8908
shi❂39쎯pu❃13쎯	-10.8911
-쎁쎅	-10.8911
guang❁2쎯ce❄33쎯	-10.8911
ru❄2쎯dang❃2쎯	-10.8914
qin❁4쎯zi❄16쎯	-10.8917
chu❁3쎯dao❄24쎯	-10.8918
xin❄8쎯yang❃4쎯	-10.8919
wen❂5쎯shi❃8쎯	-10.8923
ka❃1쎯pian❁5쎯	-10.8924
man❄11쎯man❄11쎯	-10.8925
di❂41쎯piao❄5쎯	-10.893
pei❁7쎯	-10.8932
jin❄61쎯zhan❃11쎯	-10.8932
lv❃14쎯ke❄14쎯	-10.8932
ge❁16쎯ci❂29쎯	-10.8934
hou❄7쎯yin❁11쎯	-10.8936
쎂쎈쎀	-10.8936
,jin❁10쎯	-10.8938
/쎁	-10.8938
zhi❂20쎯wu❄36쎯,	-10.8942
zai❄8쎯ben❄4쎯	-10.8942
ke❄14쎯zuo❄12쎯	-10.8944
yu❂35쎯ci❃2쎯	-10.8945
pin❃0쎯.	-10.8945
,shi❂20쎯ren❂4쎯	-10.8947
jia❁7쎯zhou❁9쎯	-10.8947
shi❁11쎯cong❂6쎯	-10.895
shi❁20쎯zi❃7쎯	-10.8952
jian❄29쎯she❄29쎯,	-10.8952
d	-10.8953
ce❄22쎯hui❄79쎯	-10.8954
shi❄33쎯de❅2쎯	-10.8955
.zhe❄14쎯li❃26쎯	-10.8957
jin❄61쎯hua❁1쎯	-10.8957
jian❄17쎯pi❂22쎯	-10.8959
”zi❄6쎯	-10.8964
gai❄11쎯	-10.8967
yi❁10쎯zu❃7쎯	-10.8972
yan❁17쎯hou❂11쎯	-10.8973
gong❁10쎯min❂22쎯	-10.8973
gou❁11쎯qi❃23쎯	-10.8974
shi❄84쎯	-10.8974
guang❁2쎯xian❁39쎯	-10.8975
cun❁1쎯zhen❄30쎯	-10.8976
bu❄19쎯	-10.8977
zhai❄2쎯	-10.8977
쎂쎅ke❄6쎯	-10.8978
ke❄6쎯li❃26쎯	-10.8978
cui❁3쎯	-10.8978
shu❁8쎯xie❃4쎯	-10.898
e❂13쎯	-10.8982
gong❁11쎯neng❂2쎯,	-10.8982
gu❃63쎯li❄60쎯	-10.8983
zao❃2쎯nian❂6쎯	-10.8986
bian❄16쎯shi❄45쎯	-10.8986
yue❄56쎯lan❃28쎯	-10.8986
yong❄3쎯yao❄12쎯	-10.8991
bai❃6쎯lin❂19쎯	-10.8996
bu❂0쎯xie❄49쎯	-10.8997
쎂쎁shi❄15쎯ji❄94쎯	-10.8998
ming❂7쎯shi❁11쎯	-10.8999
hu❂32쎯bo❂52쎯	-10.9001
qian❂8쎯jin❄61쎯	-10.9001
sha❁4쎯hai❄8쎯	-10.9001
wu❄12쎯shi❂13쎯	-10.9003
bing❄12쎯bian❄19쎯	-10.9005
jiang❁5쎯hui❄27쎯	-10.9006
er❂16쎯lai❂16쎯	-10.9008
che❃7쎯cun❄2쎯:쎁	-10.9009
liao❄6쎯	-10.901
zhi❂	-10.9013
xiu❁11쎯ding❄15쎯	-10.9014
zhen❄30쎯dong❁3쎯	-10.9014
shi❂39쎯yan❂49쎯	-10.9015
hu❂46쎯tong❂13쎯	-10.9015
xian❄22쎯(jin❁10쎯	-10.9015
jia❁13쎯ren❂1쎯	-10.9017
yi❄67쎯you❃11쎯	-10.9019
、wang❂5쎯	-10.9019
liu❄3쎯gan❄3쎯	-10.9022
yuan❃4쎯xiao❁61쎯	-10.9024
-)	-10.9025
chang❂14쎯shi❄78쎯	-10.9028
dong❁3쎯ce❄8쎯	-10.9029
quan❂6쎯zi❁45쎯	-10.9029
gun❄2쎯	-10.903
xu❄3	-10.9031
si❄17쎯fang❁4쎯	-10.9032
、yan❂49쎯	-10.9037
,zhe❄14쎯yang❂17쎯	-10.9038
de❅0쎯wei❁12쎯	-10.904
fu❄65쎯》:“	-10.9041
tong❂36쎯hua❄26쎯	-10.9042
zhi❁13쎯dao❄24쎯	-10.9044
,zhi❁16쎯you❃11쎯	-10.9045
ji❁54쎯lie❄34쎯	-10.9046
《》	-10.9046
liang❃5쎯tiao❂9쎯	-10.9047
shan❁11쎯ding❃11쎯	-10.905
yong❄3쎯tu❂38쎯:	-10.905
ri❄2쎯bao❄10쎯》	-10.9051
,zhe❄14쎯gan❄3쎯	-10.9051
.쎂쎀쎁쎁nian❂6쎯	-10.9052
u❁0쎯	-10.9055
wan❃13쎯	-10.9057
wei❂38쎯ya❄7쎯	-10.906
jian❁25쎯gong❁17쎯	-10.9071
shi❄18쎯.	-10.9073
sha❁14쎯tang❂28쎯	-10.9073
mian❄2쎯ji❁64쎯쎀.	-10.9074
ru❄2쎯dang❃2쎯,	-10.9077
tang❂13쎯chao❂6쎯	-10.9077
juan❃1쎯,	-10.9078
tong❂13쎯ji❄72쎯	-10.9078
de❅0쎯shi❄22쎯	-10.908
zhe❄14쎯ci❄16쎯	-10.9083
,xi❁143쎯lin❂43쎯	-10.9084
hui❄27쎯zhang❃6쎯,	-10.9084
nian❂6쎯sheng❁16쎯	-10.9085
쎁쎉쎄쎄nian❂6쎯	-10.9086
gan❁20쎯	-10.9087
:tu❂14쎯shu❁8쎯>	-10.9089
:쎀.	-10.9093
jia❁7쎯shui❃0쎯	-10.9098
쎆gong❁10쎯li❃26쎯	-10.9103
du❄8쎯,	-10.9104
zhan❄10쎯chang❃4쎯	-10.9106
쎄ren❂1쎯	-10.9107
qing❁20쎯shan❁11쎯	-10.9107
jian❁17쎯chi❂20쎯“	-10.9109
diu❁1쎯	-10.911
dui❄14쎯mian❄2쎯	-10.9111
쎁쎂-	-10.9116
you❃11쎯se❄29쎯	-10.9117
bei❁15쎯mian❄2쎯	-10.9117
chang❃4쎯、	-10.9118
you❂25쎯xi❄33쎯《	-10.9119
yi❂31쎯chang❁6쎯	-10.9121
ren❂4쎯ming❄1쎯	-10.9125
쎁,	-10.9127
wang❃14쎯you❂25쎯	-10.9129
쎁:	-10.9131
ba❁9쎯jiao❃57쎯	-10.9139
miao❃	-10.914
zhi❄88쎯shao❃2쎯	-10.9141
han❃15쎯jian❄62쎯	-10.9143
hai❁6쎯sou❄0쎯	-10.9144
qiao❄20쎯	-10.9149
rou❂5쎯	-10.915
е	-10.915
yang❂10쎯qing❄3쎯	-10.9151
쎅hao❂6쎯	-10.9152
qi❂57쎯	-10.9154
,쎂쎀쎀쎄nian❂6쎯	-10.9155
р	-10.9155
mu❄15쎯zhi❄104쎯	-10.9156
liu❂33쎯suan❁3쎯	-10.9157
yuan❂10쎯dai❄9쎯	-10.9158
qian❂8쎯wei❄16쎯	-10.9158
men❄7쎯	-10.9165
yi❃15쎯cheng❂29쎯	-10.9167
wai❄0쎯biao❃5쎯	-10.9169
uo❄5쎯wu❄36쎯.you❃	-10.917
ken❃	-10.917
deng❃2쎯nong❂5쎯z	-10.9173
.쎁.	-10.9174
huo❄50쎯sheng❃9쎯	-10.9175
shuo❁2쎯hua❄26쎯	-10.9177
yi❁10쎯dan❄27쎯	-10.9178
su❁10쎯wei❂38쎯ai❁	-10.918
qiu❂19쎯zhang❃6쎯	-10.9183
11쎯geng❁17쎯de❅0쎯	-10.9184
chu❄36쎯mo❁쎯	-10.9184
qing❁10쎯mo❄30쎯	-10.9187
xin❁10쎯ren❂1쎯	-10.9187
mian❄2쎯qian❂8쎯	-10.9191
38쎯	-10.9191
pu❂17쎯tian❂16쎯	-10.9195
jin❁33쎯yin❂44쎯	-10.9196
shuang❁4쎯he❂35쎯	-10.9197
lian❄8쎯ai❄26쎯	-10.9198
zhi❄30쎯bei❄26쎯	-10.9199
pi❂5쎯jiu❃12쎯	-10.92
ruan❃18쎯	-10.9202
xie❃4쎯de❅2쎯	-10.9205
쎉쎀쎀/쎁쎈쎀쎀	-10.9209
zhan❃11쎯chu❁3쎯	-10.9211
rou❂6쎯ruan❃17쎯	-10.9212
rou❄1쎯zhi❄104쎯	-10.9212
ga❂0쎯	-10.9212
er❃	-10.9212
wen❄4쎯	-10.9213
liang❃5쎯mian❄2쎯	-10.9214
shi❁11쎯da❄0쎯	-10.9214
shan❄	-10.9216
fen❂7쎯	-10.9216
ying❄9쎯du❄8쎯	-10.9221
,zhi❄88쎯jin❁10쎯	-10.9222
sheng❃9쎯dao❄24쎯	-10.9224
ci❂20쎯qi❄20쎯	-10.9225
,jian❄29쎯li❄141쎯	-10.9225
mian❃24쎯dian❄24쎯	-10.9227
zhi❄79쎯xu❄36쎯	-10.9228
tang❂13쎯shu❁8쎯·	-10.9232
.쎁쎉쎈쎄nian❂6쎯	-10.9235
、fu❂43쎯wu❄12쎯	-10.9237
zheng❄13쎯wei❄14쎯	-10.9237
diao❄17쎯liao❄8쎯:	-10.9237
xiang❃6쎯yao❁17쎯	-10.9238
gu❁9쎯niang❂0쎯	-10.924
lian❃7쎯	-10.9244
fa❁1쎯yuan❂34쎯	-10.9245
xia❂13쎯gu❃52쎯	-10.9253
ye❃1쎯bei❄48쎯	-10.9253
pi❂11쎯	-10.9254
zhe❄14쎯lei❄16쎯	-10.9255
,chu❂42쎯	-10.9256
zhang❃6쎯tu❂38쎯	-10.9259
na❄11쎯rong❂21쎯.	-10.926
dan❁15쎯bao❃9쎯	-10.9261
zhi❂16쎯dao❃5쎯	-10.9261
쎀쎀mu❃2쎯	-10.9262
dan❁9쎯wei❄15쎯、	-10.9267
er❃6쎯fu❁13쎯	-10.927
po❄23쎯	-10.9271
suo❃11쎯yong❄3쎯	-10.9272
lin❂32쎯suan❁3쎯	-10.9274
❂4쎯	-10.9275
shi❄31쎯wai❄0쎯	-10.9277
yu❃26쎯	-10.9277
qi❃34쎯le❅0쎯	-10.9278
tian❁5쎯kong❁9쎯	-10.9278
bu❄23쎯zhi❄85쎯	-10.9279
zhe❂4	-10.9283
de❅0쎯mao❄37쎯	-10.9283
mo❄16쎯duo❁5쎯	-10.9287
ju❄14쎯quan❂6쎯	-10.929
hui❂1쎯shou❁1쎯	-10.9292
wei❁17쎯mi❃19쎯	-10.9292
pan❄10쎯	-10.9293
쎅쎀ke❄6쎯,	-10.9295
tu❂38쎯zhong❁4쎯	-10.9296
fu❄28쎯xian❄22쎯	-10.9296
yan	-10.9298
you❁5쎯hui❄50쎯	-10.9299
an❄14쎯mo❂9쎯	-10.9299
you❂29쎯yuan❂12쎯	-10.9299
te❄5쎯er❃6쎯	-10.9302
cheng❂17쎯xi❁143쎯	-10.9303
yan❃42쎯ke❁16쎯	-10.9306
mei❄5쎯mei❄5쎯	-10.9307
xing❄9쎯ming❂7쎯:	-10.9311
e❄29쎯	-10.9311
jian❄58쎯	-10.9312
guo❂11쎯chan❃12쎯	-10.9317
wei❄24쎯	-10.9321
64쎯	-10.9322
shi❂13쎯wu❄12쎯	-10.9322
zuo❄5쎯wen❂5쎯	-10.9324
bao❃9쎯an❁13쎯	-10.9324
qi❃25쎯zhi❄104쎯	-10.9324
fen❃1쎯si❁11쎯	-10.9325
chu❁3쎯xi❂12쎯	-10.9325
bu❃11쎯chang❂6쎯	-10.9325
쎁yue❄29쎯쎁ri❄2쎯	-10.9328
sun❃4쎯hai❄8쎯	-10.9328
lu❄70쎯jiao❁8쎯	-10.9331
jia❃14쎯ji❂83쎯	-10.9333
ai❄26쎯de❅2쎯	-10.9333
chang❃4쎯,	-10.9337
zhi❄56쎯li❄59쎯	-10.9337
you❂	-10.9338
,jian❄29쎯zhu❂18쎯	-10.9339
쎅ren❂1쎯	-10.9341
쎁쎂yue❄29쎯ren❂4쎯	-10.9342
.dan❄10쎯shi❄45쎯	-10.9345
yi❁10쎯fang❁4쎯	-10.9345
te❄5쎯dian❃11쎯.	-10.9347
.ke❃4쎯	-10.935
.zhao❂쎯you❃11쎯《	-10.935
sha❄6쎯	-10.9351
.쎂쎀쎀쎁nian❂6쎯	-10.9352
lin❂20쎯ba❁16쎯	-10.9357
ji❄83쎯si❄32쎯	-10.9359
ya❁22쎯	-10.9359
wu❂17쎯xu❁37쎯	-10.9361
jin❃24쎯lin❂43쎯	-10.9363
.jin❄60쎯nian❂6쎯	-10.9363
bao❃27쎯	-10.9364
wu❄36쎯liao❄8쎯	-10.9365
fu❃11쎯	-10.9366
wu❄12쎯gong❁17쎯	-10.9368
kuo❄7쎯	-10.9368
jing❃13쎯se❄29쎯	-10.9368
chi❄3	-10.9369
xia❂1	-10.9371
er❂16쎯de❂7쎯	-10.9374
kuo❄7쎯jian❄29쎯	-10.9377
shu❃5쎯xia❄3쎯	-10.9378
ng❃15쎯cheng❂30쎯“	-10.9379
mian❄2쎯qiu❂19쎯	-10.9381
shan❁11쎯xiang❁1쎯	-10.9381
gai❃2쎯cheng❁28쎯	-10.9382
쎂.쎂	-10.9383
man❃4쎯zu❂9쎯	-10.9383
dui❄13쎯	-10.9387
zhui❁6쎯	-10.9388
yan❂50쎯fa❁1쎯、	-10.9388
dan❁	-10.9389
zhu❁17쎯jiang❁10쎯	-10.9392
(ji❂114쎯qiu❂19쎯)	-10.9393
fei❄27쎯shui❃0쎯	-10.9394
bi❃17쎯ci❃2쎯	-10.9394
shi❃9쎯yu❂35쎯	-10.9395
xie❂16쎯bing❃9쎯	-10.9395
chong❂17쎯xiu❁11쎯	-10.9396
qian❁13쎯li❃26쎯	-10.9398
cuo❄7쎯	-10.9403
yin❁44쎯xiang❃5쎯	-10.9403
hang❂16쎯,	-10.9403
bi❃	-10.9404
na❄20쎯shui❄11쎯	-10.9404
ban❄10쎯	-10.9407
nan❂20쎯du❄8쎯	-10.9407
jian❁68쎯ku❃1쎯	-10.9408
san❁1쎯jie❄19쎯	-10.9409
de❂9쎯yu❄93쎯	-10.9416
fu❄28쎯yuan❄18쎯	-10.9416
yi❁10쎯du❄8쎯	-10.9418
ba❂19쎯	-10.942
xiang❄24쎯mu❄22쎯.	-10.9421
zhi❁13쎯shang❃1쎯	-10.9421
suan❄3쎯fa❃2쎯	-10.9423
wu❂17쎯mao❂11쎯	-10.9424
yi❃15쎯bei❄48쎯	-10.9425
)zi❄6쎯	-10.9426
yuan❂12쎯chan❃12쎯	-10.9426
feng❁17쎯jian❄29쎯	-10.9428
shi❄60쎯li❄51쎯	-10.9428
,an❄14쎯	-10.9429
,ta❁6쎯们	-10.9434
shi❄32쎯zhong❁4쎯	-10.9435
,jie❂67쎯ge❃0쎯	-10.9436
tong❂13쎯hang❂16쎯	-10.9437
,huo❄27쎯zhe❃2쎯	-10.9437
bian❃13쎯	-10.944
se❄29쎯su❄56쎯	-10.9441
qiu❂19쎯gou❄26쎯	-10.9441
tao❁	-10.9442
lian❂	-10.9443
qu❄11쎯wei❄18쎯	-10.9444
xin❁7쎯qing❂6쎯	-10.9444
song❁7쎯	-10.9445
lun❄1쎯》	-10.9445
gu❄12쎯shi❄18쎯,	-10.9447
jie❄15쎯jian❄77쎯	-10.9447
,xia❂39쎯	-10.9449
li❃15쎯cai❂9쎯	-10.9453
su❄55쎯	-10.9455
쎁.쎃	-10.9456
쎂쎀gong❁10쎯li❃26쎯	-10.9457
wan❂5쎯、	-10.9457
,쎂쎀쎀쎅nian❂6쎯	-10.9459
yang❃17쎯	-10.9459
xian❁18쎯feng❁52쎯	-10.946
yin❁29쎯	-10.946
❃6쎯	-10.9462
si❄17쎯jiao❃57쎯	-10.9462
qi❃25쎯shi❄22쎯	-10.9464
hu❂49쎯die❂56쎯	-10.947
wei❁17쎯bo❁11쎯	-10.9472
,kuan❁0쎯	-10.9473
quan❂6쎯zhang❃6쎯	-10.9473
ge❁16쎯ju❄18쎯	-10.9474
hou❄7쎯bei❄48쎯	-10.9476
lei❃29쎯	-10.9476
fang❁4쎯cheng❂52쎯	-10.9476
ji❁54쎯su❄56쎯	-10.9476
zhu❃4쎯gan❁16쎯	-10.9477
wo❄12쎯	-10.9482
jing❄48쎯dian❄23쎯	-10.9483
,jun❁6쎯	-10.9484
di❄45쎯쎅	-10.9484
li❄51쎯ru❂9쎯	-10.9485
,xiang❄6쎯	-10.9486
mi❂39쎯	-10.9489
pa❂3쎯	-10.949
liang❂19쎯:쎂	-10.949
shu❄26쎯zhi❂7쎯	-10.949
suo❃11쎯fu❄28쎯	-10.9492
han❃11쎯zhang❃6쎯	-10.9492
la❄23쎯xie❂16쎯	-10.9493
te❄5쎯ji❂83쎯	-10.9493
dian❄11쎯ding❄2쎯	-10.9494
zuo❄7쎯fa❃2쎯	-10.9494
zhi❁13쎯zhong❁4쎯,	-10.9496
bi❃24쎯shun❄11쎯	-10.9497
쎁쎅쎀ke❄6쎯	-10.9498
yi❂65쎯	-10.9501
duan❄20쎯lian❄17쎯	-10.9503
yu❁	-10.9505
gong❁9쎯xiao❁61쎯	-10.9505
쎁쎈쎅	-10.9505
lou❂15쎯	-10.9507
mi❄24쎯ji❂114쎯	-10.9508
men❂19쎯,	-10.9508
zhen❁52쎯jiu❃8쎯	-10.9508
kan❁3쎯wu❄36쎯shan	-10.9509
ru❄2쎯men❂19쎯	-10.9509
,쎂쎀쎀쎆nian❂6쎯	-10.9512
쎂ren❂1쎯	-10.9515
ta❄	-10.9515
juan❄9쎯	-10.9518
zhou❄14쎯	-10.952
shi❄32쎯ren❂1쎯.	-10.9522
.쎁	-10.9523
ji❁54쎯qing❂6쎯	-10.9524
mou❂11쎯	-10.9525
zhuan❁1쎯jia❁13쎯.	-10.9531
ke❄6쎯lan❂13쎯	-10.9536
dan❄38쎯tou❂4쎯	-10.9538
mo❂26쎯shou❄3쎯	-10.9539
niang❄1쎯	-10.9542
cu❄10쎯nian❂6쎯	-10.9542
jiang❁10쎯qu❁15쎯	-10.9543
ping❂17쎯gu❃28쎯	-10.9544
mao❂	-10.9544
ding❃11쎯bu❄38쎯	-10.9545
ji❁34쎯de❅0쎯,	-10.9546
쎁쎀쎆	-10.955
yao❂51쎯	-10.9552
-쎂쎀쎀	-10.9552
si❁24쎯ji❁34쎯	-10.9554
ti❂17쎯ming❂7쎯	-10.9557
,ti❂17쎯gong❁9쎯	-10.9557
se❄29쎯,	-10.9562
yu❄105쎯wei❄14쎯“	-10.9563
fang❄0쎯qi❄23쎯	-10.9567
(쎆	-10.9568
chi❂20쎯you❃11쎯	-10.9569
bu❂0쎯shou❄4쎯	-10.957
ge❁8쎯ge❁8쎯	-10.957
xie❂24쎯shou❃4쎯	-10.9571
li❄108쎯	-10.9572
tong❃9쎯cheng❁28쎯	-10.9572
mai❃0쎯mai❄6쎯	-10.9573
shu❁23쎯	-10.9575
쎆hao❂6쎯	-10.9576
,zhe❄14쎯li❃26쎯	-10.9579
、shang❃1쎯hai❃1쎯	-10.9583
,gai❃2쎯	-10.9584
dong❁3쎯jing❁27쎯쎁	-10.9584
jian❁25쎯ban❄4쎯	-10.9586
jin❄60쎯nian❂6쎯	-10.9587
shi❄20쎯lang❂28쎯	-10.9587
hun❁4쎯li❃17쎯	-10.9587
pian❁5쎯、	-10.9591
lei❃25쎯ji❄116쎯	-10.9593
jin❃29쎯	-10.9594
bian❄19쎯ya❁7쎯	-10.9599
shao❃2쎯er❂7쎯	-10.9604
gong❁15쎯ting❂9쎯	-10.9606
,an❁15쎯dong❁3쎯	-10.9609
jiu❁19쎯	-10.9611
xian❃24쎯de❂7쎯	-10.9614
yi❁10쎯fu❂36쎯	-10.9615
쎈ren❂1쎯,	-10.9616
da❄0쎯suan❄4쎯	-10.9618
rui❄13쎯	-10.9622
gen❁1쎯zong❁31쎯	-10.9624
xiang❁9쎯bi❃20쎯	-10.9626
,chong❁9쎯fen❁4쎯	-10.9627
bu❄23쎯la❁7쎯	-10.9629
du❃3쎯	-10.9632
a❁6쎯gen❁0쎯ting❂	-10.9633
er❂16쎯yan❂61쎯	-10.9636
er❄5쎯jie❄19쎯	-10.9636
pai❁0쎯mai❄6쎯	-10.9637
shen❁23쎯bao❄10쎯	-10.9637
shang❃1쎯le❅0쎯	-10.9638
.tong❁5쎯guo❄2쎯	-10.9638
wu❂17쎯ji❁48쎯	-10.9638
lu❂45쎯	-10.9642
jie❂67쎯he❂35쎯	-10.9644
chuang❄1쎯kan❁3쎯	-10.9647
bei❄48쎯bu❃9쎯	-10.9648
❁0쎯	-10.965
zhi❃19쎯chu❁3쎯	-10.9652
zheng❁22쎯cha❁3쎯	-10.9652
qiao❄14쎯	-10.9653
shou❃6쎯xuan❃8쎯	-10.9658
,dong❁3쎯	-10.9659
qian❂8쎯lie❄20쎯	-10.9661
쎀°	-10.9662
zao❃2쎯zai❄5쎯	-10.9664
guo❃3쎯shu❄28쎯	-10.9667
wang❄1쎯	-10.9668
shi❄78쎯dian❃11쎯	-10.9674
с	-10.9675
yi	-10.9676
dong❁3쎯feng❁58쎯	-10.9677
chu❄17쎯zhang❃6쎯、	-10.9678
쎅.쎅	-10.9679
bao❂9쎯mo❂16쎯	-10.968
chi❃33쎯lun❂28쎯	-10.9681
—쎁쎉쎉	-10.9681
jie❁13쎯rang❃3쎯,	-10.9682
chu❁3쎯chang❃4쎯	-10.9683
hui❄27쎯di❄45쎯	-10.9686
zhe❄14쎯wei❄15쎯	-10.9686
xiao❁61쎯shou❄5쎯、	-10.9688
du❂25쎯dao❄3쎯	-10.9689
jiu❃12쎯ba❁11쎯	-10.969
jiang❃19쎯shou❄9쎯	-10.969
.ta❁3쎯de❅2쎯	-10.9692
yi❃10쎯ci❃2쎯	-10.9693
쎆ren❂1쎯	-10.9693
zao❁7쎯dao❄3쎯	-10.9693
zhen❁	-10.9696
you❄21쎯chong❂14쎯	-10.9696
wei❁13쎯xie❂37쎯	-10.9697
.....	-10.9701
zhi❄104쎯bao❃9쎯	-10.9701
zhuo❂28쎯	-10.9702
쎀hao❂14쎯sheng❁3쎯	-10.9703
ju❄65쎯xian❄22쎯	-10.9704
hui❄27쎯zhang❃6쎯、	-10.9705
ying❄9쎯pan❂10쎯r	-10.9706
gu❄12쎯xiang❁1쎯	-10.971
chong❁10쎯tu❁14쎯	-10.971
lei❄16쎯、	-10.9711
xiang❁7쎯tan❂20쎯	-10.9711
、jin❁33쎯	-10.9711
,da❄0쎯zhuan❁1쎯	-10.9711
.sui❁12쎯ran❂12쎯	-10.9712
gui❁35쎯hua❂11쎯、	-10.9713
chu❁3쎯zi❁45쎯	-10.9714
lun❂4쎯	-10.9714
쎁쎁-	-10.9714
jiao❁20쎯hui❄27쎯	-10.9715
re	-10.9715
dai❁0쎯	-10.9716
shui❃0쎯yu❄31쎯	-10.972
ru❂9쎯:	-10.9721
.쎁쎉쎈쎅nian❂6쎯	-10.9722
jian❃36쎯suo❃18쎯	-10.9725
,ge❄3쎯	-10.9725
쎉쎀nian❂6쎯dai❄9쎯	-10.9725
zhuo❂	-10.9726
∶	-10.9726
ke❃4쎯shi❄71쎯	-10.9728
shan❁11쎯yao❄12쎯	-10.9729
shi❄45쎯wo❃3쎯们	-10.9731
쎁쎁쎂	-10.9732
쎇쎀nian❂6쎯dai❄9쎯	-10.9736
he❂35쎯suan❄3쎯	-10.9737
dou❁12쎯bu❂0쎯	-10.9738
:쎁쎀	-10.9738
shu❁8쎯》	-10.9739
duan❄20쎯	-10.974
fa❃2쎯lan❂13쎯	-10.974
ye❃1쎯neng❂2쎯	-10.9744
huan❄12쎯	-10.9744
、chen❂41쎯	-10.9744
、wu❂17쎯	-10.9747
.쎁쎉쎉쎈nian❂6쎯	-10.9748
)-	-10.9749
yuan❂34쎯zi❄16쎯	-10.9749
ao❄14쎯de❅0쎯li❄5	-10.975
qing❁20쎯hua❁11쎯	-10.9751
쎂,	-10.9752
ting❁10쎯	-10.9753
、zhe❄9쎯jiang❁10쎯	-10.9756
mu❄22쎯biao❁14쎯,	-10.9757
yan❂37쎯xu❄69쎯	-10.9758
shi❄32쎯xi❁143쎯	-10.976
xi❄46쎯fu❄28쎯	-10.9761
jian❁25쎯tong❁5쎯	-10.9763
wu❄28쎯	-10.9764
(qu❄6쎯	-10.9766
pei❄19쎯song❄9쎯	-10.9767
wu❁17쎯shui❃0쎯	-10.9767
ji❂57쎯xian❄61쎯	-10.9768
bing❁6쎯fei❁15쎯	-10.9769
lou❂19쎯,	-10.977
lei❂30쎯da❂30쎯	-10.9772
gu❁4쎯	-10.9774
zai❁0쎯	-10.9774
lai❂16쎯,	-10.9775
yi❁10쎯ban❄5쎯	-10.9776
peng❄2쎯	-10.9779
chu❁3쎯guo❁26쎯	-10.9782
ㄒ	-10.9782
zhen❄30쎯xi❁143쎯	-10.9782
wei❄40쎯	-10.9783
wei❄15쎯,	-10.9783
gong❁9쎯shui❃0쎯	-10.9786
jun❄41쎯	-10.9789
ji❂57쎯gao❁20쎯	-10.979
mian❄2쎯ji❁64쎯쎁쎅	-10.9791
jie❂67쎯gou❃2쎯,	-10.9792
zhi❁16쎯xu❁37쎯	-10.9794
쎀.쎉	-10.9794
chou❂44쎯	-10.9797
min❂22쎯yong❄3쎯	-10.9799
jun❁24쎯	-10.98
.쎁쎉쎈쎈nian❂6쎯	-10.9801
shi❄84쎯shi❄15쎯	-10.9801
fu❂43쎯yi❄103쎯	-10.9801
wei❁17쎯ji❁48쎯	-10.9801
fang❁4쎯shi❄33쎯.	-10.9804
jie❂69쎯yue❁1쎯	-10.9806
、guo❂11쎯jia❁13쎯	-10.9811
,쎂쎀쎀쎃nian❂6쎯	-10.9811
da❄0쎯yu❂35쎯	-10.9812
jie❁15쎯shi❄60쎯	-10.9813
yan❂72쎯se❄29쎯:	-10.9814
mu❄14쎯	-10.9814
xin❁10쎯sheng❁16쎯	-10.9815
wei❄37쎯chang❂20쎯	-10.9816
hong❂44쎯zao❃3쎯	-10.9817
shu❁8쎯》:“	-10.9818
nian❂6쎯jian❁85쎯,	-10.9819
dan❄47쎯	-10.982
chou❂29쎯jian❄29쎯	-10.982
diao❄17쎯zhi❄30쎯	-10.9821
쎀쎈-	-10.9822
tai❄3쎯ji❂57쎯	-10.983
zhi❁13쎯xia❄3쎯	-10.983
wu❄36쎯de❅2쎯	-10.9832
hui❁15쎯	-10.9832
、bei❃2쎯	-10.9833
ang❁12쎯	-10.9834
zhi❄88쎯jin❁10쎯,	-10.9835
qiao❂5쎯mu❄15쎯	-10.9835
sheng❁16쎯ri❄2쎯	-10.9835
yi❄10	-10.9836
,di❂41쎯zheng❄12쎯	-10.9838
pi❁11쎯zhun❃0쎯,	-10.9839
xu❄36쎯》:“	-10.9841
can❁3쎯shu❄26쎯:	-10.9841
xin❁7쎯zhong❁4쎯	-10.9854
ren❂1쎯们de❅2쎯	-10.9854
cun❁1쎯na❄11쎯	-10.9854
zai❄5쎯qi❂29쎯	-10.9854
gan❄19쎯zhou❁9쎯	-10.9855
xin❄8쎯fang❃18쎯	-10.9855
,dang❁4쎯shi❂20쎯	-10.9856
、shang❁4쎯wu❄12쎯	-10.9858
gan❁31쎯yan❂46쎯	-10.986
ben❄	-10.9862
,ruo❄8쎯	-10.9863
jing❄11쎯jie❄29쎯	-10.9866
cheng❂29쎯re❄1쎯	-10.987
zhi❃22쎯tong❄3쎯	-10.987
si❄38쎯	-10.9873
zi❄16쎯you❄21쎯	-10.9875
chan❃12쎯pin❃0쎯,	-10.9875
쎁쎅gong❁10쎯li❃26쎯	-10.988
xing❂11쎯mu❄22쎯	-10.9881
jia❁8쎯qing❄4쎯	-10.9886
ji❄12	-10.9888
jun❁2쎯guan❁6쎯	-10.9889
dui❄14쎯hua❄26쎯	-10.9889
quan❂6쎯cheng❂52쎯	-10.9892
quan❂6쎯xiang❁1쎯	-10.9894
,ji❂114쎯	-10.9896
jian❁25쎯cai❃11쎯	-10.9897
yan❃42쎯jing❄44쎯	-10.9899
can❁3쎯jian❄62쎯	-10.9901
bu❄38쎯zhang❃6쎯、	-10.9903
ying❁11쎯er❂7쎯	-10.9906
jing❁31쎯zhou❁9쎯	-10.9908
kua❄4쎯yue❄46쎯	-10.9908
jie❄15쎯zhu❄20쎯	-10.9909
fen❁22쎯	-10.9911
qiu❁9쎯、	-10.9912
lu❄70쎯mian❄2쎯	-10.9917
gui❃	-10.9919
쎁쎀쎀mi❃19쎯	-10.9919
quan❂6쎯li❄59쎯	-10.9922
qiu❁9쎯na❄11쎯	-10.9922
lu❄70쎯shang❃1쎯	-10.9925
qiang❁22쎯	-10.9926
쎀쎀ping❂17쎯	-10.9927
wu❄14쎯	-10.993
kan❁4쎯tan❄5쎯	-10.9931
bo❂54쎯hai❃1쎯	-10.9931
gu❃42쎯dong❁3쎯	-10.9932
yi❄113쎯	-10.9936
pie❁1쎯	-10.9939
fu❄31쎯yin❄7쎯	-10.9939
fu❁	-10.994
bing❁2쎯qiu❂19쎯	-10.994
)deng❃2쎯	-10.9946
di❁9쎯yu❂35쎯	-10.9946
zhou❁9쎯qu❁15쎯	-10.9947
huan❄18쎯xiang❃6쎯	-10.9947
er❃6쎯si❁24쎯	-10.9948
yu❂34쎯yi❃10쎯	-10.9949
bu❂0쎯gan❃8쎯	-10.995
xue❂6쎯li❄62쎯.	-10.995
zhe❄14쎯shou❃6쎯	-10.9954
shao❁8쎯jian❁25쎯	-10.9954
zhang❄19쎯	-10.9958
xu❄36쎯lie❄20쎯	-10.9958
bi❄61쎯bei❄26쎯	-10.9963
kan❃7쎯	-10.9965
di❄26쎯wang❂5쎯	-10.9967
,na❄11쎯rong❂21쎯	-10.9972
guo❂11쎯ji❂81쎯	-10.9975
shi❄89쎯wen❂5쎯:	-10.9977
gang❁32쎯ban❃5쎯	-10.9978
nan❂6쎯jian❁25쎯	-10.9979
chen❂41쎯lie❄20쎯	-10.998
()han❄20쎯	-10.998
zhi❁21쎯qi❃25쎯	-10.9982
,nan❂6쎯lin❂43쎯	-10.9982
an❃7쎯	-10.9982
yi❃10쎯dong❁3쎯	-10.9983
zhan❄17쎯zhi❃13쎯	-10.9986
chuang❃7쎯	-10.9987
”bian❄19쎯	-10.9987
,쎁쎉쎈쎅nian❂6쎯	-10.9987
gang❃6쎯ao❄25쎯	-10.9989
nv❃0쎯sheng❁16쎯	-10.9989
she❄17쎯wai❄0쎯	-10.9994
chan❂42쎯	-10.9995
bei❃2쎯wei❄62쎯	-10.9995
tuo❁6쎯yun❃16쎯	-10.9997
ma	-10.9999
dang❃2쎯han❄20쎯	-11.0001
li❄144쎯zi❃7쎯	-11.0002
ri❄2쎯ji❁47쎯:	-11.0005
fang❁4쎯bian❄16쎯,	-11.0005
zong❃5쎯hui❄27쎯	-11.0006
hei❁3쎯ke❄14쎯	-11.0006
yi❄165쎯qi❃25쎯	-11.0006
quan❄1쎯	-11.0007
bian❄16쎯yu❂35쎯	-11.0007
jue❂109쎯	-11.0007
ping❂17쎯shi❂20쎯	-11.0008
san❁1쎯yue❄29쎯	-11.0008
tai❄9쎯an❁13쎯	-11.001
ma❂8쎯you❂24쎯	-11.001
te❄5쎯zhang❃6쎯	-11.001
쎁쎉쎉쎈	-11.0011
们de❅2쎯	-11.0011
le❅0쎯xin❁10쎯	-11.0015
,bing❁6쎯yu❂35쎯	-11.0016
fa❃2쎯、	-11.0017
mu❄18쎯	-11.0019
yi❁12쎯lai❄19쎯	-11.0019
que❁4쎯	-11.0021
jie❁18쎯	-11.0021
ji❂114쎯zhen❄30쎯	-11.0024
zhi❁13쎯.	-11.0024
shou❃3쎯hu❄30쎯	-11.0025
you❄13쎯jiao❄6쎯	-11.0025
う	-11.0026
gu❃59쎯ke❁16쎯	-11.0026
mian❄2쎯ji❁64쎯쎁쎁	-11.0027
zhang❃6쎯yue❁1쎯	-11.0027
zui❄4쎯jiang❄9쎯	-11.0027
bang❄6쎯	-11.0028
zhi❄104쎯de❅0쎯	-11.0028
ju❁14쎯wei❁12쎯	-11.0028
wu❂17쎯suo❃11쎯	-11.0029
peng❂1	-11.0033
qi❃25쎯,	-11.0037
mi	-11.0038
xi❄46쎯tong❃9쎯:	-11.0038
dong❁3쎯xian❄22쎯	-11.0039
쎅gong❁10쎯li❃26쎯,	-11.0041
쎇쎅쎀	-11.0042
lu❄70쎯you❂29쎯	-11.0043
qian❂8쎯duan❁4쎯	-11.0046
ji❁54쎯fa❁1쎯	-11.0048
tu❁14쎯qi❃34쎯	-11.0049
san❁1쎯ya❄7쎯	-11.0049
shi❁16쎯du❄8쎯:	-11.0049
wen❂5쎯hua❁1쎯,	-11.0051
jie❃6쎯xi❁87쎯	-11.0051
,shi❃6쎯de❂7쎯	-11.0054
,bang❁5쎯zhu❄20쎯	-11.0054
pin❃0쎯wei❄15쎯	-11.0055
lun❂5쎯li❃15쎯	-11.0056
,jin❄60쎯	-11.0057
deng❃2쎯jiang❃8쎯;	-11.0057
tu❂14쎯wen❂5쎯	-11.0057
ge❄	-11.0058
you❄13쎯shi❄45쎯	-11.0062
.쎂쎀쎀쎀nian❂6쎯	-11.0065
qu❄6쎯shi❄15쎯	-11.0065
han❄33쎯dai❄9쎯	-11.0068
you❂24쎯tian❂16쎯	-11.0069
ge❁8쎯lun❂5쎯	-11.0072
쎁쎉shi❄15쎯ji❄94쎯	-11.0072
xiang❄6쎯qian❂8쎯	-11.0073
zhan❄17쎯,	-11.0074
men❂19쎯zhen❃27쎯	-11.0076
lu❄70쎯kou❃1쎯	-11.0077
ban❁12쎯ji❂83쎯	-11.0083
peng❂24쎯zhang❄1	-11.0083
deng❃2쎯dai❁1쎯	-11.0085
xiang❁1쎯zhang❃6쎯	-11.0085
jing❁27쎯li❃15쎯.	-11.0085
fa❃2쎯shi❁11쎯	-11.0085
.nan❂6쎯chao❂6쎯	-11.0086
shi❄32쎯ren❂1쎯,	-11.0091
tian❁5쎯,	-11.0093
bu❄34쎯	-11.0096
yi❄109쎯cha❁3쎯.	-11.0099
shi❃6쎯qi❂29쎯	-11.0099
,nu❃1쎯li❄59쎯	-11.0104
cang❁0쎯chu❃3쎯	-11.0105
cai❄5쎯xi❄46쎯	-11.0107
쎁쎉쎀쎀	-11.0109
yu❂37쎯nian❂6쎯	-11.0109
dan❁9쎯chun❂18쎯	-11.0111
yong❄3쎯shu❁8쎯	-11.0111
pu❃3쎯cha❂17쎯	-11.0113
tan❁9쎯	-11.0114
jia❁4쎯	-11.0115
yu❃44쎯fa❃2쎯	-11.0116
deng❃2쎯de❅0쎯.	-11.0118
쎁쎉쎂쎅nian❂6쎯	-11.0119
shi❄32쎯nan❂6쎯	-11.0121
qu❁42쎯	-11.0122
fu❂94쎯yao❁17쎯	-11.0123
쎄ren❂1쎯,	-11.0123
que❁0쎯xian❄63쎯	-11.0124
gong❃10쎯	-11.0128
chui❂16쎯	-11.0128
shi❂13쎯xun❄25쎯	-11.0129
;zai❄5쎯	-11.013
gan❃13쎯	-11.0131
wei❁17쎯bo❂41쎯	-11.0131
shou❂쎯lian❄22쎯	-11.0138
ren❂1쎯jia❁13쎯	-11.0138
ren❂1쎯wei❄14쎯	-11.0139
fen❁4쎯zhong❁29쎯,	-11.0142
geng❃11쎯	-11.0144
,yao❁17쎯	-11.0144
(쎁쎉쎃	-11.0145
xiao❃2쎯yu❂35쎯	-11.0146
yao❁17쎯dian❃11쎯	-11.0146
yin❂19쎯	-11.0147
:쎈	-11.0147
ming❂8쎯liang❄2쎯	-11.0148
long❂63쎯men❂19쎯	-11.0148
che❃7쎯cun❄2쎯쎁	-11.0149
fu❂94쎯ke❃4쎯	-11.015
bi❄87쎯	-11.015
쎀쎇-	-11.0155
shi❄99쎯)	-11.0157
bu❄38쎯men❂19쎯.	-11.0159
ju❄18쎯chang❃4쎯	-11.0159
yi❃10쎯xi❁143쎯	-11.0159
gu❃14쎯ji❄120쎯	-11.0164
ru❃	-11.0165
wu❄1	-11.0166
gong❁23쎯guan❁4쎯	-11.0166
chu❄17쎯、	-11.0167
、qi❄34쎯che❁8쎯	-11.0167
di❂41쎯dian❄23쎯	-11.017
lian❂53쎯yi❄217쎯	-11.0171
zhu❁	-11.0171
yi❁10쎯pian❁7쎯	-11.0171
wan❂5쎯na❄11쎯	-11.0175
zhang❃3쎯	-11.0175
si❄15쎯,	-11.0175
yi❁13쎯yuan❄18쎯、	-11.0176
er❄5쎯ji❁47쎯	-11.0176
li❄141쎯fa❃2쎯	-11.0177
,mei❃9쎯nian❂6쎯	-11.0178
mian❄2쎯ji❁64쎯쎁쎃	-11.0179
tian❁5쎯zi❃7쎯	-11.018
yi❁10쎯bian❁16쎯	-11.0181
qi❂51쎯	-11.0181
que❄	-11.0182
jian❁52쎯li❃15쎯	-11.0183
쎃쎀nian❂6쎯	-11.0183
zao❄2쎯yin❁44쎯	-11.0184
hi❄104쎯liang❂19쎯	-11.0185
chuan❃1쎯	-11.0186
9쎯ben❄4쎯xi❄46쎯	-11.0187
shan❁11쎯lin❂19쎯	-11.0188
,쎂쎀쎀쎇nian❂6쎯	-11.0189
wu❂17쎯qiong❂28쎯	-11.019
pai❂2쎯gu❃59쎯	-11.0193
gong❁40쎯	-11.0193
.ling❄0쎯wai❄0쎯,	-11.0194
쎁쎉쎈쎃	-11.0199
dao❄24쎯,	-11.02
jiao❁20쎯zhi❂32쎯	-11.02
wan❂5쎯yi❄190쎯	-11.0201
bi❄93쎯	-11.0202
shao❁8쎯re❄1쎯	-11.0203
kuang❄6쎯	-11.0204
jie❂63쎯	-11.0204
yue❄29쎯kan❁3쎯	-11.0206
bu❂0쎯yi❂31쎯	-11.0206
xiang❄24쎯.	-11.0207
1쎯,	-11.0208
,chong❂17쎯	-11.0208
,쎂쎀쎀쎂nian❂6쎯	-11.0209
pin❃0쎯pai❂4쎯,	-11.0211
lan❂17쎯	-11.0211
jiu❃3쎯jiang❁10쎯	-11.0213
yi❄104쎯	-11.0214
sui❂9쎯hou❄7쎯	-11.0216
ma❂8쎯zui❄15쎯	-11.0217
(yue❁1쎯	-11.0217
gang❁27쎯	-11.0217
bi❃24쎯hua❄18쎯	-11.0218
ji❂57쎯da❄0쎯	-11.022
ㄌ	-11.022
kuo❄7쎯zhang❁4쎯	-11.0221
si❄17쎯zhi❁40쎯	-11.0222
ming❂7쎯lie❄20쎯	-11.0223
gao❁9쎯	-11.0224
qiu❁16쎯ji❄46쎯	-11.0224
jiao❁20쎯shi❁11쎯、	-11.0225
chao❃7쎯)	-11.0226
ku❄15쎯	-11.0228
,gu❄12쎯cheng❁28쎯	-11.0229
쎅li❂32쎯mi❃19쎯	-11.0229
kan❁4쎯	-11.023
de❅2쎯nu❃1쎯li❄59쎯	-11.0231
ou❁15쎯	-11.0232
.quan❂6쎯	-11.0232
fu❂43쎯yong❄3쎯	-11.0233
,sui❁12쎯ran❂12쎯	-11.0234
yan❁33쎯cao❃5쎯	-11.0234
gao❁20쎯feng❁19쎯	-11.0234
.bi❃20쎯yu❄28쎯	-11.0236
.쎁쎉쎉쎇nian❂6쎯	-11.0239
fen❄	-11.024
ka❃1쎯la❁7쎯	-11.0242
zhan❁13쎯	-11.0242
gong❁10쎯fen❁4쎯	-11.0244
qing❄3쎯ka❃1쎯	-11.0245
jiao❃6	-11.0247
yao❁19쎯	-11.025
tai❄3쎯kong❁9쎯	-11.0251
shi❂10쎯yue❄29쎯	-11.0252
shu	-11.0254
.쎁쎉쎉쎂nian❂6쎯	-11.0255
de❅2쎯te❄5쎯se❄29쎯	-11.0257
de❅2쎯er❂7쎯zi❃7쎯	-11.026
jian❄29쎯zhi❄30쎯	-11.0263
shan❁11쎯gu❃52쎯	-11.0265
shao❁	-11.0271
er❄5쎯nian❂6쎯(	-11.0271
lei❂	-11.0273
wei❁13쎯hai❃1쎯	-11.0273
hui❄27쎯you❃11쎯	-11.0278
you❂24쎯、	-11.0279
yuan❁6쎯	-11.0279
gan❃6쎯dong❄13쎯	-11.028
shi❄32쎯xin❁10쎯	-11.028
yi❄159쎯	-11.028
hui❂1쎯jia❁13쎯	-11.0283
xiao❃2쎯kuai❄14쎯	-11.0283
(qi❂29쎯zhong❁4쎯	-11.0283
bian❄	-11.0283
shui❃0쎯shang❃1쎯	-11.0288
cheng❂30쎯nuo❄16쎯	-11.0292
rong❂25쎯	-11.0292
shi❂39쎯yong❄3쎯.	-11.0294
,quan❂6쎯mian❄2쎯	-11.0295
dan❁5쎯mai❄16쎯	-11.0297
du❂34쎯wu❄36쎯	-11.0297
쎀쎀쎀mi❃19쎯	-11.0303
shou❃6쎯fa❁1쎯	-11.0305
shun❄7쎯jian❁85쎯	-11.0305
mo❄30쎯duan❁4쎯	-11.0309
wu❃28쎯chang❁6쎯	-11.031
hui❃5쎯	-11.031
qi❂76쎯	-11.0311
yin❃14쎯chong❂11쎯	-11.0315
ben❁2쎯teng❂13쎯	-11.0316
hui❄27쎯zhang❃6쎯.	-11.0316
,yong❄3쎯yu❂35쎯	-11.0316
ci❂29쎯yu❃44쎯	-11.0317
,he❂37쎯nan❂6쎯	-11.0317
feng❁58쎯shui❃0쎯	-11.0319
,can❁3쎯yu❃14쎯	-11.032
쎆.쎅	-11.032
min❂22쎯yin❂10쎯	-11.032
zhi❂16쎯qiu❁9쎯	-11.0323
,fen❁4쎯	-11.0325
、hu❂46쎯jiao❁21쎯	-11.0326
쎂.쎃	-11.0328
shui❃0쎯dao❄14쎯、	-11.0331
zhan❄17쎯dian❃11쎯	-11.0333
bing❄12쎯shi❄84쎯	-11.0334
ding❄2쎯wei❄14쎯	-11.0336
dou❃9쎯	-11.0337
ge❂29쎯ju❂23쎯	-11.0337
hai❃1쎯ba❂11쎯쎁,	-11.0338
fen❁4쎯bian❄38쎯	-11.0339
feng❁33쎯kuang❂3쎯	-11.034
lai❂16쎯yuan❂34쎯:	-11.034
gong❁10쎯shi❄33쎯	-11.034
fa❃2쎯ding❄2쎯	-11.0342
xiang❁25쎯	-11.0343
,ri❄2쎯ben❃5쎯	-11.0343
si❄15쎯、	-11.0344
nan❂6쎯shan❁11쎯	-11.0345
hou❄7쎯you❄13쎯	-11.0351
tan❂19쎯	-11.0351
xian❄22쎯jing❄11쎯	-11.0353
.ta❁6쎯de❅2쎯	-11.0354
(쎁쎅	-11.0355
chong❂8쎯	-11.0358
chong❂17쎯zu❃7쎯	-11.0359
,ta❁6쎯de❅2쎯	-11.0361
yong❃21쎯le❄3쎯	-11.0362
cui❄26쎯	-11.0363
mo❄37쎯	-11.0364
jun❁4쎯zi❃7쎯	-11.0365
si❄32쎯	-11.0367
wu❃9쎯yue❄29쎯	-11.0369
쎀/	-11.037
zhi❄88쎯shang❃1쎯	-11.0373
qiu❂36쎯xing❂11쎯	-11.0374
쎃yue❄29쎯ren❂4쎯	-11.0375
ji❁111쎯	-11.0375
zi❄6쎯fu❂62쎯	-11.0375
쎂쎅쎀ke❄6쎯	-11.0376
wang❃14쎯qiu❂36쎯	-11.0379
peng❂7쎯zhen❄30쎯	-11.038
ying❁17쎯dang❁4쎯	-11.038
tian❂16쎯jing❄17쎯	-11.0382
cheng❂29쎯nian❂6쎯	-11.0385
zhi❄5	-11.0388
da❄0쎯fang❁4쎯	-11.039
long❂63쎯shan❁11쎯	-11.0391
zha❂7쎯	-11.0391
쎀li❂32쎯mi❃19쎯,	-11.0396
,qing❃9쎯	-11.0397
gang❃6쎯shi❄32쎯	-11.0398
po❁12쎯you❃11쎯	-11.0398
쎇hao❂6쎯	-11.04
xue❂6쎯tang❂15쎯	-11.04
zhan❃22쎯	-11.0402
geng❁6쎯da❄0쎯	-11.0403
lv❄15쎯da❂30쎯	-11.0403
yi❃9쎯chun❂23쎯	-11.0404
min❃24쎯xi❁143쎯	-11.0405
yao❂55쎯kong❄1쎯	-11.0408
tong❂13쎯yi❄109쎯	-11.041
yong❄3쎯yi❃10쎯	-11.041
deng❃2쎯de❅0쎯,	-11.0413
chong❁9쎯zu❂11쎯	-11.0413
zhang❃6쎯da❄0쎯	-11.0413
xiao❁29쎯du❂17쎯	-11.0413
jun❄	-11.0414
sai❁13쎯	-11.0416
18쎯wu❄12쎯suo❃11쎯	-11.0416
shu❂	-11.0417
쎁쎃쎅	-11.0417
jing❁27쎯li❃15쎯、	-11.0418
bei❁15쎯hou❄7쎯	-11.0419
an❁15쎯xi❁143쎯z	-11.0419
yi❁10쎯tong❂13쎯	-11.0419
huang❄0쎯zu❂9쎯zi❄	-11.0419
lei❃2	-11.0421
yue❁1쎯쎄	-11.0424
к	-11.0426
xu❁37쎯qiu❂27쎯,	-11.0427
mu❄9쎯de❅0쎯	-11.0429
tu❃1쎯er❃12쎯	-11.0429
ju❄74쎯chi❃33쎯	-11.0431
hun❄10쎯fa❃2쎯	-11.0431
ai❄26쎯xin❁7쎯	-11.0433
xuan❂11쎯lv❄9쎯	-11.0434
chang❃4쎯suo❃11쎯.	-11.044
bu❂0쎯jian❄62쎯	-11.044
ス	-11.0444
tou❄4쎯guo❄2쎯	-11.0446
bang❃5쎯	-11.0448
you❃11쎯li❄58쎯	-11.0453
hai❃1쎯bin❁12쎯	-11.0459
ge❃0쎯fa❃2쎯	-11.046
cao❃5쎯ben❃5쎯,	-11.0465
jiao❁8쎯wang❃7쎯	-11.0466
wei❁17쎯ruan❃17쎯	-11.0468
쎁쎉쎂쎈nian❂6쎯	-11.0469
gong❁10쎯ban❄4쎯	-11.0469
ren❄30쎯zhi❁31쎯	-11.0471
yu❂35쎯yi❁10쎯	-11.0471
pu❂1	-11.0471
guo❄2쎯cheng❂52쎯.	-11.0472
yi❁10쎯hao❂6쎯	-11.0473
zhi❂32쎯wu❄12쎯.	-11.0476
tong❄3쎯,	-11.0477
xing❁7쎯xi❄46쎯	-11.0477
zhu❁16쎯you❂24쎯	-11.048
bu❄23쎯lu❃27쎯	-11.0481
le❅0쎯ta❁3쎯	-11.0484
mo❁쎯	-11.0487
mou❃2쎯gan❄3쎯	-11.0487
de❅0쎯ban❃5쎯	-11.049
,bei❃2쎯jing❁3쎯	-11.0494
shuan❁1쎯	-11.0496
,ren❂1쎯们	-11.0496
ci❃2쎯wai❄0쎯	-11.0497
fu❄36쎯han❂17쎯	-11.0497
qing❄3쎯le❄3쎯	-11.0499
ren❂1쎯kou❃1쎯쎅	-11.05
,yi❃10쎯“	-11.0503
zhi❂32쎯yu❂35쎯	-11.0503
,fang❄0쎯	-11.0505
duan❃0쎯ji❁47쎯	-11.0505
shu❄26쎯:	-11.0507
jian❃18쎯fei❂1쎯	-11.0507
,jian❁17쎯chi❂20쎯	-11.0507
gu❄21쎯	-11.051
ge❁16쎯qu❁25쎯,	-11.051
sou❁13쎯	-11.0511
ル	-11.0513
dai❄9쎯biao❃5쎯.	-11.0514
da❂14쎯po❄17쎯	-11.0516
fang❁4쎯zhen❁52쎯、	-11.0516
wa❂0쎯	-11.0516
쎆쎀쎀쎀	-11.0517
hua❄26쎯ju❄18쎯	-11.0517
fu❄23쎯fu❄23쎯	-11.0519
bi❃17쎯de❂7쎯	-11.052
qing❄1	-11.052
rou❂6쎯mao❂11쎯	-11.0521
shou❁1쎯ru❄2쎯쎂	-11.0521
bo	-11.0525
qian❂8쎯ji❁47쎯	-11.0525
kang❄	-11.053
deng❁10쎯lu❄83쎯	-11.0531
hen❃2쎯da❄0쎯de❅2쎯	-11.0531
shen❃7쎯mei❃13쎯	-11.0532
nan❂6쎯bian❁16쎯	-11.0533
gui❁35쎯ge❂29쎯:	-11.0534
si❁23쎯	-11.0534
que❄11쎯shi❄45쎯	-11.0535
qian❂8쎯jing❃13쎯	-11.0537
쎁쎀yu❂37쎯	-11.054
hong❂44쎯jiao❁21쎯	-11.0542
wei❁16쎯	-11.0543
bao❄10쎯she❄22쎯	-11.0543
ji❂35쎯wei❄14쎯	-11.0547
bi❄126쎯	-11.0547
jing❁27쎯fei❄37쎯	-11.0547
.쎁쎉쎉쎃nian❂6쎯	-11.0547
yi❁38쎯fu❂43쎯	-11.0548
nan❂13쎯	-11.0549
tong❄3쎯ku❃1쎯	-11.055
,chuang❄1쎯	-11.0552
ying❃2	-11.0552
쎅쎀-	-11.0553
zhi❁13쎯xing❁7쎯	-11.0555
qi❃25쎯fen❁11쎯	-11.0555
zhi❁13쎯de❅0쎯	-11.0557
쎁쎉쎂쎇nian❂6쎯	-11.0557
duan❃0쎯,	-11.0559
."	-11.056
fu❂60쎯ding❃12쎯	-11.0561
er❂16쎯chu❁3쎯	-11.0561
xue❂6쎯ban❁12쎯,	-11.0562
zhi❁13쎯.”	-11.0562
ji❁47쎯dai❁1쎯	-11.0564
ci❃2쎯shu❁8쎯	-11.0565
cheng❂30쎯jie❁13쎯	-11.0567
guo❄2쎯du❄12쎯	-11.0569
ben❄4쎯hui❄27쎯	-11.057
de❅2쎯lao❃17쎯	-11.0573
jiu❁	-11.0573
yang❂17쎯ben❃5쎯	-11.0574
ju❂23쎯shi❄45쎯	-11.0574
zhu❃4쎯liao❄8쎯:	-11.0582
zhi❄85쎯qiu❁9쎯	-11.0583
zheng❃4쎯qi❂117쎯	-11.0583
chang❁6쎯xian❄22쎯	-11.0584
,gei❃1쎯	-11.0585
xian❁18쎯tian❁5쎯	-11.0586
quan❂17쎯shui❃0쎯	-11.0591
쎁쎉쎉쎇	-11.0592
de❅2쎯xian❄37쎯	-11.0593
rong❂36쎯dian❃11쎯	-11.0594
ma❁0쎯	-11.0595
mo❂18쎯gu❁25쎯	-11.0596
kui❄15쎯yang❂24쎯	-11.0602
ke❄6쎯·	-11.0602
liang❂19쎯han❄20쎯	-11.0603
an❁13쎯qing❄4쎯	-11.0604
quan❂12쎯de❅2쎯	-11.0605
.쎁쎉쎈쎃nian❂6쎯	-11.0607
long❂63쎯quan❂17쎯	-11.0607
wan❃17쎯nian❂6쎯	-11.0607
mo❄16쎯li❃26쎯	-11.0608
cai❂3쎯liao❄8쎯:	-11.0608
6쎯、	-11.0609
zuo❄5쎯wei❄52쎯	-11.0611
jiao❃22쎯	-11.0612
쎅mi❃19쎯	-11.0613
gang❁32쎯jin❁26쎯	-11.0613
cheng❁28쎯hu❁17쎯	-11.0614
쎁쎁쎅	-11.0615
,fu❄23쎯	-11.0615
tiao❂9쎯li❄51쎯》	-11.0616
zhe❄14쎯zuo❄12쎯	-11.0619
te❄5쎯·	-11.062
(쎁쎇	-11.0621
zheng❁15쎯shou❁1쎯	-11.0621
chu❁3쎯zu❁0쎯	-11.0622
wu❁3쎯lu❃27쎯	-11.0624
ju	-11.0624
cha❄16쎯	-11.0632
hai❃1쎯de❅1쎯	-11.0632
fu❃20쎯	-11.0636
,sui❁12쎯	-11.0636
zao❄16쎯yi❄216쎯	-11.0637
dai❄15쎯tou❂4쎯	-11.0638
zhun❃0쎯ze❂11쎯	-11.0638
feng❁58쎯ge❂29쎯,	-11.0639
wei❄52쎯zhi❁13쎯	-11.064
fei❁15쎯ying❂45쎯	-11.0641
he❂37쎯zhen❄30쎯	-11.0642
yi❂79쎯ji❄120쎯	-11.0642
yue❄46쎯duo❁5쎯	-11.0643
wan❃16쎯	-11.0645
、dong❁3쎯	-11.0645
쎀쎃-	-11.0646
cang❁0쎯ku❄6쎯	-11.0649
lie❄45쎯pian❁5쎯	-11.065
kong❃2쎯long❂63쎯	-11.0653
nong❂5쎯ji❁48쎯	-11.0654
kuai❄14쎯,	-11.0656
yi❁10쎯men❂19쎯	-11.0657
fu❂80쎯ling❂79쎯	-11.0657
e❄3	-11.0662
de❅1쎯yun❄14쎯	-11.0663
yan❂69쎯	-11.0664
you❁9쎯ya❃9쎯	-11.0666
shang❃1쎯fang❁4쎯	-11.0666
dui❄14쎯kang❄5쎯	-11.0666
hui❄50쎯zhou❁9쎯	-11.0668
shi❄45쎯wo❃3쎯	-11.0668
shi❄45쎯jiang❁5쎯	-11.0669
ming❂7쎯cheng❂17쎯	-11.0671
dao❄3쎯de❅1쎯	-11.0671
tuo❃	-11.0673
wei❁33쎯	-11.0675
zhai❄2쎯quan❄1쎯	-11.0675
,dong❁3쎯lin❂7쎯	-11.0675
:쎆	-11.0676
в	-11.0677
jiu❃3쎯jiu❃3쎯	-11.0679
kui❄15쎯	-11.0679
jia❁13쎯dian❄23쎯	-11.068
gui❁35쎯ding❄2쎯,	-11.0682
쎁쎀쎁	-11.0683
jin❃24쎯zhang❁4쎯	-11.0684
,zheng❁22쎯	-11.0684
bing❁2쎯qi❄20쎯	-11.0686
,neng❂2쎯gou❄10쎯	-11.0687
qi❃34쎯fu❂22쎯	-11.0689
bu❂0쎯ming❂8쎯	-11.0691
zhu❃14쎯shou❂쎯	-11.0692
da❂30쎯biao❁14쎯	-11.0693
fen❂14쎯	-11.0694
ji❂83쎯chong❂17쎯	-11.0694
guan❃15쎯cang❂5쎯	-11.0696
jian❁52쎯yu❄67쎯	-11.0697
can❁3쎯bian❁13쎯	-11.07
쎇gong❁10쎯li❃26쎯	-11.0701
쎅mu❃2쎯	-11.0701
bu❄38쎯shou❃6쎯:	-11.0702
bu❂0쎯duo❁5쎯	-11.0702
er❃6쎯lan❂13쎯	-11.0704
zhao❁3쎯shou❁1쎯	-11.0705
쎇yue❄29쎯zai❄5쎯	-11.0706
❄61쎯bu❄28쎯er❄5쎯	-11.0706
huang❂56쎯bu❄19쎯	-11.0709
bu❂0쎯xiang❂11쎯	-11.071
ji❁36쎯te❄5쎯	-11.071
cai❁7쎯	-11.0711
bu❄28쎯bing❁2쎯	-11.0716
you❃11쎯yi❄165쎯	-11.0716
chuan❂4쎯·	-11.0717
zhi❂25쎯da❂30쎯	-11.0718
zai❄5쎯de❅0쎯	-11.0718
gu❃14쎯ren❂1쎯	-11.0718
jian❄17쎯quan❂6쎯	-11.0718
ji❁48쎯deng❃2쎯	-11.072
zheng❄12쎯qu❁15쎯	-11.072
wan❂6쎯bei❄26쎯	-11.0722
da❄0쎯zhan❃11쎯	-11.0723
ge❃0쎯zuo❄5쎯,	-11.0725
zhan❁4쎯zong❃5쎯	-11.0725
bin❁6쎯	-11.0727
fu❂41쎯pin❂12쎯	-11.0729
ran❂13쎯qi❃25쎯	-11.073
de❅0쎯wei❄15쎯.	-11.0733
lu❄35쎯zhi❄30쎯	-11.0735
yuan❂10쎯/	-11.0736
ju❄5	-11.0737
bu❂0쎯tong❂13쎯,	-11.0738
suo❃11쎯zhao❂쎯	-11.0739
hen❃3쎯	-11.0743
zao❄16쎯zhi❃32쎯	-11.0744
nai❃2쎯you❂24쎯	-11.0745
qu❁25쎯she❂5쎯	-11.0748
lao❂11쎯wu❄12쎯	-11.0749
jiao❄35쎯xiao❃2쎯	-11.0749
zhen❄30쎯,	-11.0751
zuo❄5쎯《	-11.0752
:zhong❁4쎯guo❂11쎯	-11.0757
zhu❁29쎯hou❂10쎯	-11.0757
zhu❁8쎯gao❁20쎯	-11.0758
quan❂6쎯jiao❄18쎯	-11.0759
fang❁4쎯fa❃2쎯:	-11.0759
shen❃7쎯pi❁11쎯	-11.0763
ke❁1	-11.0763
du❃14쎯	-11.0764
nan❂6쎯gua❁16쎯	-11.0764
hui❄79쎯zhi❄30쎯	-11.0764
feng❁58쎯su❂0쎯	-11.0766
gai❃2쎯jian❄29쎯	-11.0766
,쎁쎉쎉쎈nian❂6쎯	-11.0766
ren❂1쎯ge❂29쎯	-11.0767
11쎯wen❂5쎯wu❄36쎯	-11.0768
pang❂6쎯da❄0쎯	-11.0771
san❁1쎯xia❂13쎯	-11.0772
zui❄4쎯zhang❃6쎯	-11.0772
쎀쎀쎀쎀	-11.0774
.쎅li❂32쎯mi❃19쎯	-11.0775
쎄nian❂6쎯	-11.0775
ji❄59쎯shi❁11쎯	-11.0778
쎁쎁gan❄3쎯	-11.0779
〗	-11.0781
ken❃1쎯	-11.0781
쎇mu❃2쎯	-11.0781
xiao❃2쎯zhen❄30쎯	-11.0785
tou❂5쎯chan❃12쎯	-11.0786
shi❃8쎯liao❄8쎯	-11.0787
,sui❂9쎯zhao❁6쎯	-11.0788
da❄0쎯gang❁23쎯	-11.0788
sui❄16쎯yue❄29쎯	-11.0789
liang❄2쎯du❄8쎯	-11.0789
xing❁14쎯	-11.0789
ge❃0쎯li❃15쎯de❅2쎯	-11.0789
xin❄8쎯ren❂4쎯	-11.0789
ren❂1쎯;	-11.0791
ni❄24쎯	-11.0792
ㄙ	-11.0792
.쎁쎉쎉쎅nian❂6쎯	-11.0794
lin❂19쎯xia❄3쎯	-11.0795
wu❄36쎯.	-11.0795
,hai❃1쎯ba❂11쎯	-11.0795
nai❄5쎯mo❂14쎯	-11.0796
〖	-11.0798
xue❂6쎯shuo❁2쎯	-11.0799
huan❄16쎯	-11.0799
,쎂쎀쎀쎈nian❂6쎯	-11.0801
an❁13쎯zhi❄85쎯	-11.0801
cheng❂17쎯bei❃2쎯	-11.0802
tong❃9쎯zhan❄10쎯	-11.0802
,zhi❂25쎯dao❄3쎯	-11.0807
da❄0쎯xing❄8쎯	-11.0807
xin❁10쎯xiang❁1쎯	-11.0808
zhen❁4쎯	-11.0809
a❁6쎯la❁7쎯	-11.0809
deng❃2쎯zheng❄13쎯	-11.081
jing❁24쎯tong❁5쎯	-11.081
bi❄57쎯	-11.081
jian❁25쎯hua❁11쎯	-11.0813
jie❃6쎯du❂34쎯	-11.0813
qing❁10쎯chu❂42쎯	-11.0813
liang❃5쎯wei❁12쎯	-11.0814
qu❃	-11.0814
zong❁31쎯	-11.0814
han❄33쎯zu❂9쎯,쎁쎉쎅	-11.0815
liu❂20쎯chang❄9쎯	-11.0817
zu❃5쎯ji❂81쎯	-11.0817
,li❄58쎯yong❄3쎯	-11.0817
feng❁43쎯mi❄45쎯	-11.0819
,쎄	-11.0819
fu❂51쎯diao❁23쎯	-11.082
he❂70쎯	-11.082
bo❁21쎯	-11.0823
ang❄2쎯	-11.0823
hong❂29쎯wu❃28쎯	-11.0825
,bei❃2쎯lin❂43쎯	-11.0829
xin❁10쎯cun❁1쎯	-11.0832
쎁쎂쎃	-11.0832
jiao❄35쎯di❁9쎯	-11.0836
ban❄5쎯nian❂6쎯	-11.0837
chao❃7쎯guo❁26쎯	-11.0841
쎀쎆-	-11.0841
zui❄4쎯shou❄4쎯	-11.0848
wei❂38쎯er❃6쎯	-11.0848
xing❁7쎯ji❁47쎯	-11.085
tai❄3쎯zu❃5쎯	-11.085
jian❁17쎯shi❂13쎯	-11.0853
zuo❄5쎯pin❃0쎯,	-11.0853
nan❂6쎯fei❁15쎯	-11.0854
you❂25쎯xi❄33쎯.	-11.0855
shan❁11쎯lu❄70쎯	-11.0855
sha❁4쎯si❃0쎯	-11.0855
kui❂	-11.0858
chu❄17쎯de❅2쎯	-11.0859
deng❄8쎯xiao❃2쎯	-11.086
,na❃3쎯ma❅1쎯	-11.0863
shan❁11쎯peng❂7쎯	-11.0864
쎅쎀mi❃19쎯	-11.0865
min❂22쎯shi❄18쎯	-11.0867
bi❄5	-11.0872
bao❁10쎯	-11.0873
bian❄38쎯lv❄15쎯:	-11.0875
ning❂6쎯ju❄57쎯	-11.0876
shan❁33쎯	-11.0882
ㄠ	-11.0883
ran❂12쎯er❂16쎯	-11.0886
xian❄37쎯chu❁3쎯	-11.0888
gan❁25쎯zhe❄12쎯	-11.0888
yan❄19쎯	-11.0888
か	-11.0889
in❂19쎯pi❁7쎯ke❄6쎯	-11.0892
ping❂17쎯fan❂14쎯	-11.0893
tiao❂9쎯,	-11.0894
hu❂32쎯qu❁15쎯	-11.0894
ben❄4쎯,	-11.0894
zhong❁25쎯	-11.0896
gan❁33쎯	-11.0897
,쎂쎀쎀쎀nian❂6쎯	-11.0897
xi❄46쎯tong❃9쎯.	-11.0898
dou❁12쎯yao❁17쎯	-11.0899
mi❄24쎯bei❄48쎯	-11.0899
han❄43쎯lin❂19쎯	-11.09
ju❁17쎯	-11.0901
ma❃14쎯er❃6쎯	-11.0903
zhi❄30쎯ji❄36쎯	-11.0904
zhong❁4쎯xue❂6쎯,	-11.0905
、xiu❁9쎯xian❂54쎯	-11.0906
dao❃5쎯xiang❄6쎯	-11.0906
tun❂5쎯	-11.0909
ci❂31쎯dian❃5쎯	-11.0911
쎁쎉쎈쎂	-11.0913
ren❂4쎯wu❄12쎯.	-11.0913
ao❄14쎯l	-11.0914
쎆nian❂6쎯	-11.0914
,쎁쎉쎈쎆nian❂6쎯	-11.0916
yong❃2	-11.0917
ting❁3쎯zhang❃6쎯	-11.0917
、qing❁20쎯	-11.0917
hua❂	-11.0918
bai❃9쎯fen❁4쎯	-11.0918
zuo❄12쎯,	-11.0921
sheng❃9쎯li❄141쎯	-11.0921
yi❃10쎯ren❂1쎯	-11.0921
jia❁30쎯	-11.0927
shui❃0쎯tian❂16쎯	-11.0931
.han❄33쎯	-11.0932
duan❁4쎯zi❃7쎯	-11.0934
qie❁1쎯huan❄21쎯	-11.0934
,an❁13쎯hui❁12쎯	-11.0937
shen❃7쎯cha❂17쎯	-11.0938
liu❃3쎯zhou❁9쎯	-11.0939
zhan❄10쎯shu❂7쎯	-11.0939
lou❂19쎯pan❂10쎯	-11.094
jia❄5쎯gou❃2쎯	-11.0941
ru❄2쎯wu❃11쎯	-11.0944
pi❁11쎯ping❂36쎯	-11.0945
lao❄	-11.0946
qiao❁8쎯	-11.0947
xuan❄16쎯	-11.0949
tong❂13쎯zhi❄61쎯	-11.0949
hai❂6쎯zi❃7쎯们	-11.0951
wai❄0쎯lai❂16쎯	-11.0955
°Cnian❂6쎯	-11.096
fang❃6쎯zhen❁30쎯	-11.096
jia❁7쎯gong❁17쎯、	-11.0964
de❂7쎯tian❁5쎯d	-11.0965
qin❂12쎯ben❃3쎯	-11.0966
ban❁9쎯dian❃11쎯	-11.0967
nan❂6쎯qu❁15쎯	-11.097
he❂37쎯pan❄10쎯	-11.0972
fang❁4쎯mian❄2쎯,	-11.0972
a❁1쎯	-11.0973
qiao❂1	-11.098
xian❄37쎯jin❁33쎯	-11.0981
bei❄35쎯	-11.0982
zhi❄8	-11.0982
zhi❁13쎯zi❃7쎯	-11.0985
qian❂3	-11.0985
cui❄	-11.0986
쎅mu❃2쎯,	-11.0986
zuan❁4쎯dan❄38쎯	-11.0988
bei❄52쎯ke❂0쎯	-11.0991
ju❄18쎯mu❄22쎯	-11.0993
ge❃0쎯yi❁10쎯	-11.0994
yi❁10쎯ci❂29쎯	-11.0995
fa❁1쎯guang❁2쎯	-11.0996
zhong❃0쎯	-11.0998
yong❃21쎯jiu❃1쎯	-11.0999
zhi❄85쎯yu❂35쎯	-11.1001
yang❂27쎯rou❄1쎯	-11.1002
xiu❁9쎯xi❁70쎯	-11.1003
gui❁6쎯	-11.1004
guai❄7쎯wu❄36쎯	-11.1005
jia❂19쎯	-11.1007
.쎁쎉쎈쎆nian❂6쎯	-11.1009
ru❄2쎯qin❁5쎯	-11.101
ban❃2쎯	-11.101
β	-11.101
hao❂6쎯)	-11.1011
jia❃14쎯zhuang❄5쎯	-11.1014
fan❂22쎯	-11.1014
xing❂11쎯shi❄33쎯,	-11.1015
geng❁17쎯de❅0쎯쎀.	-11.1017
hu❂46쎯luo❂15쎯bo❅	-11.1018
e❄47쎯xing❄13쎯	-11.1019
ji❁54쎯li❄60쎯	-11.102
fen❂16쎯	-11.1021
juan❄26쎯	-11.1021
,bi❃20쎯ru❂9쎯	-11.1022
zhou❄22쎯	-11.1024
mu❃2쎯chan❃12쎯	-11.1024
(쎁쎀	-11.1025
,쎁쎉쎈쎈nian❂6쎯	-11.1026
li❄141쎯fang❁4쎯	-11.1027
ci❂29쎯dian❃5쎯	-11.1029
bing❁4쎯xiang❁11쎯	-11.1029
,li❄51쎯ru❂9쎯	-11.1031
ren❂1쎯cai❂2쎯.	-11.1031
ye❃1쎯xu❃19쎯	-11.1033
you❄13쎯yi❁10쎯	-11.1033
wen❁6쎯han❄20쎯	-11.1034
mo❄16쎯nian❂6쎯	-11.1037
쎁쎂쎁	-11.1037
tiao❂9쎯wen❂12쎯	-11.1042
zhu❄20쎯yu❂35쎯	-11.1043
fu❂23쎯	-11.1043
qian❄21쎯	-11.1044
5쎯、	-11.1045
jing❄19쎯qiu❁9쎯	-11.1045
lun❂20쎯	-11.1045
zhan❄17쎯zai❄5쎯	-11.105
leng❃쎯dong❄11쎯	-11.105
wu❄36쎯,	-11.1051
chu❂15쎯fang❂2쎯	-11.1052
zong❃5쎯e❂39쎯	-11.1054
mian❄2쎯mao❄37쎯	-11.1056
jian❄67쎯	-11.1057
cheng❂17쎯bao❃10쎯	-11.1058
ji❄72쎯ning❂10쎯	-11.1061
zhuan❃4쎯xiang❄6쎯	-11.1066
da❁12쎯jian❄29쎯	-11.1067
fen❁4쎯cheng❂29쎯	-11.1069
di❄27쎯di❄27쎯	-11.1072
yin❂10쎯sheng❁16쎯	-11.1074
쎁쎉쎉쎈.	-11.1074
ju❂23쎯zhang❃6쎯,	-11.1074
hao❂14쎯mi❃19쎯	-11.1075
bu❄38쎯zhang❃6쎯,	-11.1076
qi❃25쎯wen❁6쎯쎁	-11.1077
zhu❄53쎯	-11.1079
,wu❂17쎯lun❄1쎯	-11.1081
,liang❃5쎯	-11.1082
,쎁쎉쎈쎇nian❂6쎯	-11.1083
ju❄39쎯jue❂92쎯	-11.1083
xie❂24쎯	-11.1084
zao❁7쎯yu❄113쎯	-11.1084
bing❄12쎯xue❂6쎯	-11.1085
da❄0쎯zhi❄89쎯	-11.1087
ge❂40쎯	-11.1088
zhuan❄9쎯	-11.109
yin❁11쎯qi❂29쎯	-11.1091
ce❄26쎯hua❂11쎯、	-11.1096
yi❃15쎯zai❄5쎯	-11.1098
yi❂87쎯	-11.1099
duo❂3쎯de❂7쎯	-11.1101
bei❃2쎯bian❁16쎯	-11.1102
da❄0쎯mi❃19쎯	-11.1105
xian❃24쎯wei❁17쎯	-11.1107
jun❁2쎯qiu❂19쎯	-11.1108
hua❁11쎯guan❁5쎯	-11.1109
tao❂9쎯bao❃13쎯	-11.111
gao❁20쎯shang❄2쎯	-11.1112
sha❁4쎯ren❂1쎯	-11.1115
❄90쎯	-11.1115
can❁3쎯guan❁16쎯	-11.1117
ge❄3쎯zi❄16쎯	-11.1117
❂10쎯	-11.1118
ba❁9쎯lu❄70쎯	-11.1119
fu❂77쎯rong❂48쎯	-11.112
、xiang❁26쎯	-11.112
qiang❃2쎯jiu❄29쎯	-11.1121
tong❁5쎯wang❃7쎯	-11.1122
li❄134쎯	-11.1123
ji❂6	-11.1123
xun❁15쎯	-11.1124
wen❂5쎯dang❄12쎯	-11.1124
ri❄2쎯ji❄117쎯	-11.1126
─	-11.1127
ban❁12쎯,	-11.1127
kun❁9쎯shan❁11쎯	-11.1127
.쎁쎉쎈쎇nian❂6쎯	-11.1128
guang❁8쎯xiang❄6쎯	-11.1128
bi❄46쎯hua❄18쎯	-11.113
nong❂5쎯lin❂19쎯	-11.113
、nai❄5쎯	-11.1131
biao❁14쎯qian❁39쎯	-11.1131
yuan❂34쎯xian❄22쎯	-11.1132
huan❂1	-11.1132
xia❁10쎯ren❂3쎯	-11.1133
zhen❁4쎯tan❄5쎯	-11.1136
(쎁쎆	-11.1137
¥	-11.1137
qi❂6	-11.1142
ai❁4쎯	-11.1143
shi❄99쎯pin❃0쎯	-11.1143
,bu❂0쎯neng❂2쎯	-11.1144
,쎁쎉쎈쎂nian❂6쎯	-11.1146
쎈쎀쎂.쎁쎁	-11.1148
san❁1쎯bai❃9쎯	-11.1148
chu❃3쎯bei❄26쎯	-11.1148
xi❁99쎯	-11.1149
tai❄3쎯shou❃3쎯	-11.115
h	-11.1152
song❃12쎯	-11.1153
cang❁12쎯	-11.1157
hao❂6쎯,	-11.1157
cheng❁28쎯.	-11.1159
bian❄19쎯hua❁1쎯,	-11.116
si❄17쎯jie❄19쎯	-11.1161
mo❂9쎯ca❁4쎯	-11.1162
fang❂4쎯fu❃28쎯	-11.1162
tai❄15쎯	-11.1163
zhu❃4쎯ren❂4쎯;	-11.1163
yi❂7	-11.1163
xi❂9쎯xing❄13쎯	-11.1163
wei❂38쎯ji❁36쎯	-11.1165
tui❁1쎯hang❂16쎯	-11.1166
shou❃6쎯chuang❄1쎯	-11.1166
mi❃19쎯de❅2쎯	-11.1168
hou❄7쎯mian❄2쎯	-11.1169
zhan❁4쎯ju❁18쎯	-11.117
し	-11.117
ren❂1쎯zao❄16쎯	-11.1171
zhu❃4쎯pin❂15쎯	-11.1172
jian❄62쎯dao❄3쎯	-11.1172
쎄mu❃2쎯	-11.1172
yu❄1	-11.1172
wu❂17쎯xiao❄14쎯	-11.1173
《guan❁4쎯yu❂35쎯	-11.1173
you❂24쎯cai❄5쎯	-11.1174
.zuo❄5쎯pin❃0쎯	-11.1174
chu❁3쎯hang❂16쎯	-11.1177
yi❄109쎯wei❄18쎯	-11.118
wu❃9쎯”	-11.1183
guo❄2쎯duo❁5쎯	-11.1184
,쎁쎉쎉쎆nian❂6쎯	-11.1184
san❁1쎯bao❁4쎯	-11.1188
qi❄20쎯.	-11.1189
yuan❂15쎯;	-11.119
,xie❂16쎯	-11.119
xiao❁42쎯	-11.1192
di❃	-11.1193
,쎂쎀쎀쎁nian❂6쎯	-11.1193
yin❂27쎯	-11.1193
chi❁23쎯xiu❁9쎯	-11.1194
shi❄31쎯deng❃2쎯	-11.1198
wen❂5쎯ben❄4쎯	-11.1198
chun❁6쎯tian❁5쎯	-11.1199
zi❃7쎯nv❃0쎯	-11.12
wei❄15쎯.	-11.12
zhong❁4쎯suo❃11쎯	-11.1201
hai❂6쎯zi❃7쎯de❅2쎯	-11.1202
xue❂6쎯han❄20쎯	-11.1202
.쎁쎉쎃쎄nian❂6쎯	-11.1204
,xian❁18쎯duan❁4쎯	-11.1205
lu❄83쎯xu❄69쎯	-11.1205
zhi❂22쎯min❂22쎯	-11.1206
shui❃0쎯zhi❄104쎯	-11.1207
jian❄62쎯jie❃6쎯	-11.1207
he❂37쎯dao❄24쎯	-11.1207
duo❃28쎯	-11.1208
,쎂쎀쎀쎉nian❂6쎯	-11.1208
ping❂36쎯ding❄2쎯	-11.1209
mang❃8쎯	-11.1209
jin❁33쎯huang❂56쎯	-11.1213
zhe❃2쎯、	-11.1216
rong❂29쎯	-11.1217
zong❃5쎯du❁8쎯	-11.1217
ka❃1쎯tong❁5쎯	-11.122
zha❄14쎯	-11.1222
er❂16쎯guo❄2쎯	-11.1223
feng❁8쎯xian❄22쎯	-11.1223
ji❃22쎯chui❂10쎯	-11.1224
·a❁6쎯	-11.1224
gen❁0쎯ju❁18쎯《	-11.1225
she❄29쎯bei❄26쎯.	-11.1225
hao❄23쎯te❄5쎯	-11.1225
ci❁2쎯shi❃8쎯	-11.1226
bao❁10쎯pian❁5쎯	-11.1229
,jian❁14쎯	-11.1231
lv❄15쎯ling❃2쎯	-11.1232
ming❂7쎯lu❄35쎯	-11.1233
shui❃0쎯liang❂19쎯	-11.1233
イ	-11.1235
qiao❄8쎯	-11.1235
jiu❄30쎯zhi❃13쎯	-11.1235
jian❃15쎯	-11.1236
chuan❁5쎯guo❄2쎯	-11.1241
ji❁116쎯jing❁24쎯	-11.1242
yan❃45쎯sheng❁16쎯	-11.1242
,chu❁3쎯sheng❁16쎯	-11.1242
bian❃4쎯ping❂17쎯	-11.1245
tian❁5쎯cai❂2쎯	-11.1246
xi❃1쎯ai❄26쎯de❅2쎯	-11.1247
a❁3쎯zhi❄30쎯	-11.1249
.쎁쎉쎉쎉nian❂6쎯	-11.1249
xia❄3쎯ru❄2쎯	-11.125
yi❁17쎯	-11.1251
diao❄17쎯li❃15쎯	-11.1252
》you❂29쎯	-11.1257
ru❂9쎯xia❄3쎯	-11.1257
yue❄29쎯fen❄2쎯	-11.1258
wu❃28쎯xia❂10쎯	-11.1259
쎃쎀mo❄16쎯	-11.126
bu❄28쎯qiang❁13쎯	-11.1261
chai❂6쎯you❂24쎯	-11.1261
shang❁4쎯dian❄13쎯	-11.1262
du❂25쎯zi❁45쎯	-11.1263
jiang❁5쎯ling❃2쎯	-11.1265
deng❄	-11.1265
mei❄6쎯	-11.1265
.wo❃3쎯	-11.1266
er❂16쎯bei❄48쎯	-11.1268
po❄16쎯	-11.127
yue❁1쎯han❄43쎯·	-11.127
shan❄15쎯yu❂35쎯	-11.1273
zhong❁4쎯lu❄70쎯	-11.1276
zhe❄14쎯ma❅1쎯	-11.1276
jiao❁20쎯wu❄12쎯	-11.1276
[...]
