[UNK]	0
[PAD]	0
[CLS]	0
[SEP]	0
[MASK]	0
,	-3.54935
de❅2쎯	-3.72115
.	-3.93857
、	-4.19809
쎯	-4.48764
han❄20쎯	-5.22362
wei❄14쎯	-5.35453
shi❄45쎯	-5.37245
zai❄5쎯	-5.39983
:	-5.50049
ren❂1쎯	-5.53889
zhong❁4쎯	-5.58528
yu❂35쎯	-5.59201
you❃11쎯	-5.6323
da❄0쎯	-5.67831
(	-5.70731
sheng❁16쎯	-5.77487
le❅0쎯	-5.85328
deng❃2쎯	-5.91631
yi❁10쎯	-5.92284
yu❃14쎯	-5.93865
shang❃1쎯	-5.94583
)	-5.96215
《	-5.96397
shi❄32쎯	-5.99186
nian❂6쎯	-6.03381
;	-6.08715
zhi❁13쎯	-6.11768
bu❂0쎯	-6.12142
sheng❃9쎯	-6.13212
de❅0쎯	-6.2093
zhang❃6쎯	-6.24446
쎁	-6.25975
gong❁10쎯si❁16쎯	-6.26409
yi❃10쎯	-6.26494
zhong❁4쎯guo❂11쎯	-6.26623
shui❃0쎯	-6.27064
jia❁13쎯	-6.28466
“	-6.28696
xian❄22쎯	-6.28869
hui❄27쎯	-6.33508
bu❄38쎯	-6.35066
cheng❂29쎯	-6.35101
gao❁20쎯	-6.35433
zi❃7쎯	-6.35529
qu❁15쎯	-6.36286
shan❁11쎯	-6.36493
hou❄7쎯	-6.37897
chu❁3쎯	-6.37968
쎂	-6.39614
xing❄13쎯	-6.40482
xin❁10쎯	-6.42264
chan❃12쎯	-6.42561
쎃	-6.42723
ji❂37쎯	-6.4339
ming❂7쎯	-6.44748
”	-6.4543
yong❄3쎯	-6.49166
a	-6.50217
xiao❃2쎯	-6.5067
yan❂50쎯jiu❁16쎯	-6.51601
duo❁5쎯	-6.5199
xia❄3쎯	-6.53908
ji❁48쎯	-6.54042
-	-6.56991
da❄0쎯xue❂6쎯	-6.57779
guo❂11쎯	-6.58741
xue❂6쎯	-6.588
》	-6.59026
san❁1쎯	-6.5936
dui❄14쎯	-6.60023
·	-6.61464
nan❂6쎯	-6.63038
na❄11쎯	-6.64138
cun❁1쎯	-6.64349
hua❁1쎯	-6.64951
ben❄4쎯	-6.66311
suo❃11쎯	-6.67042
shi❂20쎯	-6.67625
fen❁4쎯	-6.67777
wai❄0쎯	-6.69307
tian❁5쎯	-6.69311
er❂16쎯	-6.70517
fa❃2쎯	-6.71602
dao❄3쎯	-6.74026
mian❄2쎯	-6.74469
2쎯	-6.74768
hang❂16쎯	-6.75092
n	-6.75469
xi❁143쎯	-6.76412
ke❃4쎯	-6.76582
guan❃9쎯li❃15쎯	-6.76653
huo❄27쎯	-6.78226
zhen❄30쎯	-6.79843
zong❃5쎯	-6.79904
liang❂19쎯	-6.80165
hai❃1쎯	-6.805
ji❄59쎯shu❂7쎯	-6.80955
wen❂5쎯	-6.80968
쎅	-6.81313
ke❁16쎯	-6.82149
bei❄48쎯	-6.82351
ben❃5쎯	-6.8295
lu❄70쎯	-6.84533
yi❁10쎯gan❄3쎯	-6.85288
dong❁3쎯	-6.85485
qian❂8쎯	-6.86207
ke❄6쎯	-6.86791
wu❂17쎯	-6.87259
gong❁17쎯zuo❄5쎯	-6.87275
gong❁17쎯	-6.88555
dian❃11쎯	-6.88845
cheng❂17쎯	-6.89285
u	-6.8979
fu❄28쎯	-6.90181
hua❁11쎯	-6.90263
chong❂17쎯	-6.91205
o	-6.91865
쎁쎉	-6.92159
li❄59쎯	-6.92219
9쎯	-6.92704
jiang❁5쎯	-6.93258
xing❂11쎯	-6.94081
zhuan❁1쎯qiu❁9쎯	-6.94369
chu❄17쎯	-6.94427
qi❂29쎯	-6.94931
쎁쎀	-6.95438
dao❄24쎯	-6.95926
xin❁7쎯	-6.95959
ji❂83쎯	-6.96083
zhi❄88쎯	-6.96167
7쎯	-6.9619
xian❄47쎯	-6.96999
6쎯	-6.98476
ping❂17쎯	-6.985
guang❁2쎯	-6.98931
ru❄2쎯	-6.99333
dan❄38쎯	-6.99881
쎄	-6.99902
ren❂4쎯	-6.99932
zhe❃2쎯	-6.99949
/	-7.00079
fa❁1쎯	-7.00242
quan❂6쎯	-7.00783
ming❂8쎯	-7.00932
qi❃12쎯qiu❁9쎯	-7.01193
ng	-7.01878
jin❁33쎯	-7.0194
qing❁10쎯	-7.01957
jian❁25쎯	-7.02151
zi❄16쎯	-7.02461
zhi❄30쎯	-7.02663
qi❄20쎯	-7.0309
3쎯	-7.03166
lai❂16쎯	-7.0326
chan❃12쎯pin❃0쎯	-7.03392
fu❂43쎯wu❄12쎯	-7.034
dian❄23쎯	-7.0346
fang❁4쎯	-7.03853
4쎯	-7.04428
fa❁1쎯zhan❃11쎯	-7.05909
kou❃1쎯	-7.06302
liang❃5쎯	-7.06477
yuan❂12쎯	-7.06807
xue❂6쎯yuan❄18쎯	-7.06865
i	-7.07703
an❁13쎯	-7.08063
ri❄2쎯	-7.0824
li❃26쎯	-7.08271
gan❄3쎯	-7.08296
xiang❁1쎯	-7.0842
ju❂23쎯	-7.08459
guo❂11쎯jia❁13쎯	-7.09091
e	-7.10086
쎆	-7.10111
5쎯	-7.10425
er❄5쎯	-7.1051
zhi❄104쎯	-7.10524
jian❄29쎯	-7.10564
bei❃2쎯	-7.11307
wei❄15쎯yu❂35쎯	-7.11369
jiao❁20쎯yu❄93쎯	-7.11516
wang❂5쎯	-7.1193
zuo❄5쎯	-7.12538
mei❃13쎯	-7.12544
du❄8쎯	-7.12787
you❂29쎯	-7.13091
jiang❁10쎯	-7.13263
,shi❄45쎯	-7.13373
si❁24쎯	-7.13608
si❄17쎯	-7.13915
1쎯	-7.14592
mi❃19쎯	-7.14825
feng❁58쎯	-7.14989
you❃11쎯xian❄61쎯	-7.15041
tong❁5쎯	-7.15177
zhu❃4쎯	-7.1542
ye❃1쎯	-7.15543
tou❂4쎯	-7.15772
cong❂6쎯	-7.15905
shu❁8쎯	-7.16124
ji❂114쎯	-7.16843
chong❂11쎯	-7.18088
jing❁27쎯	-7.18644
hua❂14쎯	-7.19005
men❂19쎯	-7.19054
qi❃25쎯	-7.20179
er❃6쎯	-7.20443
zui❄4쎯	-7.20508
zheng❁22쎯	-7.2087
liu❂20쎯	-7.21
ding❄2쎯	-7.21165
qiu❁9쎯	-7.21414
jing❁27쎯ji❄72쎯	-7.22343
bai❂2쎯	-7.22355
neng❂2쎯	-7.22722
tong❂13쎯	-7.22801
he❂37쎯	-7.22869
te❄5쎯	-7.22889
gong❁10쎯	-7.23079
de❂9쎯	-7.23198
wu❃9쎯	-7.23265
쎇	-7.23857
hao❂6쎯	-7.2439
zhu❃4쎯yao❁17쎯	-7.2444
xiang❁9쎯	-7.24603
jun❁2쎯	-7.24609
zhong❁4쎯xin❁7쎯	-7.2475
li❄58쎯	-7.24993
hao❃0쎯	-7.25666
쎈	-7.25911
qi❃34쎯	-7.25936
yuan❂10쎯	-7.25956
zhou❁9쎯	-7.25992
shi❄18쎯	-7.26185
mo❄16쎯	-7.26278
()	-7.26862
bing❁6쎯	-7.26982
dou❁12쎯	-7.27093
de❂7쎯	-7.27155
she❄29쎯ji❄116쎯	-7.27245
xi❄46쎯tong❃9쎯	-7.27503
ma❃14쎯	-7.27615
lin❂19쎯	-7.27884
xi❄46쎯	-7.27988
se❄29쎯	-7.2811
jia❁7쎯	-7.2812
쎉	-7.28418
wen❂5쎯hua❁1쎯	-7.28598
shou❃4쎯	-7.28861
huang❂56쎯	-7.2907
yu❃44쎯	-7.2947
xue❂6쎯jiao❄18쎯	-7.29596
chang❂15쎯	-7.29944
shi❁11쎯	-7.3066
long❂63쎯	-7.31172
cheng❁28쎯	-7.31266
zheng❄12쎯fu❃14쎯	-7.31435
wu❄36쎯	-7.31617
re❄1쎯	-7.3226
wang❃14쎯	-7.32269
pian❁5쎯	-7.32879
8쎯	-7.32888
chang❃4쎯	-7.33535
쎂쎀	-7.34322
jing❁24쎯	-7.3445
da❂30쎯	-7.34677
ren❂1쎯,	-7.35181
guo❄2쎯	-7.35238
xing❂9쎯	-7.36279
shi❂13쎯	-7.36353
bing❄12쎯	-7.37044
you❂24쎯	-7.37181
shi❄33쎯	-7.37297
yuan❄18쎯	-7.37509
dong❄13쎯	-7.3759
gu❃14쎯	-7.37628
ci❃2쎯	-7.37983
shi❄31쎯	-7.38343
zhuang❁10쎯	-7.38459
wei❁12쎯yuan❂15쎯	-7.388
qing❂6쎯	-7.39223
jiu❄23쎯	-7.39225
che❁8쎯	-7.39331
ji❁47쎯	-7.40082
.”	-7.4133
ru❂9쎯	-7.41342
shu❄26쎯	-7.4136
jiao❁20쎯	-7.41497
cheng❂52쎯	-7.41653
si❄15쎯	-7.41656
ci❄16쎯	-7.41898
wei❄15쎯	-7.42016
zhang❁4쎯	-7.42512
yue❁1쎯	-7.42618
zhao❁6쎯	-7.43506
xiang❄6쎯	-7.4381
nv❃0쎯	-7.43852
zi❄6쎯	-7.44135
li❄141쎯	-7.44216
dang❁4쎯	-7.44414
ge❄3쎯	-7.44498
hong❂44쎯	-7.44577
쎁쎂	-7.44596
shi❂10쎯	-7.44677
guo❂11쎯ji❄121쎯	-7.4561
lei❄16쎯	-7.4571
jin❄60쎯	-7.45969
bei❃2쎯jing❁3쎯	-7.46214
bi❄73쎯qiu❁9쎯	-7.46351
dai❄9쎯	-7.46614
min❂22쎯	-7.46749
dai❄15쎯	-7.47223
shang❁4쎯	-7.47326
mian❄2쎯ji❁64쎯	-7.47515
bian❄19쎯	-7.4797
zhi❃19쎯	-7.48353
ta❁3쎯	-7.48461
jian❄62쎯	-7.48729
bai❃9쎯	-7.48898
0쎯	-7.49523
huo❃2쎯	-7.49621
zheng❄12쎯	-7.50282
qu❄6쎯	-7.50408
ren❂1쎯min❂22쎯	-7.50528
she❄22쎯hui❄27쎯	-7.50691
la❁7쎯	-7.50772
),	-7.51182
shen❁40쎯	-7.51644
ge❃0쎯	-7.51885
chuan❂4쎯	-7.52112
jin❄61쎯	-7.52215
yang❂35쎯	-7.52379
ren❂1쎯.	-7.52864
can❁3쎯jia❁7쎯	-7.53194
di❄45쎯yi❁10쎯	-7.54013
guan❃9쎯	-7.54116
xie❂16쎯	-7.54765
zhuang❄5쎯	-7.54897
"	-7.55187
quan❂6쎯guo❂11쎯	-7.55598
ji	-7.56362
mu❄15쎯	-7.56491
yao❁17쎯	-7.56621
쎀	-7.56669
ceng❂3쎯	-7.56783
yuan❂15쎯	-7.56793
ke❁16쎯ji❄59쎯	-7.56855
pin❃0쎯	-7.57163
jian❁85쎯	-7.57233
jin❄61쎯hang❂16쎯	-7.57393
yi❃15쎯	-7.57611
xiang❁26쎯	-7.57639
shu❃5쎯	-7.57798
,zai❄5쎯	-7.58702
jian❄29쎯zhu❂18쎯	-7.59049
xian❄37쎯	-7.59148
dui❄33쎯	-7.59289
》、《	-7.59293
shi❄15쎯jie❄29쎯	-7.59668
huo❄50쎯	-7.59775
cheng❂29쎯li❄141쎯	-7.59995
tu❂14쎯	-7.60351
yi❁10쎯chong❂11쎯	-7.60656
shou❃6쎯	-7.60932
jiang❄9쎯	-7.6118
jiao❄18쎯	-7.61363
xuan❃8쎯	-7.61754
ti❂17쎯gong❁9쎯	-7.61794
lao❃17쎯	-7.61914
qing❁20쎯	-7.62263
yue❄29쎯	-7.62585
shi❄15쎯	-7.62715
jian❁25쎯fa❁1쎯	-7.63223
li❃15쎯	-7.6436
jiao❁20쎯xue❂6쎯	-7.6461
ke❁16쎯xue❂6쎯	-7.64974
ji❁34쎯	-7.65023
xian❁18쎯	-7.65142
,bing❁6쎯	-7.65219
gan❃6쎯	-7.6576
qiu❂19쎯	-7.66207
ke❃4쎯yi❃10쎯	-7.66403
hua❄18쎯	-7.66792
ai❄26쎯	-7.66891
diao❄17쎯	-7.66983
shen❁18쎯	-7.67266
yao❄12쎯	-7.67612
yi❄190쎯shu❂7쎯	-7.67912
yin❁44쎯	-7.67955
bu❄23쎯	-7.68204
geng❁6쎯	-7.68452
wo❃3쎯	-7.68796
bi❃20쎯	-7.68928
쎃쎀	-7.68953
ya❄7쎯	-7.68955
xing❁7쎯	-7.69023
hui❂1쎯	-7.69042
shi❃6쎯	-7.69157
she❄22쎯	-7.69273
jian❄29쎯she❄29쎯	-7.69372
%	-7.69468
shang❃1쎯hai❃1쎯	-7.69582
dan❁9쎯	-7.69713
xin❄8쎯	-7.701
shuang❁4쎯	-7.70345
11쎯	-7.70506
yi❄109쎯	-7.70531
shen❂2쎯	-7.7064
jie❂69쎯	-7.70955
gan❁16쎯	-7.71011
zhan❄10쎯	-7.71241
zu❃7쎯zhi❁39쎯	-7.71245
10쎯	-7.71303
gong❄3쎯	-7.71533
wu❃28쎯	-7.71896
dang❃2쎯	-7.72145
ka❃1쎯	-7.72297
yu❂37쎯	-7.72372
gong❁17쎯cheng❂5	-7.7252
de❅0쎯qu❁15쎯	-7.72675
쎁쎅	-7.73557
xin❄8쎯xi❁70쎯	-7.73641
bao❃9쎯	-7.73669
tong❁5쎯guo❄2쎯	-7.73685
bian❁13쎯	-7.74164
guan❁16쎯	-7.74456
zhou❁5쎯	-7.74716
chu❁4쎯	-7.74738
ju❄18쎯	-7.74756
쎅쎀	-7.74963
wan❂5쎯	-7.75307
xiang❄24쎯mu❄22쎯	-7.75347
lan❂13쎯	-7.75375
xiu❁11쎯	-7.75711
qu❃1쎯	-7.76068
shuo❁2쎯	-7.7616
han❃11쎯	-7.76399
fang❄0쎯	-7.76512
zhan❄17쎯	-7.76631
ge❂29쎯	-7.76956
le❄3쎯	-7.7707
cao❃5쎯	-7.77191
jie❁13쎯	-7.77284
xie❂14쎯hui❄27쎯	-7.77359
zhuan❃4쎯	-7.77494
tu❃1쎯	-7.77581
shi❃8쎯	-7.77584
fang❂2쎯	-7.77673
cong❂6쎯shi❄18쎯	-7.77887
sheng❁16쎯huo❂3쎯	-7.78187
zuo❄5쎯pin❃0쎯	-7.78312
shi❃6쎯yong❄3쎯	-7.78817
shou❁1쎯	-7.78822
guan❁6쎯	-7.79089
ying❁17쎯	-7.7923
you❄13쎯	-7.79271
쎁쎁	-7.80118
》:“	-7.80137
bian❁16쎯	-7.80145
wang❃14쎯luo❄24쎯	-7.80157
jiang❃8쎯	-7.80689
mei❃13쎯guo❂11쎯	-7.80808
zhen❁30쎯	-7.80978
쎁쎈	-7.81081
zuo❄7쎯	-7.81174
jiu❃3쎯	-7.81304
ba❁9쎯	-7.8142
fang❂4쎯	-7.8173
ni❃6쎯	-7.81773
tai❄3쎯	-7.81828
ban❃5쎯	-7.82095
xie❃8쎯	-7.82379
ji❂35쎯	-7.82747
yun❂4쎯	-7.82874
guan❃15쎯	-7.83028
huan❂20쎯jing❄11쎯	-7.83091
jiao❁8쎯	-7.83124
y	-7.83307
ju❄16쎯you❃11쎯	-7.83355
she❄29쎯bei❄26쎯	-7.83376
nong❂5쎯	-7.83487
ju❄16쎯	-7.83946
liao❄8쎯	-7.83988
cheng❂29쎯wei❄14쎯	-7.841
jian❄15쎯	-7.84142
di❄45쎯	-7.8454
qu❁25쎯	-7.8461
han❄33쎯	-7.84624
lou❂19쎯	-7.84701
rou❄1쎯	-7.84859
dan❁9쎯wei❄15쎯	-7.85371
luo❁4쎯	-7.85599
li❃11쎯	-7.85664
liu❄3쎯	-7.85722
tiao❂9쎯	-7.86102
bao❃13쎯	-7.86216
yu❂127쎯	-7.86326
wei❄18쎯	-7.86499
shao❃2쎯	-7.86721
jie❃6쎯	-7.86928
cha❁3쎯	-7.87392
ceng❂6쎯	-7.87469
,yi❃10쎯	-7.87472
xiang❄20쎯	-7.87513
wei❁12쎯	-7.87514
ju❁14쎯	-7.87615
gong❁11쎯neng❂2쎯	-7.87653
zh	-7.87717
～	-7.87786
zhu❃4쎯ren❂4쎯	-7.87847
fu❄31쎯	-7.87885
zhe❄14쎯	-7.87903
xing❄8쎯	-7.88428
yin❁11쎯	-7.8845
gai❁13쎯	-7.88819
yi❃10쎯ji❂37쎯	-7.8954
bie❂4쎯	-7.89614
duan❁4쎯	-7.89683
ji❂57쎯	-7.89754
shi❄28쎯	-7.89862
nan❂14쎯	-7.89933
5	-7.90201
hen❃2쎯	-7.90313
chuang❄1쎯	-7.90384
guan❁4쎯	-7.90591
qing❄3쎯	-7.90702
16쎯	-7.90708
ban❄5쎯	-7.90728
cai❄5쎯	-7.90741
qiu❂36쎯	-7.90812
wei❁17쎯	-7.90942
yuan❂34쎯	-7.90998
pi❂17쎯	-7.91355
li❄62쎯shi❃8쎯	-7.91422
쎁쎆	-7.91601
zu❃7쎯	-7.91838
lun❄1쎯	-7.91919
zhan❃11쎯	-7.92001
shi❁33쎯	-7.9211
qiao❂12쎯	-7.92126
chao❂6쎯	-7.92363
ba❃1쎯	-7.92371
zhi❂25쎯	-7.92465
lian❂53쎯	-7.926
shou❄4쎯	-7.92758
zhi❄61쎯	-7.92821
yan❂49쎯	-7.92986
20쎯	-7.93212
qi❁9쎯	-7.93264
13쎯	-7.93383
hu❂32쎯	-7.93448
gai❃2쎯	-7.93511
jian❃52쎯	-7.93543
ta❁5쎯	-7.93665
”.	-7.9388
guo❃3쎯	-7.93893
jiao❄35쎯	-7.93956
jie❄29쎯	-7.93974
gong❁17쎯qiu❁9쎯	-7.94029
hu❄26쎯	-7.9425
ze❂11쎯	-7.94304
shu❄28쎯	-7.94422
15쎯	-7.94447
wen❁6쎯	-7.94658
yuan❃4쎯	-7.94683
ci❂29쎯	-7.94931
yong❁17쎯you❃11쎯	-7.94969
you❂25쎯xi❄33쎯	-7.95119
xue❂6쎯sheng❁16쎯	-7.95357
zu❂9쎯	-7.95641
kao❃10쎯	-7.95714
shi❄32쎯chang❃4쎯	-7.95779
xi	-7.95832
mao❂11쎯	-7.95874
fu❂94쎯	-7.95924
fen❃1쎯	-7.96016
ji❂114쎯qiu❂19쎯	-7.96192
ran❂12쎯	-7.96258
zi❄16쎯ji❃13쎯	-7.96416
ning❂10쎯	-7.96767
gong❁11쎯	-7.97139
jing❃13쎯	-7.97274
biao❁14쎯zhun❃0쎯	-7.97499
song❄4쎯	-7.97654
lie❄20쎯	-7.9779
bao❄10쎯	-7.97828
tang❂13쎯	-7.97938
lv❄15쎯	-7.98014
qie❁1쎯	-7.98231
da❂14쎯	-7.98467
kong❁9쎯	-7.98552
jia❁7쎯ru❄2쎯	-7.98752
ying❁17쎯yong❄3쎯	-7.98773
zi❄16쎯ran❂12쎯	-7.98952
zhi❄47쎯	-7.98981
xi❄50쎯	-7.98984
zhi❂32쎯	-7.98994
jie❂67쎯	-7.99143
zhi❁21쎯	-7.99513
tian❂16쎯	-7.99736
fan❃3쎯	-7.99905
jiao❁20쎯shi❁11쎯	-7.99917
qian❁13쎯	-8.00156
jin❁10쎯	-8.00606
pai❂2쎯	-8.00877
zhi❁31쎯	-8.01217
ban❁12쎯	-8.0147
zhi❁21쎯chi❂20쎯	-8.01693
ren❂1쎯kou❃1쎯	-8.01875
pei❄19쎯	-8.01884
rong❂21쎯	-8.01899
biao❃5쎯	-8.02198
gei❃1쎯	-8.02227
쎄쎀	-8.02378
lin❂7쎯	-8.02477
쎈쎀	-8.0277
zi❁45쎯	-8.02785
ba❁16쎯	-8.02816
bu❄38쎯fen❁4쎯	-8.02827
mi❄24쎯	-8.0298
fei❁15쎯	-8.03058
ying❂45쎯	-8.03298
quan❂12쎯	-8.03434
kuan❁0쎯	-8.03497
yun❃16쎯	-8.0375
zong❁24쎯ge❃0쎯	-8.04085
lian❂69쎯	-8.04226
cheng❂17쎯shi❄32쎯	-8.04271
shan❁11쎯dong❁3쎯	-8.04322
dao❃5쎯	-8.04362
ri❄2쎯ben❃5쎯	-8.04513
huo❂3쎯dong❄13쎯	-8.04538
zhuan❁1쎯	-8.04817
22쎯	-8.05024
guo❂11쎯na❄11쎯	-8.05052
you❁5쎯xiu❄8쎯	-8.05184
xian❄37쎯dai❄9쎯	-8.05239
chong❂17쎯yao❁17쎯	-8.0551
de❅1쎯	-8.05813
bei❄26쎯	-8.05898
yi❁13쎯yuan❄18쎯	-8.06074
er❂7쎯	-8.06085
mu❄22쎯	-8.06303
you❂25쎯	-8.06623
su❄56쎯	-8.06907
쎁쎀쎀	-8.07035
gong❁10쎯li❃26쎯,	-8.07144
chao❁17쎯	-8.07284
zhong❁4쎯de❅2쎯	-8.07416
di❁9쎯	-8.0764
jie❄19쎯	-8.07899
12쎯	-8.08065
shi❂20쎯jian❁85쎯	-8.08123
shi❂39쎯	-8.08171
chu❁3쎯ban❃6쎯	-8.08207
mei❃9쎯	-8.08224
xue❂6쎯xi❂9쎯	-8.08225
hei❁3쎯	-8.08389
suan❁3쎯	-8.08571
tie❃5쎯	-8.08611
dai❄9쎯biao❃5쎯	-8.08613
s	-8.08669
zhong❁4쎯xue❂6쎯	-8.08716
ji❁34쎯chu❃14쎯	-8.08847
bo❁11쎯	-8.08969
tou❂5쎯zi❁45쎯	-8.09186
shi❄71쎯	-8.09324
zuo❄5쎯wei❄14쎯	-8.09684
nong❂5쎯qiu❁9쎯	-8.0983
21쎯	-8.09842
xie❃4쎯	-8.10005
wei❂38쎯	-8.10019
zhang❁13쎯	-8.1006
30쎯	-8.1019
chen❂41쎯	-8.1027
fu❁13쎯	-8.10342
la❄23쎯	-8.10417
dian❄23쎯zi❃7쎯	-8.10446
jiu❃12쎯	-8.10563
17쎯	-8.10582
쎁쎃	-8.10834
yan❂61쎯	-8.10907
fang❁4쎯fa❃2쎯	-8.11114
14쎯	-8.11131
bu❂0쎯tong❂13쎯	-8.11279
shi❄99쎯	-8.11371
ge❄3쎯chong❂11쎯	-8.11572
jiao❃57쎯	-8.11711
an❁15쎯	-8.11772
xian❁18쎯jin❄61쎯	-8.12081
ya❁7쎯	-8.12088
chun❁6쎯	-8.1218
zhao❂쎯ming❂7쎯	-8.12639
ji❁48쎯gou❃2쎯	-8.12812
gong❁10쎯li❃26쎯	-8.12887
xi❄46쎯lie❄20쎯	-8.12929
huo❄50쎯de❂7쎯	-8.12929
dian❄23쎯shi❄71쎯	-8.13074
쎆쎀	-8.13192
biao❁14쎯	-8.13263
!	-8.13278
ke❄14쎯	-8.13358
a❁6쎯	-8.13419
쎂쎅	-8.1356
li	-8.13577
yin❁44쎯le❄3쎯	-8.1365
쎁쎇	-8.13688
xiang❄24쎯	-8.13827
qi	-8.14128
she❄29쎯	-8.14408
bo❂41쎯shi❄28쎯	-8.14446
jiu❃12쎯dian❄13쎯	-8.14684
lu❄35쎯	-8.14882
hua❄26쎯	-8.15071
jun❁6쎯	-8.15073
hang❂16쎯qiu❁9쎯	-8.15201
wu❄12쎯	-8.15237
jie❁30쎯	-8.15328
sha❁10쎯	-8.15514
ling❂58쎯	-8.15633
zu❂11쎯	-8.15894
sui❂9쎯	-8.15984
duan❄7쎯	-8.16091
ban❄4쎯gong❁10쎯	-8.16181
na❄20쎯	-8.16206
sui❄16쎯	-8.1622
fu❂43쎯	-8.16316
yi❁13쎯	-8.16481
yi❂38쎯	-8.16743
yue❄46쎯	-8.16835
yan❂31쎯	-8.17089
zai❄4쎯	-8.17293
jiu❄23쎯shi❄45쎯	-8.17427
bao❁4쎯gua❁11쎯	-8.17811
).	-8.17832
ke❄7쎯	-8.18033
zhe❄9쎯jiang❁10쎯	-8.18183
xiang❄4쎯	-8.18326
yun❃16쎯dong❄13쎯	-8.18424
yin❃14쎯	-8.18623
li❃15쎯lun❄1쎯	-8.18788
ying❁44쎯	-8.18931
pian❁7쎯	-8.19525
.zai❄5쎯	-8.19619
jing❁27쎯ying❂45쎯	-8.1971
zhi❁16쎯	-8.19784
—	-8.19934
chu❁3쎯sheng❁16쎯	-8.19942
pan❂10쎯	-8.20019
juan❃1쎯	-8.20198
cang❂5쎯	-8.20333
bao❁4쎯	-8.20347
fang❁4쎯mian❄2쎯	-8.20387
bing❁2쎯	-8.20539
쎂쎀쎀	-8.20589
,dan❄10쎯	-8.20593
zuo❄12쎯	-8.20614
wei❁12쎯hui❄27쎯	-8.20617
chi❁23쎯	-8.20661
shu❁8쎯ji❄117쎯	-8.20673
ge❁16쎯	-8.20682
jie❂67쎯gou❃2쎯	-8.20717
ban❃6쎯	-8.20817
kuang❄12쎯	-8.20966
jian❁25쎯shi❃9쎯	-8.20998
zu❃7쎯cheng❂29쎯	-8.21038
wo❃3쎯们	-8.2111
g	-8.21189
huan❂20쎯	-8.21316
kang❄5쎯	-8.21763
kan❁9쎯	-8.218
yu❄70쎯	-8.21844
qun❂6쎯	-8.21922
쎁쎄	-8.22142
chu❂42쎯	-8.22164
si❁11쎯	-8.22166
qi❂29쎯zhong❁4쎯	-8.22167
di❄45쎯er❄5쎯	-8.22309
gao❁20쎯ji❂83쎯	-8.22365
fu❄36쎯	-8.22462
cai❂3쎯liao❄8쎯	-8.22823
shu❃5쎯yu❂35쎯	-8.22824
bi❃24쎯	-8.22904
pin❃0쎯pai❂4쎯	-8.22937
zi❁45쎯yuan❂34쎯	-8.23336
wen❂5쎯xue❂6쎯	-8.23449
ji❁36쎯	-8.23502
yong❃21쎯	-8.23547
shi❁8쎯	-8.23551
tang❂15쎯	-8.23727
ni❂10쎯	-8.23835
na❄11쎯rong❂21쎯	-8.23944
dao❃7쎯	-8.24081
ren❂1쎯yuan❂15쎯	-8.24157
zhi❄89쎯	-8.2417
ji❄36쎯	-8.24482
쎀쎀	-8.24615
sai❄4쎯	-8.24666
19쎯	-8.24788
z	-8.24837
deng❃2쎯.	-8.24888
zhi❄85쎯	-8.24918
gen❁0쎯	-8.24946
an❄16쎯	-8.24956
jiao❁8쎯tong❁5쎯	-8.25077
c	-8.25163
26쎯	-8.25383
ti❂17쎯	-8.25437
an❁13쎯quan❂6쎯	-8.2551
qi❂29쎯ta❁3쎯	-8.25519
ruan❃17쎯jian❄15쎯	-8.26203
24쎯	-8.2622
ji❁34쎯ben❃5쎯	-8.26322
an❁15쎯dong❁3쎯	-8.2647
peng❂7쎯	-8.26633
duan❃0쎯	-8.26649
cha❂27쎯	-8.26768
zhi❂20쎯wu❄36쎯	-8.26802
yi❄119쎯	-8.2681
bian❄16쎯	-8.26822
ban❄4쎯	-8.26897
shu❄26쎯ju❁18쎯	-8.26918
cun❂1쎯	-8.27056
ta❁6쎯	-8.27311
li❄62쎯	-8.27486
l	-8.2755
fu❂60쎯	-8.27625
gu❄12쎯	-8.27806
shou❁1쎯ru❄2쎯	-8.27847
?	-8.28006
kuai❄14쎯	-8.28083
wei❄14쎯zhu❃4쎯	-8.28084
cai❂3쎯	-8.2822
zhong❁4쎯yang❁4쎯	-8.28328
zheng❄17쎯	-8.28331
chan❃12쎯qiu❁9쎯	-8.28567
si❄17쎯chuan❁2쎯	-8.28639
xiao❁61쎯shou❄5쎯	-8.28707
na❃3쎯	-8.28931
wei❄16쎯	-8.28933
18쎯	-8.28943
ji❁21쎯	-8.2907
hui❄27쎯yuan❂15쎯	-8.29145
liu❂28쎯	-8.29258
,wei❄14쎯	-8.29284
hou❄7쎯,	-8.29362
mo❄30쎯	-8.29373
jia❃14쎯	-8.29425
lv❃14쎯you❂25쎯	-8.29482
rang❄3쎯	-8.29605
쎇yue❄29쎯	-8.29796
ting❁3쎯	-8.3028
kong❄1쎯zhi❄30쎯	-8.30329
jian❁14쎯	-8.30411
zuo❄5쎯yong❄3쎯	-8.30562
yan❃42쎯	-8.30576
ye❄44쎯	-8.30771
gu❃59쎯	-8.30838
쎂.	-8.3116
liu❂9쎯	-8.3125
,you❃11쎯	-8.31294
jiao❁20쎯shou❄9쎯	-8.31299
zhong❁4쎯gong❄3쎯	-8.31365
cai❃11쎯yong❄3쎯	-8.31366
yi❁10쎯ban❁15쎯	-8.3152
cheng❂30쎯	-8.31524
gen❁0쎯ju❁18쎯	-8.31574
zao❄16쎯	-8.31611
ta❃1쎯	-8.3188
feng❁8쎯fu❄36쎯	-8.32111
bao❃9쎯hu❄30쎯	-8.32149
.《	-8.32211
nan❂20쎯	-8.32218
——	-8.32333
yong❄3쎯yu❂35쎯	-8.32339
xia❄6쎯	-8.32365
yang❃6쎯	-8.32384
”,	-8.32473
,nan❂14쎯,	-8.32538
dian❄13쎯	-8.32648
xue❂6쎯hui❄27쎯	-8.32767
ben❃5쎯shu❁8쎯	-8.33149
huo❂3쎯	-8.33188
yi❄67쎯	-8.33334
niu❂3쎯	-8.3336
pu❃3쎯	-8.33449
lun❄1쎯wen❂5쎯	-8.33557
yang❂17쎯	-8.3362
fang❁4쎯shi❄33쎯	-8.33745
he❂35쎯	-8.338
,qi❂29쎯zhong❁4쎯	-8.33815
tang❁5쎯	-8.3389
can❁3쎯	-8.34029
chu❄17쎯li❃15쎯	-8.341
yi❁13쎯xue❂6쎯	-8.34106
chuan❁2쎯	-8.34124
ding❃11쎯	-8.34211
guo❁26쎯	-8.34491
wei❄26쎯	-8.34514
shi❄51쎯	-8.34609
song❁11쎯	-8.34822
gu	-8.34834
zou❃0쎯	-8.34988
ti❂36쎯	-8.35188
mei❃13쎯shu❂7쎯	-8.35235
jiang❁10쎯su❁10쎯	-8.35306
shuo❄15쎯shi❄28쎯	-8.3535
쎂쎄	-8.35511
yi❁10쎯ben❄4쎯	-8.35521
zhi❂7쎯	-8.35693
ji❄116쎯suan❄3쎯	-8.35872
yi❄165쎯	-8.3594
si❁22쎯	-8.36206
pai❄3쎯	-8.36369
neng❂2쎯li❄59쎯	-8.36676
ji❄117쎯	-8.36918
shang❁2쎯	-8.37169
ji❁22쎯	-8.37202
:“	-8.37308
ce❄8쎯	-8.37462
ya❃9쎯	-8.37509
zhao❂쎯	-8.37614
fa❁1쎯biao❃5쎯	-8.37635
zeng❁2쎯	-8.37637
bu❄28쎯	-8.3771
ming❄1쎯	-8.37968
xian❁57쎯	-8.38035
tao❄1쎯	-8.38115
gang❁32쎯	-8.38394
cai❃4쎯	-8.38422
xiao❃2쎯xue❂6쎯	-8.38508
tong❂13쎯shi❂20쎯	-8.38609
jun❁15쎯	-8.38937
zhi❄30쎯zuo❄5쎯	-8.39148
fu❄64쎯ze❂44쎯	-8.39154
yin❄7쎯	-8.39167
she❄22쎯qu❁15쎯	-8.39314
san❃7쎯	-8.39361
”de❅2쎯	-8.39374
you❃9쎯	-8.39438
zong❁10쎯	-8.39479
ling❂34쎯	-8.39505
su❁10쎯	-8.39598
쎉쎀	-8.39826
xian❁18쎯hou❄7쎯	-8.39968
si❃0쎯	-8.40099
gong❁15쎯	-8.40103
feng❁17쎯	-8.40203
wen❄6쎯ti❂36쎯	-8.4034
wen❂12쎯	-8.40455
xiang❃6쎯	-8.40543
ji❁116쎯	-8.40548
yuan❂17쎯	-8.40555
r	-8.40563
yi❁12쎯	-8.40663
mu❃2쎯	-8.40684
leng❃쎯	-8.40993
,qi❂29쎯	-8.41026
dian❄23쎯ying❃11쎯	-8.4103
an❄14쎯	-8.41313
hou❄6쎯	-8.41313
zai❄8쎯	-8.41418
jie❁13쎯kou❃1쎯	-8.41644
gui❁35쎯hua❂11쎯	-8.41677
zhi❂32쎯qiu❁9쎯	-8.41962
sheng❁16쎯wu❄36쎯	-8.41964
fo❂2쎯	-8.42101
du❂25쎯	-8.42126
he❂37쎯nan❂6쎯	-8.42214
sheng❁16쎯yu❂35쎯	-8.42224
ke❄14쎯hu❄26쎯	-8.42381
xiao❁29쎯	-8.42406
zheng❃4쎯	-8.42612
xiao❃2쎯shuo❁2쎯	-8.42635
qian❂40쎯	-8.42666
sheng❁3쎯	-8.42875
ji❁48쎯xie❄51쎯	-8.42881
cheng❂50쎯	-8.43063
fen❁4쎯xi❁87쎯	-8.43468
ge❃0쎯zuo❄5쎯	-8.43613
gong❁9쎯	-8.43695
qiu❂27쎯	-8.43721
me❅1쎯you❃11쎯	-8.43891
chuan❂4쎯tong❃9쎯	-8.43971
zheng❄13쎯	-8.43976
si❄21쎯	-8.43988
cheng❁28쎯wei❄14쎯	-8.44029
zhu❄31쎯	-8.4407
gong❁17쎯zuo❄5쎯,	-8.4427
cai❂2쎯	-8.44284
sha❁4쎯	-8.44433
쎁.	-8.44523
hai❄8쎯	-8.44689
zhong❁4쎯wen❂5쎯	-8.44888
zhi❄61쎯liao❂24쎯	-8.44922
shun❄11쎯	-8.44959
shi❄45쎯yi❁10쎯	-8.45016
li❃15쎯shi❄18쎯	-8.45103
ying❃11쎯xiang❃5쎯	-8.4531
25쎯	-8.45349
zhan❁4쎯de❅0쎯	-8.4538
tai❄9쎯	-8.45455
yi❄190쎯	-8.45461
lu❃27쎯	-8.45731
mu❄22쎯qian❂8쎯	-8.45795
yi❁10쎯jia❁13쎯	-8.45803
she❄8쎯	-8.45948
쎉yue❄29쎯	-8.46099
ao❄14쎯	-8.46168
zheng❄12쎯zhi❄61쎯	-8.46187
di❄26쎯	-8.46251
ku❁11쎯	-8.4627
li❂32쎯mi❃19쎯	-8.46543
jiao❁29쎯	-8.46574
zhu❄19쎯	-8.46643
:쎁	-8.46724
hu❂32쎯nan❂6쎯	-8.46801
bu❃11쎯	-8.4681
pei❂3쎯xun❄25쎯	-8.46838
zhong❁4쎯,	-8.46881
chang❁6쎯	-8.46968
pi	-8.47043
tuo❁6쎯	-8.47167
6	-8.47179
ling❃2쎯	-8.4718
que❄11쎯	-8.47226
ta❁3쎯们	-8.47277
xi❁97쎯	-8.47375
zhuan❁1쎯jia❁13쎯	-8.47439
sheng❁16쎯,	-8.47482
lin❂43쎯	-8.47516
li❃17쎯	-8.47531
yan❃39쎯	-8.47764
du❂34쎯	-8.4787
yin❂44쎯	-8.47875
쎈yue❄29쎯	-8.4795
fei❁19쎯	-8.47986
zhi❁31쎯shi❂35쎯	-8.48318
b	-8.484
fu	-8.48404
shang❁4쎯wu❄12쎯	-8.48431
ji❂39쎯	-8.48565
ju❄57쎯	-8.48773
gang❃6쎯	-8.48945
ku❄6쎯	-8.48991
ji❄116쎯	-8.49164
xue❂6쎯li❄62쎯	-8.49274
zu❃5쎯	-8.49323
you❁5쎯	-8.49427
zhou❁9쎯shi❄32쎯	-8.49427
×	-8.49513
qing❄14쎯	-8.49561
fu❃14쎯	-8.49574
shi❄45쎯zhi❃19쎯	-8.49616
qiu❁9쎯wu❄12쎯	-8.49643
ke❁16쎯yan❂50쎯	-8.49667
mi❃19쎯,	-8.4986
t	-8.50162
guo❄2쎯cheng❂52쎯	-8.5017
xue❂6쎯shu❂7쎯	-8.50517
tang❂28쎯	-8.51106
ge❂54쎯ming❄1쎯	-8.51156
fen❁4쎯bu❄23쎯	-8.51246
ye❃7쎯	-8.51256
zhong❁4쎯hua❂14쎯	-8.51262
gui❄41쎯	-8.51263
jie❂67쎯ge❃0쎯	-8.5165
yang❂19쎯	-8.51799
zuo❄5쎯zhe❃2쎯	-8.51914
zhao❄18쎯	-8.52046
dang❃2쎯yuan❂15쎯	-8.52208
yu❄126쎯	-8.5223
gui❁12쎯	-8.52309
jia❁7쎯gong❁17쎯	-8.52315
zhi❃22쎯	-8.52387
shi❂13쎯yan❄75쎯	-8.52406
ce❄22쎯	-8.52427
ji❄46쎯	-8.5268
kong❃1쎯	-8.52724
zhi❄30쎯zao❄16쎯	-8.52858
쎁쎂yue❄29쎯	-8.52959
zhi❁13쎯jian❁85쎯	-8.53259
xue❂6쎯wei❄15쎯	-8.5341
gong❁17쎯yi❄190쎯	-8.53505
yi	-8.53517
lv❄20쎯	-8.53635
kuai❄18쎯	-8.53849
ren❂1쎯wu❄36쎯	-8.53872
ling❃2쎯yu❄31쎯	-8.54006
zhi❁13쎯yi❁10쎯.	-8.54021
an❄13쎯	-8.54075
pai❂4쎯	-8.54094
yang❂16쎯	-8.54203
28쎯	-8.54237
ji❁64쎯	-8.54301
zhi❃32쎯	-8.54323
cheng❂16쎯	-8.5436
gu❃52쎯	-8.54662
deng❃2쎯jiang❃8쎯	-8.54727
shu❂7쎯	-8.548
wei❁13쎯	-8.54884
ji❄94쎯	-8.54884
kang❁6쎯	-8.54897
h	-8.54969
shen❃7쎯	-8.54995
jue❂92쎯	-8.55002
yin❁37쎯	-8.55055
wang❄4쎯	-8.55062
li❄50쎯	-8.55217
dai❁1쎯	-8.55221
wang❃7쎯	-8.55278
ti❂17쎯gao❁20쎯	-8.5534
shan❄15쎯	-8.55457
shao❁8쎯	-8.55723
song❄9쎯	-8.55778
yun❂4쎯nan❂6쎯	-8.55819
ping❂17쎯si❄15쎯	-8.55847
fu❂60쎯jian❄29쎯	-8.55888
lei❄16쎯xing❂9쎯	-8.55908
bo❂41쎯	-8.55931
da❄0쎯xing❂9쎯	-8.5619
xiang❁26쎯gang❃6쎯	-8.56234
shi❁11쎯fan❄22쎯	-8.56244
쎅쎀쎀	-8.56293
feng❁19쎯	-8.56709
shou❂쎯	-8.57033
xiao❄14쎯	-8.57111
xiang❁9쎯guan❁4쎯	-8.57126
jiao❄6쎯	-8.57143
duo❁5쎯nian❂6쎯	-8.57286
dou❄18쎯	-8.57438
han❂17쎯	-8.57465
shang❁4쎯qiu❁9쎯	-8.57499
zi❄16쎯dong❄13쎯	-8.57617
쎇쎀	-8.57627
mai❄9쎯	-8.57645
wei❄16쎯sheng❁16쎯	-8.57649
quan❂17쎯	-8.57663
yin❂10쎯	-8.5767
ding❁2쎯	-8.57717
hua❁1쎯xue❂6쎯	-8.57735
du❂17쎯	-8.57783
*	-8.57862
lei❂30쎯	-8.57918
jian❄29쎯li❄141쎯	-8.58115
qin❁4쎯	-8.58182
chong❁10쎯	-8.58206
shi❂20쎯,	-8.58307
liang❂7쎯	-8.5843
쎁쎀yue❄29쎯	-8.58516
ze❂24쎯	-8.58552
ling❃2쎯dao❃5쎯	-8.58554
hu❂32쎯bei❃2쎯	-8.58611
hu❄30쎯	-8.58758
jing❁27쎯yan❄75쎯	-8.5887
tun❁2쎯	-8.59066
feng❁8쎯	-8.59112
qing❄4쎯	-8.59118
min❂22쎯zu❂9쎯	-8.59134
ming❂7쎯cheng❁28쎯	-8.59217
qing❁16쎯	-8.59269
dian❃5쎯	-8.59383
zhu❁17쎯	-8.59469
23쎯	-8.59622
si❁16쎯	-8.59789
an❁13쎯hui❁12쎯	-8.59818
mei❂18쎯	-8.59847
zhe❄14쎯gan❄3쎯	-8.60033
shi❄18쎯qiu❁9쎯	-8.60101
ma❂8쎯	-8.60145
shi❄78쎯	-8.60158
gu❄12쎯shi❄18쎯	-8.60349
xu❁37쎯yao❁17쎯	-8.60439
yan❂46쎯	-8.60509
bei❁15쎯	-8.60552
chong❂11쎯zhi❂20쎯	-8.60815
jing❄48쎯	-8.61011
fa❁1쎯sheng❁16쎯	-8.61086
su❄70쎯	-8.61113
jiang❃19쎯	-8.61203
ying❃11쎯	-8.61252
xian❄37쎯you❃11쎯	-8.61287
d	-8.61369
ju❄65쎯	-8.61424
shu❁8쎯fa❃2쎯	-8.61503
yi❃10쎯shang❃1쎯	-8.61575
liang❂15쎯	-8.61677
dan❄21쎯	-8.61682
shi❄45쎯you❂29쎯	-8.61702
ch	-8.61727
li❄58쎯yong❄3쎯	-8.61743
guan❁4쎯xi❄46쎯	-8.61792
”、“	-8.61794
zhi❃19쎯dao❃5쎯	-8.6183
,er❂16쎯	-8.62061
gong❁10쎯lu❄70쎯	-8.62107
zhan❁4쎯	-8.62159
te❄5쎯dian❃11쎯	-8.6221
ren❂1쎯cai❂2쎯	-8.62212
zheng❁15쎯	-8.62366
wang❃14쎯zhan❄17쎯	-8.62366
fu❄74쎯	-8.62456
ren❂3쎯	-8.62462
--	-8.62473
shi❄15쎯ji❄94쎯	-8.62493
guang❁8쎯	-8.626
chuang❄1쎯xin❁10쎯	-8.62713
qi❄34쎯che❁8쎯	-8.6275
xiao❁61쎯	-8.6285
hu	-8.62876
jing❁3쎯	-8.62901
yi❂31쎯	-8.62923
bu❄38쎯men❂19쎯	-8.62965
+	-8.63141
29쎯	-8.63178
hang❂13쎯	-8.63233
yong❄3쎯hu❄26쎯	-8.63325
mo❂12쎯shi❄33쎯	-8.63466
yi❁11쎯	-8.63541
shou❃3쎯	-8.63597
fu❄23쎯	-8.63778
qi❂117쎯	-8.63846
jia❁8쎯	-8.64076
wo❃3쎯guo❂11쎯	-8.64304
mu❃6쎯	-8.64355
he❂37쎯bei❃2쎯	-8.64368
zao❃2쎯	-8.64474
쎂쎀쎁쎀nian❂6쎯	-8.64538
shang❄2쎯	-8.64593
zhu❄20쎯	-8.64766
de❅0쎯fang❁4쎯	-8.64774
tong❃9쎯	-8.64954
jin❃24쎯	-8.65028
jin❃16쎯	-8.65074
you❃11쎯guan❁4쎯	-8.65081
gan❄3쎯ren❂1쎯	-8.65164
zhi❁13쎯yi❁10쎯	-8.65255
yi❂20쎯	-8.65385
zhu❂15쎯	-8.65402
ying❄9쎯	-8.65453
cai❃11쎯	-8.65455
쎂쎀쎀쎆nian❂6쎯	-8.65522
man❃4쎯	-8.65548
》deng❃2쎯	-8.65701
jiang❁4쎯	-8.65775
jing❄11쎯	-8.65867
geng❁17쎯de❅0쎯	-8.65958
fei❄37쎯	-8.66153
chong❂14쎯	-8.66236
di❄45쎯san❁1쎯	-8.66265
,you❂29쎯	-8.66364
-쎁	-8.66377
zhu❁29쎯	-8.66489
yu❄105쎯	-8.66587
lan❂41쎯	-8.66637
zui❄4쎯da❄0쎯	-8.66698
huang❂34쎯	-8.6672
mai❄16쎯	-8.66731
chao❃7쎯	-8.66767
ping❂36쎯	-8.66854
shi❂20쎯ji❁47쎯	-8.67035
ou❁8쎯	-8.67125
si❄15쎯wan❁9쎯	-8.6716
a❂	-8.67187
쎂쎂	-8.67356
an❁15쎯zhou❁9쎯	-8.67381
gu❄7쎯	-8.67423
yu❃44쎯yan❂61쎯	-8.67448
jiao	-8.67476
chuang❄1쎯zuo❄5쎯	-8.67609
ji❄116쎯hua❂11쎯	-8.67641
hu❂46쎯	-8.67736
lun❂28쎯	-8.67783
쎃쎂	-8.67855
zi❃18쎯	-8.67997
xing❄13쎯neng❂2쎯	-8.68129
er❃12쎯	-8.68274
yu❄93쎯	-8.68378
hui❄60쎯	-8.68478
shi❂13쎯xian❄37쎯	-8.68517
dang❃2쎯wei❁12쎯	-8.6852
cao❁3쎯zuo❄5쎯	-8.68628
bu❂0쎯duan❄4쎯	-8.68649
zhang❄	-8.68706
쎆yue❄29쎯	-8.68913
chuan❁5쎯	-8.69026
jie❄13쎯shao❄10쎯	-8.69126
zhu❄31쎯ce❄11쎯	-8.69263
jia❄5쎯	-8.69276
ruo❄8쎯	-8.69364
duan❄4쎯	-8.69436
te❄5쎯se❄29쎯	-8.69457
lin❂7쎯chuang❂6쎯	-8.69513
yi❂79쎯	-8.69641
33쎯	-8.69754
쎂쎀쎀쎈nian❂6쎯	-8.69779
zhi❁22쎯	-8.69796
fu❄48쎯	-8.69882
jiu❃1쎯	-8.69943
shi❄22쎯	-8.69991
.gai❁13쎯	-8.70089
dan❁15쎯ren❂4쎯	-8.70253
mo❂16쎯	-8.70261
zhu❃4쎯cha❁3쎯	-8.70309
dong❄13쎯wu❄36쎯	-8.70446
쎂쎀쎀쎇nian❂6쎯	-8.70508
,bu❂0쎯	-8.70582
lian❂53쎯ge❃0쎯	-8.7063
chang❄2쎯	-8.70685
쎂쎆	-8.70833
can❁3쎯shu❄26쎯	-8.70837
jing❃23쎯	-8.70873
쎂쎀쎀쎉nian❂6쎯	-8.70875
yao❁17쎯qiu❂27쎯	-8.71114
wu❁3쎯	-8.7125
jing❁24쎯shen❂2쎯	-8.71308
jie❄13쎯	-8.71409
dan❄10쎯	-8.71498
dong❄24쎯	-8.71512
mo❂26쎯	-8.7162
......	-8.71662
fan❄22쎯wei❂11쎯	-8.7168
yu❄31쎯	-8.71828
deng❁10쎯	-8.71904
wei❄14쎯“	-8.71904
)、	-8.7205
xu❃19쎯	-8.72059
qing❁20쎯nian❂6쎯	-8.72136
ye❄26쎯	-8.72228
she❄29쎯shi❁13쎯	-8.72251
ling❂98쎯	-8.7229
쎃yue❄29쎯	-8.72319
ruan❃17쎯	-8.72429
xian❁13쎯	-8.72443
jiu❄30쎯	-8.72515
liang❄2쎯	-8.7263
32쎯	-8.72788
bi	-8.72831
쎂쎁	-8.72856
31쎯	-8.7289
sh	-8.72963
yu❃47쎯	-8.73023
zhao❁3쎯	-8.73169
jian❄17쎯kang❁6쎯	-8.73184
wei❃25쎯	-8.73194
쎃쎅	-8.73314
tong❄3쎯	-8.73334
>	-8.73348
yan❂44쎯	-8.73496
yi❁38쎯	-8.73515
sun❁0쎯	-8.73532
bei❄52쎯	-8.73569
shu❁8쎯hua❄18쎯	-8.7361
wan❂6쎯cheng❂29쎯	-8.73635
yang❂10쎯	-8.73638
chu❁3쎯xian❄37쎯	-8.73708
he❂22쎯	-8.73716
ju	-8.7374
lao❂11쎯dong❄13쎯	-8.73877
yan❁33쎯	-8.74032
ju❁18쎯	-8.74117
shi❂39쎯pin❃0쎯	-8.74133
zhong❁19쎯	-8.74257
rui❄12쎯	-8.74364
zhu❃4쎯xi❂12쎯	-8.74397
xian❄61쎯	-8.74411
cha❁8쎯	-8.74596
yi❃15쎯jing❁27쎯	-8.7461
쎂쎃	-8.74611
wei❄52쎯	-8.74717
de❅2쎯yi❁10쎯	-8.74742
jie❄14쎯	-8.748
们	-8.74864
chu❁3쎯sheng❁16쎯,	-8.7495
huo❄56쎯	-8.74998
xiang❁11쎯	-8.75049
jin❄32쎯	-8.75271
quan❂6쎯cun❁1쎯	-8.75336
jia❁5쎯	-8.75519
duo❃23쎯	-8.75553
suo❃11쎯you❃11쎯	-8.75582
fa❃2쎯lv❄9쎯	-8.75763
xian❄37쎯zai❄5쎯	-8.75869
mo❂12쎯	-8.75915
cha❂17쎯	-8.76107
tie❃5쎯lu❄70쎯	-8.76222
li❄51쎯	-8.76295
쎃.	-8.76303
gu❃42쎯	-8.76359
fa❁1쎯xian❄37쎯	-8.76391
ju❄65쎯chi❁23쎯	-8.76439
bi❄61쎯	-8.7646
er❄5쎯shi❂10쎯	-8.76773
niao❃17쎯	-8.76837
,shi❃6쎯	-8.76862
gong❁17쎯zuo❄5쎯.	-8.76872
xiong❂2쎯	-8.76973
gu❃28쎯	-8.77009
lu❄83쎯	-8.77161
7	-8.77166
ben❄4쎯yu❄93쎯	-8.77294
m	-8.77352
hui❄27쎯yi❄214쎯	-8.77442
gai❄17쎯	-8.77543
xue❃5쎯	-8.77596
e❂39쎯	-8.77673
kuan❃7쎯	-8.77683
쎂쎀쎀쎅nian❂6쎯	-8.77694
shi❁16쎯	-8.77736
yi❁10쎯ding❄2쎯	-8.77962
nong❂5쎯min❂22쎯	-8.78193
deng❁7쎯	-8.78367
he❂35쎯xin❁7쎯	-8.78397
wa❃5쎯	-8.78428
ju❃4쎯	-8.78452
yan❂37쎯	-8.78465
zhou❁11쎯	-8.78509
jiang❁10쎯xi❁143쎯	-8.78668
ku❃1쎯	-8.78809
27쎯	-8.78851
쎄쎅	-8.79098
34쎯	-8.79173
zhi❄88쎯jin❁10쎯	-8.79354
quan❂6쎯mian❄2쎯	-8.79356
chuang❁13쎯	-8.79357
jing❄17쎯	-8.79493
,ye❃1쎯	-8.79509
,ta❁3쎯	-8.79563
wen❂5쎯jian❄15쎯	-8.79578
nan❂6쎯jing❁3쎯	-8.79599
쎀쎁	-8.79628
gou❁12쎯	-8.797
hui❁23쎯	-8.79737
wan❃17쎯	-8.79774
liang❃5쎯gan❄3쎯	-8.79779
fang❄0쎯ru❄2쎯	-8.79809
yuan❂44쎯	-8.7986
ji❁34쎯de❅0쎯	-8.79867
ping❂17쎯jun❁6쎯	-8.79901
shu	-8.7997
yi❁10쎯xie❁3쎯	-8.80084
qiu❁16쎯	-8.80099
jing❁27쎯guo❄2쎯	-8.80103
mu❃2쎯,	-8.80175
pi❁11쎯	-8.80427
xia❂39쎯	-8.80447
ren❂1쎯de❅2쎯	-8.80697
wei❄14쎯le❅0쎯	-8.80848
yan❂50쎯	-8.8108
ce❄33쎯	-8.81225
jun❁4쎯	-8.81261
chong❂17쎯qing❄4쎯	-8.81445
yin❁11쎯wei❄14쎯	-8.81481
luo❄17쎯	-8.81506
ben❃5쎯ke❁16쎯	-8.81561
yuan❂15쎯,	-8.81791
jian❁52쎯	-8.81815
zhe❄14쎯chong❂11쎯	-8.81827
an❁15쎯xi❁143쎯	-8.81861
si❁22쎯xiang❃6쎯	-8.81903
ben❄4쎯xi❄46쎯	-8.81907
쎅yue❄29쎯	-8.81938
chi❁8쎯	-8.82
suan❄3쎯	-8.82005
nian❂6쎯dai❄9쎯	-8.82055
wei❄15쎯zhi❄85쎯	-8.82099
fang❁4쎯xiang❄6쎯	-8.82202
xi❂9쎯	-8.8232
zhu❁7쎯	-8.82324
xiu❄8쎯	-8.82606
zheng❁22쎯shi❄33쎯	-8.8286
chun❂18쎯	-8.8289
ju❂23쎯zhang❃6쎯	-8.82928
zi❄16쎯zhi❄61쎯	-8.8314
bing❁4쎯	-8.83153
yi❁13쎯liao❂24쎯	-8.83237
shou❄8쎯	-8.83482
zhu❁16쎯	-8.83485
sai❁5쎯	-8.83487
shui❄11쎯	-8.83577
pei❂3쎯yang❃6쎯	-8.83677
ha❁0쎯	-8.83699
쎁쎁yue❄29쎯	-8.83757
,ke❃4쎯	-8.83832
run❄4쎯	-8.83836
tu❂14쎯shu❁8쎯	-8.83839
tou❂5쎯	-8.83939
쎂쎀쎀쎄nian❂6쎯	-8.84079
ji❂52쎯	-8.8436
dan❁5쎯	-8.84422
shan❁11쎯xi❁143쎯	-8.84489
cheng❂29쎯guo❃3쎯	-8.84496
xian❃24쎯shi❄60쎯	-8.84516
쎁yue❄29쎯	-8.84694
ya	-8.84847
she❂5쎯	-8.84892
yan❂50쎯fa❁1쎯	-8.84982
jie❄14쎯zhi❂7쎯	-8.85092
rong❂33쎯	-8.85129
shui❃0쎯ping❂17쎯	-8.85273
shi❂20쎯dai❄9쎯	-8.85312
chong❁9쎯	-8.85345
jiao❁8쎯liu❂20쎯	-8.85365
zhan❄10쎯zheng❁7쎯	-8.85387
tong❂48쎯	-8.85574
ren❄30쎯	-8.85585
》shi❄45쎯	-8.85674
de❅0쎯chu❄17쎯	-8.85683
ma❃8쎯	-8.8571
fu❄39쎯	-8.85913
xi❃1쎯	-8.85919
lve❄11쎯	-8.85993
han❄33쎯zu❂9쎯,	-8.86147
suo❃18쎯	-8.86149
du❂25쎯li❄141쎯	-8.86368
yue❁0쎯	-8.86452
》,	-8.86484
쎄yue❄29쎯	-8.86623
zhang❃6쎯,	-8.86684
shi❂13쎯shi❁13쎯	-8.86806
nin❂5쎯	-8.86813
shi❄60쎯	-8.86949
gai❃2쎯ge❂54쎯	-8.87113
shen❁18쎯zhen❄13쎯	-8.87211
jiao❃53쎯	-8.87336
qian❁54쎯	-8.87379
kong❄1쎯	-8.87386
hu❃8쎯	-8.87392
zhu❃4쎯chi❂20쎯	-8.87461
dao❁1쎯	-8.87492
dong❁3쎯bei❃2쎯	-8.87571
xi❄50쎯bao❁9쎯	-8.87571
gong❁23쎯	-8.87575
lai❂25쎯	-8.87591
zheng❄12쎯ce❄26쎯	-8.87693
35쎯	-8.87791
shang❃1쎯de❅2쎯	-8.87855
bin❁12쎯	-8.87858
xi❃11쎯	-8.87886
jing❃3쎯	-8.88008
ji❂75쎯bing❄12쎯	-8.88161
fen❁4쎯bie❂4쎯	-8.88346
hong❂29쎯	-8.88413
wan❁9쎯	-8.8847
li❃15쎯nian❄4쎯	-8.88593
feng❁58쎯ge❂29쎯	-8.88632
xi❁143쎯nan❂6쎯	-8.88662
chuan❂13쎯	-8.88696
쎂쎀쎀쎃nian❂6쎯	-8.88752
qu❁15쎯yu❄31쎯	-8.8879
zhu❄26쎯	-8.88909
yin❂44쎯hang❂16쎯	-8.88977
bo❂37쎯	-8.88998
jiang❄25쎯	-8.89059
zhu❄63쎯	-8.89065
fei❁15쎯chang❂15쎯	-8.8908
》(	-8.89144
nai❄5쎯	-8.89169
xu❂1쎯	-8.89234
쎁쎀쎀쎀	-8.89241
37쎯	-8.89324
dong❁5쎯	-8.89341
shan❃12쎯xi❁143쎯	-8.89374
tian❁5쎯jin❁18쎯	-8.89448
hui❄50쎯	-8.89647
shu❄47쎯	-8.89681
=	-8.89691
쎄쎀쎀	-8.89837
gua❁16쎯	-8.89838
kao❄5쎯	-8.89973
,zhu❃4쎯yao❁17쎯	-8.90014
chao❂8쎯	-8.90032
po❄17쎯	-8.90085
tui❁1쎯	-8.90139
da❂30쎯dao❄3쎯	-8.90167
쎂쎀쎁쎁nian❂6쎯	-8.90212
쎃쎀쎀	-8.90235
ying❁44쎯yu❃44쎯	-8.90304
ling❂46쎯	-8.90412
su❂0쎯	-8.9045
duo❁5쎯ci❄16쎯	-8.90517
can❁3쎯yu❃14쎯	-8.90744
yi❁10쎯zhi❂25쎯	-8.90748
gong❁10쎯wan❂5쎯	-8.90754
zuo❃3쎯you❄14쎯	-8.90957
ren❂1쎯们	-8.90983
an❁15쎯fan❄15쎯	-8.91036
meng❄8쎯	-8.91221
dao❃5쎯shi❁11쎯	-8.91229
쎂쎀쎀쎂nian❂6쎯	-8.91261
zhe❄14쎯xie❁3쎯	-8.91465
ji❄59쎯	-8.915
bi❄46쎯	-8.91516
nuo❄16쎯	-8.91537
en❁2쎯	-8.91567
ting❁5쎯	-8.91593
qing❂6쎯kuang❄1쎯	-8.91833
ke❂0쎯	-8.92127
jian❄29쎯yu❂35쎯	-8.92201
tai❄6쎯	-8.92318
xing❂11쎯shi❄33쎯	-8.92456
zuo❃3쎯	-8.92456
de❂7쎯dao❄3쎯	-8.92456
cai❂9쎯	-8.92612
xie❂14쎯	-8.92682
w	-8.92739
li❄144쎯	-8.92955
duo❁5쎯chong❂11쎯	-8.92974
ying❁44쎯guo❂11쎯	-8.92984
fen❁4쎯wei❄14쎯	-8.93089
ke❄29쎯cheng❂52쎯	-8.93119
yi❄214쎯	-8.93141
-쎁쎉	-8.93259
you❂29쎯yu❂35쎯	-8.93299
쎂쎈	-8.93435
dou❃4쎯	-8.93452
pin❃0쎯chong❂11쎯	-8.93492
ye❃1쎯shi❄45쎯	-8.93511
mo❄22쎯	-8.93643
cuo❄18쎯	-8.93705
jie❂48쎯	-8.93727
xuan❁9쎯	-8.93728
xin❁10쎯wen❂23쎯	-8.93908
,ta❁6쎯	-8.93917
yu❄113쎯	-8.94086
x	-8.94101
gui❁35쎯mo❂12쎯	-8.94103
yi❁13쎯shi❁11쎯	-8.94138
xuan❃8쎯ze❂19쎯	-8.94167
jian❁22쎯	-8.94267
duo❃23쎯zhi❄47쎯	-8.9429
zhang❃6쎯ji❁47쎯	-8.94294
gao❁20쎯su❄70쎯	-8.94383
fu❄32쎯	-8.94536
han❂20쎯	-8.94567
cun❁1쎯min❂22쎯	-8.94607
zuo❄5쎯jia❁13쎯	-8.94659
you❄21쎯	-8.94675
,ji❂35쎯	-8.94686
lun❂5쎯	-8.94725
jiu❄29쎯	-8.94759
dong❁3쎯nan❂6쎯	-8.94916
쎃쎆	-8.94963
xu❄36쎯	-8.95032
bei❁8쎯	-8.9506
kan❁3쎯	-8.95097
tui❄5쎯	-8.9516
lie❄45쎯	-8.95234
pi❁11쎯zhun❃0쎯	-8.95252
mou❃2쎯	-8.95337
ji❂81쎯	-8.95348
te❄5쎯bie❂4쎯	-8.95438
chuang❂6쎯	-8.95459
de❅2쎯“	-8.95501
zhong❁29쎯	-8.9554
bing❄12쎯du❂17쎯	-8.95579
bao❂9쎯	-8.95624
dan❄33쎯	-8.95653
xiao❄14쎯guo❃3쎯	-8.9602
zhu❃14쎯	-8.96092
tao❂5쎯	-8.96112
juan❁5쎯	-8.96139
xi❁143쎯bei❃2쎯	-8.96157
shi❃9쎯	-8.96196
fa❁1쎯hang❂16쎯	-8.96298
xia❄3쎯,	-8.96324
ge❄3쎯lei❄16쎯	-8.96331
xiao❃2쎯shi❂20쎯	-8.96476
zhi❄56쎯	-8.96495
tiao❂9쎯jian❄15쎯	-8.96568
mu❄22쎯biao❁14쎯	-8.96597
ying❁44쎯wen❂5쎯	-8.96629
pu❃3쎯tong❁5쎯	-8.96672
zhuang❄0쎯	-8.96678
jin❄61쎯ru❄2쎯	-8.96747
dian❄23쎯yuan❂34쎯	-8.96863
e❄47쎯	-8.96966
di	-8.97027
fen❁4쎯zi❃7쎯	-8.97068
zhao❄31쎯	-8.97105
ming❂7쎯.	-8.97146
pao❁5쎯	-8.97167
nong❂10쎯	-8.97209
zhi❂16쎯	-8.97261
jing❄44쎯	-8.9742
qing❃9쎯	-8.97534
li❄62쎯ren❂4쎯	-8.97552
wu❃37쎯	-8.97631
fen❄2쎯	-8.97663
cha❂12쎯	-8.97783
tu❁14쎯	-8.97846
ling❂99쎯	-8.9801
47쎯	-8.9802
wen❂23쎯	-8.98114
zhang❃6쎯、	-8.98206
shi❁13쎯	-8.98268
sheng❁16쎯tai❄6쎯	-8.9833
ji❄120쎯	-8.98365
huan❄21쎯	-8.98399
쎉쎈	-8.98437
쎉쎉	-8.98456
yang❂27쎯	-8.98463
qie❃쎯	-8.98623
ke❄29쎯	-8.98745
biao❃5쎯xian❄37쎯	-8.98769
fang❁4쎯mi❃19쎯	-8.988
nong❂5쎯cun❁1쎯	-8.98843
bing❁5쎯	-8.98941
sun❃4쎯	-8.98943
xian❃24쎯	-8.98973
mei❂12쎯ben❄4쎯	-8.98992
wu❃28쎯han❄33쎯	-8.99033
fang❁4쎯bian❄16쎯	-8.9905
di❂17쎯	-8.99089
si❄10쎯	-8.99162
jin❁33쎯shu❃5쎯	-8.99167
zhi❂16쎯hang❂16쎯	-8.99202
mu❄9쎯	-8.99256
bu❂0쎯neng❂2쎯	-8.99295
f	-8.99317
dai❄45쎯shu❃5쎯	-8.99345
diao❁23쎯	-8.99392
an❁15쎯da❄0쎯	-8.99567
,dui❄14쎯	-8.99597
쎂쎀쎀쎀nian❂6쎯	-8.99651
fei❂1쎯	-8.99757
qin❂29쎯	-8.99835
xi❁70쎯	-8.9987
sa❄13쎯	-8.99877
zhi❄89쎯li❄59쎯	-8.99888
ma	-8.99899
36쎯	-9.00049
ji❄61쎯	-9.00216
lou❄9쎯	-9.00254
,wei❄15쎯yu❂35쎯	-9.00325
xing❄9쎯	-9.00383
quan❂6쎯qiu❂36쎯	-9.00391
쎂쎀쎀쎀	-9.00397
nao❃16쎯	-9.00437
lei❄16쎯xing❂9쎯:	-9.00604
miao❂5쎯shu❄47쎯	-9.00624
gang❃4쎯	-9.00633
yi❁10쎯qi❃34쎯	-9.00783
jie❃6쎯jue❂33쎯	-9.00841
fu❄41쎯	-9.0089
long❁쎯	-9.00907
er❂16쎯cheng❂29쎯	-9.01027
lv❄20쎯se❄29쎯	-9.01123
ge❂53쎯	-9.01135
zi❁11쎯xun❂42쎯	-9.01136
~	-9.01159
que❄26쎯	-9.01288
tan❄5쎯	-9.01389
xuan❁9쎯chuan❂4쎯	-9.01403
ta❁3쎯de❅2쎯	-9.01416
bi❃20쎯jiao❄35쎯	-9.01455
ru❃0쎯	-9.01568
yuan❄10쎯	-9.01671
.qi❂29쎯	-9.01675
jin❁33쎯rong❂50쎯	-9.01686
wu❄36쎯li❃15쎯	-9.0171
쎂쎀쎀쎁nian❂6쎯	-9.01761
zhi❁27쎯	-9.01763
le❄5쎯	-9.01769
chi❂20쎯	-9.02064
miao❄1쎯	-9.02086
ya❂12쎯	-9.02213
gan❁25쎯	-9.02264
wei❂11쎯	-9.02309
gao❁20쎯deng❃2쎯	-9.02396
tou❄4쎯	-9.02497
zhi❁13쎯yi❁10쎯,	-9.02541
.ta❁3쎯	-9.02629
yin❃31쎯	-9.02743
po❁2쎯	-9.02758
xu❁29쎯	-9.02836
xuan❂11쎯	-9.02841
jia❁13쎯ting❂8쎯	-9.02921
zong❄12쎯	-9.02977
bai❂2쎯se❄29쎯	-9.03069
gong❁10쎯li❃26쎯.	-9.03086
yi❄215쎯	-9.03133
cu	-9.03191
ji❁34쎯jin❁33쎯	-9.03212
jing❁14쎯	-9.03232
,shu❃5쎯yu❂35쎯	-9.03257
chi❃33쎯	-9.03452
shan❁11쎯qu❁15쎯	-9.03482
jian❄20쎯	-9.035
ou❃	-9.03633
shi❄89쎯	-9.03707
ting❂5쎯	-9.03709
kuo❄15쎯	-9.0372
zui❄4쎯gao❁20쎯	-9.0376
zhen❁52쎯	-9.0385
fu❄64쎯	-9.03874
lie❄34쎯	-9.03877
he❂52쎯	-9.03878
쎂쎇	-9.03943
gui❄22쎯	-9.03974
gan❁16쎯bu❄38쎯	-9.04166
cheng❁10쎯	-9.04247
kuo❄15쎯yong❄3쎯	-9.04302
ge❁8쎯	-9.04316
jian❃18쎯	-9.0434
zhang❃6쎯.	-9.04383
gan❁31쎯	-9.04391
쎂yue❄29쎯	-9.04465
mo❄57쎯	-9.0448
쎄쎈	-9.04482
tu❃1쎯de❅0쎯	-9.04496
zu❂11쎯qiu❂36쎯	-9.04662
yi❁10쎯ci❄16쎯	-9.04676
gong❄3쎯tong❂13쎯	-9.04787
yuan❂15쎯.	-9.04812
chen❁13쎯	-9.04842
-쎂	-9.0491
zui❄4쎯da❄0쎯de❅2쎯	-9.04962
.쎈	-9.04982
yi❂61쎯	-9.05005
zuo❄9쎯la❄23쎯	-9.05008
shi❂13쎯jian❄72쎯	-9.0503
gang❁7쎯	-9.05077
zhen❁25쎯	-9.05084
쎄.	-9.0511
you❁5쎯zhi❄104쎯	-9.05221
you❃11쎯xiao❄14쎯	-9.05249
liang❂15쎯hao❃0쎯	-9.05293
chang❂20쎯	-9.05389
gou❃2쎯	-9.05408
tang❂16쎯	-9.0547
xi❄33쎯	-9.05579
ji❁54쎯	-9.05592
que❁0쎯	-9.05675
『	-9.05687
ci❁2쎯	-9.05805
shi❂13쎯ji❄121쎯	-9.05879
xue❂6쎯ke❁16쎯	-9.05916
2쎯shi❁11쎯	-9.06014
ti	-9.0608
qi❂46쎯	-9.06152
ying❂45쎯xiao❁61쎯	-9.06239
mo❂9쎯	-9.06364
wu❁12쎯	-9.06442
yan❃39쎯yuan❂15쎯	-9.06576
jie❁23쎯	-9.06648
.zhu❃4쎯yao❁17쎯	-9.06656
9	-9.06726
jin❃31쎯	-9.0673
bi❄100쎯shu❁8쎯	-9.06746
yan	-9.06768
jian❁25쎯zhan❃11쎯	-9.07023
qi❃13쎯	-9.07029
meng❁3쎯gu❃14쎯	-9.07035
.쎄	-9.07052
jiao❁20쎯cai❂3쎯	-9.07128
ji❂67쎯	-9.07168
xu❁37쎯	-9.07232
bei❁12쎯	-9.07372
zhi❁13쎯hou❄7쎯	-9.07395
you❄13쎯cheng❁28쎯	-9.07464
xin❁7쎯li❃15쎯	-9.07553
,ru❂9쎯	-9.07634
.쎆	-9.07646
bing❁5쎯mu❄10쎯	-9.07691
chi❂23쎯	-9.0776
you❄14쎯	-9.07773
cu❄9쎯jin❄61쎯	-9.07793
ci❂22쎯	-9.07885
jian❁52쎯du❁8쎯	-9.07898
kong❁9쎯jian❁85쎯	-9.07986
jing❁27쎯li❃15쎯	-9.08015
mian❄2쎯ji❁64쎯쎁	-9.08063
zuo❄9쎯	-9.08064
ce❄11쎯	-9.08165
xu❃19쎯duo❁5쎯	-9.08254
zhi❂32쎯gong❁17쎯	-9.083
tui❄8쎯	-9.0835
cheng❂52쎯xu❄36쎯	-9.0839
gong❄3쎯chan❃12쎯	-9.08518
ji❂35쎯ke❃4쎯	-9.08716
si❁33쎯	-9.08849
쎁쎉쎉쎈nian❂6쎯	-9.08915
ai❃	-9.09147
hao❂14쎯mi❃19쎯	-9.09313
bian❄16쎯li❄58쎯	-9.09356
쎃쎃	-9.09369
che❃7쎯cun❄2쎯	-9.09465
shou❄5쎯	-9.09491
mi	-9.09566
feng❄2쎯	-9.09605
guan❁4쎯yu❂35쎯	-9.09704
de❅0쎯li❃15쎯	-9.0978
te❄5쎯shu❁26쎯	-9.09792
쎆쎀쎀	-9.09903
zuo❄5쎯wu❄36쎯	-9.09904
xiang❃3쎯	-9.09987
chen❂26쎯	-9.10014
meng❁3쎯	-9.10031
shi❄71쎯pin❂15쎯	-9.10046
gu❃63쎯	-9.10088
nai❃0쎯	-9.10111
chu	-9.10112
shou❄4쎯dao❄3쎯	-9.10205
xiao❁29쎯fei❄37쎯	-9.10229
di❂41쎯	-9.10293
de❂9쎯guo❂11쎯	-9.10385
fu❂94쎯you❃11쎯	-9.1042
yu❃41쎯	-9.10509
.gong❁10쎯si❁16쎯	-9.10531
쎂쎀쎁쎂nian❂6쎯	-9.10547
ke❃4쎯neng❂2쎯	-9.10554
zhu❁8쎯	-9.10629
cun❂1쎯zai❄5쎯	-9.1075
,you❄13쎯	-9.10772
jian❁17쎯chi❂20쎯	-9.10852
guan❁5쎯	-9.10923
han❄33쎯zu❂9쎯	-9.1093
qian❃5쎯	-9.10942
ji❄72쎯	-9.10944
jian❁17쎯	-9.11069
feng❄3쎯	-9.11081
gu❃14쎯dai❄9쎯	-9.11113
bian❄19쎯hua❁1쎯	-9.11209
liu❃3쎯	-9.11306
zi❁45쎯liao❄8쎯	-9.11442
fen❁4쎯zhong❁29쎯	-9.11464
.ta❁6쎯	-9.11479
bin❁5쎯	-9.11605
chi❄49쎯	-9.11685
du❄10쎯	-9.11739
wen❂5쎯ming❂8쎯	-9.11758
lian❂58쎯	-9.11768
wen❁6쎯du❄8쎯	-9.11782
an❄15쎯	-9.11907
쎇쎅	-9.11998
42쎯	-9.12072
zhi❂25쎯jie❁13쎯	-9.12093
qiang❂2쎯	-9.12142
fa❃2쎯guo❂11쎯	-9.12176
rou❂6쎯	-9.122
pin❃0쎯zhi❄104쎯	-9.12249
ze❂44쎯ren❂4쎯	-9.12311
°	-9.12345
,gu❄12쎯	-9.12365
cu❁0쎯	-9.12398
suo❁15쎯	-9.12451
dao❃2쎯	-9.12473
jian❃36쎯	-9.12496
xie❄84쎯	-9.12607
han❂37쎯	-9.12641
ai❁5쎯	-9.12656
lv❃14쎯	-9.12664
ban❁9쎯	-9.12775
...	-9.1282
qian❂22쎯	-9.12972
zheng❁7쎯	-9.1299
yu❂46쎯le❄3쎯	-9.13004
gou❁10쎯	-9.13151
bao❄15쎯	-9.13174
jie❁30쎯dao❄24쎯	-9.13266
shang❃6쎯	-9.13266
wen❄6쎯	-9.13271
❄8	-9.13303
》.	-9.13381
zhen❄16쎯	-9.1339
ming❂7쎯:	-9.13403
er❂7쎯tong❂36쎯	-9.13474
da❂14쎯zao❄16쎯	-9.1352
yuan❂12쎯liao❄8쎯	-9.13562
ren❄30쎯wei❄14쎯	-9.13644
p	-9.13653
ji❂37쎯qi❂29쎯	-9.13657
hui❄79쎯	-9.13711
zhong❁4쎯yi❁13쎯	-9.13809
shang❃1쎯,	-9.13841
pu❃7쎯	-9.13888
mao❄39쎯yi❄119쎯	-9.13955
,cong❂6쎯	-9.14093
shi❂10쎯fen❁4쎯	-9.14094
ji❁64쎯ji❂57쎯	-9.14094
ji❁47쎯jian❁85쎯	-9.14167
hua❁1쎯gong❁17쎯	-9.14264
can❂17쎯	-9.14404
sha❁14쎯	-9.14435
yuan❄18쎯zhang❃6쎯	-9.14482
zhi❁31쎯ming❂7쎯	-9.14482
su❄33쎯	-9.14489
zhi❄30쎯du❄8쎯	-9.14572
bian❁13쎯ji❂107쎯	-9.14622
jiao❁24쎯	-9.14633
neng❂2쎯gou❄10쎯	-9.14835
liao❂37쎯ning❂10쎯	-9.14877
ru❂9쎯guo❃3쎯	-9.14911
chang❂15쎯wei❁12쎯	-9.14912
dou❁12쎯shi❄45쎯	-9.14958
dou❃4쎯zheng❁7쎯	-9.1496
dian❄23쎯nao❃16쎯	-9.15003
ye❄65쎯	-9.15013
min❃13쎯	-9.15053
chuang❄1쎯ban❄4쎯	-9.15057
she❄23쎯	-9.15233
lang❂28쎯	-9.15307
da❄0쎯liang❂19쎯	-9.15365
pin❂15쎯	-9.15504
mo❂14쎯	-9.15521
rong❂50쎯	-9.15556
qu❃1쎯de❂7쎯	-9.15653
zheng❄18쎯	-9.157
zheng❁37쎯	-9.15744
,jiang❁5쎯	-9.15754
hui❄27쎯ji❄116쎯	-9.15792
zhe❄14쎯shi❄45쎯	-9.15828
hai❃1쎯ba❂11쎯	-9.15857
qi❂29쎯ta❁6쎯	-9.15925
ba❄11쎯	-9.16315
ji❁48쎯guan❁4쎯	-9.16422
wei❄62쎯	-9.16444
hun❁4쎯	-9.16541
쎈쎀쎀	-9.16547
fang❁4쎯mi❃19쎯,	-9.1664
ti❂17쎯chu❁3쎯	-9.16711
zhe❄14쎯li❃26쎯	-9.16749
bang❁5쎯zhu❄20쎯	-9.16817
tao❂20쎯	-9.16822
,ju❄65쎯	-9.16824
zun❁2쎯	-9.16874
dui❁14쎯	-9.16878
zu❃11쎯	-9.16919
bo❁10쎯	-9.17003
cheng❂61쎯	-9.17038
pan❄2쎯	-9.17091
yin❃37쎯	-9.17127
lang❄4쎯	-9.17136
cun❁1쎯dai❄45쎯	-9.17177
,zhong❁4쎯guo❂11쎯	-9.17205
biao❃5쎯mian❄2쎯	-9.1735
hu❄14쎯	-9.17561
mai❄6쎯	-9.17591
fang❁4쎯an❄16쎯	-9.17643
an❁15쎯gao❄3쎯	-9.17652
liao❂24쎯	-9.17707
pu❃13쎯	-9.17733
jing❁30쎯	-9.17739
chang❂15쎯wu❄12쎯	-9.17982
ren❄30쎯zheng❄17쎯	-9.18042
);	-9.18082
yu❄40쎯	-9.18174
쎁gan❄3쎯	-9.18176
cheng❂29쎯dou❁12쎯	-9.18229
huo❄27쎯zhe❃2쎯	-9.18271
gui❁35쎯ding❄2쎯	-9.18301
쎃쎈	-9.18354
miao❂7쎯	-9.18433
zui❄4쎯hou❄7쎯	-9.18437
liang❂19쎯:	-9.18463
쎁쎉쎉쎇nian❂6쎯	-9.18473
shi❂10쎯er❄5쎯	-9.18492
쎁쎉쎉쎉nian❂6쎯	-9.18497
fen❁4쎯lei❄16쎯	-9.18526
zheng❄12쎯cun❁1쎯	-9.18633
tong❁5쎯chang❂15쎯	-9.18679
ji❄95쎯	-9.18732
qiang❁13쎯	-9.18734
mo❄16쎯ping❂17쎯	-9.18785
zi❁45쎯chan❃12쎯	-9.1894
jia❃2쎯	-9.18984
쎂쎉	-9.18989
ni❂15쎯	-9.18996
shu❁44쎯ru❄2쎯	-9.19036
쎂-	-9.19089
lao❂11쎯	-9.19092
lai❂16쎯yuan❂34쎯	-9.19212
ku	-9.19221
qin❂12쎯	-9.19223
wei❄37쎯	-9.19236
duo❁5쎯gan❄3쎯	-9.19251
,bei❄48쎯	-9.19254
shou❄3쎯	-9.1958
쎀쎉	-9.19633
di❂40쎯	-9.19681
gong❁17쎯ju❄16쎯	-9.19694
xi❃11쎯cheng❁10쎯	-9.19714
zhun❃0쎯	-9.1978
shi❄31쎯、	-9.19844
fu❂51쎯	-9.19946
쎁쎉쎉쎆nian❂6쎯	-9.19985
piao❄5쎯	-9.20125
an❁13쎯zhuang❁10쎯	-9.20138
jian❄17쎯	-9.20171
,bei❃2쎯	-9.2019
mi❂38쎯	-9.20208
liang❂5쎯	-9.20277
te❄5쎯zheng❁15쎯	-9.20324
ying❂45쎯yang❃6쎯	-9.20347
쎃쎄	-9.20365
di❄27쎯	-9.20369
jiao❁20쎯shou❄9쎯,	-9.20433
fan❄22쎯	-9.20435
mu❃3쎯	-9.20481
wen❃10쎯ding❄2쎯	-9.20503
gu❃42쎯fen❄2쎯	-9.20567
)shi❄45쎯	-9.20813
man❄12쎯	-9.20817
ou❁8쎯zhou❁11쎯	-9.20899
yuan❂15쎯gong❁17쎯	-9.20937
bei❄48쎯ping❂36쎯	-9.21002
(jin❁10쎯	-9.21083
wan❂6쎯shan❄15쎯	-9.2109
hang❂8쎯zhou❁9쎯	-9.21223
tie❁5쎯	-9.21256
gong❄3쎯you❃11쎯	-9.21326
cha❁11쎯	-9.2145
xuan❂15쎯	-9.21469
ran❃11쎯	-9.21507
zhou❂3쎯	-9.21512
xiong❁12쎯	-9.21557
di❄45쎯si❄17쎯	-9.21596
wu❄36쎯zhi❄104쎯	-9.21632
fan❂35쎯	-9.21678
shu❄26쎯xue❂6쎯	-9.21752
feng❁58쎯jing❃13쎯	-9.21768
he❄23쎯se❄29쎯	-9.21837
쎈쎆	-9.21849
yin❃14쎯qi❃34쎯	-9.2202
bo❂41쎯wu❄36쎯	-9.22127
su❄70쎯du❄8쎯	-9.22203
nian❄4쎯	-9.22214
wan❂6쎯quan❂6쎯	-9.22285
zhe❄14쎯yi❁10쎯	-9.22374
yi❁10쎯suo❃11쎯	-9.22478
zhan❄10쎯lve❄11쎯	-9.22504
bao❃10쎯	-9.22505
쎁쎉쎈쎄nian❂6쎯	-9.22522
xing❂11쎯,	-9.22523
hua❂11쎯	-9.22601
pin❂12쎯	-9.22646
you❄21쎯er❂7쎯	-9.22677
ting❂4쎯	-9.22697
,tong❂13쎯shi❂20쎯	-9.22767
.쎇	-9.22802
shi❂20쎯shang❄2쎯	-9.22822
ren❂1쎯lei❄16쎯	-9.22838
tan❂29쎯	-9.22892
sheng❃9쎯ji❂83쎯	-9.22902
zhi❁43쎯	-9.22907
jie❂67쎯guo❃3쎯	-9.22914
dian❄23쎯chi❂23쎯	-9.22924
쎁쎉쎉쎅nian❂6쎯	-9.22963
fan❂14쎯	-9.22984
,xian❄37쎯	-9.23083
hui❄27쎯fu❄28쎯	-9.23192
zhi❂20쎯	-9.23201
hang❂16쎯wei❄14쎯	-9.23227
.ci❃2쎯	-9.23255
dian❄18쎯	-9.23295
meng❂34쎯	-9.23305
shao❃2쎯nian❂6쎯	-9.23341
yun❃16쎯hang❂16쎯	-9.23359
zhe❃2쎯,	-9.23361
쎀ping❂17쎯fang❁4쎯	-9.23366
mo❄16쎯yuan❂10쎯	-9.23448
.xian❄37쎯ren❂4쎯	-9.23562
jie❄14쎯ge❂29쎯	-9.23649
xi❁1	-9.23654
xian❄37쎯ren❂4쎯	-9.23707
xu❄69쎯	-9.23734
xiao❁	-9.23795
pei❄19쎯tao❄1쎯	-9.23831
shi❄32쎯wei❁12쎯	-9.24021
shen❄17쎯	-9.24257
lv❄9쎯	-9.2431
shi❄45쎯zai❄5쎯	-9.24316
huang❂56쎯se❄29쎯	-9.24337
fu❂36쎯	-9.24359
mu❄22쎯de❅2쎯	-9.24365
sui❄29쎯	-9.24417
쎀쎇	-9.24456
쎀쎈	-9.24545
gong❁10쎯yuan❂10쎯	-9.24561
chu❃9쎯	-9.24649
k	-9.2467
dun❄22쎯	-9.24726
쎆쎄	-9.24736
jiao❁8쎯yi❄119쎯	-9.24822
wei❂7쎯yi❁10쎯	-9.24837
xiu❁9쎯xian❂54쎯	-9.24862
쎆쎅	-9.24888
nu❃1쎯li❄59쎯	-9.24939
gang❁23쎯	-9.24945
쎁쎉쎉쎃nian❂6쎯	-9.25026
yang❂35쎯shi❄32쎯	-9.25057
,yin❁11쎯	-9.25076
쎈쎅	-9.25115
gua❄3쎯	-9.25132
tu❂28쎯	-9.25136
yi❁10쎯ji❂83쎯	-9.25164
chuang❄1쎯zao❄16쎯	-9.25313
chuan❂4쎯bo❁10쎯	-9.25478
dang❁4쎯dai❄9쎯	-9.25485
pin❄1쎯	-9.25549
lian❂69쎯xu❄69쎯	-9.25558
gui❁35쎯	-9.25564
xin❁17쎯pian❁5쎯	-9.25663
,zhe❄14쎯	-9.25697
xiao❃2쎯zu❃7쎯	-9.25739
zhi❃13쎯	-9.25747
reng❂4쎯	-9.25763
shi❂20쎯hou❄5쎯	-9.25885
luan❄0쎯	-9.25929
hong❂21쎯	-9.25967
ding❄15쎯	-9.26091
xi❃1쎯huan❁7쎯	-9.26091
xu❁37쎯qiu❂27쎯	-9.26136
gui❁35쎯fan❄22쎯	-9.26205
hu❄26쎯,	-9.26209
쎉쎇	-9.26217
쎉쎅	-9.26328
ni❃11쎯	-9.26332
tian❂15쎯	-9.26446
쎁쎉쎉쎂nian❂6쎯	-9.26475
ting❂8쎯	-9.26479
lian❄22쎯	-9.26507
da❄0쎯xiao❃2쎯	-9.26518
jia❁	-9.26669
gou❄26쎯	-9.26724
su❄30쎯	-9.26754
zhuan❁1쎯ji❂107쎯	-9.26819
ju❄30쎯	-9.26834
jian❃36쎯ce❄22쎯	-9.26858
쎅.	-9.2686
jue❂104쎯	-9.2686
zui❄4쎯zhong❁19쎯	-9.26886
ren❂4쎯wu❄12쎯	-9.26902
쎃쎇	-9.26991
jing❄	-9.27129
suo❃11쎯zai❄5쎯	-9.27132
2	-9.27138
fan❁14쎯	-9.27145
bu❄38쎯zhang❃6쎯	-9.27282
jian❃52쎯dan❁9쎯	-9.27365
cheng❂29쎯le❅0쎯	-9.27454
she❄29쎯you❃11쎯	-9.27464
°C	-9.27521
쎉쎆	-9.27525
3	-9.27724
tui❁1쎯an❁15쎯	-9.27772
44쎯	-9.28042
zeng❁2쎯jia❁7쎯	-9.28074
shu❁34쎯	-9.28132
du❂34쎯zhe❃2쎯	-9.28138
xiao❄14쎯li❄59쎯	-9.28174
xian❄22쎯wei❁12쎯	-9.28335
xi❁51쎯	-9.28355
gui❄41쎯zhou❁9쎯	-9.28393
xin❁20쎯	-9.28489
dang❁4쎯shi❂20쎯	-9.28602
biao❃5쎯shi❄60쎯	-9.28635
cheng❂15쎯	-9.28702
:쎂	-9.28714
luo❂18쎯	-9.28806
bai❄15쎯	-9.28846
li❄59쎯liang❂19쎯	-9.2888
kuo❄15쎯ge❃0쎯	-9.28978
ruo❄4쎯	-9.29012
you❂26쎯	-9.29129
41쎯	-9.29132
,xi❁143쎯	-9.2916
wan❂12쎯	-9.29203
wei❃14쎯	-9.29239
chi❄45쎯	-9.29332
qiu❁8쎯	-9.29335
wei❁10쎯	-9.29344
gao❁20쎯zhong❁4쎯	-9.29403
min❃24쎯	-9.29435
huan❄18쎯	-9.2947
jie❄15쎯	-9.29509
ge❁16쎯qu❁25쎯	-9.2953
kua❄4쎯	-9.29545
xiang❃5쎯	-9.29562
she❄13쎯ying❃11쎯	-9.29616
,yu❃14쎯	-9.29643
shu❁44쎯chu❁3쎯	-9.297
wan❂6쎯	-9.29722
,zong❃5쎯	-9.29746
tu❂38쎯	-9.29751
,hou❄7쎯	-9.2979
yun❃16쎯shu❁44쎯	-9.29883
shi❁13쎯gong❁17쎯	-9.29925
xiao❄22쎯	-9.29957
,nan❂6쎯	-9.29968
cheng❂17쎯qu❁15쎯	-9.29978
lian❂69쎯jie❁13쎯	-9.30015
hai❂6쎯zi❃7쎯	-9.30092
fan❄28쎯	-9.30162
xing❄13쎯de❅2쎯	-9.30205
yi❁10쎯kuan❃7쎯	-9.30228
she❂3쎯ma❅1쎯	-9.30236
chong❂5쎯	-9.30352
na❄11쎯cun❂1쎯	-9.30412
nian❂6쎯lai❂16쎯	-9.30462
shu❄26쎯zi❄6쎯	-9.30498
쎅쎆	-9.30501
shen❂2쎯jing❁27쎯	-9.30642
qiang❁24쎯	-9.30702
zhong❁10쎯	-9.30702
guo❂11쎯min❂22쎯	-9.30749
jie❃6쎯fang❄0쎯	-9.30803
han❂37쎯guo❂11쎯	-9.30823
xiang❂6쎯	-9.3084
쎁쎉쎈쎅nian❂6쎯	-9.30849
bu❂0쎯ke❃4쎯	-9.30907
ji❂39쎯lin❂19쎯	-9.30991
》zhong❁4쎯	-9.31069
gong❄3쎯han❄20쎯	-9.31071
yi❃9쎯	-9.3118
yi❁13쎯yao❄12쎯	-9.31182
쎁쎉쎉쎄nian❂6쎯	-9.31278
li❄58쎯ya❄7쎯	-9.313
shi❂13쎯yong❄3쎯	-9.31303
dun❁2쎯	-9.31412
yi❂58쎯	-9.31522
nan❂6쎯bu❄38쎯	-9.31584
bi❄1	-9.31662
kao❃10쎯shi❄78쎯	-9.31707
쎅쎅	-9.3172
hen❃2쎯duo❁5쎯	-9.31797
mao❄37쎯	-9.31861
43쎯	-9.31906
min❂22쎯jian❁85쎯	-9.31944
yong❃6쎯	-9.3203
sen❁0쎯	-9.32063
hong❂44쎯se❄29쎯	-9.32183
mei❂25쎯	-9.3219
che❁8쎯zhan❄17쎯	-9.32269
chu❁3쎯kou❃1쎯	-9.32274
xi❁143쎯an❁13쎯	-9.32285
ran❂13쎯	-9.32293
//	-9.32398
,mei❃9쎯	-9.32407
쎁-	-9.3244
❄14쎯le❄3쎯bu❄38쎯	-9.32565
yu❄52쎯	-9.32567
shi❂35쎯	-9.3273
nang❂2쎯	-9.32821
fu❄24쎯	-9.3283
heng❂7쎯	-9.33161
zhai❄4쎯	-9.33186
nan❂14쎯,	-9.33255
yan❂20쎯	-9.33275
qi❃34쎯lai❂16쎯	-9.33644
shou❄9쎯	-9.33668
quan❂6쎯bu❄38쎯	-9.33696
fan❃3쎯ying❁17쎯	-9.33711
쎈쎈	-9.33717
bao❁4쎯zhuang❁10쎯	-9.33767
me❅1쎯	-9.3382
gu❄23쎯	-9.33933
de❅0쎯zhi❄104쎯	-9.33946
zhe❂16쎯xue❂6쎯	-9.34019
chi❂13쎯	-9.34055
wen❂5쎯wu❄36쎯	-9.34176
yi❁10쎯yang❂17쎯	-9.34192
,yong❄3쎯	-9.34215
ren❂1쎯da❄0쎯	-9.34221
shi❂20쎯jian❁85쎯:	-9.34377
jing❄11쎯na❄11쎯	-9.34415
ba❁11쎯	-9.3454
san❁1쎯gan❄3쎯	-9.34549
san❁1쎯nian❂6쎯	-9.34616
bi❃20쎯sai❄4쎯	-9.34649
zheng❄12쎯xie❂14쎯	-9.34716
bao❁6쎯	-9.34735
쎀쎆	-9.34774
bao❃9쎯xian❃46쎯	-9.34828
can❁3쎯kao❃10쎯	-9.34923
shou❃4쎯ji❁48쎯	-9.35077
bi❄157쎯	-9.3508
lu❂23쎯	-9.3515
fu❄65쎯	-9.35164
huan❃7쎯	-9.35166
jun❄36쎯	-9.3519
쎁쎉쎈쎈nian❂6쎯	-9.35225
an❁15쎯chang❃4쎯	-9.35251
xing❂7쎯	-9.35339
,ju❄16쎯you❃11쎯	-9.35386
,zai❄4쎯	-9.35405
yi❃10쎯xia❄3쎯	-9.35438
mie❄10쎯	-9.35465
kuai❄18쎯su❄70쎯	-9.3548
huai❂8쎯	-9.35485
zi❁45쎯jin❁33쎯	-9.35549
chu❃3쎯	-9.35561
쎃쎁	-9.35566
jing❁11쎯	-9.35575
yin	-9.35583
you❁9쎯	-9.35676
jue❂33쎯	-9.35706
shu❃12쎯	-9.35786
sheng❁16쎯ming❄1쎯	-9.35828
yi❁10쎯bu❄38쎯	-9.35897
gao❄3쎯	-9.35901
xue❂6쎯shi❄28쎯	-9.35935
gan❁25쎯su❄58쎯	-9.35938
qu❄11쎯	-9.35943
lang❃9쎯	-9.3598
dan❄43쎯	-9.36041
qiu❂19쎯dui❄33쎯	-9.36052
hong❁	-9.36055
pian❁2쎯	-9.36128
bing❁6쎯qie❃쎯	-9.36207
ceng❂6쎯ren❂4쎯	-9.36283
hang❂13쎯kong❁9쎯	-9.36301
you❃11쎯yi❁10쎯	-9.36411
du❁8쎯	-9.36437
zhe❄14쎯yang❂17쎯	-9.36469
bu❂0쎯fu❄23쎯	-9.36502
쎄쎄	-9.36506
dong❁3쎯xi❁143쎯	-9.3658
ji❁48쎯chang❃4쎯	-9.36591
xi❂12쎯	-9.36606
ju❁14쎯min❂22쎯	-9.36622
jian❄77쎯	-9.36674
an❁18쎯	-9.36737
shi❃9쎯jian❄29쎯	-9.36759
hou❂10쎯	-9.36808
kuo❄15쎯liang❂19쎯	-9.3689
shu❁8쎯ji❄117쎯、	-9.36983
zong❁10쎯zhi❃20쎯	-9.37099
쎅-	-9.37116
zha❂8쎯	-9.3714
쎄쎂	-9.37362
ou❃3쎯	-9.37401
ge❂54쎯	-9.37505
nai❃2쎯	-9.37551
gong❄9쎯xian❄35쎯	-9.37604
fei❄18쎯	-9.37708
wai❄0쎯ke❁16쎯	-9.37735
gen❁1쎯	-9.37808
yi❄68쎯yuan❂10쎯	-9.38082
dan❄43쎯bai❂2쎯	-9.38136
shou❁1쎯cang❂5쎯	-9.38158
an❁15쎯bo❁10쎯	-9.38193
yi❃10쎯lai❂16쎯	-9.38257
dui❄14쎯yu❂35쎯	-9.38259
gong❁17쎯shang❁4쎯	-9.38262
zhu❃4쎯ren❂4쎯、	-9.3828
》《	-9.38361
쎁쎉쎉쎀nian❂6쎯	-9.38449
you❁5쎯shi❄22쎯	-9.38456
sang❁2쎯	-9.38483
di❄45쎯shi❂10쎯	-9.38615
,ceng❂6쎯	-9.3863
jiao❁21쎯	-9.38698
bei❄21쎯	-9.38756
tong❂36쎯	-9.3879
쎁쎉쎈쎆nian❂6쎯	-9.38846
hu❁17쎯	-9.38874
쎀쎅	-9.38906
bang❁13쎯	-9.38972
jin❁18쎯	-9.38975
.zhe❄14쎯	-9.38989
dai❄9쎯li❃15쎯	-9.39104
she❄29쎯li❄141쎯	-9.39112
zui❄4쎯jia❁5쎯	-9.39119
heng❂14쎯	-9.39167
lai❂16쎯zi❄16쎯	-9.39177
tian❁5쎯ran❂12쎯	-9.39187
fu❂22쎯	-9.39229
bei❃2쎯bu❄38쎯	-9.39341
쎆쎈	-9.39355
zhi❁16쎯you❃11쎯	-9.39396
jue❂33쎯ding❄2쎯	-9.39431
huan❂20쎯bao❃9쎯	-9.39495
xian❃46쎯	-9.39499
shi❄78쎯yan❄75쎯	-9.39544
zhuang❄5쎯tai❄6쎯	-9.39591
tu❁14쎯chu❁3쎯	-9.39759
zai❁4쎯	-9.39764
da❄0쎯lu❄83쎯	-9.39777
zhan❄10쎯dou❃4쎯	-9.39785
쎀-	-9.39867
guan❄33쎯	-9.39904
ke❄29쎯ti❂36쎯	-9.39912
.쎉	-9.39954
chi	-9.40021
zi❄16쎯you❂29쎯	-9.40023
yu❄70쎯mi❃19쎯	-9.40042
jiao❄18쎯wan❂5쎯	-9.40065
qian	-9.40103
쎁쎉쎈쎇nian❂6쎯	-9.40183
cang❁0쎯	-9.40202
쎄쎃	-9.40208
쎀쎃	-9.40255
xian❂50쎯	-9.40378
zhi❄56쎯neng❂2쎯	-9.40508
ce❄33쎯huo❄50쎯	-9.40517
dai❄20쎯	-9.40523
,fu❂94쎯	-9.40545
xiang❁7쎯	-9.40585
zu❂11쎯qiu❂36쎯ju	-9.40678
qian❁39쎯	-9.40694
you❄13쎯ming❂7쎯	-9.40728
bao❄12쎯	-9.40822
pu❄3쎯	-9.40835
hei❁3쎯se❄29쎯	-9.40874
ying❁44쎯cun❄2쎯	-9.41018
feng❁52쎯	-9.41137
yi❁10쎯ming❂7쎯	-9.41202
da❂24쎯	-9.41205
dao❃5쎯yan❃39쎯	-9.41209
lian❄17쎯	-9.41226
xun❂	-9.41239
cao❂8쎯	-9.41388
jie❃6쎯shi❄89쎯	-9.41458
ru❂9쎯he❂22쎯	-9.41458
kuo❄15쎯yi❂31쎯	-9.41507
lan❂	-9.41549
guai❄7쎯	-9.41563
ai❄35쎯	-9.41648
gun❃8쎯	-9.41652
쎁쎉쎈쎂nian❂6쎯	-9.41759
lian❄27쎯	-9.41798
chao❁17쎯guo❄2쎯	-9.41838
peng❂11쎯you❃9쎯	-9.41917
shang❁4쎯pin❃0쎯	-9.41935
guo❂11쎯tu❃1쎯	-9.41969
yuan❂15쎯、	-9.41975
shan❄22쎯zhang❃6쎯	-9.41984
zhu❃4쎯ren❂4쎯,	-9.42056
ling❄0쎯	-9.4212
쎆쎆	-9.42144
쎃쎉	-9.42151
pin❂15쎯lv❄15쎯	-9.42155
ji❁80쎯	-9.42193
bu❂0쎯shi❄45쎯	-9.42237
nian❂9쎯	-9.42275
dang❃2쎯yuan❂15쎯,	-9.42298
shi❄60쎯fan❄22쎯	-9.42301
kuo❄15쎯ying❁17쎯	-9.42468
dao❄24쎯lu❄70쎯	-9.42677
bai❄7쎯	-9.42686
yi❁10쎯nian❂6쎯	-9.4276
man❃4쎯zu❂11쎯	-9.42828
qun❂6쎯yin❂10쎯	-9.42879
ming❂8쎯xian❃24쎯	-9.42995
쎁/	-9.43012
,ye❃1쎯shi❄45쎯	-9.43016
tong❃9쎯yi❁10쎯	-9.4324
guo❁22쎯	-9.4329
zan❄17쎯	-9.43319
hui❄27쎯zhang❃6쎯	-9.43331
liu❂20쎯hang❂16쎯	-9.43356
zheng❃4쎯gan❄3쎯	-9.43357
xue❂6쎯zhe❃2쎯	-9.43377
man❄13쎯hua❄18쎯	-9.43387
yuan❂12쎯ming❂7쎯	-9.43433
jie❂69쎯mu❄22쎯	-9.43561
gong❁10쎯gong❄3쎯	-9.43571
yan❁37쎯	-9.43575
bai❃6쎯	-9.43602
zui❄4쎯xin❁10쎯	-9.43724
tui❁1쎯chu❁3쎯	-9.43757
,yi❁10쎯	-9.43852
bi❂5쎯	-9.43887
shu❃23쎯	-9.43892
an❄19쎯	-9.43965
fei❄34쎯	-9.43986
kui❂	-9.44
pai❁0쎯	-9.44172
ban❄4쎯xue❂6쎯	-9.44237
sen❁0쎯lin❂19쎯	-9.44259
zhu❃4쎯bian❁13쎯	-9.44279
쎈쎇	-9.44364
쎄쎆	-9.4441
xiang❁9쎯dui❄14쎯	-9.4443
쎂gan❄3쎯	-9.44584
ma❃6쎯	-9.44631
yin❂10쎯duo❁5쎯	-9.44664
fu❂94쎯shi❄45쎯	-9.44797
sui❂9쎯zhao❁6쎯	-9.44855
yi❁10쎯tiao❂9쎯	-9.44862
40쎯	-9.44881
45쎯	-9.44881
,jiao❁8쎯tong❁5쎯	-9.44915
jing❄19쎯	-9.44919
shou❄9쎯yu❂34쎯	-9.4493
dian❄23쎯li❄59쎯	-9.45016
gao❁20쎯xin❁10쎯	-9.45031
ji❄48쎯	-9.45087
,rang❄3쎯	-9.45105
쎇쎆	-9.45166
wu❁8쎯	-9.45193
yin❄7쎯du❄8쎯	-9.45274
xun❄25쎯lian❄22쎯	-9.45279
chuang❁11쎯	-9.45428
쎀쎂	-9.4545
48쎯	-9.45451
luan❃0쎯	-9.45456
ding❃12쎯	-9.45503
xin❁10쎯jiang❁16쎯	-9.45566
bao❃9쎯zhang❄19쎯	-9.45652
cai❂9쎯zheng❄12쎯	-9.45671
pang❂9쎯	-9.45724
hu❁23쎯	-9.45759
xian❂18쎯	-9.45783
wu❄44쎯	-9.45883
zhang❃2쎯	-9.4589
xian❄51쎯	-9.45903
ji❄94쎯nian❄4쎯	-9.45929
ming❂7쎯,	-9.46048
pen❁1쎯	-9.46103
wan❃	-9.46238
jian❁25쎯fang❄0쎯	-9.46245
kuo❄17쎯	-9.46294
da❄0쎯zhuan❁1쎯	-9.46316
쎁쎉쎈쎉nian❂6쎯	-9.46401
mo❄16쎯yuan❂10쎯,	-9.46429
du❃	-9.4644
cun❂1쎯chu❃3쎯	-9.46441
1	-9.46465
xiang❃3쎯shou❄4쎯	-9.46489
zhen❄33쎯	-9.46492
qian❂8쎯shen❁40쎯	-9.46559
tong❃9쎯ji❄116쎯	-9.46566
ye❃1쎯you❃11쎯	-9.46681
gan❁19쎯	-9.46697
(쎁쎈	-9.46827
na❄11쎯zhi❄85쎯	-9.46831
qin❂25쎯	-9.46832
yi❄68쎯	-9.46847
(쎁	-9.4707
xiao❃2쎯qu❁15쎯	-9.47108
pi❂17쎯fu❁39쎯	-9.47184
tao❃3쎯	-9.47291
,gai❁13쎯	-9.47381
jiang❃19쎯shu❄47쎯	-9.4749
bao❃9쎯jian❄17쎯	-9.47518
du❄12쎯	-9.47619
xi❁65쎯	-9.47784
쎇쎈	-9.47802
yuan❂17쎯xing❂11쎯	-9.47821
jiao❄18쎯zhang❃6쎯	-9.47851
hua❁1쎯de❅2쎯	-9.47939
쎁쎉쎉쎁nian❂6쎯	-9.4796
qiao❂	-9.47976
쎁.쎅	-9.48045
jing❁27쎯dian❃5쎯	-9.48278
yan❂72쎯se❄29쎯	-9.483
dao❄3쎯le❅0쎯	-9.48305
,xian❄37쎯ren❂4쎯	-9.48349
xiu❁9쎯	-9.48351
bao❃9쎯chi❂20쎯	-9.48398
ci❂31쎯	-9.4854
you❂25쎯ji❁22쎯	-9.48578
an❄14쎯zhao❄18쎯	-9.48644
ce❄33쎯yu❄105쎯	-9.48719
,suo❃11쎯yi❃10쎯	-9.48774
man❄11쎯	-9.488
yi❂61쎯dong❄13쎯	-9.48844
쎄쎇	-9.49028
fa❂19쎯	-9.4904
fang❂2쎯de❅0쎯	-9.4907
yu❃24쎯	-9.49104
tu❂25쎯	-9.4911
ji❄59쎯neng❂2쎯	-9.49142
,yi❃10쎯ji❂37쎯	-9.49221
she❄29쎯zhi❄85쎯	-9.49231
se❄29쎯cai❃4쎯	-9.49238
쎉쎄	-9.49271
fu❃28쎯	-9.49277
fa❁1쎯bu❄23쎯	-9.49366
zhu❃4쎯ti❂36쎯	-9.4939
mei❃13쎯li❄50쎯	-9.49435
tong❁5쎯xin❄8쎯	-9.49462
gui❃37쎯	-9.49585
zhi❁39쎯	-9.49602
zhao❂쎯zuo❄5쎯	-9.49625
xian❃24쎯ka❃1쎯	-9.49626
zha❁9쎯	-9.4969
shao❄5쎯	-9.49766
miao❄0쎯	-9.49821
yu❂34쎯	-9.49902
bing❃9쎯	-9.49903
zu❃7쎯ge❃0쎯	-9.4991
han❁	-9.49946
jian❄56쎯	-9.50001
dang❁4쎯de❅0쎯	-9.50049
bu❃9쎯	-9.50138
.ben❃5쎯	-9.50181
mu❄10쎯	-9.50205
gu❄23쎯wen❄6쎯	-9.50234
chang❄9쎯	-9.50257
wen❂5쎯zi❄6쎯	-9.50305
gan❃6쎯ran❃11쎯	-9.50318
da❁17쎯	-9.50376
yue❄29쎯쎁ri❄2쎯	-9.50436
cheng❂52쎯du❄8쎯	-9.50503
ju❃4쎯ban❄4쎯	-9.5056
cheng❁28쎯“	-9.50643
yin❁11쎯ci❃2쎯	-9.50736
쎁쎉쎈쎃nian❂6쎯	-9.50772
diao❄17쎯cha❂17쎯	-9.50805
쎂.쎀	-9.50954
jian❄40쎯	-9.50971
xi❁143쎯bu❄38쎯	-9.51012
ban❄4쎯shi❄18쎯	-9.51029
dong❃8쎯shi❄18쎯	-9.51065
ce❄26쎯hua❂11쎯	-9.51105
gai❄11쎯	-9.51109
쎀쎄	-9.51134
xiao❄12쎯	-9.51159
xun❂11쎯	-9.51186
qing❁20쎯dao❃7쎯	-9.51293
gu❄7쎯ding❄2쎯	-9.51329
ge❄3쎯de❅0쎯	-9.51355
cai❂7쎯	-9.51364
jie❁32쎯	-9.51384
zang❄4쎯	-9.51599
wen❂5쎯yi❄190쎯	-9.51668
bo❁13쎯li❂53쎯	-9.51685
gong❁10쎯an❁13쎯	-9.51703
yuan❄18쎯jiao❄18쎯	-9.51727
yi❁10쎯wei❄15쎯	-9.51809
na❄11쎯wai❄0쎯	-9.51828
zhu❃4쎯ren❂4쎯.	-9.51842
ju❄16쎯ben❄4쎯	-9.51923
》juan❃1쎯	-9.51927
lian❄8쎯	-9.5193
bian❁13쎯xie❃4쎯	-9.52002
xie❂27쎯	-9.52053
,dong❁3쎯	-9.52062
bi❄61쎯xu❁39쎯	-9.52243
gao❁20쎯du❄8쎯	-9.52256
nuan❃2쎯	-9.52381
chu❄36쎯	-9.52435
,zhong❁4쎯gong❄3쎯	-9.52523
shao❁11쎯	-9.52609
yun❄27쎯	-9.52627
yu❄115쎯	-9.52639
,ju❄65쎯chi❁23쎯	-9.52648
yun❃16쎯yong❄3쎯	-9.52654
you❃11쎯zhao❁6쎯	-9.52657
fang❁9쎯	-9.52677
xi❁124쎯	-9.52746
yun❃16쎯ying❂45쎯	-9.52752
xia❂13쎯	-9.52779
su❁10쎯zhou❁9쎯	-9.52788
jun❁2쎯shi❄18쎯	-9.52801
yue❄21쎯	-9.52836
kao❃6쎯	-9.52884
zhen❁	-9.52939
yao❁15쎯	-9.53013
ren❂4쎯he❂22쎯	-9.53037
쎁쎅쎀	-9.53082
hou❄7쎯lai❂16쎯	-9.53125
qiao❂5쎯	-9.53218
쎀.쎀	-9.53237
mu❄20쎯	-9.53366
ta❁6쎯们	-9.5349
mai❃0쎯	-9.53509
tong❂13쎯nian❂6쎯	-9.5351
jing❃13쎯guan❁16쎯	-9.53511
lan❂25쎯	-9.5353
ning❂6쎯	-9.53622
mao❄39쎯	-9.53625
chou❁5쎯	-9.53698
mian❄2쎯ji❁64쎯쎂	-9.53763
su❄56쎯zhi❄104쎯	-9.53793
hun❂11쎯	-9.53899
chu❁3쎯lai❂16쎯	-9.53918
쎄쎉	-9.53982
jin❁24쎯	-9.54009
hao❄35쎯	-9.54017
zhuan❁1쎯men❂19쎯	-9.54027
can❁13쎯	-9.54028
chou❂29쎯	-9.54037
shan❁11쎯shi❄32쎯	-9.5409
쎃gan❄3쎯	-9.54153
dang❃2쎯jiao❄18쎯	-9.54178
man❄13쎯	-9.54214
deng❃2쎯de❅0쎯	-9.54313
xia❁10쎯	-9.54318
tan❄9쎯	-9.54318
zhu❃4쎯guan❃9쎯	-9.54373
ai❂12쎯	-9.54422
qi❃12쎯qiu❁9쎯.	-9.54435
zui❄4쎯zao❃2쎯	-9.54506
dong❄13쎯hua❄18쎯	-9.54576
wu❄36쎯liu❂20쎯	-9.5459
tai❁4쎯	-9.54671
shan❄	-9.54676
teng❂13쎯	-9.54693
ban❄13쎯	-9.54717
ping❂10쎯	-9.54722
gui❃35쎯	-9.54769
fa❃2쎯gui❁35쎯	-9.54833
gui❁35쎯ge❂29쎯	-9.54974
suan❄4쎯	-9.55091
zou❄2쎯	-9.55099
hao❂25쎯	-9.55178
yi❄109쎯cha❁3쎯	-9.55362
yi❄109쎯da❄0쎯	-9.55401
fu❄67쎯	-9.55448
zhen❄31쎯	-9.5545
쎅쎇	-9.55498
cu❄10쎯	-9.55504
ti❄21쎯	-9.55541
(),	-9.55571
hai❃1쎯nan❂6쎯	-9.55609
jie❃1쎯	-9.55645
nen❄4쎯	-9.55665
bao❃9쎯zheng❄17쎯	-9.55687
kai❃2쎯	-9.55766
ce❄22쎯shi❄78쎯	-9.55793
bu❄38쎯dui❄33쎯	-9.5584
yi❁10쎯zuo❄12쎯	-9.55844
,nv❃0쎯,	-9.55886
pai❁0쎯she❄13쎯	-9.55915
tan❂8쎯	-9.55918
cheng❂29쎯ji❁74쎯	-9.5596
fu❂62쎯	-9.56045
ge❂52쎯	-9.56089
le❅0쎯jie❃6쎯	-9.56107
san❁1쎯shi❂10쎯	-9.5611
suo❃11쎯shu❃5쎯	-9.56259
cai❂9쎯wu❄12쎯	-9.56287
nv❃0쎯xing❄13쎯	-9.56293
xin❁	-9.56303
chong❁9쎯fen❁4쎯	-9.56363
쎄gan❄3쎯	-9.56376
xian❄35쎯	-9.56419
fu❃34쎯	-9.56455
wan❂3쎯	-9.56482
cong❂5쎯	-9.56498
qing❁1쎯	-9.5654
ao❄25쎯	-9.56686
fang❃6쎯	-9.56687
yuan❂12쎯li❃15쎯	-9.56765
yi❁10쎯qie❁1쎯	-9.56781
쎅쎃	-9.568
mei❄5쎯	-9.56879
du❄8쎯de❅0쎯tu❂14쎯	-9.56919
쎅쎂	-9.56947
mo❄75쎯	-9.56963
쎄-	-9.56971
ke❁16쎯zhang❃6쎯	-9.57035
gong❁11쎯lv❄15쎯	-9.57079
ji❂114쎯cheng❂29쎯	-9.57117
qi❁15쎯	-9.57117
46쎯	-9.5724
ying❄7쎯	-9.57252
da❄0쎯hui❄27쎯	-9.57297
dan❄38쎯you❂24쎯	-9.57297
ping❂36쎯wei❄14쎯	-9.57317
cheng❂30쎯dan❁15쎯	-9.57437
chun❂23쎯	-9.57452
nan❂6쎯bei❃2쎯	-9.57479
dong❁3쎯fang❁4쎯	-9.5748
mao❄32쎯	-9.57504
sui❄42쎯	-9.57519
yan❂72쎯	-9.57536
qi❂117쎯quan❂6쎯	-9.57564
쎅쎈	-9.57564
tui❃7쎯	-9.57796
,ke❃4쎯yi❃10쎯	-9.57816
qin❁5쎯	-9.57883
dai❄35쎯	-9.57901
xiu❄	-9.57909
guan❁5쎯jun❁2쎯	-9.5813
jiang❁11쎯	-9.58179
cheng❁28쎯hao❂6쎯	-9.5818
xun❄25쎯	-9.58201
《zhong❁4쎯guo❂11쎯	-9.58213
de❅0쎯zhi❃13쎯	-9.58277
yang❃14쎯	-9.58282
xian❁39쎯wei❂38쎯	-9.58349
pu❂20쎯tao❂13쎯	-9.58397
biao❃5쎯yan❃39쎯	-9.58435
hua❄18쎯jia❁13쎯	-9.58543
ku❄18쎯	-9.58557
ju❁14쎯zhu❄19쎯	-9.58641
di❄45쎯wu❃9쎯	-9.58654
e❄3	-9.58657
ge❁16쎯shou❃4쎯	-9.58753
fang❃18쎯	-9.58759
er❄5쎯ji❂83쎯	-9.58854
wang❂0쎯	-9.58863
zhu❄59쎯	-9.58896
zi❁45쎯ben❃5쎯	-9.58908
zhi❁44쎯	-9.58916
ji❄117쎯lu❄35쎯	-9.58926
쎅쎄	-9.58975
di❄51쎯	-9.5901
zhi❄30쎯ding❄2쎯	-9.59051
min❂22쎯guo❂11쎯	-9.59057
zhu❄19쎯zhai❂1쎯	-9.59179
yi❃10쎯lai❂16쎯,	-9.59189
qie❁1쎯cheng❂29쎯	-9.59213
meng❄7쎯	-9.59216
kun❄1쎯	-9.59216
ce❄22쎯liang❂19쎯	-9.59245
xiang❂11쎯	-9.5929
shuo❁2쎯ming❂8쎯	-9.59297
쎈쎉	-9.59334
lin❂20쎯	-9.59361
gai❄11쎯nian❄4쎯	-9.5938
yi❁10쎯bu❄28쎯	-9.59452
zuan❁4쎯	-9.59483
xu❁39쎯	-9.59528
zhuo❂	-9.59532
you❂16쎯	-9.59597
zhong❄3쎯	-9.59602
na❄11쎯bu❄38쎯	-9.59768
jiang❄22쎯	-9.59781
gou❃2쎯cheng❂29쎯	-9.59801
qu❁49쎯	-9.59923
jia❁7쎯jiang❄9쎯	-9.59951
wei❄26쎯lai❂16쎯	-9.6001
you❃11쎯ji❁48쎯	-9.6001
tian❁5쎯xia❄3쎯	-9.60034
niao❄2쎯	-9.60087
yi❂20쎯qi❄20쎯	-9.60156
shi❄45쎯yi❃10쎯	-9.60169
he❄27쎯	-9.60197
ye❃1쎯.”	-9.60391
ai❄26쎯qing❂6쎯	-9.60463
yan❄75쎯	-9.60478
mian❂13쎯	-9.60492
jin❄61쎯bu❄28쎯	-9.60507
tong❁5쎯xun❄26쎯	-9.6051
zheng❃4쎯ben❄4쎯	-9.60519
de❅0쎯xia❄3쎯	-9.60613
xiang❂11쎯xi❄50쎯	-9.60622
hui❁	-9.60678
쎈쎄	-9.60699
jing❃27쎯	-9.60708
쎅쎁	-9.60788
ban❄3쎯	-9.60885
ren❂1쎯jun❁6쎯	-9.60948
qiu❂19쎯ben❄4쎯	-9.60952
ba❂11쎯	-9.61075
hu❄14쎯lian❂53쎯	-9.61087
ying❃11쎯shi❄71쎯	-9.61119
쎈쎂	-9.6118
wu❂17쎯xian❄47쎯	-9.61204
jiao❃57쎯se❄29쎯	-9.61244
ren❂4쎯jiao❁20쎯	-9.61298
tan❁12쎯	-9.61308
ying❃2	-9.61319
xian❄63쎯	-9.61391
fu❂43쎯zhuang❁10쎯	-9.6141
ming❄1쎯ming❂7쎯	-9.61425
xue❂6쎯jia❁13쎯	-9.61536
pen❂2쎯	-9.61651
yan❂50쎯zhi❄30쎯	-9.61679
gao❁20쎯jiao❄18쎯	-9.61718
zhan❃11쎯shi❄60쎯	-9.61736
tai❄3쎯ping❂17쎯	-9.61896
ying❄9쎯pan❂10쎯	-9.61932
wu❄12쎯yuan❄18쎯	-9.61957
ben❃3쎯	-9.61975
cheng❂29쎯shou❂쎯	-9.61997
jie❂40쎯	-9.62008
shen❁18쎯ru❄2쎯	-9.62138
cao❁3쎯	-9.62214
dan❁15쎯	-9.62254
chang❂15쎯yong❄3쎯	-9.6232
ha❁0쎯er❃6쎯	-9.62331
gai❁13쎯cun❁1쎯	-9.6244
qiao❃3쎯	-9.62481
shi❄18쎯jian❄15쎯	-9.62509
쎇쎉	-9.62561
hua❁11쎯wan❂5쎯	-9.62629
(쎂)	-9.62652
lian❂53쎯xi❄46쎯	-9.6268
mei❂16쎯	-9.62727
dong❄22쎯	-9.62727
shi❂39쎯yong❄3쎯	-9.6279
tai❄3쎯yang❂35쎯	-9.62995
ri❄2쎯ji❁47쎯	-9.6307
po❄12쎯	-9.63095
de❅0쎯zhen❄33쎯	-9.63114
bian❄38쎯lv❄15쎯	-9.63124
ming❂26쎯	-9.63143
zao❁7쎯	-9.63195
wen❂5쎯zhang❁13쎯	-9.63227
yuan❂12쎯ze❂11쎯	-9.63359
ting❂9쎯	-9.63411
fu❄74쎯jin❄60쎯	-9.63427
xiang❁9쎯dang❁4쎯	-9.6348
bin❁	-9.63498
쎁쎂쎀	-9.63518
zhi❄30쎯pin❃0쎯	-9.63612
lu❂10쎯	-9.63631
ya❁7쎯li❄59쎯	-9.63706
sheng❃9쎯wei❁12쎯	-9.63766
xin❄8쎯hao❂6쎯	-9.63788
li❃15쎯xue❂6쎯	-9.63814
shu❄26쎯liang❂19쎯	-9.6384
xun❂14쎯	-9.63849
dan❄27쎯	-9.63895
yi❄183쎯	-9.63995
yang❃14쎯hua❁1쎯	-9.64052
.mu❄22쎯qian❂8쎯	-9.64102
chong❂17쎯da❄0쎯	-9.64129
xin❁10쎯xing❂9쎯	-9.64184
shan❁11쎯qu❁15쎯.	-9.64267
fu❂38쎯	-9.64298
mou❂17쎯	-9.64341
jia❁10쎯	-9.64349
na❂4쎯	-9.64368
suo❃11쎯yi❃10쎯	-9.64369
chen❂23쎯yang❂35쎯	-9.64417
zhong❃7쎯	-9.64432
쎅쎀ke❄6쎯	-9.64481
you❁5쎯mei❃13쎯	-9.64533
xiao❃3쎯	-9.64604
shen❁40쎯ben❄4쎯	-9.64654
gai❃2쎯bian❄19쎯	-9.64729
miao❃6쎯	-9.64731
ren❂1쎯shu❄26쎯	-9.6489
zao❄16쎯cheng❂29쎯	-9.64937
쎂쎀쎁쎃nian❂6쎯	-9.64941
zhen❁52쎯dui❄14쎯	-9.64968
chu❁3쎯ban❃6쎯she❄	-9.64971
ge❂29쎯shi❄33쎯	-9.65002
shi❁33쎯ren❂1쎯	-9.65157
쎁쎉쎅쎈nian❂6쎯	-9.65213
dian❄23쎯hua❄26쎯	-9.65253
shu❁8쎯·	-9.65292
jin❄38쎯	-9.65378
chuan❂4쎯》:“	-9.65466
(쎁)	-9.65474
jian❁44쎯	-9.65492
bo❁10쎯fang❄0쎯	-9.65561
quan❂10쎯	-9.65628
ji❄121쎯	-9.65801
xuan❂9쎯	-9.6583
,bao❁4쎯gua❁11쎯	-9.65836
que❄26쎯ding❄2쎯	-9.65899
zhuan❁1쎯ke❁16쎯	-9.66022
tan❃4쎯	-9.66077
te❄5쎯xing❄13쎯	-9.6611
lian❂30쎯	-9.66114
ren❂1쎯shi❄28쎯	-9.66279
zhong❃7쎯liu❂31쎯	-9.66357
jian❃36쎯cha❂17쎯	-9.66413
xi❁113쎯sheng❁13쎯	-9.66465
bian❄43쎯	-9.66473
you❂16쎯qi❂29쎯	-9.66549
ji❃22쎯	-9.66634
mei❃13쎯rong❂21쎯	-9.66691
po❁12쎯	-9.66726
ao❄2	-9.66749
shou❁1쎯lu❄35쎯	-9.66775
shi❄18쎯wu❄12쎯	-9.66799
쎄쎁	-9.66815
mian❃10쎯	-9.66869
fan❁11쎯	-9.66881
xiang❄4쎯su❄56쎯	-9.66889
dui❄14쎯xiang❄20쎯	-9.6689
mian❃10쎯fei❄37쎯	-9.66951
zhi❂	-9.66974
qi❂104쎯	-9.66999
쎆쎇	-9.67004
shen❄11쎯	-9.67009
yu❂66쎯	-9.6708
dong❄13쎯li❄59쎯	-9.67098
yan❃39쎯chu❁3쎯	-9.67123
.dan❄10쎯	-9.67125
jian❄85쎯	-9.67182
ji❁74쎯	-9.67249
diao❄17쎯zheng❃4쎯	-9.67284
zhou❁5쎯bian❁16쎯	-9.67286
yang❃6쎯zhi❂22쎯	-9.67315
tiao❄6쎯	-9.67345
lai❄19쎯	-9.67349
쎇쎂	-9.67354
ji❂75쎯	-9.67406
qi❂46쎯xia❄3쎯	-9.67597
lv❃30쎯	-9.676
er❄5쎯nian❂6쎯	-9.6762
e❂11쎯luo❁4쎯	-9.67621
yao❄12쎯wu❄36쎯	-9.67629
쎈쎃	-9.67656
zi❁45쎯ge❂29쎯	-9.67664
ban❄4쎯li❃15쎯	-9.67679
sui❁12쎯ran❂12쎯	-9.67721
e❂11쎯	-9.67726
shi❂13쎯li❄59쎯	-9.67783
nian❂6쎯jian❁85쎯	-9.67883
chen❂15쎯	-9.67951
,er❂16쎯qie❃쎯	-9.68028
kong❁9쎯qi❃25쎯	-9.68118
wo❄16쎯	-9.68118
jiang❁5쎯jun❁2쎯	-9.68122
duo❂3쎯	-9.68224
jing❄30쎯zheng❁7쎯	-9.6828
da❁12쎯	-9.68303
shen❁23쎯	-9.68305
jiang❄25쎯shui❃0쎯	-9.6833
shi❂10쎯yi❁10쎯	-9.68448
ren❂1쎯sheng❁16쎯	-9.68542
yue❄56쎯du❂34쎯	-9.68542
ge❃0쎯li❃15쎯	-9.68547
yan❃39쎯chang❄2쎯	-9.6855
bo	-9.68579
shang❃1쎯shi❄32쎯	-9.68597
zhen❃27쎯	-9.68637
che❃7쎯	-9.68684
qi❂48쎯	-9.68739
ping❂25쎯	-9.68792
ji❄95쎯xu❄69쎯	-9.68805
mei❃9쎯gan❄3쎯	-9.68865
쎀°C	-9.68905
miao❂5쎯	-9.68933
ti❂17쎯sheng❁3쎯	-9.68936
ya❄7쎯zhou❁11쎯	-9.68942
tu❂14쎯pian❁5쎯	-9.69003
tan❂20쎯	-9.69008
gong❁23쎯ji❁22쎯	-9.69104
hai❃1쎯yang❂19쎯	-9.69145
jiao❁41쎯	-9.69165
38쎯	-9.69211
-쎄	-9.69267
fang❁2쎯	-9.69358
zi❃	-9.69365
de❅0쎯qiu❂36쎯	-9.69512
shou❃4쎯shu❂7쎯	-9.69578
da❄0쎯dao❄24쎯	-9.69598
li❃15쎯xiang❃6쎯	-9.69731
bao❄10쎯gao❄3쎯	-9.69765
hu❁13쎯	-9.69774
yuan❂10쎯su❄56쎯	-9.69919
sui❁12쎯	-9.69987
wan❂12쎯jia❁13쎯	-9.70044
tiao❁4쎯	-9.70071
wan❃26쎯	-9.70088
yao❂55쎯	-9.70123
hui❁40쎯	-9.70167
shao❃2쎯xu❃19쎯	-9.70175
dang❃2쎯zu❃7쎯	-9.70243
zhi❃19쎯hui❁15쎯	-9.70308
jing❄46쎯	-9.70338
쎆쎂	-9.70382
쎆쎃	-9.70421
xian❂27쎯	-9.70461
lin❂51쎯	-9.70463
nian❂6쎯qing❁16쎯	-9.70509
ya❁23쎯	-9.70545
mei❃9쎯nian❂6쎯	-9.70548
zui❄11쎯	-9.70623
gong❁9쎯ying❁17쎯	-9.7065
gu❁25쎯	-9.70707
jie❁32쎯duan❄7쎯	-9.70718
wei❂38쎯hu❄30쎯	-9.70756
zao❃3쎯	-9.70769
fan❃3쎯ying❄7쎯	-9.70796
zhua❁0쎯	-9.70842
kang❄5쎯ri❄2쎯	-9.70867
yin❁44쎯pin❂15쎯	-9.71006
jie❁13쎯shou❄4쎯	-9.71046
xie❃8쎯guan❃9쎯	-9.71096
mi❄45쎯	-9.71158
gou❄26쎯wu❄36쎯	-9.7121
li❄1	-9.7127
ji❄72쎯nan❂6쎯	-9.7139
yi❁10쎯liu❂20쎯	-9.71427
yi❄109쎯si❁22쎯	-9.71467
yuan❂26쎯	-9.71471
zhen❃27쎯duan❄4쎯	-9.71581
xi❁65쎯wang❄4쎯	-9.71638
cui❄30쎯	-9.71688
ju❄45쎯	-9.71742
쎂.쎅	-9.71825
chen❂23쎯	-9.71829
san❁1쎯jiao❃57쎯	-9.71919
tuo	-9.7195
yi❃10쎯hou❄7쎯	-9.71976
wan❂5쎯qu❁15쎯	-9.71991
쎁쎉쎈쎀nian❂6쎯	-9.72005
》shi❁33쎯:“	-9.72118
ji❂114쎯zhong❁4쎯	-9.72121
de❅0쎯wei❄15쎯	-9.72133
zhang❃2쎯wo❄12쎯	-9.72247
jing❃13쎯qu❁15쎯	-9.72253
jiao❁20쎯shou❄9쎯.	-9.7228
dui❄33쎯wu❃11쎯	-9.723
yu❄54쎯	-9.7232
bi❄100쎯	-9.72363
rao❄2쎯	-9.72372
chuang❄1쎯li❄141쎯	-9.72411
er❂16쎯bu❂0쎯	-9.72421
zhang❃6쎯sha❁10쎯	-9.72595
huan❄19쎯zhe❃2쎯	-9.72644
lei❃25쎯	-9.7269
nv❃0쎯zi❃7쎯	-9.72712
yi❃10쎯“	-9.72755
da❄0쎯sai❄4쎯	-9.7282
lv	-9.72876
dian❄23쎯qi❄20쎯	-9.73043
qi❄23쎯	-9.73053
,yin❁11쎯ci❃2쎯	-9.73083
zhai❁3쎯	-9.73194
qi❃12쎯	-9.73196
bian❃4쎯	-9.73208
dui❁14쎯qiu❂27쎯	-9.73268
쎇쎇	-9.7332
deng❃2쎯nong❂5쎯	-9.73362
쎁쎉쎈쎁nian❂6쎯	-9.73427
cui❁16쎯	-9.7349
shan❃11쎯	-9.73527
ke❄14쎯fang❂2쎯	-9.73538
ti❁6쎯	-9.73598
di❂2	-9.73683
jiao❁20쎯yan❂50쎯	-9.73759
dian❃5쎯xing❂9쎯	-9.73789
shi❄32쎯qu❁15쎯	-9.73807
liang❂11쎯	-9.73997
fei❄27쎯	-9.74045
wai❄0쎯xing❂11쎯	-9.74343
fu❄57쎯gai❄17쎯	-9.74398
yi❂79쎯zhi❃13쎯	-9.74415
zu❃7쎯jian❄29쎯	-9.74526
yi❄11	-9.74541
xi❁161쎯	-9.74656
ci❂20쎯	-9.74772
8	-9.74799
mian❂22쎯	-9.74799
ai❁1쎯	-9.74894
쎁쎉쎇쎈nian❂6쎯	-9.7492
ju❃4쎯hang❂16쎯	-9.74975
ceng❂6쎯zai❄5쎯	-9.75002
.”《	-9.75154
zhan❃11쎯lan❃28쎯	-9.7519
chuang❄1쎯qiu❁9쎯	-9.75284
lv❃7쎯	-9.75358
chuan❂4쎯shuo❁2쎯	-9.75363
shi❂10쎯wu❃9쎯	-9.75409
zhi❂25쎯jing❄17쎯	-9.75454
ling❄0쎯yi❁10쎯	-9.75461
nie❄	-9.75508
cheng❂29쎯ben❃5쎯	-9.75554
pei❂3쎯	-9.75554
kuo❄7쎯	-9.75681
wan❁7쎯	-9.75683
shen❄11쎯zhi❄88쎯	-9.75802
zhao❁4쎯	-9.75813
jin❁26쎯	-9.75874
cheng❁28쎯hao❂6쎯.	-9.75941
pi❂11쎯lin❂43쎯	-9.75967
lu❄91쎯	-9.75991
zui❃0쎯	-9.76021
hun❂21쎯	-9.76051
ren❂1쎯ben❄4쎯	-9.76097
ping❂36쎯jie❄14쎯	-9.76165
dou❁12쎯you❃11쎯	-9.76225
cha❁5쎯	-9.76269
jun❁6쎯jun❁3쎯	-9.76294
zao❄16쎯xing❂9쎯	-9.76364
xun❄28쎯su❄70쎯	-9.76593
zhuan❁6쎯	-9.76678
,cong❂6쎯er❂16쎯	-9.76681
wu❂11쎯	-9.7672
shui❃0쎯li❄58쎯	-9.76785
yuan❄14쎯	-9.76805
cang❁14쎯	-9.76829
seng❁1쎯	-9.76882
쎀.쎅	-9.76933
jing❁27쎯li❄62쎯	-9.77029
jiao❄35쎯da❄0쎯	-9.77041
huan❁7쎯ying❂59쎯	-9.77214
si❄17쎯nian❂6쎯	-9.7723
,ran❂12쎯hou❄7쎯	-9.77318
chi❂20쎯xu❄69쎯	-9.77385
yue❄48쎯	-9.77393
jian❃36쎯yan❄75쎯	-9.77437
gu❁11쎯	-9.77443
gao❃12쎯	-9.7753
fu❄41쎯qin❁4쎯	-9.77562
she❄17쎯ji❂37쎯	-9.77631
ci❂15쎯	-9.77641
xia❂45쎯	-9.77804
an❁16쎯	-9.77821
you❁5쎯yue❄46쎯	-9.77862
quan❂6쎯shu❁8쎯	-9.7795
she❂11쎯	-9.77971
쎅gong❁10쎯li❃26쎯	-9.78042
ge❃0쎯bing❁6쎯	-9.78051
쎇쎃	-9.78116
쎆gan❄3쎯	-9.7814
zu❁0쎯	-9.78189
zhan❄10쎯shi❄28쎯	-9.78275
wei❄18쎯jing❁24쎯	-9.78277
bei❁15쎯jing❃13쎯	-9.78417
xing❂11쎯tai❄6쎯	-9.78466
hong❂44쎯jun❁2쎯	-9.78496
ji❄83쎯	-9.78545
fan❃4쎯	-9.78562
duo❁5쎯shu❄26쎯	-9.7862
han❄38쎯	-9.78623
zhou❂3쎯cheng❂30쎯	-9.78632
da❄0쎯lian❂69쎯	-9.78713
ben❁2쎯	-9.78714
쎁쎉쎇쎉nian❂6쎯	-9.78736
diao❄8쎯	-9.78752
sha❄6쎯men❂19쎯	-9.7881
niang❂0쎯	-9.78851
lv❄20쎯hua❁1쎯	-9.78889
yu❄42쎯	-9.7889
fei❁12쎯	-9.789
liao❂37쎯	-9.78977
쎆쎉	-9.79066
guan❄33쎯che❄20쎯	-9.79097
suo❃23쎯	-9.79106
yao❂32쎯	-9.79185
ban❄4쎯fa❃2쎯	-9.79198
xi❄33쎯ju❄18쎯	-9.79238
min❂22쎯zhu❃4쎯	-9.79249
zhi❂32쎯cheng❁28쎯	-9.79293
tian❂8쎯	-9.79372
ling❄0쎯wai❄0쎯	-9.79391
he❄35쎯	-9.79412
ying❁44쎯xiong❂2쎯	-9.79419
zeng❄6쎯	-9.79462
geng❁6쎯ming❂7쎯	-9.79472
ceng❂6쎯jing❁27쎯	-9.7949
ji❁47쎯kan❁3쎯	-9.79499
chan❂33쎯	-9.79502
dao❄11쎯	-9.79528
geng❁6쎯duo❁5쎯	-9.79621
bi❄98쎯	-9.79646
she❄13쎯xiang❄4쎯	-9.79659
cai❄6쎯	-9.79682
luo❂15쎯bo❅0쎯	-9.79706
dai❄15쎯lai❂16쎯	-9.79733
ni❂10쎯ya❄7쎯	-9.79759
xing❂9쎯hao❂6쎯	-9.79831
zong❃5쎯bu❄38쎯	-9.79838
hun❂11쎯ge❃0쎯	-9.79861
shan❁11쎯shui❃0쎯	-9.79861
wan❂6쎯zheng❃4쎯	-9.79875
zun❁7쎯	-9.79978
wei❂38쎯xiu❁11쎯	-9.80078
xie❂14쎯diao❄17쎯	-9.80106
can❁13쎯yin❃37쎯	-9.80127
han❄43쎯	-9.80128
쎅쎉	-9.80144
gong❁11쎯xiao❄14쎯	-9.80177
bi❄145쎯	-9.80192
yi❁10쎯jiu❃3쎯	-9.80193
yang❂35쎯xian❄22쎯	-9.80198
lian❂	-9.80225
hai❃1쎯ba❂11쎯쎁	-9.80228
shi❄31쎯na❄11쎯	-9.80353
wang❄3쎯	-9.80403
zai❁1쎯pei❂3쎯	-9.80403
yao❁19쎯	-9.80425
zhong❁4쎯jian❁85쎯	-9.80517
li❃15쎯gong❁17쎯	-9.80539
che❃7쎯cun❄2쎯:	-9.80607
쎁쎉쎅쎆nian❂6쎯	-9.80645
yu❄126쎯fang❂4쎯	-9.80665
yuan❂53쎯	-9.8067
jie❁15쎯	-9.80789
쎁쎉쎄쎉nian❂6쎯	-9.80822
pa❄0쎯	-9.80918
fen❁17쎯	-9.81073
hu❂43쎯	-9.81098
jian❁67쎯	-9.81112
qi❄34쎯	-9.81118
su❄30쎯liao❄8쎯	-9.81147
teng❂14쎯	-9.81163
du❂25쎯te❄5쎯de❅2쎯	-9.81188
ji❂114쎯ben❄4쎯	-9.81327
she❄17쎯	-9.81328
chuan❂4쎯shu❁44쎯	-9.81335
쎁쎉쎆쎃nian❂6쎯	-9.81337
huang❁9쎯	-9.81364
zhu❂24쎯jian❄40쎯	-9.8145
dang❄12쎯	-9.81508
zhuan❁1쎯li❄58쎯	-9.81613
yao❂43쎯	-9.81633
yuan❂12쎯yin❁11쎯	-9.81782
쎅%	-9.8179
qi❃25쎯hou❄5쎯	-9.81823
hong❂67쎯	-9.81838
pin❁3쎯	-9.81875
xing❄12쎯	-9.81951
shan❁13쎯	-9.81986
yi❁13쎯ke❁16쎯	-9.82183
guan❁4쎯zhu❄31쎯	-9.82223
hou❄5쎯	-9.82332
.you❂29쎯yu❂35쎯	-9.82341
cui❄	-9.82427
pi❂22쎯	-9.8246
fu❂41쎯	-9.82551
neng❂2쎯yuan❂34쎯	-9.8261
jun❁2쎯qu❁15쎯	-9.82623
zheng❄18쎯zhou❁9쎯	-9.82629
쎀×	-9.82636
zhu❄31쎯yi❄109쎯	-9.82707
dong❁3쎯bu❄38쎯	-9.82741
chang❃4쎯suo❃11쎯	-9.82757
쎁쎉쎀	-9.82782
zhou❁5쎯wei❂11쎯	-9.8284
huo❄61쎯	-9.82878
nian❂6쎯lai❂16쎯,	-9.82938
wu❃15쎯	-9.82972
geng❁6쎯jia❁7쎯	-9.82997
da❄0쎯shi❁11쎯	-9.83005
ying❂59쎯	-9.83038
xiang❁9쎯tong❂13쎯	-9.83043
yi❄103쎯	-9.83047
ling❃2쎯xian❁18쎯	-9.83178
chong❁9쎯man❃4쎯	-9.83222
pao❃0쎯	-9.83311
ken❃6쎯	-9.83372
pei❄5쎯	-9.83535
fu❃16쎯	-9.83614
jian❃48쎯	-9.83641
shu❄26쎯ma❃8쎯	-9.83671
shi❂10쎯ba❁9쎯	-9.83709
zi❁23쎯	-9.8372
ju❂23쎯fu❄28쎯	-9.83819
0	-9.8387
quan❂6쎯xian❄22쎯	-9.83913
ming❂24쎯	-9.83962
dian❄23쎯ya❁7쎯	-9.83973
wan❂5쎯lin❂19쎯	-9.84076
quan❂6쎯shi❄32쎯	-9.84089
ming❂7쎯zi❄6쎯	-9.8416
ai❄26쎯hao❃0쎯	-9.84174
wang❃14쎯ka❃1쎯	-9.84183
peng❂1	-9.84187
shi❂10쎯liu❄3쎯	-9.84225
xie❂49쎯	-9.84228
jing❁24쎯pin❃0쎯	-9.8423
ta❄26쎯	-9.8423
ji❁34쎯bu❄38쎯	-9.84283
kuang❂3쎯	-9.84341
tou❂5쎯ru❄2쎯	-9.84379
fa❁1쎯hui❁15쎯	-9.84384
wen❃10쎯	-9.8444
zhuan❁1쎯yong❄3쎯	-9.84498
han❄34쎯	-9.84522
bao❄10쎯》	-9.84538
qi❁32쎯	-9.8454
xie❂24쎯	-9.84556
hu❂22쎯	-9.84622
lao❁0쎯	-9.84674
fu❄31쎯duo❃23쎯	-9.84706
xing❂11쎯rong❂21쎯	-9.8472
guan❄23쎯	-9.84812
dian❄19쎯fen❃1쎯	-9.84857
chan❃12쎯dang❃2쎯,	-9.84905
gan❄3쎯xing❄13쎯	-9.84984
jiang❄9쎯da❄0쎯	-9.84985
gong❁10쎯jin❁17쎯	-9.85077
wei❁	-9.85121
shi❃9쎯zhong❁19쎯	-9.85153
shui❂1쎯	-9.8521
chang❂14쎯	-9.8523
fan❁14쎯yi❄215쎯	-9.85242
dong❄13쎯tai❄6쎯	-9.85252
shu❁40쎯cai❄5쎯	-9.85271
feng❄7쎯	-9.85272
ya❂18쎯	-9.8541
wu❃37쎯dao❃20쎯	-9.85607
ge❃0쎯cheng❂29쎯	-9.85684
tao❂17쎯	-9.85689
쎂쎀쎁쎀	-9.85695
xing❄13쎯zhi❄104쎯	-9.8573
fa❁1쎯dong❄13쎯	-9.85792
qing❁10쎯shui❃0쎯	-9.85804
fa❃2쎯xue❂6쎯	-9.85851
gao❁20쎯xiao❄14쎯	-9.85919
쎁쎉쎆쎄nian❂6쎯	-9.85939
hao❄23쎯	-9.85959
4	-9.86034
zhi❂32쎯wu❄12쎯	-9.86043
zhi❁31쎯dao❄24쎯	-9.86051
zhen❁30쎯shi❂13쎯	-9.86066
mao❁0쎯	-9.86082
wu❃11쎯	-9.8614
dui❄14쎯wai❄0쎯	-9.86144
xiang❁1쎯cun❁1쎯	-9.86151
yin❄7쎯shua❁1쎯	-9.86204
hui❁13쎯fu❄31쎯	-9.8625
chui❂5쎯	-9.86269
jiao❄35쎯gao❁20쎯	-9.86374
ning❂10쎯bo❁11쎯	-9.86399
yue❁1쎯쎁	-9.86438
quan❂6쎯xin❁10쎯	-9.86505
jing❁31쎯	-9.86515
zi❄16쎯shen❁40쎯	-9.86517
ding❄2쎯wei❄15쎯	-9.86519
deng❄8쎯	-9.8653
tong❃5쎯	-9.86626
zhu❂24쎯	-9.86686
bu❂0쎯guo❄2쎯	-9.86698
cheng❂61쎯xin❄8쎯	-9.86742
ru❂7쎯	-9.86798
zhu❃4쎯jiao❃57쎯	-9.86806
liu❂33쎯	-9.86813
rui❄20쎯	-9.86826
shi❄20쎯	-9.86844
sui❄33쎯	-9.86847
jiu❁19쎯	-9.8686
mian❄2쎯xiang❄6쎯	-9.86877
die❂19쎯	-9.86923
shen❁5쎯	-9.86973
xi❁87쎯	-9.87001
han❂17쎯liang❂19쎯	-9.8704
쎈쎁	-9.87094
han❄20쎯xie❂47쎯	-9.87161
bei❁6쎯	-9.87172
e❂1	-9.87186
lao❃17쎯shi❁11쎯	-9.87191
shi❄84쎯	-9.87191
hui❃8쎯	-9.872
shu❄27쎯	-9.87262
mao❄16쎯	-9.87284
duo❃21쎯	-9.87314
zuo❄5쎯zhan❄10쎯	-9.87381
xi❃1쎯ai❄26쎯	-9.87459
dao❃2쎯ru❄2쎯	-9.8746
쎀yu❂37쎯pian❁7쎯	-9.87465
bian❁13쎯zhi❄30쎯	-9.87495
tun❂3쎯	-9.87611
bi❄51쎯	-9.87739
쎀쎀mu❃2쎯	-9.87745
zhu❂18쎯	-9.8777
suo❃11쎯wei❄52쎯	-9.87831
tu❃0쎯	-9.87866
re❄1쎯dai❄15쎯	-9.87871
zhai❄2쎯	-9.8788
fang❁4쎯zhen❁52쎯	-9.87886
zai❄5쎯zhi❂32쎯	-9.88006
zhu❄20쎯li❃15쎯	-9.88008
jiang❄9쎯du❄8쎯	-9.88058
fo❂2쎯jiao❁20쎯	-9.88066
xie❂48쎯	-9.88142
jiao❃57쎯du❄8쎯	-9.88162
di❃10쎯	-9.88213
fei❃	-9.88236
wu❂17쎯fa❃2쎯	-9.88259
chu❂42쎯le❅0쎯	-9.88309
.ceng❂6쎯ren❂4쎯	-9.88353
jiang❃19쎯shi❁11쎯	-9.88402
huan❄19쎯	-9.88534
ao❁4쎯	-9.886
lin❂19쎯qiu❁9쎯	-9.88622
rong❂21쎯yi❄119쎯	-9.88628
jia❃17쎯	-9.88776
22쎯chu❁3쎯ban❃6쎯	-9.88798
si❁24쎯te❄5쎯	-9.88804
e❄6	-9.88809
lian❂53쎯meng❂34쎯	-9.88836
zheng❃4쎯ge❃0쎯	-9.88955
ji❃13쎯	-9.89009
mo❄16쎯ren❂1쎯	-9.89042
zuo❃1쎯	-9.89046
mian❄2쎯ji❁64쎯쎃	-9.89095
duo❁5쎯xiang❄24쎯	-9.8912
mu❄24쎯	-9.89153
liang❂11쎯shi❂39쎯	-9.89154
li❂98쎯	-9.89178
bao❄11쎯	-9.89204
xiang❁9쎯hu❄14쎯	-9.89273
xi❁51쎯shou❁1쎯	-9.89399
jia❁13쎯zu❂9쎯	-9.894
chong❂11쎯lei❄16쎯	-9.89401
di❄45쎯liu❄3쎯	-9.89446
diao❄17쎯jie❂69쎯	-9.89472
ling❂114쎯	-9.89536
huan❁7쎯	-9.89538
yan❄45쎯	-9.89541
쎂쎀쎀쎆	-9.89614
xian❃24쎯cun❂1쎯	-9.8962
han❂17쎯you❃11쎯	-9.89624
yi❁10쎯ben❃5쎯	-9.89682
쎇쎄	-9.89703
----------------	-9.89706
hong❂25쎯	-9.89765
dong❄13쎯zuo❄5쎯	-9.89826
jian❃19쎯	-9.89835
yin❃14쎯jin❄61쎯	-9.89845
bo❂52쎯	-9.89882
ke❁34쎯	-9.89963
qing❁3쎯	-9.89975
zhou❁17쎯	-9.90044
55쎯	-9.90053
yu❄67쎯	-9.90098
gan❃8쎯	-9.90144
ji❄117쎯zai❄8쎯	-9.90354
wai❄0쎯guan❁16쎯	-9.90373
bing❃29쎯	-9.90375
jian❁	-9.90464
kun❁9쎯	-9.90474
hao❂14쎯	-9.90496
쎀mu❃2쎯	-9.90527
wang❄2쎯	-9.90562
sa❁2쎯	-9.90665
du❂25쎯te❄5쎯	-9.90678
shou❃4쎯duan❄7쎯	-9.90681
yi❁10쎯shou❃6쎯	-9.907
xue❂14쎯	-9.90711
wei❁12쎯fu❄28쎯	-9.90733
ji❁116쎯dan❄43쎯	-9.9076
zao❃2쎯ji❁47쎯	-9.90799
shu❁38쎯	-9.90887
yun❄7쎯	-9.90904
jiang❄25쎯di❁9쎯	-9.90913
lou❄2쎯	-9.90944
yan❂20쎯ge❂29쎯	-9.90964
wu❃9쎯nian❂6쎯	-9.90972
ru❄2쎯xuan❃8쎯	-9.91024
e❄9	-9.91026
tui❁1쎯dong❄13쎯	-9.91109
da❂14쎯yin❄7쎯	-9.91163
jian❃18쎯shao❃2쎯	-9.91237
tao❂20쎯ci❂20쎯	-9.91259
guo❂11쎯wai❄0쎯	-9.91271
zheng❄17쎯quan❄1쎯	-9.91273
bi❃17쎯	-9.91282
쎁쎉쎆쎂nian❂6쎯	-9.91294
xing❃5쎯	-9.91327
xuan❄	-9.91335
dan❄47쎯	-9.91398
pei❄19쎯zhi❄85쎯	-9.91487
wan❂6쎯mei❃13쎯	-9.91506
쎀fen❁4쎯zhong❁29쎯	-9.91539
xiao❁51쎯	-9.91593
he❂46쎯	-9.91617
dang❄12쎯an❄16쎯	-9.91627
ben❄4쎯yan❄75쎯	-9.91655
shu❁38쎯kuo❄15쎯	-9.91656
ju❂38쎯	-9.9167
yong❄3쎯lai❂16쎯	-9.91686
lun❄1쎯tan❂8쎯	-9.9179
ye❁8쎯	-9.91919
xi❂22쎯	-9.9193
hao❃0쎯ping❂36쎯	-9.9193
dao❃5쎯zhi❄89쎯	-9.91943
jie❂42쎯	-9.91944
wu❁17쎯ran❃11쎯	-9.91994
mi❄24쎯du❄8쎯	-9.92019
niu❃9쎯	-9.92049
mei❂43쎯	-9.92058
bin❁5쎯guan❃15쎯	-9.92078
feng❂5쎯	-9.92087
xia❂39쎯qu❁15쎯	-9.92123
bi❃20쎯li❄51쎯	-9.92193
bang❁5쎯	-9.92279
ge❃0쎯jin❁33쎯	-9.92284
she❂9쎯	-9.92299
chuan❂4쎯mei❂12쎯	-9.92318
ao❂2	-9.92335
lian❂69쎯suo❃23쎯	-9.9235
zhuang❁0쎯	-9.92388
bian❁16쎯yuan❂44쎯	-9.92447
yan❂20쎯chong❂17쎯	-9.92473
hu❂46쎯jiao❁21쎯	-9.92515
zhu❃4쎯zhi❄61쎯	-9.92606
shao❃2쎯shu❄26쎯	-9.92637
luo❄24쎯	-9.92647
ni❄27쎯	-9.92651
shi❂13쎯hang❂16쎯	-9.92677
ben❄4쎯xian❄37쎯	-9.92812
ban❃6쎯ben❃5쎯	-9.92865
shi❂10쎯san❁1쎯	-9.92967
xia❂21쎯	-9.92974
gai❃2쎯shan❄15쎯	-9.93001
tan❄5쎯suo❃18쎯	-9.93005
xiao❃2쎯xing❂9쎯	-9.93043
dang❃2쎯zhi❁21쎯	-9.93082
ge❂38쎯	-9.93129
fang❂4쎯zhi❄61쎯	-9.93253
쎁쎉쎆쎅nian❂6쎯	-9.93259
ying❃11쎯pian❁5쎯	-9.93304
zang❄7쎯	-9.9336
bing❃2쎯	-9.93368
kuo❄7쎯zhan❃11쎯	-9.93406
zhi❄30쎯cheng❂29쎯	-9.93463
qing❁10쎯dai❄9쎯	-9.93494
jian❄77쎯ding❄2쎯	-9.9353
shi❂32쎯	-9.93592
qi❃25쎯wen❁6쎯쎁	-9.93658
jun❁3쎯	-9.93673
wu❂	-9.93749
ge❄3쎯gan❄3쎯	-9.93893
ge❁6쎯	-9.93917
zhi❁16쎯shi❄45쎯	-9.93927
gong❄9쎯	-9.93934
gui❁28쎯	-9.9396
du❄8쎯jia❃2쎯	-9.94023
xiang❂9쎯	-9.941
tuo❃6쎯yuan❂17쎯	-9.94109
wen❂5쎯xian❄35쎯	-9.94217
shui❃0쎯dao❄14쎯	-9.94242
nong❂5쎯hu❄26쎯	-9.94249
di❄58쎯	-9.94311
쎀쎀mo❄16쎯yuan❂10쎯	-9.94318
biao❁14쎯zhi❄47쎯	-9.94326
xian❁39쎯	-9.94353
kuang❄	-9.94375
jun❄13쎯	-9.944
zhao❃3쎯	-9.94453
zong❁16쎯	-9.94469
lan❄6쎯	-9.94485
kong❁9쎯diao❄17쎯	-9.94623
huang❂56쎯jin❁33쎯	-9.94641
xi❁71쎯	-9.94679
fu❄31쎯ge❃0쎯	-9.94698
qi❂6	-9.94716
ge❄3쎯xiang❄24쎯	-9.94895
xin❁13쎯	-9.94937
xia❂10쎯	-9.94977
cai❂2쎯neng❂2쎯	-9.94996
yi❄225쎯	-9.95013
tong❂22쎯	-9.9505
shen❃7쎯ji❄116쎯	-9.95051
qian❁13쎯mi❃19쎯	-9.95063
dui❁9쎯	-9.95079
shen❁18쎯shou❄4쎯	-9.95132
jie❁13쎯chu❄36쎯	-9.95174
ding❄2쎯cha❁3쎯	-9.95268
ju❄14쎯	-9.95281
lao❃17쎯nian❂6쎯	-9.95281
qi❂5	-9.95314
hong❂54쎯	-9.95323
쎂쎀쎀쎈	-9.95466
bao❁5쎯	-9.9555
xiang❁1쎯zhen❄30쎯	-9.95552
zhu❃4쎯yan❃39쎯	-9.95673
na❄15쎯	-9.95702
yue❄41쎯	-9.95715
fen❁4쎯pei❄19쎯	-9.95956
xi❁143쎯ya❄7쎯	-9.95986
cao❃5쎯ben❃5쎯	-9.96219
jun❄	-9.96365
he❄26쎯	-9.96404
la❄28쎯	-9.96405
zeng❁2쎯jiang❄9쎯	-9.96485
cu❄30쎯	-9.96496
tong❂13쎯zhi❄47쎯	-9.96523
zong❁10쎯jiao❁20쎯	-9.96558
wu❃28쎯qi❄20쎯	-9.96653
yue❄56쎯	-9.9666
huang❂34쎯di❄26쎯	-9.96718
gan❁7쎯long❁쎯	-9.96735
feng❁43쎯	-9.96773
fang❃15쎯zhi❁39쎯	-9.96796
lan❃28쎯	-9.96839
ce❄26쎯	-9.96863
mei❃13쎯shi❂39쎯	-9.96907
xiong❂1쎯	-9.96929
si❁16쎯ling❂34쎯	-9.96963
xian❂44쎯	-9.97011
po❄21쎯	-9.97093
쎂쎀쎀쎇	-9.97127
pan❄10쎯	-9.97148
쎃.쎅	-9.97162
you❁5쎯liang❂15쎯	-9.97184
yin❁11쎯su❄56쎯	-9.9727
su❄67쎯	-9.97286
xian❄37쎯shi❂13쎯	-9.9745
yi❁10쎯xiang❄24쎯	-9.97549
dong❁3쎯guan❁11쎯	-9.97554
wei❃48쎯	-9.97576
you❄32쎯	-9.97675
gong❁17쎯han❃11쎯	-9.97699
gang❁5쎯	-9.97704
kui❄	-9.97733
xi❁143쎯cang❂5쎯	-9.97738
ban❁12쎯ya❂12쎯	-9.97748
fan❄17쎯	-9.97786
ji❄59쎯qiao❃3쎯	-9.97838
fu❂62쎯ge❃0쎯	-9.97843
si❄17쎯gan❄3쎯	-9.97851
cheng	-9.97887
ju❄16쎯bei❄26쎯	-9.9792
fu❄74쎯shu❃5쎯	-9.97957
she❂3쎯	-9.97967
dian❄23쎯qi❃25쎯	-9.98004
xie❃4쎯zuo❄5쎯	-9.98017
la❄28쎯jiao❁21쎯	-9.9804
gan❄19쎯	-9.98057
shi❂10쎯yu❂37쎯	-9.98097
jia❁7쎯na❂4쎯da❄0쎯	-9.982
keng❁7쎯	-9.98236
shui❄11쎯wu❄12쎯	-9.98458
chao❂6쎯xian❁57쎯	-9.98473
ge❃0쎯tong❂13쎯	-9.98517
쎂쎀쎀쎃	-9.98542
쎇쎀쎀	-9.98648
gui❁35쎯ze❂11쎯	-9.98697
bai❃4쎯	-9.98701
ren❄30쎯shi❂35쎯	-9.98708
xing❁7쎯ji❂83쎯	-9.98752
dong❄11쎯	-9.98768
yong❄3쎯tu❂38쎯	-9.9877
huai❄0쎯	-9.98905
diao❄17쎯wei❄18쎯	-9.98945
beng❄6쎯	-9.98982
zi❁	-9.98994
chuan❄0쎯	-9.99
zi❁9쎯	-9.99036
lang❂12쎯	-9.99066
xiao❄14쎯yi❄165쎯	-9.99082
qiong❂28쎯	-9.99122
zhi❂32쎯neng❂2쎯	-9.99211
chi❁23쎯zi❃7쎯	-9.99224
xiong❂2쎯hou❄6쎯	-9.99266
gong❁10쎯jian❁25쎯	-9.99281
shou❃6쎯ci❄16쎯	-9.99312
yong❄3쎯pin❃0쎯	-9.99326
chai❂6쎯	-9.99333
fu❄32쎯nv❃0쎯	-9.99349
mo❂12쎯xing❂9쎯	-9.9936
bing❃15쎯	-9.99407
li❂41쎯	-9.99445
bi❃20쎯yu❄28쎯	-9.99591
xiao❄14쎯lv❄15쎯	-9.99596
li❄60쎯	-9.996
wo❄8쎯	-9.99628
xian❄37쎯yi❃15쎯	-9.99644
zuo❄7쎯chu❁3쎯	-9.99645
bao❃9쎯cun❂1쎯	-9.9967
zhun❃0쎯bei❄26쎯	-9.99698
zhuan❄6쎯	-9.9977
duo❁5쎯pian❁7쎯	-9.99894
fen❁19쎯	-9.99906
xun❂16쎯huan❂20쎯	-10.0001
shi❄45쎯fou❃0쎯	-10.0001
쎃쎀쎀쎀	-10.0002
xing❄15쎯	-10.0002
fang❃18쎯wen❄6쎯	-10.0006
.xian❄37쎯wei❄14쎯	-10.0012
biao❃5쎯da❂30쎯	-10.0018
ri❄2쎯chang❂15쎯	-10.0027
di❁15쎯	-10.0038
yang❃4쎯	-10.0038
chuan❂4쎯》	-10.0043
zhi❁40쎯	-10.0049
peng❂8쎯	-10.0049
wei❂51쎯	-10.0049
fa❁1쎯dian❄23쎯	-10.005
uan❂	-10.0051
shui❃0쎯ku❄6쎯	-10.0055
li❄51쎯ru❂9쎯	-10.0057
su❄	-10.0057
쎁쎆쎀	-10.0058
ge❁11쎯	-10.006
fa❃2쎯yuan❄18쎯	-10.0065
guo❂11쎯dao❄24쎯	-10.0067
쎁쎉쎇쎀nian❂6쎯	-10.0073
dong❃8쎯	-10.0076
jin❄61쎯xiu❁11쎯	-10.0077
fa❁1쎯ming❂8쎯	-10.008
bao❁4쎯han❂17쎯	-10.0082
fan❄15쎯	-10.0085
jia❁13쎯peng❂7쎯	-10.0099
ye❃1쎯ke❃4쎯yi❃10쎯	-10.0102
zui❄15쎯	-10.0109
jie❁13쎯rang❃3쎯	-10.0111
gong❁10쎯qing❃10쎯	-10.0113
ju❄30쎯da❄0쎯	-10.0113
tui❁1쎯jin❄61쎯	-10.0119
bei❄26쎯yong❄3쎯	-10.0123
wu❁17쎯	-10.0126
lin❂32쎯	-10.0128
wu❄1	-10.0136
ju❄14쎯le❄3쎯	-10.015
mo❂12쎯ni❃11쎯	-10.0154
bang❃2쎯	-10.0159
zu❃7쎯zhang❃6쎯	-10.0159
mai❄12쎯	-10.0161
quan❂	-10.0162
jian❁52쎯cha❂12쎯	-10.0165
juan❄	-10.017
shuang❃7쎯	-10.0185
qian❄2	-10.0186
yi❁10쎯zhi❁21쎯	-10.0193
ba❄25쎯	-10.0199
qing❁10쎯hua❂14쎯	-10.0206
hui❄79쎯hua❄18쎯	-10.0207
bo❁8쎯	-10.0219
guan❃9쎯xia❂39쎯	-10.0226
kan❁9쎯dao❄3쎯	-10.0238
gan❃6쎯jue❂104쎯	-10.024
zhi❂25쎯shu❃5쎯	-10.0243
쎁쎂쎈	-10.0245
jian❁14쎯ren❂4쎯	-10.0252
ben❃9쎯	-10.0255
jian❃	-10.0261
hou❂11쎯	-10.0262
쎁쎉쎇쎆nian❂6쎯	-10.0267
jin❄20쎯	-10.0271
xie❂14쎯yi❄214쎯	-10.0293
jue❂76쎯	-10.0296
xiang❄12쎯	-10.03
yao❂20쎯	-10.031
gou❃3쎯	-10.0318
bian❄16쎯jie❂42쎯	-10.0322
yi❁12쎯ju❁18쎯	-10.0323
dou❄18쎯fu❃28쎯	-10.0327
qi❂111쎯	-10.0328
po❄17쎯huai❄0쎯	-10.0334
kan❁4쎯	-10.0335
zi❄16쎯wo❃3쎯	-10.0335
shi❄31쎯fu❄28쎯	-10.0337
hai❃1쎯jun❁2쎯	-10.0339
nai❄2쎯	-10.034
zui❄4쎯hao❃0쎯	-10.034
wu❄36쎯qiu❁9쎯	-10.0345
zhu❃4쎯ban❄4쎯	-10.0347
ping❂17쎯heng❂14쎯	-10.0349
yi❄226쎯	-10.0351
zhu❁	-10.0351
jing❄31쎯	-10.0355
guan❁4쎯jian❄85쎯	-10.0358
shi❁20쎯	-10.0363
ping❂7쎯	-10.0366
ji❄117쎯》	-10.0366
ban❁15쎯	-10.037
xian❃24쎯zhao❂쎯	-10.0372
cang❁7쎯	-10.0375
dian❄	-10.0376
qu❁17쎯	-10.0385
pei❄19쎯ge❃0쎯	-10.0386
ri❄2쎯bao❄10쎯	-10.0389
mao❂18쎯	-10.0394
zi❄16쎯zhu❃4쎯	-10.0398
쎂쎀쎀쎉	-10.04
yi❄10	-10.0401
piao❁4쎯	-10.0402
qiu❂36쎯dui❄33쎯	-10.0403
kong❃2쎯	-10.0405
zi❁13쎯	-10.0408
jiang❄22쎯you❂24쎯	-10.0413
sun❃7쎯	-10.044
bang❄9쎯	-10.0442
xie❂14쎯zhu❄20쎯	-10.0443
jun❁6쎯chun❂18쎯	-10.0447
xiang❄10쎯	-10.0452
gu❃59쎯gan❁16쎯	-10.0467
ge❃0쎯fei❂1쎯	-10.0469
lv❄11쎯	-10.0482
쎅ping❂17쎯fang❁4쎯	-10.0488
dang❄23쎯	-10.049
ci❂35쎯	-10.0491
jiao❁8쎯jie❄29쎯	-10.0497
shou❄15쎯	-10.0498
zhi❄56쎯hui❄51쎯	-10.0499
huo❄50쎯jiang❃8쎯	-10.0513
si❁16쎯fa❃2쎯	-10.0516
zan❄5쎯	-10.0525
feng❁58쎯xian❃46쎯	-10.0526
fei❁19쎯hang❂16쎯	-10.0528
zhen❁44쎯	-10.0529
ling❂36쎯	-10.0538
ao❄9쎯	-10.0544
ji❂74쎯	-10.0544
zhu❄31쎯chong❂17쎯	-10.0545
fa❂5쎯	-10.0549
yi❁10쎯dao❄24쎯	-10.0572
zui❄4쎯ju❄16쎯	-10.059
fei❁19쎯ji❁48쎯	-10.0605
ceng❂3쎯ci❄16쎯	-10.061
san❃7쎯wen❂5쎯	-10.0611
jin❄61쎯cheng❂52쎯	-10.0614
lv❄9쎯shi❁11쎯	-10.0614
sheng❁16쎯yu❄93쎯	-10.0616
jie❂69쎯neng❂2쎯	-10.0618
zhuo❂8쎯	-10.0618
쎀쎀쎀ping❂17쎯	-10.0627
xun❄28쎯	-10.063
pan❁4쎯	-10.0634
wu❄48쎯	-10.0636
xie❂16쎯pian❁5쎯	-10.0638
li❃15쎯jie❃6쎯	-10.0638
fu❄57쎯	-10.0644
jian❄29쎯yi❄214쎯	-10.0651
qing❄3쎯yin❁44쎯	-10.0656
ji❁34쎯yin❁11쎯	-10.0669
쎁.쎀	-10.0673
jiu❄23쎯qiu❁9쎯	-10.0684
쎁쎉쎇쎅nian❂6쎯	-10.0691
jian❄50쎯	-10.0692
jiu❁16쎯	-10.0693
wo❁	-10.0697
쎁쎉쎆쎀nian❂6쎯	-10.07
cuo❄7쎯shi❁13쎯	-10.0704
you❁11쎯jiu❃1쎯	-10.0706
쎁쎈쎀	-10.0706
gai❃2쎯zao❄16쎯	-10.0708
hun❄10쎯	-10.0713
mo❂12쎯fan❄22쎯	-10.072
ying❂58쎯de❂7쎯	-10.0721
cui❄32쎯	-10.0722
yi❁10쎯pi❁11쎯	-10.0729
hua❄18쎯mian❄2쎯	-10.073
쎁쎉쎆쎈nian❂6쎯	-10.0737
kou❄7쎯	-10.0738
sha❁17쎯	-10.075
xian❂54쎯	-10.0766
kuai❄18쎯le❄3쎯	-10.0774
ya❂7쎯	-10.0785
lv❃14쎯hang❂16쎯	-10.0786
ji❄117쎯zhe❃2쎯	-10.0789
han❄29쎯	-10.0793
lei❄16쎯si❄10쎯	-10.0796
lian❃12쎯	-10.0798
le❄3쎯dui❄33쎯	-10.08
ke❁	-10.0803
chuang❄1쎯yi❄109쎯	-10.0809
ke❃4쎯kao❄5쎯	-10.0814
huo❄56쎯wu❄36쎯	-10.0827
ben❃5쎯pin❃0쎯	-10.083
e❂2	-10.0842
쎁쎉쎅쎅nian❂6쎯	-10.0844
han❂25쎯	-10.0851
tu❂14쎯xiang❄4쎯	-10.0854
mu❃6쎯qin❁4쎯	-10.0856
ju❃9쎯	-10.0857
xiao❄23쎯	-10.086
luo❁4쎯ma❃14쎯	-10.0867
ren❃1쎯	-10.0869
di❄45쎯qi❁9쎯	-10.0881
long❃	-10.0886
rong❂36쎯	-10.0889
hao❂25쎯hua❂14쎯	-10.089
xiong❁2쎯di❄27쎯	-10.0894
°C,nian❂6쎯	-10.0896
xun❁3쎯	-10.0908
chun❁6쎯qiu❁16쎯	-10.0927
zhi❃19쎯biao❁14쎯	-10.0931
zong❁31쎯	-10.0945
zheng❄17쎯shu❁8쎯	-10.0949
shou❃6쎯jie❄19쎯	-10.0954
zhu❃4쎯ben❄4쎯	-10.096
zhao❄9쎯	-10.0973
xiu❄11쎯	-10.0973
쎅fen❁4쎯zhong❁29쎯	-10.0974
yi❄217쎯	-10.0984
ang❁10쎯sheng❃9쎯	-10.0992
lian❂53쎯sai❄4쎯	-10.0997
mi❂15쎯	-10.0998
hei❁3쎯long❂63쎯ji	-10.1001
liao❄8쎯jiu❃12쎯	-10.1009
lai❂16쎯shuo❁2쎯	-10.1018
quan❂12쎯wei❁13쎯	-10.1018
wu❁	-10.1018
jin❄61쎯kou❃1쎯	-10.1027
xia❄3쎯xia❂39쎯	-10.103
bi❄73쎯	-10.103
liu❂20쎯dong❄13쎯	-10.1034
da❄0쎯sha❄6쎯	-10.1034
fu❂60쎯zhou❁9쎯	-10.1044
쎁쎉쎅쎀nian❂6쎯	-10.1045
쎂쎀shi❄15쎯ji❄94쎯	-10.1047
kuang❁9쎯	-10.1048
shen❁40쎯fen❄2쎯	-10.1054
fu❂93쎯she❄8쎯	-10.1057
ao❄14쎯yun❃16쎯	-10.1065
dong❄13쎯man❄13쎯	-10.1066
fu❄41쎯mu❃6쎯	-10.1073
ao❄25쎯da❄0쎯	-10.1078
deng❁10쎯ji❄117쎯	-10.1079
hu❁17쎯xi❁51쎯	-10.1082
zhuan❁1쎯zhao❂쎯	-10.1085
쎁쎉쎅쎇nian❂6쎯	-10.1089
jian❁25쎯ta❄26쎯	-10.1097
쎅li❂32쎯mi❃19쎯	-10.1099
cai❂9쎯jing❁27쎯	-10.1099
guan❁4쎯jie❂69쎯	-10.1107
xian❄37쎯chang❃4쎯	-10.1109
ang❂7쎯	-10.1118
zhuo❁8쎯	-10.1119
si❃0쎯wang❂0쎯	-10.1122
쎂쎀쎁쎁	-10.1131
can❁13쎯ting❁3쎯	-10.1132
jian❃36쎯cha❂12쎯	-10.1132
geng❁17쎯	-10.1135
shi❂39쎯wu❄36쎯	-10.1138
xing❄12쎯fu❂60쎯	-10.1144
gong❄3쎯xiang❃3쎯	-10.1149
mei❂30쎯	-10.1159
tu❃1쎯rang❃3쎯	-10.116
ji❁21쎯gan❄3쎯	-10.116
zhuan❄6쎯xie❃4쎯	-10.1164
gu❁9쎯	-10.117
jiu❄23쎯du❂34쎯	-10.1172
ji❁21쎯hu❁13쎯	-10.1174
zhai❂1쎯	-10.1174
gou❁9쎯	-10.1176
xia❄3쎯zai❄8쎯	-10.1176
xiang❁9쎯lian❂69쎯	-10.1177
zhi❃19쎯ding❄2쎯	-10.1182
cao❂10쎯	-10.119
wu❄26쎯	-10.1192
cong❂5쎯shu❁8쎯	-10.1194
chu❁4쎯ji❂83쎯	-10.1194
wei❃15쎯	-10.1196
tou❄4쎯ming❂8쎯	-10.1197
fen❁4쎯chi❁23쎯	-10.1201
fan❂26쎯	-10.1203
zao❃9쎯	-10.1205
hua❁11쎯xu❄36쎯	-10.1207
han❄33쎯yu❃44쎯	-10.1208
luo❂	-10.1209
man❄11쎯xing❄13쎯	-10.1215
nao❄3쎯	-10.1218
guan❄31쎯	-10.1218
pei❄19쎯jian❄15쎯	-10.1222
kan❁3쎯wu❄36쎯	-10.1233
쎁쎉쎅쎂nian❂6쎯	-10.1233
쎁.쎂	-10.1245
gao❁16쎯	-10.1247
shui❄9쎯	-10.126
du❂34쎯shu❁8쎯	-10.1265
gou❄	-10.127
yue❄25쎯	-10.1272
ying❁11쎯	-10.1272
dai❄45쎯	-10.1278
dun❄	-10.1288
liang❃5쎯ce❄8쎯	-10.1288
cu❄9쎯	-10.129
쎅쎀쎀쎀	-10.1291
chao❂3쎯	-10.1291
bi❃24쎯ji❄117쎯	-10.1292
qiang❃2쎯	-10.1295
fou❃0쎯	-10.1301
an❄10쎯	-10.1301
jie❄24쎯	-10.1311
xiang❁9쎯ying❁17쎯	-10.1312
kuo❄7쎯da❄0쎯	-10.1322
chui❁1쎯	-10.1327
you❃11쎯xie❁3쎯	-10.1327
bo❁2	-10.133
gui❁35쎯lv❄9쎯	-10.1331
쎁쎉쎆쎉nian❂6쎯	-10.1332
you❁5쎯hua❁1쎯	-10.1341
yi❄109쎯shi❂35쎯	-10.1354
yao❄11쎯	-10.1359
ming❂8쎯dai❄9쎯	-10.136
gui❁46쎯	-10.1361
wei❂41쎯	-10.1369
rao❃1쎯	-10.1373
zai❃4쎯	-10.1376
jian❄29쎯zao❄16쎯	-10.1376
shui❃0쎯ni❂15쎯	-10.1377
a❁3쎯	-10.1378
rong❂50쎯ge❃0쎯	-10.1379
shou❃6쎯dou❁12쎯	-10.1394
cuo❄	-10.1399
yi❁12쎯tuo❁6쎯	-10.1399
duan❄	-10.14
li❄68쎯	-10.1402
li❄108쎯	-10.141
쎀.쎂	-10.1412
di❂41쎯zheng❄12쎯	-10.1413
bian❁13쎯ma❃8쎯	-10.1414
zhuan❄9쎯	-10.1416
shang❁4쎯biao❁14쎯	-10.1423
zhi❃40쎯	-10.1423
cai❂3쎯zhi❄104쎯	-10.1431
xiu❄19쎯gang❁32쎯	-10.1442
dian❄23쎯zhan❄17쎯	-10.1448
bai❂2쎯tang❂28쎯	-10.1448
chen❂38쎯	-10.1454
yi❂28쎯	-10.1454
xiang❁19쎯	-10.1461
wu❃37쎯si❄15쎯	-10.1464
zhu❄35쎯	-10.1465
zuo❄5쎯qu❁25쎯	-10.1468
gong❁10쎯yu❄35쎯	-10.1476
bian❄38쎯	-10.1476
qiao❁28쎯	-10.1481
yan❄25쎯	-10.1485
쎁쎉쎆쎆nian❂6쎯	-10.1492
bao❄10쎯dao❄24쎯	-10.1498
shu❁12쎯	-10.1501
pu❂22쎯	-10.1504
hei❁3쎯long❂63쎯	-10.1506
쎀.쎁	-10.1511
dao❄14쎯	-10.1514
chun❂11쎯	-10.1516
jin❄61쎯shi❄28쎯	-10.1527
쎁쎉쎇쎂nian❂6쎯	-10.1527
chuang❄1쎯shi❃9쎯	-10.1543
.쎂、	-10.1545
quan❃3쎯	-10.1549
fa❂4쎯	-10.1554
ying❂4	-10.156
li❄155쎯	-10.1564
hui❂1쎯:“	-10.1566
xun❄26쎯	-10.157
yun❃7쎯	-10.1576
er❂16쎯qie❃쎯	-10.1582
ping❂7쎯jie❄15쎯	-10.1591
shi❁33쎯ge❁16쎯	-10.1593
wen❁6쎯zhou❁9쎯	-10.1596
mian❃10쎯yi❄159쎯	-10.1603
ci❂24쎯	-10.1608
쎁쎉쎅쎉nian❂6쎯	-10.1609
ying❂36쎯	-10.1612
gou❃2쎯zao❄16쎯	-10.1613
eng❂29쎯yuan❂15쎯	-10.1618
nu❄2쎯	-10.1622
yu❄109쎯	-10.1624
you❁10쎯	-10.1633
yi❃24쎯	-10.1648
yu❄104쎯	-10.1649
meng❃3쎯	-10.1659
long❄5쎯	-10.1669
geng❃8쎯	-10.167
che❁8쎯liang❄10쎯	-10.1671
ji❁64쎯lei❃25쎯	-10.1677
yao❁8쎯	-10.1683
mei❄	-10.1691
er❃12쎯ji❁48쎯	-10.1692
fu❄72쎯	-10.1696
ci❄23쎯	-10.1698
shi❁16쎯du❄8쎯	-10.1702
qiong❂23쎯	-10.1706
zao❄2쎯	-10.1711
shu❄26쎯shi❂10쎯	-10.1718
쎂쎀쎀쎅	-10.1723
fa❁1쎯she❄8쎯	-10.1725
wei❂7쎯	-10.1726
xiao❁29쎯hua❁1쎯	-10.1732
ke❁7쎯	-10.1733
guan❁16쎯cha❂12쎯	-10.1744
hui❄51쎯	-10.1745
kun❁9쎯ming❂8쎯	-10.1746
gan❁16쎯zao❄6쎯	-10.1754
an❃7쎯	-10.1759
jiao❁8쎯huan❄21쎯	-10.1771
shao❃2쎯nv❃0쎯	-10.1772
xuan❁39쎯	-10.1772
qiu❂19쎯jie❂67쎯	-10.1776
tui❁1쎯jian❄58쎯	-10.1778
zi❁45쎯xun❄26쎯	-10.1779
jia❁7쎯po❁2쎯	-10.1782
dang❃2쎯zu❃7쎯ch	-10.1783
chuan❂4쎯ji❁36쎯	-10.1783
쎁쎉쎅쎄nian❂6쎯	-10.1784
yi❄159쎯	-10.1795
dong❃6쎯	-10.1799
chen❂20쎯	-10.1802
shen❂2쎯bi❄100쎯	-10.1805
fu❃34쎯dao❃5쎯	-10.1807
fu❃34쎯zhu❄20쎯	-10.1816
쎁쎉쎅쎃nian❂6쎯	-10.1831
fu❃24쎯	-10.184
lv❄12쎯	-10.1852
chang❂6쎯	-10.1855
han❄33쎯shu❁8쎯·	-10.1878
ying❁17쎯gai❁13쎯	-10.1893
yi❂54쎯	-10.1896
a❁6쎯er❃6쎯	-10.1899
chai❁2쎯	-10.1911
쎁쎉쎇쎄nian❂6쎯	-10.1917
shu❃16쎯	-10.1922
tian❁7쎯jia❁7쎯	-10.1932
gu❃14쎯dian❃5쎯	-10.1933
shu❁44쎯	-10.1937
jian❁25쎯she❄29쎯	-10.1938
쎁쎉쎆쎁nian❂6쎯	-10.1947
xian❁	-10.1948
lu❄92쎯	-10.195
zhui❁6쎯	-10.1959
li❃28쎯	-10.1959
ping❂36쎯gu❁4쎯	-10.1962
e❂45쎯	-10.1969
tun	-10.1987
guang❁2쎯xu❄68쎯	-10.1996
dong❁3쎯jing❁3쎯	-10.2005
mou❃2쎯xie❁3쎯	-10.2006
qing❁16쎯song❁11쎯	-10.2018
pa❄1쎯	-10.2023
zhuan❁1쎯zhu❄31쎯	-10.2023
wu❂17쎯xi❁161쎯	-10.2026
fa❁1쎯yu❄93쎯	-10.2028
qing❁10쎯xi❁83쎯	-10.2033
jie❂67쎯shu❄27쎯	-10.2053
shuai❄1쎯	-10.2056
yuan❂12쎯shi❃9쎯	-10.2058
juan❁9쎯	-10.2061
han❄2	-10.2062
pin❂15쎯dao❄24쎯	-10.2077
liang❄	-10.2079
su❁10쎯lian❂53쎯	-10.2088
jian❁52쎯ce❄22쎯	-10.2091
yun❄14쎯	-10.2092
zhun❃0쎯que❄26쎯	-10.2093
peng❂26쎯	-10.2097
----	-10.2102
han❂15쎯shu❄26쎯	-10.2102
jing❄44쎯tou❂4쎯	-10.2112
qi❃13쎯dong❄13쎯	-10.212
kan❁5쎯	-10.2123
ling❂95쎯	-10.2123
liao❂29쎯	-10.2127
mian❂16쎯	-10.2127
e❄81쎯	-10.2128
zhuan❃4쎯huan❄21쎯	-10.2137
bo❂40쎯	-10.2138
nian	-10.2139
shu❃14쎯	-10.2142
쎁쎉쎇쎇nian❂6쎯	-10.2149
chong❃2쎯	-10.2159
zhang❁6쎯	-10.2162
쎂쎀쎀쎄	-10.217
sang❄0쎯	-10.2171
hu❄36쎯	-10.2171
ji❄117쎯yi❄104쎯	-10.2172
shao❄10쎯	-10.2185
tang❂13쎯dai❄9쎯	-10.219
weng❁6쎯	-10.2202
ke❄14쎯yun❃16쎯	-10.2204
an❄16쎯li❄51쎯	-10.2205
can❁3쎯mou❂17쎯	-10.2214
guan❁16쎯yin❂10쎯	-10.2222
lan❃24쎯	-10.2227
pou❁1쎯	-10.2229
shi❄89쎯cha❁3쎯	-10.2241
zhao❄18쎯pian❁5쎯	-10.2249
bei❄55쎯	-10.2257
dai❄15쎯ling❃2쎯	-10.2259
qu❁49쎯dong❄13쎯	-10.2261
shen❄9쎯	-10.227
ying❁67쎯	-10.2277
shou❃6쎯pi❁11쎯	-10.23
she❄13쎯	-10.2302
쎀mi❃19쎯,nian❂6쎯	-10.2306
na❃3쎯xie❁3쎯	-10.2317
cun❄2쎯	-10.2325
qing❁7쎯	-10.2328
chan❃12쎯dang❃2쎯.	-10.2335
fan❂35쎯hua❂14쎯	-10.234
shi❁33쎯ci❂29쎯	-10.2342
che❄24쎯	-10.2347
huang❂2	-10.2354
duan❃0쎯xin❄8쎯	-10.2357
wei❃	-10.2368
kui❁	-10.2375
bai❃9쎯xing❄9쎯	-10.2376
nian❂6쎯ling❂114쎯	-10.2377
bi❄144쎯	-10.238
mu❄13쎯	-10.2397
wei❄14쎯zhun❃0쎯.	-10.2421
zhuo❁	-10.2421
쎁쎉쎇쎃nian❂6쎯	-10.2427
kan❃7쎯	-10.2429
hu❄46쎯	-10.244
juan❁	-10.2445
wen❂5쎯ming❂7쎯:	-10.245
gao❁20쎯dang❄12쎯	-10.2452
쎈ping❂17쎯fang❁4쎯	-10.2457
chi❂55쎯	-10.2461
쎁쎉쎃쎈nian❂6쎯	-10.2461
qing❁20쎯chun❁6쎯	-10.2464
lu❄83쎯jun❁2쎯	-10.2464
luo❄17쎯yang❂35쎯	-10.2473
luan❃0쎯xing❂11쎯	-10.2477
wei❂21쎯	-10.248
po❂3쎯	-10.2481
bao❄10쎯kan❁3쎯	-10.2482
gong❁10쎯yi❄165쎯	-10.2483
ji❄95쎯cheng❂30쎯	-10.2488
gai❄22쎯	-10.2489
chu❂15쎯	-10.249
chui❂10쎯	-10.2496
hu❄14쎯dong❄13쎯	-10.2499
jian❄85쎯pan❂10쎯	-10.2504
di❄45쎯ba❁9쎯	-10.2511
zhe❄9쎯	-10.2512
lan❂13쎯zhou❁9쎯	-10.2516
si❁24쎯tan❃4쎯	-10.2521
mu❄22쎯lu❄35쎯	-10.2523
jiao❃22쎯ban❄11쎯	-10.253
guan❄23쎯mu❄15쎯	-10.2531
fang❂4쎯zhi❃22쎯	-10.2538
lang❂17쎯	-10.254
xu❄73쎯	-10.254
jue❂33쎯ce❄26쎯	-10.2548
yan❁17쎯	-10.2549
xi❂9쎯guan❄12쎯	-10.255
gu❃42쎯piao❄5쎯	-10.255
sheng❄	-10.2563
tang❂	-10.2571
zhi❁16쎯yao❁17쎯	-10.2578
❃6쎯fang❄0쎯jun❁2쎯	-10.2586
ren❂1쎯min❂22쎯jie	-10.2588
jian❄17쎯shen❁40쎯	-10.2593
fang❂2쎯wu❁8쎯	-10.2594
zhuan❃4쎯yi❂61쎯	-10.2601
na❃3쎯ma❅1쎯	-10.2601
xi❁51쎯yin❃14쎯	-10.2602
diao❄5쎯	-10.2602
쎁쎉쎄쎅nian❂6쎯	-10.2606
kun❁9쎯chong❂14쎯	-10.2606
chu❄29쎯mu❄20쎯	-10.2606
liu❂31쎯	-10.2618
fu❄26쎯	-10.262
sou❁9쎯suo❃18쎯	-10.2622
zhao❃3쎯dao❄3쎯	-10.2622
wei❄16쎯xing❁7쎯	-10.2628
ling❂95쎯qing❄3쎯	-10.263
huang❃	-10.2634
you❄28쎯	-10.2642
sui❂8쎯	-10.2644
쎆ping❂17쎯fang❁4쎯	-10.2645
niu❃9쎯yue❁1쎯	-10.2646
.",()	-10.2649
.("/////	-10.2652
60쎯	-10.2653
tao❂9쎯	-10.2656
쎀쎈쎀쎁);	-10.2656
ting❃12쎯	-10.266
che❄20쎯	-10.2675
jiao❁8쎯hui❄60쎯	-10.2675
wo❁5쎯	-10.2678
sha❁18쎯	-10.268
hu❄30쎯li❃15쎯	-10.2685
jian❁68쎯	-10.2686
deng❃2쎯zhi❂32쎯.	-10.2687
ke❁34쎯li❄144쎯	-10.2694
ta❄43쎯	-10.27
zheng❁22쎯que❄26쎯	-10.2701
die❂56쎯	-10.2704
kuai❄18쎯jie❂42쎯	-10.2704
ji❁54쎯guang❁2쎯	-10.272
wei❁10쎯xian❃46쎯	-10.2721
si❁22쎯wei❂38쎯	-10.2721
shen❁23쎯qing❃9쎯	-10.2724
qian❁35쎯	-10.2731
shao❄12쎯	-10.2744
qin❂28쎯	-10.2748
zha❄	-10.2765
han❃15쎯	-10.277
(쎁쎉쎁	-10.2779
zei❂3쎯	-10.2784
shu❁8쎯ji❂81쎯	-10.2793
liao❂	-10.2795
mo❄37쎯	-10.2801
wang❁6쎯	-10.2805
wang❃7쎯wang❃7쎯	-10.2809
zhu❄31쎯:“	-10.2823
tui❄8쎯xiu❁9쎯	-10.283
wen❁6쎯quan❂17쎯	-10.2839
yan❃45쎯	-10.284
zhang❄19쎯ai❄33쎯	-10.2842
piao❁11쎯	-10.2843
dou❄1	-10.2848
nu❂1쎯	-10.2849
tu❄1쎯	-10.2856
fei❁15쎯zhou❁11쎯	-10.2863
yin❃37쎯shi❂39쎯	-10.2868
qiu❂	-10.2883
jiang❃16쎯	-10.289
gu❄23쎯ke❄14쎯	-10.2894
mang❂29쎯	-10.2895
ce❄26쎯lve❄11쎯	-10.29
shi❂35쎯bie❂4쎯	-10.2916
ku❁14쎯	-10.292
rui❄1	-10.2929
shao❂3쎯	-10.293
xi❁56쎯	-10.293
xiu❁11쎯gai❃2쎯	-10.2936
jia❄9쎯	-10.2938
you❂	-10.2946
zhi❁43쎯fang❂3쎯	-10.2947
shao❂	-10.2954
sui❃6쎯	-10.2975
kang❁6쎯xi❁107쎯	-10.2983
ju❃16쎯	-10.2992
(xue❂6쎯ming❂7쎯:)	-10.2997
bie❂4쎯shu❄18쎯	-10.3
ye❃2쎯jin❁33쎯	-10.3008
쎂ping❂17쎯fang❁4쎯	-10.3009
xiang❁9쎯si❄10쎯	-10.3013
쎁쎉쎅쎁nian❂6쎯	-10.3015
sou❁9쎯	-10.3017
ken❃	-10.304
fan❂	-10.3041
xin❁17쎯	-10.3044
ci❂26쎯	-10.3048
쎁쎉쎃쎄nian❂6쎯	-10.3049
lu❄53쎯	-10.3057
ping❂36쎯lun❄1쎯	-10.3074
san❃5쎯	-10.3077
pu❂1	-10.308
wei❂11쎯rao❄2쎯	-10.3087
mo❂12쎯ju❄16쎯	-10.3103
su❁13쎯	-10.3104
쎁쎉쎄쎈nian❂6쎯	-10.3106
xing❄8쎯qu❄11쎯	-10.3107
rong❂43쎯	-10.311
xie❁3쎯	-10.3114
sheng❂5쎯	-10.3116
man❃4쎯yi❄109쎯	-10.3124
ci❁2쎯ji❁54쎯	-10.3125
bi❄100쎯mi❄24쎯	-10.3135
zhu❂24쎯bu❄28쎯	-10.3138
jian❁52쎯kong❄1쎯	-10.3139
xiao❁8쎯	-10.3139
liu❂21쎯lan❃28쎯	-10.3145
shuo❄15쎯	-10.315
hui❁12쎯	-10.3153
쎁쎉쎇쎁nian❂6쎯	-10.3162
rao❂9쎯	-10.3169
yu❁	-10.3173
luan❂1	-10.3176
su❂0쎯cheng❁28쎯	-10.3182
쎀쎀yu❂37쎯ren❂1쎯	-10.3187
shi❄19쎯	-10.3204
huang❂3	-10.3219
zhuang❄5쎯kuang❄1	-10.3221
gong❃12쎯	-10.3227
ji❂81쎯guan❄33쎯	-10.3227
lv❃11쎯	-10.3246
xie❄55쎯	-10.3247
xi❁65쎯la❄20쎯	-10.3256
tu❁4쎯	-10.3257
ji❂107쎯	-10.3259
ne❅쎯	-10.3261
dun❁9쎯	-10.3262
xiu❄8쎯li❄50쎯	-10.3267
hang❂8쎯	-10.3272
qi❁22쎯	-10.3274
bao❃27쎯	-10.3275
cha❁11쎯cao❂10쎯	-10.3281
lie❄34쎯shi❄28쎯	-10.3281
chao❁6쎯	-10.3286
qun❂6쎯dao❃7쎯	-10.3287
cheng❁18쎯	-10.3297
yong❁17쎯	-10.3299
yuan❁16쎯	-10.3303
ji❄94쎯wei❁12쎯	-10.3303
nv❃0쎯hai❂6쎯	-10.3305
fang❃15쎯	-10.3321
hen❂2쎯	-10.3321
tan❂21쎯	-10.3327
xie❄54쎯	-10.3333
tuo❂31쎯	-10.3339
dian❄24쎯	-10.3352
쎀쎀gong❁10쎯li❃26쎯	-10.3368
cui❁6쎯	-10.3382
ou❁1	-10.3394
xi❁9	-10.3402
xu❄68쎯	-10.3415
ca❁4쎯	-10.3425
duo❄	-10.3426
cai❃11쎯qu❃1쎯	-10.3426
gao❁13쎯	-10.343
gou❁23쎯	-10.3445
chui❂5쎯zhi❂25쎯	-10.3467
xie❄80쎯	-10.348
gan❁2	-10.3481
yu❄35쎯	-10.3492
li❄98쎯	-10.3495
biao❁	-10.3502
min❂22쎯bi❄51쎯	-10.3505
gan❁16쎯cheng❁10쎯	-10.3505
gong❃1	-10.3512
(-)	-10.3514
chou❂12쎯	-10.3518
tai❄	-10.3519
ying❂	-10.3527
xun❂11쎯zhao❃3쎯	-10.3535
han❂25쎯gai❄17쎯	-10.3537
long❂	-10.3545
zhan❄10쎯yi❄103쎯	-10.355
feng❁2	-10.3553
tiao❂9쎯li❄51쎯	-10.3558
zhuo❂8쎯yue❄46쎯	-10.3563
lan❂36쎯qiu❂36쎯	-10.3586
jie❂63쎯	-10.3601
gao❃5쎯	-10.3602
ao❁8쎯	-10.3603
gan❁7쎯	-10.3606
cong❁36쎯	-10.3621
mei❂47쎯	-10.3639
tan❄5쎯tao❃3쎯	-10.3643
jiao❁20쎯lian❄22쎯	-10.3653
chan❃45쎯shu❄47쎯	-10.3667
shuang❁11쎯	-10.367
쎁쎉쎃쎅nian❂6쎯	-10.3675
tu❁14쎯po❄17쎯	-10.3677
meng❄8쎯xiang❃6쎯	-10.3682
쎁쎉쎃쎇nian❂6쎯	-10.3701
ji❄55쎯	-10.3704
chi❄3	-10.3705
tao❁16쎯	-10.3716
kong❄1쎯gu❃42쎯	-10.3722
gou❄26쎯mai❃0쎯	-10.373
dian❄7쎯	-10.3738
shang❁4쎯mao❄39쎯	-10.3739
ban❁7쎯	-10.3746
zhe❂16쎯	-10.3746
jia❂	-10.3749
hun❂11쎯ning❂6쎯	-10.375
chu❄29쎯	-10.3752
xiong❁2쎯	-10.3765
쎀.쎃	-10.3766
zhai❁2쎯	-10.3766
ban❄11쎯	-10.3774
qi❄22쎯	-10.3775
zhang❄18쎯	-10.378
ya❁7쎯suo❁15쎯	-10.3784
long❂40쎯	-10.3797
쎁쎈쎉	-10.38
fu❃2	-10.3819
guo❄2쎯lv❄12쎯	-10.3828
yue❄29쎯쎂쎈ri❄2쎯	-10.3855
ren❄30쎯zhen❁30쎯	-10.3871
feng❂17쎯	-10.3873
huan❄12쎯	-10.3874
쎁쎉쎄쎇nian❂6쎯	-10.3876
chuang❁8쎯	-10.3879
fen❄	-10.3881
fei❁4쎯	-10.3889
suo❁	-10.3896
쎃ping❂17쎯fang❁4쎯	-10.3899
yu❄28쎯	-10.391
cheng❂45쎯	-10.3913
huan❂1	-10.3913
pan❂4쎯	-10.3914
lu❂14쎯	-10.3921
na❃2쎯	-10.3936
can❂19쎯	-10.3945
lei❄10쎯	-10.3946
qin❁16쎯	-10.3946
tie❁0쎯	-10.3948
쎁쎉쎄쎆nian❂6쎯	-10.396
xu❁29쎯ni❃11쎯	-10.3961
쎂쎀쎁쎄nian❂6쎯	-10.3962
(쎃)	-10.3963
fan❄17쎯zui❄11쎯	-10.3964
bi❄117쎯	-10.3965
mao❄18쎯	-10.399
쎀쎀hao❂14쎯mi❃19쎯	-10.4002
ju❄7	-10.4003
ping❂30쎯guo❃3쎯	-10.4013
쎄ping❂17쎯fang❁4쎯	-10.4013
dun❄9쎯	-10.4015
cui❃3쎯	-10.4023
pan❁3쎯	-10.4045
쎁쎉쎃쎃nian❂6쎯	-10.4045
jin❄32쎯sheng❁3쎯	-10.4054
huo❄56쎯bi❄51쎯	-10.4062
kun❄1쎯nan❂20쎯	-10.4071
쎁쎉쎃쎆nian❂6쎯	-10.4072
bang❄1	-10.4076
zhai❃2쎯	-10.4087
guai❄7쎯shou❄3쎯	-10.4093
feng❄2쎯huang❂16쎯	-10.4095
mi❄24쎯ma❃8쎯	-10.4107
tan❄8쎯	-10.4128
ban❄10쎯yan❃39쎯	-10.4133
shen❁	-10.4134
pu❃3쎯bian❄43쎯	-10.4139
bu❄21쎯	-10.4166
mo❄35쎯	-10.4179
zhuang❄3쎯	-10.419
gang❁32쎯qin❂25쎯	-10.4191
nuo❄14쎯	-10.4199
pi❁12쎯zhen❁52쎯	-10.4209
ga❁1쎯fei❁3쎯	-10.4212
”han❄20쎯“	-10.4228
yong❁33쎯	-10.423
hen❄1쎯	-10.4242
shao❄10쎯xing❄8쎯	-10.4244
xiong❁4쎯	-10.4255
ci❂31쎯dian❃5쎯	-10.4266
shou❄9쎯quan❂12쎯	-10.4273
shen❄5쎯	-10.428
xu❁	-10.4296
ba❁16쎯li❂98쎯	-10.4298
er❃	-10.4311
zhang❁10쎯	-10.4313
qian❃14쎯	-10.4317
ban❄11쎯jun❁3쎯	-10.4322
wei❄22쎯	-10.4332
jiang❃8쎯li❄60쎯	-10.4345
chong❁20쎯	-10.4347
mai❂5쎯	-10.4367
xi❁74쎯	-10.4375
bi❄145쎯mian❃10쎯	-10.4377
qin❂32쎯	-10.4379
kou❄	-10.4384
jing❁1	-10.4388
shi❄71쎯jue❂104쎯	-10.4388
hun❂10쎯	-10.4398
xun❄30쎯	-10.4398
zhen❃27쎯zhi❄61쎯	-10.4404
hu❂26쎯	-10.441
xun❁	-10.4417
dun❁4쎯	-10.4436
cheng❂38쎯	-10.4448
hua❁11쎯hui❄31쎯	-10.4468
xue❁2쎯	-10.4485
wa❂0쎯	-10.4488
chuang❂5쎯	-10.4503
la❄20쎯	-10.4514
die❂47쎯	-10.4515
en❁0쎯ju❁18쎯de❅0쎯	-10.4515
bian❄39쎯	-10.4523
tuo❁8쎯	-10.4523
ban❁	-10.4556
bao❁9쎯	-10.4557
yan❃39쎯zou❄2쎯	-10.4572
ye❄44쎯jing❁14쎯	-10.4576
an❁32쎯	-10.4579
xi❄70쎯	-10.4587
ge❂54쎯ming❄1쎯g	-10.4592
ye❂4쎯	-10.4608
zai❃5쎯	-10.4614
yu❃24쎯zhou❄16쎯	-10.4621
di❁11쎯	-10.4631
tou❁0쎯	-10.4638
zhao❄30쎯	-10.4644
niang❄1쎯	-10.4649
yao❂42쎯	-10.4655
zhi❂32쎯ze❂44쎯	-10.4667
song❄11쎯	-10.467
lin❂25쎯	-10.4672
xian❄66쎯	-10.4672
xi❁107쎯	-10.4675
chan❂40쎯	-10.4692
du❄21쎯	-10.4722
a❁2쎯	-10.4725
dai❄38쎯kuan❃7쎯	-10.4727
ying❂58쎯	-10.4731
hou❂13쎯	-10.4752
yue❄29쎯쎁쎈ri❄2쎯	-10.4758
pang❂6쎯	-10.4761
yong❃8쎯	-10.4774
su❄58쎯	-10.4779
쎇ping❂17쎯fang❁4쎯	-10.4781
cai❃11쎯gou❄26쎯	-10.4782
fu❁39쎯	-10.479
gang❁24쎯	-10.4805
ban❁20쎯fa❁1쎯	-10.4805
zhao❃5쎯	-10.4808
ye❃2쎯	-10.4818
ji❃15쎯	-10.4819
chi❂48쎯	-10.4821
mian❃1	-10.4822
hou❄10쎯	-10.4824
jia❄3쎯	-10.4825
yan❄67쎯	-10.4828
yu❂61쎯	-10.4839
yi❄144쎯	-10.484
he❁5쎯	-10.4843
》han❄20쎯《	-10.4876
쎁쎉쎃쎉nian❂6쎯	-10.4879
yue❄29쎯쎁쎅ri❄2쎯	-10.4889
bu❄19쎯	-10.4899
tian❁7쎯	-10.4912
쎁쎉쎆쎇nian❂6쎯	-10.4913
shu❁44쎯song❄9쎯	-10.4927
ling❂	-10.4935
a❃0쎯	-10.4948
si❄32쎯	-10.496
ting❃4쎯	-10.4963
ji❄35쎯	-10.4966
ban❃6쎯she❄22쎯:	-10.497
yi❄137쎯	-10.4979
ka❁2쎯	-10.498
qian❁52쎯	-10.4996
mei❄24쎯li❄59쎯	-10.5005
쎁쎉쎄쎀nian❂6쎯	-10.5016
chuan❂13쎯bo❂73쎯	-10.5034
ma❅1쎯	-10.5036
chun❂13쎯	-10.5043
lun❂5쎯dun❁9쎯	-10.5044
pan❄3쎯	-10.5046
yi❂44쎯	-10.5082
wei❂1	-10.5087
diao❁23쎯su❄30쎯	-10.5108
ke❃10쎯	-10.5116
ban❃	-10.5119
tang❄2쎯	-10.5128
peng❂37쎯	-10.5131
bao❄29쎯	-10.5136
sao❃3쎯miao❂5쎯	-10.5141
qu❁40쎯shi❄22쎯	-10.5145
huo❃0쎯ban❄3쎯	-10.515
mu❃7쎯dan❁5쎯	-10.5157
bi❁12쎯	-10.5168
he❂47쎯	-10.5172
yu❄1	-10.518
ji❁37쎯	-10.5181
yu❃38쎯	-10.5188
na❄28쎯	-10.5189
huo❄26쎯	-10.5195
mei❂25쎯tan❄8쎯	-10.5203
han❂15쎯shou❄9쎯	-10.5207
fen❁4쎯mi❄33쎯	-10.5213
쎀쎀쎀쎀	-10.5221
yan❂37쎯shen❁5쎯	-10.5223
yue❄29쎯쎂쎀ri❄2쎯	-10.5234
hun❁7쎯	-10.524
qiao❄20쎯	-10.5249
zhu❄53쎯	-10.5258
ji❄63쎯	-10.5259
yuan❄9쎯	-10.5266
ma❃14쎯ke❄6쎯si❁2	-10.5272
yu❂96쎯	-10.5273
쎁쎉쎃쎀nian❂6쎯	-10.5275
bo❂41쎯lan❃28쎯	-10.5289
jin❁18쎯tie❁5쎯	-10.5294
luo❂21쎯ji❂107쎯	-10.5305
jin❁17쎯	-10.5312
zha❂16쎯	-10.5312
“wei❂11쎯chao❁6쎯”	-10.5314
yin❁30쎯	-10.5321
teng❂9쎯tong❄3쎯	-10.5327
bian❁13쎯hao❂6쎯:	-10.5351
q	-10.5354
tan❄3쎯	-10.5362
qi❁1	-10.5365
shi❄2	-10.5405
xin❁24쎯	-10.541
zhi❄64쎯	-10.5413
yuan❁	-10.542
quan❄1쎯	-10.5421
xun❂19쎯	-10.5424
qu❂	-10.5443
e❂3	-10.5444
sao❃3쎯	-10.5483
chou❃1쎯	-10.5487
pao❁3쎯	-10.55
ling❂7	-10.5504
you❂25쎯yong❃22쎯	-10.5506
yuan❂2	-10.551
dang❃3쎯	-10.5517
min❃	-10.5523
bo❂47쎯	-10.5578
dun❄11쎯	-10.5588
gan❃19쎯	-10.5589
ba❁2	-10.5594
yan❃42쎯jing❁19쎯	-10.5604
gong❁19쎯	-10.5608
qi❂7	-10.5611
sheng❁16쎯ya❂10쎯	-10.5628
mou❂1	-10.5632
ying❁24쎯	-10.5637
you❁11쎯	-10.5641
쎁쎉쎄쎁nian❂6쎯	-10.5642
mi❂37쎯	-10.5649
fa❂13쎯	-10.5666
shai❁2쎯	-10.5676
gua❁11쎯	-10.5699
yue❄29쎯쎂쎅ri❄2쎯	-10.57
heng❁0쎯	-10.5703
gui❃	-10.5719
yin❃11쎯	-10.5726
yi❄203쎯	-10.5741
》yi❁10쎯shu❁8쎯	-10.5752
zha❁16쎯	-10.5756
쎁쎉쎄쎂nian❂6쎯	-10.5764
wen❃3쎯	-10.5765
lan❃1	-10.5771
chou❄2쎯	-10.5781
qi❁22쎯xi❁70쎯	-10.5785
jin❁15쎯	-10.5796
niu❃4쎯	-10.5807
bi❄5	-10.5816
yan❃30쎯	-10.5846
yue❄29쎯쎈ri❄2쎯	-10.5862
mo❁쎯	-10.5874
shi❁9쎯	-10.5887
bao❁2쎯	-10.5891
mang❂15쎯	-10.5903
ji❁66쎯	-10.5926
쎁쎉쎄쎄nian❂6쎯	-10.5931
se❄23쎯	-10.5939
pi❄14쎯	-10.5957
jie❂27쎯	-10.5962
jiao❁22쎯	-10.5963
song❁	-10.5972
si❄2	-10.5984
fan❂35쎯zhi❂22쎯	-10.5997
ling❂62쎯	-10.5999
lao❄	-10.6012
yu❂7	-10.6022
쎁쎉쎃쎁nian❂6쎯	-10.6031
kan❃4쎯	-10.6034
쎁ping❂17쎯fang❁4쎯	-10.604
jia❄9쎯shi❃20쎯	-10.6051
qu❁40쎯	-10.6052
bi❃24쎯hua❄18쎯:	-10.6054
yue❄29쎯쎁쎀ri❄2쎯	-10.6057
yue❄29쎯쎂쎆ri❄2쎯	-10.6071
hu❂36쎯	-10.6109
yi❄18	-10.6113
shu❁26쎯	-10.6131
gu❁4쎯	-10.6139
xi❁81쎯	-10.6148
쎁쎉쎂쎉nian❂6쎯	-10.6153
yue❄29쎯쎃쎀ri❄2쎯	-10.6183
ti❂30쎯	-10.6186
he❄23쎯	-10.6209
dao❃1	-10.6225
mei❂1	-10.6228
zhan❃16쎯	-10.623
she❁	-10.6231
shai❄1쎯	-10.6233
bo❅0쎯	-10.6237
an❄4쎯	-10.624
xing❂1	-10.625
die❁4쎯	-10.6258
쎁쎉쎃쎂nian❂6쎯	-10.626
gong❁20쎯	-10.6275
ke❁16쎯ji❄59쎯jin	-10.6288
lin❂53쎯	-10.6296
zong❁24쎯	-10.631
yan❂20쎯jin❃29쎯	-10.6314
tan❂30쎯	-10.6326
qian❁61쎯	-10.6326
yan❁34쎯	-10.6329
ji❁80쎯fu❁39쎯	-10.6333
nao❃1	-10.6338
diao❁	-10.6354
hui❁40쎯huang❂28쎯	-10.6355
chan❂4	-10.636
xian❂2	-10.6368
qia❄9쎯	-10.6373
she❄	-10.6374
cheng❂13쎯	-10.639
yan❁27쎯	-10.6395
yun❁2쎯	-10.64
zhi❄3	-10.641
huai❂	-10.6424
xie❂47쎯	-10.6433
chang❄	-10.6437
qun❂	-10.6446
qu❁29쎯	-10.6459
xie❁5쎯	-10.6469
ya❁14쎯	-10.647
yin❃14쎯qing❂7쎯	-10.6475
bao❁7쎯	-10.6492
diao❄23쎯	-10.6503
쎀쎀duo❁5쎯ren❂1쎯	-10.6507
huo❃0쎯	-10.6512
shu❄35쎯	-10.6516
zhi❄5	-10.6548
xie❂37쎯	-10.6552
yue❄29쎯쎁쎆ri❄2쎯	-10.6552
ren❄38쎯	-10.6557
wo❄1	-10.6561
mao❂	-10.6561
shi❄4	-10.6568
tong❂44쎯	-10.6589
lu❃4쎯	-10.6593
v	-10.6609
쎁쎉쎄쎃nian❂6쎯	-10.6634
yue❄29쎯쎁쎂ri❄2쎯	-10.6644
ze❃쎯ma❅1쎯	-10.6655
sui❂6쎯	-10.6689
:쎉쎇쎈쎇	-10.6711
xiang❁25쎯	-10.6716
chen❄10쎯	-10.6736
zhou❄22쎯	-10.6741
yao❂22쎯	-10.6751
yu❄87쎯	-10.6791
lu❂4	-10.6796
lou❄	-10.6797
wen❁6쎯xin❁26쎯	-10.6816
ju❄39쎯	-10.6817
ni❁쎯	-10.6829
yi❂42쎯zu❂9쎯	-10.6829
mo❃2쎯	-10.6849
pu❂19쎯sa❄13쎯	-10.6851
jiao❁26쎯	-10.686
huo❄44쎯	-10.6862
qiu❁27쎯	-10.6864
tun❁1쎯	-10.6868
tao❁	-10.6882
j	-15.653
C	-19.9519
❅	-19.952
❃	-19.9521
❂	-19.9522
❁	-19.9523
❄	-19.9524
