[UNK]	0
[PAD]	0
[CLS]	0
[SEP]	0
[MASK]	0
79303쎯	-3.44347
74899쎯	-3.59709
78973쎯	-3.9004
49089쎯	-4.19412
▁쎯	-4.81755
68055쎯	-5.11351
51216쎯	-5.44356
19167쎯	-5.44796
70834쎯	-5.48143
48497쎯	-5.68114
20570쎯	-5.69955
21491쎯	-5.77838
47850쎯	-5.81045
62474쎯	-5.85146
56609쎯	-5.94901
12267쎯30399쎯	-6.01985
75547쎯	-6.02286
48644쎯	-6.04294
62474쎯53322쎯	-6.12647
52457쎯	-6.13339
45851쎯	-6.15139
47791쎯	-6.19965
42649쎯	-6.28013
(쎯	-6.28095
14406쎯	-6.30922
75108쎯	-6.31337
《쎯	-6.35406
20909쎯65621쎯	-6.35576
36046쎯75875쎯	-6.37021
57248쎯	-6.38576
45851쎯37633쎯	-6.43875
58692쎯	-6.50134
1쎯	-6.54144
2쎯	-6.54369
42234쎯60670쎯	-6.54762
13735쎯	-6.54909
3쎯	-6.56592
63686쎯38828쎯	-6.56741
“쎯	-6.64118
)쎯	-6.65232
79872쎯	-6.67212
73570쎯	-6.677
80195쎯35641쎯	-6.68694
79872쎯57630쎯	-6.69217
37002쎯	-6.70335
36944쎯	-6.71629
19109쎯	-6.7293
53081쎯35641쎯	-6.73006
52160쎯79766쎯	-6.76835
4쎯	-6.77502
54974쎯	-6.78143
”쎯	-6.7989
21962쎯	-6.80176
61132쎯	-6.8061
57566쎯	-6.80668
10401쎯	-6.80984
16209쎯	-6.81362
6쎯	-6.81992
73364쎯46553쎯	-6.82045
10488쎯80334쎯	-6.82353
17602쎯15326쎯	-6.82377
9쎯	-6.83414
54178쎯	-6.84018
5쎯	-6.84387
29327쎯	-6.84389
8쎯	-6.84962
52878쎯48497쎯	-6.86345
80242쎯	-6.87214
63878쎯	-6.88872
53322쎯37955쎯	-6.89507
27195쎯	-6.89553
20202쎯	-6.89752
50642쎯61368쎯	-6.90224
77687쎯	-6.91133
34859쎯	-6.91165
37955쎯	-6.91318
33596쎯	-6.91545
73781쎯	-6.94014
18840쎯	-6.94399
7쎯	-6.95212
78673쎯	-6.95917
10773쎯	-6.95965
75547쎯20507쎯	-6.96021
37633쎯76919쎯	-6.96059
60127쎯	-6.98688
74715쎯	-6.98954
60127쎯10488쎯	-6.99061
43431쎯	-7.01023
53510쎯	-7.01896
62474쎯23331쎯	-7.0461
21088쎯	-7.05146
79805쎯20614쎯	-7.05687
67196쎯	-7.05821
57881쎯	-7.0584
50966쎯74849쎯	-7.06157
23671쎯15622쎯	-7.07408
46320쎯	-7.08095
79303쎯51216쎯	-7.08335
62795쎯63878쎯	-7.10002
57107쎯	-7.10304
20909쎯55623쎯	-7.10553
37633쎯27747쎯	-7.1176
57489쎯	-7.13231
》쎯	-7.13868
63962쎯	-7.13993
37633쎯	-7.14394
13854쎯	-7.1502
0쎯	-7.17514
21966쎯	-7.17821
64874쎯	-7.18619
74980쎯	-7.19482
63916쎯	-7.20046
36820쎯	-7.23196
53322쎯24700쎯	-7.23891
53729쎯	-7.24001
69416쎯	-7.24329
20827쎯	-7.25189
29383쎯	-7.26255
28773쎯	-7.26504
32542쎯	-7.27714
20159쎯63686쎯	-7.28843
16156쎯19109쎯	-7.29039
72295쎯	-7.29285
20827쎯57248쎯	-7.29601
76196쎯	-7.29914
10535쎯	-7.30504
45003쎯	-7.31672
20159쎯	-7.31715
62795쎯	-7.31728
56153쎯	-7.32237
73211쎯	-7.32824
73352쎯	-7.33937
17602쎯40088쎯	-7.34355
51013쎯17439쎯	-7.34908
46488쎯18431쎯	-7.36297
51400쎯	-7.36708
21394쎯53322쎯	-7.36915
71752쎯	-7.3708
33950쎯42482쎯	-7.37181
27378쎯	-7.37653
45252쎯	-7.38162
46374쎯19457쎯	-7.38953
76316쎯	-7.39029
23331쎯	-7.39631
62818쎯	-7.40612
12078쎯	-7.4078
56544쎯	-7.40871
80435쎯16603쎯	-7.40911
50337쎯29795쎯	-7.40996
50642쎯37633쎯	-7.41418
66876쎯	-7.42664
40529쎯73904쎯	-7.42954
53322쎯	-7.43224
10535쎯70026쎯	-7.43309
21503쎯	-7.43821
17661쎯	-7.43822
69416쎯62474쎯	-7.44158
64211쎯79872쎯	-7.4435
20348쎯	-7.4439
20159쎯37633쎯	-7.44444
66590쎯75547쎯	-7.44704
12348쎯	-7.44912
50337쎯50966쎯	-7.45258
79872쎯76573쎯	-7.45599
23671쎯	-7.45908
28261쎯	-7.45968
72389쎯	-7.46026
22523쎯	-7.46223
42094쎯	-7.46252
68454쎯73364쎯	-7.46886
44737쎯	-7.47134
25286쎯	-7.47253
69405쎯	-7.47421
15877쎯	-7.47675
40996쎯38828쎯	-7.48048
16433쎯	-7.48095
61239쎯	-7.48849
30524쎯35641쎯	-7.49489
79303쎯70834쎯	-7.49604
64661쎯	-7.49653
13735쎯79872쎯	-7.50456
40088쎯	-7.50779
78536쎯	-7.50903
29308쎯	-7.51784
38701쎯54143쎯	-7.51939
33081쎯	-7.52133
49639쎯	-7.52246
80792쎯	-7.52344
40459쎯35332쎯	-7.52762
쎯	-7.52827
15909쎯45856쎯	-7.53101
80506쎯	-7.5317
57248쎯14406쎯	-7.53315
21962쎯54178쎯	-7.53466
65582쎯	-7.53598
》쎯49089쎯《쎯	-7.53622
75108쎯66876쎯	-7.54039
43972쎯43659쎯	-7.54045
67828쎯	-7.55072
78973쎯”쎯	-7.56063
75686쎯	-7.57156
50966쎯23601쎯	-7.57746
35346쎯	-7.58147
29560쎯49851쎯	-7.58823
76196쎯18315쎯	-7.59103
62633쎯	-7.59246
28020쎯	-7.59745
29275쎯	-7.60078
74218쎯	-7.60251
62090쎯	-7.60293
69344쎯	-7.60362
79303쎯62818쎯	-7.60821
14924쎯	-7.60912
60127쎯78792쎯	-7.6155
76919쎯	-7.61873
72253쎯21088쎯	-7.62049
23468쎯	-7.62178
16598쎯22526쎯	-7.62808
27859쎯	-7.63136
20839쎯	-7.63194
23845쎯	-7.632
13581쎯	-7.63524
19043쎯	-7.63537
50642쎯43299쎯	-7.63559
71997쎯	-7.63725
45856쎯	-7.63838
30682쎯	-7.63977
41164쎯52878쎯	-7.6402
10535쎯19167쎯	-7.64756
60052쎯	-7.64803
13307쎯	-7.64912
65621쎯80334쎯	-7.64942
64124쎯	-7.65097
30199쎯	-7.65158
72545쎯53322쎯	-7.65419
22709쎯75434쎯	-7.65692
79805쎯	-7.65738
60833쎯	-7.66098
22709쎯	-7.66312
71004쎯	-7.66533
49013쎯	-7.66774
67196쎯70823쎯	-7.66891
76739쎯	-7.66925
42649쎯79303쎯	-7.67194
40837쎯	-7.67898
42482쎯	-7.67995
33945쎯	-7.68904
37633쎯60127쎯	-7.68912
40773쎯	-7.68935
33504쎯	-7.69086
16453쎯	-7.70291
27082쎯	-7.70302
48644쎯49802쎯	-7.70561
28910쎯75547쎯	-7.71611
35864쎯	-7.71821
73638쎯	-7.71907
57179쎯	-7.72395
44248쎯	-7.72412
21957쎯29275쎯	-7.72759
51087쎯	-7.72789
21394쎯	-7.72804
64874쎯73211쎯	-7.72807
40600쎯	-7.73069
42649쎯78973쎯	-7.73099
37995쎯	-7.73891
62123쎯	-7.73929
59344쎯	-7.74069
68454쎯	-7.74283
56146쎯	-7.74543
76795쎯46699쎯	-7.74823
19043쎯68909쎯	-7.75563
44417쎯31598쎯	-7.75703
18939쎯	-7.75799
20909쎯35641쎯	-7.75834
80789쎯	-7.76147
77922쎯	-7.77125
38013쎯	-7.77472
77103쎯	-7.77668
48643쎯	-7.77794
16737쎯	-7.78816
42849쎯	-7.78988
73364쎯	-7.79099
42344쎯	-7.79121
25658쎯	-7.79165
30658쎯	-7.79366
53722쎯	-7.79451
80792쎯56018쎯	-7.79528
18673쎯33950쎯	-7.79545
11630쎯	-7.79853
74512쎯	-7.80094
1쎯0쎯	-7.80119
20814쎯21088쎯	-7.8032
62123쎯23779쎯	-7.80458
79303쎯57248쎯	-7.80585
76059쎯	-7.80633
58376쎯67196쎯	-7.80768
11635쎯	-7.80818
16455쎯35048쎯	-7.80858
73637쎯	-7.81064
61026쎯	-7.8129
15909쎯	-7.81411
50642쎯64124쎯	-7.81474
12267쎯	-7.81667
”쎯78973쎯	-7.8181
38624쎯	-7.81927
78792쎯12111쎯	-7.81982
73147쎯	-7.82007
53322쎯74715쎯	-7.8218
72545쎯	-7.82366
29274쎯	-7.82667
80792쎯16460쎯	-7.82967
66145쎯15909쎯	-7.82974
60022쎯35311쎯	-7.83664
18431쎯	-7.84749
13840쎯79322쎯	-7.84833
40951쎯	-7.84982
51013쎯	-7.85139
42649쎯60637쎯	-7.85162
50573쎯	-7.85221
43402쎯11216쎯	-7.85231
22218쎯	-7.85305
44764쎯	-7.85414
75203쎯	-7.85836
54772쎯74275쎯	-7.862
61132쎯64661쎯	-7.86332
65621쎯	-7.86413
18431쎯30682쎯	-7.86512
58376쎯	-7.86648
73781쎯15877쎯	-7.87324
63962쎯60127쎯	-7.87499
21594쎯	-7.87511
62680쎯	-7.87624
31887쎯	-7.87689
23356쎯	-7.87966
37633쎯64505쎯	-7.88271
42849쎯15326쎯	-7.88356
17770쎯32224쎯	-7.88581
16433쎯48644쎯	-7.88861
68855쎯	-7.89048
14924쎯73352쎯	-7.89152
49014쎯76919쎯	-7.89362
51735쎯	-7.89396
57088쎯	-7.89415
42482쎯35641쎯	-7.8974
57133쎯27195쎯	-7.90094
35837쎯25989쎯	-7.90478
15326쎯	-7.90559
63366쎯79303쎯	-7.90745
77103쎯76573쎯	-7.90869
22197쎯35641쎯	-7.90901
58991쎯	-7.91282
49202쎯11099쎯	-7.91828
22761쎯	-7.92165
37627쎯	-7.92563
62474쎯37633쎯	-7.92594
75868쎯	-7.9302
)쎯79303쎯	-7.93162
73570쎯58376쎯	-7.93427
18939쎯67828쎯	-7.94008
46320쎯50124쎯	-7.94077
74275쎯43460쎯	-7.94137
50573쎯58991쎯	-7.94181
44369쎯	-7.94328
22218쎯71752쎯	-7.94345
55949쎯	-7.94369
54441쎯	-7.94402
54664쎯	-7.94444
65621쎯19167쎯	-7.94797
80456쎯	-7.95348
45317쎯	-7.95659
79805쎯76024쎯	-7.95852
23671쎯39349쎯	-7.96011
20392쎯38603쎯	-7.96611
62474쎯74899쎯	-7.97246
17807쎯53729쎯	-7.97249
33950쎯	-7.97829
20556쎯	-7.98023
73680쎯	-7.98079
34349쎯	-7.98089
78800쎯	-7.98607
60670쎯18025쎯	-7.98663
30233쎯	-7.9876
48811쎯15349쎯	-7.99186
22218쎯19043쎯	-7.99301
57702쎯	-7.99639
23339쎯	-7.99725
76736쎯	-8.00135
76721쎯	-8.00261
22867쎯47693쎯	-8.00568
64920쎯19109쎯	-8.00611
34613쎯	-8.00616
42649쎯49851쎯	-8.01041
10443쎯50124쎯	-8.01222
80334쎯35601쎯	-8.01538
57133쎯71903쎯	-8.02038
10849쎯33504쎯	-8.02314
25989쎯54472쎯	-8.02659
33189쎯	-8.02676
64178쎯	-8.02734
46541쎯	-8.03006
20909쎯	-8.03447
42234쎯	-8.03504
65677쎯	-8.03611
76573쎯	-8.03706
44790쎯	-8.03805
37629쎯41470쎯	-8.03928
19802쎯	-8.0398
68454쎯53472쎯	-8.04233
22382쎯	-8.04265
49044쎯	-8.04485
28441쎯	-8.04519
32828쎯35021쎯	-8.04718
43659쎯51400쎯	-8.05052
63962쎯62530쎯	-8.05056
72253쎯	-8.05061
29024쎯	-8.05485
17602쎯	-8.06096
42669쎯51056쎯	-8.06258
46699쎯	-8.06404
10488쎯35641쎯	-8.0687
52878쎯	-8.06969
66224쎯	-8.07353
40529쎯	-8.0743
16156쎯	-8.07517
31486쎯	-8.07532
41347쎯	-8.07543
35302쎯	-8.08047
13581쎯45851쎯	-8.08115
43697쎯	-8.08179
27041쎯	-8.08204
57088쎯48497쎯	-8.0839
11851쎯76552쎯	-8.08394
56146쎯21394쎯	-8.08446
19109쎯49851쎯	-8.08606
35641쎯	-8.09008
36903쎯	-8.09034
24720쎯	-8.09153
10772쎯	-8.09234
70571쎯	-8.09444
32461쎯15877쎯	-8.09606
44764쎯51216쎯	-8.09618
47302쎯10535쎯	-8.0981
76979쎯	-8.09842
39149쎯	-8.09876
55777쎯	-8.0993
50642쎯	-8.09963
29026쎯31887쎯	-8.10319
62795쎯37633쎯	-8.10518
61050쎯	-8.10626
1쎯2쎯	-8.10706
32155쎯49202쎯	-8.10819
65621쎯21088쎯	-8.10823
37633쎯19109쎯	-8.10931
70026쎯	-8.11084
52376쎯	-8.11143
38701쎯10535쎯	-8.11153
50337쎯	-8.1127
48811쎯	-8.11309
39809쎯	-8.11712
33013쎯	-8.11837
38652쎯	-8.11921
42015쎯	-8.12225
54772쎯40088쎯	-8.12277
74715쎯59534쎯	-8.12433
79322쎯	-8.12663
》쎯20570쎯“쎯	-8.12984
57158쎯	-8.13334
30199쎯51095쎯	-8.13401
10697쎯	-8.13606
23238쎯10772쎯	-8.13608
23779쎯	-8.13666
72397쎯	-8.13719
18673쎯36944쎯	-8.13816
20591쎯21088쎯	-8.13882
17086쎯39873쎯	-8.13956
79303쎯19167쎯	-8.14185
17770쎯	-8.14195
36550쎯	-8.1423
42482쎯80435쎯	-8.14463
38701쎯	-8.14472
78168쎯	-8.14509
18025쎯62795쎯	-8.14574
11630쎯60559쎯	-8.14582
29275쎯20839쎯	-8.15086
79263쎯	-8.15096
49802쎯	-8.15138
63631쎯	-8.15334
79322쎯65621쎯	-8.15389
42344쎯60670쎯	-8.16455
42332쎯	-8.16514
64211쎯21503쎯	-8.16941
68952쎯27586쎯	-8.17076
46278쎯	-8.17122
68846쎯	-8.17146
70823쎯	-8.17242
18250쎯	-8.17289
33504쎯19505쎯	-8.17454
72151쎯59576쎯	-8.17481
23899쎯	-8.17485
41164쎯	-8.17499
46202쎯28664쎯	-8.17576
47693쎯	-8.17648
79872쎯28261쎯	-8.17723
79872쎯24500쎯	-8.17948
22218쎯61239쎯	-8.17993
47210쎯12267쎯	-8.18197
49014쎯37633쎯	-8.18283
42332쎯39725쎯	-8.18354
56609쎯78973쎯	-8.18367
28222쎯	-8.18417
”쎯74899쎯	-8.18451
72479쎯	-8.186
49851쎯	-8.18689
18315쎯	-8.18744
50451쎯	-8.18826
36944쎯79303쎯	-8.19243
47302쎯	-8.19291
68673쎯27711쎯	-8.19409
62474쎯20879쎯	-8.19645
69416쎯76059쎯	-8.19685
29861쎯	-8.19691
17770쎯73352쎯	-8.19765
74849쎯22428쎯	-8.19934
10268쎯	-8.20445
35584쎯	-8.20683
46320쎯32086쎯	-8.20763
76795쎯	-8.20782
80750쎯48082쎯	-8.20952
80242쎯37633쎯	-8.20971
72870쎯	-8.2103
22544쎯	-8.21035
20074쎯58713쎯	-8.21175
57133쎯	-8.21179
63366쎯	-8.21211
49861쎯79148쎯	-8.21368
16156쎯54178쎯	-8.21403
79524쎯	-8.21641
19135쎯	-8.21784
39063쎯31570쎯	-8.2186
66146쎯	-8.22108
72295쎯72295쎯	-8.22191
20680쎯	-8.22243
39103쎯	-8.22258
54974쎯37995쎯	-8.22398
46346쎯	-8.22412
20159쎯36046쎯	-8.22475
33536쎯	-8.2264
25497쎯	-8.22802
57922쎯	-8.22841
44670쎯	-8.22894
60127쎯10772쎯	-8.2293
21088쎯48497쎯	-8.22955
24983쎯	-8.23214
78973쎯70834쎯	-8.23361
57226쎯	-8.23817
64661쎯18683쎯	-8.23827
53270쎯	-8.24141
42478쎯22325쎯	-8.24161
53081쎯37955쎯	-8.24536
10285쎯	-8.24779
73364쎯43460쎯	-8.24883
58768쎯	-8.24908
47062쎯	-8.24931
80334쎯	-8.25248
27082쎯42094쎯	-8.25278
48759쎯	-8.25401
35641쎯79766쎯	-8.25627
62474쎯55957쎯	-8.25783
25841쎯12111쎯	-8.25848
13459쎯	-8.25957
12267쎯62633쎯	-8.26025
71948쎯35641쎯	-8.26073
62615쎯	-8.26251
71294쎯	-8.26297
17600쎯	-8.26312
47431쎯	-8.26346
79303쎯75547쎯	-8.26376
”쎯79303쎯	-8.26404
16173쎯16173쎯	-8.26946
42669쎯	-8.2703
59140쎯75547쎯	-8.27058
55645쎯	-8.27195
32130쎯	-8.27353
80435쎯39063쎯	-8.27685
33212쎯	-8.27894
66915쎯	-8.27895
31887쎯65621쎯	-8.27948
18431쎯20909쎯	-8.28075
36029쎯	-8.28628
56789쎯	-8.28667
15506쎯	-8.28826
31598쎯	-8.28864
43960쎯	-8.28867
74275쎯	-8.2892
76055쎯	-8.28925
19167쎯17602쎯	-8.28941
41213쎯	-8.29061
18655쎯	-8.29626
73680쎯79766쎯	-8.29728
38934쎯	-8.29804
24757쎯	-8.29816
49861쎯	-8.29852
79303쎯11998쎯	-8.29864
26507쎯66833쎯	-8.29954
76055쎯15622쎯	-8.29963
37633쎯38828쎯	-8.29992
46374쎯54974쎯	-8.30025
76059쎯15349쎯	-8.30155
31887쎯72898쎯	-8.30218
47788쎯55231쎯	-8.30275
79872쎯37955쎯	-8.30365
53327쎯	-8.30403
55957쎯	-8.30486
10555쎯	-8.30508
60637쎯	-8.30633
66915쎯42094쎯	-8.31089
12587쎯	-8.31123
28123쎯	-8.31207
18483쎯	-8.31216
20814쎯	-8.31388
73352쎯11630쎯	-8.31466
42849쎯38013쎯	-8.31557
13155쎯	-8.31755
28907쎯	-8.31989
78389쎯	-8.32013
45856쎯55623쎯	-8.32087
20909쎯40996쎯	-8.32225
54472쎯	-8.32298
52125쎯36308쎯	-8.32586
35572쎯	-8.32812
52705쎯	-8.33091
19806쎯	-8.33193
31697쎯	-8.33426
50337쎯70026쎯	-8.33511
75525쎯	-8.33515
16016쎯	-8.33547
26896쎯48643쎯	-8.33788
60670쎯18315쎯	-8.33845
54448쎯60127쎯	-8.33919
14868쎯	-8.33976
79805쎯10175쎯	-8.34137
67335쎯	-8.3419
79188쎯43492쎯	-8.34232
52125쎯68313쎯	-8.34329
22847쎯	-8.34346
40459쎯	-8.34623
20348쎯51216쎯	-8.34742
45851쎯67828쎯	-8.34859
59548쎯	-8.34886
78398쎯	-8.35003
50297쎯	-8.3505
20460쎯	-8.35092
76591쎯29327쎯	-8.35159
12732쎯	-8.35184
60055쎯	-8.35275
62313쎯	-8.35295
27747쎯	-8.35343
57630쎯	-8.35393
18654쎯	-8.35568
80792쎯12111쎯	-8.3559
79303쎯69416쎯	-8.3562
55121쎯	-8.35625
72545쎯38828쎯	-8.35935
12899쎯	-8.36064
42649쎯31850쎯	-8.36289
73904쎯	-8.36302
34913쎯	-8.36312
65842쎯	-8.36615
78976쎯28664쎯	-8.36762
47575쎯10175쎯	-8.36987
37633쎯52878쎯	-8.37096
58643쎯	-8.37562
58176쎯	-8.37662
23339쎯68313쎯	-8.37668
21088쎯76552쎯	-8.38002
13735쎯70823쎯	-8.38037
18315쎯35641쎯	-8.3808
37553쎯	-8.38338
40600쎯12341쎯	-8.38405
23853쎯53966쎯	-8.38584
32461쎯	-8.38776
76497쎯	-8.38918
45640쎯	-8.38949
68623쎯	-8.39076
66590쎯	-8.39105
57248쎯75108쎯	-8.3925
33720쎯	-8.39277
”쎯49089쎯“쎯	-8.39288
73570쎯44459쎯	-8.39294
)쎯78973쎯	-8.39303
73680쎯35641쎯	-8.39719
69344쎯71997쎯	-8.40096
66159쎯	-8.40137
1쎯1쎯	-8.4019
(쎯)쎯	-8.40201
60637쎯39725쎯	-8.40273
34446쎯	-8.40315
41975쎯	-8.40365
61132쎯71004쎯	-8.40396
14199쎯	-8.40412
18058쎯	-8.40937
55237쎯	-8.40938
63878쎯37633쎯	-8.41041
18429쎯15326쎯	-8.41144
64124쎯59150쎯	-8.41186
53106쎯	-8.41323
12341쎯23671쎯	-8.41442
33945쎯21088쎯	-8.41521
52376쎯61936쎯	-8.41563
57630쎯42649쎯	-8.41576
34601쎯	-8.4158
51216쎯23339쎯	-8.41657
57107쎯48497쎯	-8.41668
66915쎯51013쎯	-8.4171
28664쎯	-8.41745
12111쎯	-8.41837
23827쎯	-8.4184
18974쎯	-8.42193
25108쎯	-8.42272
30217쎯	-8.42413
62530쎯	-8.42421
40706쎯	-8.42443
50844쎯29274쎯	-8.42446
56146쎯23186쎯	-8.42482
54162쎯	-8.4258
60127쎯48497쎯	-8.42592
35720쎯	-8.42603
76552쎯	-8.42631
64661쎯39103쎯	-8.42804
37553쎯50337쎯	-8.42872
56161쎯	-8.43144
22625쎯57630쎯	-8.43236
57133쎯47788쎯	-8.4326
50579쎯	-8.43343
33400쎯	-8.43484
75447쎯	-8.43524
40367쎯	-8.43565
64395쎯	-8.4372
10443쎯79322쎯	-8.4376
75547쎯12341쎯	-8.43845
60127쎯79303쎯	-8.43855
22709쎯44790쎯	-8.43909
28441쎯79148쎯	-8.43962
47575쎯54772쎯	-8.44001
69908쎯	-8.44113
12267쎯22523쎯	-8.44158
28480쎯	-8.44296
24419쎯21962쎯	-8.44315
63691쎯61239쎯	-8.44461
30567쎯	-8.44509
73364쎯60127쎯	-8.44597
22197쎯	-8.44703
31641쎯	-8.44827
54772쎯75547쎯	-8.45092
22867쎯	-8.45318
72236쎯	-8.45397
62474쎯79303쎯	-8.45929
7쎯55121쎯	-8.46265
41677쎯	-8.46638
51508쎯47169쎯	-8.46828
67196쎯79303쎯	-8.46851
48811쎯53322쎯	-8.46885
80242쎯17600쎯	-8.46954
53203쎯	-8.46993
35636쎯	-8.47311
62183쎯	-8.47345
33436쎯	-8.47468
64558쎯	-8.47511
30673쎯	-8.47549
18025쎯	-8.4758
22625쎯	-8.47758
19696쎯	-8.47767
38624쎯76736쎯	-8.47822
52750쎯	-8.47961
34913쎯75203쎯	-8.48046
17086쎯	-8.48078
32508쎯	-8.48635
55318쎯	-8.48747
14536쎯30682쎯	-8.48841
39063쎯	-8.48858
69134쎯10535쎯	-8.48912
15326쎯34141쎯	-8.49034
42649쎯10772쎯	-8.49115
11079쎯	-8.49524
21962쎯22218쎯	-8.49696
46177쎯	-8.49728
37492쎯	-8.4983
27082쎯51013쎯	-8.49933
49621쎯	-8.50148
74849쎯58713쎯	-8.50178
67196쎯57158쎯	-8.50296
50826쎯40088쎯	-8.50315
50966쎯47782쎯	-8.50366
41975쎯49851쎯	-8.50389
18673쎯	-8.50413
38321쎯18315쎯	-8.50483
80596쎯	-8.50528
13331쎯	-8.50534
64035쎯	-8.50686
45411쎯	-8.5093
32461쎯35864쎯	-8.50948
38624쎯38013쎯	-8.51021
76591쎯65621쎯	-8.51026
27993쎯	-8.5128
32819쎯	-8.51411
37002쎯29275쎯	-8.51433
12341쎯	-8.5157
11630쎯42015쎯	-8.51748
43402쎯	-8.5175
62474쎯40773쎯	-8.51766
37633쎯44417쎯	-8.5188
58194쎯	-8.51906
2쎯0쎯	-8.51922
68176쎯	-8.51946
10535쎯49851쎯	-8.51998
71997쎯78847쎯	-8.52057
21951쎯58254쎯	-8.52151
41450쎯	-8.52324
66667쎯	-8.52355
43460쎯	-8.5242
53203쎯80334쎯	-8.52763
67943쎯	-8.52787
17232쎯	-8.52831
59255쎯	-8.52877
56789쎯54162쎯	-8.52893
16751쎯	-8.52945
56544쎯56544쎯	-8.52985
51095쎯	-8.53012
28261쎯23671쎯	-8.53027
19505쎯	-8.53057
27897쎯	-8.53243
62680쎯60833쎯	-8.53584
65621쎯57489쎯	-8.53639
37744쎯	-8.53649
57248쎯45252쎯	-8.53898
59150쎯43357쎯	-8.53994
72373쎯	-8.54356
39339쎯	-8.54474
957쎯10488쎯41975쎯	-8.5473
44447쎯	-8.54878
11630쎯71752쎯	-8.54963
15184쎯	-8.55007
76386쎯55762쎯	-8.55295
58571쎯	-8.55505
63962쎯54772쎯	-8.55663
26507쎯	-8.55779
16737쎯79805쎯	-8.55794
44644쎯	-8.55931
16812쎯	-8.56023
19109쎯28489쎯	-8.56049
10443쎯	-8.56138
78762쎯	-8.56144
17770쎯21962쎯	-8.56287
11767쎯65621쎯	-8.56359
12111쎯10772쎯	-8.56425
33596쎯75547쎯	-8.56581
42103쎯	-8.56643
21394쎯19043쎯	-8.5681
79303쎯78673쎯	-8.56885
52973쎯	-8.57141
65606쎯	-8.57169
14363쎯	-8.57336
44902쎯	-8.57351
52204쎯	-8.57524
47210쎯	-8.57559
58626쎯12111쎯	-8.57775
18654쎯79322쎯	-8.57819
78983쎯	-8.57828
32514쎯	-8.57872
18713쎯12040쎯	-8.58008
71752쎯35250쎯	-8.58043
28261쎯61368쎯	-8.58121
57040쎯	-8.58376
40970쎯	-8.58682
79872쎯23899쎯	-8.58689
73364쎯54772쎯	-8.58854
36046쎯73364쎯	-8.59083
80049쎯	-8.59253
76561쎯	-8.594
57881쎯60833쎯	-8.59563
2쎯0쎯0쎯6쎯60833쎯	-8.59609
52266쎯	-8.5961
48578쎯	-8.59871
42478쎯44129쎯	-8.59894
57566쎯69344쎯	-8.59923
60670쎯49700쎯	-8.5999
23993쎯	-8.60065
58734쎯	-8.60139
49202쎯	-8.60412
66145쎯34349쎯	-8.60588
10488쎯60127쎯	-8.60604
45600쎯	-8.60698
41694쎯	-8.60718
79805쎯45856쎯	-8.60752
44493쎯	-8.60797
67734쎯	-8.6082
18542쎯38577쎯	-8.6092
21503쎯67734쎯	-8.61121
53966쎯	-8.61141
64046쎯	-8.61412
62474쎯62795쎯	-8.61504
62474쎯53322쎯55	-8.61504
1쎯5쎯	-8.61698
53729쎯35720쎯	-8.61923
26151쎯	-8.61961
35952쎯	-8.61961
68105쎯	-8.62001
49014쎯31570쎯	-8.6205
51216쎯57107쎯	-8.62131
33504쎯76316쎯	-8.62212
48205쎯	-8.62284
10535쎯21957쎯	-8.62408
66145쎯	-8.62803
62492쎯	-8.62825
79872쎯24317쎯	-8.62872
22625쎯76573쎯	-8.63017
31337쎯	-8.63046
33958쎯	-8.63251
80794쎯	-8.63254
51056쎯	-8.63285
73638쎯57630쎯	-8.63287
22218쎯77922쎯	-8.63423
36759쎯	-8.63445
57881쎯24720쎯	-8.63463
18542쎯	-8.6367
42849쎯58409쎯	-8.63902
25972쎯	-8.63908
65864쎯23331쎯	-8.64194
79303쎯57107쎯	-8.64247
13607쎯79188쎯	-8.64328
40706쎯22523쎯	-8.64355
47575쎯	-8.64508
73352쎯20159쎯	-8.64607
47575쎯47782쎯	-8.6463
57678쎯49939쎯	-8.64673
14137쎯	-8.64674
46488쎯28441쎯	-8.6491
62795쎯27711쎯	-8.64938
55777쎯19167쎯	-8.64998
28738쎯	-8.65108
2쎯0쎯0쎯7쎯60833쎯	-8.65166
32489쎯	-8.65186
16598쎯	-8.65231
16620쎯	-8.65289
32461쎯76316쎯	-8.65414
23486쎯	-8.65535
46545쎯	-8.65554
2쎯0쎯0쎯8쎯60833쎯	-8.65589
35720쎯19167쎯	-8.65622
26896쎯	-8.65693
76573쎯23238쎯	-8.65744
17602쎯35636쎯	-8.65919
53448쎯	-8.65977
16453쎯61239쎯	-8.66167
14536쎯	-8.66209
38380쎯	-8.66217
80456쎯42094쎯	-8.66234
42649쎯48643쎯	-8.66699
42094쎯17439쎯	-8.667
46553쎯	-8.66864
76182쎯	-8.66951
64211쎯53510쎯	-8.67006
28800쎯	-8.6707
58991쎯18840쎯	-8.67106
40529쎯36651쎯	-8.67132
46488쎯47850쎯	-8.67221
17602쎯38603쎯	-8.67343
73781쎯76316쎯	-8.6741
72536쎯	-8.67429
23356쎯79303쎯	-8.67454
51508쎯	-8.67468
80435쎯52400쎯	-8.67636
52878쎯61642쎯	-8.67717
2쎯0쎯0쎯9쎯60833쎯	-8.67803
50072쎯	-8.67849
45534쎯	-8.6786
64661쎯33460쎯	-8.67861
19167쎯21491쎯	-8.67869
54772쎯	-8.67938
40739쎯	-8.68005
61936쎯	-8.68032
53140쎯70026쎯	-8.68084
10535쎯38934쎯	-8.68389
35881쎯	-8.68473
76591쎯50337쎯	-8.68531
50966쎯	-8.68586
32461쎯22584쎯	-8.68618
73637쎯18840쎯	-8.68655
67196쎯74275쎯	-8.687
78707쎯	-8.68855
10301쎯	-8.68879
16460쎯	-8.68926
20433쎯	-8.69074
40708쎯	-8.69109
31850쎯	-8.69275
56245쎯42482쎯	-8.69446
74155쎯	-8.69493
15317쎯	-8.69518
65780쎯	-8.69625
66099쎯75868쎯	-8.69661
51803쎯	-8.69663
65677쎯11630쎯	-8.69665
74840쎯	-8.69823
35572쎯46357쎯	-8.69843
75233쎯	-8.69845
68096쎯	-8.69852
29383쎯74132쎯	-8.69893
11079쎯30682쎯	-8.69919
2쎯0쎯1쎯0쎯60833쎯	-8.69995
79872쎯16751쎯	-8.70017
37492쎯70200쎯	-8.70036
48600쎯	-8.70048
42221쎯	-8.70063
54178쎯36308쎯	-8.70263
2쎯0쎯0쎯5쎯60833쎯	-8.70264
33596쎯57248쎯	-8.70512
42568쎯	-8.70611
69908쎯65718쎯	-8.70775
65544쎯	-8.70809
39608쎯	-8.70897
72309쎯	-8.70939
76739쎯62313쎯	-8.71003
77103쎯18939쎯	-8.71016
38644쎯	-8.71186
63921쎯	-8.71195
66417쎯	-8.71318
72479쎯55206쎯	-8.71324
16603쎯	-8.71443
26671쎯	-8.71467
30867쎯	-8.71538
44	-8.71653
70271쎯76316쎯	-8.71675
74980쎯62762쎯	-8.71776
1쎯8쎯	-8.71837
10012쎯21962쎯	-8.71939
43659쎯60022쎯	-8.71941
21962쎯42344쎯	-8.72004
25841쎯	-8.72147
20074쎯63691쎯	-8.72154
39725쎯	-8.72203
57655쎯	-8.72241
1쎯6쎯	-8.72504
32461쎯45851쎯	-8.72593
22625쎯24317쎯	-8.7261
45869쎯	-8.72665
11049쎯	-8.72788
50	-8.72791
15438쎯	-8.72823
46202쎯	-8.72904
55777쎯18250쎯	-8.72978
58254쎯	-8.73075
79046쎯	-8.73432
40588쎯	-8.73469
48447쎯21423쎯	-8.73492
29570쎯55623쎯	-8.73521
60784쎯	-8.73625
32130쎯31641쎯	-8.73702
48670쎯	-8.73726
68428쎯	-8.73732
16173쎯	-8.73779
77237쎯	-8.73912
76479쎯	-8.73952
79303쎯76059쎯	-8.74091
38767쎯	-8.74131
11658쎯52132쎯	-8.74273
20202쎯57158쎯	-8.74303
59576쎯	-8.74328
43161쎯	-8.74359
49083쎯	-8.74395
12267쎯19802쎯	-8.74463
47902쎯	-8.74525
49014쎯64124쎯	-8.74566
57881쎯76573쎯	-8.74568
23457쎯	-8.74762
35909쎯	-8.74862
33274쎯33274쎯	-8.749
42649쎯15349쎯	-8.75119
27628쎯	-8.75131
5쎯0쎯	-8.75173
29560쎯49851쎯191	-8.75336
54974쎯65508쎯	-8.75452
12103쎯	-8.75464
47302쎯61239쎯	-8.7547
50435쎯	-8.75489
29327쎯58535쎯	-8.75521
71903쎯	-8.75672
17232쎯20062쎯	-8.75723
16455쎯76795쎯	-8.75735
80435쎯	-8.75754
80334쎯76573쎯	-8.75773
78398쎯27711쎯	-8.75833
38624쎯33460쎯	-8.75863
62471쎯	-8.75982
43659쎯	-8.76097
72151쎯	-8.76164
41470쎯	-8.76462
44129쎯	-8.76605
48796쎯	-8.76619
2쎯0쎯0쎯4쎯60833쎯	-8.76653
48113쎯	-8.76673
38577쎯	-8.76751
64795쎯	-8.76758
10488쎯	-8.76832
66864쎯20839쎯	-8.77027
22197쎯21966쎯	-8.77225
12732쎯53322쎯	-8.77231
57738쎯	-8.77286
75049쎯	-8.7732
56925쎯	-8.77379
37175쎯	-8.77524
44902쎯33343쎯	-8.77535
68454쎯46553쎯	-8.77611
66975쎯	-8.77711
17005쎯	-8.77749
49939쎯	-8.77769
49014쎯	-8.77901
33950쎯30682쎯	-8.77971
63807쎯	-8.78009
76024쎯	-8.7806
53132쎯63299쎯	-8.78106
41975쎯29560쎯	-8.78451
65177쎯51735쎯	-8.78506
60127쎯18466쎯	-8.78523
56245쎯	-8.78603
38206쎯	-8.78658
12372쎯	-8.78906
79887쎯	-8.78918
66759쎯28261쎯	-8.78922
19901쎯	-8.79094
63892쎯	-8.79137
42632쎯	-8.79317
32542쎯57088쎯	-8.79379
41629쎯	-8.79412
60670쎯	-8.79774
79303쎯72253쎯	-8.7999
70985쎯	-8.79995
74899쎯“쎯	-8.79995
19362쎯42482쎯	-8.80003
53715쎯	-8.80136
8쎯55121쎯	-8.80182
40866쎯	-8.80218
17770쎯32542쎯	-8.80393
20030쎯	-8.80771
47160쎯	-8.81026
22218쎯74909쎯	-8.81194
42986쎯	-8.81211
58688쎯35311쎯	-8.81379
65312쎯	-8.81388
47575쎯41970쎯	-8.81401
69291쎯	-8.81428
13607쎯	-8.81461
34141쎯	-8.81616
73781쎯54178쎯	-8.81636
72870쎯40088쎯	-8.8167
2쎯0쎯0쎯3쎯60833쎯	-8.81692
12732쎯56789쎯	-8.8178
18703쎯	-8.81931
10772쎯60670쎯	-8.81974
34613쎯61132쎯	-8.82042
26458쎯	-8.82076
54772쎯70834쎯	-8.82091
21394쎯22847쎯	-8.82168
52583쎯	-8.82243
43460쎯54772쎯	-8.82263
26216쎯38934쎯	-8.82275
19496쎯	-8.82288
637쎯80435쎯16603쎯	-8.82299
32542쎯28965쎯	-8.82306
11851쎯	-8.82387
22760쎯	-8.82418
55957쎯58376쎯	-8.82461
29725쎯76055쎯	-8.82476
21957쎯	-8.82501
29560쎯19109쎯	-8.82538
15877쎯51013쎯	-8.82667
70758쎯	-8.82763
17602쎯11832쎯	-8.82796
3쎯0쎯	-8.83085
62821쎯	-8.83132
79872쎯24720쎯	-8.83295
74077쎯	-8.83308
39349쎯	-8.83309
56153쎯20202쎯	-8.83381
955쎯64920쎯19109쎯	-8.8361
16832쎯	-8.83656
42986쎯76736쎯	-8.83707
54974쎯56609쎯	-8.83729
75547쎯26216쎯	-8.83748
68909쎯16812쎯	-8.83859
27795쎯	-8.83905
28050쎯	-8.84073
59990쎯	-8.8413
56983쎯	-8.84139
20392쎯	-8.84142
73570쎯29275쎯	-8.84154
23993쎯15909쎯	-8.84161
79872쎯40951쎯	-8.84258
22197쎯60637쎯	-8.84316
67633쎯	-8.84323
56397쎯	-8.84357
9쎯55121쎯	-8.84409
13252쎯	-8.84429
52527쎯	-8.84459
22218쎯23356쎯	-8.84649
67175쎯	-8.84712
76024쎯32828쎯	-8.84733
64	-8.84872
2쎯0쎯0쎯2쎯60833쎯	-8.8489
38133쎯33950쎯	-8.84937
28222쎯42332쎯	-8.84964
20907쎯	-8.84999
75963쎯	-8.85334
65621쎯37955쎯	-8.85384
76316쎯42094쎯	-8.85404
29024쎯53448쎯	-8.85712
40501쎯	-8.85737
61206쎯	-8.85806
62153쎯	-8.85808
37955쎯45021쎯	-8.8582
37294쎯	-8.85871
50363쎯	-8.86256
15236쎯75951쎯	-8.86303
35601쎯	-8.86331
1쎯0쎯0쎯	-8.86333
30399쎯	-8.86369
24401쎯58509쎯	-8.8651
37633쎯20159쎯	-8.86527
44141쎯	-8.86591
53719쎯	-8.86596
79303쎯16209쎯	-8.86801
47575쎯24700쎯	-8.86985
35720쎯31486쎯	-8.87055
42261쎯	-8.8706
23331쎯60670쎯	-8.87236
65864쎯	-8.87255
78673쎯10535쎯	-8.87343
47788쎯	-8.87348
58429쎯57088쎯	-8.87389
49390쎯	-8.87395
4쎯0쎯	-8.8745
52160쎯	-8.87634
43854쎯	-8.8765
49854쎯57738쎯	-8.87691
54770쎯	-8.87694
71667쎯	-8.87711
22791쎯	-8.87758
63404쎯	-8.87818
29830쎯	-8.87844
62795쎯62090쎯	-8.87888
59262쎯	-8.87971
18673쎯60127쎯	-8.87979
10773쎯79303쎯	-8.88006
18523쎯	-8.88097
62474쎯49014쎯	-8.88115
74909쎯	-8.88343
26435쎯	-8.88354
44417쎯40088쎯	-8.88369
80721쎯	-8.88457
10364쎯	-8.88462
60833쎯45252쎯	-8.88642
51426쎯	-8.8873
23827쎯58991쎯	-8.88747
34	-8.88784
52750쎯70823쎯	-8.88803
71694쎯43691쎯	-8.88832
1쎯2쎯55121쎯	-8.88978
46374쎯	-8.89005
35048쎯	-8.8909
58509쎯	-8.89091
64191쎯	-8.89192
43637쎯	-8.89353
71167쎯57881쎯	-8.89492
49211쎯	-8.89515
2쎯0쎯0쎯0쎯60833쎯	-8.89521
13547쎯	-8.8974
78273쎯	-8.89872
45465쎯15438쎯	-8.89902
75868쎯41655쎯	-8.90042
73193쎯	-8.90144
69613쎯	-8.9024
79303쎯20348쎯	-8.9025
64184쎯	-8.90426
73364쎯42482쎯	-8.90486
43697쎯75547쎯	-8.90538
50642쎯37629쎯	-8.90545
27586쎯40088쎯	-8.9055
40521쎯	-8.90724
27708쎯	-8.90792
56609쎯33436쎯	-8.90826
11900쎯	-8.9085
38624쎯11139쎯	-8.90911
127쎯68313쎯64124쎯	-8.90923
38834쎯	-8.91021
17802쎯	-8.91063
36352쎯	-8.91158
21962쎯60670쎯	-8.91205
64661쎯19167쎯	-8.91274
62747쎯	-8.91274
61910쎯	-8.91335
56472쎯	-8.91519
48309쎯	-8.91719
62572쎯	-8.91733
13735쎯36944쎯	-8.91808
55623쎯44419쎯	-8.9181
79303쎯20827쎯	-8.9182
57158쎯70823쎯	-8.91838
58768쎯18840쎯	-8.91903
35584쎯72898쎯	-8.92039
15877쎯42094쎯	-8.92056
26507쎯53729쎯	-8.9209
57228쎯	-8.92112
69134쎯23457쎯	-8.92145
17439쎯	-8.92152
31887쎯74512쎯	-8.92199
44621쎯	-8.92212
65936쎯	-8.92212
76316쎯51013쎯	-8.92245
65109쎯	-8.92382
45851쎯46699쎯	-8.924
79	-8.92451
25989쎯41470쎯	-8.9247
68673쎯	-8.92521
54448쎯	-8.92525
80506쎯53322쎯	-8.92558
20827쎯29275쎯	-8.92635
78819쎯	-8.92694
33081쎯76736쎯	-8.9277
43795쎯	-8.92811
46057쎯	-8.92903
74909쎯33945쎯	-8.92967
70124쎯	-8.93052
70526쎯	-8.93069
16751쎯26896쎯	-8.93144
20570쎯“쎯	-8.93241
47991쎯	-8.93244
79805쎯60670쎯	-8.93281
10604쎯	-8.93323
80334쎯76795쎯	-8.93372
26157쎯	-8.93456
46177쎯63878쎯	-8.93566
69377쎯	-8.93595
44442쎯	-8.93696
70	-8.93705
32	-8.93743
37107쎯47819쎯	-8.93754
78973쎯49044쎯	-8.93889
34124쎯	-8.93988
75108쎯74899쎯	-8.93998
11	-8.94018
27711쎯	-8.94099
)쎯49089쎯	-8.94108
77640쎯	-8.94471
68428쎯24940쎯	-8.94474
38857쎯20839쎯	-8.94508
67734쎯64661쎯	-8.94578
22218쎯69484쎯	-8.9465
69344쎯55318쎯	-8.94734
69438쎯38603쎯	-8.94749
74132쎯	-8.94932
59281쎯	-8.95027
78782쎯49851쎯	-8.95098
2쎯0쎯0쎯1쎯60833쎯	-8.95233
19109쎯74849쎯	-8.9535
53674쎯	-8.95354
48082쎯	-8.95465
14303쎯	-8.95469
41830쎯	-8.95527
60559쎯	-8.95643
51216쎯79872쎯	-8.95655
14406쎯69416쎯	-8.95664
33460쎯	-8.95705
40979쎯47693쎯	-8.95744
69	-8.95779
21394쎯21966쎯	-8.95801
27795쎯70834쎯	-8.95906
46374쎯63962쎯	-8.9591
30	-8.95919
71752쎯53322쎯	-8.96041
44896쎯	-8.96288
76059쎯74899쎯	-8.96347
25989쎯10488쎯	-8.96361
1쎯9쎯9쎯8쎯60833쎯	-8.96363
29275쎯34789쎯	-8.96366
65266쎯	-8.96383
21123쎯	-8.96421
62	-8.9643
28028쎯	-8.96462
42649쎯74899쎯	-8.96505
15184쎯74512쎯	-8.96513
56146쎯57040쎯	-8.96516
40819쎯	-8.96555
48447쎯	-8.96582
19	-8.96583
78961쎯	-8.96585
55393쎯	-8.96589
24983쎯20827쎯	-8.96597
63878쎯20909쎯	-8.96786
25982쎯	-8.96957
18325쎯	-8.97039
46320쎯12341쎯	-8.97085
61642쎯	-8.97154
17438쎯	-8.97161
65462쎯	-8.97273
59534쎯46699쎯	-8.97459
14154쎯80794쎯	-8.97509
53140쎯38624쎯	-8.97519
》쎯56609쎯	-8.97594
32461쎯58576쎯	-8.97614
65621쎯10772쎯	-8.97699
43492쎯	-8.97707
53722쎯41470쎯	-8.97752
80789쎯74275쎯	-8.97788
78973쎯《쎯	-8.97801
72557쎯	-8.97834
15872쎯23899쎯	-8.9789
52457쎯37995쎯	-8.97893
43	-8.97953
76452쎯	-8.9798
65582쎯51216쎯	-8.98258
51450쎯52266쎯	-8.9829
53081쎯	-8.98437
39646쎯75050쎯	-8.98451
76591쎯47210쎯	-8.98463
22625쎯62633쎯	-8.98482
55861쎯17215쎯	-8.98531
63219쎯	-8.98697
65508쎯	-8.98775
60345쎯	-8.98802
25035쎯	-8.98861
34859쎯16433쎯	-8.98983
48172쎯	-8.99029
60989쎯	-8.99043
57040쎯55805쎯	-8.99092
15965쎯	-8.99261
39	-8.99302
59307쎯	-8.9955
47495쎯	-8.99562
38321쎯	-8.99741
70833쎯	-8.99844
49854쎯19167쎯	-9.00095
71685쎯	-9.00241
13581쎯54974쎯	-9.00243
47432쎯	-9.00265
18429쎯34141쎯	-9.00284
21588쎯	-9.0031
76591쎯72898쎯	-9.00347
49361쎯	-9.00483
65177쎯	-9.00499
69908쎯70833쎯	-9.00561
38229쎯	-9.0062
78847쎯	-9.00884
23853쎯	-9.01004
19020쎯	-9.01068
19020쎯32461쎯	-9.01085
24419쎯	-9.01108
49624쎯	-9.01123
49505쎯	-9.01146
1쎯0쎯55121쎯	-9.0117
17872쎯	-9.012
63014쎯	-9.01236
57504쎯	-9.01283
78673쎯21359쎯	-9.01358
62562쎯	-9.01437
42482쎯19167쎯	-9.01444
76591쎯	-9.01502
46	-9.01557
25	-9.01696
21091쎯68428쎯	-9.01738
79303쎯24983쎯	-9.01747
78121쎯	-9.01794
》쎯51216쎯	-9.01809
53	-9.01816
65542쎯	-9.01901
40636쎯	-9.01981
22922쎯	-9.02068
57133쎯64399쎯	-9.02117
79709쎯	-9.02134
79508쎯	-9.0215
57678쎯62313쎯	-9.02165
27742쎯	-9.02203
46278쎯21962쎯	-9.0233
20448쎯	-9.02364
20909쎯66590쎯	-9.02379
37294쎯24891쎯	-9.02524
30712쎯	-9.02551
36954쎯	-9.02574
14	-9.02577
31760쎯	-9.02584
68842쎯	-9.02592
41187쎯	-9.02615
50451쎯43133쎯	-9.02655
48172쎯47160쎯	-9.02684
21966쎯58429쎯	-9.02684
6쎯55121쎯	-9.02736
68866쎯29307쎯	-9.02823
58409쎯	-9.02885
10535쎯65582쎯	-9.02971
63	-9.03101
64661쎯27195쎯	-9.03109
38961쎯	-9.0314
61771쎯	-9.03221
72384쎯	-9.0323
49209쎯35864쎯	-9.03244
17	-9.0329
48220쎯	-9.03323
20074쎯59150쎯	-9.03386
22625쎯51216쎯	-9.03459
32172쎯	-9.03477
32197쎯11630쎯	-9.0349
76024쎯44129쎯	-9.03579
11998쎯	-9.03658
48644쎯29560쎯	-9.03687
13581쎯36944쎯	-9.03763
17876쎯	-9.03764
10401쎯57489쎯	-9.03784
50424쎯	-9.0381
28441쎯37633쎯	-9.03814
30658쎯38934쎯	-9.03824
40751쎯	-9.03957
72384쎯65718쎯	-9.03971
37454쎯	-9.04
30524쎯35641쎯48	-9.04068
35346쎯49089쎯	-9.04086
1쎯7쎯	-9.04169
59534쎯	-9.04186
30222쎯21088쎯	-9.04194
72590쎯	-9.04261
36254쎯	-9.04275
22503쎯	-9.04304
67196쎯52233쎯	-9.04324
71	-9.04395
72397쎯74275쎯	-9.0444
43460쎯19043쎯	-9.04492
56544쎯56544쎯5654	-9.04505
68313쎯	-9.04567
16	-9.04575
69134쎯21394쎯	-9.04601
47	-9.04612
77	-9.04638
49014쎯28907쎯	-9.04642
78973쎯76059쎯	-9.04653
59978쎯	-9.04758
1쎯9쎯9쎯7쎯60833쎯	-9.04887
78973쎯69416쎯	-9.04922
15909쎯31641쎯	-9.04959
79872쎯37995쎯	-9.04968
24526쎯	-9.04996
37638쎯	-9.05008
25841쎯42482쎯	-9.05058
15349쎯	-9.0508
38617쎯	-9.05152
38732쎯	-9.05276
20839쎯46699쎯	-9.05334
19507쎯	-9.05401
74849쎯	-9.05582
66483쎯	-9.05594
43707쎯	-9.05598
20074쎯23899쎯	-9.05608
49851쎯20909쎯	-9.05667
55957쎯75547쎯	-9.05697
23486쎯60833쎯	-9.05793
42649쎯18939쎯	-9.05842
62474쎯55957쎯41	-9.05957
56777쎯	-9.06053
40088쎯79766쎯	-9.06059
69406쎯	-9.06068
53100쎯	-9.06081
21588쎯40951쎯	-9.06097
79872쎯33596쎯	-9.06113
79303쎯35952쎯	-9.06144
65115쎯18032쎯	-9.06168
51145쎯	-9.0617
65508쎯74512쎯	-9.06243
47782쎯	-9.06315
69484쎯	-9.06321
66006쎯	-9.06553
54313쎯	-9.06561
12732쎯62795쎯	-9.0657
34486쎯	-9.06615
46488쎯	-9.06708
23	-9.06725
29560쎯	-9.06741
77687쎯36602쎯	-9.0676
68	-9.06833
79508쎯18431쎯	-9.06941
66864쎯	-9.07095
1쎯9쎯9쎯6쎯60833쎯	-9.07264
1쎯3쎯	-9.0729
52054쎯	-9.07304
72	-9.07346
40996쎯	-9.07361
69515쎯	-9.07446
64399쎯	-9.07486
47782쎯20909쎯	-9.07497
1쎯9쎯9쎯9쎯60833쎯	-9.07501
20202쎯79303쎯	-9.07538
27662쎯	-9.07553
11023쎯	-9.0761
17303쎯	-9.07672
44459쎯	-9.07676
79303쎯13854쎯	-9.07704
27333쎯80789쎯	-9.07714
45996쎯	-9.07719
34091쎯	-9.07752
29570쎯	-9.07839
46834쎯	-9.07845
12341쎯48497쎯	-9.07906
53106쎯42081쎯	-9.07977
19700쎯	-9.08023
41080쎯79872쎯	-9.08025
20591쎯	-9.08027
75251쎯	-9.08097
76319쎯	-9.08131
45744쎯	-9.08174
50966쎯75547쎯	-9.08348
18713쎯	-9.08366
56956쎯	-9.08402
76055쎯76506쎯	-9.08403
56622쎯	-9.08443
38652쎯35720쎯	-9.08527
31641쎯79766쎯	-9.08572
60304쎯	-9.0862
79303쎯30658쎯	-9.08622
12077쎯	-9.08755
44737쎯44737쎯	-9.08771
54772쎯19167쎯	-9.08795
80397쎯	-9.09005
38881쎯	-9.09087
》쎯79303쎯	-9.0938
71948쎯20909쎯	-9.09393
45931쎯	-9.09463
51314쎯	-9.09472
36348쎯59860쎯	-9.0951
64211쎯	-9.09525
72397쎯67196쎯	-9.09571
1쎯4쎯	-9.09597
22625쎯79872쎯	-9.09602
55717쎯	-9.0964
46289쎯	-9.09794
50532쎯	-9.09916
49	-9.09971
25841쎯24524쎯	-9.09998
29570쎯48082쎯	-9.101
67196쎯79929쎯	-9.10219
1쎯9쎯9쎯5쎯60833쎯	-9.10289
19457쎯	-9.10339
51832쎯	-9.10353
23779쎯55237쎯	-9.10387
79303쎯76196쎯	-9.10389
57678쎯	-9.10412
20701쎯	-9.10425
70889쎯49873쎯	-9.10426
53140쎯	-9.10486
20192쎯	-9.10497
69963쎯	-9.10501
45065쎯	-9.10519
53155쎯	-9.10589
19434쎯	-9.10677
38624쎯65462쎯	-9.10748
25037쎯	-9.10749
15381쎯	-9.11018
16455쎯26925쎯	-9.11161
6쎯0쎯	-9.11233
28441쎯57702쎯	-9.11304
43972쎯	-9.11324
32626쎯	-9.11401
28028쎯50579쎯	-9.11418
52	-9.11449
38732쎯35864쎯	-9.1148
76919쎯20202쎯	-9.11648
54974쎯62474쎯	-9.1168
61061쎯	-9.11763
66145쎯80794쎯	-9.11793
75203쎯79805쎯	-9.1184
12	-9.11961
1쎯9쎯9쎯3쎯60833쎯	-9.12018
45851쎯80242쎯	-9.12049
22761쎯79303쎯	-9.12127
21394쎯61132쎯	-9.12239
37319쎯	-9.12342
16598쎯17086쎯	-9.12343
11628쎯41164쎯	-9.12376
11789쎯76736쎯	-9.12428
15488쎯	-9.12518
47575쎯21088쎯	-9.1262
▁쎯《쎯	-9.12774
21962쎯76795쎯	-9.128
17496쎯	-9.12924
12078쎯20159쎯	-9.13064
61	-9.13085
48	-9.13127
69313쎯	-9.13143
29725쎯	-9.13199
44902쎯11079쎯	-9.13214
21423쎯	-9.13266
30222쎯79322쎯	-9.13403
41655쎯	-9.13412
1쎯9쎯8쎯4쎯60833쎯	-9.13463
76412쎯27195쎯	-9.13555
2쎯0쎯1쎯1쎯60833쎯	-9.13569
71948쎯	-9.13694
15018쎯	-9.13771
20760쎯	-9.13812
1쎯9쎯9쎯2쎯60833쎯	-9.13825
44843쎯	-9.13832
17215쎯	-9.13836
65	-9.13866
16460쎯36944쎯	-9.13875
267쎯62633쎯79303쎯	-9.1394
55	-9.13942
50451쎯26896쎯	-9.13965
43460쎯47819쎯	-9.14015
11628쎯35720쎯	-9.14077
10772쎯76795쎯	-9.14089
36651쎯	-9.1411
60127쎯20202쎯	-9.14186
60637쎯70823쎯	-9.14199
37107쎯	-9.14239
79303쎯77687쎯	-9.14273
41975쎯38701쎯	-9.14353
60022쎯	-9.14425
71025쎯	-9.14507
36430쎯	-9.14548
57881쎯57630쎯	-9.14577
27333쎯	-9.14598
74713쎯	-9.14629
43659쎯74899쎯	-9.14692
62187쎯	-9.14702
78792쎯	-9.14707
16451쎯52993쎯	-9.14743
35864쎯48644쎯	-9.14761
61190쎯	-9.14763
55805쎯	-9.14773
21102쎯41710쎯	-9.14817
79132쎯53322쎯	-9.14905
25982쎯65508쎯	-9.15066
38961쎯10175쎯	-9.15103
71903쎯37822쎯	-9.15111
17086쎯46301쎯	-9.15319
15281쎯	-9.15434
58	-9.15468
72898쎯	-9.1547
57971쎯	-9.15549
74275쎯60670쎯	-9.1556
22791쎯57489쎯	-9.15579
69613쎯38961쎯	-9.15614
65780쎯57881쎯	-9.15669
42094쎯61132쎯	-9.15706
76182쎯51087쎯	-9.15718
79303쎯23853쎯	-9.15745
56491쎯	-9.15802
34446쎯20814쎯	-9.15887
47302쎯51314쎯	-9.15937
13889쎯	-9.1595
2쎯5쎯	-9.16029
28851쎯	-9.1608
44417쎯	-9.16083
22801쎯	-9.16306
70206쎯	-9.1639
57489쎯79303쎯	-9.16476
30217쎯60637쎯	-9.16637
25989쎯32542쎯	-9.16666
24233쎯47788쎯	-9.16688
32403쎯	-9.16745
34859쎯29560쎯	-9.16794
3쎯55121쎯	-9.16807
16061쎯	-9.1686
29024쎯79046쎯	-9.1689
60460쎯	-9.16949
72454쎯	-9.16968
31337쎯46224쎯	-9.16996
32461쎯49802쎯	-9.17011
63761쎯	-9.17018
42658쎯	-9.17028
60127쎯43492쎯	-9.17133
23020쎯	-9.17155
66622쎯63962쎯	-9.17252
12034쎯37633쎯	-9.17357
22625쎯32901쎯	-9.17413
20909쎯73680쎯	-9.17441
26	-9.17467
23131쎯	-9.17473
49013쎯76736쎯	-9.17487
15791쎯	-9.17513
47819쎯59150쎯	-9.17515
19109쎯69405쎯	-9.17525
62818쎯21359쎯	-9.17564
58535쎯	-9.17601
76739쎯75447쎯	-9.17605
50252쎯	-9.17652
24524쎯30682쎯	-9.17755
71554쎯	-9.17782
40951쎯45252쎯	-9.17793
75108쎯79303쎯	-9.17807
11283쎯	-9.17862
77089쎯	-9.17971
69291쎯28800쎯	-9.18048
52993쎯	-9.1805
20202쎯78973쎯	-9.18054
32410쎯	-9.18056
53525쎯	-9.18105
1쎯9쎯9쎯4쎯60833쎯	-9.1812
31641쎯29560쎯	-9.18198
43629쎯	-9.18201
17771쎯	-9.18238
67246쎯	-9.18267
79872쎯32901쎯	-9.18339
57133쎯54472쎯	-9.18441
▁쎯12267쎯30399쎯	-9.18482
34449쎯	-9.1852
11099쎯	-9.18594
74715쎯12078쎯	-9.18596
79872쎯56956쎯	-9.18675
76316쎯56146쎯	-9.18814
52125쎯	-9.18815
16262쎯	-9.18832
16209쎯48497쎯	-9.18836
61184쎯	-9.18892
46320쎯49802쎯	-9.18899
68866쎯	-9.18921
79872쎯61132쎯	-9.18951
51216쎯70834쎯	-9.18982
46202쎯10772쎯	-9.19034
16455쎯	-9.19043
42524쎯	-9.19056
80826쎯48357쎯	-9.19058
53472쎯50337쎯	-9.19108
74980쎯16460쎯	-9.19111
38881쎯29275쎯	-9.19272
79303쎯73570쎯	-9.19301
47210쎯37633쎯	-9.19372
35150쎯	-9.19413
77381쎯	-9.19531
39873쎯	-9.19652
11635쎯46320쎯	-9.19681
69711쎯52750쎯	-9.19698
14536쎯80049쎯	-9.19707
11525쎯	-9.19728
24001쎯	-9.19742
23925쎯30233쎯	-9.19769
37091쎯	-9.19872
51013쎯61132쎯	-9.19914
33945쎯41347쎯	-9.19954
69416쎯35952쎯	-9.20181
16433쎯54178쎯	-9.20255
27747쎯19802쎯	-9.20613
26925쎯	-9.20627
38731쎯	-9.20707
1쎯9쎯8쎯5쎯60833쎯	-9.20725
37633쎯28664쎯	-9.20774
50966쎯70026쎯	-9.20799
80750쎯	-9.20813
57133쎯20839쎯	-9.20858
74	-9.20894
58626쎯	-9.20897
45616쎯	-9.20949
53510쎯57630쎯	-9.20985
21	-9.20996
73680쎯80334쎯	-9.21087
79132쎯	-9.21102
73570쎯71554쎯	-9.21117
33343쎯23899쎯	-9.21122
22526쎯74715쎯	-9.21142
27194쎯	-9.21156
15278쎯	-9.2116
62795쎯10772쎯	-9.21336
51	-9.21361
66	-9.21385
26157쎯22727쎯	-9.21409
10204쎯	-9.21515
13581쎯20448쎯	-9.21557
53729쎯78973쎯	-9.21647
66082쎯	-9.2165
44493쎯75547쎯	-9.21679
32813쎯	-9.21681
73570쎯20827쎯	-9.21786
24524쎯63962쎯	-9.21787
42	-9.21835
51158쎯	-9.21986
31915쎯	-9.22168
61132쎯20202쎯	-9.22186
19167쎯“쎯	-9.22287
19434쎯50573쎯	-9.22355
15235쎯	-9.2237
27859쎯76736쎯	-9.22404
45252쎯80792쎯	-9.22451
71473쎯	-9.2246
37656쎯	-9.22651
56398쎯	-9.22682
58194쎯76795쎯	-9.22789
67734쎯21503쎯	-9.22795
2쎯4쎯	-9.22845
32461쎯76506쎯	-9.22869
80792쎯39063쎯	-9.2289
60207쎯	-9.22912
18948쎯	-9.23094
23617쎯63219쎯	-9.23135
25094쎯	-9.23149
35536쎯	-9.23174
15877쎯76316쎯	-9.23186
33400쎯25286쎯	-9.23226
57133쎯41187쎯	-9.23397
53327쎯18466쎯	-9.23507
17353쎯33081쎯	-9.23536
8쎯0쎯	-9.2355
36455쎯	-9.23562
75603쎯	-9.23567
21966쎯79303쎯	-9.23583
80792쎯57107쎯	-9.23655
44864쎯	-9.23675
47366쎯	-9.23705
52233쎯	-9.23917
12267쎯55957쎯	-9.23934
47145쎯	-9.23971
20202쎯49089쎯	-9.24097
30410쎯	-9.24146
79872쎯78398쎯	-9.24192
17086쎯77504쎯	-9.24211
1쎯9쎯8쎯8쎯60833쎯	-9.24246
21359쎯	-9.24402
80826쎯	-9.24469
60565쎯	-9.24516
73023쎯	-9.24548
55623쎯	-9.24652
36651쎯49700쎯	-9.24685
67	-9.24697
46224쎯57881쎯	-9.24741
30222쎯20814쎯	-9.24748
56337쎯	-9.24926
71167쎯	-9.24969
54974쎯29327쎯	-9.24979
56	-9.25052
11283쎯57630쎯	-9.25072
58037쎯	-9.25156
79308쎯	-9.25202
22325쎯13262쎯	-9.25277
38828쎯	-9.25281
5쎯55121쎯	-9.25343
50305쎯	-9.25364
67909쎯	-9.25395
17807쎯	-9.25426
45851쎯45931쎯	-9.25515
9쎯0쎯	-9.25715
25497쎯23356쎯	-9.25729
68454쎯11079쎯	-9.25779
26399쎯	-9.2586
39746쎯	-9.25902
37002쎯74899쎯	-9.2593
70889쎯	-9.26024
79303쎯36820쎯	-9.26072
38380쎯28123쎯	-9.26078
46224쎯	-9.26158
215쎯47693쎯61132쎯	-9.2618
60312쎯	-9.26189
65464쎯	-9.26209
56661쎯	-9.26219
21220쎯	-9.26304
74840쎯50252쎯	-9.26357
59140쎯	-9.2642
29026쎯	-9.26497
66949쎯	-9.26602
63109쎯	-9.2667
62090쎯37107쎯	-9.26683
17086쎯21951쎯	-9.26785
41830쎯47210쎯	-9.26862
80420쎯	-9.269
10695쎯	-9.269
19020쎯63962쎯	-9.26908
63758쎯	-9.2699
63962쎯48643쎯	-9.27
1쎯9쎯9쎯0쎯60833쎯	-9.27024
17086쎯38603쎯	-9.27035
35547쎯	-9.27124
15622쎯74849쎯	-9.27136
11628쎯	-9.27166
30658쎯78273쎯	-9.27188
47302쎯79303쎯	-9.27202
36	-9.27208
79303쎯38321쎯	-9.27215
34349쎯42482쎯	-9.27236
43402쎯57040쎯	-9.27245
17086쎯57738쎯	-9.27255
79766쎯	-9.27264
13581쎯29327쎯	-9.27317
40	-9.27348
73015쎯80435쎯	-9.27406
63878쎯74899쎯	-9.27437
32901쎯	-9.2744
20614쎯	-9.27456
33009쎯	-9.27474
78222쎯	-9.27484
》쎯78973쎯	-9.27522
37633쎯57489쎯	-9.27542
78973쎯35952쎯	-9.27559
》쎯(쎯	-9.27572
30222쎯46699쎯	-9.27637
36602쎯	-9.27668
77103쎯21962쎯	-9.27894
1쎯9쎯8쎯6쎯60833쎯	-9.28209
57069쎯	-9.28221
59	-9.2835
45851쎯53081쎯	-9.28445
43697쎯51216쎯	-9.28449
50337쎯10535쎯	-9.2854
544쎯56544쎯56544쎯	-9.28545
11998쎯51216쎯	-9.28615
22526쎯	-9.28636
39149쎯43659쎯	-9.28673
25139쎯80750쎯	-9.28689
21687쎯	-9.28732
71294쎯42658쎯	-9.28736
43357쎯	-9.28846
46488쎯69613쎯	-9.28901
58953쎯	-9.28909
76196쎯78673쎯	-9.29023
20348쎯75547쎯	-9.29033
1쎯9쎯8쎯7쎯60833쎯	-9.29078
4쎯56544쎯56544쎯56	-9.29147
19434쎯53575쎯	-9.29167
78	-9.29398
27041쎯73305쎯	-9.29611
52400쎯58713쎯	-9.29629
29861쎯75686쎯	-9.29631
64211쎯30199쎯	-9.29635
75210쎯	-9.29682
72397쎯21962쎯	-9.29714
23131쎯23899쎯	-9.2972
15909쎯40459쎯	-9.29794
31641쎯47431쎯	-9.29858
47471쎯	-9.29942
34150쎯	-9.29961
11599쎯	-9.30024
68313쎯78782쎯	-9.30066
29861쎯76736쎯	-9.30172
17807쎯65621쎯	-9.30255
10535쎯56284쎯	-9.30291
45237쎯	-9.30321
49089쎯69405쎯	-9.30395
56661쎯50826쎯	-9.304
72126쎯	-9.30427
50966쎯61642쎯	-9.30548
40600쎯16209쎯	-9.30595
53510쎯60833쎯	-9.30607
16488쎯	-9.30622
23020쎯51087쎯	-9.30652
35837쎯	-9.30677
1쎯55121쎯	-9.30709
36602쎯19167쎯	-9.30788
45663쎯	-9.30883
22143쎯	-9.3091
75074쎯64661쎯	-9.30964
49646쎯	-9.3106
71632쎯	-9.31122
29315쎯	-9.31124
41	-9.31306
78782쎯	-9.31312
60371쎯	-9.3139
1쎯1쎯55121쎯	-9.31392
17602쎯48082쎯	-9.31458
73	-9.31534
37822쎯36550쎯	-9.31584
62680쎯59548쎯	-9.3164
20	-9.31733
51400쎯76979쎯	-9.31738
80	-9.31748
4쎯55121쎯	-9.31809
73986쎯36300쎯	-9.31811
1쎯72295쎯	-9.31863
73424쎯	-9.31892
65292쎯	-9.31896
68909쎯	-9.3193
21237쎯	-9.31941
22940쎯	-9.31961
79872쎯52878쎯	-9.32014
15	-9.32091
79872쎯60833쎯	-9.32093
51582쎯	-9.32112
37294쎯17005쎯	-9.32144
79872쎯53729쎯	-9.32186
53322쎯46278쎯	-9.32199
80242쎯54178쎯	-9.32226
45851쎯19109쎯	-9.32262
54974쎯74512쎯	-9.32264
1쎯57630쎯	-9.32347
79057쎯	-9.3236
63686쎯29275쎯	-9.32451
55623쎯74512쎯	-9.32455
27251쎯72475쎯	-9.32455
25286쎯22523쎯	-9.32484
60741쎯	-9.32488
73364쎯39103쎯	-9.32499
79303쎯38652쎯	-9.32505
10772쎯34349쎯	-9.32526
80242쎯67196쎯	-9.32547
17284쎯	-9.32737
54110쎯	-9.32755
25841쎯21088쎯	-9.32782
50581쎯	-9.32786
49851쎯79303쎯	-9.3284
62645쎯12111쎯	-9.32846
76919쎯27747쎯	-9.3291
53722쎯53729쎯	-9.32912
58639쎯	-9.32924
15622쎯79872쎯	-9.32946
79215쎯	-9.32981
27251쎯	-9.33083
16394쎯	-9.33123
54544쎯	-9.3314
65550쎯	-9.33146
60	-9.3318
05쎯11630쎯60559쎯	-9.33275
17602쎯37294쎯	-9.33312
17215쎯38961쎯	-9.33367
79805쎯52956쎯	-9.33477
18431쎯33536쎯	-9.33535
1쎯9쎯8쎯2쎯60833쎯	-9.33816
43792쎯	-9.33957
66590쎯28261쎯	-9.3396
40088쎯78273쎯	-9.34003
29	-9.34043
12267쎯56146쎯	-9.34119
28800쎯22847쎯67	-9.34123
62959쎯	-9.34199
19505쎯35864쎯	-9.34206
74738쎯	-9.34253
21026쎯	-9.34262
10	-9.34264
16451쎯	-9.34311
70614쎯	-9.344
38701쎯79322쎯	-9.34433
1쎯9쎯8쎯9쎯60833쎯	-9.34447
75447쎯64046쎯	-9.34455
38652쎯53729쎯	-9.34554
72545쎯62747쎯	-9.34606
67226쎯18315쎯	-9.34673
76013쎯	-9.34677
56609쎯21962쎯	-9.34708
45021쎯	-9.34715
79872쎯36759쎯	-9.34768
69908쎯72384쎯	-9.34813
36944쎯45252쎯	-9.34823
57641쎯76736쎯	-9.34919
75547쎯74218쎯	-9.34935
42849쎯45851쎯	-9.34957
43901쎯	-9.34989
73015쎯79766쎯	-9.35016
40837쎯18315쎯	-9.35024
62117쎯	-9.35044
64191쎯21394쎯	-9.35054
66534쎯	-9.3512
22428쎯	-9.35145
75050쎯	-9.35183
45	-9.35229
71219쎯	-9.35294
45465쎯	-9.35418
54305쎯	-9.35483
1쎯9쎯9쎯1쎯60833쎯	-9.35577
69769쎯	-9.35611
33	-9.35698
57248쎯10773쎯	-9.35724
27747쎯20202쎯	-9.35754
53081쎯71004쎯	-9.35795
25225쎯	-9.35798
26216쎯	-9.35825
33633쎯	-9.3589
29760쎯	-9.35999
60511쎯20202쎯	-9.36012
27378쎯61026쎯	-9.36023
36046쎯31887쎯	-9.36086
79303쎯21088쎯	-9.36121
14474쎯	-9.36152
42649쎯60637쎯55	-9.36172
48113쎯74218쎯	-9.36181
79872쎯34349쎯	-9.36216
32284쎯	-9.36276
37251쎯	-9.36398
74773쎯	-9.36564
30888쎯	-9.36609
49624쎯72389쎯	-9.3668
41123쎯	-9.36882
72580쎯	-9.36914
79872쎯78983쎯	-9.36941
21491쎯44902쎯	-9.36979
65693쎯	-9.37029
58376쎯60833쎯	-9.37051
60096쎯	-9.37118
64558쎯45856쎯	-9.37128
76316쎯61132쎯	-9.3714
25841쎯76024쎯	-9.37141
61132쎯55237쎯	-9.37217
62795쎯57702쎯	-9.37229
17907쎯	-9.37376
71752쎯20074쎯	-9.3747
17602쎯42234쎯	-9.37475
47178쎯	-9.37508
74715쎯61132쎯	-9.37554
24	-9.37554
10358쎯	-9.37614
53472쎯	-9.37708
25989쎯73352쎯	-9.37714
》쎯《쎯	-9.37729
60637쎯53322쎯	-9.37738
22	-9.37809
61454쎯	-9.37809
30934쎯	-9.37842
79872쎯46289쎯	-9.37848
67943쎯35636쎯	-9.37897
52601쎯	-9.37917
62123쎯10535쎯	-9.38096
31141쎯	-9.38157
65544쎯45252쎯	-9.3818
53322쎯60637쎯	-9.38191
57614쎯	-9.38245
51803쎯73666쎯	-9.38404
35952쎯15349쎯	-9.38413
28	-9.38489
59150쎯	-9.3864
53374쎯	-9.38789
31887쎯23899쎯	-9.38994
21966쎯60637쎯	-9.39005
54974쎯27747쎯	-9.39022
13581쎯32172쎯	-9.39073
41975쎯27747쎯	-9.39112
71843쎯	-9.3914
74424쎯	-9.39144
79784쎯	-9.39155
58636쎯	-9.3919
67943쎯45851쎯	-9.39295
49851쎯78973쎯	-9.39312
10535쎯20202쎯	-9.39347
53722쎯36029쎯	-9.39399
66876쎯42094쎯	-9.39482
11283쎯28261쎯	-9.39495
71395쎯	-9.39516
56111쎯	-9.39574
63054쎯	-9.39703
15877쎯22218쎯	-9.3979
35024쎯	-9.39807
51539쎯	-9.40031
66833쎯	-9.40069
14141쎯	-9.40082
75547쎯46320쎯	-9.40128
68084쎯	-9.40161
53839쎯	-9.40252
53722쎯60670쎯	-9.40304
09쎯29560쎯49851쎯	-9.40356
31993쎯	-9.40387
▁쎯2쎯72295쎯	-9.40433
42529쎯	-9.4055
17748쎯	-9.40571
1쎯9쎯	-9.40601
69711쎯	-9.40606
68952쎯	-9.40626
55237쎯70016쎯	-9.4067
57133쎯34091쎯	-9.40713
1쎯9쎯8쎯3쎯60833쎯	-9.40735
76776쎯65718쎯	-9.40824
29327쎯52781쎯	-9.40847
46861쎯	-9.40879
17215쎯46699쎯	-9.40986
79902쎯	-9.41093
52160쎯57040쎯	-9.41122
11630쎯43431쎯	-9.41124
28043쎯	-9.41176
46553쎯47819쎯	-9.41177
31887쎯80334쎯	-9.41214
21962쎯10488쎯	-9.41216
36418쎯	-9.41315
27551쎯58571쎯	-9.41413
64459쎯	-9.41417
73119쎯58403쎯	-9.41469
72479쎯30682쎯	-9.41531
20234쎯58768쎯	-9.41575
80435쎯64920쎯	-9.41611
43460쎯78782쎯	-9.41619
70865쎯	-9.41622
76100쎯	-9.41747
53510쎯67734쎯	-9.41773
957쎯68055쎯53322쎯	-9.41797
22761쎯37002쎯	-9.41824
64661쎯18939쎯	-9.41858
60833쎯74275쎯	-9.41902
42649쎯60127쎯	-9.41902
26108쎯	-9.41982
13622쎯	-9.41983
《쎯62474쎯53322쎯	-9.42045
18654쎯23671쎯	-9.42047
62795쎯40996쎯	-9.42048
75171쎯	-9.42092
18466쎯	-9.421
52449쎯	-9.42121
25849쎯24233쎯	-9.42125
54772쎯51314쎯	-9.42132
11783쎯	-9.42144
51148쎯	-9.42275
35659쎯	-9.42364
34032쎯	-9.42431
23779쎯28261쎯	-9.4266
50823쎯	-9.42734
2쎯0쎯0쎯	-9.42817
64211쎯67734쎯	-9.42834
62795쎯12587쎯	-9.42855
44902쎯27626쎯	-9.42889
36369쎯	-9.42932
25357쎯	-9.42991
50124쎯10535쎯	-9.43032
24401쎯	-9.43058
12111쎯20839쎯	-9.43091
63962쎯45252쎯	-9.4311
66859쎯	-9.43165
60559쎯66483쎯	-9.43238
74346쎯49700쎯	-9.43255
23601쎯	-9.43295
37	-9.43358
30217쎯52054쎯	-9.4338
53729쎯20570쎯	-9.43381
52054쎯72221쎯	-9.43426
66538쎯	-9.43449
40022쎯	-9.43454
38	-9.43577
29327쎯67828쎯	-9.43627
21962쎯10773쎯	-9.43649
53081쎯24891쎯	-9.43689
21962쎯11925쎯	-9.43707
7쎯0쎯	-9.43838
10072쎯	-9.43882
0쎯0쎯69344쎯22218쎯	-9.43896
40970쎯20839쎯	-9.43983
49873쎯	-9.44029
63691쎯	-9.44034
47575쎯20839쎯	-9.44076
17547쎯27847쎯	-9.44099
32613쎯	-9.44172
37518쎯	-9.44196
37633쎯37955쎯	-9.44298
76736쎯40819쎯	-9.44342
13784쎯	-9.44385
55861쎯42658쎯	-9.44419
46374쎯63404쎯	-9.44449
79322쎯60670쎯	-9.44486
51524쎯	-9.44533
42649쎯28664쎯	-9.44723
4쎯5쎯	-9.44731
57040쎯61642쎯	-9.44756
30252쎯	-9.44756
28489쎯	-9.44789
75265쎯	-9.44793
21951쎯	-9.44908
52457쎯29560쎯	-9.45065
11635쎯38828쎯	-9.45106
74438쎯	-9.45251
72475쎯	-9.45362
79303쎯72870쎯	-9.45418
14363쎯33013쎯	-9.45437
46721쎯58509쎯	-9.4544
73570쎯51216쎯	-9.45482
79303쎯22625쎯	-9.45523
72309쎯74512쎯	-9.45523
47178쎯43133쎯	-9.45536
2쎯8쎯	-9.45732
77089쎯40837쎯	-9.45767
53081쎯20159쎯	-9.45954
25989쎯	-9.46064
34859쎯42649쎯	-9.46068
15018쎯16209쎯	-9.46104
29274쎯44790쎯	-9.46117
78782쎯63962쎯	-9.4612
10047쎯	-9.46175
10535쎯37091쎯	-9.46204
74980쎯10773쎯	-9.46216
28441쎯46699쎯	-9.46236
44090쎯69416쎯	-9.4627
47788쎯71903쎯	-9.46352
19457쎯20814쎯	-9.46482
72415쎯	-9.46489
40600쎯72397쎯	-9.46555
66746쎯	-9.4657
43299쎯48273쎯	-9.46588
21220쎯34141쎯	-9.46707
18	-9.46718
54890쎯	-9.46781
58571쎯39873쎯	-9.46898
71294쎯11283쎯	-9.46918
42094쎯51013쎯	-9.46991
40459쎯31486쎯	-9.47005
16455쎯72545쎯	-9.47022
2쎯0쎯1쎯2쎯60833쎯	-9.47058
58953쎯43691쎯	-9.47069
45252쎯54472쎯	-9.47082
59079쎯	-9.47114
48051쎯	-9.47151
31968쎯	-9.47177
21957쎯36550쎯	-9.4718
18315쎯27711쎯	-9.47271
27260쎯	-9.4747
57519쎯18654쎯	-9.47503
10443쎯38934쎯	-9.47519
21789쎯	-9.47567
16035쎯	-9.47623
72545쎯59534쎯	-9.47638
79303쎯55777쎯	-9.47686
64505쎯	-9.47707
17661쎯19802쎯	-9.47711
57040쎯23601쎯	-9.47712
72573쎯	-9.47722
13607쎯46177쎯	-9.47843
18914쎯	-9.47866
3쎯2쎯	-9.47978
28965쎯	-9.47991
20965쎯	-9.48014
48767쎯37492쎯	-9.48076
14137쎯60833쎯	-9.48086
22051쎯	-9.48165
50581쎯35302쎯	-9.4822
21091쎯	-9.48242
50699쎯23899쎯	-9.48291
69406쎯13550쎯	-9.48421
21503쎯37995쎯	-9.48483
50285쎯	-9.48487
41127쎯	-9.48488
53203쎯21088쎯	-9.48523
72898쎯10535쎯	-9.48613
69154쎯	-9.48698
46541쎯35572쎯	-9.48717
49268쎯33013쎯	-9.48755
43492쎯53729쎯	-9.48778
38380쎯11635쎯	-9.48785
12111쎯42015쎯	-9.48882
47835쎯42015쎯	-9.48933
38624쎯37002쎯	-9.4894
52750쎯44248쎯	-9.48967
76058쎯	-9.48974
51216쎯57248쎯	-9.49005
28907쎯10772쎯	-9.49182
41694쎯47302쎯	-9.49207
78983쎯10535쎯	-9.49236
24932쎯	-9.49273
32155쎯	-9.49306
79959쎯	-9.4936
31641쎯21088쎯	-9.49481
27023쎯	-9.4949
25989쎯62313쎯	-9.49622
79303쎯49044쎯	-9.49668
49950쎯	-9.49694
62123쎯62474쎯	-9.4972
14137쎯57630쎯	-9.50019
77983쎯	-9.50034
58643쎯76736쎯	-9.50063
12876쎯44459쎯	-9.50074
39955쎯	-9.50085
76884쎯	-9.50146
16209쎯51314쎯	-9.50169
43717쎯	-9.50253
1쎯9쎯5쎯8쎯60833쎯	-9.50255
56684쎯	-9.50389
48950쎯	-9.50419
13550쎯	-9.50426
70571쎯13155쎯	-9.50564
75357쎯	-9.50593
78531쎯	-9.50651
28961쎯	-9.50699
46553쎯74503쎯	-9.50704
20074쎯62313쎯	-9.50735
23908쎯	-9.50784
15622쎯	-9.50797
18139쎯16460쎯	-9.50834
37479쎯	-9.50923
10535쎯73352쎯	-9.50934
36046쎯	-9.50994
28773쎯28020쎯	-9.51008
60670쎯38577쎯	-9.51051
13331쎯58576쎯	-9.51099
60748쎯	-9.51165
42649쎯55318쎯	-9.51167
45851쎯79046쎯	-9.5118
21342쎯	-9.51259
14924쎯57158쎯	-9.51522
3쎯5쎯	-9.51528
76979쎯28261쎯	-9.5153
2쎯55121쎯	-9.51544
14536쎯66483쎯	-9.5156
50627쎯57489쎯	-9.51611
21962쎯52878쎯	-9.5166
26896쎯58768쎯	-9.51683
19413쎯	-9.51758
20614쎯42094쎯	-9.51785
79303쎯27993쎯	-9.5181
53081쎯33945쎯	-9.51853
23339쎯27686쎯	-9.51906
13622쎯64184쎯	-9.51987
19802쎯54178쎯	-9.51992
35	-9.52068
56609쎯71948쎯	-9.52157
40304쎯	-9.52179
66876쎯42632쎯	-9.52231
67571쎯	-9.52267
74715쎯27795쎯	-9.5233
42015쎯37955쎯	-9.52353
56304쎯	-9.52358
27710쎯	-9.5236
69344쎯22218쎯	-9.52405
71389쎯	-9.52412
47169쎯	-9.52435
21962쎯22847쎯	-9.5247
64367쎯26151쎯	-9.5252
2쎯2쎯	-9.52563
45851쎯25286쎯	-9.52568
19109쎯20202쎯	-9.52582
76101쎯	-9.52622
27795쎯36096쎯	-9.52644
34967쎯	-9.5265
17600쎯62090쎯	-9.52652
65718쎯	-9.52684
38603쎯43133쎯	-9.527
63686쎯	-9.52718
40088쎯50642쎯	-9.5272
42662쎯	-9.52757
66898쎯	-9.52791
45651쎯	-9.52795
26253쎯	-9.52865
41347쎯52993쎯	-9.52935
22727쎯63479쎯	-9.52936
62313쎯61239쎯	-9.5296
49044쎯21966쎯	-9.52968
35547쎯10773쎯	-9.53096
32695쎯	-9.53211
48770쎯	-9.53213
22633쎯	-9.53288
60833쎯56925쎯	-9.53309
15909쎯43485쎯	-9.5338
33189쎯57179쎯	-9.53397
38206쎯14924쎯	-9.53416
57179쎯58194쎯	-9.53533
57248쎯36944쎯	-9.53552
75265쎯10772쎯	-9.53601
47005쎯	-9.5365
50337쎯48497쎯	-9.53693
10568쎯	-9.53724
10468쎯	-9.53766
56041쎯	-9.53771
42344쎯79303쎯	-9.53795
12040쎯	-9.53884
5쎯0쎯0쎯	-9.53898
62645쎯	-9.53939
71512쎯	-9.53941
51507쎯	-9.53955
76591쎯35641쎯	-9.53981
67694쎯	-9.53993
38701쎯50337쎯	-9.5401
62474쎯73781쎯	-9.54023
34446쎯72174쎯	-9.54079
38603쎯	-9.54116
61368쎯	-9.54154
60741쎯45268쎯	-9.5418
75447쎯54178쎯	-9.54182
49826쎯	-9.54184
14192쎯	-9.54191
44419쎯	-9.54203
56032쎯	-9.54222
65557쎯	-9.54355
36602쎯57678쎯	-9.54393
79303쎯43697쎯	-9.54509
52125쎯18673쎯	-9.54518
62003쎯	-9.54527
20202쎯15506쎯	-9.54537
975쎯49851쎯79303쎯	-9.54605
58155쎯22382쎯	-9.54683
61132쎯49089쎯	-9.54713
14363쎯69344쎯	-9.54735
28800쎯22847쎯	-9.54737
42849쎯46699쎯	-9.54753
11851쎯79263쎯	-9.54806
57566쎯33945쎯	-9.54906
68172쎯	-9.54953
「쎯	-9.54957
53472쎯77239쎯	-9.54963
37668쎯22791쎯	-9.55058
」쎯	-9.55082
73015쎯	-9.55106
79902쎯76452쎯	-9.55285
65677쎯30233쎯	-9.55295
44129쎯43561쎯	-9.55298
16453쎯31641쎯	-9.55343
61344쎯	-9.55377
36046쎯75875쎯60	-9.55424
64920쎯71294쎯	-9.55515
30222쎯27662쎯	-9.55549
54974쎯26216쎯	-9.55655
70615쎯	-9.55707
79325쎯	-9.55728
42649쎯28261쎯	-9.55773
28203쎯	-9.55781
51735쎯74899쎯	-9.55854
13581쎯77239쎯	-9.55941
79817쎯	-9.55954
76591쎯70026쎯	-9.55966
42524쎯62101쎯	-9.56002
41830쎯42482쎯	-9.56131
49700쎯	-9.5614
46쎯17602쎯40088쎯	-9.56175
55861쎯10175쎯	-9.56217
54798쎯	-9.56236
20348쎯20827쎯	-9.56368
24081쎯	-9.56413
33436쎯78973쎯	-9.56496
66686쎯	-9.56508
25849쎯	-9.56653
’쎯	-9.56671
44388쎯	-9.56719
79303쎯40088쎯	-9.56785
20965쎯37955쎯	-9.56876
16612쎯	-9.56918
58440쎯	-9.56936
12476쎯65508쎯	-9.56938
48759쎯57881쎯	-9.56944
39633쎯	-9.56945
35074쎯	-9.56982
15236쎯	-9.56989
41989쎯	-9.57009
44982쎯	-9.57019
58571쎯25108쎯	-9.57065
75580쎯	-9.57105
78240쎯63220쎯	-9.57137
27823쎯	-9.57141
62762쎯	-9.57158
21394쎯34859쎯	-9.57196
1쎯9쎯8쎯0쎯60833쎯	-9.57295
48644쎯54178쎯	-9.57299
78782쎯65292쎯	-9.57308
80145쎯	-9.57313
1	-9.5733
31	-9.57346
50720쎯	-9.57549
62123쎯28261쎯	-9.5756
65582쎯75547쎯	-9.57566
12702쎯	-9.57614
19135쎯42649쎯	-9.57621
32759쎯63807쎯	-9.57641
▁쎯10488쎯80334쎯	-9.57657
60637쎯17602쎯	-9.5766
53448쎯45851쎯	-9.57726
38223쎯	-9.57751
▁쎯70834쎯	-9.57753
637쎯80242쎯38701쎯	-9.5778
56609쎯37995쎯	-9.57836
69438쎯	-9.57838
28586쎯	-9.57848
69550쎯63878쎯	-9.57854
52956쎯67828쎯	-9.57878
1쎯9쎯7쎯8쎯60833쎯	-9.58092
37822쎯	-9.58098
16351쎯	-9.58117
74899쎯29327쎯	-9.58121
73638쎯76573쎯	-9.58165
57	-9.58223
79303쎯50573쎯	-9.5837
2쎯1쎯	-9.58446
49268쎯	-9.58496
42986쎯63878쎯	-9.5859
51507쎯29383쎯	-9.5866
34913쎯80334쎯	-9.58808
47819쎯	-9.58908
40523쎯	-9.58911
20159쎯20202쎯	-9.5892
1쎯9쎯8쎯1쎯60833쎯	-9.58925
17259쎯	-9.58967
73364쎯27686쎯	-9.58979
79148쎯	-9.58985
58576쎯	-9.59021
67908쎯	-9.59083
2쎯7쎯	-9.59088
21394쎯48644쎯	-9.59135
54273쎯	-9.59136
57069쎯62313쎯	-9.59187
46721쎯	-9.59416
52956쎯	-9.59495
35837쎯30682쎯	-9.59496
29824쎯	-9.59523
22258쎯	-9.59546
48759쎯18431쎯	-9.59576
13999쎯14406쎯	-9.59608
43945쎯	-9.59657
76506쎯11079쎯	-9.5967
22761쎯27195쎯	-9.5973
36820쎯61132쎯	-9.59736
54664쎯45252쎯	-9.59811
75	-9.59874
72898쎯67828쎯	-9.59896
31860쎯41470쎯	-9.59933
6	-9.59985
54529쎯	-9.60014
56334쎯	-9.60028
19028쎯12078쎯	-9.60039
79303쎯14137쎯	-9.60212
31532쎯	-9.6024
13262쎯	-9.60364
12267쎯57179쎯	-9.60367
68055쎯34374쎯	-9.60429
23486쎯71167쎯	-9.60433
28586쎯40459쎯	-9.60455
21588쎯33950쎯	-9.60491
46859쎯	-9.60526
71948쎯35720쎯	-9.60532
69134쎯11283쎯	-9.60701
29275쎯54472쎯	-9.60706
(쎯74132쎯	-9.60713
47603쎯	-9.60714
16455쎯37175쎯	-9.6076
76617쎯	-9.60827
67943쎯18542쎯	-9.6092
74715쎯61642쎯	-9.60934
2쎯57630쎯	-9.61012
53081쎯21088쎯	-9.61066
43585쎯	-9.61204
21492쎯	-9.61274
51735쎯36602쎯	-9.61324
21289쎯	-9.61349
55318쎯35747쎯	-9.61373
76055쎯17600쎯	-9.61391
49802쎯33596쎯	-9.61417
76506쎯	-9.61524
73781쎯57566쎯	-9.61533
23356쎯78973쎯	-9.61553
42649쎯62795쎯	-9.61602
30215쎯	-9.61617
33343쎯	-9.61768
57881쎯43972쎯	-9.6178
23278쎯	-9.61797
22247쎯	-9.6187
12341쎯18713쎯	-9.62028
35952쎯74899쎯	-9.62059
38021쎯	-9.62074
62674쎯	-9.62094
49014쎯20159쎯	-9.62116
22218쎯15018쎯	-9.62123
40837쎯54178쎯	-9.62138
79303쎯59255쎯	-9.62154
79322쎯62818쎯	-9.62278
79805쎯44417쎯	-9.62302
15048쎯44889쎯	-9.62333
16751쎯71843쎯	-9.62358
4	-9.62383
33523쎯	-9.62406
72129쎯	-9.62512
24951쎯	-9.62539
75074쎯	-9.62723
43855쎯	-9.62757
26702쎯	-9.62765
40636쎯75447쎯	-9.62782
34978쎯	-9.62825
59895쎯	-9.62903
16628쎯	-9.6297
60833쎯70823쎯	-9.62992
27866쎯	-9.63012
63761쎯35864쎯	-9.6304
1쎯9쎯7쎯9쎯60833쎯	-9.63167
57630쎯37002쎯	-9.63177
23899쎯52878쎯	-9.63332
45851쎯50451쎯	-9.63334
66876쎯12640쎯	-9.63371
23238쎯	-9.63428
65967쎯	-9.63436
66545쎯	-9.63444
41384쎯	-9.63453
72211쎯	-9.63474
45065쎯28738쎯	-9.63562
36214쎯22095쎯	-9.63562
62474쎯70823쎯	-9.6359
71632쎯38767쎯	-9.63628
20348쎯78973쎯”쎯	-9.63656
72870쎯70834쎯	-9.63775
14199쎯16453쎯	-9.63808
53677쎯71004쎯	-9.63964
37629쎯	-9.64104
2쎯6쎯	-9.64177
42649쎯28441쎯	-9.64178
13889쎯56661쎯	-9.6423
69550쎯	-9.64234
80792쎯76979쎯	-9.64242
12307쎯	-9.64276
32828쎯	-9.6428
35346쎯74715쎯	-9.64295
58713쎯	-9.64307
70571쎯43357쎯	-9.6433
53722쎯55777쎯	-9.64355
2쎯3쎯	-9.64415
6쎯4쎯	-9.6445
53448쎯54974쎯	-9.6448
18342쎯	-9.64551
26216쎯25094쎯	-9.6456
17240쎯	-9.64613
35952쎯51216쎯	-9.64637
33536쎯45851쎯	-9.64657
76055쎯》쎯20570쎯“쎯	-9.64691
19043쎯77922쎯	-9.64859
57881쎯28441쎯	-9.64907
76101쎯79322쎯	-9.64944
19263쎯	-9.6496
33950쎯46289쎯	-9.65051
48432쎯	-9.65073
64211쎯13307쎯	-9.65199
7	-9.65209
3쎯57630쎯	-9.65285
51402쎯	-9.65324
1쎯9쎯5쎯6쎯60833쎯	-9.65339
841쎯12111쎯49851쎯	-9.65347
72870쎯79805쎯	-9.65366
45851쎯37955쎯	-9.65372
44248쎯79929쎯	-9.65395
1쎯9쎯4쎯9쎯60833쎯	-9.65399
19802쎯51087쎯	-9.65452
78684쎯	-9.65485
56609쎯22197쎯	-9.65492
18835쎯	-9.65523
79805쎯31641쎯	-9.65555
37853쎯	-9.65558
72309쎯23430쎯	-9.65584
20278쎯	-9.65599
80242쎯38701쎯	-9.65633
36858쎯	-9.65696
》쎯19135쎯20570쎯“쎯	-9.65707
49476쎯	-9.65798
43921쎯	-9.65901
39339쎯28028쎯	-9.65949
74899쎯80242쎯	-9.6602
62474쎯61132쎯	-9.66027
61698쎯	-9.6607
76729쎯	-9.66096
53026쎯	-9.66138
37141쎯	-9.66187
16453쎯70834쎯	-9.66194
13854쎯40837쎯	-9.66214
35332쎯	-9.66267
25052쎯	-9.66296
37294쎯31887쎯	-9.66335
46320쎯49089쎯	-9.66383
47575쎯42482쎯	-9.66434
19020쎯12111쎯	-9.66453
17353쎯	-9.6647
4쎯57630쎯	-9.66515
50865쎯	-9.66571
13745쎯	-9.6662
29327쎯74899쎯	-9.66627
12732쎯19700쎯	-9.6673
14630쎯	-9.66764
14118쎯56161쎯	-9.66765
23950쎯23899쎯	-9.66774
52266쎯20460쎯	-9.66794
75074쎯69291쎯	-9.66846
1쎯9쎯6쎯3쎯60833쎯	-9.6692
40600쎯58376쎯	-9.66939
77103쎯43972쎯	-9.67022
57641쎯	-9.67036
▁쎯2쎯49089쎯	-9.67094
34431쎯	-9.67122
37627쎯64124쎯	-9.67132
58238쎯39339쎯	-9.67221
15820쎯	-9.67292
60670쎯20909쎯	-9.67294
64395쎯74512쎯	-9.67296
45851쎯64124쎯	-9.67344
72500쎯	-9.67363
16209쎯12078쎯	-9.67379
53510쎯58643쎯	-9.6751
78684쎯19259쎯	-9.67523
78973쎯72870쎯	-9.67546
11283쎯79322쎯	-9.67653
40304쎯43707쎯	-9.67684
61659쎯	-9.67703
21394쎯29327쎯	-9.67718
4쎯8쎯	-9.67759
46541쎯51735쎯	-9.67761
28441쎯11104쎯	-9.6781
79322쎯10535쎯	-9.67881
80195쎯	-9.67918
35819쎯	-9.67925
77495쎯69484쎯	-9.67953
79303쎯54772쎯	-9.67979
27	-9.68008
40022쎯31993쎯	-9.68093
54178쎯79303쎯	-9.68137
51087쎯35641쎯	-9.68197
0쎯0쎯33189쎯57179쎯	-9.68237
28738쎯39063쎯	-9.68245
50493쎯34158쎯	-9.68374
30665쎯	-9.68413
73211쎯79303쎯	-9.68428
43133쎯	-9.68455
74077쎯34913쎯	-9.68459
24940쎯	-9.68545
30058쎯	-9.68559
35447쎯23356쎯	-9.68661
37627쎯60833쎯	-9.68666
37107쎯44369쎯	-9.68678
73570쎯45856쎯	-9.6869
79303쎯36944쎯	-9.68695
42649쎯45851쎯	-9.68749
57158쎯74773쎯	-9.68768
‘쎯	-9.68955
)쎯51216쎯	-9.6896
48644쎯42649쎯60	-9.69117
49202쎯76452쎯	-9.692
31379쎯	-9.69209
17771쎯62183쎯	-9.69356
80845쎯	-9.69431
33536쎯74512쎯	-9.6944
57133쎯40970쎯	-9.6947
11635쎯26151쎯	-9.69522
29142쎯	-9.69544
53729쎯57702쎯	-9.69576
28043쎯14536쎯	-9.69591
67891쎯	-9.69602
35250쎯	-9.6963
49851쎯49089쎯	-9.69645
31227쎯	-9.69654
73364쎯12111쎯	-9.69673
74899쎯42649쎯	-9.69681
14199쎯47575쎯	-9.69718
37002쎯76795쎯	-9.69751
71948쎯79766쎯	-9.70003
61771쎯35873쎯	-9.70006
3쎯0쎯0쎯	-9.70036
46753쎯	-9.70045
13607쎯23457쎯	-9.70127
13	-9.70168
28773쎯71752쎯	-9.7017
72373쎯41347쎯	-9.70201
36385쎯73666쎯	-9.7038
19700쎯69377쎯	-9.7041
48644쎯37995쎯	-9.70423
73421쎯53203쎯	-9.70603
74738쎯23486쎯	-9.70614
31510쎯	-9.70644
40600쎯57519쎯	-9.70653
1쎯9쎯6쎯4쎯60833쎯	-9.70713
20760쎯59133쎯	-9.70717
11497쎯	-9.70805
45383쎯	-9.70811
71294쎯39149쎯	-9.7085
69134쎯72545쎯	-9.70968
57489쎯78973쎯	-9.70978
20202쎯33504쎯	-9.70984
74899쎯79872쎯	-9.71004
61188쎯	-9.71036
47232쎯	-9.71039
26157쎯46541쎯	-9.71111
48978쎯	-9.71124
》쎯62474쎯	-9.71162
70725쎯	-9.71181
18654쎯55327쎯	-9.71291
73421쎯	-9.71293
72479쎯58768쎯	-9.713
35688쎯	-9.71481
35311쎯	-9.71511
26507쎯25286쎯	-9.71533
19259쎯	-9.71645
47421쎯	-9.7169
21315쎯	-9.7178
37633쎯49089쎯	-9.7187
74155쎯50642쎯	-9.71903
63575쎯30222쎯	-9.71917
58953쎯64124쎯	-9.71927
17770쎯61132쎯	-9.71966
20891쎯	-9.7197
50627쎯	-9.71983
18840쎯21491쎯	-9.7201
6쎯0쎯0쎯	-9.7201
59534쎯80794쎯	-9.72063
54547쎯	-9.72088
32196쎯	-9.72099
15877쎯61132쎯	-9.72135
17438쎯46699쎯	-9.72138
79872쎯73352쎯	-9.72147
22325쎯	-9.72199
28261쎯54772쎯	-9.72226
20507쎯	-9.72227
16433쎯63916쎯	-9.72233
75050쎯60670쎯	-9.72286
18713쎯67943쎯	-9.72325
72494쎯24757쎯	-9.72333
67734쎯60833쎯	-9.72337
17668쎯	-9.72372
2쎯9쎯	-9.72414
57040쎯25108쎯	-9.72446
79872쎯43972쎯	-9.72478
32172쎯57158쎯	-9.72494
21962쎯62101쎯	-9.72513
18025쎯10468쎯	-9.72599
65115쎯	-9.72635
54744쎯	-9.72691
54273쎯39809쎯	-9.72712
69908쎯28664쎯	-9.72736
14088쎯	-9.72772
9쎯8쎯	-9.72784
49288쎯	-9.72788
16455쎯65177쎯	-9.72788
29778쎯	-9.72803
67734쎯13307쎯	-9.72822
36097쎯	-9.72871
64124쎯78973쎯	-9.72925
36063쎯	-9.72968
28261쎯10175쎯	-9.73011
12211쎯	-9.73014
21394쎯11630쎯	-9.73059
0쎯1쎯	-9.73068
60842쎯	-9.7309
75108쎯48644쎯	-9.73138
58176쎯42234쎯	-9.7316
58376쎯50579쎯	-9.73204
56153쎯69405쎯	-9.73214
48172쎯61642쎯	-9.73259
46202쎯28664쎯60	-9.73332
58643쎯74512쎯	-9.73361
43691쎯	-9.73411
18315쎯79766쎯	-9.73441
52750쎯71294쎯	-9.73502
79872쎯20392쎯	-9.73563
33690쎯	-9.73649
16737쎯75547쎯	-9.73716
70834쎯71948쎯	-9.73746
39045쎯	-9.73775
47302쎯18466쎯	-9.73814
58521쎯	-9.73828
39339쎯79322쎯	-9.73879
79508쎯33536쎯	-9.73983
50451쎯23278쎯	-9.74015
68565쎯	-9.74049
77103쎯57630쎯	-9.7408
77230쎯	-9.74093
19028쎯	-9.74104
4쎯0쎯0쎯	-9.74186
58692쎯58692쎯	-9.74228
35452쎯	-9.74292
55852쎯42478쎯	-9.74296
70381쎯	-9.74325
42649쎯18315쎯	-9.74423
74272쎯	-9.74461
24930쎯	-9.7447
53729쎯79303쎯	-9.7451
79322쎯58376쎯	-9.74516
20909쎯10268쎯	-9.74565
57798쎯	-9.7458
60055쎯63962쎯	-9.74646
45317쎯54664쎯	-9.7467
10535쎯64661쎯	-9.74671
79872쎯58688쎯	-9.74679
74042쎯	-9.74711
78166쎯54143쎯	-9.74725
57248쎯“쎯	-9.74736
35505쎯	-9.74758
73364쎯62090쎯	-9.74809
17720쎯	-9.74811
71752쎯37633쎯	-9.74843
39805쎯	-9.74848
10599쎯	-9.74849
36308쎯	-9.74918
12111쎯65621쎯	-9.74943
70162쎯	-9.74979
55756쎯	-9.7499
57069쎯42849쎯	-9.75009
46301쎯	-9.75048
76608쎯79322쎯	-9.75109
66590쎯23601쎯	-9.75113
68313쎯66864쎯	-9.75135
59288쎯	-9.75167
50801쎯	-9.7521
77239쎯	-9.75215
11925쎯	-9.75372
′쎯	-9.75375
70957쎯	-9.75461
64661쎯48172쎯	-9.75463
76055쎯24524쎯	-9.75478
66622쎯	-9.75531
60022쎯50579쎯	-9.75565
23486쎯28441쎯	-9.75627
11614쎯	-9.75662
51077쎯	-9.75689
63575쎯	-9.75807
39646쎯	-9.75851
3쎯6쎯	-9.75865
76206쎯	-9.75884
12348쎯63916쎯	-9.75984
31860쎯	-9.75992
17438쎯75547쎯	-9.76028
17924쎯	-9.76033
42344쎯48497쎯	-9.7605
48759쎯53729쎯	-9.76093
47302쎯59534쎯	-9.76109
29024쎯35150쎯	-9.76111
62795쎯59860쎯	-9.76119
43030쎯	-9.76244
42849쎯29327쎯	-9.76282
76573쎯18939쎯	-9.76283
19020쎯33950쎯	-9.76286
69774쎯	-9.76421
32581쎯	-9.7643
12111쎯18466쎯	-9.76436
51593쎯	-9.76457
54313쎯30682쎯	-9.76499
12267쎯68454쎯	-9.76603
12732쎯52132쎯	-9.76606
53322쎯12078쎯	-9.76613
11099쎯57655쎯	-9.76628
18713쎯42849쎯	-9.76633
1쎯9쎯6쎯2쎯60833쎯	-9.76678
21966쎯29560쎯191	-9.76705
76055쎯66759쎯	-9.76832
26698쎯	-9.76836
32581쎯74849쎯	-9.7688
2쎯0쎯1쎯3쎯60833쎯	-9.76897
74272쎯54178쎯	-9.76959
79756쎯	-9.76962
52583쎯21491쎯	-9.77151
41567쎯	-9.772
54	-9.77315
22755쎯	-9.77339
64661쎯30712쎯	-9.77384
31850쎯29275쎯	-9.77403
65582쎯48644쎯	-9.77435
18139쎯	-9.77448
11104쎯	-9.77455
75547쎯《쎯	-9.7751
22158쎯	-9.77537
43299쎯	-9.77562
78673쎯73570쎯	-9.77586
2쎯0쎯0쎯0쎯	-9.77649
80792쎯17602쎯	-9.77701
26216쎯36550쎯	-9.77759
57738쎯11630쎯	-9.77765
53106쎯50642쎯	-9.7778
18429쎯	-9.77793
46545쎯74512쎯	-9.77811
74512쎯15235쎯	-9.77886
13265쎯	-9.78032
17602쎯58643쎯	-9.78034
49013쎯32542쎯	-9.78132
57133쎯44248쎯	-9.78134
33596쎯70834쎯	-9.7814
21088쎯45252쎯	-9.78144
65891쎯	-9.78199
23845쎯74275쎯	-9.7821
21088쎯80334쎯	-9.78211
1쎯9쎯6쎯5쎯60833쎯	-9.78222
54772쎯16737쎯	-9.78229
17770쎯48497쎯	-9.7823
19028쎯79872쎯	-9.78233
29506쎯	-9.78243
38916쎯22761쎯	-9.78253
37107쎯17807쎯	-9.7827
28396쎯46553쎯	-9.78275
80242쎯67828쎯	-9.78311
50642쎯36046쎯	-9.78344
45577쎯	-9.78354
”쎯19167쎯	-9.78362
65621쎯69908쎯	-9.78372
909쎯55623쎯64124쎯	-9.78478
15877쎯72462쎯	-9.78492
”쎯56609쎯	-9.7854
11628쎯76386쎯	-9.78592
▁쎯1쎯72295쎯	-9.78633
7쎯5쎯	-9.78681
962쎯62530쎯16156쎯	-9.78695
18903쎯	-9.78708
42649쎯20839쎯	-9.7872
79303쎯68176쎯	-9.78723
74715쎯20159쎯	-9.78777
64661쎯19109쎯	-9.78798
57630쎯21966쎯60	-9.788
42344쎯20202쎯	-9.78816
26671쎯58194쎯	-9.78862
42103쎯34613쎯	-9.78901
60371쎯18974쎯	-9.78912
44493쎯51216쎯	-9.78927
21503쎯60833쎯	-9.78948
62471쎯40088쎯	-9.79032
57489쎯74899쎯	-9.79042
37955쎯39725쎯	-9.79188
47210쎯60670쎯	-9.79196
43443쎯58991쎯	-9.79203
33950쎯25108쎯	-9.79212
62530쎯73352쎯	-9.79219
55777쎯58194쎯	-9.7922
52067쎯	-9.79247
25139쎯	-9.79283
25759쎯	-9.79295
39214쎯	-9.79342
68454쎯41302쎯	-9.79382
26896쎯20891쎯	-9.79497
75088쎯	-9.79553
19667쎯	-9.7956
71948쎯29275쎯	-9.79563
29307쎯	-9.79584
20827쎯75580쎯	-9.79594
79303쎯36029쎯	-9.79605
▁쎯3쎯72295쎯	-9.79627
1쎯72295쎯5쎯	-9.79673
47210쎯18315쎯	-9.79742
39149쎯29275쎯	-9.79792
10535쎯44764쎯	-9.79868
20091쎯80750쎯	-9.79941
13881쎯16598쎯	-9.79955
57133쎯72389쎯	-9.80127
72711쎯	-9.80197
13155쎯59262쎯	-9.80223
18431쎯50720쎯	-9.80269
72602쎯	-9.80328
61514쎯	-9.80347
19167쎯73352쎯	-9.80365
60225쎯	-9.80418
80394쎯	-9.80421
13723쎯	-9.80427
64920쎯	-9.80444
42469쎯	-9.80457
13607쎯72898쎯	-9.80487
47788쎯30233쎯	-9.80524
58688쎯	-9.80542
80459쎯	-9.80548
23899쎯35636쎯	-9.80548
42754쎯	-9.80557
46320쎯31887쎯	-9.80566
31619쎯	-9.80591
ˋ쎯	-9.80604
53966쎯27195쎯	-9.80751
63691쎯67828쎯	-9.80758
30222쎯	-9.80841
17086쎯27795쎯	-9.80934
14868쎯45600쎯	-9.80956
49854쎯66833쎯	-9.80986
54772쎯47575쎯	-9.81062
70795쎯17005쎯	-9.81077
57566쎯18038쎯	-9.81112
48172쎯79322쎯	-9.81218
13307쎯60833쎯	-9.8128
79308쎯45851쎯	-9.81373
60784쎯23356쎯	-9.81386
69134쎯	-9.81398
▁쎯2쎯	-9.81419
35720쎯19167쎯“쎯	-9.81421
64143쎯	-9.81465
40883쎯	-9.8147
72536쎯17353쎯	-9.81483
67734쎯79872쎯	-9.81558
30199쎯57630쎯	-9.81663
67828쎯31486쎯	-9.81684
55861쎯	-9.81752
64211쎯1쎯	-9.81768
70834쎯18250쎯	-9.81797
30399쎯28050쎯	-9.81835
28222쎯72389쎯	-9.81851
44764쎯35641쎯	-9.81866
51768쎯	-9.81876
14868쎯24720쎯	-9.81888
34486쎯45996쎯	-9.81925
31887쎯10535쎯	-9.81973
3쎯8쎯	-9.81986
73363쎯	-9.81996
65644쎯	-9.82186
14924쎯31641쎯	-9.82247
47129쎯	-9.8226
54021쎯	-9.82285
35311쎯23601쎯	-9.82313
73878쎯80397쎯	-9.8239
79303쎯44764쎯	-9.8242
17005쎯65621쎯	-9.82569
33537쎯	-9.82622
19362쎯	-9.82743
37898쎯	-9.82785
68096쎯52240쎯	-9.82874
8쎯0쎯0쎯	-9.82892
▁쎯17602쎯15326쎯	-9.83027
35150쎯30658쎯	-9.83039
》쎯56609쎯78973쎯	-9.83054
62634쎯	-9.83159
21102쎯	-9.83211
67734쎯47062쎯	-9.83228
20091쎯	-9.8326
50337쎯28489쎯	-9.83303
75547쎯79872쎯	-9.83317
37387쎯	-9.83325
(쎯)쎯79303쎯	-9.83328
27897쎯60989쎯	-9.83355
46320쎯72389쎯	-9.83389
27626쎯	-9.83445
〕쎯	-9.83582
49621쎯18840쎯	-9.83695
66519쎯	-9.83699
28800쎯22847쎯25	-9.83736
3쎯7쎯	-9.83794
18250쎯12078쎯	-9.83847
63691쎯59150쎯	-9.83854
59133쎯	-9.83901
15184쎯35864쎯	-9.83909
13459쎯74899쎯	-9.83923
79322쎯67909쎯	-9.83981
12341쎯32196쎯	-9.83996
23845쎯57566쎯	-9.84065
43460쎯73637쎯	-9.84142
66637쎯	-9.84163
63686쎯35574쎯	-9.84163
63691쎯43591쎯	-9.84193
79872쎯74275쎯	-9.84201
57566쎯78762쎯	-9.84261
42743쎯	-9.84347
42649쎯20909쎯	-9.84357
60559쎯10364쎯	-9.84387
37148쎯	-9.84428
15981쎯	-9.84561
76938쎯	-9.84588
66279쎯	-9.84615
74909쎯68972쎯	-9.84621
20074쎯36029쎯	-9.84624
44320쎯	-9.84722
21195쎯	-9.84816
57922쎯62474쎯	-9.84843
63962쎯62530쎯161	-9.84875
34653쎯42015쎯	-9.84875
21767쎯	-9.84971
37720쎯	-9.85066
55717쎯79148쎯	-9.85078
64561쎯	-9.8508
27859쎯40837쎯	-9.85081
43402쎯17438쎯	-9.85192
▁쎯3쎯49089쎯	-9.85246
57881쎯37955쎯	-9.85257
49479쎯	-9.85307
79872쎯14868쎯	-9.85335
15236쎯72500쎯	-9.85412
69344쎯67907쎯	-9.8553
70009쎯	-9.85539
45851쎯55237쎯	-9.85573
2쎯72295쎯5쎯	-9.85575
22466쎯	-9.85582
51803쎯14141쎯	-9.85583
39524쎯	-9.85592
13581쎯51735쎯	-9.85595
5쎯5쎯	-9.85648
51450쎯	-9.85662
76316쎯22218쎯	-9.8567
17602쎯28261쎯	-9.85707
62818쎯73570쎯	-9.85718
76	-9.85816
▁쎯63962쎯62530쎯	-9.85833
59860쎯	-9.85837
72354쎯	-9.85843
41184쎯	-9.85859
21394쎯52457쎯	-9.85894
18374쎯47782쎯	-9.85917
37955쎯66590쎯	-9.85981
19395쎯	-9.86026
1쎯0쎯0쎯0쎯	-9.86069
22709쎯75108쎯	-9.86148
43963쎯	-9.86152
76573쎯27195쎯	-9.86173
60481쎯	-9.86178
16751쎯57088쎯	-9.862
64920쎯28489쎯	-9.86234
65789쎯	-9.8624
17602쎯47210쎯	-9.86296
67226쎯	-9.86302
57738쎯53627쎯	-9.86305
74899쎯《쎯	-9.86323
50573쎯33436쎯	-9.86331
80792쎯48811쎯	-9.86331
33950쎯48643쎯	-9.8642
68176쎯74899쎯	-9.8644
5쎯12267쎯62633쎯	-9.86444
34982쎯	-9.86457
32197쎯	-9.8652
70009쎯52240쎯	-9.86726
17770쎯55777쎯	-9.86794
17496쎯27783쎯	-9.86809
55231쎯	-9.86911
76739쎯46301쎯	-9.86948
60670쎯37633쎯	-9.86975
11832쎯	-9.87027
1쎯9쎯7쎯0쎯60833쎯	-9.87056
▁쎯62474쎯62795쎯	-9.87072
6쎯5쎯	-9.87092
13901쎯	-9.87142
66876쎯40837쎯	-9.87329
75848쎯	-9.87357
55327쎯	-9.87383
61132쎯69405쎯	-9.87387
54772쎯49802쎯	-9.87431
33188쎯	-9.87486
29795쎯	-9.87499
69860쎯	-9.87512
17089쎯	-9.87562
71294쎯74077쎯	-9.87703
30399쎯71752쎯	-9.8772
33013쎯34859쎯	-9.87793
79872쎯66864쎯	-9.87804
61023쎯	-9.87807
78973쎯18250쎯	-9.87846
73364쎯57133쎯	-9.87852
▁쎯63962쎯42344쎯	-9.87866
21905쎯	-9.87888
18364쎯	-9.87992
73680쎯60022쎯	-9.88004
33460쎯53729쎯	-9.88015
66502쎯	-9.88019
62101쎯	-9.88051
38881쎯22814쎯	-9.88103
64211쎯2쎯	-9.88114
31606쎯	-9.88137
13735쎯62474쎯	-9.88143
79508쎯20202쎯	-9.88231
28396쎯45851쎯	-9.88245
39586쎯	-9.88256
76591쎯67943쎯	-9.88273
1쎯5쎯0쎯	-9.88427
48172쎯27711쎯	-9.88439
35346쎯69405쎯	-9.88443
792쎯39063쎯54178쎯	-9.88567
37955쎯77237쎯	-9.88605
67734쎯66224쎯	-9.88696
78684쎯28480쎯	-9.88698
23339쎯60022쎯	-9.88731
67215쎯47693쎯	-9.88832
1쎯9쎯7쎯6쎯60833쎯	-9.88889
14854쎯	-9.88955
28050쎯42649쎯	-9.88981
54565쎯	-9.89041
26967쎯	-9.89056
60559쎯57489쎯	-9.89062
51749쎯	-9.89074
10235쎯	-9.8909
41213쎯24720쎯	-9.89187
21576쎯	-9.89233
63951쎯	-9.89244
41858쎯	-9.89266
37553쎯35864쎯	-9.89327
22168쎯	-9.8933
55717쎯67175쎯	-9.89333
56쎯63962쎯62530쎯	-9.89415
74773쎯10772쎯	-9.89443
26216쎯20839쎯	-9.89462
52580쎯	-9.89471
66573쎯	-9.89482
70834쎯28020쎯	-9.89532
21957쎯26216쎯	-9.89558
17430쎯	-9.89598
33504쎯52457쎯	-9.89604
33596쎯60312쎯	-9.89643
78707쎯70526쎯	-9.89717
12796쎯	-9.89765
34349쎯12111쎯	-9.89801
78973쎯22625쎯	-9.89837
50297쎯42482쎯	-9.89895
50581쎯57088쎯	-9.89971
63054쎯40773쎯	-9.89987
23779쎯10443쎯	-9.8999
42482쎯12111쎯	-9.90031
15088쎯78222쎯	-9.90065
20973쎯	-9.90122
60664쎯	-9.90287
34653쎯	-9.90291
56609쎯56609쎯	-9.90306
45841쎯	-9.90313
▁쎯1쎯	-9.90318
79303쎯80792쎯	-9.90338
29681쎯	-9.90343
60391쎯	-9.90402
26896쎯31509쎯	-9.90445
25982쎯47693쎯	-9.90482
16455쎯63878쎯	-9.90483
64465쎯	-9.90531
67943쎯66833쎯	-9.9077
41735쎯	-9.90782
60445쎯	-9.90845
42015쎯19043쎯	-9.90888
54974쎯37995쎯20	-9.90946
50297쎯46320쎯	-9.91005
30682쎯17232쎯	-9.9109
60670쎯44902쎯	-9.91119
20057쎯	-9.91144
32994쎯	-9.91146
75788쎯	-9.91167
30541쎯	-9.91234
31303쎯	-9.91234
19184쎯	-9.91285
5쎯57630쎯	-9.91292
33950쎯55623쎯	-9.91337
50289쎯	-9.91364
53729쎯19167쎯	-9.91412
49047쎯	-9.91477
59544쎯	-9.91511
35280쎯	-9.91515
13331쎯25286쎯	-9.9155
60769쎯	-9.91572
20159쎯49089쎯	-9.91576
73570쎯58991쎯	-9.91618
36348쎯	-9.91668
25658쎯38624쎯	-9.91673
63479쎯	-9.91766
40459쎯21088쎯	-9.91799
29024쎯74884쎯	-9.91817
42482쎯80435쎯2196	-9.91864
31054쎯	-9.91891
20433쎯62795쎯	-9.91937
50656쎯	-9.91976
37002쎯68055쎯	-9.9198
64661쎯53966쎯	-9.91992
32155쎯42482쎯	-9.91993
57881쎯19496쎯	-9.92001
1쎯9쎯6쎯0쎯60833쎯	-9.9202
42037쎯	-9.92164
38944쎯53100쎯	-9.92176
40722쎯	-9.92305
23601쎯21088쎯	-9.92316
33504쎯42094쎯	-9.92318
63962쎯21491쎯	-9.92346
71591쎯	-9.92365
13358쎯41694쎯	-9.92395
73364쎯73637쎯	-9.92402
64124쎯79303쎯	-9.92454
1쎯9쎯7쎯5쎯60833쎯	-9.9246
69344쎯19043쎯	-9.92469
72174쎯	-9.92509
79322쎯32542쎯	-9.92551
64211쎯66224쎯	-9.92574
32759쎯	-9.92616
18939쎯31141쎯	-9.92638
1쎯9쎯5쎯5쎯60833쎯	-9.92648
1쎯9쎯6쎯8쎯60833쎯	-9.92654
30199쎯60833쎯	-9.92656
27012쎯	-9.92671
57133쎯22523쎯	-9.92706
20909쎯42649쎯	-9.92799
57566쎯15488쎯	-9.92819
47210쎯12267쎯353	-9.92874
44090쎯	-9.92894
47835쎯	-9.92948
65677쎯26671쎯	-9.93037
35584쎯72309쎯	-9.93039
14406쎯67196쎯	-9.9306
28154쎯	-9.93075
50789쎯27023쎯	-9.9309
66145쎯73904쎯	-9.93093
21705쎯	-9.93118
55957쎯20234쎯	-9.93118
76319쎯60559쎯	-9.9314
35021쎯36944쎯	-9.93208
12078쎯64046쎯	-9.9322
73570쎯19109쎯	-9.93224
41247쎯	-9.9324
25345쎯	-9.93289
76584쎯	-9.93311
40600쎯20814쎯	-9.93317
51394쎯	-9.93334
58155쎯	-9.93338
58528쎯	-9.93391
)쎯47791쎯	-9.93408
45851쎯53677쎯	-9.93426
53322쎯75547쎯	-9.93522
58742쎯	-9.93543
21491쎯“쎯	-9.93561
30795쎯45851쎯	-9.93583
60127쎯61368쎯	-9.9366
37294쎯31486쎯	-9.93662
46278쎯31509쎯	-9.93729
21248쎯	-9.93765
66686쎯61026쎯	-9.93773
2쎯0쎯40529쎯36651쎯	-9.93787
▁쎯1쎯49089쎯	-9.93791
13735쎯51400쎯	-9.93801
76237쎯	-9.93839
22503쎯80319쎯	-9.93843
33736쎯	-9.93844
65169쎯	-9.93914
22382쎯49639쎯	-9.93923
45579쎯	-9.93925
(쎯37633쎯53729쎯	-9.93948
66417쎯38767쎯	-9.93982
30794쎯	-9.94008
10488쎯46699쎯	-9.9407
10254쎯	-9.94107
42078쎯	-9.94174
73147쎯30233쎯	-9.94194
73015쎯79805쎯	-9.94212
53656쎯	-9.94222
18032쎯	-9.94223
20074쎯35250쎯	-9.94241
45252쎯17600쎯	-9.94278
19716쎯	-9.94313
41975쎯29560쎯694	-9.94321
74899쎯54974쎯	-9.94329
46346쎯28851쎯	-9.94357
49089쎯54974쎯	-9.94373
65780쎯45851쎯	-9.94375
10773쎯50966쎯	-9.94419
16052쎯	-9.94438
10773쎯74899쎯	-9.94494
44737쎯44737쎯447	-9.94504
21865쎯	-9.94526
53510쎯45851쎯	-9.94538
68454쎯50966쎯	-9.94619
12640쎯	-9.94658
11079쎯70834쎯	-9.9469
76979쎯29307쎯	-9.94747
33847쎯	-9.94766
34962쎯	-9.9477
63014쎯16817쎯	-9.94813
23339쎯23899쎯	-9.94826
57922쎯37995쎯	-9.94853
1쎯9쎯5쎯0쎯60833쎯	-9.94872
47693쎯55237쎯	-9.94898
70026쎯28261쎯	-9.94919
63014쎯57630쎯	-9.95057
▁쎯73352쎯	-9.95059
6쎯57630쎯	-9.95071
53322쎯79766쎯	-9.95078
22124쎯	-9.95086
27687쎯	-9.95106
20074쎯	-9.95127
58372쎯	-9.95146
33824쎯38266쎯	-9.95167
20839쎯74899쎯	-9.95211
ˊ쎯	-9.9523
54988쎯37002쎯	-9.95232
22791쎯11630쎯	-9.95291
71752쎯76919쎯	-9.95302
69291쎯67943쎯	-9.9532
64920쎯75050쎯	-9.95334
1쎯9쎯5쎯7쎯60833쎯	-9.95377
21966쎯42649쎯	-9.95446
』쎯『쎯	-9.95457
67734쎯53510쎯	-9.95499
31434쎯	-9.95547
18483쎯22867쎯	-9.95564
80149쎯	-9.95608
24401쎯63878쎯	-9.95616
46721쎯19495쎯	-9.95745
61132쎯79303쎯	-9.95764
71881쎯	-9.95789
17602쎯42649쎯	-9.95835
28965쎯79322쎯	-9.95857
19806쎯66975쎯	-9.95894
50337쎯72898쎯	-9.95896
38145쎯	-9.95907
73638쎯37319쎯	-9.96044
47375쎯37553쎯	-9.96087
56398쎯62090쎯	-9.96134
36602쎯18455쎯	-9.96139
80359쎯	-9.9616
37714쎯	-9.96161
38821쎯	-9.96193
51216쎯56625쎯	-9.96277
17547쎯	-9.96297
79872쎯54664쎯	-9.96297
24354쎯	-9.96327
65076쎯	-9.96349
15236쎯17215쎯	-9.96349
53719쎯41384쎯	-9.96372
63878쎯49089쎯	-9.96401
29274쎯25946쎯	-9.9646
75108쎯10773쎯	-9.96515
69416쎯47575쎯	-9.96528
30155쎯	-9.96586
38145쎯68313쎯	-9.96607
60985쎯32083쎯	-9.96619
55776쎯	-9.96664
64046쎯72500쎯	-9.96724
26435쎯25841쎯	-9.96835
10772쎯35641쎯	-9.96856
1쎯9쎯5쎯2쎯60833쎯	-9.9688
33013쎯60052쎯	-9.96951
61771쎯71997쎯	-9.96996
19020쎯49374쎯	-9.97026
59759쎯	-9.9704
14868쎯65582쎯	-9.97046
53203쎯10772쎯	-9.97101
60159쎯	-9.97167
25075쎯	-9.97169
42708쎯	-9.97193
56018쎯	-9.97242
59786쎯	-9.97253
70834쎯27747쎯	-9.97321
23671쎯78973쎯	-9.97332
20202쎯74512쎯	-9.97334
37955쎯79303쎯	-9.97375
12267쎯59014쎯	-9.97388
42234쎯74272쎯	-9.97395
42332쎯56789쎯	-9.9743
70994쎯	-9.97501
20348쎯78973쎯	-9.97532
79303쎯79805쎯	-9.97568
62090쎯74275쎯	-9.97589
21962쎯19043쎯	-9.97637
38507쎯	-9.97642
75547쎯24317쎯	-9.97647
13607쎯19167쎯	-9.9765
56652쎯	-9.97688
33492쎯	-9.97708
62474쎯80242쎯	-9.97864
51812쎯	-9.97876
50124쎯72898쎯	-9.97924
72221쎯	-9.97934
79303쎯20556쎯	-9.98061
54664쎯52125쎯	-9.98099
53729쎯42649쎯	-9.98115
53081쎯17807쎯	-9.98117
45856쎯68855쎯	-9.9818
25989쎯43485쎯	-9.98239
3쎯72295쎯5쎯	-9.98291
47210쎯71752쎯	-9.98314
51086쎯	-9.98314
18431쎯11525쎯	-9.98424
14273쎯	-9.98424
39103쎯56153쎯	-9.98461
41542쎯	-9.98468
78681쎯	-9.98504
64661쎯77119쎯	-9.98536
22867쎯37822쎯	-9.98579
10773쎯10364쎯	-9.98626
40773쎯15877쎯	-9.9863
13581쎯66590쎯	-9.98653
55491쎯48600쎯	-9.98763
71632쎯66417쎯	-9.98781
30717쎯	-9.98807
37629쎯76795쎯	-9.98835
40837쎯55237쎯	-9.98914
47021쎯	-9.9893
45851쎯20839쎯	-9.99011
38145쎯75050쎯	-9.99032
12267쎯35453쎯	-9.99037
20909쎯19109쎯	-9.99082
17794쎯	-9.99116
70381쎯28043쎯	-9.99152
78976쎯28664쎯60	-9.99167
35574쎯	-9.992
49138쎯	-9.99202
2쎯72295쎯0쎯	-9.99241
51013쎯22218쎯	-9.99256
35311쎯50699쎯	-9.99266
38122쎯	-9.99267
40600쎯50451쎯	-9.99278
4쎯6쎯	-9.99281
29747쎯	-9.99313
64692쎯	-9.99326
18654쎯79046쎯	-9.99341
48759쎯51735쎯	-9.99403
79019쎯	-9.99408
38266쎯	-9.99423
41368쎯	-9.99426
1쎯9쎯6쎯9쎯60833쎯	-9.9945
5쎯6쎯	-9.99465
1쎯9쎯5쎯9쎯60833쎯	-9.99576
10488쎯78707쎯	-9.99591
80383쎯	-9.99608
12078쎯47302쎯	-9.99726
19440쎯	-9.99865
67907쎯	-9.99865
71068쎯	-9.99903
73781쎯34859쎯	-9.99904
37194쎯	-9.99944
76316쎯80049쎯	-9.99986
46753쎯57179쎯	-10.0004
19135쎯38380쎯	-10.0007
19882쎯80435쎯	-10.0008
1쎯9쎯6쎯6쎯60833쎯	-10.001
37955쎯62123쎯	-10.001
53081쎯18713쎯	-10.0011
37931쎯	-10.0012
79929쎯	-10.0017
24524쎯	-10.0024
34613쎯52430쎯	-10.0028
49802쎯75108쎯	-10.003
46177쎯10535쎯	-10.0032
41470쎯42669쎯	-10.0032
25139쎯11851쎯	-10.0034
28907쎯80334쎯	-10.0036
1쎯2쎯0쎯	-10.0038
79303쎯21359쎯	-10.0039
79872쎯25286쎯	-10.004
35844쎯	-10.0049
14995쎯	-10.005
33021쎯	-10.0051
75547쎯67196쎯	-10.0054
64004쎯	-10.0061
66145쎯66949쎯	-10.0063
79303쎯57088쎯	-10.0067
73364쎯78222쎯	-10.007
50642쎯35346쎯	-10.0072
76591쎯53472쎯	-10.0074
11630쎯71752쎯37	-10.0081
79303쎯57702쎯	-10.0082
28243쎯	-10.009
42849쎯71903쎯	-10.01
0쎯72295쎯5쎯	-10.0105
75951쎯	-10.0113
36214쎯	-10.0113
31697쎯35864쎯	-10.0113
20839쎯37633쎯	-10.0116
10213쎯	-10.0119
66099쎯	-10.012
22727쎯	-10.0121
10268쎯37955쎯	-10.0131
24654쎯	-10.0143
12348쎯21966쎯	-10.0145
16578쎯	-10.0146
31568쎯	-10.0148
17602쎯78782쎯	-10.015
28773쎯40523쎯	-10.0151
1쎯9쎯7쎯2쎯60833쎯	-10.0153
79303쎯29275쎯	-10.0159
18431쎯45317쎯	-10.0163
28441쎯67734쎯	-10.0164
62818쎯70834쎯	-10.0167
78973쎯76196쎯	-10.0167
51400쎯36944쎯	-10.0168
10773쎯74272쎯	-10.017
11428쎯	-10.0172
49089쎯29327쎯	-10.0175
16360쎯	-10.0176
76608쎯	-10.0177
22891쎯18431쎯	-10.0181
32807쎯	-10.0181
54178쎯29560쎯	-10.0182
68474쎯	-10.0184
23671쎯79303쎯	-10.0197
65553쎯	-10.02
20814쎯49044쎯	-10.0201
24110쎯	-10.0202
51216쎯“쎯	-10.0204
20570쎯1쎯	-10.0206
54914쎯	-10.021
1쎯9쎯5쎯4쎯60833쎯	-10.0212
78973쎯54772쎯	-10.0219
56789쎯62795쎯	-10.022
12341쎯39149쎯	-10.0227
42094쎯22218쎯	-10.0229
51171쎯	-10.0231
74779쎯	-10.0235
45701쎯	-10.0235
38916쎯	-10.0237
33596쎯57088쎯	-10.0237
41164쎯57179쎯	-10.0238
31286쎯	-10.0241
45551쎯	-10.0243
73570쎯28800쎯	-10.0245
975쎯49851쎯78973쎯	-10.0246
57519쎯	-10.0246
46320쎯57133쎯	-10.0251
2쎯56544쎯	-10.0252
33343쎯52400쎯	-10.0256
49758쎯	-10.0258
65621쎯28123쎯	-10.0259
19135쎯63921쎯	-10.026
73666쎯	-10.0268
37294쎯11104쎯	-10.0276
63962쎯46278쎯	-10.0276
79303쎯16737쎯	-10.0291
28773쎯18025쎯	-10.0292
4쎯2쎯	-10.0301
1쎯9쎯5쎯3쎯60833쎯	-10.0301
5쎯35447쎯23356쎯	-10.0302
78973쎯11998쎯	-10.0302
37286쎯	-10.0306
54974쎯41213쎯	-10.0306
10443쎯60391쎯	-10.0309
833쎯69344쎯55318쎯	-10.0309
21951쎯76979쎯	-10.0309
80611쎯	-10.0313
23212쎯	-10.0317
17661쎯44419쎯	-10.0317
28020쎯22523쎯	-10.0322
36283쎯	-10.0323
79872쎯26151쎯	-10.0328
22916쎯	-10.0331
15909쎯25286쎯	-10.0333
54143쎯	-10.0333
51984쎯	-10.0341
47575쎯35641쎯	-10.0343
79303쎯28773쎯	-10.0345
21669쎯	-10.0345
22814쎯	-10.0349
43587쎯	-10.035
61910쎯46320쎯	-10.0355
75800쎯	-10.0356
16433쎯34859쎯	-10.036
79303쎯48759쎯	-10.0369
10285쎯37995쎯	-10.037
17189쎯	-10.0372
22197쎯76552쎯	-10.0377
35623쎯	-10.0384
62680쎯66876쎯	-10.0388
28961쎯12111쎯	-10.0388
60052쎯55132쎯	-10.0389
32179쎯	-10.039
80789쎯52956쎯	-10.0392
19505쎯18654쎯	-10.0394
62474쎯12078쎯	-10.0398
15236쎯29026쎯	-10.0402
71509쎯	-10.0403
47302쎯53327쎯	-10.0403
23845쎯15779쎯	-10.0407
25982쎯68972쎯	-10.0411
73570쎯23486쎯	-10.0419
20392쎯61132쎯	-10.0425
47495쎯33013쎯	-10.0428
33701쎯	-10.0429
25286쎯80506쎯	-10.0431
64395쎯71395쎯	-10.0436
49014쎯60127쎯	-10.044
56925쎯68623쎯	-10.0441
62474쎯28907쎯	-10.0442
27195쎯79303쎯	-10.0442
52005쎯	-10.0444
75525쎯66949쎯	-10.0447
46553쎯68454쎯	-10.045
72380쎯	-10.0453
50949쎯	-10.0454
37822쎯25286쎯	-10.0457
39873쎯60670쎯	-10.0458
11658쎯	-10.046
44889쎯	-10.0461
72545쎯38828쎯37	-10.0463
21962쎯54664쎯	-10.0467
1쎯9쎯6쎯1쎯60833쎯	-10.0472
57519쎯12111쎯	-10.0475
20737쎯	-10.0479
62474쎯75547쎯	-10.0483
76386쎯	-10.0483
11630쎯62474쎯	-10.0485
14868쎯58688쎯	-10.0485
65621쎯63962쎯	-10.0491
10715쎯12111쎯	-10.0493
53722쎯53472쎯	-10.0495
53656쎯25225쎯	-10.0495
54974쎯47902쎯	-10.0501
28261쎯31887쎯	-10.0503
55302쎯	-10.0504
53823쎯	-10.0508
75203쎯32197쎯	-10.0514
57133쎯34349쎯	-10.0518
73364쎯61368쎯	-10.052
44248쎯28261쎯	-10.052
73211쎯43960쎯57	-10.0523
856쎯73211쎯43960쎯	-10.0526
211쎯64387쎯64874쎯	-10.0527
41374쎯	-10.0527
12267쎯25094쎯	-10.0532
40819쎯76736쎯	-10.0532
902쎯11079쎯40837쎯	-10.0534
53448쎯19167쎯	-10.0535
95쎯64874쎯23468쎯	-10.054
58692쎯64874쎯73	-10.054
33081쎯12372쎯	-10.0541
1쎯0쎯0쎯0쎯0쎯8쎯0쎯1쎯	-10.0543
35311쎯78973쎯722	-10.0544
16453쎯50699쎯	-10.0545
63088쎯	-10.0546
69344쎯53722쎯	-10.0553
1쎯9쎯7쎯4쎯60833쎯	-10.0554
14192쎯24317쎯	-10.0555
69760쎯	-10.0556
54072쎯	-10.0559
60127쎯12111쎯	-10.0561
64046쎯46224쎯	-10.0569
23974쎯	-10.0571
216쎯20839쎯48497쎯	-10.0571
54974쎯77495쎯	-10.0572
48497쎯64395쎯74	-10.0576
23845쎯40773쎯	-10.0577
53327쎯79303쎯	-10.0577
80728쎯32542쎯	-10.0579
512쎯21962쎯65677쎯	-10.0579
443쎯38934쎯57248쎯	-10.058
13581쎯77239쎯10	-10.0581
22920쎯	-10.0584
54974쎯15184쎯	-10.0584
66671쎯	-10.0585
79524쎯64178쎯	-10.0587
22851쎯11630쎯	-10.0592
17602쎯39063쎯	-10.0598
▁쎯3쎯	-10.0599
46488쎯59895쎯	-10.06
79303쎯31486쎯	-10.0602
47471쎯74512쎯	-10.0603
76316쎯41347쎯	-10.0608
60559쎯73625쎯	-10.0608
69484쎯35150쎯	-10.061
21088쎯46979쎯	-10.0612
78973쎯73352쎯	-10.0616
12267쎯16156쎯	-10.0618
72454쎯65115쎯	-10.0621
16156쎯23779쎯	-10.0622
6쎯6쎯	-10.0628
37714쎯60052쎯	-10.0629
36214쎯46289쎯	-10.0629
57133쎯44790쎯	-10.0633
76764쎯	-10.0635
28738쎯54110쎯	-10.0636
37쎯72295쎯23468쎯	-10.0638
47178쎯56661쎯	-10.0638
28043쎯21588쎯	-10.0646
42478쎯	-10.0656
79872쎯47160쎯	-10.0659
36626쎯	-10.066
65124쎯	-10.0662
20234쎯75547쎯	-10.0666
62633쎯79303쎯	-10.0673
148쎯45252쎯54472쎯	-10.0677
73352쎯28441쎯79	-10.0677
69613쎯30682쎯	-10.0681
54033쎯	-10.0683
1쎯9쎯7쎯7쎯60833쎯	-10.0688
13307쎯67734쎯	-10.0688
44248쎯51314쎯	-10.069
60833쎯78681쎯	-10.0702
21962쎯40706쎯	-10.0704
79263쎯35024쎯	-10.0711
75108쎯75547쎯	-10.0716
49013쎯27082쎯	-10.0718
60637쎯76024쎯	-10.0719
56787쎯28441쎯	-10.0722
41897쎯	-10.0723
21491쎯79872쎯	-10.0736
441쎯79148쎯19167쎯	-10.074
20973쎯37175쎯	-10.074
21962쎯65677쎯28	-10.0741
25040쎯	-10.0742
25961쎯	-10.0744
37002쎯62313쎯	-10.0749
37002쎯49089쎯	-10.0749
10012쎯	-10.0751
78973쎯“쎯	-10.0751
23486쎯22761쎯	-10.0761
41817쎯	-10.0767
40268쎯	-10.0767
15317쎯41710쎯	-10.0769
”쎯51216쎯	-10.0769
(쎯)쎯51216쎯	-10.0773
50252쎯30233쎯	-10.0773
54448쎯10285쎯	-10.078
46389쎯	-10.0782
63631쎯29274쎯	-10.0785
60127쎯27795쎯	-10.079
13331쎯74773쎯	-10.079
60833쎯74512쎯	-10.0791
56800쎯	-10.0799
27374쎯	-10.08
44493쎯15326쎯	-10.08
15317쎯24317쎯	-10.0802
17058쎯	-10.0805
29787쎯53715쎯	-10.0806
15722쎯	-10.0815
47902쎯48643쎯	-10.0819
72397쎯17232쎯	-10.0821
29275쎯46699쎯	-10.0828
54305쎯53327쎯	-10.0829
67734쎯62153쎯	-10.083
22523쎯79303쎯	-10.0831
45931쎯40837쎯	-10.0832
41817쎯18840쎯	-10.0839
30199쎯67734쎯	-10.0841
58037쎯63962쎯	-10.0843
1쎯9쎯3쎯8쎯60833쎯	-10.0843
63691쎯66590쎯	-10.0844
45254쎯	-10.0848
46979쎯	-10.0852
3쎯3쎯	-10.0854
64505쎯72466쎯	-10.0855
13778쎯	-10.0858
77103쎯73904쎯	-10.0859
51216쎯57630쎯	-10.0863
29830쎯33945쎯	-10.0869
75525쎯62645쎯	-10.087
22847쎯55237쎯	-10.0871
33764쎯	-10.0872
39280쎯43707쎯	-10.0875
57133쎯46320쎯	-10.0876
1쎯9쎯4쎯5쎯60833쎯	-10.088
70147쎯	-10.0882
46787쎯	-10.0883
58535쎯53729쎯	-10.0892
38701쎯20202쎯	-10.0902
48759쎯29327쎯	-10.0903
28764쎯62090쎯	-10.0905
44764쎯22791쎯	-10.091
3쎯9쎯	-10.0911
29327쎯54178쎯	-10.0911
51995쎯	-10.0922
43695쎯	-10.0923
45851쎯46224쎯	-10.0924
73262쎯	-10.0929
62090쎯10285쎯	-10.093
18315쎯38321쎯	-10.0942
18542쎯58571쎯	-10.0944
52132쎯	-10.0951
37955쎯78973쎯	-10.0951
22218쎯52878쎯	-10.0957
30524쎯	-10.0959
52400쎯	-10.0961
54178쎯78973쎯	-10.0961
4쎯9쎯	-10.0964
14798쎯	-10.0966
52400쎯70833쎯	-10.0966
42754쎯40773쎯	-10.0969
18266쎯60304쎯	-10.0974
19043쎯16209쎯	-10.0976
8쎯57630쎯	-10.0977
36352쎯28261쎯	-10.098
15872쎯	-10.0984
37941쎯	-10.0985
13999쎯	-10.0992
77103쎯37995쎯	-10.0997
22761쎯42649쎯	-10.1003
52240쎯	-10.1004
55713쎯	-10.1007
19744쎯	-10.1017
32196쎯18974쎯	-10.1029
74746쎯37808쎯	-10.1042
23895쎯	-10.1042
51832쎯10772쎯	-10.1043
49854쎯14199쎯	-10.1043
5쎯8쎯	-10.1045
44058쎯	-10.1046
43637쎯64178쎯	-10.1047
8쎯8쎯	-10.1048
50823쎯42649쎯	-10.1051
68055쎯69344쎯	-10.1057
66146쎯20570쎯“쎯	-10.1057
79303쎯“쎯	-10.1067
11767쎯	-10.1067
36820쎯10443쎯	-10.1069
49854쎯20827쎯	-10.1073
38241쎯	-10.1074
43357쎯70043쎯	-10.1076
66876쎯12078쎯	-10.1077
24233쎯26671쎯	-10.1082
79872쎯16016쎯	-10.1086
43895쎯	-10.1092
44764쎯19109쎯	-10.1096
48172쎯23601쎯	-10.1098
70728쎯	-10.1101
1쎯9쎯7쎯3쎯60833쎯	-10.1104
73352쎯80334쎯	-10.1113
54988쎯	-10.1114
72389쎯49089쎯	-10.1115
45996쎯53322쎯	-10.1116
71004쎯76552쎯	-10.1117
35641쎯56284쎯	-10.1119
12267쎯75366쎯	-10.1121
66833쎯33460쎯	-10.1124
57655쎯《쎯	-10.1127
62680쎯19806쎯	-10.1131
64558쎯37995쎯	-10.1136
29705쎯	-10.1138
35423쎯	-10.1143
62474쎯56609쎯	-10.1143
70627쎯	-10.1143
79159쎯	-10.1144
19882쎯	-10.1146
16817쎯	-10.115
77504쎯42815쎯	-10.115
38744쎯55645쎯	-10.1152
15877쎯17439쎯	-10.1154
48759쎯51216쎯	-10.1158
45851쎯33400쎯	-10.1159
》쎯74899쎯	-10.1161
79524쎯61050쎯	-10.1163
68745쎯	-10.1164
57248쎯51400쎯	-10.1165
34913쎯23331쎯	-10.1173
50124쎯	-10.1175
35153쎯	-10.1176
39063쎯60670쎯	-10.118
62562쎯62562쎯	-10.1186
5쎯4쎯	-10.1189
19696쎯27378쎯	-10.1196
28222쎯57040쎯	-10.1196
20996쎯	-10.1196
42649쎯60637쎯44	-10.1197
16460쎯78673쎯	-10.1201
80611쎯46301쎯	-10.1203
57881쎯57179쎯	-10.1206
68344쎯	-10.1206
14536쎯62123쎯	-10.1207
66622쎯17496쎯	-10.1208
10691쎯	-10.122
11630쎯44388쎯	-10.1221
53510쎯53322쎯	-10.1221
34349쎯46699쎯	-10.123
40516쎯	-10.1231
79872쎯60127쎯	-10.1234
55957쎯10488쎯	-10.1236
67734쎯45851쎯	-10.1238
20591쎯23827쎯	-10.1242
20437쎯	-10.1245
43591쎯	-10.1248
40459쎯53575쎯	-10.125
43659쎯66483쎯	-10.1251
42936쎯	-10.1251
42094쎯44442쎯	-10.1253
12078쎯53322쎯	-10.1255
60052쎯37633쎯	-10.1257
53322쎯28738쎯	-10.1257
28261쎯68909쎯	-10.1261
28350쎯	-10.1263
79872쎯38013쎯	-10.1265
56146쎯34859쎯	-10.1269
43030쎯35522쎯	-10.1271
66483쎯22867쎯	-10.1275
40773쎯42649쎯	-10.1275
15268쎯	-10.1279
80091쎯	-10.1285
72253쎯58991쎯	-10.1286
68866쎯56032쎯	-10.1288
34859쎯37995쎯	-10.1291
72925쎯	-10.1292
42349쎯	-10.1293
12111쎯47835쎯	-10.1294
11396쎯	-10.1297
21865쎯43960쎯	-10.1298
4쎯3쎯	-10.1298
51555쎯	-10.1298
45252쎯79303쎯	-10.1302
20202쎯19806쎯	-10.1303
20570쎯《쎯	-10.1303
59576쎯75547쎯	-10.1307
24858쎯	-10.1311
2	-10.1314
51144쎯	-10.1317
22851쎯	-10.132
18058쎯48715쎯	-10.1323
11283쎯60670쎯	-10.1324
15184쎯50435쎯	-10.1325
42319쎯	-10.1336
64825쎯	-10.1342
36820쎯15622쎯	-10.1349
6쎯8쎯	-10.135
66224쎯60833쎯	-10.1356
79303쎯72397쎯	-10.1356
64661쎯42234쎯	-10.1361
67734쎯30199쎯	-10.1363
35250쎯64124쎯	-10.1363
72296쎯	-10.1364
53722쎯45252쎯	-10.1366
』쎯	-10.137
53327쎯46357쎯	-10.1374
72545쎯53203쎯	-10.1383
10929쎯	-10.1395
27524쎯	-10.1396
1쎯72295쎯2쎯	-10.1397
21686쎯	-10.1402
24891쎯	-10.1407
54797쎯	-10.1409
64395쎯60833쎯	-10.1413
33945쎯25094쎯	-10.1416
12267쎯39103쎯	-10.1419
38622쎯	-10.1422
18939쎯33460쎯	-10.1422
80242쎯15278쎯	-10.1425
32130쎯52993쎯	-10.1427
1쎯9쎯5쎯1쎯60833쎯	-10.1428
23693쎯	-10.1428
61061쎯21962쎯	-10.1429
71752쎯42649쎯	-10.143
32188쎯	-10.1437
58254쎯55982쎯	-10.1439
79303쎯77640쎯	-10.144
36602쎯18025쎯	-10.1443
68428쎯27195쎯	-10.1444
64211쎯62615쎯	-10.1446
57133쎯12111쎯	-10.1446
20348쎯73570쎯	-10.1446
19259쎯53203쎯	-10.1446
76024쎯35641쎯	-10.145
21962쎯65677쎯	-10.145
57630쎯28261쎯	-10.1458
74132쎯74980쎯	-10.1462
▁쎯49044쎯	-10.1463
11778쎯	-10.1468
22709쎯44369쎯	-10.1472
65921쎯	-10.1475
4쎯7쎯	-10.148
1쎯9쎯4쎯8쎯60833쎯	-10.1489
64874쎯1쎯73211쎯	-10.1491
10175쎯	-10.1491
33436쎯14882쎯	-10.1493
33460쎯25632쎯	-10.1495
26225쎯	-10.1504
41248쎯	-10.1507
20476쎯	-10.1516
503쎯56609쎯33436쎯	-10.152
14592쎯	-10.152
24317쎯	-10.1521
40963쎯	-10.1523
30199쎯45851쎯	-10.1527
31292쎯	-10.1528
40600쎯31141쎯	-10.1529
22095쎯	-10.1529
72870쎯50573쎯	-10.153
41668쎯	-10.1532
41975쎯74899쎯	-10.1532
15909쎯21088쎯	-10.1537
63366쎯27195쎯	-10.1538
13581쎯19167쎯	-10.1539
34449쎯37714쎯	-10.154
40304쎯63681쎯	-10.1544
67943쎯47431쎯	-10.1545
17661쎯60127쎯	-10.1551
20827쎯19457쎯	-10.1554
49089쎯48644쎯	-10.1558
45851쎯10555쎯	-10.1559
23901쎯	-10.156
▁쎯20570쎯	-10.156
35720쎯“쎯	-10.1561
46687쎯	-10.1565
29952쎯	-10.1572
79303쎯55957쎯	-10.1572
45702쎯	-10.1574
14868쎯18673쎯	-10.158
30658쎯18250쎯	-10.158
33541쎯	-10.1582
9쎯6쎯	-10.1588
28764쎯14303쎯	-10.1589
60127쎯78973쎯	-10.159
48715쎯	-10.1591
79303쎯10401쎯	-10.1592
50337쎯37629쎯	-10.1594
10535쎯42649쎯	-10.1594
31337쎯28261쎯	-10.1597
75686쎯78536쎯	-10.1599
49628쎯	-10.16
57358쎯	-10.1602
14363쎯53722쎯	-10.161
46553쎯54772쎯	-10.161
20827쎯73637쎯	-10.1615
33950쎯28664쎯	-10.1615
70171쎯	-10.1621
3쎯56544쎯	-10.1621
38624쎯23899쎯	-10.1624
73364쎯40951쎯	-10.1627
57798쎯28664쎯	-10.1629
32197쎯46545쎯	-10.163
73570쎯53100쎯	-10.1639
20662쎯	-10.1647
75265쎯67908쎯	-10.1652
7쎯8쎯	-10.1657
28910쎯	-10.1657
76479쎯54772쎯	-10.1659
35048쎯62747쎯	-10.166
49209쎯	-10.1675
69617쎯	-10.1675
68972쎯	-10.1678
21945쎯	-10.1681
76055쎯32514쎯	-10.1682
63404쎯37995쎯	-10.1689
35572쎯51803쎯	-10.1692
10535쎯21491쎯	-10.1695
65677쎯69484쎯	-10.1697
32410쎯71752쎯	-10.1698
9쎯9쎯	-10.17
46320쎯19109쎯	-10.1701
52457쎯42649쎯60	-10.1705
80319쎯	-10.1706
24806쎯	-10.171
56064쎯74503쎯	-10.1717
42779쎯	-10.172
36364쎯	-10.1725
79609쎯	-10.1727
58619쎯	-10.1727
55717쎯71752쎯	-10.1731
3쎯4쎯	-10.1733
17770쎯41213쎯	-10.1739
18058쎯50337쎯	-10.1749
51803쎯58768쎯	-10.1752
13622쎯26942쎯	-10.1761
43854쎯37633쎯	-10.1763
75447쎯38013쎯	-10.1763
45856쎯23901쎯	-10.1768
14137쎯74980쎯	-10.1771
▁쎯69406쎯13550쎯	-10.1774
50337쎯75547쎯	-10.1776
64795쎯77922쎯	-10.1778
52659쎯	-10.1783
80818쎯	-10.1784
47301쎯	-10.1786
54664쎯75547쎯	-10.1787
50966쎯70834쎯	-10.1788
66571쎯	-10.1789
34859쎯42649쎯60	-10.1791
29274쎯55623쎯	-10.1792
42221쎯39349쎯	-10.1792
75108쎯19043쎯	-10.1793
66502쎯78800쎯	-10.1793
32819쎯74275쎯	-10.1793
56488쎯	-10.1795
64367쎯	-10.1795
50844쎯	-10.1801
37955쎯49089쎯	-10.1805
1쎯9쎯3쎯4쎯60833쎯	-10.181
108쎯73364쎯43460쎯	-10.1812
80564쎯63807쎯	-10.1814
61932쎯	-10.1817
53081쎯48082쎯	-10.182
49758쎯63892쎯	-10.1821
59735쎯	-10.1822
68454쎯12341쎯	-10.1826
70823쎯79303쎯	-10.1828
69711쎯74980쎯	-10.1837
1쎯9쎯7쎯1쎯60833쎯	-10.1838
61132쎯52878쎯	-10.184
36641쎯	-10.1841
62633쎯74899쎯	-10.1843
1쎯8쎯0쎯	-10.1847
42344쎯42344쎯	-10.1851
76796쎯	-10.1852
43854쎯10773쎯	-10.1855
69908쎯47356쎯	-10.1862
43585쎯41817쎯	-10.1869
57248쎯19167쎯	-10.1871
53729쎯37955쎯	-10.1874
43901쎯79766쎯	-10.188
43474쎯	-10.1883
79322쎯10772쎯	-10.1883
79872쎯10773쎯	-10.1885
30567쎯73147쎯	-10.1889
36651쎯29560쎯	-10.189
53832쎯39045쎯	-10.1909
36385쎯	-10.191
73680쎯14154쎯	-10.1915
58712쎯	-10.1919
80721쎯63404쎯	-10.1921
25989쎯76795쎯	-10.1922
76013쎯62474쎯	-10.1922
60180쎯	-10.1927
70043쎯	-10.1928
34241쎯73364쎯	-10.1935
57248쎯69416쎯	-10.1938
58757쎯	-10.1939
60276쎯	-10.1941
6쎯79303쎯57088쎯48	-10.1942
55645쎯1쎯	-10.1948
72545쎯52993쎯	-10.195
26216쎯20814쎯	-10.1951
40951쎯35636쎯	-10.1952
14924쎯13331쎯	-10.1957
73352쎯21962쎯	-10.1958
0쎯12299쎯	-10.1962
79683쎯	-10.1963
29026쎯68866쎯	-10.1964
14205쎯	-10.1971
19624쎯	-10.1972
60481쎯16751쎯	-10.1976
55777쎯78673쎯	-10.1976
49392쎯	-10.1982
9쎯5쎯	-10.1985
52780쎯	-10.1985
63819쎯	-10.199
68454쎯35641쎯	-10.1993
38934쎯47575쎯	-10.1994
80377쎯	-10.1994
57881쎯32901쎯	-10.1999
2쎯72295쎯	-10.2009
80789쎯37627쎯	-10.2014
40970쎯38241쎯	-10.2015
62313쎯31697쎯	-10.2017
11864쎯	-10.202
50699쎯17086쎯	-10.2021
10124쎯	-10.2024
80435쎯71752쎯	-10.2025
73570쎯26507쎯	-10.2032
8쎯6쎯	-10.2034
27993쎯24720쎯	-10.2036
58376쎯32901쎯	-10.2038
25658쎯43431쎯	-10.2041
8쎯5쎯	-10.2043
37633쎯49851쎯	-10.2043
58688쎯73364쎯	-10.2044
48600쎯40706쎯	-10.2044
55318쎯19167쎯	-10.2045
5쎯2쎯	-10.2049
19505쎯54178쎯	-10.205
78240쎯	-10.2051
58509쎯21088쎯	-10.2051
19043쎯68909쎯4쎯	-10.2052
77495쎯	-10.2052
19350쎯	-10.2057
52160쎯55805쎯	-10.2058
42094쎯27897쎯	-10.2063
27783쎯	-10.2065
79102쎯	-10.2069
56146쎯42221쎯	-10.2073
13607쎯33950쎯	-10.2074
27519쎯	-10.2077
54178쎯74715쎯	-10.208
79303쎯79872쎯	-10.2087
61819쎯	-10.2089
54974쎯40970쎯	-10.2092
62474쎯53081쎯	-10.2093
75868쎯42649쎯	-10.2094
▁쎯64874쎯2쎯73211쎯	-10.2098
69515쎯38577쎯	-10.2099
16433쎯12348쎯	-10.2106
70026쎯28800쎯	-10.2112
127쎯37633쎯44417쎯	-10.2112
1쎯9쎯4쎯6쎯60833쎯	-10.2118
36202쎯	-10.2118
50642쎯13262쎯	-10.2123
34613쎯49873쎯	-10.2132
22761쎯68428쎯	-10.2138
33414쎯	-10.2141
1쎯9쎯3쎯7쎯60833쎯	-10.2146
62474쎯37995쎯	-10.2148
27847쎯	-10.2154
60055쎯51735쎯	-10.2158
37955쎯30217쎯	-10.2164
11283쎯47302쎯	-10.2167
34174쎯	-10.2169
16751쎯18840쎯	-10.217
10849쎯	-10.2171
47375쎯	-10.2172
23950쎯	-10.2172
33536쎯57798쎯	-10.2173
16157쎯	-10.2173
10555쎯10301쎯	-10.2176
2쎯5쎯0쎯	-10.2178
63014쎯60833쎯	-10.218
74077쎯25286쎯	-10.218
3쎯12267쎯62633쎯	-10.2185
41401쎯	-10.2191
13607쎯37294쎯	-10.2192
55318쎯75547쎯	-10.2194
”쎯68055쎯“쎯	-10.2196
21394쎯28261쎯	-10.2197
12876쎯39063쎯	-10.2199
23925쎯	-10.2206
73570쎯15326쎯	-10.2207
12267쎯66145쎯	-10.2213
34349쎯36308쎯	-10.2216
78531쎯29274쎯	-10.2223
43299쎯78707쎯	-10.2226
》쎯62474쎯74899쎯	-10.2227
59344쎯37955쎯	-10.2228
1쎯9쎯3쎯5쎯60833쎯	-10.2229
27626쎯35636쎯	-10.2235
28944쎯	-10.2235
60127쎯10535쎯	-10.2239
33596쎯20202쎯	-10.2243
23993쎯21945쎯	-10.2246
42524쎯10488쎯	-10.2255
41839쎯	-10.2257
15438쎯47575쎯	-10.2257
65677쎯47302쎯	-10.2258
44696쎯60769쎯	-10.226
63850쎯	-10.2262
59453쎯	-10.2264
72397쎯60833쎯	-10.2266
80242쎯68428쎯	-10.2267
12267쎯17602쎯	-10.2268
77280쎯	-10.2268
36096쎯	-10.2276
58176쎯36352쎯	-10.2278
73878쎯	-10.2279
60637쎯80435쎯	-10.228
70016쎯	-10.228
34049쎯	-10.228
49044쎯27747쎯	-10.2283
60371쎯27711쎯	-10.2285
22761쎯76412쎯	-10.2289
79872쎯49802쎯	-10.2289
36820쎯28441쎯	-10.2292
43637쎯64178쎯212	-10.2293
58372쎯28203쎯	-10.2297
30099쎯	-10.2297
13581쎯57881쎯	-10.2298
16241쎯	-10.23
75547쎯20570쎯	-10.2309
42081쎯70834쎯	-10.2309
36944쎯40088쎯	-10.2314
22311쎯56661쎯	-10.2321
1쎯9쎯4쎯7쎯60833쎯	-10.2321
48643쎯40722쎯	-10.2325
49080쎯	-10.2335
20827쎯47431쎯	-10.2335
31337쎯59548쎯	-10.2336
19369쎯	-10.234
65842쎯55623쎯	-10.2343
69702쎯	-10.2344
34193쎯	-10.2345
29856쎯	-10.2345
4쎯4쎯	-10.2345
59344쎯73211쎯	-10.2347
58254쎯39339쎯	-10.2351
70957쎯46721쎯	-10.2351
18713쎯20570쎯“쎯	-10.2352
13331쎯》쎯	-10.2353
48644쎯42649쎯	-10.2362
72389쎯79303쎯	-10.2362
5쎯28642쎯	-10.2366
72129쎯16052쎯	-10.2367
76055쎯》쎯	-10.2368
26998쎯	-10.2368
31760쎯15909쎯	-10.237
25658쎯67313쎯	-10.2371
64661쎯15381쎯	-10.2371
62572쎯76736쎯	-10.2371
78673쎯58991쎯	-10.2373
35944쎯	-10.2379
75371쎯	-10.2381
44299쎯	-10.2382
20507쎯31887쎯	-10.2383
20909쎯37633쎯	-10.2384
57195쎯	-10.2389
34913쎯46545쎯	-10.239
55121쎯2쎯8쎯14924쎯	-10.2395
218쎯23356쎯79303쎯	-10.2403
20542쎯	-10.2405
,	-10.2405
79754쎯	-10.2406
3쎯1쎯	-10.2407
38624쎯75547쎯	-10.2409
36944쎯57158쎯	-10.2412
58582쎯	-10.2412
74715쎯75547쎯	-10.2412
▁쎯4쎯49089쎯	-10.2416
71948쎯27586쎯	-10.2416
72719쎯	-10.2419
21966쎯49089쎯	-10.2423
20909쎯22197쎯	-10.2425
35584쎯68454쎯	-10.2428
34349쎯55623쎯	-10.2432
51832쎯42037쎯	-10.2437
12078쎯56789쎯	-10.2444
49063쎯	-10.2447
65621쎯35641쎯	-10.2448
67734쎯62615쎯	-10.2452
13947쎯	-10.2453
42234쎯25286쎯	-10.2457
73352쎯76979쎯	-10.2457
0쎯0쎯12267쎯62633쎯	-10.2458
10488쎯49939쎯	-10.2464
42844쎯	-10.2464
47731쎯	-10.2466
78792쎯37002쎯	-10.2471
31763쎯	-10.2473
47443쎯	-10.2474
35667쎯	-10.2479
70183쎯	-10.248
76181쎯	-10.2481
61553쎯	-10.2481
33824쎯	-10.2482
40600쎯44889쎯	-10.2485
64171쎯	-10.2486
42025쎯	-10.2489
60833쎯74899쎯	-10.2498
79303쎯48811쎯	-10.2499
51394쎯31697쎯	-10.25
76739쎯74077쎯	-10.2501
63877쎯	-10.2503
56153쎯49089쎯	-10.2505
4쎯56544쎯	-10.2507
48600쎯50285쎯	-10.2508
10268쎯79263쎯	-10.2509
43485쎯	-10.2511
71294쎯36046쎯	-10.2511
19043쎯24757쎯	-10.2514
12022쎯	-10.2516
25841쎯65621쎯	-10.2518
52266쎯48670쎯	-10.2518
71903쎯14141쎯	-10.2521
1쎯9쎯3쎯6쎯60833쎯	-10.2529
20591쎯75265쎯	-10.2536
53688쎯12618쎯	-10.2538
56338쎯	-10.2543
35460쎯43691쎯	-10.2551
65780쎯51735쎯	-10.2551
13735쎯12078쎯	-10.2551
60127쎯60670쎯	-10.2553
57922쎯57158쎯	-10.2554
62615쎯60833쎯	-10.2556
14154쎯	-10.2558
21520쎯	-10.2563
68524쎯	-10.2564
42524쎯76055쎯	-10.2568
26685쎯	-10.257
23430쎯	-10.257
44129쎯60127쎯	-10.2572
53722쎯76591쎯	-10.2574
57504쎯34832쎯	-10.2577
63962쎯80792쎯	-10.2577
74473쎯	-10.2579
21588쎯68313쎯	-10.258
47062쎯60833쎯	-10.2583
19043쎯68909쎯1쎯	-10.2585
77103쎯45851쎯	-10.2587
18542쎯69613쎯	-10.2589
37808쎯	-10.2591
76386쎯76795쎯	-10.2597
79322쎯62313쎯	-10.2604
33189쎯41858쎯	-10.2606
18466쎯74512쎯	-10.2608
44493쎯29275쎯	-10.2613
75108쎯37995쎯	-10.2616
62187쎯35864쎯	-10.2616
18683쎯	-10.2617
79303쎯18431쎯	-10.2617
57738쎯62090쎯	-10.262
10268쎯73680쎯	-10.2623
58376쎯46289쎯	-10.2624
45450쎯	-10.2625
33258쎯	-10.2626
18431쎯75108쎯	-10.2629
64783쎯	-10.263
1쎯9쎯3쎯3쎯60833쎯	-10.2631
53152쎯	-10.2635
73262쎯25286쎯	-10.2636
70834쎯《쎯	-10.2636
15622쎯39063쎯	-10.2637
72479쎯74512쎯	-10.2638
73638쎯24720쎯	-10.2638
51062쎯38934쎯	-10.2642
24524쎯59281쎯	-10.2643
53322쎯70026쎯	-10.2647
40088쎯71948쎯	-10.2651
53322쎯25286쎯	-10.2652
42649쎯48643쎯2쎯	-10.2653
039쎯	-10.2653
49624쎯43460쎯	-10.2655
43488쎯	-10.2655
67313쎯	-10.2661
50506쎯	-10.2665
50252쎯62090쎯	-10.2667
46545쎯11104쎯	-10.2678
14137쎯79872쎯	-10.2681
78166쎯	-10.2682
73638쎯60833쎯	-10.2688
13787쎯	-10.2689
62471쎯71948쎯	-10.269
61050쎯39608쎯	-10.2694
28764쎯	-10.2694
74884쎯	-10.2695
322쎯79766쎯76919쎯	-10.2695
50881쎯	-10.2699
47854쎯	-10.2708
7쎯2쎯	-10.2711
28773쎯67335쎯	-10.2713
73570쎯18840쎯	-10.2716
50733쎯	-10.2731
65292쎯30233쎯	-10.2743
78973쎯32819쎯	-10.2744
5쎯7쎯	-10.2746
17215쎯23899쎯	-10.2749
53510쎯37995쎯	-10.2749
41147쎯	-10.2751
18315쎯35572쎯	-10.2752
51112쎯	-10.2752
68909쎯37194쎯	-10.2757
66726쎯	-10.2759
79263쎯21962쎯10	-10.2761
56837쎯	-10.2761
46541쎯53322쎯	-10.2761
61026쎯42015쎯	-10.2764
30658쎯74132쎯	-10.2768
54178쎯33460쎯	-10.2769
46055쎯	-10.2771
18655쎯19395쎯	-10.2773
▁쎯20392쎯38603쎯	-10.2775
46202쎯74503쎯	-10.2777
35021쎯	-10.278
35302쎯74275쎯	-10.2783
46545쎯16832쎯	-10.2784
60186쎯56956쎯	-10.2785
71135쎯	-10.2785
2쎯12267쎯62633쎯	-10.2789
18500쎯69908쎯	-10.2789
39203쎯	-10.2792
15965쎯10772쎯	-10.2795
60345쎯78536쎯	-10.2795
14649쎯	-10.2797
24700쎯	-10.2798
31625쎯	-10.28
34613쎯18315쎯	-10.2801
16455쎯12103쎯	-10.2801
69613쎯72500쎯	-10.2804
50337쎯53322쎯	-10.2807
75108쎯22709쎯	-10.2819
510쎯56609쎯33436쎯	-10.2821
45631쎯	-10.2822
80789쎯16433쎯	-10.2823
37175쎯42094쎯	-10.2824
55762쎯18058쎯	-10.2825
72545쎯51735쎯	-10.2825
74980쎯21962쎯	-10.2825
64558쎯48644쎯	-10.2826
29327쎯50337쎯	-10.2826
13581쎯57922쎯	-10.2829
18315쎯10772쎯	-10.283
17661쎯73550쎯	-10.2834
29571쎯	-10.2843
497쎯73781쎯54178쎯	-10.2845
》쎯28028쎯50579쎯	-10.2848
52750쎯40837쎯	-10.2849
62762쎯51582쎯	-10.285
79303쎯18250쎯	-10.2852
649쎯55318쎯24526쎯	-10.2853
78782쎯80459쎯	-10.2854
38731쎯60055쎯	-10.2854
56124쎯	-10.2862
46346쎯79303쎯	-10.2864
1쎯0쎯0쎯21594쎯	-10.2869
53722쎯27195쎯	-10.2871
45252쎯18840쎯	-10.2872
1쎯31486쎯	-10.2872
51803쎯35572쎯	-10.2872
61132쎯27711쎯	-10.2875
64211쎯3쎯	-10.2882
》쎯50573쎯	-10.2889
27747쎯54178쎯	-10.289
18038쎯	-10.2892
54885쎯78782쎯	-10.2894
24401쎯28738쎯	-10.2896
58734쎯31641쎯	-10.2896
76059쎯70834쎯	-10.2901
64661쎯56153쎯	-10.2903
77911쎯63962쎯	-10.2904
64124쎯60127쎯	-10.2905
76302쎯	-10.2911
30682쎯41975쎯	-10.2912
59307쎯16209쎯	-10.2915
20433쎯45317쎯	-10.2915
34349쎯76055쎯	-10.2923
54178쎯49089쎯	-10.2924
25108쎯50337쎯	-10.2924
56684쎯13547쎯	-10.2924
21339쎯	-10.2925
73570쎯65177쎯	-10.2929
10944쎯	-10.2929
19362쎯71752쎯	-10.2936
57133쎯58964쎯	-10.2936
53448쎯51735쎯	-10.2944
40996쎯42649쎯	-10.2945
57133쎯71997쎯	-10.2948
37294쎯29560쎯	-10.2951
0쎯0쎯	-10.2951
7쎯57630쎯	-10.2952
42344쎯78973쎯	-10.2953
76055쎯51803쎯	-10.2953
48767쎯	-10.2958
74275쎯11104쎯	-10.296
79303쎯71685쎯	-10.2969
29327쎯40773쎯	-10.2971
72430쎯	-10.2975
57243쎯	-10.2975
67350쎯	-10.2982
6쎯2쎯	-10.2987
11079쎯78222쎯	-10.2987
74715쎯74899쎯	-10.2993
13854쎯69416쎯	-10.2993
21509쎯	-10.2995
0쎯23356쎯79303쎯60	-10.3
55237쎯20202쎯	-10.3003
11586쎯	-10.3004
80091쎯25286쎯	-10.3004
51687쎯	-10.3005
47356쎯	-10.3007
14706쎯	-10.3013
65582쎯19109쎯	-10.3017
16812쎯19167쎯	-10.3022
79188쎯	-10.3028
18840쎯73637쎯	-10.3028
72179쎯	-10.3035
33934쎯	-10.304
79567쎯	-10.3043
5쎯9쎯	-10.3047
22197쎯60637쎯42	-10.3048
37633쎯53729쎯	-10.3048
15105쎯	-10.3053
14265쎯	-10.3053
13307쎯57630쎯	-10.3057
10773쎯45252쎯	-10.3058
51879쎯31887쎯	-10.3063
21250쎯	-10.3063
21789쎯26998쎯	-10.3065
49830쎯	-10.3065
79303쎯60833쎯	-10.3066
48796쎯66059쎯	-10.3066
39398쎯	-10.3066
68105쎯78792쎯	-10.3068
68313쎯50424쎯	-10.3068
69484쎯27711쎯	-10.3069
24483쎯	-10.3082
48112쎯	-10.3085
48082쎯37629쎯	-10.3087
50078쎯26925쎯	-10.3089
17086쎯43854쎯	-10.309
50124쎯50337쎯	-10.3091
79872쎯44493쎯	-10.3096
68855쎯27041쎯	-10.3098
23331쎯59864쎯	-10.3098
9쎯7쎯	-10.3101
60559쎯》쎯	-10.3102
1쎯9쎯3쎯9쎯60833쎯	-10.3104
55861쎯72500쎯	-10.3105
51216쎯62123쎯	-10.3108
36858쎯51056쎯	-10.3108
36097쎯26108쎯	-10.3109
46289쎯42482쎯	-10.3112
77119쎯	-10.3118
34913쎯12732쎯	-10.3119
16751쎯70026쎯	-10.3119
70795쎯	-10.3123
25989쎯72479쎯	-10.3124
10773쎯57088쎯	-10.3131
70571쎯57158쎯	-10.3134
1쎯6쎯0쎯	-10.3139
25469쎯	-10.3144
44388쎯78240쎯	-10.3145
36820쎯28261쎯	-10.3145
75547쎯“쎯	-10.3152
51588쎯	-10.3158
16209쎯22218쎯	-10.316
16262쎯43492쎯	-10.3161
6쎯7쎯	-10.3163
69908쎯53322쎯	-10.3164
55762쎯	-10.3169
54196쎯	-10.3171
47788쎯26671쎯	-10.3175
29024쎯30658쎯	-10.3176
58376쎯37633쎯	-10.3177
56789쎯22867쎯	-10.3181
19167쎯69769쎯	-10.3188
52457쎯48644쎯	-10.3189
59794쎯	-10.3192
11851쎯25841쎯	-10.32
13735쎯21962쎯	-10.3201
55805쎯78782쎯	-10.3201
30845쎯	-10.3204
52763쎯	-10.3208
63383쎯	-10.3209
57657쎯	-10.3209
19043쎯68909쎯3쎯	-10.3211
24389쎯	-10.3211
26896쎯14536쎯	-10.3212
14562쎯	-10.3215
40467쎯	-10.3219
60693쎯	-10.3219
69344쎯23356쎯	-10.322
80792쎯21091쎯	-10.3221
69405쎯36820쎯	-10.324
▁쎯4쎯72295쎯	-10.3242
36595쎯	-10.3242
64661쎯20102쎯	-10.3243
74155쎯73781쎯	-10.3243
63962쎯76979쎯	-10.3249
210쎯18315쎯42344쎯	-10.325
66876쎯24951쎯	-10.3252
77239쎯48497쎯	-10.3256
10715쎯	-10.3259
67734쎯57702쎯	-10.3259
56684쎯31860쎯	-10.3259
23827쎯63962쎯	-10.3263
34913쎯32508쎯	-10.3264
14474쎯37002쎯	-10.3264
21437쎯	-10.3265
45317쎯57566쎯	-10.3267
32295쎯	-10.327
52945쎯20839쎯	-10.3273
77103쎯53322쎯	-10.3275
18266쎯	-10.3281
19043쎯68909쎯5쎯	-10.3283
76776쎯79046쎯	-10.3287
52233쎯11630쎯	-10.3287
38231쎯	-10.3289
50579쎯36063쎯	-10.3293
26942쎯	-10.3295
55982쎯	-10.3295
42849쎯50337쎯	-10.3297
12157쎯	-10.3301
62633쎯19043쎯	-10.3302
56787쎯43299쎯	-10.3305
57179쎯60833쎯	-10.3308
63681쎯18025쎯	-10.3309
1쎯9쎯4쎯0쎯60833쎯	-10.3309
63366쎯22761쎯	-10.3309
39267쎯	-10.3313
3쎯60833쎯	-10.3314
312쎯	-10.3316
60748쎯79266쎯	-10.3317
28441쎯29026쎯	-10.3317
24090쎯	-10.3318
28222쎯38828쎯	-10.3319
52266쎯34859쎯	-10.3323
58514쎯60127쎯	-10.3323
53990쎯	-10.3325
55121쎯1쎯8쎯14924쎯	-10.3329
29274쎯70823쎯	-10.3331
488쎯68454쎯73364쎯	-10.3334
51216쎯79805쎯	-10.3336
57133쎯40459쎯	-10.3337
》쎯68055쎯《쎯	-10.3339
25108쎯39339쎯	-10.3339
23186쎯	-10.3341
10573쎯	-10.3343
641쎯29560쎯19109쎯	-10.3344
18015쎯	-10.3345
75058쎯	-10.3353
17602쎯76024쎯	-10.3356
75868쎯49089쎯	-10.3358
42649쎯45851쎯31	-10.3359
62425쎯	-10.336
19123쎯	-10.3369
24500쎯	-10.3372
19263쎯18840쎯	-10.3375
73211쎯78973쎯	-10.3376
15278쎯21594쎯	-10.3376
20348쎯35720쎯	-10.3389
55393쎯34613쎯	-10.3394
21966쎯78973쎯	-10.3395
12899쎯59548쎯	-10.34
16238쎯	-10.3402
69243쎯27195쎯	-10.3404
12507쎯	-10.3404
40681쎯	-10.3406
78973쎯55777쎯	-10.3412
53966쎯68454쎯	-10.3413
48644쎯60637쎯	-10.3414
0쎯72295쎯1쎯	-10.3425
36150쎯	-10.3431
71395쎯53729쎯	-10.3432
29327쎯16433쎯	-10.3433
405쎯17602쎯11832쎯	-10.3438
20855쎯	-10.3446
38916쎯20159쎯	-10.3448
37808쎯35747쎯	-10.3466
37002쎯33536쎯	-10.3473
20581쎯79709쎯	-10.3475
58176쎯40970쎯	-10.3481
63691쎯38624쎯	-10.3482
36328쎯	-10.3482
49639쎯45252쎯	-10.3483
44248쎯15184쎯1쎯	-10.3491
1쎯9쎯6쎯7쎯60833쎯	-10.3492
56622쎯79102쎯	-10.3493
62460쎯	-10.3495
59255쎯42649쎯	-10.3497
64124쎯25989쎯	-10.3502
59247쎯	-10.3502
54278쎯	-10.3503
56544쎯1쎯	-10.3503
53448쎯33536쎯	-10.3503
57566쎯57133쎯	-10.3505
13745쎯42265쎯	-10.3505
66519쎯48643쎯	-10.3511
38133쎯	-10.3514
63962쎯73364쎯	-10.3517
▁쎯69416쎯76059쎯	-10.352
80792쎯42482쎯	-10.3522
78973쎯”쎯《쎯	-10.3528
33950쎯23827쎯	-10.3528
49083쎯53729쎯	-10.3528
36352쎯40970쎯	-10.3528
41302쎯46553쎯	-10.3535
38828쎯56789쎯	-10.3536
34349쎯15909쎯	-10.3537
23468쎯23468쎯	-10.3537
36868쎯	-10.3538
59386쎯	-10.354
12111쎯38617쎯	-10.3544
23845쎯27897쎯	-10.3547
67215쎯	-10.355
21491쎯《쎯	-10.355
21962쎯38013쎯	-10.355
10772쎯80334쎯	-10.3551
16394쎯52878쎯	-10.3553
23339쎯28441쎯	-10.3558
22447쎯	-10.3562
76196쎯18250쎯	-10.3563
48483쎯	-10.3568
23360쎯	-10.3568
7쎯9쎯	-10.3574
78973쎯68176쎯	-10.3574
20234쎯	-10.3575
72371쎯	-10.3576
63916쎯79303쎯	-10.3576
6쎯3쎯	-10.3577
27357쎯	-10.3579
65628쎯	-10.3581
46177쎯47302쎯	-10.3588
13735쎯22523쎯	-10.3589
63691쎯57228쎯	-10.3593
40739쎯53322쎯	-10.3594
57069쎯78944쎯	-10.3595
22709쎯27823쎯	-10.3596
38624쎯76573쎯	-10.3596
27344쎯	-10.3596
40600쎯76055쎯	-10.3597
17807쎯75547쎯《쎯	-10.3602
1쎯72295쎯0쎯	-10.3603
38795쎯71694쎯	-10.3621
22258쎯75525쎯	-10.3622
23974쎯49758쎯	-10.3622
12078쎯79303쎯	-10.3625
44156쎯	-10.3627
51314쎯65462쎯	-10.3627
35785쎯	-10.3628
48273쎯	-10.3628
31434쎯43659쎯	-10.3633
30233쎯79303쎯	-10.3635
79262쎯22847쎯	-10.3644
23845쎯45317쎯	-10.3647
9쎯0쎯0쎯1쎯	-10.3647
79263쎯70823쎯	-10.3647
16016쎯60833쎯	-10.3647
46834쎯33113쎯	-10.3651
12876쎯	-10.3657
33536쎯63878쎯	-10.3657
75251쎯64178쎯	-10.366
33585쎯	-10.3672
76013쎯74715쎯	-10.3674
43878쎯	-10.3675
49146쎯	-10.3676
23845쎯29327쎯	-10.3676
45851쎯44248쎯	-10.3678
6쎯9쎯	-10.3679
37977쎯	-10.3679
▁쎯64661쎯27195쎯	-10.3681
66146쎯18840쎯	-10.3681
45744쎯76736쎯	-10.3684
29778쎯63892쎯	-10.3687
37175쎯45252쎯	-10.3689
16721쎯24891쎯	-10.369
20514쎯	-10.3696
26896쎯35302쎯	-10.3696
11635쎯71752쎯	-10.3697
40751쎯43591쎯	-10.3699
47575쎯28261쎯	-10.3701
17430쎯48497쎯	-10.3702
28773쎯20507쎯	-10.3707
67734쎯16016쎯	-10.3708
40773쎯42094쎯	-10.3711
33504쎯34859쎯	-10.3714
37627쎯42649쎯	-10.3715
63366쎯42649쎯	-10.3717
52478쎯	-10.3719
14868쎯11832쎯	-10.3719
76736쎯18948쎯	-10.3723
64046쎯55756쎯	-10.3729
49044쎯11630쎯	-10.374
78973쎯32489쎯	-10.3742
33460쎯42649쎯	-10.3743
76739쎯60052쎯	-10.3745
29560쎯67175쎯	-10.3745
38795쎯	-10.3748
16565쎯	-10.3749
79303쎯57881쎯	-10.3753
45851쎯69908쎯	-10.3755
7쎯6쎯	-10.3767
45645쎯	-10.3767
13735쎯42344쎯	-10.3768
▁쎯13581쎯45851쎯	-10.3768
80524쎯	-10.377
24001쎯61132쎯	-10.3774
36369쎯73680쎯	-10.3774
17602쎯68313쎯	-10.3778
27897쎯33013쎯	-10.3781
、	-10.3789
48811쎯74899쎯	-10.379
6쎯56544쎯	-10.3791
24236쎯	-10.3792
79215쎯51087쎯	-10.3796
74849쎯46699쎯	-10.3797
59786쎯47302쎯	-10.3803
1쎯9쎯3쎯0쎯60833쎯	-10.3803
57971쎯37175쎯	-10.381
41080쎯	-10.3818
72397쎯51400쎯	-10.3818
28261쎯42849쎯	-10.3821
1쎯0쎯64661쎯30712쎯	-10.3826
48172쎯75547쎯	-10.3829
71667쎯68855쎯	-10.383
5쎯56544쎯	-10.3833
64248쎯25225쎯	-10.3843
46451쎯	-10.3843
57566쎯64661쎯	-10.3845
32489쎯74275쎯	-10.3849
16455쎯38013쎯	-10.3851
55121쎯1쎯5쎯14924쎯	-10.3855
17087쎯	-10.386
22584쎯	-10.3865
57469쎯	-10.3865
18655쎯76316쎯	-10.3865
25108쎯13607쎯	-10.3868
12578쎯	-10.3869
▁쎯21088쎯71752쎯	-10.3871
75525쎯63878쎯	-10.3883
60207쎯72500쎯	-10.3883
55121쎯2쎯0쎯14924쎯	-10.3888
29438쎯	-10.3895
64211쎯47062쎯	-10.3898
34400쎯	-10.3898
68858쎯	-10.3899
1쎯0쎯0쎯28642쎯	-10.3899
20057쎯20030쎯	-10.3901
48497쎯51216쎯	-10.3905
51144쎯17210쎯	-10.3917
52376쎯74077쎯	-10.3918
73364쎯63962쎯	-10.3925
58299쎯63109쎯	-10.3932
40600쎯64184쎯	-10.3932
63148쎯	-10.3934
57566쎯38934쎯	-10.3934
15011쎯	-10.3936
10772쎯76573쎯	-10.3938
80818쎯26896쎯	-10.3938
50352쎯	-10.3938
31887쎯28907쎯	-10.3939
64661쎯20392쎯	-10.3952
26902쎯	-10.3953
37668쎯	-10.3957
24172쎯	-10.3958
79872쎯30233쎯	-10.396
51373쎯	-10.3961
28562쎯	-10.3962
49861쎯73352쎯	-10.3965
54974쎯73637쎯	-10.3967
80242쎯17600쎯《쎯	-10.397
▁쎯64874쎯	-10.3972
20202쎯19496쎯	-10.3972
33814쎯	-10.3975
19625쎯	-10.3977
29024쎯41347쎯	-10.3979
)쎯42649쎯78973쎯	-10.398
73337쎯	-10.3991
11187쎯	-10.3997
69613쎯22943쎯	-10.4009
34913쎯40819쎯	-10.4017
62380쎯	-10.4021
11970쎯	-10.4026
47610쎯	-10.4032
57566쎯62474쎯	-10.4032
64124쎯49089쎯	-10.4033
53729쎯53575쎯	-10.4043
63397쎯	-10.4045
894쎯	-10.4045
》쎯79872쎯11630쎯	-10.4046
25767쎯	-10.4047
1쎯9쎯4쎯1쎯60833쎯	-10.4048
57107쎯18250쎯	-10.4051
14137쎯24720쎯	-10.4054
7쎯7쎯	-10.4058
27082쎯34349쎯	-10.406
30399쎯49639쎯	-10.4062
60371쎯63878쎯	-10.4065
15105쎯32828쎯	-10.4068
23853쎯53966쎯2196	-10.4068
1쎯9쎯4쎯2쎯60833쎯	-10.4074
20202쎯56146쎯	-10.4075
62090쎯50699쎯	-10.4078
19496쎯79303쎯	-10.4082
456쎯42094쎯52457쎯	-10.4085
68640쎯	-10.4086
7쎯4쎯	-10.409
60784쎯60833쎯	-10.4092
78707쎯33945쎯	-10.4094
3	-10.4095
75203쎯34091쎯	-10.4097
69613쎯80789쎯	-10.4104
34913쎯74512쎯	-10.4106
66145쎯17876쎯	-10.4107
75191쎯	-10.4108
62474쎯76316쎯490	-10.4109
14쎯10443쎯79322쎯	-10.4109
605쎯	-10.4111
10488쎯48497쎯	-10.4111
19930쎯	-10.4111
48644쎯80435쎯	-10.4112
40367쎯11036쎯	-10.4116
62474쎯42094쎯	-10.4117
31598쎯75108쎯	-10.4121
20392쎯55237쎯	-10.4125
42094쎯52266쎯	-10.4126
42344쎯69405쎯	-10.4127
79303쎯21394쎯	-10.4128
63631쎯73781쎯	-10.4132
35572쎯13331쎯	-10.4136
12829쎯	-10.4138
42572쎯	-10.4144
61698쎯35720쎯	-10.4147
79303쎯31641쎯	-10.4149
75547쎯33596쎯	-10.415
49089쎯33081쎯	-10.4151
49361쎯71997쎯	-10.4151
38652쎯75547쎯	-10.4153
28423쎯	-10.4156
74715쎯50966쎯	-10.4157
38321쎯77504쎯	-10.4162
58376쎯79872쎯	-10.4165
26896쎯65550쎯	-10.4169
58863쎯	-10.4172
74381쎯	-10.4173
76058쎯66876쎯	-10.4174
▁쎯57133쎯54472쎯	-10.4176
72479쎯13547쎯	-10.4177
16237쎯	-10.418
22218쎯47302쎯	-10.4181
76101쎯51984쎯	-10.4181
37633쎯23671쎯	-10.4184
57226쎯53722쎯	-10.4186
73781쎯38617쎯	-10.4187
60127쎯12046쎯	-10.4193
65780쎯54974쎯	-10.4194
41056쎯	-10.4198
24983쎯10535쎯	-10.4199
15877쎯44889쎯	-10.4201
56544쎯3쎯	-10.4211
73781쎯21962쎯	-10.4214
44417쎯74275쎯	-10.4215
22709쎯63219쎯	-10.4222
35881쎯40459쎯	-10.4225
78973쎯30658쎯	-10.4226
76100쎯20570쎯‘쎯	-10.4227
1쎯0쎯21594쎯	-10.4228
39280쎯	-10.423
5쎯1쎯	-10.423
45003쎯27897쎯	-10.4232
73680쎯49802쎯	-10.4233
45851쎯58688쎯	-10.4235
55949쎯22218쎯	-10.4236
30795쎯71004쎯	-10.4239
28738쎯39873쎯	-10.4241
15253쎯23356쎯	-10.4241
38944쎯	-10.4242
61132쎯37995쎯	-10.4245
45317쎯35572쎯	-10.4246
1쎯9쎯4쎯4쎯60833쎯	-10.4247
440쎯	-10.4252
49202쎯39539쎯	-10.4252
57475쎯	-10.4259
17430쎯36352쎯	-10.4261
20827쎯46541쎯	-10.4262
72545쎯57179쎯	-10.4268
32825쎯	-10.4273
29327쎯62642쎯	-10.4279
67335쎯18948쎯	-10.4279
2쎯0쎯0쎯0쎯44737쎯	-10.4284
20202쎯47791쎯	-10.4285
64178쎯43431쎯	-10.4286
55121쎯2쎯5쎯14924쎯	-10.4286
70703쎯	-10.4291
19457쎯57133쎯	-10.4293
16451쎯72545쎯	-10.4299
2쎯0쎯1쎯0쎯	-10.4299
78673쎯45252쎯	-10.4301
73211쎯58692쎯	-10.4307
36029쎯51216쎯	-10.4311
0쎯0쎯15253쎯23356쎯	-10.4311
24233쎯	-10.4313
79872쎯74980쎯	-10.4314
41297쎯	-10.4316
20909쎯29560쎯	-10.4318
42024쎯17770쎯	-10.4319
11099쎯28123쎯	-10.4321
127쎯57226쎯73352쎯	-10.4322
76715쎯	-10.4323
59099쎯	-10.4324
60052쎯36455쎯	-10.4327
44737쎯2쎯	-10.4327
19882쎯27711쎯	-10.4331
52376쎯37977쎯	-10.4335
73400쎯	-10.4339
59534쎯30673쎯	-10.434
18500쎯	-10.4341
60301쎯	-10.4344
76059쎯51216쎯	-10.4346
13262쎯64505쎯	-10.4348
79805쎯32828쎯	-10.4348
65147쎯	-10.4348
42261쎯47902쎯	-10.4353
59850쎯	-10.4354
22218쎯54162쎯	-10.4355
45851쎯78168쎯	-10.4357
36903쎯22218쎯	-10.4362
48643쎯74077쎯	-10.4364
26184쎯	-10.4367
33189쎯42649쎯	-10.4369
12034쎯	-10.4369
79303쎯76316쎯	-10.4373
27195쎯43431쎯	-10.4374
40951쎯79303쎯	-10.4375
41403쎯	-10.438
76100쎯20570쎯“쎯	-10.4383
25416쎯	-10.4386
20057쎯71667쎯	-10.4389
36651쎯66483쎯	-10.4391
39573쎯	-10.4391
17807쎯75547쎯	-10.4392
47005쎯41470쎯	-10.4395
34913쎯37492쎯	-10.4396
38044쎯	-10.4401
17720쎯67335쎯	-10.4403
13607쎯53729쎯	-10.4404
20570쎯2쎯	-10.4404
”쎯(쎯	-10.4405
45065쎯17215쎯	-10.4407
73364쎯75868쎯	-10.4409
60055쎯71752쎯	-10.441
32508쎯49089쎯	-10.4411
35034쎯	-10.4418
80456쎯42094쎯524	-10.4419
17232쎯11635쎯	-10.4424
64046쎯17215쎯	-10.4425
46862쎯	-10.4435
79872쎯18939쎯	-10.4435
58991쎯53729쎯	-10.4436
42221쎯53729쎯	-10.4439
15909쎯61698쎯	-10.444
23993쎯14406쎯	-10.4442
79872쎯41213쎯	-10.4445
75963쎯78973쎯	-10.4446
20392쎯41184쎯	-10.4446
28020쎯79303쎯	-10.4449
33189쎯69344쎯22	-10.4449
63578쎯	-10.4451
16865쎯	-10.4454
77983쎯46545쎯	-10.4454
1쎯56544쎯	-10.4456
61798쎯	-10.4457
78976쎯	-10.446
45787쎯	-10.4464
79872쎯57228쎯	-10.4466
40773쎯62474쎯	-10.4468
57133쎯27710쎯	-10.4471
60052쎯18948쎯	-10.4471
23845쎯70889쎯	-10.4474
5쎯3쎯	-10.4475
30199쎯68084쎯	-10.4479
40600쎯40459쎯	-10.4481
36944쎯42662쎯	-10.4483
38321쎯53729쎯	-10.4484
74899쎯64211쎯	-10.4484
34913쎯17232쎯	-10.4487
13307쎯32542쎯	-10.449
33013쎯48644쎯	-10.449
31486쎯11104쎯	-10.4491
78673쎯54162쎯	-10.4496
75434쎯	-10.4496
38013쎯79303쎯	-10.4496
52054쎯79263쎯	-10.4497
26367쎯	-10.4499
42754쎯43561쎯	-10.4499
4쎯1쎯	-10.4501
5쎯64661쎯30712쎯	-10.4502
66622쎯16460쎯	-10.4504
21962쎯26151쎯	-10.4504
43921쎯51749쎯	-10.4505
13581쎯62183쎯	-10.4506
47421쎯45851쎯	-10.4511
20159쎯23993쎯	-10.4511
73638쎯42649쎯	-10.4513
57088쎯48497쎯80	-10.4515
67690쎯	-10.4517
45851쎯30867쎯	-10.4518
62649쎯	-10.4519
75074쎯57133쎯	-10.4521
49854쎯23899쎯	-10.4521
”쎯35720쎯31486쎯	-10.4524
58571쎯60127쎯	-10.4525
31625쎯68454쎯	-10.4527
40951쎯54472쎯	-10.4534
15414쎯	-10.4536
46417쎯	-10.4539
57655쎯35572쎯	-10.4539
20159쎯49851쎯	-10.4539
79872쎯64395쎯	-10.4544
12299쎯	-10.4545
51216쎯16209쎯	-10.4546
22523쎯28020쎯	-10.4546
“쎯43357쎯70233쎯”쎯	-10.4547
31641쎯35864쎯	-10.4551
58005쎯	-10.4553
12629쎯	-10.4556
38134쎯	-10.4557
65896쎯	-10.4557
21394쎯20202쎯	-10.4559
14868쎯37955쎯	-10.4561
72389쎯37629쎯	-10.4566
74980쎯62795쎯	-10.4568
76300쎯	-10.4568
47603쎯47835쎯	-10.4569
52973쎯54664쎯	-10.4577
35720쎯13735쎯	-10.4577
14137쎯14924쎯	-10.4583
18431쎯55327쎯	-10.4586
51880쎯	-10.4588
78973쎯”쎯23845쎯	-10.4591
54472쎯48497쎯	-10.4594
36759쎯15438쎯	-10.4596
31570쎯26216쎯	-10.4597
52376쎯61026쎯	-10.4599
42743쎯60022쎯	-10.46
76739쎯35572쎯	-10.46
80611쎯46320쎯	-10.4602
45851쎯55645쎯	-10.4605
76552쎯28441쎯	-10.4605
79683쎯27195쎯	-10.4605
20591쎯62123쎯	-10.4606
38266쎯27195쎯	-10.4606
25972쎯65842쎯	-10.461
77230쎯73305쎯	-10.4613
64661쎯20234쎯	-10.4614
73638쎯45851쎯	-10.4628
35346쎯79303쎯	-10.463
66304쎯	-10.4636
61936쎯48643쎯	-10.4641
56544쎯2쎯	-10.4642
60833쎯10488쎯	-10.4645
53322쎯45003쎯	-10.4649
63366쎯37002쎯	-10.465
64046쎯49700쎯	-10.4651
38134쎯15018쎯	-10.4651
5쎯21594쎯	-10.4652
48497쎯1쎯8쎯	-10.4652
56153쎯61132쎯	-10.4653
25035쎯35864쎯	-10.4654
11104쎯78536쎯	-10.4655
30867쎯42649쎯	-10.4658
71752쎯31887쎯	-10.4659
▁쎯“쎯	-10.466
55121쎯1쎯0쎯14924쎯	-10.4661
40472쎯	-10.4663
21088쎯21962쎯	-10.4665
49089쎯76316쎯	-10.4665
42761쎯	-10.4666
42013쎯	-10.4673
12078쎯66145쎯	-10.4674
37107쎯27795쎯	-10.4678
53448쎯57881쎯	-10.4685
34172쎯	-10.4686
48545쎯	-10.469
66876쎯12640쎯1쎯	-10.469
60055쎯18840쎯	-10.4691
7쎯0쎯0쎯	-10.4692
5쎯0쎯21594쎯	-10.4693
20202쎯62471쎯	-10.4694
09쎯79303쎯57088쎯	-10.4694
35636쎯79766쎯	-10.4695
“쎯”쎯	-10.4697
59069쎯	-10.4698
1쎯9쎯3쎯1쎯60833쎯	-10.4698
49089쎯80242쎯	-10.4699
48389쎯	-10.4701
28261쎯74715쎯	-10.4703
0쎯72295쎯3쎯	-10.4704
33400쎯25286쎯47	-10.4707
40773쎯51013쎯	-10.4709
65606쎯66159쎯	-10.4709
76721쎯18939쎯	-10.4709
68454쎯57566쎯	-10.4713
1쎯0쎯57630쎯	-10.4714
32542쎯33436쎯	-10.4715
39288쎯	-10.4715
11630쎯76919쎯	-10.4717
45869쎯60127쎯	-10.4717
76259쎯	-10.4718
27973쎯41470쎯	-10.4719
49854쎯	-10.472
27550쎯	-10.472
73858쎯	-10.472
27859쎯12078쎯	-10.4721
27551쎯	-10.4724
64920쎯19109쎯69	-10.4724
78800쎯49639쎯	-10.4727
73211쎯72295쎯	-10.4729
59035쎯	-10.4729
20030쎯37898쎯	-10.4731
7쎯3쎯	-10.4733
60441쎯	-10.4734
78973쎯23845쎯	-10.4735
46512쎯	-10.4737
68855쎯40529쎯	-10.4738
46374쎯23827쎯	-10.4739
36046쎯63681쎯	-10.4741
36820쎯19369쎯	-10.4744
62474쎯53722쎯	-10.4749
40600쎯29024쎯	-10.475
63029쎯	-10.4752
21966쎯77237쎯	-10.4757
29805쎯13547쎯	-10.476
1쎯9쎯2쎯9쎯60833쎯	-10.476
8쎯4쎯	-10.4761
19003쎯	-10.4762
40022쎯20701쎯	-10.4763
34158쎯	-10.4764
53322쎯42015쎯	-10.4765
77983쎯44889쎯	-10.477
58712쎯35332쎯	-10.4772
36369쎯23349쎯	-10.4775
1쎯1쎯0쎯	-10.4776
59288쎯74512쎯	-10.4779
1쎯9쎯3쎯2쎯60833쎯	-10.478
3쎯0쎯0쎯0쎯	-10.4784
38229쎯58734쎯	-10.4787
63962쎯76736쎯	-10.4792
16182쎯	-10.4793
78973쎯79148쎯	-10.4793
13581쎯35302쎯	-10.4793
42478쎯61368쎯	-10.4793
23845쎯56652쎯	-10.4795
73570쎯27993쎯	-10.4798
▁쎯46859쎯	-10.48
22847쎯49802쎯	-10.4803
72545쎯64046쎯	-10.4804
71167쎯20827쎯	-10.481
73781쎯48644쎯	-10.4812
64124쎯76196쎯	-10.4812
65621쎯80334쎯《쎯	-10.4814
16812쎯45851쎯	-10.4814
34913쎯72545쎯	-10.4815
64661쎯27747쎯	-10.4817
28087쎯	-10.4823
18315쎯43972쎯	-10.4826
20392쎯76262쎯	-10.4828
70206쎯35021쎯	-10.4828
54974쎯69613쎯	-10.4829
19043쎯68909쎯6쎯	-10.4829
12341쎯23331쎯	-10.483
8쎯9쎯	-10.4836
43492쎯25841쎯	-10.4841
36944쎯70834쎯	-10.4842
67196쎯40088쎯	-10.4843
62795쎯18654쎯	-10.4843
41302쎯	-10.4847
60833쎯79303쎯	-10.4849
17232쎯21088쎯	-10.4851
21394쎯54178쎯	-10.4852
46320쎯47169쎯	-10.4853
49202쎯11851쎯	-10.4856
64046쎯38013쎯	-10.4857
60833쎯51400쎯	-10.4857
78792쎯20839쎯	-10.4858
33536쎯71294쎯	-10.4864
55121쎯3쎯0쎯14924쎯	-10.4865
1쎯2쎯8쎯	-10.487
63681쎯	-10.4874
49083쎯60559쎯	-10.4874
18542쎯22523쎯	-10.4875
76573쎯79303쎯	-10.4876
55121쎯2쎯6쎯14924쎯	-10.4876
55777쎯69416쎯	-10.488
21588쎯29144쎯	-10.488
72557쎯76736쎯	-10.4881
20159쎯37995쎯	-10.4892
17602쎯20839쎯	-10.4892
55231쎯20814쎯	-10.4893
1쎯9쎯4쎯3쎯60833쎯	-10.4893
53270쎯43030쎯	-10.4894
8쎯7쎯	-10.4896
73304쎯	-10.4896
53311쎯68313쎯	-10.49
36954쎯44388쎯	-10.4901
70124쎯57881쎯	-10.4905
《쎯62474쎯40773쎯	-10.491
60693쎯78819쎯	-10.4913
0쎯72295쎯8쎯	-10.4913
46545쎯78983쎯	-10.4917
29327쎯18058쎯	-10.4918
44141쎯77640쎯	-10.4924
9쎯4쎯	-10.4926
54772쎯53327쎯	-10.4927
20827쎯21088쎯	-10.493
49216쎯	-10.4933
51272쎯	-10.4939
0쎯9쎯	-10.494
50579쎯》쎯	-10.494
16578쎯73364쎯	-10.4945
80319쎯43658쎯	-10.4946
72193쎯	-10.4948
17660쎯	-10.4952
37002쎯78973쎯	-10.4956
80242쎯63631쎯	-10.4957
71694쎯17005쎯	-10.4957
30947쎯	-10.496
18654쎯54798쎯	-10.4964
46321쎯	-10.4971
53510쎯76573쎯	-10.4973
73015쎯59576쎯	-10.4973
73904쎯19043쎯	-10.4976
73023쎯49089쎯	-10.4979
42649쎯31337쎯	-10.4981
45645쎯18483쎯	-10.4982
15184쎯58831쎯	-10.4983
17602쎯46320쎯	-10.4986
”쎯“쎯	-10.4986
49211쎯76452쎯	-10.4987
50435쎯35864쎯	-10.4987
21503쎯24720쎯	-10.4992
▁쎯62474쎯53322쎯	-10.4994
27626쎯11079쎯	-10.4995
9쎯0쎯0쎯	-10.4996
30673쎯23356쎯	-10.4999
10020쎯	-10.4999
18713쎯78222쎯	-10.5001
35575쎯	-10.5003
14363쎯27195쎯	-10.5008
78168쎯49089쎯	-10.5015
28019쎯	-10.5017
48113쎯36944쎯	-10.5017
23349쎯	-10.5019
34374쎯	-10.5019
43045쎯	-10.5021
66224쎯67734쎯	-10.5023
58546쎯	-10.5026
76055쎯63505쎯	-10.5031
37492쎯40501쎯	-10.5039
33596쎯18429쎯	-10.5044
50581쎯27711쎯	-10.5045
1쎯12267쎯62633쎯	-10.5048
78973쎯72397쎯	-10.5051
18713쎯30682쎯	-10.5055
29560쎯69405쎯	-10.5057
26555쎯	-10.5059
4쎯12267쎯62633쎯	-10.5059
69769쎯74899쎯	-10.5062
72389쎯27711쎯	-10.5069
0쎯15253쎯23356쎯	-10.507
72253쎯69416쎯	-10.5071
0쎯8쎯	-10.5073
0쎯5쎯	-10.5076
49084쎯	-10.5077
45003쎯53322쎯	-10.5079
70758쎯25658쎯	-10.5079
23331쎯68105쎯	-10.508
33720쎯48273쎯	-10.5081
18783쎯	-10.5082
29725쎯39103쎯	-10.5096
6쎯29560쎯19109쎯	-10.5097
66145쎯63850쎯	-10.5101
35302쎯60833쎯	-10.5106
25256쎯	-10.5108
50789쎯	-10.5108
74684쎯	-10.5108
43225쎯	-10.5125
15877쎯51508쎯	-10.5129
52973쎯74512쎯	-10.513
79303쎯42094쎯	-10.513
24401쎯35332쎯	-10.5134
40706쎯25286쎯	-10.5136
〔쎯	-10.5139
32811쎯	-10.5139
48759쎯19167쎯	-10.514
45616쎯36455쎯	-10.5142
64046쎯60052쎯	-10.5145
44251쎯	-10.5146
44097쎯41710쎯	-10.5146
17944쎯	-10.5148
48113쎯46320쎯	-10.5151
59534쎯72389쎯	-10.5152
45851쎯60670쎯	-10.5156
51400쎯62562쎯	-10.5157
17661쎯52240쎯	-10.5157
54863쎯21687쎯	-10.5158
50642쎯29560쎯	-10.5165
60127쎯43561쎯	-10.5165
“쎯53510쎯	-10.5167
73781쎯11525쎯	-10.5167
15236쎯42234쎯	-10.5169
18523쎯33945쎯	-10.517
42344쎯37995쎯	-10.517
56284쎯	-10.5174
76979쎯75108쎯	-10.5174
36602쎯32581쎯	-10.5177
73885쎯	-10.5177
42094쎯34859쎯	-10.5178
44417쎯79805쎯	-10.5179
62474쎯67828쎯	-10.5187
36820쎯56153쎯	-10.5188
27077쎯	-10.5188
74899쎯51735쎯	-10.5188
42658쎯63299쎯	-10.519
17770쎯75951쎯	-10.5197
29327쎯60989쎯	-10.52
18713쎯22867쎯	-10.5201
43591쎯40088쎯	-10.5201
68383쎯	-10.5202
26434쎯	-10.5202
21966쎯29560쎯	-10.5202
16628쎯22258쎯	-10.5204
313쎯	-10.5207
28261쎯20202쎯	-10.5207
72545쎯74077쎯	-10.5209
50642쎯33958쎯	-10.521
57519쎯40600쎯	-10.5213
71667쎯15981쎯	-10.5234
74275쎯34150쎯	-10.5237
57088쎯37002쎯	-10.524
18244쎯	-10.5241
33596쎯66864쎯	-10.5244
21962쎯75108쎯	-10.5246
33189쎯62153쎯	-10.5247
13581쎯80242쎯	-10.5247
18949쎯	-10.5254
31606쎯72898쎯	-10.5256
50424쎯37002쎯	-10.5256
75108쎯61132쎯	-10.5261
23131쎯28261쎯	-10.5268
55121쎯1쎯6쎯14924쎯	-10.527
1쎯72295쎯8쎯	-10.527
468쎯	-10.5271
21259쎯	-10.5271
10443쎯12211쎯	-10.5278
54132쎯	-10.5278
43901쎯14536쎯	-10.5283
57303쎯	-10.5287
23339쎯47819쎯	-10.5291
42649쎯70823쎯	-10.5291
78276쎯	-10.5294
43804쎯	-10.5294
23486쎯46699쎯	-10.5294
78973쎯”쎯32489쎯	-10.5295
6쎯1쎯	-10.5295
2쎯0쎯1쎯4쎯60833쎯	-10.5297
43031쎯	-10.5302
8쎯2쎯	-10.5302
36369쎯60127쎯	-10.5306
37955쎯20202쎯	-10.5314
59255쎯13459쎯	-10.5317
801쎯	-10.5319
283쎯	-10.5319
45317쎯46541쎯	-10.5322
50826쎯	-10.5324
17602쎯12111쎯	-10.5324
58713쎯64661쎯	-10.5326
20159쎯69405쎯	-10.5327
43587쎯78800쎯	-10.5327
45851쎯57881쎯	-10.5328
55394쎯	-10.5332
60989쎯62090쎯	-10.5337
30199쎯70571쎯	-10.5338
27586쎯	-10.5341
57881쎯23486쎯	-10.5342
20570쎯3쎯	-10.5343
60706쎯	-10.535
37633쎯13331쎯	-10.535
8쎯3쎯	-10.5354
21789쎯15965쎯	-10.5357
9쎯2쎯	-10.5358
37492쎯67248쎯	-10.5359
74909쎯48497쎯	-10.5361
57133쎯47788쎯《쎯	-10.5366
19028쎯75547쎯	-10.5367
36352쎯12211쎯	-10.5368
61809쎯	-10.5372
72479쎯69377쎯	-10.5379
1쎯60833쎯	-10.5385
66538쎯29383쎯	-10.5386
74899쎯34091쎯	-10.5386
70200쎯	-10.5388
24983쎯13854쎯	-10.5388
79784쎯12111쎯	-10.5392
664쎯78536쎯42649쎯	-10.5392
49939쎯58991쎯	-10.5396
12553쎯	-10.54
69377쎯74512쎯	-10.5402
75210쎯17661쎯	-10.5402
41629쎯75074쎯	-10.5405
70646쎯	-10.5407
76573쎯78973쎯	-10.5408
49873쎯63878쎯	-10.5412
42649쎯48643쎯3쎯	-10.5414
14192쎯76573쎯	-10.5414
1쎯72295쎯6쎯	-10.5415
33436쎯79303쎯	-10.542
55121쎯1쎯2쎯14924쎯	-10.5421
64459쎯59860쎯	-10.5422
61132쎯14868쎯	-10.5422
55645쎯31790쎯	-10.5423
12211쎯28261쎯	-10.5424
59534쎯68909쎯	-10.5424
37955쎯12348쎯	-10.543
71294쎯30682쎯	-10.544
18315쎯79303쎯	-10.544
30658쎯10773쎯	-10.544
78973쎯80792쎯	-10.5446
53126쎯	-10.545
009쎯	-10.5452
60829쎯	-10.5454
)쎯49089쎯《쎯	-10.5458
280	-10.5459
21088쎯65621쎯	-10.5459
60052쎯18974쎯	-10.546
22709쎯51216쎯	-10.5461
61958쎯	-10.5462
22197쎯49802쎯	-10.5463
22523쎯49089쎯	-10.5465
75108쎯63404쎯	-10.5465
18431쎯57248쎯	-10.5467
43795쎯37898쎯	-10.5474
42081쎯	-10.5474
39809쎯49089쎯	-10.5474
58126쎯	-10.5474
)쎯68055쎯	-10.5476
56661쎯47210쎯	-10.5483
50966쎯23899쎯	-10.5486
32508쎯35641쎯	-10.5487
42562쎯	-10.5488
13735쎯27195쎯	-10.5488
67390쎯	-10.5491
78792쎯57243쎯	-10.5491
63014쎯67734쎯	-10.5492
20159쎯76919쎯	-10.5494
79322쎯71752쎯	-10.5494
69613쎯65864쎯	-10.5497
73352쎯74218쎯	-10.55
54974쎯53722쎯	-10.55
34859쎯20202쎯	-10.5502
43322쎯	-10.5504
10773쎯19043쎯	-10.5505
14192쎯79872쎯	-10.5507
52781쎯	-10.551
24401쎯52583쎯	-10.5511
60120쎯	-10.5514
20891쎯33238쎯	-10.5516
51426쎯80334쎯	-10.5517
35747쎯	-10.5519
32172쎯60833쎯	-10.5521
46177쎯76573쎯	-10.5524
0쎯6쎯	-10.5524
53510쎯10285쎯	-10.5528
62617쎯71167쎯	-10.553
17835쎯	-10.5531
75287쎯	-10.5531
63892쎯57248쎯	-10.5535
19167쎯79872쎯	-10.5535
34486쎯37955쎯	-10.5536
39339쎯31887쎯	-10.5536
79303쎯44493쎯	-10.5539
57655쎯23779쎯	-10.554
77237쎯21966쎯	-10.554
31510쎯71004쎯	-10.5542
42221쎯57566쎯	-10.5544
51216쎯20570쎯	-10.5544
56661쎯43402쎯	-10.5547
59288쎯45841쎯	-10.5559
74715쎯80564쎯	-10.556
28738쎯65557쎯	-10.5561
29816쎯	-10.5564
80611쎯37898쎯	-10.5567
47575쎯35150쎯	-10.5568
28261쎯74899쎯	-10.5569
43299쎯48273쎯“쎯	-10.5571
18431쎯25982쎯	-10.5573
89쎯	-10.5574
55237쎯49851쎯	-10.5577
51832쎯25841쎯	-10.5578
20839쎯79303쎯	-10.5578
71997쎯51013쎯	-10.5579
71903쎯58643쎯	-10.5579
▁쎯4쎯	-10.5587
40951쎯18840쎯	-10.559
1쎯42649쎯79303쎯	-10.5599
(쎯53722쎯	-10.5607
63878쎯27378쎯	-10.5609
10772쎯28261쎯	-10.5615
44097쎯32901쎯	-10.562
21316쎯	-10.5624
0쎯72295쎯2쎯	-10.5627
48071쎯	-10.5627
62123쎯》쎯	-10.5627
43460쎯57087쎯	-10.5629
36602쎯19167쎯“쎯	-10.563
40335쎯	-10.5634
60637쎯61698쎯	-10.5635
76776쎯	-10.5637
37294쎯57655쎯	-10.5637
20570쎯4쎯	-10.5639
15965쎯10488쎯	-10.5639
72397쎯16460쎯	-10.5642
44951쎯	-10.5646
23779쎯29560쎯	-10.5648
47053쎯	-10.5651
78010쎯	-10.5656
1쎯44737쎯2쎯	-10.5656
64046쎯22867쎯	-10.5658
20202쎯16433쎯	-10.5659
55121쎯2쎯7쎯14924쎯	-10.5662
76024쎯72898쎯	-10.5663
78983쎯30233쎯	-10.5664
41858쎯79303쎯	-10.5665
56992쎯	-10.5666
79872쎯59344쎯	-10.5667
48357쎯	-10.567
15909쎯34091쎯	-10.5673
%	-10.5674
73680쎯16433쎯	-10.5674
55957쎯68055쎯	-10.5676
73638쎯24951쎯	-10.5677
2쎯4쎯80242쎯67196쎯	-10.568
59014쎯	-10.569
73781쎯63916쎯	-10.5693
31570쎯71752쎯	-10.5695
▁쎯17770쎯73352쎯	-10.57
37656쎯68909쎯	-10.5705
10058쎯38285쎯	-10.5707
44197쎯	-10.5708
23671쎯28441쎯	-10.5709
18431쎯65508쎯	-10.5711
1쎯0쎯55121쎯60127쎯	-10.5715
33081쎯80456쎯	-10.5717
53085쎯	-10.5718
76055쎯56661쎯	-10.5723
14538쎯	-10.5725
4쎯72295쎯5쎯	-10.5725
72397쎯74132쎯	-10.5728
3쎯72295쎯	-10.5729
49650쎯38744쎯	-10.5729
833쎯17771쎯57566쎯	-10.5731
49802쎯21962쎯	-10.5731
0쎯7쎯	-10.5737
44248쎯35332쎯	-10.5738
69344쎯34859쎯	-10.5739
75203쎯32514쎯	-10.574
73364쎯59281쎯	-10.5741
190쎯	-10.5753
41378쎯	-10.5757
36820쎯28020쎯	-10.5765
10058쎯	-10.5765
38013쎯76452쎯	-10.5768
2272	-10.577
58975쎯	-10.5772
661쎯77119쎯36550쎯	-10.5773
12348쎯79303쎯	-10.5774
33113쎯	-10.5775
53374쎯66099쎯	-10.5775
80111쎯	-10.5777
45474쎯	-10.5777
16598쎯39149쎯	-10.578
22510쎯	-10.5781
31339쎯	-10.5781
80728쎯	-10.5781
60225쎯31107쎯	-10.5784
46252쎯	-10.5785
40951쎯38013쎯	-10.5788
54910쎯	-10.579
9쎯57630쎯	-10.579
405쎯19109쎯20202쎯	-10.5796
16156쎯20570쎯	-10.5797
57248쎯12078쎯	-10.5799
37995쎯33460쎯	-10.5803
26939쎯	-10.5804
20570쎯1쎯72295쎯	-10.5805
▁쎯74715쎯27795쎯	-10.5806
54290쎯	-10.5811
42649쎯37002쎯	-10.5813
30151쎯	-10.5817
78389쎯”쎯	-10.5818
34913쎯40773쎯	-10.5818
42094쎯15909쎯	-10.5819
79805쎯》쎯	-10.582
34349쎯57566쎯	-10.5821
19043쎯68909쎯2쎯	-10.5822
67483쎯	-10.5823
21394쎯63916쎯	-10.5826
70834쎯22625쎯	-10.5831
50980쎯43357쎯	-10.5833
16209쎯29024쎯	-10.5835
47693쎯72389쎯	-10.5837
79872쎯18266쎯	-10.5841
68454쎯76591쎯	-10.5842
55957쎯64661쎯	-10.5844
18315쎯47575쎯	-10.5845
49861쎯79148쎯2196	-10.5845
53674쎯28664쎯	-10.5848
58566쎯	-10.5848
60127쎯14924쎯	-10.5849
32581쎯56800쎯	-10.5851
37294쎯17807쎯	-10.5856
28227쎯	-10.5859
30351쎯	-10.5859
50451쎯10364쎯	-10.586
44417쎯55623쎯	-10.5861
38732쎯33013쎯	-10.5863
28028쎯66145쎯	-10.5863
76316쎯44889쎯	-10.5867
79303쎯74272쎯	-10.5871
80448쎯	-10.5871
74899쎯34446쎯	-10.5873
57566쎯10488쎯	-10.5876
55121쎯2쎯3쎯14924쎯	-10.5877
36855쎯	-10.5878
41975쎯20392쎯	-10.588
37484쎯	-10.5883
54889쎯	-10.5885
32155쎯11851쎯	-10.5886
75963쎯74899쎯	-10.5887
42754쎯19434쎯	-10.589
75547쎯20839쎯	-10.589
60127쎯45237쎯	-10.589
36651쎯55861쎯	-10.5899
6쎯12267쎯62633쎯	-10.59
78240쎯57971쎯	-10.59
43838쎯	-10.5903
54974쎯73781쎯	-10.5905
50579쎯43431쎯	-10.5905
16156쎯20159쎯	-10.5917
▁쎯(쎯	-10.5917
21962쎯36308쎯	-10.5921
55957쎯62680쎯	-10.5923
51826쎯46301쎯	-10.5924
41694쎯11599쎯	-10.5926
57179쎯78973쎯	-10.593
77922쎯75108쎯	-10.5932
57179쎯27711쎯	-10.5934
11789쎯	-10.5936
42094쎯66876쎯	-10.5937
10535쎯67828쎯	-10.5938
40773쎯63819쎯	-10.5942
75525쎯46177쎯	-10.5942
14199쎯52750쎯	-10.5943
2쎯2쎯0쎯	-10.5944
51013쎯32489쎯	-10.5945
46979쎯71843쎯	-10.5946
5쎯60833쎯	-10.5946
55717쎯75580쎯	-10.5948
75109쎯	-10.5949
78802쎯	-10.595
73570쎯11998쎯	-10.5951
22847쎯47302쎯	-10.5951
51087쎯21962쎯	-10.5952
0쎯3쎯	-10.5954
59864쎯	-10.5954
79872쎯57158쎯	-10.5954
18025쎯43691쎯	-10.596
60055쎯21491쎯	-10.596
73342쎯	-10.5963
31947쎯	-10.5965
240쎯	-10.597
56153쎯56153쎯	-10.5971
35453쎯	-10.5972
79303쎯53722쎯	-10.5973
55121쎯8쎯14924쎯	-10.5981
65911쎯	-10.5988
78355쎯	-10.5989
33189쎯42572쎯	-10.599
62090쎯27897쎯	-10.5997
80826쎯57226쎯	-10.6
45254쎯66146쎯	-10.6
21594쎯25658쎯	-10.6004
62474쎯13581쎯	-10.6005
15909쎯26507쎯	-10.6012
75575쎯	-10.6012
54772쎯27795쎯	-10.6013
16105쎯	-10.6013
64211쎯16016쎯	-10.6015
70834쎯48497쎯	-10.6017
64661쎯54178쎯	-10.6022
30067쎯	-10.6025
55121쎯2쎯1쎯14924쎯	-10.6036
16453쎯51216쎯	-10.6037
49089쎯49013쎯	-10.6038
54772쎯70834쎯26	-10.6038
21394쎯76979쎯	-10.6039
1쎯72295쎯4쎯	-10.6041
55121쎯2쎯9쎯14924쎯	-10.6041
16768쎯	-10.6041
24588쎯	-10.6042
64211쎯4쎯	-10.6046
51013쎯47850쎯	-10.605
66746쎯52956쎯	-10.605
75606쎯	-10.6052
10773쎯61132쎯	-10.6053
69078쎯	-10.6055
29569쎯	-10.6066
55121쎯5쎯14924쎯	-10.6067
73570쎯48767쎯	-10.6068
70533쎯	-10.6069
29308쎯1쎯	-10.6072
51813쎯	-10.6073
42094쎯32489쎯	-10.6073
80506쎯43431쎯	-10.6084
76552쎯12078쎯	-10.6085
38885쎯	-10.6087
70271쎯	-10.6087
79303쎯75088쎯	-10.6089
67734쎯20448쎯	-10.6092
57655쎯76919쎯	-10.6094
44412쎯	-10.6098
19109쎯75108쎯	-10.61
39349쎯30682쎯	-10.61
450쎯	-10.6106
▁쎯48811쎯	-10.611
75547쎯42649쎯	-10.6113
0쎯72295쎯0쎯	-10.6113
8쎯12267쎯62633쎯	-10.6113
24401쎯71667쎯	-10.6116
44902쎯41655쎯	-10.6119
42649쎯70834쎯	-10.612
14632쎯	-10.612
40459쎯11864쎯	-10.612
34722쎯34722쎯	-10.6122
55121쎯2쎯2쎯14924쎯	-10.6123
65440쎯	-10.6124
32491쎯	-10.6125
69313쎯66159쎯	-10.6127
52956쎯12103쎯	-10.6131
48306쎯	-10.6131
51086쎯15877쎯	-10.6132
63488쎯	-10.6133
76919쎯69405쎯	-10.6133
79322쎯25989쎯	-10.6135
33945쎯45616쎯	-10.6136
23486쎯13854쎯	-10.6142
32009쎯	-10.6146
32581쎯23899쎯	-10.6148
34799쎯	-10.6149
79902쎯22791쎯	-10.6153
47693쎯23779쎯	-10.6154
27859쎯35547쎯	-10.6154
12372쎯23212쎯	-10.6157
74086쎯	-10.6157
16209쎯35720쎯	-10.6161
49089쎯53510쎯	-10.6166
45851쎯71004쎯	-10.6169
10488쎯21962쎯	-10.6172
28123쎯28020쎯	-10.6172
63962쎯58176쎯	-10.6172
15317쎯57630쎯	-10.6173
77239쎯47902쎯	-10.6173
4쎯72295쎯	-10.6186
20839쎯34141쎯	-10.6188
37955쎯19802쎯	-10.619
73015쎯10488쎯	-10.6197
10772쎯25989쎯	-10.6197
67313쎯21594쎯	-10.6201
324쎯	-10.6203
34913쎯42141쎯	-10.6206
38916쎯10488쎯	-10.6207
36944쎯54448쎯	-10.6208
14265쎯72384쎯	-10.6208
23899쎯38013쎯	-10.6211
71694쎯34653쎯	-10.6212
9쎯55121쎯29383쎯	-10.6213
20202쎯55645쎯	-10.6215
17602쎯52705쎯	-10.622
16209쎯20814쎯	-10.6223
74270쎯	-10.6223
79872쎯16209쎯	-10.6228
28738쎯57566쎯	-10.6229
36328쎯55756쎯	-10.6234
0쎯0쎯62153쎯42649쎯	-10.6238
“쎯62474쎯53322쎯	-10.6245
29383쎯75108쎯	-10.6245
78707쎯25094쎯	-10.6245
34913쎯66864쎯	-10.6248
78800쎯37629쎯	-10.6248
55121쎯1쎯9쎯14924쎯	-10.6249
55172쎯	-10.6255
31887쎯44141쎯	-10.6256
600쎯21394쎯53322쎯	-10.6256
57881쎯19167쎯	-10.6258
46320쎯22143쎯	-10.6259
78973쎯78673쎯	-10.626
50814쎯	-10.6262
64661쎯44902쎯	-10.6265
51700쎯24930쎯	-10.6265
30682쎯70016쎯	-10.6269
21945쎯39103쎯	-10.627
74275쎯39267쎯	-10.627
79872쎯14924쎯	-10.6271
15877쎯22523쎯	-10.6272
13735쎯75108쎯	-10.6279
27377쎯	-10.6284
17661쎯57158쎯	-10.6288
27251쎯15326쎯	-10.6291
69416쎯70823쎯	-10.63
42086쎯	-10.6301
80242쎯54770쎯	-10.6301
0쎯72295쎯6쎯	-10.6302
42094쎯22523쎯	-10.6303
26157쎯57655쎯	-10.6303
55121쎯6쎯14924쎯	-10.6308
144쎯	-10.631
60052쎯57133쎯	-10.6311
43945쎯16460쎯	-10.6312
47302쎯10401쎯	-10.6313
47431쎯48497쎯	-10.6318
15965쎯73781쎯	-10.6321
79303쎯52973쎯	-10.6324
53722쎯75547쎯	-10.6326
64163쎯	-10.6326
79805쎯14154쎯	-10.6327
46177쎯58991쎯	-10.633
79754쎯2쎯	-10.6335
2쎯4쎯0쎯	-10.6344
16209쎯50252쎯	-10.6345
19167쎯54110쎯	-10.6351
53674쎯52956쎯	-10.6353
28773쎯28441쎯	-10.6355
79303쎯69405쎯	-10.6356
51216쎯79872쎯5372	-10.6358
47575쎯67196쎯	-10.6361
23899쎯31887쎯	-10.6362
18315쎯14854쎯	-10.6365
09쎯17602쎯40088쎯	-10.6367
16598쎯70043쎯	-10.6369
28396쎯	-10.6374
2쎯0쎯0쎯8쎯	-10.6374
49639쎯21594쎯18	-10.6375
542쎯17602쎯35636쎯	-10.6377
79303쎯60833쎯1777	-10.6378
45851쎯43629쎯	-10.6379
267쎯62633쎯78973쎯	-10.638
31292쎯37898쎯	-10.638
37955쎯21088쎯	-10.6381
22867쎯22143쎯	-10.6383
28137쎯	-10.6389
36550쎯18673쎯	-10.6389
75108쎯49202쎯	-10.639
33189쎯44417쎯	-10.6391
44644쎯27195쎯	-10.6397
51508쎯33078쎯	-10.6399
72389쎯74899쎯	-10.64
21394쎯12348쎯	-10.6403
37315쎯	-10.6404
0쎯41858쎯79303쎯	-10.6405
79872쎯42344쎯	-10.6409
10773쎯49202쎯	-10.6411
14868쎯16603쎯	-10.6416
57881쎯60833쎯60	-10.6417
74715쎯21962쎯	-10.6419
51892쎯	-10.6422
42326쎯	-10.6423
18835쎯38732쎯	-10.6425
75480쎯40529쎯	-10.6428
76356쎯	-10.6433
389쎯	-10.6438
80435쎯29560쎯	-10.6438
79303쎯74909쎯	-10.6439
20348쎯44764쎯	-10.644
697쎯	-10.6443
48643쎯71843쎯	-10.6447
17661쎯47991쎯	-10.6447
16455쎯58734쎯	-10.6448
38376쎯	-10.6451
36954쎯53322쎯	-10.6452
10630쎯	-10.6452
44884쎯	-10.6454
68474쎯28123쎯	-10.6455
46548쎯	-10.6455
48643쎯51803쎯	-10.6456
▁쎯69416쎯35952쎯	-10.6459
32542쎯45663쎯	-10.6465
49624쎯61239쎯	-10.6465
445쎯	-10.6467
34446쎯16209쎯	-10.6468
73680쎯19109쎯	-10.6469
77230쎯66159쎯	-10.6475
27151쎯	-10.6478
596쎯70834쎯21962쎯	-10.6478
76196쎯35641쎯	-10.6483
40951쎯40088쎯	-10.6484
51508쎯67196쎯	-10.6484
78973쎯74272쎯	-10.6487
73666쎯76736쎯	-10.6492
20159쎯35346쎯	-10.6492
35641쎯62153쎯	-10.6494
79303쎯13459쎯	-10.6499
10268쎯49089쎯	-10.65
8쎯0쎯60833쎯74275쎯	-10.65
14920쎯43921쎯	-10.65
010쎯	-10.6503
1쎯2쎯57630쎯	-10.6505
54838쎯	-10.6508
63962쎯78782쎯	-10.651
792쎯39063쎯34859쎯	-10.651
55121쎯2쎯4쎯14924쎯	-10.6512
17602쎯59344쎯	-10.6515
42261쎯37995쎯	-10.6517
17307쎯	-10.6519
42339쎯	-10.652
56488쎯60460쎯	-10.6522
45851쎯63631쎯	-10.6522
19043쎯75108쎯	-10.6525
45513쎯	-10.6529
66457쎯	-10.653
45065쎯22428쎯	-10.6532
73570쎯21088쎯	-10.6533
53891쎯	-10.6534
12476쎯	-10.6537
15326쎯58194쎯	-10.6537
28920쎯25286쎯	-10.6541
71025쎯34349쎯	-10.6543
17802쎯62123쎯	-10.6543
28738쎯63631쎯	-10.6544
64395쎯62153쎯	-10.6546
76316쎯22523쎯	-10.6549
54151쎯	-10.655
23845쎯43431쎯	-10.6551
75108쎯43691쎯	-10.6552
51095쎯34859쎯	-10.6552
52750쎯62474쎯	-10.6553
56800쎯44459쎯	-10.6555
80564쎯	-10.6568
19109쎯46553쎯	-10.6572
41쎯19167쎯17602쎯	-10.6573
56609쎯21957쎯	-10.6573
17602쎯34349쎯	-10.6576
75064쎯	-10.6577
73226쎯	-10.6586
73364쎯74268쎯	-10.6587
31790쎯	-10.6588
55121쎯1쎯1쎯14924쎯	-10.6589
77801쎯	-10.6591
35837쎯47788쎯	-10.6592
76506쎯63962쎯	-10.6595
12078쎯61132쎯	-10.6598
53270쎯70026쎯	-10.6599
60904쎯	-10.6599
10773쎯17771쎯	-10.6599
51013쎯66876쎯	-10.6609
66483쎯》쎯	-10.661
097쎯	-10.6612
53729쎯63921쎯	-10.6614
9쎯3쎯	-10.6619
55121쎯1쎯7쎯14924쎯	-10.662
20827쎯48643쎯	-10.662
22645쎯	-10.6627
58991쎯57248쎯	-10.6631
42094쎯44889쎯	-10.6634
39339쎯53152쎯	-10.6635
22311쎯	-10.6638
3쎯72295쎯0쎯	-10.6641
62645쎯60637쎯	-10.6646
3쎯42649쎯79303쎯	-10.6648
24259쎯	-10.6652
36799쎯	-10.6655
28480쎯49089쎯	-10.6655
52428쎯	-10.6656
28539쎯	-10.6662
53085쎯65936쎯	-10.6665
61368쎯42649쎯	-10.6665
0쎯2쎯	-10.6666
421쎯	-10.6668
37798쎯25150쎯	-10.6672
53081쎯71948쎯	-10.6673
28965쎯25989쎯	-10.6674
(쎯30658쎯	-10.6676
34486쎯36944쎯	-10.6678
46488쎯37294쎯	-10.668
62998쎯	-10.6681
61050쎯25658쎯	-10.6686
67943쎯12078쎯	-10.6686
47197쎯	-10.6689
53832쎯	-10.6692
0쎯0쎯41858쎯79303쎯	-10.6696
77679쎯	-10.6699
35641쎯73904쎯	-10.6699
15877쎯47850쎯	-10.67
32986쎯	-10.6703
80435쎯16603쎯33	-10.6707
▁쎯5쎯49089쎯	-10.6709
30795쎯	-10.671
70823쎯74899쎯	-10.6712
28441쎯64395쎯	-10.6714
39063쎯56146쎯	-10.6716
79303쎯66590쎯	-10.6717
8쎯56544쎯	-10.6718
45003쎯27195쎯	-10.6719
76319쎯49802쎯	-10.6721
74503쎯	-10.6728
76316쎯37319쎯	-10.673
2쎯42649쎯79303쎯	-10.6731
73781쎯21966쎯	-10.6733
61454쎯67335쎯	-10.6737
5쎯69344쎯22218쎯	-10.674
66876쎯75108쎯	-10.6742
19043쎯68909쎯1쎯0쎯	-10.6742
51735쎯79303쎯	-10.6743
63962쎯80334쎯	-10.6744
(쎯1쎯9쎯1쎯	-10.6746
36944쎯38652쎯	-10.6746
674쎯	-10.6747
66876쎯12341쎯	-10.6749
41164쎯28123쎯	-10.6751
20074쎯12587쎯	-10.6753
42094쎯47850쎯	-10.6755
79414쎯78536쎯	-10.6757
70827쎯	-10.676
50573쎯23827쎯	-10.676
22847쎯49851쎯	-10.6761
37638쎯66876쎯	-10.6763
16346쎯	-10.6764
8쎯69344쎯22218쎯	-10.6766
30682쎯48643쎯	-10.6768
14924쎯40837쎯	-10.6774
51400쎯76058쎯	-10.6785
48644쎯20202쎯	-10.6786
33436쎯43972쎯	-10.6789
76196쎯80242쎯	-10.6793
63505쎯	-10.6793
46320쎯76979쎯	-10.6795
79872쎯28020쎯	-10.6795
19716쎯60127쎯	-10.6796
45851쎯21962쎯	-10.6797
56544쎯8쎯	-10.6799
17232쎯41830쎯	-10.68
60637쎯42037쎯	-10.6803
36903쎯49851쎯	-10.6803
74861쎯	-10.6803
38724쎯	-10.6804
79263쎯10488쎯	-10.6806
21503쎯56609쎯	-10.6807
42649쎯44248쎯	-10.6808
19496쎯78973쎯	-10.6808
9쎯1쎯	-10.681
0쎯4쎯	-10.6811
7쎯1쎯	-10.6813
59937쎯	-10.682
2쎯5쎯6쎯	-10.6821
66146쎯53322쎯	-10.6822
43697쎯20827쎯	-10.6823
80466쎯	-10.6832
05쎯20614쎯36820쎯	-10.6833
21394쎯21966쎯798	-10.6833
46687쎯55645쎯	-10.6834
76552쎯67828쎯	-10.6835
60460쎯45317쎯	-10.6837
59016쎯60495쎯	-10.6839
34446쎯78222쎯	-10.6842
45752쎯	-10.6843
34503쎯	-10.6843
41975쎯20392쎯611	-10.6847
32쎯11630쎯60559쎯	-10.6849
37633쎯74899쎯	-10.6851
76316쎯42632쎯	-10.6853
36820쎯60670쎯	-10.6853
24983쎯72253쎯	-10.6855
55852쎯	-10.686
(쎯1쎯9쎯0쎯	-10.686
552쎯	-10.6862
70985쎯49089쎯	-10.6864
48497쎯18250쎯	-10.6867
65582쎯29275쎯	-10.6869
2쎯72295쎯4쎯	-10.6869
66334쎯	-10.687
37091쎯56124쎯	-10.6871
18673쎯47902쎯	-10.6871
31570쎯	-10.6872
57248쎯18250쎯	-10.6873
68105쎯75800쎯	-10.6882
13735쎯65621쎯	-10.6883
55121쎯3쎯14924쎯	-10.6887
58571쎯38603쎯	-10.6888
48113쎯67196쎯	-10.6888
24765쎯	-10.689
10443쎯60225쎯	-10.6891
24757쎯49089쎯	-10.6892
50078쎯	-10.6892
63029쎯48172쎯	-10.6893
▁쎯37633쎯27747쎯	-10.6893
31641쎯20074쎯	-10.6893
62642쎯	-10.6895
184쎯	-10.6897
68428쎯20159쎯	-10.6898
71685쎯35720쎯	-10.6899
▁쎯37107쎯44369쎯	-10.69
21342쎯67633쎯	-10.6901
78494쎯	-10.6904
63878쎯21861쎯	-10.6908
69344쎯56146쎯	-10.6909
58505쎯	-10.6911
48643쎯79303쎯	-10.6912
54974쎯23845쎯	-10.6912
44982쎯78494쎯	-10.6913
75483쎯	-10.6915
3쎯6쎯0쎯	-10.6917
38732쎯39725쎯	-10.6918
57644쎯	-10.6918
48964쎯46202쎯	-10.6919
51216쎯76196쎯	-10.6919
53081쎯43972쎯	-10.6924
14920쎯	-10.6925
28642쎯28642쎯	-10.6927
21962쎯26925쎯	-10.6929
79872쎯29307쎯	-10.6931
68313쎯77922쎯	-10.6932
51112쎯65113쎯	-10.6935
52047쎯	-10.6937
1쎯4쎯0쎯	-10.6938
733쎯	-10.6941
20570쎯5쎯	-10.6943
2992	-10.6944
20348쎯38731쎯	-10.6945
48172쎯22218쎯	-10.695
20556쎯45268쎯	-10.6951
249쎯	-10.6954
63219쎯51735쎯	-10.6959
79872쎯45600쎯	-10.696
51013쎯22523쎯	-10.6963
73680쎯37955쎯	-10.6964
1쎯9쎯2쎯7쎯60833쎯	-10.6964
35811쎯	-10.697
18835쎯37638쎯	-10.697
65723쎯	-10.6971
45851쎯45851쎯	-10.6971
39349쎯19167쎯	-10.6972
4842	-10.6976
79872쎯19043쎯	-10.6976
76013쎯60096쎯	-10.6977
10946쎯	-10.698
54664쎯12111쎯	-10.6983
40304쎯17215쎯	-10.6987
62090쎯23845쎯	-10.6988
38624쎯55645쎯	-10.699
60784쎯21594쎯	-10.6991
21088쎯57566쎯	-10.6993
50642쎯68313쎯	-10.6997
5쎯0쎯0쎯0쎯	-10.6997
28118쎯	-10.6997
58279쎯	-10.7003
77407쎯	-10.7005
24227쎯	-10.7007
79303쎯66538쎯	-10.7007
74899쎯21394쎯	-10.7008
41858쎯78973쎯	-10.7013
63921쎯17876쎯	-10.7019
”쎯47791쎯	-10.7025
59548쎯64125쎯	-10.7027
20965쎯66590쎯	-10.7028
50337쎯27747쎯	-10.7028
17086쎯25108쎯	-10.7029
15317쎯62633쎯	-10.7032
74980쎯72253쎯	-10.7033
14857쎯	-10.7038
11635쎯12040쎯	-10.7039
55121쎯1쎯4쎯14924쎯	-10.7046
68858쎯57356쎯	-10.7047
49013쎯73781쎯	-10.7048
13735쎯10773쎯	-10.7051
62183쎯15184쎯	-10.7051
60052쎯62090쎯	-10.7051
65628쎯76736쎯	-10.7052
75547쎯28020쎯	-10.7054
33950쎯79902쎯	-10.7059
44683쎯20909쎯	-10.706
16135쎯	-10.7061
32811쎯36751쎯	-10.7065
63962쎯74899쎯	-10.7066
1쎯2쎯55121쎯60127쎯	-10.7067
55121쎯9쎯14924쎯	-10.7069
12078쎯44864쎯	-10.707
58953쎯44902쎯	-10.7071
73364쎯36751쎯	-10.7071
56544쎯4쎯	-10.7075
76850쎯	-10.7077
58376쎯53729쎯	-10.7079
46278쎯22503쎯	-10.7081
42332쎯57702쎯	-10.7094
076쎯	-10.7105
56622쎯20202쎯	-10.7107
40600쎯46320쎯	-10.7109
”쎯13735쎯	-10.7113
1쎯5쎯21594쎯	-10.7114
22891쎯	-10.7115
3쎯2쎯0쎯	-10.7116
19167쎯42649쎯	-10.7116
17602쎯58953쎯	-10.7116
78973쎯1쎯8쎯	-10.7119
0쎯72295쎯4쎯	-10.712
4쎯0쎯0쎯0쎯	-10.7125
11497쎯18315쎯	-10.713
46278쎯78800쎯	-10.7133
532쎯76316쎯10047쎯	-10.7136
19043쎯68909쎯7쎯	-10.7138
21088쎯46699쎯	-10.7139
55121쎯7쎯14924쎯	-10.714
37591쎯30678쎯	-10.7143
65723쎯56398쎯	-10.7145
56609쎯57881쎯	-10.7145
71213쎯	-10.7147
16209쎯11635쎯	-10.7148
79063쎯	-10.715
52513쎯	-10.7151
46787쎯23899쎯	-10.7152
5	-10.7153
27195쎯49089쎯	-10.7155
5쎯48205쎯	-10.7158
75868쎯74899쎯	-10.7158
17600쎯51216쎯	-10.7159
48643쎯52160쎯	-10.7161
13331쎯》쎯49089쎯《쎯	-10.7162
66502쎯41886쎯	-10.7164
0쎯72295쎯7쎯	-10.7164
17086쎯54448쎯	-10.7167
75447쎯76736쎯	-10.7167
63220쎯34601쎯	-10.717
2쎯31486쎯	-10.7172
64920쎯65621쎯	-10.7174
43658쎯	-10.7182
65780쎯25982쎯	-10.7183
53715쎯43717쎯	-10.7186
58440쎯69963쎯	-10.7188
563쎯	-10.7189
60637쎯47210쎯	-10.719
76316쎯47850쎯	-10.7191
1쎯0쎯28642쎯	-10.7194
45252쎯74899쎯	-10.7194
36820쎯15236쎯	-10.7197
7쎯56544쎯	-10.7197
21492쎯40501쎯	-10.7199
19259쎯41470쎯	-10.7199
20102쎯23212쎯	-10.7202
1쎯72295쎯1쎯	-10.7204
42632쎯12307쎯	-10.7204
6쎯69344쎯22218쎯	-10.7205
29570쎯33958쎯	-10.7208
37553쎯33945쎯	-10.721
13331쎯60207쎯	-10.7213
78973쎯57107쎯	-10.7215
38744쎯	-10.7215
51426쎯49624쎯	-10.722
55461쎯	-10.722
077쎯	-10.7221
69416쎯62153쎯	-10.7221
60559쎯43431쎯	-10.7223
0쎯73211쎯	-10.7224
79303쎯53966쎯	-10.7224
20202쎯73637쎯	-10.7225
37294쎯30682쎯	-10.7226
20062쎯	-10.7229
1쎯0쎯12267쎯62633쎯	-10.723
23602쎯43895쎯	-10.7232
79766쎯47575쎯	-10.7235
73352쎯42649쎯	-10.7235
46357쎯	-10.7237
27194쎯68084쎯	-10.7239
18079쎯	-10.724
13735쎯67943쎯	-10.724
15965쎯35641쎯	-10.7241
(쎯11628쎯35720쎯	-10.7241
77504쎯	-10.7248
1쎯72295쎯3쎯	-10.7249
▁쎯『쎯	-10.7249
68084쎯39149쎯	-10.725
38380쎯61771쎯	-10.7251
73638쎯19043쎯	-10.7251
31641쎯31641쎯	-10.7251
33596쎯65621쎯	-10.7254
68176쎯15349쎯	-10.7254
78536쎯61132쎯	-10.7256
1쎯1쎯55121쎯60127쎯	-10.7256
52054쎯65967쎯	-10.7257
30297쎯	-10.726
27687쎯35536쎯	-10.7261
24757쎯34124쎯	-10.7261
2쎯72295쎯2쎯	-10.7262
17661쎯32994쎯	-10.7262
15877쎯37319쎯	-10.7264
22387쎯	-10.7264
64661쎯20433쎯	-10.7269
▁쎯37107쎯27795쎯	-10.7271
21394쎯35720쎯	-10.7271
68313쎯69711쎯	-10.7274
11851쎯42649쎯	-10.7274
17600쎯79303쎯	-10.7275
47062쎯67734쎯	-10.7276
20570쎯)쎯51216쎯	-10.7276
62615쎯67734쎯	-10.7281
19259쎯21088쎯	-10.7281
21962쎯47302쎯	-10.7282
29465쎯	-10.7282
78577쎯	-10.7283
72397쎯62474쎯	-10.7284
68165쎯	-10.7285
▁쎯43659쎯51400쎯	-10.7289
》쎯79303쎯《쎯	-10.7289
75963쎯67196쎯	-10.7289
49463쎯	-10.7294
66876쎯72371쎯	-10.7294
30222쎯72397쎯	-10.7295
55121쎯1쎯3쎯14924쎯	-10.7299
57226쎯73352쎯	-10.7299
78531쎯54110쎯	-10.7303
16832쎯70725쎯	-10.7306
25989쎯75050쎯	-10.731
49089쎯57566쎯	-10.7313
3쎯0쎯21594쎯	-10.7316
43460쎯62090쎯	-10.7317
45644쎯	-10.732
73196쎯	-10.7323
34212쎯	-10.7326
40529쎯37955쎯	-10.7327
67907쎯33013쎯	-10.7328
1쎯9쎯2쎯8쎯60833쎯	-10.7329
72545쎯22761쎯	-10.7331
45851쎯58376쎯	-10.7334
21491쎯76059쎯	-10.7337
21340쎯	-10.7338
0쎯33189쎯57179쎯	-10.7338
17005쎯57702쎯	-10.734
2쎯0쎯0쎯9쎯	-10.7343
76059쎯42649쎯	-10.7344
79303쎯23339쎯	-10.7347
12267쎯46224쎯	-10.7347
58576쎯51112쎯	-10.7348
60511쎯	-10.7352
35572쎯39149쎯	-10.7352
53525쎯80049쎯	-10.7353
24081쎯24504쎯	-10.7357
60127쎯58194쎯	-10.736
18833쎯	-10.736
42053쎯	-10.7362
33081쎯56161쎯	-10.7363
47471쎯21962쎯	-10.7365
55121쎯2쎯14924쎯	-10.7367
38241쎯17005쎯	-10.737
44608쎯	-10.737
16578쎯45701쎯	-10.7375
75447쎯80506쎯	-10.7377
70834쎯74132쎯	-10.7384
52705쎯57228쎯	-10.7386
52430쎯	-10.7391
66159쎯76795쎯	-10.7392
7쎯72295쎯5쎯	-10.7395
48600쎯42234쎯	-10.7395
49355쎯	-10.7396
57107쎯53722쎯	-10.7397
21588쎯30682쎯	-10.7402
40636쎯19043쎯	-10.7403
▁쎯21962쎯62101쎯	-10.7404
65152쎯	-10.7404
27973쎯44129쎯	-10.7406
45081쎯	-10.7407
47575쎯64505쎯	-10.741
―	-10.7416
50573쎯52457쎯	-10.7417
44764쎯75547쎯	-10.7418
23779쎯20202쎯	-10.742
2쎯0쎯60833쎯	-10.7421
78398쎯35150쎯	-10.7422
55174쎯	-10.7426
110쎯	-10.7427
53448쎯80242쎯	-10.743
35999쎯11970쎯	-10.743
64395쎯51832쎯	-10.743
5쎯0쎯0쎯21594쎯	-10.7434
715쎯	-10.7436
47991쎯18939쎯	-10.7437
32542쎯73781쎯	-10.7439
68846쎯27378쎯	-10.7448
74793쎯	-10.7448
35584쎯76452쎯	-10.7451
2쎯0쎯0쎯7쎯	-10.7451
40088쎯69405쎯	-10.7451
3쎯35447쎯23356쎯	-10.7453
2쎯0쎯1쎯2쎯	-10.7454
22625쎯61132쎯	-10.7457
54448쎯71903쎯	-10.7457
76739쎯80456쎯	-10.7457
17600쎯71752쎯	-10.7458
38021쎯64046쎯	-10.7458
36820쎯51216쎯	-10.746
56787쎯	-10.7464
497쎯51013쎯17439쎯	-10.7464
》쎯64874쎯	-10.7467
11630쎯78973쎯	-10.7468
79263쎯49089쎯	-10.7469
56544쎯9쎯	-10.747
57566쎯19043쎯	-10.747
75868쎯60670쎯	-10.7473
41213쎯79303쎯	-10.7473
78973쎯35302쎯	-10.7477
37484쎯30867쎯	-10.7478
77151쎯39103쎯	-10.7479
51826쎯	-10.7481
74473쎯69774쎯	-10.7485
53729쎯35601쎯	-10.7485
21588쎯52125쎯	-10.7491
37879쎯	-10.7492
696쎯	-10.7496
53322쎯56789쎯	-10.7496
34913쎯68105쎯	-10.7498
18250쎯67196쎯	-10.7499
75686쎯19696쎯	-10.7507
19043쎯52705쎯	-10.7508
51013쎯44889쎯	-10.7508
19043쎯51508쎯	-10.7508
76266쎯	-10.751
61659쎯51171쎯	-10.751
49802쎯75447쎯	-10.7511
47971쎯	-10.7516
70571쎯60833쎯	-10.7518
8쎯1쎯	-10.7519
22247쎯45851쎯	-10.752
56544쎯7쎯	-10.7521
42803쎯	-10.7524
59432쎯	-10.7536
14924쎯56789쎯	-10.7539
77954쎯	-10.7539
65508쎯36550쎯	-10.754
29861쎯33081쎯	-10.754
28222쎯45996쎯	-10.7542
2쎯0쎯64661쎯30712쎯	-10.7542
69243쎯	-10.7547
51216쎯21088쎯	-10.7551
17602쎯50642쎯	-10.7553
48670쎯68084쎯	-10.7554
344쎯22218쎯23356쎯	-10.7554
79805쎯36651쎯	-10.7555
51013쎯72545쎯	-10.7559
12876쎯31570쎯	-10.7561
69765쎯	-10.7561
36602쎯17232쎯	-10.7563
38206쎯69908쎯	-10.7564
68313쎯64124쎯	-10.7568
74651쎯	-10.7568
60833쎯37995쎯	-10.7571
2쎯35447쎯23356쎯	-10.7573
38652쎯51216쎯	-10.7573
76182쎯76059쎯	-10.7573
53510쎯24720쎯	-10.7578
10488쎯10772쎯	-10.7579
33950쎯46289쎯21	-10.7579
57566쎯34859쎯	-10.7581
19043쎯68909쎯8쎯	-10.7581
37633쎯20159쎯54	-10.7584
37492쎯39149쎯	-10.7586
44764쎯70834쎯	-10.7587
19167쎯69416쎯	-10.7589
48179쎯	-10.759
65621쎯21491쎯	-10.759
80792쎯37633쎯	-10.759
33189쎯57702쎯	-10.7591
1쎯61190쎯	-10.7591
34349쎯28261쎯	-10.7592
27548쎯	-10.7595
68454쎯28961쎯	-10.7598
20348쎯19109쎯	-10.76
67891쎯17661쎯	-10.76
22916쎯28577쎯	-10.7601
77103쎯80792쎯	-10.7602
45507쎯	-10.7603
72545쎯37633쎯	-10.7605
57248쎯42094쎯	-10.7606
35572쎯75447쎯	-10.7607
13881쎯	-10.7609
34482쎯	-10.761
12363쎯	-10.7611
78267쎯	-10.7614
65864쎯16612쎯	-10.7616
▁쎯43431쎯	-10.7618
55121쎯4쎯14924쎯	-10.7621
62471쎯59534쎯	-10.7624
25286쎯60052쎯	-10.7626
31476쎯23356쎯	-10.7627
75362쎯	-10.7628
29400쎯	-10.763
42649쎯35720쎯	-10.7631
45065쎯74849쎯	-10.7633
(쎯)쎯78973쎯	-10.7634
93쎯	-10.7634
21088쎯57248쎯	-10.7634
49089쎯54441쎯	-10.7635
62474쎯57158쎯	-10.7644
80526쎯	-10.7645
17086쎯23899쎯	-10.7649
2쎯72295쎯1쎯	-10.7655
23238쎯76729쎯	-10.7655
72057쎯	-10.7656
65557쎯31598쎯	-10.7658
22755쎯20839쎯	-10.7659
74132쎯60833쎯	-10.7659
4쎯42649쎯79303쎯	-10.766
65542쎯”쎯	-10.7662
63686쎯71752쎯	-10.7664
13525쎯	-10.767
48759쎯54974쎯	-10.7671
46374쎯47819쎯	-10.7672
58692쎯72295쎯	-10.7673
49013쎯30252쎯	-10.7679
21870쎯	-10.768
43492쎯28050쎯	-10.7691
67694쎯15877쎯	-10.7695
11139쎯	-10.7696
76608쎯31486쎯	-10.7702
34446쎯39339쎯	-10.7703
19869쎯	-10.7704
79872쎯62474쎯	-10.7706
23899쎯57158쎯	-10.7706
22943쎯	-10.7706
10535쎯80334쎯	-10.7706
11213쎯	-10.7707
7쎯12267쎯62633쎯	-10.771
72389쎯32086쎯	-10.7714
80359쎯27795쎯	-10.7715
1쎯5쎯64661쎯30712쎯	-10.7716
66819쎯	-10.7717
48056쎯	-10.7718
73352쎯46278쎯	-10.7719
73570쎯26260쎯	-10.7721
662쎯76573쎯23238쎯	-10.7723
79303쎯30222쎯27	-10.7724
64661쎯51539쎯	-10.7728
22867쎯26216쎯	-10.7729
824쎯	-10.7729
76979쎯13155쎯	-10.7731
42121쎯	-10.7732
11851쎯64046쎯	-10.7733
17153쎯74132쎯	-10.7734
28907쎯37629쎯	-10.7735
78973쎯62090쎯	-10.7737
11491쎯	-10.774
5쎯12299쎯	-10.7741
76739쎯25961쎯	-10.7744
63962쎯49802쎯	-10.7744
64558쎯37175쎯	-10.7745
56544쎯5쎯	-10.775
71903쎯45869쎯	-10.775
11621쎯	-10.7751
12341쎯70725쎯	-10.7754
31860쎯72898쎯	-10.7757
15877쎯66876쎯	-10.7757
25492쎯12587쎯	-10.776
1쎯3쎯0쎯	-10.7761
65842쎯32828쎯	-10.7762
13331쎯75049쎯	-10.7766
32581쎯65864쎯	-10.7769
31655쎯	-10.7769
51803쎯18840쎯	-10.7772
25286쎯50642쎯	-10.7774
70020쎯	-10.7776
60312쎯13735쎯	-10.7776
18250쎯36944쎯	-10.7779
2쎯0쎯0쎯6쎯	-10.7784
55373쎯	-10.7784
25946쎯	-10.7784
(쎯24983쎯	-10.7784
75294쎯	-10.7785
14199쎯28586쎯	-10.779
24401쎯30155쎯	-10.7792
47727쎯	-10.7793
68177쎯	-10.7797
45252쎯57133쎯	-10.7799
11635쎯20909쎯	-10.7799
14924쎯25094쎯	-10.7807
79162쎯	-10.7807
45856쎯74899쎯	-10.7807
16751쎯29383쎯	-10.7813
20460쎯31697쎯	-10.7814
69408쎯63878쎯	-10.7815
40773쎯48670쎯	-10.7816
49089쎯34859쎯	-10.782
6425	-10.7821
74493쎯	-10.7823
48917쎯	-10.7825
76739쎯47471쎯	-10.783
79303쎯59079쎯	-10.7833
79754쎯4쎯	-10.7833
73570쎯80794쎯	-10.7835
53729쎯19167쎯“쎯	-10.7837
72988쎯	-10.7839
54993쎯69874쎯	-10.784
37294쎯55623쎯	-10.784
66876쎯57566쎯	-10.7841
76938쎯51803쎯	-10.7844
17086쎯15184쎯	-10.7846
13735쎯12348쎯	-10.7848
70834쎯74715쎯	-10.7851
35074쎯47575쎯	-10.7852
17439쎯57655쎯	-10.7852
42015쎯76919쎯	-10.7856
5쎯1쎯2쎯	-10.7857
69438쎯38603쎯“쎯	-10.7857
15349쎯74899쎯	-10.7859
80049쎯11630쎯	-10.786
56544쎯6쎯	-10.786
72536쎯34913쎯	-10.7862
39825쎯	-10.7864
80435쎯78707쎯	-10.7865
36046쎯75875쎯》쎯	-10.7866
62572쎯28851쎯	-10.7869
34613쎯42562쎯	-10.787
14924쎯31887쎯	-10.7873
14536쎯25094쎯	-10.7875
71752쎯》쎯	-10.7881
▁쎯74867쎯	-10.7883
58203쎯	-10.7884
78673쎯45856쎯	-10.7884
12077쎯18058쎯	-10.7885
62680쎯79335쎯	-10.7886
36820쎯20392쎯	-10.7887
17876쎯62123쎯	-10.7889
78673쎯51216쎯	-10.7889
79303쎯30410쎯	-10.7891
66876쎯12640쎯2쎯	-10.7891
36046쎯75875쎯191	-10.7893
76739쎯56397쎯	-10.7893
45465쎯60022쎯	-10.7894
64874쎯1쎯	-10.7899
64558쎯18483쎯	-10.79
55645쎯2쎯	-10.7904
32505쎯	-10.7906
49288쎯14406쎯	-10.7906
54664쎯74218쎯	-10.7907
21503쎯42649쎯	-10.7908
20602쎯	-10.791
78983쎯17835쎯	-10.791
70026쎯24983쎯	-10.7915
042쎯	-10.7916
2쎯72295쎯8쎯	-10.7916
65606쎯30665쎯	-10.7921
58376쎯18939쎯	-10.7921
61026쎯79303쎯	-10.7928
64874쎯72295쎯	-10.7929
23457쎯48497쎯	-10.793
47575쎯69908쎯	-10.793
26598쎯	-10.7931
49754쎯	-10.7934
15184쎯45577쎯	-10.7935
72389쎯36903쎯	-10.7937
53575쎯	-10.7937
63962쎯40088쎯	-10.7939
34967쎯50844쎯	-10.794
27333쎯80789쎯80	-10.7945
37646쎯	-10.7947
68846쎯68846쎯	-10.7951
64395쎯33189쎯	-10.7952
25840쎯	-10.7954
79872쎯27711쎯	-10.7959
80435쎯79766쎯	-10.7959
53130쎯	-10.796
▁쎯5쎯72295쎯	-10.7965
78973쎯”쎯32819쎯	-10.7969
79303쎯51013쎯	-10.7971
14363쎯16812쎯	-10.7971
32640쎯	-10.7975
44790쎯79303쎯	-10.7979
39173쎯	-10.798
75963쎯79303쎯	-10.7981
17602쎯41470쎯	-10.7981
67734쎯63014쎯	-10.7983
56609쎯42649쎯	-10.7983
23532쎯	-10.7984
17901쎯	-10.7985
20570쎯56544쎯	-10.799
4쎯)쎯	-10.7992
47302쎯26925쎯	-10.7992
65967쎯33633쎯	-10.7994
18654쎯75434쎯	-10.8001
14536쎯75265쎯	-10.8004
56625쎯	-10.8009
48644쎯15877쎯	-10.8012
27993쎯60127쎯	-10.8014
38624쎯10488쎯	-10.8015
(쎯12267쎯57179쎯	-10.8015
53722쎯19167쎯	-10.8016
78782쎯46177쎯	-10.8018
44737쎯2쎯0쎯0쎯3쎯	-10.8018
79303쎯57248쎯“쎯	-10.8022
31282쎯	-10.8023
1쎯7쎯0쎯	-10.8025
32581쎯58688쎯	-10.8031
3쎯48205쎯	-10.8031
27378쎯63878쎯	-10.8035
76709쎯	-10.8039
328쎯	-10.804
59255쎯69769쎯	-10.8041
35641쎯49089쎯	-10.8041
607쎯	-10.8041
21588쎯73364쎯	-10.8041
17841쎯	-10.8042
26108쎯49014쎯	-10.8042
65464쎯57158쎯	-10.8045
57922쎯46289쎯	-10.8048
38624쎯23349쎯	-10.8051
63916쎯20202쎯	-10.8051
57133쎯29506쎯	-10.8051
25718쎯	-10.8051
69344쎯42482쎯	-10.8055
65780쎯23486쎯	-10.8056
80789쎯74132쎯	-10.8061
23339쎯28050쎯	-10.8062
51400쎯61023쎯	-10.8064
75547쎯21491쎯	-10.8071
15877쎯42332쎯	-10.8072
55491쎯	-10.8072
4쎯8쎯0쎯	-10.8073
5653쎯	-10.8076
63375쎯	-10.8078
33078쎯	-10.8083
》쎯76497쎯	-10.8083
43443쎯	-10.8086
37633쎯19109쎯69	-10.8088
72870쎯77687쎯	-10.8089
15253쎯	-10.8095
▁쎯47819쎯35150쎯	-10.8097
43697쎯53722쎯	-10.8099
59307쎯59262쎯	-10.81
27195쎯45534쎯	-10.8104
18483쎯53575쎯	-10.8108
49802쎯79303쎯	-10.8108
10175쎯14536쎯	-10.8109
53081쎯24891쎯《쎯	-10.8109
28020쎯75108쎯	-10.8109
38857쎯	-10.811
53140쎯66590쎯	-10.8115
50699쎯49854쎯	-10.8115
26507쎯34859쎯	-10.8116
▁쎯12078쎯47302쎯	-10.8116
22311쎯56661쎯“쎯	-10.8116
75525쎯65508쎯	-10.8121
75108쎯13581쎯	-10.8122
66006쎯23899쎯	-10.8127
60052쎯10715쎯	-10.8131
25492쎯	-10.8131
38834쎯38617쎯	-10.8132
62123쎯79322쎯	-10.8133
3쎯31486쎯	-10.814
56622쎯56146쎯	-10.814
》쎯42649쎯10772쎯	-10.8142
76055쎯73666쎯	-10.8142
74715쎯23331쎯	-10.8142
22523쎯47850쎯	-10.8144
16812쎯69416쎯	-10.8146
46346쎯27195쎯	-10.8147
42849쎯39339쎯	-10.8151
12934쎯28461쎯	-10.8151
8쎯42649쎯79303쎯	-10.8151
31860쎯53715쎯	-10.8151
20814쎯14474쎯	-10.8151
40600쎯47178쎯	-10.8152
58429쎯	-10.8152
21340쎯13881쎯	-10.8156
14536쎯58509쎯	-10.8157
▁쎯60371쎯18974쎯	-10.8162
62474쎯76316쎯	-10.8165
20909쎯25989쎯	-10.8165
57088쎯74899쎯	-10.8166
57881쎯41213쎯	-10.817
20996쎯62187쎯	-10.8178
36565쎯	-10.8183
44790쎯49089쎯	-10.8185
58692쎯0쎯0쎯0쎯	-10.8188
76055쎯12111쎯	-10.8189
69613쎯60127쎯	-10.8191
40837쎯49014쎯	-10.8196
20814쎯20839쎯	-10.8197
78244쎯	-10.8197
40099쎯	-10.8197
73305쎯	-10.8198
13204쎯	-10.8201
6292	-10.8201
44621쎯64178쎯	-10.8201
76316쎯31697쎯	-10.8201
0쎯31227쎯	-10.8203
17802쎯79322쎯	-10.8204
68952쎯51394쎯	-10.8206
21962쎯41213쎯	-10.8206
41694쎯60898쎯	-10.8206
722쎯	-10.8207
44764쎯29275쎯	-10.8207
17430쎯44902쎯	-10.8207
2쎯60833쎯	-10.8208
37518쎯74512쎯	-10.8208
133쎯71903쎯71997쎯	-10.8209
46320쎯38701쎯	-10.821
26632쎯	-10.8211
935쎯	-10.8215
1쎯2쎯0쎯0쎯	-10.8216
53270쎯78800쎯	-10.8218
79872쎯31337쎯	-10.8219
52457쎯74715쎯	-10.8219
64874쎯56544쎯	-10.8221
▁쎯73352쎯11630쎯	-10.8221
32461쎯49392쎯	-10.8224
12440쎯	-10.8229
23339쎯42094쎯	-10.8234
11630쎯79303쎯	-10.8235
60460쎯68454쎯	-10.8241
41704쎯	-10.8241
78168쎯54974쎯	-10.825
66146쎯56983쎯	-10.8256
80506쎯61368쎯	-10.8258
71294쎯41470쎯	-10.8262
66876쎯48643쎯	-10.8264
36982쎯	-10.8268
014쎯37633쎯19109쎯	-10.8271
41164쎯53140쎯	-10.8275
56488쎯41470쎯	-10.8275
73147쎯29681쎯	-10.8277
78222쎯76452쎯	-10.8279
38624쎯43431쎯	-10.8279
72253쎯43492쎯	-10.8279
44696쎯	-10.828
20392쎯34349쎯	-10.8281
39149쎯14924쎯	-10.8286
27279쎯	-10.8286
33504쎯66915쎯	-10.8289
55318쎯20827쎯	-10.8291
54273쎯11851쎯	-10.8292
58376쎯42482쎯	-10.8292
67196쎯13547쎯	-10.8299
2쎯69344쎯22218쎯	-10.8299
33701쎯42094쎯	-10.8301
57566쎯12211쎯	-10.8301
13607쎯31887쎯	-10.8301
60784쎯33189쎯	-10.8301
42094쎯13155쎯	-10.8302
31486쎯28020쎯	-10.8304
13155쎯79303쎯	-10.831
56304쎯67175쎯	-10.8314
25759쎯35641쎯	-10.8314
48309쎯79303쎯	-10.8315
34482쎯10772쎯	-10.8317
2쎯28642쎯	-10.8318
51761쎯	-10.8319
31141쎯16817쎯	-10.832
29308쎯2쎯	-10.8321
38652쎯38731쎯	-10.8322
47693쎯19802쎯	-10.8322
57248쎯42649쎯	-10.8323
37492쎯66864쎯	-10.8323
60052쎯19434쎯	-10.8324
80596쎯17770쎯	-10.8324
40088쎯67943쎯	-10.8324
78792쎯66400쎯	-10.8326
78817쎯	-10.8326
53575쎯19167쎯“쎯	-10.8327
42482쎯10285쎯	-10.8328
24216쎯	-10.833
270쎯	-10.8332
67754쎯	-10.8333
–	-10.8336
0쎯72295쎯9쎯	-10.8336
28965쎯30682쎯	-10.8342
6쎯42649쎯79303쎯	-10.8343
32101쎯	-10.8343
80242쎯41704쎯	-10.8343
49083쎯42015쎯	-10.8346
36550쎯19167쎯	-10.8346
62617쎯	-10.8349
22197쎯44417쎯	-10.8353
27082쎯48643쎯	-10.8355
50962쎯	-10.8356
30794쎯30233쎯	-10.8358
26586쎯	-10.8358
37668쎯74503쎯	-10.8358
77150쎯	-10.8365
31641쎯60833쎯	-10.8365
16016쎯75686쎯	-10.8367
865쎯	-10.8369
57169쎯	-10.8371
49089쎯32508쎯	-10.838
76316쎯29383쎯	-10.8387
46320쎯12111쎯	-10.8389
56609쎯)쎯	-10.8392
30199쎯40837쎯	-10.8393
42094쎯33013쎯	-10.8394
42730쎯	-10.8398
35881쎯19496쎯	-10.8398
11635쎯12111쎯	-10.8399
38013쎯78973쎯	-10.84
31882쎯	-10.8404
72373쎯25658쎯	-10.841
32819쎯73781쎯	-10.841
▁쎯18250쎯	-10.8414
51803쎯20814쎯	-10.8415
34349쎯15105쎯	-10.8415
65621쎯63921쎯	-10.8416
351쎯	-10.8419
63219쎯40021쎯	-10.8428
5쎯42649쎯79303쎯	-10.8429
64874쎯58692쎯	-10.843
62474쎯41655쎯	-10.8432
32403쎯32403쎯	-10.8433
39809쎯78973쎯	-10.8433
13840쎯	-10.8435
46553쎯63962쎯	-10.8437
59079쎯75547쎯	-10.844
43782쎯	-10.844
72545쎯53575쎯	-10.8441
79508쎯49939쎯	-10.8442
16227쎯	-10.8447
38690쎯79786쎯	-10.845
▁쎯56544쎯	-10.845
《쎯36944쎯42332쎯	-10.8451
72309쎯51314쎯	-10.8452
59288쎯69377쎯	-10.8453
57655쎯73352쎯	-10.8456
53510쎯58571쎯	-10.8457
1쎯0쎯60833쎯	-10.8459
19495쎯	-10.846
63220쎯	-10.847
2쎯0쎯0쎯3쎯	-10.8472
29861쎯67246쎯	-10.8475
63014쎯78273쎯	-10.8477
17438쎯35636쎯	-10.8478
66449쎯	-10.848
17065쎯66915쎯	-10.8481
68648쎯	-10.8483
73570쎯47375쎯	-10.8483
26632쎯42482쎯	-10.8487
62645쎯23238쎯	-10.8487
75875쎯	-10.8488
▁쎯33596쎯57088쎯	-10.8488
16812쎯66590쎯	-10.8488
3쎯5쎯0쎯	-10.8493
79148쎯17600쎯	-10.8493
31598쎯43431쎯	-10.8495
53799쎯	-10.8495
63962쎯11832쎯	-10.8495
1쎯28642쎯	-10.8498
65780쎯33536쎯	-10.8498
5쎯72295쎯5쎯	-10.8504
38416쎯	-10.8509
13307쎯74275쎯	-10.8511
1쎯79754쎯	-10.8511
68298쎯	-10.8512
31151쎯	-10.8518
▁쎯20909쎯65621쎯	-10.852
54474쎯	-10.852
▁쎯63962쎯60127쎯	-10.852
14924쎯50252쎯	-10.8523
75547쎯48715쎯	-10.8523
73296쎯	-10.8523
78782쎯49548쎯	-10.8524
12183쎯	-10.8525
36616쎯	-10.8528
37714쎯57798쎯	-10.8529
78673쎯38652쎯	-10.853
51145쎯25658쎯	-10.853
73368쎯	-10.8531
”쎯79303쎯“쎯	-10.8533
74773쎯10772쎯75	-10.8536
872쎯56609쎯33436쎯	-10.8536
33483쎯	-10.8537
3쎯21594쎯	-10.8538
22951쎯54664쎯	-10.8538
29024쎯33945쎯	-10.854
35572쎯55132쎯	-10.8544
2쎯72295쎯3쎯	-10.8546
12078쎯63962쎯	-10.8546
11094쎯	-10.8552
51651쎯	-10.8554
42649쎯65582쎯	-10.8555
14141쎯58991쎯	-10.8556
19109쎯49089쎯	-10.8557
38767쎯80792쎯	-10.8559
22375쎯	-10.8562
79046쎯18315쎯	-10.8562
73904쎯74899쎯	-10.8564
506쎯	-10.8565
20159쎯20159쎯	-10.8566
892쎯	-10.8567
49089쎯27859쎯	-10.8568
547쎯51087쎯21962쎯	-10.8568
36125쎯	-10.857
4712	-10.857
0쎯48205쎯	-10.8572
45204쎯	-10.8575
(쎯1쎯)쎯	-10.8575
22197쎯28907쎯	-10.8576
16451쎯33013쎯	-10.8581
29879쎯	-10.8581
1쎯9쎯0쎯	-10.8583
12078쎯14154쎯	-10.8584
39149쎯80459쎯	-10.8586
14088쎯21962쎯	-10.8588
43325쎯	-10.8589
52160쎯78973쎯	-10.859
68846쎯75251쎯	-10.8591
22625쎯56956쎯	-10.8592
79872쎯76979쎯	-10.8593
54974쎯71948쎯	-10.8594
46541쎯74899쎯	-10.8595
20827쎯17232쎯	-10.8596
79872쎯42649쎯	-10.8598
41698쎯	-10.86
62090쎯37638쎯	-10.86
27897쎯14798쎯	-10.8602
25841쎯27082쎯	-10.8603
28773쎯42649쎯	-10.8604
42024쎯66667쎯	-10.8605
55121쎯3쎯1쎯14924쎯	-10.8605
22951쎯11635쎯	-10.8606
57489쎯68055쎯	-10.8606
41858쎯47791쎯75	-10.8607
22237쎯	-10.8607
31773쎯	-10.8609
34913쎯50699쎯	-10.8611
79872쎯22523쎯	-10.8613
62153쎯60833쎯	-10.8615
38577쎯51314쎯	-10.8616
57881쎯40819쎯	-10.8622
14924쎯13331쎯》쎯	-10.8622
27069쎯	-10.8622
28020쎯49089쎯	-10.8629
76573쎯76573쎯	-10.863
76316쎯42332쎯	-10.8635
5쎯55121쎯79303쎯	-10.8636
2쎯0쎯1쎯1쎯	-10.8636
63631쎯32825쎯	-10.8636
45856쎯76938쎯	-10.864
74132쎯14924쎯	-10.864
57158쎯51832쎯	-10.864
54178쎯52878쎯	-10.8641
▁쎯2쎯0쎯0쎯6쎯60833쎯	-10.8641
5쎯73211쎯	-10.8641
78536쎯63109쎯	-10.8643
▁쎯29308쎯	-10.8644
62676쎯	-10.8645
130쎯	-10.8646
74980쎯33958쎯	-10.8647
51013쎯13155쎯	-10.8648
70804쎯	-10.8653
19575쎯	-10.8656
41975쎯80435쎯	-10.8658
33458쎯	-10.866
42649쎯48643쎯4쎯	-10.8661
47160쎯79263쎯	-10.8661
▁쎯2쎯0쎯0쎯8쎯60833쎯	-10.8662
28020쎯37002쎯	-10.8663
46177쎯30058쎯	-10.8669
59908쎯	-10.867
38056쎯	-10.8672
55645쎯19167쎯	-10.8672
79902쎯12341쎯	-10.8672
49802쎯79322쎯	-10.8673
57133쎯28243쎯	-10.8674
15018쎯34852쎯	-10.8677
26435쎯51087쎯	-10.8682
33950쎯46289쎯53	-10.8683
4쎯69344쎯22218쎯	-10.8684
80425쎯	-10.8685
36385쎯57566쎯	-10.8685
20364쎯	-10.8686
1쎯2쎯5쎯	-10.8687
62123쎯《쎯	-10.8691
36096쎯27795쎯	-10.8691
36641쎯54110쎯	-10.8692
16209쎯69416쎯	-10.8693
18294쎯	-10.8694
33950쎯46553쎯	-10.8695
16453쎯19043쎯	-10.8697
55717쎯16460쎯	-10.87
56544쎯73211쎯	-10.8706
11628쎯56652쎯	-10.8707
▁쎯30222쎯21088쎯	-10.8709
41450쎯63962쎯	-10.871
53722쎯73352쎯	-10.8712
62795쎯11630쎯	-10.8714
17232쎯61368쎯	-10.8716
16035쎯23468쎯	-10.8716
76457쎯	-10.8717
57248쎯51013쎯	-10.8719
71554쎯75547쎯	-10.8721
9쎯55121쎯79303쎯	-10.8723
45851쎯33436쎯	-10.8725
71473쎯14882쎯	-10.8727
68454쎯16832쎯	-10.8727
39349쎯29274쎯	-10.873
73781쎯49089쎯	-10.8732
49089쎯45237쎯	-10.8734
28773쎯76736쎯	-10.8734
78973쎯21394쎯	-10.8735
41164쎯79872쎯	-10.8738
68281쎯	-10.8741
66876쎯36308쎯	-10.8743
7쎯42649쎯79303쎯	-10.8744
49802쎯49089쎯	-10.8745
21289쎯66876쎯	-10.8746
64211쎯5쎯	-10.8747
51013쎯37319쎯	-10.8747
9쎯55121쎯60127쎯	-10.8749
75547쎯53729쎯	-10.8754
27082쎯58401쎯	-10.8757
20839쎯78973쎯	-10.8758
66146쎯73625쎯	-10.8762
17600쎯20570쎯“쎯	-10.8762
693쎯	-10.8764
31486쎯20570쎯	-10.8764
78973쎯’쎯”쎯	-10.8766
13854쎯19109쎯	-10.8766
48853쎯	-10.8768
33436쎯47791쎯	-10.8769
(쎯)쎯49089쎯	-10.8769
31641쎯52054쎯	-10.877
73742쎯	-10.877
50642쎯36046쎯353	-10.8772
72309쎯73364쎯	-10.8777
19167쎯20570쎯	-10.8778
37002쎯51735쎯	-10.8782
15909쎯76739쎯	-10.8783
《쎯31598쎯60559쎯	-10.8786
78536쎯79303쎯	-10.8789
20570쎯1쎯0쎯	-10.8792
”쎯13735쎯35720쎯	-10.8794
39267쎯74275쎯	-10.8794
46625쎯	-10.8796
62818쎯50573쎯	-10.8798
42649쎯23331쎯	-10.8801
18523쎯44419쎯	-10.8801
17872쎯1쎯9쎯3쎯	-10.8802
66146쎯39725쎯	-10.8803
73570쎯46177쎯	-10.8805
41368쎯28664쎯	-10.8805
17215쎯34653쎯	-10.8806
189쎯	-10.8809
3쎯0쎯64661쎯30712쎯	-10.8809
20570쎯8쎯	-10.881
63631쎯66637쎯	-10.8812
(쎯10401쎯	-10.8818
37454쎯57566쎯	-10.8818
19043쎯43402쎯	-10.8819
66540쎯	-10.8819
27747쎯33633쎯	-10.8823
73680쎯22801쎯	-10.8823
22625쎯59344쎯	-10.8825
47057쎯	-10.8827
208쎯	-10.8827
62818쎯30682쎯	-10.8829
21962쎯29560쎯	-10.8835
62680쎯18325쎯	-10.8835
17661쎯48309쎯	-10.8837
73211쎯49089쎯	-10.8837
50865쎯42649쎯	-10.8838
28907쎯21088쎯	-10.884
78973쎯14137쎯	-10.8842
62474쎯40773쎯49	-10.8843
78707쎯20839쎯	-10.8844
4쎯56544쎯56544쎯	-10.8845
56314쎯	-10.8846
1563	-10.8849
53322쎯10488쎯	-10.885
53510쎯45600쎯	-10.8852
50699쎯	-10.8854
51013쎯19043쎯	-10.8855
60055쎯10535쎯	-10.8856
33450쎯	-10.8858
19135쎯62795쎯	-10.886
37002쎯33460쎯	-10.8863
10364쎯28261쎯	-10.8867
16455쎯36430쎯	-10.8868
79262쎯	-10.8869
1쎯0쎯8쎯	-10.8869
76182쎯62959쎯	-10.887
1쎯9쎯2쎯6쎯60833쎯	-10.8872
13307쎯45851쎯	-10.8877
64178쎯30867쎯	-10.8877
32542쎯40773쎯	-10.8879
26925쎯20839쎯	-10.8884
2쎯0쎯12267쎯62633쎯	-10.8885
49089쎯59344쎯	-10.8888
80435쎯64920쎯69	-10.889
12077쎯17058쎯	-10.8894
34601쎯61132쎯	-10.8894
40837쎯27747쎯	-10.8895
73364쎯45317쎯	-10.89
1쎯0쎯44737쎯1쎯0쎯0쎯	-10.89
62090쎯43431쎯	-10.8901
15506쎯80526쎯	-10.8902
2쎯1쎯40529쎯36651쎯	-10.8902
78973쎯”쎯62090쎯	-10.8904
21861쎯	-10.8905
▁쎯22867쎯37822쎯	-10.8906
47850쎯69416쎯	-10.8908
74980쎯44248쎯	-10.891
60022쎯73352쎯	-10.891
23845쎯79959쎯	-10.8912
42482쎯54441쎯	-10.8913
31625쎯31377쎯	-10.8915
39539쎯	-10.8915
13581쎯75547쎯	-10.8916
70206쎯27711쎯	-10.8916
31641쎯42986쎯	-10.8916
42094쎯51508쎯	-10.8918
18654쎯38577쎯	-10.8922
21248쎯49361쎯	-10.8926
5344	-10.8933
34449쎯31598쎯	-10.8937
47065쎯	-10.8937
33436쎯12587쎯	-10.894
19901쎯42234쎯	-10.8941
40088쎯43492쎯	-10.8942
40739쎯73781쎯	-10.8943
51400쎯33950쎯	-10.8943
33772쎯	-10.8945
58376쎯55327쎯	-10.8948
9쎯12267쎯62633쎯	-10.8949
17430쎯70985쎯	-10.8949
11851쎯36759쎯	-10.895
70985쎯79303쎯	-10.8953
12295쎯	-10.8953
40951쎯57226쎯	-10.8953
71135쎯22867쎯	-10.8957
50581쎯18431쎯	-10.8957
”쎯79303쎯51216쎯	-10.8958
13155쎯73904쎯	-10.8962
75547쎯76736쎯	-10.8962
26475쎯	-10.8963
72295쎯1쎯2쎯	-10.8963
56544쎯2쎯0쎯	-10.8966
18315쎯78973쎯	-10.8967
14325쎯49866쎯	-10.8967
6쎯72295쎯5쎯	-10.8969
758쎯	-10.8971
62612쎯	-10.8972
31978쎯	-10.8973
55777쎯27195쎯	-10.8974
51735쎯63219쎯	-10.8977
79872쎯67196쎯	-10.8981
54772쎯80049쎯	-10.8983
43854쎯27747쎯	-10.8983
44764쎯26671쎯	-10.8991
78495쎯	-10.8992
46346쎯20202쎯	-10.8993
68454쎯20909쎯	-10.8994
56161쎯59546쎯	-10.8998
13307쎯”쎯	-10.9
76316쎯66915쎯	-10.9002
22081쎯	-10.9004
54809쎯	-10.9005
23899쎯30217쎯	-10.9005
52457쎯64211쎯	-10.9008
6623	-10.9009
63686쎯40996쎯	-10.901
37638쎯68846쎯	-10.9012
52125쎯46955쎯	-10.9014
123쎯	-10.9017
16364쎯56777쎯	-10.9017
78782쎯40996쎯	-10.9018
827쎯	-10.9019
73906쎯	-10.9019
14536쎯38241쎯	-10.9019
30673쎯43901쎯	-10.9025
40773쎯62747쎯	-10.9026
47202쎯	-10.9029
(쎯43402쎯11216쎯	-10.903
64395쎯20159쎯	-10.9031
77103쎯75547쎯	-10.9032
16612쎯17661쎯	-10.9033
33436쎯”쎯	-10.9037
37955쎯42649쎯	-10.9037
221쎯	-10.9037
75580쎯35302쎯	-10.9037
77508쎯	-10.9049
20202쎯46979쎯	-10.9049
61132쎯15438쎯	-10.905
65582쎯70834쎯	-10.905
8쎯55121쎯79303쎯	-10.905
32542쎯35601쎯	-10.9054
38834쎯57133쎯	-10.9054
53656쎯13331쎯	-10.9056
37194쎯74849쎯	-10.9056
52206쎯	-10.9057
20680쎯46320쎯	-10.9057
38223쎯39824쎯	-10.9058
27378쎯72389쎯	-10.9061
36398쎯	-10.9065
2쎯0쎯0쎯21594쎯	-10.9065
73245쎯	-10.9066
21088쎯28907쎯	-10.9068
73638쎯78398쎯	-10.907
78006쎯39725쎯	-10.9077
37124쎯	-10.9077
48172쎯41470쎯	-10.9078
76736쎯79303쎯	-10.9079
56544쎯1쎯0쎯	-10.9081
12267쎯60637쎯	-10.9083
57133쎯20909쎯	-10.9086
45851쎯22503쎯	-10.9088
39339쎯18058쎯	-10.9088
11181쎯	-10.9092
24419쎯75547쎯	-10.9092
《쎯42332쎯11630쎯	-10.9092
28396쎯50337쎯	-10.9092
17001쎯	-10.9094
61026쎯49089쎯	-10.9094
17282쎯52583쎯	-10.9096
45202쎯	-10.9099
53729쎯64124쎯	-10.9099
62530쎯)쎯	-10.91
45851쎯46553쎯	-10.9101
73352쎯76795쎯	-10.9103
40951쎯21491쎯	-10.9104
46289쎯22520쎯	-10.9105
30399쎯71948쎯	-10.9107
79872쎯56609쎯	-10.9109
2쎯73211쎯	-10.9111
42418쎯	-10.9112
3쎯69344쎯22218쎯	-10.9113
19802쎯49089쎯	-10.9114
1쎯73211쎯	-10.9114
58323쎯	-10.9115
32901쎯27195쎯	-10.9116
67196쎯52750쎯	-10.9118
49089쎯42094쎯	-10.9119
66146쎯14536쎯	-10.912
39149쎯55645쎯	-10.912
50647쎯	-10.912
23339쎯74899쎯	-10.912
1쎯72295쎯7쎯	-10.9121
14137쎯52160쎯	-10.9123
39725쎯80	-10.9124
10772쎯41470쎯	-10.9124
60052쎯27551쎯	-10.9124
602쎯35250쎯54273쎯	-10.9132
242쎯	-10.9134
10535쎯56789쎯	-10.9136
42649쎯46488쎯	-10.9137
28020쎯78398쎯	-10.9137
16751쎯28020쎯	-10.9137
5쎯15253쎯23356쎯	-10.9138
79949쎯	-10.914
53719쎯36944쎯	-10.9141
70183쎯38961쎯	-10.9143
56789쎯20570쎯	-10.9144
80506쎯62633쎯	-10.915
22625쎯24720쎯	-10.915
58376쎯20614쎯	-10.9152
9쎯42649쎯79303쎯	-10.9154
199쎯	-10.9154
42094쎯37319쎯	-10.9155
19882쎯56032쎯	-10.9155
〉	-10.9158
17086쎯56146쎯	-10.9159
62795쎯31598쎯	-10.9159
41347쎯76573쎯	-10.916
23617쎯	-10.916
483쎯	-10.9161
48644쎯64211쎯	-10.9162
23827쎯74275쎯	-10.9166
18807쎯35720쎯	-10.9167
53203쎯32508쎯	-10.9168
〈	-10.9172
33950쎯63962쎯4864	-10.9173
66224쎯57630쎯	-10.9173
37327쎯	-10.9175
14538쎯37518쎯	-10.9177
59548쎯75108쎯	-10.9179
62814쎯44419쎯	-10.918
18703쎯33013쎯	-10.918
74346쎯	-10.9181
23356쎯74899쎯	-10.9181
28773쎯18429쎯	-10.9184
13505쎯	-10.9184
32750쎯	-10.9184
29383쎯23486쎯	-10.9185
71395쎯45640쎯	-10.9186
79046쎯68084쎯	-10.919
63705쎯	-10.9192
21394쎯25989쎯	-10.9192
44248쎯15184쎯	-10.9194
68609쎯	-10.9194
39369쎯	-10.9198
42024쎯	-10.9198
51013쎯45851쎯	-10.9201
48172쎯59281쎯	-10.9201
51413쎯	-10.9202
32489쎯43431쎯	-10.9204
31314쎯	-10.9208
11079쎯45851쎯	-10.9209
40367쎯20159쎯	-10.921
27157쎯	-10.9214
25849쎯41127쎯	-10.9215
61239쎯74899쎯	-10.9219
11049쎯34859쎯	-10.9223
▁쎯2쎯0쎯0쎯7쎯60833쎯	-10.9223
16737쎯77687쎯	-10.9224
56161쎯41164쎯	-10.9226
35153쎯23457쎯	-10.9228
73781쎯42261쎯	-10.9229
8쎯55121쎯60127쎯	-10.9233
67943쎯19167쎯	-10.9233
15317쎯32901쎯	-10.9234
49089쎯57881쎯	-10.9235
51087쎯62474쎯	-10.924
75108쎯21491쎯	-10.9241
65780쎯75547쎯	-10.9242
74040쎯	-10.9243
46320쎯28261쎯	-10.9247
8쎯31486쎯	-10.9248
51621쎯42669쎯	-10.9248
76919쎯28664쎯	-10.9249
42086쎯43691쎯	-10.9251
24500쎯74899쎯	-10.9253
36944쎯55777쎯	-10.9255
19457쎯32828쎯	-10.9258
38396쎯	-10.9259
64124쎯45851쎯	-10.9262
74840쎯56304쎯	-10.9263
33343쎯79046쎯	-10.9266
76776쎯63686쎯	-10.9267
51637쎯	-10.9268
38380쎯65292쎯	-10.9271
11191쎯	-10.9273
194쎯	-10.9274
▁쎯20570쎯9쎯7쎯8쎯7쎯	-10.9278
20348쎯77687쎯	-10.9278
5953	-10.9279
21966쎯63916쎯	-10.9279
68096쎯58376쎯	-10.9281
21394쎯20839쎯	-10.9282
50826쎯17086쎯	-10.9282
19873쎯	-10.9283
27662쎯44442쎯	-10.929
26435쎯25658쎯	-10.9295
55132쎯	-10.9297
40459쎯50881쎯	-10.93
65621쎯62795쎯	-10.9301
16751쎯34349쎯	-10.9304
11630쎯17005쎯	-10.9304
14199쎯40501쎯	-10.9305
6쎯55121쎯79303쎯	-10.9306
54988쎯54988쎯	-10.9306
62795쎯73352쎯	-10.9309
74909쎯51216쎯	-10.9309
33504쎯48644쎯	-10.931
17507쎯	-10.9311
73781쎯75108쎯	-10.9313
64367쎯37995쎯	-10.9314
10555쎯63916쎯	-10.9314
2쎯58692쎯	-10.9316
35102쎯	-10.9317
10739쎯	-10.9321
”쎯57702쎯	-10.9323
24720쎯60833쎯	-10.9327
80792쎯36063쎯	-10.9328
57702쎯66417쎯	-10.9329
23840쎯	-10.9331
21394쎯55623쎯	-10.9332
35641쎯74715쎯	-10.9334
11628쎯28261쎯	-10.9336
22625쎯14868쎯	-10.9336
75868쎯46177쎯	-10.9341
1733	-10.9342
33436쎯49089쎯	-10.9344
29327쎯42649쎯	-10.9345
75233쎯12476쎯	-10.9345
59544쎯26671쎯	-10.9349
40837쎯67690쎯	-10.9354
70526쎯64178쎯	-10.9356
16620쎯17661쎯	-10.9356
37492쎯20202쎯	-10.9358
72988쎯46512쎯	-10.9358
51996쎯	-10.936
77239쎯76979쎯	-10.9361
44141쎯57566쎯	-10.9362
29327쎯60127쎯	-10.9363
74980쎯28020쎯	-10.9364
8쎯35447쎯23356쎯	-10.9367
20111쎯	-10.9369
51400쎯39349쎯	-10.9371
▁쎯64704쎯	-10.9375
1쎯0쎯55121쎯79303쎯	-10.9377
79872쎯53152쎯	-10.9378
49639쎯61050쎯	-10.9379
31773쎯62090쎯	-10.9382
20827쎯60312쎯	-10.9385
▁쎯2쎯0쎯0쎯9쎯60833쎯	-10.9387
50865쎯70026쎯	-10.9393
71685쎯75547쎯	-10.9394
▁쎯71903쎯37822쎯	-10.9396
21491쎯29327쎯	-10.9401
56255쎯	-10.9404
79872쎯38701쎯	-10.9406
67350쎯27195쎯	-10.9407
49639쎯21594쎯	-10.9408
69408쎯	-10.9408
39103쎯61642쎯	-10.9409
39696쎯	-10.941
36944쎯77687쎯	-10.9413
′	-10.9417
2쎯0쎯0쎯23356쎯	-10.9418
48759쎯75547쎯	-10.9421
17807쎯35720쎯	-10.9422
10531쎯	-10.9423
70490쎯	-10.9424
35346쎯12078쎯	-10.9425
79754쎯1쎯	-10.9428
41629쎯33483쎯	-10.9428
332쎯	-10.9429
32505쎯65542쎯	-10.9432
18673쎯61023쎯	-10.9435
68105쎯76938쎯	-10.9436
56661쎯22922쎯	-10.9438
661쎯18939쎯20570쎯	-10.9442
80157쎯	-10.9443
72397쎯56983쎯	-10.9444
72536쎯66159쎯	-10.9447
60989쎯72545쎯	-10.9447
65680쎯	-10.945
61344쎯35641쎯	-10.9453
21940쎯	-10.9454
65550쎯21088쎯	-10.9458
60637쎯41975쎯	-10.9459
62680쎯73781쎯	-10.9462
68454쎯47210쎯	-10.9463
027쎯	-10.9463
13735쎯25286쎯	-10.9465
30332쎯	-10.9466
58953쎯43299쎯	-10.9467
63389쎯	-10.9468
63366쎯76412쎯	-10.9469
46955쎯	-10.9469
16424쎯	-10.947
57922쎯79303쎯	-10.9473
31054쎯36096쎯	-10.9475
▁쎯33596쎯57088쎯64	-10.9476
28350쎯50337쎯	-10.9479
57881쎯61132쎯	-10.948
44889쎯35302쎯	-10.9481
45293쎯	-10.9482
22867쎯55231쎯	-10.9484
62187쎯18483쎯	-10.9489
48309쎯55805쎯	-10.9489
48644쎯62474쎯	-10.949
30199쎯22218쎯	-10.9492
21962쎯10235쎯	-10.9492
15236쎯60670쎯	-10.9494
53140쎯18840쎯	-10.9495
62818쎯77687쎯	-10.9495
43쎯	-10.9496
71004쎯12876쎯	-10.9499
21962쎯53729쎯	-10.9502
18374쎯	-10.9502
25108쎯35280쎯	-10.9504
79872쎯22218쎯	-10.9506
18431쎯35864쎯	-10.9507
38881쎯20839쎯	-10.9508
55861쎯43707쎯	-10.9508
32542쎯56245쎯	-10.9514
22428쎯71752쎯	-10.9517
75547쎯10012쎯2196	-10.9518
55957쎯74849쎯	-10.9519
66915쎯25469쎯	-10.9522
43960쎯1쎯	-10.9523
49083쎯60559쎯733	-10.9523
21503쎯45600쎯	-10.9524
33462쎯	-10.9527
14868쎯17232쎯	-10.9528
79303쎯35302쎯	-10.9529
20680쎯20460쎯	-10.9529
20057쎯37898쎯	-10.9533
)쎯79303쎯51216쎯	-10.9534
677쎯	-10.954
4435	-10.954
49463쎯47431쎯	-10.9543
41989쎯51087쎯	-10.9544
41975쎯68055쎯	-10.9544
73쎯	-10.9544
38961쎯38013쎯	-10.9549
78792쎯58176쎯	-10.955
66058쎯	-10.955
2쎯0쎯0쎯5쎯	-10.955
52457쎯25286쎯	-10.9551
19457쎯57566쎯	-10.9555
16209쎯19043쎯	-10.9558
22625쎯18939쎯	-10.9562
27766쎯	-10.9563
42094쎯19043쎯	-10.9564
094쎯	-10.9565
990쎯	-10.9565
42103쎯20159쎯	-10.9568
19043쎯51400쎯	-10.9568
75480쎯	-10.9569
33274쎯	-10.957
42849쎯25108쎯	-10.9573
016쎯	-10.9574
1쎯0쎯2쎯4쎯	-10.9575
38624쎯37995쎯	-10.9575
”쎯)쎯	-10.9576
61676쎯	-10.9578
56556쎯	-10.958
59133쎯72389쎯	-10.9582
36129쎯	-10.9583
36150쎯66667쎯	-10.9583
38624쎯64178쎯	-10.9584
80049쎯39725쎯	-10.9585
69634쎯	-10.9586
11093쎯66279쎯	-10.9588
60371쎯74512쎯	-10.9592
53677쎯	-10.9594
73570쎯43921쎯	-10.9596
22584쎯23339쎯	-10.9596
79303쎯15877쎯	-10.9598
61184쎯40521쎯	-10.9599
940쎯	-10.9599
60637쎯21088쎯	-10.9602
77687쎯53575쎯	-10.9603
33945쎯48497쎯	-10.9603
38380쎯63921쎯	-10.9603
61026쎯22544쎯	-10.9604
43225쎯18655쎯	-10.9605
37107쎯47819쎯6940	-10.9606
49080쎯66667쎯	-10.9609
18807쎯	-10.9612
67215쎯21394쎯	-10.9613
56830쎯	-10.9613
27362쎯	-10.9616
37009쎯	-10.9617
33950쎯63878쎯	-10.962
48497쎯79872쎯	-10.9621
42094쎯29383쎯	-10.9623
23052쎯	-10.9624
37714쎯35572쎯	-10.9626
10443쎯65864쎯	-10.9627
19109쎯33596쎯	-10.9631
36550쎯73637쎯	-10.9632
9쎯31486쎯	-10.9633
▁쎯60022쎯35311쎯	-10.9634
28261쎯67828쎯	-10.9634
38577쎯15326쎯	-10.9635
79872쎯74512쎯	-10.9635
57179쎯74275쎯	-10.9635
56661쎯26896쎯	-10.9637
22523쎯19043쎯	-10.964
22732쎯	-10.964
)쎯79303쎯57702쎯	-10.964
63892쎯74512쎯	-10.9641
17703쎯	-10.9642
21594쎯61050쎯	-10.9645
44248쎯26925쎯	-10.9645
23339쎯63962쎯	-10.9646
23671쎯69405쎯	-10.9649
21966쎯74715쎯	-10.965
21951쎯21394쎯	-10.965
73400쎯72296쎯	-10.9653
1쎯42649쎯	-10.9655
47575쎯79766쎯	-10.9655
65864쎯22428쎯	-10.9657
64874쎯1쎯8쎯	-10.9659
23845쎯34124쎯	-10.9661
71997쎯61239쎯	-10.9666
44737쎯72295쎯	-10.9668
63962쎯25989쎯	-10.9674
49089쎯27378쎯	-10.9675
64395쎯79322쎯	-10.9676
16488쎯50363쎯	-10.9677
19043쎯68909쎯9쎯	-10.9677
73570쎯58768쎯	-10.9679
27023쎯23950쎯	-10.9679
1쎯5쎯0쎯0쎯	-10.968
17720쎯68673쎯	-10.9681
11093쎯	-10.9684
37638쎯33504쎯	-10.9685
45237쎯30233쎯	-10.9686
55949쎯65864쎯	-10.9688
73637쎯60022쎯	-10.9689
60670쎯73015쎯	-10.9691
829쎯	-10.9692
57226쎯21962쎯	-10.9693
1쎯0쎯5쎯	-10.9693
30986쎯22544쎯	-10.9693
46979쎯62474쎯	-10.9694
48759쎯45851쎯	-10.9695
28642쎯	-10.9696
13735쎯33596쎯	-10.9697
38624쎯20202쎯	-10.9697
72371쎯50072쎯	-10.9697
29830쎯21962쎯	-10.9704
68454쎯15909쎯	-10.9705
69908쎯49802쎯	-10.9706
33720쎯42649쎯	-10.9707
29079쎯	-10.9708
78800쎯61910쎯	-10.9711
20978쎯	-10.9713
63005쎯	-10.9715
16832쎯50337쎯	-10.9718
1쎯73638쎯	-10.9719
75547쎯33945쎯	-10.9722
3쎯72295쎯2쎯	-10.9722
37091쎯13262쎯	-10.9722
13735쎯35720쎯	-10.9722
11079쎯45551쎯	-10.9722
1쎯8쎯8쎯	-10.9723
73374쎯18000쎯	-10.9726
42669쎯47232쎯	-10.9727
1쎯55121쎯60127쎯	-10.9727
11825쎯	-10.973
52376쎯56161쎯	-10.9733
75109쎯48497쎯	-10.9737
24940쎯34091쎯	-10.9741
71685쎯65621쎯“쎯	-10.9742
46320쎯56609쎯	-10.9742
80334쎯52878쎯	-10.9743
33087쎯65542쎯	-10.9744
33596쎯21088쎯	-10.9745
24401쎯41655쎯	-10.9746
1971	-10.9746
79303쎯52583쎯	-10.9747
45133쎯	-10.9747
13607쎯35720쎯	-10.9748
60898쎯	-10.9751
54733쎯	-10.9751
1쎯44737쎯	-10.9754
4쎯35447쎯23356쎯	-10.9755
557쎯	-10.9758
》쎯51216쎯57107쎯	-10.9761
3쎯55121쎯79303쎯	-10.9762
78164쎯	-10.9764
80596쎯37995쎯	-10.9764
53510쎯56609쎯	-10.9766
18025쎯》쎯	-10.9767
505쎯58571쎯49288쎯	-10.9769
23486쎯68428쎯	-10.977
60127쎯76237쎯	-10.977
38380쎯57655쎯	-10.9771
72295쎯0쎯0쎯41858쎯	-10.9772
21951쎯16238쎯	-10.9775
655쎯	-10.9776
44493쎯18429쎯	-10.9777
▁쎯71294쎯41470쎯	-10.9778
78800쎯76795쎯	-10.9782
54664쎯78536쎯	-10.9784
15965쎯47169쎯	-10.9785
▁쎯48811쎯15349쎯	-10.9785
9쎯0쎯60833쎯74275쎯	-10.9786
64125쎯	-10.9791
53729쎯39349쎯	-10.9791
32819쎯27897쎯	-10.9792
49861쎯79148쎯《쎯	-10.9796
649쎯60637쎯42037쎯	-10.9797
17602쎯34613쎯	-10.9798
74980쎯52750쎯	-10.9798
1쎯2쎯55121쎯40088쎯	-10.9799
7쎯69344쎯22218쎯	-10.98
50160쎯	-10.9801
67908쎯41127쎯	-10.9804
52528쎯	-10.9806
1쎯5쎯12267쎯62633쎯	-10.9808
61936쎯30795쎯	-10.9808
73364쎯54472쎯	-10.9812
71591쎯77114쎯	-10.9812
20202쎯65462쎯	-10.9813
15877쎯76739쎯	-10.9813
12267쎯30399쎯(쎯	-10.9816
56789쎯47791쎯	-10.9817
39385쎯	-10.9823
30232쎯34613쎯	-10.9823
73211쎯43960쎯	-10.9825
46346쎯37995쎯	-10.9829
526쎯14536쎯30682쎯	-10.983
16016쎯16016쎯	-10.9836
26253쎯37175쎯	-10.9836
21594쎯62633쎯	-10.984
43792쎯73023쎯	-10.984
39339쎯72309쎯	-10.9841
51618쎯40304쎯	-10.9842
37107쎯58991쎯	-10.9843
28104쎯	-10.9843
32172쎯70834쎯	-10.9844
71752쎯31697쎯	-10.9845
33596쎯69405쎯	-10.9846
(쎯57248쎯10773쎯	-10.9847
71903쎯19167쎯	-10.9849
446쎯	-10.9849
11838쎯	-10.9855
79872쎯22633쎯	-10.9856
52204쎯73637쎯	-10.9858
80392쎯	-10.9858
70834쎯69416쎯	-10.9862
10697쎯39349쎯	-10.9864
23779쎯75265쎯	-10.9864
68069쎯	-10.9865
46545쎯62123쎯	-10.9867
28773쎯46320쎯	-10.9869
20542쎯18840쎯	-10.987
0쎯0쎯57881쎯42649쎯	-10.9871
8쎯0쎯2쎯72295쎯3쎯	-10.9873
28198쎯	-10.9874
80334쎯78973쎯	-10.9875
57881쎯42649쎯	-10.9878
78168쎯79303쎯	-10.9879
79805쎯58509쎯	-10.9881
53964쎯	-10.9883
166쎯	-10.9884
61729쎯	-10.9887
45534쎯14798쎯	-10.9889
403쎯	-10.9894
24366쎯	-10.9896
70526쎯76542쎯	-10.9896
72580쎯12372쎯	-10.9899
49374쎯	-10.9901
3쎯0쎯60833쎯	-10.9904
27023쎯75050쎯	-10.9907
42649쎯55318쎯24	-10.9913
51813쎯18250쎯	-10.9913
58571쎯41347쎯	-10.9914
79057쎯60022쎯	-10.9915
38934쎯53270쎯	-10.9916
4163	-10.9916
12078쎯43460쎯	-10.9917
19043쎯68909쎯1쎯2쎯	-10.9918
18431쎯57566쎯	-10.992
38603쎯75547쎯	-10.9921
77687쎯43963쎯	-10.9923
10401쎯51216쎯	-10.9923
68866쎯15877쎯	-10.9924
71389쎯53575쎯	-10.9927
70865쎯49826쎯	-10.9927
50642쎯19109쎯	-10.9927
11799쎯	-10.9928
48600쎯52705쎯	-10.9929
3쎯42649쎯	-10.9931
41858쎯10488쎯	-10.9932
45268쎯	-10.9932
62313쎯56153쎯	-10.9935
38690쎯	-10.9936
40459쎯20091쎯	-10.9938
15048쎯	-10.9942
28686쎯	-10.9944
17600쎯34091쎯	-10.9949
7754	-10.9949
21503쎯57158쎯	-10.9951
22625쎯52878쎯	-10.9952
27378쎯78536쎯	-10.9955
331쎯	-10.9957
62001쎯34193쎯	-10.9959
69291쎯39725쎯	-10.9967
25258쎯	-10.9969
47575쎯22325쎯	-10.997
056쎯	-10.997
53729쎯56161쎯	-10.9971
1152	-10.9974
51400쎯54448쎯	-10.9974
65294쎯	-10.9975
79303쎯62123쎯	-10.9976
46374쎯53729쎯	-10.9977
28441쎯49939쎯	-10.998
76736쎯58194쎯	-10.9981
45851쎯48497쎯	-10.9983
64248쎯	-10.9987
57630쎯55121쎯	-10.9988
53498쎯	-10.9989
60225쎯51426쎯	-10.999
19882쎯57133쎯	-10.9995
53472쎯48497쎯	-10.9998
22218쎯55623쎯	-10.9998
42649쎯37955쎯	-11.0001
쎯―쎯	-11.0002
53203쎯20278쎯	-11.0003
63916쎯15877쎯	-11.0004
79019쎯80242쎯	-11.0005
58876쎯	-11.0007
50642쎯55623쎯	-11.0007
47062쎯58643쎯	-11.0008
37714쎯58194쎯	-11.0009
753쎯	-11.0009
16812쎯54974쎯	-11.0012
77687쎯50823쎯	-11.0016
2쎯0쎯21594쎯	-11.0017
15326쎯38013쎯	-11.0018
63916쎯33504쎯	-11.002
1쎯8쎯9쎯	-11.0023
51216쎯48811쎯	-11.0023
58514쎯	-11.0023
72933쎯	-11.0024
43697쎯15326쎯	-11.0025
(쎯1쎯8쎯	-11.0025
35837쎯10488쎯	-11.0027
3쎯28642쎯	-11.0029
1쎯44737쎯3쎯	-11.003
271쎯	-11.0034
78944쎯	-11.0035
60784쎯62633쎯	-11.0035
17649쎯	-11.0037
66746쎯52956쎯》쎯	-11.0038
38321쎯12348쎯	-11.0039
18455쎯	-11.0042
76552쎯79303쎯	-11.0045
49211쎯66622쎯	-11.0045
4쎯5쎯0쎯	-11.0047
802쎯	-11.0047
68469쎯	-11.0049
64874쎯2쎯73211쎯	-11.0049
17602쎯37822쎯	-11.0051
55121쎯29307쎯	-11.0051
2쎯55121쎯60127쎯	-11.0052
71241쎯	-11.0052
20348쎯29275쎯	-11.0053
53722쎯10488쎯	-11.0057
36820쎯19109쎯	-11.0058
66698쎯	-11.0059
17865쎯53673쎯	-11.0064
27662쎯42649쎯	-11.0064
46177쎯40970쎯	-11.0064
48715쎯74077쎯	-11.0065
24757쎯41677쎯	-11.0066
10772쎯74899쎯	-11.0068
44248쎯76795쎯	-11.0069
62818쎯32130쎯	-11.0071
19043쎯23779쎯	-11.0071
7쎯0쎯60833쎯74275쎯	-11.0072
68454쎯20591쎯	-11.0074
683쎯	-11.0074
23331쎯62474쎯	-11.0076
22412쎯21686쎯	-11.0077
48273쎯57248쎯	-11.0078
0쎯72295쎯0쎯0쎯	-11.0081
1쎯0쎯62153쎯	-11.0082
55645쎯3쎯	-11.0083
40459쎯40088쎯	-11.0084
20159쎯29560쎯	-11.0085
79872쎯12899쎯	-11.0088
63962쎯25286쎯	-11.0089
68357쎯	-11.0089
5쎯0쎯0쎯23356쎯	-11.0094
21584쎯	-11.0095
21906쎯20364쎯	-11.0098
19342쎯	-11.0099
12553쎯12553쎯	-11.0101
38321쎯35720쎯	-11.0103
76979쎯54974쎯	-11.0105
64554쎯	-11.0107
50586쎯	-11.0113
42649쎯19167쎯	-11.0116
56622쎯43133쎯	-11.0117
2쎯0쎯62153쎯19496쎯	-11.0117
(쎯54772쎯	-11.0119
80374쎯	-11.0121
42261쎯61132쎯	-11.0123
49628쎯35864쎯	-11.0123
72236쎯23779쎯	-11.0124
30233쎯49089쎯	-11.0126
52160쎯21088쎯	-11.0126
38165쎯	-11.0126
46834쎯60670쎯	-11.0127
23899쎯19167쎯	-11.0127
▁쎯5쎯	-11.0127
23331쎯35572쎯	-11.0128
74899쎯22761쎯	-11.0141
901쎯79766쎯56153쎯	-11.0142
▁쎯54772쎯40088쎯	-11.0146
4쎯58692쎯	-11.0149
54885쎯	-11.0152
3쎯55121쎯60127쎯	-11.0154
2쎯72295쎯6쎯	-11.0155
62183쎯48497쎯	-11.0155
37714쎯73364쎯	-11.0155
42662쎯14265쎯	-11.0157
25658쎯17770쎯	-11.0164
33950쎯0쎯22847쎯	-11.0164
36632쎯66876쎯	-11.0166
51400쎯75447쎯	-11.0168
1쎯0쎯56544쎯	-11.0171
▁쎯11658쎯52132쎯	-11.0174
19802쎯74715쎯	-11.0174
39419쎯	-11.0174
16453쎯35636쎯	-11.0179
19020쎯42482쎯	-11.0181
51618쎯	-11.0186
58401쎯	-11.0189
6쎯31486쎯	-11.0191
49361쎯57226쎯	-11.0193
60304쎯27195쎯	-11.0195
6쎯73211쎯	-11.0195
19109쎯75547쎯	-11.0195
78819쎯75371쎯	-11.0196
40837쎯36903쎯	-11.0197
21962쎯52705쎯	-11.02
74706쎯	-11.0201
1쎯9쎯2쎯5쎯60833쎯	-11.0201
19362쎯68313쎯	-11.0201
40367쎯60345쎯	-11.0203
72898쎯69619쎯	-11.0205
46541쎯23331쎯	-11.0205
109쎯	-11.0208
48770쎯37931쎯	-11.0209
49650쎯	-11.021
42094쎯68454쎯	-11.0212
18573쎯	-11.0214
49089쎯32542쎯	-11.0215
34800쎯	-11.0223
11536쎯	-11.0224
22709쎯49202쎯	-11.0226
60371쎯49083쎯	-11.0226
31377쎯	-11.0228
315쎯79766쎯33596쎯	-11.0234
44419쎯39349쎯	-11.0235
79303쎯62471쎯	-11.0236
53815쎯	-11.0236
76591쎯74773쎯	-11.0237
7쎯55121쎯79303쎯	-11.0238
▁쎯2쎯0쎯1쎯0쎯60833쎯	-11.0241
42849쎯38701쎯	-11.0242
16209쎯34091쎯	-11.0244
60833쎯55121쎯	-11.0244
21394쎯27747쎯	-11.0244
35328쎯	-11.0244
80794쎯12295쎯	-11.0247
30682쎯71004쎯	-11.0248
75686쎯71004쎯	-11.0248
26945쎯	-11.0248
57566쎯75108쎯	-11.0248
4쎯42649쎯	-11.0248
10047쎯10047쎯	-11.0248
53823쎯54544쎯	-11.025
57881쎯53729쎯	-11.025
53627쎯	-11.0252
28396쎯59344쎯	-11.0257
60637쎯46224쎯	-11.0265
11520쎯	-11.0267
56472쎯”쎯	-11.0268
13735쎯24700쎯	-11.0276
962쎯79188쎯43492쎯	-11.0276
2쎯74899쎯46278쎯21	-11.0277
1쎯0쎯55121쎯63962쎯	-11.0278
53510쎯55121쎯	-11.0281
57566쎯36308쎯	-11.0281
69344쎯67196쎯	-11.0282
457쎯	-11.0282
22761쎯60127쎯	-11.0284
77922쎯51400쎯	-11.0285
8쎯28642쎯	-11.0286
28261쎯19109쎯	-11.0286
40600쎯26896쎯	-11.0287
79303쎯29024쎯	-11.0289
79766쎯20909쎯	-11.029
33934쎯35864쎯	-11.0292
22526쎯73904쎯	-11.0295
10599쎯46541쎯	-11.0295
69344쎯36455쎯	-11.0299
424쎯	-11.0299
51013쎯29383쎯	-11.0303
62474쎯20879쎯57	-11.0306
55717쎯11864쎯	-11.0307
80435쎯16603쎯69	-11.0308
30232쎯	-11.0308
73570쎯47431쎯	-11.0309
51400쎯57158쎯	-11.0309
14651쎯	-11.0312
14536쎯30682쎯1쎯	-11.0313
16812쎯20507쎯	-11.0314
503쎯	-11.0314
26435쎯21962쎯	-11.0319
337쎯	-11.0323
57158쎯65550쎯	-11.0325
21594쎯31697쎯	-11.033
20827쎯71903쎯	-11.0331
31598쎯》쎯	-11.0331
31887쎯30233쎯	-11.0334
▁쎯76059쎯	-11.0337
70490쎯57566쎯	-11.0337
44982쎯33258쎯	-11.0338
55949쎯42849쎯	-11.0338
65582쎯73570쎯	-11.034
72201쎯	-11.0341
19802쎯40996쎯	-11.0342
45851쎯28154쎯	-11.0343
73019쎯	-11.0343
31887쎯70985쎯	-11.0344
35346쎯56609쎯	-11.0344
57469쎯68428쎯	-11.0348
32581쎯42658쎯	-11.0353
64874쎯2쎯	-11.0354
16016쎯33504쎯	-11.0357
1쎯5쎯0쎯21594쎯	-11.0359
570쎯47210쎯60670쎯	-11.036
79303쎯74840쎯	-11.0361
79872쎯45851쎯	-11.0361
32581쎯72545쎯	-11.0361
52878쎯79303쎯	-11.0361
9쎯56544쎯	-11.0364
27686쎯	-11.0364
51879쎯	-11.0365
21861쎯80334쎯	-11.0365
71948쎯48497쎯	-11.0367
5쎯69344쎯22218쎯12	-11.0371
1쎯8쎯7쎯	-11.0371
20648쎯	-11.0376
20814쎯72397쎯	-11.0377
73570쎯27662쎯	-11.0377
1쎯57566쎯46699쎯1쎯	-11.0381
2쎯24720쎯	-11.0382
289쎯	-11.0383
69134쎯23601쎯	-11.0384
43697쎯29275쎯	-11.0385
71752쎯64124쎯	-11.0386
1쎯1쎯57630쎯	-11.0387
33525쎯	-11.0387
74237쎯	-11.0387
80789쎯14854쎯	-11.0388
35864쎯54178쎯	-11.0388
58376쎯67943쎯	-11.0389
9쎯44737쎯44737쎯	-11.0392
75074쎯28800쎯	-11.0395
4쎯55121쎯79303쎯	-11.0397
57040쎯80596쎯	-11.0398
72898쎯75049쎯	-11.0399
51984쎯17802쎯	-11.0402
31054쎯78762쎯	-11.0403
3쎯72295쎯1쎯	-11.0403
54472쎯80792쎯	-11.0404
《쎯29327쎯	-11.0405
16433쎯12341쎯	-11.0405
807쎯	-11.0412
1쎯9쎯40529쎯36651쎯	-11.0412
1쎯0쎯72295쎯	-11.0412
71752쎯23899쎯	-11.0414
73570쎯12829쎯	-11.0414
912쎯	-11.0415
80394쎯》쎯20570쎯“쎯	-11.0417
3쎯72295쎯6쎯	-11.0419
50435쎯57566쎯	-11.042
57088쎯10773쎯	-11.042
13999쎯12078쎯	-11.0421
37955쎯57133쎯	-11.0422
14592쎯23974쎯	-11.0422
20680쎯23356쎯	-11.0422
23993쎯42658쎯	-11.0423
49089쎯45003쎯	-11.0423
42649쎯24720쎯	-11.0425
73781쎯51087쎯	-11.0425
75868쎯75480쎯	-11.0426
19362쎯35641쎯	-11.0428
54305쎯19167쎯	-11.0429
47791쎯70834쎯	-11.0429
74512쎯79303쎯	-11.0432
12077쎯58409쎯	-11.0434
63962쎯22916쎯	-11.0434
40739쎯56146쎯	-11.0437
24298쎯	-11.0438
4쎯48205쎯	-11.0439
1쎯55121쎯1쎯14924쎯	-11.0441
13581쎯33536쎯	-11.0441
67483쎯47819쎯	-11.0443
51216쎯76059쎯	-11.0447
31724쎯23899쎯	-11.0448
38666쎯	-11.0448
15438쎯73147쎯	-11.045
54974쎯38644쎯	-11.045
70026쎯71752쎯	-11.0458
41164쎯24526쎯	-11.0459
79872쎯13155쎯	-11.0459
62090쎯37518쎯	-11.046
12348쎯20202쎯	-11.0461
54178쎯58713쎯	-11.0462
63591쎯	-11.0469
12299쎯79303쎯60	-11.0474
54178쎯)쎯	-11.0475
62680쎯17661쎯	-11.0475
46488쎯64046쎯	-11.0478
20392쎯44248쎯	-11.0478
71294쎯38961쎯	-11.0479
80242쎯48497쎯	-11.048
76795쎯21962쎯	-11.0484
14808쎯	-11.0486
3쎯73211쎯	-11.0486
49775쎯	-11.0487
8쎯0쎯28642쎯	-11.0494
31915쎯56337쎯	-11.0495
22197쎯46320쎯	-11.0495
52160쎯47356쎯	-11.0496
18483쎯47693쎯	-11.0499
23867쎯	-11.05
53510쎯72371쎯	-11.0504
37633쎯33958쎯	-11.0505
36944쎯57489쎯	-11.0505
44369쎯61050쎯	-11.0506
155	-11.0506
5368	-11.0507
8쎯72295쎯	-11.051
5쎯31486쎯	-11.0512
264쎯	-11.0512
22523쎯75108쎯	-11.0516
48728쎯	-11.0519
56146쎯61642쎯	-11.052
49202쎯11099쎯《쎯	-11.052
13787쎯75547쎯	-11.0524
31486쎯79303쎯	-11.0525
56488쎯44248쎯	-11.0525
62818쎯13854쎯	-11.0526
40052쎯	-11.0527
12307쎯45237쎯	-11.0532
18431쎯45851쎯	-11.0533
78201쎯	-11.0533
21091쎯14303쎯	-11.0536
42332쎯74275쎯	-11.0536
3쎯44737쎯	-11.0539
62123쎯63916쎯	-11.0539
79303쎯55318쎯	-11.0539
48313쎯	-11.054
524쎯49861쎯14798쎯	-11.0544
69344쎯22218쎯12	-11.0546
12267쎯79766쎯	-11.0547
33238쎯	-11.0547
51803쎯12111쎯	-11.055
39103쎯61050쎯	-11.0553
79872쎯19496쎯	-11.0554
1쎯0쎯0쎯23356쎯	-11.0558
54110쎯63109쎯	-11.0563
56609쎯65550쎯	-11.0564
49089쎯10697쎯	-11.0565
75868쎯37633쎯	-11.0566
55554쎯	-11.0567
57248쎯74909쎯	-11.0569
67734쎯55121쎯	-11.0569
21509쎯72126쎯	-11.0574
35881쎯57158쎯	-11.0574
《쎯》쎯	-11.0574
52750쎯33081쎯	-11.0576
64874쎯74132쎯	-11.0577
42094쎯73781쎯	-11.0579
35702쎯	-11.058
79303쎯77922쎯	-11.0585
3쎯72295쎯3쎯	-11.0585
36430쎯35864쎯	-11.0585
25520쎯	-11.0586
70889쎯26458쎯	-11.0587
73781쎯28907쎯	-11.0588
▁쎯12732쎯62795쎯	-11.0595
57248쎯15877쎯	-11.0595
21945쎯14406쎯	-11.0596
10047쎯46834쎯	-11.0597
22523쎯48643쎯	-11.0599
55121쎯74773쎯	-11.0599
6쎯23356쎯	-11.0599
73708쎯	-11.0601
49646쎯39725쎯	-11.0602
3832	-11.0603
404	-11.0604
44902쎯18683쎯	-11.0605
44737쎯3쎯	-11.0605
63029쎯50337쎯	-11.0605
44790쎯38013쎯	-11.0608
17005쎯74899쎯	-11.0609
53805쎯	-11.0609
76739쎯57566쎯	-11.0614
616쎯	-11.0616
28773쎯33596쎯	-11.0618
5쎯72295쎯2쎯	-11.0619
5쎯41858쎯79303쎯	-11.062
9쎯0쎯28642쎯	-11.0621
19167쎯18250쎯	-11.0621
47791쎯《쎯	-11.0622
078쎯	-11.0623
75686쎯73781쎯	-11.0627
70526쎯66876쎯	-11.0627
22625쎯36759쎯	-11.0627
79303쎯76479쎯	-11.063
70526쎯36868쎯	-11.0631
13155쎯54178쎯	-11.0631
70614쎯54178쎯	-11.0633
71674쎯	-11.0636
4376	-11.0641
28773쎯58757쎯	-11.0642
32410쎯26108쎯	-11.0649
77640쎯51216쎯	-11.0651
17872쎯17872쎯	-11.0654
27859쎯52659쎯	-11.0658
35311쎯36029쎯	-11.0659
66146쎯37955쎯	-11.066
26311쎯	-11.0662
12573쎯70823쎯	-11.0662
57655쎯49802쎯	-11.0663
10535쎯45317쎯	-11.0664
(쎯17438쎯	-11.0665
79872쎯78240쎯	-11.0665
45851쎯22218쎯	-11.0666
13735쎯10285쎯	-11.0666
4쎯73211쎯	-11.0666
22544쎯71843쎯	-11.0671
029쎯	-11.0675
28222쎯44442쎯	-11.0679
44248쎯50980쎯	-11.0679
42064쎯	-11.068
73876쎯	-11.0681
36602쎯23899쎯	-11.0684
42221쎯42482쎯	-11.0684
73151쎯	-11.0685
(쎯56544쎯)쎯	-11.0686
25043쎯	-11.0687
73781쎯12348쎯	-11.0689
54950쎯	-11.069
29861쎯11851쎯	-11.0691
58080쎯	-11.0693
27251쎯23601쎯	-11.0694
773쎯	-11.0696
60127쎯63878쎯	-11.0698
65621쎯76739쎯	-11.07
62743쎯	-11.07
50699쎯70026쎯	-11.0703
5쎯)쎯	-11.0705
51400쎯47902쎯	-11.0705
39028쎯	-11.0706
7쎯55121쎯70834쎯	-11.0707
23349쎯19167쎯	-11.0709
21495쎯	-11.0709
7쎯55121쎯60127쎯	-11.0717
14605쎯	-11.0718
22081쎯16453쎯	-11.0719
79508쎯10488쎯	-11.0719
729쎯35720쎯20570쎯	-11.0719
37754쎯	-11.0722
38934쎯57158쎯	-11.0724
28738쎯80319쎯	-11.0725
7쎯31486쎯	-11.0725
22523쎯57107쎯	-11.0728
11586쎯71752쎯	-11.0729
57248쎯76316쎯	-11.0732
66145쎯62562쎯	-11.0733
65677쎯62795쎯	-11.0734
10430쎯	-11.0735
16737쎯70834쎯	-11.0736
64874쎯3쎯	-11.0741
53729쎯16433쎯	-11.0745
73680쎯78973쎯	-11.0745
56146쎯58409쎯	-11.0746
53510쎯41347쎯	-11.0747
45856쎯29824쎯	-11.0748
23845쎯52583쎯	-11.0751
21033쎯	-11.0752
56398쎯45856쎯	-11.0752
▁쎯75108쎯48644쎯	-11.0753
18673쎯74980쎯	-11.0754
586쎯	-11.0758
45996쎯45003쎯	-11.0759
76319쎯45931쎯	-11.0762
35584쎯17496쎯	-11.0762
41710쎯	-11.0763
30145쎯	-11.0764
38701쎯38701쎯	-11.0764
15877쎯34859쎯	-11.0766
56255쎯45851쎯	-11.0766
24983쎯19167쎯	-11.0767
15877쎯29383쎯	-11.0767
22247쎯39725쎯80	-11.0767
0쎯56041쎯	-11.0767
3쎯55121쎯40088쎯	-11.0767
13307쎯55121쎯	-11.0768
1쎯56544쎯2쎯	-11.0771
22447쎯29026쎯	-11.0773
55237쎯79303쎯	-11.0774
《쎯12341쎯48497쎯	-11.0775
49854쎯26507쎯	-11.0778
58749쎯	-11.0779
74397쎯	-11.0779
5쎯0쎯28642쎯	-11.0779
71685쎯20827쎯	-11.0782
62090쎯74980쎯	-11.0782
59390쎯	-11.0784
43229쎯	-11.0787
28368쎯17520쎯	-11.0787
26151쎯79303쎯	-11.0789
51216쎯13854쎯	-11.0791
33189쎯69344쎯	-11.0791
42344쎯49089쎯	-11.0792
(쎯62123쎯23779쎯)쎯	-11.0793
75547쎯25094쎯	-11.0793
2쎯0쎯62153쎯	-11.0795
35631쎯	-11.0795
21088쎯11630쎯	-11.0796
64211쎯6쎯	-11.0796
54448쎯61553쎯	-11.0801
5쎯0쎯23356쎯	-11.0802
14868쎯76591쎯	-11.0806
35641쎯74899쎯	-11.0806
55031쎯	-11.0807
6쎯0쎯0쎯0쎯	-11.0808
34601쎯73858쎯	-11.0809
56789쎯71752쎯	-11.0811
12267쎯61239쎯	-11.0811
64661쎯10535쎯	-11.0811
51995쎯38577쎯	-11.0812
36369쎯14536쎯	-11.0812
20202쎯45851쎯	-11.0812
51013쎯15791쎯	-11.0813
36174쎯	-11.0815
14363쎯52750쎯	-11.0816
20476쎯14199쎯	-11.0818
15622쎯35720쎯	-11.0821
74899쎯37627쎯	-11.0823
71294쎯40088쎯	-11.0825
71554쎯71554쎯	-11.0825
68055쎯10124쎯	-11.0826
22258쎯35250쎯	-11.0827
046쎯	-11.0829
36820쎯66006쎯	-11.083
65462쎯14536쎯	-11.0831
33536쎯79303쎯	-11.0832
491쎯72151쎯59576쎯	-11.0832
48644쎯42094쎯	-11.0833
63758쎯56684쎯	-11.0833
10604쎯39873쎯	-11.0833
51013쎯51508쎯	-11.0839
2쎯56544쎯3쎯	-11.0839
612쎯	-11.0843
67856쎯	-11.0843
66876쎯21289쎯	-11.0844
36602쎯29560쎯	-11.0847
67961쎯	-11.0847
22791쎯10772쎯	-11.0849
6쎯35447쎯23356쎯	-11.0851
72236쎯72389쎯	-11.0858
15236쎯62460쎯	-11.0859
7쎯6쎯8쎯	-11.086
1쎯48205쎯	-11.086
16433쎯42094쎯	-11.0862
08쎯	-11.0865
55189쎯22867쎯	-11.0865
16018쎯	-11.0866
36565쎯79263쎯	-11.0871
66622쎯40951쎯	-11.0872
861쎯72500쎯76919쎯	-11.0873
59517쎯	-11.0875
18939쎯49089쎯	-11.0877
11628쎯35720쎯“쎯	-11.088
75108쎯72174쎯	-11.088
15143쎯	-11.0881
37107쎯20680쎯	-11.0883
30199쎯26367쎯	-11.0885
13331쎯16156쎯	-11.0885
735쎯	-11.0887
77983쎯59344쎯	-11.0887
54097쎯	-11.0889
▁쎯72295쎯	-11.0889
43757쎯	-11.0889
58626쎯79766쎯	-11.0891
61659쎯12103쎯	-11.0894
71219쎯42849쎯	-11.0895
76497쎯79303쎯	-11.0895
64178쎯25658쎯	-11.0897
77114쎯	-11.0897
79872쎯31486쎯	-11.09
35717쎯	-11.0902
66975쎯68084쎯	-11.0902
53949쎯	-11.0903
11283쎯64191쎯	-11.0909
32579쎯	-11.0911
3544	-11.0911
56544쎯1쎯8쎯	-11.0912
46488쎯47431쎯	-11.0914
6541	-11.0918
75686쎯50435쎯	-11.0919
378쎯	-11.0922
29327쎯21966쎯	-11.0922
62536쎯	-11.0922
25094쎯44248쎯	-11.0924
63962쎯76013쎯	-11.0925
57655쎯43659쎯	-11.0926
45851쎯37633쎯63	-11.0926
034쎯	-11.093
065쎯	-11.0933
34091쎯57655쎯	-11.0935
4쎯72295쎯0쎯	-11.0935
12307쎯17661쎯	-11.0937
19043쎯10235쎯	-11.0937
79709쎯15278쎯	-11.0938
63109쎯56777쎯	-11.0938
78736쎯	-11.0941
47062쎯22523쎯	-11.0941
2쎯0쎯28642쎯	-11.0942
67633쎯77922쎯	-11.0948
46289쎯72236쎯	-11.0952
385쎯	-11.0955
53322쎯44388쎯	-11.0956
63686쎯64124쎯	-11.096
68909쎯37194쎯21	-11.0962
156쎯	-11.0964
29308쎯3쎯	-11.0964
66483쎯31887쎯	-11.0967
76316쎯51508쎯	-11.0967
79872쎯58376쎯	-11.0967
62818쎯75547쎯	-11.097
2쎯72295쎯7쎯	-11.097
47302쎯43659쎯	-11.0974
78819쎯61026쎯	-11.0975
959쎯	-11.0979
53510쎯43402쎯	-11.0981
61936쎯48644쎯	-11.0981
34124쎯47902쎯	-11.0982
718쎯	-11.0984
73570쎯57881쎯	-11.0985
198쎯	-11.0986
75108쎯22218쎯	-11.0989
64395쎯64661쎯	-11.0989
37714쎯14882쎯	-11.0989
80631쎯	-11.099
16751쎯73637쎯	-11.0991
37633쎯17600쎯	-11.0993
53729쎯49014쎯	-11.0993
0쎯70571쎯60833쎯	-11.0995
52457쎯70026쎯	-11.0995
58975쎯21594쎯	-11.0995
16078쎯	-11.0996
42524쎯14854쎯	-11.0996
1쎯6쎯0쎯0쎯	-11.0997
4쎯60833쎯	-11.0997
290쎯	-11.0999
55460쎯	-11.0999
33950쎯78673쎯	-11.1
25972쎯47693쎯	-11.1
61450쎯	-11.1001
24945쎯	-11.1001
77665쎯	-11.1002
34859쎯(쎯74132쎯	-11.1002
27227쎯	-11.1002
61368쎯76573쎯	-11.1004
71997쎯49089쎯	-11.1005
73424쎯37002쎯	-11.1006
65582쎯15326쎯	-11.1006
57566쎯76795쎯	-11.1006
53448쎯62183쎯	-11.1007
76729쎯54974쎯	-11.1007
34722쎯	-11.1007
73625쎯	-11.1008
12267쎯64661쎯	-11.1008
28368쎯	-11.1009
29327쎯12348쎯	-11.1011
1쎯)쎯	-11.1014
32514쎯38624쎯	-11.1015
2548	-11.1016
46699쎯74899쎯	-11.1018
53729쎯29830쎯	-11.1018
61047쎯	-11.1019
12078쎯45252쎯	-11.1019
57702쎯76608쎯	-11.1025
42482쎯79303쎯	-11.1025
20680쎯68673쎯	-11.1027
25972쎯53100쎯	-11.1028
62795쎯28261쎯	-11.1029
42649쎯62313쎯	-11.1029
441쎯	-11.1029
2쎯48205쎯	-11.1029
5쎯33189쎯57179쎯	-11.1032
56625쎯36029쎯	-11.1032
47693쎯48715쎯	-11.1032
80789쎯42649쎯	-11.1036
32813쎯35864쎯	-11.1038
46278쎯61910쎯	-11.1039
11630쎯》쎯	-11.1041
35433쎯	-11.1043
79303쎯48113쎯	-11.1045
24419쎯36820쎯	-11.1046
64480쎯	-11.1047
22366쎯	-11.1047
1쎯2쎯55121쎯79303쎯	-11.1047
73019쎯28586쎯	-11.1048
67196쎯57040쎯	-11.1048
▁쎯6쎯49089쎯	-11.1049
34913쎯15909쎯	-11.1051
12267쎯47210쎯	-11.1051
36506쎯	-11.1051
(쎯1쎯9쎯2쎯	-11.1051
48644쎯76316쎯	-11.1053
31598쎯41470쎯	-11.1055
51400쎯45252쎯	-11.1056
12899쎯60833쎯	-11.1058
62474쎯33596쎯	-11.1062
42094쎯26896쎯	-11.1062
49466쎯	-11.1062
55267쎯	-11.1064
45931쎯43133쎯	-11.1064
47쎯12348쎯21966쎯	-11.1066
76552쎯79303쎯755	-11.1066
11788쎯	-11.1069
66876쎯34601쎯	-11.107
65464쎯60833쎯	-11.1073
36550쎯52125쎯	-11.1075
19232쎯	-11.1075
20680쎯46202쎯	-11.1076
18250쎯11630쎯	-11.1078
569쎯	-11.1078
40636쎯36944쎯	-11.1081
78983쎯66949쎯	-11.1082
74980쎯27195쎯	-11.1082
44790쎯61239쎯	-11.1083
16061쎯21962쎯	-11.1084
▁쎯42669쎯51056쎯	-11.1086
57566쎯35311쎯	-11.1087
52266쎯48644쎯	-11.1087
13607쎯50337쎯	-11.1088
24419쎯21962쎯1쎯	-11.1089
39809쎯80049쎯	-11.109
72200쎯71068쎯	-11.1091
14192쎯57630쎯	-11.1093
20570쎯7쎯	-11.1095
10285쎯23671쎯	-11.1096
33189쎯62633쎯	-11.1096
▁쎯27795쎯36096쎯	-11.1098
《쎯53510쎯53322쎯	-11.1098
2쎯42649쎯	-11.1101
10772쎯79303쎯	-11.1102
26458쎯52160쎯	-11.1102
45851쎯73363쎯	-11.1103
56544쎯1쎯6쎯	-11.1105
53081쎯40088쎯	-11.1109
45851쎯32695쎯	-11.1112
62652쎯	-11.1113
61642쎯48497쎯	-11.1113
11079쎯23331쎯	-11.1115
77268쎯	-11.1115
60022쎯46687쎯	-11.1117
51813쎯58991쎯	-11.1119
65921쎯61026쎯	-11.112
35720쎯65621쎯	-11.1121
28907쎯35641쎯	-11.1121
54772쎯32542쎯	-11.1122
2쎯0쎯0쎯4쎯	-11.1122
11900쎯42015쎯	-11.1124
65718쎯23827쎯	-11.1124
33462쎯53627쎯	-11.1126
22709쎯22847쎯	-11.1127
59576쎯17438쎯	-11.1129
58991쎯74980쎯53	-11.1129
69344쎯67313쎯	-11.113
40951쎯53839쎯	-11.1134
37732쎯	-11.1136
63921쎯52956쎯	-11.1137
73781쎯77237쎯	-11.1137
22523쎯66145쎯	-11.1139
37633쎯68055쎯	-11.1143
44790쎯70834쎯	-11.1143
50358쎯	-11.1148
69370쎯	-11.1149
72253쎯13735쎯	-11.1151
65115쎯35332쎯	-11.1151
60637쎯18315쎯	-11.1156
73193쎯27195쎯	-11.1156
53327쎯78973쎯	-11.1157
36096쎯23601쎯	-11.1158
44442쎯34859쎯	-11.116
20827쎯51216쎯	-11.1161
63916쎯76316쎯	-11.1162
3쎯0쎯33189쎯	-11.1165
16209쎯38206쎯	-11.1165
78983쎯52583쎯	-11.1167
77237쎯63916쎯	-11.1167
65936쎯50124쎯	-11.1168
13581쎯20202쎯	-11.1168
42731쎯	-11.1171
13735쎯78973쎯”쎯	-11.1171
65911쎯60127쎯	-11.1173
30270쎯	-11.1176
44141쎯42936쎯	-11.1178
10268쎯20202쎯	-11.1178
62818쎯48497쎯	-11.1179
22951쎯	-11.1179
10535쎯60833쎯	-11.1179
61642쎯35641쎯	-11.1179
49089쎯62680쎯	-11.1179
74738쎯67909쎯	-11.118
20234쎯60833쎯	-11.118
57133쎯10268쎯	-11.1182
75963쎯55121쎯	-11.1182
49013쎯67646쎯	-11.1183
64102쎯	-11.1187
1쎯0쎯21594쎯79303쎯	-11.1188
73781쎯50072쎯	-11.1192
44447쎯76919쎯	-11.1192
56161쎯23671쎯	-11.1194
27294쎯	-11.1196
53966쎯65115쎯	-11.1197
20614쎯52266쎯	-11.1202
26967쎯70162쎯	-11.1202
79303쎯74132쎯	-11.1203
65266쎯22143쎯	-11.1203
61132쎯68055쎯	-11.1205
36820쎯55237쎯	-11.121
53510쎯64395쎯	-11.1211
34653쎯31887쎯	-11.1212
80220쎯	-11.1214
28480쎯20202쎯	-11.1214
72963쎯	-11.1215
443쎯	-11.1217
31486쎯)쎯	-11.1219
73352쎯53729쎯	-11.1223
4351	-11.1226
51400쎯46374쎯	-11.123
43795쎯53719쎯	-11.1231
69908쎯38828쎯	-11.1231
75525쎯77922쎯	-11.1233
19043쎯68909쎯1쎯5쎯	-11.1234
20348쎯71167쎯	-11.1234
1쎯3쎯5쎯	-11.1234
76919쎯49089쎯	-11.1236
53510쎯41213쎯	-11.1236
54974쎯52233쎯	-11.1237
66864쎯59576쎯	-11.1237
21342쎯55237쎯	-11.1238
36583쎯	-11.124
3쎯58692쎯	-11.1241
2쎯5쎯0쎯21594쎯	-11.1242
1809	-11.1242
54472쎯34859쎯	-11.1243
49977쎯	-11.1245
16209쎯52400쎯	-11.125
79872쎯71004쎯	-11.125
18840쎯34601쎯	-11.1251
27747쎯37995쎯	-11.1252
14920쎯66058쎯	-11.1256
24081쎯13723쎯	-11.126
38528쎯	-11.1261
57489쎯49089쎯	-11.1265
32556쎯	-11.1267
1쎯6쎯8쎯	-11.1267
41975쎯38701쎯694	-11.1268
3쎯0쎯12267쎯62633쎯	-11.1269
63921쎯56789쎯	-11.1271
73364쎯60052쎯	-11.1273
47431쎯44902쎯	-11.1274
889쎯	-11.1276
74738쎯56925쎯	-11.1277
43966쎯	-11.1278
42221쎯42103쎯	-11.1281
42344쎯74899쎯	-11.1281
39103쎯75233쎯	-11.1282
70571쎯18840쎯	-11.1284
5쎯55121쎯60127쎯	-11.1284
79303쎯55393쎯	-11.1287
49089쎯31915쎯	-11.1288
57228쎯79303쎯	-11.1291
16550쎯59307쎯	-11.1293
42094쎯32130쎯	-11.1294
64661쎯20909쎯	-11.1295
62474쎯15877쎯	-11.1296
5280	-11.1297
52878쎯78973쎯	-11.1297
1쎯3쎯6쎯	-11.1299
28123쎯44843쎯	-11.1301
48644쎯29327쎯	-11.1302
32901쎯73352쎯	-11.1304
44790쎯62101쎯	-11.1304
60784쎯40866쎯	-11.1307
78673쎯77687쎯	-11.1307
34859쎯22526쎯	-11.131
56304쎯76356쎯	-11.1312
13735쎯37955쎯	-11.1313
74746쎯	-11.1313
─	-11.1313
10285쎯57158쎯	-11.1318
551쎯	-11.1318
22197쎯51087쎯	-11.1319
2417	-11.1322
22940쎯22247쎯	-11.1324
58688쎯36602쎯	-11.1325
13581쎯58768쎯	-11.1327
43767쎯	-11.1328
69313쎯61026쎯	-11.1328
34962쎯27378쎯	-11.1328
56609쎯47791쎯	-11.1331
13609쎯	-11.1332
24419쎯52125쎯	-11.1333
16452쎯	-11.1334
2쎯21594쎯	-11.1336
56001쎯	-11.1336
”쎯46177쎯76573쎯	-11.1336
66915쎯54178쎯	-11.1336
41879쎯	-11.1336
30199쎯45600쎯	-11.1336
53327쎯57179쎯	-11.1337
2쎯)쎯	-11.1339
52233쎯65544쎯	-11.1339
44419쎯》쎯20570쎯“쎯	-11.1339
575쎯10175쎯35346쎯	-11.1342
64395쎯37955쎯	-11.1343
▁쎯2쎯0쎯0쎯5쎯60833쎯	-11.1344
36944쎯19043쎯	-11.1344
69344쎯66859쎯	-11.1346
22382쎯25658쎯	-11.1349
12078쎯53322쎯56	-11.1349
51216쎯13581쎯	-11.1353
37050쎯	-11.1353
33504쎯54178쎯	-11.1353
70026쎯22218쎯	-11.1354
1028	-11.1355
3014	-11.1355
64178쎯31697쎯	-11.1356
34601쎯79303쎯	-11.1359
76739쎯61698쎯	-11.136
50642쎯71948쎯	-11.1361
35720쎯70381쎯	-11.1361
35302쎯64395쎯	-11.1362
76573쎯23238쎯356	-11.1365
4쎯55121쎯60127쎯	-11.1365
73570쎯62090쎯	-11.1367
65718쎯28489쎯	-11.1367
58376쎯39063쎯	-11.1368
43561쎯60637쎯	-11.1369
862쎯	-11.1371
14868쎯73364쎯	-11.1371
36550쎯20570쎯	-11.1372
623쎯	-11.1373
18483쎯44369쎯	-11.1374
▁쎯24233쎯26671쎯	-11.1375
79848쎯	-11.1377
12587쎯79303쎯	-11.1379
13607쎯65177쎯	-11.1379
44790쎯78973쎯	-11.138
10772쎯78973쎯	-11.1385
46224쎯60127쎯	-11.1388
14924쎯62795쎯	-11.1388
80242쎯63916쎯	-11.139
139쎯	-11.1393
49489쎯49216쎯	-11.1393
2쎯0쎯57630쎯	-11.1394
48497쎯40529쎯	-11.1398
53327쎯59735쎯	-11.1398
29537쎯37977쎯	-11.1399
75050쎯48497쎯	-11.14
34627쎯	-11.1401
57365쎯	-11.1401
34913쎯65177쎯	-11.1401
64874쎯4쎯	-11.1406
30682쎯30845쎯	-11.1407
67943쎯74077쎯	-11.1407
65621쎯《쎯	-11.1409
27082쎯25286쎯	-11.1409
▁쎯2쎯0쎯1쎯1쎯60833쎯	-11.1411
50642쎯20159쎯	-11.1412
11630쎯》쎯20570쎯“쎯	-11.1413
5쎯72295쎯	-11.1415
14924쎯27195쎯	-11.1415
16433쎯10695쎯	-11.1416
22197쎯22544쎯	-11.1418
12899쎯68313쎯	-11.1419
73680쎯51056쎯	-11.1419
68454쎯16182쎯	-11.142
50642쎯49851쎯	-11.142
1쎯8쎯6쎯	-11.1422
202쎯76452쎯55237쎯	-11.1424
1쎯5쎯60833쎯	-11.1428
53079쎯16488쎯	-11.1429
80394쎯48273쎯	-11.1431
1쎯16173쎯	-11.1431
45851쎯23356쎯	-11.1434
62821쎯62101쎯	-11.1435
28764쎯73781쎯	-11.1436
10058쎯75686쎯	-11.144
79872쎯11630쎯	-11.1443
51539쎯30233쎯	-11.1445
27378쎯13547쎯	-11.1445
27647쎯	-11.1448
951쎯47782쎯42482쎯	-11.1451
42649쎯72898쎯	-11.1453
15184쎯68055쎯	-11.1453
14363쎯36954쎯	-11.1454
32540쎯	-11.1455
202쎯10772쎯76919쎯	-11.1456
3쎯24720쎯	-11.1465
53729쎯29308쎯	-11.1469
304쎯	-11.1469
13928쎯	-11.1471
58900쎯	-11.1471
19109쎯70834쎯	-11.1472
57040쎯46320쎯	-11.1473
51086쎯76316쎯	-11.1473
2766	-11.1473
19802쎯79303쎯	-11.1474
31790쎯51087쎯	-11.1475
17496쎯39955쎯	-11.1475
45851쎯66864쎯	-11.1476
50985쎯	-11.1478
79303쎯25225쎯	-11.1478
)쎯20570쎯	-11.1486
53140쎯25989쎯	-11.1486
27082쎯63916쎯	-11.1488
1쎯55121쎯40088쎯	-11.1492
24419쎯79148쎯	-11.1492
15909쎯62562쎯	-11.1494
217쎯29560쎯19109쎯	-11.1495
44369쎯15909쎯	-11.1495
42094쎯54178쎯	-11.1495
1쎯69344쎯22218쎯	-11.1497
57631쎯	-11.1498
36897쎯	-11.1498
282쎯	-11.1498
086쎯	-11.1499
35346쎯78973쎯	-11.1499
1쎯4쎯0쎯0쎯	-11.15
1쎯0쎯6쎯	-11.1501
49753쎯	-11.1503
16453쎯20074쎯	-11.1504
9쎯72295쎯	-11.1507
46687쎯35280쎯	-11.1507
▁쎯27626쎯62795쎯	-11.1508
65621쎯“쎯	-11.1508
65544쎯26507쎯	-11.1508
42518쎯	-11.151
28773쎯26216쎯	-11.1511
32172쎯78684쎯	-11.1516
39824쎯	-11.1519
47302쎯78973쎯	-11.1519
62562쎯45252쎯	-11.1521
740쎯	-11.1524
1쎯8쎯5쎯	-11.1524
45317쎯38013쎯	-11.1527
6쎯28642쎯	-11.153
78398쎯79303쎯	-11.153
48811쎯48644쎯	-11.1531
19043쎯61132쎯	-11.1531
44902쎯22791쎯	-11.1534
31887쎯23601쎯	-11.1535
13521쎯	-11.1537
12899쎯73638쎯	-11.1538
80242쎯57228쎯	-11.1538
65550쎯46320쎯	-11.1538
78782쎯58953쎯	-11.1541
30658쎯58376쎯	-11.1542
55340쎯	-11.1542
58953쎯36759쎯	-11.1543
29805쎯	-11.1543
24504쎯	-11.1549
38321쎯45534쎯46	-11.1549
11079쎯61642쎯	-11.1552
42849쎯20839쎯	-11.1553
68454쎯17661쎯	-11.1554
79303쎯33720쎯	-11.1558
24983쎯67196쎯	-11.1558
73364쎯62187쎯	-11.156
50642쎯79766쎯	-11.156
29275쎯70834쎯	-11.1561
57566쎯22544쎯	-11.1561
57226쎯28907쎯	-11.1562
42015쎯46553쎯	-11.1562
49624쎯49089쎯	-11.1563
78168쎯18974쎯	-11.1563
58571쎯64178쎯	-11.1564
64661쎯62090쎯	-11.1564
79784쎯18058쎯	-11.1571
44896쎯28222쎯	-11.1571
46320쎯29274쎯	-11.1576
49202쎯74503쎯	-11.1577
52705쎯49089쎯	-11.1577
5쎯16173쎯	-11.1578
73638쎯57489쎯	-11.1581
76506쎯76573쎯	-11.1583
73331쎯	-11.1584
70124쎯58636쎯	-11.1585
57971쎯45856쎯	-11.1586
73781쎯22523쎯	-11.1587
2쎯0쎯0쎯2쎯	-11.1588
22625쎯41710쎯	-11.1591
58353쎯	-11.1592
42649쎯48643쎯5쎯	-11.1593
89쎯48644쎯	-11.1595
44727쎯	-11.1595
60127쎯24757쎯	-11.1596
44459쎯51539쎯	-11.1599
49089쎯51013쎯	-11.1605
36820쎯75951쎯	-11.1607
78398쎯35150쎯》쎯	-11.1609
19806쎯74980쎯	-11.1609
57426쎯	-11.1612
79872쎯63921쎯	-11.1613
45851쎯58409쎯	-11.1614
09쎯19109쎯49851쎯	-11.1614
45317쎯46699쎯	-11.1614
66145쎯47210쎯	-11.1618
79263쎯67828쎯	-11.1619
30665쎯61026쎯	-11.1619
38652쎯79872쎯	-11.1619
80826쎯37430쎯	-11.1624
014쎯	-11.1627
42221쎯20202쎯	-11.163
55834쎯	-11.1631
10535쎯47160쎯	-11.1631
86쎯72545쎯53203쎯	-11.1633
51216쎯79872쎯252	-11.1633
62795쎯77495쎯	-11.1633
▁쎯60127쎯14924쎯	-11.1633
9쎯69344쎯22218쎯	-11.1633
41309쎯	-11.1636
33081쎯42669쎯	-11.1636
66934쎯	-11.1637
49639쎯64178쎯	-11.1639
089쎯	-11.1639
5쎯0쎯12267쎯62633쎯	-11.1642
21966쎯57088쎯48	-11.1643
70147쎯76584쎯	-11.1644
64783쎯38013쎯	-11.1648
34913쎯25094쎯	-11.1649
597쎯	-11.165
299쎯	-11.1651
41897쎯75108쎯	-11.1651
318쎯	-11.1652
73352쎯21966쎯	-11.1654
29043쎯	-11.1654
78465쎯	-11.1656
11216쎯	-11.1658
61132쎯22168쎯	-11.1661
20839쎯68055쎯	-11.1663
23645쎯	-11.1663
57740쎯	-11.1666
27859쎯52240쎯	-11.1667
968쎯	-11.1668
55861쎯19495쎯	-11.1668
57356쎯	-11.1669
74275쎯31486쎯	-11.167
60022쎯72236쎯	-11.1672
63962쎯42482쎯	-11.1672
20542쎯19263쎯	-11.1674
43410쎯	-11.1675
20907쎯75233쎯78	-11.1675
8쎯0쎯2쎯72295쎯1쎯1쎯	-11.1679
30934쎯37091쎯	-11.1679
61026쎯56161쎯	-11.1679
69851쎯	-11.168
45856쎯57881쎯	-11.1681
20570쎯1쎯6쎯	-11.1681
1쎯73638쎯79303쎯	-11.1681
47431쎯18840쎯	-11.1685
37553쎯80145쎯	-11.1686
28489쎯19109쎯	-11.1686
25716쎯	-11.1687
67534쎯	-11.1687
16227쎯68846쎯	-11.1688
59813쎯	-11.1689
50733쎯19043쎯	-11.1689
49089쎯28773쎯	-11.169
42560쎯29760쎯	-11.1692
105쎯	-11.1692
79303쎯1쎯8쎯	-11.1692
30765쎯	-11.1693
21340쎯35636쎯	-11.1693
335쎯	-11.1694
22095쎯22095쎯	-11.1694
22197쎯39045쎯	-11.1695
53140쎯75547쎯	-11.1696
50337쎯31887쎯	-11.1696
74175쎯	-11.1698
21962쎯20570쎯	-11.1701
43176쎯	-11.1703
49089쎯13581쎯	-11.1706
36944쎯42649쎯	-11.1707
22698쎯	-11.171
66322쎯	-11.1712
68454쎯49392쎯	-11.1713
44927쎯	-11.1715
73570쎯56609쎯	-11.1716
43697쎯70834쎯	-11.1716
66058쎯66058쎯	-11.1716
1쎯3쎯57630쎯	-11.1729
56632쎯76942쎯	-11.173
42869쎯	-11.1732
20570쎯6쎯	-11.1733
55318쎯67907쎯	-11.1733
48811쎯27747쎯	-11.1734
57417쎯74363쎯	-11.1735
63962쎯35021쎯	-11.1736
12341쎯49505쎯	-11.1741
27195쎯22761쎯	-11.1743
58831쎯	-11.1745
28480쎯37995쎯	-11.1747
42986쎯21962쎯	-11.1748
09쎯60670쎯18315쎯	-11.1751
28020쎯55623쎯	-11.1751
38266쎯38266쎯	-11.1751
▁쎯2쎯0쎯0쎯4쎯60833쎯	-11.1753
〗	-11.1756
79303쎯13607쎯	-11.1756
54095쎯	-11.1759
5쎯72295쎯1쎯	-11.1759
20570쎯‘쎯	-11.176
62474쎯22523쎯	-11.1762
40600쎯34446쎯	-11.1762
7쎯55121쎯29383쎯	-11.1762
42649쎯68055쎯	-11.1763
78688쎯	-11.1765
20159쎯64920쎯	-11.1767
13155쎯22526쎯	-11.177
〖	-11.177
55805쎯)쎯	-11.1777
64661쎯76919쎯	-11.1777
1쎯5쎯57630쎯	-11.1778
74701쎯	-11.1778
51013쎯75580쎯	-11.178
37294쎯32581쎯	-11.1781
21394쎯60637쎯	-11.1783
23112쎯22387쎯	-11.1784
20392쎯19625쎯	-11.1785
56153쎯51216쎯	-11.1786
42649쎯47791쎯	-11.1788
55957쎯76591쎯	-11.1789
33596쎯17807쎯	-11.1792
76795쎯17086쎯	-11.1793
60833쎯1777	-11.1794
72590쎯66159쎯	-11.1795
35641쎯17602쎯	-11.1795
47210쎯71752쎯》쎯	-11.1795
71752쎯56789쎯	-11.18
37955쎯62633쎯	-11.1801
64046쎯49621쎯	-11.1801
32613쎯35601쎯	-11.1804
42344쎯22218쎯	-11.1805
70834쎯52878쎯	-11.1806
72151쎯34859쎯	-11.1807
66251쎯	-11.1809
49089쎯21503쎯	-11.1809
55717쎯73781쎯	-11.181
26650쎯	-11.181
79322쎯79872쎯	-11.1813
510쎯	-11.1815
47902쎯27195쎯	-11.1815
13547쎯66483쎯	-11.1816
876쎯	-11.1818
46545쎯77687쎯	-11.182
29327쎯37627쎯	-11.1822
42141쎯33504쎯	-11.1826
6쎯0쎯60833쎯74275쎯	-11.1827
53448쎯23486쎯	-11.1828
22755쎯23331쎯	-11.183
73638쎯47902쎯	-11.1831
46488쎯79046쎯	-11.1831
79303쎯18139쎯	-11.1834
0쎯0쎯0쎯69344쎯22	-11.1837
74218쎯42849쎯	-11.1838
48113쎯67943쎯	-11.1838
14536쎯50573쎯	-11.184
45252쎯49621쎯	-11.1841
930쎯	-11.1842
38823쎯	-11.1843
38160쎯	-11.1843
6491	-11.1844
70149쎯	-11.1847
65147쎯32828쎯	-11.1849
66671쎯58991쎯	-11.1849
79322쎯65292쎯	-11.185
34049쎯63878쎯	-11.185
49089쎯12307쎯	-11.1854
572쎯	-11.1856
10268쎯79303쎯	-11.1859
35574쎯35688쎯	-11.1859
53510쎯42649쎯	-11.1861
43591쎯35280쎯	-11.1862
20680쎯67828쎯	-11.1862
22651쎯	-11.1863
76386쎯30682쎯	-11.1865
65464쎯75108쎯	-11.1865
55949쎯77922쎯	-11.1865
21687쎯21594쎯	-11.1867
36641쎯29383쎯	-11.1869
20570쎯1쎯2쎯	-11.1873
50785쎯	-11.1873
10443쎯35641쎯	-11.1874
75995쎯	-11.1876
1쎯43972쎯	-11.1876
68172쎯54110쎯	-11.1876
26434쎯31887쎯	-11.1878
71294쎯29026쎯	-11.1878
22247쎯64046쎯	-11.1879
42094쎯30252쎯	-11.1879
43795쎯42649쎯	-11.1879
38916쎯18654쎯	-11.188
6쎯55121쎯60127쎯	-11.1881
32542쎯49013쎯	-11.1881
75287쎯71752쎯	-11.1886
46177쎯46699쎯	-11.1889
62679쎯	-11.189
973쎯	-11.1893
22727쎯47693쎯	-11.1893
▁쎯64874쎯1쎯73211쎯	-11.1895
957쎯	-11.1896
14924쎯60559쎯	-11.1896
53729쎯66483쎯	-11.1896
55121쎯79805쎯	-11.1898
68524쎯17661쎯	-11.19
222쎯48172쎯72389쎯	-11.1904
37627쎯52705쎯	-11.1907
9쎯28642쎯	-11.1908
51087쎯10773쎯	-11.1909
37955쎯31641쎯	-11.1909
18250쎯21962쎯	-11.1911
20570쎯9쎯	-11.1912
65550쎯19263쎯	-11.1912
62313쎯64178쎯	-11.1914
54178쎯37995쎯	-11.1916
78973쎯’쎯	-11.1917
80792쎯54448쎯	-11.192
▁쎯22709쎯75434쎯	-11.1922
44799쎯	-11.1923
11628쎯55645쎯	-11.1924
47575쎯10772쎯	-11.1924
33596쎯58991쎯	-11.1925
42849쎯38013쎯47	-11.1925
14363쎯66915쎯	-11.1926
20680쎯46699쎯	-11.1926
43591쎯23899쎯	-11.1927
0쎯46859쎯	-11.1927
19700쎯31036쎯	-11.193
44790쎯20202쎯	-11.1936
69416쎯71632쎯	-11.1937
4218	-11.1937
7686	-11.1938
58571쎯32514쎯	-11.1941
51744쎯	-11.1945
36550쎯54974쎯	-11.1947
78398쎯48309쎯	-11.1948
64795쎯33950쎯	-11.1951
▁쎯21503쎯	-11.1953
13854쎯52125쎯	-11.1957
45851쎯28480쎯	-11.1958
72295쎯58692쎯	-11.1958
50865쎯76024쎯	-11.1962
27195쎯38266쎯	-11.1962
789쎯49089쎯23899쎯	-11.1962
68639쎯	-11.1963
11851쎯37955쎯	-11.1966
40837쎯23779쎯	-11.1966
709쎯	-11.1966
69237쎯	-11.1967
36097쎯10772쎯	-11.1968
33189쎯60833쎯	-11.1968
54305쎯49089쎯	-11.1969
12899쎯57630쎯	-11.1969
17865쎯	-11.1971
73211쎯51216쎯	-11.1973
69405쎯76919쎯	-11.1973
62003쎯38013쎯	-11.1974
21623쎯	-11.1974
20648쎯30682쎯	-11.1974
42221쎯11079쎯	-11.1975
77333쎯78121쎯	-11.1978
62510쎯	-11.1981
73570쎯30658쎯	-11.1982
38593쎯	-11.1983
33087쎯	-11.1986
746쎯	-11.1987
991쎯	-11.1987
64795쎯63962쎯	-11.1988
42261쎯66082쎯	-11.199
73570쎯17438쎯	-11.1991
63686쎯20909쎯	-11.1992
53729쎯38731쎯	-11.1993
71294쎯60670쎯	-11.1994
25286쎯66590쎯	-11.1997
66335쎯	-11.1998
66224쎯55121쎯	-11.2
14363쎯10604쎯	-11.2002
44997쎯	-11.2007
10535쎯26671쎯	-11.2007
17232쎯12640쎯	-11.2007
77103쎯61239쎯	-11.2009
58155쎯56789쎯	-11.201
35881쎯79303쎯	-11.2011
22466쎯69344쎯	-11.2014
79303쎯71554쎯	-11.2018
47062쎯55121쎯	-11.202
5쎯0쎯21594쎯79303쎯	-11.2022
23457쎯65177쎯	-11.2024
60670쎯37002쎯	-11.2024
34141쎯71948쎯	-11.2024
19507쎯53966쎯	-11.2028
255쎯	-11.2029
3211	-11.2029
27378쎯12732쎯	-11.2031
46289쎯41123쎯	-11.2038
51802쎯	-11.2042
54335쎯73781쎯	-11.2043
71025쎯35864쎯	-11.2043
71752쎯49089쎯	-11.2043
48670쎯74980쎯	-11.2044
75525쎯67828쎯	-11.2044
38617쎯49211쎯	-11.2045
23349쎯25225쎯	-11.2045
5쎯31227쎯	-11.2045
70834쎯76059쎯	-11.205
72479쎯63878쎯	-11.2051
17086쎯44129쎯	-11.2052
46202쎯11851쎯	-11.2053
67943쎯50579쎯	-11.2053
)쎯56609쎯	-11.2053
78121쎯59735쎯	-11.2054
30867쎯79683쎯	-11.2054
12267쎯69344쎯	-11.2056
74346쎯43691쎯	-11.2058
69344쎯52705쎯	-11.2058
74980쎯31850쎯	-11.2059
4151	-11.2061
16244쎯	-11.2061
39809쎯79303쎯	-11.2061
19043쎯41470쎯	-11.2061
75547쎯38013쎯	-11.2067
▁쎯68454쎯	-11.2069
75251쎯44864쎯	-11.2072
60127쎯53719쎯	-11.2076
48643쎯33009쎯	-11.2076
19167쎯1쎯	-11.2078
1쎯0쎯2쎯	-11.2079
39725쎯79303쎯	-11.2081
46177쎯19167쎯	-11.2082
15235쎯14924쎯	-11.2083
22329쎯27626쎯	-11.2086
36903쎯29383쎯	-11.209
44369쎯64178쎯	-11.209
30795쎯52993쎯	-11.2092
42094쎯47902쎯	-11.2093
31143쎯	-11.2096
▁쎯13581쎯	-11.2099
38961쎯65677쎯	-11.2107
64505쎯37002쎯	-11.2107
27082쎯34859쎯	-11.2108
0쎯76552쎯79303쎯	-11.2109
4300	-11.2109
4717	-11.211
59079쎯51216쎯	-11.211
80789쎯63916쎯	-11.211
55717쎯24720쎯	-11.2112
65677쎯》쎯	-11.2113
57566쎯34349쎯	-11.2113
37633쎯47850쎯	-11.2114
56146쎯80506쎯	-11.2114
79872쎯80242쎯	-11.2118
68055쎯52233쎯	-11.212
54529쎯40588쎯	-11.2121
60186쎯	-11.2121
11049쎯63916쎯	-11.2121
16364쎯	-11.2123
57133쎯22709쎯	-11.2123
3쎯16173쎯	-11.2124
63109쎯79303쎯	-11.2124
62123쎯19882쎯	-11.2124
6쎯69344쎯22218쎯12	-11.2125
70834쎯29327쎯	-11.2125
2쎯69344쎯22218쎯12	-11.2127
49089쎯15877쎯	-11.2128
61184쎯30233쎯	-11.2128
0쎯0쎯0쎯	-11.2128
28800쎯34789쎯	-11.2129
54974쎯12103쎯	-11.213
77687쎯17232쎯	-11.2131
42463쎯	-11.2131
32901쎯80334쎯	-11.2134
62183쎯40970쎯	-11.2135
54178쎯20202쎯	-11.2135
37633쎯》쎯	-11.2135
28851쎯16488쎯	-11.2136
76729쎯52993쎯	-11.2136
64539쎯	-11.2137
1쎯6쎯57630쎯	-11.2137
60784쎯62153쎯	-11.2139
8쎯55121쎯29383쎯	-11.214
49089쎯49639쎯	-11.2144
72316쎯	-11.2146
23853쎯74132쎯	-11.2152
31887쎯35280쎯	-11.2152
78577쎯78973쎯”쎯	-11.2153
560쎯49851쎯19109쎯	-11.2154
38652쎯35720쎯“쎯	-11.2154
10535쎯29307쎯	-11.2157
534쎯	-11.2157
36944쎯27993쎯	-11.216
8쎯69344쎯22218쎯12	-11.2161
60637쎯60127쎯	-11.2163
28773쎯30541쎯	-11.2163
31598쎯37633쎯	-11.2164
10773쎯30682쎯	-11.2166
999쎯	-11.2168
49851쎯47791쎯	-11.2169
17661쎯77089쎯	-11.2169
78222쎯28020쎯	-11.217
77911쎯	-11.2171
41704쎯41704쎯	-11.2172
23601쎯69484쎯	-11.2172
75619쎯	-11.2173
70823쎯19507쎯	-11.2174
77103쎯58734쎯	-11.2176
65109쎯1쎯	-11.2177
50363쎯72711쎯	-11.2177
7쎯35447쎯23356쎯	-11.2177
16433쎯15877쎯	-11.2178
37002쎯53327쎯	-11.2178
43431쎯79524쎯	-11.2179
30270쎯40304쎯	-11.2184
21962쎯43460쎯	-11.2186
69438쎯47575쎯	-11.2191
(쎯3쎯)쎯	-11.2191
79481쎯	-11.2192
41704쎯12553쎯	-11.2193
66759쎯76386쎯	-11.2201
13735쎯32155쎯	-11.2202
36626쎯49510쎯	-11.2202
1378	-11.2204
54178쎯42649쎯60	-11.2205
57566쎯46699쎯	-11.2205
56609쎯53322쎯	-11.2206
78673쎯70834쎯	-11.2208
76058쎯24951쎯	-11.2208
75547쎯37898쎯	-11.2213
2864	-11.2216
21957쎯30867쎯	-11.2217
78688쎯30233쎯	-11.2219
1쎯1쎯55121쎯63962쎯	-11.2219
1쎯9쎯2쎯4쎯60833쎯	-11.2223
34859쎯29560쎯694	-11.2224
79303쎯73147쎯	-11.2225
52636쎯	-11.2227
5쎯21594쎯79303쎯	-11.2228
56661쎯49854쎯	-11.223
16156쎯54178쎯30	-11.2231
11366쎯	-11.2231
46374쎯50285쎯	-11.2232
72545쎯64920쎯	-11.2232
45651쎯33013쎯	-11.2232
10773쎯29952쎯	-11.2233
60052쎯20278쎯	-11.2234
72545쎯46553쎯	-11.2235
42649쎯13735쎯	-11.2237
15806쎯	-11.2238
80792쎯80789쎯	-11.224
29705쎯46541쎯	-11.2241
23950쎯55756쎯	-11.2243
76476쎯	-11.2243
1116	-11.2245
68565쎯72151쎯	-11.2248
20701쎯76013쎯	-11.2248
43402쎯43357쎯	-11.2249
5쎯5쎯0쎯	-11.2249
67646쎯	-11.2249
28441쎯60784쎯	-11.225
72295쎯1쎯1쎯	-11.2251
(쎯72295쎯)쎯	-11.2256
72560쎯	-11.2257
43561쎯	-11.2257
27041쎯79188쎯	-11.2259
761쎯	-11.2259
27548쎯35864쎯	-11.2263
35944쎯66159쎯	-11.2263
6쎯21594쎯	-11.2265
50801쎯30658쎯	-11.2265
40983쎯	-11.2271
16016쎯53510쎯	-11.2271
37042쎯	-11.2272
64661쎯42482쎯	-11.2274
48404쎯	-11.2274
56018쎯40088쎯	-11.2275
36954쎯71632쎯	-11.2276
44902쎯49756쎯	-11.2279
46320쎯60670쎯	-11.228
6쎯48205쎯	-11.2286
54914쎯71903쎯	-11.2288
43701쎯	-11.2292
1쎯35447쎯23356쎯	-11.2294
4516	-11.2295
38223쎯48113쎯	-11.2297
67196쎯30712쎯	-11.2299
11428쎯76452쎯	-11.2299
13780쎯	-11.23
23812쎯	-11.2301
28222쎯64825쎯	-11.2301
53140쎯37955쎯	-11.2302
207쎯	-11.2302
15877쎯73781쎯	-11.2304
(쎯69416쎯62474쎯	-11.2305
38624쎯64248쎯	-11.2306
1쎯1쎯2쎯	-11.2309
15447쎯	-11.2312
7쎯5쎯0쎯	-11.2312
13307쎯64395쎯	-11.2314
77983쎯12413쎯	-11.2315
12078쎯17876쎯	-11.2315
20202쎯16262쎯	-11.2317
53081쎯41127쎯	-11.2318
73211쎯29308쎯	-11.2319
27662쎯18058쎯	-11.232
22382쎯42332쎯	-11.232
60180쎯28664쎯	-11.2321
28664쎯72236쎯	-11.2324
57248쎯62562쎯	-11.2328
69344쎯56609쎯	-11.2329
26896쎯74218쎯	-11.233
288쎯	-11.2331
48172쎯22867쎯	-11.2332
73352쎯74218쎯“쎯	-11.2334
53448쎯72479쎯	-11.2335
78673쎯16737쎯	-11.2337
17602쎯35584쎯	-11.2337
28350쎯23601쎯	-11.2339
48759쎯66949쎯	-11.2339
66쎯	-11.234
79303쎯18673쎯	-11.234
79766쎯49851쎯	-11.2341
56544쎯58692쎯	-11.2344
64874쎯6쎯	-11.2345
79524쎯62633쎯	-11.2347
12267쎯70026쎯	-11.2351
16303쎯	-11.2351
656쎯	-11.2352
44539쎯16433쎯	-11.2355
20199쎯	-11.2355
63878쎯34859쎯	-11.2357
70144쎯	-11.2359
▁쎯2쎯0쎯0쎯3쎯60833쎯	-11.236
38652쎯77687쎯	-11.2362
2쎯44737쎯	-11.2363
53079쎯	-11.2363
“쎯13307쎯	-11.2366
74849쎯60127쎯	-11.2372
720쎯	-11.2372
75935쎯70526쎯	-11.2373
57489쎯19167쎯	-11.2373
65266쎯51095쎯	-11.2373
38834쎯18466쎯	-11.2374
23827쎯53729쎯	-11.2374
43795쎯40501쎯	-11.2374
(쎯)쎯74899쎯	-11.2374
62530쎯42015쎯	-11.2375
38624쎯54178쎯	-11.2377
22523쎯80794쎯	-11.238
78973쎯23339쎯	-11.238
36308쎯53729쎯	-11.238
6쎯60833쎯	-11.2381
65464쎯19109쎯	-11.2381
22940쎯77988쎯	-11.2382
09쎯57088쎯48497쎯	-11.2385
55237쎯78973쎯	-11.2385
21588쎯25989쎯	-11.2388
50801쎯14363쎯	-11.2388
52568쎯	-11.2389
46177쎯12111쎯	-11.2393
3쎯72295쎯7쎯	-11.2393
61910쎯48051쎯	-11.2396
19043쎯68909쎯1쎯3쎯	-11.2398
73680쎯21088쎯	-11.2399
79872쎯60784쎯	-11.2401
3015	-11.2403
40773쎯73781쎯	-11.2403
22761쎯75203쎯	-11.2403
44248쎯15184쎯2쎯	-11.2403
73424쎯32410쎯	-11.2404
47660쎯	-11.2405
▁쎯64211쎯21503쎯	-11.2406
47302쎯31141쎯	-11.2407
41347쎯14363쎯	-11.2407
12267쎯49854쎯	-11.2407
44251쎯67335쎯	-11.2407
61069쎯	-11.2411
37633쎯》쎯49089쎯《쎯	-11.2411
30217쎯29560쎯	-11.2414
16550쎯	-11.2414
72253쎯42649쎯	-11.2417
15506쎯42469쎯	-11.2418
10204쎯37628쎯	-11.2421
16455쎯18673쎯	-11.2422
20259쎯	-11.2423
20591쎯20091쎯	-11.2423
54974쎯11635쎯	-11.2427
27708쎯42094쎯	-11.2428
53081쎯19167쎯	-11.2428
1쎯44493쎯	-11.2429
59288쎯38241쎯	-11.2429
(쎯55645쎯	-11.243
40951쎯42849쎯	-11.2433
20234쎯58768쎯53	-11.2435
▁쎯72870쎯	-11.2436
19043쎯68909쎯2쎯0쎯	-11.2436
10204쎯16237쎯	-11.2436
56146쎯28738쎯	-11.2438
32542쎯13252쎯	-11.2438
580쎯	-11.2441
14474쎯72126쎯	-11.2441
30267쎯	-11.2442
29308쎯4쎯	-11.2442
76739쎯46320쎯	-11.2446
21966쎯37995쎯	-11.2447
67734쎯57881쎯	-11.2448
46320쎯67828쎯	-11.2449
1쎯4쎯57630쎯	-11.245
2701	-11.2452
72179쎯19109쎯	-11.2453
51087쎯49802쎯	-11.2458
3쎯0쎯28642쎯	-11.2458
23845쎯60670쎯	-11.2458
57566쎯62795쎯	-11.2458
27082쎯76316쎯	-11.246
63014쎯76573쎯	-11.2462
(쎯16453쎯	-11.2463
59307쎯45851쎯	-11.2468
73570쎯61368쎯	-11.2468
80334쎯74077쎯	-11.2469
(쎯1쎯8쎯9쎯	-11.2469
32034쎯	-11.247
62615쎯55121쎯	-11.2471
20348쎯70834쎯	-11.2471
938쎯	-11.2471
8쎯72295쎯5쎯	-11.2472
80359쎯44902쎯	-11.2473
231쎯	-11.2474
2쎯79754쎯	-11.2474
62795쎯62123쎯	-11.2474
10773쎯22218쎯	-11.2474
16598쎯22847쎯	-11.2475
63631쎯13951쎯	-11.2476
80794쎯48497쎯	-11.2476
8쎯73211쎯	-11.2476
47062쎯45851쎯	-11.2478
[...]
