[UNK]	0
[PAD]	0
[CLS]	0
[SEP]	0
[MASK]	0
,	-3.50596
的	-3.75352
。	-4.00657
、	-4.07797
▁	-4.488
和	-5.08707
为	-5.36966
在	-5.39596
:	-5.44983
是	-5.47605
有	-5.5929
中	-5.60186
(	-5.60911
人	-5.61585
大	-5.62619
一	-5.71396
等	-5.83431
)	-5.83497
与	-5.8461
了	-5.85955
上	-5.92348
;	-6.00358
“	-6.05468
于	-6.06097
《	-6.06152
1	-6.11324
市	-6.13856
不	-6.15814
之	-6.16641
年	-6.16887
水	-6.20071
长	-6.20243
地	-6.2177
以	-6.22617
.	-6.22638
及	-6.31028
高	-6.32661
山	-6.34089
家	-6.35181
”	-6.36037
2	-6.36264
名	-6.36916
后	-6.3809
中国	-6.39472
-	-6.39713
区	-6.41298
性	-6.41325
子	-6.41763
部	-6.43112
3	-6.4344
县	-6.44952
日	-6.45912
新	-6.46958
出	-6.47583
用	-6.49341
对	-6.50186
多	-6.51075
生	-6.51177
会	-6.51914
三	-6.52311
》	-6.5582
学	-6.59322
小	-6.60593
管理	-6.63034
下	-6.63516
到	-6.64054
而	-6.6455
内	-6.65021
时	-6.66088
化	-6.6758
技术	-6.68174
外	-6.68565
所	-6.69246
法	-6.69287
国	-6.69458
机	-6.705
成	-6.70838
体	-6.71563
企业	-6.72147
天	-6.72439
本	-6.72763
南	-6.73739
·	-6.76074
4	-6.76809
被	-6.7684
公司	-6.77644
前	-6.78525
5	-6.7862
东	-6.79898
可	-6.80554
西	-6.81552
海	-6.82043
分	-6.82316
面	-6.83307
将	-6.83972
或	-6.84586
无	-6.862
/	-6.86713
其	-6.8698
村	-6.87449
路	-6.88202
来	-6.88729
文	-6.8938
总	-6.90728
8	-6.90877
服务	-6.91052
发	-6.91454
6	-6.9173
10	-6.92332
光	-6.92362
科	-6.92736
力	-6.92808
花	-6.93038
心	-6.93134
产品	-6.93208
工作	-6.93219
克	-6.93456
全	-6.94475
19	-6.94695
大学	-6.94982
至	-6.95218
镇	-6.95238
行	-6.96969
金	-6.98794
入	-7.00408
自	-7.00832
石	-7.01517
研究	-7.01706
线	-7.02906
国家	-7.03071
主	-7.03165
道	-7.03328
教育	-7.04181
生产	-7.04476
也	-7.05451
任	-7.05764
专业	-7.06144
局	-7.06919
7	-7.06964
美	-7.07128
最	-7.0736
城	-7.07507
制	-7.0757
发展	-7.07891
从	-7.0815
清	-7.08644
开	-7.09009
产	-7.09428
四	-7.10065
风	-7.10132
里	-7.10542
方	-7.10643
点	-7.10729
二	-7.10865
作	-7.1156
并	-7.11899
华	-7.1206
度	-7.12292
安	-7.12462
由	-7.1252
平	-7.12528
同	-7.12612
头	-7.12674
经	-7.14565
9	-7.15438
中心	-7.15497
相	-7.1612
王	-7.16306
电	-7.16361
明	-7.16637
者	-7.16756
级	-7.17146
门	-7.17199
书	-7.17393
乡	-7.1746
文化	-7.18093
工程	-7.18355
工	-7.18366
五	-7.18456
口	-7.18592
原	-7.18729
器	-7.1908
业	-7.19188
处	-7.19222
物	-7.19513
系统	-7.19833
北	-7.19835
气	-7.19864
两	-7.20057
学校	-7.20117
斯	-7.20678
手	-7.21833
型	-7.22308
通	-7.22487
军	-7.22613
万	-7.23365
集	-7.23383
特	-7.23954
0	-7.24031
定	-7.24608
尔	-7.24692
热	-7.2501
设计	-7.25525
号	-7.26097
都	-7.26185
米	-7.26213
数	-7.26522
白	-7.26577
能	-7.26758
事	-7.27157
20	-7.27188
德	-7.27308
师	-7.27757
国际	-7.28039
式	-7.28045
重	-7.28643
起	-7.28709
元	-7.29126
网	-7.29763
()	-7.29834
好	-7.29889
病	-7.30049
林	-7.30511
流	-7.30678
州	-7.3132
实	-7.31469
种	-7.31523
得	-7.3154
十	-7.31834
经济	-7.32004
系	-7.32025
龙	-7.32061
一个	-7.32115
着	-7.3225
河	-7.32585
期	-7.32624
院	-7.32679
位于	-7.33323
江	-7.33439
个	-7.33487
位	-7.33576
各	-7.33642
马	-7.33699
场	-7.33772
公	-7.33843
民	-7.34019
向	-7.34547
人,	-7.34828
约	-7.34964
如	-7.35155
带	-7.35449
学院	-7.35857
油	-7.35884
过	-7.36431
要	-7.36432
达	-7.36441
利	-7.36829
身	-7.37611
商	-7.37642
建	-7.37854
加	-7.37899
阳	-7.3834
车	-7.38357
他	-7.38634
字	-7.3931
省	-7.39478
主要	-7.39716
,是	-7.39819
就	-7.39949
正	-7.4001
校	-7.40107
古	-7.40417
形	-7.4059
黄	-7.40627
张	-7.40698
副	-7.40743
建设	-7.41016
当	-7.41464
色	-7.41485
动	-7.41585
台	-7.41671
常	-7.43047
片	-7.43199
情	-7.43547
此	-7.43893
余	-7.4425
理	-7.44626
类	-7.4481
变	-7.45052
量	-7.45169
党	-7.45733
"	-7.45825
立	-7.46635
精	-7.47001
》、《	-7.47026
教学	-7.47664
全国	-7.47699
代	-7.47726
老	-7.47785
社会	-7.4789
红	-7.48115
,并	-7.48164
项目	-7.48215
共	-7.48252
已	-7.4828
,在	-7.48495
教	-7.4878
近	-7.49194
次	-7.50351
进行	-7.50484
拉	-7.50488
设备	-7.51142
选	-7.51207
调	-7.52411
提供	-7.5258
可以	-7.52633
30	-7.53127
组织	-7.53181
间	-7.53383
世界	-7.53557
称	-7.53566
品	-7.53721
第一	-7.54424
%	-7.54867
强	-7.54882
有限公司	-7.54901
科技	-7.54944
木	-7.55045
节	-7.55484
语	-7.55534
。”	-7.55704
合	-7.56103
指	-7.56377
我	-7.56737
女	-7.5707
使	-7.57511
奖	-7.58188
传	-7.58589
管	-7.58715
去	-7.58829
交	-7.5886
开发	-7.59056
进	-7.59491
火	-7.5975
还	-7.59793
市场	-7.60167
员	-7.60179
回	-7.60439
说	-7.60924
卡	-7.60949
更	-7.61056
月	-7.61172
爱	-7.61506
比	-7.6197
信息	-7.62274
15	-7.62911
百	-7.62932
深	-7.63243
获	-7.63405
九	-7.63435
双	-7.63875
使用	-7.6403
站	-7.64173
画	-7.64262
意	-7.64332
现	-7.6491
层	-7.6492
地区	-7.65032
厂	-7.65205
人。	-7.65582
首	-7.66004
应	-7.66019
世	-7.66271
香	-7.66479
取	-7.66581
亚	-7.67269
属	-7.67604
通过	-7.67691
艺术	-7.67805
星	-7.67809
北京	-7.67917
组	-7.67996
网络	-7.68544
质量	-7.68884
),	-7.68936
报	-7.69483
室	-7.69507
具有	-7.6951
干	-7.70056
受	-7.70566
协会	-7.70655
叶	-7.70783
板	-7.70874
编	-7.71115
房	-7.71266
12	-7.71276
图	-7.71325
转	-7.71439
感	-7.71596
单	-7.71833
声	-7.72626
团	-7.72651
50	-7.72874
学生	-7.72921
乐	-7.73175
又	-7.73236
青	-7.73515
生活	-7.73556
环境	-7.73788
,以	-7.73925
音	-7.74089
神	-7.74275
楼	-7.7442
条	-7.74426
科学	-7.74665
界	-7.74725
18	-7.74842
这	-7.74946
基	-7.75071
质	-7.753
保	-7.75575
专	-7.7558
作品	-7.76315
战	-7.76509
草	-7.76517
农	-7.76547
药	-7.77357
队	-7.7756
务	-7.77749
治	-7.78146
美国	-7.7836
周	-7.78623
八	-7.78756
工业	-7.78836
以及	-7.78862
布	-7.78942
曲	-7.79056
放	-7.79085
初	-7.7926
联	-7.79915
率	-7.80154
建筑	-7.80222
行业	-7.80352
状	-7.81112
该	-7.81149
委	-7.81164
活动	-7.81358
园	-7.81409
士	-7.81447
即	-7.8149
防	-7.81727
较	-7.81855
千	-7.82032
史	-7.82272
16	-7.82701
观	-7.82761
均	-7.82802
太	-7.82805
宝	-7.82866
味	-7.82893
官	-7.83104
汉	-7.83108
上海	-7.8315
应用	-7.83303
见	-7.83374
收	-7.83566
信	-7.83738
功能	-7.8389
边	-7.83979
很	-7.84031
政府	-7.84049
远	-7.84212
极	-7.84544
政	-7.84748
解	-7.84935
云	-7.854
土	-7.85419
职	-7.85789
接	-7.86211
标准	-7.86531
源	-7.86686
直	-7.86908
微	-7.86952
料	-7.87279
因	-7.87733
球	-7.88261
真	-7.88611
李	-7.88616
优秀	-7.88622
少	-7.88955
经营	-7.89204
户	-7.89322
支持	-7.8944
把	-7.89673
教师	-7.90042
关	-7.90117
血	-7.90178
湖	-7.90692
～	-7.90715
七	-7.90764
件	-7.90979
做	-7.91026
武	-7.91279
兴	-7.91493
六	-7.91946
单位	-7.92016
40	-7.92107
罗	-7.92289
章	-7.92353
打	-7.92773
基础	-7.92842
你	-7.92913
具	-7.92969
兰	-7.93038
先	-7.93189
剧	-7.93252
”。	-7.93257
空	-7.93409
田	-7.93527
安全	-7.94388
人员	-7.94413
低	-7.94432
论	-7.94513
品牌	-7.94541
曾	-7.94547
学习	-7.94784
果	-7.94786
别	-7.94799
反	-7.95379
男	-7.95573
景	-7.95707
居	-7.9611
机构	-7.96144
义	-7.96495
肉	-7.96532
菜	-7.96798
给	-7.96817
成为	-7.9682
各种	-7.96978
皮	-7.97152
城市	-7.97241
参加	-7.97264
鱼	-7.97277
80	-7.97458
朝	-7.97464
修	-7.97618
装	-7.97727
自然	-7.97824
11	-7.97862
桥	-7.97994
项	-7.98024
树	-7.98691
宁	-7.98707
游	-7.98893
作为	-7.98937
班	-7.99224
客户	-7.99325
细	-7.99455
导	-7.99488
时间	-7.99503
非	-7.99567
温	-8.00011
格	-8.00125
篇	-8.00211
知	-8.00242
半	-8.00279
权	-8.00479
支	-8.005
列	-8.00652
盐	-8.00668
!	-8.01396
食	-8.01426
集团	-8.01448
拥有	-8.01467
诗	-8.01773
底	-8.0181
代表	-8.01828
面积	-8.01946
展	-8.01971
运	-8.02157
酒	-8.02277
复	-8.02559
投资	-8.02751
卷	-8.0279
角	-8.02881
100	-8.03054
13	-8.03184
配	-8.03228
宽	-8.03379
临	-8.0363
销售	-8.04158
结构	-8.04659
连	-8.04979
客	-8.0519
结	-8.05426
酸	-8.05635
标	-8.05791
程	-8.05861
词	-8.05931
日本	-8.06078
方法	-8.06097
60	-8.06298
17	-8.06352
族	-8.06437
波	-8.06521
超	-8.06569
届	-8.0659
巴	-8.0669
抗	-8.06766
国内	-8.06923
笔	-8.06929
目	-8.07594
切	-8.07617
25	-8.0769
控制	-8.08218
游戏	-8.08274
获得	-8.08374
》:“	-8.08397
材料	-8.08617
阿	-8.08677
音乐	-8.08855
,为	-8.08952
座	-8.08969
酒店	-8.0902
粉	-8.09033
产业	-8.09162
则	-8.09459
成立	-8.09508
想	-8.09508
排	-8.09517
200	-8.0991
人民	-8.09921
委员会	-8.09956
毛	-8.10159
剂	-8.10317
理论	-8.10348
营	-8.10425
唐	-8.1045
主任	-8.10479
中学	-8.10548
每	-8.1068
社	-8.10739
表	-8.10922
宋	-8.11065
历史	-8.11196
庄	-8.11278
春	-8.11323
电子	-8.11347
陈	-8.11431
加入	-8.11467
写	-8.11503
随	-8.11603
录	-8.1166
纳	-8.11678
志	-8.1188
包括	-8.1189
14	-8.11976
根据	-8.12043
只	-8.12306
”的	-8.12348
同时	-8.12401
中的	-8.12485
办	-8.12565
能力	-8.12698
提	-8.1281
部分	-8.12961
医院	-8.13072
黑	-8.1375
采用	-8.14017
7月	-8.14027
兵	-8.14083
看	-8.14153
综合	-8.14513
资	-8.14568
夫	-8.14723
就是	-8.14813
几	-8.15163
毕业于	-8.15302
视	-8.15305
包	-8.15429
今	-8.15517
岛	-8.15542
开始	-8.15726
让	-8.16047
素	-8.16077
言	-8.16332
参	-8.16395
堂	-8.16403
除	-8.1644
我们	-8.1645
像	-8.1648
矿	-8.16657
环	-8.16936
资源	-8.16995
馆	-8.17233
落	-8.1729
从事	-8.17312
农业	-8.17436
岁	-8.17447
创新	-8.17474
离	-8.17545
其他	-8.17579
改	-8.17594
软件	-8.17638
话	-8.1773
越	-8.17731
负责	-8.17938
盘	-8.18008
段	-8.18253
培训	-8.18304
街	-8.18471
备	-8.18474
养	-8.1884
设	-8.18928
沙	-8.18969
儿	-8.19201
版	-8.19208
值	-8.19225
目前	-8.19244
第二	-8.19497
系列	-8.19659
作用	-8.19719
旅游	-8.19891
再	-8.20007
藏	-8.20076
便	-8.20099
维	-8.20286
交通	-8.20307
广	-8.20556
永	-8.20594
—	-8.21075
——	-8.21158
存	-8.21177
提高	-8.21494
群	-8.21517
9月	-8.21523
丝	-8.21612
引	-8.21638
规划	-8.21699
压	-8.21858
端	-8.21993
思	-8.22151
”,	-8.22218
然	-8.22363
科研	-8.22453
业务	-8.22548
合作	-8.22705
问题	-8.23074
步	-8.23218
歌	-8.23246
厚	-8.23413
现代	-8.24421
机械	-8.24427
钢	-8.24563
方式	-8.24704
等。	-8.24764
刻	-8.24838
玉	-8.24982
?	-8.2508
易	-8.25098
后,	-8.25275
证	-8.25403
福	-8.25434
难	-8.25498
博	-8.25507
异	-8.25543
内容	-8.25647
中央	-8.25653
历	-8.25737
那	-8.25819
行政	-8.25903
人口	-8.26115
记	-8.26412
求	-8.26481
。在	-8.26486
奇	-8.26524
注	-8.26571
灵	-8.26599
12月	-8.26757
厅	-8.26782
兼	-8.26825
服	-8.26973
8月	-8.27027
文学	-8.27168
不断	-8.27201
分析	-8.27329
短	-8.27977
尼	-8.28147
第	-8.28238
但	-8.28517
升	-8.28584
加工	-8.2864
普	-8.28645
社区	-8.28748
组成	-8.28926
铁	-8.28965
重点	-8.28985
专家	-8.29278
一般	-8.29357
×	-8.29611
教授	-8.29614
派	-8.29789
眼	-8.29828
读	-8.29947
创	-8.29961
她	-8.29991
人才	-8.302
骨	-8.3021
小学	-8.3045
失	-8.30482
保护	-8.30519
生物	-8.30769
用户	-8.30784
卫	-8.30823
致	-8.30916
处理	-8.30947
命	-8.31088
领导	-8.3134
指导	-8.31538
甲	-8.31545
顶	-8.32126
塔	-8.322
10月	-8.32226
高级	-8.32364
,有	-8.32418
制造	-8.32864
没有	-8.32879
不同	-8.33041
先后	-8.33125
印	-8.33287
夏	-8.33524
苏	-8.33657
未	-8.33695
500	-8.33767
牌	-8.3381
治疗	-8.33851
考	-8.33927
”、“	-8.33929
领域	-8.33945
以上	-8.33984
根	-8.34081
刘	-8.34124
承	-8.34459
川	-8.34556
载	-8.34695
店	-8.34893
茶	-8.34989
例	-8.35288
他们	-8.35354
实现	-8.35357
会员	-8.3539
用于	-8.35771
友	-8.35911
造	-8.35953
住	-8.35979
公里	-8.36175
氏	-8.3626
英	-8.36322
菌	-8.36458
,但	-8.36518
经验	-8.36603
)。	-8.36637
制作	-8.3669
学术	-8.36723
植物	-8.36858
牛	-8.37023
松	-8.37086
走	-8.3717
雅	-8.37358
论文	-8.37781
聚	-8.37815
销	-8.379
体系	-8.37946
出版	-8.3808
有关	-8.3809
优	-8.38093
传统	-8.3822
才	-8.38256
卫生	-8.38386
末	-8.38423
领	-8.38517
密	-8.38651
套	-8.38946
佛	-8.39376
大型	-8.39438
其中	-8.39452
散	-8.39597
岩	-8.39735
,其中	-8.39774
样	-8.39977
按	-8.40038
射	-8.40139
奥	-8.4031
需要	-8.40483
它	-8.40593
形成	-8.40708
著	-8.40865
圆	-8.40997
款	-8.41229
6月	-8.41242
丽	-8.41301
部门	-8.41304
医学	-8.41309
赛	-8.41323
相关	-8.41408
平台	-8.41475
送	-8.41571
寺	-8.41634
独	-8.41686
盛	-8.41725
24	-8.41745
:“	-8.41793
块	-8.41912
试	-8.41913
港	-8.42004
死	-8.4203
要求	-8.42244
足	-8.42343
泰	-8.42367
亦	-8.42381
政治	-8.42412
3月	-8.42553
纪	-8.42602
鲜	-8.42905
革命	-8.42962
富	-8.43212
成立于	-8.43444
职业	-8.43505
侧	-8.43602
艺	-8.43614
击	-8.437
宗	-8.43898
银	-8.44024
增	-8.44186
模式	-8.44284
利用	-8.44472
,其	-8.44655
核	-8.44872
汇	-8.45057
现有	-8.45295
往	-8.4534
飞	-8.45403
自己	-8.45456
亩	-8.45547
占	-8.45624
杀	-8.45689
功	-8.45758
汽车	-8.45898
礼	-8.4598
计	-8.46134
置	-8.46207
贵	-8.4627
精神	-8.46364
助	-8.46406
70	-8.46578
完成	-8.46637
整	-8.46671
纸	-8.46856
昌	-8.46869
速	-8.46991
著名	-8.47002
育	-8.47048
宫	-8.47485
5月	-8.47617
止	-8.47758
益	-8.47782
冷	-8.47834
时,	-8.47893
理念	-8.4823
汤	-8.48468
预	-8.48662
纹	-8.48746
彩	-8.48858
祖	-8.4898
书法	-8.49028
距离	-8.49071
胶	-8.49168
结合	-8.49254
设施	-8.49279
容	-8.49362
绝	-8.49363
圣	-8.4941
医	-8.49617
轮	-8.49691
毕业	-8.49752
吉	-8.49874
康	-8.50024
股	-8.50025
补	-8.50105
属于	-8.50168
特色	-8.50196
您	-8.50196
工艺	-8.50236
电影	-8.50262
守	-8.50572
照	-8.50652
网站	-8.50814
健康	-8.5083
接口	-8.50843
讲	-8.50911
第三	-8.50956
钱	-8.51064
商业	-8.51271
鸡	-8.51472
运动	-8.51672
收入	-8.51711
1月	-8.51905
封	-8.51924
亲	-8.52045
实施	-8.52084
学会	-8.52218
演	-8.52311
4月	-8.52427
中文	-8.52433
化学	-8.52484
野	-8.52563
这个	-8.52571
孔	-8.52619
库	-8.5265
望	-8.52686
食品	-8.52839
归	-8.52956
溪	-8.53
轻	-8.53033
本书	-8.53092
11月	-8.53103
典	-8.53148
毒	-8.53152
威	-8.53392
泉	-8.53425
知识	-8.53438
为主	-8.53465
发表	-8.53508
香港	-8.53615
针	-8.53654
快	-8.53719
00	-8.53799
*	-8.53821
研发	-8.53888
采	-8.53995
丰	-8.53997
材	-8.54008
善	-8.54018
季	-8.54024
鲁	-8.54056
航	-8.54214
水平	-8.54431
方面	-8.54482
生,	-8.54505
称为	-8.54674
雄	-8.54736
含	-8.54904
全面	-8.55058
委员	-8.55095
尽	-8.55104
2006年	-8.55146
峰	-8.55508
绿	-8.55638
府	-8.55676
最大	-8.55759
+	-8.55769
中,	-8.55835
世纪	-8.55857
庆	-8.559
湿	-8.55946
杨	-8.56005
良	-8.56115
早	-8.56328
雷	-8.56394
州市	-8.56478
,使	-8.56692
查	-8.56801
90	-8.56939
架	-8.56954
固	-8.57013
顺	-8.57164
山东	-8.57243
谷	-8.57278
珠	-8.57439
理事	-8.57484
小说	-8.57521
26	-8.57615
评	-8.57617
培养	-8.57648
发生	-8.57671
特点	-8.57688
价	-8.57713
静	-8.57745
已经	-8.58044
建立	-8.58065
性能	-8.58138
活	-8.58166
我国	-8.58203
数据	-8.58261
仪	-8.58398
题	-8.58457
书画	-8.58489
2008年	-8.58515
28	-8.58595
先进	-8.5873
会议	-8.58956
烧	-8.59017
,而	-8.5911
副主任	-8.59501
锅	-8.59723
令	-8.59859
22	-8.59907
仅	-8.59919
供	-8.59951
公里,	-8.6003
断	-8.60047
附	-8.60063
2007年	-8.60104
费	-8.60136
交流	-8.60219
熟	-8.60266
伤	-8.60289
阴	-8.60348
自动	-8.60432
序	-8.60544
势	-8.60546
青年	-8.60734
成功	-8.60789
久	-8.60872
却	-8.6097
关系	-8.6099
膜	-8.61012
液	-8.61193
份	-8.61252
所有	-8.61289
宜	-8.61436
计划	-8.61508
炎	-8.61644
托	-8.61691
邻	-8.61693
呈	-8.61733
类型	-8.61789
距	-8.61825
满	-8.61917
23	-8.61937
2010年	-8.62093
京	-8.62498
豆	-8.62561
吴	-8.62679
经过	-8.6276
晋	-8.62899
2009年	-8.62951
开展	-8.62964
人物	-8.63117
种植	-8.63194
目标	-8.63201
辖	-8.63278
效	-8.63338
降	-8.63394
秀	-8.63737
临床	-8.63788
母	-8.63818
额	-8.63853
显	-8.63857
灯	-8.63903
博士	-8.64029
改革	-8.64044
检	-8.64064
嘉	-8.64069
优质	-8.64079
症	-8.64104
达到	-8.64199
依	-8.64223
担任	-8.64247
基本	-8.64253
核心	-8.64302
梅	-8.64447
司	-8.64467
美术	-8.64557
万元	-8.64571
民族	-8.64614
21	-8.64672
政策	-8.64716
们	-8.64941
差	-8.6505
箱	-8.65066
洛	-8.65076
工作。	-8.65126
平方米	-8.65251
思想	-8.65361
2005年	-8.65446
故	-8.65501
坚持	-8.65512
研	-8.65523
之一。	-8.65559
待	-8.65631
计算机	-8.65666
麻	-8.65876
仁	-8.66084
据	-8.66107
尚	-8.66117
丁	-8.66201
各类	-8.66234
冲	-8.66242
境	-8.66348
麦	-8.66594
,他	-8.6667
横	-8.6677
体育	-8.66773
背	-8.66788
糖	-8.66806
护	-8.66809
限	-8.66818
一种	-8.67075
,也	-8.67221
投	-8.67411
诸	-8.67416
创作	-8.67459
烟	-8.67589
简	-8.67641
时期	-8.67647
是指	-8.67822
价值	-8.6789
品种	-8.68008
佳	-8.68024
分钟	-8.68037
洞	-8.68042
伊	-8.68149
紧	-8.68214
医疗	-8.68229
岸	-8.6827
之一	-8.68523
出现	-8.68523
述	-8.68569
纯	-8.68605
浙江	-8.68853
商务	-8.689
必	-8.68967
个人	-8.69055
基地	-8.69198
算	-8.69281
广泛	-8.6942
瑞	-8.69495
帝	-8.69511
是一个	-8.69518
为了	-8.69616
象	-8.69654
众	-8.6967
一定	-8.69693
认证	-8.69697
参与	-8.69726
300	-8.69754
术	-8.69774
产生	-8.69913
成果	-8.6992
亮	-8.70068
征	-8.70132
方向	-8.70143
留	-8.70151
虫	-8.70157
语言	-8.70165
二十	-8.70195
穿	-8.70229
齐	-8.70285
发现	-8.70369
皇	-8.70405
沿	-8.70496
竹	-8.70537
域	-8.70574
:1	-8.70576
软	-8.70729
积极	-8.70768
由于	-8.70916
举	-8.70942
登	-8.71041
事业	-8.71095
课	-8.7114
自己的	-8.71185
净	-8.7119
研究所	-8.71197
台湾	-8.71232
耐	-8.71243
胜	-8.71254
床	-8.71302
人的	-8.71305
弹	-8.71307
27	-8.714
旅	-8.71529
衣	-8.71563
积	-8.71641
2000	-8.71645
批	-8.71738
广大	-8.71917
消	-8.72022
故事	-8.72425
注册	-8.72429
是由	-8.72455
模	-8.72467
洋	-8.7248
2004年	-8.72502
,由	-8.72545
......	-8.72559
中华	-8.72627
规模	-8.72706
多次	-8.72804
2月	-8.7311
夜	-8.73269
紫	-8.73275
作者	-8.73278
一些	-8.73425
雨	-8.73511
咨询	-8.73539
硬	-8.7355
这种	-8.73628
欧	-8.73764
晚	-8.73846
两个	-8.73898
重要	-8.74222
现在	-8.74293
协	-8.74517
2.	-8.74776
课程	-8.74858
区域	-8.74866
杂	-8.74902
南京	-8.74955
35	-8.74971
延	-8.74974
分别	-8.75132
烈	-8.75158
文件	-8.75181
苦	-8.75364
旧	-8.75397
滑	-8.754
急	-8.75527
影	-8.75579
害	-8.7563
耳	-8.75635
何	-8.757
推	-8.75713
实验	-8.75724
许	-8.75732
独立	-8.75732
主持	-8.75776
陵	-8.75819
条件	-8.76013
财	-8.76034
影响	-8.76209
电视	-8.76255
°C	-8.76351
货	-8.76411
攻	-8.76424
一直	-8.76441
32	-8.76452
脉	-8.76596
润	-8.76601
学历	-8.76801
孙	-8.76842
动物	-8.76861
哈	-8.76938
这些	-8.77239
银行	-8.77375
叫	-8.77379
晶	-8.77459
米,	-8.77516
1.	-8.77556
的发展	-8.77682
痛	-8.77734
显示	-8.77741
尺寸	-8.77742
救	-8.778
泽	-8.77819
仙	-8.78014
2003年	-8.7806
--	-8.78095
铜	-8.7817
选择	-8.7817
陆	-8.7818
执行	-8.78258
中共	-8.78438
码	-8.78445
至今	-8.7856
生于	-8.78806
铁路	-8.78864
梁	-8.78891
好的	-8.7891
伯	-8.78917
肥	-8.78995
示	-8.7906
操作	-8.79072
粒	-8.79103
本科	-8.7916
正式	-8.79303
出版社	-8.79379
贝	-8.79689
船	-8.79847
,可	-8.79851
丰富	-8.79897
腹	-8.79983
招	-8.79988
45	-8.80021
效果	-8.80128
瓦	-8.8024
员工	-8.80443
出生	-8.80542
寿	-8.80556
有效	-8.80557
形式	-8.80639
雪	-8.80646
惠	-8.8071
400	-8.80716
办公室	-8.80818
努力	-8.8091
文明	-8.80942
)、	-8.8127
测	-8.8128
促进	-8.81382
井	-8.81385
范围	-8.81388
的一种	-8.81501
细胞	-8.81643
特别	-8.81674
时代	-8.81878
检测	-8.81879
枝	-8.81946
巨	-8.82107
被评为	-8.82243
,不	-8.82259
秋	-8.82279
迁	-8.82368
听	-8.8238
胡	-8.82474
态	-8.82482
终	-8.82554
尾	-8.82565
学科	-8.82708
左右	-8.82818
-1	-8.82921
生态	-8.8293
怀	-8.83145
税	-8.83293
疾病	-8.83335
工作,	-8.8336
》(	-8.83368
上的	-8.83437
议	-8.83514
潮	-8.8354
共同	-8.83545
实践	-8.83586
盖	-8.83614
镜	-8.8372
蓝	-8.83735
金属	-8.83764
2002年	-8.83788
围	-8.83842
缘	-8.83986
进入	-8.83989
杂志	-8.84013
亩,	-8.84021
非常	-8.84109
品质	-8.84239
四川	-8.84414
汉族	-8.84644
吃	-8.84719
姜	-8.84733
。《	-8.84738
诚	-8.8476
索	-8.84828
破	-8.84861
风格	-8.84912
灰	-8.85225
柱	-8.85295
人们	-8.85306
乌	-8.85355
基金	-8.85543
的“	-8.85561
需	-8.85672
营销	-8.85821
新闻	-8.85846
山东省	-8.86277
愿	-8.86366
塞	-8.86413
技	-8.86446
诺	-8.86591
驻	-8.86612
折	-8.8662
联合	-8.86627
》,	-8.86705
减	-8.86736
冰	-8.86862
全球	-8.87071
丹	-8.87082
刊	-8.87084
荣	-8.87126
案	-8.87187
朱	-8.87268
鸟	-8.87346
施	-8.87375
制度	-8.87446
》等	-8.87637
刀	-8.87676
英语	-8.87695
是一种	-8.87707
喜	-8.87741
▁公司	-8.87767
炒	-8.87898
年代	-8.88092
换	-8.88124
控	-8.88181
脱	-8.88218
需求	-8.88263
监	-8.88375
干部	-8.88381
壁	-8.88558
若	-8.88641
方便	-8.88652
略	-8.88686
的一个	-8.88854
执	-8.8891
洪	-8.88936
,对	-8.88947
800	-8.88979
遗	-8.88997
地方	-8.88998
研究生	-8.89
厘米	-8.89093
持	-8.89159
广州	-8.89228
唱	-8.89349
遇	-8.89438
绿色	-8.89503
安装	-8.89685
批准	-8.89686
君	-8.89699
徐	-8.8971
,男,	-8.89846
谓	-8.89884
屏	-8.90105
致力于	-8.90265
尤	-8.90266
受到	-8.90305
战争	-8.90334
激	-8.90345
莱	-8.90369
探	-8.90428
打造	-8.90573
情况	-8.90598
猪	-8.90693
脚	-8.90739
>	-8.90962
不能	-8.90977
广东	-8.9098
金融	-8.91153
宣传	-8.91161
施工	-8.91429
稳定	-8.9147
普通	-8.91512
乳	-8.9152
下,	-8.91531
扬	-8.91544
错	-8.91775
国内外	-8.91776
宣	-8.92251
杯	-8.92321
实际	-8.92408
英国	-8.92414
饰	-8.92442
墨	-8.92448
表现	-8.9246
广西	-8.92512
知名	-8.92552
始	-8.92553
1000	-8.92562
公路	-8.92663
农村	-8.92676
智	-8.92766
移	-8.92769
之间	-8.92776
岭	-8.92816
2011年	-8.92843
出生,	-8.93006
得到	-8.93044
法律	-8.93241
既	-8.93312
=	-8.9333
准	-8.93418
湾	-8.93442
恩	-8.93508
冬	-8.93595
公园	-8.93707
2000年	-8.93766
空间	-8.93815
,即	-8.93923
一次	-8.93975
左	-8.93983
他的	-8.94041
规范	-8.94081
2001年	-8.94135
负	-8.94187
径	-8.94292
战略	-8.94302
充	-8.94411
推广	-8.94417
舞	-8.94439
东北	-8.94447
习	-8.94509
多个	-8.94526
创造	-8.94546
牙	-8.946
分子	-8.94637
迹	-8.94641
长,	-8.94689
比较	-8.94792
警	-8.94902
壮	-8.94967
直接	-8.95022
海拔	-8.95061
武汉	-8.95354
提出	-8.95481
脑	-8.95527
西南	-8.95731
也是	-8.9579
过程	-8.95805
请	-8.95812
适	-8.95876
家庭	-8.95878
透	-8.95891
洗	-8.96072
缺	-8.96127
农民	-8.96148
。公司	-8.96213
幼	-8.96268
息	-8.96271
释	-8.96309
人民政府	-8.96338
分为	-8.96343
规定	-8.96492
争	-8.96572
长期	-8.96765
江苏	-8.96803
可能	-8.96956
物理	-8.96969
先生	-8.96974
地处	-8.9706
圈	-8.97139
籍	-8.9714
薄	-8.97231
平均	-8.97244
裂	-8.97248
尖	-8.97256
电源	-8.97292
隔	-8.97306
占地面积	-8.97418
范	-8.97434
钟	-8.97676
坚	-8.97681
互	-8.97818
优势	-8.97832
如果	-8.98009
资料	-8.98144
机关	-8.982
毫米	-8.9821
俗	-8.9823
湖南	-8.98254
碑	-8.98337
600	-8.98362
。该	-8.98433
赵	-8.98615
邮	-8.9864
发行	-8.98642
进步	-8.98648
36	-8.98654
还有	-8.98666
成员	-8.98714
甘	-8.98751
监督	-8.98953
最高	-8.99008
期间	-8.99011
壳	-8.99049
察	-8.99135
病毒	-8.99139
某	-8.99197
广东省	-8.99252
庙	-8.99281
价格	-8.99302
墙	-8.99306
29	-8.99319
能够	-8.99319
梦	-8.99344
。他	-8.99397
大量	-8.99485
勤	-8.99491
葱	-8.99596
许多	-8.99634
露	-8.99785
磨	-8.99879
墓	-8.99881
化工	-8.99932
摩	-8.99971
贴	-8.99971
办公	-9.0001
~	-9.00022
参加工作	-9.00024
,它	-9.00077
团队	-9.00113
旗	-9.0014
最大的	-9.00209
土地	-9.00235
贸易	-9.00498
退	-9.00617
程序	-9.00627
温度	-9.00636
羊	-9.00637
因为	-9.00679
德国	-9.00704
隆	-9.00759
广告	-9.00807
宗旨	-9.00879
试验	-9.0091
位置	-9.00922
册	-9.01001
萨	-9.01317
订	-9.01378
恶	-9.01551
及其	-9.01556
池	-9.01592
桃	-9.01686
放入	-9.01838
关于	-9.01887
振	-9.01967
丰富的	-9.02039
省级	-9.02105
泡	-9.02116
连续	-9.0216
河南	-9.02172
教材	-9.02206
称号	-9.02237
寒	-9.02268
山区	-9.02331
洲	-9.0239
环保	-9.02452
瓜	-9.02494
电脑	-9.0253
坐	-9.02554
播	-9.02574
1998年	-9.02645
党员	-9.02713
苗	-9.02717
父	-9.02756
曾任	-9.02794
西北	-9.02802
鼓	-9.02851
000	-9.03003
为“	-9.03023
秦	-9.03119
变化	-9.0321
刚	-9.0321
珍	-9.03251
肝	-9.03278
私	-9.03589
98	-9.03598
村委会	-9.03806
帮助	-9.03824
分布	-9.03914
日,	-9.03969
劳	-9.04023
认为	-9.04131
淡	-9.04311
潜	-9.04364
荣获	-9.04403
之后	-9.0458
似	-9.04616
勒	-9.04677
沟	-9.04806
装饰	-9.04991
900	-9.05218
统	-9.05231
沉	-9.05256
儿童	-9.05346
审	-9.05385
靠	-9.05396
资金	-9.05462
县城	-9.05621
存在	-9.05633
启	-9.05634
零	-9.05642
纵	-9.05692
配套	-9.05712
多年	-9.05808
频	-9.05836
溶	-9.05873
戏	-9.05951
阻	-9.05962
规	-9.0604
,中国	-9.06088
,现	-9.06166
全村	-9.06265
隐	-9.06361
购	-9.06366
爆	-9.06384
这里	-9.06397
肠	-9.06418
魔	-9.06436
江苏省	-9.06497
卖	-9.06511
作家	-9.06531
第四	-9.06623
,将	-9.06646
都是	-9.06664
桂	-9.06765
增加	-9.0686
运行	-9.06883
多种	-9.07064
,从	-9.07094
贡献	-9.07107
,同时	-9.07281
其它	-9.07372
缩	-9.0755
48	-9.0758
尊	-9.0762
...	-9.0766
英文	-9.07742
齿	-9.07757
出生于	-9.07811
译	-9.07999
塑	-9.08057
右	-9.08084
,主要	-9.08128
伦	-9.08149
视频	-9.08399
表面	-9.08428
任务	-9.08452
株	-9.08514
坡	-9.08616
行为	-9.08623
课题	-9.08786
办学	-9.08834
牧	-9.08954
交易	-9.09022
娱乐	-9.09103
姓	-9.0914
妇	-9.09227
停	-9.0934
舍	-9.0936
蒙	-9.09396
票	-9.09426
济	-9.09545
乃	-9.09558
问	-9.09666
,如	-9.09803
健	-9.09849
素质	-9.09852
亿元	-9.09869
参数	-9.09899
保证	-9.10009
乙	-9.10066
历任	-9.1012
倒	-9.10223
满足	-9.1031
皆	-9.10317
上,	-9.10353
莫	-9.10384
,又	-9.10472
良好的	-9.10656
谢	-9.10687
医药	-9.10693
焦	-9.10722
饮	-9.10753
类型:	-9.10756
代理	-9.10843
虚	-9.10851
宿	-9.10927
敏	-9.11057
这一	-9.11058
剑	-9.11086
塘	-9.11169
书记	-9.11197
当代	-9.11232
,这	-9.11389
继	-9.11408
谈	-9.11499
小时	-9.1156
设有	-9.11566
绘	-9.11599
完全	-9.11616
1999年	-9.11624
示范	-9.11731
的研究	-9.11742
中医	-9.11801
编辑	-9.11855
植	-9.1187
刺	-9.11878
速度	-9.12041
轴	-9.12059
挂	-9.12086
会计	-9.12154
时尚	-9.12237
描述	-9.12347
追	-9.12491
斗	-9.12499
法国	-9.12575
解决	-9.1262
宾	-9.12635
-19	-9.12765
页	-9.12824
容量	-9.12878
数字	-9.12966
假	-9.1306
仍	-9.13074
1997年	-9.13159
33	-9.13192
燃	-9.13196
浙江省	-9.13267
-2	-9.13289
工具	-9.13387
实验室	-9.1345
十二	-9.13475
运输	-9.13478
虎	-9.13517
枪	-9.13543
简称	-9.13657
介绍	-9.13725
乘	-9.13846
续	-9.14062
谱	-9.14105
煮	-9.14248
岗	-9.1468
粗	-9.14708
冠	-9.14857
砂	-9.14878
吸	-9.14967
览	-9.15823
凤	-9.15829
幅	-9.16212
赤	-9.16371
婚	-9.16381
跨	-9.16473
韩	-9.16522
划	-9.16642
柔	-9.16662
储	-9.16685
臣	-9.16718
浓	-9.16734
陶	-9.1679
谋	-9.16806
杜	-9.17005
浅	-9.17139
汁	-9.17225
插	-9.17415
突	-9.17449
律	-9.17546
殿	-9.17671
柳	-9.17684
洁	-9.17816
蒸	-9.17896
莲	-9.18106
染	-9.18158
誉	-9.18308
宏	-9.18516
浦	-9.18521
迪	-9.18713
句	-9.18783
诊	-9.18804
浮	-9.19323
严	-9.19416
斑	-9.19646
恒	-9.19823
郑	-9.19846
凡	-9.20242
坝	-9.20355
御	-9.20812
觉	-9.20848
暗	-9.20912
完	-9.21061
’	-9.21116
卵	-9.21357
泥	-9.21361
哥	-9.21393
羽	-9.2153
认	-9.21617
胃	-9.21807
迷	-9.21919
锡	-9.2201
郎	-9.22074
喷	-9.22267
於	-9.22344
借	-9.22885
亭	-9.2303
构	-9.23043
仓	-9.23242
决	-9.23318
坦	-9.23752
拟	-9.23789
囊	-9.23867
磁	-9.23928
伟	-9.2414
弟	-9.24184
锦	-9.24468
勇	-9.24904
残	-9.24947
雕	-9.24972
肾	-9.25033
杰	-9.25158
闭	-9.25343
奉	-9.25397
跟	-9.25433
°	-9.25622
乱	-9.25752
链	-9.25886
崇	-9.25899
顿	-9.25925
址	-9.26007
识	-9.26064
津	-9.26112
堡	-9.26372
魏	-9.26428
告	-9.26436
兽	-9.26437
授	-9.26462
忠	-9.2651
签	-9.26656
败	-9.26766
楚	-9.26999
曼	-9.27071
倍	-9.27137
庭	-9.27188
玩	-9.27281
姆	-9.27633
疑	-9.27955
凉	-9.28151
胸	-9.28337
署	-9.28347
弱	-9.28545
碎	-9.28582
废	-9.28685
卓	-9.28825
辛	-9.28888
祥	-9.29038
融	-9.29107
赞	-9.29786
灭	-9.30019
缓	-9.30211
聘	-9.30691
翻	-9.30837
杆	-9.31154
顾	-9.31447
疗	-9.31582
吧	-9.31626
粘	-9.31677
敌	-9.31696
没	-9.31779
炮	-9.32059
荷	-9.32392
革	-9.324
亿	-9.32514
介	-9.32542
森	-9.32606
鉴	-9.32607
筹	-9.32707
判	-9.3287
敬	-9.32927
贯	-9.33013
貌	-9.33101
埃	-9.33217
触	-9.33471
疏	-9.33649
确	-9.33977
炼	-9.33998
偏	-9.34024
茎	-9.34043
滨	-9.34629
淮	-9.34646
笑	-9.34768
铺	-9.34787
甜	-9.35155
闻	-9.35351
刑	-9.35634
灌	-9.35782
损	-9.35909
坊	-9.35956
呼	-9.35976
丘	-9.35978
邦	-9.36007
伏	-9.36039
纲	-9.36357
'	-9.36526
欲	-9.36561
验	-9.3676
趣	-9.36831
涂	-9.37103
且	-9.37322
拍	-9.37411
衡	-9.37558
碳	-9.37612
朗	-9.38151
煤	-9.38177
畅	-9.38214
贸	-9.38234
伴	-9.38549
寨	-9.38574
玄	-9.38658
耗	-9.38688
惊	-9.38716
赋	-9.38725
震	-9.38809
误	-9.39209
桑	-9.39361
繁	-9.3951
滚	-9.39602
抓	-9.39731
盟	-9.39768
炉	-9.39808
胆	-9.39813
湘	-9.3998
餐	-9.4009
拜	-9.40237
闽	-9.4046
奶	-9.40615
浪	-9.40623
童	-9.40703
幽	-9.40704
戴	-9.41041
幻	-9.4139
扎	-9.41408
享	-9.41708
险	-9.41911
暴	-9.41941
概	-9.42006
屋	-9.42196
曰	-9.42265
肌	-9.42505
访	-9.42636
赴	-9.42794
侯	-9.42848
阔	-9.42958
裁	-9.42986
炸	-9.43132
椒	-9.43155
另	-9.43287
犹	-9.43408
吨	-9.43478
艾	-9.43492
宇	-9.43515
铝	-9.43605
氧	-9.4391
棉	-9.44106
督	-9.44383
贤	-9.44649
凝	-9.44707
蛋	-9.44725
腺	-9.4499
阀	-9.45006
训	-9.45061
钻	-9.45135
辞	-9.4521
脂	-9.45304
琴	-9.45338
禁	-9.45489
轨	-9.45502
玛	-9.45583
胎	-9.45723
买	-9.4573
渡	-9.45915
念	-9.45959
廷	-9.46021
答	-9.46029
织	-9.46122
阶	-9.46373
脏	-9.46431
郭	-9.46433
柏	-9.46485
锋	-9.46637
郡	-9.46666
休	-9.46914
慢	-9.47002
灾	-9.4705
担	-9.47304
暖	-9.47314
癌	-9.47467
肺	-9.47498
旁	-9.47549
澳	-9.47578
舰	-9.47757
阵	-9.47789
幕	-9.47893
浆	-9.47982
遍	-9.47995
鼎	-9.48292
燕	-9.48607
翅	-9.48992
混	-9.4901
曹	-9.49169
练	-9.49203
鼻	-9.4925
途	-9.49463
寻	-9.49676
免	-9.49756
巧	-9.49781
峡	-9.49821
捕	-9.49909
仿	-9.49918
旋	-9.49931
抽	-9.50206
徒	-9.50207
响	-9.50334
鼠	-9.50336
妙	-9.50369
悬	-9.50376
穗	-9.5046
匙	-9.50594
奏	-9.50673
寄	-9.50955
侵	-9.51086
稀	-9.51089
怪	-9.51137
掌	-9.51294
袋	-9.51598
替	-9.51748
希	-9.52298
偶	-9.52392
付	-9.52453
倾	-9.52547
凯	-9.52586
售	-9.53089
腾	-9.53206
渐	-9.53341
董	-9.53403
<	-9.53899
申	-9.53943
芳	-9.53979
咸	-9.54032
岳	-9.54034
截	-9.54168
腰	-9.54417
尘	-9.5455
豪	-9.54559
拔	-9.54575
廉	-9.54611
浴	-9.54702
坪	-9.54819
尺	-9.54989
畜	-9.55142
驱	-9.55193
阁	-9.55222
贫	-9.55363
拿	-9.55473
危	-9.5548
稳	-9.55678
斜	-9.55821
螺	-9.55836
毫	-9.55842
操	-9.5609
郁	-9.56172
韵	-9.56266
坛	-9.56269
孝	-9.56444
醇	-9.56548
巡	-9.56706
绪	-9.5675
默	-9.56846
尿	-9.56932
扩	-9.57485
秒	-9.57618
泵	-9.57921
遂	-9.57981
茂	-9.58309
搭	-9.58337
辅	-9.586
●	-9.58733
′	-9.58784
酷	-9.58857
‘	-9.58893
鬼	-9.58941
符	-9.59061
仲	-9.59272
陷	-9.59635
夹	-9.59917
亡	-9.5999
累	-9.60154
须	-9.6026
铃	-9.60302
遭	-9.60364
烤	-9.60384
援	-9.60538
氨	-9.60754
映	-9.61118
携	-9.61437
粮	-9.61487
悠	-9.61542
淋	-9.61582
拳	-9.61718
瓶	-9.62261
填	-9.62306
颁	-9.62336
梯	-9.62537
腔	-9.62697
乔	-9.63013
恋	-9.63051
键	-9.63057
汽	-9.63096
际	-9.63145
妻	-9.63282
颜	-9.6329
芝	-9.63334
租	-9.63352
滩	-9.63416
栋	-9.63428
稍	-9.63458
渔	-9.6365
席	-9.63841
盆	-9.63873
扶	-9.63907
颈	-9.64082
姐	-9.64098
砖	-9.64269
柄	-9.64574
朴	-9.65415
晓	-9.6545
跳	-9.65575
妹	-9.65591
卒	-9.65783
颇	-9.66136
腿	-9.66163
辉	-9.66184
返	-9.66252
孟	-9.66504
纷	-9.66568
遥	-9.66607
赫	-9.66627
丸	-9.67049
「	-9.67131
鸣	-9.67204
」	-9.67227
窗	-9.67457
蒜	-9.67539
\	-9.67598
丛	-9.67693
菇	-9.67728
缝	-9.67765
漆	-9.68021
弗	-9.6823
棋	-9.68256
骑	-9.68265
弯	-9.68527
夺	-9.68564
俄	-9.68626
衰	-9.68783
详	-9.68864
翼	-9.68944
沃	-9.69009
赏	-9.69127
瓷	-9.69207
嫩	-9.69348
浸	-9.69356
迎	-9.69527
锁	-9.69599
蒂	-9.69694
潭	-9.6973
卢	-9.69954
讨	-9.70071
弃	-9.70337
绕	-9.70494
虾	-9.70508
奋	-9.7061
档	-9.70672
瓣	-9.70764
稿	-9.70801
肿	-9.71273
鞋	-9.71294
脊	-9.71612
闪	-9.71792
虽	-9.72075
I	-9.72289
拼	-9.72293
饭	-9.72334
肯	-9.72404
枚	-9.72462
甚	-9.72499
罪	-9.72508
摄	-9.72776
番	-9.73225
腐	-9.73477
侨	-9.73551
熙	-9.73648
污	-9.73818
慈	-9.74104
予	-9.74123
午	-9.74225
涉	-9.74263
摇	-9.74648
郊	-9.75315
酱	-9.75403
绵	-9.75474
跑	-9.75599
叉	-9.75723
沈	-9.75728
掉	-9.75749
避	-9.75871
秘	-9.7593
铸	-9.75969
碱	-9.76205
乎	-9.76427
赠	-9.76576
硫	-9.76593
魂	-9.76636
锐	-9.76702
奔	-9.76702
盗	-9.77174
ㄧ	-9.77306
硅	-9.77333
翠	-9.77345
弦	-9.77408
纠	-9.77425
靖	-9.77858
苑	-9.7794
描	-9.78261
稻	-9.7832
鸭	-9.78357
旺	-9.78552
鹿	-9.78619
篮	-9.78709
筋	-9.7895
辽	-9.78951
筑	-9.78992
僧	-9.79195
勘	-9.79198
愈	-9.79216
漏	-9.79271
蜜	-9.79325
抵	-9.79604
割	-9.79605
颖	-9.79678
窑	-9.79797
励	-9.79835
诉	-9.79874
娘	-9.79961
鸿	-9.79978
吕	-9.80222
候	-9.80347
菲	-9.80489
枣	-9.8067
召	-9.80913
剪	-9.80918
祭	-9.80956
揭	-9.8097
禅	-9.81037
弘	-9.81098
己	-9.81107
斋	-9.81274
蔡	-9.81286
筒	-9.81459
患	-9.81484
嘴	-9.81581
抚	-9.81584
逐	-9.81875
苍	-9.8188
逃	-9.81946
昭	-9.81966
孤	-9.82146
络	-9.8245
_	-9.82538
碧	-9.82605
柜	-9.82711
莞	-9.82731
找	-9.82825
献	-9.8285
析	-9.83342
煎	-9.83455
幸	-9.83485
毁	-9.8351
荒	-9.83554
碗	-9.83708
叠	-9.8371
霞	-9.83758
鹤	-9.84052
翰	-9.84115
束	-9.84182
龄	-9.84298
尝	-9.84635
促	-9.84667
敢	-9.84876
伸	-9.85174
妆	-9.85192
蛇	-9.85235
旨	-9.85301
栏	-9.85458
盒	-9.85459
酶	-9.85671
悉	-9.85847
袁	-9.85878
帮	-9.85958
谁	-9.86101
肩	-9.86331
&	-9.86345
忘	-9.86528
违	-9.86557
穴	-9.86624
帕	-9.86778
债	-9.86792
浩	-9.86891
逝	-9.86964
芦	-9.87
扁	-9.87124
孕	-9.87258
葬	-9.87281
霍	-9.87455
滋	-9.87514
役	-9.87636
泌	-9.87711
醒	-9.87885
铭	-9.87928
汗	-9.87942
廊	-9.87997
磷	-9.88021
鳞	-9.88055
垂	-9.88124
舒	-9.88141
捷	-9.88282
栖	-9.88426
扇	-9.88496
迫	-9.88614
狂	-9.88647
泊	-9.88746
迈	-9.88954
欢	-9.88984
策	-9.89332
佩	-9.89621
丙	-9.89672
纽	-9.90119
荆	-9.90152
沸	-9.90372
袭	-9.90553
狱	-9.90668
拨	-9.90703
黎	-9.90828
抱	-9.90927
冻	-9.91191
悲	-9.91211
屯	-9.91325
冒	-9.91382
企	-9.91422
昆	-9.91469
伍	-9.91538
纤	-9.91606
吐	-9.91608
舟	-9.91819
堆	-9.91914
逆	-9.92003
藤	-9.92015
柴	-9.92096
凭	-9.92187
颗	-9.9219
儒	-9.92416
坏	-9.92431
摆	-9.92448
芽	-9.9246
剿	-9.92573
猎	-9.92866
遵	-9.9326
脾	-9.93412
穆	-9.93422
旦	-9.93523
饼	-9.93646
猫	-9.93671
侍	-9.93848
彼	-9.94047
蜂	-9.94919
烯	-9.95045
粤	-9.95092
赖	-9.95215
萧	-9.95347
踪	-9.95454
伐	-9.95473
虹	-9.95707
耶	-9.95818
偿	-9.95953
滴	-9.96047
艳	-9.96225
泳	-9.96259
捐	-9.96463
漫	-9.96652
劲	-9.96677
串	-9.9675
朵	-9.96808
犯	-9.96884
俊	-9.97029
ˋ	-9.9705
滤	-9.97155
卿	-9.97179
佐	-9.97248
冯	-9.97476
翔	-9.9766
究	-9.97771
疾	-9.97811
殖	-9.97879
贡	-9.98001
雾	-9.98032
涵	-9.98148
坑	-9.98172
邪	-9.98219
贾	-9.98259
伪	-9.98426
桐	-9.98429
榜	-9.98501
抢	-9.99009
熊	-9.99074
仰	-9.99254
氯	-9.99437
赣	-9.99482
疫	-9.99519
耕	-9.9956
葛	-9.99596
贺	-9.99623
币	-9.99689
熔	-9.99739
蝶	-9.99802
扣	-9.99904
枢	-9.99962
撰	-9.99977
逸	-10.0002
纱	-10.0011
穷	-10.0011
衔	-10.0012
烂	-10.002
罐	-10.0026
吾	-10.0035
暂	-10.0037
姿	-10.0039
芬	-10.004
扰	-10.0043
茅	-10.0044
狮	-10.0055
渗	-10.0062
框	-10.0082
彭	-10.0085
冈	-10.0095
ㄨ	-10.0106
撒	-10.0132
捞	-10.016
卧	-10.0177
醉	-10.0183
娜	-10.0201
竟	-10.0202
拆	-10.0208
巷	-10.0266
棒	-10.0287
壶	-10.0287
般	-10.0303
什	-10.0332
旱	-10.0347
槽	-10.0368
菊	-10.0375
桌	-10.0376
荡	-10.0383
兹	-10.0395
畔	-10.0412
谊	-10.0415
漂	-10.0427
狭	-10.0436
孢	-10.0444
输	-10.0447
赢	-10.0487
苯	-10.0494
屈	-10.051
舌	-10.06
爵	-10.061
泛	-10.0614
肢	-10.0629
狗	-10.0634
纬	-10.0638
杏	-10.0645
否	-10.0655
勋	-10.0665
糊	-10.0671
浏	-10.0671
梨	-10.0675
凌	-10.0683
毕	-10.0693
焊	-10.07
棕	-10.072
脸	-10.0732
崖	-10.0758
酯	-10.0776
霸	-10.0785
阐	-10.0795
篆	-10.0804
撤	-10.0804
宪	-10.0808
睡	-10.0812
祝	-10.0822
匀	-10.0826
讯	-10.0826
弥	-10.0831
釉	-10.0834
姚	-10.0837
甸	-10.0842
竭	-10.0847
肖	-10.086
侦	-10.0869
迅	-10.0876
沧	-10.0878
韦	-10.089
戈	-10.0891
宴	-10.0895
豫	-10.0909
醋	-10.0914
兆	-10.0916
箭	-10.0917
爽	-10.0927
婴	-10.0929
叙	-10.0942
俱	-10.0946
恐	-10.0964
吹	-10.0969
悦	-10.098
辣	-10.098
忧	-10.1002
ˊ	-10.1014
覆	-10.1018
邑	-10.1033
戒	-10.1034
祠	-10.1038
潘	-10.1043
〕	-10.1048
芯	-10.105
噪	-10.1069
奈	-10.1086
侠	-10.1094
〔	-10.1098
盈	-10.1103
厨	-10.111
艰	-10.1139
耀	-10.1159
晨	-10.1161
勃	-10.1179
摸	-10.1192
贞	-10.12
乏	-10.1206
邀	-10.1233
喉	-10.1235
蓄	-10.1235
膏	-10.1241
闲	-10.1259
猛	-10.1273
悟	-10.1284
矩	-10.1302
仔	-10.1303
牵	-10.1309
绣	-10.1317
裕	-10.1355
辨	-10.1374
辰	-10.1381
沪	-10.1392
吊	-10.1406
彻	-10.1407
伙	-10.1417
困	-10.1425
缸	-10.1425
姑	-10.143
丈	-10.1433
氢	-10.1434
唯	-10.1438
忍	-10.1473
鄂	-10.1524
宅	-10.1542
培	-10.1555
闹	-10.1565
烦	-10.157
蕴	-10.1578
巢	-10.1583
邓	-10.1618
踏	-10.1621
竞	-10.1642
驰	-10.1649
瘦	-10.1658
脆	-10.1667
辟	-10.168
慧	-10.169
蓬	-10.1703
阅	-10.1714
赐	-10.1716
跃	-10.1744
襄	-10.1787
怕	-10.1802
眉	-10.1809
雌	-10.1818
沂	-10.1824
钙	-10.1824
履	-10.1825
嵌	-10.1847
握	-10.185
阜	-10.1851
椅	-10.1863
琼	-10.189
隶	-10.1911
沥	-10.1918
腻	-10.198
犬	-10.1986
辈	-10.1988
笋	-10.1994
龟	-10.2026
枯	-10.2033
昂	-10.2037
眠	-10.2048
绩	-10.2053
★	-10.2085
茄	-10.21
怒	-10.2101
堪	-10.2102
叔	-10.2105
柯	-10.2108
勾	-10.2113
鹰	-10.2136
搞	-10.2137
轩	-10.2139
聊	-10.2149
纺	-10.2149
禽	-10.2166
擦	-10.2178
藻	-10.2181
莉	-10.2193
诱	-10.2199
胀	-10.2206
帅	-10.2209
奠	-10.2222
呢	-10.2222
夷	-10.2245
哪	-10.2254
懂	-10.2258
搜	-10.2294
鳍	-10.2314
『	-10.2332
』	-10.2335
泄	-10.2357
吏	-10.2372
艇	-10.2378
薯	-10.2383
垫	-10.2387
催	-10.2402
镀	-10.2404
挑	-10.2421
蒲	-10.2435
些	-10.2436
椎	-10.2454
蒋	-10.2455
傅	-10.2456
浙	-10.2472
涯	-10.2473
凸	-10.2476
刷	-10.2485
锥	-10.2497
饱	-10.2498
硕	-10.2512
弄	-10.2523
烹	-10.2537
寸	-10.2548
丧	-10.2553
搬	-10.2561
汕	-10.258
摘	-10.2597
梗	-10.2655
飘	-10.2662
瘤	-10.2662
髓	-10.2671
雀	-10.2675
驾	-10.2678
翁	-10.2679
绳	-10.2683
拥	-10.2685
渠	-10.2706
淘	-10.2718
剖	-10.2745
惟	-10.2746
矣	-10.275
麓	-10.2765
绒	-10.2775
蜀	-10.2784
削	-10.279
衍	-10.2819
宠	-10.2825
汪	-10.2835
慕	-10.2848
婆	-10.2851
绍	-10.2904
臂	-10.2904
甫	-10.2934
拓	-10.2938
锻	-10.294
杭	-10.2947
胺	-10.2951
―	-10.2968
狼	-10.2992
徽	-10.2994
拖	-10.3021
账	-10.3046
妖	-10.3051
淀	-10.3058
拱	-10.3068
唇	-10.3078
酵	-10.31
辑	-10.3102
霉	-10.3137
契	-10.3155
窝	-10.3166
邵	-10.3167
痕	-10.3172
搏	-10.3189
饶	-10.3199
炭	-10.3217
仕	-10.3221
漠	-10.3237
兔	-10.3254
忽	-10.3263
夕	-10.3269
陀	-10.3307
奴	-10.3308
遣	-10.3336
埋	-10.3351
莎	-10.336
罕	-10.3375
筛	-10.3387
旬	-10.3399
涌	-10.3409
贼	-10.3412
闸	-10.342
涛	-10.3425
禄	-10.3434
酿	-10.344
咽	-10.35
聪	-10.3503
庵	-10.3529
械	-10.3549
杉	-10.3569
±	-10.3576
籽	-10.3577
凹	-10.3604
芒	-10.3622
扭	-10.3629
→	-10.3636
鑫	-10.3656
添	-10.3687
茨	-10.3693
霜	-10.3699
敦	-10.3699
匹	-10.3707
尸	-10.3714
攀	-10.3732
隙	-10.3734
抛	-10.374
够	-10.3743
寓	-10.3766
蚕	-10.3779
挤	-10.3792
渊	-10.3793
帽	-10.3803
鹅	-10.3813
逢	-10.3815
撞	-10.3825
迟	-10.3846
隋	-10.3879
袖	-10.3889
冶	-10.3891
弧	-10.3899
泻	-10.3923
辩	-10.3997
慎	-10.4003
屿	-10.4012
澄	-10.4019
芜	-10.4024
庞	-10.4024
幢	-10.4024
哲	-10.4029
洒	-10.4047
擎	-10.4049
崔	-10.405
暨	-10.4051
掘	-10.4062
咳	-10.4069
糕	-10.4073
忌	-10.4093
乾	-10.4109
淄	-10.4113
胞	-10.4135
腌	-10.4143
钦	-10.4166
钩	-10.4176
锌	-10.4183
伞	-10.4197
睿	-10.4208
汝	-10.421
罚	-10.4218
惜	-10.4235
唤	-10.4269
麟	-10.4277
赶	-10.4284
埠	-10.4286
孩	-10.4291
剩	-10.4298
庐	-10.43
兄	-10.4332
帖	-10.434
挺	-10.4346
堤	-10.4347
帐	-10.4356
窄	-10.4364
溢	-10.4366
逊	-10.4372
泪	-10.4379
么	-10.4391
冀	-10.4406
彦	-10.441
蓉	-10.4423
鹏	-10.4427
扫	-10.4449
毅	-10.445
忆	-10.4473
仇	-10.4479
浑	-10.4498
棱	-10.4499
鞍	-10.4519
沫	-10.4526
挡	-10.4534
勺	-10.4537
欣	-10.4539
笼	-10.4546
况	-10.4561
吗	-10.4565
肤	-10.4566
栗	-10.4575
递	-10.459
爷	-10.4612
疮	-10.4615
漳	-10.4628
彝	-10.4638
颂	-10.4649
膨	-10.4649
贮	-10.4652
酥	-10.4666
宰	-10.4677
娃	-10.4689
棚	-10.4702
蟹	-10.4719
墩	-10.4745
钠	-10.4746
巾	-10.4775
叛	-10.4777
○	-10.4783
肃	-10.4803
尉	-10.4846
怡	-10.485
雍	-10.4868
痰	-10.4873
潍	-10.4873
瀑	-10.4917
#	-10.494
渣	-10.4944
喝	-10.4954
喻	-10.4959
诏	-10.499
碟	-10.4996
暑	-10.5002
偷	-10.5007
逼	-10.5009
恨	-10.5016
趋	-10.503
糯	-10.5047
拌	-10.5048
妃	-10.5055
懈	-10.5063
|	-10.5067
裹	-10.5076
辆	-10.5077
牢	-10.51
蚀	-10.5116
氮	-10.5118
珊	-10.5129
押	-10.5135
薛	-10.5137
烘	-10.515
祀	-10.5168
臭	-10.5174
嫁	-10.5177
谦	-10.5179
埔	-10.5193
荫	-10.5193
券	-10.5201
隧	-10.5202
後	-10.5216
榆	-10.522
凶	-10.5222
缠	-10.5244
雁	-10.5256
殊	-10.5281
掩	-10.5289
忙	-10.5289
估	-10.529
轧	-10.531
溃	-10.5324
卸	-10.5329
叹	-10.5363
琳	-10.5368
盾	-10.5381
斤	-10.5384
喀	-10.5412
铅	-10.5426
缴	-10.5433
浇	-10.5445
衬	-10.547
猴	-10.5486
氟	-10.5529
橙	-10.5531
瑶	-10.5539
拒	-10.5563
巩	-10.5586
皖	-10.5611
扑	-10.5628
禹	-10.568
稽	-10.5707
滞	-10.5719
ˇ	-10.5719
腊	-10.5722
渴	-10.5737
惑	-10.5742
淳	-10.5777
韧	-10.5785
匠	-10.5804
禾	-10.5815
披	-10.5818
责	-10.5826
ー	-10.589
括	-10.5906
剥	-10.5913
挖	-10.5919
烫	-10.5919
咏	-10.5922
虞	-10.593
≤	-10.5937
晒	-10.5938
怨	-10.5967
爪	-10.599
综	-10.599
恰	-10.5991
馅	-10.6065
萃	-10.6078
丑	-10.6079
砌	-10.6105
亨	-10.6112
鲍	-10.612
饲	-10.6125
楷	-10.6164
傲	-10.6186
劫	-10.6191
哀	-10.6195
弓	-10.6231
酮	-10.6245
炖	-10.6264
姬	-10.6272
厌	-10.6303
跌	-10.6306
芹	-10.6311
尹	-10.6316
灸	-10.632
谜	-10.6338
昏	-10.6348
碰	-10.6354
裔	-10.6359
钓	-10.6366
玲	-10.639
泼	-10.6391
蔽	-10.6426
帆	-10.644
桶	-10.6446
菱	-10.6451
寂	-10.6451
肴	-10.6459
洽	-10.6468
狐	-10.6491
吻	-10.651
陇	-10.6515
斩	-10.6526
栽	-10.6549
鞘	-10.6585
蜡	-10.6597
樱	-10.6614
昔	-10.6621
秩	-10.6622
坎	-10.6624
疲	-10.6627
堰	-10.6632
镶	-10.6639
屡	-10.6657
锯	-10.668
胁	-10.6704
瑟	-10.6725
竖	-10.6726
黔	-10.6733
晕	-10.6745
爸	-10.6768
谐	-10.6768
殷	-10.6772
谭	-10.678
绥	-10.6787
竣	-10.681
卜	-10.6825
歇	-10.683
恭	-10.6851
陕	-10.6854
疆	-10.687
瞬	-10.6875
匪	-10.6886
遮	-10.6896
贪	-10.691
枫	-10.6911
馈	-10.6919
媒	-10.6947
吞	-10.6985
挥	-10.6989
の	-10.6993
萼	-10.7018
骤	-10.7038
顽	-10.7044
妮	-10.7054
伽	-10.7058
倡	-10.7059
厢	-10.7083
罩	-10.7087
皱	-10.7089
抹	-10.7091
诞	-10.7171
渝	-10.7176
擅	-10.7231
锈	-10.7232
褐	-10.7238
钝	-10.724
苔	-10.7264
焉	-10.7287
缅	-10.7295
帘	-10.7327
秉	-10.7336
榄	-10.7338
祛	-10.7339
ㄢ	-10.7346
卤	-10.7366
邱	-10.7372
仑	-10.7383
删	-10.7407
蹄	-10.7409
敞	-10.741
劝	-10.7422
丞	-10.7452
轰	-10.7452
尧	-10.7453
坤	-10.7482
檐	-10.7511
μ	-10.7536
栓	-10.7554
萍	-10.7582
屠	-10.7612
沼	-10.7615
绎	-10.7634
〉	-10.7651
奎	-10.7655
苞	-10.766
枕	-10.7672
胚	-10.7679
罢	-10.7686
喘	-10.7687
吟	-10.769
孜	-10.7713
矮	-10.7714
迄	-10.7716
焰	-10.7727
庸	-10.7743
喇	-10.7784
硝	-10.7786
祸	-10.7791
垦	-10.7795
〈	-10.7806
膝	-10.7817
抑	-10.7819
钾	-10.7829
梧	-10.7855
贷	-10.787
粥	-10.7875
酰	-10.7891
肚	-10.7913
ン	-10.7927
捉	-10.7927
刹	-10.7927
粹	-10.7931
睐	-10.7934
爬	-10.7948
烷	-10.7953
疹	-10.7974
渭	-10.798
黏	-10.8015
拾	-10.8035
镁	-10.8058
梵	-10.807
膀	-10.8105
肇	-10.8119
晴	-10.8127
惯	-10.8151
桔	-10.8167
巫	-10.8169
◆	-10.8184
稠	-10.8206
邹	-10.8207
畏	-10.8216
峻	-10.8237
旭	-10.8247
棘	-10.8249
劣	-10.8252
疯	-10.8264
啊	-10.8277
涨	-10.8303
薇	-10.8312
陪	-10.8322
盲	-10.8331
邢	-10.8341
舆	-10.8344
湛	-10.8369
蕉	-10.8383
蕾	-10.8398
樊	-10.84
刮	-10.8423
彰	-10.8427
峪	-10.8437
葫	-10.8451
钮	-10.8478
函	-10.8479
涤	-10.8487
桩	-10.8509
障	-10.8527
酬	-10.8533
礁	-10.8543
锤	-10.8549
涡	-10.8557
择	-10.8566
奸	-10.8578
募	-10.8586
亥	-10.8634
杞	-10.8685
朔	-10.8685
抒	-10.8688
惨	-10.8689
仆	-10.87
崩	-10.872
祁	-10.874
蕊	-10.8741
砚	-10.8743
薪	-10.8753
芙	-10.8764
屑	-10.8766
澜	-10.8775
藩	-10.8778
◎	-10.8787
肛	-10.8804
惧	-10.8805
艘	-10.8811
寇	-10.8815
萌	-10.8829
颠	-10.8834
厉	-10.8841
啤	-10.8843
拘	-10.8843
煲	-10.8858
汾	-10.8861
傍	-10.8869
簧	-10.8874
馀	-10.894
钉	-10.8941
芋	-10.8943
荔	-10.8954
纂	-10.8972
鞭	-10.8983
敷	-10.9007
瑚	-10.9009
詹	-10.9015
凑	-10.9033
熏	-10.9075
绞	-10.9075
虑	-10.9122
≥	-10.914
卦	-10.9146
哭	-10.9165
涅	-10.9178
蛛	-10.9194
沁	-10.9198
葵	-10.9203
梭	-10.9204
–	-10.9215
缀	-10.9237
矢	-10.9272
奢	-10.9279
邯	-10.9287
诵	-10.929
橄	-10.9299
汀	-10.9305
逾	-10.9322
诣	-10.934
循	-10.9366
骄	-10.9376
炳	-10.9394
骗	-10.9401
兮	-10.9401
橘	-10.9403
蕨	-10.9427
愤	-10.9428
垒	-10.9434
灿	-10.9446
峨	-10.946
а	-10.9495
颌	-10.9498
圩	-10.9499
佑	-10.9526
蔗	-10.9543
抄	-10.9547
町	-10.9551
焕	-10.9577
堵	-10.9577
愁	-10.9586
庚	-10.9601
淑	-10.9615
斥	-10.9622
斌	-10.9632
韶	-10.9645
窦	-10.9656
搅	-10.9673
赔	-10.9684
鸽	-10.9691
庶	-10.9703
闷	-10.9704
糙	-10.9705
措	-10.971
寡	-10.9711
魁	-10.972
宛	-10.9738
瘟	-10.9744
瑜	-10.9784
痴	-10.9786
榴	-10.9786
卑	-10.9807
恼	-10.9826
燥	-10.9828
灶	-10.9851
濒	-10.9858
柿	-10.987
洼	-10.9886
蔓	-10.9886
兑	-10.99
裸	-10.9911
琅	-10.9915
匈	-10.9924
豹	-10.9942
勐	-10.995
梳	-10.9967
疡	-10.9968
欺	-10.9973
棠	-11
坞	-11.0001
柠	-11.0003
梓	-11.0024
茸	-11.003
瘀	-11.004
肋	-11.0043
桓	-11.0094
溯	-11.01
迦	-11.0106
亏	-11.0127
绸	-11.0131
央	-11.0136
慰	-11.0143
圭	-11.0157
努	-11.0164
腕	-11.0164
趾	-11.0165
郸	-11.0179
允	-11.0205
曝	-11.0216
芡	-11.0216
涩	-11.0231
沛	-11.0236
凿	-11.0236
倚	-11.0242
渤	-11.025
刃	-11.027
о	-11.0279
莆	-11.0292
胰	-11.03
矫	-11.0301
娇	-11.0318
驿	-11.0319
祈	-11.0332
泗	-11.0332
崎	-11.0333
饪	-11.0337
泾	-11.0337
滇	-11.0337
蚁	-11.0356
蘑	-11.0371
檬	-11.0379
]	-11.0384
缔	-11.0388
萝	-11.0424
丢	-11.0456
槐	-11.0468
脓	-11.0497
氛	-11.0506
朋	-11.0513
嗣	-11.0526
侣	-11.053
棵	-11.0533
窟	-11.0542
裙	-11.0551
捣	-11.0552
廖	-11.0595
炙	-11.0605
厦	-11.0615
い	-11.0617
捧	-11.062
沾	-11.062
愉	-11.0629
煌	-11.0631
窃	-11.0637
琉	-11.0644
笛	-11.0645
荧	-11.0647
и	-11.0703
蚌	-11.0704
衢	-11.071
轿	-11.0733
泸	-11.0735
萎	-11.0753
狠	-11.0759
垣	-11.0768
膳	-11.0779
嫌	-11.0788
戚	-11.0806
咬	-11.082
坠	-11.0839
涧	-11.084
畸	-11.0846
狄	-11.0883
誓	-11.0899
嗽	-11.0924
莹	-11.0929
廓	-11.094
樟	-11.0948
皂	-11.0958
钞	-11.0978
滕	-11.0978
颅	-11.0994
蛮	-11.1003
椰	-11.1006
愚	-11.1015
茫	-11.1018
岐	-11.1018
嗜	-11.1025
鲤	-11.104
坯	-11.1071
胖	-11.1083
舜	-11.1106
夸	-11.1111
熬	-11.1113
舱	-11.1173
杖	-11.1217
瞻	-11.1223
钛	-11.1238
岂	-11.1244
冥	-11.1257
栈	-11.1259
啦	-11.1273
芭	-11.1276
α	-11.1289
谨	-11.1293
坟	-11.1294
醛	-11.1336
荟	-11.1343
枸	-11.1343
裴	-11.1352
棍	-11.1355
摊	-11.1356
^	-11.1381
厄	-11.1399
犀	-11.14
诠	-11.1403
苓	-11.1416
钥	-11.1448
畴	-11.1461
眩	-11.1462
厥	-11.1464
帜	-11.1464
俞	-11.1465
¥	-11.1471
铣	-11.1475
汶	-11.1492
酚	-11.15
菠	-11.1504
芥	-11.151
阮	-11.1518
乞	-11.1529
琪	-11.1531
沐	-11.1556
蛙	-11.1558
柑	-11.1564
谣	-11.157
淹	-11.1576
牟	-11.1581
娄	-11.1591
茵	-11.1592
勿	-11.1609
栅	-11.1626
俯	-11.1628
蠕	-11.1633
跋	-11.1643
倦	-11.1654
荐	-11.1661
呆	-11.169
揉	-11.1701
呕	-11.1704
挪	-11.172
骏	-11.1734
裤	-11.1756
魄	-11.1756
秧	-11.1765
婉	-11.1773
孵	-11.18
衷	-11.1817
蔚	-11.1826
哺	-11.1829
[	-11.1849
轼	-11.1851
藕	-11.1866
敛	-11.1868
嵩	-11.1918
─	-11.1932
壹	-11.1967
浊	-11.1973
钧	-11.1983
醚	-11.1986
秆	-11.199
簇	-11.1992
歧	-11.2029
毗	-11.205
咒	-11.2051
鸦	-11.2055
弊	-11.2062
镍	-11.2068
痒	-11.2074
靡	-11.2079
翘	-11.2098
谥	-11.2102
蝴	-11.2114
绑	-11.2142
扮	-11.2151
∶	-11.2189
陂	-11.2198
妄	-11.2199
嘎	-11.2226
闯	-11.2243
衫	-11.2245
崭	-11.2247
褶	-11.225
欠	-11.2253
驶	-11.2276
莓	-11.2283
矶	-11.2285
崛	-11.2286
雇	-11.2286
缆	-11.229
旷	-11.2292
璧	-11.2297
抬	-11.2299
祯	-11.2309
耿	-11.2315
俘	-11.2323
焚	-11.2367
粟	-11.237
铬	-11.2409
肆	-11.2421
俭	-11.2432
巍	-11.2455
烛	-11.248
戊	-11.2497
寅	-11.2498
挽	-11.2505
饥	-11.2505
辊	-11.2512
帧	-11.2518
辱	-11.2557
肽	-11.2574
岚	-11.2586
煸	-11.2596
塌	-11.2604
纶	-11.2613
蛾	-11.2621
敲	-11.2629
躯	-11.263
苷	-11.268
戎	-11.2693
龚	-11.2696
妈	-11.2699
悔	-11.2702
羌	-11.2706
阎	-11.2706
腋	-11.2708
蝉	-11.2712
妥	-11.2715
贬	-11.2718
簿	-11.2728
彬	-11.274
陡	-11.2742
诀	-11.2762
痹	-11.2762
皋	-11.2783
揽	-11.2784
渍	-11.2799
哉	-11.28
匾	-11.2818
勉	-11.2829
ㄐ	-11.2842
拦	-11.2851
暮	-11.2854
檀	-11.2875
贩	-11.2883
斧	-11.2904
喙	-11.2913
焯	-11.292
冤	-11.2928
е	-11.2974
浒	-11.2975
颐	-11.2983
盏	-11.2989
馨	-11.2991
m	-11.3004
驼	-11.3007
瓯	-11.301
荚	-11.3022
赌	-11.3022
洱	-11.3032
撕	-11.3035
锰	-11.3049
僵	-11.3053
阙	-11.3058
楠	-11.3077
炫	-11.3089
赚	-11.31
猜	-11.3105
н	-11.3136
榕	-11.3138
仗	-11.314
绅	-11.316
楹	-11.3169
β	-11.3171
岔	-11.3196
耸	-11.3207
脐	-11.3211
楔	-11.3224
躲	-11.3254
斐	-11.3267
潢	-11.3293
歼	-11.3299
ㄣ	-11.33
毯	-11.3304
ス	-11.3308
昼	-11.3314
圃	-11.3329
焖	-11.3349
澈	-11.3359
栩	-11.3367
呵	-11.3368
鹃	-11.3369
陌	-11.3396
羲	-11.3404
垢	-11.342
札	-11.3428
炬	-11.3431
犁	-11.3445
ル	-11.3472
茯	-11.3492
う	-11.3515
榨	-11.3527
ㄥ	-11.3532
袍	-11.3554
峭	-11.3566
徙	-11.3569
磅	-11.359
迭	-11.3594
潇	-11.3597
◇	-11.3618
腥	-11.3625
骚	-11.3637
摔	-11.3638
逮	-11.3651
骆	-11.3656
莘	-11.3657
冢	-11.3658
慨	-11.3679
磺	-11.3683
锂	-11.369
淫	-11.372
剔	-11.3725
叭	-11.3726
し	-11.3726
宦	-11.3732
珀	-11.3753
剁	-11.3757
橡	-11.3765
掠	-11.3769
酪	-11.3771
惩	-11.3771
询	-11.3775
藉	-11.3776
哩	-11.379
窥	-11.3802
焙	-11.3828
诈	-11.3839
笃	-11.3867
莽	-11.3876
撇	-11.3903
筝	-11.3927
锣	-11.3944
霖	-11.3945
绢	-11.3953
媚	-11.3967
粪	-11.4026
蕃	-11.403
玻	-11.4031
谏	-11.4035
か	-11.4038
碍	-11.4044
挚	-11.4067
坂	-11.4073
垩	-11.4091
峦	-11.4105
р	-11.4112
イ	-11.4154
芍	-11.4156
怜	-11.4206
砾	-11.4213
闵	-11.4222
臀	-11.4225
璋	-11.4226
钳	-11.4262
〗	-11.4275
〖	-11.4286
哮	-11.4297
沦	-11.4297
兢	-11.4299
羟	-11.4305
啸	-11.4314
喂	-11.4342
椭	-11.4347
鳃	-11.4378
琢	-11.4398
瘫	-11.4409
讽	-11.4409
黛	-11.442
倪	-11.4425
咀	-11.4428
蛤	-11.4431
禧	-11.4452
娶	-11.4453
佼	-11.4497
晖	-11.4497
璃	-11.4506
雏	-11.451
濮	-11.4514
岱	-11.4515
瞩	-11.4544
碘	-11.4544
拯	-11.4551
哨	-11.4586
遐	-11.4587
郝	-11.4603
恳	-11.462
妊	-11.4633
汲	-11.4639
壤	-11.4649
躁	-11.4656
寝	-11.4664
巅	-11.467
垄	-11.4681
渲	-11.4685
鲸	-11.4685
霄	-11.4687
眺	-11.4689
灼	-11.4698
悄	-11.4722
漓	-11.4731
酉	-11.4735
琐	-11.4758
侈	-11.4769
菏	-11.4789
衙	-11.4811
昧	-11.4822
撼	-11.4828
ㄒ	-11.4834
杠	-11.4836
韭	-11.4861
驳	-11.4889
胱	-11.489
苟	-11.4898
溜	-11.4904
摧	-11.4932
锚	-11.4939
禺	-11.4965
蔬	-11.4965
隅	-11.4975
靓	-11.4981
砍	-11.4987
绰	-11.4997
驴	-11.5004
娠	-11.5006
趁	-11.5021
睹	-11.5022
棺	-11.5035
踢	-11.5041
晏	-11.5044
滥	-11.5088
塾	-11.51
朽	-11.515
眷	-11.515
聂	-11.5154
琶	-11.5164
挫	-11.5174
绚	-11.5188
徵	-11.5191
麒	-11.5211
摹	-11.5239
沽	-11.5243
娱	-11.5259
骂	-11.5278
蒿	-11.5282
ㄌ	-11.5284
曙	-11.5292
诛	-11.5296
伺	-11.5302
诡	-11.5306
糟	-11.5308
哦	-11.5337
た	-11.5347
泣	-11.5372
羞	-11.5378
な	-11.539
痢	-11.5398
】	-11.5465
褒	-11.5465
潼	-11.5473
兜	-11.5473
瞄	-11.5506
咫	-11.5523
牲	-11.5525
癫	-11.5548
荀	-11.555
蝠	-11.5565
亢	-11.5624
梢	-11.5647
阪	-11.5653
恪	-11.5653
芸	-11.5653
с	-11.5657
咪	-11.5664
Ω	-11.5706
觅	-11.571
鲨	-11.5721
钵	-11.5721
翌	-11.5721
酌	-11.5729
翡	-11.5736
喊	-11.5737
盼	-11.574
蚝	-11.5766
陋	-11.5772
•	-11.578
【	-11.5785
鹦	-11.5836
}	-11.5837
铲	-11.5843
ㄙ	-11.5849
践	-11.5851
ん	-11.5851
淤	-11.5856
彪	-11.5871
忱	-11.5877
痘	-11.5888
娟	-11.5897
靶	-11.5901
竿	-11.5921
桦	-11.5923
厕	-11.5927
恤	-11.5947
匡	-11.5947
ㄠ	-11.5949
苇	-11.5949
悍	-11.5951
琦	-11.5964
霹	-11.5968
@	-11.5973
噬	-11.5984
в	-11.5985
晾	-11.599
祐	-11.6008
峙	-11.6021
{	-11.603
臻	-11.6037
嗓	-11.6041
岑	-11.605
掀	-11.6076
擢	-11.6109
雳	-11.6133
藓	-11.6153
稚	-11.6154
凄	-11.6169
馏	-11.6185
恢	-11.619
蒴	-11.6194
佣	-11.6198
鳌	-11.6214
豌	-11.6225
宵	-11.6227
箔	-11.6234
蚊	-11.6247
傣	-11.6252
缚	-11.6254
壬	-11.6258
と	-11.6265
聋	-11.627
懒	-11.6279
愧	-11.6281
郴	-11.6283
忻	-11.6295
捏	-11.6297
哑	-11.6326
硒	-11.6331
ト	-11.6358
骼	-11.6358
劈	-11.6358
烃	-11.6376
囚	-11.6376
拙	-11.638
寞	-11.6381
僚	-11.6408
硼	-11.641
谍	-11.6419
侗	-11.6426
奕	-11.6435
耻	-11.6447
辍	-11.6449
狩	-11.6465
姊	-11.6497
唑	-11.6527
拐	-11.6539
昨	-11.6548
谕	-11.6569
贱	-11.6589
粳	-11.6596
铎	-11.6599
к	-11.6601
癸	-11.6606
リ	-11.662
痫	-11.6629
搓	-11.6648
铵	-11.6652
蜘	-11.6659
敕	-11.666
耘	-11.6662
颉	-11.6678
墟	-11.6688
娥	-11.6697
・	-11.6702
饿	-11.674
莒	-11.6761
狸	-11.6779
蘖	-11.6785
ラ	-11.6789
拂	-11.6803
卯	-11.6813
虏	-11.6822
镂	-11.6827
□	-11.6831
颍	-11.6832
熹	-11.6843
昊	-11.6853
娴	-11.686
鹭	-11.6865
贿	-11.6891
ア	-11.6903
汰	-11.6905
碾	-11.691
颤	-11.6913
拷	-11.6927
虐	-11.6942
窖	-11.6942
辐	-11.6949
僻	-11.6949
き	-11.6963
侄	-11.6963
癣	-11.6983
孚	-11.6992
疼	-11.6993
鳄	-11.6994
蔷	-11.7011
溴	-11.7021
绮	-11.7028
蝇	-11.703
钨	-11.7038
肘	-11.705
娅	-11.7053
谛	-11.706
弛	-11.706
敖	-11.7062
槟	-11.7072
窍	-11.7077
刨	-11.7077
抖	-11.7079
俩	-11.7085
茹	-11.7126
噶	-11.7133
ㄏ	-11.7136
喧	-11.7148
蜥	-11.715
呀	-11.717
樵	-11.7172
掺	-11.7187
蜗	-11.7222
逻	-11.7226
戟	-11.7232
豉	-11.7242
猿	-11.7256
顷	-11.7297
$	-11.7316
л	-11.7348
絮	-11.7359
琵	-11.7366
饺	-11.7369
睦	-11.7376
惹	-11.7394
楞	-11.7396
ク	-11.7401
蓟	-11.7409
ま	-11.7434
ㄤ	-11.7434
傻	-11.7437
淇	-11.7439
悼	-11.7442
暇	-11.7454
嚼	-11.7465
鹊	-11.7498
瀚	-11.7515
镌	-11.7515
耆	-11.752
铀	-11.7525
颊	-11.7528
毓	-11.7554
堕	-11.7574
翟	-11.7584
柚	-11.7603
腑	-11.7613
磊	-11.762
茗	-11.7623
秃	-11.7644
淬	-11.7646
痔	-11.7661
缕	-11.7669
脯	-11.768
匿	-11.7719
莺	-11.7724
涪	-11.7732
粱	-11.7734
珑	-11.7739
晃	-11.7747
豚	-11.7768
缉	-11.7771
鸠	-11.7776
饵	-11.7778
锭	-11.7789
汛	-11.7794
ㄕ	-11.7797
驯	-11.7797
茧	-11.7797
鹉	-11.7841
袜	-11.7841
吓	-11.786
戌	-11.7868
滁	-11.787
筷	-11.7897
阱	-11.7907
缪	-11.791
芷	-11.7926
甬	-11.7934
讳	-11.7937
嘛	-11.794
笺	-11.7942
榻	-11.795
懿	-11.7987
橱	-11.7987
篷	-11.7998
婷	-11.8027
ㄉ	-11.803
厝	-11.8033
扼	-11.8041
祺	-11.8049
る	-11.8056
绛	-11.8065
踞	-11.8076
羡	-11.8078
疣	-11.8116
掖	-11.8127
浚	-11.8133
畲	-11.8157
鸾	-11.8171
贰	-11.8173
璨	-11.8178
佰	-11.8192
菩	-11.821
薰	-11.8211
丫	-11.8222
り	-11.8246
耍	-11.8272
漕	-11.8274
椿	-11.8305
笨	-11.8315
茜	-11.8316
玺	-11.8321
挠	-11.8321
☆	-11.8321
沅	-11.834
捆	-11.8343
佚	-11.8349
嘱	-11.8349
擒	-11.8349
g	-11.8357
〇	-11.8357
痈	-11.836
掷	-11.8366
舅	-11.8368
妾	-11.8371
涟	-11.8382
乖	-11.8385
柘	-11.8393
盔	-11.8393
ㄟ	-11.8407
憾	-11.8426
帛	-11.8429
冕	-11.8432
壑	-11.846
矾	-11.8465
芪	-11.8496
靴	-11.8527
氰	-11.8538
т	-11.8547
毙	-11.8549
ㄚ	-11.8553
巳	-11.8564
啶	-11.857
挣	-11.8587
邸	-11.8587
楂	-11.8587
瞳	-11.8607
襟	-11.8609
妓	-11.8615
羁	-11.8638
璀	-11.8638
荞	-11.8647
鸳	-11.8649
厘	-11.8658
嚣	-11.8666
挛	-11.8672
嫡	-11.8675
釜	-11.8686
蝎	-11.8689
匣	-11.8695
辕	-11.8715
弈	-11.8724
瑰	-11.8726
毡	-11.8735
涝	-11.8738
擀	-11.8741
蟠	-11.8764
甄	-11.8764
龛	-11.8768
辄	-11.8773
妨	-11.8776
み	-11.8778
镰	-11.8781
に	-11.8795
祷	-11.8819
亳	-11.8828
夯	-11.8839
殉	-11.884
羹	-11.8845
矛	-11.8889
酋	-11.8898
跻	-11.8933
迩	-11.8936
铂	-11.8941
桨	-11.895
豁	-11.8953
裳	-11.8959
撑	-11.8976
瑙	-11.8977
韬	-11.8977
烽	-11.8977
滔	-11.8986
稷	-11.8989
ッ	-11.8991
冉	-11.8992
渚	-11.9015
鱿	-11.9015
皓	-11.9015
陨	-11.9036
旌	-11.9084
闺	-11.9086
芎	-11.9113
歪	-11.9128
倭	-11.9128
ㄑ	-11.914
窜	-11.9147
哇	-11.9158
踩	-11.9164
皿	-11.9173
く	-11.9194
■	-11.9194
瀛	-11.9237
寮	-11.9243
盎	-11.9252
磐	-11.9252
笙	-11.9261
逍	-11.927
盂	-11.9276
晦	-11.9279
こ	-11.9285
烁	-11.9285
箐	-11.9294
钼	-11.9297
ㄓ	-11.9303
兀	-11.9313
糜	-11.9325
遁	-11.9328
ㄩ	-11.9337
恬	-11.9343
蜒	-11.9349
乍	-11.9352
墅	-11.9366
倩	-11.9374
蟾	-11.938
鄞	-11.9398
偃	-11.9404
潞	-11.9411
鳝	-11.9423
潺	-11.9426
臼	-11.9432
ㄛ	-11.9432
琥	-11.9438
竺	-11.9451
慌	-11.9482
俏	-11.9497
憩	-11.9497
穹	-11.9497
寰	-11.95
疽	-11.9506
秤	-11.9512
邕	-11.9537
胥	-11.9544
歙	-11.9566
谒	-11.9572
烙	-11.9606
颚	-11.9618
蘸	-11.9622
蛟	-11.9625
迥	-11.9631
さ	-11.9637
稣	-11.9647
紊	-11.9647
魅	-11.965
兖	-11.965
碌	-11.965
虔	-11.9714
胫	-11.9719
蚂	-11.9729
殡	-11.9742
妍	-11.9742
ㄍ	-11.9748
嫂	-11.9749
ㄅ	-11.9761
婺	-11.9768
痉	-11.9787
鲈	-11.9787
侏	-11.979
疱	-11.9793
炽	-11.9796
陛	-11.98
匍	-11.98
蜿	-11.9806
帷	-11.9822
赎	-11.9825
吡	-11.9838
麝	-11.9883
昵	-11.9912
夔	-11.9918
捻	-11.9928
裘	-11.9932
苛	-11.997
鸯	-11.9974
匐	-11.998
姻	-12.0002
躬	-12.0023
V	-12.0042
ㄊ	-12.0046
ら	-12.0049
澧	-12.0052
汞	-12.0052
睾	-12.0065
鄙	-12.0088
剌	-12.0092
耦	-12.0101
茴	-12.0102
瓮	-12.0105
翩	-12.0121
瞰	-12.0121
逗	-12.0131
帼	-12.0134
濑	-12.0148
宕	-12.0191
漾	-12.0191
褚	-12.0194
嬉	-12.0197
滦	-12.0198
媳	-12.0198
ド	-12.0204
筠	-12.0218
膛	-12.0234
溅	-12.0237
溧	-12.0241
弼	-12.0245
戍	-12.0298
诬	-12.0299
ㄇ	-12.0305
煨	-12.0325
锉	-12.0325
沭	-12.0325
は	-12.0365
鸥	-12.0365
缮	-12.0376
恺	-12.0382
晟	-12.0399
廿	-12.042
驭	-12.0427
钤	-12.0433
鳖	-12.0447
扒	-12.0478
沱	-12.0488
て	-12.0491
芩	-12.0509
榔	-12.0512
辙	-12.0526
Φ	-12.0536
璞	-12.054
邃	-12.0547
氽	-12.0553
伶	-12.0553
瞿	-12.0554
啼	-12.056
诰	-12.0581
シ	-12.0598
ㄝ	-12.0612
嘲	-12.0619
煞	-12.0619
咖	-12.0619
溺	-12.063
跆	-12.0633
扯	-12.064
菁	-12.0661
悸	-12.0668
诃	-12.0682
葡	-12.0706
膺	-12.0717
あ	-12.0734
绽	-12.0738
仄	-12.0742
孺	-12.0756
怠	-12.0763
赈	-12.0777
媛	-12.0812
缤	-12.0812
隘	-12.0819
荠	-12.0823
髻	-12.0823
羚	-12.083
`	-12.0851
γ	-12.0851
螟	-12.0855
谟	-12.0858
拣	-12.0862
萤	-12.0862
柬	-12.0865
嵊	-12.0865
隽	-12.0876
珐	-12.0879
枳	-12.0904
蝙	-12.0908
瘾	-12.0908
婿	-12.0912
惕	-12.0923
炊	-12.0933
レ	-12.0951
茉	-12.0955
挨	-12.0955
虱	-12.0983
屹	-12.0991
戮	-12.1005
挟	-12.1005
怎	-12.1017
庇	-12.1027
骇	-12.103
稼	-12.1031
鲫	-12.1056
凋	-12.1059
棣	-12.1063
篱	-12.1063
拇	-12.1067
聆	-12.1114
叁	-12.1128
镖	-12.1129
驹	-12.1129
岷	-12.1143
崂	-12.1144
蹲	-12.1202
栾	-12.1206
蔻	-12.1235
疤	-12.1246
沌	-12.125
扳	-12.1254
淞	-12.1291
熄	-12.1294
秽	-12.1313
漱	-12.1317
狙	-12.1317
谬	-12.1321
牡	-12.1323
跪	-12.1328
咱	-12.1343
奚	-12.1347
羣	-12.135
辜	-12.1358
榭	-12.1373
が	-12.1384
匆	-12.1392
浜	-12.141
タ	-12.1421
箕	-12.1452
谅	-12.1459
涕	-12.1463
疟	-12.1463
拢	-12.1467
鄱	-12.1474
瑾	-12.1482
睢	-12.1493
榈	-12.1527
涎	-12.1562
渺	-12.1562
闫	-12.1577
ロ	-12.16
ㄔ	-12.1604
雯	-12.1619
凳	-12.1635
呐	-12.1635
譬	-12.1635
胤	-12.1647
刁	-12.165
嗅	-12.165
郧	-12.1654
笠	-12.1657
寥	-12.1658
曳	-12.1661
甩	-12.1674
瑛	-12.1692
闾	-12.17
お	-12.1712
湄	-12.1712
雉	-12.1723
マ	-12.1731
钗	-12.1731
睑	-12.175
φ	-12.1758
腱	-12.1778
谎	-12.1778
坳	-12.1782
箫	-12.1786
钴	-12.1789
炯	-12.1801
丕	-12.1802
冗	-12.1809
耒	-12.1817
糠	-12.1821
曦	-12.1833
赦	-12.1836
妒	-12.184
缭	-12.1852
讷	-12.1864
祜	-12.1888
悚	-12.1891
臧	-12.1896
浔	-12.1907
辗	-12.1916
砸	-12.1931
肄	-12.1943
诲	-12.1947
禀	-12.1963
媲	-12.1978
鹑	-12.1982
滓	-12.1983
俑	-12.1991
鳗	-12.1999
叟	-12.2003
裱	-12.2015
斛	-12.2026
缎	-12.2027
翎	-12.2039
羧	-12.2042
庾	-12.2099
蜕	-12.2119
汴	-12.2119
铠	-12.2123
剃	-12.2127
筱	-12.2163
脖	-12.218
醴	-12.2192
ジ	-12.2212
猩	-12.2236
砺	-12.2237
隍	-12.224
毋	-12.2245
阑	-12.2265
弋	-12.229
叮	-12.2302
ち	-12.231
曜	-12.2315
σ	-12.2318
猕	-12.2331
澎	-12.2335
湍	-12.2343
膈	-12.2368
侃	-12.2372
彤	-12.2397
霓	-12.2406
茱	-12.2413
渎	-12.2426
睛	-12.2432
痿	-12.2439
も	-12.2447
フ	-12.2463
珂	-12.2493
挝	-12.2522
恕	-12.2527
矗	-12.2552
耽	-12.2552
贻	-12.2556
溥	-12.256
莅	-12.2569
濂	-12.2594
颓	-12.2594
唾	-12.2606
咯	-12.2624
瑕	-12.2628
薏	-12.2666
呎	-12.27
栀	-12.273
苣	-12.273
葆	-12.2735
缙	-12.2752
匮	-12.2752
纫	-12.2773
礴	-12.279
绶	-12.2791
嶂	-12.2808
诙	-12.2812
嫉	-12.2817
覃	-12.2817
慷	-12.2821
宙	-12.2824
癜	-12.2833
彗	-12.2834
洮	-12.2834
钊	-12.2838
跤	-12.2843
睫	-12.2868
澡	-12.2869
M	-12.2908
孽	-12.2912
漯	-12.2916
槛	-12.2917
攒	-12.2921
朕	-12.2922
佬	-12.2947
瘙	-12.2947
懋	-12.2956
吵	-12.2978
螨	-12.3022
爹	-12.3022
淌	-12.3026
粽	-12.3027
垛	-12.3031
カ	-12.3057
й	-12.3057
偕	-12.3066
郫	-12.3071
啮	-12.3075
搁	-12.3075
姨	-12.3075
绫	-12.3084
铰	-12.3102
钰	-12.3102
栉	-12.3106
眶	-12.3111
祚	-12.3111
邳	-12.3115
劾	-12.312
毂	-12.3135
僳	-12.316
桢	-12.3164
甙	-12.3187
霆	-12.3205
攸	-12.3209
昙	-12.3223
缨	-12.3223
荼	-12.3254
鞠	-12.3254
疝	-12.3259
惰	-12.3263
荥	-12.3277
擂	-12.3295
坷	-12.3299
诅	-12.3304
褪	-12.3313
蛎	-12.3313
萸	-12.3336
萱	-12.3336
ا	-12.334
咨	-12.3354
枉	-12.3373
跗	-12.3376
瓢	-12.3395
叩	-12.3428
つ	-12.3436
铆	-12.3441
ㄡ	-12.345
骸	-12.3455
濠	-12.3464
谚	-12.3474
螯	-12.3478
殆	-12.3479
д	-12.3505
拭	-12.3515
璜	-12.3515
を	-12.3523
盅	-12.3524
馒	-12.3548
诫	-12.3548
疸	-12.3552
腮	-12.3557
泓	-12.3557
吁	-12.3572
畿	-12.3576
黍	-12.3576
琛	-12.3581
у	-12.3585
扔	-12.359
憎	-12.3603
舵	-12.3622
喱	-12.3622
邛	-12.3632
歹	-12.3637
捺	-12.3641
吼	-12.3642
鲷	-12.3646
骥	-12.3651
ㄜ	-12.3655
痞	-12.3665
T	-12.3683
貂	-12.3694
痪	-12.3702
躺	-12.3703
夭	-12.3712
ㄗ	-12.3721
戳	-12.3726
轶	-12.3731
凛	-12.3736
斡	-12.374
秸	-12.375
遏	-12.375
蟒	-12.3755
逛	-12.3764
筵	-12.3769
煅	-12.3774
撮	-12.3797
テ	-12.3821
铨	-12.3831
す	-12.3835
蚜	-12.3869
瘠	-12.3874
氓	-12.3894
弩	-12.3898
籼	-12.3902
岙	-12.3917
俨	-12.3918
蚓	-12.3937
莴	-12.3942
朐	-12.3976
簪	-12.399
俸	-12.3996
迂	-12.3996
戛	-12.4039
捡	-12.4058
佥	-12.4069
娓	-12.4083
瓤	-12.4088
藜	-12.4113
锄	-12.4132
△	-12.4142
骋	-12.4142
笈	-12.4152
陲	-12.4157
啄	-12.4182
浣	-12.4202
で	-12.4206
闰	-12.4227
迤	-12.4232
宸	-12.4247
癖	-12.4251
郢	-12.4252
栎	-12.4256
嘻	-12.4256
娩	-12.4261
靳	-12.4267
狡	-12.4302
蓼	-12.4302
蠡	-12.4306
骈	-12.4311
梆	-12.4317
赭	-12.4317
昕	-12.4347
赂	-12.4352
饷	-12.4352
疃	-12.4357
怯	-12.4372
ィ	-12.4412
蕲	-12.4418
酣	-12.4433
阆	-12.4433
讼	-12.4458
м	-12.4514
篡	-12.452
鹌	-12.4525
ㄞ	-12.4525
じ	-12.4566
れ	-12.4576
佤	-12.4582
螂	-12.4592
炜	-12.4612
脘	-12.4612
葺	-12.4618
嗪	-12.4638
燮	-12.4644
砼	-12.4644
蛀	-12.4659
涿	-12.468
翳	-12.4706
や	-12.4716
徊	-12.4722
葩	-12.4738
讹	-12.4748
恍	-12.4748
岫	-12.4759
镭	-12.4764
芮	-12.4764
瘘	-12.478
婢	-12.4817
憨	-12.4832
孰	-12.4854
邺	-12.4859
粑	-12.487
煜	-12.4885
揣	-12.4901
喃	-12.4918
蕙	-12.4923
蝗	-12.4944
钣	-12.4955
锆	-12.4971
恣	-12.4992
刍	-12.5014
淆	-12.5019
遴	-12.5035
稹	-12.5036
绯	-12.5041
恃	-12.5047
螃	-12.5052
泠	-12.5057
犷	-12.5057
壕	-12.5057
腭	-12.5062
牍	-12.5074
僖	-12.5095
苋	-12.5101
旖	-12.5117
谧	-12.5139
惶	-12.5139
睁	-12.5139
麾	-12.5149
旎	-12.516
亘	-12.5182
箍	-12.5193
恽	-12.5193
俺	-12.5193
だ	-12.5199
逅	-12.5204
玮	-12.5204
郯	-12.5204
骁	-12.5221
螭	-12.5226
伎	-12.5226
邂	-12.5243
祇	-12.5243
袂	-12.5248
畈	-12.5249
薨	-12.5249
惬	-12.5259
璐	-12.5265
捍	-12.5265
眸	-12.5265
ㄈ	-12.5276
※	-12.5276
镗	-12.5292
沮	-12.5298
コ	-12.5326
馥	-12.5332
徘	-12.5337
佘	-12.5348
寐	-12.5348
脍	-12.5365
飙	-12.5376
腓	-12.5382
杷	-12.5393
芾	-12.5404
镑	-12.5409
淖	-12.5415
箴	-12.5421
朦	-12.5432
罹	-12.5438
濡	-12.5443
キ	-12.5455
瞒	-12.5483
苄	-12.5483
屉	-12.5483
胄	-12.5534
砷	-12.5534
г	-12.555
侮	-12.5579
柞	-12.5585
匕	-12.5596
坨	-12.5619
扉	-12.5619
荪	-12.5636
∼	-12.5648
エ	-12.5648
蛹	-12.5648
蠢	-12.5648
趟	-12.5648
琊	-12.5654
钜	-12.566
け	-12.5671
玖	-12.5671
倘	-12.5671
搪	-12.5683
枭	-12.57
掐	-12.5711
扛	-12.5712
垭	-12.5728
贲	-12.5729
え	-12.574
オ	-12.5751
荃	-12.5757
卞	-12.5758
蜚	-12.5781
δ	-12.5798
猷	-12.5799
汹	-12.5804
儋	-12.5816
枇	-12.5822
幔	-12.5827
デ	-12.5827
钒	-12.5833
勰	-12.5833
炀	-12.5839
郦	-12.5886
舫	-12.591
讥	-12.591
胧	-12.5933
赘	-12.5945
っ	-12.5951
髋	-12.5951
幡	-12.5951
鬓	-12.5963
谯	-12.5969
昱	-12.5975
嫔	-12.5981
茬	-12.5993
哗	-12.5993
腈	-12.5998
骅	-12.5999
蜴	-12.6028
壅	-12.604
噻	-12.6052
c	-12.6064
痤	-12.6064
λ	-12.61
ウ	-12.6112
堇	-12.6118
佗	-12.6125
桧	-12.6155
矜	-12.6167
ㄆ	-12.6179
逵	-12.6179
龈	-12.6191
バ	-12.6202
獒	-12.6209
碣	-12.6209
踵	-12.6209
踝	-12.6215
涓	-12.6227
藿	-12.6227
忏	-12.6227
薹	-12.6227
槃	-12.6246
磋	-12.6264
荤	-12.627
遒	-12.6288
蔺	-12.63
扈	-12.6301
汐	-12.6306
蛊	-12.6318
璇	-12.6319
漩	-12.6349
塬	-12.635
皎	-12.6356
咎	-12.6374
崮	-12.6393
涸	-12.6411
俾	-12.6412
サ	-12.6417
§	-12.6424
钎	-12.643
诘	-12.6443
榛	-12.6449
驮	-12.6474
佟	-12.6486
丐	-12.6511
皴	-12.6523
籁	-12.6523
烩	-12.6524
枋	-12.6537
ナ	-12.6549
谙	-12.6549
萦	-12.6555
呜	-12.6555
讶	-12.6574
晤	-12.658
黜	-12.6593
珞	-12.6593
纣	-12.6593
ч	-12.6611
谪	-12.6631
熠	-12.6631
ミ	-12.6643
蹦	-12.6643
翊	-12.6643
亟	-12.6669
悖	-12.6675
掏	-12.6676
抉	-12.6681
グ	-12.67
熨	-12.6707
杵	-12.6713
葶	-12.6726
爻	-12.6751
蜓	-12.6771
澹	-12.6771
я	-12.6777
わ	-12.679
峒	-12.6797
谤	-12.6829
姥	-12.6836
铢	-12.6869
衮	-12.6874
荨	-12.6881
黯	-12.6887
阡	-12.6888
ل	-12.69
贽	-12.6901
埭	-12.6933
憧	-12.6933
‧	-12.6953
歉	-12.6966
脲	-12.6966
谴	-12.6972
鬃	-12.6978
よ	-12.6978
鳅	-12.6979
耙	-12.6985
萘	-12.6992
鳕	-12.6992
ニ	-12.7031
锑	-12.7031
祉	-12.7044
荸	-12.7058
疳	-12.7058
叱	-12.7058
憬	-12.7064
诂	-12.7091
ム	-12.7103
拧	-12.7111
郓	-12.7111
稃	-12.7117
蜈	-12.7137
褥	-12.7138
燎	-12.7138
磕	-12.7151
惭	-12.7151
菖	-12.7157
蚣	-12.7158
蟆	-12.7164
斓	-12.7171
偈	-12.7177
忒	-12.7204
吋	-12.7211
俎	-12.7218
ρ	-12.7224
ひ	-12.7224
捶	-12.7231
‰	-12.7245
蜻	-12.7251
攘	-12.7252
屁	-12.7252
鎏	-12.7272
崧	-12.7272
拈	-12.7272
腩	-12.7299
垮	-12.7299
殁	-12.7299
蚤	-12.7305
霁	-12.7305
哆	-12.7312
π	-12.7319
砧	-12.7333
甾	-12.7333
虬	-12.7346
瞎	-12.7346
绷	-12.7353
晁	-12.7353
娑	-12.7353
翱	-12.7367
羔	-12.7367
惫	-12.7374
筏	-12.7381
砥	-12.7381
侬	-12.7387
鸢	-12.7401
蔑	-12.7408
蹈	-12.7413
窘	-12.7421
艮	-12.7428
苴	-12.7442
酐	-12.7448
殴	-12.7449
馍	-12.7449
娲	-12.7455
枞	-12.7463
磬	-12.7476
プ	-12.7476
檄	-12.7477
夙	-12.7504
ㄎ	-12.7511
ガ	-12.7517
啉	-12.7518
慑	-12.7532
嗟	-12.7539
痊	-12.7553
绊	-12.7573
ブ	-12.758
胭	-12.7608
锺	-12.7622
罔	-12.7623
ャ	-12.7629
廪	-12.7629
佃	-12.7637
俐	-12.7657
槎	-12.7664
茭	-12.7692
敝	-12.7693
碉	-12.7714
麸	-12.7727
モ	-12.7728
赡	-12.7728
嘧	-12.7735
怅	-12.7735
匝	-12.7735
箨	-12.7743
筐	-12.7763
湟	-12.777
芫	-12.7784
袅	-12.7792
疵	-12.7799
骊	-12.7806
泮	-12.7812
厮	-12.7827
弁	-12.7827
跖	-12.7841
仟	-12.7856
沔	-12.7892
銮	-12.7899
陟	-12.7913
谗	-12.7927
烨	-12.7964
赃	-12.7964
С	-12.7971
殇	-12.7985
⊙	-12.7985
汨	-12.7993
阈	-12.8
ゆ	-12.8
肱	-12.8014
珪	-12.8015
鲑	-12.8022
罂	-12.8022
桡	-12.8029
汆	-12.8036
崃	-12.8037
巽	-12.8051
俟	-12.8051
綦	-12.8066
噩	-12.808
晰	-12.8094
彷	-12.8095
藁	-12.8102
ュ	-12.8117
晔	-12.8117
メ	-12.8139
ь	-12.8153
嵇	-12.8169
辫	-12.8169
榫	-12.8169
ろ	-12.8183
呤	-12.8198
漪	-12.8213
奄	-12.8213
桁	-12.8221
阖	-12.8235
蹬	-12.8243
镐	-12.8243
劭	-12.8258
尬	-12.8265
暧	-12.8265
痣	-12.8272
嵘	-12.828
氩	-12.8287
ㄘ	-12.8287
ょ	-12.8302
蹊	-12.8302
铮	-12.8302
犊	-12.8325
盱	-12.8325
悯	-12.8325
酝	-12.8325
啥	-12.8333
鹫	-12.8355
坍	-12.8355
蓓	-12.8377
撷	-12.84
鲶	-12.84
́	-12.84
≈	-12.8408
乒	-12.8415
燧	-12.8445
チ	-12.8446
邨	-12.8453
淼	-12.8461
蔼	-12.8468
钺	-12.8469
槌	-12.8476
粲	-12.8476
囱	-12.8477
羸	-12.8492
ε	-12.8492
渥	-12.8499
尴	-12.8514
ㄖ	-12.8522
屎	-12.8537
濯	-12.8553
懦	-12.8553
帚	-12.8576
踊	-12.8583
牒	-12.8584
婪	-12.8591
蒡	-12.8591
戾	-12.8599
獭	-12.8653
苕	-12.8661
猗	-12.8668
镉	-12.8715
饯	-12.8723
妞	-12.873
搐	-12.8738
觐	-12.8755
镬	-12.8778
窒	-12.8785
髦	-12.8786
鬲	-12.8793
绦	-12.8793
觞	-12.8793
俪	-12.8801
皈	-12.8809
鹄	-12.8849
苎	-12.8889
嘟	-12.8896
哄	-12.8897
疙	-12.8904
ダ	-12.8912
奂	-12.892
桀	-12.8928
螳	-12.8936
裨	-12.8952
佞	-12.896
樽	-12.8968
淅	-12.8976
峥	-12.8976
徕	-12.8992
庠	-12.8992
蛭	-12.9016
尕	-12.9016
垅	-12.9016
嘿	-12.9016
咕	-12.9017
苡	-12.9024
玫	-12.9024
骞	-12.904
哌	-12.9057
镯	-12.9065
拮	-12.9073
钡	-12.9081
砀	-12.9081
粕	-12.9089
摒	-12.9121
б	-12.9137
琮	-12.9137
邬	-12.9145
玑	-12.917
髯	-12.9186
昀	-12.9186
嘶	-12.9187
痧	-12.9203
碛	-12.921
惮	-12.9227
め	-12.9244
祗	-12.9244
盯	-12.9244
猾	-12.926
瘩	-12.9268
骡	-12.9269
垠	-12.9269
髅	-12.9285
猝	-12.9302
俚	-12.931
圻	-12.9368
檗	-12.9376
峤	-12.9377
炔	-12.9385
坻	-12.9393
鲉	-12.9402
洵	-12.9402
邈	-12.941
湮	-12.9418
牦	-12.9418
赉	-12.9418
鄢	-12.9435
濉	-12.9435
讴	-12.9452
忿	-12.9452
虢	-12.9452
桉	-12.9468
隼	-12.9485
吝	-12.9485
奘	-12.9511
椽	-12.9511
遽	-12.9528
逞	-12.9528
菟	-12.9545
傩	-12.9553
瓒	-12.957
缢	-12.9579
蹇	-12.9595
К	-12.9646
缜	-12.9647
粼	-12.9664
А	-12.9664
衅	-12.9673
ビ	-12.9681
轭	-12.9681
铿	-12.9689
頫	-12.969
傀	-12.9707
埕	-12.9716
羯	-12.9733
簸	-12.9733
跷	-12.9741
脩	-12.975
沓	-12.9759
斟	-12.9768
缥	-12.9776
拽	-12.9793
蜊	-12.9802
煦	-12.9829
ズ	-12.9837
潦	-12.9855
錾	-12.9872
茁	-12.9872
苹	-12.9886
徇	-12.9899
荽	-12.9907
舷	-12.9916
畦	-12.9925
灞	-12.9925
П	-12.9933
蚯	-12.9933
蛰	-12.9934
扦	-12.996
碚	-13.0004
骷	-13.0013
舀	-13.0022
嫣	-13.004
焘	-13.004
湃	-13.0058
瞧	-13.0058
豇	-13.0067
胪	-13.0067
甥	-13.0067
膘	-13.0075
暹	-13.0075
桅	-13.0084
眙	-13.0084
辇	-13.0093
掇	-13.0093
焗	-13.0093
堑	-13.0102
飓	-13.0119
珈	-13.0121
氦	-13.0138
幌	-13.0138
疖	-13.0138
蠹	-13.0147
飨	-13.0147
嘌	-13.0156
М	-13.0156
埂	-13.0183
驸	-13.0192
鞣	-13.0193
觚	-13.0202
嶙	-13.0211
铛	-13.022
颞	-13.022
炕	-13.022
岖	-13.0238
篾	-13.0247
茏	-13.0256
搽	-13.0265
稔	-13.0283
愍	-13.0284
楣	-13.0302
煽	-13.0311
瘿	-13.0339
撩	-13.0357
凫	-13.0366
疔	-13.0385
颏	-13.0393
哎	-13.0394
爰	-13.0403
陉	-13.0412
霭	-13.0412
せ	-13.043
岘	-13.043
吠	-13.0431
笏	-13.0459
ェ	-13.0467
舂	-13.0477
溏	-13.0477
儡	-13.0477
θ	-13.0486
垌	-13.0486
骰	-13.0551
圪	-13.0552
钯	-13.0561
钿	-13.0571
锵	-13.058
X	-13.058
琰	-13.0598
臆	-13.0598
冽	-13.0599
揆	-13.0627
楝	-13.0646
泷	-13.0646
喹	-13.0674
矽	-13.0674
ο	-13.0693
巖	-13.0694
呋	-13.0703
瘢	-13.0741
飒	-13.076
挞	-13.076
阕	-13.0779
そ	-13.0798
砭	-13.0799
荻	-13.0799
涣	-13.0808
矸	-13.0817
峋	-13.0827
庑	-13.0837
浠	-13.0856
诒	-13.0856
疥	-13.0856
喔	-13.0866
袒	-13.0866
袤	-13.0866
莪	-13.0895
淙	-13.0934
卅	-13.0954
唢	-13.0963
叨	-13.0963
倔	-13.0973
鸪	-13.0973
窠	-13.0973
饨	-13.0993
洙	-13.0994
宥	-13.1012
锢	-13.1012
Δ	-13.1022
妩	-13.1032
薮	-13.1052
讫	-13.1052
雹	-13.1061
馄	-13.1071
靛	-13.1071
犍	-13.1081
瓠	-13.1081
鼬	-13.1111
缇	-13.1121
孪	-13.1121
珲	-13.1121
丶	-13.114
榷	-13.1141
蜇	-13.116
哟	-13.1161
п	-13.117
腴	-13.119
溟	-13.1191
麋	-13.12
琨	-13.12
悴	-13.1201
揖	-13.1211
苻	-13.122
ㄋ	-13.122
嫦	-13.1231
掳	-13.1231
涞	-13.1231
鲛	-13.1241
傈	-13.1251
黟	-13.1261
猥	-13.1261
镛	-13.1291
嗔	-13.1292
蚩	-13.1301
拗	-13.1341
迳	-13.1342
ي	-13.1362
鹧	-13.1372
枷	-13.1382
铉	-13.1392
ы	-13.1401
昶	-13.1413
仞	-13.1433
滘	-13.1443
ど	-13.1443
歆	-13.1454
醪	-13.1474
鹘	-13.1474
噜	-13.1475
哼	-13.1475
骠	-13.1484
昉	-13.1484
蓖	-13.1485
徨	-13.1495
珩	-13.1515
醮	-13.1515
驷	-13.1536
鬣	-13.1546
ω	-13.1547
抨	-13.1557
苁	-13.1577
髹	-13.1578
茛	-13.1578
啃	-13.1578
م	-13.1588
迸	-13.1588
忤	-13.1598
烬	-13.1599
稞	-13.1609
拴	-13.163
簋	-13.164
蹼	-13.165
纨	-13.1651
τ	-13.1661
颛	-13.1661
鹳	-13.1692
皙	-13.1693
鞅	-13.1703
伫	-13.1703
饬	-13.1735
础	-13.174
掰	-13.1745
峄	-13.1745
ョ	-13.1787
卉	-13.1789
谑	-13.1798
骶	-13.1799
遨	-13.1809
ハ	-13.1809
瞭	-13.182
菀	-13.1841
闇	-13.1841
羿	-13.1862
炝	-13.1884
В	-13.1884
咚	-13.1884
罡	-13.1905
録	-13.1916
呱	-13.1927
冼	-13.1927
痨	-13.1948
椁	-13.1948
汊	-13.1949
璟	-13.1959
翦	-13.197
饕	-13.1991
弑	-13.1991
闱	-13.2002
铍	-13.2012
鹗	-13.2013
衄	-13.2046
凰	-13.2077
パ	-13.2089
迢	-13.21
鲀	-13.2111
鼐	-13.2111
啰	-13.2112
ず	-13.2122
霏	-13.2133
轲	-13.2166
	-13.2177
Ф	-13.2177
楫	-13.2188
苜	-13.2199
鲢	-13.221
ر	-13.2221
柩	-13.2233
咐	-13.2244
孛	-13.2266
杳	-13.2288
姗	-13.2299
饴	-13.2299
幺	-13.2299
膊	-13.2299
ノ	-13.231
蓿	-13.231
ネ	-13.2333
蚧	-13.2333
馔	-13.2333
圜	-13.2355
秭	-13.2366
琏	-13.2367
幄	-13.2378
蟋	-13.2389
锗	-13.2389
ば	-13.24
猬	-13.2422
骐	-13.2423
箇	-13.2423
泯	-13.2457
涮	-13.2468
稗	-13.2479
逶	-13.2536
蝽	-13.2559
嬴	-13.2571
樾	-13.2571
惚	-13.2582
恻	-13.2594
擘	-13.2594
惘	-13.2605
铋	-13.2617
繇	-13.2651
铌	-13.2663
沣	-13.2674
糅	-13.2675
鸮	-13.2686
氙	-13.2696
揪	-13.271
η	-13.2721
阉	-13.2721
吩	-13.2721
臾	-13.2744
堀	-13.2756
墉	-13.2768
嘘	-13.2768
訇	-13.2768
澍	-13.2791
蛔	-13.2803
х	-13.2803
釐	-13.2815
殃	-13.2815
甑	-13.2838
瞪	-13.2838
鞑	-13.285
馗	-13.2861
皑	-13.2861
舶	-13.2872
缂	-13.2885
岬	-13.2885
聿	-13.2897
鸵	-13.2909
嘈	-13.2909
惺	-13.2932
이	-13.2968
羰	-13.2968
吒	-13.2981
嵋	-13.2993
楸	-13.2993
囿	-13.2993
佯	-13.2994
咲	-13.3005
啡	-13.3005
饧	-13.3017
鬻	-13.3089
l	-13.3101
溆	-13.3101
咤	-13.3113
厩	-13.3113
傥	-13.3125
淦	-13.3137
疎	-13.3137
剽	-13.3138
稜	-13.3174
锶	-13.3186
埚	-13.3198
豕	-13.3223
ς	-13.3223
Б	-13.3235
胳	-13.3235
箩	-13.3247
ν	-13.326
槭	-13.3272
囧	-13.3284
雒	-13.3284
轸	-13.3285
邾	-13.3309
圳	-13.3316
鲲	-13.3334
姣	-13.3334
嚏	-13.3345
氡	-13.3346
®	-13.3358
潟	-13.3371
掾	-13.3383
セ	-13.3395
Р	-13.3396
萜	-13.3396
幂	-13.3408
蓑	-13.342
猖	-13.3421
肫	-13.3433
峯	-13.3433
鳜	-13.3433
囤	-13.3446
з	-13.3457
绀	-13.3458
趴	-13.3458
坩	-13.3471
钹	-13.3471
蜍	-13.3484
帙	-13.3484
━	-13.3496
筮	-13.3496
檩	-13.3496
茔	-13.3508
彊	-13.3508
斫	-13.3521
旻	-13.3584
锲	-13.3584
蟑	-13.3584
螈	-13.3597
灏	-13.361
婕	-13.3623
ι	-13.3635
窿	-13.3648
ن	-13.3661
龋	-13.3673
裟	-13.3674
逋	-13.3674
啬	-13.3686
瘰	-13.3712
硐	-13.3712
祟	-13.3712
骧	-13.3751
钽	-13.3789
篁	-13.3802
锷	-13.3803
谄	-13.3816
谌	-13.3842
菅	-13.3855
鸱	-13.3867
邡	-13.3868
趺	-13.3868
疚	-13.3868
ァ	-13.388
喆	-13.3881
蟀	-13.3907
獐	-13.3907
辋	-13.3911
餮	-13.392
蚬	-13.392
谲	-13.392
砻	-13.3922
鲟	-13.3933
阇	-13.3933
ワ	-13.3933
诋	-13.3934
▲	-13.3934
汩	-13.3946
芗	-13.3973
咙	-13.3986
蜃	-13.3986
憔	-13.3986
醌	-13.3999
鬟	-13.3999
盥	-13.4025
钕	-13.4026
愫	-13.4039
篦	-13.4053
و	-13.4079
娆	-13.4092
寳	-13.4092
臊	-13.4092
埼	-13.4106
杲	-13.4119
阗	-13.4119
仡	-13.4119
颢	-13.412
肼	-13.4132
禛	-13.4132
袈	-13.4133
顼	-13.4159
怖	-13.4172
牀	-13.4173
悌	-13.4186
糍	-13.42
纥	-13.4213
痂	-13.4213
惆	-13.4213
偎	-13.4227
碓	-13.424
咧	-13.4254
蚪	-13.4267
邝	-13.4267
袱	-13.4267
赓	-13.4268
娣	-13.4268
霰	-13.4281
钏	-13.4281
岌	-13.4295
箧	-13.4295
蝌	-13.4321
鄄	-13.4349
楮	-13.435
窈	-13.4363
搔	-13.4363
铳	-13.4363
瘁	-13.4377
戦	-13.4377
罘	-13.4404
ツ	-13.4418
偁	-13.4418
掣	-13.4432
洄	-13.4432
熵	-13.4432
珙	-13.4432
↓	-13.446
咆	-13.446
麼	-13.446
闳	-13.4473
ゅ	-13.4473
瑄	-13.4473
珉	-13.4474
ほ	-13.4487
乓	-13.4487
豺	-13.4488
镞	-13.4488
蛱	-13.4501
谘	-13.4502
k	-13.4515
膑	-13.4516
÷	-13.4516
胛	-13.4529
垸	-13.4529
篝	-13.453
缈	-13.4557
蛏	-13.4571
懵	-13.4571
笆	-13.4585
徭	-13.4585
圮	-13.4585
A	-13.4599
谔	-13.4599
崴	-13.46
杓	-13.4628
崆	-13.4628
〞	-13.4628
蕈	-13.4641
诔	-13.4642
槿	-13.4642
蒌	-13.4642
瘴	-13.4656
鼹	-13.4685
莜	-13.4712
跛	-13.4713
琬	-13.4726
箸	-13.4727
膦	-13.474
罄	-13.4741
焱	-13.4741
厣	-13.4769
僭	-13.4798
o	-13.4798
氵	-13.4812
疬	-13.4812
缄	-13.4813
颔	-13.4826
侥	-13.4827
辔	-13.4827
邗	-13.4841
徉	-13.4884
闿	-13.4885
鲵	-13.4913
Н	-13.4928
ふ	-13.4942
柒	-13.4957
僮	-13.4957
髂	-13.4971
鹟	-13.4972
诩	-13.4986
ね	-13.4986
穰	-13.4986
И	-13.5001
忡	-13.5015
眨	-13.503
珏	-13.503
榉	-13.5074
镊	-13.5074
牺	-13.5075
唆	-13.5089
棂	-13.5089
玳	-13.5089
挈	-13.5089
n	-13.5103
抟	-13.5118
偻	-13.5133
狎	-13.5133
茌	-13.5134
篓	-13.5134
赊	-13.5149
亵	-13.5163
蛉	-13.5178
嵴	-13.5192
癞	-13.5193
暄	-13.5193
摭	-13.5193
粿	-13.5206
獠	-13.5208
颧	-13.5223
吮	-13.5237
嶷	-13.5253
倜	-13.5267
鬭	-13.5268
眇	-13.5268
牯	-13.5268
魇	-13.5298
慵	-13.5298
褂	-13.5298
徜	-13.5313
恙	-13.5313
谆	-13.5313
膻	-13.5314
鸫	-13.5328
鹬	-13.5343
阊	-13.5343
ケ	-13.5358
怆	-13.5358
濞	-13.5358
辂	-13.5374
鲇	-13.5403
滹	-13.5419
橐	-13.5419
诽	-13.5434
←	-13.5434
璠	-13.5434
纭	-13.545
渑	-13.5465
蛳	-13.5465
ゴ	-13.548
ب	-13.548
秣	-13.5496
О	-13.5496
胯	-13.5512
仝	-13.5526
谀	-13.5527
剡	-13.5527
吲	-13.5541
濬	-13.5541
潴	-13.5542
垟	-13.5557
镕	-13.5573
椹	-13.5574
恸	-13.5588
沢	-13.5588
婀	-13.5588
Т	-13.5603
靼	-13.5604
袄	-13.5604
恂	-13.5604
鹞	-13.5619
眦	-13.5619
霾	-13.5635
奁	-13.565
瑁	-13.565
葭	-13.5651
郗	-13.5651
缫	-13.5666
蓥	-13.5666
舛	-13.5667
ゃ	-13.5697
飚	-13.5713
绾	-13.5728
孑	-13.5729
磴	-13.5729
墀	-13.5729
殓	-13.5744
裆	-13.5791
俳	-13.5792
哚	-13.5807
蒺	-13.5824
Д	-13.5824
翕	-13.584
撬	-13.5855
氐	-13.5872
浄	-13.5888
燹	-13.5904
芊	-13.5936
箬	-13.5936
د	-13.5952
ぎ	-13.5999
啖	-13.6
娼	-13.6
惇	-13.6016
惋	-13.6016
砦	-13.6017
隗	-13.6032
ф	-13.6048
挹	-13.6049
佶	-13.6081
蛆	-13.6097
漉	-13.6147
炷	-13.6164
栝	-13.6179
濛	-13.6179
蹙	-13.6179
煊	-13.6181
咄	-13.6196
琇	-13.6196
赅	-13.6196
蹠	-13.6212
狈	-13.6213
谶	-13.6229
刈	-13.6229
棹	-13.6229
喋	-13.6229
腧	-13.6245
噎	-13.6262
ボ	-13.6295
箓	-13.6295
旃	-13.6295
む	-13.6312
窕	-13.6312
襞	-13.6328
蹶	-13.6329
赀	-13.6329
捌	-13.6379
耄	-13.6379
婶	-13.6396
碁	-13.6396
ヴ	-13.6396
塍	-13.6413
湫	-13.6413
诤	-13.643
Г	-13.6446
锹	-13.6446
↑	-13.6447
硖	-13.6447
蚶	-13.6463
咔	-13.6463
滂	-13.6463
ザ	-13.648
馋	-13.648
弭	-13.6481
觊	-13.6481
珥	-13.6497
婵	-13.6531
笞	-13.6531
謇	-13.6531
辘	-13.6532
杈	-13.6549
蒽	-13.6549
摈	-13.6565
啪	-13.6565
纡	-13.6565
ソ	-13.6582
鳔	-13.6582
谠	-13.66
爨	-13.6617
麂	-13.6617
徂	-13.6668
摺	-13.6669
S	-13.6686
倮	-13.6686
谩	-13.6686
眯	-13.6738
铡	-13.6756
胍	-13.6772
椴	-13.6773
渌	-13.6773
邙	-13.679
蝮	-13.6791
酢	-13.6808
酗	-13.6825
喵	-13.6825
嗳	-13.6825
搂	-13.6826
掬	-13.6843
橼	-13.6843
砜	-13.6843
攫	-13.6843
咋	-13.686
朓	-13.6861
欤	-13.6879
隰	-13.6896
狞	-13.6896
牖	-13.6914
乂	-13.6914
蛸	-13.6931
菽	-13.6931
鹀	-13.6931
泱	-13.6931
呃	-13.6932
蕤	-13.6932
晷	-13.6949
槁	-13.6967
萋	-13.6984
黠	-13.7002
蚴	-13.702
嵯	-13.702
俶	-13.7038
ぶ	-13.7038
俦	-13.7039
阚	-13.7074
愆	-13.7075
螽	-13.7092
觑	-13.7092
庖	-13.711
√	-13.7128
ぐ	-13.7128
淝	-13.7129
κ	-13.7146
辎	-13.7147
缟	-13.7165
曷	-13.7165
畹	-13.7183
ц	-13.7201
蹴	-13.7201
宓	-13.7237
跏	-13.7238
ψ	-13.7238
殚	-13.7256
纾	-13.7256
栲	-13.7274
唔	-13.7293
嬗	-13.7311
郤	-13.7311
ベ	-13.7329
酞	-13.7329
瘕	-13.7366
妲	-13.7367
黝	-13.7367
讪	-13.7403
铄	-13.7404
篙	-13.7404
眈	-13.7422
夼	-13.7422
睽	-13.7422
缶	-13.7441
彧	-13.7441
鲳	-13.7441
缯	-13.746
郏	-13.7497
C	-13.7515
肮	-13.7516
圹	-13.7535
琯	-13.7535
榧	-13.7554
衾	-13.7554
吱	-13.7572
璎	-13.7573
艽	-13.7591
桷	-13.7592
磡	-13.761
ヒ	-13.761
鲅	-13.7611
拄	-13.7611
ご	-13.7629
栱	-13.7629
橇	-13.7649
泔	-13.7668
蘅	-13.7668
姒	-13.7668
剞	-13.7668
莨	-13.7668
髁	-13.7686
铙	-13.7687
瑗	-13.7706
跸	-13.7725
姝	-13.7725
馁	-13.7725
垓	-13.7726
鼾	-13.7783
缰	-13.7802
竦	-13.7802
橹	-13.7822
蜱	-13.786
苌	-13.788
裾	-13.788
钍	-13.788
嗨	-13.788
颡	-13.7919
哒	-13.7939
浯	-13.7939
啾	-13.7939
P	-13.7958
伉	-13.7958
勖	-13.7958
蹑	-13.7959
豢	-13.7959
镓	-13.7977
缛	-13.7978
殒	-13.7978
杼	-13.7998
酊	-13.7998
黒	-13.8017
顗	-13.8037
ヤ	-13.8057
葳	-13.8057
屐	-13.8057
胴	-13.8076
饽	-13.8077
玥	-13.8077
璘	-13.8077
堍	-13.8097
蜷	-13.8097
尻	-13.8117
鲮	-13.8117
嚷	-13.8117
旄	-13.8137
椤	-13.8157
硚	-13.8157
虺	-13.8157
蒯	-13.8177
翥	-13.8177
郾	-13.8197
卍	-13.8197
ة	-13.8197
掸	-13.8199
ピ	-13.8216
嘹	-13.8217
缬	-13.8217
醍	-13.8217
匏	-13.8218
恚	-13.8218
垤	-13.8258
囯	-13.8258
O	-13.8278
徼	-13.8278
诜	-13.8298
缗	-13.83
舔	-13.8318
蠲	-13.8319
疠	-13.8339
唧	-13.8339
鹜	-13.8339
佝	-13.8359
竜	-13.836
胗	-13.838
瞽	-13.838
翚	-13.838
捅	-13.8381
铗	-13.84
芨	-13.8421
鄯	-13.8441
蜢	-13.8441
骜	-13.8442
笄	-13.8462
坭	-13.8462
艹	-13.8462
佺	-13.8462
籀	-13.8462
溱	-13.8463
蚱	-13.8483
裏	-13.8483
縻	-13.8504
扪	-13.8504
懊	-13.8504
胨	-13.8523
呗	-13.8525
漈	-13.8525
楯	-13.8546
潋	-13.8566
镳	-13.8566
襦	-13.8587
枧	-13.8587
铑	-13.8609
県	-13.8629
菰	-13.8629
滏	-13.865
徧	-13.8651
鹩	-13.8652
巯	-13.8671
啜	-13.8671
蹂	-13.8672
氲	-13.8692
า	-13.8692
樗	-13.8693
藐	-13.8694
欹	-13.8714
埙	-13.8714
抠	-13.8735
蓣	-13.8735
晗	-13.8756
蓍	-13.8756
闼	-13.8757
婧	-13.8777
莼	-13.8778
瑀	-13.8778
噢	-13.8778
缁	-13.8778
嗡	-13.8778
ギ	-13.8799
铤	-13.8799
鲎	-13.882
铧	-13.882
貉	-13.882
ㄦ	-13.882
愣	-13.8822
愕	-13.8842
戗	-13.8885
獗	-13.8885
ш	-13.8905
瞑	-13.8907
曩	-13.8928
枨	-13.8928
桠	-13.895
阂	-13.895
琚	-13.8971
蓦	-13.8972
憋	-13.8972
呻	-13.8993
嵬	-13.8993
遑	-13.9016
妫	-13.9036
苈	-13.9037
崽	-13.9037
ォ	-13.9058
̇	-13.9059
铱	-13.9059
س	-13.9059
戢	-13.9059
邠	-13.906
铟	-13.9081
怙	-13.9081
墒	-13.9103
ポ	-13.9103
鹂	-13.9103
怔	-13.9103
瞥	-13.9103
F	-13.9125
ร	-13.9147
戡	-13.9147
泞	-13.9147
訾	-13.9148
韫	-13.9169
砝	-13.9169
郜	-13.917
豸	-13.917
糸	-13.9191
刎	-13.9192
鳟	-13.9214
堃	-13.9214
笳	-13.9214
Л	-13.9236
唉	-13.9236
蹿	-13.9236
衽	-13.9237
∈	-13.9258
獾	-13.9258
呷	-13.9281
螫	-13.9281
樨	-13.9281
蹭	-13.9281
蝈	-13.9303
赝	-13.9304
叽	-13.9304
孳	-13.9326
祢	-13.9326
茼	-13.9326
忝	-13.9327
嗯	-13.9327
菔	-13.9348
呛	-13.9348
邰	-13.9349
溉	-13.937
卟	-13.9371
Đ	-13.9371
晞	-13.9371
锟	-13.9393
菘	-13.9394
纔	-13.9394
げ	-13.9417
旸	-13.9417
螅	-13.9439
垴	-13.9439
D	-13.9439
鏊	-13.9439
恁	-13.9462
び	-13.9485
盦	-13.9485
鳢	-13.9531
i	-13.9554
昴	-13.9554
ж	-13.96
汜	-13.96
泺	-13.9601
锛	-13.9623
浃	-13.9624
怛	-13.9647
舸	-13.9647
沤	-13.9647
啧	-13.9647
滗	-13.967
睨	-13.967
铯	-13.9672
搀	-13.9694
櫆	-13.9717
へ	-13.974
峁	-13.974
胝	-13.974
衲	-13.9741
徳	-13.9763
噤	-13.9764
槲	-13.9764
妪	-13.9787
豳	-13.9787
菴	-13.9788
蛄	-13.9811
鏖	-13.9811
醐	-13.9835
寤	-13.9835
嬷	-13.9859
孀	-13.9882
麴	-13.9882
磻	-13.9882
詈	-13.9882
骛	-13.9883
妤	-13.9906
肟	-13.9906
蔸	-13.9906
觎	-13.9907
薤	-13.9907
荜	-13.993
绡	-13.993
蕻	-13.993
禳	-13.9954
ɡ	-14.0002
ع	-14.0002
鼩	-14.0003
雎	-14.0026
莠	-14.0027
嚎	-14.0051
瘪	-14.0075
碲	-14.0075
〜	-14.0124
蔫	-14.0124
桫	-14.0148
茆	-14.0148
姫	-14.0148
诧	-14.0148
蹋	-14.0149
蝼	-14.0172
腆	-14.0172
瓘	-14.0173
ざ	-14.0173
鲂	-14.0173
帏	-14.0173
洹	-14.0197
駅	-14.0197
鄣	-14.0197
鹈	-14.0222
枥	-14.0222
笥	-14.0222
抡	-14.0247
鲩	-14.0271
¢	-14.0271
骖	-14.0271
玠	-14.0272
钇	-14.0274
鸨	-14.0295
鷟	-14.0296
蜉	-14.0296
躇	-14.0296
迨	-14.0296
鹪	-14.0297
镫	-14.0298
鳐	-14.0321
燔	-14.0321
绂	-14.0321
璩	-14.0321
倏	-14.0322
蹉	-14.0346
玷	-14.0346
霎	-14.0346
驽	-14.0371
鞫	-14.0371
滟	-14.0395
衿	-14.0396
莳	-14.0396
悫	-14.0396
仃	-14.0421
砣	-14.0446
鲠	-14.0446
虻	-14.0446
氤	-14.0471
爿	-14.0471
鲭	-14.0471
诳	-14.0472
躏	-14.0497
碴	-14.0547
挎	-14.0548
犒	-14.0548
拏	-14.0573
镦	-14.0573
拚	-14.0573
麽	-14.0598
翮	-14.0599
垡	-14.0624
绉	-14.0624
诟	-14.0624
黼	-14.0624
a	-14.0625
拎	-14.0625
阏	-14.065
趸	-14.065
珣	-14.065
瓿	-14.065
缦	-14.0676
唠	-14.0676
螵	-14.0676
踌	-14.0702
揩	-14.0728
狰	-14.0728
卣	-14.0754
圉	-14.078
锴	-14.0781
ゲ	-14.0806
∞	-14.0806
颦	-14.0806
覩	-14.0806
捂	-14.0806
铈	-14.0809
ユ	-14.0832
駰	-14.0832
溲	-14.0832
υ	-14.0858
浐	-14.0858
B	-14.0884
卮	-14.0885
啭	-14.0885
도	-14.091
蝾	-14.0911
沩	-14.0911
嫖	-14.0911
瘗	-14.0911
谵	-14.0911
叼	-14.0911
ح	-14.0937
蒗	-14.0964
呦	-14.099
埗	-14.099
嬛	-14.0991
噫	-14.1017
熘	-14.1017
赧	-14.1017
侪	-14.1018
鹛	-14.1044
媪	-14.1044
狒	-14.1071
柰	-14.1071
屦	-14.1096
閤	-14.1097
浍	-14.1097
焓	-14.1097
叻	-14.1098
觥	-14.1098
雩	-14.1098
N	-14.1124
鲱	-14.1124
唬	-14.1124
鼋	-14.1152
髌	-14.1178
唛	-14.1178
罍	-14.1179
아	-14.1205
隈	-14.1206
昺	-14.1206
喳	-14.1233
べ	-14.126
霈	-14.1261
靥	-14.1288
지	-14.1288
颙	-14.1315
┇	-14.1343
凼	-14.1343
驺	-14.1343
氘	-14.1343
嗦	-14.1343
荏	-14.137
垱	-14.1371
น	-14.1398
趵	-14.1398
帑	-14.1398
臬	-14.1398
仫	-14.1398
洺	-14.1399
窨	-14.1426
鰕	-14.1426
戸	-14.1454
嗤	-14.1454
魟	-14.1454
鳊	-14.1482
拊	-14.1482
奭	-14.1509
〝	-14.151
鸬	-14.1537
玟	-14.1538
祎	-14.1538
葑	-14.1566
荑	-14.1566
蝰	-14.1566
郛	-14.1594
洌	-14.1594
苫	-14.1594
犄	-14.1595
赍	-14.1595
鸰	-14.1622
鋬	-14.1623
대	-14.1651
绔	-14.1651
暝	-14.1651
絜	-14.1679
殄	-14.1679
懑	-14.168
扃	-14.168
垵	-14.168
耨	-14.168
镝	-14.168
捎	-14.168
缵	-14.1708
筌	-14.1708
堌	-14.1765
郄	-14.1766
逄	-14.1793
蘇	-14.1794
亓	-14.1796
嬅	-14.1823
秕	-14.1823
誊	-14.1823
嗒	-14.1823
薷	-14.1852
铊	-14.1852
遯	-14.1852
聒	-14.1852
骢	-14.1852
菡	-14.1881
倞	-14.1881
骺	-14.1881
髀	-14.1881
糗	-14.191
镒	-14.191
砒	-14.194
耋	-14.194
洎	-14.194
鹚	-14.1968
遘	-14.1968
缍	-14.1968
唏	-14.1969
怂	-14.1969
∕	-14.1969
鮨	-14.1969
悱	-14.1969
h	-14.1969
嗷	-14.1998
萆	-14.1998
佻	-14.1998
屌	-14.1998
诹	-14.1998
晌	-14.1998
穑	-14.2028
抃	-14.2028
淛	-14.2028
贶	-14.2028
ت	-14.2028
吆	-14.2028
哙	-14.2029
寔	-14.2057
∠	-14.2057
寃	-14.2057
埤	-14.2058
竑	-14.2058
喽	-14.2059
髭	-14.2087
妣	-14.2116
讎	-14.2117
̊	-14.2117
噱	-14.2117
荦	-14.2117
麈	-14.2117
槊	-14.2117
籴	-14.2117
儁	-14.2146
牝	-14.2176
黻	-14.2176
孱	-14.2177
鳙	-14.2177
毽	-14.2177
膂	-14.2177
埵	-14.2177
痱	-14.2206
한	-14.2206
鲽	-14.2206
淠	-14.2207
砰	-14.2207
囗	-14.2208
黉	-14.2208
沆	-14.2237
阃	-14.2237
骝	-14.2237
噌	-14.2237
嘀	-14.2237
陔	-14.2267
−	-14.2267
涑	-14.2267
瀬	-14.2267
廨	-14.2267
耜	-14.2297
芈	-14.2297
侑	-14.2297
滢	-14.2298
钲	-14.2327
湜	-14.2327
炅	-14.2328
亻	-14.2358
逖	-14.2358
悭	-14.2358
雠	-14.2389
碶	-14.2389
讵	-14.2389
捋	-14.2419
轫	-14.2419
筲	-14.2419
陬	-14.242
瞠	-14.245
鳉	-14.245
≠	-14.245
罴	-14.248
碇	-14.2481
榖	-14.2482
埝	-14.2482
燊	-14.2543
躅	-14.2543
跺	-14.2543
│	-14.2543
廝	-14.2543
어	-14.2574
袴	-14.2574
樯	-14.2574
ホ	-14.2574
鲆	-14.2575
나	-14.2605
甪	-14.2605
唁	-14.2605
鹡	-14.2606
砬	-14.2606
柽	-14.2637
▪	-14.2637
钚	-14.2668
襁	-14.2668
ˉ	-14.2668
髡	-14.2699
岢	-14.27
桎	-14.27
笕	-14.27
蘧	-14.27
粧	-14.27
埒	-14.27
裒	-14.2701
蝥	-14.2731
锏	-14.2763
鼯	-14.2763
고	-14.2763
Х	-14.2763
亶	-14.2795
褓	-14.2795
蓇	-14.2796
艏	-14.2826
凪	-14.2827
煇	-14.2827
埇	-14.2827
簟	-14.2827
倬	-14.2827
堞	-14.286
사	-14.2891
ư	-14.2891
惦	-14.2891
葖	-14.2892
L	-14.2923
玕	-14.2923
鬯	-14.2924
炱	-14.2956
喟	-14.2956
蓊	-14.2988
癔	-14.2988
喾	-14.302
∮	-14.3021
洸	-14.3021
愔	-14.3053
藨	-14.3053
ペ	-14.3086
珅	-14.3086
焜	-14.3086
颀	-14.3086
廛	-14.3087
逦	-14.3087
毘	-14.3119
踹	-14.3119
烝	-14.3119
肓	-14.3119
∑	-14.3119
菪	-14.312
郇	-14.312
貘	-14.3152
偓	-14.3152
蚵	-14.3152
绌	-14.3153
赜	-14.3186
慝	-14.3186
蠖	-14.3218
가	-14.3218
岿	-14.3219
粜	-14.3252
怏	-14.3253
э	-14.3254
珺	-14.3285
і	-14.3285
u	-14.3285
啻	-14.3285
酆	-14.3285
賸	-14.3285
劼	-14.3285
洧	-14.3285
G	-14.3318
鸻	-14.3318
劵	-14.3319
恿	-14.3319
김	-14.3319
畋	-14.3319
炁	-14.3351
旒	-14.3352
苒	-14.3352
ぼ	-14.3353
訄	-14.3353
睬	-14.3353
崤	-14.3354
梏	-14.3386
凇	-14.3386
缣	-14.3386
跣	-14.3387
嘏	-14.342
袪	-14.342
姹	-14.342
ั	-14.3454
咩	-14.3454
氚	-14.3454
跚	-14.3488
趼	-14.3488
อ	-14.3522
吭	-14.3523
沏	-14.3523
诮	-14.3523
聃	-14.3523
痼	-14.3523
镧	-14.3524
跎	-14.3557
정	-14.3557
苾	-14.3557
筚	-14.3591
銎	-14.3591
鳏	-14.3591
磙	-14.3592
ی	-14.3626
棻	-14.3626
棨	-14.3626
聩	-14.3626
覈	-14.3626
鍊	-14.3661
龊	-14.3661
狍	-14.3661
炆	-14.3661
偌	-14.3661
畑	-14.3661
哽	-14.3661
‖	-14.3662
臃	-14.3696
铐	-14.3696
澶	-14.373
湎	-14.3731
鲡	-14.3731
刽	-14.3731
竽	-14.3766
缑	-14.377
褫	-14.3801
梿	-14.3801
鞮	-14.3801
다	-14.3801
讦	-14.3801
箅	-14.3836
毬	-14.3836
讧	-14.3871
郃	-14.3871
粄	-14.3872
泐	-14.3872
磔	-14.3872
楽	-14.3904
厍	-14.3907
捭	-14.3907
彘	-14.3908
桴	-14.3908
々	-14.3942
ệ	-14.3943
逯	-14.3943
氾	-14.3943
狷	-14.3943
弇	-14.3979
弢	-14.3979
箜	-14.3979
倨	-14.3979
ί	-14.3979
闩	-14.3979
浈	-14.3979
邴	-14.398
怿	-14.4014
腼	-14.4015
瓌	-14.4017
恵	-14.405
帔	-14.4051
咿	-14.4051
埽	-14.4052
伝	-14.4086
e	-14.4087
ゼ	-14.4087
ف	-14.4087
鄜	-14.4123
彖	-14.4123
篌	-14.4123
叡	-14.4123
醅	-14.416
鲔	-14.416
畊	-14.416
硇	-14.416
胼	-14.416
罅	-14.416
瑭	-14.4161
椋	-14.4196
桕	-14.4197
龌	-14.4233
腠	-14.4233
齎	-14.4233
瑷	-14.4234
鸶	-14.427
睇	-14.427
铖	-14.427
戬	-14.427
喫	-14.427
ö	-14.4271
愠	-14.4271
溷	-14.4271
哏	-14.4307
墘	-14.4307
瓴	-14.4308
骘	-14.4308
涔	-14.4344
리	-14.4344
조	-14.4344
芟	-14.4344
媾	-14.4344
嘤	-14.4345
榘	-14.4345
嵛	-14.4382
缃	-14.4382
桄	-14.4382
鸩	-14.4382
의	-14.4419
栌	-14.4419
盉	-14.4419
づ	-14.4419
鹎	-14.4456
揍	-14.4457
蒾	-14.4457
儆	-14.4457
夤	-14.4457
堠	-14.4458
倌	-14.4494
ł	-14.4494
夥	-14.4494
帻	-14.4532
艿	-14.4532
嶝	-14.4533
跄	-14.4533
蓁	-14.4533
崞	-14.4533
杪	-14.457
剜	-14.4571
疴	-14.4571
瞌	-14.4571
诨	-14.4571
荛	-14.4571
岜	-14.4571
鳚	-14.4608
蹒	-14.4609
绗	-14.4609
蒐	-14.4609
禊	-14.4609
籥	-14.4609
疋	-14.4647
睥	-14.4647
犭	-14.4685
R	-14.4685
E	-14.4723
啫	-14.4724
♂	-14.4762
袢	-14.4762
̈	-14.4763
撅	-14.4763
糁	-14.4763
ю	-14.4798
耷	-14.4801
喑	-14.4802
惴	-14.4802
煖	-14.484
巉	-14.4841
驩	-14.4841
芘	-14.4841
鸲	-14.4841
黥	-14.4841
萁	-14.488
郅	-14.488
시	-14.488
觇	-14.4881
鵟	-14.4919
氖	-14.4919
泚	-14.4919
辻	-14.4919
搦	-14.492
赟	-14.492
罽	-14.492
襃	-14.4959
犸	-14.4959
洩	-14.4959
巻	-14.4959
桯	-14.4959
刳	-14.4959
圯	-14.4998
ม	-14.4998
醺	-14.4999
気	-14.5038
菝	-14.5038
愦	-14.5038
罟	-14.5038
圄	-14.5038
慙	-14.5039
镏	-14.5078
酃	-14.5079
하	-14.5118
匜	-14.5119
Σ	-14.5119
胙	-14.5158
烊	-14.5159
皲	-14.5159
甓	-14.516
เ	-14.5199
哔	-14.5199
戕	-14.5199
脿	-14.52
氹	-14.524
牂	-14.524
馑	-14.524
ه	-14.524
Е	-14.528
鲻	-14.5281
蛐	-14.5281
翫	-14.5281
葚	-14.5281
摅	-14.5281
醯	-14.5282
実	-14.5321
У	-14.5321
褊	-14.5321
〃	-14.5322
舐	-14.5322
≦	-14.5322
赁	-14.5362
棰	-14.5362
ย	-14.5362
屺	-14.5362
猇	-14.5363
绺	-14.5363
囡	-14.5363
玦	-14.5363
秫	-14.5363
甗	-14.5364
舄	-14.5402
蝣	-14.5404
萩	-14.5404
暐	-14.5404
蚺	-14.5404
ก	-14.5446
ヨ	-14.5446
χ	-14.5487
効	-14.5487
泫	-14.5487
娉	-14.5488
黩	-14.5488
笪	-14.5529
朊	-14.5529
纍	-14.5529
铷	-14.553
♀	-14.557
讣	-14.5571
楩	-14.5571
貔	-14.5571
ش	-14.5571
蔹	-14.5571
ج	-14.5571
俣	-14.5572
〓	-14.5613
愎	-14.5613
蕖	-14.5613
孖	-14.5614
鳎	-14.5614
邋	-14.5614
荩	-14.5614
H	-14.5655
谮	-14.5655
緜	-14.5656
璿	-14.5698
埴	-14.5698
盤	-14.5698
瞋	-14.5698
镲	-14.5698
纛	-14.5699
箪	-14.5741
漭	-14.5741
杌	-14.5741
성	-14.5741
遛	-14.5741
茈	-14.5741
窅	-14.5742
坼	-14.5784
哕	-14.5784
邶	-14.5784
주	-14.5784
逡	-14.5784
醢	-14.5784
垆	-14.5785
癃	-14.5827
诿	-14.5827
佾	-14.587
毳	-14.5914
ё	-14.5914
鲃	-14.5914
劬	-14.5914
畀	-14.5914
ə	-14.5914
觌	-14.5914
는	-14.5957
笮	-14.5957
燿	-14.5958
簕	-14.5958
군	-14.5958
怦	-14.6001
黾	-14.6001
葜	-14.6001
垕	-14.6002
旂	-14.6045
撂	-14.6045
薜	-14.6045
畠	-14.6046
珧	-14.6046
盍	-14.6046
≧	-14.6046
鲣	-14.609
丨	-14.609
인	-14.609
怵	-14.609
岽	-14.609
橛	-14.609
薢	-14.6134
伋	-14.6134
勅	-14.6134
泅	-14.6134
扆	-14.6134
Α	-14.6134
ά	-14.6135
忐	-14.6178
선	-14.6179
嗑	-14.6179
囹	-14.6179
	-14.6179
唳	-14.6179
叵	-14.6179
喈	-14.6179
畚	-14.6179
瘵	-14.618
髫	-14.6224
̄	-14.6224
Ο	-14.6224
酩	-14.6268
鹨	-14.6269
揄	-14.6269
斝	-14.6269
彀	-14.627
锜	-14.627
忑	-14.6314
踯	-14.6314
刖	-14.6314
仵	-14.6314
З	-14.6314
珽	-14.6314
飧	-14.6359
蛴	-14.6359
桤	-14.6359
畛	-14.636
t	-14.636
窣	-14.6404
様	-14.6405
発	-14.6405
祔	-14.6405
沚	-14.6405
侩	-14.6451
艸	-14.6451
蒟	-14.6451
柃	-14.6451
ق	-14.6451
鬘	-14.6451
泖	-14.6497
浉	-14.6497
疒	-14.6497
眄	-14.6497
坌	-14.6497
咛	-14.6497
ζ	-14.6498
茕	-14.6543
篠	-14.6543
鴷	-14.6543
ı	-14.6543
瘸	-14.6544
烜	-14.6589
屍	-14.659
撵	-14.659
饸	-14.6636
関	-14.6636
ạ	-14.6636
攥	-14.6637
牋	-14.6637
蹻	-14.6637
汧	-14.6637
畤	-14.6637
笊	-14.6637
轳	-14.6639
靺	-14.6682
擞	-14.6683
을	-14.6683
椪	-14.6683
铼	-14.6684
瘥	-14.6684
U	-14.6684
饩	-14.6684
憍	-14.6684
s	-14.673
茇	-14.6731
遢	-14.6731
饹	-14.6777
幛	-14.6778
潸	-14.6778
薙	-14.6778
捱	-14.6778
ゾ	-14.6778
ä	-14.6778
鲹	-14.6778
忄	-14.6778
蜩	-14.6779
荇	-14.6779
谳	-14.6779
扞	-14.6825
서	-14.6826
ز	-14.6826
阍	-14.6826
蒹	-14.6826
扌	-14.6826
逑	-14.6826
蠃	-14.6826
幞	-14.6826
厓	-14.6874
剣	-14.6874
篑	-14.6874
冏	-14.6874
傒	-14.6874
寘	-14.6874
鞨	-14.692
僰	-14.6921
י	-14.6921
乜	-14.6922
š	-14.697
鵙	-14.697
绻	-14.697
筼	-14.697
蝓	-14.697
일	-14.697
悒	-14.697
屣	-14.697
佉	-14.697
柝	-14.6971
殳	-14.7017
椟	-14.7018
瑠	-14.7018
煳	-14.7018
게	-14.7066
囟	-14.7067
龢	-14.7067
栃	-14.7067
铫	-14.7067
閟	-14.7068
桜	-14.7116
吖	-14.7116
국	-14.7116
晳	-14.7116
壻	-14.7116
復	-14.7117
蒨	-14.7117
坜	-14.7117
炘	-14.7165
兕	-14.7165
窳	-14.7166
噗	-14.7166
蛲	-14.7167
円	-14.7215
舾	-14.7215
缱	-14.7215
説	-14.7215
瞀	-14.7215
団	-14.7215
矧	-14.7215
衞	-14.7215
亹	-14.7216
ิ	-14.7264
腘	-14.7264
搴	-14.7265
嬖	-14.7265
鲥	-14.7265
瀍	-14.7265
镣	-14.7315
猊	-14.7315
기	-14.7315
蒻	-14.7315
禋	-14.7315
ό	-14.7315
민	-14.7315
∽	-14.7315
玢	-14.7315
咂	-14.7315
礽	-14.7315
艉	-14.7365
纮	-14.7365
豊	-14.7365
邽	-14.7365
巿	-14.7365
喏	-14.7365
慊	-14.7365
珰	-14.7365
轵	-14.7366
鳇	-14.7415
枰	-14.7415
査	-14.7416
遹	-14.7416
廻	-14.7416
抿	-14.7416
悛	-14.7416
谰	-14.7416
嗝	-14.7466
勗	-14.7466
鲕	-14.7467
鴈	-14.7467
褛	-14.7467
瞅	-14.7468
馓	-14.7517
翀	-14.7517
鹕	-14.7517
塆	-14.7517
勑	-14.7517
ố	-14.7517
侔	-14.7517
赳	-14.7517
俛	-14.7518
崀	-14.7518
蚨	-14.7519
脷	-14.7567
掂	-14.7568
抻	-14.7568
飏	-14.7568
馐	-14.7568
우	-14.7569
祧	-14.7569
摁	-14.7569
栒	-14.7569
阝	-14.7569
恫	-14.7569
내	-14.7619
楦	-14.762
ơ	-14.7672
懔	-14.7672
鉄	-14.7672
絷	-14.7672
诎	-14.7672
摞	-14.7672
溇	-14.7724
俅	-14.7724
骀	-14.7724
酺	-14.7724
ヘ	-14.7724
醣	-14.7776
埏	-14.7776
対	-14.7776
湓	-14.7777
堙	-14.7777
豨	-14.7829
라	-14.7829
해	-14.7829
ง	-14.7829
蛞	-14.7829
栳	-14.7829
鸷	-14.7829
飕	-14.7829
嫘	-14.7829
鹇	-14.783
梶	-14.7881
貊	-14.7882
踉	-14.7882
炤	-14.7882
鉏	-14.7882
哂	-14.7935
祓	-14.7935
ぬ	-14.7935
鹱	-14.7935
신	-14.7935
辏	-14.7935
獣	-14.7935
攟	-14.7935
藦	-14.7936
澥	-14.7936
椠	-14.7936
孥	-14.7936
郪	-14.7988
伢	-14.7988
锝	-14.7989
燠	-14.7989
髎	-14.7989
滉	-14.7989
ท	-14.8042
筜	-14.8042
檎	-14.8042
峇	-14.8042
镠	-14.8043
隹	-14.8043
菑	-14.8096
r	-14.8096
栢	-14.8096
斲	-14.8096
ć	-14.8096
噙	-14.8096
酹	-14.8097
觏	-14.8097
锔	-14.8098
氪	-14.815
K	-14.8151
茀	-14.8151
柢	-14.8151
讌	-14.8151
痍	-14.8152
迓	-14.8205
铪	-14.8205
犰	-14.8205
槠	-14.8205
Я	-14.8205
ă	-14.8206
鲧	-14.826
狳	-14.826
獬	-14.826
수	-14.826
簌	-14.826
蠊	-14.826
영	-14.826
黧	-14.826
Π	-14.8261
讙	-14.8261
皞	-14.8315
蜞	-14.8315
゚	-14.8315
嗲	-14.8315
嶋	-14.8315
饔	-14.8316
囷	-14.8316
鲌	-14.8317
钐	-14.8317
眞	-14.8321
鼍	-14.8371
媵	-14.8371
ぞ	-14.8371
氅	-14.8372
踬	-14.8372
茚	-14.8426
笹	-14.8427
魑	-14.8427
원	-14.8427
Ч	-14.8427
	-14.8427
은	-14.8427
鲊	-14.8428
酽	-14.8428
ξ	-14.8428
衩	-14.8483
瀹	-14.8483
呓	-14.8483
浞	-14.8483
钅	-14.8483
溼	-14.8483
栊	-14.8483
蛩	-14.8483
倅	-14.8483
壎	-14.8484
縠	-14.8484
菉	-14.8484
褰	-14.8484
脒	-14.8539
隳	-14.8539
纁	-14.8539
颋	-14.854
溘	-14.854
貅	-14.854
嗉	-14.854
昝	-14.854
讬	-14.8541
에	-14.8596
ว	-14.8596
戆	-14.8596
蕺	-14.8596
沄	-14.8596
翈	-14.8596
涠	-14.8597
歛	-14.8597
狨	-14.8653
로	-14.8653
脣	-14.8654
篪	-14.8654
ế	-14.8654
妬	-14.8654
麤	-14.8654
阼	-14.8655
鸊	-14.8711
蓐	-14.8711
魉	-14.8711
燋	-14.8711
棼	-14.8712
擿	-14.8769
嫚	-14.8769
撝	-14.8769
螬	-14.8769
捩	-14.8769
魍	-14.8769
埸	-14.8769
Ш	-14.8769
磜	-14.877
觜	-14.8771
栻	-14.8826
缋	-14.8827
่	-14.8827
∩	-14.8827
ậ	-14.8827
纰	-14.8827
薳	-14.8827
搆	-14.8827
鑪	-14.8827
昃	-14.8828
漶	-14.8885
穂	-14.8886
湔	-14.8886
ط	-14.8886
旰	-14.8886
檠	-14.8887
搢	-14.8945
猁	-14.8945
樘	-14.8945
闘	-14.8945
忉	-14.9003
钫	-14.9003
掼	-14.9003
ộ	-14.9003
矍	-14.9003
Κ	-14.9003
▼	-14.9004
摛	-14.9004
č	-14.9004
蔵	-14.9004
鮀	-14.9004
鱇	-14.9004
鮰	-14.9004
諲	-14.9005
洫	-14.9005
너	-14.9062
∧	-14.9063
보	-14.9063
ו	-14.9063
ả	-14.9063
犴	-14.9063
甍	-14.9064
钆	-14.9065
勣	-14.9122
颃	-14.9123
ส	-14.9123
≡	-14.9123
忖	-14.9123
鹮	-14.9123
↘	-14.9123
絵	-14.9123
潆	-14.9123
晡	-14.9123
纻	-14.9183
芑	-14.9183
簠	-14.9183
랑	-14.9183
玎	-14.9183
柊	-14.9183
颺	-14.9184
笫	-14.9243
愬	-14.9244
蜣	-14.9244
挲	-14.9244
豔	-14.9244
鎔	-14.9244
悝	-14.9244
歩	-14.9244
遶	-14.9244
貍	-14.9304
郞	-14.9305
庹	-14.9305
嚓	-14.9305
眚	-14.9366
甃	-14.9366
饫	-14.9366
萄	-14.9366
鹁	-14.9367
皁	-14.9367
枹	-14.9367
鷉	-14.9427
ห	-14.9428
ô	-14.9428
冴	-14.9428
绐	-14.9428
暠	-14.9428
揿	-14.9428
乩	-14.9429
蚰	-14.949
濩	-14.949
Ø	-14.949
寖	-14.949
湉	-14.949
隣	-14.949
鮟	-14.949
猞	-14.9491
旆	-14.9491
広	-14.9552
菓	-14.9552
墻	-14.9553
犟	-14.9553
啁	-14.9553
慥	-14.9553
昇	-14.9615
舁	-14.9616
b	-14.9616
旮	-14.9616
馘	-14.9679
스	-14.9679
跂	-14.9679
馕	-14.9679
岞	-14.9679
挢	-14.9679
芃	-14.9679
洑	-14.9679
忪	-14.9679
疍	-14.9679
鲐	-14.9679
廕	-14.968
遄	-14.968
鲋	-14.9742
钌	-14.9742
蕹	-14.9742
絺	-14.9742
蹩	-14.9742
瑱	-14.9742
忾	-14.9743
餘	-14.9743
喁	-14.9743
諡	-14.9743
変	-14.9806
谡	-14.9806
鲚	-14.9806
그	-14.9806
敍	-14.9806
韪	-14.9807
禘	-14.987
砗	-14.9871
ễ	-14.9871
筇	-14.9871
鎓	-14.9871
紘	-14.9871
纩	-14.9871
辺	-14.9871
垚	-14.9871
동	-14.9935
槅	-14.9935
翙	-14.9935
舢	-14.9935
藭	-14.9935
蠓	-14.9936
菈	-14.9936
棊	-14.9936
酤	-14.9936
侂	-14.9936
籙	-14.9936
瓞	-14.9936
ぽ	-14.9936
巘	-14.9936
魃	-14.9936
洊	-14.9936
耧	-14.9937
簃	-14.9937
齑	-14.9937
睺	-15
瀼	-15.0001
殛	-15.0002
唵	-15.0002
梣	-15.0002
ा	-15.0043
痠	-15.0067
澪	-15.0067
馃	-15.0067
悃	-15.0067
♦	-15.0067
梃	-15.0067
蚋	-15.0067
赙	-15.0067
肪	-15.0132
ล	-15.0133
癯	-15.0133
紵	-15.0133
硎	-15.0133
伧	-15.0134
咻	-15.0134
안	-15.0199
锇	-15.02
疰	-15.02
踽	-15.02
檫	-15.02
歃	-15.02
塱	-15.02
轺	-15.0201
榊	-15.0266
躄	-15.0267
绠	-15.0267
滠	-15.0334
竝	-15.0334
褡	-15.0334
∣	-15.0335
庋	-15.0335
穉	-15.0335
霊	-15.0335
蹀	-15.0335
翃	-15.0335
殂	-15.0335
闍	-15.0402
盹	-15.0403
榇	-15.0403
渫	-15.0403
犇	-15.0403
陴	-15.0403
瘖	-15.0403
皤	-15.0404
橦	-15.0471
踱	-15.0471
鹓	-15.0471
脔	-15.0471
躔	-15.0471
畎	-15.0471
鹖	-15.0471
仮	-15.0471
呪	-15.0472
锱	-15.0472
麿	-15.0539
藠	-15.054
丿	-15.054
衎	-15.054
ş	-15.054
燄	-15.054
磲	-15.054
歳	-15.054
櫂	-15.054
僇	-15.054
臌	-15.054
睚	-15.054
䓖	-15.0609
輶	-15.0609
ç	-15.061
鲞	-15.061
箝	-15.061
구	-15.061
伛	-15.061
吽	-15.061
僦	-15.061
飡	-15.061
자	-15.0678
仉	-15.0679
镈	-15.0679
상	-15.0679
澌	-15.0679
脞	-15.0679
ี	-15.0679
ด	-15.0679
岵	-15.068
筭	-15.068
堽	-15.068
旯	-15.068
悻	-15.068
褴	-15.068
绲	-15.075
燐	-15.075
祲	-15.075
踣	-15.075
έ	-15.0751
鲴	-15.0751
倕	-15.0821
罾	-15.0821
菹	-15.0821
偲	-15.0821
俤	-15.0821
ầ	-15.0821
ɑ	-15.0821
瘅	-15.0821
咭	-15.0821
ゥ	-15.0891
ุ	-15.0892
裥	-15.0892
진	-15.0892
ك	-15.0892
鳾	-15.0893
焞	-15.0893
诶	-15.0893
卽	-15.0893
้	-15.0963
钋	-15.0964
瘳	-15.0964
堉	-15.0964
晧	-15.0964
壸	-15.0964
甯	-15.0966
्	-15.1012
蘼	-15.1036
経	-15.1036
躭	-15.1037
경	-15.1037
喦	-15.1037
砟	-15.1109
眊	-15.111
璫	-15.111
譌	-15.111
酎	-15.111
懽	-15.111
咦	-15.1111
莶	-15.1183
胬	-15.1183
廑	-15.1183
媿	-15.1183
铏	-15.1183
暾	-15.1183
樫	-15.1183
褙	-15.1257
خ	-15.1257
釿	-15.1259
绨	-15.1331
俬	-15.1332
汭	-15.1332
続	-15.1332
墬	-15.1332
أ	-15.1332
鯙	-15.1332
撃	-15.1333
郿	-15.1334
鞞	-15.1406
蜮	-15.1406
龕	-15.1407
鮈	-15.1407
剐	-15.1407
罨	-15.1407
鼉	-15.1407
柁	-15.1407
殍	-15.1407
餽	-15.1407
啕	-15.1407
娈	-15.1408
錡	-15.1482
W	-15.1482
현	-15.1482
盩	-15.1483
佢	-15.1483
釒	-15.1483
卺	-15.1483
〒	-15.1483
湣	-15.1483
舣	-15.1483
ˈ	-15.1483
嵎	-15.1483
伥	-15.1483
栿	-15.1484
劢	-15.1558
요	-15.1559
槻	-15.1559
袷	-15.1559
艋	-15.1559
骓	-15.1559
榦	-15.1559
烺	-15.1559
塅	-15.1559
跬	-15.1559
鷙	-15.1559
噼	-15.156
贳	-15.156
鹾	-15.1561
墁	-15.1635
骃	-15.1636
锨	-15.1636
曛	-15.1636
祼	-15.1636
鄘	-15.1636
簏	-15.1636
왕	-15.1636
欷	-15.1637
亜	-15.1637
จ	-15.1713
d	-15.1713
厔	-15.1713
鸹	-15.1713
廆	-15.1713
嵒	-15.1713
니	-15.1713
総	-15.1714
蜺	-15.1714
囵	-15.1714
笤	-15.1714
鲼	-15.1714
讐	-15.1714
嶮	-15.1715
宄	-15.1715
钬	-15.1715
濆	-15.1791
毎	-15.1791
礐	-15.1791
鸸	-15.1791
岈	-15.1792
鼷	-15.1792
埶	-15.1792
嘅	-15.1792
蘩	-15.1792
莛	-15.1792
狲	-15.1792
偾	-15.1792
鼱	-15.1792
沴	-15.1792
甿	-15.1792
娌	-15.1793
⁄	-15.18
芴	-15.187
龉	-15.187
窭	-15.187
강	-15.187
마	-15.187
窊	-15.187
籓	-15.187
ה	-15.1871
磾	-15.1871
踮	-15.1871
跹	-15.1872
蔟	-15.1949
蕰	-15.1949
榎	-15.1949
髑	-15.1949
부	-15.195
嗖	-15.195
顒	-15.195
瑒	-15.195
囍	-15.195
秾	-15.195
紬	-15.195
鼙	-15.195
猱	-15.1951
र	-15.2009
镡	-15.2029
钪	-15.2029
제	-15.203
朥	-15.203
羶	-15.203
虿	-15.203
苘	-15.203
崐	-15.2031
Ц	-15.2108
廒	-15.2109
미	-15.211
庥	-15.211
寀	-15.211
踔	-15.211
爇	-15.211
ヌ	-15.211
ή	-15.2111
暘	-15.2111
驤	-15.2111
陁	-15.2111
垞	-15.2111
铒	-15.2112
蓠	-15.2191
渟	-15.2191
甏	-15.2191
蝨	-15.2192
卬	-15.2192
阯	-15.2192
鳋	-15.2192
楙	-15.2192
溍	-15.2192
圬	-15.2193
嫠	-15.2193
蟥	-15.2273
砑	-15.2273
鷲	-15.2273
薅	-15.2273
痃	-15.2274
锕	-15.2274
嵝	-15.2274
肜	-15.2274
箠	-15.2274
宀	-15.2274
丏	-15.2274
粝	-15.2274
襜	-15.2274
讞	-15.2274
鎌	-15.2274
増	-15.2275
ñ	-15.2355
龃	-15.2356
莩	-15.2356
鹋	-15.2356
纚	-15.2356
¤	-15.2356
揶	-15.2356
祆	-15.2356
산	-15.2356
暌	-15.2357
粢	-15.2357
舘	-15.2357
晫	-15.2357
呶	-15.2357
劓	-15.2357
玙	-15.2357
褔	-15.2359
椐	-15.2439
襕	-15.2439
Μ	-15.2439
觯	-15.244
澉	-15.244
艄	-15.244
殪	-15.2441
만	-15.2523
苤	-15.2523
枵	-15.2523
牁	-15.2523
狻	-15.2524
莸	-15.2524
柟	-15.2524
獴	-15.2524
焮	-15.2524
訏	-15.2524
洿	-15.2524
ぜ	-15.2524
繖	-15.2524
咢	-15.2524
怳	-15.2524
糌	-15.2524
妯	-15.2525
悪	-15.2525
晬	-15.2525
妁	-15.2608
昪	-15.2608
琱	-15.2608
尪	-15.2609
酲	-15.2609
芰	-15.2609
篥	-15.2609
闉	-15.2609
筩	-15.2609
怫	-15.2609
仨	-15.261
夬	-15.2694
א	-15.2694
臞	-15.2694
ś	-15.2694
樋	-15.2694
璆	-15.2694
堺	-15.2694
揲	-15.2694
蟌	-15.2694
滃	-15.2694
飈	-15.2695
镨	-15.2695
학	-15.278
์	-15.278
鹣	-15.278
綮	-15.278
박	-15.278
연	-15.278
倓	-15.278
檝	-15.278
유	-15.278
巵	-15.278
荬	-15.2781
朏	-15.2781
硗	-15.2781
翛	-15.2781
臁	-15.2781
鈇	-15.2867
ต	-15.2867
匦	-15.2867
พ	-15.2867
ไ	-15.2867
傕	-15.2867
蜑	-15.2867
茺	-15.2867
ى	-15.2867
飇	-15.2867
纟	-15.2953
ž	-15.2954
	-15.2955
迕	-15.2955
囫	-15.2955
ช	-15.2955
∙	-15.2955
湲	-15.2955
歴	-15.2955
輈	-15.2955
Ε	-15.2955
踈	-15.2955
臑	-15.2956
裼	-15.2956
哧	-15.2957
鶲	-15.3042
眭	-15.3043
阨	-15.3043
鱲	-15.3043
剗	-15.3043
璁	-15.3043
茑	-15.3043
淯	-15.3044
祊	-15.3044
跼	-15.3044
蟳	-15.3044
镢	-15.3132
餗	-15.3133
崟	-15.3133
昰	-15.3133
灊	-15.3133
锸	-15.3133
鳀	-15.3133
鎗	-15.3133
摽	-15.3133
전	-15.3133
峩	-15.3133
嗌	-15.3133
铕	-15.3134
Γ	-15.3223
騃	-15.3223
嬾	-15.3223
镔	-15.3223
ヶ	-15.3223
鹆	-15.3224
剀	-15.3225
欒	-15.3226
소	-15.3313
蕡	-15.3313
ค	-15.3313
舻	-15.3313
暱	-15.3314
缌	-15.3314
嫱	-15.3314
谖	-15.3314
醲	-15.3314
髴	-15.3314
踟	-15.3314
湴	-15.3314
ύ	-15.3314
唷	-15.3314
滧	-15.3316
蒎	-15.3403
∨	-15.3405
诌	-15.3405
廋	-15.3405
辚	-15.3405
斎	-15.3405
镘	-15.3405
刼	-15.3405
韡	-15.3405
捃	-15.3405
É	-15.3405
Э	-15.3406
曈	-15.3406
鰲	-15.3406
槚	-15.3497
泝	-15.3498
枘	-15.3498
襻	-15.3498
霤	-15.3498
晻	-15.3498
餍	-15.3498
畯	-15.3498
縢	-15.3498
羇	-15.3498
夐	-15.3498
篚	-15.3498
↙	-15.3498
傧	-15.3498
擗	-15.3499
髙	-15.3499
祏	-15.3591
哓	-15.3591
ぷ	-15.3591
를	-15.3591
腙	-15.3591
嗄	-15.3592
飱	-15.3592
轱	-15.3592
溽	-15.3592
仂	-15.3592
擣	-15.3592
鋆	-15.3592
冇	-15.3593
彳	-15.3685
焐	-15.3685
嶲	-15.3685
倻	-15.3686
嗥	-15.3686
绁	-15.3686
â	-15.3686
郕	-15.3686
鏐	-15.3686
鲘	-15.3686
萏	-15.3686
화	-15.3686
毖	-15.3686
絶	-15.3686
x	-15.3686
Ж	-15.3686
歊	-15.3686
椀	-15.3686
鱓	-15.3687
癀	-15.3781
聱	-15.3781
Q	-15.3781
บ	-15.3781
勍	-15.3781
綝	-15.3781
忭	-15.3781
Θ	-15.3781
漷	-15.3782
瓖	-15.3782
糹	-15.3876
荘	-15.3877
鞬	-15.3877
伾	-15.3877
売	-15.3877
∫	-15.3877
ר	-15.3877
絰	-15.3877
鼇	-15.3877
嘭	-15.3877
교	-15.3877
郐	-15.3878
軿	-15.3973
恹	-15.3974
濊	-15.3974
洣	-15.3974
釭	-15.3974
坫	-15.3974
ص	-15.3974
남	-15.3974
辶	-15.3974
悰	-15.3974
専	-15.3974
筴	-15.3974
筯	-15.3974
浬	-15.3974
旛	-15.3974
诓	-15.3975
鞶	-15.3975
跽	-15.3975
撄	-15.3975
勔	-15.4072
寛	-15.4072
裢	-15.4072
褭	-15.4072
髣	-15.4073
Ю	-15.4073
怼	-15.4073
崦	-15.4073
魈	-15.4073
収	-15.417
巂	-15.417
岀	-15.4171
蝤	-15.4171
舲	-15.4171
筦	-15.4171
埜	-15.4171
玘	-15.4171
虓	-15.4171
장	-15.4171
硷	-15.4171
崁	-15.4171
棐	-15.4171
掴	-15.4172
撙	-15.4172
嗬	-15.4172
龠	-15.4172
觿	-15.4172
箦	-15.4172
骕	-15.4172
灋	-15.4172
礅	-15.4172
皦	-15.4173
坰	-15.4271
赕	-15.4271
Β	-15.4271
惛	-15.4271
噍	-15.4271
劒	-15.4271
牤	-15.4271
尅	-15.4271
đ	-15.4271
ظ	-15.4271
铩	-15.4271
阌	-15.4271
澣	-15.4271
馊	-15.4271
蟊	-15.4271
曌	-15.4271
p	-15.4272
ị	-15.4272
锒	-15.4272
込	-15.4371
尢	-15.4372
枌	-15.4372
塄	-15.4372
浿	-15.4372
啷	-15.4372
翬	-15.4372
澒	-15.4372
堦	-15.4373
淜	-15.4373
奓	-15.4373
鄠	-15.4373
筘	-15.4373
憙	-15.4379
孓	-15.4473
蓂	-15.4474
為	-15.4474
矬	-15.4474
掊	-15.4474
嫫	-15.4474
礤	-15.4474
천	-15.4474
珌	-15.4474
斾	-15.4474
鵷	-15.4474
楤	-15.4474
雫	-15.4475
眵	-15.4475
谇	-15.4475
荭	-15.4475
粦	-15.4475
甦	-15.4475
籺	-15.4475
狁	-15.4477
䜣	-15.4576
弨	-15.4577
惣	-15.4577
鮓	-15.4577
최	-15.4577
牻	-15.4577
厖	-15.4578
敎	-15.4578
瀞	-15.4578
暍	-15.4578
閈	-15.4578
刓	-15.4578
呴	-15.4578
錞	-15.4578
戽	-15.4579
侉	-15.4678
杻	-15.468
Λ	-15.4681
무	-15.4681
儇	-15.4681
鄚	-15.4681
皝	-15.4681
	-15.4682
翣	-15.4682
오	-15.4682
胠	-15.4682
蠔	-15.4682
烔	-15.4682
纘	-15.4682
秬	-15.4682
缧	-15.4684
谂	-15.4785
말	-15.4785
鄩	-15.4786
铚	-15.4786
嘣	-15.4786
Ψ	-15.4787
礮	-15.4787
ぃ	-15.4787
瀣	-15.4787
양	-15.4787
ぱ	-15.4787
菸	-15.4787
蠧	-15.4787
皐	-15.4787
蹰	-15.4787
瘐	-15.4787
廌	-15.4787
麇	-15.4788
紥	-15.4788
╳	-15.4788
澔	-15.4788
詧	-15.4893
舺	-15.4893
幷	-15.4893
稲	-15.4893
揸	-15.4893
윤	-15.4893
噉	-15.4893
蓺	-15.4894
哝	-15.4894
嫒	-15.4894
阒	-15.4894
倧	-15.4894
憺	-15.4894
觋	-15.4894
蔴	-15.4895
脬	-15.4895
訢	-15.5
怍	-15.5
嫄	-15.5
咁	-15.5
頠	-15.5
琤	-15.5001
刿	-15.5001
毌	-15.5001
葙	-15.5001
転	-15.5001
錂	-15.5001
棫	-15.5001
穠	-15.5001
皃	-15.5001
牓	-15.5001
刂	-15.5001
橚	-15.5002
湑	-15.5002
瘼	-15.5002
榼	-15.5003
珝	-15.5007
岣	-15.5109
胂	-15.5109
희	-15.5109
沬	-15.5109
榱	-15.5109
礻	-15.5109
辵	-15.5109
満	-15.5109
ض	-15.5109
貙	-15.5109
繻	-15.511
邅	-15.511
耇	-15.511
螋	-15.511
褧	-15.511
淏	-15.511
羼	-15.511
騑	-15.511
騄	-15.511
瑊	-15.511
撺	-15.511
栴	-15.5111
垧	-15.5111
隤	-15.5111
щ	-15.5212
宬	-15.5218
들	-15.5219
煣	-15.5219
재	-15.5219
捽	-15.5219
埌	-15.522
攽	-15.522
苳	-15.522
椇	-15.522
搌	-15.522
廙	-15.522
耈	-15.522
尜	-15.522
畧	-15.522
琍	-15.522
煚	-15.522
鹍	-15.522
嚚	-15.522
搠	-15.522
呲	-15.5221
牾	-15.5328
镆	-15.5329
國	-15.533
児	-15.533
蒍	-15.533
酂	-15.533
脇	-15.533
屃	-15.533
蹐	-15.533
岕	-15.533
榃	-15.533
镪	-15.533
茝	-15.5331
麄	-15.5331
狴	-15.5331
雝	-15.5332
犨	-15.5332
糵	-15.5442
薫	-15.5442
ב	-15.5443
蜾	-15.5443
鷁	-15.5443
媞	-15.5443
鞯	-15.5443
려	-15.5443
崚	-15.5443
樛	-15.5443
∴	-15.5443
頔	-15.5443
惔	-15.5443
醑	-15.5443
赇	-15.5443
熲	-15.5443
痾	-15.5443
潏	-15.5444
垲	-15.5444
繸	-15.5449
琎	-15.5556
钖	-15.5556
媟	-15.5556
讠	-15.5556
祅	-15.5557
枲	-15.5557
┼	-15.5557
蝟	-15.5557
瓛	-15.5557
骎	-15.5557
郷	-15.5557
穽	-15.5557
Χ	-15.5557
衤	-15.5557
呸	-15.5557
睒	-15.5557
鋐	-15.5557
渖	-15.556
饣	-15.567
屮	-15.5671
涢	-15.5671
釆	-15.5671
庳	-15.5671
甭	-15.5671
ј	-15.5671
痄	-15.5671
勷	-15.5671
垃	-15.5671
ל	-15.5672
姱	-15.5672
Ι	-15.5672
鬐	-15.5672
嘞	-15.5672
锓	-15.5672
་	-15.5673
ि	-15.5752
锼	-15.5787
呙	-15.5787
ธ	-15.5787
碥	-15.5787
喰	-15.5787
甡	-15.5787
浥	-15.5787
蠋	-15.5788
蠵	-15.5788
霅	-15.5788
踅	-15.5788
袵	-15.5788
睠	-15.5788
熛	-15.5788
塩	-15.5788
鼢	-15.5788
嘢	-15.5788
া	-15.5789
敫	-15.5789
磉	-15.5792
咝	-15.5792
‚	-15.5899
祫	-15.5903
禔	-15.5904
鬬	-15.5905
櫜	-15.5905
崿	-15.5905
齧	-15.5905
ะ	-15.5905
蟛	-15.5905
荄	-15.5905
►	-15.5905
鱵	-15.5905
玡	-15.5905
猢	-15.5906
髽	-15.5906
鮠	-15.5906
罥	-15.5906
賫	-15.5906
窬	-15.5907
鮄	-15.5907
脰	-15.6024
戋	-15.6024
	-15.6024
礞	-15.6024
ờ	-15.6024
嶒	-15.6024
鞾	-15.6024
贠	-15.6024
觭	-15.6024
堎	-15.6024
斵	-15.6024
旐	-15.6024
공	-15.6025
惝	-15.6025
陜	-15.6025
跱	-15.6025
糺	-15.6025
掞	-15.6025
崾	-15.6026
犂	-15.6027
ğ	-15.6144
唰	-15.6144
狯	-15.6145
∪	-15.6145
虒	-15.6145
緼	-15.6145
矞	-15.6145
犽	-15.6145
赑	-15.6145
撸	-15.6145
蚍	-15.6145
盝	-15.6145
訚	-15.6145
轢	-15.6145
鴞	-15.6145
癍	-15.6145
礓	-15.6146
鸺	-15.6146
있	-15.6266
↔	-15.6267
煺	-15.6267
啵	-15.6267
嬿	-15.6267
문	-15.6267
欵	-15.6267
蟮	-15.6267
荖	-15.6267
慴	-15.6267
醂	-15.6267
태	-15.6267
浼	-15.6389
弾	-15.6389
颎	-15.639
絅	-15.639
儗	-15.639
呾	-15.639
┳	-15.639
怃	-15.639
麕	-15.639
蚡	-15.639
巇	-15.639
晩	-15.639
踭	-15.6391
­	-15.6391
忮	-15.6391
欬	-15.6391
洳	-15.6391
蕞	-15.6391
珵	-15.6391
珦	-15.6391
璈	-15.6391
禩	-15.6391
鵄	-15.6392
면	-15.6514
瞢	-15.6514
蟓	-15.6515
罃	-15.6515
眴	-15.6515
埑	-15.6515
肸	-15.6515
蕗	-15.6515
渼	-15.6515
غ	-15.6515
熳	-15.6515
隩	-15.6515
笱	-15.6515
柙	-15.6516
碜	-15.6516
搨	-15.6516
颻	-15.6516
鑊	-15.6516
帨	-15.6516
暻	-15.6516
璹	-15.6516
绹	-15.6516
醵	-15.6517
驎	-15.6641
渋	-15.6641
炻	-15.6641
滝	-15.6641
玭	-15.6641
嚭	-15.6642
ã	-15.6642
세	-15.6642
鵩	-15.6642
糨	-15.6642
揜	-15.6642
氷	-15.6642
尫	-15.6642
卐	-15.6642
賔	-15.6642
螗	-15.6642
穨	-15.6642
氊	-15.6642
殢	-15.6642
峣	-15.6642
鳣	-15.6642
掎	-15.6642
绋	-15.6643
洨	-15.6643
穸	-15.6644
熜	-15.677
ћ	-15.677
棓	-15.677
垾	-15.677
罝	-15.677
阋	-15.677
鲗	-15.677
鄫	-15.677
梼	-15.677
韘	-15.677
雰	-15.677
逈	-15.677
鳓	-15.677
髠	-15.677
驵	-15.677
擐	-15.6771
盻	-15.6771
萑	-15.6771
宂	-15.6771
旟	-15.6771
舳	-15.6771
唎	-15.6774
滆	-15.6898
戥	-15.6899
塲	-15.69
谝	-15.69
幰	-15.69
塝	-15.69
Y	-15.69
래	-15.69
瘈	-15.69
瑢	-15.69
飜	-15.69
楛	-15.69
㖞	-15.69
狃	-15.69
┃	-15.69
猋	-15.69
壖	-15.69
氿	-15.69
哞	-15.6901
鲙	-15.6901
劻	-15.6901
庀	-15.6901
锍	-15.6901
缒	-15.6902
毐	-15.7031
仏	-15.7031
銙	-15.7031
생	-15.7031
臺	-15.7031
谞	-15.7031
芶	-15.7031
중	-15.7031
応	-15.7031
孼	-15.7031
순	-15.7032
儵	-15.7032
惓	-15.7032
劘	-15.7032
硌	-15.7032
羑	-15.7032
墕	-15.7032
趄	-15.7032
蟜	-15.7164
阄	-15.7164
旼	-15.7164
垍	-15.7164
奡	-15.7164
諴	-15.7165
⊕	-15.7165
臿	-15.7165
憯	-15.7165
磵	-15.7165
杧	-15.7165
鲿	-15.7165
犛	-15.7165
嚬	-15.7165
虵	-15.7165
曽	-15.7165
锃	-15.7165
倢	-15.7165
砠	-15.7165
忸	-15.7165
矻	-15.7166
糈	-15.7168
黴	-15.7297
飑	-15.7298
煴	-15.7299
頵	-15.73
澁	-15.73
모	-15.73
호	-15.73
荅	-15.73
踧	-15.73
恧	-15.73
饘	-15.73
鎞	-15.73
稾	-15.73
╱	-15.73
鉨	-15.73
黹	-15.73
朞	-15.73
Τ	-15.73
斿	-15.73
髪	-15.7301
敔	-15.7301
耵	-15.7301
聍	-15.7301
挼	-15.7301
愀	-15.7301
翾	-15.7302
氍	-15.7303
圌	-15.7305
न	-15.7415
澚	-15.7436
Z	-15.7436
야	-15.7437
鄗	-15.7437
ɪ	-15.7437
虀	-15.7437
迍	-15.7437
覊	-15.7437
삼	-15.7437
槖	-15.7437
逌	-15.7437
Ν	-15.7437
嵓	-15.7437
璵	-15.7437
幙	-15.7437
鶡	-15.7437
栟	-15.7438
詔	-15.7438
帱	-15.7438
拶	-15.744
त	-15.7543
铓	-15.7574
鶒	-15.7575
없	-15.7576
┅	-15.7576
賨	-15.7576
觔	-15.7576
ә	-15.7576
▽	-15.7576
沇	-15.7576
斠	-15.7576
踦	-15.7576
종	-15.7576
魨	-15.7576
ک	-15.7576
疢	-15.7576
鍱	-15.7576
ø	-15.7576
歔	-15.7576
阬	-15.7576
锾	-15.7577
屙	-15.7578
裀	-15.7715
猡	-15.7715
帯	-15.7716
涘	-15.7716
J	-15.7716
ป	-15.7716
疭	-15.7716
ồ	-15.7716
謦	-15.7716
旳	-15.7717
涙	-15.7717
崒	-15.7717
嗛	-15.7717
猨	-15.7717
佽	-15.7717
ː	-15.7717
당	-15.7717
鍪	-15.7717
鞴	-15.7717
袀	-15.7718
捴	-15.7718
龀	-15.7718
缊	-15.7859
帀	-15.7859
燚	-15.7859
囓	-15.7859
거	-15.7859
מ	-15.7859
轘	-15.786
姘	-15.786
麪	-15.786
y	-15.786
洇	-15.786
ヲ	-15.786
炟	-15.786
ą	-15.786
鷸	-15.786
砵	-15.786
酡	-15.786
靦	-15.786
饟	-15.786
熇	-15.786
遡	-15.786
觱	-15.7861
咣	-15.7861
觳	-15.7862
璪	-15.7864
嫪	-15.8004
鲖	-15.8004
镅	-15.8004
姮	-15.8004
瓟	-15.8004
妘	-15.8004
禨	-15.8004
敉	-15.8004
浡	-15.8005
営	-15.8005
鎛	-15.8005
髩	-15.8005
杙	-15.8005
毵	-15.8005
躐	-15.8005
울	-15.8005
輙	-15.8005
鬶	-15.8005
鄮	-15.8006
匄	-15.8006
碹	-15.8015
鸂	-15.815
镟	-15.8151
袆	-15.8151
斁	-15.8151
汫	-15.8151
昬	-15.8151
缾	-15.8151
閦	-15.8152
	-15.8152
≮	-15.8152
涖	-15.8152
姉	-15.8152
盨	-15.8152
筊	-15.8152
剸	-15.8152
偬	-15.8152
∏	-15.8152
腚	-15.8152
ż	-15.8152
躞	-15.8154
莰	-15.8299
壄	-15.8299
禖	-15.8299
郚	-15.83
鮡	-15.83
蹯	-15.83
癎	-15.83
여	-15.83
掮	-15.83
矰	-15.8301
獍	-15.8301
광	-15.8301
姤	-15.8301
溁	-15.8301
轾	-15.8301
愒	-15.8301
僎	-15.8301
蠭	-15.8301
闚	-15.8301
蹏	-15.8301
贇	-15.8301
蹷	-15.8301
ę	-15.8301
葅	-15.8301
跞	-15.8301
蠙	-15.8302
鍚	-15.8302
猃	-15.8303
峧	-15.8304
े	-15.8418
鸑	-15.8451
熺	-15.8451
骟	-15.8452
靑	-15.8452
綖	-15.8452
刭	-15.8452
泂	-15.8452
駸	-15.8452
ู	-15.8452
麐	-15.8452
淸	-15.8452
會	-15.8452
袠	-15.8452
嗢	-15.8452
바	-15.8452
缲	-15.8452
菼	-15.8452
鷇	-15.8452
袗	-15.8453
碡	-15.8453
廼	-15.8454
镱	-15.8455
槙	-15.8606
踳	-15.8606
酴	-15.8606
罛	-15.8606
노	-15.8606
楗	-15.8606
แ	-15.8606
佷	-15.8606
鬈	-15.8606
叚	-15.8606
ë	-15.8606
爝	-15.8606
璲	-15.8606
旴	-15.8606
╠	-15.8606
緌	-15.8606
梈	-15.8606
ώ	-15.8606
旉	-15.8606
牕	-15.8607
悮	-15.8607
罏	-15.8607
繙	-15.8607
學	-15.8608
紞	-15.8608
क	-15.8725
丌	-15.8762
暕	-15.8762
時	-15.8762
诇	-15.8762
虡	-15.8762
豭	-15.8762
尓	-15.8762
逴	-15.8762
명	-15.8762
æ	-15.8762
鱚	-15.8762
昞	-15.8763
嶢	-15.8763
刲	-15.8763
ぴ	-15.8763
ề	-15.8763
噏	-15.8763
榅	-15.8763
螣	-15.8763
諕	-15.8763
灝	-15.8763
媸	-15.8763
歷	-15.8763
준	-15.8763
輋	-15.8763
窓	-15.8763
尒	-15.8764
粃	-15.8764
硪	-15.8919
嚐	-15.892
麹	-15.892
═	-15.8921
沍	-15.8921
비	-15.8921
嚅	-15.8921
圐	-15.8921
ת	-15.8921
트	-15.8921
肭	-15.8921
姞	-15.8921
婼	-15.8921
‐	-15.8921
麑	-15.8921
窰	-15.8921
罇	-15.8921
舃	-15.8921
膴	-15.8922
瑑	-15.8922
遝	-15.8922
朘	-15.8922
笾	-15.8922
暎	-15.8922
勲	-15.8922
瀁	-15.8922
碏	-15.8923
瞟	-15.8925
眥	-15.9081
┄	-15.9081
產	-15.9081
철	-15.9082
貤	-15.9082
啐	-15.9082
饦	-15.9082
孬	-15.9082
読	-15.9082
匽	-15.9082
ד	-15.9082
ぁ	-15.9082
舡	-15.9082
乗	-15.9082
蕚	-15.9082
敻	-15.9083
惸	-15.9083
嵫	-15.9083
抔	-15.9083
蘂	-15.9083
蚖	-15.9083
搋	-15.9083
倥	-15.9083
鑱	-15.9083
ა	-15.9083
ъ	-15.9083
赪	-15.9083
ი	-15.9084
攧	-15.9084
頞	-15.9084
飐	-15.9084
葢	-15.9084
滍	-15.9244
粬	-15.9244
従	-15.9245
난	-15.9245
宍	-15.9245
螘	-15.9246
丼	-15.9246
ש	-15.9246
銛	-15.9246
淩	-15.9246
窾	-15.9246
█	-15.9246
咗	-15.9246
鞲	-15.9246
鸝	-15.9246
尃	-15.9246
镋	-15.9246
禇	-15.9246
羝	-15.9246
蜋	-15.9246
纆	-15.9247
戯	-15.9247
琫	-15.9247
絓	-15.9247
砉	-15.9247
窆	-15.9247
龆	-15.9247
褕	-15.9247
»	-15.9247
鷃	-15.9247
圊	-15.9247
诖	-15.9247
盫	-15.9247
窀	-15.9249
ी	-15.9377
棁	-15.9411
镃	-15.9412
瘛	-15.9412
笸	-15.9412
z	-15.9412
渀	-15.9412
圏	-15.9412
呖	-15.9413
晊	-15.9413
銶	-15.9413
龇	-15.9413
帟	-15.9413
蔕	-15.9413
帰	-15.9413
橿	-15.9413
◢	-15.9413
図	-15.9413
啗	-15.9413
鍠	-15.9413
缳	-15.9413
䴙	-15.9413
嘒	-15.9413
嫋	-15.9413
鮋	-15.9413
壠	-15.9414
씨	-15.9414
丱	-15.9414
迮	-15.9416
葎	-15.9581
날	-15.9581
蹁	-15.9582
囔	-15.9582
속	-15.9582
郳	-15.9582
揾	-15.9582
與	-15.9582
鉟	-15.9582
鳽	-15.9582
창	-15.9582
Ÿ	-15.9582
葸	-15.9583
闓	-15.9583
哐	-15.9583
傉	-15.9583
憝	-15.9583
ָ	-15.9583
搊	-15.9583
锽	-15.9583
謏	-15.9583
魋	-15.9583
송	-15.9583
籩	-15.9583
臛	-15.9583
伬	-15.9583
鳑	-15.9583
ぇ	-15.9583
鏁	-15.9583
懃	-15.9583
慓	-15.9583
瑨	-15.9584
癥	-15.9754
業	-15.9754
珖	-15.9754
鼗	-15.9754
塭	-15.9755
£	-15.9755
嘽	-15.9755
捜	-15.9755
咈	-15.9755
위	-15.9755
嶓	-15.9755
箒	-15.9755
氇	-15.9755
抜	-15.9755
憸	-15.9755
ŋ	-15.9755
戣	-15.9755
운	-15.9755
瑆	-15.9755
髟	-15.9755
剅	-15.9755
涴	-15.9755
媢	-15.9755
蔌	-15.9755
鮍	-15.9755
尨	-15.9755
鞚	-15.9755
崱	-15.9755
眜	-15.9756
嶔	-15.9756
劂	-15.9757
َ	-15.9759
眛	-15.9926
仳	-15.9929
璮	-15.9929
罣	-15.9929
憇	-15.9929
柅	-15.993
崄	-15.993
음	-15.993
畇	-15.993
≯	-15.993
皛	-15.993
埯	-15.993
瞤	-15.993
黮	-15.993
ใ	-15.993
圙	-15.993
년	-15.993
נ	-15.993
勦	-15.993
戇	-15.993
伃	-15.9931
搥	-15.9931
噘	-15.9931
籛	-15.9931
籞	-15.9931
晢	-15.9931
昫	-15.9931
沕	-15.9931
壊	-15.9931
嗾	-15.9931
瞍	-15.9932
堨	-15.9932
埆	-15.9934
窋	-16.0108
繦	-16.0108
蒉	-16.0108
呒	-16.0108
槜	-16.0108
봐	-16.0108
예	-16.0108
攞	-16.0109
踡	-16.0109
청	-16.0109
栞	-16.0109
赩	-16.0109
晙	-16.0109
瘌	-16.0109
箎	-16.0109
漖	-16.0109
蔊	-16.0109
碕	-16.0109
唶	-16.0109
攵	-16.0109
穀	-16.0109
鱠	-16.0109
梾	-16.0109
喒	-16.0109
媮	-16.0109
挏	-16.0109
靸	-16.0109
鼃	-16.0109
矟	-16.0109
謩	-16.0109
欸	-16.011
爌	-16.0112
य	-16.0259
鳂	-16.0288
舨	-16.0289
蹚	-16.029
鲺	-16.029
浛	-16.029
娀	-16.029
發	-16.029
隠	-16.029
顇	-16.029
ỉ	-16.0291
ศ	-16.0291
絪	-16.0291
棡	-16.0291
간	-16.0291
焼	-16.0291
綯	-16.0291
漼	-16.0291
鉥	-16.0291
ן	-16.0291
枿	-16.0291
棬	-16.0291
挐	-16.0291
藋	-16.0291
酾	-16.0291
灩	-16.0291
讁	-16.0291
蟪	-16.0291
岨	-16.0291
伲	-16.0291
戞	-16.0291
籤	-16.0291
藳	-16.0291
闒	-16.0291
┓	-16.0291
糶	-16.0291
鼽	-16.0291
두	-16.0291
건	-16.0291
敧	-16.0291
脢	-16.0291
朶	-16.0291
鳡	-16.0292
砩	-16.0292
砢	-16.0292
铽	-16.0294
継	-16.032
泆	-16.0474
鋈	-16.0474
ĩ	-16.0475
搡	-16.0475
藂	-16.0475
ө	-16.0475
亀	-16.0476
菫	-16.0476
鄀	-16.0476
ɛ	-16.0476
ณ	-16.0476
稙	-16.0476
璺	-16.0476
f	-16.0476
麞	-16.0476
裛	-16.0476
ß	-16.0476
竻	-16.0476
貮	-16.0476
襴	-16.0476
방	-16.0476
欻	-16.0476
牸	-16.0476
蔘	-16.0476
榀	-16.0476
湋	-16.0476
용	-16.0476
苶	-16.0476
栄	-16.0476
佴	-16.0477
艚	-16.0661
溎	-16.0664
j	-16.0664
沘	-16.0664
镎	-16.0664
妗	-16.0664
╬	-16.0664
蚘	-16.0664
과	-16.0665
璚	-16.0665
금	-16.0665
惙	-16.0665
輴	-16.0665
丂	-16.0665
단	-16.0665
ぺ	-16.0665
柲	-16.0665
輗	-16.0665
┆	-16.0665
鼕	-16.0665
鎚	-16.0665
耰	-16.0665
斅	-16.0665
臠	-16.0665
蒭	-16.0665
譞	-16.0665
鲦	-16.0665
機	-16.0665
滈	-16.0665
痏	-16.0665
稊	-16.0666
荈	-16.0667
म	-16.0832
व	-16.0835
簰	-16.0856
缐	-16.0856
↗	-16.0856
绖	-16.0856
圧	-16.0856
埫	-16.0856
踆	-16.0856
徬	-16.0857
玚	-16.0857
踘	-16.0857
ắ	-16.0857
喣	-16.0857
桲	-16.0857
석	-16.0857
渰	-16.0857
후	-16.0857
ա	-16.0857
锳	-16.0857
泬	-16.0857
ổ	-16.0857
ự	-16.0857
揑	-16.0857
镙	-16.0857
ئ	-16.0857
嵚	-16.0857
달	-16.0857
棃	-16.0857
溞	-16.0858
漻	-16.0858
韁	-16.0858
蒇	-16.0858
⋯	-16.0858
娭	-16.0858
锪	-16.086
禤	-16.1052
枏	-16.1052
讟	-16.1052
糬	-16.1052
淲	-16.1053
까	-16.1053
骭	-16.1053
琲	-16.1053
瑇	-16.1053
濈	-16.1053
홍	-16.1053
阸	-16.1053
黐	-16.1053
氂	-16.1053
苊	-16.1053
峠	-16.1053
آ	-16.1053
ứ	-16.1053
腯	-16.1053
楢	-16.1053
悁	-16.1053
飣	-16.1053
승	-16.1053
ấ	-16.1053
네	-16.1053
穟	-16.1053
徯	-16.1053
箙	-16.1053
눈	-16.1053
伷	-16.1053
柎	-16.1053
慆	-16.1054
厶	-16.1054
珫	-16.1054
觖	-16.1054
幪	-16.1054
狖	-16.1054
蠼	-16.1054
骱	-16.1054
噔	-16.1054
沲	-16.1054
恇	-16.1054
扺	-16.1055
逭	-16.1057
데	-16.1251
Š	-16.1252
來	-16.1252
靬	-16.1252
파	-16.1253
桱	-16.1253
轝	-16.1253
鷫	-16.1253
咍	-16.1253
匚	-16.1253
済	-16.1253
郈	-16.1253
嫲	-16.1253
嗞	-16.1253
齕	-16.1253
圾	-16.1253
锖	-16.1253
姁	-16.1253
潲	-16.1253
盬	-16.1253
琭	-16.1253
栐	-16.1253
鲬	-16.1253
鋹	-16.1253
鮎	-16.1253
鰌	-16.1253
揔	-16.1253
枻	-16.1253
痓	-16.1253
«	-16.1253
暦	-16.1253
寧	-16.1253
형	-16.1253
藟	-16.1253
釴	-16.1254
璏	-16.1254
趍	-16.1254
嘚	-16.1254
叆	-16.1254
鹠	-16.1255
द	-16.1439
蚳	-16.1454
통	-16.1456
鶱	-16.1456
缡	-16.1456
鉷	-16.1457
趯	-16.1457
趲	-16.1457
嵖	-16.1457
敭	-16.1457
歠	-16.1457
覇	-16.1457
赬	-16.1457
盭	-16.1457
禫	-16.1457
莙	-16.1457
舎	-16.1457
鬅	-16.1457
餵	-16.1457
蓴	-16.1457
灬	-16.1457
와	-16.1457
跕	-16.1457
♥	-16.1457
槱	-16.1457
牣	-16.1457
澨	-16.1457
瘊	-16.1457
鷩	-16.1457
玹	-16.1457
嗫	-16.1457
媺	-16.1457
駞	-16.1458
闕	-16.1458
囝	-16.1458
斮	-16.1458
簦	-16.1458
耎	-16.1458
墼	-16.1458
権	-16.1458
茳	-16.1458
泇	-16.1458
骦	-16.1458
慠	-16.146
ब	-16.1624
渞	-16.1664
奤	-16.1664
鱬	-16.1664
昜	-16.1664
锿	-16.1664
舯	-16.1664
鹢	-16.1665
靉	-16.1665
闤	-16.1665
憹	-16.1665
袛	-16.1665
筰	-16.1665
矴	-16.1665
齢	-16.1665
虮	-16.1665
趫	-16.1665
⊥	-16.1665
爚	-16.1665
凖	-16.1665
槔	-16.1665
橑	-16.1665
縗	-16.1665
噭	-16.1665
攴	-16.1665
虖	-16.1665
韝	-16.1665
峃	-16.1665
硁	-16.1665
塉	-16.1665
揎	-16.1665
氆	-16.1665
☉	-16.1665
♪	-16.1666
卲	-16.1666
腽	-16.1666
鲰	-16.1666
함	-16.1666
鐏	-16.1666
婊	-16.1666
嗵	-16.1666
치	-16.1666
犏	-16.1666
∵	-16.1666
騂	-16.1666
胾	-16.1666
柷	-16.1667
婞	-16.1667
钷	-16.1677
ं	-16.1841
験	-16.1876
椓	-16.1876
러	-16.1877
侘	-16.1877
褘	-16.1877
ɔ	-16.1877
轓	-16.1877
심	-16.1877
龑	-16.1878
硠	-16.1878
嘁	-16.1878
冚	-16.1878
晄	-16.1878
르	-16.1878
별	-16.1878
揵	-16.1878
驒	-16.1878
雑	-16.1878
庁	-16.1878
険	-16.1878
濇	-16.1878
甎	-16.1878
燏	-16.1878
드	-16.1878
栘	-16.1878
砮	-16.1878
掤	-16.1878
諟	-16.1878
迆	-16.1878
愊	-16.1878
観	-16.1878
琁	-16.1878
墠	-16.1879
鯈	-16.1879
嚥	-16.1879
噀	-16.1879
袿	-16.1879
嚩	-16.1879
綵	-16.1879
嫺	-16.1879
Ἀ	-16.1879
鵾	-16.1879
佀	-16.188
曀	-16.188
स	-16.2066
鬰	-16.2092
東	-16.2094
โ	-16.2095
湳	-16.2095
墝	-16.2095
務	-16.2095
焌	-16.2095
檇	-16.2095
旵	-16.2095
饾	-16.2095
ũ	-16.2095
ụ	-16.2095
إ	-16.2096
疐	-16.2096
謌	-16.2096
鋋	-16.2096
گ	-16.2096
喎	-16.2096
厎	-16.2096
燀	-16.2096
筅	-16.2096
황	-16.2096
람	-16.2096
讋	-16.2096
綍	-16.2096
髃	-16.2096
屧	-16.2096
亍	-16.2096
捲	-16.2096
盌	-16.2096
迻	-16.2096
鳯	-16.2096
掲	-16.2096
≪	-16.2097
்	-16.2317
禡	-16.2317
仚	-16.2317
巟	-16.2317
霪	-16.2317
甕	-16.2317
尙	-16.2317
회	-16.2317
儛	-16.2317
悢	-16.2318
飠	-16.2318
屩	-16.2318
晈	-16.2318
頼	-16.2318
歘	-16.2318
狌	-16.2318
珓	-16.2318
觝	-16.2318
鳆	-16.2318
恓	-16.2318
絙	-16.2318
単	-16.2318
ủ	-16.2318
両	-16.2318
罳	-16.2318
輮	-16.2318
胔	-16.2318
驊	-16.2318
鋩	-16.2318
绱	-16.2318
玼	-16.2318
馇	-16.2318
怊	-16.2318
摐	-16.2318
坣	-16.2319
怩	-16.2319
譓	-16.2319
≫	-16.2319
羮	-16.232
夨	-16.2321
邲	-16.2323
є	-16.2329
牴	-16.2541
質	-16.2543
籐	-16.2544
瀵	-16.2544
沨	-16.2544
韂	-16.2544
薬	-16.2544
坬	-16.2544
鶬	-16.2544
더	-16.2544
髢	-16.2545
蘗	-16.2545
暸	-16.2545
罒	-16.2545
唫	-16.2545
朅	-16.2545
懞	-16.2545
繄	-16.2545
鋗	-16.2545
锫	-16.2545
岠	-16.2545
喺	-16.2545
물	-16.2545
廞	-16.2545
倶	-16.2545
刬	-16.2545
	-16.2545
喤	-16.2545
澴	-16.2545
旿	-16.2545
瑮	-16.2545
赆	-16.2545
憀	-16.2545
糒	-16.2545
渕	-16.2545
硿	-16.2545
託	-16.2545
頮	-16.2545
骙	-16.2545
壼	-16.2546
杅	-16.2546
醁	-16.2546
唼	-16.2546
毦	-16.2546
亊	-16.2546
蔀	-16.2546
銍	-16.2546
腨	-16.2546
岊	-16.2546
毹	-16.2547
踺	-16.2773
禜	-16.2776
軃	-16.2776
پ	-16.2777
鴗	-16.2777
澼	-16.2777
璡	-16.2777
篯	-16.2777
冫	-16.2777
敺	-16.2777
沺	-16.2777
恡	-16.2777
鑨	-16.2777
欝	-16.2778
憕	-16.2778
羂	-16.2778
	-16.2778
ח	-16.2778
婳	-16.2778
旍	-16.2778
璅	-16.2778
骹	-16.2778
忞	-16.2778
枒	-16.2778
曶	-16.2778
凃	-16.2778
矱	-16.2778
麃	-16.2778
搧	-16.2778
鐍	-16.2778
钔	-16.2778
疁	-16.2778
芤	-16.2778
骍	-16.2778
钭	-16.2778
煃	-16.2778
雊	-16.2778
雘	-16.2778
泃	-16.2778
亸	-16.2778
轹	-16.2778
བ	-16.2778
豗	-16.2778
린	-16.2778
嵕	-16.2778
Č	-16.2778
蓨	-16.2778
璥	-16.2778
狥	-16.2779
龅	-16.2779
祃	-16.2779
鱣	-16.2779
鸜	-16.2779
闶	-16.278
ल	-16.2995
鞔	-16.3015
僣	-16.3015
芣	-16.3015
蝯	-16.3015
焴	-16.3015
眡	-16.3015
ṣ	-16.3015
蟫	-16.3015
醨	-16.3015
관	-16.3015
瑳	-16.3015
剉	-16.3015
瞵	-16.3015
踶	-16.3016
ע	-16.3016
ử	-16.3016
秏	-16.3016
槀	-16.3016
개	-16.3016
ื	-16.3016
嗃	-16.3016
걸	-16.3016
噂	-16.3016
백	-16.3016
嚲	-16.3016
睎	-16.3016
潄	-16.3016
侻	-16.3016
葇	-16.3016
犼	-16.3016
혜	-16.3016
檿	-16.3016
謷	-16.3016
綷	-16.3016
櫏	-16.3016
汔	-16.3016
礚	-16.3016
倐	-16.3016
洚	-16.3017
隃	-16.3017
猺	-16.3017
ぅ	-16.3017
锞	-16.3017
動	-16.3017
蛑	-16.3017
冖	-16.3018
魫	-16.3018
ƒ	-16.3258
夲	-16.3258
烎	-16.3258
啯	-16.3259
逷	-16.3259
設	-16.3259
褌	-16.3259
嚈	-16.3259
煕	-16.3259
병	-16.3259
緫	-16.3259
譊	-16.3259
월	-16.3259
薁	-16.3259
聤	-16.3259
製	-16.3259
呔	-16.3259
廵	-16.3259
魣	-16.3259
鴂	-16.326
駃	-16.326
骫	-16.326
차	-16.326
ּ	-16.326
篼	-16.326
婣	-16.326
藷	-16.326
런	-16.326
芏	-16.326
ث	-16.326
恠	-16.326
昳	-16.326
檑	-16.326
睟	-16.326
襆	-16.326
ข	-16.326
箑	-16.326
搉	-16.326
啲	-16.326
検	-16.326
耔	-16.326
塽	-16.326
閒	-16.326
偟	-16.326
愙	-16.326
痟	-16.326
猓	-16.326
僕	-16.326
酖	-16.326
銹	-16.326
輭	-16.326
锬	-16.326
襌	-16.326
洈	-16.326
鰤	-16.326
甖	-16.326
黈	-16.326
唅	-16.326
絁	-16.3261
誃	-16.3261
鵞	-16.3262
ग	-16.3476
좋	-16.3507
菥	-16.3508
锎	-16.3508
對	-16.3508
羕	-16.3509
埈	-16.3509
孮	-16.3509
縯	-16.3509
鹯	-16.3509
簑	-16.3509
偰	-16.3509
唿	-16.3509
같	-16.3509
體	-16.3509
덕	-16.3509
墯	-16.3509
厾	-16.3509
彡	-16.3509
腍	-16.3509
詖	-16.351
계	-16.351
ল	-16.351
壆	-16.351
평	-16.351
┋	-16.351
炰	-16.351
爁	-16.351
프	-16.351
鷦	-16.351
慇	-16.351
喼	-16.351
鮻	-16.351
匼	-16.351
睃	-16.351
砆	-16.351
齰	-16.351
耩	-16.351
攲	-16.351
汚	-16.351
癿	-16.351
頍	-16.351
猒	-16.351
簉	-16.351
	-16.351
嚻	-16.351
書	-16.351
감	-16.3511
愐	-16.3511
錧	-16.3511
譲	-16.3764
跫	-16.3764
鵺	-16.3765
咥	-16.3765
獮	-16.3765
⇔	-16.3765
Ś	-16.3766
鏻	-16.3766
嚟	-16.3766
苨	-16.3766
裰	-16.3766
鵶	-16.3766
처	-16.3766
ג	-16.3766
鬒	-16.3766
ð	-16.3766
齮	-16.3766
哋	-16.3766
墡	-16.3766
≒	-16.3766
禪	-16.3766
훈	-16.3766
➤	-16.3766
蓢	-16.3766
䊨	-16.3766
酓	-16.3766
陿	-16.3766
餬	-16.3766
轤	-16.3766
磏	-16.3766
徴	-16.3766
擕	-16.3766
铦	-16.3766
妺	-16.3766
瘝	-16.3766
弶	-16.3766
忳	-16.3767
麏	-16.3767
觽	-16.3767
遟	-16.3767
籧	-16.3767
琹	-16.3767
螠	-16.3767
廾	-16.3768
燝	-16.3768
脽	-16.3768
प	-16.4009
ु	-16.4016
攮	-16.4028
悕	-16.4029
隮	-16.4029
ถ	-16.4029
鱈	-16.4029
역	-16.4029
ภ	-16.4029
渉	-16.4029
狝	-16.4029
搰	-16.4029
凊	-16.4029
熤	-16.4029
礧	-16.4029
酇	-16.4029
ہ	-16.4029
麛	-16.4029
㙾	-16.4029
못	-16.4029
怱	-16.4029
昚	-16.4029
頳	-16.4029
踖	-16.4029
娵	-16.4029
	-16.4029
嫮	-16.4029
苺	-16.4029
钶	-16.4029
임	-16.4029
曧	-16.403
鼂	-16.403
禵	-16.403
跡	-16.403
皷	-16.403
禕	-16.403
皕	-16.403
靰	-16.403
黡	-16.403
扱	-16.403
氀	-16.4033
∥	-16.4033
䂬	-16.4042
술	-16.4295
賵	-16.4298
筻	-16.4298
稺	-16.4298
侁	-16.4298
袓	-16.4299
†	-16.4299
胕	-16.4299
韠	-16.4299
垯	-16.4299
椑	-16.4299
馺	-16.4299
軏	-16.4299
직	-16.4299
乸	-16.4299
褎	-16.4299
岧	-16.4299
蜎	-16.4299
巑	-16.4299
豮	-16.4299
鷰	-16.4299
	-16.4299
ỳ	-16.43
滙	-16.43
晸	-16.43
q	-16.43
諐	-16.43
俍	-16.43
蘘	-16.43
霣	-16.43
篔	-16.43
岺	-16.43
螓	-16.43
揺	-16.43
煠	-16.43
跶	-16.43
诐	-16.43
阤	-16.43
┐	-16.43
殣	-16.43
鳁	-16.4301
戹	-16.4301
嫏	-16.4301
玁	-16.4301
铥	-16.4306
禑	-16.4576
搤	-16.4576
阛	-16.4576
汸	-16.4577
辠	-16.4577
宧	-16.4577
蛣	-16.4577
奨	-16.4577
枼	-16.4577
涫	-16.4577
甁	-16.4577
竢	-16.4577
臮	-16.4577
薾	-16.4577
砘	-16.4577
攉	-16.4577
顦	-16.4577
矼	-16.4577
呰	-16.4577
蛘	-16.4577
朒	-16.4577
硏	-16.4577
루	-16.4577
蝘	-16.4577
躧	-16.4577
◣	-16.4577
ṇ	-16.4577
◊	-16.4577
蓏	-16.4577
薆	-16.4577
尩	-16.4577
潾	-16.4577
灂	-16.4577
並	-16.4577
灧	-16.4577
塨	-16.4577
淟	-16.4577
牐	-16.4577
琀	-16.4577
诼	-16.4577
軨	-16.4578
鲏	-16.4578
瑸	-16.4578
佹	-16.4578
裲	-16.4578
釂	-16.4578
鬪	-16.4578
艨	-16.4578
巣	-16.4578
進	-16.4578
嬢	-16.4578
鬖	-16.4578
柹	-16.4578
鞿	-16.4578
膋	-16.4578
რ	-16.4578
菶	-16.4578
鞡	-16.4578
袾	-16.4578
佧	-16.4579
堮	-16.4579
狺	-16.4579
嚞	-16.4583
靃	-16.4622
絇	-16.4855
榑	-16.4861
焠	-16.4861
翏	-16.4862
漴	-16.4862
玗	-16.4862
玆	-16.4862
傜	-16.4862
할	-16.4862
때	-16.4862
ִ	-16.4863
坱	-16.4863
頟	-16.4863
枓	-16.4863
種	-16.4863
長	-16.4863
∝	-16.4863
憖	-16.4863
ְ	-16.4863
塙	-16.4863
浟	-16.4863
抶	-16.4863
尠	-16.4863
ኁ	-16.4863
鹥	-16.4863
窞	-16.4863
縁	-16.4863
耏	-16.4863
僴	-16.4863
螾	-16.4863
芐	-16.4863
楳	-16.4863
裈	-16.4863
	-16.4863
縄	-16.4863
迵	-16.4863
환	-16.4863
塼	-16.4863
輒	-16.4863
皪	-16.4863
충	-16.4863
愞	-16.4863
楬	-16.4863
פ	-16.4863
柂	-16.4863
棪	-16.4863
ọ	-16.4863
奫	-16.4864
널	-16.4864
蜼	-16.4864
颩	-16.4864
煿	-16.4864
裎	-16.4864
韔	-16.4864
駆	-16.4864
ე	-16.4864
卨	-16.4864
鞉	-16.4864
潩	-16.4864
貛	-16.4864
僬	-16.4865
冂	-16.4866
摂	-16.4871
繶	-16.5145
타	-16.5154
勹	-16.5156
ĝ	-16.5156
왜	-16.5156
锘	-16.5156
ţ	-16.5156
것	-16.5156
獘	-16.5156
砫	-16.5156
刋	-16.5156
値	-16.5156
壝	-16.5157
洭	-16.5157
僜	-16.5157
鮸	-16.5157
虙	-16.5157
襚	-16.5157
灺	-16.5157
斶	-16.5157
鯵	-16.5157
擡	-16.5157
噁	-16.5157
행	-16.5157
坶	-16.5157
躒	-16.5157
Ş	-16.5157
擥	-16.5157
嶤	-16.5157
鄃	-16.5157
레	-16.5157
壱	-16.5157
昷	-16.5157
辿	-16.5157
啍	-16.5157
鴳	-16.5157
慬	-16.5157
迴	-16.5157
欑	-16.5157
拑	-16.5157
ṭ	-16.5157
魮	-16.5157
싶	-16.5157
僝	-16.5157
줄	-16.5157
儚	-16.5157
巎	-16.5157
碔	-16.5157
镮	-16.5157
哜	-16.5157
爟	-16.5157
讚	-16.5157
畷	-16.5158
毚	-16.5158
蜨	-16.5158
冮	-16.5158
鰟	-16.5158
檵	-16.5158
泜	-16.5158
賹	-16.5158
濶	-16.5158
觫	-16.5159
狛	-16.5159
馹	-16.5161
酘	-16.5457
辀	-16.5458
皥	-16.5459
敩	-16.5459
佖	-16.5459
呫	-16.5459
呬	-16.5459
処	-16.5459
睆	-16.546
雟	-16.546
식	-16.546
碪	-16.546
鸘	-16.546
臝	-16.546
薉	-16.546
谿	-16.546
倴	-16.546
菂	-16.546
鬹	-16.546
跧	-16.546
廥	-16.546
踠	-16.546
衺	-16.546
w	-16.546
間	-16.546
斉	-16.546
滮	-16.546
斸	-16.546
虣	-16.546
跐	-16.546
龁	-16.546
ם	-16.546
饤	-16.546
손	-16.546
脤	-16.546
挻	-16.546
搒	-16.546
鳲	-16.546
蝀	-16.546
趿	-16.546
詶	-16.546
罈	-16.546
軽	-16.546
侜	-16.546
항	-16.546
刦	-16.546
慅	-16.546
電	-16.546
„	-16.546
姦	-16.546
柤	-16.546
內	-16.546
피	-16.546
僩	-16.546
빈	-16.546
趱	-16.5461
鵖	-16.5461
버	-16.5461
顸	-16.5461
터	-16.5461
纕	-16.5461
誾	-16.5461
嶪	-16.5461
鐻	-16.5461
반	-16.5461
紒	-16.5461
颸	-16.5461
Й	-16.5461
昒	-16.5461
ْ	-16.5464
镥	-16.5466
靿	-16.5769
悆	-16.5771
祾	-16.5771
裋	-16.5771
覚	-16.5772
鵼	-16.5772
瑔	-16.5772
魌	-16.5772
窎	-16.5772
莋	-16.5772
扢	-16.5772
크	-16.5772
돌	-16.5772
冨	-16.5772
ํ	-16.5772
洟	-16.5772
蕣	-16.5772
淈	-16.5772
洴	-16.5772
蓚	-16.5772
규	-16.5772
獚	-16.5772
耉	-16.5772
萐	-16.5772
虼	-16.5772
ษ	-16.5772
ད	-16.5772
乇	-16.5772
詝	-16.5772
囲	-16.5772
牜	-16.5773
醰	-16.5773
籝	-16.5773
鄽	-16.5773
僄	-16.5773
劚	-16.5773
鶂	-16.5773
鶺	-16.5773
鴒	-16.5773
噞	-16.5773
傞	-16.5773
鼒	-16.5773
효	-16.5773
鬱	-16.5773
鷞	-16.5773
摎	-16.5773
枬	-16.5773
鄨	-16.5773
韍	-16.5773
번	-16.5773
ར	-16.5773
腇	-16.5773
騧	-16.5773
簴	-16.5773
蒱	-16.5773
┏	-16.5773
檮	-16.5773
晼	-16.5773
珤	-16.5773
胲	-16.5773
猄	-16.5773
帬	-16.5773
緆	-16.5773
鹲	-16.5773
জ	-16.5773
蟇	-16.5773
酅	-16.5773
མ	-16.5773
屴	-16.5773
으	-16.5773
鴴	-16.5774
癓	-16.5774
篨	-16.5774
Щ	-16.5774
槑	-16.5774
褾	-16.5774
褵	-16.5774
軎	-16.5775
령	-16.6092
專	-16.6092
저	-16.6093
簖	-16.6093
苅	-16.6094
樠	-16.6094
扥	-16.6094
趔	-16.6094
摵	-16.6095
闬	-16.6095
雚	-16.6095
咅	-16.6095
檟	-16.6095
็	-16.6095
颥	-16.6095
鱂	-16.6095
數	-16.6095
杕	-16.6095
鍑	-16.6095
郙	-16.6095
◥	-16.6095
嚫	-16.6095
禟	-16.6095
ญ	-16.6095
崪	-16.6095
浰	-16.6095
애	-16.6095
屼	-16.6095
剟	-16.6095
嘷	-16.6095
笻	-16.6095
矖	-16.6095
齾	-16.6095
䴓	-16.6095
ї	-16.6095
屲	-16.6095
梱	-16.6095
撖	-16.6095
咡	-16.6095
働	-16.6095
颷	-16.6095
酧	-16.6095
椶	-16.6095
禚	-16.6096
Ö	-16.6096
讔	-16.6096
鮊	-16.6096
鞓	-16.6096
靁	-16.6096
愽	-16.6096
å	-16.6096
悾	-16.6096
胷	-16.6096
偊	-16.6096
蝱	-16.6096
髈	-16.6096
渢	-16.6096
衕	-16.6096
梴	-16.6096
阽	-16.6096
娒	-16.6096
峘	-16.6096
粞	-16.6096
硋	-16.6098
厰	-16.6098
痎	-16.6098
ज	-16.6404
अ	-16.6415
硙	-16.6427
汋	-16.6427
榍	-16.6427
韈	-16.6428
온	-16.6428
芧	-16.6428
潚	-16.6428
寯	-16.6428
蹅	-16.6428
媜	-16.6428
羖	-16.6428
舩	-16.6428
暲	-16.6428
鳠	-16.6428
姙	-16.6428
Ζ	-16.6428
璝	-16.6428
鲾	-16.6428
㙡	-16.6428
艎	-16.6428
騋	-16.6428
桮	-16.6428
鰧	-16.6428
포	-16.6428
島	-16.6428
暁	-16.6428
暵	-16.6428
縡	-16.6428
∂	-16.6428
舠	-16.6428
駈	-16.6428
ག	-16.6428
彯	-16.6428
柾	-16.6428
ợ	-16.6429
煑	-16.6429
던	-16.6429
楶	-16.6429
杩	-16.6429
窻	-16.6429
墐	-16.6429
覼	-16.6429
孅	-16.6429
蹔	-16.6429
準	-16.6429
芼	-16.6429
黶	-16.6429
秔	-16.6429
埳	-16.6429
諫	-16.6429
絫	-16.6429
舴	-16.6429
轜	-16.6429
瑈	-16.6429
檥	-16.6429
駉	-16.6429
猀	-16.6429
羃	-16.6429
鶵	-16.6429
倈	-16.6429
ང	-16.6429
乛	-16.6429
籯	-16.6429
瘃	-16.6429
柈	-16.6429
黙	-16.6429
唪	-16.6429
咾	-16.6429
柸	-16.6429
諝	-16.6429
璂	-16.6429
齏	-16.6429
諆	-16.6429
각	-16.6429
薗	-16.6429
烱	-16.6429
佪	-16.6429
嶰	-16.6429
鸃	-16.6429
稂	-16.6429
琡	-16.643
搘	-16.643
v	-16.643
過	-16.643
镤	-16.6431
媖	-16.6431
衊	-16.6431
磹	-16.6431
浤	-16.6431
齁	-16.6431
酏	-16.6431
獯	-16.6432
ह	-16.6745
겠	-16.6772
되	-16.6772
약	-16.6772
蓱	-16.6772
鬏	-16.6772
貎	-16.6772
鷈	-16.6772
馉	-16.6772
ř	-16.6772
廸	-16.6772
揠	-16.6772
綌	-16.6772
腶	-16.6773
弐	-16.6773
貒	-16.6773
岍	-16.6773
했	-16.6773
숙	-16.6773
숨	-16.6773
齒	-16.6773
墦	-16.6773
陧	-16.6773
록	-16.6773
☞	-16.6773
硭	-16.6773
枊	-16.6773
歯	-16.6773
悤	-16.6773
燂	-16.6773
桖	-16.6773
颭	-16.6773
질	-16.6773
慭	-16.6773
嬲	-16.6773
Ј	-16.6773
岏	-16.6773
鉶	-16.6773
騤	-16.6773
纇	-16.6773
蠛	-16.6773
曚	-16.6773
剏	-16.6774
憃	-16.6774
爲	-16.6774
	-16.6774
滱	-16.6774
亷	-16.6774
鼪	-16.6774
熿	-16.6774
卭	-16.6774
皰	-16.6774
垜	-16.6774
嵂	-16.6774
鋂	-16.6774
鞵	-16.6774
脁	-16.6774
蓰	-16.6774
끝	-16.6774
	-16.6774
ས	-16.6774
胻	-16.6774
暅	-16.6775
Ρ	-16.6775
ُ	-16.6776
ّ	-16.6777
ő	-16.7129
廣	-16.7129
圴	-16.7129
甔	-16.7129
盠	-16.7129
傃	-16.7129
않	-16.7129
엔	-16.7129
磈	-16.713
吚	-16.713
闠	-16.713
怄	-16.713
痌	-16.713
墈	-16.713
雱	-16.713
복	-16.713
齗	-16.713
竚	-16.713
œ	-16.713
豋	-16.713
瑴	-16.713
纎	-16.713
簨	-16.713
檞	-16.713
湝	-16.713
胊	-16.713
咮	-16.713
桼	-16.713
蕯	-16.713
출	-16.713
翐	-16.713
▶	-16.713
無	-16.713
磑	-16.713
채	-16.713
嵸	-16.7131
Υ	-16.7131
椆	-16.7131
◤	-16.7131
儳	-16.7131
臜	-16.7131
ո	-16.7131
厪	-16.7131
鷖	-16.7131
搿	-16.7131
蝻	-16.7131
媕	-16.7131
擫	-16.7131
舭	-16.7131
裯	-16.7131
凴	-16.7131
熥	-16.7131
蟢	-16.7131
絣	-16.7131
筤	-16.7131
簹	-16.7131
賮	-16.7131
畟	-16.7131
恝	-16.7131
筸	-16.7131
忼	-16.7131
獧	-16.7131
蠒	-16.7131
閲	-16.7131
繫	-16.7131
熸	-16.7131
廔	-16.7131
瞶	-16.7131
緵	-16.7131
訑	-16.7131
晅	-16.7131
栭	-16.7131
涊	-16.7131
玅	-16.7131
髮	-16.7131
薶	-16.7131
駹	-16.7131
瞷	-16.7131
谼	-16.7131
脎	-16.7131
轪	-16.7131
閧	-16.7132
旝	-16.7132
坉	-16.7132
罱	-16.7136
綕	-16.7162
殑	-16.7496
猯	-16.7497
篴	-16.7499
缻	-16.7499
ể	-16.7499
鹴	-16.7499
獏	-16.75
甀	-16.75
訬	-16.75
棅	-16.75
禴	-16.75
個	-16.75
霨	-16.75
涬	-16.75
邆	-16.75
瀜	-16.75
寠	-16.75
缞	-16.75
臯	-16.75
铻	-16.75
蕅	-16.75
弆	-16.75
巃	-16.7501
湼	-16.7501
當	-16.7501
䳭	-16.7501
艟	-16.7501
림	-16.7501
掯	-16.7501
鈡	-16.7501
┣	-16.7501
猰	-16.7501
匳	-16.7501
筳	-16.7501
皜	-16.7501
鉌	-16.7501
塥	-16.7501
鉧	-16.7501
惷	-16.7501
槇	-16.7501
胵	-16.7501
從	-16.7501
甞	-16.7501
笭	-16.7501
咶	-16.7501
饁	-16.7501
넌	-16.7501
騞	-16.7501
워	-16.7501
티	-16.7501
蚑	-16.7501
혁	-16.7501
ý	-16.7501
ն	-16.7501
儹	-16.7501
埘	-16.7501
逹	-16.7501
鈊	-16.7501
髆	-16.7501
啑	-16.7501
嶅	-16.7501
僽	-16.7501
歈	-16.7501
변	-16.7501
庼	-16.7501
钁	-16.7501
姶	-16.7501
길	-16.7501
¦	-16.7501
圞	-16.7501
釃	-16.7501
姽	-16.7501
鱻	-16.7501
Η	-16.7501
礲	-16.7501
隟	-16.7501
覰	-16.7501
峛	-16.7501
騕	-16.7501
근	-16.7501
ে	-16.7501
咺	-16.7502
旡	-16.7502
縿	-16.7502
祤	-16.7502
鬋	-16.7502
嶦	-16.7502
耤	-16.7502
র	-16.7502
眎	-16.7502
ོ	-16.7503
錬	-16.7503
戭	-16.7503
婠	-16.7504
磎	-16.7505
ِ	-16.7506
입	-16.788
姌	-16.7882
║	-16.7883
䴕	-16.7883
廠	-16.7883
Ł	-16.7884
脳	-16.7884
鬴	-16.7884
醿	-16.7884
란	-16.7884
婬	-16.7884
鍐	-16.7884
玃	-16.7884
轒	-16.7884
辁	-16.7884
钸	-16.7885
礿	-16.7885
叾	-16.7885
恉	-16.7885
洏	-16.7885
亯	-16.7885
嘑	-16.7885
嘬	-16.7885
詗	-16.7885
曵	-16.7885
卩	-16.7885
砹	-16.7885
堋	-16.7885
睍	-16.7885
ぢ	-16.7885
姧	-16.7885
誴	-16.7885
垔	-16.7885
驌	-16.7885
불	-16.7885
Ž	-16.7885
歜	-16.7885
毉	-16.7885
開	-16.7885
捄	-16.7885
旣	-16.7885
鹔	-16.7885
彟	-16.7885
枑	-16.7885
裝	-16.7885
鎯	-16.7885
қ	-16.7885
榰	-16.7885
蚼	-16.7885
幨	-16.7885
완	-16.7885
鱥	-16.7885
齘	-16.7885
紾	-16.7885
堈	-16.7885
櫑	-16.7885
黵	-16.7885
북	-16.7885
綀	-16.7885
韲	-16.7885
배	-16.7885
帡	-16.7886
秪	-16.7886
蔿	-16.7886
鑕	-16.7886
디	-16.7886
娡	-16.7886
焫	-16.7886
賷	-16.7886
頀	-16.7886
酦	-16.7886
외	-16.7886
靧	-16.7886
Ü	-16.7886
掭	-16.7886
刵	-16.7886
嘐	-16.7886
詻	-16.7886
鏤	-16.7886
鷯	-16.7886
류	-16.7886
嵗	-16.7886
└	-16.7886
胐	-16.7886
黕	-16.7886
蹵	-16.7886
鞆	-16.7886
駬	-16.7886
권	-16.7886
窌	-16.7886
糓	-16.7886
哱	-16.7886
曺	-16.7886
穄	-16.7886
澐	-16.7886
蝝	-16.7886
襍	-16.7886
鄌	-16.7886
僶	-16.7887
牗	-16.7887
ذ	-16.7887
龂	-16.7887
擤	-16.7887
蹍	-16.7887
枟	-16.7887
馂	-16.7887
茙	-16.7888
蒢	-16.7888
眀	-16.7889
	-16.8281
藔	-16.8282
摠	-16.8283
夿	-16.8283
靘	-16.8284
讃	-16.8284
靆	-16.8284
涷	-16.8284
蝍	-16.8284
訔	-16.8284
煟	-16.8284
寽	-16.8284
傪	-16.8284
İ	-16.8284
襮	-16.8285
綎	-16.8285
莿	-16.8285
傺	-16.8285
蟟	-16.8285
肙	-16.8285
韮	-16.8285
鬾	-16.8285
䴘	-16.8285
鑢	-16.8285
衝	-16.8285
杬	-16.8285
跩	-16.8285
黓	-16.8285
壍	-16.8285
熯	-16.8285
咘	-16.8285
衖	-16.8285
늘	-16.8285
鈲	-16.8285
皊	-16.8285
┊	-16.8285
巛	-16.8285
醻	-16.8285
襢	-16.8285
霙	-16.8285
驲	-16.8285
夂	-16.8285
	-16.8285
Ά	-16.8285
嶭	-16.8285
竂	-16.8285
絻	-16.8285
כ	-16.8286
慺	-16.8286
硜	-16.8286
鼫	-16.8286
墚	-16.8286
臙	-16.8286
鯷	-16.8286
ס	-16.8286
槓	-16.8286
毼	-16.8286
僡	-16.8286
櫩	-16.8286
煐	-16.8286
膰	-16.8286
추	-16.8286
Á	-16.8286
輠	-16.8286
ḥ	-16.8286
剚	-16.8286
痁	-16.8286
향	-16.8286
墫	-16.8286
螿	-16.8286
鎡	-16.8286
轇	-16.8286
靫	-16.8286
慜	-16.8286
ր	-16.8286
瘄	-16.8286
霂	-16.8286
鱒	-16.8286
┬	-16.8286
鸎	-16.8286
戠	-16.8286
蹡	-16.8286
訿	-16.8286
杮	-16.8286
菻	-16.8287
灜	-16.8287
梫	-16.8289
锠	-16.8298
ड	-16.8672
価	-16.8696
瓻	-16.8699
爓	-16.87
꾸	-16.87
婎	-16.8701
帢	-16.8701
凵	-16.8701
钘	-16.8701
鱀	-16.8701
鵎	-16.8701
譸	-16.8701
濙	-16.8701
芔	-16.8701
厷	-16.8701
計	-16.8701
黢	-16.8702
鼛	-16.8702
冓	-16.8702
騣	-16.8702
鳘	-16.8702
劏	-16.8702
髾	-16.8702
饎	-16.8702
锧	-16.8702
價	-16.8702
鑛	-16.8702
살	-16.8702
闢	-16.8702
었	-16.8702
垇	-16.8702
坋	-16.8702
燖	-16.8702
櫽	-16.8702
渃	-16.8702
鶗	-16.8702
특	-16.8702
荗	-16.8702
鬙	-16.8702
친	-16.8702
唃	-16.8702
欉	-16.8702
鞗	-16.8702
僾	-16.8702
澙	-16.8702
齓	-16.8702
蝑	-16.8702
ė	-16.8702
琖	-16.8702
鉎	-16.8702
헌	-16.8702
谽	-16.8702
黇	-16.8702
맘	-16.8702
♩	-16.8702
唲	-16.8702
蹓	-16.8702
侲	-16.8702
惏	-16.8702
袨	-16.8702
실	-16.8702
媠	-16.8702
溻	-16.8702
铘	-16.8702
鄅	-16.8702
倳	-16.8702
猘	-16.8702
擭	-16.8702
耱	-16.8702
閴	-16.8702
ฟ	-16.8702
嚯	-16.8702
袚	-16.8702
謁	-16.8702
峿	-16.8702
畮	-16.8702
僿	-16.8702
滻	-16.8703
棯	-16.8703
飂	-16.8703
靮	-16.8703
臢	-16.8703
隲	-16.8703
爀	-16.8703
俫	-16.8703
蠪	-16.8703
菎	-16.8703
槺	-16.8703
橅	-16.8703
篢	-16.8703
惵	-16.8703
髬	-16.8703
紝	-16.8703
館	-16.8703
忔	-16.8703
霿	-16.8703
燡	-16.8703
吔	-16.8704
	-16.8726
च	-16.9112
鸌	-16.9131
褉	-16.9135
窐	-16.9136
搵	-16.9136
羱	-16.9136
ゐ	-16.9136
枱	-16.9136
ʊ	-16.9136
⊿	-16.9136
皭	-16.9136
悽	-16.9136
ʒ	-16.9136
骒	-16.9136
橜	-16.9136
ṃ	-16.9136
潬	-16.9136
謿	-16.9136
儸	-16.9136
抳	-16.9136
椛	-16.9137
沋	-16.9137
蒓	-16.9137
魾	-16.9137
알	-16.9137
稌	-16.9137
醽	-16.9137
ヅ	-16.9137
楪	-16.9137
❤	-16.9137
晜	-16.9137
樉	-16.9137
玊	-16.9137
俷	-16.9137
娖	-16.9137
殥	-16.9137
糼	-16.9137
勩	-16.9137
溠	-16.9137
妚	-16.9137
발	-16.9137
塀	-16.9137
토	-16.9137
蔔	-16.9137
襀	-16.9137
俜	-16.9137
僔	-16.9137
ء	-16.9137
哫	-16.9137
埰	-16.9137
戤	-16.9137
疻	-16.9137
槥	-16.9137
淢	-16.9137
眢	-16.9137
糇	-16.9137
醟	-16.9137
鱊	-16.9137
巭	-16.9137
倗	-16.9137
歕	-16.9137
緑	-16.9137
叇	-16.9137
彆	-16.9137
谹	-16.9137
屻	-16.9137
祴	-16.9137
ק	-16.9137
誖	-16.9137
麚	-16.9137
飀	-16.9137
裷	-16.9137
嵲	-16.9137
舗	-16.9137
鍧	-16.9137
琻	-16.9137
І	-16.9137
埪	-16.9137
烖	-16.9137
燫	-16.9137
鬑	-16.9137
滪	-16.9137
窸	-16.9137
缷	-16.9137
倛	-16.9137
捨	-16.9137
麀	-16.9137
작	-16.9137
嗈	-16.9137
淓	-16.9137
頖	-16.9138
鸇	-16.9138
嗸	-16.9138
坮	-16.9138
悊	-16.9138
衟	-16.9138
豤	-16.9138
즈	-16.9138
澭	-16.9138
鱅	-16.9139
麨	-16.9139
瘭	-16.914
্	-16.914
牷	-16.914
呿	-16.9141
檦	-16.9143
	-16.9144
瓩	-16.9589
鹙	-16.9589
較	-16.9589
ķ	-16.959
礌	-16.959
ņ	-16.959
樂	-16.959
독	-16.959
筶	-16.959
烀	-16.959
辒	-16.9591
員	-16.9591
萣	-16.9591
肈	-16.9591
妠	-16.9591
犎	-16.9591
鐇	-16.9591
欐	-16.9591
沶	-16.9591
夋	-16.9591
導	-16.9591
蘆	-16.9591
斨	-16.9591
酳	-16.9591
ט	-16.9591
〡	-16.9591
寑	-16.9591
籋	-16.9591
鯓	-16.9591
挒	-16.9591
€	-16.9591
皡	-16.9591
貐	-16.9591
狋	-16.9591
碝	-16.9591
焄	-16.9591
錍	-16.9591
涍	-16.9591
嫇	-16.9591
禬	-16.9591
洢	-16.9591
痡	-16.9591
ữ	-16.9592
嗰	-16.9592
罭	-16.9592
虩	-16.9592
∀	-16.9592
荵	-16.9592
豻	-16.9592
瀌	-16.9592
跅	-16.9592
鬷	-16.9592
場	-16.9592
荙	-16.9592
尞	-16.9592
鰶	-16.9592
ï	-16.9592
ṅ	-16.9592
採	-16.9592
踰	-16.9592
鵽	-16.9592
嚤	-16.9592
睩	-16.9592
騨	-16.9592
吣	-16.9592
鞌	-16.9592
翂	-16.9592
떠	-16.9592
亠	-16.9592
儜	-16.9592
睱	-16.9592
穵	-16.9592
诪	-16.9592
薿	-16.9592
轔	-16.9592
齅	-16.9592
萮	-16.9592
觺	-16.9592
瞆	-16.9592
餧	-16.9592
鮧	-16.9592
Ь	-16.9592
蔃	-16.9592
ს	-16.9592
耥	-16.9592
髵	-16.9592
榾	-16.9592
熱	-16.9592
徦	-16.9592
滛	-16.9592
鯮	-16.9592
┡	-16.9592
狶	-16.9593
鄑	-16.9593
語	-16.9593
蹛	-16.9594
毑	-16.9594
縆	-16.9598
ो	-17.0051
¬	-17.0064
鍮	-17.0065
陞	-17.0065
殜	-17.0065
꿈	-17.0066
騶	-17.0066
唭	-17.0066
乣	-17.0066
鮦	-17.0067
韨	-17.0067
鼖	-17.0067
呑	-17.0067
苠	-17.0067
져	-17.0067
唝	-17.0067
磞	-17.0067
坴	-17.0067
莚	-17.0067
키	-17.0067
杄	-17.0067
禥	-17.0067
碨	-17.0067
춘	-17.0067
礰	-17.0067
繐	-17.0067
鵕	-17.0067
적	-17.0067
仼	-17.0067
잊	-17.0067
鮗	-17.0067
匊	-17.0067
谫	-17.0067
髲	-17.0067
膍	-17.0067
將	-17.0068
炧	-17.0068
穅	-17.0068
岒	-17.0068
氺	-17.0068
侹	-17.0068
犋	-17.0068
惄	-17.0068
璕	-17.0068
顕	-17.0068
카	-17.0068
筥	-17.0068
蓷	-17.0068
聡	-17.0068
骉	-17.0068
Å	-17.0068
偭	-17.0068
嫭	-17.0068
彴	-17.0068
葊	-17.0068
篸	-17.0068
褖	-17.0068
滵	-17.0068
腷	-17.0068
豓	-17.0068
醳	-17.0068
楅	-17.0068
澛	-17.0068
脡	-17.0068
矹	-17.0068
萬	-17.0068
蟧	-17.0068
飖	-17.0068
력	-17.0068
嫰	-17.0068
檽	-17.0068
巠	-17.0068
鲒	-17.0068
饍	-17.0068
蟉	-17.0068
霡	-17.0068
喓	-17.0068
輷	-17.0068
鋙	-17.0068
槫	-17.0068
蟺	-17.0068
飊	-17.0068
嬝	-17.0068
捘	-17.0068
冱	-17.0068
躜	-17.0068
饌	-17.0068
薴	-17.0068
薖	-17.0068
곳	-17.0068
傫	-17.0068
檖	-17.0068
賑	-17.0068
氕	-17.0068
祋	-17.0068
崡	-17.0068
╰	-17.0068
╮	-17.0068
湩	-17.0068
觕	-17.0068
窔	-17.0068
鯱	-17.0068
猼	-17.0069
絿	-17.0069
論	-17.0069
鮃	-17.0069
泲	-17.0069
硊	-17.0069
資	-17.0069
註	-17.0069
饙	-17.0069
咵	-17.0069
또	-17.0069
屨	-17.007
趑	-17.007
抆	-17.007
紃	-17.007
棜	-17.0071
笵	-17.0079
陗	-17.0564
㭎	-17.0565
貆	-17.0566
鑑	-17.0566
į	-17.0566
術	-17.0566
駓	-17.0566
櫍	-17.0566
竇	-17.0566
饳	-17.0566
얼	-17.0567
獛	-17.0567
瑅	-17.0567
醾	-17.0567
峗	-17.0567
祘	-17.0567
隷	-17.0567
ħ	-17.0567
艣	-17.0567
蛃	-17.0567
ớ	-17.0567
笢	-17.0567
谺	-17.0567
繋	-17.0567
吷	-17.0567
菐	-17.0567
ぉ	-17.0567
礵	-17.0567
門	-17.0567
î	-17.0567
梠	-17.0567
礜	-17.0567
黭	-17.0567
塈	-17.0567
漎	-17.0567
ү	-17.0567
憭	-17.0567
테	-17.0567
匂	-17.0567
육	-17.0567
愻	-17.0567
椞	-17.0567
ி	-17.0567
족	-17.0567
譾	-17.0567
蠁	-17.0567
霝	-17.0567
鈈	-17.0567
艅	-17.0567
蘵	-17.0567
鋄	-17.0567
镴	-17.0567
럼	-17.0568
합	-17.0568
諭	-17.0568
冄	-17.0568
籾	-17.0568
腲	-17.0568
跰	-17.0568
嬬	-17.0568
邿	-17.0568
點	-17.0568
녀	-17.0568
љ	-17.0568
彄	-17.0568
師	-17.0568
猲	-17.0568
輵	-17.0568
흥	-17.0568
Ξ	-17.0568
峚	-17.0568
處	-17.0568
체	-17.0568
噣	-17.0568
媭	-17.0568
抺	-17.0568
碻	-17.0568
罙	-17.0568
蟅	-17.0568
♡	-17.0568
娸	-17.0568
買	-17.0568
罠	-17.0568
贔	-17.0568
廱	-17.0568
礨	-17.0568
諓	-17.0568
매	-17.0568
漋	-17.0568
壒	-17.0568
범	-17.0568
屇	-17.0568
ۇ	-17.0568
択	-17.0568
醊	-17.0568
掟	-17.0568
縰	-17.0568
廩	-17.0568
轕	-17.0568
豀	-17.0568
鏦	-17.0568
鑅	-17.0568
劖	-17.0568
煻	-17.0568
圑	-17.0568
釪	-17.0568
თ	-17.0569
擧	-17.0569
穣	-17.0569
ە	-17.0569
ན	-17.0569
ნ	-17.0569
魖	-17.0569
柶	-17.0569
庲	-17.0569
鈆	-17.057
哢	-17.057
葹	-17.057
袝	-17.057
ব	-17.057
礠	-17.0571
ন	-17.0572
᩠	-17.0581
भ	-17.1062
◦	-17.1082
殗	-17.109
畖	-17.109
渁	-17.1092
慱	-17.1092
蘋	-17.1092
痖	-17.1093
鶄	-17.1093
遬	-17.1093
铹	-17.1093
槩	-17.1093
幦	-17.1093
鵻	-17.1093
氒	-17.1093
韎	-17.1093
枦	-17.1093
헤	-17.1093
烋	-17.1093
鄡	-17.1093
苢	-17.1093
蝲	-17.1093
樕	-17.1093
僸	-17.1093
葴	-17.1093
ˆ	-17.1093
曨	-17.1094
漥	-17.1094
撦	-17.1094
戻	-17.1094
鴃	-17.1094
ʃ	-17.1094
侓	-17.1094
겨	-17.1094
殹	-17.1094
團	-17.1094
鱏	-17.1094
집	-17.1094
荍	-17.1094
렇	-17.1094
綪	-17.1094
蟷	-17.1094
坿	-17.1094
湅	-17.1094
沖	-17.1094
颿	-17.1094
砅	-17.1094
靷	-17.1094
騢	-17.1094
褆	-17.1094
淔	-17.1094
狫	-17.1094
羭	-17.1094
絝	-17.1094
萚	-17.1094
驔	-17.1094
鬺	-17.1094
Қ	-17.1094
▷	-17.1094
鐼	-17.1094
趷	-17.1094
ז	-17.1094
珸	-17.1094
鉁	-17.1094
齍	-17.1094
습	-17.1094
䶮	-17.1094
隂	-17.1094
업	-17.1094
晣	-17.1094
纴	-17.1094
劐	-17.1094
머	-17.1094
芄	-17.1094
厳	-17.1094
婓	-17.1094
庬	-17.1094
蓧	-17.1094
齩	-17.1094
眘	-17.1094
箣	-17.1094
취	-17.1094
劗	-17.1094
怗	-17.1094
衜	-17.1094
베	-17.1094
昈	-17.1094
鄹	-17.1094
垺	-17.1094
嚘	-17.1094
獖	-17.1094
莝	-17.1094
餈	-17.1094
봉	-17.1094
撋	-17.1094
蹢	-17.1094
馌	-17.1094
鮆	-17.1094
奼	-17.1094
龍	-17.1094
邘	-17.1094
剕	-17.1095
竁	-17.1095
貣	-17.1095
窫	-17.1095
鞙	-17.1095
鴠	-17.1095
泙	-17.1095
ო	-17.1095
寊	-17.1095
邉	-17.1095
琄	-17.1095
嶐	-17.1095
錩	-17.1095
編	-17.1095
黁	-17.1095
ֵ	-17.1095
ლ	-17.1095
鵔	-17.1095
棽	-17.1095
漀	-17.1095
頲	-17.1095
秺	-17.1095
ի	-17.1096
筈	-17.1097
垹	-17.11
鼏	-17.1103
	-17.1129
倰	-17.1646
먼	-17.1647
應	-17.1648
愼	-17.1648
組	-17.1648
痆	-17.1648
類	-17.1648
皯	-17.1648
經	-17.1649
犠	-17.1649
絖	-17.1649
Æ	-17.1649
該	-17.1649
ַ	-17.1649
窵	-17.1649
恆	-17.1649
힘	-17.1649
禼	-17.1649
傮	-17.1649
표	-17.1649
ヱ	-17.1649
簳	-17.1649
猳	-17.1649
脃	-17.1649
螉	-17.1649
昄	-17.1649
릉	-17.1649
蹝	-17.1649
翯	-17.1649
欃	-17.1649
罉	-17.1649
赒	-17.1649
鶖	-17.1649
க	-17.1649
楡	-17.1649
噰	-17.1649
獦	-17.1649
⇒	-17.1649
偆	-17.1649
餤	-17.1649
빠	-17.1649
墺	-17.1649
嶻	-17.1649
衵	-17.1649
축	-17.1649
	-17.1649
┉	-17.1649
鸞	-17.1649
언	-17.1649
玏	-17.1649
Ἐ	-17.1649
冧	-17.1649
绤	-17.1649
̋	-17.1649
撘	-17.1649
籣	-17.1649
讱	-17.165
누	-17.165
刜	-17.165
烇	-17.165
輬	-17.165
隥	-17.165
嚜	-17.165
∷	-17.165
啀	-17.165
Ы	-17.165
唻	-17.165
扜	-17.165
께	-17.165
罋	-17.165
晛	-17.165
欂	-17.165
硾	-17.165
傱	-17.165
穋	-17.165
鼌	-17.165
誂	-17.165
嬟	-17.165
堧	-17.165
摋	-17.165
氄	-17.165
貜	-17.165
趹	-17.165
哳	-17.165
絃	-17.165
粺	-17.165
葰	-17.165
黳	-17.165
偘	-17.165
篛	-17.165
甽	-17.165
鸕	-17.165
嫈	-17.165
謑	-17.165
杘	-17.165
ʻ	-17.165
圠	-17.165
趂	-17.165
韐	-17.165
ལ	-17.165
昐	-17.165
傳	-17.165
嘠	-17.165
媻	-17.165
漦	-17.165
裉	-17.165
傔	-17.165
侎	-17.165
騊	-17.165
絏	-17.165
駴	-17.165
鉩	-17.165
垿	-17.165
塿	-17.165
兟	-17.1651
嘡	-17.1651
པ	-17.1651
鏳	-17.1651
枠	-17.1651
嚆	-17.1651
崯	-17.1651
汳	-17.1651
釱	-17.1651
┌	-17.1651
砕	-17.1651
ῖ	-17.1651
箢	-17.1651
슬	-17.1651
洐	-17.1652
洤	-17.1652
ি	-17.1652
襛	-17.1652
啇	-17.1654
籨	-17.1657
輤	-17.2235
桹	-17.2235
浵	-17.2235
誗	-17.2235
犕	-17.2235
痦	-17.2235
煗	-17.2236
姩	-17.2236
眕	-17.2236
ா	-17.2236
瑫	-17.2236
˧	-17.2236
係	-17.2236
轥	-17.2236
癧	-17.2237
ɐ	-17.2237
⌒	-17.2237
鄾	-17.2237
참	-17.2237
冁	-17.2237
茷	-17.2237
參	-17.2237
菆	-17.2237
渜	-17.2237
匵	-17.2237
赗	-17.2237
騒	-17.2237
凟	-17.2237
笴	-17.2237
褠	-17.2237
õ	-17.2237
蝂	-17.2237
痩	-17.2237
총	-17.2237
絍	-17.2237
峱	-17.2237
唣	-17.2237
忺	-17.2237
屾	-17.2237
斄	-17.2237
昻	-17.2237
梐	-17.2237
箘	-17.2237
贙	-17.2237
璗	-17.2238
올	-17.2238
奰	-17.2238
尗	-17.2238
罦	-17.2238
颟	-17.2238
瀺	-17.2238
呣	-17.2238
樝	-17.2238
蚛	-17.2238
緤	-17.2238
鄟	-17.2238
飤	-17.2238
ֹ	-17.2238
〆	-17.2238
勠	-17.2238
泑	-17.2238
緺	-17.2238
Ä	-17.2238
磢	-17.2238
訽	-17.2238
囃	-17.2238
眏	-17.2238
踒	-17.2238
涳	-17.2238
湢	-17.2238
赸	-17.2238
蔄	-17.2238
輣	-17.2238
ւ	-17.2238
▇	-17.2238
眽	-17.2238
滭	-17.2238
蚮	-17.2238
駜	-17.2238
曏	-17.2238
穈	-17.2238
嵽	-17.2238
渹	-17.2238
痗	-17.2238
鍈	-17.2238
撧	-17.2238
栔	-17.2238
訩	-17.2238
潕	-17.2238
摰	-17.2238
骾	-17.2238
槤	-17.2238
獝	-17.2238
筓	-17.2238
儞	-17.2238
葂	-17.2238
醭	-17.2238
악	-17.2238
篲	-17.2238
羗	-17.2238
畐	-17.2238
閭	-17.2238
俴	-17.2238
駼	-17.2238
嫳	-17.2238
痳	-17.2238
佌	-17.2238
肶	-17.2238
椸	-17.2239
鶹	-17.2239
袘	-17.2239
蕋	-17.2239
▓	-17.2239
畾	-17.2239
飰	-17.2239
祕	-17.2239
隺	-17.2239
緐	-17.2239
肧	-17.2239
鼦	-17.2239
籹	-17.2239
萯	-17.2239
傎	-17.2239
戺	-17.2239
橔	-17.2239
橥	-17.2239
埢	-17.2239
瞾	-17.224
湻	-17.224
鐎	-17.224
繝	-17.224
挍	-17.2241
緅	-17.2241
瀓	-17.2243
श	-17.2844
ष	-17.2847
抏	-17.2859
瘲	-17.286
峜	-17.286
鼈	-17.286
鱍	-17.2861
죠	-17.2861
這	-17.2861
鳒	-17.2861
潖	-17.2861
緥	-17.2861
艴	-17.2861
億	-17.2861
鞒	-17.2861
Ъ	-17.2861
魆	-17.2862
새	-17.2862
鐩	-17.2862
吿	-17.2862
놓	-17.2862
緖	-17.2862
汍	-17.2862
ῆ	-17.2862
騉	-17.2862
泩	-17.2862
讻	-17.2862
Ђ	-17.2862
硍	-17.2862
畳	-17.2862
铇	-17.2862
橧	-17.2862
飗	-17.2862
	-17.2862
旤	-17.2862
澽	-17.2862
鸧	-17.2862
紩	-17.2862
墱	-17.2862
撆	-17.2862
镄	-17.2862
潽	-17.2862
虍	-17.2862
輹	-17.2862
劁	-17.2862
¡	-17.2862
梽	-17.2862
膠	-17.2862
茍	-17.2862
跦	-17.2862
ե	-17.2863
鷚	-17.2863
풍	-17.2863
篘	-17.2863
褀	-17.2863
踸	-17.2863
堁	-17.2863
輼	-17.2863
剳	-17.2863
익	-17.2863
儴	-17.2863
兎	-17.2863
゙	-17.2863
嶕	-17.2863
肷	-17.2863
鯻	-17.2863
暉	-17.2863
蠨	-17.2863
∟	-17.2863
姺	-17.2863
蝡	-17.2863
뛰	-17.2863
✚	-17.2863
瓅	-17.2863
睊	-17.2863
詥	-17.2863
鰂	-17.2863
肊	-17.2863
鳩	-17.2863
ฐ	-17.2863
嫽	-17.2863
昢	-17.2863
箄	-17.2863
ึ	-17.2863
≻	-17.2863
羴	-17.2863
鄎	-17.2863
嗻	-17.2863
瘉	-17.2863
堼	-17.2863
鉽	-17.2863
鑃	-17.2863
ź	-17.2863
翽	-17.2863
臲	-17.2863
蹜	-17.2863
懐	-17.2863
擩	-17.2863
潪	-17.2863
砯	-17.2863
氎	-17.2863
鴘	-17.2863
敳	-17.2863
歺	-17.2863
肏	-17.2863
韺	-17.2863
飢	-17.2863
歂	-17.2863
陼	-17.2863
儥	-17.2863
汃	-17.2863
苽	-17.2863
陻	-17.2863
楀	-17.2863
毨	-17.2863
䱻	-17.2863
現	-17.2863
扐	-17.2863
廏	-17.2863
儌	-17.2863
撏	-17.2863
鯿	-17.2863
剺	-17.2863
牚	-17.2863
鰺	-17.2863
慽	-17.2863
穏	-17.2863
壈	-17.2863
篹	-17.2863
鱁	-17.2863
瑺	-17.2863
縓	-17.2863
範	-17.2863
鴡	-17.2863
ɾ	-17.2863
╯	-17.2863
嵙	-17.2863
幇	-17.2863
茢	-17.2863
霫	-17.2863
嗏	-17.2863
잠	-17.2863
յ	-17.2863
牞	-17.2863
峏	-17.2864
剎	-17.2864
夆	-17.2864
庯	-17.2864
	-17.2864
菭	-17.2864
柮	-17.2864
浭	-17.2864
楱	-17.2864
髤	-17.2864
蠏	-17.2864
華	-17.2864
든	-17.2864
ུ	-17.2864
茞	-17.2865
鲪	-17.2865
稡	-17.2865
揅	-17.2865
豙	-17.2866
鄤	-17.2866
詅	-17.2867
缏	-17.2867
玿	-17.2867
ῦ	-17.2869
ट	-17.3519
澫	-17.3523
悙	-17.3524
觼	-17.3525
暯	-17.3527
燅	-17.3527
聴	-17.3527
嚧	-17.3527
盋	-17.3527
舥	-17.3527
俔	-17.3528
♭	-17.3528
ʌ	-17.3528
煁	-17.3528
鸤	-17.3528
본	-17.3528
嶟	-17.3528
極	-17.3528
鄷	-17.3528
Ğ	-17.3528
檊	-17.3528
軥	-17.3529
ர	-17.3529
艶	-17.3529
苲	-17.3529
앙	-17.3529
蝜	-17.3529
崈	-17.3529
웃	-17.3529
壏	-17.3529
祩	-17.3529
渓	-17.3529
窴	-17.3529
彠	-17.3529
帩	-17.3529
節	-17.3529
Є	-17.3529
挙	-17.3529
姵	-17.3529
韤	-17.3529
긴	-17.3529
呏	-17.3529
啴	-17.3529
晽	-17.3529
岪	-17.3529
驖	-17.3529
睅	-17.3529
悩	-17.3529
摴	-17.3529
椷	-17.3529
≌	-17.3529
쳐	-17.3529
栆	-17.3529
蒧	-17.3529
鱤	-17.3529
婋	-17.3529
樏	-17.3529
瑎	-17.3529
瘆	-17.3529
퍼	-17.3529
歾	-17.3529
蛼	-17.3529
駪	-17.3529
烄	-17.3529
鮣	-17.3529
설	-17.3529
磝	-17.3529
艑	-17.3529
	-17.3529
鞸	-17.3529
獳	-17.3529
樴	-17.3529
畺	-17.3529
舝	-17.3529
줘	-17.3529
嫜	-17.3529
衋	-17.3529
跙	-17.3529
媄	-17.353
彍	-17.353
挦	-17.353
肬	-17.353
곤	-17.353
짓	-17.353
榠	-17.353
硉	-17.353
鋕	-17.353
餖	-17.353
잖	-17.353
唦	-17.353
喭	-17.353
昑	-17.353
玍	-17.353
磥	-17.353
迒	-17.353
夗	-17.353
甹	-17.353
醼	-17.353
벌	-17.353
灟	-17.353
纑	-17.353
醱	-17.353
鰃	-17.353
崷	-17.353
嫶	-17.353
恛	-17.353
餫	-17.353
毰	-17.353
잡	-17.353
塟	-17.353
弜	-17.353
怤	-17.353
갈	-17.353
궁	-17.353
판	-17.353
瑧	-17.353
罶	-17.353
翿	-17.353
필	-17.353
抦	-17.353
澓	-17.353
詃	-17.353
驥	-17.353
姯	-17.353
槼	-17.353
焾	-17.353
臈	-17.353
黲	-17.353
懆	-17.353
찰	-17.353
縶	-17.353
僈	-17.353
蘺	-17.353
矕	-17.353
槢	-17.353
蘙	-17.353
鳈	-17.353
觴	-17.353
菍	-17.353
름	-17.353
掗	-17.353
胅	-17.353
籒	-17.353
급	-17.353
鬔	-17.353
虁	-17.353
悗	-17.353
‵	-17.353
琞	-17.353
瑽	-17.353
賛	-17.353
駄	-17.353
逤	-17.353
躶	-17.353
揃	-17.353
雺	-17.353
牏	-17.353
顋	-17.353
褷	-17.353
箖	-17.353
빛	-17.353
羾	-17.353
暒	-17.3531
轡	-17.3531
髼	-17.3531
詪	-17.3531
უ	-17.3531
ম	-17.3531
姕	-17.3531
ɣ	-17.3531
朿	-17.3531
錏	-17.3531
哿	-17.3531
崝	-17.3531
淍	-17.3531
洀	-17.3531
俌	-17.3531
趠	-17.3533
遰	-17.3535
ὐ	-17.3535
禆	-17.3536
觷	-17.3542
돼	-17.4238
鸀	-17.424
떻	-17.424
癐	-17.424
齻	-17.4241
莂	-17.4241
큼	-17.4241
阓	-17.4241
冋	-17.4241
焅	-17.4242
槷	-17.4242
峞	-17.4242
瑂	-17.4242
炌	-17.4242
朢	-17.4242
孋	-17.4242
ׁ	-17.4242
餜	-17.4242
히	-17.4242
ా	-17.4242
극	-17.4242
♯	-17.4243
優	-17.4243
氶	-17.4243
嵨	-17.4243
緍	-17.4243
鎭	-17.4243
躩	-17.4243
簒	-17.4243
ŭ	-17.4243
蚿	-17.4243
鱘	-17.4243
陾	-17.4243
ன	-17.4243
漤	-17.4243
圂	-17.4243
實	-17.4243
牼	-17.4243
溵	-17.4243
嬭	-17.4243
蛜	-17.4243
따	-17.4243
稆	-17.4243
馽	-17.4243
濚	-17.4243
餶	-17.4243
琈	-17.4243
침	-17.4243
黂	-17.4243
வ	-17.4243
檛	-17.4243
輢	-17.4243
磳	-17.4243
㑩	-17.4243
罼	-17.4243
襏	-17.4243
啅	-17.4243
幠	-17.4243
昽	-17.4243
楧	-17.4243
玓	-17.4243
鏩	-17.4243
姸	-17.4243
曁	-17.4243
楎	-17.4243
躝	-17.4243
掿	-17.4243
汈	-17.4243
鱺	-17.4243
蜄	-17.4243
汮	-17.4243
抝	-17.4244
拡	-17.4244
覝	-17.4244
鐥	-17.4244
鑀	-17.4244
齆	-17.4244
祂	-17.4244
躣	-17.4244
룡	-17.4244
蓲	-17.4244
钑	-17.4244
棷	-17.4244
硃	-17.4244
蝃	-17.4244
桿	-17.4244
צ	-17.4244
塚	-17.4244
楥	-17.4244
榣	-17.4244
萂	-17.4244
衪	-17.4244
鐘	-17.4244
억	-17.4244
嗁	-17.4244
鉖	-17.4244
埧	-17.4244
埿	-17.4244
撁	-17.4244
陰	-17.4244
黱	-17.4244
곡	-17.4244
ẩ	-17.4244
尛	-17.4244
枍	-17.4244
糚	-17.4244
메	-17.4244
巌	-17.4244
鐄	-17.4244
陊	-17.4244
襗	-17.4244
찬	-17.4244
ұ	-17.4244
們	-17.4244
旽	-17.4244
朮	-17.4244
痋	-17.4244
迾	-17.4244
掁	-17.4244
槵	-17.4244
淰	-17.4244
甝	-17.4244
磠	-17.4244
轖	-17.4244
འ	-17.4244
饐	-17.4244
莕	-17.4244
鉾	-17.4244
嗘	-17.4244
鳸	-17.4244
暤	-17.4244
鹻	-17.4244
喨	-17.4244
謟	-17.4244
敚	-17.4244
毣	-17.4244
漙	-17.4244
澦	-17.4244
餂	-17.4244
鸓	-17.4244
巜	-17.4244
毸	-17.4244
烗	-17.4244
轊	-17.4244
摃	-17.4244
菾	-17.4244
薝	-17.4244
幝	-17.4244
嶃	-17.4244
蔇	-17.4244
倂	-17.4244
紑	-17.4244
腒	-17.4244
픈	-17.4244
ซ	-17.4244
挿	-17.4244
嚄	-17.4244
蒀	-17.4244
ˌ	-17.4244
鍉	-17.4244
卝	-17.4244
櫰	-17.4244
芺	-17.4244
齄	-17.4244
殰	-17.4244
耢	-17.4244
	-17.4244
ھ	-17.4244
駵	-17.4244
齶	-17.4244
蛚	-17.4244
욱	-17.4244
佋	-17.4244
勮	-17.4244
扊	-17.4244
鄐	-17.4244
矦	-17.4244
猂	-17.4245
鼟	-17.4245
嶍	-17.4245
絳	-17.4245
楘	-17.4245
┤	-17.4245
∉	-17.4245
剋	-17.4245
踁	-17.4245
際	-17.4245
嶞	-17.4245
塂	-17.4245
婑	-17.4245
輀	-17.4245
觙	-17.4245
龎	-17.4245
┫	-17.4245
沵	-17.4246
轞	-17.4246
恊	-17.4246
運	-17.4246
藊	-17.4246
磿	-17.4247
秌	-17.4247
漘	-17.4247
枅	-17.4247
圀	-17.4249
璱	-17.425
ै	-17.4969
ू	-17.499
鎁	-17.5007
鹽	-17.5007
臵	-17.5008
兩	-17.5009
詾	-17.501
蟕	-17.501
蓘	-17.501
珔	-17.501
귀	-17.501
惎	-17.5011
槪	-17.5011
蒃	-17.5011
屬	-17.5011
隨	-17.5011
ச	-17.5011
嗍	-17.5011
噝	-17.5011
銷	-17.5011
厐	-17.5011
갑	-17.5012
㑇	-17.5012
戶	-17.5012
蜯	-17.5012
儦	-17.5012
見	-17.5012
帉	-17.5012
	-17.5012
龏	-17.5012
跮	-17.5012
泭	-17.5012
巙	-17.5012
耪	-17.5012
麷	-17.5012
볼	-17.5012
統	-17.5012
茖	-17.5012
拲	-17.5012
麅	-17.5012
ི	-17.5012
竫	-17.5012
釚	-17.5012
僢	-17.5012
ம	-17.5012
虨	-17.5012
鈏	-17.5012
璬	-17.5012
丵	-17.5012
飭	-17.5012
絚	-17.5012
ừ	-17.5012
魚	-17.5012
貭	-17.5012
伀	-17.5012
槮	-17.5012
篽	-17.5012
廴	-17.5013
矑	-17.5013
笘	-17.5013
耡	-17.5013
偢	-17.5013
瘣	-17.5013
衁	-17.5013
罻	-17.5013
酔	-17.5013
峍	-17.5013
裩	-17.5013
鬚	-17.5013
悺	-17.5013
瞓	-17.5013
澟	-17.5013
韣	-17.5013
枙	-17.5013
罸	-17.5013
襈	-17.5013
Џ	-17.5013
џ	-17.5013
㰘	-17.5013
립	-17.5013
鞹	-17.5013
코	-17.5013
興	-17.5013
駻	-17.5013
椗	-17.5013
汯	-17.5013
偱	-17.5013
篤	-17.5013
寱	-17.5013
蟖	-17.5013
詀	-17.5013
鋢	-17.5013
镚	-17.5013
懜	-17.5013
殀	-17.5013
跜	-17.5013
鰽	-17.5013
奣	-17.5013
婗	-17.5013
檃	-17.5013
狓	-17.5013
鴐	-17.5013
좌	-17.5013
梜	-17.5013
狚	-17.5013
輘	-17.5013
倖	-17.5013
孻	-17.5013
捝	-17.5013
攩	-17.5013
朸	-17.5013
桵	-17.5013
爔	-17.5013
罿	-17.5013
衂	-17.5013
劔	-17.5013
嫙	-17.5013
譟	-17.5013
ʁ	-17.5013
怸	-17.5013
纒	-17.5013
멀	-17.5013
犗	-17.5013
甶	-17.5013
ằ	-17.5013
ヂ	-17.5013
幐	-17.5013
梡	-17.5013
渳	-17.5013
羓	-17.5013
隒	-17.5013
彐	-17.5013
葠	-17.5013
ᆞ	-17.5013
嫕	-17.5013
疈	-17.5013
瘨	-17.5013
贉	-17.5013
მ	-17.5013
牘	-17.5013
膪	-17.5013
趦	-17.5013
嚾	-17.5013
訸	-17.5013
ཕ	-17.5013
俙	-17.5013
帊	-17.5013
朁	-17.5013
毷	-17.5013
篣	-17.5013
維	-17.5013
䛐	-17.5013
耼	-17.5013
蛬	-17.5013
潎	-17.5013
ὁ	-17.5013
樿	-17.5013
蟏	-17.5013
訳	-17.5013
鄳	-17.5013
梌	-17.5013
虉	-17.5013
錀	-17.5013
목	-17.5013
幧	-17.5013
弔	-17.5013
餻	-17.5013
逨	-17.5013
초	-17.5013
晥	-17.5013
迿	-17.5013
闟	-17.5013
拕	-17.5013
臡	-17.5013
軆	-17.5013
骔	-17.5013
煓	-17.5013
燳	-17.5013
眬	-17.5013
چ	-17.5013
嬃	-17.5013
憗	-17.5013
払	-17.5013
堣	-17.5014
霱	-17.5014
併	-17.5014
肵	-17.5014
妌	-17.5014
鉆	-17.5014
躚	-17.5014
짜	-17.5014
밀	-17.5014
გ	-17.5014
磶	-17.5014
謼	-17.5014
ཁ	-17.5014
珎	-17.5014
闑	-17.5014
њ	-17.5014
灉	-17.5014
庒	-17.5014
讇	-17.5014
關	-17.5014
醹	-17.5014
橓	-17.5014
伈	-17.5014
卙	-17.5014
厈	-17.5014
朂	-17.5014
崌	-17.5014
蘷	-17.5014
鯶	-17.5014
伓	-17.5014
達	-17.5014
忬	-17.5014
謞	-17.5014
冘	-17.5014
銀	-17.5014
丆	-17.5014
箊	-17.5014
膣	-17.5015
꼭	-17.5015
ბ	-17.5015
戉	-17.5015
乚	-17.5015
蚃	-17.5015
怘	-17.5015
惉	-17.5015
鶨	-17.5015
臤	-17.5015
轑	-17.5015
漰	-17.5016
囏	-17.5016
杣	-17.5021
	-17.5061
薀	-17.584
獨	-17.5842
Ō	-17.5843
髥	-17.5843
狀	-17.5843
豷	-17.5843
蹹	-17.5844
∆	-17.5844
侅	-17.5844
朡	-17.5845
蕌	-17.5845
珮	-17.5845
選	-17.5845
據	-17.5845
調	-17.5845
胘	-17.5845
箻	-17.5845
爯	-17.5845
戓	-17.5845
밤	-17.5845
狧	-17.5845
弖	-17.5845
慁	-17.5845
懮	-17.5845
稭	-17.5845
緾	-17.5845
鞀	-17.5845
揳	-17.5845
愭	-17.5845
趻	-17.5845
薠	-17.5845
尌	-17.5845
備	-17.5846
吰	-17.5846
塠	-17.5846
簜	-17.5846
螲	-17.5846
鮌	-17.5846
嶫	-17.5846
鰳	-17.5846
鶠	-17.5846
風	-17.5846
슈	-17.5846
怲	-17.5846
揢	-17.5846
椙	-17.5846
瑬	-17.5846
犵	-17.5846
된	-17.5846
襫	-17.5846
鄕	-17.5846
線	-17.5846
鷀	-17.5846
標	-17.5846
膵	-17.5846
鷨	-17.5846
뷔	-17.5846
缿	-17.5846
ɒ	-17.5846
俀	-17.5846
죽	-17.5846
則	-17.5846
縚	-17.5846
胩	-17.5846
荂	-17.5846
爣	-17.5846
觡	-17.5846
訞	-17.5846
秖	-17.5846
怭	-17.5846
篿	-17.5846
詟	-17.5846
阘	-17.5846
Έ	-17.5846
ṛ	-17.5846
暊	-17.5846
顧	-17.5846
紀	-17.5846
브	-17.5846
閰	-17.5846
扠	-17.5846
鱧	-17.5846
투	-17.5846
泿	-17.5846
錽	-17.5846
匱	-17.5846
镩	-17.5846
屛	-17.5846
楖	-17.5846
軞	-17.5846
猸	-17.5846
鮯	-17.5846
ฑ	-17.5846
侢	-17.5846
呌	-17.5846
蓭	-17.5846
佁	-17.5846
曡	-17.5846
블	-17.5846
唓	-17.5846
焆	-17.5846
耠	-17.5846
忲	-17.5846
蒦	-17.5846
허	-17.5846
嗱	-17.5846
壌	-17.5846
尐	-17.5846
滫	-17.5846
蔆	-17.5846
跔	-17.5846
옥	-17.5846
ҳ	-17.5846
婥	-17.5846
殠	-17.5846
砳	-17.5846
骪	-17.5846
鵁	-17.5846
될	-17.5846
♠	-17.5846
艼	-17.5846
霦	-17.5846
嵁	-17.5846
蛍	-17.5846
결	-17.5846
䗃	-17.5846
埻	-17.5846
斚	-17.5846
烰	-17.5846
鐈	-17.5846
騩	-17.5846
막	-17.5846
☺	-17.5846
耲	-17.5846
驫	-17.5846
젠	-17.5846
♬	-17.5846
崺	-17.5846
灒	-17.5846
蹟	-17.5846
軰	-17.5846
몰	-17.5846
爕	-17.5846
褃	-17.5846
赮	-17.5846
躨	-17.5846
鞳	-17.5846
垙	-17.5846
矲	-17.5846
騠	-17.5846
뿐	-17.5846
열	-17.5846
癕	-17.5846
葍	-17.5846
鈚	-17.5846
鬊	-17.5846
鮁	-17.5846
협	-17.5846
殈	-17.5846
悷	-17.5846
欓	-17.5846
秅	-17.5846
穮	-17.5846
鬀	-17.5846
呭	-17.5846
鞁	-17.5846
齵	-17.5846
帗	-17.5847
檨	-17.5847
汏	-17.5847
袼	-17.5847
轣	-17.5847
싸	-17.5847
浲	-17.5847
祹	-17.5847
樒	-17.5847
欥	-17.5847
踇	-17.5847
踼	-17.5847
輟	-17.5847
琠	-17.5847
辥	-17.5847
檍	-17.5847
櫎	-17.5847
瞚	-17.5847
莃	-17.5847
墭	-17.5847
韛	-17.5847
垰	-17.5847
穬	-17.5847
覧	-17.5847
偫	-17.5847
瀫	-17.5847
骳	-17.5847
玶	-17.5847
瓪	-17.5847
觵	-17.5847
閎	-17.5847
霔	-17.5847
簔	-17.5847
肐	-17.5847
謭	-17.5847
惢	-17.5847
玞	-17.5847
墆	-17.5847
撢	-17.5847
煔	-17.5847
辤	-17.5847
囘	-17.5847
邊	-17.5847
噳	-17.5847
媱	-17.5847
篖	-17.5847
捒	-17.5847
গ	-17.5847
壃	-17.5847
脗	-17.5847
糉	-17.5847
轀	-17.5847
旹	-17.5847
堶	-17.5847
膢	-17.5847
鶃	-17.5847
疕	-17.5847
簭	-17.5847
恌	-17.5847
奀	-17.5847
櫌	-17.5847
饠	-17.5847
噷	-17.5847
隊	-17.5847
褢	-17.5847
蒪	-17.5847
蟁	-17.5847
䌷	-17.5847
韻	-17.5848
覤	-17.5848
Ā	-17.5848
朳	-17.5848
僙	-17.5848
冊	-17.5848
ু	-17.5848
証	-17.5848
ฉ	-17.5848
衚	-17.5848
镵	-17.5848
腄	-17.5848
璙	-17.5848
濳	-17.5849
總	-17.5849
溫	-17.5849
惪	-17.5851
碐	-17.5855
皀	-17.5857
ध	-17.6703
拠	-17.6744
兊	-17.6751
扽	-17.6752
爞	-17.6752
軝	-17.6752
ĉ	-17.6753
ŏ	-17.6753
滶	-17.6753
┎	-17.6753
戫	-17.6753
耖	-17.6753
倠	-17.6753
頭	-17.6753
蛯	-17.6754
搛	-17.6754
壦	-17.6754
舉	-17.6754
媗	-17.6754
菵	-17.6754
끼	-17.6754
절	-17.6754
妱	-17.6754
ų	-17.6754
硵	-17.6754
潥	-17.6754
柣	-17.6754
歗	-17.6754
單	-17.6754
鳻	-17.6754
铔	-17.6754
認	-17.6754
腜	-17.6754
莾	-17.6754
님	-17.6755
毱	-17.6755
璊	-17.6755
嬜	-17.6755
逿	-17.6755
伹	-17.6755
畡	-17.6755
薸	-17.6755
鱯	-17.6755
埛	-17.6755
挃	-17.6755
檡	-17.6755
祦	-17.6755
僪	-17.6755
滽	-17.6755
襺	-17.6755
濜	-17.6755
犦	-17.6755
瑲	-17.6755
鍭	-17.6755
寋	-17.6755
暀	-17.6755
觹	-17.6755
飮	-17.6755
丷	-17.6755
漐	-17.6755
夊	-17.6755
趌	-17.6755
黚	-17.6755
曕	-17.6755
瑝	-17.6755
磦	-17.6755
冔	-17.6755
徛	-17.6755
稸	-17.6755
彅	-17.6755
鋭	-17.6755
抯	-17.6755
髳	-17.6755
ở	-17.6755
涭	-17.6755
挀	-17.6755
蘡	-17.6755
跲	-17.6755
鯞	-17.6755
蒄	-17.6755
裌	-17.6755
詰	-17.6755
䏰	-17.6755
弮	-17.6755
嶌	-17.6755
巏	-17.6755
迋	-17.6755
鍫	-17.6755
囦	-17.6755
壛	-17.6755
矉	-17.6755
鮬	-17.6755
蟨	-17.6755
裡	-17.6755
鉅	-17.6755
扅	-17.6755
醎	-17.6755
斆	-17.6755
眳	-17.6755
㷆	-17.6755
欿	-17.6755
浕	-17.6755
鈃	-17.6755
ـ	-17.6755
ྱ	-17.6755
卼	-17.6755
屝	-17.6755
屭	-17.6755
枃	-17.6755
槰	-17.6755
漨	-17.6755
紽	-17.6755
葘	-17.6755
蠯	-17.6755
額	-17.6755
餸	-17.6755
鯠	-17.6755
￘	-17.6755
衱	-17.6755
譮	-17.6755
郉	-17.6755
掝	-17.6755
簺	-17.6755
錶	-17.6755
牉	-17.6755
豵	-17.6755
邇	-17.6755
姏	-17.6755
搕	-17.6755
穇	-17.6755
頴	-17.6755
핑	-17.6755
廍	-17.6755
蔠	-17.6755
棆	-17.6756
楻	-17.6756
珷	-17.6756
肹	-17.6756
鈤	-17.6756
颬	-17.6756
宷	-17.6756
杺	-17.6756
Ć	-17.6756
俈	-17.6756
欋	-17.6756
蔂	-17.6756
բ	-17.6756
宭	-17.6756
悧	-17.6756
痀	-17.6756
鬎	-17.6756
ɨ	-17.6756
妟	-17.6756
欙	-17.6756
覂	-17.6756
蹽	-17.6756
闝	-17.6756
û	-17.6756
嵾	-17.6756
氋	-17.6756
鷕	-17.6756
ট	-17.6756
玒	-17.6756
舑	-17.6756
薑	-17.6756
褏	-17.6756
勌	-17.6756
惻	-17.6756
歅	-17.6756
麰	-17.6756
餱	-17.6756
蚹	-17.6756
螇	-17.6756
魠	-17.6756
滀	-17.6756
跴	-17.6756
鎻	-17.6756
膮	-17.6756
蠜	-17.6756
咉	-17.6756
奊	-17.6756
竮	-17.6756
醧	-17.6756
芚	-17.6756
財	-17.6756
軦	-17.6756
鷮	-17.6756
挵	-17.6756
詉	-17.6756
Ә	-17.6756
厫	-17.6756
擸	-17.6756
灅	-17.6756
敱	-17.6756
蛗	-17.6756
飾	-17.6756
분	-17.6756
ক	-17.6756
淂	-17.6756
鳦	-17.6756
黤	-17.6756
蛅	-17.6756
諂	-17.6756
馡	-17.6756
囋	-17.6756
犮	-17.6756
軼	-17.6756
婹	-17.6756
誌	-17.6756
裿	-17.6756
鳷	-17.6756
朩	-17.6756
榥	-17.6756
氉	-17.6756
胦	-17.6756
蘟	-17.6756
峳	-17.6756
獁	-17.6756
羵	-17.6756
頽	-17.6756
점	-17.6756
鬤	-17.6756
甒	-17.6756
綟	-17.6756
ཡ	-17.6756
饆	-17.6756
蹎	-17.6756
筢	-17.6756
熁	-17.6756
玜	-17.6756
曒	-17.6757
匑	-17.6757
ฆ	-17.6757
眹	-17.6757
緎	-17.6757
ვ	-17.6757
梀	-17.6757
涚	-17.6757
錣	-17.6757
稑	-17.6757
裪	-17.6757
欀	-17.6757
鼲	-17.6757
桚	-17.6757
掫	-17.6757
彜	-17.6758
廯	-17.6759
隇	-17.6759
浧	-17.6759
熉	-17.676
秝	-17.6761
ण	-17.7746
軜	-17.775
뭐	-17.775
擁	-17.7752
籇	-17.7752
覜	-17.7753
熌	-17.7753
豲	-17.7753
帶	-17.7753
昖	-17.7754
崬	-17.7754
涒	-17.7754
ப	-17.7754
灣	-17.7754
逎	-17.7754
陳	-17.7754
媌	-17.7754
軫	-17.7754
믿	-17.7754
攺	-17.7754
厹	-17.7754
濓	-17.7754
灴	-17.7754
圍	-17.7754
글	-17.7754
觗	-17.7754
Œ	-17.7754
稱	-17.7755
囬	-17.7755
聲	-17.7755
鮹	-17.7755
등	-17.7755
卌	-17.7755
鬂	-17.7755
嗐	-17.7755
奍	-17.7755
昹	-17.7755
紖	-17.7755
矝	-17.7755
闔	-17.7755
鬛	-17.7755
挱	-17.7755
捥	-17.7755
斷	-17.7755
锊	-17.7755
駑	-17.7755
곁	-17.7755
鏚	-17.7755
湆	-17.7755
凓	-17.7755
勥	-17.7755
岹	-17.7755
煵	-17.7755
労	-17.7755
弎	-17.7755
蛁	-17.7755
軮	-17.7755
潓	-17.7755
馬	-17.7755
콤	-17.7755
狆	-17.7755
萹	-17.7755
©	-17.7755
儱	-17.7755
獡	-17.7755
笯	-17.7755
葽	-17.7755
兿	-17.7755
鎝	-17.7755
騀	-17.7755
坲	-17.7755
錤	-17.7755
ு	-17.7755
啚	-17.7755
蚾	-17.7755
巆	-17.7755
憷	-17.7755
皶	-17.7755
釈	-17.7755
罫	-17.7755
엠	-17.7755
Љ	-17.7755
咠	-17.7755
甆	-17.7755
粖	-17.7755
鞧	-17.7755
鼑	-17.7755
賣	-17.7755
埊	-17.7755
攅	-17.7755
詆	-17.7755
貽	-17.7755
혼	-17.7755
Ç	-17.7755
Ḥ	-17.7755
厤	-17.7755
壐	-17.7755
簁	-17.7755
羉	-17.7755
鬉	-17.7755
蝚	-17.7755
蟎	-17.7755
鎋	-17.7755
瀇	-17.7755
灔	-17.7755
烻	-17.7755
繈	-17.7755
鵊	-17.7755
墹	-17.7755
抮	-17.7755
狾	-17.7755
襳	-17.7755
髐	-17.7755
麌	-17.7755
垬	-17.7755
彃	-17.7755
柺	-17.7755
棸	-17.7755
汖	-17.7755
眣	-17.7755
簙	-17.7755
腃	-17.7755
豯	-17.7755
鯭	-17.7755
剒	-17.7755
庌	-17.7755
欶	-17.7755
炡	-17.7755
蚆	-17.7755
訰	-17.7755
霢	-17.7755
델	-17.7755
嘥	-17.7755
矎	-17.7755
雿	-17.7755
挌	-17.7755
瀔	-17.7755
煝	-17.7755
畕	-17.7755
綺	-17.7755
螱	-17.7755
衯	-17.7755
嗗	-17.7755
屄	-17.7755
貝	-17.7755
娙	-17.7755
洬	-17.7755
醄	-17.7755
桟	-17.7755
鄴	-17.7755
ٹ	-17.7755
唚	-17.7755
坢	-17.7755
幓	-17.7755
弸	-17.7755
邧	-17.7755
팔	-17.7755
ḍ	-17.7755
橰	-17.7755
瘯	-17.7755
膬	-17.7755
裶	-17.7755
逜	-17.7755
♣	-17.7756
咹	-17.7756
駂	-17.7756
唹	-17.7756
證	-17.7756
讀	-17.7756
颕	-17.7756
攦	-17.7756
泧	-17.7756
溾	-17.7756
夒	-17.7756
幏	-17.7756
懅	-17.7756
瀄	-17.7756
瓈	-17.7756
譻	-17.7756
霶	-17.7756
黪	-17.7756
侴	-17.7756
銕	-17.7756
龡	-17.7756
欎	-17.7756
潨	-17.7756
瘑	-17.7756
蕫	-17.7756
플	-17.7756
犓	-17.7756
虆	-17.7756
ؤ	-17.7756
氃	-17.7756
潗	-17.7756
ல	-17.7756
亁	-17.7756
杇	-17.7756
慉	-17.7756
皩	-17.7756
輨	-17.7756
鯆	-17.7756
駍	-17.7756
椌	-17.7756
籦	-17.7756
囎	-17.7756
悋	-17.7756
譁	-17.7756
	-17.7756
嗹	-17.7756
鳱	-17.7756
藪	-17.7756
鏺	-17.7756
䓬	-17.7756
噛	-17.7756
涽	-17.7756
謡	-17.7756
焭	-17.7756
踥	-17.7756
옹	-17.7756
憘	-17.7756
掆	-17.7756
魦	-17.7756
鯥	-17.7756
噆	-17.7756
鴸	-17.7756
瞡	-17.7756
鈒	-17.7756
阰	-17.7756
殟	-17.7756
竛	-17.7756
椄	-17.7756
懫	-17.7756
褦	-17.7756
驂	-17.7756
櫼	-17.7756
痯	-17.7756
箯	-17.7756
莤	-17.7756
餙	-17.7756
傛	-17.7756
眑	-17.7756
軑	-17.7756
련	-17.7756
膟	-17.7756
詄	-17.7756
攋	-17.7756
棶	-17.7756
ҧ	-17.7756
拃	-17.7756
橞	-17.7756
丅	-17.7756
տ	-17.7756
滎	-17.7756
筕	-17.7756
揝	-17.7756
棌	-17.7756
법	-17.7756
湏	-17.7756
鷽	-17.7756
䳍	-17.7756
俋	-17.7756
椝	-17.7756
蹞	-17.7756
橒	-17.7756
壔	-17.7756
坁	-17.7757
癗	-17.7757
馣	-17.7757
廧	-17.7757
焢	-17.7757
粔	-17.7757
암	-17.7757
ེ	-17.7757
瞏	-17.7757
沝	-17.7757
訹	-17.7757
瑹	-17.7757
賁	-17.7757
習	-17.7757
環	-17.7757
記	-17.7757
哖	-17.7757
ʾ	-17.7757
詩	-17.7757
ভ	-17.7757
蘉	-17.7758
毪	-17.7758
獞	-17.7758
ɕ	-17.7759
矅	-17.776
呉	-17.776
馛	-17.7762
鱄	-17.7762
थ	-17.8851
産	-17.8854
煄	-17.8858
ļ	-17.8862
郘	-17.8862
碢	-17.8862
藝	-17.8863
裻	-17.8863
湭	-17.8863
亇	-17.8863
徲	-17.8864
敇	-17.8864
離	-17.8864
崘	-17.8864
遺	-17.8864
ꁰ	-17.8865
歭	-17.8865
匉	-17.8865
洯	-17.8865
Ư	-17.8865
耾	-17.8865
訒	-17.8865
鏸	-17.8865
覌	-17.8865
輸	-17.8865
拫	-17.8865
╣	-17.8865
ర	-17.8865
苙	-17.8865
ў	-17.8865
樲	-17.8865
焻	-17.8865
蜰	-17.8865
俢	-17.8865
歲	-17.8865
塕	-17.8865
黦	-17.8866
穜	-17.8866
	-17.8866
ী	-17.8866
渏	-17.8866
齴	-17.8866
铴	-17.8866
橺	-17.8866
ғ	-17.8866
ు	-17.8866
妸	-17.8866
鉝	-17.8866
埲	-17.8866
忨	-17.8866
顴	-17.8866
韹	-17.8866
炲	-17.8866
塜	-17.8866
萉	-17.8866
嵷	-17.8866
渨	-17.8866
籔	-17.8866
茋	-17.8866
軧	-17.8866
籖	-17.8866
꽃	-17.8866
	-17.8866
摓	-17.8866
ञ	-17.8866
繜	-17.8866
騻	-17.8866
鷿	-17.8866
伒	-17.8866
緈	-17.8866
̃	-17.8866
邟	-17.8866
暬	-17.8866
枂	-17.8866
絸	-17.8866
夀	-17.8866
桊	-17.8866
條	-17.8866
錄	-17.8866
俆	-17.8866
渻	-17.8866
沷	-17.8866
缹	-17.8866
貈	-17.8866
鬮	-17.8866
Ү	-17.8866
強	-17.8866
Ҳ	-17.8866
溓	-17.8866
熂	-17.8866
蒈	-17.8866
袐	-17.8866
熀	-17.8866
艓	-17.8866
鬄	-17.8866
啙	-17.8866
崶	-17.8866
亅	-17.8866
匶	-17.8866
姼	-17.8866
樑	-17.8866
煬	-17.8866
爊	-17.8866
週	-17.8866
鞕	-17.8866
鵹	-17.8866
Ա	-17.8866
帞	-17.8866
軖	-17.8866
嚡	-17.8866
懬	-17.8866
睗	-17.8866
赥	-17.8866
ผ	-17.8866
嶛	-17.8866
榝	-17.8866
橪	-17.8866
踫	-17.8866
鬵	-17.8866
㳋	-17.8866
仸	-17.8866
瘏	-17.8866
癈	-17.8866
듯	-17.8866
㵹	-17.8866
峬	-17.8866
撠	-17.8866
瀀	-17.8866
논	-17.8866
품	-17.8866
帤	-17.8866
挄	-17.8866
躂	-17.8866
색	-17.8866
째	-17.8866
廮	-17.8866
敶	-17.8866
楲	-17.8866
碽	-17.8866
肎	-17.8866
虘	-17.8866
裠	-17.8866
訕	-17.8866
鶶	-17.8866
儽	-17.8866
圓	-17.8866
戅	-17.8866
臕	-17.8866
蒳	-17.8866
螮	-17.8866
遌	-17.8866
骿	-17.8866
鳺	-17.8866
많	-17.8866
	-17.8866
乶	-17.8866
蚥	-17.8866
惼	-17.8867
淗	-17.8867
韗	-17.8867
➢	-17.8867
婾	-17.8867
揞	-17.8867
螰	-17.8867
‬	-17.8867
☀	-17.8867
嚮	-17.8867
蛥	-17.8867
觍	-17.8867
詨	-17.8867
遫	-17.8867
屖	-17.8867
樔	-17.8867
諵	-17.8867
謂	-17.8867
骻	-17.8867
느	-17.8867
엄	-17.8867
俇	-17.8867
咊	-17.8867
捼	-17.8867
碫	-17.8867
譽	-17.8867
醝	-17.8867
녕	-17.8867
잘	-17.8867
쟁	-17.8867
揫	-17.8867
ட	-17.8867
創	-17.8867
哅	-17.8867
濲	-17.8867
糤	-17.8867
裓	-17.8867
鑌	-17.8867
刉	-17.8867
鸏	-17.8867
견	-17.8867
昩	-17.8867
殬	-17.8867
躆	-17.8867
ゞ	-17.8867
崫	-17.8867
幈	-17.8867
橖	-17.8867
稧	-17.8867
豜	-17.8867
靝	-17.8867
Ё	-17.8867
豽	-17.8867
탁	-17.8867
懹	-17.8867
璣	-17.8867
訧	-17.8867
馼	-17.8867
崣	-17.8867
杴	-17.8867
랜	-17.8867
ხ	-17.8867
丄	-17.8867
剬	-17.8867
滺	-17.8867
譒	-17.8867
鐾	-17.8867
삶	-17.8867
璽	-17.8867
魽	-17.8867
淐	-17.8867
瀖	-17.8867
狘	-17.8867
綧	-17.8867
醕	-17.8867
┒	-17.8867
娿	-17.8867
岉	-17.8867
魩	-17.8867
嬻	-17.8867
宮	-17.8867
蜅	-17.8867
髶	-17.8867
粻	-17.8867
婤	-17.8867
伻	-17.8867
媊	-17.8867
穫	-17.8867
紼	-17.8867
襼	-17.8867
飥	-17.8867
騘	-17.8867
鰷	-17.8867
鶤	-17.8867
墋	-17.8867
墌	-17.8867
齱	-17.8867
湦	-17.8867
繤	-17.8867
醡	-17.8867
鍜	-17.8867
飿	-17.8867
鱎	-17.8867
吥	-17.8867
喛	-17.8867
ů	-17.8867
├	-17.8867
姅	-17.8867
虤	-17.8867
ཀ	-17.8867
扤	-17.8867
潠	-17.8867
協	-17.8867
謨	-17.8867
譕	-17.8867
銊	-17.8867
┻	-17.8867
鉤	-17.8867
雔	-17.8867
른	-17.8867
壓	-17.8867
掛	-17.8867
湗	-17.8867
溦	-17.8867
繮	-17.8867
蘛	-17.8867
ỗ	-17.8867
儊	-17.8867
廐	-17.8867
糱	-17.8867
暋	-17.8867
牿	-17.8867
鞈	-17.8867
Ó	-17.8867
敂	-17.8867
胹	-17.8867
丳	-17.8867
愴	-17.8867
欱	-17.8867
靭	-17.8867
聟	-17.8867
麢	-17.8867
堿	-17.8867
膧	-17.8867
鑞	-17.8867
鋘	-17.8867
馎	-17.8867
灈	-17.8867
儧	-17.8867
濵	-17.8867
畽	-17.8867
縸	-17.8867
禂	-17.8867
鋚	-17.8867
櫱	-17.8868
絥	-17.8868
웅	-17.8868
瑖	-17.8868
垉	-17.8868
鶋	-17.8868
聻	-17.8868
╭	-17.8868
殕	-17.8868
珹	-17.8868
甤	-17.8868
迺	-17.8868
豶	-17.8868
嶴	-17.8868
槏	-17.8868
覗	-17.8868
弅	-17.8868
瀆	-17.8868
鱨	-17.8868
斒	-17.8868
蕍	-17.8868
釬	-17.8868
垝	-17.8868
鄸	-17.8868
弞	-17.8868
մ	-17.8868
傆	-17.8868
宻	-17.8868
ɲ	-17.8869
㦕	-17.8869
嗙	-17.8869
辌	-17.8869
膹	-17.8869
膄	-17.8869
颒	-17.8869
銭	-17.8869
壂	-17.8869
┴	-17.8869
爾	-17.8869
熈	-17.887
亞	-17.887
স	-17.887
蕝	-17.8871
嶬	-17.8872
倫	-17.8872
⻊	-17.8874
	-17.8875
宼	-17.8877
爢	-17.8877
	-17.8881
	-17.8886
	-17.8887
आ	-18.0092
ख	-18.0104
親	-18.011
Ī	-18.0111
輲	-18.0112
栜	-18.0112
豐	-18.0113
綋	-18.0113
簂	-18.0113
鉢	-18.0113
侊	-18.0113
堥	-18.0113
難	-18.0113
覞	-18.0114
菿	-18.0114
琌	-18.0114
蠰	-18.0114
楺	-18.0114
侫	-18.0114
蝹	-18.0114
耊	-18.0114
Ĝ	-18.0114
澖	-18.0115
檏	-18.0115
ை	-18.0115
繼	-18.0115
順	-18.0115
侕	-18.0115
Ū	-18.0115
曋	-18.0115
續	-18.0115
呺	-18.0115
餦	-18.0115
Ə	-18.0115
歍	-18.0115
滳	-18.0115
漇	-18.0115
項	-18.0115
	-18.0115
旞	-18.0115
泒	-18.0115
怢	-18.0115
濋	-18.0115
簮	-18.0115
噚	-18.0115
প	-18.0115
婇	-18.0115
嬥	-18.0115
磩	-18.0115
礒	-18.0115
锩	-18.0115
䯼	-18.0116
洦	-18.0116
逕	-18.0116
剤	-18.0116
隞	-18.0116
奬	-18.0116
琕	-18.0116
碯	-18.0116
芇	-18.0116
ỹ	-18.0116
牳	-18.0116
膌	-18.0116
偨	-18.0116
戰	-18.0116
츠	-18.0116
攰	-18.0116
坽	-18.0116
箾	-18.0116
褍	-18.0116
騖	-18.0116
繊	-18.0116
負	-18.0116
鐧	-18.0116
亼	-18.0116
獢	-18.0116
熑	-18.0116
饛	-18.0116
珃	-18.0116
涹	-18.0116
鷵	-18.0116
농	-18.0116
厀	-18.0116
絯	-18.0116
躕	-18.0116
濎	-18.0116
狔	-18.0116
藑	-18.0116
剙	-18.0116
汱	-18.0116
ỷ	-18.0116
嚵	-18.0116
栂	-18.0116
濅	-18.0116
怣	-18.0116
杶	-18.0116
넘	-18.0116
Ἄ	-18.0116
蝐	-18.0116
슴	-18.0116
	-18.0116
ヵ	-18.0116
掱	-18.0116
癶	-18.0116
ো	-18.0116
儍	-18.0116
嗺	-18.0116
磟	-18.0116
覀	-18.0116
荎	-18.0116
ɹ	-18.0116
ᠠ	-18.0116
鞟	-18.0116
驛	-18.0116
涆	-18.0116
烕	-18.0116
猟	-18.0116
觃	-18.0116
ẵ	-18.0116
┈	-18.0116
愓	-18.0116
楒	-18.0116
濌	-18.0116
瓃	-18.0116
倸	-18.0116
癰	-18.0116
籢	-18.0116
哷	-18.0116
屰	-18.0116
庛	-18.0116
衻	-18.0116
識	-18.0116
馵	-18.0116
垻	-18.0116
愗	-18.0116
枖	-18.0116
瓡	-18.0116
閔	-18.0116
峉	-18.0116
峑	-18.0116
讒	-18.0116
銸	-18.0116
隑	-18.0116
鷑	-18.0116
릿	-18.0116
墄	-18.0116
惽	-18.0116
憓	-18.0116
梪	-18.0116
漹	-18.0116
儭	-18.0116
嶜	-18.0116
薋	-18.0116
軱	-18.0116
黣	-18.0116
놀	-18.0116
䬹	-18.0116
橭	-18.0116
涏	-18.0116
竃	-18.0116
逺	-18.0116
駖	-18.0116
ᐖ	-18.0116
∇	-18.0116
蠩	-18.0116
兲	-18.0116
凷	-18.0116
粣	-18.0116
醸	-18.0116
럽	-18.0116
	-18.0116
墧	-18.0116
鼘	-18.0116
존	-18.0116
๊	-18.0117
婻	-18.0117
愃	-18.0117
痝	-18.0117
瘜	-18.0117
禠	-18.0117
貺	-18.0117
鈜	-18.0117
銈	-18.0117
땅	-18.0117
☑	-18.0117
椥	-18.0117
骴	-18.0117
	-18.0117
佂	-18.0117
洝	-18.0117
潈	-18.0117
郼	-18.0117
鰆	-18.0117
麆	-18.0117
喯	-18.0117
檰	-18.0117
魙	-18.0117
娎	-18.0117
悇	-18.0117
舕	-18.0117
薡	-18.0117
받	-18.0117
	-18.0117
尟	-18.0117
廃	-18.0117
廇	-18.0117
旙	-18.0117
樣	-18.0117
蘤	-18.0117
覅	-18.0117
餹	-18.0117
鳤	-18.0117
써	-18.0117
응	-18.0117
	-18.0117
帣	-18.0117
았	-18.0117
愶	-18.0117
潀	-18.0117
燻	-18.0117
薐	-18.0117
薵	-18.0117
蘠	-18.0117
覻	-18.0117
鎜	-18.0117
隖	-18.0117
駥	-18.0117
挓	-18.0117
枡	-18.0117
窱	-18.0117
詑	-18.0117
ྒ	-18.0117
┗	-18.0117
匌	-18.0117
呹	-18.0117
栁	-18.0117
脟	-18.0117
譙	-18.0117
踃	-18.0117
韅	-18.0117
鸒	-18.0117
掜	-18.0117
櫾	-18.0117
籏	-18.0117
苀	-18.0117
螕	-18.0117
顄	-18.0117
嘂	-18.0117
碞	-18.0117
餟	-18.0117
魛	-18.0117
鼀	-18.0117
틱	-18.0117
嫥	-18.0117
橤	-18.0117
煋	-18.0117
糥	-18.0117
莬	-18.0117
鏏	-18.0117
梉	-18.0117
溳	-18.0117
爥	-18.0117
筀	-18.0117
繀	-18.0117
肰	-18.0117
鏠	-18.0117
鑴	-18.0117
懭	-18.0117
遅	-18.0117
頬	-18.0117
弍	-18.0117
澾	-18.0117
篋	-18.0117
豩	-18.0117
餕	-18.0117
鱆	-18.0117
鼜	-18.0117
험	-18.0117
鐯	-18.0117
髿	-18.0117
圥	-18.0117
嶊	-18.0117
擖	-18.0117
畱	-18.0117
畵	-18.0117
椉	-18.0117
爂	-18.0117
箵	-18.0117
譀	-18.0117
齖	-18.0117
،	-18.0117
ἰ	-18.0117
繣	-18.0117
髧	-18.0117
클	-18.0117
峎	-18.0117
膇	-18.0117
়	-18.0117
噐	-18.0117
弉	-18.0117
揥	-18.0117
湌	-18.0117
籉	-18.0117
蔎	-18.0117
嚢	-18.0117
絧	-18.0117
蔯	-18.0117
牮	-18.0117
섭	-18.0117
佮	-18.0117
衒	-18.0117
閙	-18.0117
Ἱ	-18.0117
粨	-18.0117
饝	-18.0117
麫	-18.0117
湨	-18.0117
給	-18.0117
襶	-18.0117
鯒	-18.0117
嘓	-18.0117
攡	-18.0117
駟	-18.0117
鰅	-18.0117
絘	-18.0117
坒	-18.0117
壴	-18.0117
鵏	-18.0117
稯	-18.0117
蔍	-18.0117
ヰ	-18.0117
哰	-18.0117
堲	-18.0117
眤	-18.0117
趛	-18.0117
鵐	-18.0117
鄏	-18.0117
傽	-18.0117
凘	-18.0117
鄋	-18.0117
	-18.0117
刧	-18.0117
隝	-18.0117
瘂	-18.0117
繂	-18.0117
蓶	-18.0117
鞝	-18.0117
儻	-18.0117
尀	-18.0117
鈌	-18.0117
匃	-18.0117
渧	-18.0117
圖	-18.0117
懰	-18.0117
禢	-18.0117
鬽	-18.0117
	-18.0117
Î	-18.0117
挜	-18.0117
皽	-18.0117
鶢	-18.0117
芛	-18.0118
璛	-18.0118
劋	-18.0118
浘	-18.0118
玱	-18.0118
拝	-18.0118
趓	-18.0118
靻	-18.0118
澂	-18.0118
韏	-18.0118
È	-18.0118
妭	-18.0118
躓	-18.0118
輁	-18.0118
冦	-18.0118
捯	-18.0118
鐭	-18.0118
┘	-18.0118
恟	-18.0118
劦	-18.0118
毲	-18.0118
禎	-18.0118
脄	-18.0118
賽	-18.0118
몸	-18.0118
懘	-18.0118
苖	-18.0118
欆	-18.0118
鋳	-18.0119
冿	-18.0119
暭	-18.0119
鑚	-18.0119
問	-18.0119
澘	-18.0119
伱	-18.012
聯	-18.0121
穾	-18.0126
橕	-18.0131
ए	-18.1482
औ	-18.1499
傤	-18.1532
斢	-18.1538
며	-18.1538
颣	-18.154
垈	-18.154
礀	-18.154
結	-18.154
Ú	-18.1541
邥	-18.1541
歡	-18.1542
愸	-18.1542
떨	-18.1542
偞	-18.1542
답	-18.1542
織	-18.1542
獲	-18.1542
焇	-18.1543
雮	-18.1543
뜻	-18.1543
臓	-18.1543
駏	-18.1543
驉	-18.1543
彚	-18.1543
級	-18.1543
冸	-18.1543
車	-18.1543
連	-18.1543
Ἁ	-18.1543
Ἰ	-18.1544
ң	-18.1544
墎	-18.1544
誐	-18.1544
繆	-18.1544
虭	-18.1544
逓	-18.1544
鐡	-18.1544
乭	-18.1544
圅	-18.1544
搾	-18.1544
櫹	-18.1544
మ	-18.1544
耴	-18.1544
례	-18.1544
暶	-18.1544
滿	-18.1544
簩	-18.1544
㐌	-18.1544
跘	-18.1544
릴	-18.1544
冡	-18.1544
럴	-18.1544
僃	-18.1544
姎	-18.1544
䘿	-18.1544
堭	-18.1544
梂	-18.1544
芓	-18.1544
餉	-18.1544
酫	-18.1544
淴	-18.1544
漞	-18.1544
鬌	-18.1544
袟	-18.1544
蓵	-18.1544
鎒	-18.1544
馞	-18.1544
த	-18.1544
圫	-18.1544
攱	-18.1544
犿	-18.1544
鶥	-18.1544
鬆	-18.1544
佈	-18.1544
坧	-18.1544
嬪	-18.1544
籑	-18.1544
糢	-18.1544
頣	-18.1544
煷	-18.1544
庢	-18.1544
烓	-18.1544
砄	-18.1544
誎	-18.1544
賾	-18.1544
蜳	-18.1544
	-18.1544
⇌	-18.1544
巗	-18.1544
湶	-18.1544
燆	-18.1544
疌	-18.1544
嫊	-18.1545
摡	-18.1545
筎	-18.1545
鴥	-18.1545
ฤ	-18.1545
妀	-18.1545
狪	-18.1545
螴	-18.1545
譆	-18.1545
躟	-18.1545
鴶	-18.1545
ި	-18.1545
睕	-18.1545
硩	-18.1545
肂	-18.1545
麘	-18.1545
蘦	-18.1545
蟂	-18.1545
⊂	-18.1545
妦	-18.1545
櫈	-18.1545
漿	-18.1545
炾	-18.1545
杝	-18.1545
郋	-18.1545
釋	-18.1545
鑓	-18.1545
鞃	-18.1545
圲	-18.1545
盷	-18.1545
頂	-18.1545
喴	-18.1545
ỏ	-18.1545
偸	-18.1545
凢	-18.1545
攠	-18.1545
浢	-18.1545
髕	-18.1545
苝	-18.1545
誥	-18.1545
鬿	-18.1545
睭	-18.1545
›	-18.1545
儠	-18.1545
捖	-18.1545
擪	-18.1545
朄	-18.1545
磄	-18.1545
礥	-18.1545
覔	-18.1545
駾	-18.1545
鯝	-18.1545
吇	-18.1545
襒	-18.1545
鴫	-18.1545
胈	-18.1545
齯	-18.1545
▉	-18.1545
✿	-18.1545
穞	-18.1545
襂	-18.1545
鬁	-18.1545
팝	-18.1545
Ө	-18.1545
ᐔ	-18.1545
宯	-18.1545
抎	-18.1545
礕	-18.1545
襹	-18.1545
遳	-18.1545
鰹	-18.1545
齝	-18.1545
Ѓ	-18.1545
劀	-18.1545
瀴	-18.1545
眍	-18.1545
鍖	-18.1545
霳	-18.1545
髊	-18.1545
탤	-18.1545
혀	-18.1545
嚱	-18.1545
幹	-18.1545
晹	-18.1545
栰	-18.1545
獂	-18.1545
箁	-18.1545
蘬	-18.1545
鄬	-18.1545
颲	-18.1545
宔	-18.1545
巀	-18.1545
絽	-18.1545
冐	-18.1545
凞	-18.1545
彋	-18.1545
懕	-18.1545
測	-18.1545
灇	-18.1545
燈	-18.1545
燤	-18.1545
翜	-18.1545
遱	-18.1545
鞺	-18.1545
駫	-18.1545
싫	-18.1545
ʋ	-18.1545
憛	-18.1545
裵	-18.1545
鋡	-18.1545
鴜	-18.1545
鶌	-18.1545
娽	-18.1545
嫿	-18.1545
竉	-18.1545
篰	-18.1545
裑	-18.1545
錋	-18.1545
鏋	-18.1545
찾	-18.1545
㷢	-18.1545
懁	-18.1545
	-18.1545
乧	-18.1545
轗	-18.1545
驘	-18.1545
ֶ	-18.1545
佒	-18.1545
俹	-18.1545
堖	-18.1545
娬	-18.1545
掹	-18.1545
攓	-18.1545
顊	-18.1545
侐	-18.1545
蕑	-18.1545
俉	-18.1545
猹	-18.1545
蠚	-18.1545
袙	-18.1545
醷	-18.1545
榹	-18.1545
穊	-18.1545
艻	-18.1545
阹	-18.1545
鲯	-18.1545
ҷ	-18.1545
ڈ	-18.1545
漑	-18.1545
瘞	-18.1545
緷	-18.1545
芻	-18.1545
遆	-18.1545
鏂	-18.1545
騝	-18.1545
齌	-18.1545
斖	-18.1545
盺	-18.1545
鰦	-18.1545
曭	-18.1545
雙	-18.1545
담	-18.1545
䲡	-18.1545
呞	-18.1545
嬺	-18.1545
硳	-18.1545
縂	-18.1545
膶	-18.1545
螙	-18.1545
蜙	-18.1545
妷	-18.1545
崕	-18.1545
弰	-18.1545
碆	-18.1545
禮	-18.1545
粛	-18.1545
袹	-18.1545
閛	-18.1545
╲	-18.1545
鯕	-18.1545
倱	-18.1545
嘆	-18.1545
孨	-18.1545
孴	-18.1545
겸	-18.1545
哯	-18.1545
抴	-18.1545
軷	-18.1545
鍵	-18.1545
ܝ	-18.1545
叄	-18.1545
彫	-18.1545
矇	-18.1545
镸	-18.1545
馚	-18.1545
ɬ	-18.1545
鍌	-18.1545
嬽	-18.1546
戁	-18.1546
犫	-18.1546
蹮	-18.1546
髷	-18.1546
鼔	-18.1546
齃	-18.1546
╋	-18.1546
瀎	-18.1546
炣	-18.1546
琩	-18.1546
瞙	-18.1546
縩	-18.1546
銋	-18.1546
寗	-18.1546
旜	-18.1546
曮	-18.1546
쉬	-18.1546
կ	-18.1546
伣	-18.1546
弴	-18.1546
旲	-18.1546
櫶	-18.1546
炞	-18.1546
瓀	-18.1546
鉠	-18.1546
骲	-18.1546
Њ	-18.1546
曃	-18.1546
桪	-18.1546
葈	-18.1546
銓	-18.1546
鍝	-18.1546
觧	-18.1546
譖	-18.1546
য	-18.1546
偺	-18.1546
埄	-18.1546
暟	-18.1546
矙	-18.1546
喿	-18.1546
朾	-18.1546
橏	-18.1546
蟚	-18.1546
闈	-18.1546
鱐	-18.1546
̞	-18.1546
矘	-18.1546
ា	-18.1546
歮	-18.1546
礩	-18.1546
錱	-18.1546
眅	-18.1546
悵	-18.1546
籚	-18.1546
義	-18.1546
鷾	-18.1546
蟴	-18.1546
許	-18.1546
剰	-18.1546
庨	-18.1546
怐	-18.1546
鱮	-18.1546
夝	-18.1546
諔	-18.1546
頄	-18.1546
壜	-18.1546
夑	-18.1546
譍	-18.1546
ཚ	-18.1546
蝭	-18.1546
蟭	-18.1546
篂	-18.1546
跁	-18.1546
闛	-18.1546
縦	-18.1546
謢	-18.1546
鍴	-18.1546
嵼	-18.1546
།	-18.1546
▋	-18.1546
捊	-18.1546
營	-18.1546
鋊	-18.1546
麁	-18.1546
둘	-18.1546
裮	-18.1546
眧	-18.1546
繒	-18.1546
襬	-18.1546
㳇	-18.1546
瘹	-18.1546
諸	-18.1546
軯	-18.1546
䰞	-18.1546
囮	-18.1546
惐	-18.1546
譎	-18.1546
躃	-18.1546
凎	-18.1546
齚	-18.1546
羙	-18.1547
憒	-18.1547
匔	-18.1547
圁	-18.1547
葁	-18.1547
▄	-18.1547
骩	-18.1547
鼮	-18.1547
徤	-18.1547
鯸	-18.1547
嫷	-18.1547
諰	-18.1547
爜	-18.1547
峼	-18.1547
蚠	-18.1547
樹	-18.1547
姖	-18.1547
練	-18.1547
厡	-18.1547
ཙ	-18.1548
薲	-18.1548
편	-18.1548
丗	-18.1548
焲	-18.1548
뜨	-18.1549
泹	-18.1549
職	-18.1549
	-18.1549
跢	-18.155
鏄	-18.155
夌	-18.155
	-18.1551
紟	-18.1552
嘊	-18.1553
殤	-18.1553
饡	-18.1571
虌	-18.1574
ृ	-18.3168
	-18.3201
荿	-18.3201
ŝ	-18.3204
偼	-18.3204
ĭ	-18.3205
構	-18.3206
ț	-18.3207
Ţ	-18.3207
ṯ	-18.3207
哻	-18.3207
溰	-18.3208
靱	-18.3208
縪	-18.3208
僂	-18.3208
坃	-18.3209
髺	-18.3209
擊	-18.3209
犆	-18.3209
ĥ	-18.3209
瞯	-18.3209
網	-18.3209
ġ	-18.3209
鈫	-18.3209
築	-18.3209
Ŭ	-18.3209
鷧	-18.321
嚴	-18.321
桾	-18.321
茒	-18.321
躗	-18.321
剭	-18.321
檺	-18.321
庫	-18.321
侾	-18.321
驆	-18.321
洉	-18.321
圤	-18.321
崠	-18.321
箉	-18.321
脥	-18.321
騟	-18.321
鷷	-18.321
쩌	-18.321
踄	-18.321
⁬	-18.321
䄉	-18.321
䑕	-18.321
䢵	-18.321
堔	-18.321
迀	-18.321
龗	-18.321
琘	-18.321
蒞	-18.321
陸	-18.321
醬	-18.321
ẹ	-18.321
蓜	-18.321
閕	-18.321
靣	-18.321
흘	-18.321
ű	-18.321
ద	-18.321
楟	-18.321
్	-18.321
饀	-18.321
嫛	-18.321
衠	-18.321
犺	-18.321
逰	-18.321
隿	-18.321
ཆ	-18.3211
≽	-18.3211
卥	-18.3211
峐	-18.3211
熣	-18.3211
虅	-18.3211
앞	-18.3211
郲	-18.3211
姷	-18.3211
崙	-18.3211
憼	-18.3211
閜	-18.3211
暆	-18.3211
樚	-18.3211
Ҵ	-18.3211
ҵ	-18.3211
臰	-18.3211
ђ	-18.3211
ฝ	-18.3211
堅	-18.3211
棩	-18.3211
肀	-18.3211
餎	-18.3211
렬	-18.3211
Ў	-18.3211
昍	-18.3211
鍼	-18.3211
鐵	-18.3211
鐬	-18.3211
匲	-18.3211
榯	-18.3211
燱	-18.3211
碈	-18.3211
鬢	-18.3211
뮤	-18.3211
숭	-18.3211
檾	-18.3211
觾	-18.3211
駊	-18.3211
	-18.3211
ϊ	-18.3211
嶶	-18.3211
싱	-18.3211
ཞ	-18.3211
㦃	-18.3211
裦	-18.3211
顅	-18.3211
餄	-18.3211
埅	-18.3211
懧	-18.3211
紅	-18.3211
靈	-18.3211
啟	-18.3211
臦	-18.3211
閵	-18.3211
	-18.3211
ŵ	-18.3211
ҟ	-18.3211
ῶ	-18.3211
奛	-18.3211
歞	-18.3211
瑉	-18.3211
紙	-18.3211
蒩	-18.3211
蔾	-18.3211
觩	-18.3211
醥	-18.3211
망	-18.3211
縳	-18.3211
噅	-18.3211
枴	-18.3211
笓	-18.3211
鱾	-18.3211
奅	-18.3211
峾	-18.3211
翍	-18.3211
涺	-18.3211
稢	-18.3211
視	-18.3211
陑	-18.3211
琝	-18.3211
瞫	-18.3211
ɜ	-18.3211
呟	-18.3211
晪	-18.3211
鰯	-18.3211
þ	-18.3211
孒	-18.3211
阢	-18.3211
闗	-18.3211
Ҟ	-18.3211
伅	-18.3211
墷	-18.3211
彲	-18.3211
憿	-18.3211
暪	-18.3211
縏	-18.3211
貨	-18.3211
鞼	-18.3211
茻	-18.3211
Ҕ	-18.3211
ӡ	-18.3211
㸁	-18.3211
摙	-18.3211
礔	-18.3211
聐	-18.3211
銗	-18.3211
闅	-18.3211
량	-18.3211
혹	-18.3211
儶	-18.3211
劙	-18.3211
恘	-18.3211
艭	-18.3211
讘	-18.3211
첫	-18.3211
ҕ	-18.3211
Ӡ	-18.3211
嚊	-18.3211
烌	-18.3211
眔	-18.3211
綗	-18.3211
跇	-18.3211
蹱	-18.3211
鶏	-18.3211
倣	-18.3211
瀤	-18.3211
伄	-18.3211
嚛	-18.3211
膕	-18.3211
臶	-18.3211
題	-18.3211
	-18.3211
唩	-18.3211
铞	-18.3211
抅	-18.3211
桻	-18.3211
鞂	-18.3211
駢	-18.3211
Ѕ	-18.3212
㝠	-18.3212
矁	-18.3212
緁	-18.3212
蚗	-18.3212
趚	-18.3212
鏃	-18.3212
粂	-18.3212
鉱	-18.3212
魪	-18.3212
啌	-18.3212
挶	-18.3212
潃	-18.3212
睖	-18.3212
笇	-18.3212
讆	-18.3212
鱭	-18.3212
㮁	-18.3212
妏	-18.3212
坔	-18.3212
廀	-18.3212
浽	-18.3212
獙	-18.3212
艛	-18.3212
蓩	-18.3212
偑	-18.3212
嵱	-18.3212
嶠	-18.3212
椻	-18.3212
沑	-18.3212
渶	-18.3212
礉	-18.3212
簵	-18.3212
緪	-18.3212
葓	-18.3212
襵	-18.3212
詍	-18.3212
謋	-18.3212
輯	-18.3212
銄	-18.3212
頿	-18.3212
鮿	-18.3212
땐	-18.3212
湡	-18.3212
糂	-18.3212
垐	-18.3212
揕	-18.3212
杗	-18.3212
浫	-18.3212
熷	-18.3212
魼	-18.3212
鵧	-18.3212
齺	-18.3212
섬	-18.3212
ʼ	-18.3212
楑	-18.3212
聝	-18.3212
蚫	-18.3212
袺	-18.3212
說	-18.3212
踾	-18.3212
鋧	-18.3212
雓	-18.3212
맹	-18.3212
먹	-18.3212
鴖	-18.3212
壵	-18.3212
慼	-18.3212
昡	-18.3212
棙	-18.3212
炠	-18.3212
緟	-18.3212
蓪	-18.3212
躦	-18.3212
鏓	-18.3212
頩	-18.3212
쓰	-18.3212
웨	-18.3212
˩	-18.3212
Ҭ	-18.3212
ҭ	-18.3212
㷒	-18.3212
嚗	-18.3212
悹	-18.3212
愳	-18.3212
綠	-18.3212
蝒	-18.3212
螚	-18.3212
蠉	-18.3212
袃	-18.3212
躡	-18.3212
鎕	-18.3212
龔	-18.3212
돈	-18.3212
ཨ	-18.3212
唌	-18.3212
娫	-18.3212
媥	-18.3212
粯	-18.3212
耞	-18.3212
餔	-18.3212
饊	-18.3212
骬	-18.3212
麺	-18.3212
낼	-18.3212
션	-18.3212
컴	-18.3212
	-18.3212
̪	-18.3212
∅	-18.3212
╪	-18.3212
櫐	-18.3212
渮	-18.3212
牃	-18.3212
瑍	-18.3212
矃	-18.3212
蘁	-18.3212
逩	-18.3212
錥	-18.3212
鏰	-18.3212
鬦	-18.3212
鼅	-18.3212
冭	-18.3212
吪	-18.3212
괜	-18.3212
댄	-18.3212
찮	-18.3212
嶉	-18.3212
კ	-18.3212
ἑ	-18.3212
〤	-18.3212
婡	-18.3212
徃	-18.3212
愛	-18.3212
棑	-18.3212
犘	-18.3212
癘	-18.3212
盇	-18.3212
綅	-18.3212
縛	-18.3212
鉒	-18.3212
鐱	-18.3212
鑐	-18.3212
율	-18.3212
	-18.3212
堩	-18.3212
潡	-18.3212
焔	-18.3212
鶊	-18.3212
꺼	-18.3212
๋	-18.3212
ἱ	-18.3212
唡	-18.3212
摦	-18.3212
焬	-18.3212
螔	-18.3212
雋	-18.3212
鳶	-18.3212
墍	-18.3212
撴	-18.3212
篗	-18.3212
鰛	-18.3212
哤	-18.3212
啘	-18.3212
毻	-18.3212
湁	-18.3212
潝	-18.3212
珁	-18.3212
磓	-18.3212
竼	-18.3212
緔	-18.3212
罬	-18.3212
襥	-18.3212
變	-18.3212
顩	-18.3212
餺	-18.3212
鵠	-18.3212
慹	-18.3212
甴	-18.3212
睔	-18.3212
亝	-18.3212
墣	-18.3212
姪	-18.3212
嵅	-18.3212
瀸	-18.3212
膓	-18.3212
衈	-18.3212
駡	-18.3212
馤	-18.3212
鯦	-18.3212
迖	-18.3212
丮	-18.3212
傋	-18.3212
啱	-18.3212
崑	-18.3212
懯	-18.3212
瘻	-18.3212
絛	-18.3212
膎	-18.3212
莑	-18.3212
輦	-18.3212
陽	-18.3212
麖	-18.3212
詓	-18.3212
鯬	-18.3212
嵳	-18.3212
爃	-18.3212
繍	-18.3212
醩	-18.3212
隻	-18.3212
탕	-18.3212
蟼	-18.3212
ゝ	-18.3212
虰	-18.3212
증	-18.3212
ۈ	-18.3212
ܢ	-18.3212
შ	-18.3212
區	-18.3212
呥	-18.3212
咇	-18.3212
怹	-18.3212
沜	-18.3212
祡	-18.3212
豖	-18.3212
黗	-18.3212
蔪	-18.3212
ཏ	-18.3212
㚻	-18.3212
奲	-18.3212
嵵	-18.3212
曱	-18.3212
欅	-18.3212
狉	-18.3212
碄	-18.3212
蓈	-18.3212
蠎	-18.3212
隄	-18.3212
검	-18.3212
곽	-18.3212
啹	-18.3212
栧	-18.3212
聨	-18.3212
ฮ	-18.3212
桭	-18.3212
浺	-18.3212
鑽	-18.3212
鞻	-18.3212
湱	-18.3212
軵	-18.3212
鶫	-18.3212
漒	-18.3212
矐	-18.3212
禝	-18.3212
紆	-18.3212
緛	-18.3212
雲	-18.3212
뉴	-18.3212
泋	-18.3212
첩	-18.3212
奵	-18.3212
彨	-18.3212
塡	-18.3212
晐	-18.3212
稒	-18.3212
箤	-18.3212
詎	-18.3212
軘	-18.3212
韾	-18.3212
宖	-18.3212
砲	-18.3212
藾	-18.3212
噊	-18.3212
幾	-18.3212
驪	-18.3212
叕	-18.3212
朣	-18.3212
楕	-18.3212
Վ	-18.3213
湠	-18.3213
餭	-18.3213
ẫ	-18.3213
寜	-18.3213
乹	-18.3213
儢	-18.3213
卹	-18.3213
嗮	-18.3213
蕀	-18.3213
蝔	-18.3213
趮	-18.3213
颰	-18.3213
랬	-18.3213
偩	-18.3213
約	-18.3213
鄦	-18.3213
襾	-18.3213
̍	-18.3213
奌	-18.3213
詵	-18.3213
澯	-18.3213
羬	-18.3213
葄	-18.3213
ཟ	-18.3213
ម	-18.3213
ស	-18.3213
嵰	-18.3213
椼	-18.3213
珬	-18.3213
禗	-18.3213
Հ	-18.3213
岮	-18.3213
飔	-18.3213
勢	-18.3213
彑	-18.3213
杍	-18.3213
綡	-18.3213
羆	-18.3213
喩	-18.3213
絼	-18.3213
鞜	-18.3213
幭	-18.3213
袡	-18.3213
園	-18.3213
墪	-18.3213
黃	-18.3213
	-18.3213
笩	-18.3213
顑	-18.3213
휘	-18.3213
亾	-18.3213
嬔	-18.3213
䈪	-18.3213
蜹	-18.3213
誋	-18.3213
榚	-18.3213
樐	-18.3213
秙	-18.3213
課	-18.3213
賝	-18.3213
커	-18.3214
椂	-18.3214
媰	-18.3214
დ	-18.3214
ტ	-18.3214
ზ	-18.3214
詌	-18.3214
輏	-18.3214
汦	-18.3214
Ą	-18.3214
誔	-18.3214
鹝	-18.3214
儃	-18.3214
畢	-18.3214
蠸	-18.3214
潵	-18.3215
⺮	-18.3215
蓕	-18.3215
評	-18.3215
硔	-18.3215
밿	-18.3215
笲	-18.3215
譐	-18.3215
凂	-18.3215
絭	-18.3215
ྲ	-18.3215
ფ	-18.3215
熕	-18.3216
짝	-18.3216
訓	-18.3217
叅	-18.3217
鬡	-18.3218
咴	-18.3219
ত	-18.3219
	-18.3221
	-18.3225
厯	-18.3227
	-18.3253
़	-18.5174
इ	-18.5182
暢	-18.5192
砐	-18.5196
逪	-18.5202
麎	-18.5204
飲	-18.5204
匁	-18.5205
ș	-18.5206
벽	-18.5206
虷	-18.5207
贏	-18.5207
狊	-18.5207
굴	-18.5207
鐴	-18.5208
護	-18.5208
책	-18.5208
柕	-18.5208
飝	-18.5208
ĕ	-18.5208
層	-18.5208
軓	-18.5208
┱	-18.5208
蛦	-18.5208
灢	-18.5209
試	-18.5209
격	-18.5209
ய	-18.5209
패	-18.5209
˥	-18.5209
痑	-18.5209
蠬	-18.5209
㜲	-18.5209
栺	-18.5209
豰	-18.5209
櫄	-18.521
Ἑ	-18.521
蔏	-18.521
蛖	-18.521
謹	-18.521
Ί	-18.521
縒	-18.521
蕱	-18.521
堄	-18.521
鮤	-18.521
樀	-18.521
溒	-18.521
칠	-18.521
彔	-18.521
慄	-18.521
決	-18.521
熭	-18.521
狑	-18.521
య	-18.521
儓	-18.521
堘	-18.521
槾	-18.521
蘐	-18.521
儅	-18.521
蜫	-18.521
責	-18.521
捵	-18.521
昛	-18.521
蜦	-18.521
裧	-18.521
됐	-18.521
檆	-18.521
ழ	-18.521
規	-18.521
ฬ	-18.521
鵣	-18.521
鈱	-18.521
త	-18.5211
禓	-18.5211
氼	-18.5211
碅	-18.5211
蕳	-18.5211
蘹	-18.5211
弌	-18.5211
乀	-18.5211
玝	-18.5211
驗	-18.5211
腁	-18.5211
撶	-18.5211
猧	-18.5211
癊	-18.5211
聦	-18.5211
褗	-18.5211
覸	-18.5211
케	-18.5211
睘	-18.5211
蚷	-18.5211
夅	-18.5211
燓	-18.5211
	-18.5211
楏	-18.5211
穪	-18.5211
螑	-18.5211
腤	-18.5211
謻	-18.5211
㧟	-18.5211
涇	-18.5211
珱	-18.5211
籸	-18.5211
歐	-18.5211
眆	-18.5211
軍	-18.5211
⊆	-18.5211
溭	-18.5211
疪	-18.5211
蜐	-18.5211
豅	-18.5211
錯	-18.5211
춤	-18.5211
巺	-18.5211
彣	-18.5211
釺	-18.5211
ڑ	-18.5211
嫓	-18.5211
歟	-18.5211
覥	-18.5211
逫	-18.5211
녹	-18.5211
링	-18.5211
爫	-18.5211
猔	-18.5211
彶	-18.5211
枺	-18.5211
褱	-18.5211
軩	-18.5211
镼	-18.5211
塁	-18.5211
汵	-18.5211
鏘	-18.5211
	-18.5211
খ	-18.5211
呇	-18.5211
嵮	-18.5211
悐	-18.5211
狢	-18.5211
畬	-18.5211
菣	-18.5211
鍄	-18.5211
飋	-18.5211
깊	-18.5211
軄	-18.5211
‭	-18.5211
匷	-18.5211
喢	-18.5211
堳	-18.5211
緇	-18.5211
訫	-18.5211
櫢	-18.5211
䬪	-18.5211
兪	-18.5211
睰	-18.5211
鐖	-18.5211
鳥	-18.5211
鵴	-18.5211
㹟	-18.5211
茓	-18.5211
黺	-18.5211
쪽	-18.5211
䲗	-18.5211
亖	-18.5211
叴	-18.5211
泏	-18.5211
疿	-18.5211
鄪	-18.5211
鰏	-18.5211
鶯	-18.5211
Ґ	-18.5211
嗕	-18.5211
帋	-18.5211
糰	-18.5211
ڪ	-18.5211
侭	-18.5211
嚁	-18.5211
埦	-18.5211
媃	-18.5211
嵹	-18.5211
暡	-18.5211
瘮	-18.5211
磍	-18.5211
磪	-18.5211
繘	-18.5211
臷	-18.5211
菙	-18.5211
誽	-18.5211
貟	-18.5211
踎	-18.5211
酄	-18.5211
騵	-18.5211
鷴	-18.5211
鼵	-18.5211
筆	-18.5211
憴	-18.5212
鱴	-18.5212
嫢	-18.5212
忓	-18.5212
棤	-18.5212
氣	-18.5212
穤	-18.5212
蓀	-18.5212
誺	-18.5212
谸	-18.5212
趖	-18.5212
躛	-18.5212
邤	-18.5212
鍋	-18.5212
鰴	-18.5212
鼄	-18.5212
輆	-18.5212
⺈	-18.5212
啛	-18.5212
堗	-18.5212
褅	-18.5212
鋠	-18.5212
좀	-18.5212
ګ	-18.5212
吺	-18.5212
徏	-18.5212
慤	-18.5212
畼	-18.5212
糄	-18.5212
聼	-18.5212
藴	-18.5212
襭	-18.5212
趎	-18.5212
醘	-18.5212
陖	-18.5212
餲	-18.5212
鴎	-18.5212
齇	-18.5212
唞	-18.5212
烆	-18.5212
鋀	-18.5212
鼸	-18.5212
嫟	-18.5212
峮	-18.5212
抰	-18.5212
粋	-18.5212
鐣	-18.5212
빌	-18.5212
䣥	-18.5212
嫑	-18.5212
屟	-18.5212
態	-18.5212
憻	-18.5212
曄	-18.5212
珇	-18.5212
箛	-18.5212
絑	-18.5212
脝	-18.5212
莔	-18.5212
蝪	-18.5212
蹾	-18.5212
龖	-18.5212
랩	-18.5212
왔	-18.5212
﨑	-18.5212
‮	-18.5212
爤	-18.5212
竸	-18.5212
萭	-18.5212
蘽	-18.5212
鬠	-18.5212
䥖	-18.5212
囇	-18.5212
垪	-18.5212
焥	-18.5212
鰮	-18.5212
ѓ	-18.5212
側	-18.5212
吢	-18.5212
啽	-18.5212
坥	-18.5212
娗	-18.5212
徶	-18.5212
捬	-18.5212
擔	-18.5212
洰	-18.5212
瘇	-18.5212
癒	-18.5212
礝	-18.5212
祳	-18.5212
禌	-18.5212
笿	-18.5212
箳	-18.5212
簻	-18.5212
紡	-18.5212
緉	-18.5212
罯	-18.5212
苼	-18.5212
萲	-18.5212
蟃	-18.5212
轠	-18.5212
銒	-18.5212
驝	-18.5212
鶞	-18.5212
ꓰ	-18.5212
뎌	-18.5212
빙	-18.5212
쇼	-18.5212
탈	-18.5212
冃	-18.5212
嬊	-18.5212
忯	-18.5212
澋	-18.5212
煏	-18.5212
玪	-18.5212
瑿	-18.5212
鎲	-18.5212
驐	-18.5212
鯣	-18.5212
팅	-18.5212
ʧ	-18.5212
幮	-18.5212
栵	-18.5212
椔	-18.5212
沰	-18.5212
硥	-18.5212
襓	-18.5212
襘	-18.5212
躈	-18.5212
躢	-18.5212
鏾	-18.5212
鐀	-18.5212
闥	-18.5212
隬	-18.5212
驍	-18.5212
겁	-18.5212
껏	-18.5212
恑	-18.5212
撊	-18.5212
膱	-18.5212
鱙	-18.5212
ʀ	-18.5212
Ἔ	-18.5212
抍	-18.5212
掍	-18.5212
藒	-18.5212
誳	-18.5212
谾	-18.5212
豝	-18.5212
帓	-18.5212
煀	-18.5212
噄	-18.5212
囐	-18.5212
尥	-18.5212
峝	-18.5212
琙	-18.5212
琣	-18.5212
矂	-18.5212
稰	-18.5212
褯	-18.5212
豘	-18.5212
鰜	-18.5212
텐	-18.5212
厗	-18.5212
哵	-18.5212
埍	-18.5212
玂	-18.5212
笰	-18.5212
肕	-18.5212
閺	-18.5212
멈	-18.5212
刅	-18.5212
剠	-18.5212
忕	-18.5212
抇	-18.5212
柍	-18.5212
汘	-18.5212
茡	-18.5212
茪	-18.5212
蛷	-18.5212
輖	-18.5212
頯	-18.5212
髇	-18.5212
鱃	-18.5212
멋	-18.5212
뱅	-18.5212
馦	-18.5212
ặ	-18.5212
㟖	-18.5212
糀	-18.5212
軺	-18.5212
맥	-18.5212
噃	-18.5212
佫	-18.5212
圝	-18.5212
墶	-18.5212
寎	-18.5212
寶	-18.5212
庩	-18.5212
慒	-18.5212
懝	-18.5212
揟	-18.5212
敹	-18.5212
皻	-18.5212
簫	-18.5212
蠦	-18.5212
袮	-18.5212
趭	-18.5212
輄	-18.5212
轂	-18.5212
郍	-18.5212
醖	-18.5212
醠	-18.5212
騌	-18.5212
묘	-18.5212
礟	-18.5212
鮷	-18.5212
ץ	-18.5212
棿	-18.5212
莁	-18.5212
轉	-18.5212
빅	-18.5212
촌	-18.5212
瀨	-18.5212
瀽	-18.5212
灨	-18.5212
獕	-18.5212
膉	-18.5212
蘝	-18.5212
酨	-18.5212
釡	-18.5212
髞	-18.5212
蜽	-18.5212
∗	-18.5212
別	-18.5212
睋	-18.5212
엘	-18.5212
ӣ	-18.5212
⋁	-18.5212
┑	-18.5212
刴	-18.5212
勛	-18.5212
嘕	-18.5212
墰	-18.5212
巤	-18.5212
撎	-18.5212
灓	-18.5212
燌	-18.5212
珒	-18.5212
莊	-18.5212
蔱	-18.5212
誷	-18.5212
釯	-18.5212
鶿	-18.5212
	-18.5212
ཤ	-18.5212
䲠	-18.5212
刌	-18.5212
塐	-18.5212
顜	-18.5212
驦	-18.5212
鮜	-18.5212
儑	-18.5212
餢	-18.5212
슨	-18.5212
ฎ	-18.5212
រ	-18.5212
┝	-18.5212
寚	-18.5212
屓	-18.5212
彞	-18.5212
旓	-18.5212
朖	-18.5212
滰	-18.5212
獻	-18.5212
縹	-18.5212
耂	-18.5212
芿	-18.5212
蓫	-18.5212
蝛	-18.5212
諹	-18.5212
謵	-18.5212
貁	-18.5212
韕	-18.5212
餁	-18.5212
眒	-18.5212
萿	-18.5212
∃	-18.5212
哴	-18.5212
婘	-18.5212
弻	-18.5212
梬	-18.5212
稥	-18.5212
紱	-18.5212
綬	-18.5212
蜵	-18.5212
韓	-18.5212
飃	-18.5212
桋	-18.5212
減	-18.5212
幎	-18.5212
դ	-18.5212
ܐ	-18.5212
噇	-18.5212
執	-18.5212
脠	-18.5212
艷	-18.5212
訥	-18.5212
鮭	-18.5212
鱝	-18.5212
麵	-18.5212
烚	-18.5212
硱	-18.5212
鶻	-18.5212
칼	-18.5212
躱	-18.5212
ɵ	-18.5212
搳	-18.5212
溡	-18.5212
獜	-18.5212
蘪	-18.5212
蠮	-18.5212
褻	-18.5212
鰋	-18.5212
㴓	-18.5213
埮	-18.5213
摫	-18.5213
樃	-18.5213
毞	-18.5213
潫	-18.5213
濿	-18.5213
萓	-18.5213
詇	-18.5213
陓	-18.5213
깐	-18.5213
몽	-18.5213
坅	-18.5213
仦	-18.5213
劇	-18.5213
秠	-18.5213
踤	-18.5213
飶	-18.5213
鷄	-18.5213
跓	-18.5213
叀	-18.5213
娔	-18.5213
漅	-18.5213
蘣	-18.5213
駣	-18.5213
哃	-18.5213
琸	-18.5213
┩	-18.5213
徠	-18.5213
捇	-18.5213
涐	-18.5213
苂	-18.5213
蒛	-18.5213
挭	-18.5213
甂	-18.5213
襋	-18.5213
懥	-18.5213
酼	-18.5213
勄	-18.5213
墖	-18.5213
婖	-18.5213
犉	-18.5213
獊	-18.5213
葼	-18.5213
鐅	-18.5213
높	-18.5213
凅	-18.5213
酙	-18.5213
鑠	-18.5213
樜	-18.5213
溔	-18.5213
臄	-18.5213
	-18.5213
沯	-18.5213
岥	-18.5213
袣	-18.5213
謔	-18.5213
釗	-18.5213
顨	-18.5213
珨	-18.5213
蜏	-18.5213
	-18.5213
巄	-18.5213
娍	-18.5214
娳	-18.5214
縣	-18.5214
荌	-18.5214
愷	-18.5214
蛵	-18.5214
ۋ	-18.5214
ཐ	-18.5214
萟	-18.5214
阺	-18.5214
鱢	-18.5214
균	-18.5214
	-18.5214
㬎	-18.5214
Ὀ	-18.5214
灡	-18.5214
盪	-18.5214
䆽	-18.5214
赿	-18.5215
盧	-18.5215
嵿	-18.5215
觻	-18.5215
緃	-18.5215
듀	-18.5215
摝	-18.5215
裣	-18.5215
চ	-18.5215
繿	-18.5216
愰	-18.5216
袥	-18.5216
鸈	-18.5216
奧	-18.5216
監	-18.5216
膞	-18.5216
ٌ	-18.5217
祶	-18.5218
箚	-18.5218
陝	-18.5218
莦	-18.5219
দ	-18.5219
	-18.522
ᨥ	-18.522
	-18.5221
韱	-18.5222
悳	-18.5222
ἀ	-18.5223
ὴ	-18.5225
	-18.5227
豏	-18.523
	-18.5232
熖	-18.5242
	-18.5261
घ	-18.7662
杽	-18.7693
उ	-18.7695
Ľ	-18.7701
Į	-18.7702
Ǧ	-18.7703
Ŝ	-18.7705
┷	-18.7705
訆	-18.7706
ὺ	-18.7706
撔	-18.7706
榺	-18.7706
Ħ	-18.7706
닿	-18.7706
쳤	-18.7706
	-18.7707
Ġ	-18.7707
祙	-18.7707
Ē	-18.7707
雽	-18.7707
琟	-18.7708
Ė	-18.7708
殽	-18.7708
領	-18.7708
劮	-18.7708
숲	-18.7708
	-18.7708
玐	-18.7708
狟	-18.7708
륜	-18.7708
騐	-18.7708
ந	-18.7708
盡	-18.7708
Ě	-18.7708
蘀	-18.7709
賟	-18.7709
ヮ	-18.7709
凾	-18.7709
玧	-18.7709
簎	-18.7709
報	-18.7709
尋	-18.7709
潧	-18.7709
ⲁ	-18.7709
溚	-18.7709
脧	-18.7709
讓	-18.7709
飫	-18.7709
鵗	-18.7709
鶅	-18.7709
↖	-18.7709
澅	-18.7709
腂	-18.7709
⺌	-18.7709
搣	-18.7709
眂	-18.7709
ీ	-18.771
Ἡ	-18.771
椘	-18.771
迠	-18.771
뒤	-18.771
ి	-18.771
揗	-18.771
揚	-18.771
辦	-18.771
榙	-18.771
潣	-18.771
兒	-18.771
紸	-18.771
彿	-18.771
撗	-18.771
煥	-18.771
鬳	-18.771
蜔	-18.771
觀	-18.771
飦	-18.771
養	-18.771
饗	-18.771
	-18.771
慾	-18.771
జ	-18.771
呯	-18.771
穩	-18.771
鶩	-18.771
伭	-18.771
畨	-18.771
蹕	-18.771
潶	-18.771
బ	-18.771
హ	-18.771
┦	-18.771
櫴	-18.771
糩	-18.771
遻	-18.771
욕	-18.771
囒	-18.771
峔	-18.771
柖	-18.771
脕	-18.771
刕	-18.771
Í	-18.7711
ʿ	-18.7711
ક	-18.7711
冎	-18.7711
旑	-18.7711
昤	-18.7711
逘	-18.7711
閞	-18.7711
척	-18.7711
卪	-18.7711
峊	-18.7711
愖	-18.7711
湪	-18.7711
綃	-18.7711
仈	-18.7711
劑	-18.7711
宎	-18.7711
嵔	-18.7711
庅	-18.7711
篈	-18.7711
	-18.7711
	-18.7711
郹	-18.7711
阭	-18.7711
렉	-18.7711
렌	-18.7711
⋈	-18.7711
慶	-18.7711
烒	-18.7711
覶	-18.7711
鵅	-18.7711
臒	-18.7711
ᅡ	-18.7711
▆	-18.7711
冩	-18.7711
庻	-18.7711
憞	-18.7711
溛	-18.7711
贑	-18.7711
ֲ	-18.7711
祑	-18.7711
萷	-18.7711
닉	-18.7711
凥	-18.7711
欞	-18.7711
ˀ	-18.7711
ᅥ	-18.7711
䀗	-18.7711
勝	-18.7711
寷	-18.7711
懀	-18.7711
棥	-18.7711
溋	-18.7711
灷	-18.7711
觲	-18.7711
銔	-18.7711
鳰	-18.7711
麔	-18.7711
㮖	-18.7711
峕	-18.7711
偝	-18.7711
冣	-18.7711
萰	-18.7711
怾	-18.7711
曣	-18.7711
烶	-18.7711
睮	-18.7711
蕏	-18.7711
迌	-18.7711
鑾	-18.7711
☎	-18.7711
娰	-18.7711
蜲	-18.7711
郻	-18.7711
摼	-18.7711
ゎ	-18.7711
匟	-18.7711
啝	-18.7711
嗀	-18.7711
壽	-18.7711
憟	-18.7711
擳	-18.7711
欘	-18.7711
漧	-18.7711
盿	-18.7711
筍	-18.7711
纉	-18.7711
葉	-18.7711
踕	-18.7711
鏣	-18.7711
鴓	-18.7711
馢	-18.7711
埣	-18.7711
ʕ	-18.7711
Ҷ	-18.7711
俕	-18.7711
崥	-18.7711
崹	-18.7711
嵦	-18.7711
猵	-18.7711
珻	-18.7711
礋	-18.7711
臐	-18.7711
訜	-18.7711
蹪	-18.7711
骽	-18.7711
택	-18.7711
	-18.7711
㘧	-18.7711
氻	-18.7711
鏗	-18.7711
ḫ	-18.7711
侸	-18.7711
僓	-18.7711
匯	-18.7711
墢	-18.7711
寉	-18.7711
捀	-18.7711
摏	-18.7711
淿	-18.7711
溝	-18.7711
瀢	-18.7711
熰	-18.7711
爋	-18.7711
瞱	-18.7711
稕	-18.7711
篅	-18.7711
繵	-18.7711
莇	-18.7711
蓸	-18.7711
藼	-18.7711
誙	-18.7711
鉓	-18.7711
闃	-18.7711
颾	-18.7711
鷔	-18.7711
뼉	-18.7711
譯	-18.7711
龘	-18.7711
ᠭ	-18.7711
舖	-18.7711
־	-18.7711
亄	-18.7711
嶾	-18.7711
氁	-18.7711
璒	-18.7711
砏	-18.7711
砱	-18.7711
簬	-18.7711
跿	-18.7711
鈋	-18.7711
鑵	-18.7711
婩	-18.7712
巓	-18.7712
螌	-18.7712
鼝	-18.7712
댈	-18.7712
㶷	-18.7712
濴	-18.7712
瘚	-18.7712
鳛	-18.7712
咞	-18.7712
嘨	-18.7712
孷	-18.7712
尵	-18.7712
嶨	-18.7712
惡	-18.7712
懤	-18.7712
椱	-18.7712
檙	-18.7712
泴	-18.7712
淊	-18.7712
瀳	-18.7712
爗	-18.7712
獱	-18.7712
瑵	-18.7712
礶	-18.7712
諯	-18.7712
跠	-18.7712
鉼	-18.7712
霃	-18.7712
顣	-18.7712
顳	-18.7712
驞	-18.7712
鸐	-18.7712
능	-18.7712
믹	-18.7712
틴	-18.7712
	-18.7712
㜸	-18.7712
墏	-18.7712
慸	-18.7712
瑃	-18.7712
螆	-18.7712
鼊	-18.7712
꼬	-18.7712
唥	-18.7712
蓒	-18.7712
ʐ	-18.7712
⢌	-18.7712
ゑ	-18.7712
僤	-18.7712
厽	-18.7712
塴	-18.7712
忣	-18.7712
槶	-18.7712
歰	-18.7712
灠	-18.7712
牑	-18.7712
窡	-18.7712
篍	-18.7712
糎	-18.7712
褽	-18.7712
詞	-18.7712
謯	-18.7712
譝	-18.7712
鏙	-18.7712
霑	-18.7712
韥	-18.7712
顐	-18.7712
쁘	-18.7712
	-18.7712
唀	-18.7712
籊	-18.7712
纗	-18.7712
胮	-18.7712
釄	-18.7712
Ҧ	-18.7712
劶	-18.7712
勏	-18.7712
嵤	-18.7712
揈	-18.7712
湯	-18.7712
蒒	-18.7712
蜟	-18.7712
觟	-18.7712
詷	-18.7712
賗	-18.7712
酕	-18.7712
騺	-18.7712
鶆	-18.7712
黸	-18.7712
밖	-18.7712
啒	-18.7712
塣	-18.7712
娤	-18.7712
屘	-18.7712
嶣	-18.7712
憣	-18.7712
琋	-18.7712
睼	-18.7712
蒶	-18.7712
蚅	-18.7712
鶣	-18.7712
ނ	-18.7712
ރ	-18.7712
ಕ	-18.7712
್	-18.7712
᠋	-18.7712
㘰	-18.7712
㙉	-18.7712
㵂	-18.7712
䈢	-18.7712
䏝	-18.7712
兇	-18.7712
冺	-18.7712
劍	-18.7712
嘵	-18.7712
嚖	-18.7712
宐	-18.7712
尰	-18.7712
嵞	-18.7712
廰	-18.7712
慞	-18.7712
旪	-18.7712
杢	-18.7712
栯	-18.7712
梮	-18.7712
殶	-18.7712
毇	-18.7712
汎	-18.7712
泶	-18.7712
溕	-18.7712
滒	-18.7712
煛	-18.7712
熚	-18.7712
瓾	-18.7712
窙	-18.7712
篊	-18.7712
紂	-18.7712
終	-18.7712
纼	-18.7712
羜	-18.7712
芖	-18.7712
葟	-18.7712
蜤	-18.7712
蟞	-18.7712
蟩	-18.7712
袸	-18.7712
谉	-18.7712
貢	-18.7712
農	-18.7712
醤	-18.7712
鐝	-18.7712
韸	-18.7712
鯹	-18.7712
鼁	-18.7712
잃	-18.7712
	-18.7712
僟	-18.7712
哬	-18.7712
庤	-18.7712
廲	-18.7712
欏	-18.7712
苰	-18.7712
衃	-18.7712
諌	-18.7712
	-18.7712
ʤ	-18.7712
嫐	-18.7712
擽	-18.7712
熪	-18.7712
猑	-18.7712
虇	-18.7712
雥	-18.7712
飍	-18.7712
鯘	-18.7712
鼞	-18.7712
겐	-18.7712
샤	-18.7712
馧	-18.7712
թ	-18.7712
岰	-18.7712
嶹	-18.7712
瓵	-18.7712
祰	-18.7712
穐	-18.7712
芠	-18.7712
葐	-18.7712
踨	-18.7712
錺	-18.7712
颽	-18.7712
鴀	-18.7712
鼆	-18.7712
겼	-18.7712
놈	-18.7712
큐	-18.7712
틀	-18.7712
嘼	-18.7712
灱	-18.7712
痲	-18.7712
緰	-18.7712
鱋	-18.7712
鵋	-18.7712
鼶	-18.7712
㰦	-18.7712
妑	-18.7712
摲	-18.7712
潐	-18.7712
磒	-18.7712
縈	-18.7712
邌	-18.7712
飁	-18.7712
찍	-18.7712
	-18.7712
刏	-18.7712
埥	-18.7712
栮	-18.7712
蚏	-18.7712
黅	-18.7712
Ѯ	-18.7712
ძ	-18.7712
〢	-18.7712
偯	-18.7712
唗	-18.7712
塷	-18.7712
嶸	-18.7712
愂	-18.7712
憰	-18.7712
戱	-18.7712
晀	-18.7712
梘	-18.7712
殫	-18.7712
涾	-18.7712
濸	-18.7712
炵	-18.7712
犝	-18.7712
瓓	-18.7712
盄	-18.7712
瞖	-18.7712
紈	-18.7712
緋	-18.7712
緲	-18.7712
臽	-18.7712
茮	-18.7712
蘌	-18.7712
貹	-18.7712
躠	-18.7712
轙	-18.7712
迚	-18.7712
鉮	-18.7712
銾	-18.7712
預	-18.7712
鯩	-18.7712
떤	-18.7712
	-18.7712
	-18.7712
	-18.7712
	-18.7712
煆	-18.7712
鰡	-18.7712
Ὑ	-18.7712
〣	-18.7712
壙	-18.7712
殸	-18.7712
璄	-18.7712
皠	-18.7712
禈	-18.7712
罺	-18.7712
膫	-18.7712
裗	-18.7712
鵌	-18.7712
텔	-18.7712
풀	-18.7712
暳	-18.7712
̅	-18.7712
䱵	-18.7712
䳢	-18.7712
倷	-18.7712
姃	-18.7712
嶯	-18.7712
庰	-18.7712
敿	-18.7712
曖	-18.7712
曘	-18.7712
椈	-18.7712
澺	-18.7712
苃	-18.7712
菤	-18.7712
葧	-18.7712
蝦	-18.7712
覒	-18.7712
謍	-18.7712
逬	-18.7712
鋣	-18.7712
鐫	-18.7712
餠	-18.7712
鱽	-18.7712
鸼	-18.7712
늬	-18.7712
蔉	-18.7712
叒	-18.7712
栛	-18.7712
榳	-18.7712
牎	-18.7712
砛	-18.7712
蠄	-18.7712
პ	-18.7712
伇	-18.7712
佇	-18.7712
壿	-18.7712
妶	-18.7712
媐	-18.7712
媤	-18.7712
孆	-18.7712
桝	-18.7712
樶	-18.7712
漍	-18.7712
焟	-18.7712
磘	-18.7712
祄	-18.7712
箆	-18.7712
篜	-18.7712
緀	-18.7712
舚	-18.7712
蒁	-18.7712
蕧	-18.7712
虴	-18.7712
誚	-18.7712
鋾	-18.7712
頺	-18.7712
黖	-18.7712
뭘	-18.7712
빵	-18.7712
	-18.7712
奜	-18.7712
盵	-18.7712
腣	-18.7712
鍙	-18.7712
앤	-18.7712
傡	-18.7712
犳	-18.7712
腝	-18.7712
讛	-18.7712
邍	-18.7712
駮	-18.7712
鳧	-18.7712
鸖	-18.7712
敀	-18.7712
鏒	-18.7712
〩	-18.7712
妧	-18.7712
櫲	-18.7712
Ż	-18.7712
仩	-18.7712
刄	-18.7712
尭	-18.7712
恎	-18.7712
柫	-18.7712
蚻	-18.7712
蛨	-18.7712
蛫	-18.7712
遷	-18.7712
霠	-18.7712
饢	-18.7712
魀	-18.7712
鷳	-18.7712
欪	-18.7712
稏	-18.7712
螖	-18.7712
Ն	-18.7712
ཇ	-18.7712
ἴ	-18.7712
懻	-18.7712
捔	-18.7712
梛	-18.7712
牶	-18.7712
甈	-18.7712
縋	-18.7712
謫	-18.7712
鐙	-18.7712
勚	-18.7712
凐	-18.7712
ܪ	-18.7712
ປ	-18.7712
嗊	-18.7712
塓	-18.7712
忴	-18.7712
掵	-18.7712
湀	-18.7712
瀯	-18.7712
熻	-18.7712
狇	-18.7712
緡	-18.7712
羢	-18.7712
詘	-18.7712
謜	-18.7712
譣	-18.7712
貴	-18.7712
賌	-18.7712
辷	-18.7712
銅	-18.7712
鍗	-18.7712
麯	-18.7712
엑	-18.7712
홀	-18.7712
畆	-18.7712
峴	-18.7713
曔	-18.7713
漃	-18.7713
潊	-18.7713
甐	-18.7713
霋	-18.7713
霬	-18.7713
鴺	-18.7713
鷜	-18.7713
燇	-18.7713
ړ	-18.7713
㑹	-18.7713
凗	-18.7713
呝	-18.7713
漢	-18.7713
畣	-18.7713
胑	-18.7713
贊	-18.7713
轚	-18.7713
鄛	-18.7713
鈅	-18.7713
荁	-18.7713
驏	-18.7713
鸁	-18.7713
	-18.7713
荮	-18.7713
亣	-18.7713
҉	-18.7713
ྟ	-18.7713
ក	-18.7713
ី	-18.7713
្	-18.7713
嶀	-18.7713
彛	-18.7713
櫡	-18.7713
盙	-18.7713
箹	-18.7713
訮	-18.7713
鄧	-18.7713
鶟	-18.7713
鈩	-18.7713
饉	-18.7713
鮒	-18.7713
홉	-18.7713
柧	-18.7713
槴	-18.7713
貱	-18.7713
澞	-18.7713
湙	-18.7713
ս	-18.7713
‟	-18.7713
┥	-18.7713
樼	-18.7713
紿	-18.7713
綄	-18.7713
蟸	-18.7713
覉	-18.7713
逥	-18.7713
꺾	-18.7713
牥	-18.7713
Ĉ	-18.7713
塯	-18.7713
襷	-18.7713
鈯	-18.7713
鴽	-18.7713
	-18.7713
雃	-18.7713
╨	-18.7713
膲	-18.7713
儀	-18.7713
吳	-18.7713
圚	-18.7713
忂	-18.7713
異	-18.7713
籈	-18.7713
蝄	-18.7713
譅	-18.7713
譱	-18.7713
鄉	-18.7713
畄	-18.7714
偄	-18.7714
僛	-18.7714
獎	-18.7714
綼	-18.7714
葪	-18.7714
衘	-18.7714
鏕	-18.7714
荳	-18.7714
	-18.7714
	-18.7714
纐	-18.7714
ʔ	-18.7714
	-18.7714
	-18.7714
覮	-18.7714
䦆	-18.7714
শ	-18.7714
錑	-18.7715
碩	-18.7715
訊	-18.7715
Ă	-18.7715
奝	-18.7715
廘	-18.7715
褞	-18.7715
鎍	-18.7715
猦	-18.7715
礑	-18.7715
議	-18.7715
鐽	-18.7715
秊	-18.7715
甋	-18.7715
艧	-18.7715
輑	-18.7715
䓕	-18.7715
橝	-18.7715
慿	-18.7715
揌	-18.7715
咜	-18.7715
蜠	-18.7716
楇	-18.7716
	-18.7716
勧	-18.7716
頓	-18.7716
裭	-18.7716
夣	-18.7717
髄	-18.7717
ʈ	-18.7717
ई	-18.7717
	-18.7717
츄	-18.7717
誻	-18.7717
잉	-18.7717
	-18.7718
菒	-18.7718
ᾶ	-18.7718
橉	-18.7718
煪	-18.7718
熅	-18.7719
ὸ	-18.7719
鈼	-18.7719
雵	-18.772
卄	-18.772
嵑	-18.7721
̀	-18.7721
桒	-18.7723
袑	-18.7723
	-18.7726
ʑ	-18.7728
嘇	-18.7728
萛	-18.773
ὶ	-18.7737
瀷	-18.7741
ौ	-19.0963
ॉ	-19.0983
Ķ	-19.103
ĵ	-19.103
Ń	-19.103
Ĩ	-19.1032
鍳	-19.1032
ǧ	-19.1033
妐	-19.1033
끌	-19.1034
붉	-19.1034
鋍	-19.1034
	-19.1035
Ơ	-19.1035
扵	-19.1036
Ŧ	-19.1036
廳	-19.1036
叞	-19.1037
積	-19.1037
鷢	-19.1037
縺	-19.1038
談	-19.1038
厜	-19.1038
拸	-19.1038
柦	-19.1038
帲	-19.1039
	-19.1039
猚	-19.104
簘	-19.104
鰥	-19.104
嬐	-19.104
緩	-19.104
贈	-19.104
ֱ	-19.104
筿	-19.104
炗	-19.1041
偣	-19.1041
冾	-19.1041
夠	-19.1041
巈	-19.1041
椃	-19.1041
	-19.1041
һ	-19.1041
侒	-19.1041
솔	-19.1041
勞	-19.1041
囕	-19.1041
眰	-19.1041
載	-19.1041
Ę	-19.1041
呧	-19.1041
펑	-19.1042
ٴ	-19.1042
㬪	-19.1042
刔	-19.1042
椯	-19.1042
湰	-19.1042
閇	-19.1042
꜃	-19.1042
ங	-19.1042
刾	-19.1042
權	-19.1042
鷏	-19.1042
Ñ	-19.1042
ⲟ	-19.1042
暩	-19.1042
걱	-19.1042
Ŋ	-19.1042
వ	-19.1042
㘎	-19.1042
殘	-19.1042
訐	-19.1042
囄	-19.1043
埞	-19.1043
橆	-19.1043
絟	-19.1043
羅	-19.1043
蓻	-19.1043
讑	-19.1043
邔	-19.1043
鮫	-19.1043
鶷	-19.1043
猅	-19.1043
飛	-19.1043
倉	-19.1043
烏	-19.1043
貲	-19.1043
ం	-19.1043
ᅩ	-19.1043
ᅮ	-19.1043
樆	-19.1043
淕	-19.1043
粌	-19.1043
ண	-19.1043
խ	-19.1043
ெ	-19.1043
亰	-19.1043
嵺	-19.1043
灮	-19.1043
窽	-19.1043
箼	-19.1043
紏	-19.1043
脫	-19.1043
醃	-19.1043
險	-19.1043
綜	-19.1043
勎	-19.1043
墇	-19.1043
Ռ	-19.1043
న	-19.1043
睸	-19.1043
閽	-19.1043
醫	-19.1043
杋	-19.1044
梸	-19.1044
蝳	-19.1044
լ	-19.1044
仢	-19.1044
弪	-19.1044
弿	-19.1044
榢	-19.1044
硲	-19.1044
秜	-19.1044
窼	-19.1044
菬	-19.1044
蔰	-19.1044
諠	-19.1044
譩	-19.1044
遠	-19.1044
餝	-19.1044
萅	-19.1044
塸	-19.1044
枎	-19.1044
荓	-19.1044
呅	-19.1044
ङ	-19.1044
ே	-19.1044
ై	-19.1044
嬁	-19.1044
岯	-19.1044
幖	-19.1044
瀪	-19.1044
簡	-19.1044
茠	-19.1044
틸	-19.1044
朌	-19.1044
朙	-19.1044
欇	-19.1044
璍	-19.1044
絲	-19.1044
똥	-19.1044
䰟	-19.1044
岡	-19.1044
懸	-19.1044
熡	-19.1044
軟	-19.1044
찢	-19.1044
힐	-19.1044
鍿	-19.1044
ɻ	-19.1044
∘	-19.1044
凣	-19.1044
灎	-19.1044
獽	-19.1044
腟	-19.1044
萡	-19.1044
薼	-19.1044
藰	-19.1044
錇	-19.1044
雧	-19.1044
戝	-19.1044
瓫	-19.1044
仭	-19.1044
艌	-19.1044
璷	-19.1044
蟲	-19.1044
顏	-19.1044
鳵	-19.1044
鶔	-19.1044
鶝	-19.1044
渂	-19.1044
摖	-19.1044
覭	-19.1044
ᠣ	-19.1044
ᠯ	-19.1044
㙍	-19.1044
傰	-19.1044
潒	-19.1044
炑	-19.1044
縱	-19.1044
翢	-19.1044
臋	-19.1044
蝏	-19.1044
鄭	-19.1044
鶪	-19.1044
鷒	-19.1044
픽	-19.1044
偋	-19.1044
傂	-19.1044
囩	-19.1044
崨	-19.1044
嵥	-19.1044
弣	-19.1044
惥	-19.1044
洷	-19.1044
酜	-19.1044
魻	-19.1044
탑	-19.1044
夛	-19.1045
繑	-19.1045
芵	-19.1045
ꕘ	-19.1045
룹	-19.1045
佡	-19.1045
幍	-19.1045
桺	-19.1045
鶭	-19.1045
Ô	-19.1045
ަ	-19.1045
ާ	-19.1045
ড	-19.1045
ᅳ	-19.1045
ᠢ	-19.1045
ὀ	-19.1045
╟	-19.1045
䕻	-19.1045
乄	-19.1045
僋	-19.1045
儩	-19.1045
嬓	-19.1045
怞	-19.1045
拹	-19.1045
挧	-19.1045
撽	-19.1045
棗	-19.1045
椵	-19.1045
橋	-19.1045
檓	-19.1045
濔	-19.1045
犲	-19.1045
疧	-19.1045
碤	-19.1045
確	-19.1045
禐	-19.1045
禶	-19.1045
秞	-19.1045
稛	-19.1045
笂	-19.1045
胣	-19.1045
蕥	-19.1045
薍	-19.1045
薻	-19.1045
蚲	-19.1045
訛	-19.1045
諛	-19.1045
諽	-19.1045
讍	-19.1045
辝	-19.1045
釼	-19.1045
鞥	-19.1045
鯋	-19.1045
객	-19.1045
확	-19.1045
鋻	-19.1045
玾	-19.1045
钂	-19.1045
Þ	-19.1045
儰	-19.1045
埖	-19.1045
煉	-19.1045
靅	-19.1045
Ҽ	-19.1045
ҽ	-19.1045
Ҿ	-19.1045
ҿ	-19.1045
䲢	-19.1045
乊	-19.1045
亽	-19.1045
嵏	-19.1045
幣	-19.1045
捹	-19.1045
斦	-19.1045
槬	-19.1045
毧	-19.1045
瓗	-19.1045
籜	-19.1045
罤	-19.1045
藘	-19.1045
蘄	-19.1045
跥	-19.1045
遀	-19.1045
酈	-19.1045
鑹	-19.1045
턱	-19.1045
鰞	-19.1045
鱡	-19.1045
圛	-19.1045
抪	-19.1045
殔	-19.1045
籭	-19.1045
臇	-19.1045
폰	-19.1045
僐	-19.1045
ळ	-19.1045
ẻ	-19.1045
ヾ	-19.1045
䞒	-19.1045
僁	-19.1045
埓	-19.1045
婸	-19.1045
岎	-19.1045
幃	-19.1045
扸	-19.1045
抌	-19.1045
捾	-19.1045
揘	-19.1045
旊	-19.1045
欮	-19.1045
渇	-19.1045
猭	-19.1045
瞘	-19.1045
瞛	-19.1045
稟	-19.1045
窏	-19.1045
蒅	-19.1045
蓗	-19.1045
薧	-19.1045
藮	-19.1045
觓	-19.1045
諈	-19.1045
讝	-19.1045
軲	-19.1045
鑙	-19.1045
雴	-19.1045
飵	-19.1045
饂	-19.1045
饻	-19.1045
鼿	-19.1045
냥	-19.1045
딩	-19.1045
뻪	-19.1045
짱	-19.1045
페	-19.1045
	-19.1045
	-19.1045
嵠	-19.1045
棝	-19.1045
欨	-19.1045
蜛	-19.1045
霟	-19.1045
ᠤ	-19.1045
斣	-19.1045
炴	-19.1045
菢	-19.1045
奟	-19.1045
洓	-19.1045
淣	-19.1045
皘	-19.1045
臩	-19.1045
賞	-19.1045
汿	-19.1045
ʥ	-19.1045
ᗝ	-19.1045
♫	-19.1045
❖	-19.1045
ヽ	-19.1045
㑁	-19.1045
㴣	-19.1045
傗	-19.1045
剛	-19.1045
喗	-19.1045
嗇	-19.1045
嘾	-19.1045
囜	-19.1045
坆	-19.1045
幬	-19.1045
抐	-19.1045
搫	-19.1045
柵	-19.1045
檼	-19.1045
浖	-19.1045
淨	-19.1045
滖	-19.1045
獟	-19.1045
琓	-19.1045
璯	-19.1045
疅	-19.1045
皨	-19.1045
盃	-19.1045
窇	-19.1045
竓	-19.1045
竪	-19.1045
竾	-19.1045
臟	-19.1045
蚉	-19.1045
蟘	-19.1045
覬	-19.1045
賚	-19.1045
躘	-19.1045
軾	-19.1045
銡	-19.1045
鐜	-19.1045
霘	-19.1045
靐	-19.1045
頊	-19.1045
餴	-19.1045
騱	-19.1045
鯺	-19.1045
읍	-19.1045
콜	-19.1045
흐	-19.1045
勭	-19.1045
噮	-19.1045
礃	-19.1045
譶	-19.1045
鮵	-19.1045
麙	-19.1045
ನ	-19.1045
┨	-19.1045
☼	-19.1045
勼	-19.1045
喡	-19.1045
捰	-19.1045
攕	-19.1045
晵	-19.1045
暼	-19.1045
楍	-19.1045
榶	-19.1045
焪	-19.1045
狵	-19.1045
竳	-19.1045
謐	-19.1045
赯	-19.1045
錖	-19.1045
鞄	-19.1045
龒	-19.1045
켜	-19.1045
匒	-19.1045
喖	-19.1045
埱	-19.1045
夻	-19.1045
廗	-19.1045
拻	-19.1045
擟	-19.1045
毄	-19.1045
烞	-19.1045
焺	-19.1045
珆	-19.1045
盰	-19.1045
祪	-19.1045
膥	-19.1045
蠻	-19.1045
贕	-19.1045
躤	-19.1045
륙	-19.1045
밍	-19.1045
푸	-19.1045
	-19.1045
	-19.1045
	-19.1045
ɯ	-19.1045
̧	-19.1045
͡	-19.1045
ѕ	-19.1045
Ғ	-19.1045
Ҩ	-19.1045
ҩ	-19.1045
ް	-19.1045
ំ	-19.1045
ὰ	-19.1045
‡	-19.1045
⊃	-19.1045
✦	-19.1045
㕭	-19.1045
㠭	-19.1045
㠯	-19.1045
㤘	-19.1045
㦵	-19.1045
㩳	-19.1045
䆛	-19.1045
䑔	-19.1045
亂	-19.1045
儐	-19.1045
劆	-19.1045
啿	-19.1045
墽	-19.1045
壀	-19.1045
壨	-19.1045
奯	-19.1045
妜	-19.1045
妡	-19.1045
娚	-19.1045
寁	-19.1045
嵧	-19.1045
恀	-19.1045
愩	-19.1045
掔	-19.1045
暞	-19.1045
柌	-19.1045
梖	-19.1045
椲	-19.1045
槕	-19.1045
歁	-19.1045
歝	-19.1045
煍	-19.1045
煹	-19.1045
爈	-19.1045
爖	-19.1045
爭	-19.1045
瓐	-19.1045
痺	-19.1045
砊	-19.1045
磗	-19.1045
秮	-19.1045
秷	-19.1045
竩	-19.1045
筞	-19.1045
篻	-19.1045
簛	-19.1045
簝	-19.1045
籪	-19.1045
緂	-19.1045
繲	-19.1045
艖	-19.1045
菧	-19.1045
蓮	-19.1045
蕼	-19.1045
蘮	-19.1045
螛	-19.1045
襐	-19.1045
觠	-19.1045
豞	-19.1045
趜	-19.1045
蹥	-19.1045
軚	-19.1045
軻	-19.1045
釵	-19.1045
鈠	-19.1045
鉣	-19.1045
錔	-19.1045
闊	-19.1045
陃	-19.1045
陣	-19.1045
陥	-19.1045
隉	-19.1045
隱	-19.1045
霛	-19.1045
靄	-19.1045
頡	-19.1045
顈	-19.1045
駧	-19.1045
騬	-19.1045
騳	-19.1045
鱹	-19.1045
鳼	-19.1045
鸄	-19.1045
닐	-19.1045
듬	-19.1045
딱	-19.1045
떡	-19.1045
뽀	-19.1045
뽨	-19.1045
쌀	-19.1045
움	-19.1045
쥬	-19.1045
콩	-19.1045
쿨	-19.1045
푹	-19.1045
	-19.1045
	-19.1045
娝	-19.1045
睝	-19.1045
⋎	-19.1045
坈	-19.1045
媣	-19.1045
嬮	-19.1045
恏	-19.1045
樄	-19.1045
樢	-19.1045
玈	-19.1045
矒	-19.1045
纄	-19.1045
蓤	-19.1045
薃	-19.1045
蟙	-19.1045
齉	-19.1045
ಗ	-19.1045
ᠰ	-19.1045
⌡	-19.1045
儖	-19.1045
唨	-19.1045
啩	-19.1045
帾	-19.1045
庱	-19.1045
揦	-19.1045
爡	-19.1045
簊	-19.1045
萴	-19.1045
蘥	-19.1045
螏	-19.1045
訷	-19.1045
謕	-19.1045
跒	-19.1045
郰	-19.1045
閁	-19.1045
靔	-19.1045
靤	-19.1045
냐	-19.1045
밟	-19.1045
	-19.1045
娕	-19.1045
栤	-19.1045
眗	-19.1045
餣	-19.1045
ɱ	-19.1045
ղ	-19.1045
۱	-19.1045
ཛ	-19.1045
Ứ	-19.1045
₩	-19.1045
⌠	-19.1045
乷	-19.1045
儾	-19.1045
嘄	-19.1045
嚪	-19.1045
娋	-19.1045
孈	-19.1045
悂	-19.1045
摤	-19.1045
曓	-19.1045
澏	-19.1045
熞	-19.1045
狣	-19.1045
獓	-19.1045
璸	-19.1045
硡	-19.1045
磧	-19.1045
箌	-19.1045
蔛	-19.1045
藇	-19.1045
褼	-19.1045
請	-19.1045
鑤	-19.1045
餩	-19.1045
騹	-19.1045
鯟	-19.1045
랐	-19.1045
봄	-19.1045
옛	-19.1045
옷	-19.1045
죤	-19.1045
팀	-19.1045
┕	-19.1045
噺	-19.1045
聗	-19.1045
徻	-19.1045
榽	-19.1045
碒	-19.1045
蠝	-19.1045
邞	-19.1045
魵	-19.1045
뭣	-19.1045
玔	-19.1045
ɟ	-19.1045
Ց	-19.1045
ٽ	-19.1045
হ	-19.1045
ྤ	-19.1045
ྫ	-19.1045
ქ	-19.1045
ᠬ	-19.1045
ṗ	-19.1045
▊	-19.1045
〥	-19.1045
儎	-19.1045
刱	-19.1045
匧	-19.1045
匫	-19.1045
嚂	-19.1045
嚔	-19.1045
垗	-19.1045
婁	-19.1045
寕	-19.1045
慗	-19.1045
掅	-19.1045
摷	-19.1045
攈	-19.1045
泘	-19.1045
濭	-19.1045
瀡	-19.1045
燨	-19.1045
牠	-19.1045
癹	-19.1045
睄	-19.1045
砿	-19.1045
竘	-19.1045
綛	-19.1045
脭	-19.1045
苮	-19.1045
莮	-19.1045
萇	-19.1045
蒠	-19.1045
蛒	-19.1045
觸	-19.1045
譡	-19.1045
賖	-19.1045
賡	-19.1045
趆	-19.1045
迱	-19.1045
鄍	-19.1045
銖	-19.1045
鎧	-19.1045
霼	-19.1045
鞢	-19.1045
顓	-19.1045
鵡	-19.1045
鵱	-19.1045
鸚	-19.1045
黰	-19.1045
鼺	-19.1045
득	-19.1045
	-19.1045
ґ	-19.1045
吅	-19.1045
圵	-19.1045
寣	-19.1045
硶	-19.1045
莐	-19.1045
隡	-19.1045
霻	-19.1045
髰	-19.1045
딴	-19.1045
哸	-19.1045
鰪	-19.1045
Ћ	-19.1045
䴔	-19.1045
䴖	-19.1045
厞	-19.1045
嗋	-19.1045
媁	-19.1045
揻	-19.1045
攂	-19.1045
楜	-19.1045
殩	-19.1045
汣	-19.1045
矠	-19.1045
縞	-19.1045
繴	-19.1045
菺	-19.1045
虋	-19.1045
蟱	-19.1045
郱	-19.1045
鏆	-19.1045
髝	-19.1045
魊	-19.1045
굳	-19.1045
曂	-19.1045
緻	-19.1045
轈	-19.1045
須	-19.1045
塛	-19.1046
塳	-19.1046
蕩	-19.1046
ը	-19.1046
շ	-19.1046
ள	-19.1046
ཉ	-19.1046
ង	-19.1046
ប	-19.1046
ល	-19.1046
ᦺ	-19.1046
Ἅ	-19.1046
〧	-19.1046
岝	-19.1046
峺	-19.1046
怌	-19.1046
晭	-19.1046
檜	-19.1046
湽	-19.1046
漸	-19.1046
澰	-19.1046
睞	-19.1046
簥	-19.1046
糴	-19.1046
艒	-19.1046
蔳	-19.1046
裚	-19.1046
詙	-19.1046
話	-19.1046
貕	-19.1046
錎	-19.1046
錮	-19.1046
阥	-19.1046
麧	-19.1046
齳	-19.1046
땡	-19.1046
렸	-19.1046
	-19.1046
	-19.1046
걷	-19.1046
옆	-19.1046
ཅ	-19.1046
垽	-19.1046
寫	-19.1046
漝	-19.1046
濄	-19.1046
烸	-19.1046
犤	-19.1046
璔	-19.1046
縎	-19.1046
羀	-19.1046
翺	-19.1046
胏	-19.1046
謰	-19.1046
趡	-19.1046
跀	-19.1046
醓	-19.1046
鮕	-19.1046
鲓	-19.1046
맞	-19.1046
탄	-19.1046
	-19.1046
﨤	-19.1046
翧	-19.1046
槡	-19.1046
獑	-19.1046
Ќ	-19.1046
ќ	-19.1046
ց	-19.1046
ܘ	-19.1046
〨	-19.1046
刡	-19.1046
峖	-19.1046
彉	-19.1046
徣	-19.1046
楈	-19.1046
殯	-19.1046
汥	-19.1046
浹	-19.1046
瓆	-19.1046
疘	-19.1046
癝	-19.1046
秎	-19.1046
筫	-19.1046
粩	-19.1046
罆	-19.1046
苭	-19.1046
裇	-19.1046
諦	-19.1046
謳	-19.1046
蹃	-19.1046
輐	-19.1046
鈖	-19.1046
鐕	-19.1046
鮂	-19.1046
鶉	-19.1046
鸅	-19.1046
黫	-19.1046
芕	-19.1046
殞	-19.1046
秳	-19.1046
籅	-19.1046
堸	-19.1046
ฒ	-19.1046
岟	-19.1046
愡	-19.1046
痷	-19.1046
綰	-19.1046
緸	-19.1046
蔥	-19.1046
鍷	-19.1046
靽	-19.1046
접	-19.1046
徥	-19.1046
檢	-19.1046
鰙	-19.1046
윙	-19.1046
ʎ	-19.1046
ʛ	-19.1046
គ	-19.1046
▕	-19.1046
䏳	-19.1046
䘅	-19.1046
佲	-19.1046
偀	-19.1046
卻	-19.1046
啈	-19.1046
啎	-19.1046
坵	-19.1046
奩	-19.1046
徸	-19.1046
恔	-19.1046
揰	-19.1046
瀏	-19.1046
燾	-19.1046
珗	-19.1046
碖	-19.1046
稁	-19.1046
羪	-19.1046
莟	-19.1046
葨	-19.1046
蕮	-19.1046
躋	-19.1046
鐹	-19.1046
鴮	-19.1046
	-19.1046
堢	-19.1046
摉	-19.1046
瀱	-19.1046
辡	-19.1046
鰫	-19.1046
俽	-19.1046
凲	-19.1046
櫵	-19.1046
蓅	-19.1046
頨	-19.1046
曻	-19.1046
笅	-19.1046
ɳ	-19.1046
˫	-19.1046
坕	-19.1046
誜	-19.1046
䲟	-19.1046
儘	-19.1046
凬	-19.1046
孲	-19.1046
嵃	-19.1046
弝	-19.1046
攄	-19.1046
欛	-19.1046
烿	-19.1046
癏	-19.1046
磛	-19.1046
禯	-19.1046
羈	-19.1046
臗	-19.1046
艥	-19.1046
荴	-19.1046
菋	-19.1046
萢	-19.1046
辧	-19.1046
飳	-19.1046
鵸	-19.1046
躽	-19.1046
鶽	-19.1046
癄	-19.1046
鋪	-19.1046
頉	-19.1046
蔲	-19.1046
அ	-19.1047
ᅵ	-19.1047
丣	-19.1047
寪	-19.1047
恴	-19.1047
掕	-19.1047
杸	-19.1047
癠	-19.1047
膚	-19.1047
菷	-19.1047
衸	-19.1047
襯	-19.1047
釽	-19.1047
鵃	-19.1047
黿	-19.1047
료	-19.1047
癑	-19.1047
譑	-19.1047
魧	-19.1047
魱	-19.1047
凮	-19.1047
襧	-19.1047
貑	-19.1047
Մ	-19.1047
亙	-19.1047
匰	-19.1047
戃	-19.1047
揷	-19.1047
歨	-19.1047
膾	-19.1047
觘	-19.1047
齼	-19.1047
聅	-19.1047
寬	-19.1047
糿	-19.1047
압	-19.1047
융	-19.1047
վ	-19.1047
ং	-19.1047
ྐ	-19.1047
▔	-19.1047
侰	-19.1047
兗	-19.1047
岄	-19.1047
嶚	-19.1047
搸	-19.1047
曆	-19.1047
淃	-19.1047
絕	-19.1047
舋	-19.1047
艍	-19.1047
贄	-19.1047
	-19.1047
毠	-19.1047
謚	-19.1047
爩	-19.1047
⡆	-19.1047
㛧	-19.1047
垏	-19.1047
嵣	-19.1047
悞	-19.1047
麊	-19.1047
撜	-19.1047
扙	-19.1047
琂	-19.1047
및	-19.1047
兠	-19.1048
懱	-19.1048
誄	-19.1048
鷅	-19.1048
疄	-19.1048
儷	-19.1048
畍	-19.1048
蘭	-19.1048
鮅	-19.1048
欗	-19.1048
椬	-19.1048
蕶	-19.1048
倎	-19.1048
忇	-19.1048
瀂	-19.1048
鸗	-19.1048
澑	-19.1048
討	-19.1048
麥	-19.1048
癅	-19.1049
閷	-19.1049
垼	-19.1049
깨	-19.1049
ɖ	-19.1049
▂	-19.1049
緦	-19.1049
힌	-19.1049
	-19.1049
楉	-19.1049
樻	-19.1049
垎	-19.1049
閫	-19.1049
隯	-19.1049
ք	-19.1049
暿	-19.1049
	-19.1049
嶆	-19.105
徍	-19.105
皗	-19.105
琔	-19.105
椳	-19.105
ฏ	-19.105
늪	-19.1051
暔	-19.1051
紪	-19.1051
	-19.1051
밝	-19.1052
荢	-19.1052
ງ	-19.1053
瑻	-19.1054
ٍ	-19.1055
	-19.1058
	-19.1059
蠘	-19.106
	-19.1064
	-19.1069
	-19.1076
	-19.1097
ठ	-19.5938
Ǩ	-19.6015
ǩ	-19.6015
鎖	-19.6017
ľ	-19.602
Ĭ	-19.602
Ĵ	-19.602
Ļ	-19.602
Ņ	-19.602
Ŏ	-19.6026
ǫ	-19.6026
瑯	-19.6027
┺	-19.6028
ŗ	-19.6029
ŕ	-19.6029
ť	-19.6029
ŧ	-19.6029
Ș	-19.6029
Ŗ	-19.6029
莌	-19.6029
裖	-19.6029
Ř	-19.6029
ģ	-19.6032
Ĥ	-19.6032
糃	-19.6032
촉	-19.6032
	-19.6032
Ģ	-19.6033
鬝	-19.6033
㨆	-19.6034
Ɛ	-19.6034
擬	-19.6036
詢	-19.6036
餚	-19.6036
鹼	-19.6036
	-19.6036
Ĕ	-19.6036
Ũ	-19.6036
Ų	-19.6036
悀	-19.6036
撌	-19.6036
鰑	-19.6036
橃	-19.6037
殝	-19.6037
藍	-19.6037
齊	-19.6037
헛	-19.6037
	-19.6037
Ɔ	-19.6037
˦	-19.6038
猆	-19.6038
襽	-19.6038
奷	-19.6038
訁	-19.6038
珋	-19.6038
軕	-19.6039
Ű	-19.6039
傴	-19.6039
撫	-19.6039
貃	-19.6039
쫓	-19.6039
	-19.6039
	-19.6039
	-19.6039
纞	-19.6039
笁	-19.6039
छ	-19.604
ṓ	-19.604
傑	-19.604
叐	-19.604
濹	-19.604
烉	-19.604
藵	-19.604
迡	-19.604
鈴	-19.604
鼡	-19.604
	-19.604
્	-19.604
忟	-19.604
	-19.604
檤	-19.604
楆	-19.604
ĸ	-19.604
ȉ	-19.604
Ȋ	-19.604
㠋	-19.604
夃	-19.604
徎	-19.604
換	-19.604
翤	-19.604
芉	-19.604
	-19.604
Ʃ	-19.6041
ฯ	-19.6041
稉	-19.6041
ஸ	-19.6041
ⲩ	-19.6041
㮫	-19.6041
㲚	-19.6041
䃰	-19.6041
傿	-19.6041
屆	-19.6041
樓	-19.6041
碼	-19.6041
苐	-19.6041
ꁩ	-19.6041
ꁱ	-19.6041
恷	-19.6041
佔	-19.6041
瓎	-19.6042
覷	-19.6042
駷	-19.6042
╛	-19.6042
氝	-19.6042
蜧	-19.6042
밭	-19.6042
Ŷ	-19.6042
ⲃ	-19.6042
ⲙ	-19.6042
ⲡ	-19.6042
佱	-19.6042
刞	-19.6042
幩	-19.6042
張	-19.6042
梲	-19.6042
歸	-19.6042
涰	-19.6042
灀	-19.6042
碮	-19.6042
袏	-19.6042
詮	-19.6042
雖	-19.6042
깍	-19.6042
잇	-19.6042
컬	-19.6042
	-19.6042
	-19.6042
潅	-19.6042
牭	-19.6042
乆	-19.6042
懌	-19.6042
鋲	-19.6042
અ	-19.6042
મ	-19.6042
ા	-19.6042
ી	-19.6042
ḗ	-19.6042
樇	-19.6042
瑤	-19.6042
睌	-19.6042
納	-19.6042
馟	-19.6042
럿	-19.6042
짠	-19.6042
塗	-19.6043
賜	-19.6043
搩	-19.6043
悶	-19.6043
ণ	-19.6043
ਜ	-19.6043
అ	-19.6043
Ὄ	-19.6043
䤈	-19.6043
勵	-19.6043
堷	-19.6043
掦	-19.6043
繽	-19.6043
衛	-19.6043
趐	-19.6043
輩	-19.6043
騆	-19.6043
썬	-19.6043
糷	-19.6043
Ք	-19.6043
ྗ	-19.6043
敤	-19.6043
櫬	-19.6043
綇	-19.6043
綤	-19.6043
縖	-19.6043
	-19.6043
筄	-19.6043
〮	-19.6043
霮	-19.6043
熽	-19.6043
簄	-19.6043
ď	-19.6044
Ź	-19.6044
Ʒ	-19.6044
ʡ	-19.6044
ੀ	-19.6044
శ	-19.6044
ᅯ	-19.6044
በ	-19.6044
ṡ	-19.6044
Ὕ	-19.6044
㧏	-19.6044
㮾	-19.6044
傌	-19.6044
勀	-19.6044
奮	-19.6044
婲	-19.6044
幟	-19.6044
弤	-19.6044
戔	-19.6044
戙	-19.6044
桛	-19.6044
椨	-19.6044
涜	-19.6044
湵	-19.6044
畫	-19.6044
癴	-19.6044
竱	-19.6044
翖	-19.6044
艠	-19.6044
蘢	-19.6044
針	-19.6044
鈗	-19.6044
[...]
