[UNK]	0
[PAD]	0
[CLS]	0
[SEP]	0
[MASK]	0
aeeb0쎯	-3.57838
p쎯	-3.92634
khug0쎯	-4.07848
wgkn1쎯	-4.08025
b쎯	-5.01684
j쎯	-5.40751
e쎯	-5.50462
w쎯	-5.62119
q쎯	-5.71332
khay7쎯	-5.72913
iy쎯	-5.77727
(	-5.81074
n쎯	-5.8295
ewmw쎯	-5.94728
r쎯	-5.99003
nl쎯	-6.05597
)	-6.07302
《	-6.08741
rqqy2쎯	-6.08844
l쎯	-6.15193
y쎯	-6.17821
f쎯	-6.22042
fe쎯	-6.22719
“	-6.22987
v쎯	-6.25931
,	-6.27323
ua쎯	-6.29094
a쎯	-6.41488
yh쎯	-6.42638
”	-6.4636
jjyi0쎯	-6.54916
qb쎯	-6.55807
ld쎯	-6.63667
g쎯	-6.64081
jlj쎯	-6.64575
lm쎯	-6.66068
hm쎯	-6.685
q쎯t쎯	-6.6892
tj쎯	-6.69934
yff쎯	-6.70004
쎂	-6.70689
tp쎯	-6.70892
ity1쎯	-6.73706
ek쎯	-6.73961
nr쎯	-6.74595
》	-6.75378
ir쎯yoq쎯	-6.77043
쎃	-6.77151
쎁	-6.77906
btbh10쎯	-6.78877
gss쎯	-6.79781
bu쎯	-6.80871
iw쎯	-6.81403
by쎯	-6.8213
igo쎯	-6.82628
ib쎯	-6.83536
qn쎯	-6.8676
wx쎯	-6.88066
wb쎯	-6.88444
mdm쎯	-6.89889
tyac쎯	-6.90915
jm쎯	-6.91555
kv쎯	-6.9291
el쎯	-6.94311
bq쎯	-6.97085
pjv쎯	-6.98749
noof쎯vc쎯	-7.01161
rw쎯	-7.01873
iq쎯	-7.03424
qc쎯	-7.03608
쎄	-7.04531
no쎯	-7.05557
xl쎯	-7.05984
-	-7.07193
kq쎯	-7.08085
go쎯	-7.09204
d쎯or쎯	-7.09609
qt쎯	-7.09645
qgk쎯	-7.10155
khpk1쎯	-7.10364
yd쎯	-7.10541
wsmy쎯	-7.11007
yttg0쎯	-7.11557
tdw쎯kd쎯	-7.11847
n쎯ag쎯ir쎯yoq쎯	-7.13155
ay쎯	-7.13316
쎅	-7.1345
h쎯kre쎯	-7.13973
uc쎯	-7.15191
/	-7.15661
lk쎯	-7.16304
.	-7.16567
ghad쎯	-7.16608
opsh0쎯	-7.17122
lw쎯	-7.1725
sj쎯	-7.1727
ls쎯	-7.17795
wi쎯	-7.18164
ip쎯	-7.18192
vq쎯rj쎯	-7.18512
ea쎯	-7.18608
qi쎯	-7.18939
od쎯	-7.19097
dccc쎯yqt쎯	-7.19117
tuqj쎯vc쎯	-7.19392
vfi쎯	-7.19773
ujq쎯nyp쎯	-7.19916
ifd쎯	-7.21779
ma쎯	-7.23899
t쎯	-7.24864
fyu쎯	-7.25517
wct쎯	-7.25561
nl쎯ea쎯	-7.26433
he쎯	-7.26635
xep쎯	-7.28645
md쎯	-7.28673
fs쎯	-7.29082
st쎯hv쎯	-7.29377
tfns1쎯	-7.29815
cc쎯	-7.29847
tfih쎯yh쎯	-7.30017
gyy쎯wrw쎯	-7.30456
qnf쎯	-7.30758
cw쎯	-7.31691
f쎯eh쎯	-7.32075
쎆	-7.32121
uh쎯	-7.32629
thgt1쎯	-7.33519
jfmf쎯	-7.3375
ru쎯	-7.34013
ngh쎯	-7.34803
oun쎯	-7.35338
t쎯it쎯	-7.36222
iuc쎯	-7.36441
foag쎯	-7.37232
hw쎯mb쎯	-7.37259
aiyk쎯	-7.37403
()	-7.37561
:	-7.37571
aeeb0쎯w쎯	-7.37595
u쎯	-7.37693
vw쎯	-7.37878
》khug0쎯《	-7.38281
t쎯wb쎯	-7.38661
쎈	-7.39226
wl쎯	-7.3942
d쎯ynjg6쎯	-7.39599
aymx0쎯	-7.40105
bm쎯	-7.40112
mb쎯	-7.40115
ep쎯	-7.40559
xg쎯	-7.41305
vk쎯	-7.41761
i쎯pwit쎯	-7.42049
si쎯	-7.42266
ea쎯rke쎯	-7.42388
jt쎯	-7.42709
uv쎯	-7.43488
wsmy쎯fs쎯	-7.43673
ac쎯	-7.43958
쎇	-7.44026
frj쎯	-7.44342
aeeb0쎯j쎯	-7.44432
rv쎯	-7.44474
ljh쎯	-7.44521
"	-7.44799
pr쎯	-7.45483
쎁쎀	-7.45633
fu쎯	-7.4593
gah쎯ji쎯	-7.46194
djdk0쎯	-7.4694
hubp쎯	-7.4753
xi쎯	-7.47569
dm쎯	-7.48103
tf쎯	-7.48484
csh쎯	-7.48591
q쎯cw쎯	-7.50309
ni쎯	-7.50397
aef쎯	-7.50766
mjv쎯	-7.51254
wm쎯	-7.51367
amdo1쎯tfih쎯	-7.51579
udb쎯	-7.52581
xj쎯	-7.53611
kkmw1쎯gah쎯	-7.54059
eamy2쎯	-7.5408
gyy쎯	-7.54822
vt쎯	-7.55392
oey쎯eecs쎯	-7.56012
x쎯	-7.56081
ode쎯	-7.56389
rvyo쎯	-7.56953
yr쎯	-7.57042
cr쎯	-7.57545
xd쎯	-7.57673
u쎯xfw쎯	-7.57905
pv쎯	-7.57968
og쎯	-7.5803
ftl쎯	-7.58687
vn쎯	-7.58777
hn쎯	-7.58836
th쎯	-7.58849
mhnf쎯dyn쎯	-7.59046
lnt쎯	-7.59323
qpgh쎯	-7.59325
wgkn1쎯”	-7.59488
mrdf쎯	-7.59842
d쎯	-7.59906
ue쎯	-7.60034
oth쎯	-7.60111
dv쎯	-7.60175
i쎯	-7.60638
atte쎯	-7.60751
tfkc쎯	-7.60928
hg쎯	-7.61054
eg쎯	-7.61272
fa쎯	-7.6166
v쎯fe쎯	-7.61823
쎉	-7.62001
qut쎯	-7.62531
duj쎯	-7.62798
am쎯n쎯	-7.62809
o쎯	-7.63146
kkmw1쎯uda쎯	-7.63398
yv쎯	-7.63482
aeeb0쎯ls쎯	-7.63509
or쎯	-7.63897
gw쎯t쎯	-7.6465
gw쎯	-7.64915
iq쎯h쎯	-7.65481
g쎯bu쎯	-7.65858
c쎯	-7.65967
ea쎯ivw쎯	-7.66015
ivc쎯	-7.66033
bl쎯	-7.66074
dpq쎯	-7.66081
jw쎯	-7.66119
xj쎯sojh쎯	-7.662
ii쎯	-7.66274
eu쎯	-7.66406
ew쎯	-7.66657
ob쎯	-7.66736
ybb쎯	-7.6695
qp쎯	-7.67431
fv쎯	-7.67785
k	-7.68206
jjyi0쎯ekgd쎯	-7.68209
tga쎯	-7.68448
r쎯aeeb0쎯	-7.69046
snan쎯	-7.69295
iyjf2쎯	-7.6982
sn쎯	-7.6993
qr쎯	-7.70536
mtfk1쎯ib쎯	-7.71274
aeeb0쎯v쎯	-7.71566
jc쎯uxv쎯	-7.72294
vey쎯	-7.725
mm쎯	-7.72587
mtjc1쎯	-7.72745
cybc쎯	-7.72753
ub쎯	-7.73158
jo쎯iqi쎯	-7.74101
ydx쎯	-7.74772
gd쎯	-7.75026
mcqb쎯	-7.75206
m쎯o쎯	-7.7566
xl쎯v쎯	-7.76089
ir쎯	-7.76996
wl쎯tdw쎯	-7.77147
tdh쎯	-7.77569
qut쎯fjl쎯	-7.78136
ivy쎯	-7.78142
ghtp쎯	-7.78394
vq쎯	-7.78437
m쎯	-7.78847
쎂쎀	-7.78877
nft쎯	-7.79079
)aeeb0쎯	-7.79099
jeb쎯	-7.79414
yq쎯	-7.79558
vyg1쎯	-7.79618
gah쎯xant쎯	-7.79787
r쎯wgkn1쎯	-7.80038
sy쎯	-7.80232
trh0쎯	-7.80246
bwt쎯	-7.8029
vnh쎯	-7.80348
qfk쎯	-7.80351
qu쎯	-7.80881
wtx쎯	-7.81028
brg쎯	-7.81354
”wgkn1쎯	-7.81386
qk쎯	-7.81795
rrr쎯	-7.82814
ode쎯rv쎯	-7.82929
l쎯ifd쎯	-7.82951
쎁쎂	-7.82966
sb쎯udl쎯	-7.83128
vffy쎯	-7.83138
vpm쎯	-7.83333
hto쎯	-7.83337
ywi쎯	-7.83533
ba쎯f쎯	-7.83834
tfih쎯	-7.84027
jvf쎯	-7.84072
kkmw1쎯	-7.84224
rtmt1쎯	-7.8423
lgxd쎯	-7.8429
md쎯jjyi0쎯	-7.84386
qgwy쎯	-7.84481
xqiy쎯	-7.84588
pe쎯	-7.86233
av쎯	-7.86464
atm쎯vcc쎯	-7.87172
nsh쎯	-7.87544
kl쎯	-7.8798
ou쎯	-7.87989
aaae쎯kd쎯	-7.88175
mn쎯	-7.88306
vfg쎯	-7.88499
iyy쎯	-7.88652
y	-7.88737
hcw쎯	-7.88955
dccc쎯ea쎯	-7.89186
jr쎯	-7.896
drvc쎯	-7.89734
qtyy3쎯	-7.8977
mrdf쎯t쎯	-7.90048
au쎯	-7.90168
ojgr0쎯	-7.9021
fknd쎯	-7.9097
iq쎯sks쎯	-7.91158
dna쎯	-7.91582
aq쎯	-7.92045
dccc쎯	-7.92155
dx쎯	-7.92157
t	-7.92246
ea쎯sl쎯	-7.92248
jjs쎯	-7.92302
ea쎯iq쎯	-7.92441
tyt쎯	-7.92698
laf쎯	-7.93014
mtfk1쎯	-7.93119
wt쎯	-7.93261
ai쎯	-7.93304
d	-7.93334
hu쎯	-7.939
rmae쎯	-7.94717
j	-7.94802
》khay7쎯“	-7.95132
ivc쎯vip쎯	-7.95148
wf쎯	-7.95216
ar쎯si쎯	-7.95482
bs쎯	-7.95608
in쎯qt쎯	-7.95692
ix쎯	-7.9576
gq쎯	-7.96007
mr쎯	-7.96028
wq쎯	-7.97141
hw쎯	-7.9732
vb쎯	-7.9744
wgkn1쎯j쎯	-7.97694
dp쎯	-7.97869
fy쎯	-7.98038
xq쎯	-7.98147
ldn쎯	-7.98392
wn쎯	-7.98635
u	-7.99132
xuq쎯ffuj쎯	-7.99171
slk쎯swcn0쎯	-7.99261
nrn쎯	-7.99546
qx쎯	-7.99759
dccc쎯tga쎯	-7.99814
sa쎯	-7.99961
m	-8.00112
jo쎯	-8.01007
drh쎯	-8.0103
amdo1쎯	-8.01037
kw쎯	-8.01332
쎁쎅	-8.01373
aj쎯	-8.01823
r	-8.0189
qopl쎯	-8.02066
ekgd쎯	-8.02446
wie쎯	-8.02497
lrq쎯	-8.02695
mep쎯	-8.02881
xd쎯i쎯	-8.02914
luh쎯	-8.03025
abr쎯	-8.03116
xd쎯rxu쎯	-8.03548
fv쎯ywi쎯	-8.03875
d쎯vc쎯	-8.04421
pn쎯	-8.04494
s쎯	-8.04509
yup쎯cybc쎯	-8.04857
rca쎯n쎯	-8.04918
nc쎯re쎯	-8.05155
haeo쎯	-8.0517
a	-8.0548
쎃쎀	-8.05659
ox쎯	-8.05726
jeto0쎯jeto0쎯	-8.05857
pwl쎯	-8.05898
;	-8.0592
lujf1쎯gb쎯	-8.05964
waw쎯	-8.06004
icy쎯	-8.06171
cs쎯	-8.06408
gxxe쎯	-8.06492
rvq쎯	-8.06677
gh쎯	-8.06866
i	-8.06907
vnb쎯	-8.07557
quo쎯	-8.07613
bjy쎯	-8.07631
mfj쎯	-8.07713
wgd쎯	-8.0776
e	-8.07809
ss쎯	-8.07863
aeeb0쎯e쎯	-8.07929
kre쎯ytmy1쎯	-8.08075
k쎯	-8.08146
ml쎯	-8.08191
heg쎯	-8.0825
mb쎯vc쎯	-8.08282
sks쎯imy쎯	-8.08313
dk쎯	-8.08469
arc쎯	-8.08714
쎁쎁	-8.08755
jtg쎯	-8.09084
thgt1쎯ip쎯	-8.0913
nku쎯	-8.09143
yd쎯e쎯	-8.09278
vcu0쎯	-8.09345
gu쎯	-8.10226
uitl쎯	-8.1037
khom쎯	-8.10412
xm쎯	-8.10577
qeqs쎯	-8.10723
rke쎯	-8.10808
mi쎯	-8.10895
mhnf쎯	-8.10902
bx쎯	-8.10981
or쎯e쎯	-8.11303
xmb쎯ivw쎯	-8.11402
vip쎯	-8.11661
g	-8.11843
쎁쎉	-8.12405
kre쎯	-8.12502
rhb쎯	-8.12566
xynt0쎯lujf1쎯	-8.12583
vc쎯	-8.1268
mt쎯	-8.12702
w	-8.12827
asr쎯	-8.12927
jtu쎯	-8.13115
ki쎯	-8.13395
mhyn2쎯	-8.13439
fgi쎯	-8.13558
xy쎯	-8.13644
dqg쎯	-8.13722
gyy쎯ih쎯	-8.13744
kj쎯	-8.13801
iwf쎯vc쎯yh쎯	-8.14
geqc쎯vb쎯	-8.14211
rxl쎯	-8.14237
q쎯p쎯	-8.1467
yjl쎯	-8.14857
ivw쎯	-8.14955
pb쎯	-8.14996
ptf쎯	-8.15028
apr쎯	-8.15032
ptf쎯mn쎯	-8.15135
wo쎯	-8.15465
uc쎯hu쎯	-8.15575
jam쎯	-8.15607
ku쎯	-8.15636
tfc쎯	-8.15663
ja쎯	-8.15731
쎁쎈	-8.15903
sd쎯pi쎯	-8.16248
yk쎯ib쎯	-8.16371
kwb쎯bp쎯	-8.16425
ofn쎯ib쎯	-8.16488
wpg쎯	-8.16723
il쎯	-8.16969
uwn쎯xr쎯	-8.17098
dq쎯	-8.17349
qtps1쎯	-8.17399
qsy쎯	-8.17774
ewmw쎯wgkn1쎯	-8.178
pa쎯ub쎯	-8.17809
yujf0쎯	-8.1783
xxm쎯	-8.17834
kpd쎯	-8.17843
rf쎯	-8.17852
nv쎯	-8.17961
eh쎯	-8.18104
bv쎯	-8.18322
sb쎯	-8.18351
gc쎯dk쎯	-8.18502
fgj쎯	-8.18571
qfag2쎯	-8.18612
jgig1쎯	-8.18624
is쎯	-8.18654
lt쎯	-8.18682
tv쎯	-8.19129
mgq쎯	-8.19396
wp쎯	-8.19544
in쎯bu쎯	-8.19652
swcn0쎯rxl쎯	-8.19705
ger쎯	-8.20015
qtj쎯pyxf쎯	-8.20064
sfjh쎯	-8.20128
am쎯	-8.20306
xpgm쎯	-8.20407
fsy쎯wgu쎯	-8.20754
sf쎯	-8.20934
lft쎯	-8.21105
pwx쎯	-8.21371
omh쎯	-8.21432
wl쎯ea쎯	-8.21512
wvgo7쎯	-8.21659
ug쎯	-8.21835
etuh쎯	-8.21857
iw쎯wn쎯	-8.21922
ofn쎯	-8.21927
or쎯kre쎯	-8.22187
”khug0쎯“	-8.22233
brg쎯th쎯	-8.22363
hal쎯	-8.22364
wvgo7쎯san쎯	-8.22612
bng쎯	-8.2269
qlx쎯	-8.22694
bt쎯	-8.22783
et쎯	-8.22856
of쎯xy쎯	-8.22889
nsg쎯	-8.22985
pq쎯	-8.23025
fi쎯	-8.23072
iuc쎯ws쎯	-8.23287
qv쎯	-8.23295
vc쎯hv쎯	-8.23421
jn쎯	-8.23428
xe쎯	-8.23506
eym쎯	-8.23536
ai쎯nr쎯	-8.24182
tvhp쎯	-8.24274
”p쎯	-8.24313
bda쎯	-8.24745
ks쎯lf쎯qt쎯	-8.24852
kpe쎯	-8.24911
imy쎯	-8.25115
q	-8.25122
fc쎯	-8.25129
쎄쎀	-8.25178
oju쎯	-8.25343
fvq쎯	-8.25792
aeeb0쎯avy쎯	-8.25807
pr쎯gw쎯	-8.2592
rpl쎯	-8.2594
jtj쎯	-8.2608
ojh쎯	-8.26167
oo쎯	-8.26236
q쎯ea쎯	-8.26236
nq쎯	-8.26286
qjq쎯	-8.26656
oi쎯	-8.2693
dgl쎯	-8.26951
iuc쎯pfi쎯	-8.27238
ew쎯w쎯	-8.27518
f	-8.27691
mta쎯sssm쎯	-8.27724
kq쎯ma쎯	-8.27767
njdf쎯	-8.27987
qaaj0쎯	-8.28166
wwv쎯	-8.28379
rsj쎯	-8.28447
tx쎯	-8.28511
u쎯ktg쎯	-8.28742
dkj쎯	-8.28999
kuxj쎯	-8.29099
”aeeb0쎯	-8.2941
tm쎯	-8.29512
ma쎯we쎯	-8.29524
jh쎯	-8.29881
pumk1쎯	-8.29934
otf쎯	-8.30065
bqbo쎯	-8.30522
h쎯	-8.30628
bnhg1쎯	-8.30639
sx쎯kam쎯	-8.30733
uyg쎯	-8.3084
a쎯x쎯	-8.30887
jlc쎯	-8.30992
xu쎯	-8.31008
ylkm1쎯	-8.31148
thn쎯	-8.31264
eu쎯wi쎯	-8.31277
nbs쎯	-8.31459
fx쎯	-8.31583
du쎯qt쎯	-8.31703
mta쎯	-8.31767
ta쎯	-8.32031
geqc쎯	-8.32048
rj쎯nbs쎯	-8.32251
ecyj쎯gfkk1쎯	-8.3238
try쎯	-8.32394
iqi쎯	-8.32455
dyb쎯	-8.32508
tep쎯	-8.32878
fw쎯	-8.33121
fd쎯	-8.33388
gf쎯	-8.33465
sh쎯	-8.33552
)wgkn1쎯	-8.33585
쎅쎀	-8.33657
mfk쎯	-8.33663
ck쎯	-8.33953
tsf쎯	-8.34043
mwi쎯vc쎯	-8.34316
sw쎯	-8.3448
nsh쎯or쎯	-8.34678
cybc쎯or쎯	-8.3476
bpx쎯	-8.34842
whh쎯	-8.34938
ba쎯lw쎯	-8.35112
r쎯lf쎯	-8.35249
t쎯el쎯	-8.35396
gn쎯	-8.35566
ps쎯	-8.35783
tuqj쎯wb쎯	-8.35811
dh쎯	-8.35983
ko쎯	-8.3599
qa쎯	-8.36246
c쎯eo쎯	-8.36322
v	-8.36455
aeeb0쎯qgk쎯	-8.36551
쎁쎆	-8.36551
alw쎯	-8.36741
fcr쎯	-8.36989
cybc쎯ipwm1쎯	-8.37052
kuy쎯	-8.37537
wqcn쎯	-8.3763
ld쎯aeeb0쎯	-8.37739
fiv쎯	-8.37933
qrhg쎯	-8.38241
ud쎯	-8.38299
vwnn0쎯	-8.3831
xuv쎯	-8.38759
ap쎯	-8.39047
fnan0쎯yrtj1쎯	-8.39138
uh쎯yt쎯	-8.3915
atm쎯	-8.39163
nls쎯rgm쎯	-8.39182
ub쎯dm쎯	-8.39236
tig쎯	-8.39317
wv쎯	-8.39353
ile쎯qc쎯	-8.39749
uh쎯pi쎯	-8.39959
gl쎯	-8.40031
sx쎯	-8.40728
wsmy쎯ea쎯	-8.41536
iw쎯aeeb0쎯	-8.4155
vg쎯	-8.41652
sh쎯qtui쎯	-8.41811
lf쎯	-8.41827
mtjy11쎯	-8.42257
qq쎯sgkp쎯	-8.42262
um쎯	-8.42276
lv쎯n쎯	-8.42605
tve쎯ob쎯	-8.43061
epdc쎯	-8.43176
afw쎯	-8.43268
eg쎯rj쎯	-8.43314
ek쎯ea쎯	-8.43337
qjb쎯	-8.43455
dna쎯ed쎯	-8.43501
wyq쎯	-8.43545
ccw쎯	-8.43636
yuh쎯	-8.43688
rw쎯pumk1쎯in쎯	-8.43739
xxf쎯	-8.43773
b	-8.44007
jc쎯tp쎯	-8.44023
ssq쎯imy쎯	-8.44204
dfn쎯la쎯	-8.44226
pp쎯nsh쎯	-8.44387
tpk쎯	-8.44531
lnt쎯duj쎯	-8.44639
suy쎯	-8.44645
veg쎯	-8.44835
hp쎯	-8.44928
ft쎯	-8.4515
ow쎯	-8.45202
jx쎯	-8.45269
qut쎯jr쎯	-8.45353
dtr쎯	-8.45354
aeeb0쎯n쎯	-8.45518
jrno1쎯	-8.45757
nl쎯djdk0쎯	-8.46077
p	-8.46142
쎆쎀	-8.46313
pjd쎯	-8.46325
ggqt쎯	-8.46557
n	-8.4664
qbxi쎯	-8.46657
gc쎯	-8.46687
ub쎯d쎯	-8.46732
ghf쎯	-8.46853
aspq쎯	-8.46878
rw쎯pumk1쎯	-8.47031
bng쎯hw쎯	-8.47047
drvc쎯tgjk1쎯	-8.47068
r쎯jx쎯	-8.47195
vvet쎯gae쎯	-8.47265
x	-8.47371
ib쎯kpd쎯	-8.47447
jgm쎯	-8.47636
쎁쎀쎀	-8.47766
pdx쎯	-8.47889
ei쎯	-8.481
kxdm0쎯	-8.481
q쎯oa쎯	-8.48252
rn쎯	-8.48278
avw쎯igo쎯	-8.48361
san쎯	-8.48449
fiv쎯eamy2쎯	-8.4856
rxaq쎯	-8.48824
ji쎯la쎯	-8.49052
lujf1쎯	-8.4913
l	-8.49314
ua쎯f쎯	-8.49356
bmo쎯	-8.49471
ai쎯ejhh쎯	-8.4949
ev쎯	-8.49493
dqw쎯	-8.49523
fhhw1쎯	-8.49587
qgk쎯q쎯	-8.49613
f쎯ywi쎯	-8.49845
qoyd1쎯	-8.4992
src쎯	-8.49977
uhx쎯	-8.50098
qtwj2쎯	-8.50245
hitn쎯	-8.50381
pyv쎯	-8.50381
sd쎯	-8.50436
쎂쎅	-8.50442
jan쎯	-8.50453
oj쎯	-8.50529
qe쎯	-8.50536
ot쎯	-8.50621
bgm쎯	-8.50826
llh쎯	-8.50901
쎁쎃	-8.51128
hnu쎯	-8.51138
eghn쎯	-8.51145
wgkn1쎯ir쎯yoq쎯	-8.51384
el쎯fwf쎯	-8.51574
o쎯mlb쎯	-8.51666
se쎯	-8.51676
bi쎯	-8.51715
tglw0쎯	-8.51964
en쎯	-8.52048
yeqn쎯	-8.52056
eecs쎯	-8.52205
mwi쎯	-8.52223
qgk쎯xg쎯	-8.52335
쎁쎇	-8.52691
r쎯s쎯	-8.52757
lh쎯	-8.52784
aeeb0쎯ity1쎯	-8.52815
f쎯sfc쎯	-8.53097
bo쎯	-8.53118
wvqw쎯	-8.53159
ua쎯f쎯wgkn1쎯	-8.53179
igj쎯o쎯	-8.53284
eu쎯vk쎯	-8.53442
d쎯aaae쎯	-8.53447
qlga쎯dx쎯	-8.53516
fve쎯	-8.53611
dk쎯gf쎯	-8.54203
tlu쎯yd쎯	-8.54428
apju쎯	-8.54479
ukhy쎯	-8.54527
n쎯nq쎯	-8.54619
쎈쎀	-8.5464
igd쎯	-8.54695
yltc쎯	-8.55108
yff쎯qi쎯	-8.55177
qd쎯	-8.55234
s	-8.55257
쎀	-8.55478
jud쎯	-8.55716
mt쎯vc쎯	-8.55729
쎁쎄	-8.55871
jeto0쎯	-8.56005
apl쎯	-8.56017
gah쎯	-8.56061
uxe쎯	-8.56237
ud쎯gc쎯	-8.56294
ksj쎯	-8.56316
xmb쎯ea쎯	-8.56341
xi쎯yss쎯	-8.56372
h쎯vc쎯	-8.5646
byt쎯sr쎯	-8.56567
rwxn쎯vk쎯	-8.56692
qbc쎯	-8.56738
nln쎯	-8.56748
kog쎯	-8.56809
iilg쎯	-8.56855
in쎯	-8.5686
mtjc1쎯u쎯	-8.56977
ea쎯qt쎯	-8.56996
otf쎯ubae쎯	-8.57004
jq쎯	-8.57172
+	-8.57407
tp쎯qu쎯	-8.57519
qtps1쎯wrw쎯	-8.57537
nft쎯ib쎯	-8.5758
wfn쎯	-8.57764
bi쎯ode쎯	-8.5777
wa쎯kpd쎯	-8.58179
fsy쎯	-8.58195
qgf쎯	-8.58314
ji쎯uoo쎯uh쎯	-8.58328
olf쎯	-8.58397
h	-8.58601
uvtd0쎯	-8.5877
yd쎯dp쎯	-8.58934
r쎯eamy2쎯	-8.58977
rj쎯	-8.59052
s쎯uug쎯	-8.59096
trae1쎯	-8.59096
yyb쎯	-8.5912
te쎯	-8.59121
iux쎯	-8.59202
uug쎯	-8.59283
dfe쎯	-8.59315
tkj쎯	-8.59341
vgd쎯	-8.59643
dv쎯djq쎯	-8.59743
gr쎯	-8.59782
xn쎯	-8.59912
ktg쎯	-8.5994
ssq쎯	-8.59986
xmqm쎯	-8.60124
ydj쎯	-8.6014
wjna쎯	-8.60197
qfk쎯ubae쎯	-8.60275
pwit쎯	-8.60525
tjfm쎯slpy1쎯	-8.60564
vkf1쎯	-8.60783
si쎯ni쎯	-8.60786
tgjk1쎯	-8.60873
xxx쎯	-8.61055
ph쎯	-8.61081
q쎯ox쎯wqg쎯lf쎯	-8.61096
eh쎯r쎯	-8.61104
wgu쎯	-8.61115
auk쎯	-8.61136
aeeb0쎯qgk쎯q쎯	-8.61352
wsmy쎯pyxf쎯	-8.61421
wgkn1쎯《	-8.61529
w쎯dna쎯	-8.61628
k쎯eh쎯	-8.61659
gijf쎯	-8.61678
wxdm1쎯	-8.61734
ylg0쎯	-8.61767
gae쎯	-8.61874
dccc쎯qtb쎯	-8.61922
rvq쎯yd쎯	-8.62002
oybo쎯	-8.62025
ykf쎯	-8.62136
iuc쎯imy쎯	-8.62342
rm쎯iq쎯	-8.62439
byt쎯jadk쎯	-8.62476
ahkw쎯	-8.62577
dh쎯xgu쎯	-8.6258
r쎯dx쎯	-8.62613
pfff쎯	-8.62631
jw쎯djdk0쎯	-8.62787
avw쎯or쎯	-8.63096
dnu쎯	-8.63105
sffc쎯	-8.6313
qj쎯	-8.63142
afwe1쎯	-8.63344
sd쎯nsh쎯	-8.63512
bnn1쎯	-8.63521
aeeb0쎯no쎯	-8.636
wt쎯ip쎯	-8.63868
fv쎯jw쎯	-8.63935
etuh쎯wqy쎯	-8.64082
bxxg쎯	-8.64224
vh쎯	-8.64264
xx쎯	-8.64419
taw쎯	-8.64507
mu쎯	-8.64728
fa쎯by쎯	-8.64776
aeeb0쎯xg쎯	-8.64812
yyb쎯qrhg쎯	-8.65219
kf쎯	-8.65227
yff쎯qi쎯vpm쎯	-8.65441
su쎯	-8.6555
jam쎯jgig1쎯	-8.65594
all쎯	-8.65759
rs쎯	-8.65797
aau쎯	-8.6584
c쎯t쎯	-8.65848
tlv쎯	-8.66112
vt쎯nl쎯	-8.66202
ybt쎯	-8.66313
ujq쎯nyp쎯jm쎯	-8.66394
khay7쎯“	-8.66437
i쎯iq쎯	-8.66584
ptu쎯	-8.66684
iue쎯	-8.66776
wal쎯	-8.66799
ws쎯	-8.66802
to쎯	-8.66815
ah쎯	-8.66861
p쎯f쎯ywi쎯	-8.66874
aiyk쎯yqt쎯	-8.66879
igu쎯	-8.66938
sfk쎯	-8.67007
ij쎯	-8.67012
aeeb0쎯fd쎯aeeb0쎯	-8.67091
xpgm쎯khpk1쎯	-8.67179
hw쎯dm쎯	-8.67348
enu쎯	-8.6739
ysu쎯or쎯	-8.67443
fqu쎯	-8.67594
wk쎯	-8.67731
ej쎯	-8.67942
tabh1쎯	-8.68263
x쎯iw쎯	-8.68348
쎂쎄	-8.68377
hubp쎯eh쎯	-8.68401
nnf쎯	-8.68525
ef쎯	-8.68574
w쎯f쎯eh쎯	-8.68644
xr쎯	-8.68761
i쎯gc쎯	-8.68766
iq쎯dx쎯	-8.68849
bi쎯jvf쎯	-8.68878
cck쎯	-8.68934
yj쎯qwmc1쎯	-8.69036
wu쎯	-8.6915
laf쎯od쎯	-8.69305
eym쎯kre쎯	-8.69401
wqg쎯	-8.69483
hu쎯vc쎯	-8.69504
pyxf쎯	-8.69546
ks쎯	-8.69686
gss쎯si쎯	-8.69762
mgt쎯	-8.69782
zzzy0쎯zzzy0쎯	-8.69806
fs쎯ea쎯	-8.69808
qqwo0쎯	-8.69808
ipx쎯	-8.69832
spx쎯	-8.69855
rcp쎯	-8.70002
drj0쎯	-8.70053
wa쎯	-8.70164
xd쎯pwit쎯	-8.70184
ar쎯	-8.70262
wyk쎯	-8.70292
mat쎯	-8.70532
f쎯uxt쎯	-8.7057
iuc쎯pfi쎯p쎯	-8.70667
wi쎯yxwo0쎯	-8.70858
nbs쎯wsmy쎯	-8.70948
xw쎯	-8.7097
swwe6쎯	-8.7115
mlb쎯	-8.71198
fnan0쎯ed쎯	-8.71221
ujan0쎯	-8.71223
kvh쎯qrhg쎯	-8.71229
kkmw1쎯dp쎯	-8.71356
쎂쎀쎀	-8.7149
jg쎯	-8.715
st쎯	-8.71537
da쎯	-8.71621
xwf쎯ynjg6쎯	-8.71643
rvyo쎯vk쎯	-8.71776
ayt쎯	-8.7182
o	-8.7194
ejhh쎯hbn쎯	-8.72039
xg쎯eo쎯	-8.72069
aeeb0쎯mtfk1쎯	-8.72094
fqvh쎯	-8.72202
qeaf2쎯	-8.72211
ir쎯vfi쎯	-8.72298
nc쎯	-8.72318
ytmy1쎯	-8.72474
gah쎯fuj쎯	-8.72486
swwk0쎯	-8.72563
ayec쎯oun쎯	-8.72569
jep쎯	-8.72598
qyd쎯	-8.72666
tfkc쎯qk쎯	-8.72718
oey쎯	-8.72771
yo쎯	-8.7282
oqb쎯	-8.73018
jf쎯	-8.73106
gl쎯dxj쎯	-8.73219
iaf쎯	-8.73408
q쎯aeeb0쎯	-8.73454
ai쎯lfi쎯	-8.73463
wt쎯ien쎯	-8.73498
mb쎯fsy쎯	-8.73743
ek쎯wf쎯	-8.74005
jm쎯n쎯	-8.74156
agt쎯	-8.74163
uo쎯	-8.74435
qtbo쎯	-8.74533
)khug0쎯	-8.74543
sfhw쎯	-8.74595
tyb쎯ft쎯	-8.7474
ru쎯bnhg1쎯	-8.74741
xpgm쎯qi쎯	-8.74849
fhc쎯	-8.74957
r쎯s쎯fsy쎯wgu쎯	-8.74991
w쎯no쎯	-8.75177
eu쎯xi쎯	-8.75271
rm쎯	-8.75288
yd쎯ar쎯	-8.75511
rqci5쎯	-8.75525
wcu쎯	-8.75536
bu쎯yrtj1쎯	-8.75689
bp쎯	-8.75758
or쎯ib쎯	-8.75832
ul쎯	-8.75851
쎂쎂	-8.75875
쎇쎀	-8.75897
ip쎯ybb쎯	-8.75913
eecs쎯he쎯	-8.75914
ac쎯dv쎯	-8.75943
igo쎯lr쎯	-8.76001
fsy쎯mta쎯	-8.76184
xpgm쎯snan쎯	-8.76242
qts쎯	-8.76414
ba쎯tj쎯	-8.76422
dhj쎯	-8.76476
jssy쎯	-8.76616
qb쎯ac쎯	-8.76723
abci쎯	-8.76795
hkie쎯	-8.77084
jadk쎯	-8.7709
oob쎯dp쎯	-8.77287
ih쎯	-8.77372
ud쎯fuj쎯	-8.7761
jc쎯	-8.77675
xpgm쎯qi쎯vpm쎯	-8.7768
sdha쎯	-8.77829
nnu쎯	-8.77923
derw1쎯	-8.78016
mrdf쎯kd쎯	-8.78034
iaq쎯	-8.78116
wl쎯ujq쎯	-8.78187
ha쎯	-8.78259
avy쎯	-8.78297
lfi쎯	-8.78351
mo쎯	-8.78399
rgog쎯	-8.78404
a쎯hi쎯	-8.78463
vj쎯	-8.78548
th쎯by쎯	-8.78615
ey쎯	-8.78676
jnw쎯	-8.78823
nb쎯	-8.78888
au쎯oj쎯	-8.789
tyb쎯	-8.78987
--	-8.79038
ib쎯yh쎯	-8.79137
bng쎯iq쎯	-8.79158
sni쎯	-8.7916
xuq쎯	-8.79176
jeg쎯	-8.79265
wwwb0쎯	-8.79268
lk쎯sojh쎯	-8.79409
dcg쎯	-8.79439
csh쎯lk쎯	-8.79463
gnyd쎯	-8.79917
gyi쎯	-8.8005
tig쎯t쎯	-8.80053
gw쎯xi쎯	-8.80214
imy쎯dx쎯	-8.80281
hko쎯ue쎯	-8.8034
piqb쎯	-8.80469
jnac0쎯	-8.80571
aeeb0쎯lm쎯	-8.80852
sn쎯nq쎯	-8.80923
쎁.	-8.80926
wdjq쎯	-8.80955
auu쎯	-8.81073
쎃쎂	-8.8114
ruk쎯	-8.81275
ic쎯	-8.81363
iq쎯yh쎯	-8.81434
wsmy쎯jt쎯	-8.81467
qnf쎯t쎯	-8.81492
쎈rmae쎯	-8.81539
w쎯f쎯ywi쎯	-8.81549
vnh쎯vuxn쎯	-8.81642
swcn0쎯xr쎯	-8.81684
klj쎯	-8.81703
mt쎯hv쎯	-8.8177
mgo쎯	-8.81833
ox쎯x쎯	-8.8188
ff쎯	-8.81965
qt쎯lf쎯	-8.82002
be쎯	-8.82072
aau쎯mb쎯	-8.82096
wb쎯ebco0쎯	-8.82163
bpdn쎯	-8.82169
djq쎯	-8.82176
uftj2쎯	-8.82241
vlg쎯	-8.82315
ejhh쎯	-8.82438
nskk쎯	-8.82438
a쎯si쎯	-8.8247
avw쎯	-8.82525
ynjg6쎯kht쎯	-8.82564
wgkn1쎯qtyy3쎯	-8.82581
dqw쎯sfb쎯	-8.82592
pr쎯tpk쎯	-8.82603
pgin1쎯ni쎯yh쎯	-8.8263
hi쎯	-8.82755
wuk쎯	-8.82839
sojh쎯	-8.82846
mi쎯nsh쎯	-8.82865
ux쎯	-8.82894
bugk쎯	-8.82923
avk쎯qtps1쎯	-8.82968
iw쎯dk쎯	-8.83003
ikgv쎯	-8.83007
kkak5쎯xpgm쎯	-8.83025
tuqj쎯	-8.83026
kmw쎯	-8.83072
ecu쎯	-8.83107
dvi쎯	-8.83134
fsy쎯vnf쎯	-8.83185
usf쎯	-8.83252
krag1쎯	-8.83283
ea쎯kd쎯	-8.83482
gkqq쎯qoqt1쎯	-8.83607
gm쎯	-8.83735
fknd쎯kq쎯	-8.83817
gqtk3쎯	-8.83876
tig쎯ldn쎯	-8.83946
xmb쎯	-8.8396
gr쎯apl쎯	-8.8402
fi쎯vfi쎯	-8.84026
쎁쎀rmae쎯	-8.84033
uyy쎯	-8.84114
ldn쎯uyg쎯	-8.84269
an쎯	-8.84271
bwg쎯	-8.84688
iu쎯	-8.84745
do쎯	-8.84756
p쎯f쎯eh쎯	-8.84885
eecs쎯xuq쎯	-8.85066
gw쎯kuy쎯	-8.85081
dei쎯	-8.85182
f쎯qsy쎯	-8.85259
ya쎯	-8.85303
dio쎯	-8.85438
smhh쎯	-8.85501
dufn2쎯	-8.85633
qi쎯xj쎯	-8.85813
쎃쎅	-8.85816
xpgm쎯mmwn0쎯	-8.85979
v쎯l쎯	-8.86066
rqcl5쎯	-8.8625
nalt쎯	-8.86277
aeeb0쎯tfih쎯yh쎯	-8.86319
tgj쎯imy쎯	-8.86333
xtd쎯	-8.8636
deyb쎯	-8.86375
um쎯ir쎯kpe쎯	-8.8652
tc쎯	-8.86578
dat0쎯	-8.86584
awf쎯mb쎯	-8.86633
sw쎯fiv쎯	-8.86676
opsh0쎯ivy쎯	-8.86677
qtr쎯	-8.86738
》ewmw쎯	-8.86754
qt쎯wxg쎯	-8.8683
fw쎯wn쎯	-8.86879
ue쎯veg쎯vpm쎯	-8.86898
쎉rmae쎯	-8.8691
eoy쎯	-8.86913
tpk쎯gsyy쎯	-8.86985
aek쎯	-8.87191
yoq쎯	-8.87403
pa쎯iy쎯	-8.87467
ua쎯wn쎯	-8.87624
iwx쎯	-8.87769
or쎯fyu쎯	-8.87802
ed쎯	-8.8783
aeeb0쎯jtg쎯	-8.88125
rw쎯gc쎯	-8.88243
qtj쎯	-8.88285
*	-8.88324
wt쎯g쎯	-8.88333
fvq쎯tdh쎯	-8.8838
lbj쎯	-8.88409
ytg쎯qoyd1쎯	-8.88528
쎂쎈	-8.88576
kv쎯ojgr0쎯	-8.88612
ivy쎯yh쎯	-8.88641
ud쎯mvv쎯	-8.88668
ev쎯ode쎯	-8.88694
wd쎯	-8.88696
wdjq쎯hu쎯	-8.88726
g쎯eu쎯	-8.88753
mf쎯	-8.8885
~	-8.88936
p쎯“	-8.89215
rmk쎯	-8.89241
rt쎯	-8.89241
rvq쎯vk쎯	-8.89273
i쎯gf쎯	-8.89337
ji쎯	-8.89352
ax쎯	-8.89369
ybb쎯wi쎯	-8.89376
di쎯	-8.89482
xpfy쎯	-8.89495
ty쎯	-8.8954
qak쎯	-8.89611
cn쎯	-8.89628
goi쎯	-8.89736
ivk쎯	-8.89806
mkq쎯lt쎯	-8.89863
wx쎯ywi쎯	-8.89891
ktg쎯nls쎯	-8.89903
ir쎯apr쎯	-8.89903
ujq쎯nyp쎯iq쎯	-8.90111
gfh쎯	-8.9021
ai쎯mel쎯	-8.9032
tyac쎯sgk쎯e쎯	-8.90363
twi쎯	-8.90458
hko쎯ue쎯vpm쎯	-8.90526
ns쎯	-8.90734
ue쎯veg쎯	-8.9074
tel쎯	-8.90742
kfg쎯	-8.90743
mwi쎯sj쎯	-8.90769
rh쎯	-8.9084
aeeb0쎯xl쎯	-8.90861
vrg쎯	-8.90894
d쎯or쎯wgkn1쎯	-8.90897
usr쎯	-8.90906
ce쎯	-8.90938
fy쎯pyxf쎯	-8.91202
ae쎯vc쎯	-8.91368
l쎯p쎯	-8.91487
쎉쎀	-8.91547
jfmf쎯w쎯	-8.91568
aaae쎯	-8.91593
yd쎯lf쎯	-8.9168
pr쎯rtfh0쎯	-8.91716
gqtv3쎯	-8.91799
kd쎯	-8.91844
tf쎯nv쎯	-8.91921
fuj쎯	-8.92157
aui쎯	-8.92513
eu쎯vn쎯	-8.92576
ssq쎯mb쎯	-8.92576
kre쎯ywi쎯	-8.92855
u쎯rv쎯	-8.93055
쎂쎃	-8.93176
fe쎯qgk쎯	-8.93291
iq쎯uyw쎯	-8.93293
qaaj0쎯aymx0쎯	-8.93297
dccc쎯uwn쎯	-8.93343
yb쎯	-8.9343
mhnf쎯yd쎯	-8.93486
k쎯ywi쎯	-8.93512
gfkk1쎯	-8.93572
k쎯uxt쎯	-8.93785
pym쎯	-8.93988
h쎯iq쎯	-8.94136
ufw쎯	-8.9422
jtn쎯	-8.94224
ae쎯	-8.94281
r쎯eo쎯	-8.9437
dhq쎯	-8.94431
q쎯mjv쎯	-8.94436
wi쎯t쎯	-8.94452
uyy쎯bnn1쎯	-8.94465
no쎯yh쎯	-8.94466
nq쎯gyy쎯	-8.94487
eu쎯spx쎯	-8.94543
ygh쎯	-8.94698
uf쎯	-8.94763
wqfj쎯	-8.94808
cybc쎯yv쎯	-8.94835
apo쎯	-8.94843
tol쎯	-8.94862
iw쎯fitb2쎯	-8.94943
icf쎯	-8.94961
khpk1쎯lk쎯	-8.9497
gf쎯xi쎯	-8.95153
lu쎯	-8.95159
qwmc1쎯	-8.95182
tga쎯moo쎯nl쎯ea쎯	-8.95222
쎄쎅	-8.95234
mj쎯	-8.95256
xmb쎯sssm쎯	-8.95373
sfhw쎯cw쎯	-8.95464
vip쎯ja쎯	-8.95695
kdx쎯	-8.95703
jal쎯	-8.95729
0쎯	-8.95765
ru쎯bnhg1쎯vpm쎯	-8.95912
wgkn1쎯xg쎯	-8.95969
ueh쎯	-8.95974
wll쎯	-8.96064
aiyk쎯gyy쎯	-8.96196
si쎯jiph0쎯	-8.96249
t쎯el쎯uv쎯	-8.96342
tfhn2쎯	-8.9638
wgd쎯xj쎯	-8.96384
bn쎯	-8.9639
》(	-8.96464
mem쎯	-8.96466
wgd쎯lk쎯	-8.96468
r쎯p쎯	-8.9656
opsh0쎯pgc쎯	-8.96587
cnn쎯	-8.96614
kwq쎯	-8.96649
kws쎯	-8.96655
khpk1쎯xj쎯	-8.9667
xwf쎯	-8.96682
nx쎯odu쎯	-8.96719
deq쎯	-8.9686
drj0쎯yj쎯	-8.96881
fwf쎯	-8.96926
afp쎯	-8.96941
vcc쎯	-8.97139
dnb쎯	-8.97243
vpm쎯qu쎯	-8.97298
yju쎯	-8.97311
qnk쎯	-8.97451
ouey1쎯	-8.97492
aeeb0쎯bl쎯	-8.97508
vt쎯nl쎯p쎯	-8.97538
쎂쎆	-8.97729
xwf쎯gfkk1쎯	-8.97865
ea쎯wl쎯	-8.97928
쎂쎁	-8.97942
eny쎯	-8.97952
at쎯	-8.97958
oob쎯	-8.98115
swcn0쎯opsh0쎯	-8.98165
sx쎯tpk쎯	-8.98169
ago쎯	-8.98491
kaq쎯	-8.98525
jffb쎯	-8.98547
csh쎯xj쎯	-8.98592
q쎯xmb쎯	-8.98618
ksg쎯	-8.98646
fuj쎯d쎯	-8.98654
wgkn1쎯qgk쎯	-8.98807
mel쎯	-8.98886
csh쎯lk쎯vpm쎯	-8.98917
qaf쎯	-8.98938
hic쎯	-8.99468
aat쎯	-8.99504
bb쎯	-8.99597
jccn쎯	-8.99611
qtps1쎯mgji2쎯	-8.99635
tvp쎯	-8.99705
aeeb0쎯mdm쎯	-8.99816
eo쎯	-8.99878
shn쎯	-8.99899
lfi쎯vjl쎯	-8.99952
hk쎯	-8.99978
qyvg0쎯	-9.00002
gah쎯n쎯	-9.00032
ma쎯e쎯	-9.00038
rld쎯	-9.00041
f쎯sw쎯	-9.00109
nu쎯	-9.00183
kov쎯	-9.00276
gw쎯kq쎯	-9.00345
pb쎯e쎯	-9.00354
qqk쎯	-9.00359
bskg쎯	-9.00379
kre쎯ptf쎯	-9.00393
hv쎯	-9.00431
rw쎯iq쎯yh쎯	-9.00554
iw쎯ojgr0쎯	-9.00578
sp쎯ruk쎯	-9.00597
kwb쎯	-9.00695
riv쎯	-9.00724
rs쎯ifk1쎯	-9.00748
k쎯f쎯	-9.00761
xo쎯	-9.00784
cc쎯w쎯	-9.00848
sp쎯e쎯	-9.00877
gyi쎯rqcl5쎯	-9.00931
qtun3쎯	-9.0134
vi쎯amg쎯	-9.01417
bmg쎯	-9.01464
d쎯am쎯	-9.0148
ird쎯vnh쎯	-9.01525
moo쎯afso쎯	-9.0165
hsfi1쎯	-9.01694
yxn쎯	-9.01695
va쎯	-9.01918
qhtr쎯	-9.02011
ospc쎯	-9.02182
xgj쎯	-9.02183
ivp쎯	-9.02313
sfi쎯	-9.02337
dxy쎯	-9.02355
ydiy2쎯	-9.02458
tlu쎯gw쎯	-9.02458
c	-9.02462
aeeb0쎯q쎯t쎯	-9.02528
abv쎯	-9.0266
thn쎯kkmw1쎯vpm쎯	-9.02726
nhw쎯	-9.02847
mhyx쎯	-9.02896
kfg쎯mvv쎯	-9.02921
kkk쎯	-9.02927
ayc쎯	-9.03087
ywi쎯qlga쎯	-9.03178
jq쎯qk쎯	-9.03188
sj쎯wxx쎯ivy쎯yh쎯	-9.03208
lnt쎯o쎯	-9.03409
dr쎯	-9.03422
wamy쎯	-9.03435
xj쎯sojh쎯jjyi0쎯	-9.03468
te쎯dm쎯	-9.03534
gxxe쎯fiv쎯	-9.03624
uxv쎯	-9.03736
mwi쎯s쎯	-9.0374
vt쎯tp쎯	-9.03774
uh쎯nq쎯	-9.03775
wyq쎯yv쎯	-9.03928
xiit0쎯	-9.03943
oaqy0쎯	-9.03974
oqg쎯	-9.0409
ydjh쎯	-9.04122
l쎯ifd쎯jjyi0쎯	-9.0416
meto1쎯	-9.04161
》aeeb0쎯	-9.04166
tfkc쎯ujl쎯	-9.04251
ynjg6쎯	-9.0429
xiy쎯	-9.04396
fo쎯	-9.04445
kq쎯frj쎯	-9.04447
ytg쎯	-9.04463
so쎯	-9.04495
cv쎯	-9.04528
rv쎯ynjg6쎯	-9.04577
xqiy쎯lk쎯vpm쎯	-9.04658
yk쎯	-9.04677
djj쎯	-9.04727
쎁eh쎯	-9.04772
m쎯re쎯	-9.04903
pa쎯	-9.04918
fhv쎯	-9.04972
e쎯m쎯	-9.0501
khwc5쎯	-9.05124
sks쎯	-9.05136
ejt쎯	-9.05403
lnt쎯ty쎯	-9.05463
bq쎯rawn0쎯	-9.05487
tvf쎯	-9.05551
sj쎯ks쎯qt쎯	-9.05636
pgin1쎯	-9.05661
ma쎯khom쎯	-9.05676
as쎯	-9.05793
enbm쎯	-9.05808
thn쎯kkmw1쎯	-9.05882
ujl쎯	-9.05902
bng쎯ld쎯	-9.0607
jh쎯fs쎯	-9.06085
aeeb0쎯uc쎯	-9.0636
ym쎯hsy쎯	-9.06386
avk쎯	-9.06535
nq쎯yh쎯	-9.06559
rwga0쎯kpw쎯	-9.06655
q쎯ox쎯	-9.07084
lf쎯d쎯	-9.07337
qfk쎯ea쎯	-9.07405
ulg쎯	-9.0773
vuxn쎯	-9.07733
p쎯i쎯pwit쎯	-9.0775
yjl쎯idi쎯	-9.07772
aps쎯wx쎯	-9.07779
ad쎯	-9.07806
ea쎯tfih쎯	-9.07808
lll쎯tdpx쎯	-9.07923
rnk쎯	-9.07971
trtf2쎯	-9.0806
fee쎯	-9.08129
vke쎯	-9.08263
rp쎯	-9.08322
avw쎯kkmw1쎯	-9.08359
wc쎯	-9.0855
gxxe쎯lmk쎯	-9.08739
xg쎯p쎯	-9.08793
yss쎯ps쎯	-9.08846
쎆rmae쎯	-9.09028
afgm쎯	-9.09207
fitb2쎯	-9.09257
wxdm1쎯qqb쎯	-9.09278
ai쎯rxl쎯	-9.09303
ud쎯mvv쎯kpe쎯	-9.09312
np쎯	-9.09404
wqg쎯lf쎯	-9.09415
e쎯y쎯	-9.09419
nrj쎯	-9.09422
ua쎯f쎯aeeb0쎯	-9.09453
dfn쎯rwxn쎯	-9.09501
tk쎯	-9.09521
mhdd1쎯	-9.09677
ao쎯xq쎯	-9.09714
gh쎯ipwm1쎯	-9.0988
dep쎯	-9.09956
ngg쎯	-9.09984
gj쎯	-9.10027
bhi쎯	-9.10047
knuv쎯	-9.10065
mt쎯kre쎯	-9.10083
yujf0쎯g쎯	-9.10088
ue쎯khpk1쎯	-9.10141
ugwe쎯	-9.10153
t쎯wb쎯qu쎯	-9.1022
f쎯ydx쎯	-9.10353
ma쎯wuk쎯	-9.10384
qlx쎯dccc쎯qtb쎯	-9.10394
aeeb0쎯ta쎯	-9.10623
ipwm1쎯	-9.10625
mht쎯	-9.10699
gm쎯ye쎯	-9.1076
tqd쎯	-9.10784
jfk쎯	-9.10933
gc쎯n쎯	-9.10961
wef쎯	-9.11015
iqn쎯	-9.11054
dj쎯	-9.11056
oi쎯dm쎯	-9.11085
nsk쎯	-9.111
of쎯	-9.11159
gip쎯	-9.11166
qtui쎯	-9.11282
ngu쎯	-9.11358
iyv쎯	-9.11415
gb쎯	-9.1152
쎅rmae쎯	-9.11594
fnan0쎯	-9.11596
hm쎯fyu쎯	-9.11641
bi쎯dtr쎯	-9.11723
rfhc쎯	-9.11747
src쎯ma쎯	-9.11768
njt쎯	-9.11817
tj쎯eh쎯	-9.11877
hd쎯	-9.11889
tfkc쎯wuk쎯	-9.11969
exjm쎯hw쎯	-9.12036
nqoy1쎯	-9.12249
jv쎯	-9.12252
hagh1쎯	-9.12258
epf쎯	-9.12263
mhj쎯	-9.12289
쎂쎇	-9.12299
oun쎯hv쎯	-9.12377
q쎯t쎯ox쎯h쎯wqg쎯	-9.12393
jp쎯	-9.12459
iu쎯ub쎯	-9.12499
kyhy쎯	-9.1253
dfn쎯xq쎯	-9.12545
ljh쎯qk쎯	-9.12625
mc쎯jl쎯	-9.12675
qfk쎯sy쎯	-9.12696
iwf쎯vc쎯	-9.12768
kqn쎯	-9.12805
md쎯bu쎯	-9.12828
pr쎯rtfh0쎯vpm쎯	-9.12858
n쎯mkq쎯	-9.129
quo쎯ahn쎯	-9.12902
d쎯or쎯aeeb0쎯	-9.1299
jsy쎯	-9.1307
tedh1쎯	-9.13123
wwkh3쎯	-9.13128
dhy쎯	-9.13174
dfn쎯moo쎯	-9.13322
tjh쎯	-9.13333
3쎯	-9.13351
cb쎯	-9.13399
lr쎯	-9.13429
gf쎯jl쎯	-9.13501
xb쎯	-9.13574
wgd쎯xj쎯vpm쎯	-9.13612
>	-9.13617
oyo쎯dtr쎯	-9.13695
ojgr0쎯wn쎯	-9.13862
kg쎯	-9.13989
qyx쎯	-9.14069
kkak5쎯	-9.14074
uhx쎯kth쎯	-9.14088
쎃쎆	-9.14245
aeeb0쎯a쎯	-9.14265
ofhw0쎯	-9.14404
sr쎯emg쎯	-9.14469
쎅쎀쎀	-9.14477
xpgm쎯wqq쎯	-9.14556
lu쎯qr쎯p쎯	-9.14618
쎂쎀쎀쎉od쎯	-9.14632
i쎯mb쎯	-9.14775
qpe쎯	-9.14802
ud쎯mqkf쎯	-9.14839
ytg쎯nv쎯	-9.1484
hcd쎯	-9.1488
ky쎯	-9.14912
dx쎯ptf쎯	-9.15036
pjv쎯rqci5쎯	-9.15121
ehf쎯	-9.15124
ssq쎯qqu쎯	-9.15162
mb쎯e쎯	-9.15225
iyc쎯aiyk쎯	-9.1524
khc쎯	-9.15254
ogu쎯	-9.15497
쎄rmae쎯	-9.15566
pui쎯	-9.1559
oh쎯	-9.15619
ff쎯fo쎯	-9.15711
쎁쎂rmae쎯	-9.15721
mhdd1쎯eh쎯	-9.15741
xqiy쎯lk쎯	-9.15752
vo쎯ecyj쎯	-9.15792
fs쎯d쎯	-9.15952
let쎯	-9.15973
pwx쎯tq쎯	-9.16017
r쎯jw쎯	-9.16053
btf쎯	-9.16122
dx쎯rj쎯	-9.1619
dk쎯rj쎯	-9.16199
ig쎯	-9.16254
rqcl5쎯yv쎯	-9.16364
ken쎯xq쎯	-9.16388
2쎯	-9.16403
kwb쎯ptf쎯	-9.16494
hyn쎯	-9.16522
tfih쎯wqfj쎯	-9.16524
ud쎯it쎯	-9.16535
ialp쎯	-9.16551
yup쎯	-9.16562
dx쎯jvf쎯	-9.16612
wxjl쎯	-9.16623
og쎯uh쎯	-9.16639
atm쎯sh쎯	-9.16725
vp쎯	-9.16727
mc쎯	-9.16741
g쎯eg쎯	-9.16744
tdpx쎯	-9.16789
쎃쎀쎀	-9.16869
ql쎯	-9.16891
vnb쎯aj쎯	-9.16917
ba쎯	-9.16947
icy쎯n쎯	-9.17241
ybb쎯kw쎯	-9.17471
tp쎯rqcl5쎯	-9.17474
xpgm쎯nl쎯	-9.17474
avw쎯ipwm1쎯	-9.17493
wrw쎯f쎯	-9.175
wgd쎯lk쎯vpm쎯	-9.17547
aeeb0쎯vfg쎯	-9.17552
rkj쎯	-9.17597
nvyh쎯ejhh쎯	-9.17632
pwq쎯	-9.17718
rxu쎯kkmw1쎯yh쎯	-9.17746
fgj쎯by쎯	-9.1784
ua쎯ld쎯	-9.17852
wgkn1쎯gc쎯oun쎯	-9.17867
amg쎯	-9.17872
fwgw0쎯	-9.17975
gfq쎯	-9.17979
iuc쎯no쎯	-9.17983
qq쎯	-9.17986
wxb1쎯	-9.17989
sm쎯	-9.18014
em쎯	-9.1804
cfwy0쎯	-9.18042
aeeb0쎯iy쎯	-9.18112
쎂쎀쎁쎀od쎯	-9.1813
gah쎯wqfj쎯	-9.18138
p쎯lnt쎯o쎯	-9.18146
》《	-9.18209
taq쎯	-9.18231
pwx쎯usr쎯	-9.18231
pjd쎯ao쎯	-9.18248
yjgo쎯	-9.18315
usf쎯kfg쎯	-9.18386
hdgh쎯	-9.18436
iyu0쎯	-9.18508
ugx쎯	-9.18612
쎂쎀쎀쎆od쎯	-9.18617
lge쎯	-9.18839
kth쎯	-9.18933
eeb쎯	-9.19026
tgj쎯	-9.19029
쎃rmae쎯	-9.19034
aps쎯	-9.19054
gq쎯g쎯	-9.19226
tt쎯	-9.19248
pq쎯s쎯	-9.19327
nrii쎯vb쎯	-9.1935
yff쎯khpk1쎯	-9.19383
nlg쎯	-9.19457
hlqj0쎯	-9.19471
scw쎯	-9.19503
iuc쎯mta쎯bu쎯	-9.19524
yjwn쎯	-9.19595
ad쎯gs쎯	-9.19619
xpgm쎯ekgd쎯	-9.19642
trtf2쎯t쎯	-9.19715
or쎯wb쎯	-9.19722
bt쎯th쎯	-9.19839
vfu쎯	-9.19929
쎆쎀쎀	-9.1994
s쎯wn쎯	-9.19949
xfw쎯	-9.20114
hjgf쎯	-9.20135
ji쎯uoo쎯	-9.20148
pg쎯	-9.20162
vd쎯	-9.2028
mmh쎯	-9.20392
e쎯f쎯aiyk쎯p쎯	-9.20399
rv쎯ynjg6쎯q쎯	-9.20455
jo쎯ce쎯	-9.20464
gc쎯oun쎯	-9.20482
iwu쎯	-9.20519
sggh0쎯	-9.20631
xu쎯ofn쎯	-9.2069
yyb쎯dx쎯wfn쎯	-9.20743
hal쎯rv쎯	-9.20774
igo쎯clny쎯	-9.20789
gqtd1쎯	-9.20796
tjdk1쎯	-9.20819
쎂쎉	-9.20835
lw쎯ewmw쎯njdf쎯	-9.2086
》w쎯	-9.20882
ujq쎯i쎯	-9.20984
gqy쎯khpk1쎯	-9.20989
bl쎯ybt쎯	-9.21001
vdg쎯	-9.21106
fcl쎯	-9.2126
fq쎯	-9.21321
ba쎯ru쎯	-9.21506
ix쎯e쎯	-9.21572
ktg쎯jadk쎯	-9.21584
qt쎯ji쎯	-9.21615
qgk쎯ta쎯	-9.21737
gf쎯gc쎯	-9.21766
gsyy쎯	-9.21807
ftl쎯dk쎯	-9.21822
puvk2쎯	-9.21833
tp쎯q쎯	-9.21878
쎂쎀쎀쎅od쎯	-9.21927
rke쎯apr쎯	-9.22089
》wgkn1쎯	-9.22093
uoo쎯	-9.22209
쎁rmae쎯	-9.22227
op쎯	-9.2251
jw쎯djdk0쎯khay7쎯	-9.2251
lv쎯	-9.2261
ssq쎯ib쎯	-9.22772
ecyj쎯	-9.22792
fd쎯aeeb0쎯aj쎯uug쎯	-9.22828
ywy쎯	-9.22869
ye쎯	-9.22877
qtbo쎯iue쎯	-9.22903
wt쎯opsh0쎯	-9.22995
luh쎯uyw쎯	-9.23015
te쎯trae1쎯	-9.23077
el쎯kq쎯	-9.23109
kfwm1쎯	-9.23151
bg쎯	-9.23218
u쎯mvv쎯	-9.23462
njf쎯	-9.23547
iyj쎯	-9.23618
wnv0쎯	-9.23675
itl쎯	-9.23748
ntt쎯	-9.23754
xpgm쎯mgji2쎯	-9.23779
slk쎯	-9.2382
jlj쎯md쎯	-9.2383
n쎯udb쎯	-9.23941
ay쎯iuc쎯	-9.24043
ynjg6쎯yv쎯	-9.24065
amg쎯kfg쎯	-9.24087
wuy쎯	-9.24119
jjgf2쎯	-9.24145
rvq쎯ksg쎯	-9.24191
mtyg쎯	-9.24271
epw쎯	-9.24484
dgx쎯	-9.24497
qhtr쎯tq쎯	-9.24576
rkl쎯lbh쎯	-9.24591
yss쎯	-9.2464
쎂쎀쎀쎇od쎯	-9.24673
=	-9.24695
ovt쎯	-9.24703
쎂.	-9.24749
gkq쎯snan쎯	-9.2476
mhnf쎯nsh쎯	-9.24789
aej쎯	-9.24811
쎁쎁rmae쎯	-9.24818
tfkc쎯duj쎯	-9.24855
amg쎯mn쎯	-9.24876
swf쎯	-9.24926
ijl쎯	-9.24934
msj쎯	-9.24985
qyvc쎯fgj쎯	-9.25011
ldf쎯	-9.25053
iyu0쎯amdo1쎯	-9.2507
duh쎯	-9.25136
ndhf쎯	-9.25154
rxu쎯	-9.25256
a쎯x쎯p쎯	-9.25368
ile쎯	-9.25454
amh쎯	-9.25554
qbc쎯hagh1쎯	-9.2558
aeeb0쎯cc쎯	-9.25649
mnpv쎯	-9.25713
hlcb쎯	-9.25794
hcjy쎯	-9.25798
jc쎯rw쎯	-9.25832
csh쎯xj쎯vpm쎯	-9.25864
qtun3쎯si쎯	-9.25914
ode쎯sb쎯	-9.25955
ed쎯mye쎯	-9.25968
y쎯pjd쎯	-9.26001
쎂쎀쎀쎄od쎯	-9.26032
dyqy2쎯	-9.2608
kwb쎯wwkh3쎯	-9.26252
aeeb0쎯x쎯iw쎯	-9.26286
ujq쎯nyp쎯ivw쎯	-9.26334
brt쎯	-9.26394
bgh쎯	-9.264
nnf쎯fyu쎯	-9.26454
qmd쎯	-9.26476
sfy쎯	-9.26519
vgki0쎯mlb쎯	-9.26521
sh쎯re쎯	-9.2656
ai쎯ni쎯	-9.26573
xxm쎯fq쎯	-9.26635
xyxl1쎯	-9.26636
tpk쎯wqfj쎯	-9.26844
쎂쎀쎀쎈od쎯	-9.269
tp쎯rke쎯	-9.26955
쎂쎀쎀쎀	-9.26962
f쎯od쎯	-9.27049
rhfw쎯	-9.27086
ubae쎯	-9.27097
cr쎯hu쎯	-9.27173
쎂쎀쎀쎀od쎯	-9.2738
mkq쎯	-9.2741
dqg쎯qk쎯	-9.27471
dww쎯	-9.27508
ac쎯dgl쎯	-9.2757
qm쎯	-9.27765
afso쎯	-9.27848
au쎯swwk0쎯	-9.27903
lld쎯ea쎯	-9.27987
khpk1쎯pr쎯	-9.28124
qc쎯pb쎯	-9.28129
i쎯khom쎯	-9.28212
wsmy쎯aaae쎯	-9.28249
bgmj쎯	-9.28288
ladr쎯	-9.28311
onan쎯	-9.28359
tpk쎯xant쎯	-9.28412
wrf쎯	-9.28455
q쎯wsmy쎯	-9.28463
vh쎯fqu쎯	-9.28513
dyt쎯	-9.28557
aeeb0쎯jm쎯v쎯	-9.28586
syk쎯ni쎯	-9.28588
mi쎯gyy쎯	-9.28634
f쎯ewmw쎯njdf쎯	-9.28693
tol쎯brg쎯	-9.28696
hd쎯ayec쎯	-9.28742
sfb쎯	-9.28754
sgk쎯	-9.28766
kyc쎯	-9.28854
hcr쎯	-9.28952
nl쎯ek쎯	-9.29001
kq쎯ja쎯	-9.29123
vl쎯	-9.29139
yd쎯jfmf쎯	-9.29141
txx쎯	-9.29171
iq쎯aeeb0쎯	-9.29307
vt쎯jffb쎯	-9.29312
쎄쎈	-9.29342
jvfh1쎯	-9.29361
qqu쎯dm쎯	-9.29392
?	-9.29457
el쎯abv쎯ftl쎯	-9.29489
ngj쎯	-9.29519
rus쎯	-9.29528
vcc쎯el쎯	-9.29539
st쎯tpk쎯	-9.296
smg쎯	-9.2966
g쎯ptf쎯	-9.29685
ub쎯dq쎯	-9.29702
inr쎯	-9.29713
pa쎯ub쎯d쎯or쎯	-9.29755
ae쎯d쎯	-9.29756
yltc쎯qtui쎯	-9.29778
쎃쎈	-9.29781
fyu쎯aeeb0쎯	-9.29847
muk쎯	-9.29853
p쎯ujq쎯nyp쎯	-9.29911
cybc쎯kre쎯	-9.30016
jc쎯cck쎯	-9.3004
tm쎯mmwn0쎯	-9.30152
ebb쎯	-9.30159
hnr쎯iyf쎯	-9.30164
oun쎯ybt쎯	-9.30167
khpk1쎯kq쎯	-9.30385
apq쎯	-9.30563
whm쎯	-9.30589
v쎯ay쎯	-9.30606
big쎯re쎯	-9.30656
yd쎯lt쎯	-9.3075
ujv쎯imy쎯	-9.3082
m쎯oun쎯xmb쎯tga쎯	-9.31062
qi쎯eu쎯	-9.31152
쎁쎉쎉쎆od쎯	-9.31169
aips0쎯	-9.31174
aeeb0쎯v쎯fe쎯	-9.31244
lvl쎯	-9.31265
khug0쎯q쎯t쎯	-9.3127
ile쎯or쎯	-9.31318
nl쎯mn쎯	-9.31384
scbm쎯	-9.31391
ymj쎯	-9.31436
wl쎯tdw쎯hw쎯xo쎯	-9.31442
ag쎯	-9.3146
gq쎯dk쎯	-9.31548
wrw쎯ji쎯	-9.316
aeeb0쎯fcr쎯	-9.31602
uv쎯wl쎯	-9.31618
ujq쎯nyp쎯lf쎯	-9.31657
hp쎯n쎯	-9.31664
aeeb0쎯ld쎯	-9.31703
aeeb0쎯wdjq쎯	-9.31747
eu쎯eny쎯	-9.31774
bmy쎯	-9.31781
aeeb0쎯ib쎯	-9.31809
'	-9.3182
mw쎯	-9.31889
ito쎯dvi쎯fyu쎯	-9.31909
mye쎯	-9.31965
wx쎯eh쎯	-9.31975
lll쎯	-9.32133
ipw쎯xyjg쎯	-9.32306
wwv쎯nl쎯nft쎯	-9.32318
lnt쎯nl쎯	-9.32359
um쎯ir쎯	-9.32362
gqq쎯	-9.32436
rw쎯eamy2쎯	-9.32549
nuy쎯	-9.3258
kqy쎯	-9.32584
ri쎯	-9.32586
xoy쎯	-9.3277
rwxn쎯	-9.32786
쎃쎁	-9.32979
쎂쎀쎀쎃od쎯	-9.33151
mevn쎯	-9.33158
lcmg쎯	-9.33192
gs쎯	-9.33206
ud쎯ib쎯	-9.33211
bwf쎯	-9.33226
mye쎯rw쎯	-9.33354
wgkn1쎯eecs쎯he쎯	-9.33362
sn쎯lm쎯	-9.33749
bb쎯oo쎯	-9.33829
src쎯lw쎯	-9.33921
xmqm쎯qv쎯	-9.34085
n쎯uh쎯	-9.34102
쎃쎄	-9.34138
hxf쎯	-9.3414
쎇쎅	-9.34161
bfq쎯nsh쎯	-9.34179
aeeb0쎯cc쎯w쎯	-9.34291
hn쎯qk쎯	-9.34322
yff쎯bu쎯	-9.34349
odwd쎯	-9.34419
jtg쎯xl쎯	-9.34617
pb쎯iyy쎯	-9.34734
yd쎯ip쎯	-9.34822
ds쎯	-9.34827
ek쎯bu쎯	-9.34835
ja쎯iysy쎯	-9.34849
tsce쎯nvyh쎯	-9.3486
kflc1쎯	-9.34932
mah쎯	-9.34994
kmw쎯j쎯	-9.34995
qfk쎯mn쎯	-9.35022
igh쎯	-9.35056
tey0쎯	-9.35139
du쎯	-9.35163
m쎯wxdm1쎯	-9.35227
쎂쎀쎀쎂od쎯	-9.35245
wgkn1쎯ta쎯	-9.35263
aeeb0쎯tyb쎯	-9.35273
ile쎯qc쎯p쎯	-9.35293
쎄쎀쎀	-9.35329
a쎯w쎯	-9.35388
apwr쎯	-9.35392
pyv쎯ni쎯	-9.354
hcw쎯gss쎯	-9.35421
qqu쎯rw쎯	-9.35457
icy쎯w쎯	-9.35466
xmb쎯ea쎯ivw쎯	-9.35471
sb쎯iyy쎯	-9.35471
vtkg2쎯	-9.35512
쎃쎇	-9.35611
ks쎯lf쎯qt쎯ks쎯lf쎯	-9.35656
m쎯oun쎯	-9.35673
chy쎯rw쎯	-9.35691
tdq쎯	-9.35714
wthg1쎯	-9.35733
nh쎯hipr쎯	-9.35842
khtq1쎯	-9.35851
..	-9.35871
f쎯fy쎯	-9.35878
aeeb0쎯m쎯o쎯	-9.3607
bmo쎯ay쎯	-9.36093
쎆쎄	-9.36179
gt쎯	-9.3618
bfq쎯ib쎯yh쎯	-9.36233
ma쎯jw쎯	-9.36345
tdj쎯	-9.36381
yd쎯kv쎯	-9.36395
gc쎯j쎯	-9.36453
cldg쎯	-9.36481
tg쎯	-9.36534
tehc2쎯	-9.36535
a쎯xl쎯	-9.36609
ek쎯iw쎯	-9.36639
ebco0쎯	-9.3665
tdh쎯u쎯	-9.36666
m쎯qap쎯	-9.36674
vgki0쎯	-9.36692
uh쎯ekgd쎯	-9.36695
쎂rmae쎯	-9.36814
al쎯sset쎯	-9.36852
yd쎯dp쎯yh쎯	-9.36861
moo쎯	-9.36864
fdi쎯dvi쎯	-9.36905
xl쎯si쎯	-9.36946
f쎯vg쎯	-9.36964
nqj쎯	-9.37011
tdw쎯si쎯	-9.37022
aat쎯fam쎯	-9.37072
odd쎯	-9.37122
ujn쎯	-9.37223
oopi2쎯	-9.37249
doq쎯	-9.3726
aeeb0쎯tyac쎯	-9.37278
ode쎯jgig1쎯	-9.37427
xdc쎯xq쎯	-9.37481
nj쎯mi쎯qut쎯	-9.37509
aymx0쎯vfi쎯	-9.37523
bq쎯ws쎯	-9.37629
wxg쎯	-9.37662
kxn쎯	-9.37726
bupn쎯	-9.37835
fhnn3쎯	-9.37844
쎆쎅	-9.37885
1쎯	-9.38009
iq쎯kv쎯	-9.38018
d쎯ynjg6쎯tga쎯	-9.38043
kth쎯wx쎯	-9.3813
pwlj쎯	-9.38141
kkmw1쎯yd쎯	-9.38252
tq쎯	-9.38266
쎃쎃	-9.38293
yqe쎯	-9.38301
po쎯	-9.38311
qk쎯ecu쎯	-9.38319
jjyi0쎯fsy쎯wgu쎯	-9.38419
tj쎯ewmw쎯njdf쎯	-9.38494
vvet쎯	-9.38681
deaw0쎯	-9.38866
gf쎯mye쎯	-9.38882
wx쎯od쎯	-9.38892
qbto2쎯	-9.38925
tw쎯	-9.38963
yo쎯hw쎯	-9.38973
mye쎯lf쎯	-9.38981
qtqh1쎯	-9.38991
dui쎯	-9.39025
’	-9.39046
ssq쎯ktg쎯	-9.3908
pn쎯eecs쎯	-9.39146
p쎯m쎯o쎯	-9.39185
fiv쎯fgj쎯	-9.3919
ai쎯ueh쎯	-9.39205
kcy0쎯	-9.39249
ivc쎯q쎯	-9.39428
쎁쎉쎉쎇od쎯	-9.39433
qxx쎯	-9.39517
rnr쎯	-9.39535
ir쎯ox쎯	-9.39581
sh쎯ekm쎯	-9.39597
dygg쎯	-9.39598
dnb쎯vey쎯	-9.39666
mhdd1쎯aiyk쎯	-9.39684
fd쎯aeeb0쎯	-9.39754
qi쎯lk쎯	-9.39764
쎁쎉쎉쎈od쎯	-9.39764
hxb0쎯rs쎯apr쎯	-9.39779
kgb쎯	-9.39812
vfg쎯pb쎯	-9.399
apx쎯	-9.39907
hw쎯mb쎯y쎯	-9.40032
hu쎯pyxf쎯	-9.4006
aj쎯uug쎯	-9.40087
sfk쎯ptf쎯	-9.40294
df쎯	-9.40364
ra쎯	-9.40379
iq쎯qwmc1쎯	-9.40427
yltc쎯xxf쎯	-9.40434
aeeb0쎯am쎯n쎯	-9.40456
쎁쎉쎉쎅od쎯	-9.40486
쎇rmae쎯	-9.40529
qc쎯wgkn1쎯	-9.40529
tdj쎯uftj2쎯	-9.40589
bq쎯qn쎯	-9.40613
ytx쎯	-9.40635
(rqci5쎯	-9.40718
rwno쎯	-9.40792
xmb쎯is쎯	-9.40824
trk쎯	-9.40833
quo쎯ahn쎯jjyi0쎯	-9.40901
lm쎯ksg쎯	-9.40908
sny쎯	-9.40911
xf쎯	-9.40949
lk쎯kq쎯	-9.40964
aqdy쎯	-9.40965
rawn0쎯	-9.41035
gw쎯jjyi0쎯	-9.41048
tfkc쎯jdn쎯	-9.41084
vt쎯ld쎯	-9.411
jmf쎯	-9.41103
gc쎯dk쎯fs쎯	-9.41123
m쎯gfkk1쎯	-9.41134
w쎯j쎯	-9.41172
v쎯qn쎯	-9.41256
fdi쎯	-9.41334
wgkn1쎯ea쎯rke쎯	-9.41398
jqw쎯yltc쎯	-9.41417
ue쎯khpk1쎯vpm쎯	-9.41428
쎁쎀쎀쎀	-9.41452
igj쎯mlb쎯	-9.41463
쎂eh쎯	-9.41492
쎁쎉쎉쎂od쎯	-9.41508
vwnn0쎯sii쎯	-9.41512
rqah쎯	-9.41717
e쎯“	-9.41733
kfkv쎯	-9.41763
ags쎯	-9.41774
tp쎯ewmw쎯	-9.41813
wsmy쎯sy쎯	-9.4187
bib쎯	-9.41906
iue쎯kuy쎯knx쎯vb쎯	-9.41909
fmud쎯fyu쎯	-9.41969
rw쎯iq쎯	-9.42002
xxm쎯mhdd1쎯	-9.42046
edx쎯	-9.4221
ytt쎯	-9.42272
sh쎯ruk쎯	-9.42298
jqug쎯	-9.42408
ito쎯	-9.4242
gx쎯	-9.42491
bwgj1쎯	-9.42509
mk쎯	-9.42565
tad쎯	-9.42599
ii쎯xr쎯	-9.42638
trsk쎯	-9.42691
ynkt2쎯	-9.42724
ujv쎯	-9.42892
bgm쎯wx쎯	-9.4291
kag0쎯	-9.42921
쎂쎀쎀쎁od쎯	-9.42993
ard쎯yuh쎯	-9.43026
vffy쎯ybb쎯	-9.43041
qlx쎯m쎯oun쎯	-9.43065
lc쎯	-9.4309
m쎯et쎯	-9.43177
ocb쎯	-9.43224
ipw쎯	-9.43278
yff쎯khpk1쎯vpm쎯	-9.43289
xant쎯	-9.43306
rvyo쎯jgig1쎯	-9.43442
wx쎯qsy쎯	-9.43444
tuqj쎯ib쎯	-9.43522
awy쎯rqcl5쎯	-9.4355
swcn0쎯	-9.43587
ox쎯n쎯	-9.43588
wgkn1쎯m쎯o쎯	-9.43629
qogp1쎯	-9.43664
쎅쎅	-9.43698
evf쎯	-9.43739
odwd쎯fw쎯	-9.43931
wpn쎯	-9.43954
tuqj쎯frj쎯	-9.44018
ifd쎯rp쎯	-9.44058
aeeb0쎯gc쎯oun쎯	-9.44076
쎁쎉쎉쎉od쎯	-9.44118
ladr쎯tddk쎯	-9.44147
wb쎯du쎯qt쎯qt쎯lf쎯	-9.44164
u쎯wpn쎯	-9.44171
heg쎯ub쎯	-9.44216
lm쎯yh쎯	-9.44218
raw쎯	-9.44236
flmu0쎯	-9.44241
w쎯q쎯t쎯	-9.44348
vnf쎯la쎯	-9.44361
pwit쎯jl쎯	-9.44364
uwn쎯	-9.44453
rmae쎯pa쎯ub쎯d쎯or쎯	-9.4446
sbn쎯	-9.44484
mtff2쎯qk쎯	-9.44733
tyt쎯aiyk쎯	-9.44789
jc쎯uxv쎯y쎯	-9.44827
ivy쎯yh쎯yff쎯bu쎯	-9.44837
fvq쎯kre쎯	-9.44879
vqbd쎯	-9.44909
p쎯r쎯	-9.44972
ujq쎯	-9.45144
gah쎯ji쎯khug0쎯	-9.45205
yakl쎯	-9.45304
nnnc쎯	-9.45488
<	-9.45583
g쎯kmyn쎯	-9.45591
쎈쎀쎀	-9.45648
rqk쎯	-9.45681
mfj쎯tdpx쎯	-9.45705
sh쎯rnj쎯	-9.45712
dfd쎯	-9.45745
쎁쎉쎉쎃od쎯	-9.45749
khhc1쎯	-9.45797
bxxg쎯thgt1쎯	-9.45812
um쎯ea쎯	-9.45864
avw쎯vc쎯	-9.45978
whdy쎯	-9.46072
mgji2쎯	-9.46112
xk쎯	-9.46195
aukv0쎯	-9.46196
gq쎯iw쎯	-9.46255
ma쎯qyvg0쎯	-9.46266
tig쎯wsmy쎯	-9.46271
쎄쎂	-9.46314
bng쎯hw쎯p쎯	-9.46343
qx쎯xgx쎯	-9.46412
bnhc1쎯	-9.46444
wsmy쎯bda쎯	-9.46689
yjhh쎯	-9.4672
rj쎯lfoj2쎯	-9.46802
sguk0쎯	-9.46811
ddi쎯	-9.46838
qto쎯ou쎯iyjf2쎯	-9.46951
pydg0쎯xq쎯	-9.46973
cybc쎯xq쎯	-9.46974
flf0쎯kw쎯	-9.46975
dqf쎯	-9.47008
mm쎯aeeb0쎯	-9.47021
ly쎯	-9.47049
vi쎯fq쎯	-9.47294
du쎯xxm쎯	-9.47336
wgkn1쎯“	-9.47408
ajb쎯	-9.47428
bi쎯ode쎯spx쎯nft쎯	-9.47443
hw쎯f쎯xo쎯	-9.47506
xj쎯kq쎯	-9.47551
sgk쎯ytg쎯	-9.47708
kf쎯uf쎯	-9.47739
rnoe쎯	-9.47756
tlu쎯afwe1쎯	-9.47803
pi쎯yd쎯	-9.47809
xxm쎯pn쎯	-9.47834
vh쎯fqu쎯p쎯	-9.47922
pyaj1쎯	-9.47923
fm쎯	-9.47936
gar쎯	-9.47971
g쎯qn쎯	-9.4798
hxb0쎯	-9.48013
fjt쎯	-9.48048
aeeb0쎯rca쎯n쎯	-9.48051
um쎯hu쎯eg쎯	-9.48108
aeeb0쎯xl쎯v쎯	-9.48148
vi쎯mvv쎯	-9.4816
og쎯kd쎯	-9.48162
aeeb0쎯yd쎯e쎯	-9.48311
iuc쎯imy쎯fs쎯	-9.4832
tfh쎯	-9.48408
」	-9.48447
lnt쎯ty쎯jjyi0쎯	-9.48455
pk쎯mf쎯	-9.48467
ito쎯dvi쎯	-9.48476
qo쎯	-9.48546
aeeb0쎯ix쎯mr쎯	-9.48573
im쎯	-9.48578
tmjw쎯	-9.48615
swcn0쎯nv쎯	-9.48632
nl쎯aymx0쎯	-9.48769
pq쎯bskg쎯	-9.4878
nq쎯gm쎯	-9.48783
aeeb0쎯sx쎯kam쎯	-9.48839
uyy쎯wqfj쎯	-9.48888
emc쎯fe쎯	-9.48894
ffio1쎯	-9.48911
ugx쎯hnu쎯yh쎯	-9.48924
gqy쎯khpk1쎯vpm쎯	-9.48931
xynt0쎯	-9.48932
ayf쎯	-9.49027
hbms쎯	-9.49096
aeeb0쎯ity1쎯as쎯	-9.49203
dfn쎯nv쎯	-9.49229
sj쎯s쎯	-9.49251
iux쎯yv쎯	-9.49294
pugy1쎯	-9.49304
nui쎯	-9.49358
aeeb0쎯hcw쎯aeeb0쎯	-9.49364
jl쎯	-9.4945
imy쎯kw쎯	-9.49455
《q쎯t쎯	-9.49502
ejhh쎯lfi쎯	-9.49513
is쎯dx쎯	-9.49527
ud쎯ni쎯	-9.49563
쎉쎈	-9.4963
am쎯aiyk쎯	-9.49647
쎃.	-9.49757
cw쎯rj쎯	-9.49787
cc쎯n쎯	-9.49848
wll쎯um쎯	-9.49874
abci쎯mn쎯	-9.49942
qie쎯	-9.49965
cthc쎯nnf쎯	-9.50006
kkmw1쎯dp쎯y쎯	-9.50059
kfc쎯	-9.50078
bfq쎯mn쎯	-9.50216
igo쎯p쎯	-9.50217
xh쎯	-9.50233
dvlg쎯up쎯	-9.50234
sl쎯	-9.50266
mrdf쎯fwf쎯	-9.50355
a쎯ospc쎯	-9.50364
ot쎯mta쎯	-9.50375
fp쎯	-9.50465
cb쎯lm쎯	-9.50484
tx쎯mu쎯	-9.50516
gjnb쎯	-9.50576
moi쎯hi쎯	-9.5061
tbf1쎯	-9.50625
flmu0쎯dedw쎯	-9.50628
sd쎯lt쎯	-9.50628
ma쎯nr쎯	-9.50645
noof쎯vc쎯wgkn1쎯	-9.50649
tj쎯od쎯	-9.50684
kyhy쎯cr쎯	-9.50715
f쎯qu쎯	-9.50732
akhl0쎯xr쎯	-9.50743
thc쎯	-9.50759
kht쎯	-9.50789
pyni쎯	-9.50789
kwg쎯	-9.50828
jqak쎯	-9.50855
tean쎯	-9.50867
ywk쎯	-9.50869
쎄쎃	-9.50899
drj0쎯jh쎯	-9.51057
f쎯xq쎯	-9.51108
lw쎯src쎯	-9.51108
「	-9.51119
akm쎯	-9.51326
ua쎯wn쎯p쎯	-9.51476
ma쎯xkjh쎯il쎯	-9.51488
thgt1쎯ojgr0쎯	-9.51511
gl쎯qc쎯	-9.51538
ifk1쎯	-9.51587
drh쎯gu쎯	-9.51591
snan쎯jjyi0쎯	-9.51649
avw쎯kkmw1쎯yh쎯	-9.51652
pgc쎯	-9.51683
pa쎯usf쎯	-9.51799
gw쎯jlj쎯	-9.5182
aeeb0쎯wv쎯	-9.51857
ojgr0쎯yjgo쎯	-9.51886
iux쎯qyv쎯	-9.51899
krlo쎯	-9.51964
xep쎯apr쎯	-9.51968
aeeb0쎯ix쎯	-9.52009
tfns1쎯rrr쎯	-9.52036
j쎯q쎯t쎯	-9.52057
bib쎯wb쎯	-9.52091
ode쎯rdw쎯	-9.52133
imk쎯ipx쎯	-9.5215
afn쎯	-9.52161
fn쎯	-9.52205
쎁쎉쎉쎄od쎯	-9.52205
aeeb0쎯ode쎯rv쎯	-9.52225
sssh쎯	-9.5228
uugi쎯	-9.52395
set쎯	-9.52397
wqg쎯ks쎯ybb쎯kf쎯	-9.524
tp쎯rqcl5쎯ir쎯vfi쎯	-9.52411
yo쎯ydx쎯	-9.52568
pa쎯qfk쎯	-9.52579
ky쎯lmk쎯	-9.5258
b쎯tthn0쎯	-9.52664
yjlg쎯	-9.52709
ea쎯fyu쎯	-9.52742
qtb쎯	-9.52753
gc쎯ksg쎯	-9.52781
emg쎯	-9.52798
쎁.쎅	-9.52886
vffy쎯ybb쎯wfn쎯	-9.52911
쎄쎆	-9.52913
sln쎯	-9.53003
r쎯qrhg쎯	-9.53077
imy쎯ni쎯	-9.5312
v쎯ay쎯aeeb0쎯	-9.53167
so쎯oju쎯	-9.53216
eh쎯sj쎯s쎯ek쎯mhnf쎯	-9.53244
nv쎯vk쎯	-9.53317
sdm쎯	-9.53325
wh쎯	-9.5334
sgkp쎯oun쎯	-9.53383
p쎯tuqj쎯vc쎯	-9.53409
ipwm1쎯djdk0쎯	-9.53418
t쎯uv쎯	-9.53439
mc쎯qgwy쎯	-9.53451
쎃쎉	-9.53475
igj쎯	-9.53504
nrk쎯	-9.5352
tfkc쎯gss쎯	-9.53568
dccc쎯yqt쎯kq쎯	-9.5358
vyl쎯	-9.536
tsce쎯	-9.53623
쎄쎄	-9.53677
pwx쎯qhtr쎯	-9.53692
wxdm1쎯cybc쎯	-9.53746
oob쎯tfkc쎯p쎯	-9.53762
tqd쎯yr쎯	-9.53763
sh쎯vvet쎯	-9.53763
hey쎯	-9.53765
resy0쎯	-9.53791
bd쎯	-9.53799
r쎯iq쎯	-9.53822
xjbc1쎯	-9.53825
eewq0쎯f쎯	-9.53829
bfq쎯ofn쎯	-9.53874
yaqh0쎯nr쎯	-9.53882
aeeb0쎯qtyy3쎯	-9.54031
ilqj쎯	-9.54049
bl쎯lt쎯	-9.54142
giq쎯	-9.54143
yqt쎯	-9.54192
l쎯aeeb0쎯	-9.54214
n쎯ag쎯ir쎯yoq쎯w쎯	-9.54219
haa쎯	-9.5429
qh쎯	-9.5432
wl쎯ea쎯tdw쎯kd쎯	-9.54427
gnyf5쎯	-9.54432
gah쎯dp쎯	-9.54484
ma쎯khom쎯yh쎯	-9.54527
ii쎯rj쎯	-9.54534
ydx쎯ay쎯	-9.54616
ip쎯wl쎯	-9.54768
drj0쎯afwe1쎯	-9.54776
quo쎯dm쎯	-9.54782
ivc쎯yd쎯	-9.54833
khui5쎯	-9.54834
avw쎯um쎯	-9.54879
gss쎯p쎯	-9.54953
mhdd1쎯nsh쎯	-9.54956
dfc쎯	-9.54962
wdtf쎯	-9.5498
qvyy1쎯	-9.55036
쎁쎅쎀	-9.55087
pf쎯ffuj쎯	-9.5509
jap쎯	-9.55131
drh쎯afso쎯	-9.55153
krj쎯bpx쎯	-9.5521
쎅-	-9.55255
imy쎯uyw쎯	-9.55259
veg쎯snan쎯	-9.55332
gw쎯sj쎯	-9.55334
wdj쎯	-9.55343
jfmf쎯n쎯	-9.55395
laf쎯ylkm1쎯	-9.55475
jdwd0쎯	-9.55484
nxi쎯	-9.5556
aw쎯	-9.55581
yxi쎯	-9.55611
nl쎯wb쎯	-9.55632
ewmw쎯g쎯	-9.55639
abr쎯r쎯	-9.55695
jt쎯mc쎯	-9.55702
iyu0쎯pb쎯	-9.55735
pp쎯nsh쎯gss쎯	-9.55741
qqn쎯	-9.55858
쎃eh쎯	-9.5589
u쎯jgig1쎯	-9.55902
hsy쎯	-9.55909
쎄쎇	-9.55913
atte쎯qpgh쎯aeeb0쎯	-9.56016
udl쎯	-9.56018
ym쎯	-9.56155
dxj쎯	-9.56165
hto쎯tga쎯	-9.56172
qpw쎯	-9.56188
wxx쎯ivy쎯yh쎯	-9.56192
n쎯ag쎯sgkp쎯oun쎯	-9.56199
bue쎯nsh쎯	-9.562
me쎯	-9.56242
ruk쎯ybb쎯	-9.56268
snff1쎯	-9.56289
lmk쎯	-9.56305
nwc쎯	-9.56308
bx쎯mm쎯	-9.56399
ir쎯ngh쎯	-9.56434
sj쎯tfih쎯yh쎯	-9.56455
ni쎯mn쎯	-9.56544
nnw쎯	-9.56552
jpdi쎯	-9.5658
ar쎯il쎯	-9.56583
wtx쎯xi쎯yss쎯	-9.56584
st쎯hv쎯wgkn1쎯	-9.56588
kkak5쎯hw쎯	-9.56618
wgkn1쎯no쎯yh쎯	-9.5667
hcw쎯nr쎯	-9.56688
sukq쎯	-9.56781
oat쎯	-9.56785
yuq쎯	-9.56819
tey0쎯ei쎯	-9.56989
jnv쎯	-9.56989
itk쎯	-9.57007
nul쎯	-9.57016
tw쎯te쎯	-9.57057
mtyg쎯xq쎯	-9.5713
쎆쎆	-9.57203
wsmy쎯dx쎯	-9.57246
oyx쎯	-9.57273
4쎯	-9.57358
afhn0쎯	-9.57363
yd쎯jccn쎯	-9.57367
qi쎯khpk1쎯	-9.57372
vjl쎯	-9.57409
aw쎯fsy쎯	-9.57416
qtps1쎯qqu쎯	-9.57461
hqay쎯	-9.57464
qn쎯aeeb0쎯	-9.57494
wamy쎯ciqn0쎯	-9.57496
aeeb0쎯k쎯	-9.57627
mgji2쎯oi쎯	-9.57682
k쎯ql쎯	-9.57713
ai쎯nr쎯mt쎯hv쎯	-9.57731
ptu쎯od쎯	-9.57849
w쎯f쎯wb쎯	-9.57855
alq쎯	-9.57885
fhck쎯	-9.57886
gm쎯wwv쎯	-9.57894
nqoy1쎯snan쎯	-9.57903
gy쎯jn쎯vpm쎯	-9.5791
ujq쎯nyp쎯qt쎯	-9.5792
dna쎯cqq쎯	-9.58037
syl쎯	-9.58078
nl쎯tga쎯	-9.58083
tp쎯yv쎯	-9.58084
ie쎯	-9.58086
uww쎯	-9.58168
rvq쎯uyw쎯	-9.5821
trx쎯	-9.58258
muu쎯	-9.5837
쎁쎉쎉쎀od쎯	-9.58375
yd쎯faw쎯	-9.58481
go쎯wi쎯	-9.58486
mdmj3쎯	-9.58508
vi쎯	-9.58552
xmqm쎯og쎯	-9.58566
lp쎯	-9.58575
ush쎯sf쎯	-9.58689
nsh쎯yd쎯	-9.58751
tuqj쎯qqb쎯	-9.58854
lfoj2쎯	-9.58867
ptu쎯eh쎯	-9.58893
x쎯oo쎯	-9.58914
ynkt2쎯itl쎯	-9.58956
》q쎯	-9.58997
am쎯xant쎯	-9.59053
p쎯wt쎯ien쎯l쎯	-9.59079
ffcu1쎯	-9.59116
gkqq쎯	-9.5914
uh쎯khug0쎯	-9.59183
q쎯kq쎯	-9.59255
kr쎯	-9.59315
ffuj쎯	-9.59368
bfq쎯	-9.59551
vsg쎯	-9.59694
njy1쎯	-9.59703
frg쎯	-9.59712
kfm쎯	-9.59714
wqg쎯mhnf쎯yd쎯lf쎯	-9.59716
qc쎯aeeb0쎯	-9.59743
bmy쎯sb쎯	-9.5979
wx쎯iyc쎯aiyk쎯	-9.59855
kny쎯	-9.59861
slk쎯dm쎯	-9.59864
geqc쎯vjl쎯	-9.59888
kj쎯u쎯	-9.59922
yem쎯	-9.59971
tl쎯	-9.6
oue쎯	-9.60028
tp쎯igo쎯tdw쎯kd쎯	-9.60033
qpgh쎯sfk쎯	-9.60061
쎂.쎀	-9.60069
fw쎯dpq쎯	-9.6008
rvyo쎯j쎯	-9.60145
tuqj쎯vc쎯p쎯	-9.60267
쎅쎆	-9.60353
qr쎯p쎯	-9.60367
tieh쎯	-9.6041
tpk쎯xxf쎯	-9.60436
aeeb0쎯oun쎯	-9.60524
qdbq1쎯	-9.60536
pyf쎯	-9.60566
쎅쎂	-9.60604
rbi쎯	-9.60611
r쎯aiyk쎯	-9.60713
v쎯“	-9.60763
nl쎯swwk0쎯	-9.60768
gy쎯jn쎯	-9.60785
pwtn1쎯	-9.60792
nbs쎯ywk쎯	-9.60793
uj쎯bigk쎯	-9.60827
tx쎯bu쎯	-9.60848
el쎯wqfj쎯	-9.60875
sgk쎯e쎯	-9.60906
pjd쎯mpf쎯	-9.60987
uyw쎯	-9.6106
fam쎯ain쎯	-9.6108
yxwo0쎯	-9.61105
쎄eh쎯	-9.61121
g쎯rj쎯	-9.61201
쎁쎂쎀	-9.61213
ei쎯aps쎯	-9.61262
aeeb0쎯ptu쎯	-9.61273
hloo쎯	-9.61288
jqug쎯kkk쎯	-9.61318
-쎁	-9.61348
lnt쎯o쎯p쎯	-9.61444
gdww쎯	-9.61496
uh쎯cybc쎯	-9.61558
ifd쎯xpr쎯	-9.61603
kv쎯ue쎯	-9.61639
ewmw쎯qu쎯	-9.61659
cq쎯	-9.61822
swcn0쎯h쎯	-9.61839
lmg쎯	-9.61839
ulg쎯amwn4쎯	-9.61844
vg쎯yd쎯	-9.61848
f쎯ql쎯	-9.61888
ipwm1쎯yd쎯	-9.61898
stx쎯	-9.61918
uj쎯	-9.61925
wgdy1쎯	-9.61945
ce쎯lfoj2쎯	-9.62156
tlu쎯afwe1쎯p쎯	-9.62187
yyq쎯	-9.62192
dgl쎯fk쎯	-9.62192
mi쎯sgy쎯	-9.62338
vfg쎯qc쎯	-9.62372
jl쎯moo쎯	-9.62395
ri쎯xiy쎯	-9.62427
r쎯hu쎯	-9.62487
tdw쎯kd쎯r쎯lf쎯	-9.62512
aiyk쎯mvv쎯	-9.62526
ew쎯vc쎯	-9.62541
쎁쎉쎈쎅od쎯	-9.62556
aeeb0쎯ku쎯	-9.62569
cy쎯	-9.62604
wrw쎯	-9.62627
gss쎯ptf쎯	-9.62692
nynq쎯	-9.627
nls쎯	-9.62714
btaf0쎯	-9.62735
‘	-9.62759
fgo쎯	-9.62865
hpg쎯dx쎯	-9.62902
쎁쎉쎈쎈od쎯	-9.62906
wxdm1쎯afw쎯	-9.62936
lud쎯ln쎯	-9.62936
ucd쎯	-9.62989
eoy쎯mcqb쎯wnb쎯	-9.63001
owy쎯	-9.63052
aw쎯hv쎯	-9.63061
vip쎯aiyk쎯	-9.63067
wnv0쎯aeeb0쎯	-9.63083
sip쎯	-9.63099
yajp쎯	-9.63126
me쎯wfn쎯	-9.63141
aeeb0쎯ws쎯ld쎯	-9.63155
xq쎯tfih쎯	-9.63175
mtd쎯	-9.63237
lx쎯	-9.63246
xyxe2쎯tq쎯	-9.6326
d쎯haeo쎯	-9.63277
gxxe쎯ehk쎯	-9.63298
cc쎯wgkn1쎯”	-9.63318
wa쎯sfjh쎯	-9.63354
ai쎯wd쎯	-9.63368
sxe쎯	-9.63385
yvg쎯	-9.63404
gv쎯	-9.63427
msj쎯nv쎯	-9.63453
쎄.	-9.63502
tamy0쎯	-9.63504
wgkn1쎯ip쎯	-9.6351
쎁쎉쎈쎄od쎯	-9.63613
drj0쎯ipwm1쎯	-9.63671
lrdd쎯	-9.63697
akhl0쎯	-9.637
xi쎯vn쎯	-9.63706
nl쎯jal쎯	-9.63722
kmyn쎯	-9.63741
...	-9.63763
tfkc쎯wuk쎯w쎯	-9.63791
yh쎯f쎯aiyk쎯p쎯	-9.63833
f쎯wb쎯	-9.63845
wll쎯mb쎯	-9.63975
pwq쎯kl쎯	-9.64025
aeeb0쎯brg쎯	-9.64029
쎅%	-9.64077
vt쎯igo쎯	-9.64084
wgkn1쎯mr쎯	-9.64126
xi쎯yss쎯쎁	-9.64203
vffy쎯ghtp쎯	-9.64223
ai쎯lfi쎯dv쎯	-9.64263
mmwn0쎯	-9.64282
wu쎯g쎯xi쎯yss쎯	-9.64362
lrxv쎯	-9.64499
w쎯v쎯	-9.64505
hpg쎯	-9.64541
hubp쎯ywi쎯	-9.64588
sfjh쎯g쎯h쎯	-9.64592
oth쎯qk쎯	-9.64593
jgig1쎯hv쎯rj쎯hu쎯	-9.64622
ujq쎯nyp쎯q쎯cw쎯	-9.64639
aeeb0쎯gc쎯	-9.64682
aeeb0쎯ir쎯yoq쎯	-9.64693
re쎯	-9.647
ued쎯	-9.6476
uwvn2쎯	-9.6477
kkak5쎯rw쎯	-9.64875
쎂-	-9.64885
vbs쎯	-9.64888
scce0쎯	-9.64893
yuq쎯nsh쎯	-9.64917
knx쎯vb쎯kq쎯	-9.6497
rxu쎯odd쎯	-9.65012
qtw쎯	-9.65031
cr쎯bu쎯	-9.65054
thy쎯	-9.65075
i쎯pwit쎯p쎯	-9.65135
ei쎯od쎯	-9.65145
al쎯	-9.65154
ehk쎯	-9.65175
t쎯hv쎯ivw쎯	-9.65219
si쎯rxl쎯	-9.65293
e쎯m쎯aeeb0쎯	-9.65471
bskg쎯hfc쎯	-9.65567
r쎯wsmy쎯	-9.65577
ype쎯	-9.65586
yrtj1쎯	-9.65612
hw쎯eamy2쎯	-9.65617
ud쎯mb쎯	-9.65718
sw쎯xoy쎯	-9.6573
rpk쎯	-9.65731
kkmw1쎯wxg쎯	-9.65735
gw쎯vpm쎯	-9.65765
sbti0쎯	-9.65814
kkak5쎯imy쎯	-9.6583
쎂쎀쎁쎂od쎯	-9.65884
kf쎯ic쎯	-9.65984
mdnt0쎯atm쎯	-9.65993
yb쎯ojgr0쎯	-9.66123
rdg쎯	-9.66125
ba쎯쎁	-9.66183
btjy쎯	-9.66192
쎂쎀쎁쎁od쎯	-9.66194
xmb쎯wl쎯nl쎯ea쎯	-9.66207
wct쎯yttg0쎯	-9.66246
쎅쎄	-9.66286
jkj쎯	-9.66297
)rqqy2쎯	-9.66347
uyy쎯nsh쎯	-9.6639
cgey1쎯	-9.66398
ybb쎯kf쎯	-9.66403
m쎯vq쎯	-9.66421
pwit쎯iccc2쎯	-9.6645
fe쎯iw쎯	-9.66471
tlu쎯	-9.6655
tjj쎯	-9.66599
khay7쎯쎁	-9.66688
rk쎯	-9.66717
dfe쎯yv쎯	-9.66717
kqdc쎯	-9.66819
lnt쎯igo쎯	-9.66839
aeeb0쎯kj쎯	-9.66885
or쎯pwx쎯	-9.66961
iav쎯	-9.66978
쎁쎉쎈쎉od쎯	-9.67004
md쎯yttg0쎯	-9.67057
u쎯xfw쎯ea쎯	-9.67066
xd쎯oi쎯	-9.67087
aeeb0쎯uc쎯ity1쎯	-9.67102
vgo쎯	-9.67106
-쎂	-9.67144
qtps1쎯》khay7쎯“	-9.67171
rhb쎯ij쎯	-9.67177
qi쎯kq쎯	-9.6719
t쎯yujf0쎯xi쎯yss쎯	-9.67303
tol쎯taho0쎯	-9.6731
rnj쎯	-9.67331
ivw쎯rke쎯	-9.67351
jx쎯si쎯	-9.6743
tdw쎯	-9.67466
wwym0쎯	-9.67566
eym쎯ib쎯	-9.6757
ly쎯ji쎯	-9.67592
wx쎯oey쎯	-9.67605
쎅쎈	-9.67693
ix쎯sfk쎯	-9.67712
qtps1쎯iyc쎯	-9.67882
qlga쎯	-9.67889
rnp쎯	-9.67972
ygh쎯tx쎯	-9.67976
p쎯ek쎯	-9.68
nf쎯	-9.68072
ba쎯bm쎯	-9.68138
i쎯cqq쎯	-9.68155
lx쎯ma쎯	-9.68214
og쎯yuh쎯	-9.68238
》abr쎯khay7쎯“	-9.68276
mpf쎯	-9.68316
yd쎯ew쎯	-9.68343
쎁쎉쎈쎇od쎯	-9.68423
qtb쎯stt쎯	-9.68431
pjd쎯ao쎯eu쎯eny쎯	-9.68462
lk쎯xj쎯	-9.68646
aeeb0쎯tep쎯	-9.68647
쎁쎉쎉쎁od쎯	-9.68708
amb쎯	-9.68732
ib쎯kre쎯	-9.68762
itdj2쎯	-9.68771
smg쎯ujn쎯	-9.68772
쎁쎉쎈쎆od쎯	-9.68831
gk쎯	-9.68861
ok쎯hcw쎯	-9.68878
imy쎯or쎯	-9.68883
aeeb0쎯ls쎯as쎯	-9.68899
skh쎯	-9.68902
쎆쎈	-9.68905
hb쎯eny쎯	-9.68909
s쎯m쎯	-9.68916
by쎯y쎯	-9.6893
rwxn쎯djdk0쎯	-9.69005
tig쎯goi쎯	-9.69015
fiv쎯rley쎯	-9.69042
vip쎯sd쎯	-9.69052
gc쎯ekgd쎯	-9.69074
v쎯ld쎯	-9.69124
m쎯aiyk쎯	-9.69142
p쎯g쎯eu쎯	-9.69143
a쎯ryce0쎯taw쎯	-9.69171
ewmw쎯mwi쎯or쎯dx쎯	-9.69285
bj쎯	-9.69303
bq쎯rawn0쎯jjyi0쎯	-9.69381
kw쎯wb쎯	-9.69392
vjl쎯il쎯	-9.69404
nnw쎯pe쎯	-9.69452
jvf쎯mb쎯	-9.6949
쎉쎆	-9.69516
mk쎯maq쎯	-9.69527
wsmy쎯bigk쎯	-9.69537
쎄-	-9.69547
vq쎯rj쎯jeb쎯	-9.69562
rke쎯kv쎯	-9.69728
cmb쎯	-9.69729
re쎯lmk쎯	-9.69806
emw쎯	-9.69847
tsf쎯dccc쎯	-9.69855
yssh0쎯	-9.69903
nvk쎯	-9.69959
vt쎯yb쎯	-9.69976
g쎯kuy쎯	-9.69981
unu쎯	-9.70063
쎀thtn0쎯	-9.70271
spg쎯	-9.703
ufw쎯iaq쎯	-9.70384
ii쎯qc쎯	-9.7042
q쎯wn쎯	-9.70444
llkl쎯	-9.70522
uyy쎯pyxf쎯	-9.70545
wqts쎯	-9.70599
eclb쎯	-9.70621
oan쎯	-9.70909
wgkn1쎯uc쎯	-9.70912
jnp쎯	-9.70977
ifd쎯lk쎯	-9.7099
eg쎯yh쎯	-9.7101
wgkn1쎯qgk쎯q쎯	-9.71043
ffuj쎯xant쎯	-9.71138
kce쎯	-9.71151
du쎯hsy쎯	-9.71168
jadk쎯qdr쎯	-9.71195
ng쎯	-9.71208
nnh쎯	-9.71236
kq쎯khug0쎯	-9.71532
ub쎯khey1쎯nl쎯	-9.71553
ndwv쎯ghtp쎯	-9.71562
ix쎯mr쎯	-9.71648
os쎯ybb쎯	-9.71654
uvw쎯fuj쎯	-9.71666
lw쎯qu쎯	-9.7168
ir쎯cfkf쎯	-9.71785
쎃od쎯	-9.71794
thgt1쎯jgig1쎯	-9.7186
wtx쎯r쎯eamy2쎯	-9.71877
sp쎯dxj쎯	-9.71881
wb쎯am쎯	-9.71894
ddm쎯	-9.71923
pwo쎯	-9.71938
iue쎯kuy쎯	-9.71977
vx쎯	-9.71977
khey1쎯	-9.71985
dgk쎯	-9.72027
rlh쎯	-9.72088
k쎯ngh쎯	-9.7209
atte쎯qpgh쎯	-9.72162
utd쎯	-9.72253
kwb쎯fs쎯	-9.72289
sn쎯gq쎯	-9.72481
fx쎯pe쎯	-9.72589
dunn쎯	-9.72594
mgu쎯	-9.72667
uvq쎯	-9.72678
ks쎯lf쎯	-9.7281
kog쎯dccc쎯	-9.72816
mtd쎯ljh쎯	-9.72898
qt	-9.72906
khay7쎯쎂	-9.72958
xmb쎯tga쎯	-9.72994
aeeb0쎯c쎯eo쎯	-9.73028
pumk1쎯ip쎯	-9.73041
ddg3쎯	-9.73078
xpgm쎯snan쎯jjyi0쎯	-9.73092
qb쎯nft쎯	-9.7316
qo	-9.73201
qun쎯	-9.73206
ac쎯ffgn2쎯	-9.7333
xp쎯	-9.7335
nsh쎯x쎯	-9.73371
kj쎯oun쎯	-9.73445
bpx쎯nsh쎯	-9.73473
dq쎯yv쎯	-9.73526
iuc쎯tyt쎯	-9.73608
vq쎯rj쎯khug0쎯	-9.73639
qoug0쎯	-9.7364
mb쎯fsy쎯sj쎯aeeb0쎯	-9.73773
la쎯	-9.73785
wtd쎯	-9.73799
dudu쎯	-9.73807
f쎯jvf쎯p쎯	-9.73814
ege쎯	-9.73853
pi쎯	-9.7387
f쎯ghf쎯	-9.73902
tf쎯rnj쎯	-9.73907
dna쎯xuq쎯	-9.73925
gb쎯vrg쎯	-9.73987
fv쎯eh쎯	-9.73991
axa쎯byt쎯	-9.73994
r쎯d쎯	-9.74036
nl쎯ea쎯iq쎯	-9.74099
pjd쎯oi쎯	-9.74129
쎄쎉	-9.74143
vo쎯	-9.74164
in쎯qt쎯m쎯et쎯	-9.74194
igo쎯djdk0쎯	-9.74199
os쎯	-9.74228
bjy쎯ob쎯jr쎯	-9.74361
afw쎯or쎯	-9.74394
f쎯qc쎯	-9.7443
hc쎯	-9.7449
jeb쎯jeb쎯kv쎯	-9.74542
쎈쎈	-9.74545
rwxn쎯wgew쎯	-9.74581
sjn쎯	-9.74607
》ewmw쎯wgkn1쎯	-9.74722
nqg쎯	-9.74839
ewmw쎯eu쎯xi쎯	-9.74847
ml쎯p쎯	-9.74884
mdm쎯cr쎯	-9.74956
hw쎯xo쎯	-9.7496
irno쎯	-9.75045
qtps1쎯wf쎯	-9.75054
h쎯kre쎯ptf쎯mn쎯	-9.75066
sfkf1쎯	-9.7508
rhb쎯qsy쎯	-9.75116
jfmf쎯jjyi0쎯	-9.75117
tuqj쎯nft쎯	-9.7515
쎂.쎅	-9.75251
&	-9.75263
ckg쎯	-9.75267
h쎯kre쎯p쎯	-9.75282
mhnf쎯kkmw1쎯	-9.75301
ruq쎯	-9.75321
쎈쎅	-9.75321
ufw쎯ubae쎯	-9.75402
ta쎯eo쎯	-9.75408
!	-9.75643
ea쎯of쎯	-9.75674
aef쎯dk쎯	-9.75685
mnpv쎯kms쎯	-9.75722
wx쎯wb쎯	-9.75724
vmm쎯	-9.75771
xu쎯qgs쎯	-9.75809
p쎯iw쎯eqk쎯	-9.75827
----------------	-9.75886
mgt쎯udb쎯	-9.75897
i쎯gf쎯nbs쎯wsmy쎯	-9.75942
aeeb0쎯iuc쎯	-9.76035
jqkg1쎯	-9.76035
wgkn1쎯kj쎯oun쎯	-9.76046
vnb쎯vey쎯	-9.76056
ao쎯	-9.76256
ft쎯nr쎯	-9.7626
nsk쎯do쎯	-9.76369
ru쎯eh쎯	-9.76402
jd쎯	-9.76435
svmy쎯	-9.76437
ks쎯qlx쎯ybb쎯kf쎯	-9.76438
iu쎯dq쎯	-9.76463
p쎯h쎯kre쎯	-9.76579
vqbd쎯mjv쎯	-9.76624
rqo쎯sggh0쎯	-9.76667
wwv쎯dxj쎯	-9.767
vt쎯am쎯	-9.76737
ai쎯dpq쎯	-9.76747
qymn1쎯	-9.76752
nsh쎯ls쎯	-9.76841
pum쎯	-9.76845
nne쎯	-9.76883
kkmw1쎯yh쎯	-9.76944
tp쎯mkq쎯	-9.76951
d쎯or쎯fyu쎯	-9.76982
qtdn0쎯	-9.77024
el쎯kmw쎯	-9.7706
쎅쎃	-9.77077
cnu쎯	-9.77165
pukm1쎯jqak쎯	-9.77194
od쎯dk쎯	-9.77233
aq쎯yjl쎯	-9.7724
f쎯tfih쎯	-9.77245
u쎯rj쎯	-9.77256
gkqq쎯amg쎯	-9.77314
kmw쎯gbg1쎯	-9.77334
sr쎯	-9.77335
eu쎯xi쎯p쎯	-9.77358
hxd쎯	-9.77386
uv쎯rvq쎯	-9.77412
쎉쎉	-9.77428
ywi쎯jw쎯	-9.77457
tdm쎯	-9.77465
jm쎯ivy쎯	-9.77465
g쎯dedw쎯	-9.7749
ejhh쎯ghtp쎯	-9.77492
ity1쎯a쎯	-9.776
qc쎯r쎯	-9.77627
qb쎯gijf쎯	-9.77633
kpe쎯khug0쎯	-9.77635
td쎯	-9.77648
avw쎯wwv쎯	-9.77669
nl쎯ja쎯	-9.77675
apr쎯yr쎯	-9.77737
arc쎯q쎯	-9.77758
ib쎯ay쎯	-9.77904
쎇쎂	-9.77907
af쎯dyn쎯	-9.7791
amwn4쎯	-9.77916
g쎯rj쎯tfih쎯wqfj쎯	-9.77934
mjv쎯r쎯s쎯ox쎯b쎯t쎯	-9.78011
)w쎯	-9.78035
bigk쎯	-9.7805
maq쎯	-9.78095
sgy쎯	-9.78106
fnmo0쎯	-9.78108
ry쎯	-9.78126
ggci쎯	-9.7813
j쎯fu쎯	-9.78158
gqc쎯	-9.78193
udh쎯	-9.78212
쎅.	-9.78281
damh쎯	-9.78335
fay쎯	-9.78349
rw쎯iq쎯aeeb0쎯	-9.78356
cvhl쎯	-9.78359
eeb쎯ufn쎯	-9.78394
jm쎯v쎯	-9.78476
eg쎯rj쎯vey쎯	-9.78483
tex쎯kw쎯	-9.785
쎅쎇	-9.78563
aeeb0쎯avy쎯w쎯	-9.78617
ai쎯pyv쎯	-9.78641
mc쎯ile쎯	-9.7867
tdw쎯mtjm4쎯	-9.78673
lu쎯qr쎯	-9.78801
jjyi0쎯qu쎯	-9.78811
awwd쎯	-9.78821
mb쎯imy쎯	-9.78835
np쎯hd쎯	-9.78836
a쎯qt쎯	-9.78843
jbl쎯	-9.78859
c쎯eo쎯p쎯	-9.78912
ywi쎯nr쎯	-9.78958
khpk1쎯eu쎯	-9.79074
sw쎯ivy쎯	-9.79125
ho쎯	-9.79289
go쎯fu쎯	-9.79329
jgig1쎯ib쎯	-9.79372
tgou쎯	-9.79402
wt쎯yh쎯	-9.79406
pn쎯si쎯	-9.79418
oth쎯opsh0쎯	-9.79418
jthg쎯	-9.79531
iiq쎯	-9.79577
vt쎯odd쎯	-9.79639
ugwe쎯tga쎯	-9.79641
yff쎯qb쎯	-9.79702
tm쎯aymx0쎯	-9.79748
jjxo1쎯	-9.79783
tig쎯slpy1쎯	-9.79784
ahnu3쎯	-9.79792
wl쎯khug0쎯	-9.79852
khpk1쎯ojh쎯tk쎯	-9.79883
fwf쎯dtr쎯	-9.79921
ommg1쎯	-9.8
mtff2쎯	-9.80008
qjx쎯	-9.80068
wxd쎯	-9.80115
taq쎯lh쎯	-9.80159
u쎯of쎯	-9.80173
ir쎯xd쎯	-9.8027
pb쎯iyy쎯wgkn1쎯	-9.80354
tvf쎯qpw쎯	-9.80359
qnmw0쎯	-9.80371
du쎯wxg쎯	-9.80398
khpk1쎯trae1쎯	-9.80434
bll쎯	-9.80448
ca쎯	-9.80476
nl쎯spv쎯	-9.80508
쎃-	-9.80554
dqg쎯vw쎯ue쎯vpm쎯	-9.80575
kpe쎯el쎯	-9.80586
jlj쎯fsy쎯wgu쎯	-9.80589
sgk쎯pm쎯	-9.80596
tug쎯	-9.80603
yr쎯vc쎯	-9.80618
awf쎯	-9.80627
ln쎯	-9.80696
ain쎯	-9.80717
rj쎯pjd쎯	-9.80776
nyj쎯	-9.80836
gyy쎯wrw쎯p쎯	-9.80841
p쎯igo쎯	-9.80887
nk쎯	-9.80947
reff쎯	-9.80979
g쎯tfih쎯	-9.81028
xfw쎯lk쎯	-9.81031
sn쎯nj쎯	-9.81058
qap쎯	-9.8108
rf쎯qk쎯	-9.81096
fw쎯xxm쎯	-9.81161
d쎯r쎯	-9.81215
sh쎯kmw쎯	-9.81215
kce쎯eym쎯	-9.81231
njf쎯ot쎯	-9.81259
jjyi0쎯bu쎯	-9.81277
wgkn1쎯avy쎯	-9.81321
ta쎯p쎯	-9.81361
lcc쎯	-9.81479
p쎯of쎯xy쎯	-9.81497
qtun3쎯srr쎯	-9.81508
kf쎯fyu쎯	-9.81513
kkak5쎯scy쎯	-9.81554
eaqt쎯	-9.81576
ma쎯ft쎯	-9.81704
gy쎯	-9.81733
nl쎯gxxe쎯	-9.81747
qut쎯l쎯	-9.81777
ii쎯ku쎯	-9.81794
auk쎯mtd쎯	-9.81819
ba쎯쎂	-9.81836
r쎯ni쎯swcn0쎯rxl쎯	-9.81846
tty쎯	-9.8185
ndo쎯	-9.81923
try쎯uh쎯	-9.81997
ba쎯f쎯eh쎯	-9.82033
dfn쎯	-9.82037
vfc쎯	-9.82053
tdy0쎯	-9.82075
xt쎯	-9.82156
hw쎯ynjg6쎯	-9.82177
gm쎯lnt쎯	-9.82181
vlf0쎯	-9.82187
d쎯or쎯p쎯	-9.82189
aeeb0쎯ew쎯	-9.82291
w쎯giu쎯	-9.82301
kwnp쎯	-9.82346
ls쎯as쎯	-9.8236
uy쎯pwit쎯	-9.8236
dccc쎯qtb쎯aeeb0쎯	-9.8236
()aeeb0쎯	-9.82361
agt쎯r쎯	-9.82406
ox쎯h쎯wqg쎯	-9.8245
avw쎯dp쎯	-9.82456
s쎯t쎯	-9.82458
”ewmw쎯	-9.8247
rwxn쎯moo쎯	-9.82471
dmpi쎯	-9.82533
nj쎯	-9.82537
쎆쎂	-9.82614
tep쎯p쎯	-9.82622
r쎯s쎯gaht쎯	-9.82676
etk쎯	-9.82691
pe쎯jlj쎯	-9.82728
iuc쎯c쎯	-9.8274
wf쎯jt쎯	-9.82819
g쎯vffy쎯aeeb0쎯	-9.82827
uht쎯	-9.8287
쎅eh쎯	-9.82918
ug쎯yv쎯g쎯vffy쎯	-9.83043
ogg쎯	-9.83124
te쎯uf쎯	-9.83152
aak쎯	-9.83302
nsh쎯rj쎯	-9.83349
sqyn쎯	-9.83356
nwe쎯kv쎯	-9.8337
kw쎯xi쎯	-9.83435
tuqj쎯ile쎯	-9.83461
km쎯	-9.83475
qge쎯	-9.83488
ob쎯yoa쎯	-9.83545
iu쎯kv쎯	-9.83563
df쎯qpgh쎯	-9.83574
hsy쎯rj쎯	-9.83613
hwv쎯	-9.83628
jgig1쎯hv쎯	-9.83636
hug쎯	-9.83669
m쎯mye쎯	-9.83707
p쎯iq쎯sks쎯	-9.83719
fu쎯vfi쎯	-9.8372
itdj2쎯bfq쎯	-9.83735
qfk쎯ype쎯	-9.83737
쎁쎉쎇쎀od쎯	-9.83755
wgkn1쎯tfih쎯yh쎯	-9.83769
wwe쎯	-9.83803
chhy쎯	-9.83846
adj쎯	-9.83886
p쎯ejhh쎯hbn쎯	-9.83897
쎄쎁	-9.83981
it쎯	-9.8407
rnk쎯snan쎯	-9.84076
ai쎯vey쎯	-9.84096
pwx쎯qrhg쎯	-9.84218
dm쎯etuh쎯	-9.84234
f쎯nc쎯	-9.84244
ruk쎯qmu쎯	-9.84245
dpq쎯eqk쎯	-9.84255
aeeb0쎯icy쎯	-9.84271
lbkb쎯	-9.84281
ffgn2쎯	-9.8429
ffuj쎯xdc쎯	-9.84292
dedw쎯	-9.84321
el쎯wl쎯	-9.84338
kh	-9.84496
wsq쎯	-9.8454
kfjf2쎯	-9.84579
ph쎯yr쎯vpm쎯	-9.84667
쎆쎃	-9.84686
p쎯wt쎯ip쎯	-9.84709
ii쎯ix쎯	-9.84737
msj쎯lnt쎯	-9.84745
qfk쎯ubae쎯e쎯ffuj쎯	-9.84752
ek쎯mhnf쎯	-9.8478
vt쎯odd쎯sd쎯lt쎯v쎯	-9.84813
ip쎯qfk쎯ubae쎯ay쎯	-9.84825
khhh1쎯	-9.84844
lx쎯qtbo쎯	-9.84882
/////.",(){(	-9.84898
kwjh쎯	-9.84903
laf쎯ei쎯od쎯	-9.84904
pfi쎯	-9.84911
jan쎯oun쎯	-9.84914
wgkn1쎯.("	-9.84934
쎁쎀쎀쎀쎀쎈쎀쎁);});	-9.84941
쎁od쎯	-9.84951
wgkn1쎯x쎯iw쎯	-9.84957
bfq쎯vke쎯	-9.84985
src쎯od쎯	-9.84988
aftr0쎯	-9.85031
rxn쎯	-9.85052
j쎯mr쎯	-9.85057
쎁-	-9.85066
qjq쎯rvyo쎯	-9.85085
쎁쎉쎅쎆od쎯	-9.85135
ifd쎯cr쎯	-9.85216
rley쎯	-9.85216
ity1쎯as쎯	-9.85242
gfn쎯	-9.85311
wgkn1쎯ip쎯ybb쎯	-9.8546
qu쎯d쎯ynjg6쎯tga쎯	-9.85526
wppl쎯	-9.85549
swcn0쎯rdw쎯	-9.85571
viu쎯	-9.85584
dyn쎯	-9.85586
smy쎯	-9.85604
l쎯qn쎯	-9.8563
fnan0쎯yrtj1쎯p쎯	-9.85633
vfxl쎯	-9.85648
pa쎯ub쎯y쎯	-9.85669
um쎯rj쎯	-9.8569
ducu0쎯	-9.85695
nl쎯qt쎯	-9.85737
vkf1쎯wsmy쎯	-9.85765
drj0쎯e쎯	-9.85766
gl쎯aymx0쎯	-9.8577
da쎯rntq쎯	-9.85784
qp쎯ghtp쎯	-9.85825
swty쎯	-9.85831
nx쎯odu쎯y쎯	-9.85844
rvl쎯	-9.85845
쎀.쎅	-9.85847
eelf0쎯	-9.8585
buj쎯	-9.85853
rgm쎯ld쎯st쎯hv쎯	-9.85887
tetw쎯	-9.85934
nnf쎯ybb쎯	-9.86015
쎀쎀	-9.86025
abci쎯n쎯	-9.86047
tex쎯	-9.86048
yujf0쎯fpg쎯	-9.86112
쎈쎆	-9.86144
ujq쎯cybc쎯	-9.86151
cc쎯wgkn1쎯	-9.86156
rxl쎯yh쎯ug쎯yv쎯	-9.86173
ndo쎯hu쎯kv쎯	-9.86237
dunn쎯ntt쎯	-9.86284
ivc쎯vip쎯ir쎯yoq쎯	-9.8629
쎅쎉	-9.8632
u쎯ktg쎯rj쎯lfoj2쎯	-9.86344
pe쎯wm쎯	-9.86405
hloo쎯fs쎯	-9.86446
hcr쎯jt쎯	-9.86463
kn쎯	-9.86503
aj쎯uug쎯aeeb0쎯	-9.86581
of쎯oun쎯	-9.86639
쎅쎁	-9.86657
dfn쎯yxwo0쎯	-9.86664
iwf쎯vc쎯ld쎯	-9.86685
gyi쎯vb쎯	-9.86745
aeeb0쎯lgxd쎯	-9.86806
sttk쎯	-9.86821
cgey1쎯hsy쎯	-9.86862
pgc쎯nsh쎯	-9.86881
쎇쎈	-9.86885
r쎯dgl쎯kwq쎯te쎯dm쎯	-9.86888
spyg쎯ssh쎯	-9.86891
mu쎯dynt0쎯	-9.86911
i쎯jt쎯	-9.86974
oqab1쎯	-9.87021
lud쎯xo쎯	-9.87034
쎆eh쎯	-9.87064
mhnf쎯yd쎯p쎯	-9.87078
ed쎯pgin1쎯	-9.87125
gdj쎯nl쎯nft쎯mfj쎯	-9.87136
igo쎯ub쎯qyx쎯	-9.87174
cd쎯	-9.87187
uv쎯mu쎯	-9.87209
ue쎯lk쎯	-9.87298
hu쎯hv쎯	-9.87308
y0쎯	-9.87309
w쎯f쎯wb쎯ivc쎯	-9.87323
ea쎯qrhg쎯ea쎯tfih쎯	-9.87329
n쎯f쎯	-9.87357
vb쎯ja쎯	-9.87366
ub쎯vyg1쎯	-9.87414
d쎯mt쎯	-9.87483
uy쎯nl쎯	-9.87512
wqcn쎯by쎯	-9.87562
qy쎯	-9.87621
jmu쎯	-9.87632
kkmw1쎯ipwm1쎯	-9.87635
xyjg쎯	-9.87714
iyjf2쎯tfkc쎯	-9.87722
wamy쎯dv쎯	-9.8778
g쎯xi쎯	-9.87813
mi쎯nsh쎯qt쎯	-9.8783
hjh쎯	-9.87873
wt쎯ix쎯	-9.87915
tqtr2쎯	-9.87938
sb쎯udl쎯fs쎯	-9.87939
all쎯lh쎯	-9.87988
ssq쎯imy쎯lf쎯	-9.88065
spr쎯	-9.88105
tlv쎯y쎯	-9.88133
ea쎯qt쎯qt쎯lf쎯	-9.88162
ugx쎯hnu쎯j쎯	-9.88177
fth쎯	-9.88229
mnpv쎯kms쎯vpm쎯	-9.88231
qnw쎯	-9.88239
쎅od쎯	-9.88264
pyq쎯	-9.88473
쎁쎉쎇쎅od쎯	-9.88479
kv쎯yv쎯	-9.88571
ox쎯qyvc쎯	-9.88668
wgkn1쎯k쎯	-9.88781
sn쎯x쎯	-9.88783
dmjx2쎯qk쎯	-9.88791
jvk쎯lfoj2쎯	-9.88806
jja쎯	-9.88827
nsh쎯opsh0쎯	-9.88836
jsj쎯	-9.88841
fv쎯g쎯	-9.88878
wgkn1쎯kj쎯	-9.88964
rgvi쎯thn쎯	-9.88972
rv쎯trh0쎯	-9.89102
aeeb0쎯as쎯	-9.89141
het쎯	-9.89162
efwi쎯dh쎯	-9.89169
ge쎯	-9.89178
쎀.쎀	-9.89206
pa쎯ub쎯yj쎯qwmc1쎯	-9.89233
f쎯bwt쎯	-9.89238
nl쎯kq쎯ma쎯	-9.89242
fv쎯oey쎯	-9.89288
jcg쎯	-9.89372
mjv쎯qi쎯	-9.89463
fknd쎯sqa쎯	-9.89466
eqk쎯	-9.89468
n쎯uxt쎯	-9.89501
xq쎯et쎯	-9.89622
쎁쎉쎆쎈od쎯	-9.89631
aeeb0쎯go쎯	-9.89783
ao쎯vnf쎯	-9.89799
cw쎯rj쎯ea쎯	-9.89804
sset쎯	-9.89828
rw쎯ay쎯	-9.89868
ek쎯djdk0쎯	-9.90019
aat쎯aq쎯	-9.90108
i쎯sggh0쎯	-9.90143
swcn0쎯ip쎯	-9.90155
iak쎯opsh0쎯	-9.90191
khp쎯	-9.90208
iitf쎯	-9.90235
oi쎯j쎯	-9.90267
nqoy1쎯snan쎯vpm쎯	-9.90291
쎇쎀쎀	-9.90329
qn쎯ic쎯	-9.90339
zzsx13쎯	-9.90429
ma쎯ir쎯yoq쎯	-9.90457
쎇쎆	-9.90508
rw쎯y쎯	-9.90522
th쎯by쎯y쎯	-9.9056
pf쎯	-9.90577
쎉쎅	-9.90589
yff쎯jlj쎯	-9.90702
쎉쎇	-9.90776
bpx쎯bb쎯	-9.90797
aaae쎯kd쎯wb쎯	-9.9081
atte쎯ac쎯eu쎯mm쎯	-9.90833
src쎯bm쎯	-9.90967
gds쎯	-9.91001
kny쎯imy쎯	-9.91036
쎁쎉쎅쎇od쎯	-9.91116
wgko4쎯	-9.91119
쎁쎉쎈쎃od쎯	-9.91132
wb쎯uug쎯	-9.9116
udy쎯	-9.91226
k쎯w쎯	-9.91234
hubp쎯knuv쎯	-9.91242
nln쎯hwv쎯	-9.91244
ma쎯vq쎯	-9.91292
kdf쎯	-9.91363
cr쎯ja쎯	-9.91416
oob쎯tfkc쎯	-9.91452
nl쎯ea쎯ea쎯of쎯	-9.91467
fmud쎯	-9.91512
pgqr쎯	-9.91519
iuc쎯m쎯	-9.91596
mlfe쎯	-9.91599
iq쎯h쎯fu쎯	-9.91659
src쎯f쎯	-9.91661
dvlg쎯	-9.9172
qa쎯tel쎯	-9.9175
ir쎯ove쎯	-9.91762
jgig1쎯waw쎯	-9.91859
eh쎯gss쎯	-9.91882
nj쎯imy쎯	-9.91891
쎆쎉	-9.91892
pu쎯	-9.91904
rntq쎯	-9.91907
t쎯aymx0쎯	-9.91916
tf쎯tx쎯	-9.91941
aeeb0쎯si쎯	-9.91951
mfwm쎯	-9.91956
aey쎯	-9.91963
yhk쎯	-9.91974
oycs쎯	-9.91985
taq쎯all쎯	-9.91986
tj쎯nl쎯	-9.92027
sp쎯qjq쎯	-9.92035
xj쎯eu쎯	-9.9204
tnih1쎯	-9.92061
tp쎯pfff쎯	-9.92067
쎈쎂	-9.92074
dpq쎯aiyk쎯	-9.92108
′	-9.92138
tci쎯	-9.92161
qb쎯nrj쎯	-9.92199
lnt쎯mn쎯	-9.922
rhb쎯jfmf쎯	-9.92251
ws쎯ld쎯	-9.92258
wt쎯lrq쎯	-9.92261
쎁쎉쎈쎂od쎯	-9.92275
f쎯bnn1쎯	-9.92301
mtjm4쎯	-9.92394
pi쎯ipwm1쎯	-9.92413
yj쎯	-9.92449
tgj쎯imy쎯ni쎯	-9.92471
bjx쎯	-9.92505
aeeb0쎯u쎯	-9.92655
uxv쎯ofn쎯	-9.92686
a쎯iue쎯	-9.92733
hsu0쎯	-9.92738
uda쎯	-9.92754
ay쎯rxl쎯	-9.92816
bng쎯hw쎯d쎯or쎯fyu쎯	-9.92832
ae쎯si쎯	-9.92849
rwv쎯uo쎯	-9.92892
hfc쎯	-9.92895
vy쎯	-9.92963
chy쎯	-9.92988
ekgd쎯jm쎯	-9.92988
jeb쎯qlx쎯jeb쎯kv쎯	-9.9299
w쎯f쎯sfi쎯	-9.92996
쎁쎉쎅쎈od쎯	-9.93037
f쎯jvf쎯	-9.93043
oyv쎯	-9.93077
쎂쎀쎀쎈	-9.9308
ud	-9.93124
bm쎯od쎯	-9.93138
od쎯yv쎯	-9.93185
sgh쎯	-9.93277
eecs쎯p쎯	-9.93281
dynt0쎯	-9.93306
eym쎯dx쎯	-9.93393
ak쎯	-9.93404
gkqq쎯yup쎯	-9.93408
wgew쎯	-9.9341
ygl쎯	-9.93433
쎁쎈쎀	-9.9346
dep쎯dkj쎯	-9.935
”e쎯	-9.9362
vffy쎯ydj쎯	-9.93686
hfg쎯	-9.93692
suy쎯dhq쎯	-9.93725
da쎯eh쎯	-9.93777
ba쎯wq쎯	-9.93786
iag쎯	-9.93787
aeeb0쎯ivy쎯	-9.93814
p쎯《	-9.93828
bfq쎯ib쎯	-9.93833
yxn쎯swwq1쎯	-9.93855
ivc쎯aiyk쎯	-9.93871
tgk쎯	-9.939
tp쎯qu쎯dccc쎯tga쎯	-9.93917
〕	-9.94012
lcfg쎯	-9.94024
tetd1쎯	-9.94025
ode쎯aymx0쎯	-9.94027
amdo1쎯qpgh쎯	-9.94136
utu쎯	-9.94168
kv쎯wpg쎯	-9.94226
tp쎯hb쎯	-9.94254
yn	-9.94295
ni쎯ea쎯	-9.94394
apr쎯bu쎯	-9.9443
xl쎯fa쎯	-9.94437
jt쎯dk쎯	-9.9445
gf쎯fa쎯	-9.94469
nsg쎯qm쎯	-9.94491
hw쎯xxf쎯	-9.94522
srm쎯	-9.9453
su쎯jlc쎯	-9.94539
sx쎯abci쎯	-9.94555
abr쎯xmqm쎯	-9.94568
oft쎯wm쎯	-9.94599
wgkn1쎯쎂khug0쎯	-9.94628
dq쎯nl쎯p쎯	-9.94634
ac쎯dgl쎯dpq쎯wyq쎯쎁	-9.94654
wyj쎯	-9.94662
q쎯is쎯	-9.94696
aeeb0쎯hm쎯	-9.94711
dccc쎯ujq쎯kpe쎯	-9.94726
aeeb0쎯gq쎯	-9.94726
kwb쎯mat쎯	-9.94786
lm쎯uv쎯	-9.94811
qtui쎯rj쎯	-9.9488
kq쎯wgkn1쎯	-9.94932
ydj쎯sfk쎯	-9.94947
ai쎯uh쎯	-9.94971
sltd쎯	-9.95001
wtx쎯kkmw1쎯uda쎯	-9.95048
cfn쎯	-9.95066
t쎯s쎯wqg쎯	-9.95095
ncd쎯	-9.95122
lk쎯eu쎯	-9.95145
ve쎯	-9.95169
au쎯kaq쎯	-9.95173
iq쎯kmw쎯	-9.95202
mkq쎯il쎯	-9.95214
sqyn쎯ecyj쎯	-9.95225
xj쎯sojh쎯nl쎯ea쎯	-9.95225
쎁쎉쎆쎉od쎯	-9.95238
fsy쎯du쎯	-9.95319
aiyk쎯gyy쎯sp쎯ruk쎯	-9.95326
fjf쎯	-9.95329
hci쎯	-9.95382
tp쎯wl쎯tdw쎯	-9.95395
%	-9.9542
ea쎯qt쎯rj쎯hu쎯	-9.95422
njdf쎯wgkn1쎯	-9.95467
ssh쎯	-9.95483
yu쎯	-9.95486
heg쎯igo쎯	-9.95486
jfh1쎯	-9.95487
vjl쎯aymx0쎯	-9.95498
mb쎯fsy쎯sj쎯	-9.95552
nvyh쎯ydj쎯foag쎯	-9.95644
chy쎯eeb쎯	-9.95675
f쎯oey쎯	-9.9569
rwxn쎯am쎯	-9.95749
aeeb0쎯eecs쎯he쎯	-9.95749
fam쎯	-9.95758
rhb쎯pf쎯	-9.95798
qgk쎯ud쎯	-9.95843
in쎯vip쎯	-9.95867
sso쎯	-9.9587
mqfi쎯	-9.95875
tm쎯》	-9.95881
rou쎯	-9.9589
atte쎯hfg쎯	-9.95897
ivk쎯uh쎯	-9.959
gxw쎯	-9.95906
j쎯gw쎯t쎯	-9.95919
ysu쎯or쎯gyy쎯wrw쎯	-9.95928
lqkg1쎯	-9.9602
mye쎯brt쎯	-9.96114
kld쎯ynge쎯	-9.96121
aeeb0쎯xg쎯eo쎯	-9.96173
ok쎯	-9.96178
ffn쎯	-9.96209
hqlm쎯	-9.96233
lnt쎯lfi쎯	-9.96291
srr쎯	-9.96292
ivvl쎯	-9.96308
mu쎯kth쎯	-9.96368
ie쎯uv쎯	-9.96374
apvy쎯	-9.96426
p쎯eu쎯wi쎯	-9.96435
abr쎯qtwj2쎯	-9.96495
nx쎯	-9.96515
kf쎯rc쎯	-9.96516
qtyc1쎯	-9.96517
p쎯wdjq쎯hu쎯	-9.96522
ufw쎯wi쎯	-9.9656
lhnt1쎯	-9.96562
xpr쎯	-9.96644
쎇-	-9.96667
&;	-9.96733
ikj쎯	-9.96742
xd쎯lg쎯	-9.96767
쎀쎄	-9.96779
ifd쎯uv쎯	-9.96785
od쎯wn쎯	-9.96798
ie쎯f쎯	-9.96803
wgvw쎯	-9.96823
tjfm쎯	-9.96943
rk쎯ws쎯	-9.96955
abi쎯	-9.96963
wy	-9.96992
dnh쎯qfk쎯	-9.96997
p쎯tfkc쎯duj쎯	-9.97038
uat쎯	-9.97148
shi쎯	-9.97159
aeeb0쎯ix쎯e쎯	-9.97177
gc쎯ud쎯	-9.97198
try쎯mb쎯	-9.97262
inr쎯r쎯	-9.97283
sii쎯	-9.97326
nl쎯kth쎯	-9.97327
쎁쎉쎆쎆od쎯	-9.97331
aqy쎯	-9.97354
wwv쎯et쎯	-9.9737
qyvc쎯n쎯	-9.97409
byt쎯	-9.97454
ve쎯by쎯	-9.97462
ftl쎯wpn쎯	-9.9747
sfjh쎯nqj쎯	-9.97475
쎆-	-9.97478
xd쎯i쎯bu쎯	-9.97512
yk쎯bt쎯	-9.97523
iyw쎯	-9.97532
wtfv0쎯	-9.97538
sqt쎯	-9.97558
brg쎯njdf쎯	-9.97574
쎇쎃	-9.97576
bwt쎯ay쎯	-9.97583
m쎯o쎯w쎯	-9.97619
vo쎯wa쎯	-9.97638
si쎯mn쎯	-9.97652
in쎯qt쎯wl쎯ea쎯	-9.97666
heg쎯qc쎯e쎯	-9.97669
um쎯ir쎯kpe쎯m쎯oun쎯	-9.97709
pugy1쎯pjv쎯	-9.97715
vakb쎯	-9.97764
쎁쎉쎈쎀od쎯	-9.97788
qq쎯sgkp쎯r쎯	-9.97793
u쎯xfw쎯i쎯pwit쎯	-9.97821
wf	-9.97822
wgkn1쎯ubae쎯	-9.97826
urcb쎯	-9.97849
쎆쎇	-9.9791
ac쎯eu쎯mm쎯	-9.97935
vnf쎯usr쎯	-9.98001
vs쎯	-9.98023
rfl쎯g쎯	-9.98032
5쎯	-9.98034
ai쎯vfi쎯	-9.98042
gh쎯iux쎯	-9.9806
euvg쎯	-9.98084
쎁쎉쎄쎉od쎯	-9.9813
ywe쎯	-9.98139
ths쎯	-9.98163
iue쎯kuy쎯ssq쎯imy쎯	-9.98181
oj쎯e쎯	-9.98214
ww쎯	-9.98232
hagh1쎯ghtp쎯	-9.9824
쎁쎉쎅쎄od쎯	-9.98258
dxj쎯wuk쎯	-9.98359
rvq쎯yd쎯y쎯	-9.98378
aeeb0쎯sy쎯	-9.98406
yx쎯	-9.98408
spv쎯frj쎯	-9.98441
쎃.쎅	-9.98457
wtx쎯u쎯rj쎯	-9.98492
imk쎯	-9.98493
w쎯f쎯jm쎯	-9.98505
qqv쎯sii쎯	-9.98549
qqu쎯	-9.98549
쎁쎉쎇쎂od쎯	-9.98551
g쎯bu쎯p쎯	-9.98584
hp쎯w쎯	-9.98585
oj쎯nl쎯	-9.98604
usf쎯dm쎯	-9.98675
wi쎯ea쎯	-9.98751
luh쎯aeeb0쎯	-9.98758
ii쎯rxu쎯	-9.98776
mrdf쎯nskk쎯p쎯	-9.98797
쎁쎉쎇쎈od쎯	-9.98848
fdi쎯fjw쎯	-9.98853
kwb쎯lu쎯	-9.98861
pydg0쎯	-9.98893
wqk쎯	-9.98913
pwit쎯xd쎯	-9.98941
f쎯duj쎯	-9.99031
flf0쎯	-9.99074
y쎯f쎯eh쎯	-9.99084
xi쎯lm쎯	-9.99173
aeeb0쎯bng쎯ld쎯	-9.99183
rnr쎯uxt쎯	-9.99249
-쎃	-9.99281
쎁쎉쎅쎃od쎯	-9.99292
src쎯tj쎯	-9.99298
aeeb0쎯of쎯oun쎯	-9.99313
aeeb0쎯g쎯eg쎯	-9.99337
kkmw1쎯uwn쎯	-9.99339
rvq쎯luh쎯	-9.99346
sb쎯ib쎯	-9.99346
lo쎯	-9.99356
wx쎯od쎯ay쎯	-9.99409
qtth0쎯	-9.99413
sl쎯rvf쎯	-9.99413
swwy6쎯afw쎯	-9.99461
wgdy1쎯dkj쎯	-9.9955
gr쎯yltc쎯	-9.99556
gdn쎯	-9.99626
eny쎯kaq쎯	-9.99649
yhf쎯	-9.99675
njdf쎯wcqn쎯	-9.99722
wu쎯g쎯	-9.99782
qxv쎯	-9.99809
ud쎯vc쎯	-9.9984
miu쎯	-9.99844
nku쎯qr쎯	-9.99861
aeeb0쎯heg쎯	-9.99874
xi쎯yss쎯쎂	-9.999
lbh쎯	-9.99909
rj쎯d쎯nl쎯ea쎯	-9.99926
emh쎯	-9.99933
hw쎯qrhg쎯	-9.99941
쎇쎉	-9.99961
nsg쎯ujv쎯	-9.99986
xmun쎯	-10.0003
fyu쎯wgkn1쎯	-10.0004
djdk0쎯iyy쎯	-10.0004
()w쎯	-10.0005
pwd쎯	-10.0006
qn쎯gah쎯	-10.0011
jq쎯fs쎯	-10.0017
nft쎯mhj쎯	-10.0017
쎀쎂	-10.0019
hxb0쎯rs쎯	-10.002
wtx쎯sd쎯	-10.002
fof쎯	-10.002
jgm쎯uxt쎯	-10.0023
ld쎯ay쎯	-10.0025
ac쎯xi쎯	-10.0028
p쎯or쎯ib쎯	-10.0035
쎂쎀쎁쎃od쎯	-10.0036
tp쎯pyv쎯	-10.0042
pfff쎯eamy2쎯	-10.005
oun쎯dccc쎯	-10.0052
h쎯mn쎯	-10.0061
jj쎯	-10.0062
utv쎯	-10.0065
ew쎯qt쎯	-10.0076
n쎯《	-10.0078
xiu쎯dat0쎯	-10.0084
a쎯th쎯	-10.009
mrdf쎯nskk쎯	-10.0091
qhc쎯	-10.0094
hkie쎯gw쎯	-10.0102
ph쎯yr쎯	-10.0103
lgd쎯	-10.0106
ogu쎯qn쎯	-10.0106
ir쎯yoq쎯p쎯	-10.0107
jlj쎯r쎯s쎯fsy쎯wgu쎯	-10.0108
kl쎯od쎯ay쎯	-10.0111
yoq쎯wi쎯	-10.0115
jt쎯asr쎯	-10.0116
oqg쎯luh쎯	-10.0124
tl쎯hmj쎯	-10.0131
쎁.쎂	-10.0134
j쎯xj쎯sojh쎯	-10.0143
src쎯qeqs쎯	-10.0143
쎄od쎯	-10.0145
aeeb0쎯no쎯yh쎯	-10.0146
slpy1쎯	-10.0147
ihf쎯	-10.015
w쎯eh쎯	-10.015
tj쎯src쎯	-10.0151
luh쎯idi쎯	-10.0153
vpm쎯jjyi0쎯	-10.0156
ea쎯kd쎯nbs쎯wsmy쎯	-10.0157
ea쎯lf쎯	-10.0158
rqci5쎯bq쎯	-10.0164
afp쎯dm쎯	-10.0167
yltc쎯iq쎯sfk쎯	-10.0169
gyy쎯ih쎯h쎯kre쎯	-10.0181
er쎯	-10.0184
swwy6쎯	-10.0185
ac쎯ii쎯	-10.0186
fey쎯	-10.0189
qwmc1쎯qc쎯	-10.019
qts쎯aiyk쎯	-10.019
qgs쎯	-10.019
akfo4쎯ko쎯	-10.0195
쎁쎆쎀	-10.0199
md쎯jlj쎯	-10.0199
din쎯	-10.0202
aef쎯qb쎯	-10.0203
jal쎯cr쎯	-10.0205
kkmw1쎯n쎯	-10.0207
쎇쎇	-10.0211
xd쎯nq쎯	-10.0212
jn쎯rpl쎯	-10.0213
쎁쎉쎇쎄od쎯	-10.0217
gu쎯dio쎯	-10.0217
bue쎯	-10.0218
gtit쎯mm쎯	-10.0221
is쎯kre쎯	-10.0222
cju0쎯	-10.0224
aeeb0쎯iyy쎯	-10.0231
qodd2쎯	-10.0233
yxwo0쎯tga쎯	-10.0237
p쎯nl쎯djdk0쎯	-10.0241
vvet쎯tyt쎯	-10.0241
bk쎯	-10.0248
xd쎯gah쎯	-10.0252
hubp쎯od쎯	-10.0253
oth쎯csh쎯	-10.0255
쎈eh쎯	-10.0256
r쎯qfk쎯	-10.0257
fum쎯	-10.0258
xe쎯yor쎯	-10.0259
qlx쎯ybb쎯kf쎯	-10.0263
wx쎯uvtd0쎯	-10.0267
iqpv쎯	-10.0268
xuq쎯oo쎯	-10.0272
ug쎯od쎯	-10.0275
ba쎯f쎯qsy쎯	-10.0276
쎁쎉쎈쎁od쎯	-10.0276
af	-10.0276
xuq쎯ffuj쎯fs쎯	-10.0277
ai쎯jvf쎯	-10.0283
jjyi0쎯ks쎯	-10.0284
mhdd1쎯rj쎯	-10.0285
쎁쎉쎇쎇od쎯	-10.0286
gkkj쎯	-10.0289
qtps1쎯hitn쎯	-10.0292
f쎯iq쎯	-10.0293
bt쎯th쎯y쎯	-10.0295
wba쎯	-10.0298
nh쎯	-10.0302
cck쎯qu쎯	-10.0302
noof쎯vc쎯aeeb0쎯	-10.0304
ode쎯ib쎯	-10.0305
uf쎯geqc쎯	-10.0306
wgkn1쎯gc쎯	-10.0309
yhk쎯ybb쎯	-10.031
afde1쎯	-10.0312
my쎯	-10.0319
qovp1쎯tryk1쎯	-10.0322
vnb쎯tpk쎯	-10.0323
wnb쎯	-10.0326
쎃쎀쎀쎀	-10.0334
gcqg쎯	-10.0334
te쎯ivc쎯	-10.0334
utv쎯rnj쎯	-10.0336
v쎯he쎯	-10.0344
vnf쎯	-10.0344
ndwv쎯	-10.0346
od쎯su쎯	-10.0347
lud쎯	-10.0347
쎀쎁	-10.0352
cq쎯tw쎯	-10.0355
py쎯	-10.0363
m쎯o쎯uc쎯hu쎯	-10.0364
l쎯qu쎯	-10.0367
ua쎯ld쎯aeeb0쎯	-10.0368
aeeb0쎯kv쎯	-10.0369
eudw쎯	-10.037
tmoa쎯	-10.0371
r쎯s쎯pjd쎯oi쎯cr쎯	-10.0372
aeeb0쎯mr쎯	-10.0374
qya쎯	-10.0374
gki쎯	-10.0376
gkqq쎯dynt0쎯	-10.0378
tr쎯	-10.0378
mhm쎯	-10.0379
lnu쎯	-10.038
tuqj쎯gfkk1쎯	-10.0385
dvi쎯ib쎯	-10.0387
yju쎯yju쎯	-10.039
gss쎯nv쎯	-10.0392
twwn2쎯	-10.0396
mtjc1쎯n쎯	-10.0397
drj0쎯hw쎯	-10.0397
jpeg1쎯	-10.0397
ru쎯od쎯	-10.0403
vq쎯rj쎯d쎯or쎯	-10.0415
ip쎯kre쎯	-10.0416
rn쎯fknd쎯	-10.0419
yd쎯ma쎯	-10.0426
rrrc쎯	-10.0427
gntj0쎯	-10.0429
rhb쎯bng쎯	-10.0429
b쎯ac쎯	-10.0432
mb쎯vc쎯p쎯	-10.0433
dccc쎯kpe쎯	-10.0434
tvf쎯khui5쎯	-10.0443
p쎯d쎯or쎯	-10.0444
sb쎯taho0쎯	-10.0444
rvq쎯fwf쎯	-10.0447
rb쎯wk쎯	-10.045
f쎯pgin1쎯	-10.0452
dqg쎯vw쎯ue쎯	-10.0454
pb쎯“	-10.0455
e쎯m쎯wgkn1쎯	-10.0456
rkk쎯	-10.0459
wwv쎯waw쎯	-10.0467
itgy쎯	-10.0469
mtd쎯ljh쎯ptf쎯	-10.0471
hpg쎯gjnb쎯	-10.0471
gaht쎯	-10.0472
rhj쎯	-10.0475
쎁쎉쎇쎉od쎯	-10.0479
qqk쎯foag쎯	-10.0479
a쎯o쎯	-10.0484
iq쎯imy쎯	-10.0492
fiv쎯eamy2쎯khay7쎯	-10.0493
rvq쎯aeeb0쎯	-10.0496
qc쎯pb쎯khay7쎯	-10.0504
aeeb0쎯jnw쎯	-10.0514
ydg0쎯	-10.0517
osfg0쎯	-10.0518
rgf쎯	-10.0522
jm쎯j쎯	-10.0523
ipwy1쎯	-10.0525
kedm쎯	-10.0526
lf쎯aeeb0쎯	-10.0529
rfl쎯	-10.0529
wtx쎯slk쎯swcn0쎯	-10.0535
wce쎯	-10.0536
qfk쎯ubae쎯gijf쎯	-10.0536
eaqt쎯qgk쎯w쎯	-10.0544
sgb쎯	-10.0545
kle쎯	-10.0546
jfoo0쎯	-10.0547
wtx쎯wrw쎯	-10.0553
wuj쎯	-10.0554
eti쎯	-10.0561
vq쎯aymx0쎯	-10.0562
nl쎯mep쎯	-10.0568
nl쎯qaaj0쎯	-10.0568
big쎯	-10.0569
lrq쎯qsy쎯	-10.0569
qqu쎯dei쎯	-10.057
쎀쎅	-10.057
pwq쎯ivy쎯	-10.0572
쎂od쎯	-10.0574
moo쎯afso쎯el쎯	-10.0575
bl쎯mr쎯	-10.0575
pr쎯rcp쎯	-10.0575
tqt쎯	-10.0577
koy쎯	-10.0578
g쎯fi쎯	-10.0578
ptu쎯bq쎯	-10.0579
uqm쎯	-10.0579
wgkn1쎯of쎯oun쎯	-10.058
aq쎯qr쎯fyu쎯	-10.0581
jlj쎯qu쎯	-10.0582
c쎯p쎯	-10.0587
xmb쎯iq쎯	-10.0589
fqu쎯n쎯	-10.0592
hbn쎯	-10.0598
쎀쎆	-10.0601
st쎯hv쎯vey쎯	-10.0606
wxx쎯ivy쎯	-10.0606
(쎁)	-10.0607
wqc쎯tglw0쎯rvq쎯	-10.0608
rtpy쎯	-10.0614
tuqj쎯vc쎯fs쎯	-10.0615
eh쎯aiyk쎯	-10.0617
heg쎯wx쎯	-10.062
vt쎯e쎯	-10.0621
ssq쎯or쎯	-10.0622
aeeb0쎯ox쎯	-10.0623
l쎯jjyi0쎯	-10.0625
of쎯xy쎯l쎯	-10.0625
aeeb0쎯f쎯sfc쎯	-10.0626
ma쎯uyy쎯	-10.0627
쎁쎉쎇쎃od쎯	-10.0628
xant쎯ib쎯	-10.0628
fwf쎯mn쎯	-10.0636
mh쎯	-10.0642
laf쎯bv쎯	-10.0643
iyww쎯	-10.0644
inbb0쎯	-10.0645
hto쎯od쎯	-10.0648
fve쎯vn쎯	-10.0648
aj쎯ldn쎯	-10.0649
ydo쎯	-10.0656
jvf쎯imy쎯	-10.0658
igt쎯	-10.066
sgk쎯nbs쎯	-10.0668
tlu쎯mhdd1쎯	-10.0675
odwy쎯	-10.0678
//	-10.0686
ru쎯nl쎯	-10.0687
hal쎯qu쎯	-10.0697
mt쎯oyo쎯	-10.0699
xxye0쎯	-10.0701
tga쎯moo쎯ea쎯ivw쎯	-10.0703
mpv쎯	-10.0704
q쎯uv쎯	-10.0706
brg쎯th쎯y쎯	-10.0707
cgey1쎯ed쎯	-10.0708
mwi쎯vc쎯nl쎯ea쎯	-10.0708
jlj쎯ks쎯	-10.0708
ob쎯ynjg6쎯	-10.0714
xg쎯eo쎯p쎯	-10.0714
ac쎯eu쎯mm쎯aeeb0쎯	-10.0714
hko쎯	-10.0715
mk쎯be쎯	-10.0715
쎁쎉쎇쎆od쎯	-10.0716
vlg쎯nft쎯	-10.0716
hagh1쎯jt쎯	-10.0717
ybb쎯jdwd0쎯	-10.0717
nm쎯	-10.0718
yuq쎯oqm쎯yujf0쎯	-10.0723
mt쎯xuq쎯	-10.0726
bjx쎯imy쎯	-10.0728
yoj쎯	-10.0733
ldn쎯wsmy쎯	-10.0734
khom쎯jeb쎯	-10.0737
fvq쎯dfe쎯	-10.0739
tlu쎯mrdf쎯	-10.074
쎈쎇	-10.0741
ip쎯g쎯	-10.0743
jam쎯tdpx쎯	-10.0747
dccc쎯ae쎯d쎯	-10.0747
yws쎯	-10.075
쎂쎅쎀	-10.0753
ewmw쎯wx쎯ywi쎯	-10.0753
lldl0쎯	-10.0753
wqg쎯mhnf쎯ybb쎯kf쎯	-10.0754
jvf쎯ynjg6쎯	-10.0755
qto쎯	-10.0755
kj쎯j쎯	-10.0758
vbn쎯	-10.0761
sag쎯	-10.0763
nf쎯fdi쎯	-10.0763
ken쎯	-10.0765
pwik쎯	-10.0771
dol쎯	-10.0776
vyg1쎯bwt쎯	-10.0777
wpn쎯djdk0쎯	-10.0779
aeeb0쎯rgog쎯	-10.0787
awab쎯	-10.0789
nr쎯aeeb0쎯	-10.0792
wyq쎯fqvh쎯	-10.0793
쎇쎄	-10.0795
rfn쎯	-10.0797
ob쎯jr쎯	-10.0799
maq쎯eym쎯	-10.0801
n1쎯	-10.0801
g쎯dedw쎯khay7쎯	-10.0807
pr쎯jlj쎯	-10.0813
rkj쎯oft쎯	-10.0814
tp쎯wyq쎯	-10.0818
jqug쎯jntj쎯	-10.082
puea쎯	-10.0822
haeo쎯sfjh쎯	-10.0826
kmm쎯	-10.0826
yd쎯y쎯	-10.0827
wgkn1쎯쎂.	-10.0827
tuqj쎯wl쎯	-10.0828
fcr쎯qsy쎯	-10.0835
i쎯imy쎯uh쎯	-10.0837
qoi2쎯	-10.0837
ydx쎯et쎯	-10.0837
jj쎯gss쎯	-10.0841
p쎯st쎯hv쎯	-10.0841
ua쎯he쎯	-10.0843
pulm쎯	-10.0846
imy쎯flf0쎯	-10.085
triq쎯	-10.0853
wb쎯pq쎯	-10.0855
kwb쎯mrdf쎯	-10.0858
klj쎯ode쎯	-10.0859
ip쎯wl쎯ea쎯of쎯	-10.086
p쎯gah쎯ji쎯	-10.0861
i쎯ydx쎯	-10.0862
sj쎯aeeb0쎯	-10.0865
wsmy쎯dx쎯sh쎯qtui쎯	-10.0866
j쎯《	-10.087
v쎯qgk쎯	-10.0874
x쎯ql쎯	-10.0877
uv쎯t쎯	-10.0877
qtb쎯qa쎯	-10.0877
aeeb0쎯tp쎯	-10.0879
uef쎯	-10.0881
uhx쎯aiyk쎯	-10.0883
쎆쎁	-10.0886
yaw쎯	-10.0888
nsh쎯jp쎯	-10.0889
”b쎯“	-10.0889
aeeb0쎯ivy쎯yh쎯	-10.0889
ea쎯wb쎯	-10.0889
jw쎯apwr쎯	-10.089
e쎯m쎯p쎯	-10.0897
ib쎯sus쎯	-10.0899
mkq쎯ofn쎯	-10.0903
)khug0쎯《	-10.0904
ymwi쎯	-10.0912
aeeb0쎯mtjc1쎯	-10.0917
khay7쎯《	-10.0917
d쎯or쎯rqqy2쎯	-10.092
rw쎯iuc쎯	-10.0924
ito쎯ot쎯	-10.0928
dgl쎯e쎯	-10.0932
yo쎯ydx쎯p쎯	-10.0932
um쎯wi쎯	-10.0934
he쎯ld쎯	-10.0935
jm쎯iyv쎯	-10.0937
쎂쎀쎀쎉	-10.0942
aef쎯nad쎯	-10.0944
wyi쎯	-10.0945
qtbo쎯wwv쎯	-10.0945
p쎯nl쎯	-10.0946
wuk쎯yqod쎯	-10.0946
쎈od쎯	-10.095
rcp쎯ih쎯	-10.0951
gah쎯ji쎯tga쎯	-10.0958
qgd쎯	-10.0964
osfg0쎯aymx0쎯	-10.0966
yup쎯tvf쎯	-10.0967
mgq쎯ynjg6쎯	-10.097
n쎯“	-10.0971
rm쎯asr쎯	-10.0973
쎆od쎯	-10.0973
kwb쎯bp쎯dccc쎯tga쎯	-10.098
knhi쎯	-10.098
yo쎯ed쎯	-10.0991
tx쎯duj쎯	-10.0993
qtps1쎯》	-10.0994
aymx0쎯qnf쎯	-10.0997
r쎯s쎯xmb쎯ivw쎯	-10.1001
qtps1쎯wrw쎯p쎯	-10.1002
ofn쎯qtyy3쎯	-10.1003
e쎯wa쎯kpd쎯jc쎯uxv쎯	-10.1003
p쎯eu쎯vk쎯	-10.1009
iw쎯wn쎯khay7쎯	-10.101
atdu1쎯	-10.1011
xe쎯kkmw1쎯	-10.1012
yor쎯	-10.1012
ls쎯a쎯	-10.1015
ynmh1쎯	-10.1016
biy쎯	-10.1018
ld쎯ojgr0쎯	-10.1027
ea쎯qrhg쎯	-10.1028
oqm쎯	-10.103
쎂쎀쎀쎇	-10.1033
aeeb0쎯ls쎯j쎯	-10.1034
qjq쎯ud쎯	-10.1037
ngh쎯p쎯	-10.1039
sj쎯khug0쎯	-10.1042
sn쎯apwr쎯	-10.1042
vffy쎯eny쎯	-10.1042
stu쎯	-10.1043
eh쎯dccc쎯ea쎯ojh쎯	-10.1045
dvc쎯	-10.1046
khay7쎯쎃	-10.105
jvf쎯mn쎯	-10.1051
qb쎯jja쎯	-10.1051
dyb쎯qp쎯	-10.1052
rfl쎯g쎯xi쎯yss쎯	-10.1056
쎀쎉	-10.1058
tsf쎯hl쎯	-10.1058
쎀쎈	-10.1059
lw쎯od쎯	-10.1062
aiyk쎯gc쎯	-10.1062
f쎯qn쎯	-10.1064
hsfi1쎯kf쎯	-10.1068
we쎯	-10.1069
mqug쎯	-10.1075
gq쎯od쎯	-10.1075
mrdf쎯kd쎯ea쎯ivw쎯	-10.108
taw쎯fi쎯	-10.108
kr쎯ve쎯	-10.1085
ll쎯	-10.1096
thn쎯snan쎯	-10.1105
uh쎯vey쎯	-10.1107
bxey쎯	-10.1116
cybc쎯yd쎯	-10.1117
or쎯vc쎯	-10.1118
ard쎯	-10.1121
l쎯xi쎯	-10.1123
xkjh쎯	-10.1125
emc쎯	-10.1127
st쎯gsyy쎯	-10.1129
yd쎯jfmf쎯jjyi0쎯	-10.1129
aeeb0쎯kkmw1쎯uda쎯	-10.113
hg쎯)	-10.113
wt쎯ip쎯pa쎯qfk쎯	-10.1131
fv쎯nl쎯	-10.1134
mtjc1쎯yd쎯e쎯	-10.1134
kv쎯ojgr0쎯uc쎯hu쎯	-10.1135
tb쎯	-10.1138
ecu쎯qk쎯	-10.1141
dgn쎯	-10.1141
kq쎯tfih쎯	-10.1145
aeeb0쎯ub쎯	-10.1147
iq쎯ed쎯tga쎯	-10.1148
bng쎯hw쎯eh쎯r쎯	-10.1149
gss쎯b쎯	-10.1151
mpg쎯	-10.1153
q쎯n쎯	-10.1154
pjm쎯	-10.1156
a쎯ei쎯	-10.1157
qs쎯	-10.1159
pwx쎯owd쎯	-10.1159
ewgk1쎯	-10.1161
mat쎯ay쎯mat쎯	-10.1163
ngh쎯aeeb0쎯	-10.1164
wl쎯ea쎯wt쎯opsh0쎯	-10.117
dpq쎯ksg쎯	-10.1176
ag쎯cybc쎯	-10.1181
dna쎯xq쎯	-10.1182
clkg0쎯	-10.1183
ewmw쎯ewmw쎯	-10.1183
qvph쎯	-10.1183
wgkn1쎯bl쎯	-10.1184
ld쎯p쎯	-10.1191
wtx쎯ir쎯yoq쎯	-10.1193
bi쎯qm쎯	-10.1194
pwl쎯khay7쎯“	-10.1194
p쎯dccc쎯ea쎯	-10.1197
nku쎯rw쎯	-10.1203
ldb쎯svjs쎯	-10.1203
쎈쎄	-10.1205
epdc쎯tfns1쎯	-10.1205
ir쎯yoq쎯rca쎯n쎯	-10.1207
txim쎯	-10.1216
yjl쎯vwnn0쎯	-10.1222
khls쎯	-10.1224
tvp쎯apl쎯	-10.1225
fd쎯nr쎯	-10.1226
hipr쎯	-10.123
aeeb0쎯oi쎯dm쎯	-10.1231
hw쎯rw쎯eamy2쎯	-10.1234
lg쎯pwit쎯	-10.1238
tglw0쎯rvq쎯	-10.1239
wn쎯aeeb0쎯	-10.1245
-쎄	-10.1247
iag쎯sw쎯	-10.1251
l쎯n쎯	-10.1251
q쎯yff쎯	-10.1253
dfe쎯qeaf2쎯	-10.1253
q쎯t쎯wl쎯ea쎯ivw쎯	-10.1254
rgm쎯	-10.1257
qn쎯snff1쎯	-10.1258
fk쎯	-10.1262
twij0쎯	-10.1262
》p쎯	-10.1263
ruk쎯jt쎯	-10.1265
iq쎯ed쎯tga쎯wgkn1쎯	-10.1267
ai쎯lfi쎯vrg쎯	-10.1268
od쎯lcfg쎯	-10.1269
xl쎯waw쎯	-10.127
p쎯or쎯kre쎯	-10.1272
g쎯vffy쎯	-10.1275
jdnn쎯	-10.1281
src쎯wq쎯	-10.1282
thk쎯	-10.1282
bqbo쎯qts쎯	-10.1283
iq쎯yd쎯	-10.1289
q쎯tuqj쎯	-10.1292
qtyy3쎯rke쎯	-10.1293
qxj쎯	-10.1294
x쎯xo쎯	-10.1295
gciu쎯	-10.1296
usf쎯dynt0쎯	-10.13
qyvc쎯	-10.1307
d쎯vc쎯nl쎯ea쎯	-10.1315
tve쎯	-10.1316
pi쎯kkmw1쎯	-10.1317
hu쎯wdjq쎯	-10.1317
haeo쎯mt쎯	-10.1319
j쎯ae쎯	-10.1321
fh쎯	-10.1326
wgkn1쎯c쎯eo쎯	-10.1329
쎆.	-10.1333
idwj0쎯	-10.1334
tga쎯iq쎯	-10.1339
cap쎯	-10.1339
yer쎯	-10.1342
nukh쎯	-10.1348
nq쎯pn쎯	-10.1348
zzde30쎯	-10.1349
avw쎯um쎯yh쎯	-10.1351
uqw쎯	-10.1352
rdw쎯	-10.1355
aeu쎯	-10.1355
gh쎯xd쎯	-10.1357
trfk0쎯	-10.1365
ynge쎯	-10.1365
q쎯wsmy쎯gyy쎯	-10.1366
쎁쎉쎆쎀od쎯	-10.1369
ai쎯imy쎯	-10.137
qyv쎯	-10.1372
ssec1쎯	-10.1373
igo쎯kkmw1쎯	-10.1374
rw쎯yujf0쎯	-10.1377
mdri0쎯	-10.1379
rj쎯hu쎯	-10.1381
lfi쎯rqah쎯	-10.1385
abv쎯ftl쎯	-10.139
쎈쎃	-10.1392
ird쎯	-10.1392
iq쎯h쎯p쎯	-10.1397
”w쎯	-10.1398
ip	-10.14
d쎯ynjg6쎯ea쎯ivw쎯	-10.1403
khr쎯	-10.1405
i쎯yqt쎯	-10.141
iwf쎯	-10.1412
hp쎯si쎯	-10.1413
far쎯	-10.1414
tvf쎯qpw쎯n쎯ag쎯	-10.1415
src쎯nl쎯	-10.1419
bwt쎯fnan0쎯	-10.1424
amg쎯xq쎯	-10.1425
fx쎯ac쎯	-10.1429
쎉쎄	-10.143
ipk쎯	-10.1434
6쎯	-10.1435
wtx쎯kq쎯	-10.1435
q쎯khpk1쎯xmb쎯	-10.1438
쎁쎅thgt1쎯	-10.1444
쎂쎀쎁쎀	-10.1444
쎀쎃	-10.1445
wgkn1쎯tep쎯	-10.1449
fvq쎯cw쎯	-10.1453
dfn쎯ku쎯	-10.1453
sg	-10.1454
gae쎯bpx쎯	-10.1459
entd쎯	-10.1462
oj쎯tp쎯	-10.1467
n쎯f쎯eh쎯	-10.1468
wgkn1쎯gq쎯	-10.1469
hal쎯jjyi0쎯	-10.147
kq쎯aeeb0쎯	-10.147
쎁쎉쎇쎁od쎯	-10.1473
ajy쎯sfi쎯	-10.1474
vffy쎯rvq쎯	-10.1475
vc쎯n쎯ag쎯ir쎯yoq쎯	-10.1478
pwd쎯muu쎯	-10.1479
ip쎯tyt쎯	-10.1481
qfk쎯src쎯	-10.1486
ev쎯sag쎯	-10.1486
ufn쎯	-10.1487
wgkn1쎯xuv쎯	-10.1488
sd쎯tgk쎯	-10.1496
w쎯“	-10.1497
xyxl1쎯wi쎯	-10.1498
tuqj쎯vc쎯uc쎯hu쎯	-10.1502
hb쎯	-10.1502
-쎆	-10.1504
xyxe2쎯swwk0쎯	-10.1508
wm쎯ea쎯	-10.1511
fvq쎯tig쎯	-10.1515
gyi쎯dol쎯	-10.1515
ar쎯mkq쎯	-10.1517
yie쎯	-10.1519
nhw쎯wgew쎯	-10.1522
gqm쎯pwx쎯	-10.1522
xuv쎯dk쎯	-10.1524
f쎯gyy쎯ih쎯	-10.1525
쎂쎂쎀	-10.1528
pu	-10.1529
vyd쎯	-10.1535
v쎯e쎯	-10.1537
heg쎯wx쎯p쎯	-10.1537
mi쎯swwk0쎯	-10.1537
nsh쎯nv쎯	-10.1539
afso쎯wwdg쎯	-10.1539
qn쎯p쎯	-10.1542
쎁iyy쎯	-10.1544
my쎯nalt쎯	-10.1551
쎈-	-10.1553
noof쎯vc쎯p쎯	-10.1555
iysy쎯	-10.1558
krd쎯	-10.1558
qts쎯pyv쎯	-10.1558
쎀.쎁	-10.1566
tptd쎯	-10.1572
le쎯	-10.1575
wg	-10.1579
eny쎯pyxf쎯	-10.1583
쎁쎀쎀%	-10.1585
쎅쎀쎀쎀	-10.1586
lt쎯ud쎯	-10.1588
aeeb0쎯ub쎯dm쎯	-10.1592
scw쎯dx쎯	-10.1593
dfe쎯ype쎯	-10.1595
fgqe쎯	-10.1595
gmi쎯	-10.16
ir쎯pr쎯	-10.16
wx쎯ar쎯si쎯	-10.1606
taw쎯mah쎯	-10.1608
mkq쎯mhj쎯	-10.1609
avw쎯rxu쎯r쎯	-10.161
aqn쎯	-10.1614
sks쎯imy쎯aeeb0쎯	-10.1617
wgkn1쎯iuc쎯	-10.1617
bo쎯sks쎯	-10.1618
qi쎯lk쎯mfj쎯	-10.1618
rgvi쎯	-10.1622
khug0쎯tp쎯	-10.1629
ew쎯xl쎯v쎯	-10.1633
wgkn1쎯쎃khug0쎯	-10.1634
p쎯iw쎯wn쎯	-10.1635
ma쎯qt쎯	-10.1636
lg쎯	-10.1638
gtk쎯	-10.164
ba쎯ss쎯	-10.1643
m쎯um쎯	-10.1661
쎁쎉쎄쎆od쎯	-10.1661
쎁)	-10.1662
쎈쎉	-10.1669
oght쎯	-10.1671
f쎯ekgd쎯	-10.1671
nlg쎯al쎯	-10.1675
or쎯ib쎯wgkn1쎯	-10.1681
msj쎯igq쎯	-10.1684
gr쎯usf쎯	-10.1685
ktg쎯vc쎯	-10.1688
dgl쎯n쎯	-10.1693
mrdf쎯eym쎯	-10.1694
rf쎯yv쎯	-10.1695
qlx쎯ivw쎯kv쎯	-10.1696
vl쎯bgu쎯	-10.1698
han쎯	-10.1699
oft쎯	-10.1701
enr쎯	-10.1702
rwxn쎯qyd쎯	-10.1705
dq쎯fs쎯	-10.1707
hubp쎯qsy쎯	-10.1714
wgkn1쎯ld쎯	-10.1718
wvy쎯	-10.172
arc쎯ojgr0쎯	-10.1721
n쎯khay7쎯	-10.1721
ptf쎯mn쎯vq쎯rj쎯	-10.1722
쎉쎃	-10.1725
ug쎯ebb쎯	-10.1725
ynjx1쎯	-10.1734
쎂)	-10.1742
j쎯k쎯ngh쎯	-10.1742
ii쎯nr쎯	-10.1742
wqg쎯ks쎯	-10.1743
af쎯	-10.1745
ssde쎯	-10.1748
ot쎯ra쎯	-10.1753
ky쎯hd쎯	-10.1758
aeeb0쎯xj쎯	-10.1758
gjhl쎯	-10.1761
rae쎯	-10.1761
쎀쎇	-10.1765
ˋ	-10.1767
tw쎯yo쎯	-10.1768
quo쎯yv쎯	-10.1771
un쎯	-10.1773
쎁쎉쎅쎂od쎯	-10.1777
derw1쎯ea쎯	-10.1778
gm쎯ye쎯swcn0쎯ip쎯	-10.1784
tga쎯moo쎯	-10.1785
ttl쎯	-10.1785
tyac쎯pb쎯e쎯	-10.1787
khkw쎯	-10.1789
ebg쎯	-10.1792
ae쎯hv쎯	-10.1794
puw쎯	-10.1795
kv쎯aeeb0쎯	-10.1797
쎉쎂	-10.1798
fknd쎯hu쎯	-10.1799
ekm쎯sak쎯	-10.1799
jdjf1쎯th쎯y쎯	-10.1803
ptu쎯thgt1쎯	-10.1805
ek쎯rs쎯	-10.1815
ito쎯fs쎯	-10.1816
thd쎯	-10.1817
os쎯ybb쎯kv쎯	-10.1818
aeeb0쎯kj쎯oun쎯	-10.1821
gw쎯igo쎯	-10.1828
wt쎯kq쎯	-10.1829
uwn쎯ptf쎯	-10.183
jtg쎯xl쎯wgkn1쎯	-10.1833
lnwy1쎯wwkh3쎯	-10.1834
scw쎯gaht쎯	-10.1836
쎇od쎯	-10.1839
iv쎯	-10.184
bqbo쎯vq쎯	-10.1843
eu쎯cb쎯	-10.1845
kss쎯	-10.1849
xxf쎯kkmw1쎯	-10.185
eamy2쎯utd쎯	-10.1856
/쎂	-10.1856
veg쎯mi쎯	-10.1863
dcy쎯	-10.1864
kct쎯	-10.1866
wyq쎯snan쎯	-10.1868
ir쎯qpgh쎯	-10.1874
tii쎯	-10.1877
ity1쎯th쎯qc쎯	-10.1878
i쎯ai쎯	-10.1881
jrh1쎯	-10.1884
aexd쎯	-10.1885
hcw쎯yaqh0쎯	-10.189
du쎯qt쎯qt쎯lf쎯	-10.1891
ai쎯sb쎯	-10.1892
쎇.	-10.1893
쎉쎀쎀	-10.1895
lbj쎯lm쎯	-10.1896
swcn0쎯quo쎯	-10.1898
uyy쎯xant쎯	-10.1899
drj0쎯wxdm1쎯	-10.19
mtjp2쎯	-10.1903
qtps1쎯vwnn0쎯vey쎯	-10.1906
fiv쎯te쎯	-10.1908
jdh쎯	-10.1917
ir쎯m쎯	-10.1919
mhnf쎯dyn쎯ud쎯fuj쎯	-10.192
qtee쎯	-10.1923
mpu쎯	-10.1929
gdae쎯cybc쎯	-10.1931
lgk쎯hd쎯	-10.1932
hae쎯	-10.1935
bv쎯ej쎯	-10.1939
kwb쎯qqwo0쎯	-10.194
vjnh쎯	-10.1942
쎁.쎀	-10.1945
wqg쎯p쎯	-10.1948
oomd쎯	-10.1949
fkkf3쎯	-10.1951
jdnn쎯tfc쎯	-10.1951
df쎯qpgh쎯aeeb0쎯	-10.1953
aeeb0쎯gc쎯n쎯	-10.1961
),	-10.1962
swwe6쎯iqtg쎯	-10.1967
vnb쎯aj쎯jjyi0쎯	-10.1967
dgg쎯	-10.1973
laj쎯	-10.1976
fq쎯vke쎯ywi쎯qlga쎯	-10.1977
ba쎯쎃	-10.1986
쎁쎉쎅쎉od쎯	-10.1988
ji쎯mn쎯	-10.1988
spyg쎯	-10.1991
qn쎯ay쎯	-10.1992
bwt쎯n쎯	-10.1995
qi쎯sojh쎯	-10.1999
daw쎯	-10.1999
jadk쎯iq쎯	-10.2
aeeb0쎯jc쎯tp쎯	-10.2002
f쎯xq쎯p쎯	-10.2003
qn쎯ivy쎯	-10.2013
w쎯f쎯wb쎯tuqj쎯vc쎯	-10.2016
ir쎯in쎯	-10.2017
f쎯kq쎯	-10.2017
xtd쎯qk쎯	-10.2017
ea쎯khug0쎯	-10.202
ey쎯kybb쎯	-10.2022
》brg쎯	-10.2024
gl쎯dxj쎯h쎯qa쎯	-10.2025
ofn쎯ib쎯yh쎯	-10.2025
tfkc쎯ywi쎯	-10.2026
bq쎯g쎯	-10.2027
ks쎯iaq쎯	-10.2028
by쎯fa쎯	-10.203
ma쎯dxy쎯	-10.2034
wl쎯ea쎯ujq쎯nyp쎯	-10.2036
iw쎯eqk쎯	-10.2039
ou쎯ep쎯	-10.2039
a쎯by쎯	-10.204
wwdg쎯	-10.2042
bvhn쎯	-10.2045
x쎯od쎯	-10.2046
avy쎯w쎯	-10.2047
yk쎯hpg쎯	-10.2049
쎁쎉쎅쎀od쎯	-10.205
tbf1쎯jssy쎯	-10.2051
mep쎯oqb쎯	-10.2052
》b쎯《	-10.2053
jfmf쎯qt쎯	-10.2057
xep쎯wtp쎯	-10.2057
flg쎯	-10.2057
jh쎯yd쎯	-10.2059
ss	-10.206
wqq쎯	-10.2062
qc쎯e쎯	-10.2063
fnan0쎯bng쎯	-10.2065
(쎁쎉쎁	-10.2065
drh쎯ojgr0쎯	-10.2068
gki쎯qgd쎯	-10.2069
yjgo쎯dx쎯	-10.2071
ek쎯iwu쎯	-10.2072
ja쎯kv쎯	-10.2074
f쎯yuh쎯	-10.2076
ii쎯avw쎯	-10.2078
xi쎯ko쎯	-10.2079
uw쎯	-10.2081
raq쎯ngu쎯	-10.2082
g쎯bwt쎯	-10.2083
tp쎯fa쎯	-10.2085
xd쎯i쎯p쎯	-10.2085
wln쎯	-10.2087
dbg쎯	-10.2091
qqb쎯	-10.2097
st쎯hv쎯aeeb0쎯	-10.21
mdm쎯qgk쎯	-10.2105
bu쎯wuk쎯	-10.2119
vnh쎯r쎯	-10.2119
pudd1쎯	-10.212
mhnf쎯yd쎯wgkn1쎯	-10.2121
jpx쎯	-10.213
sks쎯imy쎯wgkn1쎯	-10.2139
mwyk5쎯	-10.214
---	-10.2141
j쎯t쎯el쎯	-10.2141
aef쎯mjv쎯nl쎯ea쎯	-10.2142
lcc쎯eamy2쎯	-10.2142
vt쎯arc쎯	-10.2143
sh쎯derw1쎯	-10.215
h0쎯	-10.2152
ghc쎯	-10.2152
ptu쎯f쎯	-10.2159
qri쎯	-10.2161
pb쎯e쎯“	-10.2165
kf쎯》	-10.2174
fhy쎯	-10.2175
q쎯wsmy쎯qc쎯pb쎯	-10.2176
eg쎯eg쎯kv쎯	-10.2177
ei쎯hcw쎯	-10.2178
xyxe2쎯tq쎯ni쎯	-10.2178
dp쎯aiyk쎯	-10.2178
xqj쎯	-10.2179
쎀.쎂	-10.218
ysu쎯	-10.218
쎉-	-10.218
gc쎯e쎯	-10.218
p쎯ecyj쎯gfkk1쎯	-10.2182
쎂쎀쎀쎃	-10.2183
ths쎯fiv쎯	-10.2184
gyy쎯wrw쎯khug0쎯	-10.2184
jvf쎯ode쎯	-10.2184
j쎯mrdf쎯t쎯	-10.2189
mwga3쎯ntt쎯	-10.2194
ewmw쎯ae쎯wgkn1쎯	-10.2195
ki쎯mcqb쎯	-10.2198
tfns1쎯wb쎯jud쎯	-10.2199
ugwe쎯lbh쎯y쎯	-10.22
』『	-10.2203
ai쎯aik쎯	-10.2204
rke쎯bu쎯	-10.2206
ywso쎯	-10.2209
ity1쎯yd쎯	-10.2212
stx쎯san쎯	-10.2212
ay쎯by쎯	-10.2213
kqdc쎯rrr쎯	-10.2214
xjj쎯	-10.2218
sn쎯ynge쎯	-10.222
uhx쎯ylkm1쎯	-10.2225
ˊ	-10.2229
―	-10.2229
a쎯rv쎯	-10.2232
wxdm1쎯ks쎯	-10.2233
rrr쎯kw쎯	-10.2235
ivc쎯》	-10.2235
ct쎯	-10.2237
ae쎯pb쎯	-10.2242
kl쎯dk쎯	-10.2244
xxf쎯bpx쎯	-10.2244
coi쎯lt쎯	-10.2252
rxaq쎯jgig1쎯	-10.2253
sfjh쎯g쎯h쎯xd쎯i쎯	-10.2254
dk쎯ype쎯	-10.2257
sj쎯r쎯wgkn1쎯	-10.2259
ba쎯lw쎯ij쎯	-10.2259
rxb쎯	-10.2261
쎅ma쎯qyvg0쎯	-10.2269
haww0쎯	-10.2271
ejhh쎯ydj쎯	-10.2281
tlhh쎯	-10.2282
ugmx1쎯	-10.2283
iq쎯h쎯wt쎯g쎯	-10.2286
uh쎯ai쎯	-10.2291
aeeb0쎯icy쎯n쎯	-10.2293
dhy쎯tfih쎯	-10.2296
hu쎯dx쎯	-10.2299
dakg3쎯	-10.2301
spx쎯nft쎯	-10.2301
ovb쎯	-10.2301
wgkn1쎯k쎯ywi쎯	-10.2303
aeeb0쎯exjm쎯hw쎯	-10.2304
pwg쎯	-10.2314
wr쎯	-10.2319
mtfk1쎯ib쎯p쎯	-10.2321
pds쎯	-10.2322
snff1쎯bu쎯	-10.2324
vwnn0쎯rqah쎯	-10.2324
rmy쎯	-10.233
tea쎯	-10.2331
fw쎯cr쎯	-10.2332
cc쎯xl쎯v쎯	-10.2339
tj쎯t쎯	-10.2341
ooph0쎯ni쎯	-10.2345
oiy쎯	-10.235
t쎯dp쎯	-10.2351
efwi쎯	-10.2356
mat쎯lk쎯	-10.2357
wgkn1쎯ix쎯mr쎯	-10.2361
or쎯dx쎯	-10.2365
jntj쎯nbs쎯	-10.2369
dep쎯pyxf쎯	-10.2373
aeeb0쎯x쎯od쎯	-10.2381
wx쎯qfk쎯	-10.2381
tryk1쎯	-10.2381
fy쎯pyxf쎯qn쎯	-10.2384
st쎯hv쎯q쎯cw쎯	-10.2384
f쎯hp쎯	-10.2389
(쎂)	-10.239
my쎯jt쎯	-10.2392
qan쎯	-10.2392
gpl쎯	-10.2402
el쎯uv쎯	-10.2405
aspq쎯od쎯	-10.2407
wgkn1쎯ity1쎯	-10.2409
jsww쎯	-10.241
mux쎯	-10.2417
”(	-10.2417
wx쎯od쎯p쎯	-10.2419
qie쎯nsg쎯	-10.2419
jnf쎯oum쎯	-10.2421
wl쎯tdw쎯nl쎯ea쎯	-10.2426
ugwe쎯lbh쎯	-10.2429
rjhc쎯	-10.243
knx쎯	-10.243
dna쎯qfk쎯	-10.2431
쎁쎁쎀	-10.2433
쎀-	-10.2434
ayv쎯	-10.2434
cybc쎯is쎯	-10.2439
ptu쎯f쎯eh쎯	-10.2441
ftl쎯md쎯	-10.2444
vnb쎯kd쎯	-10.2445
sfjh쎯wn쎯	-10.2449
ft쎯xd쎯	-10.245
khug0쎯vpm쎯	-10.2452
ms쎯	-10.2452
bgq쎯	-10.2462
cc쎯a쎯	-10.2468
noof쎯	-10.247
e쎯q쎯t쎯	-10.2474
aeeb0쎯u쎯rv쎯	-10.2484
xxf쎯drj0쎯	-10.2485
rw쎯ay쎯p쎯	-10.2485
qc쎯khay7쎯	-10.2491
g0쎯	-10.2493
f쎯pf쎯	-10.2495
wi쎯r쎯	-10.2502
jh쎯rvq쎯	-10.2507
ik쎯	-10.2508
vwnn0쎯yjl쎯	-10.2509
aaae쎯r쎯	-10.251
aeeb0쎯jgig1쎯	-10.2511
i쎯fa쎯	-10.2512
au쎯qedm1쎯	-10.2513
nghm쎯	-10.2513
aeeb0쎯od쎯	-10.2525
xnh쎯	-10.2528
qtyy3쎯sj쎯	-10.253
qwg쎯kkk쎯	-10.253
ot쎯qtui쎯	-10.2531
jxfm쎯	-10.2533
pe쎯jjyi0쎯	-10.2533
qlx쎯os쎯ybb쎯kv쎯	-10.2533
owd쎯	-10.2535
nku쎯by쎯	-10.2537
nl쎯wvgo7쎯san쎯	-10.2537
rt쎯nku쎯	-10.2538
qlx쎯m쎯qap쎯	-10.254
ir쎯lj쎯	-10.2541
uw쎯rkl쎯	-10.2547
jgf쎯	-10.2548
kwb쎯bp쎯p쎯	-10.2548
fiv쎯hlqj0쎯	-10.255
ovb쎯eecs쎯	-10.255
sus쎯	-10.2551
vdg쎯efu쎯	-10.2552
fh	-10.2553
mtyg쎯xq쎯swcn0쎯h쎯	-10.2555
mhnf쎯yd쎯aeeb0쎯	-10.2556
、	-10.2562
noof쎯vc쎯vq쎯rj쎯	-10.2565
xi쎯yss쎯sa쎯	-10.2567
ymc쎯	-10.257
aeeb0쎯ea쎯rke쎯	-10.2573
uyy쎯n쎯	-10.2573
쎁쎉쎃쎉od쎯	-10.2574
ji쎯la쎯iq쎯yqt쎯	-10.258
khug0쎯nls쎯rgm쎯	-10.2582
tyt쎯qpw쎯	-10.2585
ud쎯gc쎯y쎯	-10.2585
wqg쎯nc쎯kq쎯	-10.2586
lnt쎯kkmw1쎯	-10.259
ucu쎯	-10.259
n쎯jm쎯	-10.259
rtfh0쎯	-10.2592
tean쎯nn쎯	-10.2596
ett쎯	-10.2596
t쎯ot쎯	-10.2604
j1쎯	-10.2607
(쎁쎉쎀	-10.2608
p쎯fv쎯ywi쎯	-10.2609
usf쎯wfv쎯	-10.2613
gw쎯t쎯fv쎯g쎯	-10.262
\	-10.2621
aeeb0쎯rvq쎯yd쎯	-10.2621
go쎯ag쎯	-10.2622
bgm쎯nl쎯	-10.2626
odu쎯	-10.2627
sp쎯xq쎯	-10.2628
vyg1쎯yjl쎯	-10.2629
a쎯gl쎯	-10.2629
tyo쎯	-10.2631
wyve0쎯	-10.2636
g쎯h쎯	-10.2638
lm쎯eu쎯	-10.264
jvf쎯qtps1쎯	-10.2641
ke쎯	-10.2643
gq쎯he쎯	-10.2645
pw	-10.2645
쎉.	-10.2647
opsh0쎯njdf쎯	-10.2648
aspq쎯mm쎯	-10.2655
ngh쎯xi쎯	-10.2658
ypl쎯	-10.2658
f쎯dk쎯	-10.2659
hto쎯r쎯	-10.2659
eewq0쎯	-10.2661
g쎯duj쎯	-10.2662
xiu쎯	-10.2664
y쎯wgkn1쎯	-10.2667
gbg1쎯	-10.2667
yd쎯dp쎯p쎯	-10.2668
sj쎯ks쎯qt쎯aeeb0쎯	-10.2669
sfc쎯	-10.267
sn쎯gxxe쎯	-10.2673
""	-10.2674
md쎯wct쎯	-10.2683
쎇eh쎯	-10.2685
jt쎯xdc쎯	-10.2688
sks쎯gss쎯	-10.2689
uteo쎯	-10.269
vq쎯snff1쎯	-10.2693
mjv쎯r쎯	-10.2693
쎁쎀쎀pv쎯	-10.2696
pym쎯fknd쎯	-10.2696
aeeb0쎯c쎯	-10.2698
js쎯	-10.2699
쎁쎉쎄쎀od쎯	-10.27
isnc0쎯	-10.2701
xyb쎯	-10.2711
jqt쎯sa쎯	-10.2711
bvhn쎯xd쎯	-10.2712
wgkn1쎯q쎯t쎯	-10.2713
j쎯f쎯ydx쎯	-10.2715
moi쎯	-10.2716
tbf1쎯akhl0쎯	-10.2721
xqbt1쎯	-10.2723
gw쎯bu쎯	-10.2725
mhr쎯	-10.2725
ud쎯aiyk쎯	-10.2728
쎁쎉쎆쎁od쎯	-10.2729
vwnn0쎯fgj쎯	-10.2733
c쎯ir쎯yoq쎯	-10.2735
nl쎯dpq쎯	-10.2736
wgkn1쎯ix쎯	-10.2741
qd쎯mfj쎯	-10.2742
uxt쎯	-10.2743
xl쎯uxv쎯	-10.2747
ea쎯tfih쎯wgkn1쎯	-10.2747
wv쎯r쎯	-10.2751
fvgj쎯	-10.2752
xh쎯by쎯	-10.2754
igo쎯md쎯	-10.2758
bgu쎯	-10.2764
rtyy1쎯	-10.2767
gfkk1쎯uwn쎯	-10.2767
iyjf2쎯tjdt쎯	-10.2768
m쎯o쎯n쎯	-10.2769
ff	-10.2771
jlj쎯r쎯aeeb0쎯	-10.278
hmdf1쎯	-10.2789
pwl쎯by쎯	-10.2794
tjdt쎯	-10.2794
lltf쎯	-10.2798
uitl쎯geqc쎯	-10.2799
twgk0쎯	-10.2801
f쎯ghtp쎯	-10.2803
lll쎯mrdf쎯	-10.2804
mt쎯ekgd쎯	-10.2809
aig쎯	-10.2809
sp쎯xl쎯	-10.281
fiv쎯kl쎯	-10.2813
qi쎯lk쎯kq쎯	-10.2816
fx쎯ac쎯rp쎯	-10.282
wdjq쎯ekm쎯	-10.282
ok쎯wl쎯	-10.2844
xev쎯	-10.2852
pysi쎯	-10.2852
e쎯sfhw쎯cw쎯	-10.2853
qc쎯wb쎯	-10.2861
ir쎯ngh쎯aeeb0쎯	-10.2863
ijf쎯	-10.2872
dgd쎯	-10.2872
twi쎯pe쎯	-10.2874
ir쎯qpgh쎯he쎯	-10.2878
-쎅	-10.2883
hxq쎯	-10.2892
vc쎯faw쎯	-10.2895
khpk1쎯xj쎯kq쎯	-10.2895
pwlj쎯gss쎯	-10.2899
dqi쎯	-10.2899
wgkn1쎯wjna쎯	-10.2902
sffc쎯t쎯	-10.2903
pmj쎯qqb쎯	-10.2904
uxv쎯ofn쎯mt쎯	-10.2906
kuy쎯ja쎯	-10.291
f쎯jm쎯	-10.2912
heg쎯w쎯	-10.292
gss쎯khug0쎯	-10.2923
wq쎯od쎯	-10.2924
wgkn1쎯kl쎯od쎯ay쎯	-10.2928
ojgr0쎯wn쎯aeeb0쎯	-10.293
gm쎯khay7쎯“	-10.2931
lnt쎯o쎯pa쎯qfk쎯	-10.2932
()khug0쎯	-10.2939
uxv쎯ai쎯	-10.294
wge쎯	-10.2942
sgah1쎯	-10.2942
wi쎯dfn쎯	-10.2944
vey쎯uwn쎯	-10.2947
쎂쎀쎀쎆	-10.2948
an	-10.2955
igm쎯	-10.2955
q쎯cw쎯khug0쎯	-10.2959
mta쎯rj쎯	-10.2962
rv쎯ygl쎯	-10.2962
f쎯aiyk쎯	-10.2963
“tj쎯	-10.2966
쎁쎀ma쎯qyvg0쎯	-10.2971
src쎯ru쎯	-10.2971
wgkn1쎯e쎯y쎯	-10.2976
wgkn1쎯gc쎯e쎯	-10.2977
쎂쎀쎀쎅	-10.2987
nc쎯mdj쎯	-10.2992
fd쎯hcw쎯	-10.2992
swwq1쎯	-10.2996
scce0쎯tn쎯	-10.2998
sn쎯qtps1쎯	-10.2998
ksg쎯ujl쎯	-10.3
pivh쎯	-10.3003
wb쎯du쎯qt쎯	-10.3004
hci쎯mat쎯	-10.3004
gsyy쎯mye쎯	-10.3005
nvd쎯rw쎯	-10.3005
_	-10.3006
쎅pv쎯	-10.3009
i쎯rw쎯	-10.3015
igo쎯bu쎯	-10.302
jjyi0쎯q쎯cw쎯	-10.302
tuqj쎯vc쎯iq쎯h쎯	-10.302
ai쎯lc쎯	-10.3026
dx쎯vc쎯	-10.3031
j쎯yh쎯	-10.3032
aef쎯gkkj쎯	-10.3032
쎁쎉쎆쎄od쎯	-10.3033
de	-10.3034
byt쎯yqt쎯	-10.3035
ujq쎯nyp쎯d쎯or쎯	-10.3037
ob쎯wn쎯	-10.3037
bt쎯rw쎯	-10.3042
yuj쎯	-10.3044
khay7쎯쎄	-10.3046
rap쎯mm쎯	-10.3046
wgkn1쎯mr쎯uv쎯	-10.3046
vpj쎯	-10.3046
do쎯t쎯	-10.3049
rbi쎯xr쎯	-10.3054
fhb쎯	-10.3054
kvh쎯	-10.3055
)r쎯wgkn1쎯	-10.3056
(iyu0쎯pb쎯	-10.3058
쎁쎂쎈	-10.3058
nbg쎯	-10.306
yue쎯	-10.3061
aej쎯nl쎯	-10.3064
w쎯f쎯qc쎯	-10.3064
qfl쎯ub쎯	-10.3065
yjl쎯tm쎯	-10.3068
dccc쎯ea쎯d쎯or쎯	-10.3071
jqb쎯	-10.3073
i쎯imy쎯	-10.3074
nx쎯ptf쎯	-10.3076
vr쎯	-10.3077
iq쎯sks쎯p쎯	-10.3077
》f쎯ybb쎯	-10.308
p쎯sfhw쎯cw쎯	-10.3081
wmmc1쎯	-10.3083
w쎯mrdf쎯t쎯	-10.309
ys쎯	-10.3091
fke쎯	-10.3092
mwi쎯s쎯te쎯dm쎯m쎯o쎯	-10.3104
eewq0쎯f쎯p쎯	-10.3104
(bl쎯	-10.3109
mvg쎯api쎯	-10.3111
dcy쎯ns쎯	-10.3112
gd쎯eu쎯	-10.3113
qo쎯yqe쎯	-10.3114
h쎯iq쎯p쎯	-10.3116
bm쎯opsh0쎯	-10.3117
ev쎯fe쎯	-10.3122
suy쎯pe쎯	-10.3122
d쎯aaae쎯mrdf쎯kd쎯	-10.3124
kv쎯pr쎯	-10.3124
nda쎯	-10.3125
rhb쎯qap쎯	-10.3137
jlj쎯r쎯	-10.3138
nvyh쎯	-10.314
qut쎯yjhh쎯	-10.3142
wo쎯ylkm1쎯	-10.3143
bng쎯ld쎯j쎯	-10.3145
p쎯fvq쎯tdh쎯	-10.3145
fued2쎯	-10.3152
쎁쎉쎆쎃od쎯	-10.316
sn쎯sb쎯	-10.316
njf쎯amg쎯	-10.3162
쎁쎉쎅	-10.3163
nl쎯sa쎯	-10.3165
ei쎯qfk쎯s쎯uug쎯	-10.3167
ntct1쎯	-10.3168
cfkf쎯	-10.3168
xn쎯aeeb0쎯	-10.317
(-)	-10.3183
igo쎯tdw쎯kd쎯	-10.3184
쎁쎉쎆쎇od쎯	-10.3185
tj쎯rf쎯	-10.3188
kq쎯kv쎯	-10.3204
ggqt쎯mgq쎯	-10.3207
qeu쎯	-10.3208
foqw1쎯xr쎯	-10.321
ptu쎯qsy쎯	-10.3211
hcw쎯r쎯	-10.3214
wuk쎯r쎯	-10.3214
lhi쎯	-10.3216
uv쎯ldn쎯	-10.3217
]	-10.3217
qut쎯qgwy쎯	-10.3219
uxe쎯fvq쎯	-10.322
rwxn쎯tfkc쎯	-10.3221
st쎯hv쎯p쎯	-10.3223
jpg쎯	-10.3224
aef쎯suy쎯	-10.3226
gr쎯vfi쎯	-10.3227
mu쎯amg쎯	-10.3228
ux쎯adk쎯aqpp쎯	-10.3232
“”	-10.3232
iq쎯ed쎯tga쎯aeeb0쎯	-10.3236
tf쎯tx쎯bu쎯	-10.3236
khay7쎯nc쎯re쎯	-10.3236
aeeb0쎯tyb쎯ft쎯	-10.3237
tfc쎯snan쎯	-10.3239
|	-10.3239
og쎯wi쎯	-10.3239
m쎯imy쎯	-10.3241
cfh쎯	-10.3243
ir쎯yoq쎯wgkn1쎯	-10.3243
mu쎯lhnt1쎯	-10.3248
ib쎯wi쎯	-10.325
”“	-10.3254
qc쎯sy쎯	-10.3255
raq쎯	-10.3259
otf쎯ip쎯	-10.3264
》q쎯p쎯	-10.3275
tf쎯uxe쎯	-10.3277
igh쎯bigk쎯	-10.3278
oopi2쎯dynt0쎯	-10.3282
xa쎯	-10.3285
(.)	-10.3287
jlj쎯r쎯wgkn1쎯	-10.329
no쎯mr쎯	-10.3293
fsy쎯du쎯ks쎯lf쎯	-10.3293
usf쎯ftl쎯	-10.3298
wgkn1쎯”《	-10.3298
tyb쎯jlj쎯md쎯	-10.3299
es쎯	-10.3299
tig쎯wsmy쎯qc쎯	-10.3301
gc쎯mtjc1쎯	-10.3303
fvq쎯ecu쎯	-10.3304
jm쎯n쎯p쎯	-10.3305
igmm쎯ed쎯	-10.331
gw쎯eu쎯tfih쎯	-10.3312
smg쎯ujn쎯aeeb0쎯	-10.3312
mu쎯lfoj2쎯	-10.3314
hfh쎯	-10.3316
wyk쎯ssq쎯qt쎯	-10.3317
oyo쎯	-10.332
쎁쎅pv쎯	-10.3325
iu쎯h쎯	-10.3326
bpju쎯	-10.3326
uae쎯	-10.3331
src쎯ss쎯	-10.3331
aef쎯smg쎯	-10.3333
fd쎯r쎯	-10.3337
hd쎯um쎯	-10.334
tfh쎯dtl쎯	-10.334
qb쎯lt쎯	-10.3341
mhdd1쎯rvq쎯	-10.3341
nrk쎯frj쎯	-10.3343
rmw쎯	-10.3348
qfk쎯yup쎯	-10.3348
qlx쎯jeb쎯kv쎯	-10.3351
ahnu3쎯qts쎯	-10.3354
igo쎯owu쎯	-10.3354
iq쎯rj쎯	-10.3357
쎁쎈쎈	-10.3357
bm쎯eh쎯	-10.3357
wl쎯ev쎯	-10.3361
vvsw쎯	-10.3363
qa쎯nft쎯	-10.3363
ub쎯sgy쎯	-10.3365
qb쎯q쎯	-10.3366
쎇쎁	-10.3367
#	-10.3371
ip쎯udb쎯	-10.3371
gdj쎯frj쎯	-10.3371
ype쎯foag쎯	-10.3373
()khay7쎯	-10.3374
p쎯igj쎯mlb쎯	-10.3374
a쎯cv쎯	-10.3376
gw쎯thgt1쎯cybc쎯	-10.3378
vtkp쎯	-10.3379
aeeb0쎯ud쎯gc쎯	-10.3381
dfi쎯	-10.3383
hcjy쎯p쎯	-10.3389
쎈쎁	-10.3389
m쎯oun쎯aeeb0쎯	-10.3394
f쎯jw쎯	-10.3394
yoa쎯	-10.3397
nc쎯ggci쎯	-10.3397
n쎯mkq쎯p쎯	-10.34
rhb쎯wb쎯	-10.3401
ger쎯pui쎯qi쎯	-10.3406
f쎯lrq쎯	-10.3414
sn쎯nq쎯p쎯	-10.3414
dgb쎯	-10.3415
ekgd쎯l쎯	-10.3419
쎁쎉쎄쎅od쎯	-10.3423
f쎯aiyk쎯fs쎯	-10.3424
쎁쎉쎃쎈od쎯	-10.3424
ap쎯dl쎯	-10.3424
src쎯olf쎯	-10.3426
jn쎯vgd쎯	-10.3431
yd쎯r쎯	-10.344
pyv쎯fum쎯	-10.3441
dav쎯	-10.3442
fs쎯p쎯	-10.3442
hass쎯	-10.3445
deaw0쎯khay7쎯“	-10.3448
쎂쎀jo쎯ce쎯	-10.3453
dfe쎯vg쎯	-10.3454
nc쎯ja쎯	-10.3454
ght쎯	-10.346
vcu0쎯ii쎯	-10.346
e쎯xpgm쎯nl쎯	-10.3461
ed쎯deq쎯	-10.3465
krag1쎯jnw쎯	-10.3466
wl쎯wl쎯kv쎯	-10.3467
ndmn쎯	-10.347
emg쎯sl쎯	-10.3471
fv쎯qu쎯	-10.3475
쎄)	-10.3475
xynt0쎯mb쎯	-10.3477
d쎯qt쎯	-10.348
quo쎯fgj쎯	-10.3481
k쎯ql쎯p쎯	-10.3481
hy쎯	-10.3482
tga쎯swcn0쎯	-10.3484
dp쎯iue쎯	-10.3486
쎁쎉쎄쎁od쎯	-10.3487
tlu쎯mhdd1쎯p쎯	-10.3487
bi쎯ode쎯nl쎯ea쎯	-10.349
p쎯tdw쎯kd쎯	-10.3494
(ii쎯	-10.3495
lft쎯khpk1쎯	-10.3495
wb쎯kv쎯	-10.3498
gw쎯aiyk쎯	-10.35
vfi쎯fu쎯	-10.3501
p쎯noof쎯vc쎯	-10.3501
ai쎯dv쎯	-10.3501
hxs쎯	-10.3502
wjna쎯dk쎯	-10.3503
rj쎯lfoj2쎯aeeb0쎯	-10.3504
ujn쎯fs쎯	-10.3506
ynh쎯	-10.3507
쎁쎉쎄쎂od쎯	-10.3511
vpm쎯khug0쎯jjyi0쎯	-10.3512
qi쎯xj쎯kq쎯	-10.3512
nsd쎯tjh쎯	-10.3513
gqm쎯	-10.3516
iwu쎯pv쎯tf쎯	-10.3519
ucv쎯	-10.352
쎀.쎃	-10.352
tm쎯yjgo쎯	-10.352
aips0쎯rgm쎯	-10.3521
tp쎯usf쎯	-10.3521
qut쎯mf쎯	-10.3524
dtb쎯	-10.3532
xdc쎯sh쎯	-10.3533
ma쎯qyvc쎯	-10.3535
qi쎯abpd쎯jjyi0쎯	-10.354
skg쎯	-10.3544
uff쎯ueeo쎯awf쎯mb쎯	-10.3546
qwg쎯	-10.3547
reff쎯xuq쎯	-10.3547
fd쎯aj쎯uug쎯	-10.3548
rvq쎯yd쎯p쎯	-10.3548
fq쎯kpw쎯	-10.3549
qk쎯pui쎯	-10.355
쎃)	-10.355
etuh쎯ib쎯	-10.3551
uc쎯ity1쎯	-10.3552
wp쎯stt쎯	-10.3553
src쎯xm쎯	-10.3555
m쎯uh쎯	-10.3556
ghtp쎯aeeb0쎯	-10.3556
nu쎯qk쎯	-10.3558
bwg쎯xiy쎯	-10.3561
or쎯rw쎯	-10.3562
wgkn1쎯otf쎯ubae쎯	-10.3562
lvl쎯ifd쎯	-10.3565
cc쎯xl쎯	-10.3567
aeeb0쎯ew쎯w쎯	-10.3567
sb쎯udl쎯tdw쎯kd쎯	-10.3569
tf쎯wm쎯	-10.357
fvq쎯rsj쎯	-10.357
frnn쎯	-10.3575
hyn쎯te쎯	-10.3578
wi쎯cybc쎯	-10.3579
vq쎯rj쎯b쎯	-10.358
f쎯qyd쎯	-10.3581
“q쎯t쎯	-10.3583
dx쎯kre쎯	-10.3585
khpk1쎯lk쎯kq쎯	-10.3587
ae쎯vc쎯tdw쎯kd쎯	-10.3588
ray쎯	-10.359
tdh쎯os쎯	-10.3593
sa쎯쎁	-10.3595
ksj쎯wgkn1쎯	-10.3598
tryk1쎯fk쎯	-10.3602
wgkn1쎯”aef쎯	-10.3603
ewmw쎯ae쎯	-10.3609
tes쎯	-10.3613
xi쎯yss쎯쎃	-10.3615
fm쎯xgx쎯	-10.3616
ox쎯h쎯wqg쎯aeeb0쎯	-10.3617
q쎯ek쎯noof쎯vc쎯	-10.3617
aw쎯fqu쎯	-10.3618
lqy쎯	-10.3619
jn쎯jlj쎯	-10.3621
euk쎯	-10.3623
qqv쎯	-10.3628
swcn0쎯ptf쎯	-10.363
sip쎯yv쎯	-10.363
dccc쎯qtb쎯wgkn1쎯	-10.3632
ub쎯gyi쎯	-10.3633
p쎯wwv쎯gr쎯	-10.3633
ue쎯jlj쎯	-10.3636
of쎯dk쎯	-10.3637
usf쎯sfhw쎯	-10.3638
gkq쎯	-10.364
thgt1쎯aeeb0쎯	-10.3641
ug쎯olf쎯	-10.3643
ba쎯f쎯h쎯vc쎯r쎯qfk쎯	-10.3646
mht쎯kq쎯	-10.3646
wl쎯ea쎯ivw쎯	-10.3649
rma쎯	-10.3655
sssm쎯mkq쎯	-10.3656
ir쎯bi쎯	-10.3659
tgjk1쎯eamy2쎯	-10.366
lld쎯	-10.3661
mjv쎯lk쎯	-10.3662
mrdf쎯mu쎯	-10.3662
u쎯xfw쎯vq쎯rj쎯	-10.3665
qtr쎯tg쎯	-10.3668
hp쎯o쎯	-10.3668
p쎯rvq쎯vk쎯	-10.367
yyiy쎯	-10.3671
tuqj쎯vc쎯iwf쎯vc쎯	-10.3672
yijh쎯	-10.3678
iyu0쎯nx쎯	-10.3678
xx쎯gc쎯	-10.368
nfq쎯	-10.368
alb쎯	-10.3682
igo쎯mjv쎯	-10.3684
pdwu쎯	-10.3687
vey쎯khug0쎯	-10.3688
ay쎯p쎯	-10.3689
ssh쎯nr쎯	-10.369
khay7쎯쎁.	-10.3691
lk쎯an쎯	-10.3691
aiyk쎯lnt쎯	-10.3691
go쎯nbs쎯	-10.3693
qjb쎯mm쎯	-10.3693
tehc2쎯mat쎯	-10.3693
mvb쎯	-10.3698
jeb쎯kq쎯	-10.3698
iyjf2쎯btbh10쎯	-10.3703
w쎯f쎯aymx0쎯	-10.3705
hyn쎯hv쎯	-10.3706
xep쎯iq쎯	-10.3708
lfh0쎯	-10.3708
or쎯qv쎯	-10.3709
aeeb0쎯otf쎯ubae쎯	-10.371
쎁쎉쎄쎄od쎯	-10.3712
wct쎯sj쎯	-10.3715
ea쎯tuqj쎯vc쎯	-10.3716
qtg쎯	-10.3719
mem쎯rxaq쎯	-10.3724
)b쎯	-10.3726
xpgm쎯wqq쎯ofn쎯ib쎯	-10.3726
tmj1쎯	-10.3727
mjv쎯xj쎯	-10.3729
a쎯fcr쎯	-10.3731
》khug0쎯《q쎯t쎯	-10.3732
tedt2쎯	-10.3737
gb쎯qv쎯	-10.3739
ujq쎯nyp쎯eu쎯vn쎯	-10.3742
f1쎯	-10.3742
mye쎯qnw쎯	-10.3743
tf쎯yjl쎯	-10.3743
d쎯or쎯kpe쎯	-10.3743
apj쎯	-10.3743
tj쎯qu쎯	-10.3743
derw1쎯qn쎯	-10.3744
vt쎯qr쎯p쎯	-10.3745
ru쎯wc쎯	-10.3746
lft쎯rvl쎯	-10.3747
nq쎯wgdy1쎯	-10.3747
geqc쎯vb쎯ea쎯ivw쎯	-10.3748
쎁khug0쎯	-10.3748
mqh쎯	-10.3752
q쎯ii쎯	-10.3752
p쎯pp쎯nsh쎯gss쎯	-10.3754
ewmw쎯)	-10.3755
uj쎯bigk쎯wgkn1쎯	-10.3757
imtj쎯	-10.3758
p쎯nq쎯gyy쎯	-10.376
chy쎯ws쎯	-10.3763
wpn쎯djdk0쎯p쎯	-10.3765
dq쎯xxm쎯	-10.3767
rhia쎯	-10.3768
qhqk쎯	-10.377
r쎯qgk쎯q쎯	-10.3773
pwit쎯gc쎯	-10.3773
wwwb0쎯kre쎯	-10.3774
9쎯	-10.378
hqkg0쎯	-10.3781
fvq쎯etuh쎯	-10.3781
쎆)	-10.3786
wl쎯ujq쎯oey쎯eecs쎯	-10.379
aiyk쎯el쎯	-10.3795
hu쎯aeeb0쎯	-10.3795
icf쎯dx쎯	-10.3796
tlu쎯yd쎯y쎯	-10.38
fhck쎯dmpi쎯	-10.3801
qsj쎯	-10.3802
uxe쎯aymx0쎯	-10.3804
ldb쎯svjs쎯wgkn1쎯	-10.3808
rw쎯p쎯	-10.3808
med쎯	-10.3811
mu쎯duj쎯	-10.3813
gf쎯ypk쎯	-10.3815
wgkn1쎯aef쎯	-10.3817
dx쎯ywi쎯	-10.3817
ps쎯e쎯	-10.3818
jdn쎯rawn0쎯jvfh1쎯	-10.3819
bb쎯bi쎯	-10.3819
ryi쎯	-10.382
rwno쎯imy쎯	-10.3823
r쎯wn쎯	-10.3828
sako쎯	-10.3829
stt쎯	-10.3834
쎁쎈쎆	-10.3834
ybb쎯q쎯	-10.3837
od쎯h쎯	-10.3839
쎁쎉쎆쎅od쎯	-10.3842
xkw쎯	-10.3844
:쎁	-10.3845
qlx쎯m쎯oun쎯khug0쎯	-10.3846
oun쎯ae쎯	-10.3847
tp쎯lrq쎯	-10.3848
n0쎯	-10.3851
dccc쎯yqt쎯jeb쎯	-10.3856
aeeb0쎯ii쎯qc쎯	-10.3862
wsmy쎯mi쎯	-10.3863
khug0쎯l쎯ifd쎯	-10.3864
ghad쎯suy쎯	-10.3865
csh쎯jvf쎯	-10.3867
쎁쎉쎅쎁od쎯	-10.3867
mc쎯jl쎯ipw쎯	-10.387
bm쎯src쎯	-10.3874
heg쎯e쎯	-10.3875
lujf1쎯wa쎯	-10.3876
rsj쎯vc쎯	-10.3879
m쎯o쎯ib쎯yh쎯	-10.388
qtps1쎯etjr쎯	-10.3881
ku쎯w쎯	-10.3882
aeeb0쎯qi쎯	-10.3883
el쎯p쎯	-10.389
wa쎯kpd쎯p쎯	-10.389
rnwy2쎯	-10.389
x쎯ea쎯	-10.3892
iqi쎯xi쎯	-10.3892
-쎈	-10.3893
쎁,	-10.3899
djj쎯qwmc1쎯	-10.39
bjy쎯yff쎯	-10.3903
mpf쎯oi쎯	-10.3905
q쎯oa쎯wqg쎯rke쎯	-10.3908
y1쎯	-10.3911
qi쎯abpd쎯	-10.3911
xxm쎯uxe쎯	-10.3912
t쎯ghad쎯	-10.3912
afrb쎯	-10.3914
wyq쎯ihw쎯	-10.3916
ybb쎯btbh10쎯	-10.3917
gw쎯igo쎯p쎯	-10.3921
rw쎯pumk1쎯iw쎯wn쎯	-10.3925
qoqt1쎯	-10.3926
flmu0쎯qtps1쎯	-10.3927
d쎯or쎯r쎯lf쎯	-10.3928
ftxg쎯	-10.393
aeeb0쎯yk쎯ib쎯	-10.393
qoug0쎯pb쎯	-10.3931
ir쎯mhj쎯	-10.3935
utv쎯uh쎯	-10.3935
trdc0쎯	-10.3937
vl쎯icf쎯	-10.3938
쎅쎀pv쎯	-10.3939
tdw쎯kd쎯khug0쎯	-10.3939
kk쎯	-10.3939
xr쎯wvgo7쎯	-10.3942
khn쎯	-10.3943
yff쎯g쎯	-10.3944
kqgi쎯	-10.3945
jjyi0쎯r쎯	-10.3946
rmf쎯	-10.3947
wm쎯kyc쎯	-10.3954
el쎯kmw쎯fwf쎯mn쎯	-10.3954
uvtd0쎯aeeb0쎯	-10.3958
fd쎯gss쎯	-10.3959
qedm1쎯	-10.396
쎃쎀pv쎯	-10.3962
jc쎯rw쎯y쎯	-10.3963
jgm쎯up쎯	-10.3968
rus쎯el쎯	-10.3969
om쎯	-10.3971
usww쎯	-10.3974
aeeb0쎯bl쎯lt쎯	-10.3975
vt쎯ek쎯	-10.398
jqkg1쎯qdr쎯	-10.3983
ew쎯nnf쎯yh쎯	-10.3987
wl쎯kpe쎯	-10.3988
gq	-10.3993
aeeb0쎯a쎯hi쎯	-10.3995
tfh쎯iq쎯	-10.3996
ip쎯ir쎯yoq쎯	-10.4007
el쎯n쎯	-10.4008
kd쎯ldn쎯	-10.4008
xy쎯l쎯	-10.4009
쎂,	-10.4011
p쎯el쎯fwf쎯	-10.4012
eamy2쎯uxe쎯	-10.4013
쎄.쎅	-10.4013
ykkn2쎯	-10.4015
f쎯aymx0쎯	-10.4016
dk쎯gf쎯or쎯	-10.402
igo쎯h쎯kre쎯	-10.4023
y쎯“	-10.4025
ysj쎯	-10.4027
f쎯ug쎯	-10.403
gkqq쎯vq쎯	-10.403
oj쎯wx쎯	-10.403
ii쎯ay쎯	-10.4032
쎀qjgf1쎯	-10.4035
b쎯i쎯pwit쎯	-10.4037
igo쎯xe쎯	-10.4037
wgkn1쎯bl쎯lt쎯	-10.4038
ktg쎯ipwm1쎯	-10.4039
oe쎯	-10.4039
kv쎯bv쎯	-10.4039
b쎯qgk쎯xg쎯	-10.4041
ua쎯eg쎯	-10.4042
tuqj쎯gm쎯yh쎯	-10.4044
dnb쎯gf쎯	-10.4044
atm쎯pn쎯	-10.4044
iyy쎯khay7쎯	-10.4045
bcy1쎯kuy쎯	-10.4047
wpfn쎯	-10.4048
mwi쎯vc쎯r쎯eamy2쎯	-10.4052
thgt1쎯tm쎯	-10.4052
hubp쎯r쎯	-10.4054
mq쎯	-10.4054
》bb쎯oo쎯	-10.4055
gfh쎯qk쎯	-10.4057
ojf쎯	-10.4058
nl쎯ea쎯wsmy쎯fs쎯	-10.4058
qlx쎯rke쎯kv쎯	-10.4062
yd쎯dp쎯y쎯	-10.4063
aeeb0쎯wtx쎯	-10.4065
m쎯oun쎯khug0쎯	-10.4069
r쎯uhx쎯	-10.4069
쎁쎉쎆쎂od쎯	-10.407
qt쎯rj쎯hu쎯	-10.407
rudk1쎯	-10.4071
gqc쎯flf0쎯	-10.4072
ff쎯fo쎯aeeb0쎯	-10.4073
wgkn1쎯wvgo7쎯san쎯	-10.4073
쎁쎀pv쎯	-10.4075
epf쎯snan쎯	-10.4084
wtx쎯jeb쎯	-10.4084
go쎯oat쎯	-10.4085
gmk쎯	-10.4086
wri쎯	-10.4087
nl쎯ni쎯	-10.4089
ea쎯qc쎯	-10.4089
kgb쎯pjv쎯	-10.409
aeeb0쎯w쎯q쎯t쎯	-10.4095
jsj쎯ipwm1쎯	-10.4095
vmm쎯qie쎯	-10.4096
uxhn1쎯	-10.4098
ub쎯rqcl5쎯	-10.41
ny	-10.4101
ox쎯b쎯t쎯	-10.4103
쎁/	-10.4105
sj쎯jud쎯	-10.4108
wct쎯fsy쎯wgu쎯	-10.4109
쎅mtjy11쎯	-10.4109
khug0쎯ek쎯	-10.4114
p쎯ii쎯ku쎯	-10.4116
lmj쎯	-10.4116
eecs쎯uf쎯	-10.4118
jdjf1쎯th쎯	-10.4119
q쎯t쎯ftl쎯dk쎯	-10.4125
exjm쎯	-10.4126
riq쎯	-10.4128
rus쎯q쎯	-10.413
fvq쎯mrdf쎯	-10.413
jgig1쎯snan쎯	-10.4134
q쎯ek쎯ea쎯	-10.4135
kq쎯kq쎯kv쎯	-10.4136
un쎯nr쎯	-10.4142
imdy쎯	-10.4149
iwf쎯vc쎯iq쎯	-10.415
drvc쎯dcw쎯	-10.4153
xl쎯whdy쎯	-10.4157
yv쎯hcd쎯	-10.416
fx쎯pe쎯si쎯	-10.416
ojl쎯	-10.4165
aiyk쎯yss쎯	-10.4168
ito쎯udl쎯	-10.4172
wgkn1쎯gw쎯sj쎯	-10.4173
noof쎯hu쎯vc쎯	-10.4174
rl쎯aps쎯	-10.418
tj쎯ywi쎯	-10.4183
sj쎯r쎯	-10.4183
mtfk1쎯ib쎯wgkn1쎯	-10.4185
ox쎯h쎯wqg쎯lf쎯	-10.4186
wqg쎯mhnf쎯dyn쎯	-10.4188
쎁쎉쎄쎈od쎯	-10.4188
』	-10.419
wl쎯tdw쎯yd쎯lt쎯	-10.4195
dfa쎯	-10.4195
qjq쎯fw쎯	-10.4197
eu쎯uyg쎯	-10.4198
ba쎯qeqs쎯	-10.4199
jm쎯j쎯g쎯	-10.4199
kjm쎯	-10.4201
rcp쎯qb쎯	-10.4201
f0쎯	-10.4204
deq쎯gss쎯	-10.4209
trh0쎯jo쎯	-10.421
laf쎯ylkm1쎯jjyi0쎯	-10.421
llll11쎯	-10.4214
odd쎯pfff쎯	-10.4215
ufw쎯whdy쎯	-10.4217
쎂쎀쎁쎁	-10.4218
pukm1쎯	-10.4219
p쎯o쎯mlb쎯	-10.4223
ugo쎯	-10.4224
ib쎯g쎯	-10.4225
anqt쎯up쎯	-10.423
jep쎯yv쎯	-10.423
i쎯dei쎯	-10.4231
taho0쎯	-10.4232
wrw쎯mta쎯	-10.4232
쎁.쎆	-10.4235
yjq쎯	-10.4235
hcw쎯aeeb0쎯	-10.4237
bbk쎯	-10.4239
dh쎯auu쎯	-10.424
mi쎯gar쎯	-10.4245
l쎯cck쎯	-10.4247
쎁.쎈	-10.4248
dgj쎯	-10.425
mu쎯wm쎯	-10.4257
g쎯l쎯	-10.4257
en쎯r쎯	-10.4259
of쎯u쎯	-10.426
aeeb0쎯vt쎯ld쎯	-10.4266
쎁쎉쎃쎂od쎯	-10.4267
mtyg쎯aiyk쎯	-10.427
il쎯bng쎯	-10.4275
eamy2쎯xoy쎯	-10.4278
iq쎯dx쎯ea쎯	-10.4278
puj쎯	-10.4279
gah쎯xq쎯	-10.4281
쎁쎃쎀	-10.4286
vt쎯qr쎯	-10.429
p쎯f쎯kq쎯	-10.429
[	-10.4292
ix쎯qgk쎯	-10.4293
vlv쎯qmd쎯	-10.4293
ifd쎯lk쎯vpm쎯	-10.4294
oo쎯》	-10.4295
aeeb0쎯kvh쎯qrhg쎯	-10.4297
he쎯yju쎯	-10.4301
ae쎯sgkp쎯	-10.4304
gae쎯hmdf1쎯	-10.4307
t쎯n쎯	-10.4312
ivw쎯kv쎯	-10.4312
bi쎯iqi쎯	-10.4316
w쎯thgt1쎯ip쎯	-10.4332
ma쎯rke쎯	-10.4332
ybb쎯ivw쎯	-10.4338
uh쎯qt쎯	-10.4339
ac쎯eu쎯ir쎯ngh쎯	-10.4339
eh쎯iuc쎯ws쎯sj쎯	-10.434
deaw0쎯khay7쎯‘	-10.434
aeeb0쎯gc쎯e쎯	-10.434
drvc쎯uxe쎯	-10.4343
ld쎯oun쎯	-10.4343
uuk0쎯	-10.4358
쎁쎉쎄쎃od쎯	-10.4358
l쎯qut쎯	-10.4359
eg쎯aeeb0쎯	-10.4361
yk쎯ivc쎯	-10.4361
jtn쎯lx쎯	-10.4361
aiyk쎯kv쎯	-10.4361
yff쎯enbm쎯	-10.4362
vyg1쎯aq쎯	-10.4363
ito쎯tlv쎯	-10.4363
nl쎯omh쎯	-10.4363
vq쎯rj쎯aiyk쎯gyy쎯	-10.4367
h쎯yh쎯	-10.4367
aeeb0쎯vfg쎯qc쎯	-10.4367
bl쎯rqci5쎯	-10.4368
ua쎯vfi쎯	-10.4375
u쎯mvv쎯aeeb0쎯	-10.4376
odwd쎯bq쎯	-10.4378
icy쎯xl쎯v쎯	-10.4378
xtoy쎯	-10.4379
bcy1쎯	-10.438
ljh쎯ujan0쎯	-10.4381
etuh쎯og쎯	-10.4382
쎀mtjy11쎯	-10.4382
faw쎯	-10.4382
fiv쎯fpg쎯	-10.4384
ie쎯n쎯	-10.4387
mew쎯	-10.4397
tyt쎯l쎯	-10.4399
lk쎯sojh쎯jjyi0쎯	-10.44
adk쎯aqpp쎯	-10.4401
ogf쎯	-10.4401
wb쎯wct쎯	-10.4402
wgkn1쎯쎂쎀쎀쎆od쎯	-10.4408
t쎯wb쎯iuc쎯ws쎯	-10.4408
m쎯vq쎯kq쎯frj쎯	-10.4413
gm쎯dm쎯	-10.4414
of쎯xy쎯mtjk2쎯cv쎯	-10.4419
쎄쎀쎀쎀	-10.4424
aqpp쎯	-10.4426
jeg쎯pfff쎯	-10.4426
wl쎯ea쎯wb쎯	-10.4428
(jtg쎯	-10.443
gu쎯aeeb0쎯tyb쎯ft쎯	-10.4431
쎁쎉쎅쎅od쎯	-10.4433
mwi쎯h쎯kre쎯	-10.4435
ei쎯qfk쎯	-10.4435
el쎯qrc쎯	-10.4436
gkq쎯snan쎯jjyi0쎯	-10.4436
xd쎯qb쎯	-10.4439
yd쎯djdk0쎯	-10.4439
p쎯eecs쎯xuq쎯	-10.444
rtmt1쎯ep쎯	-10.4441
gq쎯ws쎯	-10.4441
rxxn2쎯	-10.4441
imy쎯enbm쎯	-10.4444
sdmp쎯	-10.4448
buep쎯	-10.4448
wvgh10쎯	-10.4457
fsy쎯wi쎯	-10.4458
aeeb0쎯w쎯f쎯wb쎯	-10.4464
ldn쎯geqc쎯	-10.4465
vrg쎯yjl쎯	-10.4466
bwgj1쎯쎂	-10.4467
mwi쎯kpd쎯	-10.4468
nku쎯rw쎯y쎯	-10.4468
gab쎯	-10.4468
ot쎯qb쎯	-10.4469
lyi쎯jo쎯	-10.447
a쎯avy쎯	-10.4472
jqkg1쎯tol쎯	-10.4472
tfn	-10.4474
cw쎯bo쎯	-10.4476
dcy쎯qtr쎯	-10.4476
ivy쎯gss쎯	-10.4477
tbp쎯afso쎯	-10.4478
tfkc쎯qk쎯p쎯	-10.448
sgkp쎯	-10.4481
lrk쎯	-10.4483
wgkn1쎯ie쎯uv쎯	-10.4483
bskg쎯sfjh쎯	-10.4485
lk쎯ifd쎯	-10.4485
p쎯x쎯iw쎯aeeb0쎯	-10.4486
jjyi0쎯fsy쎯	-10.4493
tt쎯rw쎯	-10.4494
khug0쎯ljh쎯	-10.4494
rxag쎯	-10.4494
igo쎯dhq쎯	-10.4497
bhgc1쎯	-10.4497
qre쎯	-10.4501
tvhp쎯iq쎯dx쎯	-10.4505
qbxi쎯jtj쎯	-10.4505
jjs쎯jw쎯	-10.4509
noof쎯vc쎯wb쎯	-10.4517
ifd쎯el쎯uv쎯	-10.4518
l쎯kq쎯	-10.4519
j쎯l쎯ifd쎯	-10.4522
jo쎯iqi쎯l쎯	-10.4522
mwi쎯ekgd쎯	-10.4525
src쎯sy쎯	-10.4527
wx쎯ei쎯	-10.4528
m쎯mta쎯	-10.4529
ujq쎯nyp쎯》	-10.4532
vt쎯oju쎯	-10.4533
ujq쎯nyp쎯kpe쎯	-10.4536
mpf쎯et쎯	-10.4539
nhkf6쎯	-10.4539
fqn쎯	-10.4542
nsg쎯jh쎯	-10.4543
qtps1쎯hd쎯	-10.4543
u쎯xfw쎯mkq쎯mhj쎯	-10.4552
iq쎯qdr쎯	-10.4554
qymn1쎯qrhg쎯	-10.4557
t쎯kw쎯	-10.4558
쎀.쎈	-10.4559
heu쎯	-10.456
day쎯	-10.456
src쎯jffb쎯	-10.4563
brrh0쎯	-10.4567
qrc쎯ipx쎯	-10.4571
fx쎯nr쎯	-10.4572
agvp쎯	-10.4572
iq쎯h쎯khug0쎯	-10.4574
ydx쎯aeeb0쎯	-10.4575
pf쎯i쎯	-10.4578
fpgc26쎯	-10.4578
n쎯r쎯	-10.4579
fhud3쎯	-10.4579
ntb쎯	-10.4584
ow쎯yv쎯	-10.4585
qwmc1쎯ssq쎯	-10.4586
tqi쎯	-10.4588
nl쎯tuqj쎯ea쎯of쎯	-10.4588
avk쎯khom쎯	-10.4593
ir쎯khom쎯	-10.4593
i쎯pwit쎯aeeb0쎯	-10.4597
sks쎯fkkf3쎯	-10.4598
dyy쎯	-10.4599
tjfj0쎯	-10.4601
aeeb0쎯hp쎯	-10.4603
〔	-10.4603
wv쎯ml쎯	-10.4605
sag쎯khom쎯	-10.4605
atm쎯vcc쎯sh쎯qtui쎯	-10.4606
eca쎯	-10.4608
aeeb0쎯wx쎯	-10.461
mtfk1쎯th쎯	-10.461
gcff2쎯	-10.4612
teui3쎯iq쎯	-10.4614
hnu쎯ud쎯	-10.4614
wk쎯v쎯	-10.4614
nsh쎯or쎯es쎯vyd쎯	-10.4616
nl쎯mn쎯p쎯	-10.4619
gyy쎯qfk쎯	-10.4622
jvf쎯yrtj1쎯	-10.4623
brt쎯ghtp쎯	-10.4624
ns쎯jthg쎯	-10.4625
sd쎯lrdd쎯	-10.4626
bu쎯el쎯	-10.4628
haeo쎯wb쎯	-10.463
fs쎯khug0쎯	-10.463
dmjx2쎯	-10.4634
pjd쎯oi쎯cr쎯	-10.4636
nj쎯sn쎯	-10.4637
wl쎯ujq쎯d쎯or쎯	-10.4637
aeeb0쎯pugy1쎯pjv쎯	-10.4639
fs쎯tfns1쎯	-10.4639
mu쎯geqc쎯	-10.4641
wgkn1쎯or쎯e쎯	-10.4642
kpd쎯uv쎯	-10.4643
r쎯s쎯dk쎯gf쎯nl쎯qt쎯	-10.4643
e쎯m쎯o쎯	-10.4647
ayec쎯	-10.4648
ypwa쎯	-10.4652
vfi쎯aeeb0쎯	-10.4654
p쎯ueh쎯	-10.466
tdw쎯kd쎯b쎯	-10.466
쎉eh쎯	-10.466
mt쎯md쎯	-10.4664
yyb쎯qrhg쎯ld쎯	-10.4667
ru쎯drh쎯	-10.4671
wtx쎯aiyk쎯	-10.4676
uff쎯ueeo쎯	-10.468
os쎯dfe쎯	-10.468
kv쎯sa쎯	-10.4682
jfwt1쎯	-10.4683
atte쎯r쎯	-10.4684
tuqj쎯vc쎯tdw쎯kd쎯	-10.4685
qw쎯	-10.4686
se쎯kw쎯	-10.4689
uff쎯	-10.469
deg쎯	-10.4691
ghad쎯t쎯	-10.4691
hn쎯cr쎯	-10.4693
fc	-10.4693
ei쎯mn쎯	-10.4697
iuc쎯hxb0쎯	-10.4703
nft쎯tjdk1쎯	-10.4703
iv쎯riv쎯	-10.4709
q쎯xmb쎯is쎯	-10.4711
쎃.쎀	-10.4712
wgkn1쎯쎁khug0쎯	-10.4716
epq쎯	-10.4716
qa	-10.4716
aeeb0쎯e쎯y쎯	-10.4719
tf	-10.4721
hl쎯	-10.4721
xxy쎯	-10.4723
qn쎯xi쎯	-10.4725
rj쎯nbs쎯iy쎯	-10.4734
u쎯xfw쎯wtx쎯te쎯dm쎯	-10.4735
jtg쎯mdm쎯	-10.4735
wgkn1쎯gc쎯n쎯	-10.4742
jjf쎯	-10.4745
qvv쎯mye쎯	-10.4747
epi쎯	-10.4748
han쎯pwl쎯	-10.4749
qusf0쎯	-10.4752
dx쎯aiyk쎯	-10.4753
ity1쎯yd쎯p쎯	-10.4754
ewmw쎯mb쎯vc쎯	-10.4755
sus쎯xoy쎯	-10.4756
쎁쎉쎃쎁od쎯	-10.4756
wi쎯yxwo0쎯wi쎯dfn쎯	-10.4756
v쎯l쎯p쎯	-10.4758
dccc쎯emg쎯	-10.4758
oj쎯dq쎯	-10.4758
sssm쎯wi쎯	-10.4761
gxi쎯	-10.4761
gyt쎯	-10.4762
g쎯yrtj1쎯	-10.4763
thtn0쎯	-10.4768
sp쎯	-10.477
dgh쎯ai쎯wd쎯	-10.4771
tm쎯oopi2쎯	-10.4772
drvc쎯rrr쎯	-10.4772
wi쎯ivw쎯	-10.4778
vrg쎯ivw쎯	-10.478
nuy쎯xep쎯	-10.4783
kv쎯md쎯	-10.4784
lrdd쎯aiyk쎯	-10.4785
vb쎯vey쎯	-10.4785
q쎯t쎯nl쎯jal쎯	-10.4787
rus쎯epw쎯	-10.4788
rj쎯apl쎯	-10.479
gc쎯luh쎯	-10.479
khug0쎯igo쎯	-10.4791
gah쎯xant쎯khug0쎯	-10.4791
p쎯jh쎯fs쎯	-10.4792
qovv쎯	-10.4794
aeeb0쎯ity1쎯w쎯	-10.4794
xahh0쎯	-10.4797
xyxe2쎯	-10.48
t쎯yujf0쎯	-10.4801
snh쎯	-10.4803
yss쎯td쎯	-10.4811
쎁쎉쎃쎇od쎯	-10.4814
utv쎯tg쎯	-10.4815
aaae쎯kd쎯ea쎯ivw쎯	-10.4815
rgog쎯pb쎯	-10.4817
(쎁	-10.482
쎁쎈쎇	-10.4821
f쎯lm쎯	-10.4823
ujq쎯nyp쎯yd쎯lt쎯	-10.4824
qjq쎯bmy쎯	-10.4825
lf쎯khug0쎯	-10.4826
쎇)	-10.4831
rkl쎯afw쎯	-10.4831
tfkc쎯xq쎯	-10.4831
vq쎯rj쎯r쎯lf쎯	-10.4831
tdj쎯wri쎯	-10.4835
pur쎯nr쎯	-10.4836
wqg쎯ks쎯qlx쎯ybb쎯k	-10.4837
ywi쎯aeeb0쎯	-10.4837
쎂쎀쎁쎂	-10.4837
p쎯ea쎯iq쎯	-10.4838
ot쎯hqay쎯	-10.4838
qb쎯eg쎯rj쎯	-10.4838
bgm쎯tp쎯	-10.484
iq쎯wgkn1쎯	-10.4841
쎁쎀eh쎯	-10.4843
wyp쎯	-10.4843
bnu쎯	-10.485
쎁쎈쎅	-10.4852
fx쎯ii쎯	-10.4852
ity1쎯yd쎯wgkn1쎯	-10.4857
itt쎯	-10.4857
mvv쎯	-10.4858
wm쎯dkj쎯	-10.4858
n쎯iw쎯	-10.486
xtw쎯	-10.4862
fvq쎯mjv쎯	-10.4869
ba쎯tj쎯ij쎯	-10.4869
ub쎯v쎯	-10.4869
ly쎯khls쎯	-10.4869
쎈)	-10.487
wl쎯ujq쎯yd쎯lt쎯	-10.4871
lf쎯wgkn1쎯	-10.4871
gw쎯yttg0쎯	-10.4873
iw쎯ojgr0쎯p쎯	-10.4874
jtu쎯tl쎯	-10.4874
dh쎯nbb쎯	-10.4875
khay7쎯쎅	-10.4878
vn쎯l쎯	-10.4878
dx쎯swcn0쎯	-10.4879
mhyn2쎯”	-10.4883
nsk쎯wb쎯	-10.4886
wb쎯apr쎯	-10.4886
ay쎯wf쎯	-10.4887
wm쎯ai쎯	-10.4889
xpgm쎯wqq쎯p쎯	-10.4891
trh0쎯qx쎯	-10.49
gq쎯rqci5쎯	-10.49
쎃쎂쎀	-10.4904
kkho쎯	-10.4905
vh쎯fqu쎯aeeb0쎯	-10.4905
kj쎯brg쎯	-10.4906
ifd쎯jpdi쎯	-10.4907
p쎯rj쎯apl쎯	-10.491
xg쎯j쎯	-10.4912
u쎯xfw쎯xd쎯i쎯bu쎯	-10.4914
s쎯qoug0쎯	-10.4915
anqt쎯ql쎯	-10.4915
vpm쎯fsy쎯wgu쎯	-10.4915
bwgj1쎯쎁	-10.4916
qpgh쎯pyxf쎯	-10.4921
qqpf쎯	-10.4922
p쎯ofn쎯ib쎯	-10.4925
vrg쎯vip쎯	-10.4925
fnan0쎯bng쎯p쎯	-10.4927
ba쎯lw쎯qsy쎯	-10.4927
jnv쎯ob쎯ekgd쎯	-10.4928
kkmw1쎯uda쎯dx쎯	-10.4929
wqg쎯ks쎯ks쎯lf쎯	-10.4936
jwt쎯	-10.4936
nen쎯	-10.4937
jjyi0쎯s쎯	-10.4941
쎁쎉쎄쎇od쎯	-10.4951
fha쎯	-10.4953
khug0쎯khpk1쎯	-10.4955
sn쎯ofn쎯p쎯	-10.4955
xjt쎯	-10.4958
qb쎯ma쎯	-10.4958
dccc쎯ujq쎯	-10.4959
og쎯imy쎯	-10.4959
rdn쎯	-10.496
wsmy쎯fs쎯aaae쎯kd쎯	-10.4961
dpq쎯udl쎯	-10.4963
aeeb0쎯k쎯ywi쎯	-10.4963
iq쎯sks쎯q쎯	-10.4963
m쎯rf쎯	-10.4964
bugk쎯qrhg쎯	-10.4965
l쎯lbh쎯	-10.4965
rnr쎯ywi쎯	-10.4966
xxm쎯dm쎯	-10.4969
wa쎯ssq쎯	-10.4972
쎅)	-10.4973
”rqqy2쎯	-10.4975
vc쎯iqi쎯	-10.4979
icf쎯yff쎯	-10.498
qffg쎯	-10.4982
hkn쎯fhck쎯	-10.4982
ktfn0쎯	-10.4982
qeqs쎯od쎯	-10.4983
fhrr쎯	-10.4984
ac쎯dv쎯wgkn1쎯	-10.499
wuk쎯qc쎯	-10.4994
ac쎯dv쎯aeeb0쎯	-10.4995
aeeb0쎯lk쎯	-10.4996
kkak5쎯rw쎯p쎯	-10.4997
aeeb0쎯r쎯eamy2쎯	-10.4998
쎅thtn0쎯	-10.4998
bng쎯hw쎯ivc쎯aiyk쎯	-10.4999
aeeb0쎯k쎯w쎯	-10.5
aeeb0쎯w쎯f쎯jm쎯	-10.5004
wyv	-10.5008
rnp쎯tetw쎯	-10.5012
uf쎯》	-10.5014
ba쎯쎄	-10.5014
ep쎯ay쎯khpk1쎯mfj쎯	-10.5016
rnr쎯f쎯	-10.5016
yqb쎯i쎯p쎯	-10.5018
aq쎯t쎯	-10.5019
mw쎯dfe쎯	-10.5022
cybc쎯krag1쎯	-10.5022
jsy쎯rgp쎯	-10.5025
ekgd쎯g쎯	-10.5027
lujf1쎯gb쎯q쎯	-10.5027
dee쎯	-10.5028
qtb쎯stt쎯“	-10.5029
ral쎯	-10.5029
yoq쎯ep쎯	-10.503
b쎯in쎯qt쎯	-10.5031
dcw쎯	-10.5032
wgkn1쎯bng쎯ld쎯	-10.5035
ecyj쎯gfkk1쎯p쎯	-10.5037
8쎯	-10.5038
aeeb0쎯iyu0쎯pb쎯	-10.5039
rtgi0쎯	-10.5041
aeeb0쎯yyb쎯qrhg쎯	-10.5042
p쎯f쎯jm쎯	-10.5043
swib1쎯	-10.5047
qpe쎯jvf쎯	-10.5047
fsy쎯mta쎯kq쎯	-10.505
nl쎯nl쎯	-10.5051
gah쎯ji쎯aeeb0쎯	-10.5051
aeeb0쎯ii쎯	-10.5052
ljh쎯xqiy쎯	-10.5054
st쎯hv쎯yh쎯	-10.5054
slk쎯ejhh쎯	-10.5055
kft쎯	-10.5058
쎁r쎯	-10.506
jgig1쎯waw쎯p쎯	-10.5064
ni쎯mn쎯goi쎯jep쎯	-10.5066
aw쎯u쎯	-10.5067
vugv쎯	-10.5071
----	-10.5074
ks쎯ybb쎯kf쎯	-10.5076
mjv쎯xjj쎯	-10.5078
cc쎯pb쎯	-10.5081
pmb0쎯	-10.5082
)khay7쎯	-10.5083
eu쎯wi쎯wgkn1쎯	-10.5086
kws쎯t쎯	-10.5089
dxwo쎯	-10.5089
n쎯y쎯	-10.5089
oun쎯q쎯ox쎯	-10.5089
qu쎯wuk쎯	-10.509
goi쎯jep쎯p쎯	-10.5091
fvq쎯tdh쎯aeeb0쎯	-10.5091
aeeb0쎯qq쎯sgkp쎯	-10.5092
du쎯or쎯	-10.5093
h쎯kre쎯jw쎯djdk0쎯	-10.5096
iak쎯	-10.5097
fh쎯aymx0쎯	-10.5097
lfi쎯rf쎯	-10.5098
yb쎯od쎯	-10.5099
e쎯r쎯	-10.5102
qv쎯fu쎯	-10.5103
쎀olf쎯r쎯	-10.5105
aeeb0쎯ml쎯	-10.5105
jan쎯ae쎯	-10.5105
wgkn1쎯gc쎯j쎯	-10.511
xep쎯qgd쎯	-10.5112
he쎯tyt쎯e쎯	-10.5112
tp쎯kre쎯ptf쎯	-10.5116
ai쎯ejhh쎯《	-10.5117
f쎯hg쎯	-10.5117
duj쎯xiy쎯	-10.5119
jm쎯jm쎯kv쎯	-10.5122
cthc쎯	-10.5123
tur쎯	-10.5124
yff쎯qyx쎯	-10.5125
kwb쎯bp쎯nbs쎯wsmy쎯	-10.5126
ese쎯	-10.513
wt쎯ien쎯gah쎯fuj쎯	-10.5131
lfo쎯	-10.5134
wxdm1쎯ile쎯	-10.5136
wyi쎯rb쎯	-10.5136
wvgt8쎯	-10.5142
aeeb0쎯khpk1쎯	-10.5144
khug0쎯oth쎯	-10.5147
ib쎯or쎯	-10.5149
nl쎯en쎯	-10.5149
koy쎯xjl쎯	-10.5149
hwhe1쎯	-10.5151
kym쎯cb쎯rvq쎯	-10.5152
fs쎯hy쎯kre쎯	-10.5152
bwt쎯imy쎯	-10.5153
bc쎯	-10.5153
ai쎯jr쎯	-10.5155
s쎯ktg쎯noof쎯vc쎯	-10.5157
kym쎯	-10.5157
um쎯ir쎯kpe쎯khug0쎯	-10.516
vt쎯yb쎯p쎯	-10.5164
f쎯xiu쎯	-10.5166
iq쎯h쎯noof쎯vc쎯	-10.5167
f쎯bq쎯	-10.517
exy쎯	-10.5172
fe쎯qgk쎯xg쎯	-10.5173
dfn쎯rwxn쎯vt쎯nl쎯	-10.5173
wtx쎯w쎯	-10.5177
gq쎯etuh쎯e쎯	-10.5177
vfi쎯khug0쎯	-10.5181
w쎯f쎯tfih쎯	-10.5182
eft쎯	-10.5184
dccc쎯qtb쎯khug0쎯	-10.5187
쎉쎁	-10.5189
bng쎯ld쎯oun쎯	-10.519
wgkn1쎯no쎯	-10.5191
njf쎯uoo쎯	-10.5195
wgq쎯	-10.5197
wpn쎯qqwo0쎯	-10.5199
aeeb0쎯snff1쎯	-10.5203
e쎯wt쎯ien쎯	-10.521
icbh0쎯	-10.5212
ksj쎯p쎯	-10.5215
mww쎯	-10.5216
bu쎯khug0쎯	-10.5217
vt쎯wx쎯	-10.5217
lw쎯qsy쎯	-10.5219
rtmt1쎯uwn쎯	-10.5219
쎁.쎄	-10.5221
kpe쎯m쎯oun쎯	-10.5223
sks쎯ni쎯	-10.5223
aeeb0쎯qjx쎯	-10.5229
rw쎯tyt쎯	-10.523
g1쎯	-10.5232
ma쎯pjd쎯	-10.5237
kuy쎯rvq쎯	-10.5238
pk쎯	-10.5239
tdh쎯hitn쎯	-10.5244
쎂쎀pv쎯	-10.5247
ks쎯mhnf쎯dyn쎯kq쎯	-10.5248
tuqj쎯oey쎯	-10.525
jgig1쎯dfn쎯	-10.5251
tuqj쎯ae쎯	-10.5252
dv쎯xj쎯	-10.5254
jh쎯ywi쎯	-10.5257
aej쎯nl쎯p쎯	-10.5258
kkho쎯kqn쎯	-10.5258
hkks쎯	-10.5262
쎁쎄쎀	-10.5263
jaak쎯	-10.5263
w쎯c쎯t쎯	-10.5264
rw쎯eg쎯	-10.5264
rpf쎯	-10.5264
xwf쎯jrno1쎯	-10.5266
jgm쎯eh쎯	-10.5267
qal쎯	-10.5269
rca쎯	-10.5271
tp쎯yff쎯	-10.5273
d쎯vc쎯apr쎯bu쎯	-10.5274
xm쎯od쎯	-10.5274
dtl쎯	-10.5274
eg쎯wgkn1쎯	-10.5275
hcqn쎯	-10.5276
he쎯lvl쎯	-10.5276
ua쎯q쎯	-10.5277
dna쎯lk쎯	-10.5277
sks쎯imy쎯p쎯	-10.5282
mvfb쎯	-10.5282
rgp쎯	-10.5283
ito쎯ns쎯	-10.5286
jtu쎯dp쎯	-10.5286
ujan0쎯itgy쎯vnh쎯	-10.5288
dcc쎯	-10.5289
dnb쎯vk쎯	-10.5289
tp쎯ewmw쎯ea쎯rke쎯	-10.5292
fvq쎯yv쎯	-10.5292
qbto1쎯	-10.5292
wyvt2쎯	-10.5294
d쎯or쎯q쎯	-10.5298
aw쎯h쎯	-10.5298
wj쎯xq쎯	-10.5298
ly쎯sfhw쎯	-10.5299
ks쎯jgig1쎯ks쎯	-10.53
....	-10.5303
scw쎯ssq쎯	-10.5306
wx쎯qpgh쎯fs쎯	-10.5307
pv쎯iyjf2쎯	-10.5308
pw쎯	-10.5309
쎅쎁쎂	-10.531
ywi쎯wgkn1쎯	-10.5312
lk쎯jlj쎯	-10.5314
dccc쎯ea쎯omh쎯	-10.5319
kms쎯	-10.5322
ad	-10.5323
sx쎯kam쎯khay7쎯	-10.5327
vuj쎯aymx0쎯	-10.5329
ouey1쎯”	-10.5333
mjv쎯q쎯	-10.5333
aya쎯	-10.5333
thgt1쎯cr쎯	-10.5334
qbto1쎯fly쎯	-10.5335
gt쎯ws쎯	-10.5335
go쎯qfk쎯	-10.5336
쎂iyy쎯	-10.5337
wgkn1쎯avy쎯w쎯	-10.5338
rw쎯bqbo쎯	-10.5341
eq쎯	-10.5342
jeb쎯kv쎯	-10.5345
efu쎯	-10.5345
ho쎯ergw쎯	-10.5345
sgk쎯ly쎯	-10.5347
p쎯yjl쎯idi쎯qn쎯	-10.5347
khme2쎯	-10.5348
ss쎯od쎯	-10.535
ugll1쎯	-10.5354
yttg0쎯fsy쎯wgu쎯	-10.5359
dqw쎯iw쎯	-10.5359
uyx쎯	-10.5359
ud쎯kaq쎯	-10.536
xtd쎯tk쎯	-10.536
fvq쎯dh쎯	-10.5367
aeeb0쎯gc쎯j쎯	-10.5367
ua쎯nr쎯	-10.5368
lkd쎯	-10.5369
xd쎯vc쎯	-10.5369
xyb쎯lhnt1쎯	-10.537
(쎁쎉쎂	-10.5373
sako쎯qhtr쎯	-10.5376
nl쎯wx쎯qfk쎯	-10.5377
쎂.쎂	-10.5379
gwgn1쎯	-10.538
qn쎯so쎯	-10.5383
wxdm1쎯vrg쎯	-10.5384
쎁쎂쎀쎀	-10.5393
ba쎯f쎯ij쎯	-10.5393
aeeb0쎯yss쎯ps쎯	-10.5396
-쎀쎁	-10.5396
wxdm1쎯iyy쎯	-10.5399
th쎯v쎯	-10.5399
fvq쎯pgin1쎯	-10.54
jh쎯th쎯	-10.5401
fi쎯vfi쎯jeb쎯	-10.5405
uh쎯sfb쎯	-10.5409
ogm쎯	-10.542
ac쎯jlj쎯	-10.542
qlx쎯jlj쎯kv쎯	-10.542
arc쎯qu쎯q쎯ea쎯	-10.5423
쎂.쎄	-10.5427
mcqb쎯btbh10쎯	-10.5427
atte쎯wnv0쎯	-10.5427
uh쎯pi쎯wgkn1쎯	-10.5428
hq쎯hq쎯	-10.543
fv쎯t쎯	-10.5431
idha쎯	-10.5432
rxl쎯yh쎯	-10.5432
m쎯jvf쎯	-10.5432
ii쎯n쎯	-10.5439
jeg쎯qu쎯	-10.5441
qgv쎯	-10.5444
aeeb0쎯syk쎯ni쎯	-10.5444
ox쎯laf쎯vip쎯	-10.5446
qfk쎯ug쎯	-10.5446
tyk쎯	-10.545
w쎯c쎯eo쎯	-10.5451
rww쎯	-10.5454
iw쎯dk쎯p쎯	-10.5459
qgk쎯wn쎯	-10.546
uv쎯kq쎯	-10.5463
ls쎯j쎯	-10.5463
쎁/쎂	-10.5465
wt쎯opsh0쎯qt쎯	-10.5465
mf쎯qr쎯	-10.5466
쎂쎀od쎯	-10.5466
wgkn1쎯쎂쎀쎀쎅od쎯	-10.5467
ep쎯pv쎯gr쎯m쎯et쎯	-10.5468
xl쎯re쎯lmk쎯	-10.5474
uce쎯	-10.5475
qtak4쎯	-10.5478
cwf쎯	-10.5479
iy	-10.548
a쎯ib쎯	-10.5481
mt쎯wb쎯	-10.5484
쎁쎅쎀쎀	-10.5486
l쎯y쎯	-10.5487
qcbm쎯	-10.549
()wgkn1쎯	-10.5491
tyac쎯qtb쎯stt쎯	-10.5492
myb쎯	-10.5492
gw쎯jo쎯iqi쎯	-10.5495
wgkn1쎯s쎯t쎯	-10.5495
m쎯r쎯	-10.5496
7쎯	-10.5497
bu쎯fsy쎯wgu쎯	-10.55
i쎯pwit쎯pwx쎯usr쎯	-10.55
qi쎯vfi쎯	-10.55
gw쎯tyt쎯	-10.5501
ac쎯mm쎯	-10.5501
oju쎯wyq쎯	-10.5503
쎁r쎯aeeb0쎯	-10.5504
gah쎯fuj쎯hkie쎯gw쎯	-10.5504
kwb쎯wwkh3쎯aeeb0쎯	-10.5506
,쎀쎀쎀	-10.5507
xu쎯lm쎯	-10.5507
(hm쎯	-10.5508
khls쎯hi쎯	-10.5508
jjyi0쎯ekgd쎯p쎯	-10.5508
쎀.	-10.5509
ld쎯vfg쎯	-10.551
lcqf쎯	-10.5519
etuh쎯wll쎯	-10.5519
zzjp78쎯	-10.5525
atte쎯olf쎯	-10.5527
wgkn1쎯f쎯sfc쎯	-10.553
ud쎯it쎯l쎯	-10.5534
qoyd1쎯th쎯	-10.554
dccc쎯ea쎯ptf쎯mn쎯	-10.554
rb쎯	-10.5541
uxh쎯	-10.5541
vq쎯rj쎯aeeb0쎯	-10.5542
tr	-10.5544
ndqn쎯	-10.555
f쎯sfi쎯	-10.5553
-쎇	-10.5554
pa쎯wxdm1쎯	-10.5555
쎁쎀-	-10.5555
or쎯fyu쎯khay7쎯	-10.5557
dk쎯fqn쎯	-10.5558
wgkn1쎯쎃.	-10.5559
wrf쎯yss쎯	-10.5559
f쎯thgt1쎯	-10.556
tig쎯wsmy쎯qc쎯pb쎯	-10.5561
aeeb0쎯w쎯f쎯eh쎯	-10.5561
jt쎯suy쎯	-10.5564
qn쎯lujf1쎯	-10.5567
p쎯iw쎯eqk쎯aeeb0쎯	-10.5567
vc쎯olf쎯	-10.5568
te쎯dvi쎯	-10.557
쎂ir쎯ngh쎯	-10.557
qww쎯	-10.557
h쎯kre쎯wgkn1쎯	-10.5572
lgxd쎯tddk쎯	-10.5573
ybb쎯wi쎯wb쎯	-10.5575
bnrg0쎯	-10.558
wll쎯um쎯p쎯	-10.558
m쎯hg쎯	-10.5581
lk쎯vfi쎯	-10.5581
sn쎯ofn쎯	-10.5582
ccc쎯	-10.5582
jntj쎯	-10.5583
-쎁쎀	-10.5585
fjrh1쎯	-10.5585
f쎯eg쎯	-10.5585
brg쎯bt쎯	-10.5586
dfn쎯moo쎯fs쎯	-10.5587
l쎯lujf1쎯	-10.559
xq쎯ojgr0쎯	-10.5591
fsy쎯wgu쎯jm쎯j쎯g쎯	-10.5591
ird쎯vnh쎯p쎯	-10.5593
sgk쎯etuh쎯	-10.5593
njdf쎯oey쎯	-10.5596
eu쎯vk쎯khay7쎯	-10.5602
sq쎯	-10.5603
rqci5쎯od쎯	-10.5605
rs쎯nr쎯	-10.5606
tjdt쎯pv쎯	-10.5607
wsmy쎯fs쎯p쎯	-10.5608
wal쎯awy쎯	-10.561
srd쎯	-10.5612
n쎯ni쎯	-10.5613
uyw쎯yv쎯	-10.5614
mrdf쎯uxe쎯	-10.5615
bs쎯eu쎯	-10.5616
쎁쎉쎂쎉od쎯	-10.5617
njdf쎯”	-10.5617
jfmf쎯si쎯	-10.5618
djdk0쎯noof쎯vc쎯	-10.5619
xi쎯l쎯	-10.5619
v쎯r쎯e쎯ip쎯	-10.562
ank쎯	-10.562
rm쎯iq쎯kq쎯	-10.5622
nsh쎯or쎯aeeb0쎯	-10.5622
ybb쎯kw쎯wb쎯	-10.5626
rld쎯ivc쎯	-10.5627
eh쎯gss쎯fs쎯	-10.5627
h1쎯	-10.5633
wgkn1쎯x쎯od쎯	-10.5634
hu쎯etk쎯	-10.5635
xj쎯wjna쎯	-10.5635
kwb쎯lu쎯p쎯	-10.5636
mt쎯qt쎯	-10.5637
khug0쎯thgt1쎯ip쎯	-10.5638
oj쎯tp쎯p쎯	-10.5644
oddm0쎯	-10.5647
yo쎯fnan0쎯	-10.565
tref쎯	-10.5651
uxhn1쎯lalt쎯	-10.5653
odd쎯yh쎯	-10.5655
dccc쎯jrno1쎯	-10.5656
nl쎯frj쎯	-10.5661
bmj1쎯	-10.5664
ea쎯iq쎯p쎯	-10.5669
i쎯ootk쎯	-10.5672
no쎯q쎯t쎯	-10.5677
x쎯f쎯	-10.5682
qn쎯kq쎯	-10.5684
(쎁).	-10.5684
,,	-10.5685
쎃pv쎯	-10.5686
ud쎯sl쎯	-10.5686
ub쎯l쎯	-10.5691
yff쎯yttg0쎯	-10.5692
nl쎯iyj쎯	-10.5693
tfns1쎯fs쎯	-10.5694
dnh쎯qtb쎯	-10.5695
gah쎯ji쎯p쎯	-10.5697
ru쎯src쎯	-10.5704
”ua쎯	-10.5704
o쎯sfk쎯	-10.5709
vpm쎯dccc쎯yqt쎯be쎯	-10.571
owu쎯	-10.571
t쎯it쎯fs쎯	-10.5712
n2쎯	-10.5715
ac쎯pr쎯	-10.5715
ewyc0쎯	-10.5716
xl쎯ma쎯e쎯	-10.5716
el쎯gah쎯	-10.5717
kwb쎯bp쎯njdf쎯	-10.5718
lm쎯pb쎯	-10.5718
od쎯qu쎯	-10.5718
xl쎯ib쎯	-10.5718
aeeb0쎯ix쎯ity1쎯	-10.5719
si쎯ni쎯aeeb0쎯	-10.572
e쎯ip쎯	-10.572
dha쎯	-10.5721
rkl쎯tex쎯	-10.5723
ma쎯khom쎯j쎯	-10.5723
laf쎯ifd쎯	-10.5727
쎁쎉쎀	-10.5727
aef쎯igo쎯	-10.5729
yyw쎯	-10.5729
idw쎯	-10.5731
aeeb0쎯ld쎯ay쎯	-10.5733
bugk쎯wpn쎯	-10.5737
jjye쎯rnj쎯	-10.5739
aspq쎯pv쎯	-10.574
u쎯》	-10.5742
opsh0쎯mmh쎯	-10.5743
bib쎯am쎯	-10.5743
ueeo쎯whh쎯	-10.5743
kkdn1쎯	-10.5744
au쎯lm쎯hagh1쎯	-10.5746
khug0쎯xj쎯sojh쎯	-10.5746
etjr쎯	-10.5747
uo쎯njy1쎯	-10.5751
gc쎯kmw쎯	-10.5751
xl쎯etuh쎯	-10.5752
q쎯ewmw쎯	-10.5754
bkh쎯	-10.5756
yd쎯ar쎯p쎯	-10.5756
rvyo쎯w쎯	-10.5757
in쎯wl쎯	-10.5759
wu쎯g쎯xi쎯yss쎯쎁	-10.5762
khpk1쎯vfi쎯	-10.5764
vi쎯dynt0쎯ivw쎯	-10.5764
gdj쎯	-10.5765
d쎯ynjg6쎯gyy쎯	-10.5766
pgy쎯hcr쎯	-10.5767
jmu쎯gwg쎯	-10.5768
lgk쎯hd쎯“	-10.5772
f쎯fu쎯	-10.5775
w쎯f쎯kq쎯	-10.5775
bfq쎯gq쎯	-10.5777
tp쎯aef쎯	-10.5782
ewmw쎯eu쎯xi쎯p쎯	-10.5783
s쎯um쎯	-10.5783
gcff2쎯aek쎯	-10.5785
lk쎯wjna쎯	-10.5788
쎁쎉쎃쎅od쎯	-10.5788
f쎯qpw쎯	-10.5788
wa쎯r쎯	-10.5789
ken쎯xq쎯gss쎯	-10.5792
sfjh쎯h쎯	-10.5793
jf쎯nft쎯	-10.5797
eu쎯wi쎯aeeb0쎯	-10.5797
yt쎯	-10.58
pnmq0쎯	-10.5801
ndo쎯hu쎯	-10.5804
kf쎯btbh10쎯	-10.5805
쎃ir쎯ngh쎯	-10.5807
q쎯t쎯kw쎯	-10.5811
쎂쎄쎀	-10.5818
ip쎯r쎯	-10.5819
쎃쎆쎀	-10.5821
p쎯a쎯x쎯	-10.5826
fwf쎯vey쎯	-10.5826
vw쎯foag쎯	-10.5826
jccn쎯ysj쎯	-10.5828
atm쎯wwdg쎯	-10.5829
qrc쎯	-10.5831
"="	-10.5832
p쎯ba쎯f쎯	-10.5833
wx쎯e쎯	-10.5834
gqwg1쎯	-10.5834
yff쎯jjyi0쎯	-10.5835
wgkn1쎯k쎯uxt쎯	-10.5837
aeeb0쎯ow쎯	-10.5844
arc쎯qu쎯	-10.5845
t쎯it쎯uh쎯ekgd쎯	-10.5845
yoq쎯agt쎯	-10.5846
hubp쎯nl쎯	-10.5852
쎀.쎆	-10.5853
wgkn1쎯쎂쎀쎀쎄od쎯	-10.5853
khpk1쎯ynge쎯	-10.5854
fw쎯q쎯	-10.5855
rx쎯	-10.5856
nq쎯cw쎯	-10.5858
n쎯nq쎯kq쎯frj쎯	-10.5859
yltc쎯re쎯	-10.586
(sx쎯kam쎯	-10.5863
wn쎯p쎯	-10.5866
쎁쎉쎃쎆od쎯	-10.5868
nl쎯yh쎯	-10.5873
cgkj1쎯	-10.5874
i쎯pwit쎯yd쎯e쎯	-10.5878
ujv쎯s쎯	-10.5882
sh쎯wyq쎯	-10.5882
qnf쎯yqt쎯	-10.5884
w쎯e쎯y쎯	-10.5889
egw쎯	-10.589
maq쎯xr쎯	-10.5892
ux쎯qgd쎯ko쎯	-10.5892
qpgh쎯od쎯	-10.5895
ifd쎯nq쎯	-10.5898
hv쎯ud쎯	-10.5901
iccc2쎯	-10.5908
fyu쎯p쎯	-10.5915
wgkn1쎯쎂쎀쎀쎇od쎯	-10.5918
b쎯vq쎯rj쎯	-10.5922
qs쎯kie쎯	-10.5924
쎁.쎁	-10.5924
bj쎯nqoy1쎯	-10.5924
etuh쎯yqt쎯	-10.5927
xu쎯sggh0쎯	-10.5928
p쎯si쎯ni쎯	-10.5928
umq쎯d쎯	-10.5929
gxxe쎯ic쎯	-10.5929
isr쎯	-10.5931
uh쎯tyt쎯	-10.5933
vq쎯rj쎯p쎯	-10.5934
nku쎯wi쎯	-10.5935
vi쎯dynt0쎯	-10.5936
ed쎯odwd쎯	-10.5936
wgkn1쎯쎄khug0쎯	-10.5938
sssm쎯	-10.5939
swcn0쎯hsy쎯	-10.5942
nl쎯g쎯	-10.5945
bo쎯wqk쎯	-10.5946
uyy쎯eu쎯	-10.5951
hj쎯	-10.5951
uam쎯	-10.5952
p쎯rv쎯ynjg6쎯	-10.5955
hn쎯uv쎯	-10.5959
gah쎯xant쎯p쎯	-10.5959
u쎯ktg쎯vq쎯rj쎯	-10.5959
jcg쎯qv쎯	-10.5959
iq쎯vfu쎯	-10.596
p쎯qr쎯	-10.5962
gw쎯iuc쎯imy쎯	-10.5964
tj쎯asr쎯	-10.5966
qgj쎯	-10.597
gw쎯wct쎯	-10.5972
si쎯ni쎯wgkn1쎯	-10.5973
mnpv쎯vcu0쎯	-10.5977
slk쎯swcn0쎯fyu쎯	-10.5977
kq쎯pyxf쎯	-10.5981
쎁쎇쎀	-10.5981
ly쎯pf쎯	-10.5983
fm쎯jtj쎯	-10.5983
gwmp쎯	-10.5986
xq쎯cybc쎯	-10.5986
hu쎯oey쎯	-10.5987
bgm쎯gyi쎯	-10.5988
vdg쎯kv쎯	-10.5989
aeeb0쎯ifd쎯xpr쎯쎁	-10.5992
nl쎯wx쎯	-10.5995
wg쎯	-10.5998
mgji2쎯rw쎯	-10.6004
tfkc쎯sa쎯	-10.6014
qfl쎯	-10.6016
wgkn1쎯mgt쎯udb쎯	-10.6018
》aeeb0쎯《	-10.6022
pgy쎯	-10.6023
aat쎯vrg쎯	-10.6023
d쎯ynjg6쎯tdw쎯kd쎯	-10.6024
ukhy쎯nr쎯	-10.6029
qux쎯	-10.603
tss쎯	-10.6034
ma쎯jeb쎯	-10.6038
or쎯kre쎯《	-10.6038
km쎯pyxf쎯	-10.604
쎁쎂쎅	-10.604
쎉)	-10.6041
tdh쎯ueh쎯	-10.6044
xiit0쎯jtj쎯	-10.605
khug0쎯wsmy쎯fs쎯	-10.6054
wm쎯jt쎯	-10.6055
swc쎯	-10.6055
mna쎯	-10.6056
eamy2쎯vwnn0쎯	-10.6059
ir쎯kth쎯	-10.6061
dm쎯eamy2쎯	-10.6065
it	-10.6065
aeeb0쎯vfg쎯pb쎯	-10.6071
jn쎯rpl쎯jjyi0쎯	-10.6072
yneo0쎯	-10.6072
trae1쎯ybb쎯	-10.6073
쎁.쎃	-10.6075
hcw쎯rs쎯	-10.6077
du쎯qt쎯rj쎯hu쎯	-10.6078
gf쎯jt쎯	-10.6078
w쎯u쎯	-10.6079
ua쎯l쎯	-10.608
i쎯lalt쎯	-10.608
ma쎯nr쎯mn쎯	-10.6082
wyvl10쎯	-10.6084
p쎯aaae쎯kd쎯	-10.6087
kmw쎯j쎯p쎯	-10.6091
drj0쎯yj쎯xd쎯oi쎯	-10.6092
fs쎯nsh쎯dx쎯	-10.6092
od쎯ay쎯aeeb0쎯	-10.6093
wgkn1쎯쎂쎀쎀쎉od쎯	-10.6097
yujf0쎯rtmt1쎯	-10.6098
ygk쎯	-10.6099
ewmw쎯ewmw쎯wgkn1쎯	-10.6099
yjlg쎯feh쎯	-10.6104
lnwy1쎯	-10.6104
avw쎯or쎯p쎯	-10.6114
i1쎯	-10.6117
wf쎯aeeb0쎯	-10.6118
dp쎯jtg쎯	-10.6119
쎂쎀쎀쎄	-10.6121
yjl쎯idi쎯qn쎯	-10.6121
nl쎯bjy쎯	-10.6122
sukq쎯ud쎯	-10.6126
『	-10.6128
m쎯oun쎯wgkn1쎯	-10.6131
쎀.쎄	-10.6131
jnv쎯ra쎯	-10.6132
eew쎯	-10.6137
ljd쎯	-10.6137
p쎯geqc쎯vb쎯	-10.6141
xgu쎯	-10.6142
dna쎯p쎯w쎯	-10.6143
go쎯ger쎯	-10.6143
mvv쎯te쎯	-10.6143
uvo쎯	-10.6147
aeeb0쎯uc쎯hu쎯	-10.6148
wtx쎯rj쎯	-10.6149
쎀)	-10.615
pr쎯jjyi0쎯	-10.6151
xi쎯yss쎯쎄	-10.6153
fa	-10.6157
ek쎯nnu쎯	-10.6157
nr쎯ir쎯yoq쎯	-10.616
adfi쎯	-10.616
qlk쎯	-10.6161
aeeb0쎯ox쎯n쎯	-10.6164
wb쎯aeeb0쎯	-10.6164
iq쎯sks쎯j쎯	-10.6165
swwq1쎯tqv쎯	-10.6166
aeeb0쎯iqn쎯	-10.6168
hko쎯ue쎯nl쎯ea쎯	-10.6171
gw쎯kv쎯	-10.6172
khug0쎯nrii쎯vb쎯	-10.6172
rxu쎯odd쎯big쎯re쎯	-10.6173
amdo1쎯qv쎯	-10.6174
쎁쎀rmae쎯rw쎯iq쎯	-10.6174
t쎯wb쎯lnt쎯duj쎯	-10.6178
j쎯rke쎯ea쎯iq쎯	-10.6181
iit쎯	-10.6184
쎁쎀od쎯	-10.6185
dna쎯jl쎯	-10.6186
rhy쎯	-10.6187
쎈iyy쎯	-10.6187
v쎯mr쎯	-10.6187
w쎯t쎯el쎯	-10.6188
쎁%	-10.6189
.쎁쎂	-10.619
oi쎯sggh0쎯	-10.6191
cc	-10.6191
쎀ac쎯eu쎯mm쎯aeeb0쎯	-10.6192
mh	-10.6193
jttd1쎯	-10.6195
vq쎯rj쎯gyy쎯wrw쎯	-10.6196
wwwb0쎯dnb쎯	-10.6197
ib쎯qb쎯	-10.6198
geqc쎯hdgh쎯	-10.6199
쎁쎉쎃쎄od쎯	-10.62
ieuh쎯	-10.6201
bs쎯lf쎯	-10.6201
uvtd0쎯wgkn1쎯	-10.6204
km쎯fsy쎯	-10.6204
ba쎯xm쎯	-10.6204
dk쎯swf쎯	-10.6205
aq쎯qr쎯	-10.6205
쎃,	-10.6211
(쎃)	-10.6212
aeeb0쎯k쎯uxt쎯	-10.6215
sn쎯gq쎯yh쎯	-10.6216
hxye쎯uyy쎯	-10.6217
khpk1쎯knuv쎯	-10.6217
py	-10.6219
ht쎯	-10.622
vfh쎯	-10.6221
rbh3쎯	-10.6221
kxx쎯	-10.6222
kkmw1쎯rke쎯	-10.6223
vpm쎯kq쎯qu쎯	-10.6224
lr쎯qc쎯	-10.6226
pb쎯ua쎯e쎯	-10.6226
rcyl2쎯bpdn쎯	-10.623
trfg1쎯	-10.6232
aeeb0쎯kgb쎯	-10.6234
kwb쎯mat쎯aeeb0쎯	-10.6235
hw쎯ri쎯	-10.6238
wt	-10.6238
igo쎯mwi쎯sj쎯	-10.624
oomd쎯sa쎯	-10.624
gc쎯j쎯mkq쎯ni쎯yh쎯	-10.6242
hal쎯mat쎯	-10.6243
r쎯s쎯wi쎯ivw쎯	-10.6244
a쎯efwi쎯	-10.6246
jw쎯wuk쎯	-10.6247
lujf1쎯omgu1쎯	-10.6249
qnf쎯btbh10쎯	-10.625
ua쎯qn쎯	-10.6251
쎂.쎁	-10.6251
aeeb0쎯spx쎯	-10.6252
xxm쎯ujq쎯	-10.6252
jmu쎯rtmt1쎯	-10.6252
sh쎯rm쎯	-10.6255
aeeb0쎯bi쎯ode쎯	-10.6256
f쎯xi쎯	-10.6256
jc쎯jl쎯	-10.626
x쎯mb쎯	-10.6261
hlcb쎯yr쎯	-10.6261
ko쎯nb쎯	-10.6263
foag쎯kq쎯	-10.6263
khug0쎯qb쎯	-10.6264
qnm쎯	-10.6267
yt	-10.6268
ta쎯w쎯	-10.6269
wwv쎯uv쎯	-10.627
khug0쎯st쎯hv쎯	-10.627
igjf0쎯mdnt0쎯	-10.6271
cw쎯ntl쎯	-10.6271
m쎯ugwe쎯	-10.6272
yd쎯kre쎯	-10.6273
kamd쎯	-10.6274
wgkn1쎯jt쎯	-10.6275
gw쎯ybb쎯	-10.6275
aeeb0쎯w쎯dna쎯	-10.6277
svmy쎯hu쎯	-10.6278
q쎯mjv쎯xmb쎯ea쎯qt쎯	-10.6278
j쎯k쎯	-10.6279
rqk쎯sni쎯	-10.628
icf쎯vc쎯	-10.6285
mr쎯iw쎯	-10.6286
gh쎯xiy쎯	-10.6288
mtfk1쎯qwmc1쎯	-10.6289
pwo쎯ni쎯	-10.6289
wy쎯	-10.6289
s쎯ktg쎯	-10.629
aeeb0쎯gw쎯	-10.6291
oyn쎯	-10.6292
qg	-10.6293
qt쎯wxg쎯kpe쎯	-10.6294
kbgn쎯	-10.6294
nl쎯tuqj쎯	-10.6295
ir쎯cfkf쎯aeeb0쎯	-10.6297
khug0쎯wi쎯dfn쎯	-10.6299
쎁쎉쎃쎃od쎯	-10.63
jt쎯aef쎯	-10.6301
yo쎯dm쎯	-10.6303
l0쎯	-10.6303
tfnn10쎯	-10.6303
dh쎯pn쎯	-10.6308
wgkn1쎯쎂쎀쎀쎈od쎯	-10.6313
vg쎯jfwt1쎯	-10.6315
nhq쎯	-10.6316
wx쎯ql쎯	-10.6316
hl쎯j쎯	-10.6316
nc쎯kq쎯	-10.6322
aeeb0쎯ode쎯jgig1쎯	-10.6322
sgmg쎯	-10.6326
gr쎯apl쎯fsy쎯mta쎯	-10.6326
ma쎯vkf1쎯	-10.6326
(쎁쎈	-10.6329
ghad쎯nr쎯	-10.6334
bj쎯rh쎯	-10.6335
wl쎯kv쎯	-10.6335
mb쎯fsy쎯vq쎯rj쎯	-10.6335
aeeb0쎯ma쎯wuk쎯	-10.6337
aeeb0쎯quo쎯fgj쎯	-10.6337
dx쎯vc쎯vq쎯rj쎯	-10.6338
bskg쎯hbms쎯	-10.6343
ip쎯wl쎯iq쎯	-10.6349
ea쎯wl쎯bwt쎯foag쎯	-10.635
jc쎯bt쎯	-10.635
wtx쎯fu쎯	-10.6354
idi쎯	-10.6356
bi쎯ipk쎯	-10.6358
wppl쎯mmmf1쎯	-10.6363
쎁쎉쎂쎇od쎯	-10.6365
gss쎯dq쎯	-10.6365
xi쎯yss쎯e쎯	-10.6366
e쎯tsf쎯hl쎯	-10.6368
jvf쎯aiyk쎯	-10.6369
yd쎯ldn쎯	-10.637
wgkn1쎯snff1쎯	-10.6371
wt쎯ien쎯l쎯	-10.6371
tqv쎯	-10.6371
iuc쎯mb쎯	-10.6371
eamy2쎯st쎯	-10.6373
wtx쎯gkqq쎯	-10.6375
ifd쎯l쎯	-10.6376
ba쎯f쎯wb쎯	-10.6376
og쎯ye쎯	-10.6381
aj쎯sy쎯	-10.6381
khaa3쎯	-10.6384
e쎯eecs쎯xuq쎯	-10.6386
rvq쎯wwkh3쎯	-10.6387
m쎯o쎯v쎯	-10.6388
ydm쎯	-10.6388
쎂쎀쎁쎄od쎯	-10.639
or쎯ib쎯aeeb0쎯	-10.6391
yk쎯ib쎯y쎯	-10.6391
evaw쎯	-10.6391
lbj쎯dio쎯	-10.6393
pr쎯gw쎯iq쎯h쎯	-10.6393
hxye쎯	-10.6399
wsg1쎯	-10.64
k1쎯	-10.6401
쎁gqtv3쎯	-10.6406
wx쎯kq쎯	-10.6408
ju쎯kjb쎯	-10.6409
tuqj쎯qqb쎯《	-10.641
igo쎯jo쎯ce쎯	-10.6415
qwmc1쎯agt쎯	-10.6422
khug0쎯uxe쎯fvq쎯	-10.6424
fuep쎯	-10.6425
aqm쎯	-10.6434
xg쎯r쎯	-10.6435
xj쎯vfi쎯	-10.6435
fknd쎯yqk쎯	-10.6437
xfw쎯lk쎯jjyi0쎯	-10.6439
thgt1쎯mhj쎯	-10.6443
duj쎯aeeb0쎯	-10.6447
el쎯fwf쎯sx쎯kam쎯	-10.645
ufhq쎯	-10.6451
sd쎯ho쎯	-10.6453
hw쎯bt쎯	-10.6458
fe쎯sn쎯nq쎯	-10.6464
qoil1쎯	-10.6464
wv쎯hcjy쎯	-10.6465
dmjn16쎯	-10.6467
jqw쎯	-10.6468
ai쎯damh쎯	-10.6469
m쎯r쎯ir쎯	-10.6469
rs쎯wl쎯	-10.6469
xl쎯eamy2쎯	-10.647
p쎯iq쎯h쎯	-10.647
yy쎯	-10.6472
atvc쎯	-10.6472
tx쎯qk쎯	-10.6473
rw쎯kre쎯	-10.6475
twah쎯	-10.6476
n쎯ag쎯	-10.6477
yyb쎯iccc2쎯qt쎯	-10.6478
f쎯pyxf쎯	-10.6479
e쎯qgk쎯	-10.648
rw쎯mye쎯	-10.648
nsk쎯ld쎯	-10.6481
pyg쎯	-10.6483
ug쎯scw쎯	-10.6483
wdj쎯xep쎯	-10.6484
ksj쎯iw쎯	-10.6485
wad쎯	-10.6488
wgkn1쎯ib쎯yh쎯	-10.6489
r쎯dpq쎯	-10.6489
arc쎯xo쎯	-10.649
pa쎯amb쎯	-10.649
ydx쎯y쎯	-10.6492
t쎯wb쎯f쎯qu쎯	-10.6494
mpv쎯spg쎯	-10.6495
st쎯hv쎯khug0쎯	-10.6496
ns쎯trh0쎯	-10.6501
hd쎯xgj쎯	-10.6505
tdw쎯kd쎯st쎯hv쎯	-10.6505
igjf0쎯	-10.6507
jjye쎯	-10.6507
wa쎯kpd쎯jc쎯uxv쎯	-10.6508
rqqy2쎯qq쎯sgkp쎯	-10.651
gh	-10.6518
akhl0쎯ipwm1쎯	-10.6519
khug0쎯ai쎯nr쎯	-10.652
bq쎯mtfk1쎯	-10.652
w쎯t쎯wb쎯	-10.652
rhb쎯wgu쎯	-10.6521
ofn쎯pwlj쎯	-10.6522
j쎯t쎯el쎯uv쎯	-10.6523
nqoy1쎯uug쎯	-10.6524
bi쎯ode쎯eu쎯spx쎯	-10.6524
ijn쎯	-10.6526
)aeeb0쎯sy쎯	-10.6527
qin쎯	-10.653
vkn쎯	-10.6533
ed쎯tga쎯	-10.6533
xvj쎯dxwo쎯	-10.6535
p쎯tsf쎯hl쎯	-10.6538
aeeb0쎯or쎯e쎯	-10.6539
쎈.	-10.654
dq쎯nl쎯	-10.654
aeeb0쎯kxn쎯	-10.6543
iq쎯h쎯nls쎯rgm쎯	-10.6546
cbty3쎯og쎯	-10.6546
da쎯src쎯	-10.6546
(쎄)	-10.6547
q쎯t쎯or쎯wb쎯du쎯qt쎯	-10.6547
rmae쎯쎂쎅thgt1쎯	-10.6548
xd쎯kny쎯	-10.6551
qlx쎯m쎯oun쎯ks쎯lf쎯	-10.6556
hn쎯ogu쎯	-10.6559
foqw1쎯jadk쎯	-10.6561
yd쎯e쎯y쎯	-10.6562
-쎉	-10.6562
khug0쎯yq쎯	-10.657
wxdm1쎯dm쎯	-10.657
kxmg쎯	-10.6572
fnan0쎯ed쎯qn쎯	-10.6573
ph쎯xg쎯	-10.6573
jeb쎯khug0쎯	-10.6575
dnh쎯	-10.6576
xi쎯dqw쎯	-10.6579
aeeb0쎯wt쎯kq쎯	-10.658
g쎯rvq쎯	-10.658
mmwn0쎯qs쎯	-10.6582
in쎯qt쎯fv쎯iqi쎯	-10.6582
e쎯hcjy쎯	-10.6583
rtpy쎯epf쎯	-10.6586
ir쎯hv쎯lf쎯	-10.6588
adui쎯	-10.6589
av쎯iyjf2쎯	-10.6589
rvyo쎯xdc쎯	-10.6596
q쎯lk쎯	-10.6596
hnpv1쎯	-10.6597
sn쎯ky쎯	-10.6598
pwx쎯t쎯	-10.6599
yoq쎯agt쎯kq쎯	-10.66
쎁쎀.	-10.66
ua쎯wwv쎯	-10.6601
npd쎯	-10.6603
ua쎯or쎯	-10.6604
dqw쎯sfb쎯u쎯mvv쎯	-10.6604
njf쎯ji쎯	-10.6605
gq쎯q쎯	-10.6607
yom쎯	-10.6608
qtps1쎯imy쎯	-10.6609
nq쎯fay쎯	-10.6611
kv쎯fa쎯	-10.6612
syle쎯	-10.6614
qb쎯xi쎯	-10.6614
dep쎯dkj쎯fwf쎯mn쎯	-10.6616
at쎯g쎯	-10.6617
qr쎯sgk쎯	-10.6617
쎁qsy쎯	-10.6618
aeeb0쎯yh쎯w쎯	-10.6619
qtwj2쎯ialp쎯	-10.6621
ito쎯twij0쎯	-10.6622
쎃mtjy11쎯	-10.6622
jgig1쎯jgig1쎯	-10.6627
moi쎯sssm쎯	-10.6629
m쎯re쎯r쎯	-10.663
lm쎯og쎯	-10.6631
oey쎯eecs쎯p쎯	-10.6631
kwx쎯	-10.6632
kuy쎯lf쎯	-10.6632
sw쎯by쎯	-10.6634
ejhh쎯hbn쎯ni쎯	-10.6637
xi쎯fgi쎯	-10.6637
te쎯hpg쎯	-10.664
fsy쎯hv쎯	-10.664
f쎯ip쎯	-10.6643
쎁쎉쎂쎈od쎯	-10.6644
wa쎯mu쎯	-10.6652
l쎯qgs쎯	-10.6653
wqy쎯	-10.6653
mpv쎯i쎯	-10.6654
sm쎯khug0쎯	-10.6655
wgkn1쎯”wjna쎯	-10.6655
uitl쎯taho0쎯	-10.6657
쎂쎅쎆	-10.6659
awf쎯wi쎯	-10.666
fjl쎯	-10.6662
m쎯ni쎯	-10.6664
sfhw쎯ags쎯	-10.6665
wct쎯sj쎯r쎯eamy2쎯	-10.6665
ja쎯lf쎯	-10.6667
vg쎯ghtp쎯	-10.6668
p쎯qc쎯sy쎯	-10.6669
ayke쎯	-10.6669
wxdm1쎯ype쎯	-10.6669
xpgm쎯nl쎯wa쎯kpd쎯	-10.6673
jud쎯sj쎯	-10.6675
p쎯i쎯pwit쎯aeeb0쎯	-10.6677
tjdk1쎯kyc쎯	-10.6679
ugwe쎯pjd쎯	-10.6685
tp쎯ii쎯	-10.6685
nl쎯x쎯	-10.6686
i쎯pwit쎯dfn쎯la쎯	-10.6688
sso쎯jkj쎯	-10.6694
xu쎯bpx쎯	-10.6694
frh1쎯lb쎯	-10.6694
ytg쎯qoyd1쎯wgkn1쎯	-10.6695
.쎁쎀	-10.6696
aeeb0쎯wu쎯g쎯	-10.6697
fv쎯iuc쎯	-10.6698
uc쎯mr쎯	-10.67
fcr쎯iq쎯	-10.67
tep쎯eo쎯	-10.6701
afwe1쎯yh쎯	-10.6703
tejg2쎯	-10.6704
aeeb0쎯w쎯f쎯ywi쎯	-10.6705
p쎯wt쎯ien쎯	-10.6706
tm쎯xxx쎯	-10.6709
xy	-10.6714
yh쎯mr쎯	-10.6714
haeo쎯khug0쎯	-10.6714
w쎯khay7쎯	-10.6716
mi쎯fjl쎯	-10.6718
-쎂쎀	-10.6718
jan쎯fwf쎯	-10.6718
oj쎯ek쎯	-10.6719
tp쎯bqbo쎯pyv쎯	-10.6719
aef쎯btbh10쎯	-10.672
h쎯g쎯	-10.672
heg쎯qr쎯p쎯	-10.6721
qlx쎯m쎯wxdm1쎯	-10.6722
쎂oey쎯	-10.6722
ylg0쎯sb쎯	-10.6723
gate쎯	-10.6725
wc쎯pn쎯	-10.6727
rqqy2쎯쎂khug0쎯	-10.6731
heg쎯tp쎯	-10.6731
swwa1쎯vugv쎯	-10.6732
ip쎯yujf0쎯	-10.6734
kpd쎯djdk0쎯	-10.6734
wf쎯khay7쎯“	-10.6738
iq쎯h쎯gah쎯xant쎯	-10.6742
khug0쎯lk쎯	-10.6742
og쎯d쎯	-10.6742
nl쎯jgig1쎯ks쎯qt쎯	-10.6744
mwi쎯or쎯dx쎯	-10.6744
wf쎯wi쎯	-10.6748
lfi쎯igu쎯	-10.6748
mjv쎯vgd쎯	-10.6748
luwy쎯iccc2쎯	-10.675
nl쎯tuqj쎯wsmy쎯fs쎯	-10.675
fgi쎯qyd쎯	-10.6753
lad쎯	-10.6753
a쎯dtr쎯	-10.6754
nr쎯khug0쎯	-10.6754
bpx쎯cybc쎯	-10.6755
쎀.쎇	-10.6758
ld쎯krlo쎯	-10.6759
mhnf쎯dyn쎯p쎯	-10.6765
mwi쎯vc쎯kq쎯	-10.6768
kuy쎯ekgd쎯	-10.6768
mgt쎯uh쎯	-10.6775
쎇.쎅	-10.6776
gw쎯pb쎯	-10.6779
q쎯t쎯gq쎯dk쎯	-10.6779
telf2쎯	-10.6779
aeeb0쎯v쎯“	-10.6782
쎃쎅쎀	-10.6786
waw쎯yh쎯	-10.6787
vd쎯trae1쎯	-10.6787
sw쎯pjv쎯	-10.6788
rw쎯oun쎯	-10.6788
lujf1쎯xiy쎯ja쎯	-10.6793
scbm쎯ird쎯r쎯	-10.6796
ewmw쎯r쎯	-10.6797
h쎯dx쎯	-10.6798
src쎯ma쎯spx쎯nft쎯	-10.68
qbs쎯	-10.6802
yttg0쎯tfih쎯yh쎯	-10.6802
cc쎯rt쎯	-10.6804
ks쎯avk쎯qtps1쎯kq쎯	-10.6806
fdt쎯	-10.6808
gah쎯j쎯	-10.6809
btd쎯	-10.681
agm쎯	-10.6813
p쎯in쎯qt쎯	-10.6813
bgm쎯qr쎯p쎯	-10.6815
쎇%	-10.6818
ld쎯rm쎯	-10.6821
ok쎯h쎯wl쎯	-10.6824
mrdf쎯qr쎯	-10.6825
rqcl5쎯il쎯	-10.6827
dq쎯qymn1쎯	-10.6828
atte쎯qpgh쎯wgkn1쎯	-10.6828
vwnn0쎯by쎯	-10.6829
tfkc쎯dtl쎯	-10.683
〉	-10.683
pur쎯	-10.6831
nwe쎯	-10.6832
xl쎯ib쎯yh쎯	-10.6835
k쎯kq쎯	-10.6835
mrdf쎯ea쎯	-10.6836
akhl0쎯uo쎯	-10.6838
ks쎯lf쎯khug0쎯	-10.6843
oth쎯yff쎯	-10.6843
쎂%	-10.6845
khhq쎯	-10.6845
tyac쎯taho0쎯e쎯	-10.6848
qfkc쎯	-10.6848
ud쎯iw쎯	-10.6848
jm쎯or쎯	-10.6848
wxjl쎯wc쎯	-10.6849
쎅ir쎯ngh쎯	-10.685
avqk쎯	-10.6853
aeeb0쎯atm쎯vcc쎯	-10.6854
mdm쎯qt쎯	-10.6854
wgkn1쎯쎂쎀쎀쎃od쎯	-10.6855
/쎃	-10.6855
ymj쎯g쎯	-10.6856
kkmw1쎯gah쎯p쎯	-10.6857
kwb쎯rfhc쎯	-10.6858
sj쎯wgkn1쎯	-10.6859
cc쎯qt쎯	-10.686
ip쎯ybb쎯w쎯	-10.686
pw쎯qk쎯	-10.6862
wgkn1쎯xg쎯eo쎯	-10.6863
jnf쎯oum쎯wvgo7쎯	-10.6863
wtv쎯	-10.6863
wi쎯》	-10.6865
qny쎯	-10.6867
qp쎯tjj쎯	-10.6867
oj쎯nl쎯p쎯	-10.6868
tp쎯ewmw쎯ivw쎯rke쎯	-10.6869
ks쎯wqg쎯rke쎯	-10.687
qjq쎯rvyo쎯p쎯	-10.6871
rmae쎯쎅thgt1쎯	-10.6871
wgkn1쎯qtyy3쎯sj쎯	-10.6871
ua쎯g쎯	-10.6874
쎄ir쎯ngh쎯	-10.6875
xdc쎯sp쎯	-10.6875
wgkn1쎯쎂쎀쎀쎂od쎯	-10.6877
jdjf1쎯	-10.6877
tavb쎯	-10.6878
eclb쎯vwnn0쎯	-10.6879
vwnn0쎯ofn쎯	-10.6879
ekgd쎯tx쎯	-10.688
swwh3쎯	-10.688
쎁쎀쎈	-10.6881
aeeb0쎯iq쎯yh쎯	-10.6884
qi쎯ifd쎯	-10.6885
nku쎯y쎯	-10.6887
rnoe쎯ayc쎯	-10.6887
chy쎯rw쎯uj쎯bigk쎯	-10.6893
qlga쎯unu쎯	-10.6895
apo쎯snan쎯	-10.6897
jo쎯wb쎯	-10.6897
쎁쎆쎀쎀	-10.6897
ymg쎯	-10.6897
쎂쎄ek쎯iw쎯	-10.6898
tyt쎯tp쎯	-10.6898
svg쎯	-10.6899
bll쎯gfq쎯	-10.69
qi쎯knuv쎯	-10.69
mi쎯nsh쎯t쎯	-10.69
gxgo쎯	-10.6901
ytg쎯qoyd1쎯p쎯	-10.6903
upeg0쎯	-10.6907
y쎯《	-10.6908
uy쎯	-10.6911
xo쎯mb쎯	-10.6912
fvq쎯xdc쎯	-10.6913
aeeb0쎯rvq쎯yd쎯y쎯	-10.6913
dccc쎯yqt쎯ea쎯ivw쎯	-10.6914
pa쎯amb쎯kv쎯	-10.6914
hd쎯sx쎯	-10.6917
aeeb0쎯a쎯ospc쎯	-10.6918
khyy1쎯	-10.6919
gyy쎯m쎯oun쎯	-10.692
p쎯jo쎯iqi쎯	-10.6921
wie쎯tfns1쎯	-10.6922
vnh쎯khug0쎯	-10.6923
p쎯mb쎯e쎯	-10.6924
ynkt2쎯xb쎯	-10.6925
aeeb0쎯sd쎯nsh쎯	-10.6928
dep쎯fs쎯	-10.6928
wp	-10.6928
rm쎯lfi쎯	-10.6931
jt쎯mc쎯p쎯	-10.6931
wgkn1쎯ix쎯e쎯	-10.6931
m쎯fgi쎯	-10.6932
odu쎯xe쎯	-10.6933
wxdm1쎯ynjg6쎯	-10.6935
jc쎯tp쎯y쎯	-10.6936
aeeb0쎯fgj쎯by쎯	-10.6936
aeeb0쎯wdjq쎯qc쎯	-10.6937
vgd쎯wc쎯	-10.6939
frj쎯kpd쎯	-10.6941
wyq쎯snan쎯jjyi0쎯	-10.6943
qr쎯sgk쎯wgkn1쎯	-10.6944
qr쎯aeeb0쎯	-10.6945
q쎯cw쎯ek쎯ea쎯	-10.6946
ea쎯ivw쎯dccc쎯qtb쎯	-10.6946
dccc쎯yqt쎯d쎯or쎯	-10.6947
rw쎯gc쎯j쎯	-10.6947
쎂쎀ma쎯qyvg0쎯	-10.6952
hubp쎯jpdi쎯	-10.6953
ydx쎯by쎯	-10.6955
aeeb0쎯mrdf쎯t쎯	-10.6959
kkmw1쎯t쎯	-10.6959
pus쎯	-10.696
쎂쎀쎀쎂	-10.6962
ldj쎯	-10.6966
tga쎯moo쎯ea쎯rke쎯	-10.6969
sg쎯	-10.697
tyt쎯gu쎯	-10.6973
icy쎯ii쎯	-10.6974
wl쎯m쎯oun쎯	-10.6974
d쎯swcn0쎯	-10.6974
e1쎯	-10.6974
vb쎯apr쎯	-10.6974
yjl쎯pn쎯	-10.6974
ygh쎯xi쎯	-10.6974
ada쎯	-10.6975
te쎯mhj쎯	-10.6978
jgig1쎯od쎯	-10.6981
khpk1쎯pr쎯jjyi0쎯	-10.6982
xd쎯i쎯khug0쎯	-10.6986
m쎯o쎯u쎯ktg쎯	-10.6987
ylkm1쎯xef쎯	-10.6987
ugl쎯	-10.6989
sfjh쎯khug0쎯	-10.699
jo쎯iqi쎯fv쎯g쎯	-10.6991
dgl쎯xl쎯	-10.6991
쎉%	-10.6992
ek쎯bjy쎯	-10.6994
fue쎯khom쎯	-10.6994
r쎯aeeb0쎯qgk쎯q쎯	-10.6996
ode쎯tf쎯	-10.7
dunn쎯tm쎯	-10.7
쎁ir쎯ngh쎯	-10.7005
yujf0쎯yxn쎯	-10.7006
rw쎯qap쎯	-10.7008
yeqn쎯wt쎯	-10.701
”aeeb0쎯“	-10.7013
lnt쎯bpx쎯	-10.7015
w쎯ivc쎯	-10.702
pjd쎯mpf쎯khay7쎯	-10.702
tvdh0쎯	-10.7022
se쎯qc쎯	-10.7023
rmae쎯쎁쎇thgt1쎯	-10.7023
big쎯re쎯“	-10.7023
oaqy0쎯khpk1쎯pyf쎯	-10.7024
mrdf쎯hcw쎯	-10.7027
(쎁쎈쎉	-10.7027
m쎯fsy쎯wxdm1쎯ype쎯	-10.7028
mrdf쎯tdpx쎯	-10.7028
jqkg1쎯mjv쎯	-10.7031
jqt쎯	-10.7032
iyu0쎯amdo1쎯p쎯	-10.7035
p쎯f쎯kq쎯ma쎯	-10.7035
bue쎯iyy쎯	-10.7036
uvtd0쎯nbs쎯wsmy쎯	-10.7038
qb쎯h쎯	-10.7039
wl쎯ea쎯p쎯	-10.7039
q쎯t쎯ybb쎯kw쎯	-10.7044
vsg쎯hmu쎯	-10.7045
tf쎯tabh1쎯	-10.7046
gah쎯ji쎯iy쎯	-10.7047
dqg쎯ljh쎯	-10.7047
kxdm0쎯khug0쎯	-10.7047
fvq쎯bo쎯	-10.7048
nl쎯dfn쎯rwxn쎯	-10.7049
wgkn1쎯ode쎯rv쎯	-10.7051
쎁쎂eh쎯	-10.7052
iwf쎯vc쎯aeeb0쎯	-10.7053
e쎯f쎯	-10.7053
f쎯eh쎯r쎯	-10.7054
fsy쎯qa쎯	-10.7057
oj쎯qr쎯	-10.7058
ity1쎯yd쎯aeeb0쎯	-10.7058
fy쎯kaq쎯	-10.7059
qnaf쎯	-10.7062
pwaf쎯	-10.7064
ujq쎯i쎯khug0쎯	-10.7065
aeeb0쎯gw쎯sj쎯	-10.7066
vyna쎯	-10.7067
neh쎯	-10.7068
tj쎯yltc쎯	-10.7068
uyy쎯dei쎯	-10.7069
wie쎯wie쎯	-10.707
쎂.쎈	-10.7071
쎁쎉쎃쎀od쎯	-10.7074
kv쎯wpg쎯jjyi0쎯	-10.7078
h쎯khug0쎯nls쎯rgm쎯	-10.7082
uv쎯aeeb0쎯icy쎯	-10.7084
hubp쎯xi쎯	-10.7085
p쎯xd쎯i쎯	-10.7086
ew쎯n쎯	-10.7086
iqgw쎯	-10.7092
rv쎯p쎯	-10.7092
awcq쎯	-10.7095
ybb쎯kw쎯aaae쎯kd쎯	-10.7096
쎃쎀od쎯	-10.7096
or쎯y쎯	-10.7097
쎉rmae쎯pjv쎯	-10.7101
drj0쎯cybc쎯	-10.7103
yq	-10.7104
tyb쎯ft쎯sj쎯ks쎯qt쎯	-10.7106
ydx쎯oun쎯	-10.7106
q쎯cw쎯m쎯oun쎯	-10.7107
vyg1쎯qb쎯	-10.7111
ly쎯xq쎯	-10.7111
ud쎯pwx쎯	-10.7112
bwt쎯udb쎯	-10.7112
yqk쎯	-10.7117
x쎯qc쎯	-10.712
쎁쎅ma쎯qyvg0쎯	-10.712
mhnf쎯yd쎯kq쎯ma쎯	-10.712
ugy쎯mb쎯	-10.7121
wx쎯r쎯	-10.7124
xtyd쎯	-10.7126
wgkn1쎯iwf쎯vc쎯yh쎯	-10.7127
atws1쎯	-10.7128
ojh쎯m쎯oun쎯	-10.7129
oun쎯wwv쎯	-10.7132
lkd쎯en쎯	-10.7133
mhje쎯	-10.7134
ksj쎯aeeb0쎯	-10.7134
hqay쎯xy쎯	-10.7134
tvf쎯qpw쎯cybc쎯	-10.7138
wgkn1쎯ta쎯w쎯	-10.714
ayec쎯sh쎯	-10.7145
xl쎯v쎯j쎯	-10.7145
ujv쎯qlga쎯	-10.7145
tqd쎯yr쎯ir쎯apr쎯	-10.7146
omgu1쎯	-10.7146
ea쎯yyb쎯qrhg쎯	-10.7147
mgt쎯iw쎯	-10.7148
fqou쎯	-10.7149
vdg쎯pr쎯	-10.715
bpx쎯far쎯nl쎯ea쎯	-10.7151
iw쎯jssy쎯	-10.7153
ew쎯si쎯	-10.7154
aymx0쎯dccc쎯	-10.7162
uff쎯tehc2쎯	-10.7164
fhc쎯iyjf2쎯tfc쎯	-10.7165
xj쎯mrdf쎯	-10.7166
ybwf1쎯	-10.717
쎀mm쎯aeeb0쎯od쎯	-10.7171
eg쎯qlx쎯eg쎯kv쎯	-10.7172
aq쎯p쎯	-10.7173
ljh쎯sf쎯	-10.7174
xep쎯gv쎯	-10.7175
tdw쎯wi쎯	-10.7178
cccq3쎯	-10.7182
쎅mm쎯	-10.7184
xl쎯or쎯e쎯	-10.7186
”)	-10.7186
us쎯	-10.7188
rxb쎯ra쎯	-10.7189
dh쎯pgin1쎯	-10.7189
e쎯q쎯cw쎯	-10.7189
tfkc쎯jdn쎯p쎯	-10.719
fylg1쎯	-10.7191
m쎯ktg쎯	-10.7191
쎃iyy쎯	-10.7194
g2쎯	-10.7197
ba쎯ru쎯ij쎯	-10.7197
nmf쎯	-10.7199
nnw쎯pe쎯jjyi0쎯	-10.72
qtwj2쎯wpn쎯	-10.7205
ip쎯wl쎯iwf쎯vc쎯	-10.7205
amdo1쎯oob쎯	-10.7208
pwl쎯qj쎯	-10.7211
rw쎯gc쎯p쎯	-10.7212
쎃ac쎯eu쎯ir쎯ngh쎯	-10.7214
irno쎯vc쎯	-10.7216
avw쎯ipwm1쎯y쎯	-10.7217
lmg쎯tve쎯	-10.7217
h2쎯	-10.7222
쎆쎀쎀쎀	-10.7222
nl쎯ea쎯iwf쎯vc쎯	-10.7224
xx	-10.7224
쎂qsy쎯	-10.7227
fwgw0쎯wcqn쎯	-10.7228
gl쎯qc쎯yv쎯	-10.7231
spx쎯dol쎯	-10.7232
aeeb0쎯brg쎯th쎯	-10.7234
pn쎯sa쎯	-10.7235
wyvf21쎯	-10.7235
qpgh쎯wgkn1쎯	-10.7236
ua쎯wn쎯aeeb0쎯	-10.7237
gc쎯n쎯lf쎯d쎯	-10.7237
kkho쎯xr쎯	-10.7237
wgn쎯	-10.7237
pgc쎯swcn0쎯	-10.7241
eqa쎯	-10.7243
qef쎯	-10.7243
쎈%	-10.7243
ihc쎯	-10.7245
fum쎯afw쎯	-10.7246
kv쎯wgkn1쎯	-10.7248
쎀쎀wnv0쎯aeeb0쎯	-10.7248
ifd쎯qb쎯	-10.7249
ugx쎯xuq쎯	-10.7249
쎂.쎃	-10.7254
tdw쎯kd쎯aeeb0쎯	-10.7256
ps쎯qgk쎯	-10.7256
gss쎯wgkn1쎯	-10.7257
thgt1쎯ldn쎯	-10.7262
iy쎯vq쎯rj쎯	-10.7262
wgkn1쎯ld쎯ay쎯	-10.7263
ec쎯	-10.7264
p쎯gc쎯dk쎯fs쎯	-10.7268
iw쎯p쎯	-10.7272
t쎯s쎯	-10.7272
쎁oey쎯	-10.7273
쎁qc쎯	-10.7276
th	-10.7277
p쎯ar쎯si쎯	-10.728
vgmy0쎯	-10.7282
rkl쎯lbh쎯khay7쎯	-10.7282
ma쎯kflc1쎯	-10.7284
pwit쎯rw쎯	-10.7287
h쎯kre쎯lnt쎯mn쎯	-10.7287
kwb쎯mrdf쎯aeeb0쎯	-10.7287
bgmw쎯	-10.7287
ax쎯dv쎯	-10.7291
쎂r쎯aeeb0쎯	-10.7293
쎅.쎅	-10.7295
pgc쎯dm쎯	-10.7295
axa쎯	-10.7296
쎁bwgj1쎯	-10.7297
rmae쎯쎁쎀thgt1쎯	-10.7297
gqjr쎯	-10.7297
sqa쎯	-10.7298
vfg쎯n쎯	-10.7299
bwgj1쎯쎄	-10.7303
wgkn1쎯n쎯rfl쎯g쎯	-10.7303
gnyb쎯	-10.7308
mudm쎯	-10.7309
iuc쎯ws쎯sj쎯	-10.7312
wda쎯	-10.7312
wyq쎯cvhl쎯	-10.7313
kj쎯wx쎯qsy쎯	-10.7314
u쎯oyo쎯	-10.7315
쎁쎀쎅	-10.7316
rpl쎯tfc쎯	-10.7319
uht쎯tedt2쎯	-10.732
j쎯thgt1쎯ip쎯	-10.7322
e쎯dvlg쎯up쎯	-10.7323
tsce쎯kfkv쎯	-10.7324
iq쎯thgt1쎯	-10.7328
ewmw쎯fv쎯ywi쎯	-10.7331
rcb쎯	-10.7332
ntl쎯	-10.7334
usf쎯iq쎯	-10.7334
rmae쎯쎁쎄thgt1쎯	-10.7335
ba쎯f쎯kq쎯	-10.7336
msj쎯nv쎯p쎯	-10.734
ymj쎯yv쎯	-10.734
rmae쎯쎆thgt1쎯	-10.7341
yi쎯	-10.7343
쎆ir쎯ngh쎯	-10.7343
jtj쎯ptf쎯	-10.7346
ybb쎯wi쎯wb쎯du쎯qt쎯	-10.7346
ac쎯mb쎯	-10.7347
d쎯ea쎯ivw쎯	-10.735
vey쎯bs쎯	-10.7351
te	-10.7354
nsg쎯rqcl5쎯	-10.7354
fsy쎯wgu쎯tfkc쎯	-10.7354
csh쎯eamy2쎯	-10.7356
rp쎯pyaj1쎯	-10.7356
iyy쎯ype쎯	-10.7357
ybwu0쎯	-10.7358
m쎯o쎯iq쎯h쎯	-10.7359
txx쎯yv쎯	-10.7363
쎅ac쎯eu쎯ir쎯ngh쎯	-10.7363
khug0쎯jjyi0쎯	-10.7365
he쎯hw쎯	-10.7365
iyy쎯fu쎯	-10.7365
쎅쎀쎀pv쎯	-10.7369
jtn쎯ec쎯	-10.7369
cnn쎯enbm쎯	-10.7369
tfh쎯mt쎯	-10.737
qsy쎯qt쎯wxg쎯	-10.7372
rmae쎯쎁쎁thgt1쎯	-10.7377
kg	-10.7377
p쎯jvk쎯lfoj2쎯	-10.7377
jhl쎯	-10.7377
hd쎯fiv쎯	-10.738
td쎯ji쎯	-10.7382
wqg쎯fsy쎯	-10.7382
uh쎯pi쎯aeeb0쎯	-10.7383
ib쎯v쎯	-10.7384
ie쎯f쎯eh쎯	-10.7384
쎂r쎯	-10.7387
ar쎯si쎯khay7쎯	-10.7387
p쎯pp쎯nsh쎯	-10.7388
khug0쎯wl쎯ujq쎯	-10.7391
aeeb0쎯ta쎯w쎯	-10.7391
brg쎯gw쎯t쎯	-10.7396
pwl쎯te쎯	-10.7396
(abci쎯	-10.7398
bgm쎯ei쎯	-10.7398
pwdc1쎯	-10.7399
tf쎯eudw쎯	-10.7399
c1쎯	-10.7399
fqvh쎯snan쎯	-10.74
iu쎯ub쎯y쎯	-10.74
au쎯bl쎯	-10.7401
jdn쎯	-10.7401
quo쎯jssy쎯	-10.7401
qb쎯lrdd쎯	-10.7401
ahnu3쎯pjd쎯	-10.7402
xgx쎯	-10.7405
khug0쎯qlx쎯	-10.7406
v쎯lk쎯	-10.7409
dna쎯agt쎯	-10.741
p쎯ptf쎯mn쎯	-10.7413
fk	-10.7413
mhby쎯	-10.7414
laf쎯ifd쎯vpm쎯	-10.7416
rmae쎯쎉thgt1쎯	-10.7419
ma쎯uyy쎯by쎯	-10.7419
aeeb0쎯lm쎯yh쎯	-10.742
wtx쎯dfi쎯	-10.7424
xm쎯vw쎯	-10.7425
pwx쎯qhtr쎯q쎯	-10.7426
i쎯iq쎯j쎯	-10.7427
hw쎯pwit쎯	-10.7428
mwi쎯is쎯	-10.7429
ew쎯j쎯	-10.7429
wgkn1쎯쎂쎀쎀쎀od쎯	-10.743
rqah쎯th쎯	-10.7433
ud쎯ib쎯gss쎯	-10.7433
f쎯uhx쎯	-10.7435
gm쎯sggh0쎯	-10.7435
wx쎯qc쎯	-10.7436
o0쎯	-10.7438
bnn1쎯sfjh쎯	-10.7439
gbg1쎯kmw쎯	-10.7444
skh쎯fe쎯	-10.7447
plbh쎯	-10.7447
eaqt쎯qgk쎯	-10.7449
qbxi쎯ll쎯	-10.745
asr쎯qu쎯	-10.7451
khug0쎯gw쎯t쎯	-10.7452
sw쎯jvf쎯	-10.7453
ai쎯biy쎯	-10.7455
쎁쎀%	-10.7455
tfhn2쎯jw쎯	-10.7457
(gc쎯	-10.7459
mrdf쎯taho0쎯	-10.746
vip쎯kv쎯	-10.7461
byt쎯sr쎯q쎯cw쎯	-10.7462
w쎯uc쎯	-10.7462
ydx쎯duj쎯	-10.7466
ma쎯wuk쎯e쎯	-10.7471
wgkn1쎯쎁쎉쎉쎈od쎯	-10.7475
);	-10.7475
el쎯cw쎯	-10.7475
vc쎯el쎯	-10.7476
uv쎯aeeb0쎯	-10.7479
쎀*	-10.7484
lw쎯r쎯	-10.7485
qdc쎯	-10.749
e쎯wa쎯kpd쎯	-10.7495
syg쎯	-10.7497
dudu쎯gbg1쎯	-10.7498
mhnf쎯mhnf쎯kv쎯	-10.7505
rcp쎯qc쎯	-10.7507
xq쎯duj쎯	-10.7507
amg쎯tex쎯	-10.7508
aeeb0쎯am쎯	-10.7509
f쎯q쎯	-10.751
쎄쎈쎀	-10.7511
uxv쎯qb쎯	-10.7512
tm쎯》khug0쎯《	-10.7514
w쎯lm쎯	-10.752
ow쎯bwt쎯	-10.7521
apwr쎯rntq쎯	-10.7524
mtjk2쎯	-10.7527
r쎯j쎯	-10.7527
mye쎯jh쎯	-10.753
ivc쎯nsh쎯	-10.7531
kkmw1쎯gah쎯khug0쎯	-10.7532
rxj쎯	-10.7532
yqt쎯r쎯	-10.7532
q쎯cw쎯aeeb0쎯	-10.7533
iux쎯ksg쎯	-10.7533
qef쎯dx쎯	-10.7535
syk쎯	-10.7536
lh쎯iuc쎯	-10.7537
wfmx1쎯	-10.7538
piqb쎯cck쎯e쎯	-10.7539
jtu쎯rtmt1쎯	-10.754
wgkn1쎯k쎯ngh쎯	-10.7542
i쎯iq쎯p쎯	-10.7542
sw쎯dp쎯	-10.7543
ir쎯yoq쎯j쎯	-10.7547
gw쎯ynjg6쎯	-10.7548
ka	-10.7548
jgig1쎯ks쎯	-10.7549
ir쎯ngh쎯eg쎯aeeb0쎯	-10.7552
uact쎯	-10.7553
w쎯f쎯ghf쎯	-10.7555
sojh쎯vrg쎯	-10.7555
omh쎯tp쎯	-10.7557
a쎯jh쎯	-10.7559
rke쎯whm쎯	-10.7562
iuc쎯mta쎯snan쎯	-10.7563
tu쎯	-10.7565
mgji2쎯ywi쎯	-10.7568
nl쎯pwit쎯	-10.7569
mnh쎯	-10.757
id쎯	-10.7572
kfg쎯duj쎯	-10.7572
–	-10.7573
qb쎯jlj쎯	-10.7573
ib쎯kpd쎯p쎯	-10.7574
xynt0쎯mb쎯in쎯	-10.7577
yup쎯cybc쎯vey쎯	-10.7579
vt쎯lnt쎯o쎯p쎯	-10.7579
jfmf쎯xl쎯v쎯	-10.7581
of쎯ynjg6쎯	-10.7581
jjbo쎯	-10.7582
khay7쎯쎁khug0쎯	-10.7583
uh쎯aeeb0쎯	-10.7583
wgkn1쎯쎂쎀쎀쎁od쎯	-10.7584
am	-10.7585
c0쎯	-10.7585
yo쎯i쎯	-10.7587
qdhi쎯	-10.759
m1쎯	-10.7591
uv쎯bi쎯	-10.7593
wgkn1쎯쎁쎉쎄쎉od쎯	-10.7593
wtr쎯igd쎯	-10.7594
쎄ac쎯eu쎯ir쎯ngh쎯	-10.7597
cbty3쎯bwt쎯	-10.7598
avw쎯dp쎯yh쎯	-10.7598
fqn쎯dk쎯	-10.76
eecs쎯he쎯mtjc1쎯	-10.7603
ic쎯aiyk쎯	-10.7604
jvf쎯ywso쎯	-10.7606
frj쎯kpd쎯qut쎯jr쎯	-10.7609
qtyy3쎯ir쎯yoq쎯	-10.7609
wm쎯pui쎯	-10.7611
aeeb0쎯dna쎯	-10.7611
p쎯f쎯sfi쎯	-10.7611
hu쎯wgkn1쎯	-10.7614
ewmw쎯wx쎯eh쎯	-10.7614
yjl쎯tlg쎯	-10.7614
ir쎯lj쎯aeeb0쎯	-10.7614
qlx쎯m쎯oun쎯aeeb0쎯	-10.7614
mf쎯kcc쎯	-10.7615
qc쎯tga쎯	-10.7617
hdhh1쎯	-10.7618
uh쎯hdgh쎯	-10.7618
agj쎯	-10.7619
p쎯vwnn0쎯rqah쎯	-10.7619
ahkc쎯	-10.7622
b쎯tdw쎯kd쎯	-10.7622
j쎯rqci5쎯	-10.7622
쎈ir쎯ngh쎯	-10.7623
쎃qsy쎯	-10.7623
axys쎯	-10.7625
sb쎯ewgk1쎯	-10.7629
aeeb0쎯f쎯eh쎯	-10.763
uv쎯oyo쎯	-10.7631
iyv쎯ua쎯	-10.7631
wlk쎯	-10.7632
ps쎯am쎯	-10.7633
ea쎯tm쎯	-10.7634
쎄쎅쎀	-10.7635
rw쎯i쎯	-10.7636
epf쎯uitl쎯vey쎯	-10.7638
iq쎯mnmk쎯	-10.7639
khug0쎯t쎯wb쎯	-10.7641
q쎯vuxn쎯	-10.7642
dj쎯ojgr0쎯	-10.7642
쎃쎀olf쎯	-10.7644
qt쎯kv쎯	-10.7645
oth쎯nnnc쎯	-10.7647
tj쎯qsy쎯	-10.765
)(	-10.7651
d쎯ynjg6쎯khug0쎯	-10.7651
me쎯wa쎯	-10.7652
p쎯x쎯iw쎯	-10.7653
ewmw쎯tol쎯taho0쎯	-10.7654
pnya쎯	-10.7654
aspq쎯atte쎯	-10.7655
amdo1쎯f쎯	-10.7656
aeeb0쎯big쎯re쎯	-10.7657
vgv쎯mm쎯	-10.7657
pjv쎯rqci5쎯mtjc1쎯	-10.7658
arc쎯aeeb0쎯	-10.7658
sn쎯uftj2쎯	-10.7659
ttnt1쎯	-10.7659
ea쎯rke쎯wgkn1쎯	-10.7659
tf쎯ymj쎯	-10.766
xpfy쎯vq쎯	-10.7662
rmae쎯쎁쎃thgt1쎯	-10.7662
ftl쎯rqci5쎯	-10.7664
wgkn1쎯nwe쎯kv쎯	-10.7664
mt	-10.7664
tuy쎯	-10.7666
쎂쎁jo쎯ce쎯	-10.7667
vey쎯pyxf쎯	-10.7668
da쎯ybt쎯	-10.7668
vy쎯tg쎯	-10.7668
p쎯gr쎯apl쎯	-10.767
ba쎯src쎯	-10.7671
sfkf1쎯taho0쎯	-10.7672
sggh0쎯xiy쎯	-10.7672
ma쎯nc쎯	-10.7673
wgkn1쎯k쎯w쎯	-10.7675
fvq쎯tdh쎯wsmy쎯jt쎯	-10.7675
pn쎯qnw쎯	-10.7676
qtyy3쎯ybb쎯	-10.768
qthe쎯	-10.7681
ito쎯vuxn쎯	-10.7681
nft쎯mfj쎯	-10.7683
d쎯vc쎯apr쎯	-10.7683
q쎯oa쎯ai쎯lfi쎯dv쎯	-10.7684
(쎂쎀쎀	-10.7687
he쎯tyt쎯	-10.7688
w쎯ib쎯	-10.7691
tqyj1쎯	-10.7691
kfuf쎯	-10.7691
jgig1쎯ib쎯p쎯	-10.7692
no쎯ii쎯	-10.7693
qoyj0쎯	-10.7695
sks쎯khrw쎯	-10.7696
jlj쎯ks쎯jgig1쎯ks쎯	-10.7697
thgt1쎯hagh1쎯	-10.7698
쎈쎀%	-10.7698
iuk쎯	-10.7698
e쎯noof쎯vc쎯	-10.7701
vw쎯foag쎯noof쎯vc쎯	-10.7705
aeeb0쎯ifd쎯xpr쎯	-10.7708
dccc쎯ks쎯	-10.7711
쎁쎀olf쎯	-10.7714
ks쎯lf쎯aeeb0쎯	-10.7718
kaq쎯bl쎯	-10.7726
wgkn1쎯u쎯rv쎯	-10.7727
aips0쎯pyxf쎯	-10.7731
gkqq쎯rj쎯	-10.7734
rwga0쎯kpw쎯st쎯hv쎯	-10.7735
tdw쎯kd쎯xd쎯i쎯bu쎯	-10.7736
qbc쎯resy0쎯	-10.7737
tfkc쎯h쎯	-10.7738
rqqy2쎯《	-10.7738
f쎯vfi쎯	-10.7739
ndwv쎯ghtp쎯khay7쎯	-10.7739
dmj	-10.7741
ba쎯쎅	-10.7743
mwi쎯of쎯	-10.7744
rqci5쎯thgt1쎯	-10.7744
sfjh쎯djdk0쎯	-10.7747
sk쎯	-10.775
ugy쎯	-10.7753
n쎯nft쎯yh쎯	-10.7755
khay7쎯쎁쎀	-10.7759
)ewmw쎯	-10.7761
uj	-10.7767
gah쎯xant쎯aeeb0쎯	-10.7772
fitb2쎯ybb쎯	-10.7775
fig쎯	-10.7775
au쎯swwk0쎯q쎯	-10.7776
q쎯laf쎯od쎯	-10.7778
bm쎯nl쎯	-10.7778
uy쎯kkmw1쎯	-10.7781
dgx쎯xuq쎯swwk0쎯	-10.7782
gw쎯xi쎯p쎯	-10.7783
vkf1쎯vyg1쎯	-10.7785
ek쎯gii쎯	-10.7785
ie	-10.7788
qi쎯aj쎯	-10.7788
xfmp쎯	-10.7794
쎃r쎯	-10.7796
kwb쎯ptf쎯p쎯st쎯hv쎯	-10.7796
lujf1쎯xiy쎯	-10.7797
a쎯rgvi쎯	-10.7798
f쎯kq쎯ma쎯	-10.7799
ivw쎯qrhg쎯	-10.7801
ba쎯bm쎯ij쎯	-10.7804
쎁쎈쎉	-10.7806
big쎯re쎯v쎯	-10.7808
ivw쎯qlx쎯ivw쎯kv쎯	-10.7809
ken쎯xq쎯p쎯	-10.781
in쎯qt쎯wl쎯ea쎯ivw쎯	-10.781
khpk1쎯wgd쎯	-10.781
uh쎯pi쎯drj0쎯yj쎯	-10.7812
ode쎯rv쎯y쎯	-10.7813
mcw쎯	-10.7813
쎁쎀ir쎯ngh쎯	-10.7822
ii쎯e쎯	-10.7823
ai쎯d쎯	-10.7826
jc쎯rw쎯p쎯	-10.7827
wm쎯jqw쎯	-10.7827
jt쎯rh쎯	-10.7827
p쎯qi쎯khpk1쎯	-10.7829
d쎯mt쎯vq쎯rj쎯	-10.7829
ubae쎯wf쎯	-10.7829
rmae쎯쎈thgt1쎯	-10.7832
qc쎯qtwj2쎯	-10.7833
fnan0쎯ed쎯p쎯	-10.7833
khug0쎯hg쎯	-10.7833
pwq쎯pyxf쎯	-10.7838
pugo0쎯	-10.7842
g쎯yuh쎯	-10.7842
ufw쎯ws쎯	-10.7844
nsh쎯swcn0쎯	-10.7844
igo쎯f쎯dk쎯	-10.785
xj	-10.785
kwb쎯ptf쎯p쎯	-10.7853
tmjw쎯r쎯	-10.7853
eg쎯kv쎯	-10.7854
gqy쎯	-10.7856
rds쎯	-10.7858
aqr쎯	-10.7858
oi쎯nl쎯	-10.7861
ac쎯dgl쎯wnv0쎯h쎯	-10.7864
쎅r쎯	-10.7866
dep쎯yv쎯	-10.7869
uwl쎯kht쎯	-10.787
v쎯ld쎯aeeb0쎯	-10.7871
wm쎯tlg쎯	-10.7873
aeeb0쎯w쎯no쎯	-10.7873
f쎯ojgr0쎯	-10.7875
aeeb0쎯kld쎯ynge쎯	-10.7876
wx쎯qpgh쎯	-10.7878
wtx쎯kq쎯tfih쎯yh쎯	-10.7881
mkq쎯ni쎯	-10.7881
ewmw쎯h쎯kre쎯	-10.7882
ug쎯yv쎯	-10.7884
si쎯ni쎯p쎯	-10.7885
ea쎯tfih쎯aeeb0쎯	-10.7887
moi쎯mta쎯	-10.7888
r쎯pb쎯	-10.7889
ydx쎯vcu0쎯	-10.7889
t쎯h쎯	-10.789
jlj쎯kv쎯	-10.789
bq쎯dpq쎯	-10.789
r쎯jx쎯byt쎯jadk쎯	-10.7892
wsmy쎯ybb쎯	-10.7892
wsmy쎯fs쎯flmu0쎯h쎯	-10.7892
iw쎯ojgr0쎯aeeb0쎯	-10.7897
gl쎯jlj쎯	-10.7898
bu쎯p쎯	-10.7898
wb쎯ib쎯	-10.7899
p쎯rj쎯nbs쎯	-10.79
ibn쎯	-10.79
lrq쎯aeeb0쎯	-10.7901
wo쎯ed쎯aiyk쎯	-10.7902
geqc쎯hbn쎯	-10.7903
go쎯r쎯	-10.7904
rmae쎯쎂쎆thgt1쎯	-10.7907
g쎯lrq쎯	-10.7909
pq쎯ks쎯qt쎯	-10.7909
mt쎯hv쎯q쎯cw쎯	-10.7917
swwk0쎯hu쎯	-10.7918
suy쎯twwn2쎯	-10.7919
sf쎯gyy쎯	-10.7921
ewmw쎯tfkc쎯duj쎯	-10.7923
hxy쎯	-10.7923
ity1쎯vfg쎯	-10.7925
bq쎯ws쎯dpq쎯	-10.7926
xdc쎯	-10.7928
na	-10.7929
q쎯qu쎯	-10.7929
f쎯xm쎯xm쎯	-10.793
vb쎯vip쎯	-10.7931
fpd쎯qero쎯	-10.7931
rmae쎯쎁쎆thgt1쎯	-10.7933
쎁쎉쎂	-10.7934
sbb쎯	-10.7934
pn쎯thgt1쎯	-10.7935
wgkn1쎯쎁쎉쎉쎃od쎯	-10.7937
et쎯hv쎯	-10.7938
wgkn1쎯쎂쎀쎁쎀od쎯	-10.7943
wt쎯qoqt1쎯dccc쎯	-10.7943
rpuh1쎯	-10.7945
f쎯r쎯	-10.7945
nl쎯yxn쎯	-10.7947
qiqn1쎯	-10.7948
yum쎯	-10.7949
dqg쎯oh쎯	-10.7955
gii쎯	-10.7956
sh쎯pr쎯	-10.7957
pwq쎯ub쎯	-10.7958
rc쎯	-10.7958
aef쎯dyt쎯	-10.796
쎂쎀쎀쎁	-10.7961
atte쎯sy쎯	-10.7963
rmae쎯쎇thgt1쎯	-10.7964
miw쎯	-10.7964
(v쎯qn쎯iyu0쎯pb쎯	-10.7964
brg쎯t쎯wb쎯	-10.7966
t쎯it쎯xuq쎯ffuj쎯	-10.7967
rj쎯apl쎯p쎯	-10.7971
ub쎯nl쎯	-10.7972
쎁xn쎯	-10.7974
od쎯so쎯qb쎯mn쎯쎁	-10.7976
la쎯ma쎯	-10.7978
d쎯vc쎯bu쎯	-10.7978
pjv쎯ei쎯	-10.7979
d쎯ks쎯	-10.7982
wgkn1쎯쎁쎉쎈쎂od쎯	-10.7983
bi쎯ode쎯ssq쎯qqu쎯	-10.7987
bnhg1쎯jlj쎯	-10.799
njdf쎯bda쎯	-10.7992
wghl쎯	-10.7992
cb쎯kvc쎯	-10.7996
ae쎯vc쎯dccc쎯yqt쎯	-10.7997
uwvo0쎯	-10.7997
cat쎯	-10.7999
odd쎯tyt쎯	-10.7999
qux쎯syl쎯	-10.8
dm쎯iysy쎯	-10.8002
wgkn1쎯쎁쎉쎉쎂od쎯	-10.8002
쎁쎈쎄	-10.8002
pwl쎯uug쎯	-10.8002
ahnu3쎯kxdm0쎯	-10.8004
aeeb0쎯vt쎯odd쎯	-10.8005
abci쎯et쎯	-10.8006
u쎯dvi쎯	-10.8008
t쎯it쎯oyo쎯dtr쎯	-10.8008
ac쎯eu쎯aspq쎯mm쎯	-10.8009
dx쎯xr쎯	-10.801
ir쎯yoq쎯tfih쎯yh쎯	-10.8012
qsy쎯od쎯	-10.8013
rh쎯wie쎯	-10.8013
aiyk쎯cybc쎯	-10.8014
mhnf쎯kv쎯	-10.8017
쎁쎂rmae쎯rw쎯iq쎯	-10.8018
h쎯iq쎯y쎯	-10.8019
yff쎯khug0쎯	-10.8019
sww	-10.8019
wct쎯tfih쎯yh쎯	-10.8022
gbnm3쎯	-10.8023
aef쎯vyg1쎯	-10.8024
tj쎯rf쎯rvq쎯	-10.8025
src쎯olf쎯od쎯	-10.8026
foag쎯tjh쎯	-10.8026
xmb쎯ea쎯qt쎯	-10.803
ove쎯	-10.8031
iyu0쎯gkkj쎯	-10.8033
mye쎯liy쎯	-10.8033
mrdf쎯kd쎯wfn쎯	-10.8038
qvyy1쎯ger쎯	-10.804
slg1쎯	-10.804
mgo쎯wx쎯	-10.8042
rmhg쎯	-10.8043
aiyk쎯gc쎯y쎯	-10.8045
rap쎯	-10.8047
mye쎯lf쎯aeeb0쎯	-10.8047
kxn쎯n쎯	-10.8048
aeeb0쎯lv쎯n쎯	-10.8049
oo	-10.8049
tfkc쎯duj쎯khay7쎯	-10.8049
tig쎯nv쎯tfc쎯	-10.8051
or쎯rw쎯y쎯	-10.8054
gss쎯ird쎯vnh쎯	-10.8054
aeeb0쎯gw쎯xi쎯	-10.8055
ix쎯nr쎯	-10.8055
wgkn1쎯”jt쎯	-10.8057
pwl쎯rc쎯	-10.806
wgkn1쎯쎁쎉쎈쎈od쎯	-10.8062
aeeb0쎯gc쎯mtjc1쎯	-10.8063
h쎯vc쎯fs쎯	-10.8065
ue쎯wgd쎯	-10.8065
mi쎯apl쎯	-10.8065
fknd쎯ujn쎯	-10.8066
xrgg0쎯	-10.8067
쎀ac쎯eu쎯ir쎯ngh쎯	-10.807
k쎯sfi쎯	-10.8071
isrg쎯	-10.8073
wgkn1쎯쎁쎉쎈쎄od쎯	-10.8074
pwuo쎯	-10.8074
qlx쎯wtx쎯u쎯rj쎯	-10.8075
jh쎯pyv쎯vey쎯	-10.8075
r쎯dgl쎯	-10.8078
iyy쎯)	-10.8078
kkak5쎯mb쎯	-10.8078
inbb1쎯	-10.808
ew쎯ydj쎯	-10.808
wgkn1쎯쎂쎀쎁쎃od쎯	-10.8081
lked쎯	-10.8084
쎅ir쎯ngh쎯aeeb0쎯	-10.8085
p쎯ytg쎯nv쎯	-10.8085
kkmw1쎯gah쎯b쎯	-10.8085
snff1쎯bu쎯el쎯	-10.8086
hayj쎯	-10.8087
ojh쎯kv쎯	-10.809
xd쎯qeaf2쎯	-10.8091
mkq쎯lt쎯wgkn1쎯	-10.8095
go쎯fu쎯ai쎯	-10.8096
wgkn1쎯쎁쎉쎉쎉od쎯	-10.81
rmae쎯쎁쎂thgt1쎯	-10.81
sw쎯fu쎯	-10.8101
lm쎯au쎯	-10.8103
w쎯ix쎯e쎯	-10.8103
a쎯hi쎯jc쎯tp쎯	-10.8103
ga	-10.8104
bi쎯ode쎯spx쎯dol쎯	-10.8107
ospc쎯n쎯	-10.8108
vt쎯kl쎯	-10.8108
rmae쎯쎃thgt1쎯	-10.8109
aiyk쎯p쎯	-10.8112
《》	-10.8112
tk	-10.8112
rvyo쎯xi쎯	-10.8112
fu쎯l쎯	-10.8114
s쎯ib쎯	-10.8114
쎁쎁rmae쎯rw쎯iq쎯	-10.8115
lab쎯	-10.8115
rnk쎯snan쎯jjyi0쎯	-10.8119
iy쎯i쎯pwit쎯	-10.8121
ojgr0쎯scw쎯	-10.8125
te쎯fum쎯	-10.8126
bgh쎯enu쎯	-10.8127
wt쎯ien쎯gl쎯dxj쎯	-10.8127
qy	-10.8128
nc쎯jvf쎯	-10.8128
kim쎯lbh쎯	-10.8128
auk쎯fvq쎯	-10.8129
krlo쎯sako쎯	-10.813
sb쎯oun쎯	-10.813
hkie쎯gw쎯aeeb0쎯	-10.8131
wtr쎯	-10.8132
m쎯um쎯p쎯	-10.8132
jf쎯kht쎯	-10.8133
khug0쎯tve쎯ob쎯	-10.8133
tfkc쎯n쎯p쎯	-10.8133
ywi쎯ywi쎯	-10.8134
쎃쎀ma쎯qyvg0쎯	-10.8134
wwv쎯gr쎯	-10.8135
tfkc쎯kv쎯	-10.8136
hbn쎯ofn쎯	-10.8136
aq	-10.8139
f쎯ql쎯aeeb0쎯	-10.814
p쎯rf쎯yv쎯	-10.814
sgk쎯xq쎯	-10.814
khom쎯wqfj쎯	-10.8141
vrg쎯ip쎯	-10.8142
mye쎯aaae쎯	-10.8143
oob쎯dp쎯p쎯	-10.8143
쎂gqtv3쎯	-10.8144
kkmw1쎯gah쎯aeeb0쎯	-10.8145
tf쎯uh쎯	-10.8145
ek쎯yh쎯	-10.8147
p쎯jm쎯n쎯	-10.8148
in쎯qt쎯p쎯	-10.815
xd쎯um쎯	-10.8152
wwkh3쎯ni쎯	-10.8153
rj쎯nbs쎯ujq쎯nyp쎯	-10.8154
fi쎯aymx0쎯	-10.8154
kfo쎯	-10.8155
wx쎯lrq쎯	-10.8155
rrr쎯nrn쎯	-10.8156
rwmc쎯	-10.8157
nsg쎯fs쎯	-10.816
tp쎯qu쎯q쎯ea쎯	-10.816
q쎯wsmy쎯qc쎯khay7쎯	-10.8161
qq쎯jdnn쎯	-10.8163
wgkn1쎯k쎯eh쎯	-10.8164
qtyc1쎯afwe1쎯	-10.8166
y2쎯	-10.8167
b쎯st쎯hv쎯	-10.8169
uh쎯vey쎯r쎯	-10.8172
bi쎯iqi쎯eg쎯	-10.8174
qa쎯ni쎯	-10.8175
awwy1쎯	-10.8177
wgkn1쎯쎁쎉쎈쎅od쎯	-10.8177
wgkn1쎯ptu쎯	-10.8179
r쎯nl쎯	-10.8179
tmq쎯	-10.818
uug쎯iuc쎯mta쎯jlj쎯	-10.8181
abr쎯wsmy쎯	-10.8183
ac쎯eu쎯	-10.8183
ka쎯	-10.8186
b쎯in쎯qt쎯sh쎯ekm쎯	-10.8188
〈	-10.8189
ii쎯ip쎯	-10.8189
juj쎯	-10.819
쎀쎀쎀	-10.8193
fft쎯	-10.8194
r쎯cw쎯	-10.8194
bt쎯dk쎯	-10.8195
쎁.쎇	-10.8195
fhdv쎯	-10.8196
aeeb0쎯vn쎯	-10.8198
qt쎯ji쎯tga쎯	-10.8198
qya쎯ghtp쎯	-10.8199
lm쎯qgk쎯	-10.82
bu쎯wgkn1쎯	-10.8203
pdx쎯jlj쎯	-10.8206
wnb쎯ifd쎯	-10.8209
ymgh쎯	-10.821
tx쎯qnf쎯yttg0쎯	-10.8211
쎃%	-10.8212
yo쎯ipvn쎯	-10.8213
sup쎯	-10.8213
aeeb0쎯k쎯ngh쎯	-10.8214
wtx쎯d쎯ynjg6쎯tga쎯	-10.8215
f쎯xo쎯	-10.8215
i쎯vnh쎯	-10.8216
bu쎯tfih쎯	-10.8221
ghc쎯kfg쎯	-10.8224
wxx쎯	-10.8224
ug쎯atte쎯	-10.8227
쎀.쎉	-10.8229
iilg쎯fa쎯	-10.8229
k쎯qsy쎯	-10.823
unu쎯tp쎯	-10.823
ujq쎯nyp쎯b쎯	-10.8232
xsg쎯	-10.8232
ih쎯ob쎯	-10.8234
xo쎯rvy쎯	-10.8235
jjyi0쎯ekgd쎯l쎯	-10.8235
rfy쎯wvgo7쎯	-10.8236
wgkn1쎯쎁쎉쎉쎇od쎯	-10.8237
qtun3쎯ni쎯	-10.8239
bt	-10.8239
mdri0쎯kkmw1쎯	-10.8241
ivc쎯《	-10.8242
ldn쎯khay7쎯	-10.8244
oft쎯yjl쎯	-10.8244
uh쎯aiyk쎯	-10.8244
hubp쎯fy쎯	-10.8246
bq쎯jrno1쎯	-10.8246
afwq0쎯tlv쎯	-10.8247
kffi쎯	-10.8252
j0쎯	-10.8255
iq쎯h쎯ub쎯d쎯	-10.8255
쎆.쎅	-10.8256
ir쎯s쎯	-10.8256
ybb쎯afw쎯	-10.8257
ebb쎯qc쎯	-10.8258
xxm쎯xr쎯	-10.826
ea쎯kvh쎯qrhg쎯	-10.8261
d쎯ynjg6쎯tuqj쎯vc쎯	-10.8261
av쎯dnu쎯	-10.8261
ybc쎯	-10.8263
p쎯qut쎯fjl쎯	-10.8263
ha	-10.8264
rwxn쎯vk쎯aeeb0쎯	-10.8264
wb쎯r쎯	-10.8264
bpx쎯iux쎯	-10.8267
sf쎯amdo1쎯	-10.8269
brg쎯vpm쎯	-10.8271
csh쎯kxmg쎯	-10.8272
vfi쎯iy쎯	-10.8274
lkc쎯	-10.8275
ybb쎯kw쎯ivw쎯	-10.8276
ai쎯lfi쎯vrg쎯《	-10.8278
pyq쎯g쎯	-10.828
dna쎯rw쎯	-10.8281
mr쎯uv쎯	-10.8282
go쎯qk쎯	-10.8282
tem쎯	-10.8282
gss쎯qr쎯	-10.8283
ph쎯kqy쎯	-10.8283
;쎁	-10.8284
wb쎯wgkn1쎯	-10.8286
ryi쎯igd쎯	-10.8286
ua쎯uv쎯	-10.8287
w쎯f쎯ip쎯	-10.829
vnb쎯aj쎯nl쎯ea쎯	-10.8292
ftn쎯	-10.8294
kpe쎯uv쎯	-10.8294
p쎯sb쎯udl쎯	-10.8295
uey쎯	-10.8296
kv쎯khug0쎯	-10.8296
ip쎯ptf쎯	-10.8297
qb쎯ai쎯jr쎯	-10.8299
ejhh쎯hbn쎯ni쎯p쎯	-10.83
jynb1쎯	-10.8302
ujq쎯jntj쎯qt쎯	-10.8303
gmi쎯igd쎯	-10.831
jgm쎯ql쎯	-10.8312
nl쎯rj쎯	-10.8312
ib쎯p쎯	-10.8315
f쎯rhb쎯	-10.8316
noof쎯vc쎯jc쎯uxv쎯	-10.8318
jgig1쎯bskg쎯	-10.8318
at	-10.8318
vi쎯kkk쎯	-10.8319
d쎯aaae쎯kre쎯	-10.8324
aeeb0쎯cc쎯n쎯	-10.8326
or쎯qtwj2쎯	-10.8328
ua쎯wct쎯	-10.8329
lll쎯pe쎯	-10.8332
wie쎯meto1쎯	-10.8335
i쎯vyg1쎯	-10.8335
qr쎯mf쎯	-10.8336
mm	-10.8336
:쎂	-10.8339
wgkn1쎯’”	-10.8341
bng쎯yoj쎯	-10.8341
is쎯ib쎯	-10.8344
e쎯쎁	-10.8346
vfg쎯rt쎯	-10.8347
oi쎯cw쎯	-10.8349
igo쎯r쎯	-10.8349
bn쎯qb쎯	-10.8352
sb쎯pudd1쎯	-10.8352
쎁쎉쎂쎆od쎯	-10.836
wsmy쎯xy쎯	-10.8362
ibk쎯	-10.8362
or쎯wsmy쎯	-10.8362
khay7쎯쎉쎇쎈쎇	-10.8364
wl쎯qlga쎯dx쎯	-10.8364
whh쎯kq쎯	-10.8367
bxxg쎯pwx쎯	-10.8372
sn쎯au쎯	-10.8376
gah쎯dp쎯p쎯	-10.8377
t쎯s쎯u쎯xfw쎯	-10.8377
e쎯khay7쎯	-10.8378
wx쎯od쎯iq쎯vcu0쎯i	-10.8378
kq쎯m쎯oun쎯	-10.8379
nv쎯jeb쎯	-10.8381
쎃.쎂	-10.8383
ma쎯hit쎯	-10.8383
kvh쎯qrhg쎯ujq쎯	-10.8384
ipgw쎯	-10.8384
f쎯far쎯	-10.8385
fu쎯aeeb0쎯	-10.8386
gw쎯t쎯gss쎯	-10.8387
emh쎯qrhg쎯	-10.8387
rqqy2쎯쎃khug0쎯	-10.8388
wq쎯src쎯	-10.839
m쎯o쎯el쎯fwf쎯	-10.8393
r쎯gss쎯fs쎯	-10.8393
pwat1쎯	-10.8394
lx쎯ma쎯i쎯cqq쎯	-10.8394
hu쎯yjl쎯	-10.8395
khay7쎯q쎯t쎯	-10.8399
svi쎯	-10.84
qwmc1쎯qc쎯e쎯	-10.8401
wfvy쎯	-10.8401
v쎯xj쎯	-10.8401
jwgq1쎯	-10.8402
vfi쎯xi쎯	-10.8403
ea쎯ujq쎯nyp쎯	-10.8404
giu쎯	-10.8404
ap쎯wl쎯	-10.8405
xj쎯knuv쎯	-10.8405
opsh0쎯ytmy1쎯	-10.8408
gw쎯rke쎯	-10.8409
khug0쎯avw쎯igo쎯	-10.8411
ce쎯uf쎯	-10.8412
dna쎯ed쎯qn쎯	-10.8412
xq쎯pq쎯	-10.8417
ud쎯sr쎯	-10.8418
fsy쎯ks쎯	-10.8418
ldj쎯ouey1쎯	-10.8421
쎀쎀쎀ac쎯eu쎯mm쎯	-10.8424
kre쎯tfih쎯	-10.8424
dyth0쎯	-10.8424
ly쎯fq쎯	-10.8426
wgkn1쎯쎁쎉쎉쎅od쎯	-10.8426
iy쎯qgk쎯	-10.8429
xi쎯yss쎯쎅	-10.843
bupn쎯uug쎯	-10.843
ce쎯vi쎯	-10.8436
cybc쎯ipwm1쎯mt쎯	-10.844
laf쎯yff쎯	-10.8441
tdw쎯aaae쎯	-10.8442
jfbn쎯	-10.8442
jvk쎯	-10.8445
ls쎯dm쎯	-10.8445
gu쎯iqi쎯	-10.8446
wtr쎯wt쎯igd쎯	-10.8447
khug0쎯mrdf쎯t쎯	-10.8448
xg쎯w쎯	-10.8449
giq쎯mat쎯	-10.8451
gq쎯etuh쎯	-10.8451
thn쎯nft쎯	-10.8451
fnan0쎯tmq쎯	-10.8453
kcq쎯	-10.8456
xep쎯ikgv쎯	-10.8457
f쎯mhnf쎯	-10.8458
aeeb0쎯nc쎯re쎯	-10.8458
uoo쎯wi쎯	-10.8459
bl쎯qn쎯	-10.846
ew쎯nnf쎯	-10.8461
wpg쎯jrff쎯	-10.8461
wsmy쎯ip쎯	-10.8464
bvhn쎯dnf쎯	-10.8467
aeeb0쎯dgl쎯	-10.8467
q쎯khpk1쎯	-10.847
geqc쎯mkq쎯	-10.847
qb쎯ai쎯	-10.8471
yff쎯l쎯	-10.8471
fu쎯fy쎯	-10.8473
jl쎯kaq쎯	-10.8478
kpd쎯aeeb0쎯n쎯	-10.8478
uxl쎯sttk쎯	-10.848
nsh쎯or쎯nq쎯gyy쎯	-10.8481
tvhp쎯rpl쎯	-10.8482
bmf쎯	-10.8483
aeeb0쎯jgm쎯	-10.8484
ywso쎯nls쎯	-10.8487
g쎯fgi쎯	-10.8495
wgkn1쎯”xuv쎯	-10.8498
spx쎯yh쎯	-10.8498
bpx쎯xe쎯	-10.8499
dty1쎯	-10.8501
atte쎯wx쎯	-10.8502
ifd쎯yrtj1쎯	-10.8503
ags쎯xep쎯	-10.8506
nwy쎯	-10.8508
oju쎯yh쎯	-10.8508
mt쎯ea쎯ivw쎯	-10.8508
spx쎯w쎯	-10.8509
qtyy2쎯	-10.851
nku쎯yd쎯	-10.8511
uh쎯yt쎯gah쎯xant쎯	-10.8511
ay쎯ai쎯	-10.8511
wgkn1쎯쎁쎉쎉쎆od쎯	-10.8513
쎉iyy쎯	-10.8515
tff0쎯	-10.8518
tga쎯nl쎯	-10.8518
d쎯ynjg6쎯gah쎯ji쎯	-10.8519
hr쎯	-10.852
).	-10.852
ek쎯wf쎯《	-10.8521
ot쎯swwq1쎯	-10.8522
p쎯f쎯wb쎯	-10.8525
ox쎯ji쎯	-10.8525
mjv쎯nskk쎯	-10.8525
p쎯tfih쎯wqfj쎯	-10.8526
f쎯iw쎯	-10.8526
khpk1쎯aj쎯	-10.8526
uyy쎯xr쎯	-10.8527
mt쎯ivp쎯	-10.8529
xu쎯qgs쎯y쎯	-10.8529
dkkf1쎯	-10.8531
xd쎯ode쎯	-10.8531
tvf쎯qi쎯	-10.8531
wb쎯du쎯qt쎯rj쎯hu쎯	-10.8532
yff쎯jeg쎯	-10.8533
kul쎯pb쎯	-10.8534
dudu쎯gijf쎯	-10.8534
yc	-10.8535
iwx쎯tg쎯	-10.8536
tga쎯uc쎯	-10.8536
쎁hubp쎯aeeb0쎯	-10.8536
dqw쎯sfb쎯d쎯or쎯	-10.8536
aeeb0쎯nwe쎯kv쎯	-10.8537
ago쎯”	-10.854
sy쎯all쎯	-10.854
mwga3쎯	-10.8541
sdm쎯auu쎯	-10.8541
uv쎯ngg쎯	-10.8543
kq쎯hnu쎯	-10.8545
lgk쎯	-10.8547
gqad2쎯	-10.8549
ea쎯gyy쎯	-10.8549
taw쎯vq쎯	-10.855
rmae쎯쎂thgt1쎯	-10.8553
yjl쎯tx쎯	-10.8553
rmae쎯쎄thgt1쎯	-10.8554
ayk쎯	-10.8554
dccc쎯ea쎯b쎯	-10.8555
aq쎯cw쎯	-10.8557
yssj6쎯	-10.8557
hx쎯	-10.856
xj쎯xi쎯	-10.8561
gc쎯dk쎯fs쎯p쎯	-10.8561
syn쎯	-10.8563
xi쎯he쎯	-10.8566
lw	-10.857
exd쎯	-10.8571
wvgo7쎯qh쎯	-10.8572
eu쎯vk쎯aeeb0쎯	-10.8573
쎁mtjy11쎯	-10.8574
drj0쎯qc쎯e쎯	-10.8575
yltc쎯jfh1쎯mcqb쎯	-10.8575
iuc쎯pwtn1쎯	-10.8577
zzzy0쎯	-10.8578
dgg쎯geqc쎯	-10.8579
c쎯rke쎯	-10.858
ejt쎯sdha쎯	-10.8581
hp쎯igj쎯	-10.8581
qi쎯ynge쎯	-10.8582
쎄r쎯	-10.8583
qlx쎯jjyi0쎯kv쎯	-10.8587
nr쎯wgkn1쎯	-10.8588
ay쎯wf쎯aeeb0쎯	-10.8588
yd쎯dp쎯v쎯ay쎯	-10.8589
moo쎯afso쎯khay7쎯	-10.859
ylkm1쎯l쎯	-10.859
um쎯ir쎯be쎯	-10.859
nl쎯njdf쎯	-10.8591
jadt1쎯	-10.8592
m쎯o쎯sx쎯kam쎯	-10.8593
or쎯tf쎯	-10.8593
itt쎯txx쎯	-10.8596
fusf1쎯	-10.8597
xim쎯	-10.8601
qun쎯yxwo0쎯me쎯	-10.8601
lfof18쎯	-10.8605
dfn쎯xq쎯p쎯	-10.8607
p쎯eecs쎯p쎯	-10.8608
khay7쎯vffy쎯ybb쎯>	-10.8608
vk쎯p쎯	-10.8609
쎃r쎯aeeb0쎯	-10.8609
sgpm0쎯	-10.8613
a쎯waw쎯	-10.8613
bm쎯dk쎯	-10.8616
iy쎯ud쎯mqkf쎯	-10.8617
rl쎯	-10.8617
ih쎯dm쎯	-10.8618
sn쎯uh쎯	-10.8619
wtx쎯kpd쎯qfk쎯	-10.8621
ugwe쎯qtb쎯	-10.8621
kqn쎯xd쎯	-10.8621
ff쎯fo쎯wgkn1쎯	-10.8622
sb쎯udl쎯gyy쎯wrw쎯	-10.8624
쎁쎀쎄	-10.8624
eti쎯rvq쎯	-10.8625
쎂ac쎯eu쎯ir쎯ngh쎯	-10.8628
jc쎯qc쎯	-10.8628
ugi쎯	-10.8633
rca쎯n쎯f쎯nc쎯	-10.8633
lds쎯	-10.8634
ei쎯mdm쎯	-10.8634
whdy쎯kl쎯	-10.8635
jt쎯bq쎯	-10.8637
md쎯nq쎯	-10.8637
opsh0쎯aau쎯	-10.8638
qq	-10.8638
(sa쎯	-10.8639
쎂pv쎯	-10.8639
aeeb0쎯쎁쎉쎈쎄od쎯	-10.864
vay쎯ouey1쎯	-10.8641
lk쎯knuv쎯	-10.8642
쎂mm쎯	-10.8645
sks쎯imy쎯q쎯	-10.8645
jjgf2쎯ofhw0쎯	-10.8648
mtjc1쎯u쎯yd쎯e쎯	-10.8648
khug0쎯al쎯sset쎯	-10.865
he쎯yoj쎯	-10.8651
nsh쎯jp쎯jjyi0쎯	-10.8652
ljh쎯qk쎯aeeb0쎯	-10.8652
eu쎯rvq쎯	-10.8655
gg쎯	-10.8655
aeeb0쎯f쎯sw쎯	-10.8655
iw쎯fw쎯	-10.8656
wgkn1쎯uc쎯hu쎯	-10.866
vnh쎯jh쎯	-10.866
qtgg10쎯	-10.866
쎁쎀쎆	-10.8661
yff쎯sj쎯	-10.8663
mo쎯pe쎯	-10.8663
khug0쎯fs쎯d쎯	-10.8667
vfg쎯w쎯	-10.867
sfc쎯p쎯	-10.8671
sgk쎯e쎯“	-10.8672
mkq쎯ni쎯yh쎯	-10.8672
aeeb0쎯k쎯eh쎯	-10.8673
xl쎯iyv쎯	-10.8674
rmae쎯쎂쎃thgt1쎯	-10.8674
wb쎯ai쎯	-10.8674
p쎯tp쎯wl쎯tdw쎯	-10.8675
njdf쎯aeeb0쎯	-10.8675
pa쎯mu쎯	-10.8676
vq쎯rj쎯ks쎯lf쎯qt쎯	-10.8676
nkeg쎯	-10.8678
mwi쎯uh쎯	-10.8678
f쎯frj쎯	-10.8679
jj쎯jj쎯	-10.868
ftf쎯	-10.8682
c쎯jjyi0쎯	-10.8682
aeeb0쎯ym쎯hsy쎯	-10.8682
l1쎯	-10.8684
iy쎯qgk쎯xg쎯	-10.8684
ryce0쎯	-10.8687
tfkc쎯duj쎯w쎯	-10.8688
mhnf쎯yd쎯lf쎯	-10.8688
aeeb0쎯쎂쎀쎀쎄od쎯	-10.8689
ld쎯j쎯	-10.869
wl쎯ks쎯	-10.8692
쎈ac쎯eu쎯ir쎯ngh쎯	-10.8693
vpm쎯ks쎯	-10.8696
pv쎯av쎯	-10.8696
wyw쎯	-10.8698
쎇ac쎯eu쎯ir쎯ngh쎯	-10.87
sag쎯fe쎯	-10.87
k쎯jw쎯	-10.87
aeeb0쎯hko쎯ue쎯	-10.87
sb쎯sqyn쎯	-10.8702
dcy쎯tg쎯	-10.8705
sffc쎯yff쎯	-10.8705
pjd쎯ao쎯y쎯	-10.8706
jfmf쎯j쎯	-10.8709
gah쎯ji쎯b쎯	-10.8709
bgm쎯nl쎯p쎯	-10.8709
or쎯kre쎯wgkn1쎯	-10.8709
xd쎯avw쎯	-10.8709
xi쎯sx쎯	-10.871
쎉rmae쎯rw쎯iq쎯	-10.8712
f쎯uff쎯	-10.8716
mhyx쎯iyjf2쎯wl쎯	-10.8718
clny쎯	-10.8718
쎅쎀mm쎯	-10.8718
isgg2쎯	-10.872
hu쎯ud쎯	-10.8722
pjv쎯rqci5쎯aeeb0쎯	-10.8723
st쎯ib쎯	-10.8723
p쎯igj쎯o쎯	-10.8723
rmae쎯쎃쎀thgt1쎯	-10.8725
hci쎯mat쎯p쎯	-10.8725
xxf쎯pu쎯	-10.8726
khug0쎯mt쎯hv쎯	-10.8726
hqkg0쎯nr쎯	-10.8726
rtt1쎯	-10.8727
jqak쎯hsy쎯	-10.873
dmly쎯	-10.8732
ebb쎯fc쎯	-10.8732
qiqn1쎯jt쎯	-10.8733
go쎯igj쎯	-10.8734
nge쎯	-10.8735
ugxi쎯	-10.8736
td	-10.8736
(쎂	-10.8737
tuqj쎯vc쎯ea쎯sl쎯	-10.8738
pwx쎯ekgd쎯	-10.8739
xynt0쎯wa쎯	-10.874
qc쎯taho0쎯	-10.8741
jccn쎯emg쎯	-10.8741
qi쎯tf쎯	-10.8742
xmqm쎯brt쎯	-10.8744
ai쎯wd쎯jw쎯djdk0쎯	-10.8746
rmae쎯쎂쎂thgt1쎯	-10.8747
qdb쎯	-10.875
qut쎯w쎯	-10.8752
au	-10.8752
qxxr쎯	-10.8754
sss쎯	-10.8756
aih쎯	-10.8756
cybc쎯kxdm0쎯	-10.8757
wyk쎯ssq쎯	-10.8757
tyac쎯sgk쎯e쎯“	-10.8757
taw쎯fgi쎯	-10.8758
xxgp1쎯	-10.876
jm쎯kv쎯	-10.8761
^	-10.8764
km쎯khui5쎯	-10.8764
rw쎯pumk1쎯p쎯	-10.8764
tdw쎯kd쎯p쎯	-10.8765
wq쎯eh쎯	-10.8765
ojgr0쎯hlqj0쎯	-10.8765
aeeb0쎯hp쎯n쎯	-10.8765
ay쎯rxl쎯yh쎯	-10.8765
jqak쎯pydg0쎯	-10.8766
a쎯lu쎯	-10.8766
to	-10.8767
thgt1쎯tm쎯》	-10.8768
kkho쎯dpq쎯	-10.8771
”sy쎯	-10.8771
mhfh0쎯	-10.8773
khay7쎯쎈	-10.8773
qftt1쎯	-10.8774
sj쎯el쎯	-10.8774
rw쎯dm쎯	-10.8774
veg쎯snan쎯jjyi0쎯	-10.8775
kh쎯	-10.8775
tdw쎯kd쎯ujq쎯nyp쎯	-10.8778
sh쎯xxf쎯	-10.8778
he쎯ojgr0쎯	-10.8778
t쎯ldn쎯	-10.8781
ks쎯qt쎯	-10.8781
spv쎯	-10.8782
kkc쎯	-10.8783
mc쎯jl쎯vey쎯	-10.8783
rmae쎯쎂쎁thgt1쎯	-10.8784
tlu쎯xant쎯	-10.8784
aeeb0쎯pa쎯ub쎯y쎯	-10.8784
yss쎯td쎯y쎯vh쎯fqu쎯	-10.8785
ua쎯aymx0쎯	-10.8785
wuy쎯lnt쎯	-10.8788
lnt쎯xxf쎯	-10.8789
wtc쎯jqt쎯	-10.879
rj쎯nbs쎯b쎯	-10.879
qopl쎯aeeb0쎯	-10.879
wjm쎯	-10.8791
a쎯fgj쎯	-10.8791
iuc쎯yd쎯dp쎯v쎯ay쎯	-10.8793
dccc쎯yqt쎯khug0쎯	-10.8793
qn쎯y쎯	-10.8794
tgmw0쎯	-10.8795
j쎯rke쎯	-10.8796
쎈쎀쎀쎀	-10.8796
ldn쎯uyg쎯ea쎯	-10.8796
jt쎯btbh10쎯	-10.8797
gc쎯j쎯p쎯	-10.88
aeeb0쎯a쎯rv쎯	-10.8801
xyxe2쎯tdw쎯	-10.8801
elw쎯	-10.8802
fw쎯ljh쎯	-10.8804
ig	-10.8809
ipwm1쎯xxx쎯	-10.8813
bjy쎯tug쎯	-10.8815
sbn쎯yr쎯	-10.8816
yad쎯	-10.8817
sfhw쎯uoo쎯	-10.8818
q쎯t쎯qtps1쎯wrw쎯	-10.8821
......	-10.8821
yjgo쎯dx쎯l쎯i쎯gf쎯	-10.8822
iqi쎯p쎯	-10.8823
iq쎯h쎯si쎯ni쎯	-10.8823
》r쎯dx쎯ua쎯f쎯	-10.8826
x쎯iw쎯cc쎯	-10.8828
cybc쎯or쎯p쎯	-10.8829
ofn쎯gq쎯	-10.8829
wqr쎯uug쎯	-10.883
vt쎯igo쎯p쎯	-10.8833
krag1쎯qb쎯	-10.8834
ykf쎯xep쎯	-10.8834
igu쎯iq쎯	-10.8835
(,)	-10.8838
rj쎯aw쎯	-10.884
yb쎯j쎯	-10.884
qtc쎯	-10.8842
hg쎯tuqj쎯qqb쎯	-10.8844
axx쎯	-10.8845
pumk1쎯)	-10.8846
ode쎯qoug0쎯	-10.8849
n쎯f쎯xq쎯	-10.8851
wgkn1쎯쎁쎉쎉쎄od쎯	-10.8851
aeeb0쎯쎁쎉쎈쎅od쎯	-10.8854
drj0쎯pb쎯	-10.8856
nsh쎯or쎯in쎯	-10.8858
apl쎯o쎯	-10.8858
쎈쎀od쎯dk쎯	-10.8862
ei쎯rs쎯	-10.8866
rvyo쎯vk쎯yd쎯dp쎯	-10.8867
ea쎯kd쎯bi쎯jvf쎯	-10.8867
qb쎯mn쎯	-10.8867
luwy쎯iccc2쎯vey쎯	-10.8868
p쎯qtps1쎯wrw쎯	-10.8868
ki쎯av쎯tc쎯	-10.8872
p쎯vt쎯jffb쎯	-10.8873
hxye쎯kkmw1쎯	-10.8874
tfih쎯wgkn1쎯	-10.8875
vu쎯	-10.8875
tp쎯qu쎯ae쎯pb쎯	-10.8877
nvyh쎯ydj쎯uh쎯	-10.8878
tyac쎯pb쎯e쎯“	-10.8878
ewmw쎯wx쎯	-10.8879
쎁hubp쎯	-10.8879
vpm쎯aymx0쎯	-10.8885
xxy쎯tkj쎯	-10.8886
kih쎯	-10.8886
f쎯eu쎯	-10.8886
wgkn1쎯”(쎂).	-10.8886
nsg쎯vn쎯	-10.8887
kog쎯yff쎯jjyi0쎯	-10.8888
fft쎯lbh쎯	-10.8889
q쎯t쎯r쎯s쎯nl쎯ea쎯	-10.889
xmqm쎯qtwj2쎯	-10.889
ty	-10.8891
wtx쎯qfk쎯	-10.8897
oi쎯jdh쎯	-10.8898
cs쎯ih쎯	-10.8901
f쎯yv쎯	-10.8901
w쎯gw쎯t쎯	-10.8902
ux쎯x쎯	-10.8902
k쎯tfih쎯	-10.8904
”pb쎯iyy쎯wgkn1쎯	-10.8904
hsfi1쎯ekgd쎯	-10.8906
ho쎯wwwb0쎯	-10.8907
of쎯xy쎯wsmy쎯fs쎯	-10.8908
khl쎯	-10.8909
쎆ac쎯eu쎯ir쎯ngh쎯	-10.891
aeeb0쎯jc쎯uxv쎯	-10.8912
wn	-10.8916
x쎯wwv쎯	-10.8917
mc쎯th쎯	-10.892
kv쎯ujl쎯	-10.892
xnf쎯	-10.8921
tlg쎯	-10.8922
fey쎯ax쎯	-10.8923
q쎯ojgr0쎯	-10.8924
xcrh쎯jqug쎯	-10.8924
》)	-10.8925
lx쎯ai쎯vey쎯	-10.8927
lhhs쎯	-10.8928
(ivc쎯vip쎯)	-10.8928
jq쎯qk쎯aeeb0쎯	-10.893
wtx쎯qt쎯	-10.893
hm쎯w쎯	-10.8932
yjlg쎯wln쎯	-10.8933
rv쎯eclb쎯	-10.8933
쎀쎀쎀쎀	-10.8937
iyu0쎯nx쎯khay7쎯	-10.8938
aeeb0쎯n쎯iw쎯	-10.8938
i0쎯	-10.8939
rmae쎯쎂쎇thgt1쎯	-10.8941
lyi쎯	-10.8944
vq쎯rj쎯ea쎯ivw쎯	-10.8945
쎂쎀쎀pv쎯	-10.8946
wk쎯yv쎯	-10.8946
aeeb0쎯wxx쎯ivy쎯	-10.8947
musg0쎯	-10.8949
ea쎯ivw쎯ivw쎯kv쎯	-10.8949
kam쎯	-10.895
snan쎯bu쎯	-10.8951
nln쎯ld쎯	-10.8952
go쎯uh쎯	-10.8952
r쎯pa쎯	-10.8954
cthc쎯iccc2쎯kpe쎯	-10.8955
p쎯kre쎯ytmy1쎯	-10.8959
rn쎯wl쎯	-10.896
vnh쎯rj쎯	-10.896
ghtp쎯khug0쎯	-10.8961
vey쎯aeeb0쎯	-10.8961
tlu쎯mrdf쎯p쎯	-10.8963
aeeb0쎯jfmf쎯	-10.8967
g쎯wwkh3쎯	-10.8969
quq쎯	-10.8969
aeeb0쎯tlv쎯	-10.897
aeeb0쎯bfq쎯nsh쎯	-10.897
쎄.쎀	-10.8971
xi쎯yss쎯fa쎯	-10.8972
fv쎯n쎯	-10.8972
p쎯yd쎯faw쎯	-10.8975
vpm쎯ks쎯wqg쎯rke쎯	-10.8977
qt쎯jm쎯	-10.8979
oft쎯sfk쎯	-10.8982
oe쎯hfh쎯	-10.8982
aspq쎯ngh쎯	-10.8986
a쎯fhck쎯	-10.8987
aeeb0쎯yff쎯qi쎯	-10.8988
aps쎯xl쎯ruk쎯	-10.8989
sa	-10.8992
fqw쎯waw쎯	-10.8993
ynhc1쎯	-10.8993
ypt쎯	-10.8994
gjnb쎯kfkv쎯	-10.8995
쎀rap쎯mm쎯	-10.8997
did쎯nrn쎯	-10.8998
ity1쎯uyg쎯	-10.8999
qt쎯qlx쎯qt쎯kv쎯	-10.9
dpq쎯wwkh3쎯	-10.9003
i쎯mb쎯p쎯	-10.9004
쎄mtjy11쎯	-10.9004
ayf쎯vc쎯	-10.9007
p쎯ujq쎯i쎯	-10.9008
rmae쎯쎂쎄thgt1쎯	-10.9012
′′	-10.9013
khay7쎯쎉	-10.9013
f쎯gu쎯	-10.9013
noof쎯vc쎯ivc쎯vip쎯	-10.9014
rmae쎯쎁쎉thgt1쎯	-10.9018
gc쎯trae1쎯	-10.9018
bpf쎯	-10.9019
aeeb0쎯iwf쎯vc쎯yh쎯	-10.9019
aeeb0쎯cc쎯xl쎯v쎯	-10.9023
tf쎯xqiy쎯	-10.9024
aeeb0쎯쎁쎉쎉쎆od쎯	-10.9026
ipq쎯	-10.9028
ru쎯eu쎯	-10.9028
fnan0쎯ed쎯r쎯	-10.9029
tfkc쎯qu쎯	-10.9031
wgkn1쎯jm쎯v쎯	-10.9034
uc쎯ek쎯	-10.9034
l쎯jo쎯ce쎯	-10.9035
ywnn1쎯	-10.9036
tuqj쎯wb쎯aeeb0쎯	-10.9037
w쎯otf쎯ubae쎯	-10.904
qtyq0쎯	-10.9044
khug0쎯opsh0쎯	-10.9044
da쎯od쎯	-10.9045
sj쎯yttg0쎯	-10.9047
oft쎯i쎯	-10.9048
wp쎯r쎯	-10.9048
aogf쎯	-10.9049
aeeb0쎯xj쎯iy쎯	-10.905
pm쎯	-10.905
oght쎯by쎯	-10.9051
dgd쎯lft쎯	-10.9054
smg쎯fknd쎯ujn쎯	-10.9056
qlx쎯ujq쎯nyp쎯lf쎯	-10.9057
lm쎯ueh쎯	-10.9058
hey쎯nsh쎯opsh0쎯	-10.9058
mrdf쎯p쎯	-10.9059
fig쎯bda쎯	-10.906
(qgk쎯q쎯	-10.9062
qt쎯qt쎯kv쎯	-10.9062
쎃oey쎯	-10.9063
mtfk1쎯qgk쎯	-10.9066
cybc쎯p쎯	-10.9066
qww쎯mr쎯	-10.9069
ud쎯hv쎯	-10.907
a쎯vke쎯	-10.9071
쎃/	-10.9072
hw쎯fs쎯	-10.9073
mgt쎯ld쎯	-10.9074
aeeb0쎯eaqt쎯	-10.9074
qc쎯ytmy1쎯	-10.9074
go쎯nbs쎯w쎯	-10.9079
lk쎯ode쎯	-10.908
dfn쎯bda쎯	-10.9081
ile쎯pb쎯	-10.9081
km쎯ai쎯	-10.9082
aeeb0쎯khpk1쎯iy쎯	-10.9082
mfj쎯vyg1쎯bwt쎯	-10.9083
쎇ir쎯ngh쎯	-10.9083
kd	-10.9084
qfk쎯qoyd1쎯	-10.9088
쎉쎅%	-10.9091
dh쎯kv쎯	-10.9093
in쎯qt쎯ea쎯	-10.9094
nl쎯gxxe쎯jjyi0쎯	-10.9095
lnt쎯mhnf쎯	-10.9096
《ld쎯aj쎯ybb쎯	-10.9096
q쎯vt쎯	-10.9098
x쎯mb쎯vc쎯	-10.9099
kt쎯	-10.9099
stt쎯v쎯	-10.91
i쎯pwit쎯wgkn1쎯	-10.9102
dfe쎯ivc쎯	-10.9106
nbs쎯lbh쎯	-10.9106
qtun3쎯si쎯fs쎯	-10.9106
쎃mm쎯	-10.9106
he쎯tyt쎯w쎯	-10.9107
p쎯f쎯uxt쎯	-10.9111
쎂쎀-	-10.9112
p쎯wdjq쎯hu쎯wgkn1쎯	-10.9118
w쎯f쎯wb쎯v쎯	-10.912
ahnu3쎯yh쎯	-10.912
쎂쎀%	-10.9121
s쎯kth쎯	-10.9122
p쎯moi쎯mta쎯	-10.9124
ynge쎯kl쎯	-10.9125
ile쎯n쎯	-10.9127
qvyy1쎯qtj쎯	-10.9128
wgj쎯	-10.913
aeeb0쎯mgt쎯udb쎯	-10.9131
wgd쎯wr쎯	-10.9133
f쎯ytt쎯	-10.9134
khtx0쎯	-10.9134
ihf쎯wyi쎯	-10.9134
쎆iyy쎯	-10.9134
buj쎯ydj쎯	-10.9134
g쎯kwnp쎯	-10.9136
>>	-10.9138
vvet쎯gw쎯	-10.9139
ffuj쎯ku쎯	-10.914
eamy2쎯aeeb0쎯	-10.9142
hq	-10.9142
rh	-10.9142
noof쎯vc쎯wsmy쎯fs쎯	-10.9142
hjxj쎯	-10.9142
ncw쎯	-10.9143
eecs쎯p쎯w쎯	-10.9146
e쎯mr쎯	-10.9146
ewmw쎯el쎯fwf쎯	-10.9147
re쎯n쎯	-10.9148
hcw쎯m쎯rf쎯	-10.915
ua쎯q쎯aeeb0쎯	-10.915
fy쎯aeeb0쎯	-10.9152
쎅쎀%	-10.9153
fd쎯yaqh0쎯	-10.9154
sd쎯sfhw쎯	-10.9154
ba쎯f쎯qc쎯	-10.9154
쎅iyy쎯	-10.9154
tfns1쎯foag쎯	-10.9156
jm쎯ib쎯	-10.9157
veg쎯bu쎯	-10.9159
day쎯tdjn3쎯	-10.9159
sf쎯miej쎯	-10.9161
kkmy쎯	-10.9164
f쎯xq쎯o쎯	-10.9165
ax쎯vcu0쎯	-10.9165
bq쎯fw쎯	-10.9166
xj쎯nl쎯	-10.9167
rh쎯ifd쎯	-10.9167
lm쎯xi쎯	-10.9167
lt쎯jtu쎯	-10.9168
쎁쎀쎂쎄	-10.917
l쎯jjyi0쎯iw쎯wn쎯	-10.9171
ibwc쎯	-10.9173
yd쎯bnn1쎯	-10.9174
wgkn1쎯쎁쎉쎈쎆od쎯	-10.9174
tmjw쎯dp쎯	-10.9175
hf쎯	-10.9176
j쎯qgk쎯	-10.9177
w쎯dna쎯j쎯	-10.9178
(쎃	-10.918
tel쎯xtg쎯	-10.9182
iq쎯fs쎯	-10.9185
xd쎯yk쎯	-10.9185
-쎁쎆	-10.9186
lx쎯iue쎯	-10.9187
aeeb0쎯xj쎯sojh쎯	-10.9187
tddk쎯	-10.9188
ptf쎯mn쎯ba쎯f쎯	-10.9189
쎁rmae쎯쎁thgt1쎯	-10.9189
l쎯jjyi0쎯ir쎯yoq쎯	-10.919
ua쎯pb쎯	-10.9193
kul쎯	-10.9193
dk쎯gf쎯gss쎯	-10.9193
lm쎯ofn쎯	-10.9195
h쎯qoyd1쎯	-10.9197
aeeb0쎯qbc쎯	-10.9202
쎁-쎂	-10.9204
iq쎯thgt1쎯khay7쎯	-10.9207
a쎯igj쎯o쎯	-10.9208
aeeb0쎯ptu쎯od쎯	-10.9208
bwg쎯chy쎯	-10.9212
aiyk쎯qt쎯	-10.9213
el쎯g쎯	-10.9214
qjq쎯auu쎯	-10.9215
g쎯qc쎯	-10.9215
bq쎯wsmy쎯	-10.9215
dd	-10.9217
p쎯ii쎯ix쎯	-10.9217
wi쎯tga쎯	-10.9219
yd쎯dp쎯aeeb0쎯	-10.9219
y쎯aps쎯wx쎯	-10.922
rfn쎯qjq쎯	-10.9221
qeaf2쎯kkmw1쎯	-10.9222
qlx쎯m쎯oun쎯wgkn1쎯	-10.9223
bgm쎯n쎯	-10.9224
쎆r쎯	-10.9226
ba쎯wq쎯ij쎯	-10.9227
lq쎯	-10.9228
()p쎯	-10.9231
kog쎯yff쎯	-10.9231
rvh쎯	-10.9233
wl쎯tdw쎯avw쎯igo쎯	-10.9234
mep쎯yttg0쎯	-10.9235
vip쎯hpg쎯	-10.924
ptu쎯st쎯	-10.9241
khug0쎯ghad쎯	-10.9241
qlx쎯kq쎯kv쎯	-10.9242
xep쎯kht쎯	-10.9242
쎁쎁쎂	-10.9244
ikgv쎯gsyy쎯	-10.9246
vcu0쎯g쎯	-10.9246
iq쎯uyw쎯atm쎯vcc쎯	-10.9246
ivy쎯yh쎯ndhf쎯bu쎯	-10.9253
q쎯cw쎯wgkn1쎯	-10.9253
cc쎯si쎯	-10.9255
ofn쎯ni쎯	-10.926
uy쎯hg쎯	-10.926
qiqh쎯	-10.926
od쎯so쎯qb쎯mn쎯	-10.9261
xdi쎯	-10.9262
ib쎯is쎯	-10.9263
kfq쎯	-10.9264
aeeb0쎯쎁쎉쎉쎈od쎯	-10.9266
icy쎯o쎯	-10.9266
쎂.쎇	-10.9266
cw쎯q쎯	-10.9268
ujq쎯nyp쎯eu쎯vn쎯e쎯	-10.9271
amwn4쎯vey쎯	-10.9272
fgi쎯khug0쎯	-10.9272
aeeb0쎯mtfk1쎯th쎯	-10.9272
nhkn1쎯	-10.9274
xcrh쎯	-10.9274
trae1쎯uug쎯	-10.9275
rw쎯pumk1쎯i쎯mb쎯	-10.9276
fjw쎯	-10.9278
d쎯or쎯wyq쎯yv쎯	-10.9278
aat쎯fam쎯p쎯	-10.9279
ybg쎯ifd쎯	-10.9281
lw쎯ojgr0쎯	-10.9282
rmh1쎯	-10.9282
wb쎯jud쎯	-10.9284
tq쎯bt쎯	-10.9285
jo쎯iqi쎯nl쎯pwx쎯	-10.9286
lk쎯xi쎯	-10.9286
ikgv쎯aeeb0쎯	-10.9287
igo쎯ru쎯cr쎯	-10.929
wo쎯od쎯	-10.9292
wdjq쎯wct쎯	-10.9293
쎂.쎆	-10.9297
drh쎯od쎯	-10.9297
쎆r쎯aeeb0쎯	-10.9297
xuq쎯ffuj쎯p쎯	-10.9299
쎂/	-10.9299
aeeb0쎯pa쎯iy쎯	-10.9299
ewmw쎯wx쎯oey쎯	-10.9302
khug0쎯rsj쎯	-10.9303
wng쎯	-10.9305
qmu쎯	-10.9306
쎁/쎃	-10.9307
mfk쎯vip쎯	-10.9308
khug0쎯xj쎯	-10.9308
tdw쎯kd쎯nc쎯re쎯	-10.9308
dhq쎯jt쎯	-10.931
i쎯wm쎯	-10.9311
p쎯vt쎯igo쎯	-10.9312
swwk0쎯wc쎯	-10.9313
qgwy쎯av쎯	-10.9315
xl쎯aq쎯	-10.9315
xl쎯fwf쎯qjb쎯	-10.9316
dat0쎯nr쎯	-10.9317
p쎯ea쎯sl쎯	-10.9317
p쎯u쎯mvv쎯	-10.9317
rtmt1쎯ptf쎯	-10.9319
ifk1쎯ueh쎯	-10.932
r쎯wb쎯	-10.932
▁	-10.9321
khug0쎯in쎯qt쎯	-10.9324
wx쎯qsy쎯pa쎯ub쎯	-10.9325
kre쎯ytmy1쎯wgkn1쎯	-10.9326
fvq쎯lu쎯	-10.9327
gl쎯qc쎯kre쎯ytmy1쎯	-10.9328
aeeb0쎯lk쎯iy쎯	-10.933
tj쎯xxy쎯	-10.9331
veg쎯yltc쎯skh쎯	-10.9334
wtx쎯gqtd1쎯	-10.9335
dq쎯aeeb0쎯	-10.9337
awf쎯vc쎯	-10.9337
xmqm쎯wamy쎯	-10.9337
bng쎯hw쎯qb쎯ac쎯	-10.9337
ua쎯asr쎯	-10.9337
wgkn1쎯쎁쎉쎉쎀od쎯	-10.9339
i쎯gc쎯y쎯	-10.934
tdw쎯kd쎯xd쎯i쎯	-10.934
aeeb0쎯nft쎯ib쎯	-10.9345
khp쎯tfhn1쎯	-10.9345
dk쎯gf쎯nl쎯qt쎯	-10.9348
iuc쎯ws쎯wl쎯ea쎯	-10.9348
rvyo쎯wl쎯qu쎯	-10.9348
wgkn1쎯rk쎯ws쎯	-10.9349
mhdd1쎯hkie쎯	-10.9351
yttg0쎯wqg쎯ks쎯	-10.9355
t쎯wb쎯b쎯g쎯bu쎯	-10.9355
xj쎯ifd쎯	-10.9357
(쎆	-10.9357
ks쎯lf쎯qt쎯m쎯oun쎯	-10.9358
.....	-10.9358
cw쎯yjl쎯	-10.9359
wgkn1쎯rw쎯eg쎯	-10.9361
bgm쎯qr쎯	-10.9363
aeeb0쎯pb쎯e쎯	-10.9363
ea쎯jrno1쎯	-10.9365
ybb쎯aeeb0쎯	-10.9365
bjy쎯ob쎯	-10.9366
bjy쎯qsj쎯	-10.9367
cqq쎯	-10.9369
oo쎯pwtn1쎯fyu쎯	-10.937
j쎯k쎯eh쎯	-10.9371
(쎁쎉쎃	-10.9373
khug0쎯cs쎯	-10.9373
rm쎯vpj쎯	-10.9374
mg	-10.9375
ub쎯qb쎯	-10.9376
rvf쎯	-10.9377
qb쎯ptf쎯	-10.938
ls쎯jam쎯	-10.938
tpk쎯yeqn쎯	-10.9381
auk쎯jtj쎯	-10.9381
gyy쎯wrw쎯aeeb0쎯	-10.9381
he쎯ay쎯	-10.9383
uf쎯cybc쎯	-10.9383
aflm1쎯geqc쎯	-10.9386
scy쎯	-10.9386
wf쎯ueh쎯	-10.9387
hq쎯	-10.9387
nbs쎯》	-10.9387
sa쎯e쎯	-10.9389
u쎯nls쎯mt쎯	-10.939
oy쎯	-10.9391
opsh0쎯oth쎯qk쎯	-10.9394
쎂mtjy11쎯	-10.9395
vm쎯	-10.9397
pf쎯ffuj쎯aeeb0쎯	-10.9399
ua쎯it쎯	-10.9399
tp쎯qgf쎯	-10.94
wgkn1쎯쎁쎉쎈쎃od쎯	-10.9401
wgkn1쎯쎁쎉쎈쎇od쎯	-10.9404
vlg쎯g쎯	-10.9406
wmw쎯	-10.9408
jjyi0쎯ks쎯khug0쎯	-10.941
ufw쎯ewgk1쎯	-10.9411
dpq쎯ptf쎯	-10.9413
j쎯f쎯eh쎯	-10.9415
ujf0쎯g쎯yj쎯qwmc1쎯	-10.9417
f쎯wo쎯	-10.9418
fsy쎯wgu쎯at쎯g쎯	-10.9419
쎁jeto0쎯	-10.9421
heg쎯n쎯	-10.9422
um쎯m쎯oun쎯	-10.9425
yh쎯쎂쎀쎀쎉od쎯	-10.9426
opsh0쎯yff쎯	-10.9427
ub쎯d쎯khug0쎯	-10.9427
rakg0쎯	-10.9429
i쎯gf쎯or쎯kre쎯	-10.9429
khay7쎯쎆	-10.9431
cvg쎯	-10.9431
"khug0쎯"	-10.9432
aiyk쎯djdk0쎯	-10.9433
yqb쎯i쎯	-10.9435
lqkg1쎯yh쎯	-10.9435
ihn쎯qxx쎯	-10.9435
uweu쎯	-10.9439
duj쎯wgkn1쎯	-10.944
qeaf2쎯fay쎯	-10.9441
wgkn1쎯or쎯kre쎯	-10.9442
llh쎯tspi쎯	-10.9446
aeeb0쎯n쎯p쎯	-10.9448
f쎯pgin1쎯qr쎯sgk쎯	-10.9449
rqqy2쎯j쎯	-10.9451
쎅쎀쎀mm쎯	-10.9451
oj쎯qr쎯p쎯	-10.9452
rw쎯gc쎯y쎯	-10.9453
in쎯bu쎯tfih쎯yh쎯	-10.9454
xl쎯si쎯w쎯	-10.9456
jeg쎯kq쎯	-10.9457
enu쎯hug쎯	-10.9457
pr쎯wqfj쎯	-10.9457
wqg쎯nc쎯kq쎯ybb쎯k	-10.946
th쎯qc쎯	-10.9461
쎂쎀olf쎯	-10.9463
bpx쎯bb쎯p쎯	-10.9463
p쎯lujf1쎯gb쎯	-10.9464
fqw쎯	-10.9464
tyac쎯khn쎯	-10.9464
qe쎯twwn2쎯	-10.9467
쎅r쎯aeeb0쎯	-10.9468
od쎯su쎯r쎯	-10.9471
tgj쎯hv쎯	-10.9472
foag쎯aeeb0쎯	-10.9472
vnh쎯lyi쎯	-10.9473
cr쎯bs쎯	-10.9474
iie쎯	-10.9474
tf쎯qb쎯	-10.9475
aeeb0쎯wp쎯	-10.9476
qpgh쎯dk쎯	-10.9476
dx쎯rj쎯ea쎯	-10.9476
oft쎯wcqn쎯	-10.9479
lk쎯jn쎯jjyi0쎯	-10.9483
iq쎯h쎯haeo쎯wb쎯	-10.9485
f쎯sw쎯uc쎯hu쎯	-10.9485
ih쎯e쎯	-10.9485
a쎯dfn쎯ku쎯	-10.9486
v1쎯	-10.9487
vdg쎯lmk쎯	-10.9487
qb쎯ffuj쎯	-10.9488
tpw쎯	-10.9489
jvk쎯nbs쎯	-10.949
-)	-10.949
ssq쎯imy쎯qt쎯	-10.9493
aeeb0쎯cc쎯xl쎯	-10.9494
ac쎯iw쎯	-10.9495
ylg0쎯ojgr0쎯	-10.9495
/쎁	-10.9498
쎃.쎁	-10.9498
iuc쎯mta쎯	-10.9498
riv쎯puw쎯	-10.95
mfj쎯ywi쎯	-10.9501
e쎯ed쎯vn쎯	-10.9502
apr쎯aaae쎯	-10.9503
rhb쎯avw쎯	-10.9503
aef쎯tlv쎯	-10.9503
쎁쎀쎂	-10.9504
kht쎯ih쎯	-10.9507
aspq쎯olf쎯	-10.9508
dccc쎯ynjg6쎯	-10.9508
쎇rmae쎯iwf쎯vc쎯yh쎯	-10.9509
qut쎯fjl쎯ktg쎯nls쎯	-10.9509
qahf1쎯	-10.9512
쎈rmae쎯rw쎯iq쎯	-10.9512
ld쎯fyu쎯	-10.9512
aeeb0쎯쎂쎀쎀쎀od쎯	-10.9515
vcc쎯iqi쎯	-10.9515
aeeb0쎯쎂쎀쎀쎅od쎯	-10.9517
sp쎯gl쎯	-10.9519
ua쎯jm쎯	-10.9519
qeqs쎯rf쎯	-10.952
icf쎯sfb쎯	-10.952
wgkn1쎯쎂쎀쎁쎂od쎯	-10.9521
ipwm1쎯kkd쎯	-10.9521
go쎯jm쎯	-10.9523
dp쎯wi쎯	-10.9523
tfkc쎯btbh10쎯	-10.9523
vw쎯epdc쎯	-10.9528
iutp쎯	-10.9528
p쎯ni쎯mn쎯	-10.953
gq쎯qj쎯	-10.9531
bwt쎯ay쎯p쎯	-10.9532
skg쎯lcmg쎯	-10.9533
vfi쎯eamy2쎯	-10.9534
w쎯eecs쎯he쎯	-10.9535
wgkn1쎯wx쎯od쎯ay쎯	-10.9537
쎂쎀쎀mm쎯	-10.954
k0쎯	-10.9542
jtg쎯yd쎯wgkn1쎯	-10.9544
jqug쎯amg쎯	-10.9547
ug쎯nsh쎯	-10.9548
qk	-10.9549
n쎯f쎯xq쎯p쎯	-10.9551
ue쎯jjyi0쎯	-10.9551
gbg1쎯xant쎯	-10.9551
siw쎯	-10.9552
wjna쎯btbh10쎯	-10.9552
hlqj0쎯ib쎯	-10.9553
r쎯dx쎯wgkn1쎯	-10.9553
yc쎯	-10.9555
aeeb0쎯쎂쎀쎀쎂od쎯	-10.9555
쎅qjgf1쎯	-10.9555
fhhw1쎯fhhw1쎯	-10.9555
rtmt1쎯ivk쎯	-10.9556
pwx쎯tq쎯iw쎯ojgr0쎯	-10.9556
aeeb0쎯쎂쎀쎀쎃od쎯	-10.9557
gf쎯gc쎯rw쎯	-10.9558
kq쎯qlx쎯kq쎯kv쎯	-10.956
atte쎯od쎯	-10.956
i쎯epf쎯	-10.956
ly쎯mrdf쎯	-10.956
aeeb0쎯x쎯iw쎯cc쎯	-10.9561
tfh쎯te쎯	-10.9562
tuqj쎯oun쎯	-10.9562
sn쎯x쎯p쎯	-10.9562
rkc쎯	-10.9563
쎃.쎃	-10.9564
ujl쎯te쎯	-10.9565
nmcy0쎯	-10.9567
yr쎯q쎯	-10.9567
aeeb0쎯ue쎯veg쎯	-10.9568
mwi쎯syl쎯	-10.9569
ip쎯udb쎯“	-10.9569
쎁ac쎯eu쎯ir쎯ngh쎯	-10.9572
xmqm쎯vrg쎯	-10.9575
wd	-10.9575
rxl쎯iuc쎯	-10.9576
iss쎯	-10.9577
쎇od쎯)	-10.9578
wqg쎯rke쎯	-10.9578
wl쎯ujq쎯khug0쎯	-10.9582
vfi쎯l쎯	-10.9582
pjd쎯oi쎯ld쎯	-10.9582
ii쎯uwn쎯xr쎯	-10.9583
zzd12쎯	-10.9583
qdm쎯	-10.9585
rw쎯iq쎯j쎯	-10.9585
rfwc1쎯	-10.9586
ko쎯kuxj쎯	-10.9586
swwh3쎯sfjh쎯	-10.9587
ks쎯ks쎯lf쎯	-10.9587
xi쎯kwnp쎯	-10.9588
icy쎯xl쎯	-10.9592
vrg쎯《	-10.9593
jmd쎯wn쎯	-10.9593
aeeb0쎯or쎯fyu쎯	-10.9597
gdae쎯	-10.9597
qmq쎯duuw쎯	-10.9597
q쎯t쎯t쎯it쎯	-10.9598
oey쎯eecs쎯wgkn1쎯	-10.9598
ps쎯ag쎯	-10.9599
vw쎯frj쎯	-10.96
khug0쎯hn쎯	-10.9603
vn쎯he쎯	-10.9605
uv쎯gf쎯	-10.9608
rgog쎯n쎯	-10.9608
nl쎯cy쎯	-10.9609
쎂쎀olf쎯uvtd0쎯	-10.961
aeeb0쎯xdc쎯sh쎯	-10.961
q쎯t쎯ybb쎯wi쎯	-10.9611
jvf쎯qb쎯	-10.9612
p쎯mkq쎯lt쎯	-10.9613
ifd쎯xxy쎯	-10.9614
mj쎯hdgh쎯	-10.9614
qb쎯l쎯	-10.9616
wghl쎯rs쎯	-10.9616
쎂쎀쎁	-10.9617
ueeo쎯	-10.9617
gd쎯lnt쎯	-10.9619
xuv쎯suy쎯	-10.9619
f쎯jr쎯vk쎯	-10.962
sssh쎯srm쎯	-10.9621
쎂쎅pv쎯	-10.9622
pwl쎯t쎯	-10.9622
x쎯iw쎯icy쎯	-10.9625
쎃.쎆	-10.9628
쎄od쎯)	-10.963
sni쎯vn쎯	-10.9631
r쎯rqqy2쎯	-10.9632
n쎯mkq쎯g쎯	-10.9632
wsmy쎯ivc쎯	-10.9633
khug0쎯dccc쎯ea쎯	-10.9635
qvv쎯	-10.9638
aeeb0쎯drj0쎯	-10.9642
sgqy1쎯ys쎯	-10.9644
쎁쎉쎉쎂	-10.9644
q쎯xmb쎯ea쎯ivw쎯	-10.9649
tcb쎯	-10.965
sa쎯쎂	-10.9652
n쎯mhj쎯	-10.9652
pp쎯nsh쎯ujl쎯	-10.9652
wl쎯tdw쎯i쎯pwit쎯	-10.9653
raw쎯mu쎯	-10.9654
mux쎯wi쎯	-10.9658
ybb쎯》	-10.9659
qtj쎯pyxf쎯xd쎯i쎯	-10.9662
hcw쎯iq쎯	-10.9665
q쎯qi쎯	-10.9668
쎁쎆쎈	-10.9669
oo쎯btbh10쎯	-10.967
a쎯ak쎯	-10.9677
ib쎯wi쎯ib쎯mn쎯	-10.9678
iy쎯ofn쎯ib쎯	-10.968
쎁쎉쎂쎅od쎯	-10.9684
쎁쎉쎉쎉	-10.9684
emc쎯uv쎯	-10.9687
bi쎯yju쎯	-10.9688
uwn쎯xr쎯p쎯	-10.9688
aeeb0쎯쎂쎀쎀쎆od쎯	-10.9691
pr쎯ot쎯	-10.9692
drvc쎯sf쎯	-10.9692
tthn0쎯	-10.9695
pwl쎯wb쎯	-10.9696
mdnt0쎯	-10.9697
hiqh쎯	-10.9698
aws쎯dgn쎯	-10.9698
ui쎯	-10.9699
qie쎯yxwo0쎯	-10.9699
uitl쎯vb쎯	-10.97
es쎯vyd쎯	-10.9701
쎆%	-10.9701
wyvc14쎯	-10.9701
dmju0쎯xq쎯y쎯	-10.9704
wgkn1쎯(쎂)	-10.9705
gh쎯eeb쎯	-10.9706
gl쎯qc쎯p쎯	-10.9709
nrn쎯xoy쎯	-10.971
xi쎯vip쎯	-10.9711
pn	-10.9712
mb쎯aeeb0쎯	-10.9713
ap쎯qqk쎯	-10.9714
ir쎯vk쎯	-10.9717
tf쎯nv쎯p쎯	-10.9717
gnyf5쎯wpn쎯	-10.9717
iup쎯	-10.9718
aeeb0쎯ib쎯yh쎯	-10.9718
rmae쎯쎂쎉thgt1쎯	-10.9718
dm쎯wqg쎯aeeb0쎯	-10.972
gt	-10.972
k쎯ghf쎯	-10.9724
쎁쎃쎅	-10.9726
odwd쎯fw쎯ir쎯yoq쎯	-10.9727
aw쎯u쎯nl쎯ea쎯	-10.9728
ea쎯rke쎯gc쎯n쎯	-10.9729
avw쎯yjgo쎯	-10.973
tfih쎯aeeb0쎯	-10.973
ewmw쎯rqqy2쎯	-10.973
aeeb0쎯k쎯ql쎯	-10.9731
sip쎯ydo쎯	-10.9734
ujq쎯nyp쎯wgkn1쎯	-10.9739
abe쎯	-10.9741
dcc쎯udl쎯	-10.9742
aeeb0쎯mgt쎯	-10.9743
p쎯tfkc쎯qk쎯	-10.9744
iq쎯h쎯u쎯ktg쎯	-10.9746
vwnn0쎯imy쎯	-10.9748
kld쎯	-10.975
ug쎯wb쎯	-10.9751
ode쎯rv쎯lm쎯	-10.9752
jw쎯khug0쎯	-10.9752
efy0쎯	-10.9753
in쎯qt쎯vip쎯aiyk쎯	-10.9754
쎄,	-10.9755
jal쎯lmk쎯	-10.9756
vt쎯tp쎯p쎯	-10.9756
dtl쎯ntt쎯	-10.9757
go쎯fhb쎯	-10.9761
fg쎯	-10.9761
쎆wnv0쎯	-10.9762
iuc쎯ws쎯sh쎯qtui쎯	-10.9762
fkd쎯	-10.9763
usss1쎯rwuy쎯	-10.9763
pyf쎯pyf쎯	-10.9764
qm	-10.9765
x쎯jw쎯	-10.9765
my	-10.977
dpq쎯tbp쎯	-10.977
qlx쎯qt쎯kv쎯	-10.9773
fyn쎯	-10.9773
vfu쎯ghtp쎯	-10.9773
kj쎯bng쎯ld쎯	-10.9778
wqq쎯dna쎯	-10.978
dj	-10.978
ctl쎯	-10.9782
aeeb0쎯si쎯jiph0쎯	-10.9782
tdw쎯tga쎯	-10.9783
xl쎯v쎯ode쎯rv쎯	-10.9784
xi쎯yss쎯쎆	-10.9785
ryc쎯	-10.9785
src쎯wx쎯od쎯	-10.9786
um쎯ir쎯omh쎯	-10.9787
wyk쎯g쎯nft쎯	-10.979
n쎯aps쎯wx쎯	-10.9794
aeeb0쎯쎁쎉쎉쎉od쎯	-10.9797
wwv쎯e쎯	-10.9798
afw쎯sy쎯omh쎯	-10.9798
rxu쎯yh쎯	-10.9798
wu쎯g쎯쎁	-10.98
aeeb0쎯q쎯ox쎯	-10.98
rvqb1쎯	-10.98
jo쎯iqi쎯p쎯	-10.98
hkn쎯bpf쎯	-10.9802
rmae쎯yjgo쎯	-10.9803
oj쎯oju쎯	-10.9805
dm쎯wqg쎯	-10.9808
vmf쎯dxf쎯	-10.9809
dq쎯qymn1쎯p쎯	-10.981
qc쎯xmb쎯	-10.981
jft쎯	-10.9812
wgq쎯wgq쎯	-10.9816
쎁od쎯)	-10.982
tey0쎯su쎯	-10.9821
wqle쎯	-10.9822
se쎯kf쎯ip쎯	-10.9822
am쎯n쎯f쎯xq쎯	-10.9822
─	-10.9823
he쎯rm쎯	-10.9823
ce쎯lfoj2쎯wfn쎯	-10.9824
au쎯nft쎯iw쎯	-10.9825
wgkn1쎯lm쎯yh쎯	-10.9828
pjd쎯we쎯	-10.983
maq쎯ib쎯	-10.9831
khug0쎯u쎯xfw쎯	-10.9833
yyb쎯qrhg쎯aeeb0쎯	-10.9833
amdo1쎯kwq쎯	-10.9833
》w쎯no쎯	-10.9835
oth쎯qk쎯aeeb0쎯	-10.9838
mgig쎯	-10.9842
dp쎯aiyk쎯uitl쎯	-10.9844
wgkn1쎯쎁쎉쎉쎁od쎯	-10.9845
vpm쎯el쎯	-10.9846
p쎯igo쎯djdk0쎯	-10.9847
쎂쎀ir쎯ngh쎯	-10.9849
lm쎯vnf쎯	-10.9849
xuq쎯oomd쎯	-10.985
nsh쎯wi쎯	-10.9851
p쎯wsmy쎯fs쎯	-10.9852
eu쎯xi쎯aeeb0쎯	-10.9852
kre쎯ytmy1쎯p쎯	-10.9856
hkn쎯	-10.9856
j쎯ae쎯ujq쎯nyp쎯iq쎯	-10.9856
sgk쎯ks쎯	-10.9856
wsmy쎯aiyk쎯	-10.9859
ugwe쎯ghf쎯	-10.9861
meto1쎯mcqb쎯	-10.9861
xxm쎯cybc쎯	-10.9861
il쎯fnan0쎯	-10.9861
ac쎯kyc쎯	-10.9861
kf	-10.9862
oun쎯hv쎯wgkn1쎯	-10.9865
e쎯hcjy쎯jc쎯uxv쎯	-10.9866
xy쎯》	-10.9867
lm쎯hagh1쎯	-10.9867
nl쎯eu쎯	-10.9867
ipw쎯xyjg쎯au쎯kaq쎯	-10.9867
jjyi0쎯ir쎯pr쎯jeb쎯	-10.9869
xl쎯whdy쎯gss쎯	-10.9871
wgkn1쎯ile쎯n쎯《	-10.9871
e쎯t쎯wb쎯	-10.9871
p쎯or쎯ib쎯wgkn1쎯	-10.9874
kra쎯	-10.9875
xd쎯puj쎯	-10.9876
aeeb0쎯ntt쎯	-10.9879
p쎯hu쎯yjl쎯	-10.9879
iuc쎯ea쎯	-10.988
쎁쎁쎅	-10.9881
kl쎯ug쎯	-10.9882
rvyo쎯et쎯	-10.9883
jfmf쎯o쎯	-10.9888
ewmw쎯hlqj0쎯	-10.9892
hbms쎯whm쎯	-10.9893
icy쎯si쎯	-10.9894
p쎯pk쎯mf쎯	-10.9894
mwi쎯nrn쎯	-10.9894
“bm쎯	-10.9895
.쎀쎀ir쎯ngh쎯	-10.9895
쎂-쎃	-10.9895
yeqn쎯qu쎯	-10.9897
wu쎯n쎯	-10.9899
lrlh쎯	-10.99
yh쎯쎂쎀쎁쎀od쎯	-10.99
st쎯owd쎯	-10.9901
sd	-10.9902
qgwy쎯ghtp쎯	-10.9902
cl쎯	-10.9903
rw쎯aymx0쎯	-10.9906
taw쎯sd쎯pi쎯	-10.9906
aeeb0쎯gq쎯iw쎯	-10.9906
aeeb0쎯pym쎯	-10.9906
khwc5쎯ty쎯	-10.9908
q쎯yff쎯nl쎯ea쎯	-10.9908
igo쎯khpk1쎯tfc쎯	-10.9909
ptf쎯g쎯	-10.9911
ad쎯o쎯	-10.9913
kqr쎯	-10.9914
jmw쎯	-10.9915
hsfi1쎯jal쎯	-10.9918
lk쎯jn쎯	-10.9919
yqt쎯ywi쎯	-10.992
ce쎯ks쎯ybb쎯kf쎯	-10.992
aeeb0쎯xx쎯	-10.9922
hcr쎯rv쎯	-10.9926
fgj쎯by쎯y쎯	-10.993
aek쎯pi쎯	-10.993
,,,	-10.993
mt쎯hv쎯wvgo7쎯san쎯	-10.9931
wl쎯lf쎯	-10.9931
zzjp8쎯	-10.9931
thy쎯aq쎯	-10.9932
ej쎯wc쎯	-10.9932
tq쎯wxg쎯	-10.9934
fpl쎯	-10.9935
mta쎯pr쎯	-10.9935
wtc쎯	-10.9937
f쎯iyy쎯	-10.994
khom쎯av쎯	-10.994
oomd쎯pu쎯	-10.9941
al쎯udl쎯	-10.9941
g쎯bu쎯wgkn1쎯	-10.9943
tvhp쎯mm쎯	-10.9944
mtjc1쎯tyac쎯	-10.9944
ivy쎯qlga쎯dx쎯	-10.9944
qb쎯yrtj1쎯	-10.9946
uh쎯mhnf쎯	-10.9947
-쎁쎂	-10.9948
쎆mm쎯	-10.995
쎁쎉쎉쎄	-10.995
auqm0쎯	-10.9951
q쎯djdk0쎯	-10.9952
tuqj쎯wl쎯ea쎯rke쎯	-10.9952
dccc쎯ea쎯ojh쎯	-10.9954
aeeb0쎯쎁쎉쎉쎅od쎯	-10.9955
p쎯qr쎯sgk쎯	-10.9955
wgkn1쎯kaq쎯bl쎯	-10.9957
od쎯su쎯p쎯	-10.9959
vc쎯m쎯	-10.9959
쎅mm쎯aeeb0쎯	-10.9962
vrg쎯eecs쎯	-10.9963
quo쎯fs쎯	-10.9964
jm쎯igj쎯	-10.9965
aeeb0쎯hm쎯fyu쎯	-10.9971
쎈r쎯aeeb0쎯	-10.9972
aeeb0쎯ta쎯eo쎯	-10.9975
tfq	-10.9975
쎈.쎅	-10.9976
un	-10.9977
qn	-10.9978
(f쎯)	-10.998
aeeb0쎯쎁쎉쎉쎇od쎯	-10.9981
lk쎯yff쎯	-10.9981
xqj쎯jl쎯	-10.9982
vt쎯bng쎯hw쎯p쎯	-10.9984
ggqt쎯cv쎯	-10.9984
r쎯s쎯rw쎯pumk1쎯in쎯	-10.9985
kps쎯	-10.9986
y쎯nl쎯mn쎯	-10.9986
vkb쎯	-10.9987
kkmw1쎯dp쎯p쎯	-10.9988
r쎯nv쎯	-10.999
ni쎯mlb쎯	-10.9993
tel쎯ifd쎯	-10.9994
mw쎯hg쎯	-10.9995
ws쎯ity1쎯	-10.9996
wu쎯fnan0쎯	-10.9996
wgkn1쎯쎁쎉쎈쎉od쎯	-10.9996
cy	-10.9997
pgin1쎯fqu쎯	-10.9998
eym쎯jmf쎯	-10.9999
kq쎯vlf0쎯	-11
wsmy쎯fs쎯kq쎯	-11
lrj쎯	-11.0002
vug쎯	-11.0002
tcf쎯	-11.0002
lk쎯pe쎯	-11.0004
ywy쎯tbf1쎯	-11.0005
nq쎯di쎯	-11.0005
qfk쎯sy쎯fs쎯	-11.0006
j쎯drvc쎯tgjk1쎯	-11.0008
odjn쎯	-11.0008
n쎯ag쎯ir쎯yoq쎯(	-11.0008
resy0쎯idha쎯	-11.001
gah쎯xant쎯b쎯	-11.0011
drj0쎯kkmw1쎯	-11.0012
wf쎯jt쎯ybb쎯	-11.0013
ewmw쎯d쎯or쎯	-11.0014
qc쎯ea쎯iq쎯	-11.0016
vvet쎯lhi쎯	-11.0016
p쎯u쎯ktg쎯	-11.0016
wgkn1쎯쎁쎉쎅쎈od쎯	-11.0018
tj쎯mfj쎯	-11.002
ssq쎯csh쎯	-11.002
dfn쎯la쎯khug0쎯	-11.0022
쎉ir쎯ngh쎯	-11.0022
rv쎯sln쎯	-11.0023
wqfj쎯yh쎯	-11.0026
wgkn1쎯’	-11.0028
taw쎯iqpv쎯	-11.0029
yh쎯쎂쎀쎀쎅od쎯	-11.0029
ad쎯xant쎯	-11.0031
cybc쎯imy쎯	-11.0032
gc쎯opsh0쎯	-11.0032
dccc쎯lf쎯	-11.0035
kv쎯쎁	-11.0036
쎇iyy쎯	-11.0036
wgkn1쎯ws쎯ity1쎯	-11.0036
pv쎯btbh10쎯	-11.0037
쎉쎀%	-11.0043
gyy쎯wrw쎯q쎯	-11.0043
쎁쎉쎉쎃	-11.0043
bq쎯m쎯dccc쎯	-11.0046
thn쎯snan쎯jjyi0쎯	-11.0047
mw쎯ynge쎯	-11.0049
xo쎯mfk쎯	-11.0051
gkqq쎯sgah1쎯	-11.0051
s쎯fsy쎯	-11.0053
uug쎯iuc쎯mta쎯bu쎯	-11.0054
iq쎯h쎯d쎯aaae쎯	-11.0057
m쎯mta쎯xmb쎯tga쎯	-11.0058
rwno쎯xe쎯	-11.0059
aeeb0쎯oi쎯	-11.0059
iq쎯im쎯	-11.0061
mye쎯lf쎯wgkn1쎯	-11.0063
(쎄	-11.0064
gh쎯iux쎯uh쎯	-11.0064
bu쎯ks쎯	-11.0066
aeeb0쎯m쎯o쎯uc쎯hu쎯	-11.007
jm쎯pgin1쎯	-11.007
aeeb0쎯쎁쎉쎉쎃od쎯	-11.007
dna쎯ed쎯lf쎯	-11.0072
ox쎯ma쎯	-11.0073
ba쎯쎆	-11.0073
ua쎯wb쎯	-11.0073
쎁쎀rmae쎯iq쎯aeeb0쎯	-11.0077
gq쎯iw쎯p쎯	-11.0079
swcn0쎯rxl쎯aeeb0쎯	-11.008
egt쎯	-11.0081
j쎯rke쎯iq쎯	-11.0081
oju쎯pyv쎯	-11.0082
dm쎯frj쎯	-11.0084
qe	-11.0084
ac쎯fgi쎯	-11.0086
p쎯uitl쎯geqc쎯	-11.0089
wtx쎯kq쎯gah쎯j쎯	-11.0089
nsh쎯f쎯	-11.0093
sn쎯fiv쎯	-11.0093
쎁쎅쎀pv쎯	-11.0095
vnb쎯an쎯	-11.0096
ghf쎯hnu쎯yh쎯	-11.0098
kw쎯ivw쎯	-11.0099
mwi쎯yr쎯	-11.0099
쎅.쎀	-11.0099
p쎯yjl쎯idi쎯	-11.0102
jr쎯duj쎯	-11.0102
kkmw1쎯cybc쎯	-11.0104
-쎁쎅	-11.0105
uteo쎯lk쎯	-11.0109
p쎯mtfk1쎯ib쎯	-11.011
d쎯mt쎯mb쎯fsy쎯	-11.0111
drj0쎯lu쎯	-11.0113
vq쎯snff1쎯wgkn1쎯	-11.0115
aeeb0쎯rk쎯ws쎯	-11.0117
gyy쎯wgkn1쎯	-11.0119
wtx쎯swcn0쎯h쎯	-11.012
o쎯duj쎯	-11.0124
otf쎯ubae쎯g쎯	-11.0126
r쎯dgl쎯te쎯dm쎯	-11.0129
yff쎯jud쎯	-11.013
qwx쎯	-11.0132
uht쎯qqwo0쎯	-11.0132
jr쎯khug0쎯	-11.0132
rw쎯pumk1쎯wgkn1쎯	-11.0134
m0쎯	-11.0137
j쎯c쎯t쎯	-11.0137
aeeb0쎯rqci5쎯	-11.0139
j쎯el쎯p쎯	-11.014
rgog쎯or쎯“	-11.0141
aiyk쎯gyy쎯aeeb0쎯	-11.0141
쎃od쎯)	-11.0145
쎅/	-11.0147
khug0쎯ru쎯bnhg1쎯	-11.0148
heg쎯qr쎯g쎯	-11.0148
tjh쎯qnk쎯	-11.0148
i쎯iq쎯y쎯	-11.0148
sgc쎯lbj쎯	-11.0148
ode쎯gl쎯	-11.0151
tp쎯fitb2쎯	-11.0151
aeeb0쎯r쎯eo쎯	-11.0151
in	-11.0151
fa쎯by쎯y쎯	-11.0154
uakk쎯	-11.0159
쎈od쎯)	-11.0161
xep쎯tfhn2쎯	-11.0163
nb쎯aeeb0쎯	-11.0165
hi쎯kflc1쎯	-11.0166
n쎯bgm쎯wx쎯	-11.0166
aeeb0쎯qp쎯	-11.0166
qu	-11.0167
쎁쎇쎈	-11.0167
쎂od쎯)	-11.0169
krag1쎯ydg0쎯	-11.0169
i쎯gc쎯p쎯	-11.017
a쎯gl쎯aymx0쎯	-11.0171
hto쎯od쎯r쎯	-11.0171
aeeb0쎯jan쎯	-11.0173
쎇쎅쎀	-11.0175
cc쎯aps쎯	-11.0175
nl쎯be쎯	-11.0176
rvyo쎯dfn쎯	-11.0176
ryg쎯	-11.0176
dccc쎯hv쎯	-11.0177
ckg쎯stt쎯	-11.0177
aj쎯dk쎯	-11.0179
gw쎯xi쎯i쎯pwit쎯	-11.0181
wgkn1쎯쎂쎀쎁쎁od쎯	-11.0181
gw쎯sj쎯snff1쎯쎁	-11.0182
wi쎯tfc쎯	-11.0185
guhf쎯kugg쎯	-11.0187
e쎯pfi쎯oun쎯	-11.0187
쎁쎂쎃	-11.0187
aeeb0쎯쎁쎉쎈쎈od쎯	-11.019
mfk쎯vey쎯	-11.0191
p쎯f쎯rhb쎯	-11.0192
p쎯jjyi0쎯ekgd쎯	-11.0194
%%*/	-11.0196
sd쎯pi쎯aeeb0쎯	-11.0198
sus쎯q쎯	-11.02
wwv쎯gr쎯w쎯	-11.02
qux쎯syl쎯vc쎯	-11.0204
cybc쎯ipwm1쎯vc쎯	-11.0206
-쎁쎈	-11.0209
s쎯hu쎯	-11.0211
쎅rmae쎯aeeb0쎯	-11.0211
yh쎯f쎯aiyk쎯	-11.0213
p쎯sn쎯nq쎯	-11.0213
vq쎯rj쎯rwxn쎯vk쎯	-11.0214
p쎯ldn쎯uyg쎯	-11.0214
yxl쎯	-11.0215
rke쎯qu쎯	-11.0215
imj쎯	-11.0217
p쎯cw쎯	-11.0218
iuc쎯tyt쎯p쎯	-11.0218
l쎯eu쎯	-11.0219
쎁쎇쎆	-11.0219
te쎯brg쎯	-11.0219
hnu쎯qp쎯	-11.0221
whh쎯aeeb0쎯	-11.0221
q쎯wl쎯ivw쎯	-11.0221
qut쎯lujf1쎯	-11.0223
eamy2쎯ngj쎯	-11.0223
wgkn1쎯ls쎯	-11.0223
wgew쎯xq쎯	-11.0224
ovn쎯	-11.0225
aeeb0쎯쎁쎉쎉쎂od쎯	-11.0225
쎅od쎯)	-11.0225
my쎯yff쎯	-11.0226
oth쎯dmjx2쎯qk쎯	-11.0227
qgwy쎯ode쎯	-11.0227
쎁쎉쎉쎀	-11.0228
pgin1쎯ni쎯	-11.0228
nl쎯iiq쎯	-11.0229
(쎁쎉쎄	-11.0233
쎃쎀wx쎯	-11.0233
yff쎯yr쎯	-11.0234
l쎯i쎯gf쎯	-11.0235
ybb쎯wi쎯or쎯kre쎯	-11.0236
ipwm1쎯yd쎯p쎯	-11.0238
ud쎯mqkf쎯u쎯mvv쎯	-11.0238
dv쎯aeeb0쎯	-11.0238
cw쎯bqbo쎯vq쎯	-11.0239
dccc쎯qt쎯	-11.0239
쎂rmae쎯rw쎯iq쎯	-11.024
p쎯rv쎯ynjg6쎯q쎯	-11.024
tj쎯lrq쎯	-11.0241
qtee쎯apl쎯	-11.0243
rqk쎯ja쎯	-11.0245
jaw쎯	-11.0246
igo쎯kre쎯ywi쎯	-11.0246
pjm쎯snan쎯	-11.0249
ma쎯wuk쎯w쎯	-11.0249
kre쎯ytmy1쎯aeeb0쎯	-11.025
fa쎯xuq쎯	-11.0253
cd	-11.0254
xxm쎯oun쎯	-11.0256
쎃rmae쎯rw쎯iq쎯	-11.0257
pjf쎯	-11.0258
dgl쎯ffgn2쎯	-11.0258
wv쎯c쎯eo쎯	-11.0259
yr쎯g쎯	-11.026
awf쎯ed쎯	-11.0261
bmyo0쎯	-11.0262
heg쎯qm쎯	-11.0264
ri쎯nnf쎯	-11.0265
lg	-11.0267
khug0쎯kkmw1쎯uda쎯	-11.0267
xpgm쎯khpk1쎯qtw쎯	-11.0268
uh쎯xh쎯	-11.0269
tfhn1쎯	-11.0271
xq쎯e쎯	-11.0272
iw쎯tpk쎯	-11.0272
vt쎯n쎯	-11.0272
eev쎯	-11.0274
bpdn쎯iwu쎯	-11.0274
xuq쎯mfk쎯	-11.0274
ud쎯mqkf쎯q쎯	-11.0275
pjv쎯rqci5쎯oun쎯	-11.0276
nqoy1쎯pe쎯	-11.0276
sds쎯	-11.0279
st쎯wgkn1쎯	-11.028
ce쎯ks쎯	-11.028
cbty3쎯	-11.0281
lujf1쎯gb쎯《	-11.0281
vb쎯yor쎯	-11.0282
gw쎯ni쎯	-11.0284
eg	-11.0285
vnb쎯do쎯	-11.0285
n쎯rfl쎯g쎯	-11.0285
omh쎯khug0쎯	-11.0286
wgkn1쎯vfg쎯	-11.0286
qsg쎯	-11.0287
od쎯wn쎯aeeb0쎯	-11.0289
snan쎯rkj쎯xy쎯	-11.029
vyg1쎯mn쎯	-11.029
uv쎯ay쎯	-11.0292
to쎯st쎯	-11.0292
xy쎯xr쎯	-11.0293
vrg쎯ekgd쎯	-11.0295
jtg쎯mtfk1쎯	-11.0295
udnh0쎯	-11.0296
ojh쎯ea쎯sl쎯	-11.0298
q쎯mjv쎯s쎯uug쎯	-11.0299
aeeb0쎯thgt1쎯ip쎯	-11.0299
u쎯ce쎯	-11.0299
ujq쎯nyp쎯khug0쎯	-11.0303
adwf0쎯	-11.0303
hitn쎯tfkc쎯	-11.0307
qkqq1쎯	-11.0307
wcbh쎯	-11.0308
ya쎯qtui쎯	-11.0309
ki쎯otf쎯twwn2쎯	-11.031
qfl쎯ub쎯kxdm0쎯	-11.0311
tp쎯mkq쎯p쎯	-11.0311
p쎯pr쎯gw쎯	-11.0314
aeeb0쎯쎁쎉쎈쎆od쎯	-11.0316
ot쎯mpv쎯	-11.0316
rwga0쎯kpw쎯khug0쎯	-11.0318
smhh쎯kw쎯	-11.0319
xmb쎯sssm쎯gyy쎯	-11.0321
aync0쎯	-11.0322
pwl쎯tm쎯	-11.0325
aeeb0쎯iw쎯oun쎯	-11.0327
mw쎯twy쎯	-11.0329
lk쎯sojh쎯nl쎯ea쎯	-11.0331
aeeb0쎯쎂쎀쎀쎁od쎯	-11.0332
rnr쎯eh쎯	-11.0334
쎁쎀쎀wx쎯	-11.0335
khug0쎯tfns1쎯	-11.0335
k쎯up쎯	-11.0338
piqb쎯cck쎯	-11.0338
nl쎯wpn쎯	-11.0339
쎁쎈쎀쎀	-11.0339
nl쎯mm쎯	-11.0339
rd쎯	-11.0339
ii쎯xr쎯khay7쎯	-11.034
xxm쎯yup쎯	-11.034
md쎯lk쎯	-11.034
쎉od쎯)	-11.0341
ai쎯qut쎯	-11.0341
fsy쎯vnf쎯b쎯	-11.0342
쎅wnv0쎯	-11.0342
ftf쎯rvyo쎯	-11.0342
aeeb0쎯ospc쎯	-11.0343
qtyy3쎯oey쎯eecs쎯	-11.0343
tvhp쎯qtj쎯	-11.0344
kakw0쎯	-11.0345
arj쎯	-11.0345
aeeb0쎯pa쎯ub쎯	-11.0349
r쎯q쎯ox쎯wqg쎯lf쎯	-11.0349
aeeb0쎯jgm쎯up쎯	-11.035
f쎯x쎯	-11.035
tex쎯cybc쎯	-11.035
df쎯qpgh쎯wgkn1쎯	-11.0351
쎁쎀쎁	-11.0351
flmu0쎯etk쎯	-11.0352
fvq쎯ode쎯	-11.0354
wl쎯du쎯	-11.0355
tp쎯yh쎯	-11.0357
wov쎯qb쎯	-11.0357
wqg쎯wtx쎯nc쎯	-11.0359
p쎯rs쎯nr쎯	-11.0359
tuqj쎯gm쎯	-11.036
igo쎯lr쎯rw쎯pumk1쎯	-11.0362
jr쎯j쎯	-11.0364
p쎯qfk쎯ubae쎯	-11.0364
by쎯whh쎯	-11.0367
m쎯o쎯h쎯kre쎯n쎯	-11.0367
ogj쎯	-11.0367
igjf0쎯et쎯	-11.0368
nc쎯dee쎯	-11.0369
q쎯t쎯mrdf쎯kd쎯	-11.037
nd	-11.0375
ir쎯ac쎯	-11.0376
ipko2쎯	-11.0376
pa쎯waw쎯	-11.0376
wqg쎯mhnf쎯qlx쎯	-11.0378
aeeb0쎯쎁쎉쎈쎇od쎯	-11.0379
rj쎯hu쎯qt쎯	-11.038
yd쎯jccn쎯p쎯	-11.038
fx쎯fw쎯	-11.0381
cybc쎯pu쎯	-11.0382
qi쎯pjv쎯	-11.0383
yff쎯vfi쎯	-11.0383
ksj쎯rmae쎯	-11.0383
sgm쎯	-11.0384
xi쎯xr쎯	-11.0385
atte쎯ngh쎯	-11.0386
uff쎯ueeo쎯hnu쎯ud쎯	-11.0387
쎁쎀쎀mm쎯	-11.0387
icf쎯h쎯	-11.0388
wgkn1쎯ip쎯ir쎯yoq쎯	-11.0388
ipw쎯xyjg쎯tjfm쎯	-11.039
vw쎯yff쎯	-11.0392
qt쎯l쎯	-11.0392
ivc쎯yttg0쎯	-11.0392
kpe쎯aeeb0쎯	-11.0393
vw쎯fqvh쎯	-11.0393
wgkn1쎯xg쎯p쎯	-11.0393
ls쎯a쎯w쎯	-11.0396
frj쎯aeeb0쎯	-11.0397
dwfy1쎯	-11.0397
pf쎯sgk쎯	-11.0398
pwat1쎯qmu쎯	-11.0398
alp쎯	-11.0402
pyaj1쎯vfu쎯	-11.0405
yaqh0쎯nr쎯eo쎯	-11.0405
ifd쎯wnb쎯	-11.0406
cj쎯	-11.0408
sn쎯sd쎯nsh쎯	-11.0408
sw쎯fa쎯	-11.0408
ldn쎯wi쎯	-11.0413
tdw쎯kd쎯avw쎯igo쎯	-11.0413
ft쎯al쎯	-11.0416
otf쎯ubae쎯g쎯p쎯y	-11.0417
jdwd0쎯uff쎯	-11.0418
djdb쎯	-11.0418
jrff쎯	-11.0418
t쎯wb쎯xuq쎯ffuj쎯	-11.0419
ks쎯lf쎯wgkn1쎯	-11.042
in쎯qt쎯i쎯pwit쎯	-11.042
iuc쎯mb쎯ob쎯	-11.0423
laf쎯xep쎯	-11.0423
aeeb0쎯sw쎯by쎯	-11.0423
p쎯kq쎯ma쎯	-11.0425
kwb쎯ptf쎯st쎯hv쎯	-11.0425
yh쎯쎂쎀쎀쎆od쎯	-11.0426
mr쎯ybb쎯	-11.0432
aps쎯xl쎯	-11.0433
xynt0쎯wa쎯muk쎯so쎯	-11.0433
()b쎯	-11.0434
eu쎯cb쎯fsy쎯vnf쎯	-11.0437
wthg1쎯gss쎯	-11.0438
ecn쎯rou쎯	-11.0438
p쎯am쎯aiyk쎯	-11.0438
쎂bwgj1쎯	-11.0441
《igo쎯	-11.0442
p쎯tp쎯igo쎯tdw쎯kd쎯	-11.0443
)sy쎯	-11.0445
쎄r쎯aeeb0쎯	-11.0446
gmm쎯jssy쎯	-11.0446
gf쎯gc쎯e쎯	-11.0448
nl쎯pwx쎯	-11.0448
sn쎯sd쎯nsh쎯p쎯	-11.0448
3	-11.0449
wyk쎯yr쎯fhrr쎯pv쎯	-11.045
(lw쎯)	-11.0452
kv쎯nl쎯	-11.0452
ma쎯yd쎯	-11.0452
dn	-11.0454
ujq쎯i쎯khug0쎯iq쎯	-11.0454
q쎯ox쎯q쎯oa쎯	-11.0456
eeb쎯vyl쎯	-11.0457
ot쎯bjy쎯	-11.0459
ra쎯tjh쎯	-11.046
oja쎯	-11.0462
yyb쎯iccc2쎯	-11.0464
khom쎯wal쎯	-11.0465
dj쎯od쎯	-11.0465
쎁쎅od쎯	-11.0465
iev쎯	-11.0467
lx쎯ai쎯	-11.0469
pwq쎯ivy쎯xmb쎯ivw쎯	-11.0473
wsmy쎯hb쎯	-11.0473
dap쎯	-11.0474
쎁rmae쎯rw쎯iq쎯	-11.0474
oyv쎯tfns1쎯	-11.0475
tfh쎯xuq쎯	-11.0475
qb쎯swcn0쎯rxl쎯	-11.0478
tsf쎯hl쎯w쎯	-11.0478
gw쎯s쎯	-11.048
v쎯ywi쎯qlga쎯vc쎯	-11.048
oqa쎯	-11.0482
qt쎯qlx쎯rj쎯hu쎯kv쎯	-11.0482
sh쎯jadk쎯	-11.0483
p쎯syk쎯ni쎯	-11.0483
p쎯pwx쎯usr쎯	-11.0484
sb쎯udl쎯st쎯hv쎯	-11.0485
hxb0쎯nalt쎯	-11.0485
nx쎯dm쎯	-11.0487
akk쎯	-11.0487
btf쎯ft쎯	-11.0487
kun쎯	-11.0488
atte쎯of쎯	-11.0489
khpk1쎯mfj쎯	-11.0494
vt쎯dq쎯	-11.0494
rw쎯eg쎯khay7쎯	-11.0495
si쎯ni쎯b쎯	-11.0495
gdg쎯	-11.0497
vnf쎯la쎯khug0쎯	-11.0498
ydx쎯fuj쎯mb쎯	-11.0498
kl쎯od쎯	-11.05
dep쎯se쎯ybb쎯wi쎯	-11.0501
hc1쎯	-11.0502
gss쎯wuk쎯	-11.0504
igj쎯mlb쎯aeeb0쎯	-11.0504
wtx쎯ja쎯	-11.0504
aeeb0쎯ivc쎯	-11.0507
v쎯uv쎯	-11.0509
nr쎯hcw쎯	-11.0513
ov쎯	-11.0513
lw쎯src쎯od쎯	-11.0515
cyy쎯	-11.0519
쎁쎉jo쎯ce쎯	-11.0519
ls쎯lv쎯n쎯	-11.0522
aeeb0쎯rvyo쎯	-11.0523
gyy쎯wrw쎯ivc쎯yd쎯	-11.0523
ebb쎯qc쎯khay7쎯	-11.0526
ld쎯xi쎯	-11.0527
b1쎯	-11.0528
ktg쎯jadk쎯vh쎯fqu쎯	-11.0531
pgin1쎯ni쎯yh쎯e쎯	-11.0531
쎂wnv0쎯	-11.0532
wrw쎯pb쎯	-11.0532
jnw쎯w쎯	-11.0533
jtg쎯e쎯	-11.0533
fitb2쎯bmo쎯	-11.0535
xd쎯rxu쎯y쎯	-11.0536
쎅pv쎯aeeb0쎯	-11.0537
v쎯l쎯aeeb0쎯	-11.0538
nnf쎯dx쎯	-11.0539
p쎯m쎯	-11.054
ygh쎯wm쎯	-11.054
hf	-11.0541
wl쎯qlx쎯wl쎯kv쎯	-11.0542
r쎯ipwm1쎯	-11.0544
mb쎯vc쎯du쎯qt쎯	-11.0544
jtky0쎯	-11.0544
p쎯ar쎯mkq쎯	-11.0545
yd쎯vyg1쎯	-11.0546
el쎯ma쎯hit쎯	-11.0548
쎇rmae쎯rw쎯iq쎯	-11.0548
aips0쎯kq쎯pyxf쎯	-11.0549
h쎯qa쎯	-11.0549
f2쎯	-11.055
toc쎯	-11.0551
wgkn1쎯쎅khug0쎯	-11.0552
(쎁쎅	-11.0553
kfi쎯	-11.0556
go쎯oat쎯jjyi0쎯	-11.0558
yff쎯wct쎯	-11.0559
gn	-11.056
쎈r쎯	-11.0561
v쎯qi쎯	-11.0563
ydx쎯rxl쎯	-11.0564
vyg1쎯duj쎯	-11.0566
wu쎯ubae쎯	-11.0566
bpf쎯bpf쎯	-11.0566
vg쎯qm쎯	-11.0567
mt쎯san쎯	-11.0568
rrr쎯aeeb0쎯	-11.0568
tvhp쎯yyb쎯	-11.0568
wtx쎯qoqt1쎯	-11.0569
tp쎯gss쎯si쎯	-11.057
ldt쎯	-11.0572
ir쎯rvyo쎯	-11.0572
tey0쎯jp쎯	-11.0575
epg쎯	-11.0575
ai쎯haeo쎯	-11.0575
afw쎯p쎯	-11.0576
ru쎯uxh쎯	-11.0577
yamo0쎯	-11.0577
gss쎯luh쎯	-11.0578
ld쎯tyac쎯	-11.058
q쎯wsmy쎯qc쎯	-11.0581
a쎯abci쎯	-11.0584
ejhh쎯hbn쎯wgkn1쎯	-11.0584
wxg쎯qt쎯	-11.0585
apr쎯el쎯	-11.0585
쎉ac쎯eu쎯ir쎯ngh쎯	-11.0585
mww쎯wie쎯	-11.0589
mwi쎯ea쎯ivw쎯	-11.0591
fgc쎯	-11.0592
rc	-11.0592
w쎯ode쎯rv쎯	-11.0594
fs쎯hy쎯	-11.0595
vffn1쎯	-11.0595
its쎯	-11.0596
gn쎯ivw쎯	-11.0596
qt쎯n쎯	-11.0597
rcp쎯oi쎯	-11.0597
wgew쎯pu쎯	-11.0598
gw쎯eu쎯tfih쎯p쎯	-11.0599
lm쎯bxxg쎯	-11.0599
vt쎯kv쎯	-11.06
xl쎯j쎯	-11.0602
qkqj0쎯	-11.0602
qtdw1쎯	-11.0603
ja쎯iysy쎯aeeb0쎯	-11.0603
쎆od쎯)	-11.0604
asr쎯ojgr0쎯	-11.0604
de쎯	-11.0607
x쎯mta쎯	-11.0608
spr쎯n쎯	-11.061
ygh쎯ld쎯	-11.0612
qjq쎯p쎯	-11.0613
lk쎯bu쎯	-11.0615
god쎯	-11.0615
kvg쎯	-11.0616
chy쎯ydx쎯	-11.0617
bnhc1쎯ytmy1쎯	-11.0617
dm쎯gmk쎯	-11.0619
ydx쎯rxl쎯yh쎯	-11.062
rdxn쎯	-11.0621
aeeb0쎯hp쎯o쎯	-11.0623
qgk쎯q쎯sx쎯kam쎯	-11.0623
iq쎯h쎯b쎯nls쎯rgm쎯	-11.0624
in쎯bu쎯pq쎯ks쎯qt쎯	-11.0625
ljh쎯wvgo7쎯	-11.0625
ydx쎯yakl쎯	-11.0625
ql쎯kre쎯	-11.0625
쎂ir쎯ngh쎯aeeb0쎯	-11.0626
lkb쎯	-11.0626
yujf0쎯ivk쎯qgk쎯	-11.0626
msk쎯	-11.0628
igo쎯sj쎯	-11.0632
do쎯ghad쎯	-11.0632
yju쎯ay쎯	-11.0633
ix쎯ity1쎯	-11.0634
ospc쎯ospc쎯	-11.0634
udm쎯bmf쎯	-11.0637
쎀kpd쎯aeeb0쎯	-11.0642
tfns1쎯jssy쎯	-11.0642
쎀drh쎯od쎯	-11.0643
yh쎯쎂쎀쎀쎄od쎯	-11.0643
p쎯ud쎯it쎯	-11.0647
khug0쎯yyb쎯qrhg쎯	-11.065
gd쎯vn쎯	-11.0654
tvhp쎯djdk0쎯	-11.0654
p쎯xuq쎯ffuj쎯	-11.0655
ueh쎯vrg쎯	-11.0656
iue쎯jiph0쎯	-11.0657
ba쎯qeqs쎯ij쎯	-11.0657
yh쎯쎂쎀쎀쎇od쎯	-11.066
pwo쎯cw쎯	-11.066
djdk0쎯iyy쎯khay7쎯	-11.0662
src쎯da쎯	-11.0663
q쎯vfi쎯	-11.0663
wdf쎯	-11.0663
eu쎯ynjg6쎯	-11.0664
wu쎯g쎯xi쎯yss쎯쎂	-11.0664
khug0쎯dv쎯djq쎯	-11.0664
aik쎯	-11.0665
aeeb0쎯aef쎯	-11.0665
ewmw쎯ar쎯si쎯	-11.0665
yb쎯mk쎯	-11.0667
mumk0쎯	-11.0667
mlb쎯ud쎯	-11.0667
sh쎯qtui쎯bu쎯	-11.0672
wgkn1쎯ii쎯	-11.0674
쎀gtit쎯mm쎯aeeb0쎯	-11.0674
tgm쎯	-11.0675
”aeeb0쎯w쎯	-11.0677
uh쎯ewmw쎯	-11.0678
mn쎯p쎯	-11.0678
xj쎯ijl쎯	-11.0678
p쎯u쎯xfw쎯	-11.0679
fqu쎯abci쎯	-11.0679
yeqn쎯luh쎯aqn쎯	-11.0681
jqkg1쎯mjv쎯p쎯	-11.0681
ggqt쎯vb쎯	-11.0682
axjf쎯	-11.0682
cr쎯ma쎯bu쎯	-11.0685
jsww쎯fs쎯	-11.0685
tmdc1쎯	-11.0687
iwx쎯nln쎯	-11.0688
enbm쎯bwg쎯	-11.0689
xi쎯kq쎯	-11.0691
oqab1쎯wk쎯	-11.0694
+쎁	-11.0695
hcd쎯thgt1쎯	-11.0695
ld쎯fcr쎯	-11.0697
ir쎯um쎯	-11.07
쎁쎂.	-11.0701
ftl쎯r쎯	-11.0701
nqr쎯	-11.0707
xl쎯whdy쎯p쎯	-11.0708
cybc쎯yd쎯p쎯	-11.0709
쎁쎉쎉쎈	-11.071
ile쎯n쎯《	-11.0712
k쎯w쎯f쎯eh쎯	-11.0713
qi쎯jlj쎯	-11.0713
drj0쎯qc쎯	-11.0715
쎁쎂쎂	-11.0715
jo쎯iqi쎯ago쎯	-11.0718
g쎯tfih쎯wgkn1쎯	-11.0718
bfq쎯ofn쎯oqg쎯e쎯	-11.0718
tmjw쎯ktg쎯	-11.0723
pwx쎯kd쎯	-11.0724
gsyy쎯)	-11.0725
ba쎯ss쎯ij쎯	-11.0726
csh쎯aymx0쎯	-11.0731
tvr쎯	-11.0731
rw쎯ekgd쎯	-11.0733
dnb쎯khug0쎯	-11.0733
lj쎯	-11.0735
ac쎯ewmw쎯	-11.0735
tm	-11.0736
jlj쎯ks쎯ybb쎯kf쎯	-11.0737
쎆rmae쎯ub쎯dm쎯q쎯t쎯	-11.0738
d쎯or쎯kq쎯frj쎯	-11.0739
ftl쎯hto쎯p쎯	-11.0739
쎆mtjy11쎯	-11.0741
be쎯khug0쎯	-11.0741
ckg쎯》khay7쎯“	-11.0742
ar쎯si쎯wgkn1쎯	-11.0743
mgt쎯wwv쎯	-11.0743
udb쎯ni쎯	-11.0744
gah쎯ji쎯ivw쎯	-11.0744
iuc쎯mta쎯jlj쎯	-11.0745
ls쎯brg쎯	-11.0747
iwf쎯vc쎯yh쎯l쎯ifd쎯	-11.0747
sd쎯pi쎯p쎯	-11.075
jw쎯wuk쎯khay7쎯	-11.075
miu쎯rtmt1쎯	-11.0751
fve쎯rw쎯	-11.0754
a쎯vq쎯	-11.0755
f쎯nl쎯pf쎯	-11.0755
mye쎯ugwe쎯	-11.0755
n쎯qc쎯p쎯	-11.0757
hn쎯euvg쎯	-11.0758
txwn쎯	-11.0759
p쎯rj쎯lfoj2쎯	-11.0761
or쎯iyv쎯ldn쎯	-11.0762
쎁쎅ir쎯ngh쎯	-11.0762
yca쎯	-11.0762
,ls쎯	-11.0763
쎁쎁.	-11.0763
nb쎯pfff쎯	-11.0764
khug0쎯mk쎯maq쎯	-11.0764
atte쎯ac쎯mm쎯	-11.0766
mt쎯vc쎯aau쎯mb쎯	-11.0766
xant쎯eny쎯	-11.0767
s쎯iq쎯	-11.0769
ir쎯ma쎯	-11.0769
erqy쎯	-11.0769
ohqo1쎯	-11.0773
ftl쎯hto쎯	-11.0775
ewmw쎯njdf쎯쎁oey쎯	-11.0777
mb쎯yq쎯	-11.0777
gqtk3쎯nr쎯	-11.0777
kth쎯iq쎯	-11.0777
쎁쎁eh쎯	-11.0779
%v쎯l쎯	-11.0779
um쎯hu쎯	-11.078
hxmj쎯	-11.078
c쎯eo쎯mdm쎯	-11.0781
nre쎯	-11.0782
fve쎯hw쎯	-11.0782
khug0쎯ai쎯	-11.0785
hevh쎯	-11.0785
ifd쎯whh쎯	-11.0786
쎂쎆쎀	-11.0787
쎃jeto0쎯	-11.0787
wgkn1쎯쎁쎉쎈쎀od쎯	-11.0791
rke쎯oun쎯dccc쎯	-11.0792
rqci5쎯ld쎯	-11.0792
ls쎯brg쎯th쎯	-11.0794
nl쎯pgin1쎯	-11.0794
qi쎯yff쎯	-11.0796
lnt쎯ni쎯	-11.08
vq쎯khug0쎯	-11.08
p쎯gl쎯dxj쎯	-11.0802
dpq쎯imy쎯	-11.0803
ybb쎯kf쎯khug0쎯	-11.0803
id	-11.0803
aeeb0쎯gm쎯ye쎯	-11.0804
v쎯khpk1쎯	-11.0806
iwx쎯auu쎯	-11.0806
aymx0쎯wm쎯	-11.0806
ln쎯ln쎯	-11.081
ue쎯bu쎯	-11.0811
yff쎯is쎯	-11.0812
ea쎯wf쎯	-11.0813
tyb쎯ft쎯yttg0쎯	-11.0813
uh쎯rj쎯	-11.0816
aeeb0쎯쎁쎉쎉쎄od쎯	-11.0817
jg쎯dedw쎯	-11.0818
hubp쎯fyu쎯	-11.0818
xyxl1쎯yqe쎯	-11.0818
fx쎯wgd쎯	-11.0818
etuh쎯xpr쎯	-11.0819
quo쎯jep쎯	-11.082
e쎯f쎯aiyk쎯	-11.082
rcp쎯kv쎯	-11.082
wm쎯jmf쎯	-11.082
yd쎯qpw쎯	-11.082
qgwy쎯mcqb쎯	-11.0821
oi쎯wqfj쎯	-11.0821
xd쎯xep쎯	-11.0822
miw쎯iq쎯	-11.0824
luh쎯qpgh쎯	-11.0824
nl쎯ty쎯	-11.0825
aeeb0쎯kaq쎯bl쎯	-11.0826
sc	-11.0826
dj쎯qt쎯	-11.0826
igjf0쎯ya쎯	-11.0827
d쎯or쎯ks쎯lf쎯qt쎯	-11.0828
qd쎯iyjf2쎯	-11.0829
n쎯tg쎯	-11.0829
ebg쎯xi쎯	-11.083
쎁쎉쎉쎆	-11.083
lk쎯jam쎯	-11.083
bl쎯x쎯	-11.083
p쎯rf쎯qk쎯	-11.0832
frj쎯khug0쎯	-11.0832
mdri0쎯xant쎯	-11.0835
xd쎯vc쎯iw쎯wn쎯	-11.0836
slk쎯h쎯	-11.0838
bi쎯ialp쎯eg쎯	-11.0839
aeeb0쎯m쎯re쎯	-11.0842
mc쎯kmw쎯	-11.0842
쎁쎉쎈쎉	-11.0842
tyac쎯t쎯wb쎯	-11.0843
xxm쎯ujq쎯lf쎯	-11.0844
aeeb0쎯ls쎯mdm쎯	-11.0845
fke쎯nls쎯	-11.0845
jtg쎯iw쎯	-11.0845
sqd쎯	-11.0846
qowc7쎯	-11.0849
an쎯jlj쎯	-11.085
ewmw쎯tuqj쎯vc쎯	-11.0852
bv쎯bq쎯	-11.0852
pn쎯vpm쎯	-11.0852
iav쎯ra쎯	-11.0853
,-	-11.0854
qu쎯v쎯l쎯	-11.0856
wsmy쎯fs쎯bi쎯jvf쎯	-11.0859
sn쎯xu쎯	-11.086
bng쎯hw쎯tdw쎯kd쎯	-11.086
heg쎯qr쎯	-11.0861
swwy6쎯afw쎯p쎯	-11.0861
n쎯kht쎯	-11.0862
ivw쎯ivw쎯kv쎯	-11.0863
쎃쎀%	-11.0863
kv쎯tglw0쎯rvq쎯	-11.0864
hlqj0쎯xh쎯	-11.0865
tp쎯sfk쎯ptf쎯	-11.0866
pwk쎯wft쎯	-11.0867
p쎯sd쎯pi쎯	-11.0868
tuqj쎯wb쎯wgkn1쎯	-11.0872
byt쎯sr쎯khug0쎯	-11.0873
vffy쎯》	-11.0875
ta쎯eo쎯p쎯	-11.0878
pjd쎯nnf쎯	-11.0879
.쎅%	-11.0879
bq쎯nr쎯	-11.0881
쎂쎈쎀	-11.0882
쎃wnv0쎯	-11.0883
u쎯xfw쎯tga쎯	-11.0885
kl쎯da쎯od쎯	-11.0886
쎁mm쎯	-11.0886
wtx쎯d쎯qt쎯	-11.0887
쎂쎁쎀	-11.0887
yff쎯tkj쎯	-11.0891
vq쎯rj쎯rwga0쎯kpw쎯	-11.0892
apl쎯ksg쎯	-11.0895
aeeb0쎯n쎯mwi쎯kpd쎯	-11.0896
p쎯sp쎯xl쎯	-11.0897
jeg쎯vp쎯	-11.0898
fvq쎯fjk쎯	-11.0898
kim쎯lbh쎯y쎯	-11.09
iq쎯dx쎯tdw쎯kd쎯	-11.0902
pyaj1쎯xep쎯	-11.0905
lujf1쎯iccc2쎯	-11.0906
wgd쎯bu쎯	-11.0909
uh쎯imy쎯	-11.0911
kws쎯jdwd0쎯	-11.0912
khit0쎯	-11.0913
mwi쎯vc쎯iq쎯h쎯	-11.0914
i쎯pwit쎯b쎯	-11.0914
쎁쎃쎃	-11.0914
ni쎯tq쎯	-11.0915
f쎯ybb쎯	-11.0915
bu쎯r쎯s쎯fsy쎯wgu쎯	-11.0916
gtit쎯mm쎯wgkn1쎯	-11.0917
jh쎯mn쎯	-11.0918
dqw쎯gqjr쎯	-11.0921
qtbo쎯wwv쎯p쎯	-11.0922
lw쎯src쎯ru쎯	-11.0924
aef쎯rj쎯	-11.0927
ttt쎯	-11.0929
oob쎯wb쎯	-11.0931
ib쎯mn쎯	-11.0932
tf쎯qoug0쎯	-11.0932
kflc1쎯ghtp쎯	-11.0933
hjh쎯iq쎯	-11.0933
xd쎯shi쎯	-11.0934
dgg쎯gxgo쎯	-11.0934
qrqw1쎯	-11.0936
kwb쎯bng쎯	-11.0937
nul쎯jjxo1쎯	-11.0939
qeqs쎯vfi쎯cr쎯	-11.0939
dj쎯l쎯	-11.094
afty1쎯	-11.094
jgig1쎯jq쎯	-11.094
qut쎯kuy쎯	-11.0941
kedm쎯bnhc1쎯	-11.0941
igo쎯iq쎯	-11.0944
a쎯bl쎯	-11.0945
dfn쎯la쎯gah쎯ji쎯	-11.0945
au쎯mfj쎯	-11.0945
dccc쎯yqt쎯wb쎯	-11.0945
tgo쎯	-11.0945
vtd쎯bgh쎯	-11.0951
mt쎯ib쎯	-11.0952
sggh0쎯fu쎯	-11.0953
pjv쎯yh쎯	-11.0956
n쎯hsy쎯yh쎯	-11.0957
tfns1쎯rrr쎯fs쎯d쎯	-11.0958
tpk쎯uyy쎯	-11.0962
dk쎯rj쎯mt쎯	-11.0963
ip쎯sj쎯	-11.0965
wtu쎯	-11.0965
mlb쎯ae쎯	-11.0965
p쎯ql쎯nr쎯	-11.0965
hfg쎯aeeb0쎯	-11.0966
aeeb0쎯ls쎯v쎯	-11.0972
wul쎯	-11.0977
w쎯c쎯	-11.098
si쎯j쎯	-11.0981
qv쎯jv쎯	-11.0981
nq쎯gyy쎯wgkn1쎯	-11.0983
dq쎯cybc쎯	-11.0983
qtyy3쎯kre쎯ywi쎯	-11.0983
tglw0쎯khc쎯rvq쎯	-11.0986
mu쎯wqcn쎯	-11.0986
rw쎯rus쎯	-11.0988
su	-11.0989
ode쎯yju쎯	-11.0992
san쎯)	-11.0992
el쎯kmw쎯jw쎯djdk0쎯	-11.0993
wt쎯g쎯wgkn1쎯	-11.0995
tdw쎯kd쎯lf쎯	-11.0995
yrtj1쎯qc쎯	-11.0997
《aj쎯ybb쎯btbh10쎯	-11.0998
h쎯kre쎯xd쎯i쎯	-11.0999
b쎯q쎯t쎯	-11.1001
aeeb0쎯ub쎯dq쎯	-11.1001
mhnf쎯pyxf쎯	-11.1001
sd쎯vc쎯	-11.1001
wgkn1쎯m쎯o쎯uc쎯hu쎯	-11.1002
ok쎯mi쎯	-11.1002
vn	-11.1002
pa쎯swwk0쎯	-11.1002
nynq쎯dfi쎯	-11.1003
yh쎯쎂쎀쎀쎃od쎯	-11.1004
a쎯hi쎯p쎯	-11.1004
kv쎯eu쎯rvq쎯	-11.1004
pt쎯	-11.1009
rw쎯qk쎯p쎯	-11.1011
jc쎯he쎯	-11.1011
ep	-11.1013
tehc2쎯rv쎯	-11.1013
m쎯o쎯e쎯	-11.1013
riv쎯rrr쎯	-11.1014
nl쎯ea쎯dccc쎯qtb쎯	-11.1014
yd	-11.1015
vffy쎯ybb쎯kpe쎯	-11.1015
sj쎯s쎯ks쎯lf쎯qt쎯	-11.1018
wfv쎯	-11.1018
slpy1쎯khay7쎯	-11.1018
aeeb0쎯fv쎯	-11.1019
asgg0쎯	-11.1019
iyu0쎯sa쎯	-11.102
vt쎯ld쎯f쎯	-11.1021
쎁쎉쎈쎈	-11.1021
spv쎯frj쎯jjyi0쎯	-11.1022
waw쎯by쎯	-11.1023
asaw0쎯	-11.1023
oj쎯ei쎯	-11.1023
eaet쎯vfnn쎯	-11.1025
afwn0쎯	-11.1026
hd쎯fgj쎯	-11.1026
v쎯yju쎯	-11.1027
fy쎯kaq쎯》	-11.1028
nbs쎯ruk쎯	-11.103
a쎯hi쎯avw쎯igo쎯	-11.103
jnf쎯oum쎯tk쎯	-11.103
쎄%	-11.1031
mwi쎯wb쎯	-11.1031
erc쎯	-11.1031
hal쎯uitl쎯	-11.1032
khug0쎯tv쎯	-11.1033
uvq쎯igd쎯	-11.1034
ea쎯kd쎯qt쎯wxg쎯	-11.1034
tp쎯qqwo0쎯	-11.1035
tj쎯ug쎯	-11.1036
ma쎯ivw쎯	-11.1037
he쎯ih쎯	-11.1037
cybc쎯xant쎯	-11.1037
v쎯l쎯wgkn1쎯	-11.1038
aeeb0쎯qi쎯dqw쎯	-11.1038
qfk쎯ubae쎯fu쎯	-11.1041
ydiy2쎯mcqb쎯	-11.1042
aeeb0쎯dccc쎯qtb쎯	-11.1043
f쎯sw쎯j쎯	-11.1044
ugt쎯	-11.1045
p쎯wi쎯yxwo0쎯	-11.1047
-쎁쎁	-11.1047
qtk쎯nxi쎯	-11.1048
iln쎯	-11.1048
rw쎯rgm쎯	-11.1049
tyac쎯ih쎯e쎯	-11.105
sjn쎯nl쎯	-11.1051
aeeb0쎯쎂쎀쎀쎇od쎯	-11.1053
pg쎯qtw쎯	-11.1055
tyac쎯taho0쎯e쎯“	-11.1056
ma	-11.1058
aaae쎯kd쎯kre쎯	-11.1059
lfon0쎯	-11.1062
fv쎯eu쎯xi쎯	-11.1062
wb쎯ngh쎯	-11.1063
ude쎯	-11.1065
u쎯of쎯y쎯	-11.1067
ma쎯jt쎯	-11.1068
qgk쎯xg쎯gss쎯si쎯	-11.1069
gm쎯geqc쎯khay7쎯	-11.107
xk쎯sm쎯	-11.1072
rj쎯gss쎯	-11.1073
rge쎯	-11.1075
jvk쎯lbh쎯	-11.1076
khug0쎯xpgm쎯qi쎯	-11.1077
khug0쎯atm쎯vcc쎯	-11.1077
md쎯onan쎯	-11.108
a쎯jt쎯	-11.1082
wgkn1쎯dna쎯	-11.1083
yd쎯mkq쎯	-11.1084
wk쎯gfkk1쎯	-11.1085
fu쎯khug0쎯	-11.1086
jq쎯g쎯	-11.1086
hto쎯fgi쎯	-11.1087
yltc쎯mcqb쎯	-11.1087
r쎯dgl쎯rfl쎯g쎯	-11.1087
qtwj2쎯ldn쎯	-11.1088
eo쎯p쎯	-11.1088
hmu쎯	-11.1089
yd쎯ydj쎯	-11.1091
icy쎯j쎯	-11.1093
xuq쎯ip쎯	-11.1094
wgkn1쎯m쎯re쎯	-11.1094
ip쎯qc쎯	-11.1094
bm쎯asr쎯qu쎯	-11.1095
pfj쎯	-11.1096
xl쎯otf쎯ubae쎯	-11.1096
qtbo쎯uug쎯	-11.1097
tdjn3쎯	-11.1098
mgq쎯nls쎯	-11.1098
yaqh0쎯nr쎯p쎯	-11.1098
r쎯eo쎯p쎯	-11.11
fv쎯vk쎯	-11.1101
qtw쎯mu쎯	-11.1104
wgkn1쎯쎁.	-11.1105
p쎯uh쎯qt쎯	-11.1106
dyjw쎯	-11.1107
khug0쎯t쎯it쎯	-11.1108
ewmw쎯yh쎯	-11.111
dk쎯iyy쎯	-11.1111
imy쎯ni쎯ea쎯	-11.1115
ud쎯dx쎯	-11.1115
ajy쎯	-11.1116
gnyd쎯wal쎯rtmt1쎯	-11.1117
ai쎯nr쎯wl쎯tdw쎯	-11.1118
vtkg2쎯qi쎯	-11.1121
he쎯ih쎯aqn쎯	-11.1125
fx쎯kws쎯	-11.1125
dm쎯ea쎯	-11.1126
qx쎯yj쎯	-11.1126
ewmw쎯g쎯wgkn1쎯	-11.1128
yh쎯쎂쎀쎀쎈od쎯	-11.1135
qovp1쎯	-11.1136
쎇쎆쎈	-11.1137
w1쎯	-11.1139
gdj쎯tdpx쎯	-11.1139
rj쎯ea쎯	-11.114
iuc쎯rm쎯	-11.114
wl쎯ea쎯i쎯pwit쎯mu쎯	-11.1141
p쎯uyw쎯yv쎯	-11.1142
aiyk쎯yqt쎯ekgd쎯	-11.1143
11쎯	-11.1144
udb쎯lnt쎯	-11.1144
p쎯rqcl5쎯yv쎯	-11.1145
.쎅gtit쎯mm쎯	-11.1145
쎀od쎯)	-11.1146
쎁쎇쎅	-11.1147
kre쎯uxe쎯	-11.1147
쎁쎉쎉쎇	-11.1148
cnn쎯uyw쎯	-11.1149
ujq쎯nyp쎯iq쎯ea쎯o	-11.1153
tuqj쎯frj쎯uc쎯hu쎯	-11.1153
iuc쎯hsy쎯	-11.1154
e쎯ra쎯	-11.1155
jgm쎯ngh쎯	-11.1155
lnd쎯	-11.1156
rxl쎯jlj쎯	-11.1157
xg	-11.1159
wa쎯ghf쎯dccc쎯qtb쎯	-11.116
t쎯jdwd0쎯	-11.1162
qfk쎯aspq쎯	-11.1163
oght쎯xh쎯	-11.1164
gmm쎯	-11.1167
쎂qc쎯	-11.1167
ca쎯th쎯	-11.1172
pwit쎯qt쎯	-11.1174
jud쎯yttg0쎯	-11.1174
mtjm4쎯mgu쎯	-11.1174
wxg쎯lf쎯	-11.1176
vay쎯	-11.1176
aeeb0쎯au쎯bl쎯	-11.1178
yrk쎯	-11.1178
smg쎯ujn쎯vg쎯	-11.118
eh쎯t쎯wb쎯b쎯g쎯bu쎯	-11.118
st쎯hv쎯uh쎯pi쎯	-11.1182
n쎯nq쎯p쎯	-11.1182
oguo3쎯	-11.1183
쎂쎀wx쎯	-11.1183
njf쎯tm쎯	-11.1185
kft쎯qrhg쎯	-11.1185
k쎯iw쎯	-11.1185
rld쎯nsh쎯	-11.1185
qlga쎯dx쎯wgkn1쎯	-11.1187
lnt쎯mn쎯khay7쎯	-11.1189
omh쎯dkj쎯	-11.119
vi쎯amg쎯gah쎯xant쎯	-11.1191
쎁.쎉	-11.1192
amjj0쎯	-11.1192
khm쎯dcw쎯	-11.1192
ib쎯sus쎯khay7쎯	-11.1196
ml쎯eo쎯	-11.1197
aeeb0쎯gm쎯lnt쎯	-11.1197
tp쎯ptf쎯mn쎯	-11.1198
nbh1쎯	-11.1198
pb쎯cq쎯	-11.1199
jvf쎯mb쎯p쎯	-11.12
p쎯nq쎯wgdy1쎯	-11.1202
puwn3쎯	-11.1202
aflm1쎯uitl쎯	-11.1203
dtr쎯yh쎯	-11.1203
rxb쎯pjv쎯	-11.1204
jfc쎯	-11.1206
du	-11.1207
wx쎯od쎯iq쎯	-11.121
bxy쎯	-11.1212
쎅jeto0쎯	-11.1212
nsg쎯djdk0쎯	-11.1214
쎇쎂쎀	-11.1215
aeeb0쎯lk쎯ynge쎯	-11.1216
yk쎯sqyn쎯	-11.1216
qbto1쎯vw쎯	-11.1216
uv쎯ialp쎯	-11.1216
wgew쎯oun쎯	-11.1217
p쎯sd쎯lt쎯	-11.1217
jadk쎯qtui쎯	-11.1217
ld쎯r쎯	-11.1219
qt쎯pwit쎯	-11.1221
nv쎯mcqb쎯	-11.1221
fe쎯ofn쎯ib쎯	-11.1222
xo쎯dww쎯	-11.1223
qtv쎯	-11.1224
knu쎯qta쎯kuy쎯	-11.1225
xpgm쎯wqq쎯ib쎯yh쎯	-11.1225
fj	-11.1227
tuqj쎯vc쎯gss쎯	-11.1228
tfkc쎯mwga3쎯	-11.1233
qeqs쎯nl쎯	-11.1235
qoss쎯	-11.1236
wyvj1쎯	-11.1237
aeeb0쎯쎁쎉쎆쎃od쎯	-11.1239
aef쎯nb쎯	-11.1239
wn쎯btf쎯	-11.1239
mfj쎯fx쎯	-11.1239
p쎯mta쎯sssm쎯	-11.124
khug0쎯pr쎯gw쎯	-11.124
p쎯kkmw1쎯gah쎯	-11.124
aeeb0쎯kkmw1쎯dp쎯	-11.1244
ep쎯mcqb쎯	-11.1246
wpgf0쎯kih쎯	-11.1247
nr쎯ssh쎯	-11.1248
vyg1쎯eg쎯rj쎯	-11.1248
wgkn1쎯쎁쎉쎇쎈od쎯	-11.1252
rrr쎯sf쎯	-11.1252
wa쎯wb쎯	-11.1252
khay7쎯쎇	-11.1253
kkmw1쎯yd쎯ld쎯	-11.1254
vfxl쎯bskg쎯	-11.1254
pwq쎯kl쎯p쎯	-11.1254
xg쎯icy쎯	-11.1255
)aeeb0쎯w쎯	-11.1256
aef쎯raq쎯ngu쎯	-11.1262
e쎯wt쎯ien쎯aeeb0쎯	-11.1262
m쎯o쎯no쎯	-11.1264
vg쎯ud쎯	-11.1265
ma쎯we쎯khug0쎯	-11.1267
dccc쎯ea쎯yd쎯lt쎯	-11.1268
rw쎯mb쎯	-11.1268
khug0쎯tp쎯mkq쎯	-11.1272
”jh쎯ywi쎯	-11.1272
ek쎯yttg0쎯	-11.1272
jey쎯	-11.1275
쎄.쎂	-11.1275
aeeb0쎯rk쎯	-11.1276
2	-11.1277
i쎯jt쎯tuqj쎯nft쎯	-11.1279
vulk쎯	-11.1281
쎀쎀wx쎯atte쎯qpgh쎯	-11.1282
aeeb0쎯bng쎯	-11.1283
luh쎯wgkn1쎯	-11.1283
cnn쎯ai쎯	-11.1284
tf쎯tx쎯bp쎯nskk쎯p쎯	-11.1285
tw쎯pwq쎯	-11.1288
vfb쎯	-11.1288
iyc쎯nx쎯	-11.129
a쎯ewmw쎯	-11.129
lfoe11쎯	-11.129
nbb쎯	-11.1293
resy0쎯iaq쎯ob쎯	-11.1294
쎁쎀pv쎯aeeb0쎯	-11.1294
aeeb0쎯ls쎯yh쎯	-11.1298
m쎯xr쎯	-11.1299
《nq쎯yh쎯	-11.1299
oo쎯pwtn1쎯	-11.1299
u1쎯	-11.1299
juk쎯	-11.1299
onb쎯	-11.1301
ssh쎯ssh쎯	-11.1301
shn쎯jtj쎯	-11.1301
gu쎯vcc쎯	-11.1302
iq쎯ko쎯	-11.1302
btmn쎯	-11.1302
xuq쎯dxj쎯	-11.1302
ogiy쎯	-11.1302
qpgh쎯od쎯(	-11.1302
amdo1쎯tfih쎯”	-11.1306
dccc쎯kpe쎯khug0쎯	-11.1306
gss쎯ytg쎯au쎯	-11.131
hubp쎯oey쎯	-11.131
p쎯taq쎯lh쎯	-11.1311
adj쎯ffio1쎯	-11.1311
ni쎯yv쎯	-11.1312
iyy쎯aeeb0쎯	-11.1314
tyt쎯cw쎯	-11.1315
jm쎯ile쎯	-11.1316
hd쎯sp쎯	-11.1316
qtw쎯nl쎯	-11.1318
vtd쎯	-11.1318
q쎯nx쎯	-11.1319
wuf쎯	-11.1321
(쎁쎈쎈	-11.1324
aeeb0쎯rw쎯iq쎯yh쎯	-11.1325
hubp쎯pfff쎯	-11.1325
jel쎯mpf쎯	-11.1326
q쎯t쎯d쎯mwi쎯hn쎯cr쎯	-11.1327
nda쎯afde1쎯	-11.1327
kpf쎯	-11.1328
abv쎯ftl쎯uug쎯	-11.1328
ii쎯ay쎯p쎯	-11.1329
iqg쎯	-11.133
rvq쎯eecs쎯	-11.1331
xmb쎯sssm쎯vey쎯yt쎯	-11.1333
쎄wnv0쎯	-11.1333
(/)	-11.1335
gku쎯	-11.1335
mgo쎯tdq쎯	-11.1335
wwv쎯oo쎯	-11.1335
ae쎯si쎯kq쎯frj쎯	-11.1336
awy쎯	-11.1336
tp쎯ma쎯nr쎯	-11.1338
쎁쎉쎈쎆	-11.134
xd쎯i쎯mt쎯	-11.134
pfff쎯nr쎯	-11.1343
(trh0쎯	-11.1345
ba쎯f쎯tfih쎯	-11.1345
f쎯uvtd0쎯	-11.1347
ufw쎯qsy쎯	-11.1347
kkmw1쎯t쎯ld쎯	-11.1349
rhb쎯i쎯	-11.1351
iw쎯qyvg0쎯	-11.1352
aq쎯mcqb쎯tfc쎯	-11.1353
jh쎯e쎯	-11.1353
gw쎯t쎯kwb쎯bp쎯	-11.1353
wxdm1쎯ly쎯	-11.1354
mbf쎯	-11.1357
(-	-11.1358
pa쎯usf쎯ybb쎯	-11.1358
vq쎯rj쎯cybc쎯yv쎯	-11.136
uhh쎯tgj쎯	-11.136
khug0쎯eym쎯kre쎯	-11.1361
xd쎯lg쎯avw쎯igo쎯	-11.1362
cr쎯vip쎯	-11.1362
쎁쎂rmae쎯iq쎯aeeb0쎯	-11.1363
mnpv쎯qnd쎯	-11.1364
ll쎯rrr쎯	-11.1364
fsy쎯mta쎯ks쎯lf쎯	-11.1364
ybb쎯》khay7쎯“	-11.1365
fiv쎯udb쎯	-11.1365
qa쎯mhj쎯	-11.1367
sj쎯qu쎯	-11.1368
aeeb0쎯agt쎯	-11.1368
kyj쎯	-11.1369
pv쎯st쎯	-11.1369
쎅rmae쎯rw쎯iq쎯	-11.1369
ek쎯lujf1쎯gb쎯	-11.1371
in쎯qt쎯mkq쎯mhj쎯	-11.1374
f쎯aspq쎯	-11.1378
fpl쎯laf쎯	-11.1378
mdmj3쎯bl쎯	-11.1379
rgog쎯xl쎯	-11.138
쎂쎅쎀pv쎯	-11.1383
쎀쎀hfg쎯	-11.1383
aeeb0쎯icy쎯w쎯	-11.1384
p쎯aat쎯aq쎯	-11.1385
ma쎯mb쎯	-11.1386
《xy쎯kf쎯btbh10쎯	-11.1386
jkh쎯	-11.1387
qut쎯duj쎯	-11.1387
kxdm0쎯mn쎯	-11.1388
lk쎯jpdi쎯	-11.1388
fs쎯jlj쎯	-11.1389
pucj쎯	-11.1389
쎅gtit쎯mm쎯	-11.1389
p쎯iq쎯qwmc1쎯	-11.1393
zzpj47쎯zzde30쎯	-11.1394
aeeb0쎯hlqj0쎯	-11.1396
tp쎯sfk쎯ptf쎯p쎯	-11.1402
jff0쎯	-11.1403
sgk쎯au쎯	-11.1404
mdm쎯v쎯	-11.1406
ft	-11.1406
fam쎯vb쎯	-11.1406
xxye0쎯ywnn1쎯	-11.1407
ha쎯wm쎯	-11.1408
aeeb0쎯ls쎯n쎯	-11.141
쎈mtjy11쎯	-11.141
쎁쎉쎉쎁	-11.1412
ggqt쎯tad쎯	-11.1416
itdj2쎯bfq쎯p쎯	-11.1416
ewmw쎯t쎯wb쎯	-11.1417
bgm쎯dq쎯	-11.1418
a쎯qr쎯	-11.142
nl쎯iuc쎯ws쎯	-11.142
p쎯u쎯wpn쎯	-11.1427
btbh10쎯ki쎯	-11.1428
or쎯qv쎯wb쎯	-11.143
m쎯o쎯ujq쎯nyp쎯	-11.1432
mpf쎯wsmy쎯khay7쎯	-11.1434
quo쎯th쎯	-11.1434
nyp쎯iq쎯ed쎯tga쎯	-11.1435
m쎯o쎯vc쎯faw쎯	-11.1435
vsg쎯mgt쎯	-11.1437
ftl쎯yttg0쎯	-11.1439
ea쎯rke쎯khug0쎯	-11.1441
ydje1쎯	-11.1441
ptu쎯f쎯tfih쎯	-11.1443
aeeb0쎯qbc쎯hagh1쎯	-11.1444
bng쎯ld쎯brg쎯th쎯	-11.1444
xcf쎯	-11.1445
쎃ir쎯ngh쎯aeeb0쎯	-11.1447
tfh쎯mt쎯yo쎯swcn0쎯	-11.1447
sgh쎯pjd쎯	-11.1448
쎁쎁rmae쎯iq쎯aeeb0쎯	-11.1448
gc쎯ksg쎯wgkn1쎯	-11.145
cc쎯ew쎯w쎯	-11.1452
쎅쎅쎀	-11.1453
atm쎯kuy쎯	-11.1454
e쎯ii쎯xr쎯	-11.1454
qgk쎯taq쎯	-11.1454
aeeb0쎯gw쎯t쎯	-11.1456
쎃.쎈	-11.1458
yd쎯od쎯	-11.1459
aeeb0쎯l쎯ifd쎯	-11.1461
쎁쎀쎃	-11.1463
wgkn1쎯쎁쎉쎅쎆od쎯	-11.1463
ji쎯iq쎯	-11.1463
a쎯hi쎯g쎯	-11.1463
ru쎯xi쎯	-11.147
ux쎯qgd쎯	-11.1471
tuqj쎯wb쎯khug0쎯	-11.1471
bq쎯fu쎯	-11.1472
b쎯fitb2쎯	-11.1473
sx쎯afso쎯	-11.1476
afc쎯	-11.1476
qk쎯sfk쎯	-11.148
sip쎯fum쎯	-11.1481
u쎯xfw쎯kkmw1쎯gah쎯	-11.1482
sgat0쎯ydx쎯	-11.1482
vgv쎯	-11.1485
byt쎯sr쎯ojh쎯	-11.1486
nbs쎯ile쎯	-11.1486
vcu0쎯ip쎯	-11.1487
yb쎯jccn쎯	-11.1488
iu쎯nl쎯	-11.1489
mr쎯g쎯	-11.1494
yff쎯qn쎯	-11.1495
쎃.쎇	-11.1495
gfq쎯nfp쎯	-11.1496
y쎯xg쎯	-11.1499
aau쎯njdf쎯	-11.1499
nsg쎯wv쎯	-11.1499
쎂jeto0쎯	-11.15
rw쎯iq쎯od쎯rmae쎯	-11.15
tfns1쎯tig쎯	-11.15
faw쎯mkq쎯	-11.1501
hjgf쎯duj쎯	-11.1503
쎉jeto0쎯	-11.1505
ua쎯arc쎯	-11.1506
khug0쎯qut쎯fjl쎯	-11.1506
py쎯wdf쎯	-11.1507
w쎯mdm쎯	-11.1507
aeeb0쎯qi쎯iy쎯	-11.1508
kj쎯tyac쎯	-11.1508
wtx쎯xi쎯yss쎯쎁	-11.1509
m쎯o쎯ii쎯xr쎯	-11.1509
vh쎯jlj쎯	-11.1509
rrr쎯dpq쎯	-11.151
ogg쎯vh쎯	-11.151
te쎯by쎯	-11.1511
wgkn1쎯kj쎯j쎯	-11.1512
zzpy20쎯	-11.1513
yh쎯쎂쎀쎀쎂od쎯	-11.1516
rv쎯wx쎯	-11.1516
《q쎯mjv쎯	-11.1518
vrt쎯	-11.1519
goi쎯pysw쎯	-11.152
vq쎯rj쎯ea쎯	-11.1521
rcp쎯rn쎯	-11.1521
cay쎯	-11.1522
wgkn1쎯aj쎯	-11.1523
giq쎯t쎯	-11.1523
qxj쎯duj쎯	-11.1523
.쎀쎀	-11.1524
bt쎯qc쎯	-11.1524
atte쎯wnv0쎯aeeb0쎯	-11.1525
khug0쎯vt쎯	-11.1525
rvyo쎯xdc쎯p쎯	-11.1526
〗	-11.1528
p쎯vt쎯tp쎯	-11.1529
xh	-11.153
yjgo쎯hsfi1쎯	-11.1531
jsk쎯	-11.1532
쎃gtit쎯mm쎯	-11.1532
〖	-11.1533
sy쎯aiyk쎯	-11.1533
fv쎯rxaq쎯	-11.1537
nt	-11.154
ar쎯en쎯	-11.1541
ffn쎯xiy쎯	-11.1542
mrdf쎯kd쎯wb쎯	-11.1542
rqqy2쎯쎄khug0쎯	-11.1543
ba쎯f쎯pf쎯	-11.1544
tyac쎯sp쎯e쎯w쎯	-11.1544
mtj	-11.1545
da쎯ywi쎯	-11.1548
lpq쎯	-11.1549
wgkn1쎯iq쎯yh쎯	-11.1549
nnf쎯qgwy쎯vey쎯	-11.1549
avw쎯um쎯p쎯	-11.155
aeeb0쎯쎁쎉쎉쎁od쎯	-11.155
h쎯vc쎯i쎯pwit쎯	-11.1551
uh쎯ob쎯	-11.1554
qc쎯rt쎯	-11.1555
wgkn1쎯쎄.	-11.1555
mnm쎯mtyg쎯	-11.1556
ua쎯xynt0쎯	-11.1557
tdw쎯kd쎯ni쎯mn쎯	-11.1557
go쎯vuxn쎯	-11.1558
n쎯duj쎯	-11.1558
(),	-11.1561
uck쎯	-11.1562
aeeb0쎯fgj쎯	-11.1564
iuc쎯ay쎯qb쎯	-11.1565
pf쎯ffuj쎯p쎯	-11.1565
yyb쎯wa쎯	-11.1565
uap쎯	-11.1566
ug쎯dq쎯	-11.1566
pr쎯qnf쎯	-11.1566
쎁쎉쎂쎄od쎯	-11.1567
kht쎯》khay7쎯“	-11.1568
jgig1쎯hv쎯ks쎯lf쎯	-11.1571
ai쎯ejhh쎯pn쎯	-11.1573
tuqj쎯vc쎯r쎯jx쎯	-11.1574
yvfh0쎯	-11.1574
is쎯vc쎯	-11.1575
xcrh쎯dynt0쎯	-11.1576
sj쎯ngh쎯	-11.1577
wgkn1쎯쎁쎉쎃쎄od쎯	-11.1578
bjf쎯	-11.1582
nq쎯gyy쎯p쎯	-11.1583
fmh쎯	-11.1585
쎁쎀쎉	-11.1585
fa쎯yd쎯	-11.1585
쎇wnv0쎯	-11.1585
쎂쎃쎀	-11.1586
dmpi쎯mem쎯	-11.1587
nhkf10쎯	-11.1587
aeeb0쎯qyvc쎯od쎯	-11.1588
wgkn1쎯gw쎯ybb쎯	-11.1588
ofn쎯lm쎯	-11.1589
pa쎯ub쎯y쎯mfwm쎯	-11.159
vgd쎯bq쎯	-11.1599
p쎯tfkc쎯jdn쎯	-11.1599
cybc쎯wi쎯	-11.1599
pumk1쎯kw쎯	-11.1601
tdw쎯kd쎯iy쎯	-11.1604
of쎯od쎯	-11.1605
ua	-11.1611
igo쎯q쎯t쎯yd쎯dp쎯	-11.1611
oob쎯am쎯	-11.1611
m쎯gh쎯	-11.1611
쎆.쎀	-11.1615
pugo0쎯sfk쎯	-11.1615
iuc쎯sb쎯	-11.1616
xxm쎯xr쎯khay7쎯	-11.1616
ntt쎯mlb쎯	-11.1616
pa쎯ub쎯rv쎯	-11.1616
csh쎯jlj쎯	-11.1619
adj쎯vn쎯	-11.162
wxdm1쎯afw쎯p쎯	-11.1621
qfk쎯ea쎯gyy쎯	-11.1622
sd쎯uoo쎯	-11.1623
atm쎯vcc쎯q쎯	-11.1623
pa쎯ub쎯gw쎯t쎯	-11.1623
bjy쎯omg쎯	-11.1624
khay7쎯쎁쎂	-11.1625
xef쎯	-11.1626
mtff2쎯qk쎯khay7쎯	-11.1626
mdm쎯fnan0쎯	-11.1627
kv쎯bv쎯jjyi0쎯	-11.1628
tmd	-11.1628
lf	-11.1628
aeeb0쎯ta쎯p쎯	-11.1629
wqg쎯kkmw1쎯	-11.1629
yff쎯qi쎯nl쎯ea쎯	-11.1629
kws쎯taq쎯	-11.1631
bq쎯jx쎯	-11.1632
r쎯nl쎯jgig1쎯ks쎯	-11.1632
ua쎯wgkn1쎯”	-11.1633
xxm쎯rj쎯	-11.1634
(,	-11.1635
ucen쎯	-11.1638
ma쎯bu쎯	-11.1638
jaw쎯snan쎯	-11.1638
rrr쎯khug0쎯	-11.1639
ba쎯xm쎯ij쎯	-11.164
en쎯un쎯	-11.164
jl쎯moo쎯gss쎯	-11.164
afwe1쎯lu쎯	-11.164
q쎯xmb쎯ivw쎯	-11.1641
j쎯f쎯xq쎯	-11.1642
p쎯r쎯iq쎯	-11.1646
쎄iyy쎯	-11.1649
f쎯lw쎯	-11.1651
yltc쎯hitn쎯	-11.1653
pydg0쎯lhnt1쎯	-11.1654
gc쎯mkq쎯ni쎯yh쎯	-11.1655
쎁쎀atte쎯	-11.1655
lfc쎯nqnn2쎯	-11.1655
qpe쎯snan쎯	-11.1655
uh쎯yt쎯d쎯vc쎯	-11.1655
lk쎯suy쎯	-11.1657
aeeb0쎯쎁쎉쎉쎀od쎯	-11.1657
prh쎯	-11.1658
kfg쎯vffy쎯	-11.1659
sh쎯xq쎯	-11.166
qlx쎯wtx쎯	-11.1665
ips쎯	-11.1666
xxm쎯uxe쎯xr쎯	-11.1666
he쎯xi쎯	-11.1667
bo쎯eclb쎯yv쎯	-11.1668
wwv쎯et쎯wgkn1쎯	-11.1668
vuxn쎯gss쎯	-11.1669
rw쎯pumk1쎯y쎯	-11.1669
wi쎯ldn쎯	-11.167
fx쎯ya쎯	-11.1673
wrw쎯mdri0쎯	-11.1675
jeb쎯xi쎯	-11.1676
kj쎯ayec쎯oun쎯	-11.1678
jgig1쎯waw쎯vnh쎯	-11.1679
lw쎯src쎯jo쎯ce쎯	-11.1679
og	-11.168
pwtn1쎯wwv쎯	-11.1681
sf	-11.1681
khug0쎯go쎯	-11.1681
qgk쎯xg쎯tfkc쎯duj쎯	-11.1682
hjxj쎯b쎯	-11.1682
kv쎯djj쎯	-11.1685
adk쎯	-11.1685
qk쎯aeeb0쎯	-11.1685
nls쎯rgm쎯te쎯dm쎯	-11.1685
u쎯ktg쎯rwxn쎯vk쎯	-11.1685
sfi쎯vk쎯	-11.1685
ub쎯dfe쎯	-11.1686
aau쎯epi쎯	-11.1687
ipwm1쎯ytg쎯	-11.1688
ujq쎯xxf쎯	-11.1688
sgc쎯	-11.1688
쎂쎇쎀	-11.1688
f쎯ek쎯	-11.169
du쎯x쎯	-11.1691
fy쎯ikgv쎯	-11.1691
쎁쎉쎈쎅	-11.1692
khug0쎯atm쎯sh쎯	-11.1692
kwb쎯ptf쎯p쎯h쎯kre쎯	-11.1692
nyp쎯	-11.1694
atm쎯vfi쎯	-11.1694
yjlg쎯duj쎯	-11.1695
ftl쎯ssde쎯	-11.1696
jjyi0쎯kv쎯	-11.1696
iwx쎯r쎯	-11.1696
wo쎯hubp쎯	-11.1697
fqu쎯qrhg쎯	-11.1697
hcw쎯tdh쎯	-11.1697
fpfu쎯	-11.1698
qjb쎯hyn쎯	-11.1699
tk쎯bgh쎯	-11.1699
qrhg쎯mfk쎯	-11.17
wrf쎯akfo4쎯	-11.1701
te쎯uf쎯y쎯	-11.1701
bb쎯oo쎯》	-11.1701
qlx쎯m쎯qap쎯khug0쎯	-11.1701
rw쎯qk쎯	-11.1701
wt쎯ip쎯l쎯	-11.1705
bb쎯ptf쎯	-11.1707
fvq쎯mhj쎯mlb쎯fvq쎯	-11.1707
aeeb0쎯ofn쎯	-11.1707
wuvg쎯	-11.1707
r쎯qsy쎯	-11.1708
aa	-11.1708
flmu0쎯h쎯	-11.171
wov쎯	-11.171
d쎯or쎯ymj쎯yv쎯	-11.1711
tp쎯xuq쎯ffuj쎯	-11.1711
taw쎯uwn쎯	-11.1713
qv쎯aaae쎯	-11.1713
jh쎯imy쎯	-11.1714
fu쎯ynjg6쎯	-11.1715
tel쎯mwyk5쎯	-11.1716
tedh1쎯jccn쎯	-11.1716
khug0쎯opsh0쎯pgc쎯	-11.1717
ujq쎯cybc쎯p쎯	-11.1718
yh쎯쎂쎀쎁쎁od쎯	-11.1719
pwlj쎯lcmg쎯	-11.172
쎅쎀pv쎯aeeb0쎯	-11.172
jm쎯igj쎯p쎯	-11.1721
mm쎯aeeb0쎯ow쎯	-11.1722
wxdm1쎯dyn쎯	-11.1722
c쎯vpm쎯	-11.1725
st쎯hv쎯vc쎯	-11.1726
khay7쎯쎁쎆	-11.1727
xxm쎯kfg쎯	-11.1729
deq쎯rqcc8쎯	-11.173
iq쎯nln쎯	-11.1731
j쎯ii쎯	-11.1731
dfe쎯tyac쎯	-11.1731
isj쎯	-11.1732
uh쎯djdk0쎯	-11.1733
xq쎯mn쎯	-11.1733
eym쎯rsj쎯	-11.1734
xep쎯ojgr0쎯	-11.1734
usss1쎯	-11.1735
khay7쎯‘	-11.1735
x쎯ahkw쎯	-11.1735
uef쎯l쎯	-11.1736
e0쎯	-11.1737
gyy쎯ih쎯khug0쎯	-11.1737
gii쎯wgq쎯	-11.1738
yuev쎯	-11.1739
쎁쎃쎆	-11.1744
pyf쎯jsy쎯au쎯mfj쎯	-11.1746
nl쎯mel쎯	-11.175
sl쎯gss쎯	-11.175
gwmp쎯uyw쎯	-11.1751
ialp쎯ivc쎯	-11.1752
d쎯mt쎯jeb쎯	-11.1752
q쎯thgt1쎯	-11.1752
》rqqy2쎯	-11.1752
ai쎯rxl쎯bfq쎯uyy쎯	-11.1753
qto쎯ldn쎯	-11.1753
쎁/쎄	-11.1755
ox쎯jdjf1쎯	-11.1755
khug0쎯xqiy쎯lk쎯	-11.1756
mr쎯qsy쎯	-11.1756
gii쎯gii쎯	-11.1757
dccc쎯ea쎯ujq쎯nyp쎯	-11.1758
smg쎯apn쎯	-11.1759
tlu쎯afwe1쎯aeeb0쎯	-11.1759
xynt0쎯lujf1쎯bu쎯	-11.176
he쎯tx쎯	-11.1761
avw쎯qtr쎯	-11.1761
xi쎯yss쎯쎇	-11.1763
aeeb0쎯hl쎯j쎯	-11.1763
fh0쎯	-11.1764
pwq쎯uf쎯	-11.1764
qb쎯jvf쎯	-11.1764
mq	-11.1766
fhy쎯xep쎯	-11.1766
rw쎯i쎯aeeb0쎯	-11.1767
쎄rmae쎯rw쎯iq쎯	-11.1768
쎅rap쎯mm쎯	-11.1768
hitn쎯etk쎯	-11.177
dufn2쎯lk쎯	-11.177
aau쎯mb쎯khug0쎯	-11.1771
e쎯《	-11.1772
hu쎯hv쎯jm쎯	-11.1774
hm쎯qgk쎯xg쎯	-11.1774
cbtc1쎯	-11.1775
jg	-11.1775
xep쎯kyhy쎯	-11.1775
“gw쎯t쎯	-11.1778
csh쎯khpk1쎯	-11.178
usf쎯ruk쎯	-11.178
pd	-11.1782
wpg쎯hxd쎯	-11.1784
du쎯qt쎯qlx쎯qt쎯kv쎯	-11.1785
tj	-11.1787
ity1쎯mtjc1쎯	-11.1787
is쎯uwn쎯	-11.1788
md쎯kcy0쎯	-11.1788
lhk쎯dynt0쎯	-11.1788
q쎯p쎯ofn쎯ib쎯	-11.179
ialp쎯rld쎯	-11.1791
ki쎯av쎯	-11.1791
fjt쎯pe쎯	-11.1792
mvv쎯ruk쎯	-11.1793
쎆rmae쎯rw쎯iq쎯	-11.1794
ahnu3쎯yh쎯qb쎯	-11.1794
tdp쎯	-11.1794
xq쎯iw쎯	-11.1795
q1쎯	-11.1796
zzzy21쎯	-11.1796
n쎯qk쎯opsh0쎯ivy쎯	-11.1798
wgkn1쎯쎁쎉쎈쎁od쎯	-11.1799
ks쎯um쎯ir쎯kpe쎯	-11.1799
aeeb0쎯쎁쎉쎈쎁od쎯	-11.1801
p쎯nku쎯wi쎯	-11.1802
wgkn1쎯kkmw1쎯yh쎯	-11.1802
mem쎯wuk쎯	-11.1802
쎂쎀eh쎯	-11.1803
qu쎯swcn0쎯ptf쎯	-11.1803
tvf쎯kv쎯	-11.1806
쎅쎀wnv0쎯	-11.1807
aw쎯hv쎯vq쎯rj쎯	-11.181
aeeb0쎯wgd쎯lk쎯	-11.181
stuj0쎯	-11.181
wm쎯rxl쎯	-11.181
aymx0쎯am쎯	-11.181
kj쎯e쎯	-11.1811
ialp쎯wxdm1쎯	-11.1812
rh쎯ue쎯	-11.1813
쎁쎉쎈쎇	-11.1814
p쎯kwb쎯wwkh3쎯	-11.1817
q쎯t쎯r쎯s쎯	-11.1817
ewmw쎯f쎯gyy쎯ih쎯	-11.1817
jr쎯dedw쎯j쎯	-11.1817
wgkn1쎯rca쎯n쎯	-11.1817
pwl쎯ay쎯	-11.182
ba쎯src쎯tj쎯	-11.182
xiit0쎯rrr쎯	-11.182
sa쎯mna쎯	-11.1821
aeeb0쎯hubp쎯	-11.1824
aeeb0쎯ayec쎯oun쎯	-11.1824
t쎯n쎯swcn0쎯h쎯	-11.1825
wh	-11.1828
gc쎯n쎯ae쎯d쎯	-11.1828
ewmw쎯fv쎯jw쎯	-11.1828
sqyn쎯ecyj쎯ea쎯	-11.1832
aeeb0쎯쎁쎉쎈쎂od쎯	-11.1832
tj쎯r쎯	-11.1833
vnb쎯oopi2쎯	-11.1833
rap쎯pv쎯	-11.1835
aeeb0쎯wdjq쎯pb쎯	-11.1835
fiv쎯foag쎯	-11.1836
e쎯ib쎯kpd쎯jc쎯uxv쎯	-11.1838
hn쎯qgd쎯	-11.1838
ps쎯nl쎯	-11.1839
tad쎯asr쎯	-11.1839
ahnn1쎯	-11.184
tfkc쎯bu쎯	-11.1841
w쎯jo쎯iqi쎯l쎯	-11.1842
m쎯vjl쎯	-11.1844
csh쎯yttg0쎯	-11.1845
pjv쎯rqci5쎯j쎯	-11.1845
ujq쎯nyp쎯xd쎯i쎯	-11.1846
qtps1쎯dei쎯	-11.1847
yr쎯ekgd쎯	-11.1849
fiv쎯dm쎯	-11.1851
lhk쎯jqug쎯	-11.1852
tfns1쎯uwn쎯	-11.1852
dna쎯xq쎯p쎯	-11.1853
nqf쎯	-11.1854
쎄rmae쎯aeeb0쎯	-11.1856
kkak5쎯rw쎯y쎯	-11.1856
hcw쎯qrhg쎯	-11.1857
ghf쎯hnu쎯j쎯	-11.1858
gw쎯od쎯	-11.1858
mdm쎯yd쎯e쎯	-11.1859
njdf쎯khug0쎯	-11.1863
qlga쎯tyac쎯	-11.1864
hubp쎯tfih쎯	-11.1864
tuqj쎯vc쎯ks쎯lf쎯	-11.1866
jgig1쎯jccn쎯	-11.1869
쎀쎀wx쎯r쎯	-11.187
oj쎯kv쎯	-11.1871
fv쎯iqi쎯	-11.1874
wqcn쎯waw쎯	-11.1877
ia	-11.1878
qnt쎯	-11.1879
ueh쎯gfkk1쎯	-11.1881
ix쎯vnh쎯	-11.1883
qbc쎯wgdy1쎯	-11.1883
쎀쎀olf쎯r쎯aeeb0쎯	-11.1884
wgkn1쎯쎁쎉쎇쎉od쎯	-11.1884
쎁쎉쎈쎄	-11.1884
yh쎯쎂쎀쎁쎂od쎯	-11.1885
lk쎯pfff쎯	-11.1887
xxf쎯rj쎯	-11.1887
fwf쎯yss쎯il쎯	-11.1888
aeeb0쎯쎁쎉쎈쎃od쎯	-11.1891
sks쎯bqbo쎯	-11.1892
ebco0쎯ivw쎯	-11.1893
ea쎯tm쎯》	-11.1894
tvf쎯qa쎯	-11.1895
bi쎯nj쎯	-11.1895
pm쎯ji쎯	-11.1895
uep쎯	-11.1896
od쎯(ir쎯qpgh쎯	-11.1896
ma쎯xd쎯	-11.1899
laf쎯jnac0쎯	-11.19
qn쎯trh0쎯	-11.1901
bgm쎯wk쎯	-11.1902
qtps1쎯usr쎯	-11.1903
ymj쎯tjdk1쎯	-11.1904
eecs쎯uf쎯qn쎯	-11.1905
of쎯iw쎯	-11.1908
gc쎯rqci5쎯	-11.1908
aiyk쎯yqt쎯wfn쎯	-11.1909
frj쎯uv쎯	-11.191
thgt1쎯kf쎯	-11.191
vke쎯xe쎯	-11.1911
ba쎯src쎯ij쎯	-11.1914
jadk쎯qdr쎯vc쎯	-11.1916
rrr쎯tl쎯	-11.1916
mb쎯fsy쎯bu쎯	-11.1916
ty쎯lmj쎯	-11.1917
g쎯qyd쎯	-11.1917
qc쎯rke쎯	-11.1918
tglw0쎯khc쎯	-11.192
fi쎯icf쎯	-11.1921
quo쎯jep쎯p쎯	-11.1922
p쎯hcw쎯rs쎯	-11.1922
tf쎯yk쎯	-11.1923
khwc5쎯xe쎯	-11.1923
frj쎯moi쎯	-11.1923
xuv쎯yff쎯	-11.1924
gah쎯xant쎯wgkn1쎯	-11.1927
qnaf쎯cybc쎯	-11.1931
tmoa쎯ac쎯	-11.1931
ou쎯aj쎯	-11.1931
aw쎯fsy쎯jeb쎯	-11.1932
a쎯nbs쎯	-11.1932
ai쎯ps쎯	-11.1932
aeeb0쎯gh쎯ipwm1쎯	-11.1932
쎃쎀ir쎯ngh쎯	-11.1933
eamy2쎯jpdi쎯	-11.1935
쎀쎀쎀wx쎯ac쎯eu쎯mm쎯	-11.1935
jf쎯qnf쎯	-11.1936
tuqj쎯e쎯	-11.1936
cc쎯ew쎯	-11.1938
쎁쎉쎇쎈	-11.194
(쎁쎇	-11.194
쎇r쎯	-11.1942
wgkn1쎯ta쎯p쎯	-11.1943
pg쎯mii쎯	-11.1944
eu쎯wi쎯b쎯	-11.1948
btbh10쎯btbh10쎯	-11.1949
xd쎯pwit쎯y쎯	-11.1949
jeto0쎯)	-11.195
sm쎯oqg쎯	-11.195
ntx쎯tel쎯	-11.1951
qo쎯dx쎯	-11.1953
let쎯kgt쎯	-11.1956
yttg0쎯qi쎯	-11.1957
wgkn1쎯musg0쎯	-11.1959
kkk쎯qd쎯	-11.196
kha쎯wm쎯	-11.196
wl쎯dccc쎯	-11.1962
aeeb0쎯a쎯si쎯	-11.1962
rw쎯swcn0쎯	-11.1963
kq쎯fitb2쎯ybb쎯	-11.1965
ae쎯vc쎯tdw쎯si쎯	-11.1966
xy쎯ea쎯	-11.1966
abr쎯ivc쎯	-11.1969
tfih쎯yh쎯q쎯t쎯	-11.197
kwb쎯duj쎯	-11.1971
yxwo0쎯tga쎯hu쎯hv쎯	-11.1973
tj쎯src쎯od쎯	-11.1973
lc쎯ekgd쎯	-11.1974
xpgm쎯nl쎯ib쎯kpd쎯	-11.1975
k쎯ew쎯w쎯	-11.1975
sa쎯mna쎯btbh10쎯	-11.1975
g쎯gf쎯	-11.1976
qqu쎯dm쎯wi쎯	-11.1978
ib쎯kpd쎯jc쎯uxv쎯	-11.1979
mdmj3쎯fx쎯	-11.1979
khay7쎯쎀.	-11.1982
nmf쎯kdp쎯	-11.1984
drh쎯yjgo쎯	-11.1984
t쎯wb쎯ja쎯	-11.1986
wqfj쎯vc쎯	-11.1987
lvl쎯jpdi쎯	-11.1988
ivc쎯km쎯	-11.1989
sii쎯qk쎯aiyk쎯	-11.1989
lk쎯nnnc쎯	-11.1992
ld쎯dk쎯	-11.1993
jq쎯fs쎯il쎯	-11.1997
mhnf쎯kkmw1쎯p쎯	-11.1998
oqm쎯rld쎯	-11.1999
d쎯ynjg6쎯fuj쎯d쎯	-11.2001
xpgm쎯ai쎯	-11.2003
med쎯bxxg쎯	-11.2007
nsg쎯imy쎯	-11.2008
khug0쎯kvh쎯qrhg쎯	-11.2008
mtfk1쎯r쎯	-11.2008
mhdd1쎯gkkj쎯	-11.2009
쎉쎀od쎯dk쎯	-11.201
tp쎯kre쎯ptf쎯p쎯	-11.201
opsh0쎯xn쎯	-11.2013
wm쎯fu쎯	-11.2016
aeeb0쎯쎁쎉쎈쎉od쎯	-11.2018
rn쎯jv쎯	-11.2018
qtps1쎯sii쎯vnh쎯	-11.202
wi쎯khug0쎯	-11.202
[...]
