[UNK]	0
[PAD]	0
[CLS]	0
[SEP]	0
[MASK]	0
ru❃9쎯	-3.62444
,	-3.98324
.	-4.2919
、	-4.4145
ji❄193쎯	-5.09927
yi❂125쎯	-5.39482
li❄196쎯	-5.41642
shu❂7쎯	-5.44575
ta❄40쎯	-5.63841
chuai❂1쎯	-5.77524
hu❂71쎯	-5.8142
ku❃2쎯	-5.83817
ling❂158쎯	-5.87095
(	-5.88087
wan❃31쎯	-5.92917
fu❂142쎯	-5.9509
li❂122쎯	-5.99337
:	-6.06807
chuai❂1쎯ji❂169쎯	-6.08348
liang❃2쎯	-6.09917
ji❄99쎯	-6.10265
)	-6.11342
ti❁6쎯	-6.12427
nie❄119쎯pie❁1쎯	-6.12628
《	-6.13554
;	-6.15695
guai❄14쎯	-6.2185
ta❄13쎯	-6.30036
kai❃13쎯zhi❃29쎯	-6.33116
ba❂11쎯	-6.36547
ti❁6쎯yan❃2쎯	-6.39154
qiong❂72쎯	-6.44935
li❄270쎯	-6.46165
“	-6.48583
jing❄3쎯	-6.49309
”	-6.51061
lv❄22쎯	-6.53369
en❁5쎯	-6.5842
jiao❁33쎯di❃18쎯	-6.60221
xian❂9쎯bu❄33쎯	-6.63272
chong❁7쎯	-6.63734
lv❄22쎯di❄13쎯	-6.63768
guan❄42쎯	-6.65513
la❄52쎯ba❁48쎯	-6.66318
chan❄19쎯	-6.67055
ju❄75쎯	-6.68265
li❂109쎯	-6.71098
yi❄228쎯	-6.75399
fu❂69쎯	-6.75594
ping❂44쎯mi❄56쎯	-6.76372
qu❂96쎯	-6.76909
ke❂0쎯	-6.78661
shuo❄33쎯	-6.78711
lin❂58쎯	-6.79592
zha❄26쎯	-6.79863
zhi❃58쎯	-6.8011
hui❄13쎯	-6.81151
yin❂64쎯	-6.82248
·	-6.83891
po❂9쎯	-6.83899
tian❂18쎯	-6.84535
xing❄6쎯	-6.84711
qi❁76쎯mi❄56쎯	-6.86852
li❂76쎯	-6.88185
쎂	-6.88599
쎃	-6.88793
fen❃3쎯	-6.89579
shuo❄33쎯gai❄1쎯	-6.9015
di❁32쎯	-6.90355
ji❂169쎯li❂109쎯	-6.9094
ya❁28쎯	-6.91676
3쎯	-6.92238
tui❄1쎯	-6.92446
wu❃9쎯chan❂50쎯	-6.93173
qing❄17쎯zi❁78쎯	-6.93283
bi❄186쎯	-6.94632
쎁	-6.94848
lv❄46쎯	-6.95154
zhi❁70쎯	-6.95267
ruan❄2쎯ta❄40쎯	-6.95467
jian❁100쎯	-6.95572
li❂122쎯dong❄38쎯	-6.95995
yan❃2쎯tang❃12쎯	-6.97158
-	-6.97194
di❁28쎯	-6.97391
xu❁78쎯yu❄68쎯	-6.98294
bing❁11쎯	-6.99729
kao❄2쎯	-7.02033
du❂72쎯shao❄3쎯	-7.03511
》	-7.03644
zhe❂33쎯	-7.0439
mang❂20쎯ao❂33쎯	-7.04951
tai❄4쎯	-7.05184
quan❁4쎯	-7.05423
yu❃36쎯	-7.07287
bu❄62쎯	-7.089
,yi❂125쎯	-7.0944
yan❃2쎯	-7.09974
xiang❄24쎯po❄15쎯	-7.1135
/	-7.11935
che❄20쎯	-7.12376
zuo❄4쎯fen❃3쎯	-7.13149
ju❄25쎯	-7.13507
tang❁14쎯	-7.13735
쎄	-7.14334
yu❃64쎯	-7.15824
ji❂169쎯	-7.15886
ling❂181쎯	-7.16081
shang❁17쎯	-7.16823
bo❁6쎯	-7.16858
gu❃15쎯man❂32쎯	-7.18035
chuai❂1쎯lei❄7쎯	-7.18138
wen❂24쎯	-7.19721
rong❂58쎯	-7.21078
yi❂114쎯	-7.21603
yin❁30쎯yin❂49쎯	-7.22441
chu❂0쎯	-7.22722
nie❄85쎯	-7.23277
gan❃23쎯	-7.23423
ou❃15쎯	-7.23868
qiao❂3쎯	-7.24779
gun❃24쎯	-7.24874
zuo❄4쎯	-7.25631
cai❂13쎯	-7.26051
xiao❄35쎯	-7.26479
zhi❂5쎯	-7.26579
ji❂169쎯li❂162쎯	-7.28601
ji❄99쎯shi❄63쎯	-7.28982
ye❄50쎯	-7.29197
jian❃45쎯	-7.2927
re❄5쎯	-7.29847
yi❂108쎯	-7.31147
ci❃11쎯	-7.31229
쎅	-7.31997
yan❃2쎯chao❁16쎯	-7.32264
pai❂4쎯shao❂7쎯	-7.33116
zhuang❁10쎯	-7.33412
po❂7쎯	-7.33435
he❂41쎯	-7.33776
qiu❂45쎯li❄270쎯	-7.33795
gao❄16쎯	-7.33938
kai❁11쎯	-7.34544
zhi❂5쎯la❄52쎯	-7.34961
zai❄7쎯	-7.35635
zhong❁24쎯	-7.35802
hui❄14쎯	-7.36171
gu❁29쎯qia❂0쎯	-7.36854
lei❄7쎯	-7.36979
tian❄3쎯rong❂58쎯	-7.37323
wai❁3쎯	-7.37926
gu❃72쎯mi❄56쎯	-7.38236
bi❄203쎯ji❂169쎯	-7.38725
qu❁21쎯	-7.38798
ou❃5쎯	-7.3958
chong❁32쎯	-7.39622
쎆	-7.40105
qiong❂72쎯ji❁125쎯	-7.40122
ta❄99쎯	-7.40524
lv❄22쎯qiang❁22쎯	-7.40654
yan❁34쎯jian❃94쎯	-7.40978
lie❄86쎯han❂12쎯	-7.41108
qian❂27쎯	-7.4116
fen❁39쎯	-7.41367
"	-7.41382
gu❃15쎯	-7.41823
ting❂20쎯	-7.41961
she❄9쎯lv❄22쎯	-7.42043
jiao❁33쎯guang❁1	-7.424
dian❃2쎯	-7.43072
you❁22쎯	-7.43409
tuo❁11쎯	-7.43551
yi❄84쎯	-7.43989
shan❁17쎯lei❂45쎯	-7.44194
lu❄43쎯kui❂41쎯	-7.44895
zhi❂5쎯yan❃2쎯	-7.44939
qu❂72쎯	-7.45491
ce❄9쎯	-7.45642
ben❁4쎯	-7.45652
ju❁38쎯	-7.45897
4쎯	-7.46569
cou❄6쎯	-7.46574
7쎯	-7.4765
she❄18쎯	-7.47708
yu❄133쎯ba❁48쎯	-7.47989
.”	-7.48216
chao❄12쎯wu❃9쎯	-7.48775
,shu❂7쎯	-7.48839
mie❁4쎯	-7.48945
()	-7.49015
yong❃30쎯	-7.49274
1쎯	-7.49341
jiao❁33쎯	-7.49392
9쎯	-7.49823
qin❂5쎯	-7.50309
pie❄1쎯	-7.50708
nv❄4쎯	-7.50989
qing❄17쎯yan❃2쎯	-7.51021
쎈	-7.51754
》、《	-7.51764
bo❁6쎯ba❂11쎯	-7.52845
mang❂20쎯	-7.53136
qu❁8쎯	-7.53255
쎁쎀	-7.54182
yang❄4쎯	-7.54417
0쎯	-7.54481
dan❁40쎯	-7.54742
xi❂9쎯sou❁24쎯	-7.54785
shan❁17쎯	-7.55524
ling❂34쎯	-7.55689
2쎯	-7.56033
6쎯	-7.56076
shan❁17쎯yin❁30쎯	-7.56326
dun❄22쎯	-7.56499
yao❃2쎯	-7.56612
guai❄14쎯zai❄7쎯	-7.56617
tun❄0쎯	-7.57057
qiong❂66쎯	-7.57089
chu❄45쎯	-7.57262
tang❃12쎯	-7.5745
yi❂157쎯	-7.57829
쎇	-7.5823
jiao❄32쎯	-7.58872
zhong❃8쎯	-7.58913
po❄2쎯	-7.59657
qi❃51쎯pan❂7쎯	-7.60059
gun❃24쎯qiu❂80쎯	-7.60477
tong❂23쎯	-7.60767
jiang❄20쎯	-7.61131
mu❄44쎯li❂122쎯	-7.61679
yi❁58쎯	-7.61757
ze❄17쎯	-7.62142
ti❄42쎯	-7.6219
guo❃24쎯	-7.62279
xian❂28쎯hu❂113쎯	-7.62684
zhuo❂66쎯feng❄16쎯	-7.62979
jian❃94쎯	-7.63226
qiang❁22쎯	-7.63258
lve❄5쎯	-7.63371
mai❄10쎯	-7.63681
ji❁164쎯li❄270쎯	-7.63807
xian❂28쎯	-7.63876
e❄25쎯	-7.6407
meng❂67쎯	-7.64249
cheng❂85쎯lu❃20쎯	-7.64621
jiao❃86쎯	-7.64754
heng❂22쎯	-7.64815
bi❄203쎯	-7.65363
ling❂158쎯he❂71쎯	-7.65561
bao❃14쎯	-7.65607
qiong❂72쎯li❄196쎯	-7.65792
zao❃12쎯	-7.65983
dang❄8쎯	-7.6687
nie❄82쎯ji❂169쎯	-7.67022
dao❃22쎯	-7.67025
8쎯	-7.6742
ning❂14쎯	-7.67651
dan❁11쎯	-7.68142
ci❄36쎯	-7.68353
gun❃2쎯zhe❂33쎯	-7.68405
qin❂1쎯	-7.68515
xian❃58쎯	-7.6877
ba❂11쎯ta❄13쎯	-7.6889
wu❃9쎯	-7.68897
fu❂70쎯	-7.68985
wu❄3쎯	-7.69057
du❂72쎯pie❄1쎯	-7.69062
shi❃26쎯	-7.69451
xuan❄33쎯	-7.69753
gun❄4쎯	-7.70052
),	-7.7051
gan❄4쎯	-7.71343
qia❄2쎯	-7.71603
cheng❂14쎯	-7.71704
rong❂44쎯	-7.71821
yu❁17쎯	-7.72998
zao❃14쎯	-7.7317
beng❄18쎯	-7.73364
chao❄12쎯	-7.73643
쎉	-7.73652
hua❄17쎯yi❁58쎯	-7.73888
ke❂0쎯fu❂69쎯	-7.74083
jiao❁33쎯mi❄56쎯	-7.74114
se❄57쎯ku❁10쎯	-7.74252
5쎯	-7.74382
qi❁68쎯	-7.74467
hu❂4쎯	-7.75054
shi❂3쎯	-7.75598
xie❂16쎯	-7.75632
yan❃2쎯ling❂158쎯	-7.75827
ta❄14쎯	-7.75955
wo❁5쎯	-7.76053
ben❁4쎯niu❃2쎯	-7.76238
ni❂13쎯	-7.76295
ru❃0쎯	-7.76474
li❄5쎯	-7.76592
lan❄10쎯	-7.76849
pai❂4쎯	-7.77067
lai❄28쎯	-7.77315
di❃18쎯gai❄1쎯	-7.78201
tan❂62쎯	-7.78513
di❃18쎯	-7.78588
ben❁4쎯heng❂4쎯	-7.78903
nie❄119쎯	-7.79638
hua❄17쎯	-7.79838
nie❄82쎯	-7.8011
fu❂142쎯jian❁60쎯	-7.80165
guan❄52쎯zhe❂33쎯	-7.80425
zao❃14쎯weng❄6쎯	-7.8053
wei❂73쎯	-7.8058
jia❁36쎯	-7.8097
yin❁30쎯dao❄17쎯	-7.81712
niao❃28쎯mo❄114쎯	-7.81832
,ba❂11쎯	-7.8209
qia❂0쎯	-7.82152
yu❂112쎯	-7.82594
xiao❂15쎯chu❄45쎯	-7.8263
”.	-7.82796
ta❃6쎯	-7.83128
he❂47쎯	-7.83191
wang❃25쎯ze❂3쎯	-7.83986
zhuo❂50쎯	-7.84282
zan❁1쎯	-7.84389
huang❂56쎯	-7.84468
,hui❄14쎯	-7.8447
shi❃11쎯	-7.84476
za❂8쎯	-7.84839
jian❁100쎯fu❂142쎯	-7.85098
fu❄115쎯	-7.85271
e❂49쎯	-7.85314
zong❄14쎯	-7.85374
ta❄61쎯	-7.85418
》:“	-7.85424
ling❂181쎯shao❄3쎯	-7.85508
shao❄3쎯	-7.85774
쎁쎂	-7.85847
ya❂2쎯	-7.86171
ji❄23쎯	-7.86582
ka❃5쎯	-7.86699
huan❂12쎯ke❁55쎯	-7.87046
wei❁20쎯	-7.87167
ti❃10쎯qi❁18쎯	-7.8717
ji❂169쎯di❁28쎯	-7.8731
que❄5쎯	-7.87364
jie❂129쎯	-7.87407
zhi❁70쎯qian❂41쎯	-7.8808
kao❄2쎯ling❂158쎯	-7.88263
zhan❄18쎯	-7.88562
zhi❁25쎯	-7.8915
ruan❂1쎯mi❄56쎯	-7.89543
shan❃18쎯li❂122쎯	-7.90331
ji❄99쎯,	-7.90355
pan❂20쎯shi❁8쎯	-7.90487
da❂60쎯	-7.90655
kao❄2쎯ni❃23쎯	-7.90847
ju❄62쎯	-7.90986
qi❁12쎯ren❄0쎯	-7.91121
hu❂4쎯qiang❁22쎯	-7.9146
mi❄56쎯	-7.91635
ga❄4쎯	-7.91656
fu❂166쎯	-7.91831
ne❄7쎯	-7.92031
chuai❂1쎯ru❃9쎯	-7.92161
ying❂62쎯tian❄3쎯	-7.92166
wa❁21쎯wen❂24쎯	-7.92392
lei❃36쎯	-7.92393
guo❁28쎯	-7.924
qia❂0쎯po❄2쎯	-7.92497
ke❁32쎯	-7.92679
ke❁55쎯kong❃5쎯	-7.92918
!	-7.9317
shi❃26쎯qu❁58쎯	-7.93197
nv❄4쎯ye❄50쎯	-7.93664
gou❄22쎯	-7.93665
tian❄3쎯	-7.93946
tai❂30쎯	-7.94454
ying❂62쎯	-7.94586
gu❄7쎯	-7.94855
xi❄31쎯chun❁6쎯	-7.95049
kuai❃3쎯	-7.95059
rong❂58쎯mi❄56쎯	-7.95162
yan❃118쎯shao❃5쎯	-7.95188
chou❂1쎯	-7.95265
en❁5쎯zong❄14쎯	-7.95277
tian❂18쎯fen❁39쎯	-7.95328
ang❂2쎯	-7.95357
ji❄160쎯	-7.95522
qu❂96쎯ci❃11쎯	-7.9559
huang❂43쎯	-7.96065
li❂126쎯ke❃7쎯	-7.9609
huo❄13쎯	-7.96127
bi❄70쎯nie❄119쎯	-7.96208
luo❂2쎯	-7.96733
ba❁10쎯tang❃12쎯	-7.97065
qing❄17쎯	-7.97249
yan❃118쎯po❂9쎯	-7.97306
xiang❄24쎯	-7.97321
ba❁41쎯	-7.97988
xian❂9쎯	-7.98042
xiu❁9쎯	-7.98206
you❁27쎯xiong❂4쎯	-7.98323
ba❂2쎯	-7.98359
shi❂1쎯	-7.98521
zhuang❁7쎯	-7.99052
ze❂3쎯	-7.9909
pu❂0쎯	-7.99518
gou❃8쎯	-7.99574
mang❂20쎯nie❄104쎯	-7.99617
ji❄99쎯.	-7.99687
～	-7.99786
qin❃11쎯lin❂62쎯	-7.99944
zi❁61쎯	-8.002
zhe❄9쎯ruan❄2쎯	-8.00436
쎂쎀	-8.00467
du❂72쎯	-8.00747
ruan❄2쎯	-8.00801
gun❃2쎯	-8.00936
he❂71쎯xiong❂4쎯	-8.01143
zou❁10쎯hua❄17쎯	-8.01439
zi❃5쎯	-8.01835
huan❂12쎯	-8.01962
bu❄33쎯ju❄21쎯	-8.02095
qiu❂45쎯	-8.02184
qin❁2쎯	-8.02217
ting❁0쎯	-8.023
zhi❁25쎯za❂8쎯	-8.02461
ta❄20쎯	-8.02596
yong❃35쎯	-8.02804
chuai❂1쎯yan❃2쎯	-8.03078
bian❃18쎯	-8.03305
yi❂27쎯	-8.03445
di❃18쎯li❄196쎯	-8.03641
쎁쎅	-8.03932
gu❃15쎯sui❄66쎯	-8.04123
lian❂3쎯	-8.04618
la❄1쎯	-8.05107
tan❂62쎯shi❃26쎯	-8.05206
yan❃2쎯fu❄3쎯	-8.05501
xi❄31쎯	-8.05544
hong❂77쎯	-8.05617
lie❄86쎯	-8.05647
huo❁1쎯qi❂124쎯	-8.05722
pan❁6쎯	-8.05731
zheng❄1쎯	-8.06027
xi❄31쎯ye❄50쎯	-8.06056
zhi❃58쎯gan❄4쎯	-8.0623
hun❂15쎯	-8.06386
heng❂14쎯	-8.06623
shan❁13쎯	-8.0678
chao❄12쎯du❂59쎯	-8.06952
zuo❄4쎯yan❃2쎯	-8.06973
ren❄0쎯qian❂29쎯	-8.07026
chuai❂1쎯ting❁0쎯	-8.07274
qiong❂27쎯	-8.07357
yi❄381쎯	-8.07555
hou❄27쎯	-8.07607
yi❄106쎯	-8.07679
yi❄10쎯	-8.07866
huang❁19쎯	-8.08028
qing❄17쎯dan❁11쎯	-8.08096
chuai❂1쎯yu❄103쎯	-8.08205
shuo❄33쎯mi❄56쎯	-8.08237
ke❃7쎯	-8.08476
ji❁125쎯	-8.08778
ji❄99쎯jian❃94쎯	-8.08871
rou❂19쎯	-8.0896
ban❄6쎯	-8.09094
can❄15쎯ju❄98쎯	-8.09186
tu❃0쎯	-8.0929
zui❄7쎯	-8.09333
xi❂9쎯	-8.09434
ju❄25쎯wu❄3쎯	-8.09568
tian❂15쎯bing❃32쎯	-8.09721
shao❃0쎯	-8.09778
jue❂25쎯	-8.09919
ta❄61쎯ta❄40쎯	-8.10196
yu❂110쎯fu❄115쎯	-8.10443
sheng❄6쎯	-8.10458
jin❃18쎯	-8.10816
shi❁69쎯ming❂14쎯	-8.11003
xie❂46쎯	-8.11254
guang❁13쎯	-8.11319
dong❄41쎯	-8.1153
.shu❂7쎯	-8.11686
yue❄60쎯	-8.11719
weng❄6쎯	-8.11848
cuo❁1쎯qi❄35쎯	-8.12007
——	-8.12244
,li❄196쎯	-8.12415
ji❄26쎯chong❁32쎯	-8.12496
za❂3쎯	-8.12555
ya❅쎯	-8.12654
쎁쎆	-8.12816
ba❁10쎯yan❃2쎯	-8.12861
gai❄1쎯	-8.13045
쎁쎁	-8.13177
yan❂101쎯	-8.13239
xu❄61쎯	-8.13685
ci❄36쎯bi❄203쎯	-8.13766
wang❃8쎯	-8.13772
zhi❄54쎯	-8.13798
huo❄45쎯	-8.13834
xu❁37쎯tan❃20쎯	-8.13993
gai❄1쎯ze❂15쎯	-8.14544
nie❄82쎯ba❁48쎯	-8.14596
fen❂2쎯	-8.14674
mu❃11쎯	-8.14696
ju❄25쎯chuai❂1쎯	-8.14715
yan❃2쎯li❄270쎯	-8.15082
qian❂41쎯	-8.15543
).	-8.15602
쎃쎀	-8.15641
meng❃9쎯	-8.1596
lai❂4쎯	-8.16112
zao❃0쎯	-8.16187
po❄10쎯pan❂20쎯	-8.16224
guo❃24쎯bu❄33쎯	-8.16366
du❁10쎯	-8.16431
tan❂63쎯	-8.16483
guo❂1쎯	-8.16636
zhe❄9쎯	-8.16851
wu❁27쎯	-8.17156
bao❄7쎯fen❁39쎯	-8.17224
?	-8.17301
qiu❂80쎯	-8.17332
qiao❂8쎯	-8.17448
%	-8.17665
hong❂12쎯	-8.17782
bo❂63쎯	-8.17788
di❄13쎯	-8.17996
xin❁3쎯jian❃4쎯	-8.18103
an❃0쎯	-8.18155
la❁6쎯	-8.18447
e❄95쎯	-8.1885
yan❃118쎯	-8.19157
du❂56쎯	-8.19176
fan❂46쎯	-8.19407
sui❃6쎯	-8.19521
yuan❁37쎯qi❂124쎯	-8.19605
jia❁36쎯yi❂125쎯	-8.19752
ye❄73쎯	-8.19777
yin❂49쎯ji❁180쎯	-8.19889
tan❂62쎯po❂7쎯	-8.19909
hua❁4쎯	-8.20126
bu❄62쎯ju❄98쎯	-8.20194
ku❁10쎯	-8.20419
jian❁60쎯	-8.20747
wan❂23쎯	-8.21
yan❃118쎯lang❃10쎯	-8.21094
cui❄48쎯	-8.21175
kuai❃3쎯gu❃74쎯	-8.21311
wu❃9쎯kong❃5쎯	-8.21317
ke❁55쎯	-8.21337
yan❂28쎯zhe❂33쎯	-8.21491
pi❄40쎯	-8.21538
di❁28쎯feng❄14쎯	-8.21649
tui❂33쎯	-8.2168
qiao❄13쎯	-8.21911
rou❂25쎯yi❂27쎯	-8.22105
pi❂20쎯ren❄6쎯	-8.22329
lv❄22쎯ju❁38쎯	-8.22341
mei❃4쎯	-8.22462
qiao❁31쎯	-8.22581
wan❃31쎯.	-8.22625
”ru❃9쎯	-8.22677
cha❂39쎯	-8.22702
gui❄51쎯	-8.22726
fu❄115쎯di❃18쎯	-8.23366
yin❂64쎯yan❃2쎯	-8.23496
she❄9쎯re❄5쎯	-8.23514
xi❂9쎯qiong❂72쎯	-8.23705
zhuo❂17쎯	-8.23792
sheng❄6쎯man❂32쎯	-8.23898
xiong❄12쎯	-8.23927
song❃15쎯	-8.24183
weng❄4쎯mi❄56쎯	-8.24329
li❃48쎯	-8.24339
guo❁25쎯	-8.24339
lang❃3쎯	-8.24704
qin❂5쎯tian❂38쎯	-8.24798
zhi❂16쎯	-8.24897
shi❁69쎯	-8.25081
lang❃10쎯qiang❄4쎯	-8.2534
qiu❂45쎯fu❂69쎯	-8.25515
qing❄17쎯bi❄235쎯	-8.25789
zha❁8쎯	-8.25901
wan❃43쎯	-8.2592
ju❄21쎯zuo❄4쎯	-8.25956
xiang❄24쎯xun❁20쎯	-8.26282
fu❄129쎯	-8.26892
qian❂29쎯	-8.26971
qi❃51쎯	-8.26973
xi❁173쎯	-8.27086
ling❂158쎯yi❂27쎯	-8.27098
tong❂62쎯	-8.27327
shi❄63쎯	-8.27617
dao❁7쎯	-8.27628
mu❄44쎯	-8.27643
jiao❃40쎯kang❃3쎯	-8.27847
,ju❄25쎯chuai❂1쎯	-8.27907
kang❂쎯	-8.27929
yi❄267쎯	-8.28089
zang❁0쎯xin❁23쎯	-8.28139
gu❄11쎯	-8.28189
,li❂122쎯	-8.28191
hu❂119쎯	-8.28245
kai❄8쎯	-8.28457
jie❂161쎯	-8.28475
쎁쎈	-8.28525
qi❂122쎯	-8.28855
yin❁53쎯	-8.28858
gui❁61쎯	-8.28868
ni❃23쎯	-8.29013
fu❄31쎯gui❄20쎯	-8.29123
chao❁16쎯	-8.29276
ai❄34쎯	-8.29393
—	-8.29485
kui❁1쎯	-8.29525
xun❁20쎯ying❁22쎯	-8.29556
sou❁22쎯	-8.30297
,yue❄60쎯,	-8.30681
gu❄16쎯	-8.30769
qian❁30쎯	-8.30838
bu❄62쎯you❄32쎯	-8.30888
wu❃49쎯	-8.31021
chong❁32쎯na❄31쎯	-8.31218
lei❃30쎯	-8.31463
xiong❂4쎯	-8.31464
quan❂54쎯	-8.31522
bin❄10쎯	-8.31826
fu❃6쎯li❂122쎯	-8.32329
tie❁5쎯tuan❂2쎯	-8.32462
쎁쎄	-8.32525
ci❃11쎯gao❃8쎯	-8.32743
tao❁32쎯	-8.33009
pao❂10쎯	-8.33041
xu❄42쎯	-8.33091
fu❁45쎯	-8.33143
lv❄22쎯li❂109쎯	-8.3319
gui❃35쎯	-8.3321
ji❄129쎯	-8.33334
jian❁2쎯	-8.33454
guan❄52쎯	-8.33523
”,	-8.3355
bin❄2쎯	-8.33553
zhe❂33쎯ta❄40쎯	-8.33566
du❄29쎯	-8.338
xiao❂15쎯	-8.3391
na❄6쎯	-8.34199
qi❁2쎯	-8.34286
chen❂57쎯	-8.34326
yu❄183쎯	-8.34397
ju❂29쎯	-8.34479
쎁쎇	-8.34488
qi❂124쎯	-8.34493
yu❄32쎯	-8.3468
qu❁82쎯	-8.3475
,ju❄25쎯	-8.34834
tong❂14쎯	-8.35019
chun❂22쎯	-8.35047
yan❃2쎯ba❁48쎯	-8.35144
mi❄56쎯yu❄68쎯	-8.35146
bao❄7쎯	-8.35224
jie❂129쎯yu❄68쎯	-8.35581
fu❄115쎯you❄42쎯	-8.35635
dao❁7쎯gu❃74쎯	-8.35643
xie❂16쎯yi❂157쎯	-8.35665
ti❁6쎯yi❂157쎯	-8.35712
chen❃5쎯	-8.35754
shu❁33쎯	-8.3576
wan❃0쎯ai❄32쎯	-8.3587
ye❄50쎯gun❄4쎯	-8.35886
gao❃19쎯	-8.36002
쎅쎀	-8.36027
ye❄73쎯he❂41쎯	-8.3607
dan❁11쎯ta❄103쎯	-8.36132
jing❄3쎯lv❄22쎯.	-8.36184
jing❃17쎯	-8.36269
ju❂85쎯	-8.3629
ju❄75쎯,	-8.3638
,shu❁47쎯	-8.36474
yi❁58쎯guang❁13쎯	-8.36519
jiao❁33쎯yu❄133쎯	-8.36534
huang❂43쎯ji❄205쎯	-8.3659
쎄쎀	-8.36609
ze❄17쎯he❂41쎯	-8.36901
ju❄55쎯	-8.3712
rong❂44쎯yao❃12쎯	-8.37413
liu❂10쎯	-8.3743
tang❂13쎯	-8.37547
sui❄32쎯ling❂158쎯	-8.37662
chuai❂1쎯zuo❄4쎯	-8.37821
na❄31쎯	-8.37831
ying❃29쎯	-8.37864
ben❁4쎯xiong❂4쎯	-8.37943
dai❄25쎯	-8.38068
ju❄21쎯	-8.38161
chen❄8쎯	-8.38347
lou❂31쎯ding❄4쎯	-8.38379
yan❃63쎯zan❁0쎯	-8.38462
liao❃5쎯wu❂27쎯	-8.38801
pi❁22쎯	-8.39147
zhi❂5쎯kai❃13쎯	-8.39167
bin❁38쎯	-8.39263
zi❃28쎯	-8.39265
jing❄3쎯lv❄22쎯	-8.39289
shi❄63쎯ke❁8쎯	-8.39329
lang❄0쎯gan❄30쎯	-8.39716
chu❄45쎯fu❂70쎯	-8.39852
fei❄44쎯	-8.39896
qin❄0쎯	-8.39949
suo❁6쎯	-8.40038
han❂12쎯	-8.40087
wu❃9쎯ling❂158쎯	-8.40111
ai❂5쎯	-8.40766
ya❄4쎯	-8.40816
gui❄72쎯	-8.40883
ruan❂1쎯	-8.40927
qiang❁22쎯rou❂25쎯	-8.41067
쎁쎃	-8.4111
huan❁6쎯	-8.41162
qiu❂80쎯mi❄56쎯	-8.413
tai❂30쎯zan❁0쎯	-8.41618
niu❄0쎯	-8.41662
ze❂3쎯di❃18쎯	-8.41731
xia❁0쎯dao❁4쎯	-8.41882
su❄61쎯	-8.4202
lv❄22쎯nie❄84쎯	-8.42141
jie❂129쎯mi❄56쎯	-8.42195
xian❂28쎯yong❃35쎯	-8.42227
ruan❃20쎯	-8.42281
chuai❂1쎯bao❃14쎯	-8.42316
jie❄23쎯	-8.42341
yan❃63쎯bin❄9쎯	-8.42522
gun❄4쎯po❂7쎯	-8.42529
kong❃5쎯	-8.42607
fen❃3쎯yan❃2쎯	-8.42697
huang❁19쎯li❄196쎯	-8.42773
zhuang❁7쎯zha❄26쎯	-8.42803
ying❃37쎯	-8.42816
zhe❂33쎯ren❄6쎯	-8.432
xu❁77쎯	-8.43381
di❄13쎯ji❄99쎯	-8.434
you❁38쎯	-8.43835
nie❄119쎯mie❁4쎯,	-8.43951
tan❂62쎯she❄18쎯	-8.4414
쎆쎀	-8.44402
dian❄35쎯	-8.44471
di❃18쎯zhe❂33쎯	-8.44585
li❂122쎯yao❃12쎯	-8.44753
li❂126쎯	-8.44827
qia❂0쎯jiao❁33쎯	-8.45127
chi❁9쎯	-8.45176
nuo❄6쎯	-8.45267
cuo❁1쎯	-8.45346
shen❄9쎯	-8.45539
mao❂17쎯	-8.45544
cha❄32쎯	-8.45548
”、“	-8.45656
can❄15쎯ze❂3쎯	-8.45723
tian❂38쎯	-8.45788
chi❃12쎯	-8.4605
lu❂31쎯shao❄3쎯	-8.46124
shan❁17쎯ji❁125쎯	-8.46246
yi❂125쎯tai❂30쎯	-8.46367
jing❄3쎯qian❂41쎯	-8.46478
he❄48쎯	-8.46825
nan❂30쎯	-8.47101
nie❄119쎯ta❄99쎯	-8.47261
zhi❁56쎯	-8.47568
gao❄0쎯	-8.47582
jie❄21쎯	-8.47607
dan❄40쎯	-8.477
ji❄194쎯	-8.47857
zhuang❁7쎯di❃18쎯	-8.48107
pu❂0쎯ji❂169쎯	-8.48134
cai❃16쎯	-8.48175
za❁23쎯	-8.48226
+	-8.48239
tun❄0쎯zhe❂33쎯	-8.48364
wei❃4쎯	-8.48567
yang❁12쎯	-8.48626
zhi❁70쎯,	-8.48644
dan❁2쎯di❃18쎯	-8.48697
zong❄14쎯zhi❁70쎯	-8.48806
lv❄46쎯mai❄10쎯	-8.48824
ding❁11쎯	-8.49149
chuai❂1쎯,	-8.49172
zhuan❁18쎯	-8.49413
pu❂16쎯chong❂28쎯	-8.49478
ye❄38쎯	-8.49522
쎈쎀	-8.49555
bao❁15쎯	-8.49597
yin❂18쎯	-8.49637
.《	-8.49889
ni❂38쎯	-8.49958
hu❄44쎯	-8.50332
tong❂14쎯ze❂3쎯	-8.5047
ye❄73쎯pai❂4쎯	-8.50521
can❃3쎯shi❂3쎯	-8.50576
ping❂44쎯li❂109쎯	-8.50768
yin❂64쎯cui❄48쎯	-8.50815
shui❄4쎯	-8.50934
xu❁37쎯	-8.50959
lu❃20쎯kai❁11쎯	-8.51063
zi❄22쎯	-8.51162
lu❄43쎯zhi❃58쎯	-8.51185
yin❂49쎯xin❁23쎯	-8.51257
xun❁20쎯	-8.51265
zhu❁14쎯	-8.51332
쎇gui❁61쎯	-8.51355
ju❃38쎯	-8.51441
fen❂2쎯chen❃5쎯	-8.51541
tuo❄6쎯	-8.51574
ci❄36쎯pang❁0쎯	-8.51586
zhan❄18쎯mai❄10쎯	-8.51781
kao❄2쎯huan❂12쎯	-8.51995
ju❂77쎯ju❄105쎯	-8.52005
......	-8.5227
gun❄4쎯ren❃13쎯	-8.52293
qiao❂24쎯	-8.52426
qu❂96쎯zao❃12쎯	-8.52456
bie❂0쎯	-8.52512
qu❂57쎯	-8.52549
쎂쎅	-8.52602
qi❄34쎯	-8.52611
yan❁54쎯	-8.52633
e❄54쎯	-8.52663
reng❂4쎯	-8.52688
bao❄7쎯dao❃22쎯	-8.52688
ting❁0쎯shuo❄33쎯	-8.53065
ke❂0쎯tan❂62쎯	-8.53191
hun❄30쎯	-8.53455
xi❁123쎯zhen❁70쎯	-8.53585
dai❁4쎯qiong❂72쎯	-8.53881
ji❄99쎯bin❁0쎯	-8.54237
mo❄7쎯	-8.54299
gun❄4쎯hou❄27쎯	-8.54308
fu❁67쎯	-8.54351
ju❃31쎯	-8.54404
xiong❂4쎯yi❂27쎯	-8.54565
tu❂52쎯	-8.54643
hou❂43쎯	-8.54652
zhuang❁0쎯	-8.54845
hua❄0쎯	-8.55186
xi❄4쎯	-8.55397
chao❃2쎯	-8.55452
re❄2쎯	-8.5549
fu❂79쎯	-8.55502
lai❄28쎯jian❃94쎯	-8.55607
*	-8.55676
pan❂20쎯	-8.55693
bi❄70쎯	-8.55764
lv❂5쎯	-8.55868
wu❃9쎯huan❂12쎯	-8.55893
yao❃12쎯	-8.55937
ju❄105쎯	-8.55993
yun❄32쎯pie❄1쎯	-8.56023
lv❄22쎯qiao❂8쎯	-8.56059
hui❁34쎯	-8.56158
hao❄14쎯	-8.5616
shi❄139쎯	-8.56205
쎁쎂gui❁61쎯	-8.56356
qiao❂33쎯	-8.5646
nie❄92쎯	-8.56541
ju❄55쎯shan❁17쎯	-8.56786
lou❂31쎯	-8.56953
×	-8.57061
ze❄17쎯pai❂4쎯	-8.57199
wen❂24쎯huang❁19쎯	-8.57402
she❄9쎯li❂76쎯	-8.57445
ti❄42쎯qi❄17쎯	-8.57518
yi❄368쎯	-8.57644
yin❁30쎯tui❂21쎯	-8.57661
dai❄25쎯di❄13쎯	-8.57882
cheng❂55쎯	-8.57885
an❁9쎯	-8.58042
qi❂100쎯	-8.58045
ling❂158쎯ta❄40쎯	-8.58055
chan❄19쎯chu❄45쎯	-8.5816
hua❂3쎯lei❄7쎯	-8.58322
ta❃1쎯	-8.58327
ji❄99쎯yu❁17쎯	-8.58396
li❄270쎯dan❃20쎯	-8.58451
yang❂13쎯	-8.58459
chong❁32쎯cai❂13쎯	-8.58471
xing❄6쎯li❂122쎯	-8.58761
su❁7쎯	-8.58827
zhuo❂66쎯	-8.59006
can❄15쎯	-8.59172
bing❃27쎯	-8.592
yuan❄6쎯	-8.5922
ren❄6쎯	-8.59322
zhi❁70쎯zui❄7쎯	-8.5934
qian❄20쎯shu❃27쎯	-8.59406
,di❁32쎯	-8.59437
re❄5쎯yin❂18쎯	-8.59481
gu❁29쎯kuai❃3쎯	-8.59491
ran❃21쎯	-8.595
쎁쎀gui❁61쎯	-8.5955
mang❂42쎯	-8.59569
hu❂21쎯	-8.59718
tian❄6쎯	-8.5983
ding❄19쎯	-8.59904
cha❂6쎯	-8.59905
lang❄0쎯	-8.60069
lv❄22쎯lu❃23쎯	-8.60091
jia❃6쎯	-8.60109
jiao❄32쎯di❄13쎯	-8.6015
tou❄5쎯	-8.60225
,quan❁4쎯	-8.60247
ke❁8쎯	-8.60283
shen❁63쎯	-8.6065
:“	-8.60788
xiao❁68쎯	-8.61007
ye❄50쎯zhi❂5쎯	-8.61009
fei❄44쎯gai❄1쎯	-8.61011
he❂47쎯mang❂20쎯	-8.61048
dai❄25쎯qiang❁22쎯	-8.61106
she❄9쎯	-8.61216
di❂9쎯	-8.61291
ling❂181쎯hou❄24쎯	-8.6143
hui❂17쎯da❁11쎯	-8.61452
jian❃105쎯	-8.61579
yan❄84쎯	-8.61662
qin❄0쎯ta❄99쎯	-8.61779
pin❂9쎯	-8.61873
sui❂2쎯	-8.62087
hu❂21쎯xiao❁68쎯	-8.62135
lai❄28쎯yan❁34쎯	-8.62146
ying❂62쎯ju❄75쎯	-8.62246
ju❁38쎯zi❁78쎯	-8.62307
pu❂0쎯们	-8.62319
zou❁10쎯	-8.62338
chong❁14쎯	-8.62364
du❂72쎯pi❁22쎯	-8.62434
zi❁106쎯yu❁17쎯	-8.6257
liao❃21쎯	-8.62619
en❁5쎯gui❁56쎯	-8.62659
zu❂29쎯	-8.62762
zhong❁24쎯she❄18쎯	-8.62883
ji❄52쎯	-8.63082
bin❁0쎯	-8.63119
yao❂61쎯	-8.63201
san❃7쎯	-8.63386
hui❃0쎯	-8.63389
lie❄86쎯yu❂72쎯	-8.63446
feng❄14쎯	-8.63511
zang❄10쎯	-8.63609
heng❂4쎯	-8.6364
bi❄103쎯	-8.63758
xia❄4쎯	-8.63865
huo❁1쎯	-8.63962
ming❂14쎯	-8.63966
ji❁84쎯	-8.63998
hui❄111쎯	-8.64027
pu❂16쎯	-8.64035
bao❃5쎯	-8.6411
gua❃0쎯	-8.64117
he❂41쎯shao❂7쎯	-8.64177
chi❁55쎯	-8.64289
ting❂17쎯zong❄7쎯	-8.64292
lve❄5쎯ti❁6쎯	-8.64341
qi❃18쎯	-8.64353
hu❁63쎯	-8.64474
diao❁40쎯	-8.64684
쎁쎀쎀	-8.64688
ba❂11쎯guai❄14쎯	-8.64703
shu❃27쎯	-8.6471
쎂쎄	-8.64801
ying❃29쎯yu❂112쎯	-8.6486
zhi❁70쎯ke❁55쎯	-8.6491
ji❄205쎯	-8.64966
nei❃8쎯	-8.65017
zuo❄27쎯	-8.6502
bo❂89쎯	-8.65142
ci❃11쎯guo❂1쎯	-8.65149
yao❃12쎯gu❃15쎯	-8.65305
ruan❃20쎯dang❁22쎯	-8.65362
yi❂125쎯quan❁4쎯	-8.65399
ge❂52쎯	-8.65428
wan❁10쎯	-8.65431
zhou❁58쎯	-8.65588
ta❄103쎯zui❃13쎯	-8.65674
lang❄0쎯huan❂12쎯	-8.65819
xiu❄3쎯	-8.65933
zai❃8쎯ji❁125쎯	-8.66231
ruan❂1쎯shi❄63쎯	-8.66244
ting❂20쎯gao❄0쎯	-8.66362
jiao❁43쎯	-8.66626
qi❁61쎯	-8.66677
yin❁30쎯	-8.66712
cheng❂49쎯	-8.66731
쎯	-8.66866
cheng❂85쎯	-8.66897
ao❃12쎯she❄18쎯	-8.66974
nai❂10쎯po❄2쎯	-8.66987
bao❄5쎯	-8.67089
ji❁77쎯fu❄31쎯	-8.67149
beng❄8쎯ke❂0쎯	-8.67176
xu❄33쎯	-8.67198
ao❂8쎯	-8.67308
zhuo❂17쎯huan❄32쎯	-8.67405
ji❄218쎯	-8.6741
niu❄0쎯xi❁94쎯	-8.67597
yan❄18쎯	-8.67667
pin❁6쎯	-8.67765
pu❃10쎯	-8.68011
lu❃20쎯	-8.68023
nai❂10쎯	-8.68112
ling❂158쎯,	-8.68225
jian❃4쎯	-8.68265
ji❄39쎯	-8.68348
nai❂2쎯	-8.68399
shu❃12쎯	-8.68513
shao❄3쎯jie❁14쎯	-8.68803
mang❂20쎯gan❄30쎯	-8.68841
zuo❂8쎯	-8.6889
ju❄62쎯he❂41쎯	-8.68931
bo❃3쎯	-8.69006
jiao❁33쎯di❃18쎯,	-8.69012
yan❁34쎯li❄270쎯	-8.69076
can❄7쎯qiu❂80쎯	-8.69108
qiong❂72쎯ai❄34쎯	-8.69173
po❄15쎯	-8.6918
ruan❄2쎯yan❁54쎯	-8.69264
tian❂18쎯cai❂13쎯	-8.69295
zou❁10쎯huo❄13쎯	-8.69371
ba❁10쎯ying❁22쎯	-8.69428
wan❂23쎯jiang❄20쎯	-8.69674
hu❂20쎯	-8.69692
ji❄99쎯yi❂27쎯	-8.69766
kang❄3쎯	-8.69843
li❄270쎯jian❃94쎯	-8.69997
tie❁5쎯he❂115쎯	-8.70253
mao❂44쎯	-8.70328
chong❂9쎯	-8.70341
ting❂20쎯ti❄42쎯	-8.70348
zi❁106쎯	-8.7044
yan❃2쎯se❄57쎯	-8.70794
쎁쎉	-8.70822
jue❄2쎯	-8.70827
sao❁28쎯	-8.70903
bao❄7쎯jue❂40쎯	-8.70905
kao❄2쎯ling❂158쎯,	-8.70919
chu❄0쎯	-8.70926
lang❄0쎯tui❂21쎯	-8.7174
feng❁30쎯	-8.71793
tu❂21쎯	-8.72108
bi❄203쎯shi❃26쎯	-8.7211
ju❂25쎯	-8.72395
teng❂24쎯	-8.72459
jiang❄1쎯	-8.72544
bu❄33쎯	-8.72652
quan❂54쎯ji❂169쎯	-8.72796
>	-8.72869
lin❂58쎯ting❂20쎯	-8.72913
yu❃8쎯	-8.73211
--	-8.73375
shi❄17쎯	-8.73426
you❁27쎯	-8.73629
.fu❂166쎯	-8.73829
tan❂62쎯beng❄18쎯	-8.73845
쎃쎂	-8.73965
zha❄26쎯ji❄166쎯	-8.74058
zang❁0쎯ao❃12쎯	-8.74098
di❃18쎯yu❃36쎯	-8.74185
li❄196쎯du❂72쎯	-8.7419
ou❃5쎯yi❂125쎯	-8.74217
nie❄104쎯	-8.74243
wu❂27쎯	-8.74271
mo❄40쎯	-8.74349
lv❄46쎯qiang❁22쎯	-8.7448
zhi❃58쎯ke❁12쎯	-8.74517
che❄20쎯wan❁23쎯	-8.74828
쎂쎀쎁쎀mai❄10쎯	-8.74841
fu❂69쎯bin❄9쎯	-8.75143
feng❁55쎯	-8.75154
zuo❄4쎯bing❃32쎯	-8.7521
he❂115쎯	-8.75487
》yi❂125쎯	-8.75561
si❁39쎯	-8.7583
duan❁11쎯	-8.75936
kun❃6쎯	-8.75963
hu❂4쎯xie❂16쎯	-8.76022
tian❄3쎯po❄2쎯	-8.76057
zhuo❂50쎯fu❂71쎯	-8.76061
pao❃0쎯	-8.76082
jing❁27쎯	-8.76194
xie❄21쎯	-8.76254
fen❁39쎯pai❂4쎯	-8.76266
zao❄26쎯	-8.76306
sui❄66쎯	-8.76414
ran❂5쎯	-8.76609
yan❃118쎯qian❂29쎯	-8.76627
chan❂50쎯	-8.76818
ban❃8쎯	-8.76831
po❂7쎯du❄3쎯	-8.76845
chou❄5쎯	-8.76866
)、	-8.76929
huan❂12쎯li❂122쎯	-8.77098
shao❃5쎯	-8.77138
xie❄21쎯rong❂58쎯	-8.77181
cong❂42쎯	-8.77194
jie❂91쎯xiong❂4쎯	-8.77212
ju❁38쎯gu❃15쎯	-8.77329
liao❃5쎯	-8.77542
ba❁10쎯	-8.77636
xian❃40쎯	-8.77681
rao❂9쎯	-8.77702
qian❂7쎯	-8.7784
cheng❂64쎯	-8.77871
sang❃13쎯	-8.77876
lv❂5쎯hua❄17쎯	-8.77935
ruan❂1쎯tai❄4쎯	-8.78023
cu❄4쎯	-8.78098
ze❂15쎯	-8.78438
ling❂158쎯dao❃0쎯	-8.78527
song❄9쎯	-8.78581
jiao❁33쎯di❃18쎯.	-8.78775
nin❂1쎯	-8.78777
yong❁4쎯	-8.78845
pu❂6쎯	-8.7886
quan❂54쎯fen❂2쎯	-8.78882
hun❁14쎯ju❁38쎯	-8.78885
nie❄119쎯mie❁4쎯	-8.78905
cha❄29쎯pin❁6쎯	-8.78929
mu❃11쎯huo❄45쎯	-8.79056
bi❄263쎯rong❂58쎯	-8.79127
gui❄5쎯	-8.79157
ni❂13쎯ya❁28쎯	-8.79178
yi❂114쎯ta❄61쎯	-8.79212
jie❁14쎯	-8.79253
dao❃1쎯	-8.79302
쎇쎀	-8.7932
dao❄17쎯	-8.79397
zuo❄9쎯zhuo❂50쎯	-8.79405
pi❂20쎯	-8.79416
hui❄33쎯	-8.79443
쎈gui❁61쎯	-8.79447
쎂쎂	-8.79486
yi❂27쎯bu❄33쎯	-8.79744
huang❁24쎯	-8.79787
kuang❁0쎯	-8.79813
shen❁45쎯	-8.80141
cai❂13쎯he❂41쎯	-8.80142
쎉gui❁61쎯	-8.80172
쎂쎀쎀쎈mai❄10쎯	-8.80242
bi❄203쎯bin❄10쎯	-8.80261
zi❁61쎯gun❄4쎯	-8.80298
zhu❄70쎯	-8.80534
ba❃2쎯	-8.80582
di❃18쎯li❂109쎯	-8.80599
pie❁1쎯	-8.80633
dang❄28쎯	-8.80755
sui❄48쎯	-8.80868
mo❄30쎯	-8.80907
bu❄33쎯qiu❂80쎯	-8.81082
zi❄22쎯lan❂18쎯	-8.81112
쎂쎀쎀쎉mai❄10쎯	-8.81139
an❁1쎯	-8.81158
ba❂20쎯	-8.8116
hua❂3쎯	-8.81226
gu❁29쎯hu❂71쎯	-8.81249
bing❃32쎯	-8.81321
diao❄25쎯	-8.81347
cai❃16쎯ta❄60쎯	-8.814
~	-8.81468
zhi❂16쎯bing❃32쎯	-8.81564
쎂쎀쎀쎆mai❄10쎯	-8.81577
,gun❃2쎯	-8.81653
xiao❄14쎯	-8.81674
lv❄22쎯gou❃8쎯	-8.81752
lou❂11쎯	-8.81823
ju❂77쎯	-8.81866
m	-8.81895
bao❄7쎯cai❂13쎯	-8.81941
yang❂24쎯	-8.82029
zhi❃58쎯wan❃31쎯	-8.82045
mo❄21쎯	-8.82065
zhu❂37쎯	-8.82086
,ruan❄2쎯ta❄40쎯	-8.82087
du❂72쎯lin❂62쎯	-8.82156
pian❂16쎯	-8.82199
duan❁3쎯	-8.82246
li❄5쎯qian❂27쎯	-8.82267
tao❂6쎯	-8.82336
fu❄6쎯	-8.82346
jiong❃28쎯	-8.82473
,du❂72쎯shao❄3쎯	-8.82554
lv❄46쎯gou❃8쎯	-8.82626
qu❂40쎯	-8.82713
xie❂16쎯yi❂157쎯:	-8.82746
ba❁41쎯diao❁40쎯	-8.82944
er❂18쎯	-8.82946
san❃3쎯	-8.8302
li❄196쎯“	-8.8314
li❂109쎯wei❃30쎯	-8.83144
yun❁9쎯	-8.8327
lv❄22쎯zhi❁56쎯	-8.83273
xi❄31쎯yi❂114쎯	-8.8336
yong❁32쎯cai❂13쎯	-8.8342
ping❂44쎯	-8.83421
ru❃9쎯“	-8.8343
wu❃9쎯rong❂58쎯	-8.83532
ci❃11쎯po❂9쎯	-8.83558
qi❁18쎯	-8.83829
kuai❄26쎯	-8.83874
lve❄25쎯	-8.83918
lang❃10쎯	-8.83921
ji❄160쎯qu❂96쎯	-8.83998
xu❁78쎯	-8.84022
weng❁5쎯	-8.84036
luo❂0쎯	-8.84061
xi❁68쎯	-8.8413
hu❁58쎯	-8.8418
lei❄7쎯bu❄33쎯	-8.84263
sui❂2쎯bin❄10쎯	-8.84274
bian❄65쎯	-8.84291
shen❃13쎯	-8.84335
liao❂23쎯	-8.84482
ge❂69쎯	-8.84507
lve❄5쎯zhi❃58쎯	-8.84519
쎄쎅	-8.84559
xiang❄24쎯zha❃6쎯	-8.84571
he❄39쎯	-8.84696
e❄156쎯	-8.8474
zhi❂0쎯	-8.84799
lang❄0쎯yang❃22쎯	-8.84896
pang❂5쎯	-8.84927
kong❃5쎯huan❂12쎯	-8.84935
bao❄7쎯ti❁6쎯	-8.84948
na❄26쎯guang❁13쎯	-8.84966
12쎯	-8.85054
zhang❄20쎯	-8.85114
cheng❂49쎯zan❁1쎯	-8.85183
lve❄5쎯ti❁6쎯ru❃9쎯	-8.85228
쎁쎁gui❁61쎯	-8.85362
,hui❄13쎯	-8.85365
qin❃11쎯	-8.85384
ji❁77쎯	-8.85394
sou❁36쎯	-8.85492
si❁36쎯	-8.85525
,pi❄40쎯	-8.85698
die❂19쎯	-8.85883
lang❄0쎯li❂162쎯	-8.8594
yan❁9쎯	-8.8596
heng❂22쎯ju❂29쎯	-8.86129
shao❂7쎯	-8.86253
sui❄32쎯	-8.86283
nie❄104쎯jiao❃40쎯	-8.86289
tan❂62쎯ji❄23쎯,	-8.86294
쎂쎃	-8.86331
tu❂15쎯	-8.86332
li❂28쎯mo❄114쎯	-8.86421
ci❄40쎯	-8.86474
chao❄12쎯chan❂50쎯	-8.86509
yi❄381쎯huang❁19쎯	-8.86526
cu❄22쎯	-8.86589
cai❂13쎯pai❂4쎯	-8.86627
,bo❁6쎯	-8.86806
lv❄22쎯ta❄14쎯	-8.8699
you❁38쎯po❄2쎯	-8.87059
》,	-8.87096
15쎯	-8.87121
shi❄8쎯	-8.8721
yan❃2쎯ruan❄2쎯	-8.8738
=	-8.87429
쎂쎀쎀쎇mai❄10쎯	-8.87433
feng❂14쎯	-8.87487
lang❁쎯	-8.87551
mei❃3쎯	-8.8756
ni❂37쎯	-8.877
ren❃13쎯	-8.87787
dao❁4쎯	-8.87807
chou❂58쎯an❁3쎯	-8.87823
zuo❃2쎯lv❄46쎯	-8.87897
wai❃1쎯	-8.87919
zhen❁15쎯	-8.88068
dui❄19쎯sheng❄6쎯	-8.88405
chong❁7쎯zui❄7쎯	-8.88521
huan❂60쎯	-8.88587
ni❄14쎯	-8.88592
liu❂10쎯fang❃16쎯	-8.88769
zu❂7쎯	-8.88797
guai❄14쎯ru❃9쎯	-8.88916
huo❄45쎯ke❁8쎯	-8.89034
nie❄119쎯shi❂1쎯	-8.89035
kai❃13쎯wu❃9쎯	-8.89058
jing❄3쎯lv❄22쎯,	-8.89095
zhi❄29쎯	-8.89126
shi❂2쎯	-8.89241
huang❃28쎯	-8.89262
huan❂12쎯pie❄1쎯	-8.89357
ci❃11쎯li❄196쎯	-8.89418
pou❂0쎯	-8.8945
wu❄3쎯们	-8.89546
chan❁26쎯	-8.89805
qiao❁30쎯	-8.89848
li❄5쎯bie❁11쎯	-8.89862
fen❁39쎯he❂41쎯	-8.89981
ti❃10쎯yong❃30쎯	-8.90024
shuang❁20쎯	-8.90035
ci❃11쎯ci❄40쎯	-8.90108
chan❄17쎯yao❄42쎯	-8.90154
gan❄25쎯	-8.90236
yi❂114쎯long❂72쎯	-8.9042
yan❂41쎯	-8.9046
xiao❄35쎯she❄18쎯	-8.90493
fu❃23쎯	-8.90659
hai❄29쎯	-8.90669
shao❃5쎯cang❁5쎯	-8.9076
lu❄43쎯	-8.90862
tian❂15쎯	-8.90865
qin❂1쎯ke❁55쎯	-8.90957
jiang❄20쎯yan❁34쎯	-8.90957
yi❄239쎯	-8.90984
en❁5쎯chu❄45쎯	-8.9104
gai❄1쎯qiang❁22쎯	-8.91104
yin❂3쎯	-8.91117
po❂7쎯ji❂169쎯	-8.91156
zuo❄4쎯dun❄22쎯	-8.91209
tu❂68쎯	-8.91302
xun❁8쎯shu❄51쎯	-8.91338
ting❁0쎯zong❄14쎯	-8.91397
fu❂88쎯	-8.914
bo❁6쎯chu❄45쎯	-8.91439
쎃쎅	-8.91456
yi❄211쎯	-8.91458
li❂122쎯ping❂53쎯	-8.9148
li❄196쎯ku❃2쎯	-8.91491
fen❂36쎯	-8.91523
dang❁1쎯	-8.91531
,wu❄3쎯	-8.91654
rong❃16쎯	-8.91683
zhi❁56쎯zi❁106쎯	-8.91687
yong❃39쎯	-8.91758
yao❄42쎯	-8.91856
mo❄30쎯shu❂7쎯	-8.91893
hong❂61쎯	-8.91906
ao❁7쎯	-8.9196
yong❁1쎯	-8.91968
ai❄32쎯pie❄1쎯	-8.92217
쎁.	-8.92274
biao❁38쎯ke❂0쎯	-8.9243
ni❃6쎯	-8.92544
tian❂18쎯fu❂69쎯	-8.92544
yin❂18쎯ci❃11쎯	-8.92622
huo❄58쎯	-8.9264
li❄270쎯yu❃64쎯	-8.92716
xiao❁28쎯	-8.92799
ji❄129쎯dian❃2쎯	-8.92933
xi❄4쎯qian❁70쎯	-8.93
yun❂5쎯	-8.93227
gai❁17쎯	-8.93395
guang❁13쎯ru❂27쎯	-8.93509
qian❁6쎯wan❁10쎯	-8.93554
chuai❂1쎯ba❁10쎯	-8.93672
쎂쎀쎀쎅mai❄10쎯	-8.93677
ti❁6쎯shang❁17쎯	-8.93753
pin❂10쎯	-8.93894
nan❂30쎯qian❂41쎯	-8.939
qin❃8쎯	-8.93959
feng❁22쎯	-8.94081
zan❁0쎯	-8.94135
쎂쎆	-8.94189
ke❁12쎯	-8.94291
lou❂31쎯wen❂24쎯	-8.943
jie❂11쎯xi❁26쎯	-8.94392
ta❄13쎯ju❄25쎯	-8.94481
bing❄11쎯	-8.94545
li❄270쎯yin❂49쎯	-8.94691
guang❃6쎯	-8.94862
ji❄99쎯ru❃9쎯	-8.949
hou❄24쎯	-8.94923
tan❂62쎯ji❄23쎯	-8.95005
fan❂20쎯	-8.95081
shan❁17쎯ta❄40쎯	-8.95108
yan❃118쎯yi❄242쎯	-8.95191
chi❁14쎯	-8.95207
wang❃30쎯bing❃27쎯	-8.95217
쎉쎀	-8.95228
jian❃94쎯,	-8.95279
li❄5쎯luo❂2쎯	-8.95383
ju❄25쎯re❄2쎯	-8.9547
er❃7쎯	-8.95533
wei❂76쎯	-8.95552
wan❃31쎯qiao❄13쎯	-8.95629
yi❂125쎯lv❄22쎯	-8.95661
che❄8쎯	-8.95684
쎆gui❁61쎯	-8.95892
quan❁4쎯ta❄40쎯	-8.95962
lu❃20쎯niao❃28쎯	-8.96194
lin❃13쎯	-8.96263
ce❄9쎯ji❂169쎯	-8.96292
e❃10쎯	-8.96313
gen❁0쎯	-8.96443
gai❄1쎯yong❃30쎯	-8.96451
》wan❃31쎯	-8.96487
쎂쎈	-8.96492
yan❁34쎯	-8.96516
ke❂0쎯guo❃24쎯	-8.96586
chua❁3쎯	-8.96633
ci❂19쎯	-8.96738
pu❄0쎯	-8.96774
tui❄1쎯,	-8.96839
ju❂25쎯luo❂2쎯	-8.96853
wan❃10쎯	-8.96903
rang❃4쎯	-8.97003
qing❄17쎯xin❁3쎯	-8.97065
wo❄26쎯	-8.97193
luo❂35쎯	-8.97359
xie❂30쎯	-8.97444
mang❂20쎯yi❁58쎯	-8.9749
,en❁5쎯	-8.97505
meng❂84쎯	-8.97524
yan❂90쎯	-8.97622
jiu❁2쎯	-8.97718
qin❃10쎯	-8.97757
fu❄114쎯zhe❂33쎯	-8.97758
zhang❁28쎯	-8.97899
ren❄0쎯jian❃4쎯	-8.97926
dao❃4쎯	-8.98
yan❁61쎯chong❁14쎯	-8.98051
yi❁65쎯	-8.98063
jiang❄20쎯yu❄68쎯	-8.98068
쎂쎁	-8.98114
jie❂11쎯	-8.98134
bo❂138쎯	-8.98152
ne❄6쎯	-8.98164
ren❄0쎯shuo❄33쎯	-8.98212
gong❁18쎯	-8.98407
yan❃46쎯	-8.98438
cong❁69쎯	-8.98507
hua❄17쎯jiang❄20쎯	-8.9854
e❄60쎯	-8.98651
li❂52쎯	-8.98781
kou❃6쎯	-8.9883
beng❄8쎯	-8.98859
qi❄17쎯	-8.99034
ge❂66쎯	-8.99056
쎂쎀쎀	-8.99219
dao❄26쎯	-8.99238
han❄48쎯	-8.99306
yan❃2쎯zhi❂5쎯	-8.9935
ping❂53쎯ai❄34쎯	-8.99498
bi❃2쎯	-8.99551
.ju❄25쎯	-8.99853
heng❂22쎯tang❂13쎯	-8.9992
ci❄36쎯zhuang❁10쎯	-8.99922
gui❁55쎯	-9.00003
shu❁47쎯	-9.00093
gai❄4쎯nao❃8쎯	-9.00153
shao❄0쎯	-9.00155
gao❁0쎯	-9.00243
gao❄5쎯	-9.0026
jie❂125쎯	-9.00329
qiao❂3쎯dang❁1쎯	-9.00447
bi❄113쎯	-9.00474
bu❄62쎯yao❃12쎯	-9.00574
yao❃20쎯dao❃22쎯	-9.00741
yu❃52쎯	-9.00822
lai❂43쎯	-9.00855
can❄7쎯	-9.00855
huo❁0쎯	-9.00859
tang❄0쎯	-9.01065
jian❃94쎯jiao❁33쎯	-9.01106
gan❄31쎯fu❂70쎯	-9.01116
kui❂22쎯	-9.01184
du❁10쎯you❄42쎯	-9.0126
dai❄55쎯	-9.01263
zhuang❁7쎯bi❄70쎯	-9.0137
ji❁7쎯	-9.01383
lu❄79쎯	-9.01482
chuan❁10쎯	-9.01529
gui❄80쎯	-9.0162
bi❄189쎯	-9.01685
huan❂12쎯shu❂7쎯	-9.01771
qiu❂31쎯	-9.0182
za❂8쎯ya❁28쎯	-9.01994
pi❃2쎯	-9.02015
ruan❃20쎯yan❂90쎯	-9.02066
dai❁4쎯bi❄203쎯	-9.02148
dao❃4쎯dang❁22쎯	-9.02215
ji❄99쎯xie❂16쎯	-9.02222
huo❁1쎯yi❂27쎯	-9.02376
chao❃7쎯	-9.02523
zhuan❄29쎯	-9.02545
qian❁51쎯	-9.02558
lv❄22쎯gan❄4쎯	-9.02598
쎂쎀쎀쎄mai❄10쎯	-9.02612
yang❄4쎯yi❂125쎯	-9.02631
yin❂49쎯	-9.02678
duo❃15쎯	-9.02701
liu❂84쎯	-9.02742
du❂5쎯	-9.02743
fen❃3쎯jiao❁33쎯	-9.02776
yan❄84쎯mai❄10쎯	-9.02781
,wo❁5쎯	-9.02798
ni❂36쎯	-9.02811
yi❄242쎯	-9.02842
lv❄22쎯wen❂24쎯	-9.02905
bo❂46쎯	-9.02919
21쎯	-9.02933
们	-9.02986
you❁27쎯rong❂58쎯	-9.03047
mao❂11쎯xi❄4쎯	-9.03105
》(	-9.03229
jiang❄2쎯	-9.03307
kuai❃3쎯yan❃2쎯	-9.03404
qing❄17쎯bi❄235쎯,	-9.03435
ci❁18쎯	-9.03493
dai❄25쎯lu❃23쎯	-9.03562
fu❃16쎯nei❃8쎯	-9.03601
tao❁10쎯	-9.03694
'	-9.03783
fan❂20쎯pou❂0쎯	-9.03809
bi❃14쎯	-9.03874
can❂22쎯	-9.04032
bao❄7쎯su❄13쎯	-9.04056
ai❄47쎯	-9.04128
gui❁56쎯	-9.04158
tui❂21쎯	-9.04276
,zong❄14쎯zhi❁70쎯	-9.04291
bang❁12쎯	-9.0457
qiong❂72쎯yang❄4쎯	-9.04631
zi❁34쎯	-9.04644
,tang❁14쎯	-9.04655
yu❂68쎯	-9.04715
na❄26쎯	-9.04731
24쎯	-9.04736
zou❁10쎯wan❁10쎯	-9.04804
hua❂2쎯lv❄22쎯	-9.04828
.du❂72쎯shao❄3쎯	-9.04938
wan❂13쎯qiu❁23쎯	-9.05023
jiu❄4쎯	-9.05031
sheng❄6쎯du❄22쎯	-9.05034
yu❄133쎯	-9.0508
jie❁15쎯	-9.05138
yi❂27쎯yong❃30쎯	-9.05255
yan❃96쎯po❄2쎯	-9.05258
zhuang❁7쎯you❄42쎯	-9.05423
xi❁167쎯	-9.05491
kong❃5쎯shi❃26쎯	-9.05509
qing❄3쎯	-9.05602
xi❁191쎯gun❄4쎯	-9.05648
chuo❄0쎯	-9.05654
yi❄83쎯	-9.05658
ti❄15쎯	-9.05717
쎂쎇	-9.05948
ben❁4쎯xun❁20쎯	-9.05949
yu❂72쎯	-9.06068
lu❄43쎯kao❄2쎯	-9.06185
lv❄22쎯qu❂96쎯	-9.06211
xi❄31쎯ke❂0쎯	-9.06232
xiang❂16쎯	-9.06276
zang❁0쎯ta❄103쎯	-9.06388
gui❃14쎯qin❂1쎯	-9.06392
nie❄104쎯he❂115쎯	-9.06393
ying❃36쎯zhi❁0쎯	-9.06477
qiu❂82쎯	-9.06604
ju❁5쎯	-9.06647
xie❂34쎯	-9.06863
lv❄46쎯di❄13쎯	-9.06915
yi❄230쎯	-9.06972
hun❂15쎯li❄196쎯	-9.07028
mei❂12쎯	-9.07066
hu❂67쎯	-9.07179
lv❄22쎯qiu❂82쎯	-9.07206
zhuo❂9쎯	-9.07214
쎂쎀쎀쎃mai❄10쎯	-9.07349
chu❄45쎯xie❂76쎯	-9.0736
cou❄6쎯luo❂2쎯	-9.07381
zhuo❁3쎯ta❄61쎯	-9.07386
yan❁61쎯li❄196쎯	-9.07459
qi❄36쎯	-9.07487
yao❃12쎯ta❄40쎯	-9.07545
e❄38쎯dian❄34쎯	-9.07563
wu❃12쎯	-9.07613
ting❁8쎯qiao❂8쎯	-9.07648
gan❄31쎯	-9.07704
gui❄20쎯	-9.0788
fu❄115쎯ru❃0쎯	-9.08125
ge❂69쎯yu❃36쎯	-9.08131
li❄5쎯ci❄40쎯	-9.0817
tang❃12쎯chong❁7쎯	-9.0821
chi❁14쎯ta❄14쎯	-9.08233
ping❂53쎯fu❂70쎯	-9.08256
yi❁32쎯	-9.08314
weng❄4쎯	-9.08328
gu❁29쎯	-9.08421
di❁26쎯	-9.08444
fu❂71쎯	-9.08503
nao❃9쎯ke❃7쎯	-9.08549
zhi❃58쎯chuai❂1쎯	-9.08625
lv❄22쎯xing❄6쎯	-9.08656
dui❄19쎯	-9.08693
cha❄29쎯ju❂29쎯	-9.08779
ta❄34쎯	-9.0881
fu❂142쎯yan❁34쎯	-9.08874
lv❄32쎯	-9.08914
qiu❂31쎯yu❄183쎯	-9.08941
쎂.	-9.08943
chui❁3쎯	-9.09052
song❄1쎯lang❃10쎯	-9.09109
duan❄4쎯	-9.09191
쎄쎈	-9.09215
xie❄146쎯	-9.09342
쎂쎀쎀쎂mai❄10쎯	-9.09378
zhi❁70쎯bang❁16쎯	-9.09415
deng❃1쎯	-9.09436
tan❂62쎯huan❂60쎯	-9.09461
qiao❁31쎯zi❁106쎯	-9.09498
you❁27쎯yan❃96쎯	-9.09537
liang❃2쎯gan❄4쎯	-9.0954
du❂72쎯bo❂79쎯	-9.09545
cha❄29쎯	-9.09575
can❄15쎯ai❄34쎯	-9.09696
쎃gui❁61쎯	-9.09755
nie❄119쎯xian❃58쎯	-9.09806
gui❃14쎯	-9.0989
qing❁21쎯	-9.0992
쎃쎆	-9.09975
lang❂0쎯	-9.10001
ke❂0쎯bu❄33쎯	-9.10057
ba❁12쎯ai❁9쎯	-9.10169
kuai❃3쎯ba❂2쎯	-9.10205
su❄120쎯	-9.10226
.huan❂12쎯pie❄1쎯	-9.10309
ting❁0쎯ji❄193쎯	-9.10372
qi❄35쎯	-9.10378
yin❂18쎯re❄5쎯	-9.10443
yu❂112쎯mang❂20쎯	-9.10546
rong❂58쎯li❄196쎯	-9.10648
cang❂7쎯	-9.10655
jie❂33쎯duo❃43쎯	-9.10786
ba❁10쎯jian❁2쎯	-9.10818
dai❁4쎯jiao❁43쎯	-9.10834
cha❂6쎯dang❄8쎯	-9.10871
ji❄166쎯	-9.11
ai❄35쎯	-9.11001
ba❂11쎯gao❄16쎯	-9.11022
you❁22쎯、	-9.11033
shao❃0쎯ke❁55쎯	-9.11353
xuan❄33쎯jian❃4쎯	-9.11369
yao❃18쎯	-9.11372
you❄12쎯	-9.11394
qi❃18쎯lv❄46쎯	-9.11557
chu❄38쎯	-9.11586
yi❄239쎯xie❄11쎯	-9.11634
ban❃1쎯	-9.11768
,hu❂71쎯	-9.11878
yu❃36쎯,	-9.11925
qu❁43쎯	-9.11954
yan❂101쎯fen❃3쎯	-9.12004
yan❂28쎯	-9.12008
tan❁10쎯	-9.1202
bi❄203쎯tai❄4쎯	-9.12038
shi❄63쎯qian❂41쎯	-9.12064
쎀	-9.12129
cai❂13쎯ci❄36쎯	-9.12155
bi❄203쎯qu❂96쎯	-9.12408
30쎯	-9.12617
jie❁25쎯	-9.12708
,gun❃24쎯	-9.12792
yi❄267쎯ya❁28쎯	-9.12812
zai❃8쎯	-9.12907
ni❃6쎯wan❄13쎯	-9.13031
qiao❁31쎯pu❁21쎯	-9.13034
xu❄43쎯	-9.13052
niao❃28쎯	-9.13084
yi❄228쎯yu❃36쎯	-9.13387
si❄59쎯	-9.13393
dao❃22쎯fu❂142쎯	-9.13418
da❄10쎯	-9.13449
gai❄4쎯	-9.13501
ju❂85쎯guan❄52쎯	-9.13525
se❄57쎯	-9.13604
ai❂9쎯	-9.137
qi❃25쎯	-9.13794
yu❄68쎯	-9.13832
lei❄18쎯yan❃2쎯	-9.13836
쎂쎀쎀쎀mai❄10쎯	-9.13862
shi❁8쎯	-9.13902
yan❃118쎯chuo❄0쎯	-9.13923
you❄42쎯	-9.14045
gen❁0쎯bao❄7쎯	-9.14106
gan❃25쎯	-9.14264
xu❁37쎯zhuang❁10쎯	-9.14286
xiu❁46쎯	-9.14288
tun❄0쎯zi❃5쎯	-9.14322
cuo❁1쎯lian❂60쎯	-9.14341
qiong❂72쎯ku❃2쎯	-9.14412
die❂109쎯	-9.14423
li❂76쎯di❄13쎯	-9.14437
qu❁58쎯ju❃38쎯	-9.14458
쎅gui❁61쎯	-9.14466
kao❄2쎯yu❁17쎯	-9.14529
ru❄10쎯	-9.14553
bu❄62쎯jian❁60쎯	-9.14711
ba❁41쎯hu❁63쎯	-9.14804
shi❃11쎯bu❄62쎯	-9.14855
lou❄2쎯	-9.14865
xi❁6쎯tian❄3쎯	-9.14932
쎆쎄	-9.14934
kong❃5쎯zong❄7쎯	-9.14953
gun❄4쎯ren❃13쎯、	-9.14984
rong❃28쎯	-9.15004
jian❁100쎯fu❂69쎯	-9.1502
ran❃17쎯	-9.15138
yan❃96쎯kao❄2쎯	-9.15182
qiang❁28쎯	-9.15184
xi❄46쎯	-9.15206
bi❄186쎯tian❄11쎯	-9.15285
bu❄33쎯ning❂7쎯	-9.15336
ji❄99쎯ti❁6쎯	-9.15436
pi❂60쎯	-9.15515
xia❁0쎯	-9.15645
tui❂21쎯jiao❁33쎯	-9.15682
zhu❄42쎯	-9.15683
ling❂158쎯gui❄20쎯	-9.15721
nie❄65쎯	-9.15761
qiu❂51쎯	-9.15801
long❂68쎯	-9.15817
lan❂8쎯	-9.15891
shan❄7쎯	-9.15911
she❄9쎯qin❂5쎯	-9.16045
cong❁69쎯ke❁12쎯	-9.16092
ling❂42쎯	-9.16094
chong❂28쎯	-9.16152
jian❁41쎯nan❂30쎯	-9.16181
쎃쎃	-9.16202
da❁33쎯	-9.16204
huo❄103쎯	-9.16331
er❂18쎯deng❃1쎯	-9.16344
quan❂54쎯zuo❄4쎯	-9.16389
쎂쎀쎁쎁mai❄10쎯	-9.16437
qu❁21쎯zhi❂5쎯	-9.16452
wei❂17쎯	-9.16531
tu❃0쎯ke❂0쎯	-9.16541
tai❂15쎯	-9.16547
ren❄0쎯yi❂114쎯	-9.16557
feng❄5쎯	-9.16564
zi❄22쎯you❁38쎯	-9.1671
ba❁48쎯	-9.16721
kui❂41쎯	-9.16773
cheng❂89쎯	-9.16777
gou❁4쎯	-9.1685
14쎯	-9.16956
he❂71쎯	-9.16965
lan❄17쎯	-9.17049
hui❂17쎯	-9.17083
dian❄34쎯	-9.17151
tan❂62쎯huo❁0쎯	-9.17194
fu❃6쎯	-9.1721
xu❄42쎯shi❄63쎯	-9.17265
yin❁30쎯li❂122쎯	-9.17316
xi❄35쎯	-9.17322
lang❄0쎯zhe❂33쎯	-9.17347
shu❄41쎯	-9.17371
fu❄114쎯shang❁17쎯	-9.17418
yi❄230쎯qia❂0쎯	-9.17436
ju❄6쎯	-9.1763
쎄gui❁61쎯	-9.17632
ling❂158쎯shuo❄3	-9.17678
zang❁0쎯qiao❂8쎯	-9.17679
xian❄20쎯	-9.17688
ta❄28쎯	-9.1773
li❄5쎯jian❃105쎯	-9.1774
°	-9.17863
,bi❄186쎯	-9.17886
jiao❁33쎯mu❄44쎯	-9.17888
ke❂0쎯yong❃30쎯	-9.17951
yi❄10쎯li❂122쎯	-9.18221
jie❂91쎯	-9.18261
bang❁16쎯	-9.18345
zhi❁0쎯	-9.18382
guan❄42쎯yan❁34쎯	-9.18399
bian❃6쎯	-9.18429
bao❄7쎯du❄22쎯	-9.18439
xiang❄24쎯ji❁164쎯	-9.18489
xun❂31쎯cou❄6쎯	-9.18536
ling❂33쎯	-9.18575
쎅쎀쎀	-9.18618
ke❁55쎯bu❄33쎯	-9.18655
si❄52쎯	-9.18684
jiao❁33쎯jie❂129쎯	-9.18798
ti❁6쎯yin❂64쎯	-9.18809
che❄20쎯heng❂4쎯	-9.18817
lve❄5쎯zi❁34쎯	-9.18933
gao❄16쎯ben❁4쎯	-9.19058
xie❄11쎯	-9.191
gui❄80쎯dao❃22쎯	-9.19188
ou❃15쎯chong❁7쎯	-9.19236
shuo❄14쎯	-9.19246
xie❄11쎯gan❄30쎯	-9.19306
ji❃2쎯	-9.19425
ruan❃20쎯dao❃4쎯	-9.1956
tuo❄6쎯ru❃0쎯	-9.19619
chong❂9쎯su❄105쎯	-9.19669
ben❁4쎯quan❁4쎯	-9.19674
diao❄25쎯zhe❄9쎯	-9.19725
shen❃35쎯lin❂62쎯	-9.19786
chi❃3쎯	-9.19852
zuo❃2쎯	-9.19854
zhu❁34쎯	-9.19883
쎂쎀쎀쎁mai❄10쎯	-9.19912
ti❃10쎯	-9.19923
wei❂29쎯	-9.19964
.wu❄3쎯	-9.19987
juan❁1쎯	-9.19993
shan❄6쎯	-9.20044
,re❄2쎯	-9.20069
yuan❂20쎯	-9.20094
tai❄4쎯yan❁34쎯	-9.20174
쎃.	-9.20444
sui❂2쎯bin❄10쎯pi	-9.2047
쎁gui❁61쎯	-9.20503
xian❂10쎯	-9.20509
》.	-9.20523
ci❃11쎯xie❂16쎯	-9.20527
jin❁30쎯	-9.20529
dan❁18쎯	-9.20564
yi❃15쎯	-9.2065
wu❄3쎯ru❃9쎯	-9.20757
mi❂6쎯	-9.20827
chao❁16쎯shi❂1쎯	-9.20889
.nie❄119쎯pie❁1쎯	-9.20922
ji❂169쎯shi❄63쎯	-9.21059
chan❄19쎯ru❃9쎯	-9.21174
zui❄7쎯qian❂41쎯	-9.21188
ling❂140쎯	-9.21207
ke❁12쎯ru❃0쎯	-9.21283
tai❄4쎯shi❄63쎯	-9.21376
wo❁5쎯luo❂0쎯	-9.21393
wa❁21쎯	-9.21415
xiong❂4쎯fu❂70쎯	-9.21481
fan❁19쎯	-9.21519
min❃35쎯	-9.21654
huo❄33쎯	-9.21786
쎂쎉	-9.21814
zong❄7쎯ta❄103쎯	-9.2184
dai❄25쎯lv❄22쎯	-9.21917
jie❂129쎯gai❄1쎯	-9.21961
xing❄6쎯shu❂7쎯	-9.21992
,zhe❂33쎯	-9.21992
nie❄65쎯ji❂169쎯	-9.22013
gong❃14쎯	-9.22041
du❂58쎯	-9.22098
di❄56쎯	-9.22126
zhi❁70쎯qian❂41쎯:	-9.22228
쎃쎈	-9.22302
jian❃94쎯.	-9.22321
e❄38쎯	-9.22351
xie❄139쎯chong❁7쎯	-9.22378
fei❃24쎯	-9.22427
yan❃2쎯qi❂124쎯	-9.22554
yi❂19쎯	-9.22689
sa❄42쎯	-9.22724
shan❁46쎯	-9.22751
fu❁67쎯zhu❁34쎯	-9.22775
fu❁14쎯	-9.2283
19쎯	-9.22845
huo❄13쎯rong❂58쎯	-9.22964
nie❄119쎯ting❁0쎯	-9.22968
yin❁30쎯ji❁125쎯	-9.22972
weng❄4쎯jiao❁33쎯	-9.23174
fang❂0쎯	-9.23206
guai❄14쎯,	-9.23256
lv❄22쎯zhi❂16쎯	-9.23292
du❂72쎯pie❄1쎯、	-9.23345
jie❄20쎯	-9.23361
bing❄0쎯	-9.23369
gen❁0쎯kao❄2쎯	-9.23391
yan❃2쎯yu❃36쎯	-9.23509
11쎯	-9.23543
jin❃18쎯lu❃20쎯	-9.23669
wei❂29쎯qi❄66쎯	-9.23843
na❄26쎯dao❁4쎯	-9.23882
ao❂33쎯	-9.23893
,mu❄44쎯li❂122쎯	-9.2415
he❄28쎯	-9.24197
lve❄5쎯zha❄26쎯	-9.24288
,ou❃5쎯yi❂125쎯	-9.24357
hu❂40쎯	-9.24413
di❁28쎯qu❁21쎯	-9.24479
yin❁3쎯zhui❄10쎯	-9.2451
jiao❄37쎯	-9.2453
ce❄32쎯	-9.2454
qian❁63쎯	-9.2471
zhu❁34쎯lv❄46쎯	-9.24776
,ta❄61쎯ta❄40쎯	-9.24923
bi❄70쎯yan❃2쎯	-9.2502
kong❄3쎯	-9.25141
28쎯	-9.25199
pao❁2쎯	-9.25227
die❂9쎯	-9.25256
lv❄22쎯mai❄10쎯	-9.25258
za❂9쎯	-9.25341
zou❁0쎯	-9.25364
ting❂19쎯	-9.25415
song❄10쎯	-9.25424
ting❂17쎯	-9.25499
yu❂72쎯ning❂7쎯	-9.25527
zhi❂69쎯	-9.25561
yan❃63쎯	-9.25579
tuan❂2쎯dian❄14쎯	-9.25617
zha❄26쎯liang❂23쎯	-9.25622
bo❁36쎯xiang❄24쎯	-9.25649
kui❂49쎯	-9.2566
qi❁12쎯	-9.25667
hao❁5쎯	-9.25676
쎁쎉쎉쎈mai❄10쎯	-9.25722
fen❁39쎯cai❂13쎯	-9.25731
hun❂24쎯	-9.25736
cuo❁1쎯chang❄16쎯	-9.25786
yi❂125쎯shu❂7쎯	-9.25796
쎃쎄	-9.25862
쎇쎅	-9.25936
chao❄12쎯you❁38쎯	-9.25966
zui❃13쎯	-9.25977
fu❂70쎯shang❁17쎯	-9.25995
fo❂4쎯	-9.26002
rong❂44쎯hui❄13쎯	-9.26024
bao❄7쎯jian❁60쎯	-9.26153
ji❄99쎯们	-9.26173
&	-9.26188
yang❁15쎯	-9.26199
ㄧ	-9.26311
lan❂18쎯qiao❂8쎯	-9.26311
cuo❁1쎯qian❄20쎯	-9.26406
ting❁0쎯li❂122쎯	-9.26426
man❂32쎯yin❂49쎯	-9.2646
he❂41쎯qu❂96쎯	-9.26475
ping❂6쎯	-9.26526
chao❁16쎯chong❁7쎯	-9.26569
huang❁14쎯	-9.26747
쎃쎀쎀	-9.26807
bi❄123쎯	-9.26882
,can❄7쎯	-9.26969
zhi❃58쎯zha❄26쎯	-9.26985
ta❄20쎯lu❄68쎯	-9.27106
qu❁43쎯dang❄8쎯	-9.27114
nao❂35쎯	-9.27123
cheng❄3쎯	-9.27252
yi❄38쎯kao❄2쎯	-9.27279
qi	-9.27294
tian❄3쎯qi❄36쎯	-9.27313
qing❄3쎯chu❄45쎯	-9.27315
ci❄34쎯	-9.27415
lv❄22쎯ruan❄2쎯	-9.27558
pi❁42쎯	-9.27579
yin❂64쎯fu❂69쎯	-9.27582
du❂72쎯dao❁4쎯	-9.27625
nian❂8쎯	-9.27663
teng❁4쎯	-9.27676
쎁di❄13쎯	-9.2771
huang❁14쎯qiu❁23쎯	-9.27719
》《	-9.27834
en❁5쎯bo❁6쎯	-9.27857
weng❄6쎯tan❂63쎯	-9.27907
qu❁58쎯	-9.27965
feng❄16쎯di❁28쎯	-9.28021
쎂쎀쎁쎂mai❄10쎯	-9.2803
cuo❁1쎯lin❂62쎯	-9.28049
...	-9.28083
ju❃12쎯	-9.28168
yao❂36쎯	-9.28289
)yi❂125쎯	-9.28294
mang❂20쎯yu❄105쎯	-9.28321
쎂-	-9.28392
nai❂10쎯ran❃21쎯	-9.2844
zhui❄24쎯	-9.28479
pan❂20쎯ge❂66쎯	-9.28544
feng❄16쎯	-9.28549
pai❂4쎯qu❂96쎯	-9.28583
fu❄114쎯ze❂3쎯	-9.28607
yu❂65쎯xiong❂4쎯	-9.28662
gu❁29쎯yi❄239쎯	-9.2869
쎁쎉쎉쎉mai❄10쎯	-9.28694
she❄9쎯yin❂18쎯	-9.2878
yu❂110쎯	-9.28883
yue❄18쎯	-9.28909
,xing❄6쎯ba❂11쎯	-9.2891
bi❄22쎯	-9.28967
hai❁2쎯	-9.28989
ren❂10쎯	-9.29054
la❄52쎯chu❄45쎯	-9.29058
lai❄28쎯jian❃94쎯,	-9.2907
guang❁13쎯dan❁11쎯	-9.29088
10쎯	-9.29129
nie❄82쎯yan❁9쎯	-9.29136
,ou❃5쎯	-9.29186
yan❃118쎯fu❂70쎯	-9.29189
qi❁71쎯nou❄1쎯	-9.29232
hua❄17쎯qi❃51쎯	-9.29291
mang❂20쎯bu❄33쎯	-9.29341
ting❂17쎯ya❂2쎯	-9.2949
shao❃0쎯ke❂0쎯	-9.29507
yin❁30쎯yan❁54쎯	-9.29664
ying❁92쎯	-9.29771
′	-9.29806
guang❁13쎯ru❃0쎯	-9.29831
lin❄11쎯hou❄27쎯	-9.29935
zhuo❂66쎯cuo❁1쎯	-9.29972
fan❁21쎯	-9.30033
zhan❁27쎯	-9.30156
xi❂9쎯ze❂3쎯	-9.30171
fei❁25쎯	-9.30259
du❂72쎯pie❄1쎯,	-9.30268
,yi❄381쎯	-9.30288
zu❃10쎯	-9.3036
lu❄81쎯	-9.30375
dai❄25쎯mie❁4쎯	-9.30415
ming❂6쎯	-9.30436
qian❁30쎯xiu❁46쎯	-9.30443
’	-9.30481
pie❄1쎯yu❄68쎯	-9.306
na❄31쎯dao❃22쎯	-9.30661
y	-9.30715
kai❄6쎯	-9.30756
,nie❄85쎯	-9.30813
lou❃0쎯	-9.30831
cheng❁27쎯	-9.30912
si❁45쎯	-9.30968
fu❃16쎯	-9.31044
jiao❃36쎯li❂52쎯	-9.31091
pi❃2쎯qiao❂8쎯	-9.31113
jing❄3쎯ju❄75쎯	-9.31134
bi❄70쎯qiu❂80쎯	-9.31138
du❂59쎯	-9.31272
ying❁81쎯	-9.31342
zuo❄4쎯yu❄133쎯	-9.31357
li❂132쎯	-9.31368
tang❃12쎯chao❁16쎯	-9.31376
zhan❄18쎯kai❄8쎯	-9.31488
jun❄19쎯qiu❂80쎯	-9.31504
dian❃2쎯ta❄99쎯	-9.3163
chong❂9쎯zuo❂8쎯	-9.3167
zheng❁13쎯	-9.31699
fen❂10쎯	-9.31716
nie❄119쎯ci❄36쎯	-9.31731
zuo❄4쎯yi❂27쎯	-9.31847
gu❃76쎯jia❁7쎯	-9.31847
fen❃3쎯ru❃9쎯	-9.31849
guang❁10쎯	-9.3189
zha❄2쎯	-9.31891
lie❄79쎯	-9.31896
cai❂13쎯qu❂96쎯	-9.31916
,ba❂11쎯ta❄13쎯	-9.32056
ruo❄10쎯	-9.32073
ba❁10쎯dan❁11쎯	-9.32176
ta❄103쎯	-9.32178
hui❃4쎯	-9.32183
wei❂23쎯	-9.32198
bei❄16쎯gou❄22쎯	-9.32275
leng❄1쎯	-9.32277
nin❂1쎯sui❂2쎯	-9.32373
tian❃26쎯	-9.32395
ning❂39쎯	-9.32477
zui❁8쎯	-9.32611
yao❃2쎯qiu❂80쎯	-9.32727
pie❄1쎯luo❂0쎯	-9.32753
sheng❁22쎯	-9.32891
ta❄48쎯	-9.32919
fen❁8쎯	-9.32962
xue❄27쎯	-9.33021
쎅쎅	-9.33073
ni❂36쎯zhi❁25쎯	-9.33219
lv❄22쎯hou❂43쎯	-9.33293
tang❂13쎯yang❂13쎯	-9.33306
chuan❃3쎯	-9.33307
zhi❁70쎯se❄52쎯	-9.33354
nian❄9쎯	-9.33424
yang❁12쎯yi❁58쎯	-9.33539
tu❂52쎯yong❃30쎯	-9.33584
di❄53쎯	-9.33658
ju❄101쎯	-9.33765
ling❂52쎯	-9.33813
ping❂44쎯zao❃12쎯	-9.33818
chen❄8쎯ti❁6쎯	-9.33832
lai❄28쎯chao❁16쎯	-9.33875
qia❃1쎯	-9.33935
biao❁11쎯	-9.34031
lv❄22쎯xian❃46쎯	-9.34099
jia❃6쎯xun❂38쎯	-9.3418
man❂32쎯lv❄22쎯	-9.34278
lou❁0쎯	-9.34286
qi❁76쎯mi❄56쎯.	-9.34312
lve❄5쎯gao❁0쎯	-9.34465
li❂76쎯mai❄10쎯	-9.34573
<	-9.34599
xiao❄35쎯,	-9.34671
bo❂109쎯	-9.34824
meng❂32쎯	-9.34865
gai❄20쎯	-9.34934
lou❂0쎯	-9.34991
쎆쎅	-9.35027
rong❂58쎯xiang❄	-9.35125
shi❄99쎯	-9.35245
li❃25쎯	-9.35301
lv❄22쎯hua❄0쎯	-9.35356
xu❁65쎯	-9.35413
ti❁6쎯li❄270쎯	-9.35452
chong❁7쎯,	-9.35489
na❃4쎯	-9.35507
qin❄9쎯song❄1쎯	-9.35702
xiu❄2쎯	-9.35737
zhong❃10쎯	-9.35762
zhi❁0쎯xie❄11쎯	-9.35792
lan❂6쎯	-9.35806
ta❃6쎯chan❄19쎯	-9.35854
18쎯	-9.35871
쎆쎀쎀	-9.36043
di❁32쎯qiong❂72쎯	-9.36107
qu❂96쎯tan❂63쎯	-9.36133
ku❃2쎯zi❄22쎯	-9.36167
쎄쎃	-9.36175
ta❄14쎯gao❄16쎯	-9.36192
man❄7쎯	-9.36235
gu❃80쎯	-9.36287
쎂쎀쎀쎀	-9.36336
li❃39쎯	-9.36374
쎉쎈	-9.36449
xu❄61쎯luo❂2쎯	-9.36453
che❄42쎯jian❃94쎯	-9.36454
yuan❂12쎯	-9.3648
lu❂31쎯jie❁14쎯	-9.3648
li❂69쎯	-9.36489
ji❁149쎯	-9.36525
di❄72쎯	-9.36671
lve❄5쎯ju❄75쎯	-9.36707
ran❂11쎯	-9.36738
nian❃8쎯	-9.368
lei❂35쎯	-9.36834
gui❁53쎯	-9.36841
fen❁39쎯tan❂62쎯	-9.36917
ni❂36쎯ji❂132쎯	-9.37009
쎁쎉쎉쎇mai❄10쎯	-9.3726
hao❄30쎯	-9.37279
you❁27쎯nie❄104쎯	-9.37302
ji❁180쎯	-9.37432
shao❃0쎯zhi❁70쎯	-9.37444
ru❃0쎯ke❂0쎯zi❁61쎯	-9.37575
zhang❄20쎯yun❄32쎯	-9.37586
쎃쎇	-9.37681
쎄쎄	-9.3772
zao❃14쎯qiong❂72쎯	-9.37744
(dang❁1쎯	-9.37753
pi❄40쎯bo❁6쎯	-9.37776
shi❄47쎯	-9.37795
쎁쎉쎉쎆mai❄10쎯	-9.37831
ji❄21쎯	-9.37832
di❁28쎯qu❂96쎯	-9.37839
ma❂1쎯	-9.37918
you❁30쎯	-9.37972
luo❂2쎯tu❂68쎯	-9.38015
song❁17쎯	-9.38091
쎄쎂	-9.38093
쎈쎀쎀	-9.38097
lang❄12쎯yi❄267쎯	-9.38136
zi❁13쎯zhao❄6쎯	-9.38155
ren❃13쎯ni❄14쎯	-9.38169
yao❂27쎯	-9.38272
ren❄0쎯ye❄50쎯	-9.38283
ke❂0쎯tui❄1쎯	-9.38369
zhi❂4쎯	-9.38385
xian❃46쎯	-9.38483
fu❄114쎯guan❄52쎯	-9.38517
kong❃5쎯che❄42쎯	-9.3855
hu❄84쎯	-9.38626
re❄5쎯gan❄4쎯	-9.38657
chang❂1쎯xi❁173쎯	-9.38789
:쎁	-9.3883
dao❃0쎯	-9.3886
yuan❄6쎯li❂122쎯	-9.38864
hui❄63쎯	-9.38892
zu❂3쎯	-9.38906
zhi❃58쎯ru❃0쎯	-9.3896
shan❄7쎯duo❂12쎯	-9.39019
nian❃1쎯	-9.39141
23쎯	-9.39339
li❂122쎯bu❄62쎯	-9.39381
guo❂46쎯	-9.39421
dian❄21쎯	-9.39423
zhi❁0쎯shang❁17쎯	-9.39424
xiao❁66쎯	-9.39442
kai❁11쎯heng❂14쎯	-9.3947
hou❄16쎯ning❂7쎯	-9.39496
xu❄42쎯shan❄7쎯	-9.39516
sheng❃17쎯	-9.39548
13쎯	-9.39573
zhuan❄15쎯	-9.39588
wa❁21쎯di❃18쎯	-9.39682
mi❄21쎯	-9.39728
,huan❂12쎯pie❄1쎯	-9.39807
duo❃43쎯	-9.39821
hua❄17쎯shi❄20쎯	-9.39828
gao❃7쎯	-9.39894
sao❁28쎯gao❄16쎯	-9.39914
bi❄99쎯	-9.39943
qin❂17쎯	-9.39955
rong❃28쎯ju❁38쎯	-9.40009
di❃18쎯yi❂27쎯	-9.40075
tong❂23쎯luo❂2쎯	-9.40148
wa❁0쎯	-9.40174
reng❂1쎯	-9.4019
lu❄79쎯wai❁3쎯	-9.40205
che❄20쎯tui❄1쎯	-9.40291
du❂72쎯xian❂9쎯	-9.40331
26쎯	-9.40391
xiu❁9쎯liu❂10쎯	-9.40485
di❄56쎯cheng❁27쎯	-9.40487
xiong❄17쎯niu❄0쎯	-9.405
you❁27쎯zhe❂33쎯	-9.40576
ti❁6쎯ci❁18쎯	-9.40683
lang❃10쎯shao❃5쎯	-9.40706
wan❃0쎯	-9.40732
qiong❂66쎯luo❂2쎯	-9.40733
ju❂28쎯	-9.4082
yi❄10쎯yi❂125쎯	-9.40841
lv❄22쎯qi❄36쎯	-9.40861
mai❄10쎯gao❄16쎯	-9.40875
hui❄25쎯	-9.40929
mai❄10쎯ke❁55쎯	-9.41043
mu❄44쎯ju❁38쎯	-9.41101
zhi❃58쎯chao❁16쎯	-9.41116
li❂76쎯yin❂18쎯	-9.41154
zan❁0쎯che❄42쎯	-9.41267
kai❃13쎯fu❄115쎯	-9.41286
dai❄25쎯yi❂125쎯	-9.41286
,chuai❂1쎯ji❂169쎯	-9.41326
xu❁78쎯zhuang❁10쎯	-9.41376
shi❂3쎯yong❃35쎯	-9.41389
wu❃9쎯guo❂1쎯	-9.41547
ping❂53쎯	-9.41548
shi❂6쎯	-9.41577
xiong❂4쎯hou❄27쎯	-9.41594
tian❄11쎯li❄196쎯	-9.41624
2	-9.41667
쎄쎀쎀	-9.41679
chan❂50쎯zong❄7쎯	-9.41722
ji❄99쎯ling❂158쎯	-9.41762
rong❃28쎯di❄13쎯	-9.41839
yu❂108쎯	-9.41857
tian❄11쎯	-9.4201
tong❂14쎯gu❃15쎯	-9.4203
he❂41쎯liang❃2쎯	-9.42068
yao❂15쎯	-9.42306
qiong❂72쎯wu❃12쎯	-9.42311
쎁쎉쎉쎅mai❄10쎯	-9.42313
hui❄75쎯	-9.42365
ling❂181쎯ti❁6쎯	-9.42418
nie❄119쎯mie❁4쎯.	-9.42439
dun❄22쎯ting❂17쎯	-9.42449
yan❄15쎯	-9.42451
ye❄38쎯shan❁13쎯	-9.42459
shi❄139쎯xiao❄35쎯	-9.42499
chi❃3쎯chou❂1쎯	-9.42566
쎁쎉쎉쎂mai❄10쎯	-9.42571
qiu❂80쎯bing❃32쎯	-9.42576
you❂0쎯	-9.42614
hui❄122쎯	-9.42668
ju❁29쎯tong❂14쎯	-9.42673
쎂gui❁61쎯	-9.42767
yuan❁5쎯	-9.42828
chu❄0쎯ling❂33쎯	-9.42841
dan❃20쎯	-9.42894
c	-9.42909
di❁28쎯mo❄30쎯	-9.42919
wei❃30쎯	-9.43007
chao❂5쎯	-9.43034
zuo❄4쎯xiong❄12쎯	-9.43111
yi❂27쎯huo❄13쎯	-9.43149
tuo❁11쎯shi❂1쎯	-9.43286
,ju❂77쎯ju❄105쎯	-9.4333
dong❁38쎯	-9.43475
ke❂0쎯chang❂8쎯	-9.43524
,ta❃6쎯,	-9.43587
,bo❁6쎯ba❂11쎯	-9.4362
lv❄34쎯	-9.43685
jiang❄20쎯zhe❂33쎯	-9.43689
쎃쎉	-9.4373
fu❄115쎯gai❄1쎯	-9.43823
ji❄99쎯gao❄0쎯	-9.43859
qia❃1쎯mi❄21쎯	-9.43954
ping❂44쎯su❄105쎯	-9.43985
jian❄42쎯	-9.44003
zha❄26쎯yi❂157쎯	-9.44053
jian❃90쎯shan❁13쎯	-9.44066
zai❄7쎯he❂41쎯	-9.44067
rong❂44쎯shao❃0쎯	-9.44082
jue❂25쎯ji❄99쎯	-9.4411
can❁24쎯	-9.44189
bao❃38쎯	-9.44267
wei❂15쎯	-9.44327
ji❄23쎯,	-9.44367
ya❁0쎯	-9.44391
ji❁77쎯yan❂101쎯	-9.44464
.re❄2쎯	-9.44535
kai❃13쎯	-9.44542
shi❄35쎯	-9.44603
ba❂11쎯tui❄1쎯	-9.44671
run❂2쎯	-9.44685
ou❃5쎯li❂122쎯	-9.44714
kao❄1쎯	-9.44714
dui❄23쎯	-9.44803
xi❁26쎯	-9.44808
en❁5쎯si❄52쎯	-9.44966
du❄3쎯	-9.45032
dou❄30쎯	-9.45096
dai❄25쎯xian❃46쎯	-9.45099
han❄92쎯	-9.4514
쎁쎉쎉쎄mai❄10쎯	-9.45149
ren❄0쎯	-9.45251
shi❄79쎯	-9.45282
ji❄99쎯qi❂124쎯	-9.453
ti❁6쎯ping❂44쎯	-9.45315
heng❂14쎯ju❁38쎯	-9.45336
ping❂44쎯zhi❂5쎯	-9.45421
33쎯	-9.45434
hu❂4쎯ke❂0쎯	-9.455
cheng❁48쎯	-9.45515
qi❃51쎯qin❁2쎯	-9.45521
fu❄3쎯	-9.45571
tao❁32쎯ke❂0쎯	-9.45643
guai❄14쎯fu❂142쎯	-9.45733
ju❄98쎯qiong❂72쎯	-9.45834
gu❁7쎯	-9.45885
chu❂0쎯jiao❃86쎯	-9.45956
zhan❃22쎯beng❁1쎯	-9.4597
you❄42쎯qiong❂72쎯	-9.4599
xu❄36쎯	-9.46013
po❄10쎯	-9.46144
《chuai❂1쎯ji❂169쎯	-9.46144
chan❂17쎯	-9.46236
쎂di❄13쎯	-9.46359
qiong❂72쎯wu❄47쎯	-9.46359
ˋ	-9.46419
ke❃12쎯	-9.46435
xuan❄33쎯bu❄33쎯	-9.46442
ying❃36쎯xiu❁46쎯	-9.46458
쎁쎉쎉쎃mai❄10쎯	-9.4646
nie❄82쎯feng❄14쎯	-9.46513
,chuai❂1쎯ting❁0쎯	-9.46545
tan❂17쎯	-9.46617
li❂122쎯dan❁40쎯	-9.46675
jian❁41쎯	-9.46686
bi❄220쎯	-9.46747
hui❄13쎯qiong❂27쎯	-9.46794
chan❄17쎯	-9.46818
li❄215쎯qiao❂8쎯	-9.46844
yi❂108쎯wei❂73쎯	-9.46993
kuai❃3쎯shang❁17쎯	-9.46999
bi❄70쎯bu❄33쎯	-9.47
tian❂18쎯fu❂69쎯.	-9.47019
qing❄19쎯yao❄42쎯	-9.471
che❄42쎯	-9.47105
qian❂20쎯	-9.47114
ce❄32쎯tui❄1쎯	-9.47168
ti❁6쎯dian❃2쎯	-9.47233
qian❁30쎯rong❃28쎯	-9.47279
zuo❄4쎯ba❂2쎯	-9.47312
yin❂64쎯zhi❁70쎯	-9.47396
en❁5쎯yi❂125쎯	-9.47513
,wei❃4쎯	-9.47518
lang❄0쎯fu❂70쎯	-9.47568
_	-9.47625
jian❁2쎯yi❂27쎯	-9.47643
cheng❂14쎯dao❃0쎯	-9.47699
쎃쎁	-9.47791
jie❂89쎯	-9.47802
쎆쎆	-9.47852
ba❂11쎯gao❄16쎯,	-9.47858
,hun❂15쎯	-9.47942
sheng❄6쎯》:“	-9.47985
ren❄0쎯ju❂29쎯	-9.47994
tai❄4쎯zhuo❁3쎯	-9.48028
wen❄2쎯luo❂2쎯	-9.4803
cheng❁8쎯dang❁22쎯	-9.48039
ao❃12쎯	-9.48042
dian❄7쎯	-9.48044
ye❄38쎯ting❂20쎯	-9.48255
pei❂7쎯	-9.48259
shi❂48쎯	-9.4831
na❄6쎯za❂8쎯	-9.48311
29쎯	-9.48418
31쎯	-9.48497
zi❁61쎯gou❄22쎯	-9.48536
zi❁78쎯	-9.48538
bin❁27쎯luo❂2쎯	-9.48551
che❄42쎯shuo❄14쎯	-9.48554
liang❃2쎯yan❁34쎯	-9.48598
(),	-9.48601
tiao❁8쎯ge❂69쎯	-9.48625
ni❃34쎯	-9.48653
,ju❄75쎯	-9.48709
bao❄5쎯ru❃0쎯	-9.48741
ke❂0쎯bin❄10쎯	-9.48753
nan❂30쎯qi❁68쎯	-9.48753
qian❄20쎯	-9.48768
mao❂11쎯	-9.48782
,di❁32쎯ji❃2쎯	-9.48785
zi❃5쎯dian❄34쎯	-9.48794
cui❄14쎯	-9.48822
yan❁34쎯yu❃64쎯	-9.48864
22쎯	-9.48894
ding❄15쎯	-9.4895
dian❄21쎯ge❂66쎯	-9.48958
,yi❄106쎯	-9.49035
zha❃6쎯xin❁23쎯	-9.49051
-쎂	-9.49056
「	-9.49066
tiao❁5쎯	-9.49205
」	-9.49244
bie❁3쎯	-9.4933
san❃7쎯gu❄11쎯	-9.49344
shi❃11쎯ba❁48쎯	-9.49346
lv❄22쎯huo❄13쎯	-9.49364
ru❂27쎯	-9.49394
xian❃58쎯tu❂52쎯	-9.49398
da❁11쎯	-9.4944
쎅쎂	-9.49445
jiao❃40쎯	-9.49453
zai❄7쎯mang❂42쎯	-9.49467
bo❁36쎯yu❄68쎯	-9.49577
bu❄33쎯xiao❁68쎯	-9.49581
na❄2쎯	-9.49647
ti❃10쎯zhi❂69쎯	-9.49713
mai❄10쎯feng❁55쎯	-9.49735
san❃7쎯shi❃11쎯	-9.49755
qi❄13쎯	-9.49756
ru❂0쎯ang❂2쎯	-9.49805
,fu❂166쎯	-9.49835
qi❄22쎯	-9.4985
yin❁7쎯	-9.49971
kuai❄32쎯	-9.49978
kui❂41쎯guan❄52쎯	-9.5012
chuai❂1쎯tian❂18쎯	-9.50161
bao❁15쎯su❄13쎯	-9.50165
xing❄6쎯ta❄61쎯	-9.5018
guo❂19쎯	-9.50197
16쎯	-9.50225
zhi❄196쎯	-9.50253
pin❂1쎯	-9.50261
ㄨ	-9.50319
l	-9.50375
mo❄30쎯tai❁0쎯	-9.50415
zhe❂7쎯	-9.50632
gu❃74쎯	-9.50694
dang❁22쎯	-9.50753
tai❂30쎯sui❄81쎯	-9.5079
);	-9.50807
chu❄6쎯	-9.50825
du❂72쎯pie❄1쎯.	-9.50859
ni❃4쎯	-9.50867
weng❄6쎯ju❁38쎯	-9.50946
wen❂24쎯.	-9.50984
zi❁106쎯yi❄267쎯	-9.50999
쎃di❄13쎯	-9.51024
ao❂33쎯he❂41쎯	-9.51128
ying❁78쎯	-9.51173
ning❂7쎯	-9.51233
xu❁78쎯yu❄68쎯.	-9.51237
can❂13쎯	-9.5124
zhe❂38쎯	-9.5127
yao❄41쎯	-9.5128
.쎆	-9.51288
zao❃14쎯chuai❂1쎯	-9.51289
zeng❁7쎯	-9.51291
cu❄39쎯	-9.51309
cai❁7쎯	-9.5136
cuo❁1쎯chong❁14쎯	-9.5138
li❄270쎯jian❃94쎯,	-9.51467
gui❄20쎯wen❂24쎯	-9.51581
yu❂65쎯	-9.51612
rang❄3쎯yi❂27쎯	-9.51679
,hun❂15쎯la❄1쎯	-9.51692
zu❃12쎯	-9.51704
bo❁36쎯	-9.51711
er❃1쎯fu❂70쎯	-9.51747
zhuo❂17쎯po❄2쎯	-9.51785
chong❁7쎯guo❁25쎯	-9.51853
ding❄4쎯	-9.5192
pan❂7쎯	-9.51962
ta❃6쎯po❂9쎯	-9.52005
qia❂2쎯	-9.52022
,xu❁37쎯tan❃20쎯	-9.52036
쎁쎉쎈쎄mai❄10쎯	-9.52045
huan❄59쎯	-9.52063
》jue❂25쎯:“	-9.52071
she❄9쎯qu❁8쎯	-9.52106
ning❂39쎯guo❂2쎯	-9.52116
zhan❃28쎯gui❁56쎯	-9.52154
쎄.	-9.522
shen❁61쎯	-9.52246
yu❄68쎯tang❃12쎯	-9.52332
mi❄14쎯	-9.52522
han❂11쎯	-9.52538
쎆쎈	-9.52557
,zou❁10쎯hua❄17쎯	-9.52562
dan❄73쎯	-9.52617
shi❂1쎯fu❂69쎯	-9.52659
쎄di❄13쎯	-9.52689
쎄쎆	-9.52745
zhuan❄29쎯lin❂58쎯	-9.52793
\	-9.52817
yang❃12쎯yu❃36쎯	-9.52826
bi❄137쎯	-9.52828
ju❂29쎯she❄18쎯	-9.52864
hui❄23쎯zhan❁48쎯	-9.52886
jian❃90쎯	-9.52889
cang❁5쎯wu❁27쎯	-9.52893
zhuang❁7쎯ji❁125쎯	-9.52897
쎁쎀쎀쎀	-9.52899
bi❄235쎯er❂19쎯	-9.52972
hua❄0쎯qiong❂72쎯	-9.52974
qiang❃4쎯	-9.52987
jie❂150쎯	-9.53092
lu❃20쎯ru❃9쎯	-9.53287
ti❁6쎯hu❁63쎯	-9.53352
pi❂20쎯tao❁32쎯	-9.5337
xi❂9쎯shan❁17쎯	-9.53377
fu❂142쎯fu❂69쎯	-9.53444
yu❄105쎯yi❂157쎯	-9.53458
xue❁6쎯	-9.53491
rang❄3쎯	-9.53492
sa❄29쎯	-9.53495
yi❄321쎯	-9.53539
yan❃118쎯bi❄189쎯	-9.53551
su❄13쎯	-9.53589
qing❄17쎯kai❃13쎯	-9.5363
da❄10쎯you❂74쎯	-9.53696
huang❂49쎯	-9.5372
yue❄18쎯jie❁14쎯	-9.5373
sha❁46쎯	-9.53811
qiong❂72쎯ye❄50쎯	-9.53826
chang❂31쎯	-9.54051
❄63쎯yin❂64쎯xi❂9쎯	-9.54062
du❄22쎯you❁38쎯	-9.54088
xin❁3쎯	-9.54149
ji❄99쎯ju❁38쎯	-9.54161
qu❁21쎯xiao❄35쎯	-9.54189
쎅.	-9.54228
ling❂42쎯hui❄13쎯	-9.54233
chan❂50쎯wan❃49쎯	-9.54233
po❄3쎯	-9.5425
zan❁1쎯ru❃9쎯	-9.54308
ye❁13쎯	-9.54377
zan❁0쎯dan❁11쎯	-9.54394
qia❂0쎯song❃15쎯	-9.54551
jie❂157쎯	-9.54602
wen❂2쎯	-9.54656
쎁쎉쎉쎀mai❄10쎯	-9.54663
mian❃7쎯	-9.54663
ju❁36쎯	-9.5468
쎅쎆	-9.54723
zang❁0쎯ju❂29쎯	-9.55089
mo❄7쎯fu❂70쎯	-9.5526
쎃-	-9.55275
zhuang❁7쎯mi❄56쎯	-9.55279
fu❄115쎯qiao❂8쎯	-9.5532
le❄21쎯	-9.55388
hao❄25쎯	-9.55465
huo❄60쎯	-9.55477
yang❄4쎯li❂122쎯	-9.55509
dian❁36쎯	-9.55533
pi❂56쎯	-9.55558
sheng❄6쎯cui❄48쎯	-9.55596
du❂72쎯chong❂9쎯	-9.55641
쎁쎉쎈쎅mai❄10쎯	-9.55696
yang❂47쎯	-9.5571
cu❄4쎯ga❄4쎯	-9.55714
diao❃8쎯	-9.55723
tian❄11쎯cha❄29쎯	-9.55739
la❄21쎯	-9.55785
bi❄12쎯	-9.55919
gai❁10쎯	-9.56008
se❄57쎯pie❄1쎯	-9.56102
che❄42쎯kao❄2쎯	-9.56166
ling❂181쎯qian❂2	-9.56236
chen❄8쎯pi❁22쎯	-9.56263
yong❁53쎯	-9.5635
yi❂125쎯ba❂11쎯	-9.56438
hui❄13쎯ta❄40쎯	-9.56439
tang❂13쎯fu❂69쎯	-9.5647
xun❄10쎯	-9.56563
쎇쎆	-9.56571
man❂32쎯	-9.56588
cou❃1쎯	-9.56628
.쎇	-9.56644
long❂65쎯	-9.56747
zi❄22쎯bie❁10쎯	-9.56825
쎅쎃	-9.5687
ting❂22쎯	-9.56874
liu❂57쎯ke❁12쎯	-9.57217
lu❄43쎯bian❄65쎯	-9.57339
mang❂20쎯se❄57쎯	-9.57349
tian❂18쎯lin❂58쎯	-9.57371
shi❄63쎯du❂72쎯	-9.57453
ying❃36쎯gan❄30쎯	-9.57521
ti❁6쎯qiao❁31쎯	-9.57534
ze❂3쎯hui❄14쎯	-9.57611
쎇쎂	-9.57612
lin❂62쎯pu❁21쎯	-9.57623
sou❃8쎯	-9.57674
ze❂61쎯shi❄17쎯	-9.57694
mao❄58쎯	-9.57783
hao❁5쎯bo❂89쎯	-9.5784
bi❄255쎯	-9.57873
dian❄14쎯	-9.57879
ru❄11쎯	-9.57902
cui❄12쎯	-9.57928
gan❃25쎯zhang❄20쎯	-9.57958
lv❄22쎯ye❄50쎯	-9.57975
seng❁1쎯	-9.57979
bi❄22쎯pu❁21쎯	-9.58036
쎄쎇	-9.58081
he❂41쎯pai❂4쎯	-9.581
쎁쎉쎈쎈mai❄10쎯	-9.58194
er❂41쎯	-9.5821
lou❃10쎯	-9.58225
gui❄70쎯	-9.5827
tong❂23쎯yao❃2쎯	-9.58317
zi❁81쎯zao❃12쎯	-9.58356
ti❄27쎯	-9.58385
tou❄3쎯	-9.58398
nai❂10쎯ni❄14쎯	-9.58429
xiao❄35쎯dao❃0쎯	-9.58477
zhen❄45쎯ci❃11쎯	-9.58537
ju❂25쎯fen❃3쎯	-9.58633
rang❂12쎯	-9.5865
weng❄4쎯huang❁19쎯	-9.5867
diao❃11쎯	-9.58823
lao❄6쎯	-9.58851
.yan❃2쎯chao❁16쎯	-9.58867
쎈쎅	-9.58875
ru❃9쎯zha❄26쎯	-9.5895
ou❃5쎯.”	-9.58969
yan❄84쎯zuo❃2쎯	-9.59
,du❂56쎯	-9.59037
xiang❃9쎯suo❁14쎯	-9.59042
쎄-	-9.59102
hu❃15쎯	-9.5916
,gun❃24쎯di❁32쎯	-9.59161
he❂115쎯qiu❂13쎯	-9.59219
li❄5쎯chan❄19쎯	-9.59279
』『	-9.59279
》chuai❂1쎯	-9.59394
ˊ	-9.59412
bo❂63쎯ji❄23쎯	-9.59455
quan❂54쎯qian❁51쎯	-9.59481
ji❄99쎯zuo❄4쎯	-9.59519
guo❁28쎯gao❄16쎯	-9.59538
pu❁23쎯	-9.59541
wan❃43쎯lv❄46쎯	-9.59575
qi❂5쎯	-9.5964
han❅0쎯	-9.59645
tai❄5쎯	-9.59683
lv❄46쎯kuai❃3쎯	-9.59706
dai❄54쎯wa❃7쎯	-9.59776
36쎯	-9.5979
lei❄36쎯	-9.59792
kao❄2쎯gao❄16쎯	-9.59794
song❄1쎯shen❁63쎯	-9.59803
yi❄106쎯pie❄1쎯	-9.59809
chi❂39쎯	-9.59821
zui❄7쎯li❂69쎯	-9.5985
17쎯	-9.59851
ci❃11쎯zhang❁28쎯	-9.59852
shi❁8쎯ge❂52쎯	-9.59903
qin❄9쎯	-9.59917
gou❁18쎯zheng❁60쎯	-9.60083
xi❁173쎯cha❂39쎯	-9.60094
li❂126쎯cang❁5쎯	-9.60147
chuai❂1쎯qian❂41쎯	-9.60167
dai❁4쎯rong❃28쎯	-9.60175
xie❄148쎯fen❃3쎯	-9.60176
,heng❂4쎯ju❄75쎯	-9.6018
yuan❂87쎯	-9.60217
chuan❁10쎯dao❃22쎯	-9.60315
wei❁39쎯	-9.60383
can❂13쎯ze❂3쎯	-9.60435
-쎁	-9.60451
fu❂78쎯	-9.60462
zao❃14쎯ju❁38쎯	-9.60511
yao❂15쎯li❂109쎯	-9.60582
zai❃8쎯li❄5쎯ru❃9쎯	-9.606
ge❄5쎯	-9.60728
xun❂31쎯	-9.60866
long❂72쎯	-9.60883
쎅쎈	-9.60899
li❂76쎯chen❂57쎯	-9.60965
lin❂62쎯	-9.60997
xin❁23쎯	-9.61004
xiao❂15쎯ping❂53쎯	-9.61073
ru❃9쎯lv❄22쎯	-9.61079
bu❄33쎯jiao❁33쎯	-9.61109
ping❂44쎯tun❄0쎯	-9.61196
25쎯	-9.61316
zhao❄45쎯	-9.61355
lin❂58쎯tun❄0쎯	-9.61392
xun❄34쎯	-9.61486
tai❄4쎯zhuo❁3쎯ta	-9.61516
xiang❄24쎯tai❄4쎯	-9.61681
쎁쎉쎈쎆mai❄10쎯	-9.61728
bi❄203쎯guan❄42쎯	-9.61734
sheng❄6쎯yan❃96쎯	-9.61789
yao❃2쎯fu❂69쎯	-9.61811
쎄쎉	-9.61883
ding❁10쎯	-9.61964
qian❂7쎯nv❄4쎯	-9.61982
hui❂17쎯chen❄8쎯	-9.62234
yu❄105쎯	-9.62247
‘	-9.62259
qiao❂8쎯ruan❄2쎯	-9.62272
wan❃43쎯qia❂0쎯	-9.62285
zhen❁63쎯	-9.623
ti❁6쎯dan❁11쎯	-9.62312
cuan❄0쎯	-9.62334
lian❂3쎯tong❂62쎯	-9.62463
qian❁70쎯	-9.62468
,hua❄17쎯yi❁58쎯	-9.6247
bi❄203쎯fu❂142쎯	-9.62531
ju❂85쎯jia❃10쎯	-9.62603
pi❁33쎯	-9.62609
쎁쎉쎈쎇mai❄10쎯	-9.62652
pu❁21쎯	-9.62678
쎀ci❃11쎯zhang❁28쎯	-9.62683
chong❁7쎯.	-9.62723
lian❂3쎯zui❃13쎯	-9.62732
ru❃9쎯yin❂64쎯	-9.62754
you❁22쎯di❁28쎯	-9.6276
wen❂24쎯ba❂2쎯	-9.62785
kuai❃3쎯bu❄6쎯	-9.62853
li❂69쎯yi❂27쎯	-9.63063
chu❄45쎯qian❂29쎯	-9.63096
rou❂25쎯	-9.63118
.“	-9.63186
rong❂44쎯zong❄14쎯	-9.63195
ba❁10쎯zhi❂5쎯	-9.63276
sang❃3쎯	-9.63282
yan❃63쎯ying❂62쎯	-9.63301
zan❃16쎯	-9.63353
ying❃29쎯gai❄1쎯	-9.63419
ju❂32쎯	-9.63427
si❁82쎯	-9.6345
qing❄19쎯	-9.63534
,tou❄5쎯	-9.63547
di❄13쎯chan❄19쎯	-9.63609
ya❃12쎯	-9.63633
meng❂75쎯	-9.63688
sai❄1쎯po❂9쎯	-9.63706
쎁쎉쎈쎉mai❄10쎯	-9.63764
mo❄114쎯	-9.6379
mian❂9쎯	-9.63931
35쎯	-9.63954
쎉쎉	-9.63979
ti❁6쎯li❂109쎯	-9.63991
shi❂1쎯dang❄8쎯	-9.64014
fen❂17쎯	-9.64026
gao❁36쎯	-9.64064
ping❂44쎯zhe❂33쎯	-9.64069
jie❁25쎯yao❃2쎯	-9.64076
xiu❁9쎯zan❁1쎯	-9.64151
()yi❂125쎯	-9.64197
ji❄99쎯kuai❃3쎯	-9.64208
qi❁12쎯po❄2쎯	-9.6423
,zhi❁25쎯	-9.64249
yan❃117쎯	-9.64291
xiao❄35쎯feng❄14쎯	-9.64318
쎅-	-9.64478
wu❃9쎯sui❄81쎯	-9.64498
yuan❂59쎯	-9.64528
fei❄44쎯zhe❂33쎯	-9.64539
yang❄4쎯fu❂142쎯	-9.64588
chan❄19쎯yong❃30쎯	-9.6459
za❁23쎯qiu❂31쎯	-9.6464
50쎯	-9.64677
tong❂45쎯zha❁8쎯	-9.64678
.쎉	-9.64678
.quan❁4쎯ta❄40쎯	-9.64701
lin❄12쎯	-9.64956
pao❂13쎯	-9.64999
dai❁4쎯	-9.65031
chuang❃10쎯	-9.65094
yan❃2쎯se❄57쎯,	-9.65105
tou❄5쎯di❄13쎯	-9.65131
qu❂96쎯、	-9.65216
qi❁76쎯	-9.65278
wen❂24쎯,	-9.65294
jian❃45쎯tai❄4쎯	-9.65294
wan❃47쎯	-9.65297
쎈쎆	-9.65307
hao❄31쎯	-9.65337
chen❂57쎯luo❂2쎯	-9.65343
bi❄203쎯zha❄26쎯	-9.6541
쎀ting❂20쎯tan❂62쎯	-9.65429
diao❁40쎯zhi❃58쎯	-9.65536
ji❄191쎯	-9.65546
guo❂46쎯han❄92쎯	-9.65557
ru❃9쎯ji❄99쎯	-9.65559
shen❁63쎯tu❂52쎯	-9.65565
di❁28쎯yan❁54쎯	-9.65592
ben❁4쎯heng❂14쎯	-9.65619
dong❄41쎯lang❄0쎯	-9.65676
ze❂3쎯qiong❂72쎯	-9.65677
chao❂11쎯	-9.65687
ou❃15쎯yu❃64쎯	-9.65724
쎅쎄	-9.65796
song❃15쎯ti❁6쎯	-9.65827
di❁7쎯	-9.65903
gao❄16쎯qian❂29쎯	-9.65952
쎈쎈	-9.65957
you❄42쎯yi❂157쎯	-9.66014
kao❄2쎯ni❃23쎯qiu❂	-9.66038
wan❁23쎯	-9.66038
쎁쎉쎉쎁mai❄10쎯	-9.66107
yu❂68쎯jie❄28쎯	-9.66123
bing❃27쎯kang❂쎯	-9.66176
bao❄5쎯nie❄99쎯	-9.662
쎉쎅	-9.66205
bu❃4쎯	-9.66207
bo❂137쎯za❁23쎯	-9.66344
kan❄5쎯	-9.66345
deng❄6쎯	-9.66392
tu❂41쎯	-9.66404
chong❂9쎯fu❄115쎯	-9.66424
,lve❄5쎯zhong❃10쎯	-9.66469
li❃39쎯zhu❂37쎯	-9.66577
lang❄3쎯	-9.66603
,yi❄368쎯	-9.66616
li❄196쎯du❂72쎯,	-9.66721
,mang❂20쎯	-9.66914
nao❂24쎯	-9.66932
di❃18쎯ruan❃20쎯	-9.66938
zhe❂23쎯	-9.6699
20쎯	-9.67006
qing❄17쎯bi❄235쎯.	-9.67021
fang❃16쎯	-9.67034
yin❁3쎯	-9.67055
chu❂0쎯po❂7쎯	-9.67101
쎁.쎅	-9.67133
kui❂22쎯shang❁17쎯	-9.67148
shi❄63쎯ji❂169쎯	-9.67153
쎆쎂	-9.67173
kui❄14쎯	-9.67292
zha❄26쎯ru❃9쎯	-9.67335
wu❃47쎯	-9.67387
ji❄99쎯jiao❁33쎯	-9.67388
sao❁18쎯	-9.67398
e❂49쎯guo❁28쎯	-9.67449
jian❃94쎯、	-9.67454
ao❁7쎯rong❂58쎯	-9.67463
song❃15쎯ru❃0쎯	-9.67483
hui❄13쎯qu❁21쎯	-9.67488
qu❂96쎯chong❁7쎯	-9.67517
,dai❄25쎯	-9.67615
ji❄193쎯man❂40쎯	-9.67615
wei❁20쎯dan❁11쎯	-9.67634
,ju❂77쎯	-9.67719
qian❄4쎯	-9.67723
yin❂18쎯mai❄10쎯	-9.67734
I	-9.67743
jing❃4쎯	-9.67804
dang❄8쎯mi❄56쎯	-9.67845
쎅%	-9.67853
.la❄1쎯	-9.67895
wan❃27쎯	-9.6793
lv❄22쎯dian❃2쎯	-9.67937
huan❂60쎯tun❄0쎯	-9.67964
cao❂16쎯	-9.67968
,ying❂62쎯ju❄75쎯	-9.67983
huang❁19쎯qin❁2쎯	-9.6799
xu❄113쎯	-9.68102
chen❂57쎯ru❃0쎯	-9.6811
----------------	-9.68227
mao❄23쎯	-9.68231
kong❃2쎯	-9.68243
huo❄45쎯ke❁8쎯,	-9.68283
han❂33쎯ta❄13쎯	-9.68295
huang❁14쎯dan❁11쎯	-9.68297
du❄22쎯	-9.68313
di❂9쎯qing❄17쎯	-9.68329
쎁쎅쎀	-9.68405
hou❄27쎯li❂109쎯	-9.68504
hu❂80쎯	-9.68516
du❂72쎯chen❂57쎯	-9.68541
lan❂18쎯	-9.68562
tong❂14쎯cong❁12쎯	-9.68563
lou❂31쎯dian❃2쎯	-9.68565
feng❄14쎯wan❁10쎯	-9.68611
yin❂18쎯qu❁8쎯	-9.68664
feng❄2쎯	-9.6877
mi❂22쎯	-9.68776
wu❃9쎯xiong❂4쎯	-9.68798
-쎃	-9.68817
shan❃30쎯	-9.68892
rong❃28쎯ze❂3쎯	-9.68902
li❂28쎯	-9.68927
zhen❃34쎯	-9.68952
rong❂44쎯ju❁29쎯	-9.69126
qiu❂80쎯yu❄68쎯	-9.69222
ming❄5쎯	-9.6923
zhong❁24쎯shu❂7쎯	-9.69261
qian❁107쎯fei❄44쎯	-9.69324
ji❁164쎯qian❁30쎯	-9.69346
zhen❄45쎯	-9.69355
lin❃13쎯tang❂13쎯	-9.69375
yu❃36쎯.	-9.69385
,shan❃18쎯li❂122쎯	-9.69392
zai❄7쎯ai❄54쎯	-9.69394
xiong❂4쎯di❃18쎯	-9.69397
cuo❂4쎯	-9.69499
%,	-9.69517
la❄52쎯	-9.69525
qian❁30쎯jin❃18쎯	-9.69567
di❃18쎯zhe❂33쎯.	-9.69569
qiang❁22쎯xie❂16쎯	-9.69612
lu❄58쎯	-9.69624
gao❃7쎯nai❂10쎯	-9.69636
xi❁209쎯	-9.69672
zhou❄5쎯	-9.69697
ting❄0쎯	-9.6977
guo❃24쎯,	-9.69845
qi❂76쎯	-9.69855
jia❁3쎯	-9.69859
chi❁14쎯tian❄3쎯	-9.69943
ba❂11쎯“	-9.70125
ling❂168쎯	-9.70128
,lu❃20쎯kai❁11쎯	-9.70133
쎆쎃	-9.70145
,huan❂12쎯	-9.70164
kui❂49쎯bi❄103쎯	-9.70219
ao❁7쎯bi❄70쎯	-9.70239
zhi❄166쎯	-9.70251
luo❄3쎯jian❃4쎯	-9.70265
xie❄148쎯	-9.70298
qiang❂4쎯	-9.7031
,pie❄1쎯	-9.70355
쎆쎇	-9.70409
bin❁27쎯	-9.70421
❄61쎯ta❄40쎯ju❄62쎯	-9.70424
zhang❁5쎯	-9.7048
chuai❂1쎯qu❂96쎯	-9.7052
gao❁0쎯zui❄7쎯	-9.70527
xi❁243쎯	-9.70545
-쎄	-9.70574
bu❄62쎯、	-9.70634
wan❃43쎯wen❂24쎯	-9.70634
qu❁21쎯yang❂13쎯	-9.70712
gui❄31쎯	-9.70734
lv❄46쎯cheng❂85쎯	-9.70735
bin❄9쎯	-9.70777
ji❂169쎯tu❃0쎯	-9.70839
lang❂0쎯ce❄21쎯	-9.70895
lv❄22쎯sou❁22쎯	-9.70916
du❁10쎯bao❄5쎯	-9.70931
du❂59쎯shan❁17쎯	-9.70936
qi❁74쎯	-9.7097
.ye❄50쎯	-9.7098
nao❂35쎯ju❂29쎯	-9.70998
쎂쎀쎁쎀	-9.70999
.yi❄106쎯pie❄1쎯	-9.7101
huan❂29쎯	-9.71038
gao❄0쎯yin❃1쎯	-9.7104
lian❂60쎯	-9.71134
chong❁14쎯die❂70쎯	-9.71179
gu❄16쎯xian❂9쎯	-9.71322
qian❁34쎯	-9.7135
chan❂61쎯huo❁0쎯	-9.71369
chang❂8쎯	-9.71374
hong❂0쎯hun❄30쎯	-9.71397
kui❂22쎯li❂122쎯	-9.71416
he❂47쎯li❂122쎯	-9.7142
ying❃37쎯nie❄81쎯	-9.71536
xuan❄33쎯du❂56쎯	-9.71555
song❁25쎯	-9.71599
dai❁4쎯nie❄82쎯	-9.71632
ge❄7쎯	-9.71652
ji❄43쎯xun❂38쎯	-9.71655
,ya❄4쎯	-9.71703
long❄1쎯	-9.71733
yu❂168쎯	-9.71813
xi❁173쎯qi❄35쎯	-9.71898
liao❂38쎯	-9.71934
쎀쎀	-9.7194
hu❁54쎯	-9.71962
diao❁40쎯ti❁6쎯	-9.71999
duo❄3쎯xia❁0쎯	-9.72006
〕	-9.72084
쎄쎁	-9.7211
chi❁22쎯	-9.72132
ni❃23쎯ye❄50쎯	-9.72152
bie❁3쎯hong❂77쎯	-9.72183
.ye❄50쎯gun❄4쎯	-9.72198
chou❂58쎯	-9.72204
쎁쎉쎈쎂mai❄10쎯	-9.72227
nong❃1쎯	-9.72281
wan❄13쎯zhou❄54쎯	-9.72329
qiong❂72쎯ci❃11쎯	-9.72345
ta❁15쎯	-9.72388
sheng❄6쎯hun❁14쎯	-9.72398
ju❄21쎯pin❂1쎯	-9.72479
tong❂62쎯gong❁18쎯	-9.72488
nao❂35쎯ling❂181쎯	-9.72503
zhong❃8쎯ke❁55쎯	-9.72503
jie❂33쎯	-9.72557
cai❁7쎯lai❂43쎯	-9.72557
〔	-9.72641
ya❁28쎯ku❃2쎯	-9.7265
qin❃11쎯qu❂96쎯	-9.72704
hu❄44쎯ru❃0쎯	-9.72785
bi❄103쎯xun❁20쎯	-9.72822
cui❄48쎯dun❄22쎯	-9.72935
xing❄6쎯ba❂11쎯	-9.72964
po❂7쎯yan❃2쎯	-9.73063
lang❃10쎯gou❄22쎯	-9.73067
yin❁30쎯yin❂49쎯、	-9.73097
yan❂21쎯jue❂100쎯	-9.73122
yu❄90쎯	-9.73152
xuan❄33쎯hun❂15쎯	-9.73162
er❂14쎯chan❂50쎯	-9.73167
qiao❁31쎯qian❄4쎯	-9.73262
cang❁5쎯	-9.73277
쎂.쎀	-9.73289
yan❄84쎯kuai❃3쎯	-9.73337
wo❁5쎯ai❄34쎯	-9.73375
bi❄235쎯	-9.73392
yao❃12쎯hui❂17쎯	-9.73418
pi❄32쎯ke❃7쎯	-9.73431
zhen❄45쎯nin❂1쎯	-9.73478
,hui❄14쎯ji❃2쎯	-9.73484
nao❃8쎯	-9.73496
xiong❂4쎯dao❃0쎯	-9.73522
gun❄4쎯·	-9.73604
niao❃28쎯yu❄183쎯	-9.73606
wei❁20쎯mai❄10쎯	-9.73719
li❂109쎯ke❁8쎯	-9.73739
qi❁68쎯se❄52쎯	-9.73773
ru❃0쎯ta❄28쎯	-9.7382
duo❃14쎯	-9.7382
san❁16쎯	-9.73911
chen❂51쎯qiao❂8쎯	-9.73953
tun❁16쎯	-9.73961
쎀°C	-9.73986
qiu❂79쎯	-9.74163
yu❄99쎯	-9.74167
yan❃2쎯、	-9.74197
zuo❄4쎯zhan❁48쎯	-9.74207
shen❃35쎯	-9.74291
hu❂4쎯cheng❂85쎯	-9.74308
dou❁9쎯	-9.74343
xiao❂15쎯wu❁27쎯	-9.74368
duo❄3쎯	-9.74374
qiao❂8쎯pi❁22쎯	-9.74497
zha❂34쎯yin❂49쎯	-9.74509
ta❄40쎯쎂쎀쎀	-9.74571
xiang❄24쎯tai❄4쎯,	-9.74591
ruo❄10쎯yin❁53쎯	-9.74607
quan❂8쎯	-9.74622
쎀.쎅	-9.74653
guang❄3쎯	-9.74658
qin❂39쎯	-9.7468
쎅쎇	-9.7469
feng❄17쎯	-9.74709
qiong❂66쎯yi❂114쎯	-9.74746
.yi❂125쎯	-9.74769
di❄13쎯tai❄4쎯shi	-9.7479
yin❂64쎯yi❂157쎯	-9.74835
li❂122쎯《	-9.74853
,lv❄22쎯	-9.74913
ting❂20쎯tan❂62쎯	-9.74921
쎇쎈	-9.74958
guo❃24쎯ta❄40쎯	-9.75009
hun❂15쎯la❄1쎯	-9.75072
fu❄114쎯	-9.75124
za❁23쎯ze❂3쎯	-9.75162
lv❄22쎯cheng❂85쎯	-9.75193
le❄11쎯	-9.75205
ji	-9.75274
쎁/	-9.75277
chi❂59쎯	-9.75285
ling❂181쎯zha❄26쎯	-9.75301
yi❂121쎯	-9.75366
zhe❂54쎯	-9.75586
.쎈	-9.75605
쎅쎁	-9.75609
pao❂13쎯qin❂39쎯	-9.75632
bu❄6쎯	-9.75657
mu❃11쎯wai❁3쎯	-9.75661
fu❁73쎯	-9.75671
qu❂94쎯	-9.75703
yin❂18쎯lv❄22쎯	-9.75745
she❄9쎯쎁	-9.75784
ken❄2쎯	-9.75798
ying❃37쎯qing❄17쎯	-9.75844
luo❄14쎯	-9.75868
wen❂0쎯	-9.75881
zi❁106쎯li❄314쎯	-9.75928
zhong❃8쎯lin❂58쎯	-9.75934
zong❄14쎯yu❄183쎯	-9.76007
쎉쎆	-9.76023
ci❃11쎯fan❂20쎯	-9.76033
ji❁164쎯	-9.7609
jian❃45쎯bing❁11쎯	-9.76093
kai❃21쎯	-9.76185
yu❂64쎯	-9.7619
xian❂9쎯bu❄33쎯、	-9.76268
bu❄33쎯yan❃2쎯	-9.7635
s	-9.7646
ting❂31쎯	-9.76501
xiang❂16쎯gao❄5쎯	-9.76506
di❄89쎯	-9.7652
chi❁9쎯zi❃5쎯	-9.76525
lao❃15쎯suo❁6쎯	-9.76545
beng❄25쎯sou❁24쎯	-9.76621
cun❂2쎯	-9.76629
huang❁19쎯qin❁2쎯.	-9.7666
ban❃13쎯	-9.76711
xi❄31쎯ta❄40쎯	-9.76725
yi❄106쎯mang❂20쎯	-9.7677
쎁쎂쎀	-9.76815
lou❂12쎯	-9.76819
nie❄119쎯chao❄12쎯	-9.7687
zhe❂64쎯	-9.76963
.쎄	-9.76971
.쎂	-9.76973
men❂6쎯	-9.77012
chua❄쎯	-9.77092
,chu❂0쎯	-9.77106
쎅di❄13쎯	-9.77155
li❄196쎯du❂72쎯.	-9.77162
hun❂15쎯tu❂52쎯	-9.77188
cai❂13쎯ran❃21쎯	-9.77228
chuo❄10쎯	-9.77302
huan❂12쎯lang❄0쎯	-9.7733
ji❄99쎯fu❂70쎯	-9.77356
ti❃10쎯cheng❂49쎯	-9.7736
luo❄3쎯	-9.77503
gui❃11쎯	-9.77531
pie❄1쎯qing❄17쎯	-9.77545
fen❁39쎯zhou❁44쎯	-9.77546
cha❄22쎯	-9.77562
zhu❄4쎯ai❄47쎯	-9.77587
zha❂34쎯	-9.77598
zhuo❂27쎯	-9.77625
zong❄7쎯	-9.77636
쎂쎀쎁쎃mai❄10쎯	-9.77647
yan❁19쎯	-9.77647
duo❃43쎯bu❄33쎯	-9.77687
yin❂18쎯an❃0쎯	-9.77753
34쎯	-9.77754
ba❁12쎯	-9.7777
zuo❂8쎯di❃18쎯	-9.77935
pie❁1쎯shen❁45쎯	-9.7794
fu❄115쎯qiong❂72쎯	-9.77996
nie❄85쎯qu❂96쎯	-9.78019
li❄314쎯	-9.78028
qia❂0쎯po❄3쎯ti❁6쎯	-9.78034
cuo❁1쎯mo❄30쎯	-9.78092
ze❂3쎯zong❄14쎯	-9.78125
zhi❄54쎯gou❁4쎯	-9.78133
yan❁34쎯jian❃94쎯、	-9.78142
lin❄31쎯	-9.7819
zhu❁14쎯bang❁12쎯	-9.78196
di❃21쎯ze❂3쎯	-9.78235
zang❁0쎯du❂56쎯	-9.78259
”wan❃31쎯	-9.78272
wan❃31쎯ke❂0쎯	-9.78308
qian❁30쎯yan❂41쎯	-9.7831
la❄52쎯you❃29쎯	-9.78328
fen❁39쎯qu❂96쎯	-9.78331
yan❁61쎯ding❄4쎯	-9.78379
hu❄45쎯	-9.78383
weng❄4쎯chu❄45쎯	-9.78421
쎁쎉쎈쎃mai❄10쎯	-9.78437
,shu❁47쎯yi❂125쎯	-9.78449
,beng❄8쎯ke❂0쎯	-9.78476
du❂59쎯zhong❃10쎯	-9.78574
fu❃3쎯	-9.78599
sou❁22쎯gou❃8쎯	-9.78608
쎈쎂	-9.78638
ju❄105쎯po❂9쎯	-9.7865
yan❃2쎯li❂109쎯	-9.7867
ju❁29쎯	-9.78673
jiao❁33쎯wang❃8쎯	-9.78675
ban❄29쎯	-9.78679
bi❄263쎯	-9.78686
lai❄28쎯xi❂9쎯	-9.78711
qin❂5쎯di❄13쎯	-9.78726
lu❂31쎯	-9.7879
huang❁19쎯“	-9.78808
yang❃12쎯	-9.78819
bi❄228쎯	-9.78833
,yi❄228쎯	-9.78901
ci❃11쎯li❄270쎯	-9.78917
ji❂169쎯qu❁21쎯	-9.78918
nao❂33쎯	-9.79074
man❄9쎯ta❃6쎯	-9.79085
ao❃12쎯yi❂157쎯	-9.79097
li❂122쎯lv❄22쎯	-9.79124
lv❄22쎯qin❃11쎯	-9.79316
zao❃7쎯	-9.79383
tuan❂2쎯	-9.79424
hun❂0쎯	-9.79448
ou❃5쎯.	-9.79471
ba❂11쎯ju❄75쎯	-9.79523
nv❄4쎯jiang❄20쎯	-9.79569
ti❄8쎯	-9.79686
chen❄8쎯hu❂21쎯	-9.79705
mo❄114쎯dao❄17쎯	-9.79706
wu❃9쎯dun❄22쎯	-9.79724
cha❁4쎯	-9.79774
yan❂31쎯	-9.79843
쎁-	-9.7985
jian❃80쎯xia❁0쎯	-9.79864
yan❃118쎯wai❁3쎯	-9.79876
za❂3쎯ru❃9쎯	-9.79901
die❂100쎯	-9.79942
qian❁107쎯	-9.79949
xia❂34쎯zhuo❂66쎯	-9.79975
xi❁191쎯	-9.7998
tu❂46쎯	-9.8002
yang❁8쎯	-9.80183
ji❄119쎯	-9.8019
sang❁6쎯	-9.80257
yi❂125쎯gun❃6쎯	-9.80274
쎆di❄13쎯	-9.80295
tian❄3쎯cha❂39쎯	-9.80305
a	-9.80326
e❄71쎯	-9.80443
nie❄119쎯ning❄10쎯	-9.80445
.yi❄106쎯	-9.80547
kong❃5쎯ni❂13쎯	-9.80598
gu❁39쎯	-9.8065
wen❂24쎯li❄196쎯	-9.80799
❄26쎯nai❂10쎯po❄2쎯	-9.80857
ji❄99쎯gao❄0쎯kuai	-9.80859
shi❅1쎯	-9.80862
yi❄381쎯wen❂24쎯	-9.80871
ao❃12쎯ji❂53쎯	-9.80878
jun❄19쎯	-9.80903
쎇쎃	-9.80943
an❁3쎯	-9.80957
di❁32쎯en❁5쎯	-9.8097
ji❁103쎯	-9.80978
lv❄22쎯ke❁55쎯	-9.80987
dao❃1쎯dan❁40쎯	-9.80995
fen❂13쎯	-9.80998
re❄2쎯ru❃9쎯	-9.81017
du❄29쎯kao❄2쎯	-9.81027
qiu❁23쎯	-9.81105
zhou❄28쎯	-9.81118
gen❁0쎯tian❄3쎯	-9.81132
xu❁37쎯kui❂22쎯	-9.81152
lin❂58쎯e❄54쎯	-9.81235
tang❁14쎯yao❃2쎯	-9.81289
》wan❃31쎯.	-9.8129
bu❄62쎯wai❁3쎯	-9.81382
di❁28쎯zhi❂5쎯	-9.81411
xu❁63쎯	-9.81459
po❂7쎯tang❃12쎯	-9.81504
zhong❃8쎯bao❃14쎯	-9.81509
ci❃13쎯	-9.81584
yan❃118쎯qi❁68쎯	-9.81599
po❂7쎯zang❁0쎯	-9.8163
quan❂21쎯	-9.81647
chou❂58쎯gao❁36쎯	-9.81742
,jia❁36쎯	-9.81779
su❄84쎯	-9.81896
wan❃31쎯gan❄4쎯	-9.81897
cai❂13쎯tan❂62쎯	-9.82038
zhi❁56쎯ta❄61쎯	-9.82079
lv❄22쎯li❂28쎯	-9.82081
ju❁38쎯gan❄30쎯	-9.82111
se❄52쎯	-9.82119
zhe❂33쎯gao❄16쎯	-9.8215
pao❁5쎯shi❄139쎯	-9.82173
du❂72쎯ju❁38쎯	-9.82257
ping❂53쎯wu❁27쎯	-9.8234
jun❁9쎯	-9.82344
p	-9.82388
qing❄17쎯bi❄235쎯、	-9.82419
yi❂27쎯mi❄56쎯	-9.82443
bo❂79쎯	-9.82469
sha❃3쎯	-9.82494
bu❄33쎯ning❂7쎯,	-9.82501
zhan❄2쎯	-9.82516
nian❂7쎯hou❄27쎯	-9.82549
qiang❁22쎯po❂9쎯	-9.82585
yong❃14쎯	-9.82627
ni❂38쎯ya❁28쎯	-9.82643
shan❁13쎯guan❄42쎯	-9.82662
qiong❂72쎯jia❁36쎯	-9.82707
hui❄14쎯en❁5쎯	-9.82745
°C	-9.82786
ting❂20쎯xuan❄29쎯	-9.82838
ou❃5쎯bo❁6쎯ba❂11쎯	-9.82859
쎀.쎀	-9.82963
ch	-9.82986
ji❁164쎯dan❃20쎯	-9.83028
zhan❁48쎯	-9.83067
27쎯	-9.83141
you❁22쎯yu❃64쎯	-9.83146
yu❃36쎯ru❃9쎯	-9.83149
wen❃2쎯	-9.83155
shu❂7쎯la❄1쎯	-9.83164
tan❂63쎯ge❂36쎯	-9.83196
yin❂18쎯pan❁6쎯	-9.83211
xian❄96쎯	-9.83307
yi❄38쎯	-9.83348
ji❄99쎯qiu❂80쎯	-9.8345
ce❄21쎯	-9.8349
xu❁22쎯	-9.83493
ya❄4쎯ru❃9쎯	-9.83512
tan❂51쎯	-9.83516
ben❁4쎯pu❂0쎯	-9.8353
ta❄34쎯jie❂66쎯	-9.83539
ben❁4쎯du❂72쎯	-9.83626
yao❃12쎯chao❂11쎯	-9.83647
.lu❃20쎯kai❁11쎯	-9.8367
gui❄31쎯fu❄114쎯	-9.83715
li❄233쎯	-9.83727
she❄9쎯pan❁6쎯	-9.83751
yue❄60쎯,	-9.83773
qia❄2쎯li❄5쎯	-9.83802
ying❃36쎯	-9.83831
xuan❄29쎯	-9.83856
xian❂28쎯ya❂2쎯	-9.83861
xuan❄33쎯wen❂24쎯	-9.83869
zai❄7쎯yao❃2쎯	-9.83895
tuo❄6쎯dao❃22쎯	-9.83915
ju❄55쎯dao❃22쎯	-9.8393
fen❂36쎯du❄26쎯	-9.84004
sheng❃17쎯wei❂73쎯	-9.84017
ting❂17쎯wa❁21쎯	-9.8402
fan❂20쎯ze❂3쎯	-9.84045
tiao❄7쎯	-9.84054
n	-9.84093
”li❄196쎯	-9.84194
ha❁1쎯	-9.84216
bie❁10쎯	-9.84224
xun❂50쎯	-9.84236
pie❁1쎯po❂7쎯	-9.84279
tun❁15쎯	-9.84303
):	-9.84354
ji❂25쎯tie❁5쎯	-9.84429
45쎯kao❄2쎯ni❃23쎯	-9.84435
ju❃31쎯ji❄160쎯	-9.84469
ge❁52쎯	-9.84475
huang❂58쎯	-9.84501
ling❂52쎯yan❄84쎯	-9.84513
,ben❁4쎯	-9.84626
z	-9.84683
shi❃26쎯beng❄18쎯	-9.84699
jiong❁14쎯	-9.84704
duo❄19쎯	-9.84767
xian❁76쎯	-9.8477
xin❁40쎯	-9.84777
qu❂96쎯yu❃64쎯	-9.84797
tuo❃10쎯	-9.84871
tou❄5쎯mai❄10쎯	-9.84879
yi❄277쎯	-9.84919
tui❂33쎯gan❄4쎯	-9.84962
hui❂17쎯ling❂181쎯	-9.84988
qing❄3쎯tui❂24쎯	-9.84994
zhe❄9쎯ruan❄2쎯.	-9.85001
nian❂7쎯	-9.85036
쎇쎇	-9.85053
ze❂3쎯pao❁2쎯	-9.85056
zhi❃58쎯ping❂53쎯	-9.85117
po❂9쎯,	-9.85123
min❂29쎯	-9.85124
heng❂22쎯lian❂60쎯	-9.85126
zou❁10쎯han❂12쎯	-9.85185
cong❁12쎯	-9.85186
chun❁18쎯	-9.85201
li❂109쎯kang❄3쎯	-9.85266
zao❃0쎯chuai❂1쎯	-9.85272
fu❄114쎯yi❁32쎯	-9.85341
chi❃3쎯ta❄61쎯	-9.85473
fan❂20쎯yan❁54쎯	-9.85481
zhuan❄29쎯ai❂5쎯	-9.85496
ju❁38쎯huan❂12쎯	-9.85514
xian❂28쎯guai❄14쎯	-9.85519
mai❄10쎯gao❄16쎯,	-9.8553
tian❄3쎯guang❁13쎯	-9.8554
chong❁32쎯he❂41쎯	-9.85566
zuo❄9쎯	-9.85606
yan❃2쎯ruan❄2쎯.	-9.8561
❁4쎯xun❁20쎯fu❂69쎯	-9.85629
wen❂24쎯:	-9.85631
li❂170쎯	-9.85733
zuo❄27쎯xun❂31쎯	-9.8583
shu❁33쎯rong❂58쎯	-9.85856
shuo❁1쎯	-9.8587
gao❁29쎯	-9.85892
jin❃18쎯chu❄45쎯	-9.85902
lve❄5쎯zan❁1쎯	-9.85925
,qin❁2쎯	-9.85956
lei❂45쎯	-9.85995
bu❄62쎯fu❄115쎯	-9.86157
g	-9.86191
nao❄5쎯	-9.86191
xi❄31쎯hun❂15쎯	-9.86212
ji❁77쎯jiao❁43쎯	-9.86236
huan❂12쎯li❄196쎯	-9.86256
hui❄23쎯	-9.86292
38쎯	-9.86313
wan❃18쎯	-9.86328
si❁50쎯	-9.86332
쎉쎇	-9.86334
lu❂15쎯	-9.86388
jia❁36쎯mi❄56쎯	-9.86404
hou❄27쎯shi❃26쎯	-9.86463
lve❄5쎯mu❄44쎯	-9.86624
ju❁64쎯	-9.86629
ze❂61쎯	-9.86674
shan❁17쎯dan❃20쎯	-9.86691
xia❄1쎯	-9.86763
fan❄0쎯	-9.86765
tuo❂13쎯	-9.86858
wan❃31쎯ruan❂1쎯	-9.86876
bu❄33쎯zi❄22쎯	-9.86935
cheng❂14쎯,	-9.86947
.gun❃24쎯	-9.87002
ju❁62쎯	-9.87023
ke❂0쎯ruan❄2쎯	-9.87039
.쎂.	-9.87102
쎁쎂쎈	-9.87251
tuan❂10쎯	-9.87257
bai❄19쎯	-9.87274
wu❃9쎯yan❃118쎯	-9.87276
po❄2쎯cai❃16쎯	-9.87321
po❄10쎯rong❂58쎯	-9.87425
xie❂16쎯ta❄48쎯	-9.87449
xun❂38쎯	-9.87537
shi❃11쎯hun❄30쎯	-9.87576
ao❂12쎯	-9.87612
niu❂2쎯	-9.87712
zhuang❁7쎯chen❄8쎯	-9.87712
shu❁33쎯bu❄62쎯	-9.87717
쎂쎀쎀쎈	-9.8772
lve❄5쎯zhong❃10쎯	-9.87732
yan❃118쎯ta❄99쎯	-9.87733
wu❄21쎯	-9.87737
ju❂63쎯	-9.87828
shu❂7쎯jiao❃86쎯	-9.87838
tan❁10쎯yi❂27쎯	-9.87838
zhui❄10쎯	-9.87851
ai❄54쎯	-9.87874
ke❃7쎯tan❂63쎯	-9.87916
ze❂49쎯	-9.8794
li❂109쎯mu❄44쎯	-9.87946
mu❄28쎯	-9.87954
jia❃10쎯	-9.87992
쎉쎄	-9.88015
guan❄48쎯	-9.8808
mi❃0쎯	-9.88082
sui❃7쎯	-9.88086
du❁5쎯	-9.88099
ao❃12쎯ta❄103쎯	-9.88126
li❄254쎯	-9.88152
wei❁42쎯	-9.88152
zhi❂5쎯、	-9.88166
zi❁61쎯shen❁63쎯	-9.88246
yan❃118쎯mo❄7쎯	-9.88284
ba❂21쎯	-9.88297
luo❂43쎯	-9.88418
,chu❄45쎯	-9.88432
ang❂2쎯yi❄84쎯	-9.88507
cong❁69쎯ke❃7쎯	-9.88515
lang❄0쎯rong❂58쎯	-9.88515
di❄57쎯wei❂79쎯	-9.88587
ru❂0쎯	-9.88597
쎅쎉	-9.88652
rong❂58쎯xiong❂4쎯	-9.88679
tai❂30쎯niao❃28쎯	-9.88698
qi❃24쎯	-9.88701
chan❄19쎯ji❄193쎯	-9.88773
gun❄4쎯ren❃13쎯.	-9.88846
ti❁6쎯tan❂63쎯	-9.88847
qiang❁28쎯qi❃51쎯	-9.88847
fu❂70쎯ru❃9쎯	-9.88882
du❂72쎯ji❄99쎯	-9.88891
tong❂14쎯hu❁63쎯	-9.88917
쎂.쎅	-9.8894
jiao❁12쎯xi❁12쎯	-9.88972
ji❁77쎯you❄42쎯	-9.88984
you❂74쎯	-9.89021
yan❄2쎯	-9.89038
yin❂64쎯xi❂9쎯	-9.89044
qu❂31쎯	-9.8906
xia❂3쎯	-9.89177
kui❂45쎯	-9.89237
di❄89쎯chen❂53쎯	-9.89244
huo❄13쎯xiong❂4쎯	-9.89264
tui❄1쎯ru❃9쎯	-9.89305
gong❃1쎯	-9.89306
gen❁0쎯xiong❂4쎯	-9.89309
tian❄3쎯yu❁17쎯	-9.8932
tian❂18쎯guan❄42쎯	-9.89326
lang❃3쎯li❂126쎯	-9.89331
li❄270쎯chong❁7쎯	-9.89377
sou❁22쎯gui❄72쎯	-9.89424
sou❁24쎯	-9.89446
fu❄129쎯zao❄26쎯	-9.89448
bi❄196쎯	-9.89452
jian❁60쎯xing❄6쎯	-9.89483
hong❁32쎯liang❃2쎯	-9.89506
xu❄61쎯ling❂34쎯c	-9.89519
jian❁60쎯guai❄14쎯	-9.89521
xian❄50쎯	-9.8953
쎂쎀lie❄86쎯yu❂72쎯	-9.89548
yan❁34쎯jian❃94쎯,	-9.89552
lv❄46쎯li❂109쎯	-9.89577
jiu❁45쎯	-9.89611
ze❂3쎯bu❄33쎯	-9.89617
jia❃5쎯sa❄42쎯	-9.8974
xi❁232쎯	-9.89746
,yi❄10쎯	-9.89774
ting❂20쎯shi❃26쎯	-9.89774
ba❁41쎯ci❄34쎯	-9.89798
zhou❄54쎯	-9.89837
shu❂7쎯weng❄4쎯	-9.89902
zhe❂33쎯gai❄1쎯	-9.89962
yin❂18쎯li❂76쎯	-9.90007
ti❁6쎯zi❁81쎯	-9.90019
xie❂15쎯	-9.90047
gu❁49쎯	-9.90047
wu❃49쎯쎁	-9.9006
lv❄41쎯	-9.90081
zhang❁7쎯	-9.90096
gui❄51쎯gou❃8쎯	-9.90112
bang❃10쎯	-9.90117
zhu❃4쎯ti❁6쎯	-9.90118
bin❁0쎯chu❄45쎯	-9.90129
heng❂14쎯nao❃8쎯	-9.90141
nie❂3쎯	-9.90223
gui❁28쎯	-9.90227
chong❁7쎯、	-9.90301
qiao❂24쎯pin❂10쎯	-9.90324
re❄5쎯mai❄10쎯	-9.9035
(쎁)	-9.90362
ying❁81쎯yu❄68쎯	-9.9043
rou❂4쎯	-9.90466
huan❂12쎯jian❁60쎯	-9.90499
chao❄12쎯wu❃18쎯	-9.90589
na❄45쎯	-9.90606
li❂109쎯zao❃14쎯	-9.90714
cheng❂47쎯	-9.90778
ping❂53쎯wei❂17쎯	-9.90787
dan❁43쎯	-9.90795
nan❂30쎯qian❁30쎯	-9.90812
duo❂12쎯	-9.90843
zha❁7쎯	-9.90853
❄32쎯ke❃7쎯qu❂96쎯	-9.90896
gu❃72쎯	-9.90897
ke❂0쎯fu❂69쎯ru❃9쎯	-9.90913
yi❄230쎯chong❁7쎯	-9.90938
mai❄10쎯qian❂41쎯	-9.9095
tai❂30쎯qiao❂8쎯	-9.90968
you❁38쎯shu❂7쎯	-9.90995
(쎁쎈	-9.91031
쎂쎀쎀쎉	-9.91096
hui❄113쎯ju❄55쎯	-9.91111
leng❂6쎯	-9.91137
niu❃2쎯	-9.91161
yao❃12쎯jin❃18쎯	-9.91206
zao❃0쎯gan❄4쎯	-9.91261
wo❄38쎯	-9.91291
bo❁36쎯mang❂20쎯	-9.91299
(쎂)	-9.91334
jiang❄2쎯ren❃13쎯	-9.91349
fei❄44쎯yi❂27쎯	-9.91365
mu❄44쎯dao❄17쎯	-9.91412
tui❄1쎯xi❁68쎯	-9.91415
ci❃11쎯ju❄105쎯	-9.91533
,xiao❄35쎯	-9.91584
,yi❂125쎯lv❄22쎯	-9.91777
chi❄63쎯	-9.91823
ying❃36쎯gao❁36쎯	-9.91825
ji❂169쎯li❂122쎯	-9.91835
,ji❃2쎯	-9.91835
쎆쎉	-9.91866
chui❂16쎯zuo❂8쎯	-9.91868
fan❂20쎯bing❃32쎯	-9.9188
gan❃18쎯	-9.91915
su❄100쎯	-9.91951
hao❁5쎯su❁7쎯	-9.91951
tuo❁11쎯ru❂27쎯	-9.91962
jia❁36쎯ge❂69쎯	-9.91966
ge❂69쎯gun❄4쎯	-9.92027
zhi❁56쎯biao❁11쎯	-9.92044
xi❁12쎯	-9.92077
tu❃0쎯jin❄16쎯	-9.92155
,lv❄22쎯nie❄84쎯	-9.92248
lv❄22쎯gan❄31쎯	-9.92278
fu❂142쎯gan❄4쎯	-9.92291
nong❂32쎯	-9.92341
shu❄59쎯	-9.92384
chuo❄38쎯	-9.92414
ji❁125쎯ju❁38쎯	-9.92424
er❂14쎯ti❁6쎯	-9.92473
dun❄22쎯ke❁55쎯	-9.92506
ze❂3쎯yi❂114쎯	-9.92556
rong❂44쎯guan❄52쎯	-9.92576
bo❂46쎯po❄2쎯	-9.92601
huo❄45쎯fen❂2쎯	-9.9272
fei❂7쎯	-9.92748
he❄28쎯dun❄22쎯	-9.9275
쎂쎀쎁쎁	-9.92752
qin❄14쎯	-9.92798
lv❄22쎯guo❁28쎯	-9.92837
dong❄38쎯	-9.92842
jie❂129쎯niao❃28쎯	-9.92927
guai❄14쎯tui❄1쎯	-9.92964
sou❁22쎯yang❄4쎯	-9.93007
hou❄1쎯	-9.93021
gua❃0쎯ren❃13쎯	-9.93027
niu❃9쎯	-9.93142
bi❄203쎯liang❃2쎯	-9.93164
rong❂44쎯qiao❁31쎯	-9.93166
zang❁0쎯	-9.93169
zhan❁29쎯	-9.93197
yi❂157쎯qin❁2쎯	-9.93257
zang❁0쎯du❄3쎯	-9.93297
long❂72쎯ze❂3쎯	-9.93314
chen❄8쎯ding❄4쎯	-9.9336
kun❃6쎯you❁27쎯	-9.93364
shan❁17쎯you❄42쎯	-9.93379
쎀쎅	-9.93424
xue❁9쎯	-9.93492
쎀쎂	-9.93503
쎅ci❃11쎯zhang❁28쎯	-9.93521
ruan❃20쎯qi❂124쎯	-9.93527
qu❁8쎯mai❄10쎯	-9.93582
,ba❂2쎯	-9.93601
zan❁0쎯gan❄31쎯	-9.93624
luo❄35쎯	-9.93673
42쎯	-9.93678
bian❄2쎯	-9.93746
쎇쎉	-9.93791
qiu❂32쎯	-9.93861
fei❁14쎯	-9.93947
kao❄2쎯ku❃2쎯	-9.94025
hou❂35쎯	-9.94067
ling❂158쎯mo❄30쎯	-9.94075
zhou❂4쎯	-9.9412
you❃29쎯	-9.94127
bu❄33쎯qiu❂80쎯,	-9.94209
jiao❁33쎯ji❄99쎯	-9.94219
chong❂9쎯bu❄6쎯	-9.94227
.huan❂12쎯li❄196쎯	-9.94228
lu❄144쎯	-9.94248
ban❁16쎯	-9.94263
qiao❄13쎯.	-9.94266
.dai❄25쎯	-9.94324
ke❂0쎯you❂74쎯	-9.9437
kai❃22쎯	-9.94485
쎆.	-9.94524
nie❄119쎯fu❂93쎯	-9.94592
hu❂4쎯di❄13쎯	-9.94598
lin❂58쎯yi❄83쎯	-9.94608
di❃21쎯	-9.94648
쎅ting❂20쎯tan❂62쎯	-9.94664
yu❂68쎯ti❄42쎯	-9.94683
,gu❄7쎯	-9.94697
shua❃4쎯	-9.94718
ti❃10쎯fen❃3쎯	-9.94755
jue❂196쎯	-9.94826
bi❄70쎯po❂7쎯	-9.94842
en❁5쎯li❄270쎯	-9.94916
san❃3쎯di❄13쎯	-9.94945
shan❁13쎯meng❂67쎯	-9.94987
jiao❃86쎯ta❄99쎯	-9.94997
,hun❂15쎯li❄196쎯	-9.95039
dong❁23쎯	-9.95042
wei❃84쎯	-9.95117
xing❄6쎯shu❄41쎯	-9.95128
biao❃0쎯	-9.95164
xin❁40쎯lv❄22쎯	-9.95193
yi❄230쎯song❃15쎯	-9.95244
mei❂50쎯	-9.95267
ju❄98쎯you❄42쎯	-9.95273
jian❃80쎯	-9.9537
mai❃0쎯	-9.95438
zhi❂5쎯chong❁7쎯	-9.9545
wu❃9쎯chan❂50쎯,	-9.95453
wang❃30쎯	-9.95512
zhuang❁7쎯du❂59쎯	-9.95517
ao❄33쎯	-9.95533
52쎯	-9.9556
xiang❄24쎯po❂7쎯	-9.95584
zhua❁4쎯	-9.95588
lie❃4쎯	-9.95618
lai❂4쎯:“	-9.95618
.shu❁47쎯	-9.95648
ke❂0쎯shi❃26쎯	-9.95719
쎀쎃	-9.9572
wan❄13쎯	-9.95774
jia❃6쎯chan❂17쎯	-9.95782
sai❁15쎯	-9.958
qi❃51쎯zhe❂33쎯	-9.95838
dan❄51쎯	-9.95869
%.	-9.95916
gai❁4쎯	-9.9594
,ta❄61쎯	-9.95993
sa❄2쎯	-9.9602
bo❂2쎯	-9.96024
,ke❂0쎯guo❃24쎯	-9.9606
hui❄14쎯ji❃2쎯	-9.96066
zhi❂0쎯bu❄62쎯	-9.96089
hong❁10쎯	-9.9612
nang❂7쎯	-9.96132
qing❄19쎯qiao❃3쎯	-9.96198
.dian❄35쎯	-9.96224
tan❂62쎯ruan❄2쎯	-9.9624
lang❄5쎯	-9.9627
ji❂66쎯	-9.9632
lv❄32쎯gu❃74쎯	-9.96329
yi❄69쎯	-9.96412
qing❁6쎯	-9.96416
chan❄17쎯fen❃3쎯	-9.96451
ong❃30쎯shang❁17쎯	-9.96493
jue❂25쎯san❃7쎯	-9.96499
chuai❂1쎯lei❄7쎯、	-9.96513
,“	-9.96514
쎀×	-9.96584
xu❄61쎯ling❂34쎯	-9.96604
fen❃3쎯、	-9.96631
shuo❄9쎯	-9.96653
,huo❄45쎯ke❁8쎯,	-9.96656
zan❁0쎯dan❁11쎯.	-9.96692
jiang❄1쎯pie❄1쎯	-9.96709
shi❂3쎯zhang❁14쎯	-9.96709
li❂76쎯ti❁6쎯	-9.96716
kai❁11쎯ju❄75쎯	-9.96734
pai❂4쎯tan❂62쎯	-9.96739
mian❂1쎯	-9.96796
yuan❄6쎯yi❂125쎯	-9.96807
zhi❃58쎯gui❄51쎯	-9.96845
qu❁21쎯ji❂169쎯	-9.96881
쎁쎉쎈쎀mai❄10쎯	-9.96897
ji❁164쎯duo❃43쎯	-9.96913
ji❁77쎯li❄196쎯	-9.96913
wu❃9쎯sa❄42쎯	-9.97063
nao❃23쎯	-9.97158
qiang❄4쎯	-9.97191
zhe❄9쎯xian❃58쎯	-9.97229
eng❄14쎯shang❁17쎯	-9.97234
yan❂2쎯	-9.97254
du❂25쎯dun❄22쎯	-9.97265
yang❂13쎯gao❁36쎯	-9.97339
qi❁76쎯mi❄56쎯,	-9.97354
1	-9.97358
,fu❄114쎯yi❁32쎯	-9.97376
yan❄84쎯ta❃6쎯	-9.97445
ke❂0쎯qin❄0쎯	-9.97529
biao❁43쎯	-9.97533
gen❁0쎯meng❂76쎯	-9.97535
、zhi❃58쎯	-9.9758
qia❂0쎯ai❂9쎯	-9.97588
he❂41쎯tan❂62쎯	-9.9762
xi❂1쎯	-9.97629
yin❃44쎯	-9.97677
.쎃	-9.97732
bao❃14쎯fen❁39쎯	-9.97755
ji❄160쎯bi❃37쎯	-9.97757
guan❄41쎯	-9.97771
쎈쎇	-9.97813
tan❂62쎯ji❄23쎯.	-9.97824
lv❄22쎯hun❄30쎯	-9.97836
ren❄0쎯shi❄20쎯	-9.97854
yan❄63쎯	-9.97866
yi❄313쎯	-9.97878
jing❁65쎯	-9.97901
tui❂24쎯	-9.97916
zou❁10쎯qian❁63쎯	-9.97928
쎇쎄	-9.97937
xie❂74쎯	-9.97943
cu❃0쎯	-9.97957
chao❄12쎯yin❁30쎯	-9.98001
yu❂91쎯duo❃43쎯	-9.98027
zao❁1쎯	-9.98065
xu❃6쎯	-9.98065
yu❂112쎯xi❁191쎯	-9.98095
wei❂79쎯	-9.98214
meng❂72쎯	-9.98595
qiao❄25쎯	-9.98609
zhan❄18쎯zai❄7쎯	-9.98621
jie❂21쎯	-9.98626
yu❂91쎯zan❁0쎯	-9.98672
、chuai❂1쎯ji❂169쎯	-9.98678
zhu❂36쎯	-9.98693
37쎯	-9.98694
tian❄11쎯ri❄2쎯	-9.9876
yi❄157쎯	-9.98769
huo❄41쎯	-9.9877
chan❄19쎯、	-9.98792
dou❁9쎯gao❃7쎯	-9.98804
쎁쎉쎇쎈mai❄10쎯	-9.98833
na❄59쎯	-9.98834
쎉쎂	-9.98897
du❂72쎯bi❄70쎯	-9.98936
la❄51쎯	-9.99026
qin❂1쎯yu❄105쎯	-9.99038
chu❂0쎯sha❁46쎯	-9.99065
la❄44쎯	-9.99084
gan❁21쎯	-9.99095
ren❃13쎯xi❁68쎯	-9.99108
bin❄10쎯tan❂63쎯	-9.99117
ru❃9쎯zhi❃58쎯	-9.99193
guan❄52쎯fu❂166쎯	-9.99211
jiong❁3쎯	-9.99231
lou❂41쎯	-9.99278
yao❃2쎯tan❂63쎯	-9.9928
hui❁56쎯qia❂0쎯	-9.99303
ya❅쎯ga❄4쎯	-9.99336
tu❂68쎯luo❂2쎯	-9.99338
ling❂158쎯tu❂52쎯	-9.99361
lv❄46쎯tian❄6쎯	-9.99383
peng❄8쎯	-9.99413
cang❁5쎯dian❃2쎯	-9.99484
xi❁123쎯	-9.99488
sui❄30쎯	-9.9949
hu❂119쎯dao❃22쎯	-9.99503
ting❂20쎯xuan❄33쎯	-9.99529
ling❂158쎯zi❁78쎯	-9.99626
dou❄37쎯	-9.99628
zuo❄4쎯wen❂24쎯:	-9.99676
kai❄1쎯	-9.99779
guo❂1쎯ou❃15쎯	-9.99841
nie❄119쎯pie❁1쎯,	-9.9985
jiao❄29쎯	-9.99892
yan❃96쎯	-9.99914
gun❄4쎯ren❃13쎯,	-9.99947
xia❄4쎯zuo❄4쎯	-9.99984
ti❃10쎯nie❄82쎯	-9.99996
qi❁71쎯	-10.0004
shu❃12쎯yu❁17쎯	-10.0005
nie❄119쎯pie❁1쎯.	-10.0005
jiao❁33쎯ruan❂1쎯	-10.0008
ren❃13쎯yu❃36쎯	-10.0009
can❄15쎯li❂170쎯	-10.001
fu❂166쎯tai❄4쎯	-10.0014
yin❁7쎯lu❃23쎯	-10.0018
쎇쎀쎀	-10.0021
39쎯	-10.0022
cai❂13쎯zi❃5쎯	-10.003
she❄9쎯쎂	-10.0032
ba❄9쎯	-10.0036
chu❂10쎯	-10.0041
na❄31쎯tong❂14쎯	-10.0044
yi❂125쎯“	-10.0044
xuan❄33쎯du❂59쎯	-10.0045
쎈쎄	-10.0049
ke❂2쎯	-10.0049
qin❂5쎯mai❄10쎯	-10.0055
쎆쎁	-10.0059
wu❃9쎯zi❁78쎯	-10.0065
pian❁1쎯	-10.0065
qia❂0쎯e❂49쎯	-10.0068
mo❄114쎯li❄215쎯	-10.0069
쎁쎉쎈쎁mai❄10쎯	-10.0072
fu❂70쎯yan❃2쎯	-10.0073
sa❃1쎯	-10.0073
b	-10.0074
hua❄17쎯dian❃2쎯	-10.0077
zhong❃8쎯kai❁7쎯	-10.0079
chou❂58쎯zhi❁0쎯	-10.0083
쎀쎀da❂60쎯xian❃58쎯	-10.0083
hui❄75쎯bao❃14쎯	-10.0086
wai❁3쎯,	-10.0087
chan❂50쎯chao❄12쎯	-10.0087
xie❄84쎯kuai❃3쎯	-10.0087
fan❄5쎯	-10.009
jing❃17쎯qian❁63쎯	-10.0094
-쎆	-10.0099
guai❄14쎯li❂122쎯	-10.0105
yang❂46쎯	-10.0109
chan❄19쎯ju❂29쎯	-10.011
du❂72쎯xun❁20쎯	-10.0113
feng❁55쎯chun❂22쎯	-10.0116
,shao❃0쎯	-10.0127
,wan❃43쎯	-10.0133
chen❂53쎯	-10.0133
쎉.	-10.0139
qiong❂72쎯ru❃9쎯	-10.014
ta❄13쎯zhi❁70쎯	-10.0146
xu❄36쎯xiong❂4쎯	-10.0147
chuai❂1쎯yin❂64쎯	-10.0151
쎆-	-10.0154
쎇.	-10.0154
song❄13쎯	-10.0156
ren❃13쎯jin❁25쎯	-10.0164
man❄23쎯	-10.0168
nie❄119쎯qiu❂45쎯	-10.0168
》ru❃9쎯	-10.0168
diao❁40쎯li❄196쎯	-10.0169
쎀쎆	-10.0174
meng❂84쎯qu❂72쎯	-10.0177
yang❂13쎯zhu❁34쎯	-10.0179
dian❄35쎯ke❁55쎯	-10.018
lin❄11쎯	-10.018
yi❃25쎯	-10.0181
ji❄20쎯	-10.0183
xuan❁26쎯	-10.0184
re❄2쎯们	-10.0187
51쎯	-10.019
lou❂11쎯shan❁13쎯	-10.0193
쎈쎃	-10.0197
,you❁38쎯po❄2쎯	-10.0197
pi❄40쎯bo❁6쎯.	-10.0199
.”《	-10.0203
li❂76쎯ji❂169쎯	-10.0205
쎀쎁	-10.0206
huo❁0쎯ci❄34쎯	-10.0207
tai❄4쎯,	-10.0208
ci❃11쎯xian❂9쎯	-10.0209
tan❁11쎯feng❁30쎯	-10.0212
pan❄8쎯	-10.0215
mou❃0쎯	-10.0217
sui❄17쎯	-10.0219
nie❄82쎯fei❄44쎯	-10.0222
ji❂142쎯	-10.0229
bei❄16쎯	-10.0233
yu❂91쎯	-10.0233
쎈di❄13쎯	-10.0236
ji❂53쎯	-10.0244
lan❃27쎯	-10.0244
ban❄6쎯shi❂3쎯	-10.0244
pan❂3쎯xiong❂4쎯	-10.0245
sou❁22쎯li❂28쎯	-10.0246
ge❂52쎯《	-10.0255
chuai❂1쎯li❂122쎯	-10.0257
쎄)	-10.0269
fu❂69쎯yan❁34쎯	-10.0271
ling❂33쎯gou❄22쎯	-10.0274
ba❂11쎯zi❃28쎯	-10.0274
pi❄7쎯	-10.0276
kui❁6쎯	-10.0277
xian❂9쎯zeng❁7쎯	-10.0289
duo❃22쎯	-10.0291
en❁5쎯yan❄84쎯	-10.0295
쎂쎂쎀	-10.0295
kong❁8쎯	-10.0296
ba❁10쎯ling❂158쎯	-10.0301
yi❂125쎯di❄13쎯	-10.0308
gu❁29쎯ting❄0쎯	-10.0309
wei❄82쎯	-10.0311
hui❁32쎯gun❄4쎯	-10.0316
xian❃15쎯	-10.0318
li❄233쎯bao❃14쎯	-10.0319
★	-10.0325
cun❄3쎯	-10.0326
ta❃1쎯lu❃23쎯	-10.0327
ao❁1쎯	-10.0328
ze❂56쎯	-10.0329
,pu❂0쎯们	-10.033
쎈쎉	-10.033
nou❄1쎯	-10.0331
,yi❄211쎯	-10.0337
bei❄35쎯	-10.0349
qiu❂45쎯weng❄6쎯	-10.035
ji❂169쎯dian❃2쎯	-10.0354
lan❄10쎯gou❄22쎯	-10.0361
she❄9쎯la❁6쎯	-10.0362
juan❁28쎯	-10.0366
ping❂44쎯wa❁21쎯	-10.0369
ji❄23쎯.	-10.037
jian❁2쎯gai❄1쎯	-10.0371
zha❄26쎯fu❂69쎯	-10.0371
shuo❄33쎯qiao❂24쎯	-10.0376
duan❄4쎯ke❂0쎯	-10.0376
mai❄10쎯cheng❂47쎯	-10.0381
zhan❃22쎯	-10.0395
,wu❄3쎯们	-10.0396
zi❃28쎯yao❂36쎯	-10.0403
쎁쎉쎇쎉mai❄10쎯	-10.0405
yang❁12쎯gan❄4쎯	-10.0406
qian❁40쎯	-10.0414
쎀쎈	-10.0414
wan❃43쎯zan❁1쎯	-10.0414
du❂72쎯che❄42쎯	-10.0416
shen❁45쎯ji❄99쎯	-10.0416
qu❁8쎯yin❂18쎯	-10.0419
tuo❂75쎯	-10.042
fang❃3쎯	-10.0423
pu❃10쎯chen❂53쎯	-10.0424
kang❁4쎯	-10.0425
zhi❃58쎯shu❃12쎯	-10.0426
:쎂	-10.0426
zha❃6쎯	-10.0427
hu❄55쎯	-10.043
xi❄13쎯	-10.043
jue❂25쎯qi❁61쎯	-10.0431
-쎅	-10.0431
mie❁4쎯,	-10.0433
tie❁5쎯	-10.0435
bo❃3쎯wan❃27쎯	-10.0436
jun❄24쎯	-10.0437
lang❄0쎯mi❄56쎯	-10.0441
bi❄22쎯zhang❄20쎯	-10.0446
wai❁3쎯、	-10.0446
jing❄3쎯ju❄75쎯,	-10.045
쎀쎉	-10.0451
shi❁13쎯	-10.0455
yi❄106쎯shu❂7쎯	-10.0461
pu❂0쎯们ru❃9쎯	-10.0461
zu❃2쎯	-10.0465
shi❃26쎯qu❁58쎯쎃	-10.0467
fen❁39쎯shao❂7쎯	-10.0469
jing❁62쎯	-10.0474
li❄196쎯mo❄114쎯.	-10.0474
zhai❄2쎯	-10.0476
qi❁68쎯ju❁38쎯	-10.0479
su❁17쎯	-10.0482
kuai❃3쎯yin❂18쎯	-10.0484
dun❄22쎯tui❂33쎯	-10.0486
nie❄119쎯wei❂17쎯	-10.0488
dang❄8쎯ke❂0쎯	-10.0493
chuai❂1쎯qu❁21쎯	-10.0493
lan❂14쎯	-10.0496
tun❁16쎯heng❂4쎯	-10.0497
jiao❄32쎯bi❃2쎯	-10.0499
ci❁18쎯yao❃2쎯	-10.05
zi❁106쎯yu❁17쎯:	-10.0503
biao❁38쎯	-10.0503
zhan❄18쎯fu❄129쎯	-10.0504
fu❄3쎯chan❂39쎯	-10.0506
lan❂18쎯zha❃6쎯	-10.0512
chao❂11쎯yin❁53쎯	-10.0513
쎂쎄쎀	-10.0516
qin❂5쎯yin❂18쎯	-10.052
lai❄28쎯jian❃94쎯.	-10.0527
3쎯yan❃2쎯tang❃12쎯	-10.0528
pan❂8쎯	-10.0535
shu❂7쎯chao❁16쎯	-10.0537
yan❃101쎯	-10.0537
yuan❂30쎯tao❁20쎯	-10.054
fen❂2쎯zuo❄4쎯	-10.054
bao❁15쎯li❂69쎯	-10.0541
lv❄22쎯pou❂0쎯	-10.0541
ju❁29쎯xiong❂4쎯	-10.0541
qian❄20쎯heng❂14쎯	-10.0549
sui❄32쎯tui❂33쎯	-10.0549
,quan❁4쎯ta❄40쎯	-10.0551
jing❃17쎯yu❂65쎯	-10.0553
rao❂9쎯ju❁38쎯	-10.0558
yi❂91쎯lai❂43쎯	-10.0566
ting❁0쎯lang❄12쎯	-10.0567
xie❄125쎯	-10.0572
zhai❄2쎯ya❁28쎯	-10.0586
tao❁32쎯na❃4쎯	-10.0589
bao❁15쎯dian❃2쎯	-10.0592
zeng❁7쎯fu❂69쎯	-10.0592
쎁쎉쎅쎈mai❄10쎯	-10.0594
yi❃27쎯	-10.0597
qia❄2쎯tu❂29쎯	-10.0598
du❂58쎯po❂7쎯	-10.0599
zhi❃58쎯tuo❄6쎯	-10.06
beng❁1쎯	-10.0603
gao❃7쎯chi❁14쎯	-10.0603
chong❁42쎯	-10.0604
쎁쎀-	-10.0605
gai❄4쎯han❂11쎯	-10.0615
ˇ	-10.0615
zi❁86쎯wu❃49쎯	-10.0616
qian❁51쎯he❄39쎯	-10.0616
yan❃118쎯yong❃35쎯	-10.0617
qi❄35쎯bu❄33쎯	-10.062
bu❄62쎯yan❃118쎯	-10.0622
han❂33쎯	-10.0623
jiong❃8쎯	-10.0628
qiong❂66쎯ze❄17쎯	-10.0636
쎀%	-10.0637
dian❃2쎯ce❄9쎯	-10.0639
zhu❄79쎯	-10.064
qia❄2쎯·	-10.0643
qiao❁7쎯	-10.0644
zhong❁24쎯li❄215쎯	-10.0647
qi❃9쎯	-10.0648
ti❁6쎯ji❄129쎯	-10.065
hui❁32쎯	-10.0653
yi❄239쎯po❄2쎯	-10.0654
du❂25쎯cheng❂64쎯	-10.0657
keng❁6쎯lu❄58쎯	-10.0658
d	-10.0659
lv❄32쎯yun❁9쎯	-10.0665
zhi❃58쎯chan❂61쎯	-10.0671
li❂19쎯liu❂84쎯	-10.0671
yi❂144쎯	-10.0673
lin❂58쎯qiu❂76쎯	-10.0674
ci❄36쎯guan❄42쎯	-10.0675
shang❁17쎯:	-10.0684
wu❄17쎯	-10.0686
xian❄52쎯	-10.0689
qian❂20쎯qiao❂3쎯	-10.069
chong❁7쎯ru❃0쎯	-10.0694
bang❃10쎯ji❁149쎯	-10.0697
nai❃3쎯	-10.0703
huo❄35쎯lian❂60쎯	-10.0704
hu❂21쎯xi❁173쎯	-10.0705
shan❁27쎯	-10.0707
、jiao❃40쎯kang❃3쎯	-10.0708
jiao❃33쎯	-10.0708
yue❄60쎯po❂9쎯	-10.0709
29쎯ta❄40쎯zi❃28쎯	-10.0711
ye❄50쎯kuai❃3쎯gu❃	-10.0712
74쎯gao❄16쎯qian❂	-10.0712
gao❄5쎯ji❂169쎯	-10.0713
chu❄45쎯shang❁17쎯	-10.0713
.("/////	-10.0713
.",(){(	-10.0713
fu❂69쎯,	-10.0714
,huan❂12쎯shu❂7쎯	-10.0715
hui❄72쎯	-10.0715
dou❁14쎯	-10.0716
쎁쎀쎀쎀쎀쎈쎀쎁);});	-10.0719
li❂109쎯,	-10.0722
chi❃12쎯yi❂108쎯	-10.0724
ruan❂1쎯ren❄6쎯	-10.0726
쎀쎄	-10.0727
qi❁68쎯qiong❂27쎯	-10.0729
dou❃6쎯	-10.0731
shi❄120쎯	-10.0731
luo❄34쎯	-10.0732
ju❄75쎯gao❄16쎯	-10.0734
chong❁14쎯gun❄4쎯	-10.0734
gun❄4쎯bi❄12쎯	-10.0736
cong❁69쎯li❂119쎯	-10.0738
,se❄57쎯pie❄1쎯	-10.0749
xiao❄32쎯	-10.0752
lu❃20쎯ni❄14쎯	-10.0752
ji❄193쎯ting❂20쎯	-10.0756
ju❁38쎯fu❄115쎯	-10.0757
.se❄57쎯pie❄1쎯	-10.0762
.chao❃2쎯	-10.0763
shi❄108쎯	-10.0766
sai❄3쎯meng❂67쎯	-10.0768
man❄9쎯	-10.077
xiong❂4쎯lin❄11쎯	-10.0773
su❄85쎯	-10.0778
쎇-	-10.0784
di❃18쎯gu❄11쎯	-10.0784
ming❂28쎯	-10.0784
shi❃26쎯hui❄13쎯	-10.0785
li❄289쎯	-10.0785
lou❄2쎯yin❁3쎯	-10.0796
mai❄10쎯ru❃0쎯	-10.0798
chong❁7쎯fu❄129쎯	-10.0799
shao❃0쎯cai❃16쎯	-10.08
nie❄119쎯guo❂1쎯	-10.0803
bai❂0쎯	-10.0804
chang❄16쎯xu❄78쎯	-10.0812
ling❂181쎯shao❃5쎯	-10.082
xi❄31쎯qu❂96쎯	-10.0821
sai❄3쎯	-10.0821
ye❄2쎯	-10.0825
chuai❂1쎯jian❁2쎯	-10.0825
liao❂23쎯tun❄0쎯	-10.0825
rong❂21쎯za❂8쎯	-10.0826
ti❁6쎯zhu❁34쎯	-10.083
bi❄99쎯ji❄99쎯	-10.0832
gu❃26쎯	-10.0835
kang❃3쎯ju❄75쎯	-10.0836
hui❂17쎯:“	-10.0838
ye❄50쎯gai❄1쎯	-10.0841
chuai❂1쎯wan❃31쎯	-10.0847
ning❂14쎯)	-10.0849
qiao❁7쎯chan❄19쎯	-10.0851
guan❄42쎯ji❄99쎯	-10.0856
jian❁51쎯	-10.0861
qin❂39쎯fei❄44쎯	-10.0861
tuo❄6쎯jing❁27쎯	-10.0862
쎂쎀쎀쎇	-10.0864
zha❃6쎯yan❂90쎯	-10.0866
meng❄5쎯	-10.0869
nan❃3쎯	-10.0872
sheng❄6쎯fu❂79쎯	-10.0872
wan❂23쎯dian❄34쎯	-10.0873
wen❁7쎯	-10.0881
la❄17쎯	-10.0881
zao❃12쎯ren❄6쎯	-10.0885
shan❄6쎯kao❄2쎯	-10.0886
ba❂11쎯kai❁11쎯	-10.0892
lang❄12쎯li❂122쎯	-10.0893
쎀.쎁	-10.0893
shi❄63쎯nie❄104쎯	-10.0894
di❃18쎯kao❄2쎯	-10.0896
shi❃26쎯qu❁58쎯쎄	-10.0899
nie❄85쎯man❂32쎯	-10.09
shi❃26쎯zha❁8쎯	-10.0902
cha❂39쎯ji❁77쎯	-10.0913
3쎯la❄52쎯ba❁48쎯	-10.0918
ding❄4쎯ci❄40쎯	-10.0919
xian❄14쎯	-10.0922
yin❂18쎯qin❂5쎯	-10.0923
wei❄15쎯	-10.0929
dian❃24쎯	-10.0931
wan❃43쎯zha❄26쎯	-10.0933
long❄1쎯liu❂76쎯	-10.0936
、zha❄26쎯	-10.0939
,qia❂0쎯	-10.0942
ju❄98쎯	-10.0947
qiu❂80쎯can❄7쎯	-10.0949
ni❄14쎯li❂126쎯	-10.0956
di❄11쎯	-10.0957
lv❄22쎯qian❂27쎯	-10.0962
duo❄3쎯pi❂20쎯	-10.0962
meng❂67쎯yan❃2쎯	-10.0965
shu❃27쎯jun❄39쎯	-10.0967
yan❂21쎯	-10.0967
wan❃31쎯qiao❄13쎯.	-10.0969
”yi❂125쎯	-10.0974
piao❃7쎯	-10.0974
na❄31쎯fu❂69쎯	-10.0977
he❂41쎯qiao❁30쎯	-10.0983
jue❂100쎯	-10.0989
,qia❂0쎯po❄2쎯	-10.1
ai❂10쎯	-10.1001
su❁7쎯bo❂89쎯	-10.1001
bian❄48쎯	-10.1006
shan❄59쎯	-10.1007
juan❄32쎯	-10.1009
ci❄40쎯chan❄7쎯	-10.1011
bi❄203쎯gun❄4쎯	-10.1011
da❁29쎯	-10.1012
li❄270쎯jian❃94쎯、	-10.1012
di❁32쎯ji❃2쎯	-10.1016
zhi❁25쎯qiao❄13쎯	-10.1024
san❃3쎯mu❄28쎯	-10.1024
hong❂0쎯	-10.1035
(yan❃2쎯wen❂24쎯:)	-10.104
.쎂、	-10.1043
weng❄6쎯can❄15쎯	-10.1044
lve❄5쎯li❄196쎯	-10.1045
bu❄62쎯ju❄98쎯.	-10.1045
tan❂0쎯	-10.1045
쎀쎀nie❄119쎯mie❁4쎯	-10.1053
ai❄64쎯	-10.1055
lu❃23쎯	-10.1059
.’	-10.1061
nie❄85쎯can❄15쎯	-10.1067
nai❂10쎯zao❃14쎯	-10.1069
qin❂5쎯ti❁6쎯	-10.1078
pang❂5쎯yan❃2쎯	-10.1079
tian❄11쎯ju❄21쎯	-10.108
쎀쎇	-10.1081
ku❃2쎯“	-10.1081
chou❂58쎯yu❂110쎯	-10.1081
ji❄99쎯yu❁17쎯쎂	-10.1083
nin❂1쎯chen❄8쎯	-10.1085
―	-10.1086
liu❂10쎯jia❃6쎯	-10.1088
47쎯	-10.1093
tuo❁11쎯ling❂158쎯	-10.1096
qian❄8쎯	-10.1098
su❄80쎯	-10.11
zui❃13쎯cuo❁7쎯	-10.1102
쎁、	-10.1104
xi❁191쎯hu❄44쎯	-10.1107
dan❄40쎯su❄80쎯	-10.1111
ke❁27쎯	-10.1113
.zhong❃8쎯	-10.1113
쎉쎃	-10.1115
yin❂18쎯ti❁6쎯	-10.1118
kai❁6쎯	-10.1118
ba❂11쎯li❄196쎯	-10.1118
ju❂29쎯hu❂119쎯	-10.1121
ju❁5쎯sai❄3쎯	-10.1121
pi❄34쎯	-10.1122
ao❃12쎯mu❄44쎯	-10.1122
wen❂24쎯ji❄99쎯	-10.1125
ku❃2쎯lv❄22쎯	-10.1126
ji❄99쎯shi❄63쎯zi❄	-10.1131
22쎯you❁38쎯yao❃2쎯	-10.1132
ting❁8쎯	-10.1141
jin❁30쎯e❄25쎯	-10.1144
li❄5쎯qiao❂8쎯	-10.1146
쎈ting❂20쎯tan❂62쎯	-10.1148
》chuai❂1쎯ru❃9쎯	-10.115
nie❄119쎯zou❁10쎯	-10.1154
lao❂46쎯	-10.1162
die❂96쎯	-10.1163
yan❃118쎯bu❄62쎯	-10.1168
ju❄104쎯wan❃49쎯	-10.1172
he❂71쎯chan❄19쎯	-10.1172
xuan❄33쎯gao❄16쎯	-10.1175
mu❃11쎯zhuang❁10쎯	-10.1192
ye❄38쎯xuan❄33쎯	-10.1194
xiu❄3쎯sui❄66쎯	-10.1197
du❄26쎯	-10.1202
chan❂50쎯huan❂12쎯	-10.1205
chua❁3쎯bi❄203쎯	-10.1207
59쎯	-10.121
jiao❁33쎯di❃18쎯;	-10.1213
hou❂38쎯	-10.1216
bo❁6쎯qi❄22쎯	-10.1222
tui❄1쎯zeng❁7쎯	-10.1222
ze❂40쎯	-10.1224
li❂122쎯:	-10.1224
su❄105쎯	-10.1225
쎀.쎂	-10.1227
lei❂22쎯	-10.1227
hu❂11쎯	-10.1236
li❃39쎯ba❂22쎯	-10.1238
guo❁28쎯li❂122쎯	-10.1241
.li❂122쎯	-10.1243
qi❁18쎯yan❁9쎯	-10.125
hong❃5쎯	-10.1254
zai❄7쎯qu❁21쎯	-10.1254
xuan❃5쎯	-10.1263
ying❃29쎯lei❄7쎯	-10.1264
en❁5쎯za❂8쎯	-10.1272
xi❄31쎯gui❄51쎯	-10.1273
×쎁	-10.1273
tian❄8쎯yu❃52쎯	-10.1274
ti❄34쎯	-10.1274
liang❂11쎯	-10.1275
zhan❁37쎯	-10.1277
❄32쎯ke❃7쎯qu❂96쎯.	-10.1279
wo❁5쎯la❄1쎯	-10.1282
chong❁51쎯	-10.1286
ai❄34쎯lang❄0쎯	-10.129
wu❄3쎯们ru❃9쎯	-10.129
zhi❄122쎯	-10.1293
shan❄29쎯	-10.1307
kao❄2쎯tu❃0쎯	-10.1309
pao❂13쎯cha❄32쎯	-10.131
rong❃28쎯bu❄33쎯	-10.1313
du❄3쎯dan❁11쎯	-10.1317
,ting❁0쎯	-10.1322
yao❃20쎯	-10.1325
lu❄31쎯	-10.1327
ji❂169쎯bi❄103쎯	-10.1332
,hui❄14쎯shu❂7쎯	-10.1335
li❂119쎯	-10.1337
bao❃14쎯ji❄99쎯	-10.1339
fu❁67쎯kai❄8쎯	-10.1343
sheng❄6쎯》	-10.1343
bo❁6쎯ni❂13쎯	-10.1352
shan❃18쎯	-10.1353
ji❁77쎯chong❂9쎯	-10.1353
yu❂72쎯yan❁34쎯	-10.1355
ban❁32쎯	-10.1357
di❄13쎯ju❁38쎯	-10.1358
li❃46쎯	-10.1361
wu❃9쎯ta❄14쎯	-10.1365
jing❄3쎯kai❁11쎯	-10.1369
sao❁1쎯	-10.1372
si❄66쎯	-10.1376
쎆ting❂20쎯tan❂62쎯	-10.1378
kuang❂7쎯	-10.1379
fen❂10쎯chuai❂1쎯	-10.138
쎂쎅쎀	-10.1386
su❁13쎯	-10.1387
ba❁41쎯gu❃34쎯	-10.1387
po❂7쎯ji❄99쎯	-10.1396
ta❄2쎯	-10.1396
ke❂0쎯zi❁61쎯	-10.1401
ze❂3쎯yi❂27쎯	-10.1407
nie❄82쎯dian❄34쎯	-10.1407
ai❄40쎯	-10.1422
chu❂55쎯	-10.1424
nao❂10쎯	-10.1425
jian❃100쎯	-10.1425
huo❄35쎯	-10.1426
():	-10.1432
hua❄17쎯zhe❂33쎯	-10.1435
gui❁14쎯	-10.1437
zi❁61쎯huo❁0쎯	-10.1438
yan❂28쎯na❄6쎯	-10.1439
ti❁6쎯jie❂161쎯	-10.144
li❂122쎯lu❃23쎯	-10.1442
fei❁14쎯zhi❁56쎯	-10.1442
ti❂64쎯	-10.1443
zai❃8쎯li❄5쎯	-10.1444
nie❄119쎯du❂72쎯	-10.1452
nie❄104쎯mi❄56쎯	-10.1453
bian❃18쎯ru❃9쎯	-10.1453
쎃.쎅	-10.1455
ping❂44쎯hui❂17쎯	-10.1455
hua❂2쎯	-10.1455
dan❄40쎯shan❁17쎯	-10.1464
쎂쎀쎀쎆	-10.1473
tai❄4쎯、	-10.1475
jia❃6쎯yi❄267쎯	-10.1479
mo❄35쎯	-10.1481
qu❂96쎯ruan❄2쎯	-10.1481
hui❄113쎯	-10.1483
,yi❄106쎯pie❄1쎯	-10.1486
li❂74쎯	-10.1487
xi❁188쎯	-10.1493
ji❄160쎯cheng❁27쎯	-10.1494
rou❂21쎯	-10.1494
yan❃118쎯xiong❂4쎯	-10.1497
().	-10.1498
qin❂1쎯wei❁20쎯	-10.1498
yi❁58쎯ka❃5쎯	-10.1498
dang❁1쎯che❄20쎯	-10.1499
zan❁0쎯dan❁11쎯,	-10.1502
en❁5쎯sui❂2쎯	-10.1505
yin❁30쎯shu❂7쎯	-10.1508
jie❂66쎯	-10.1509
ji❄166쎯wen❂24쎯	-10.151
ke❂0쎯shuo❄33쎯	-10.1514
zh	-10.1515
lv❄46쎯xian❃58쎯	-10.1516
yin❂18쎯xu❄33쎯	-10.1517
hao❄25쎯zhai❄2쎯	-10.1519
han❄14쎯	-10.1531
fan❂20쎯dao❄17쎯	-10.1538
쎈쎁	-10.1539
fu❁67쎯ju❁38쎯	-10.1541
mie❁4쎯ru❃9쎯	-10.1545
,pu❂0쎯	-10.1549
yi❂21쎯tui❂21쎯	-10.1552
ti❃10쎯lve❄25쎯	-10.1556
cai❂13쎯ba❁10쎯	-10.1556
yan❃118쎯huo❄13쎯	-10.1564
wan❃18쎯lve❄25쎯	-10.1568
lv❄22쎯ling❂158쎯	-10.1571
zou❁17쎯	-10.1571
쎇쎁	-10.1572
zhu❄4쎯	-10.1575
jiao❁33쎯li❄270쎯	-10.1578
guan❄42쎯gan❄4쎯	-10.1578
tang❂13쎯qian❂27쎯	-10.1579
li❄270쎯jian❃94쎯.	-10.1581
-쎈	-10.1584
sou❁22쎯ying❂62쎯	-10.1593
dou❁30쎯bin❄10쎯	-10.1597
peng❂31쎯	-10.1604
que❄20쎯	-10.1609
tao❁44쎯	-10.1615
e❄123쎯	-10.1618
weng❄4쎯yu❄68쎯	-10.1618
huo❄13쎯shang❁17쎯	-10.1621
cai❁7쎯gu❃32쎯	-10.1627
cuo❁7쎯	-10.1629
zi❃28쎯mai❄10쎯	-10.163
ruan❃20쎯shua❃1쎯	-10.163
,yun❂5쎯	-10.163
sheng❁23쎯	-10.1639
xuan❁11쎯	-10.1644
die❂19쎯luo❂2쎯	-10.1644
bian❄65쎯gan❄4쎯	-10.1645
yi❄38쎯ta❄34쎯	-10.1645
yi❄205쎯	-10.1646
wo❃14쎯	-10.1648
huo❄13쎯bin❄9쎯	-10.1649
pang❂5쎯tui❄1쎯	-10.1652
44쎯	-10.1655
rang❄3쎯le❄21쎯	-10.1659
lv❄22쎯jian❁60쎯	-10.1666
jun❄32쎯mian❃7쎯	-10.1667
xun❁20쎯bu❄33쎯	-10.1672
meng❂67쎯qi❄82쎯	-10.1674
zhen❁54쎯qiu❁23쎯	-10.1677
zi❁61쎯xiao❄35쎯	-10.1677
yu❂110쎯gai❄4쎯	-10.1679
chuai❂1쎯lei❄7쎯,	-10.1687
chen❄8쎯bian❃18쎯	-10.1688
×쎂	-10.169
li❂109쎯、	-10.1691
xi❁167쎯xiao❁68쎯	-10.1695
li❄5쎯li❂122쎯	-10.1698
mao❂17쎯lan❄10쎯	-10.1699
jie❂129쎯qian❁6쎯	-10.1705
,li❄254쎯ju❄25쎯	-10.1707
(-)	-10.1709
gan❄30쎯	-10.1718
tun❄0쎯wei❂17쎯	-10.1719
guo❁28쎯yan❃63쎯	-10.1726
쎁쎈쎀	-10.1726
liu❂72쎯	-10.1728
쎈.	-10.1728
jiao❁12쎯	-10.1729
qie❄45쎯	-10.173
ge❂36쎯	-10.1732
chao❄12쎯yao❃12쎯	-10.1734
quan❃6쎯	-10.1735
yun❁3쎯	-10.1743
쎇di❄13쎯	-10.1746
leng❃쎯	-10.1746
yu❁5쎯	-10.175
bu❄33쎯qiu❂80쎯、	-10.1761
/쎂	-10.1765
bang❄2쎯	-10.1765
(쎁쎉쎁	-10.1768
ning❂14쎯li❂109쎯	-10.1769
kui❁1쎯mai❄10쎯	-10.177
keng❁19쎯	-10.1771
yan❁2쎯	-10.1793
huan❂60쎯tun❄0쎯.	-10.1794
mo❄7쎯jun❄24쎯	-10.1804
mo❄40쎯beng❄18쎯	-10.181
tao❁20쎯	-10.1813
ping❂53쎯guan❄52쎯	-10.1815
ne❄7쎯chi❁55쎯	-10.1819
wei❃4쎯gou❃8쎯	-10.1821
jiong❃8쎯wu❁27쎯	-10.1823
hu❂4쎯gan❄4쎯	-10.1825
xi❂9쎯qiong❂72쎯.	-10.1827
qing❄17쎯dian❄14쎯	-10.1828
en❁5쎯shao❄3쎯	-10.1828
zhong❁38쎯	-10.1835
qian❂41쎯,	-10.1841
ren❃13쎯》	-10.1842
sui❄48쎯ku❃2쎯	-10.1843
쎃mai❄10쎯	-10.1848
,huan❂12쎯li❂122쎯	-10.1849
da❄10쎯shuo❄33쎯	-10.1853
rong❃28쎯xiao❄35쎯	-10.1853
gao❄0쎯li❂122쎯	-10.1854
chen❂51쎯	-10.1854
gu❃34쎯	-10.1854
bao❁15쎯》	-10.1857
yi❁58쎯e❄123쎯	-10.1858
lve❄5쎯lv❄46쎯	-10.1859
cai❁5쎯	-10.186
can❃3쎯	-10.1864
can❂13쎯tao❁44쎯	-10.1866
ye❄50쎯ke❂0쎯	-10.1872
ji❄43쎯	-10.1882
zong❄14쎯xian❃46쎯	-10.1883
쎈-	-10.1884
wu❃20쎯	-10.1885
xi❄45쎯	-10.1899
zhe❂33쎯ze❂56쎯	-10.1899
쎁쎉쎅쎆mai❄10쎯	-10.19
gui❁61쎯쎂쎈nv❄4쎯	-10.1901
qiong❂72쎯ji❄99쎯	-10.1903
°C,mai❄10쎯	-10.1904
jian❁41쎯che❄20쎯	-10.1905
jia❂29쎯	-10.1905
ling❂164쎯	-10.1906
.쎅	-10.1907
tui❄1쎯yin❁30쎯	-10.1911
po❁18쎯	-10.1912
dao❃1쎯bu❄62쎯	-10.1913
liao❃5쎯wu❂27쎯,	-10.1914
gao❄0쎯li❄196쎯	-10.1922
tan❂62쎯she❄18쎯:	-10.1929
,li❄5쎯ci❄40쎯	-10.193
qi❂108쎯	-10.1933
wang❁2쎯	-10.1939
za❂8쎯ya❁28쎯ku❃2쎯	-10.194
yong❁13쎯	-10.1945
yin❂64쎯xi❄4쎯	-10.1946
dan❁43쎯guo❂19쎯	-10.1947
.쎀쎇	-10.1949
pu❁2쎯	-10.195
tan❁10쎯wen❂0쎯	-10.1951
,lv❄46쎯	-10.1955
쎂ting❂20쎯tan❂62쎯	-10.1955
ta❄14쎯pi❁22쎯	-10.1956
song❃15쎯zhou❄5쎯	-10.1958
qian❁23쎯	-10.1959
wan❃31쎯weng❄4쎯	-10.1962
ge❂94쎯	-10.1964
.ju❄25쎯chuai❂1쎯	-10.1971
chao❄12쎯mi❄56쎯	-10.1974
sui❃7쎯hu❂119쎯	-10.1981
wan❃31쎯weng❄4쎯.	-10.1989
biao❄8쎯	-10.1989
gou❄22쎯,	-10.199
lai❂32쎯	-10.199
qiu❂80쎯yi❂27쎯	-10.1991
lv❄32쎯po❂7쎯	-10.1991
shao❃0쎯mai❄10쎯	-10.1994
qiang❁22쎯.	-10.1999
yin❂18쎯la❁6쎯	-10.2002
di❁28쎯li❂122쎯	-10.2005
xia❄4쎯e❂49쎯	-10.201
she❁5쎯	-10.2012
la❄28쎯	-10.2017
kai❄10쎯	-10.2019
lin❄12쎯shi❄99쎯	-10.2026
ji❄26쎯	-10.2026
lv❄46쎯xian❃46쎯	-10.2028
lie❄24쎯che❄42쎯	-10.2032
luan❂13쎯ai❄34쎯	-10.2034
gai❁17쎯bian❄65쎯	-10.2034
qin❂1쎯jian❁100쎯	-10.2036
yan❁34쎯jian❃94쎯.	-10.2041
chui❂16쎯	-10.2042
hu❄44쎯bu❄6쎯	-10.2045
.gu❃74쎯	-10.2048
41쎯	-10.2056
(.)	-10.2056
pi❁14쎯	-10.2064
(쎃)	-10.2064
:쎁.	-10.2067
tian❂18쎯fu❂142쎯	-10.2068
huan❂60쎯tun❄0쎯,	-10.2072
yan❃46쎯chang❄18쎯	-10.2072
쎁qin❁2쎯	-10.2073
xu❁78쎯huan❁6쎯	-10.2073
jiu❄3쎯	-10.2077
.zong❄14쎯zhi❁70쎯	-10.2081
du❁10쎯chao❄12쎯	-10.2082
,jiang❄20쎯	-10.2084
mu❃25쎯	-10.2085
heng❂22쎯yan❂41쎯	-10.209
xi❁123쎯yong❃30쎯	-10.2097
ou❃15쎯、	-10.2104
guai❃1쎯	-10.2108
shan❁17쎯xin❁3쎯	-10.2117
,zhuo❁3쎯ta❄61쎯	-10.2119
shuo❄14쎯gou❄22쎯	-10.2122
ling❂34쎯qu❂72쎯	-10.2123
ling❂34쎯chi❃12쎯	-10.2125
du❂25쎯	-10.213
lv❂5쎯shan❄29쎯	-10.2132
qiu❂80쎯liu❂10쎯	-10.2134
ye❄50쎯heng❂14쎯	-10.2138
shuo❄33쎯ru❃9쎯	-10.2139
hu❂4쎯han❂12쎯	-10.2144
cui❃5쎯	-10.2145
fu❂69쎯di❁28쎯	-10.2145
chu❂41쎯	-10.2149
쎁쎆쎀	-10.2154
nie❄99쎯	-10.2155
qiu❂51쎯du❄29쎯	-10.2158
yan❄93쎯	-10.2158
man❂32쎯xun❁20쎯	-10.2165
qiang❁8쎯	-10.2167
qi❃18쎯zan❁1쎯	-10.2167
yao❄42쎯zhe❂33쎯	-10.2168
li❂28쎯wu❃9쎯	-10.217
zhi❃58쎯mo❄7쎯	-10.2182
bi❄7쎯che❁7쎯	-10.2188
he❂115쎯ling❂158쎯	-10.2188
jia❁47쎯	-10.2191
,la❄1쎯	-10.2191
you❄20쎯	-10.2196
heng❂4쎯ju❄75쎯	-10.2197
wei❂73쎯hou❄27쎯	-10.2198
cheng❂55쎯yi❂27쎯	-10.2205
feng❁30쎯yuan❁5쎯	-10.2213
zhen❁70쎯dan❄40쎯	-10.2214
/쎃	-10.2217
yu❄133쎯ji❄99쎯	-10.2218
”ji❄193쎯“	-10.2218
li❄5쎯luo❂2쎯ru❃9쎯	-10.2219
feng❁30쎯qin❄0쎯	-10.2221
er❃25쎯	-10.2222
tu❂29쎯	-10.2225
ou❄1쎯	-10.2226
zu❂36쎯ling❂42쎯	-10.223
jia❃6쎯liu❂10쎯	-10.2236
fu❂69쎯ci❄40쎯	-10.224
tan❂62쎯ling❂42쎯	-10.2241
ruo❄10쎯bing❃32쎯	-10.2246
sui❃6쎯sha❃3쎯	-10.2249
ㄢ	-10.2249
pan❁6쎯mai❄10쎯	-10.225
xing❁24쎯	-10.2251
yi❄179쎯	-10.2256
쎁쎉쎄쎉mai❄10쎯	-10.2257
bi❄235쎯qiao❂24쎯	-10.2259
쎁.쎂	-10.226
tai❁0쎯	-10.2261
shi❄20쎯	-10.2263
chuai❂1쎯gan❄4쎯	-10.2264
zao❃0쎯zui❄7쎯	-10.2271
ci❄36쎯xiu❄3쎯	-10.2272
bo❁6쎯bian❃18쎯	-10.2273
.쎁쎂	-10.2281
fu❂69쎯、	-10.2297
min❃30쎯	-10.2298
shao❃5쎯chan❂17쎯	-10.2299
jie❂26쎯	-10.2301
chuai❂1쎯ping❂44쎯	-10.2305
tao❂15쎯	-10.2306
ken❃16쎯	-10.2309
쎀-	-10.231
zhu❃25쎯dian❃2쎯	-10.231
ji❂169쎯ji❁125쎯	-10.2314
zhu❃25쎯	-10.2315
rui❃1쎯	-10.2316
ju❄75쎯zui❄7쎯	-10.2317
cong❁24쎯	-10.2317
xiong❄17쎯	-10.2322
zhe❄20쎯	-10.2322
lve❄25쎯he❂41쎯	-10.2325
nie❄119쎯pie❁1쎯、	-10.2328
.”zhong❃8쎯	-10.2328
li❄5쎯qian❂27쎯:	-10.2328
qu❁21쎯fen❂2쎯	-10.233
ta❄	-10.2331
dong❄38쎯fu❄115쎯	-10.2335
쎀e❄71쎯,	-10.2336
yu❁17쎯ling❂168쎯	-10.2344
chao❁16쎯fu❂69쎯	-10.2344
da❄10쎯sheng❄6쎯	-10.2345
guang❁26쎯	-10.2345
jiao❁33쎯yan❃2쎯	-10.2347
(쎁쎉쎀	-10.2348
.huan❂12쎯	-10.2352
di❂	-10.2357
shua❃1쎯	-10.2358
//	-10.2358
jia❁36쎯li❄270쎯	-10.2362
gu❄16쎯rao❂9쎯	-10.2363
li❂109쎯xu❄42쎯	-10.2365
yin❂64쎯jin❁30쎯	-10.2367
yao❃30쎯	-10.2368
,mang❂20쎯yi❁58쎯	-10.2369
shang❁17쎯ru❃9쎯	-10.2371
wen❂24쎯li❂109쎯	-10.2372
jie❂161쎯zang❄10쎯	-10.2372
쎁)	-10.2375
mang❂20쎯gan❄30쎯,	-10.2375
ju❁38쎯qu❁58쎯	-10.2377
cui❄25쎯	-10.2377
shan❁17쎯li❂122쎯	-10.2378
tan❂62쎯po❂7쎯.	-10.2379
bing❃27쎯ji❁84쎯	-10.2379
ren❄0쎯yong❃30쎯	-10.2381
zhuo❂17쎯ru❃0쎯	-10.2386
xin❁3쎯yong❃30쎯	-10.2386
)ji❄99쎯.	-10.2387
(쎁	-10.2388
ping❂44쎯dao❁4쎯	-10.2388
zhai❂3쎯	-10.2389
fu❁58쎯	-10.2389
wei❃22쎯	-10.2397
gui❃35쎯guang❁13쎯	-10.2399
zhan❃28쎯xun❁20쎯	-10.2399
qin❃10쎯hua❄17쎯	-10.2399
lian❂5쎯	-10.2399
si❁11쎯	-10.24
yu❃64쎯nie❄85쎯	-10.2407
lu❂34쎯	-10.2409
xian❄20쎯dao❃22쎯	-10.2412
lve❄5쎯zao❃0쎯	-10.2414
lan❂60쎯	-10.2415
che❄20쎯ke❂0쎯	-10.2417
쎅e❄25쎯	-10.2419
gao❃8쎯	-10.2422
49쎯	-10.2425
bang❁16쎯gun❄4쎯	-10.2426
gan❄25쎯hui❄13쎯	-10.2426
dao❁4쎯xin❁3쎯	-10.243
tou❄5쎯lv❄22쎯	-10.2434
cheng❁40쎯	-10.2435
ruan❃20쎯ji❂169쎯	-10.2436
)、《	-10.2439
en❁5쎯ya❁28쎯	-10.2443
hui❄13쎯tan❂62쎯	-10.2443
fu❄31쎯	-10.2443
ou❃5쎯en❁5쎯	-10.2445
yi❂125쎯:	-10.2453
chou❂1쎯ke❁55쎯	-10.2455
dan❁2쎯	-10.2456
fan❄	-10.2458
bian❄43쎯	-10.2461
lve❄25쎯gao❄16쎯lv	-10.2462
mei❂53쎯	-10.2462
gao❄16쎯ya❁28쎯	-10.2464
jue❂40쎯	-10.2466
e❂51쎯	-10.2467
lv❄22쎯yuan❄6쎯	-10.2468
쎂쎀쎀쎃	-10.2472
li❂162쎯	-10.2474
huo❄13쎯sheng❄6쎯	-10.2475
huo❄60쎯shi❂3쎯	-10.2482
guai❄12쎯	-10.2486
tuo❁11쎯zhi❁10쎯	-10.2486
,lu❄43쎯zhi❃58쎯	-10.2488
쎁쎉쎆쎄mai❄10쎯	-10.249
qian❁30쎯kai❃13쎯	-10.2499
rao❂9쎯zhen❃34쎯	-10.2507
di❁32쎯qiong❂72쎯.	-10.2509
.hun❂15쎯	-10.251
zhuo❂50쎯ji❄99쎯	-10.2512
kao❄2쎯heng❂14쎯	-10.2513
ban❄24쎯	-10.2516
ming❂24쎯	-10.2516
liao❂42쎯	-10.2521
ji❁77쎯tian❄3쎯	-10.2527
gan❁6쎯	-10.2527
bi❄1	-10.253
ci❃11쎯ou❃15쎯	-10.2534
쎁쎉쎆쎃mai❄10쎯	-10.2536
xuan❄33쎯po❂9쎯	-10.2539
쎀쎀쎀ting❂20쎯	-10.2539
li❂109쎯.	-10.254
ba❂22쎯	-10.2541
nan❂30쎯yao❃2쎯	-10.2541
ba❁10쎯dan❁11쎯,	-10.2548
li❂19쎯	-10.255
ting❂17쎯mo❄30쎯	-10.2551
qian❄14쎯	-10.2551
li❄206쎯	-10.2552
.ya❄4쎯	-10.2552
,diao❄25쎯	-10.2558
wa❄8쎯	-10.2558
jian❃4쎯shi❁69쎯	-10.256
]	-10.2565
tai❁8쎯	-10.2566
qu❂57쎯jiang❄20쎯	-10.2567
di❁28쎯ru❃9쎯	-10.2572
jing❁15쎯	-10.2574
shi❃26쎯qu❁58쎯쎆	-10.2575
nie❄84쎯	-10.2578
li❂76쎯gan❄4쎯	-10.2582
ju❂	-10.2582
.ci❃11쎯guo❂1쎯	-10.2583
che❄42쎯qu❂94쎯	-10.2596
she❄9쎯an❃0쎯	-10.2597
zong❄14쎯qi❄36쎯	-10.2597
yun❄2쎯	-10.2603
weng❄4쎯ai❄32쎯	-10.2607
zha❄26쎯jian❁100쎯	-10.2611
yan❃2쎯ruan❄2쎯,	-10.2611
gong❃11쎯	-10.2612
shu❃27쎯za❁23쎯	-10.2613
qi❄60쎯	-10.2613
qi❄50쎯	-10.2614
.shao❃0쎯	-10.2615
huo❄13쎯guang❁13쎯	-10.2616
ying❁63쎯	-10.2619
zhi❁0쎯qiao❂8쎯	-10.262
ao❃12쎯li❄5쎯	-10.2621
pan❂3쎯	-10.2621
zhong❃8쎯e❂49쎯	-10.2638
쎁쎉쎀	-10.2638
pi❂20쎯you❁27쎯	-10.2638
gong❁	-10.2639
jia❂40쎯	-10.264
ju❁36쎯bing❃25쎯	-10.2643
hu❂21쎯yi❄239쎯	-10.2648
huan❂60쎯li❂119쎯	-10.2651
en❁5쎯cheng❂49쎯	-10.2652
po❂4쎯yi❂114쎯	-10.2652
쎃ting❂20쎯tan❂62쎯	-10.2652
zha❄19쎯	-10.2655
qi❄36쎯rong❂58쎯	-10.2664
zhen❁70쎯	-10.2666
chi❁14쎯zan❁0쎯	-10.2668
na❄6쎯za❂8쎯ku❃2쎯	-10.2671
wu❂27쎯li❂122쎯	-10.2679
.쎀쎉	-10.268
li❃48쎯kai❄8쎯	-10.268
he❂82쎯	-10.2681
jia❂3쎯	-10.2682
쎂쎅쎆	-10.2685
bing❃27쎯guan❄42쎯	-10.2687
hai❄18쎯	-10.2687
yan❃2쎯jian❃94쎯	-10.2687
bi❄46쎯	-10.2694
gu❃72쎯mi❄56쎯,	-10.2697
wen❃5쎯	-10.2703
32쎯	-10.2705
ju❃38쎯li❄196쎯	-10.2707
zai❄7쎯tu❂41쎯	-10.2707
～쎁	-10.2709
ling❂76쎯	-10.271
jun❄39쎯	-10.2724
an❃0쎯mai❄10쎯	-10.2724
jue❂7쎯	-10.2725
pie❄1쎯weng❄4쎯	-10.2729
shu❂7쎯《	-10.2731
fu❂69쎯.	-10.2734
zong❄14쎯mai❄10쎯	-10.2737
ga❄4쎯·	-10.2739
ou❃5쎯bo❁6쎯	-10.274
yang❄4쎯li❄270쎯	-10.2743
di❄56쎯cheng❁27쎯,	-10.2743
ji❁37쎯	-10.2749
yan❂28쎯rang❄3쎯	-10.275
dui❄50쎯	-10.2751
,xuan❄33쎯wen❂24쎯	-10.2753
쎁쎉쎇쎆mai❄10쎯	-10.2756
di❃18쎯mi❄56쎯	-10.2759
chong❁14쎯dun❄22쎯	-10.276
heng❂22쎯meng❂67쎯	-10.2763
li❂152쎯	-10.2765
li❄182쎯fu❄115쎯	-10.2766
yang❄3쎯qiu❂82쎯	-10.2768
zhong❄1쎯	-10.2769
yin❂18쎯ba❂2쎯	-10.2772
mei❃4쎯ye❄50쎯	-10.2777
gao❁5쎯	-10.2777
jue❂54쎯wu❃9쎯	-10.278
hu❂4쎯ti❁6쎯	-10.2783
hui❁64쎯	-10.2786
kai❄9쎯	-10.2786
guan❄42쎯ji❄99쎯,	-10.2787
hu❄44쎯xian❃40쎯	-10.2787
xiu❁9쎯ji❂169쎯	-10.2794
±	-10.2799
lai❄28쎯xi❂9쎯qi	-10.2801
bao❃14쎯chuai❂1쎯	-10.2805
hua❄17쎯bi❄189쎯	-10.2806
xiao❂7쎯	-10.2809
ce❄40쎯	-10.281
ni❃32쎯	-10.2811
yue❄60쎯ta❃6쎯	-10.2813
rou❂14쎯ruan❃20쎯	-10.2814
xian❂9쎯dian❃2쎯	-10.2816
.(	-10.2821
qiang❃4쎯ba❃2쎯	-10.2823
mie❁4쎯shi❃26쎯	-10.2824
di❂46쎯	-10.2824
ji❂169쎯fen❂2쎯	-10.2829
zan❁0쎯dao❄26쎯	-10.2829
zhe❂23쎯ya❁28쎯	-10.2832
xing❁9쎯	-10.2839
huang❂43쎯yan❂41쎯	-10.285
yue❄60쎯ji❄99쎯	-10.285
ji❁125쎯sui❂2쎯	-10.2856
rong❂9쎯	-10.2858
qiu❁20쎯	-10.2859
쎄ting❂20쎯tan❂62쎯	-10.2861
qiu❂76쎯	-10.2865
song❁17쎯lve❄25쎯	-10.2866
dan❄78쎯	-10.2868
fu❂142쎯chong❁7쎯	-10.2873
du❄29쎯zan❁1쎯	-10.2874
ying❃29쎯hu❄44쎯	-10.2876
mei❄35쎯ling❂158쎯	-10.2878
)ji❄193쎯	-10.2878
》qiu❂31쎯yu❄183쎯	-10.2879
yan❃118쎯ti❄42쎯	-10.288
tiao❂16쎯	-10.2883
chi❂39쎯ming❂14쎯	-10.2883
,yi❄10쎯li❂122쎯	-10.2886
qi❄47쎯	-10.2887
쎁쎉쎇쎀mai❄10쎯	-10.2891
:쎃	-10.2894
lai❄28쎯ru❃9쎯	-10.2896
gui❁61쎯쎁쎈nv❄4쎯	-10.2896
ya❁28쎯ni❂13쎯	-10.2897
jiao❄32쎯gou❃8쎯	-10.2897
yi❄7쎯	-10.2898
hui❃4쎯chan❄19쎯	-10.29
er❂18쎯deng❃1쎯,	-10.29
tui❄1쎯gao❄16쎯	-10.2904
yan❃96쎯xie❂30쎯	-10.2904
gun❃4쎯	-10.2906
zhong❃8쎯zhu❁14쎯	-10.2907
ren❄6쎯,	-10.291
dai❄72쎯	-10.291
zha❄26쎯bao❃14쎯	-10.2914
fen❂10쎯di❁28쎯	-10.2914
pang❁0쎯	-10.292
sheng❄6쎯jia❃6쎯	-10.292
쎂쎀쎁쎂	-10.2921
chong❂7쎯	-10.293
tang❁14쎯ju❄25쎯	-10.2933
ze❂3쎯ju❂29쎯	-10.2935
xu❁37쎯tan❃20쎯:	-10.2936
xian❂28쎯qi❄13쎯	-10.294
ta❃6쎯ji❄99쎯	-10.2948
wen❄2쎯luo❂2쎯,	-10.295
”(	-10.2951
fu❂1	-10.2952
ye❄64쎯	-10.2953
zhuo❂17쎯yi❄267쎯	-10.2954
53쎯	-10.2954
qu❂96쎯bing❃32쎯	-10.2955
쎉쎁	-10.2955
.”chao❃2쎯	-10.2958
you❁27쎯di❃18쎯	-10.2959
jiang❄1쎯weng❄4쎯	-10.2961
bo❂23쎯	-10.2962
li❂122쎯“	-10.2962
24쎯xian❂9쎯bu❄33쎯	-10.2963
dong❁11쎯	-10.2964
qi❃51쎯ji❂132쎯	-10.2966
nei❃8쎯lang❄0쎯	-10.2968
huang❁19쎯jing❄3쎯	-10.297
zao❃14쎯》	-10.2971
ni❃23쎯qiu❂45쎯:	-10.2974
,zong❄14쎯mai❄10쎯	-10.2981
shi❃26쎯qu❁58쎯쎅	-10.2983
tan❂65쎯	-10.2987
gu❃80쎯:‘	-10.2987
lian❂3쎯zui❄7쎯	-10.2988
guai❄14쎯xian❂28쎯	-10.2991
li❃13쎯	-10.2997
jue❂10쎯fu❂70쎯	-10.2998
er❂19쎯	-10.3001
-쎁쎀	-10.3002
chong❁7쎯jiang❄1쎯	-10.3002
du❂72쎯bin❄2쎯	-10.3006
han❄19쎯	-10.301
ju❄105쎯chao❄12쎯	-10.3012
en❁5쎯lou❂31쎯	-10.3016
zha❄26쎯shan❁17쎯	-10.3016
you❁38쎯sa❄42쎯	-10.3017
chan❄19쎯song❃15쎯	-10.3025
쎄、	-10.3026
chu❄30쎯	-10.3026
pu❂0쎯ru❃9쎯	-10.3027
yi❂27쎯qiang❁22쎯	-10.3028
ba❂24쎯wan❂13쎯	-10.3029
ci❄2쎯	-10.303
cha❂39쎯shan❁17쎯	-10.303
i	-10.303
---	-10.3036
rong❂44쎯ta❄48쎯	-10.3037
ju❄25쎯lang❄0쎯	-10.3037
ju❄75쎯ru❃9쎯	-10.3039
.dun❄22쎯	-10.3043
cuo❁1쎯pang❂5쎯	-10.3044
pi❄32쎯	-10.3044
쎂쎀쎀쎅	-10.3044
qu❁8쎯di❄13쎯	-10.3044
diao❁40쎯zan❁1쎯	-10.3046
chao❃7쎯ga❄4쎯	-10.3048
ren❄0쎯zhuo❂17쎯	-10.3061
lang❃10쎯shen❁63쎯	-10.3062
ai❄35쎯qu❂96쎯	-10.3062
ー	-10.3064
chan❂28쎯	-10.3064
qi❂119쎯shi❄17쎯	-10.3064
,ci❃11쎯ci❄40쎯	-10.3065
wo❄23쎯	-10.3066
pie❁1쎯yi❄84쎯	-10.3067
lu❄79쎯kong❃5쎯	-10.3068
en❁5쎯yi❁58쎯	-10.3069
gun❃2쎯zhe❂33쎯.	-10.3069
yi❁65쎯ai❄21쎯	-10.3069
zi❁106쎯nai❂10쎯	-10.3071
.bi❄203쎯tai❄4쎯	-10.3072
juan❁1쎯gui❄20쎯	-10.3073
jiong❃28쎯wai❁0쎯	-10.3073
lang❄12쎯	-10.3077
bi❄206쎯	-10.3079
gu❃15쎯man❂32쎯、	-10.3079
쎃쎀쎀쎀	-10.3084
kang❃3쎯	-10.3085
yu❄79쎯zhi❂69쎯	-10.3089
cha❄12쎯	-10.3092
han❂58쎯	-10.3095
chuang❁16쎯	-10.3097
lin❄31쎯niao❃28쎯	-10.3099
ding❄21쎯	-10.3101
,xi❁6쎯tian❄3쎯	-10.3101
(쎂	-10.3102
jian❄42쎯xiong❂4쎯	-10.3103
、yin❂64쎯	-10.3103
fen❄6쎯	-10.3105
|	-10.311
yi❄30쎯	-10.3111
tui❄1쎯ta❄61쎯	-10.3112
qiang❃4쎯luo❄3쎯	-10.3113
xi❁199쎯	-10.3113
sui❃6쎯cai❂13쎯	-10.3115
bi❄5쎯	-10.3121
ci❃11쎯zou❄0쎯	-10.3127
ti❁6쎯ruan❃20쎯	-10.3127
guo❃24쎯.	-10.3127
shan❁13쎯fu❂142쎯	-10.3129
yin❂64쎯cui❄48쎯《	-10.3134
ta❄14쎯qian❂27쎯	-10.3135
yin❂18쎯kui❁1쎯	-10.3137
bi❄9쎯qin❃8쎯	-10.3137
qin❁2쎯:	-10.3138
rang❃2쎯	-10.3141
ci❄40쎯ji❄99쎯	-10.3142
hua❁5쎯	-10.3143
xia❂63쎯	-10.3144
wu❄64쎯yan❄2쎯	-10.315
lei❄7쎯chu❄26쎯	-10.3151
lin❂58쎯ci❃11쎯	-10.3152
da❂13쎯	-10.3157
,lang❄0쎯huan❂12쎯	-10.3165
lv❃	-10.3166
zai❁1쎯	-10.3168
he❂113쎯	-10.3172
shi❄63쎯xiang❄24쎯	-10.3173
lv❄22쎯tui❄1쎯	-10.3173
bi❄103쎯yan❄15쎯	-10.3175
jiao❄32쎯mai❄10쎯	-10.3175
po❂9쎯·	-10.3181
zhong❃8쎯zha❄26쎯	-10.3182
shuo❄33쎯gai❄1쎯.	-10.3183
yang❂13쎯zhou❄28쎯	-10.3183
nie❄82쎯zan❁1쎯	-10.3185
yan❂41쎯ying❃29쎯	-10.3186
bian❃18쎯ta❄40쎯	-10.3188
xie❄84쎯bi❄235쎯	-10.3191
kui❃3쎯	-10.3192
、ti❁6쎯	-10.3192
-쎉	-10.3193
chao❃2쎯ke❁55쎯	-10.3194
zhe❂33쎯po❂7쎯	-10.3195
쎂)	-10.3203
cui❄14쎯cui❃5쎯	-10.3203
wan❂13쎯qiu❁23쎯:	-10.3206
huo❁0쎯bing❃32쎯	-10.3208
hu❂4쎯ji❂169쎯	-10.3211
쎁쎉쎆쎅mai❄10쎯	-10.3212
tao❁10쎯tan❂65쎯	-10.3212
rong❂44쎯sheng❄6쎯	-10.3213
쎉쎀쎀	-10.3214
guan❄4쎯	-10.3214
』	-10.3218
mei❂58쎯	-10.3225
di❂9쎯tian❂18쎯	-10.3227
dan❁11쎯,	-10.3229
zi❃15쎯	-10.3234
jing❄3쎯huang❁19쎯	-10.3238
쎁쎉쎆쎂mai❄10쎯	-10.3242
.wo❁5쎯	-10.3245
cou❄6쎯cong❂42쎯	-10.3245
吗	-10.3246
;쎂	-10.3254
zhu❁14쎯shan❁13쎯	-10.3255
dai❄51쎯	-10.3255
si❁36쎯ji❄160쎯	-10.3256
,he❂47쎯	-10.3257
nian❃17쎯	-10.3263
gu❃32쎯ju❄21쎯	-10.3263
yi❄239쎯gao❁36쎯	-10.3266
yan❂21쎯qi❄36쎯	-10.3271
qing❄17쎯you❁22쎯	-10.3271
tai❂30쎯kuai❃3쎯	-10.3273
qu❁58쎯zhua❁4쎯	-10.3274
bo❁6쎯kui❂41쎯	-10.3274
kao❄2쎯ben❁4쎯	-10.3278
shui❃9쎯	-10.3279
diao❄25쎯xi❁123쎯:	-10.3279
jing❁58쎯	-10.328
gui❁55쎯gui❁55쎯	-10.3283
ling❂33쎯dun❄22쎯	-10.3283
ding❄19쎯he❂71쎯	-10.3286
xian❂28쎯li❂52쎯	-10.3287
bu❄62쎯,	-10.3288
huo❁1쎯wan❃49쎯	-10.3288
dian❄2쎯	-10.3288
yi❂27쎯gai❄1쎯	-10.3292
en❂24쎯huang❁19쎯:	-10.3294
yu❄183쎯yan❃117쎯	-10.3294
.ju❄75쎯	-10.3299
ling❂158쎯bu❄33쎯	-10.3299
、cai❂13쎯	-10.3299
yan❂101쎯xiao❄35쎯	-10.33
e❂49쎯lin❂58쎯	-10.3301
,zhi❃58쎯	-10.3303
“zui❃13쎯shi❂18쎯”	-10.3304
can❄7쎯qiu❂80쎯.	-10.331
wang❃8쎯tao❁32쎯	-10.3312
.huan❂12쎯li❂122쎯	-10.3325
ji❄218쎯qi❃51쎯	-10.3328
xi❄99쎯	-10.3329
guo❃24쎯yu❃64쎯	-10.333
ba❁41쎯zi❃5쎯	-10.333
nie❄85쎯jiao❃86쎯	-10.3332
gu❄16쎯mo❄7쎯	-10.3332
shu❁47쎯yi❂125쎯	-10.3335
ze❄17쎯huo❄13쎯	-10.3337
tian❂18쎯ke❂0쎯	-10.3343
》ji❄193쎯《	-10.3343
wen❂24쎯ji❂132쎯	-10.3344
zi❁106쎯chou❂1쎯	-10.3347
쎅)	-10.3347
qing❄17쎯dan❁11쎯,	-10.3349
ting❂20쎯ti❄42쎯.	-10.335
sou❁22쎯bo❂79쎯	-10.3352
yu❂112쎯bi❄189쎯	-10.3352
jia❁12쎯fang❂0쎯	-10.3359
bie❁10쎯pi❁22쎯	-10.3361
nian❂8쎯dang❄8쎯	-10.3364
ping❁4쎯	-10.3369
쎁쎉쎇쎅mai❄10쎯	-10.3373
쎁.쎀	-10.3373
di❃18쎯yu❃36쎯:	-10.3375
you❁34쎯su❄105쎯	-10.3376
fen❂2쎯li❂126쎯	-10.3377
wo❄26쎯ji❂53쎯	-10.3378
쎇ting❂20쎯tan❂62쎯	-10.3384
ci❄40쎯wen❂24쎯	-10.339
fu❂142쎯shi❄63쎯	-10.339
chong❁7쎯tian❄6쎯	-10.3392
he❂41쎯bing❃27쎯	-10.3394
ke❂0쎯qian❂27쎯	-10.3394
nuo❃0쎯	-10.3397
ying❃29쎯quan❂54쎯	-10.3404
guai❄14쎯gan❄4쎯	-10.3409
shu❄15쎯	-10.3409
chong❁32쎯fu❂142쎯	-10.3409
tan❂62쎯chen❃5쎯	-10.341
gui❁61쎯쎂쎀nv❄4쎯	-10.341
cha❂39쎯za❁23쎯	-10.3411
chu❂0쎯dong❄38쎯	-10.3411
cuan❁2쎯	-10.3414
yang❂47쎯jing❃17쎯	-10.3415
,huan❂12쎯li❄196쎯	-10.3424
ti❁6쎯qi❁68쎯	-10.3426
mu❃11쎯ba❁48쎯	-10.343
ao❃12쎯feng❂14쎯	-10.3431
li❄254쎯ju❄25쎯	-10.3432
bi❄203쎯ju❁38쎯	-10.3438
guan❃16쎯	-10.3439
di❃18쎯gai❄1쎯.	-10.344
lin❂58쎯ai❄34쎯	-10.3444
()、	-10.3444
man❄9쎯zhi❂5쎯	-10.3446
57쎯	-10.3447
dai❄43쎯	-10.3448
fu❄	-10.3449
쎀.쎃	-10.3451
ju❄98쎯shan❁17쎯	-10.3456
yan❃2쎯gu❃15쎯	-10.3457
chan❄17쎯bi❄103쎯	-10.3462
guan❄42쎯ji❄99쎯.	-10.3467
、cou❄6쎯	-10.347
dang❁25쎯	-10.3471
chuang❃10쎯yu❁17쎯	-10.3476
shan❁46쎯gao❁36쎯	-10.3479
nie❄85쎯ju❁38쎯	-10.3481
ying❃29쎯tu❂68쎯	-10.3482
jia❃3쎯	-10.3485
ru❃9쎯ju❂85쎯	-10.3493
xiong❂4쎯kou❃6쎯	-10.3495
yan❁61쎯dong❄41쎯	-10.3497
he❂71쎯xiong❂4쎯.	-10.35
kun❁44쎯	-10.3502
ru❃9쎯lu❃20쎯ru❃9쎯	-10.3508
xin❁40쎯qu❁21쎯	-10.3525
ji❁124쎯	-10.3529
tian❂18쎯kou❃6쎯	-10.3531
lai❂4쎯ya❁28쎯	-10.3536
huo❄13쎯hua❄17쎯	-10.3538
da❂60쎯xian❃58쎯	-10.3538
jie❄23쎯jiao❁81쎯	-10.3543
du❂72쎯nie❄104쎯	-10.3545
쎅쎀쎀쎀	-10.3547
fei❄59쎯	-10.3547
:《	-10.355
ben❁4쎯rong❂58쎯	-10.355
lang❄0쎯ju❁38쎯	-10.3553
ba❂24쎯	-10.3553
shuo❄33쎯jiao❃86쎯	-10.3554
ta❄14쎯,	-10.3558
meng❂54쎯	-10.3561
bao❂14쎯	-10.3561
guo❂46쎯hun❂24쎯	-10.3561
gu❃94쎯	-10.3563
,jia❁36쎯yi❂125쎯	-10.3565
nie❄85쎯kuai❃3쎯	-10.3571
bao❃14쎯he❂41쎯	-10.3572
liang❄6쎯	-10.3573
diao❁40쎯song❃15쎯	-10.3573
,dai❄25쎯yi❂125쎯	-10.3573
mai❄10쎯ru❃9쎯	-10.3575
yu❁17쎯yan❂41쎯	-10.3576
kuai❃3쎯yu❂110쎯	-10.3577
nang❂7쎯lu❃20쎯	-10.358
zi❁99쎯	-10.3581
jun❄23쎯	-10.3581
dan❁11쎯ling❂158쎯	-10.3583
tao❁32쎯qian❂41쎯	-10.3584
yan❃118쎯wei❃10쎯	-10.3587
ku❁10쎯guai❄14쎯	-10.3588
e❄112쎯	-10.3588
ling❂83쎯	-10.3597
shuo❄33쎯pin❁6쎯	-10.3598
tian❄8쎯	-10.3603
huang❂43쎯wei❂73쎯	-10.3607
,ou❃5쎯bo❁6쎯	-10.3614
yi❄110쎯	-10.3618
hua❄17쎯qi❂5쎯	-10.3619
ling❂158쎯yi❁33쎯	-10.3625
lv❄22쎯gou❄22쎯	-10.3625
teng❂24쎯mai❄10쎯	-10.3626
ni❄42쎯	-10.3629
shao❃0쎯kai❁11쎯	-10.3632
kuai❄13쎯	-10.3633
zhe❄9쎯ruan❄2쎯,	-10.3636
ban❄6쎯tian❂18쎯	-10.3638
.di❁32쎯	-10.3639
》zhi❁25쎯	-10.364
yue❄	-10.364
yan❃118쎯qi❃51쎯	-10.3641
[	-10.3644
ka❃5쎯ta❄20쎯	-10.3645
.쎃、	-10.3645
tai❄4쎯ji❄99쎯.	-10.3646
gu❃	-10.3647
ing❂158쎯shuo❄33쎯	-10.3647
ai❄52쎯	-10.3649
ying❃37쎯nie❄81쎯,	-10.3652
gu❃80쎯:“	-10.3654
.ji❂169쎯tu❃0쎯	-10.3665
xu❁78쎯yu❄68쎯,	-10.3666
wei❁20쎯ji❄99쎯	-10.3672
zui❄7쎯qian❂41쎯,	-10.3675
qi❃24쎯shen❃13쎯	-10.3676
zhou❄5쎯qi❂124쎯	-10.3678
diao❄25쎯xi❁123쎯	-10.3679
zhi❂5쎯gan❄4쎯	-10.3683
chi❁48쎯	-10.3687
wu❃9쎯kao❄2쎯	-10.3688
fu❂142쎯xiang❄24쎯	-10.369
쎅쎀e❄25쎯	-10.3691
tiao❁8쎯	-10.3692
tu❁	-10.3693
xi❁6쎯	-10.3708
kai❁6쎯xiang❄24쎯	-10.3708
zhi❃58쎯ni❂13쎯	-10.3714
jing❄52쎯	-10.3718
mei❃11쎯	-10.3734
wu❃9쎯zhuo❂50쎯	-10.3734
bai❂0쎯dian❃2쎯	-10.3735
ci❃11쎯qin❃11쎯	-10.3735
ji❁32쎯	-10.3741
mei❃4쎯xuan❄33쎯	-10.3745
san❄5쎯	-10.3748
쎁mai❄10쎯	-10.3749
-쎇	-10.3749
kai❁6쎯bing❃32쎯	-10.375
ge❂52쎯liu❂10쎯	-10.3752
zong❄14쎯lv❄22쎯	-10.3755
chao❄12쎯lin❂58쎯	-10.3756
(wo❁5쎯	-10.3758
cu❄3쎯	-10.3759
chong❁7쎯ci❄36쎯	-10.3765
ji❄99쎯yu❁17쎯쎃	-10.377
gai❄19쎯	-10.3775
li❃13쎯pan❂7쎯	-10.3776
lin❂58쎯chuai❂1쎯	-10.3778
pi❃6쎯	-10.3779
.쎃.	-10.3786
guan❄48쎯ke❁32쎯	-10.3789
zhuo❂17쎯ba❃2쎯	-10.3792
ke❁32쎯yi❄84쎯	-10.3793
qiao❂24쎯tun❄0쎯	-10.3794
san❃3쎯mai❄10쎯	-10.3795
cai❃16쎯shi❃11쎯	-10.3804
wan❃43쎯yi❂125쎯	-10.3805
wu❃49쎯쎂	-10.3805
li❂122쎯zhi❁70쎯	-10.3807
gui❁61쎯쎂쎅nv❄4쎯	-10.3809
ti❃10쎯qian❂27쎯	-10.3812
li❄15쎯	-10.3813
du❂72쎯bo❂79쎯.	-10.3815
chan❄19쎯.	-10.3816
쎁쎀쎀%	-10.3818
,lve❄5쎯ju❄75쎯	-10.3819
li❄5쎯qiang❁22쎯	-10.3823
ying❃29쎯cai❃16쎯	-10.3824
lei❄18쎯	-10.3825
can❄7쎯chang❄16쎯	-10.3825
she❄9쎯쎃	-10.3825
cheng❁8쎯hu❁63쎯	-10.3827
,cai❂13쎯	-10.3828
nie❄119쎯jin❄77쎯	-10.3828
guan❄31쎯	-10.3829
huan❁6쎯che❄42쎯	-10.3831
gan❃23쎯zhu❁14쎯	-10.3837
ao❃14쎯	-10.3838
rou❂19쎯tan❂62쎯	-10.3841
chan❂61쎯	-10.3843
jing❁65쎯ta❄40쎯	-10.3845
jing❁65쎯rao❂9쎯	-10.3846
rang❃4쎯ti❄42쎯	-10.385
ti❁6쎯zu❂29쎯	-10.3854
yi❄239쎯qin❂1쎯	-10.3858
fan❂20쎯li❂122쎯	-10.3859
bu❄62쎯ju❄98쎯,	-10.3861
qi❁71쎯nou❄1쎯:	-10.3862
ti❂64쎯hui❄33쎯	-10.3863
lao❂5쎯	-10.3866
guo❃24쎯guo❃24쎯	-10.3868
yi❂91쎯	-10.3868
48쎯	-10.3869
tun❂16쎯	-10.3875
jin❁	-10.3877
pang❂15쎯	-10.3881
la❁6쎯mai❄10쎯	-10.3883
hui❄23쎯zhan❁48쎯.	-10.3884
zhen❄45쎯yan❃118쎯	-10.3886
meng❂67쎯pan❂3쎯	-10.3889
xue❂7쎯xi❄31쎯	-10.3891
yan❂41쎯dian❃2쎯	-10.3891
sh	-10.3893
rao❂9쎯mo❄7쎯	-10.3895
gao❃1쎯	-10.3895
tan❂13쎯	-10.3896
dou❄30쎯zai❄7쎯	-10.3899
se❄57쎯ke❁55쎯	-10.3904
yao❂27쎯ruan❄2쎯	-10.3907
du❂72쎯zan❁0쎯	-10.3909
71쎯	-10.3911
chua❁1쎯	-10.3912
liao❂29쎯	-10.3915
.쎂쎀쎀쎆mai❄10쎯	-10.3916
zhe❂35쎯	-10.3917
di❁28쎯yin❁30쎯	-10.3917
zhi❁31쎯	-10.3919
45쎯	-10.392
lei❃36쎯xie❂16쎯	-10.3922
zu❂36쎯	-10.3925
yin❁37쎯	-10.3926
yu❂72쎯ni❄14쎯	-10.3926
dan❁11쎯ren❄0쎯	-10.3926
zhan❃28쎯	-10.3928
bai❄10쎯	-10.3931
song❄1쎯	-10.3933
xi	-10.3938
qin❃11쎯tan❂63쎯	-10.3938
“”	-10.3939
nuo❄6쎯fu❁45쎯	-10.394
nian❃1쎯jie❂129쎯	-10.3941
pan❂20쎯gong❃28쎯	-10.3947
xiu❃0쎯	-10.3951
chen❂46쎯	-10.3951
ba❂11쎯ju❄25쎯	-10.3953
dian❄14쎯fu❄3쎯	-10.3957
qian❂29쎯ta❄40쎯	-10.3958
tou❄5쎯che❄20쎯	-10.3961
o❁7쎯gu❃74쎯ke❂0쎯	-10.3967
dun❄17쎯	-10.397
reng❂4쎯.	-10.397
shen❃13쎯wen❂2쎯	-10.3976
zi❁27쎯	-10.3976
li❄233쎯qiu❂13쎯	-10.3982
kui❂41쎯yan❃118쎯	-10.3991
yi❄38쎯heng❂4쎯	-10.3994
li❂122쎯xing❄6쎯	-10.3996
mao❄23쎯ti❁6쎯	-10.3997
rou❂14쎯	-10.4004
72쎯shao❄3쎯ba❂11쎯	-10.4006
tuo❁8쎯	-10.4007
nai❂10쎯po❄2쎯du❂	-10.4009
jiao❁33쎯yan❁34쎯	-10.4014
wo❁9쎯	-10.4014
ji❁77쎯wen❂24쎯	-10.4014
쎁쎀e❄25쎯	-10.4018
.쎁쎈	-10.4019
zu❂29쎯ji❄99쎯	-10.402
lai❂7쎯	-10.4023
fan❁19쎯ru❃0쎯	-10.4023
xie❄	-10.4023
wu❃9쎯ni❂13쎯	-10.4025
zha❄19쎯an❁1쎯	-10.4026
da❁29쎯qia❄26쎯	-10.4026
qi❃18쎯zhi❃58쎯	-10.4037
ying❃29쎯ru❃0쎯	-10.4037
yi❄239쎯duo❄42쎯	-10.4039
huang❂56쎯tan❂62쎯	-10.404
rong❂44쎯wei❂79쎯	-10.4045
zhu❃4쎯zao❃12쎯	-10.4045
lve❄5쎯ai❂5쎯	-10.4047
yue❄60쎯chan❄19쎯	-10.4048
kui❄14쎯lin❄11쎯	-10.405
si❁13쎯	-10.4058
huo❄19쎯	-10.406
fen❂17쎯gan❃18쎯	-10.4061
xin❁37쎯	-10.4062
yan❁61쎯bo❁6쎯	-10.4066
ta❄14쎯qian❂29쎯	-10.4071
bi❄186쎯huang❁19쎯	-10.4075
nie❄85쎯qin❃11쎯	-10.408
gui❄20쎯you❁27쎯	-10.4085
qin❂5쎯lou❂0쎯	-10.4086
lv❄22쎯gui❄51쎯	-10.4086
du❂56쎯yi❂125쎯	-10.4087
an❁9쎯ling❂158쎯	-10.4089
mao❄	-10.4098
tan❂62쎯po❂7쎯,	-10.4098
xi❁12쎯po❂9쎯	-10.4098
guan❄42쎯chong❁7쎯	-10.4098
yan❁34쎯yun❁9쎯	-10.4104
》lv❄22쎯gun❄4쎯	-10.4106
gua❃0쎯hou❄27쎯:	-10.4109
yuan❄6쎯chu❄45쎯	-10.411
huo❄35쎯bu❄62쎯	-10.411
k	-10.4111
wan❂13쎯zuo❂8쎯	-10.4111
ai❄48쎯	-10.4112
.ying❂62쎯ju❄75쎯	-10.4113
hai❂4쎯	-10.4115
lai❄28쎯qin❃11쎯	-10.4117
ling❂90쎯	-10.412
xiu❄3쎯wen❂24쎯	-10.4121
.lv❄22쎯nie❄84쎯	-10.4122
fei❁29쎯	-10.4123
yu❄79쎯	-10.4129
shi❁8쎯gu❄11쎯	-10.4131
qiao❄13쎯yun❄9쎯	-10.4134
ci❃11쎯su❄120쎯	-10.4137
nv❄4쎯bao❁15쎯	-10.414
qi❂76쎯lu❄68쎯	-10.4149
lv❄22쎯feng❂14쎯	-10.4152
、qiong❂66쎯	-10.4154
fei❄11쎯	-10.4155
gui❁61쎯쎈nv❄4쎯	-10.4155
qian❁6쎯	-10.4162
han❄14쎯zi❁106쎯	-10.4165
di❃18쎯gai❄1쎯《	-10.4166
dun❄22쎯li❄215쎯	-10.4168
ru❃9쎯tu❃0쎯ke❂0쎯	-10.417
wei❁59쎯	-10.417
rong❃11쎯	-10.4171
chuai❂1쎯he❂41쎯	-10.4172
ju❄75쎯pie❄1쎯	-10.4174
lin❂58쎯,	-10.4175
da❂60쎯ting❂20쎯	-10.4177
jing❃17쎯fen❃3쎯	-10.4179
xiao❁	-10.4186
qi❃24쎯lang❁쎯	-10.4186
nie❄85쎯ge❂94쎯	-10.4187
#	-10.4192
fu❁	-10.4199
zong❄14쎯zhi❁70쎯,	-10.4204
guo❃	-10.4204
zhuo❂50쎯、	-10.4205
쎁쎉쎇쎂mai❄10쎯	-10.4205
guai❄14쎯shi❃26쎯	-10.4208
tian❂18쎯ai❂9쎯	-10.4209
wen❄2쎯	-10.422
wang❃8쎯jie❂129쎯	-10.422
gui❁61쎯쎁쎀nv❄4쎯	-10.4221
ni❄	-10.4225
bi❄176쎯	-10.4227
fu❂26쎯	-10.4233
gui❁61쎯쎂쎆nv❄4쎯	-10.4234
yu❂23쎯	-10.4237
lai❂28쎯	-10.4239
qu❁21쎯zou❁10쎯	-10.4245
cheng❁39쎯	-10.4247
,yi❂125쎯tai❂30쎯	-10.4247
lang❂42쎯	-10.4248
zi❁106쎯jin❄16쎯	-10.4249
40쎯	-10.425
o	-10.425
yi❄170쎯	-10.4251
reng❂4쎯ru❃9쎯	-10.4256
dao❁7쎯ye❄50쎯	-10.4259
song❁30쎯	-10.4259
fu❄115쎯jian❁2쎯	-10.4268
qin❃11쎯wen❃2쎯	-10.4268
wan❃31쎯wan❃31쎯	-10.427
rao❃	-10.4272
wu❃18쎯chan❂50쎯	-10.4273
wa❃7쎯	-10.4274
che❄20쎯zuo❄4쎯	-10.4275
ji❂169쎯gan❃23쎯	-10.4276
zhe❂33쎯ke❂0쎯	-10.4276
yan❃118쎯qia❂2쎯	-10.428
heng❂22쎯liu❂10쎯	-10.4281
me❁쎯	-10.4283
쎉di❄13쎯	-10.4287
,qin❂5쎯tian❂38쎯	-10.4288
zhang❄20쎯xu❁37쎯	-10.4288
jie❂129쎯jian❁60쎯	-10.4289
,bi❄203쎯	-10.429
,di❁32쎯yi❂125쎯	-10.4293
zhi❁19쎯	-10.4296
xi❁1	-10.4297
(,)	-10.4298
-쎀	-10.4303
ta❄99쎯、	-10.4304
chua❁3쎯bi❄203쎯,	-10.4305
xi❂9쎯qiong❂72쎯,	-10.4309
tai❂12쎯	-10.4311
ju❁38쎯di❁28쎯	-10.4316
liu❂10쎯bao❁15쎯	-10.4318
ye❄38쎯po❂9쎯	-10.4319
du❂72쎯fu❂70쎯	-10.4322
zou❁10쎯zhuo❂9쎯	-10.4326
xiang❃9쎯	-10.4326
lv❄22쎯xie❂16쎯	-10.4328
wang❃8쎯li❂109쎯	-10.4332
zan❃16쎯jian❁124쎯	-10.4332
song❃15쎯fen❃3쎯	-10.4332
zu❂7쎯dao❃22쎯	-10.4333
쎁쎉쎆쎇mai❄10쎯	-10.4334
zi❄22쎯bie❁10쎯:	-10.4336
gun❄4쎯tang❃12쎯	-10.4336
yan❁61쎯	-10.4344
bang❁22쎯	-10.4346
jiao❄32쎯ti❁6쎯	-10.4347
gui❁61쎯쎃쎀nv❄4쎯	-10.4349
qiong❂34쎯	-10.4353
gun❃24쎯di❁32쎯	-10.4354
tong❂23쎯qu❁21쎯	-10.4355
huo❁1쎯qi❂124쎯,	-10.4364
gui❁61쎯쎁쎅nv❄4쎯	-10.4364
she❄31쎯	-10.4365
ou❃15쎯qu❂96쎯	-10.437
쎁쎁쎀	-10.4378
lv❄22쎯kui❁1쎯	-10.4381
ci❃11쎯lang❄12쎯	-10.4382
iao❄25쎯huang❁19쎯	-10.4383
yin❂49쎯shang❁17쎯	-10.4383
he❄34쎯	-10.4384
ti❁6쎯xie❂46쎯	-10.4391
lv❄22쎯zi❃28쎯	-10.4393
qiu❂80쎯,	-10.4397
yang❂13쎯zhi❁0쎯	-10.4398
yin❂64쎯ban❄6쎯	-10.4398
nie❄82쎯yan❂41쎯	-10.44
hou❂43쎯nei❃8쎯	-10.4401
ying❁22쎯	-10.4401
ying❃29쎯niu❄0쎯	-10.4401
xu❄31쎯	-10.4403
ku❃2쎯《	-10.4405
re❄2쎯yi❂125쎯	-10.4411
ji❄205쎯yu❁17쎯	-10.4412
→	-10.4414
쎁쎀di❄13쎯	-10.4415
gong❃11쎯jiao❃40쎯	-10.4415
fu❂166쎯chao❁16쎯	-10.4416
chi❃3쎯bing❃32쎯	-10.4421
zhi❂5쎯jian❃94쎯	-10.4423
ping❂44쎯su❄105쎯《	-10.4423
yao❄34쎯	-10.4424
쎂쎀쎀쎄	-10.4426
lv❄41쎯hui❄33쎯	-10.4429
(xuan❄33쎯	-10.443
kui❂49쎯zhi❁0쎯	-10.4434
yu❄145쎯	-10.4435
yan❂28쎯zao❃14쎯	-10.4435
zhan❁17쎯	-10.4438
t	-10.4444
.fu❂166쎯tai❄4쎯	-10.4445
yuan❁37쎯	-10.4453
yu❄183쎯》	-10.4459
ta❄99쎯jiao❃86쎯	-10.446
yi❄208쎯	-10.4461
zi❁106쎯si❁45쎯	-10.4462
chi❁14쎯lao❂47쎯	-10.4464
shi❄139쎯lie❄79쎯	-10.4464
tai❄4쎯kang❄3쎯	-10.448
쎁쎉쎉쎉	-10.4483
wen❂24쎯liao❂23쎯	-10.4489
ci❂19쎯qu❂57쎯	-10.4495
,yan❂28쎯zhe❂33쎯	-10.4497
,gan❄31쎯fu❂70쎯	-10.4498
hui❂17쎯po❄2쎯	-10.45
bi❄103쎯qi❄35쎯	-10.4505
liu❄29쎯ji❁149쎯	-10.4507
sou❁22쎯li❂109쎯	-10.4509
an❄18쎯	-10.4513
feng❄14쎯qu❁58쎯	-10.4514
kao❄2쎯guo❃24쎯	-10.4515
tong❂14쎯huan❄59쎯	-10.4519
쎁쎉쎆쎈mai❄10쎯	-10.452
la❄52쎯ba❁48쎯、	-10.4521
gan❃23쎯ji❂169쎯	-10.4524
(쎁).	-10.4524
lv❂5쎯ta❄13쎯	-10.4527
e❄38쎯nie❄82쎯	-10.4534
han❄58쎯	-10.4537
liang❃2쎯fu❂142쎯	-10.4537
lve❄5쎯yin❂64쎯	-10.4539
en❁5쎯wei❃4쎯	-10.454
feng❄14쎯su❄61쎯	-10.4541
can❄15쎯zhen❃34쎯	-10.4542
tao❁20쎯yin❃1쎯	-10.4542
he❂71쎯xiong❂4쎯,	-10.4546
qin❂38쎯	-10.4546
ke❁55쎯bu❄6쎯	-10.4547
쎁쎉쎇쎇mai❄10쎯	-10.4549
zuo❄4쎯tong❂14쎯	-10.455
she❄9쎯kui❁1쎯	-10.455
gu❃32쎯	-10.4552
po❂7쎯fu❄115쎯	-10.4559
ti❁6쎯wu❃49쎯	-10.4566
bie❁10쎯you❁38쎯	-10.4567
qiong❂38쎯	-10.4568
nv❄4쎯zui❄7쎯	-10.4571
『	-10.4574
shuo❄33쎯lai❄28쎯,	-10.4577
ying❃29쎯nie❄82쎯	-10.4578
kao❄2쎯luo❂2쎯	-10.4582
쎁쎉쎇쎄mai❄10쎯	-10.4583
ta❄40쎯쎁쎈	-10.4585
yi❂125쎯mang❂20쎯	-10.4586
ti❃10쎯ao❂8쎯	-10.4586
쎃e❄25쎯	-10.4587
rong❂44쎯qi❃51쎯	-10.4587
pan❄25쎯	-10.4589
xie❂46쎯、	-10.4591
lei❄7쎯ding❄19쎯	-10.4594
쎁쎉쎆쎀mai❄10쎯	-10.4594
쎀fan❂29쎯ji❄23쎯	-10.4598
pan❁6쎯yin❂18쎯	-10.46
heng❂14쎯guai❄14쎯	-10.46
jue❂1	-10.4601
bo❁6쎯zhe❂33쎯	-10.4605
ju❄75쎯bi❄255쎯	-10.4606
ru❃9쎯she❄9쎯	-10.4607
qiang❄4쎯guan❄52쎯	-10.4607
,tai❂30쎯	-10.4608
duan❃3쎯	-10.461
nu❂5쎯	-10.461
yang❂13쎯ning❂7쎯	-10.4611
lei❃30쎯xi❄35쎯	-10.4615
zhe❂33쎯di❃18쎯	-10.4616
qia❂0쎯cong❁12쎯	-10.4618
ci❃11쎯chao❁16쎯	-10.4618
ce❄9쎯·	-10.4623
chen❂28쎯	-10.4624
qiang❁22쎯,	-10.4629
zuo❃2쎯bo❁6쎯	-10.4629
ci❂18쎯	-10.463
,chong❁32쎯na❄31쎯	-10.463
li❄196쎯lv❄22쎯	-10.4631
ai❄15쎯	-10.4633
chi❁22쎯qing❄19쎯	-10.4633
liao❃21쎯gui❃35쎯	-10.4634
3쎯,	-10.4635
ti❁6쎯bu❄33쎯	-10.4637
yi❂125쎯hui❄13쎯	-10.4638
chong❂9쎯ge❂52쎯	-10.4647
yan❃2쎯chao❁16쎯.	-10.4648
han❂43쎯	-10.4654
fen❃3쎯yi❂108쎯	-10.4658
tu❂21쎯qia❄2쎯	-10.4661
wu❃18쎯	-10.4662
hui❁34쎯guo❁28쎯	-10.4665
ting❂20쎯ti❄42쎯,	-10.4666
chan❂2쎯	-10.4668
niu❂4쎯	-10.4668
di❃18쎯zhe❂33쎯,	-10.4669
wu❄47쎯	-10.467
su❃쎯ai❁9쎯	-10.4671
bao❃38쎯hu❄44쎯	-10.4672
chuai❂1쎯xuan❄33쎯	-10.4676
pi❁22쎯yu❄68쎯	-10.4677
chong❂9쎯qin❁2쎯:	-10.4678
zha❄26쎯bang❁12쎯	-10.4681
xi❄31쎯an❁3쎯	-10.4683
zha❄26쎯dan❄40쎯	-10.4688
lu❄144쎯wu❃9쎯	-10.4689
zhong❃8쎯di❄56쎯	-10.469
,ji❄26쎯chong❁32쎯	-10.4691
.ben❁4쎯	-10.4691
bao❃14쎯pai❂4쎯	-10.4698
xian❂28쎯yi❂125쎯	-10.4705
ju❁70쎯	-10.4705
bu❄6쎯qu❂72쎯	-10.4706
lang❄0쎯ci❄34쎯	-10.4706
yan❄84쎯shang❁17쎯	-10.4708
:qin❃11쎯lin❂62쎯	-10.4712
ruan❂6쎯	-10.4714
yun❃9쎯	-10.4718
lao❄6쎯jian❃4쎯	-10.4719
li❁쎯	-10.4722
,yuan❄6쎯	-10.4727
쎀～	-10.4728
dui❄19쎯guo❂1쎯	-10.4729
shan❃30쎯ru❃0쎯	-10.4729
ke❂0쎯you❂74쎯:	-10.473
lve❄5쎯chou❂1쎯	-10.473
yin❃1쎯	-10.4731
jun❄32쎯	-10.4732
≤	-10.4737
ji❂169쎯hou❄27쎯	-10.4737
bo❁36쎯wu❂27쎯	-10.4737
쎁쎉쎅쎇mai❄10쎯	-10.4738
song❃15쎯qian❁30쎯	-10.4739
qiao❁31쎯xi❁68쎯	-10.474
.ba❂11쎯	-10.4746
gui❁61쎯쎁쎆nv❄4쎯	-10.4746
,qian❂20쎯qiao❂3쎯	-10.4751
po❂9쎯、	-10.4752
nie❄107쎯	-10.4753
ji❄99쎯qian❂41쎯	-10.4754
yuan❁32쎯	-10.4754
yang❂13쎯qian❂27쎯	-10.4756
li❂76쎯qiang❁22쎯	-10.4756
ji❄99쎯fu❁67쎯	-10.4757
er❄5쎯	-10.4757
bao❂6쎯	-10.4759
mo❄33쎯	-10.4762
yuan❄6쎯shao❄3쎯	-10.4763
mo❄21쎯yi❄211쎯	-10.4764
meng❂67쎯yin❁53쎯	-10.4764
na❄62쎯	-10.4766
niu❄0쎯duan❁3쎯	-10.4766
yun❄32쎯	-10.4767
dan❁11쎯.	-10.4772
niu❃12쎯	-10.4772
qing❄17쎯qiao❂33쎯	-10.4773
lu❄43쎯na❄6쎯	-10.4775
,qin❃11쎯lin❂62쎯	-10.4775
ta❄61쎯chan❄19쎯	-10.4779
du❂72쎯bu❄62쎯	-10.4782
“li❂76쎯	-10.4789
ting❂19쎯kang❃3쎯	-10.4789
,ju❂77쎯guan❄42쎯	-10.4789
.쎀쎈	-10.4791
shao❃5쎯chen❂57쎯	-10.4791
쎁쎉쎆쎉mai❄10쎯	-10.4793
hui❄13쎯ba❁41쎯	-10.4793
qin❄0쎯dian❃2쎯	-10.48
han❂12쎯shi❃26쎯	-10.4802
jiao❄37쎯tuo❁11쎯	-10.4806
,wo❁5쎯ai❄34쎯	-10.4806
za❂8쎯wen❂24쎯.	-10.4807
ju❁38쎯ru❃9쎯	-10.4808
bin❄10쎯jian❁60쎯	-10.4809
wai❁3쎯bing❃32쎯	-10.4812
qiao❄19쎯	-10.4812
ze❂45쎯	-10.4815
ya❄18쎯da❁33쎯	-10.4815
gao❄16쎯cui❄48쎯	-10.4822
ji❄99쎯,jie❂91쎯	-10.4824
(diao❄25쎯	-10.4826
tuo❄6쎯mo❄111쎯	-10.4832
yu❄183쎯·	-10.4833
lv❄46쎯yan❄84쎯	-10.4834
qi❃18쎯ti❁6쎯	-10.4836
qi❂122쎯long❄1쎯	-10.4836
ta❄99쎯,	-10.484
yan❁61쎯qiao❂8쎯	-10.4845
쎅쎁쎂	-10.4857
yin❁7쎯lv❄22쎯	-10.4858
mi❂44쎯ke❁8쎯	-10.4859
,mai❄10쎯	-10.4861
huang❃28쎯ge❂66쎯	-10.4865
gou❃11쎯	-10.4866
ying❃29쎯gao❃19쎯	-10.4869
zhi❁70쎯se❄52쎯,	-10.487
nian❃1쎯ai❄31쎯	-10.4871
.쎅nie❄119쎯mie❁4쎯	-10.4871
ke❂0쎯guai❄14쎯	-10.4872
mai❄10쎯,	-10.4872
da❂60쎯xu❄33쎯	-10.4873
.dai❄25쎯yi❂125쎯	-10.4873
cen❂0쎯	-10.4873
xing❄6쎯lu❂31쎯	-10.4877
❁28쎯qu❂72쎯ji❄99쎯	-10.4879
cai❃16쎯zhe❂33쎯	-10.488
.wo❁5쎯ai❄34쎯	-10.4881
sheng❄6쎯na❄51쎯	-10.4882
jiao❃	-10.4883
zhi❂5쎯lv❂5쎯	-10.4885
zu❂12쎯	-10.4886
yin❁7쎯qiang❁22쎯	-10.4887
wa❃4쎯	-10.4889
shi❃26쎯qu❁58쎯쎇	-10.4889
の	-10.4889
gui❁61쎯쎁쎂nv❄4쎯	-10.4891
.zhe❂33쎯ta❄40쎯	-10.4904
e❂49쎯liu❂10쎯	-10.4905
쎃쎂쎀	-10.4906
guo❃24쎯chong❁7쎯	-10.4906
shan❄7쎯tao❁32쎯	-10.4907
jing❁27쎯dao❃22쎯	-10.4908
qian❂27쎯ge❂66쎯	-10.4911
yu❄58쎯	-10.4912
ju❁29쎯rong❂44쎯	-10.4914
li❄196쎯:	-10.4914
dai❄31쎯	-10.4915
zhi❃58쎯yi❄239쎯	-10.4921
gun❄4쎯chuai❂1쎯	-10.4921
xu❄15쎯	-10.4922
du❄26쎯tiao❂9쎯	-10.4922
xin❁23쎯ci❃11쎯	-10.4925
qu❁8쎯yi❂114쎯	-10.4926
쎁쎉쎅쎀mai❄10쎯	-10.4927
(쎄	-10.4928
hao❄19쎯	-10.4929
huo❄58쎯lv❄46쎯	-10.4933
쎉-	-10.4934
yang❃14쎯	-10.4938
ling❂158쎯qiu❂13쎯	-10.4938
shi❃26쎯qu❁58쎯쎂	-10.494
he❂71쎯fu❂70쎯	-10.4944
쎁/쎂	-10.4947
pi❃2쎯ju❁38쎯	-10.4947
tian❂18쎯bing❁11쎯	-10.4949
na❄6쎯kao❄2쎯	-10.495
jian❃28쎯	-10.4951
su❄61쎯ji❄23쎯	-10.4952
fang❃3쎯fen❁39쎯	-10.4952
nie❄81쎯	-10.4952
kan❃9쎯	-10.4953
ru❂24쎯po❂9쎯	-10.4954
chan❄17쎯pan❂7쎯	-10.4957
pin❂9쎯ji❂169쎯	-10.4959
yi❂27쎯ju❁38쎯	-10.4961
chou❂58쎯xian❂9쎯	-10.4963
mi❄56쎯wu❄47쎯	-10.4968
yi❄368쎯ji❄99쎯	-10.4969
ta❃1쎯ai❁9쎯	-10.497
shi❃26쎯qu❁58쎯쎈	-10.497
ru❂49쎯kao❄2쎯	-10.4972
sha❁33쎯lian❂60쎯	-10.4973
za❁23쎯fu❄115쎯	-10.4978
jun❄38쎯	-10.4979
hui❂17쎯sa❄42쎯	-10.4982
zou❁10쎯leng❃쎯	-10.4983
lin❄26쎯he❂28쎯	-10.4985
ta❃6쎯sai❄1쎯	-10.4991
qiu❂80쎯tun❁15쎯	-10.4994
xiang❂16쎯li❂109쎯	-10.4999
쎀da❂60쎯xian❃58쎯,	-10.4999
lang❁쎯fen❂13쎯	-10.4999
zhu❁4쎯	-10.5002
zhen❃34쎯ju❁38쎯	-10.5002
kang❄3쎯tai❄4쎯	-10.5003
ン	-10.5003
lv❄22쎯nv❄4쎯	-10.5004
re❄5쎯gou❃8쎯	-10.5004
yi❄84쎯e❄25쎯hu❂	-10.5005
xian❃58쎯mai❄10쎯	-10.501
cha❂3쎯	-10.5019
li❄58쎯	-10.502
shan❃30쎯tan❂51쎯	-10.5021
wai❁3쎯xin❁3쎯	-10.5022
bo❂138쎯luo❂2쎯	-10.5026
tai❂30쎯zong❄7쎯	-10.5028
qian❂64쎯	-10.503
he❄39쎯ru❃0쎯	-10.5034
cheng❁8쎯	-10.5035
gui❁61쎯쎂쎇nv❄4쎯	-10.5036
qin❃11쎯jiang❁36쎯	-10.5039
kai❁11쎯gui❁55쎯	-10.5039
....	-10.504
wei❂29쎯mei❃4쎯	-10.504
쎁쎉쎅쎅mai❄10쎯	-10.5041
zhong❃8쎯su❄84쎯	-10.5042
huo❄35쎯wen❂2쎯	-10.5043
zhe❂	-10.5044
xi❁94쎯	-10.5046
qu❂96쎯ci❃11쎯.	-10.5049
zong❄14쎯yan❃2쎯	-10.5051
pi	-10.5053
nie❄85쎯ou❃15쎯	-10.5053
○	-10.5054
xiu❄0쎯	-10.5055
ya❅쎯ne❄7쎯e❄156쎯	-10.5056
tie❁5쎯zi❁78쎯	-10.5057
you❁22쎯,	-10.506
qiong❂72쎯fen❂2쎯	-10.506
di❂2쎯	-10.5063
su❃쎯xian❃46쎯	-10.5064
lin❄26쎯	-10.5068
zhi❃58쎯xuan❄33쎯	-10.5068
.re❄2쎯yi❂125쎯	-10.5069
yin❁30쎯yin❂49쎯,	-10.5075
fu❁14쎯die❂9쎯	-10.5077
ti❄42쎯pai❂4쎯	-10.508
chu❄45쎯fu❂70쎯.	-10.5082
쎁쎉쎇쎃mai❄10쎯	-10.5083
,ting❁0쎯li❂122쎯	-10.5085
ai❄21쎯	-10.509
pan❂20쎯pi❂20쎯	-10.5095
ke❃7쎯wai❁3쎯	-10.5095
liang❂23쎯	-10.5096
ting❁0쎯ci❃11쎯	-10.5097
gan❄4쎯ci❄40쎯	-10.5098
qia❂0쎯ba❂11쎯	-10.5099
lou❃10쎯yang❂47쎯	-10.5103
jue❄2쎯zhen❄45쎯	-10.5106
nie❄119쎯yu❄68쎯	-10.511
bang❁12쎯dun❄22쎯	-10.5117
e❄25쎯qia❄2쎯	-10.5119
qian❁30쎯po❄2쎯	-10.5124
da❂60쎯ji❄99쎯	-10.5124
qi❄66쎯	-10.5125
li❄196쎯ye❄50쎯	-10.5126
hu❄44쎯hua❄0쎯	-10.513
.쎂쎀쎀쎈mai❄10쎯	-10.5131
yi❄386쎯	-10.5133
li❄314쎯me❄쎯	-10.5136
zhi❂5쎯you❁22쎯	-10.5138
,쎀쎀쎀	-10.5138
(pi❄40쎯	-10.514
3쎯、	-10.5143
li❂76쎯tui❂33쎯	-10.5148
po❄	-10.5149
ke❁55쎯fei❃24쎯	-10.5153
feng❄14쎯wai❁3쎯	-10.5155
he❂71쎯hui❁64쎯	-10.5156
xie❂16쎯ci❄40쎯:	-10.5158
쎁쎉쎆쎆mai❄10쎯	-10.5161
쎁쎉쎅쎂mai❄10쎯	-10.5161
zong❁46쎯	-10.5165
ying❁22쎯ping❂53쎯	-10.5169
22쎯biao❁38쎯ke❂0쎯	-10.5173
qi❂158쎯	-10.5175
yao❁8쎯	-10.5177
dao❄26쎯chan❄19쎯	-10.5178
쎀.쎈	-10.5181
,bi❄203쎯tai❄4쎯	-10.5182
hui❄33쎯ba❂11쎯	-10.5184
쎃nie❄119쎯mie❁4쎯	-10.5186
sa❄26쎯jian❃4쎯	-10.5188
pi❄40쎯tang❁14쎯	-10.5191
nian❃1쎯ling❂158쎯	-10.5192
mang❂20쎯jiao❃40쎯	-10.5193
zi❄22쎯fu❂71쎯	-10.5196
beng❄25쎯	-10.5196
쎁ting❂20쎯tan❂62쎯	-10.5197
bi❄103쎯ni❃34쎯	-10.5197
yu❂72쎯ying❃36쎯	-10.5198
yang❂13쎯meng❂67쎯	-10.5204
guang❁13쎯gu❃15쎯	-10.5205
chi❂40쎯	-10.5205
du❄11쎯	-10.5207
jiang❄20쎯dao❃22쎯	-10.5207
lin❂58쎯yan❃118쎯	-10.521
mu❄12쎯	-10.5211
zan❁1쎯tian❄11쎯	-10.5214
yang❁12쎯fu❂142쎯	-10.5214
ai❄32쎯	-10.5216
jie❂95쎯	-10.5217
yu❂112쎯fu❂79쎯	-10.5219
wu❃9쎯chan❂50쎯.	-10.5223
tan❁10쎯you❁27쎯	-10.5226
si❄	-10.5227
nv❄4쎯fu❄115쎯	-10.5228
ren❄6쎯kuai❃3쎯	-10.523
weng❁6쎯	-10.5231
chuai❂1쎯lei❄7쎯.	-10.5232
wu❂	-10.5236
e❂49쎯xiu❁9쎯	-10.5236
gui❁61쎯쎂쎃nv❄4쎯	-10.5237
jue❂162쎯zan❁0쎯	-10.5238
wan❄10쎯	-10.524
yu❄136쎯	-10.5241
.쎂쎀쎀쎉mai❄10쎯	-10.5246
zan❁1쎯tian❄11쎯.	-10.5247
shi❃11쎯po❂7쎯	-10.5248
쎃)	-10.5248
dong❄40쎯	-10.5249
wan❃43쎯li❄196쎯	-10.525
huang❂43쎯kai❄9쎯	-10.525
pu❄4쎯	-10.5257
ze❂49쎯gua❁23쎯	-10.5258
,shuo❁1쎯	-10.5259
zhuan❄19쎯	-10.526
bu❄62쎯chong❂28쎯	-10.526
zhi❂5쎯yu❃64쎯	-10.526
.quan❁4쎯	-10.526
쎁쎉쎃쎇mai❄10쎯	-10.5261
qiu❂80쎯cheng❂85쎯	-10.5263
tang❃12쎯qi❂124쎯	-10.5266
gun❄4쎯.	-10.5269
yao❃30쎯chao❄12쎯	-10.527
ni❃6쎯ge❂52쎯	-10.527
si❁45쎯bu❄62쎯	-10.5271
,en❁5쎯gui❁56쎯	-10.5271
tong❁10쎯	-10.5273
nie❄85쎯jiao❁33쎯	-10.5275
gong❃14쎯qu❁58쎯	-10.5276
cou❄6쎯ju❄62쎯	-10.5278
di❃18쎯yi❂27쎯.	-10.5279
she❂7쎯zuo❃2쎯	-10.528
ru❃9쎯zan❁1쎯	-10.528
,ju❄75쎯gao❄16쎯	-10.5282
zhuo❂17쎯he❄39쎯	-10.5283
yin❁30쎯qiao❂8쎯	-10.5284
54쎯	-10.5288
ju❄75쎯shu❂7쎯	-10.5289
shuai❁3쎯	-10.5289
ou❃5쎯huang❁19쎯	-10.5291
쎀e❄71쎯	-10.5291
xie❂16쎯ci❄40쎯	-10.5293
ai❄31쎯	-10.5296
zha❂34쎯qiao❂8쎯	-10.5296
pin❁6쎯za❂8쎯	-10.5297
chong❂9쎯wa❁21쎯	-10.5297
쎁쎉쎅쎉mai❄10쎯	-10.5297
ci❃11쎯fu❂69쎯	-10.5299
pai❂4쎯chao❃2쎯	-10.5299
ju❄21쎯qiu❁23쎯	-10.53
li❂126쎯guang❁10쎯	-10.5304
kao❄2쎯che❄42쎯	-10.5304
zhi❃58쎯tian❂18쎯	-10.5304
ju❁38쎯chong❁7쎯	-10.5306
yu❄32쎯er❂19쎯	-10.5307
e❄109쎯	-10.5312
mei❂12쎯fu❁45쎯	-10.5313
yu❄43쎯	-10.5315
gu❃15쎯kuai❃3쎯	-10.5315
chi❄81쎯	-10.5316
gun❄4쎯ren❃13쎯;	-10.5318
yao❃12쎯lei❄7쎯	-10.5323
fan❂30쎯	-10.5328
jun❁	-10.5329
,za❂3쎯	-10.5329
,re❄2쎯yi❂125쎯	-10.533
lv❄22쎯ning❂14쎯	-10.5331
wu❃9쎯xie❂30쎯	-10.5336
bi❄203쎯fu❂69쎯	-10.5341
bi❄135쎯	-10.5341
wang❄6쎯	-10.5342
yi❄84쎯gao❄16쎯	-10.5342
ying❁81쎯nai❂10쎯	-10.5343
bu❄62쎯li❄270쎯	-10.5345
(쎁쎉쎂	-10.5346
μ	-10.5349
yang❂13쎯li❂126쎯	-10.5352
●	-10.5356
tian❂18쎯、	-10.5356
xia❁0쎯dao❁4쎯,	-10.5358
ji❂55쎯	-10.5361
쎂nie❄119쎯mie❁4쎯	-10.5362
bang❁23쎯	-10.5365
ting❂20쎯guan❄42쎯	-10.5366
se❄57쎯guang❁13쎯	-10.5368
du❂72쎯bo❂79쎯,	-10.5368
xiu❄3쎯lin❂58쎯	-10.5371
bu❄62쎯guang❁10쎯	-10.5372
쎁쎉쎅쎄mai❄10쎯	-10.5374
zha❂34쎯xi❄13쎯	-10.5376
hu❄84쎯qiao❂3쎯	-10.5376
”jing❄3쎯	-10.5376
cang❁5쎯wu❁27쎯:	-10.5379
luo❂2쎯xi❄35쎯	-10.5381
she❁7쎯	-10.5381
shuo❄33쎯gai❄1쎯y	-10.5385
e❅1쎯	-10.5387
shi❄63쎯qi❂5쎯	-10.5388
fu❂93쎯	-10.5388
zhuan❁16쎯	-10.539
ming❂6쎯、	-10.539
shao❃0쎯dang❁1쎯	-10.5393
che❄42쎯jian❃94쎯,	-10.54
jin❄77쎯	-10.5401
xiao❄35쎯yi❄228쎯	-10.5402
zhong❃8쎯·	-10.5402
ci❄40쎯wen❂24쎯:	-10.5403
ne❄7쎯qia❄2쎯	-10.5406
lv❄22쎯li❂19쎯	-10.541
xi❄22쎯	-10.5411
ze❂41쎯	-10.5412
du❄29쎯ya❁28쎯	-10.5413
ruan❂1쎯jian❁60쎯	-10.5423
,chong❁7쎯	-10.5425
tui❄1쎯qu❂96쎯	-10.5426
rong❂21쎯	-10.5427
he❂41쎯zai❄7쎯	-10.5429
쎁쎀쎀e❄25쎯	-10.5431
chuai❂1쎯yi❂157쎯	-10.5433
yin❂64쎯mei❃3쎯	-10.5436
dun❄22쎯zhu❁14쎯	-10.5437
qing❄10쎯	-10.5437
dian❄40쎯	-10.5438
gui❁61쎯쎂쎁nv❄4쎯	-10.5441
sou❁22쎯po❄15쎯	-10.5441
xiao❃13쎯	-10.5442
,hun❂15쎯di❁32쎯	-10.5443
lou❂36쎯	-10.5445
que❄	-10.5447
cuo❄13쎯zi❁86쎯	-10.5451
xiao❂15쎯wu❁27쎯:	-10.5454
.li❄196쎯ku❃2쎯	-10.5465
tian❄11쎯zha❂34쎯	-10.5469
qia❂0쎯ke❁12쎯	-10.5469
rou❂25쎯yi❂27쎯.	-10.547
쎆)	-10.5476
zhen❁15쎯tun❄0쎯	-10.5478
,tian❂18쎯fen❁39쎯	-10.5481
qi❁68쎯pan❂7쎯	-10.5484
、lin❂58쎯	-10.5484
chong❂9쎯qin❁2쎯	-10.5488
ou❃7쎯	-10.549
mo❄81쎯	-10.549
.”dian❄35쎯	-10.5494
쎅nie❄119쎯mie❁4쎯	-10.55
qu❂96쎯gan❄4쎯	-10.5501
xiao❂15쎯chu❄45쎯:	-10.5502
di❁28쎯qi❂119쎯	-10.5506
guai❄14쎯bian❄65쎯	-10.5507
shu❂10쎯	-10.5509
(yi❄228쎯	-10.5514
qiu❂80쎯lang❄0쎯	-10.5516
wei❁42쎯you❄42쎯	-10.552
jing❄3쎯chuai❂1쎯	-10.5522
,yi❄381쎯wen❂24쎯	-10.5524
tian❃17쎯ba❃2쎯	-10.5524
xiu❁46쎯shu❄51쎯	-10.553
쎂、	-10.553
wan❂13쎯nian❂7쎯	-10.5533
gui❁61쎯쎂쎉nv❄4쎯	-10.5533
yong❁1쎯qi❂124쎯	-10.5533
mao❂43쎯	-10.5535
shan❁17쎯ji❂169쎯	-10.5536
쎉ting❂20쎯tan❂62쎯	-10.5538
ta❃1쎯di❄13쎯	-10.5538
tu❂29쎯e❄25쎯	-10.5539
ni❃6쎯xiu❁9쎯	-10.554
chong❁7쎯ta❄40쎯	-10.5541
yi❃27쎯lai❂4쎯	-10.5543
cui❄14쎯cheng❂55쎯	-10.555
xiang❃9쎯song❁17쎯	-10.555
,tui❄1쎯	-10.555
cuo❁1쎯cha❂39쎯	-10.5551
tian❂38쎯guan❄42쎯	-10.5553
ge❃0쎯ge❃0쎯	-10.5556
xian❃58쎯mai❄10쎯(	-10.556
ding❁13쎯	-10.5564
jiao❄32쎯tu❂41쎯	-10.5567
ru❂3쎯	-10.5567
wang❂5쎯	-10.5575
《chuai❂1쎯bao❃14쎯	-10.5576
die❂112쎯	-10.558
he❂41쎯chao❃2쎯	-10.558
yu❂168쎯ge❁52쎯	-10.5582
ke❂0쎯guo❁28쎯	-10.5583
bi❄203쎯heng❂14쎯	-10.5585
tang❃12쎯yu❃64쎯	-10.5586
za❂20쎯	-10.5588
yan❄84쎯tang❁14쎯	-10.559
chan❃	-10.5591
qin❃20쎯	-10.5595
shi❂3쎯qian❂41쎯	-10.5596
ge❂52쎯weng❄6쎯	-10.5602
jing❄3쎯,	-10.5603
huan❂12쎯he❂47쎯	-10.5605
ting❂29쎯	-10.5607
xuan❁51쎯	-10.5608
xia❁0쎯dao❁4쎯.	-10.5609
;쎃	-10.5612
ke❁22쎯	-10.5614
chan❄17쎯sui❄48쎯	-10.5615
fu❄115쎯gou❄22쎯	-10.5615
gui❁61쎯쎁쎉nv❄4쎯	-10.5617
he❂41쎯ta❄99쎯	-10.5617
ke❁55쎯jia❂3쎯	-10.5619
guai❄14쎯jia❃10쎯	-10.5624
),ju❄55쎯shan❁17쎯	-10.5639
li❂109쎯jian❃45쎯	-10.564
》pao❂10쎯	-10.5641
di❁28쎯ke❂0쎯	-10.5643
쎁쎉쎄쎅mai❄10쎯	-10.5644
tian❄6쎯,	-10.5645
lv❄22쎯hui❄13쎯	-10.5646
qi❄26쎯	-10.5646
gui❄80쎯shan❁13쎯	-10.5648
jing❄3쎯ta❄99쎯	-10.5653
gui❁61쎯쎂쎂nv❄4쎯	-10.5654
se❄63쎯	-10.5657
,he❂41쎯	-10.5661
쎂쎀쎁쎄mai❄10쎯	-10.5663
ba❂20쎯gai❄1쎯	-10.5666
xian❃58쎯bing❃32쎯	-10.5667
ta❄103쎯zui❃13쎯:	-10.5671
ke❂0쎯bin❄9쎯	-10.5674
huan❂12쎯mo❄30쎯	-10.5675
xia❂	-10.5676
di❁32쎯qiong❂72쎯,	-10.5677
shi❃26쎯qu❁58쎯쎁쎀	-10.5677
,xuan❄33쎯	-10.5694
chan❄17쎯lang❁쎯	-10.5699
ge	-10.5701
gui❁61쎯쎅nv❄4쎯	-10.5701
ni❃23쎯)	-10.5701
:쎄	-10.5701
si❁14쎯	-10.5701
chan❃27쎯	-10.571
쎄.쎅	-10.571
e❄71쎯,	-10.5712
쎁쎉쎇쎁mai❄10쎯	-10.5713
fen❂2쎯:	-10.5715
chu❄26쎯	-10.5717
jing❃17쎯yan❂101쎯	-10.572
po❂4쎯	-10.5724
liang❃2쎯、fu❂142쎯	-10.5725
.쎀쎃	-10.5726
jiang❄2쎯jian❁60쎯	-10.5728
ti❁6쎯huo❄103쎯	-10.573
,dao❁7쎯gu❃74쎯	-10.5732
xing❄6쎯chong❁7쎯	-10.5737
du❄17쎯	-10.5739
bao❃14쎯chu❂41쎯	-10.5739
)(	-10.574
쎂쎄yin❂64쎯zhi❁70쎯	-10.5741
peng❂4쎯	-10.5745
yin❁30쎯dao❄17쎯,	-10.5746
weng❄6쎯yan❁34쎯	-10.5747
cha❁47쎯	-10.5748
ti❁6쎯ban❄6쎯	-10.5748
guan❁3쎯	-10.575
ying❁22쎯po❂7쎯	-10.575
wen❂24쎯qi❁61쎯	-10.5755
,hu❄84쎯	-10.5756
.쎀쎁	-10.5756
ti❁6쎯lv❄46쎯	-10.5757
-쎀쎁	-10.5758
zhuo❂66쎯cuo❁7쎯	-10.576
ta❄14쎯ya❁28쎯	-10.5762
zui❃2쎯	-10.5764
yu❃42쎯	-10.5765
а	-10.5765
san❃3쎯yin❂18쎯	-10.5766
、yan❃118쎯po❂9쎯	-10.5766
ben❃8쎯	-10.577
hao❂10쎯	-10.5775
lin❄21쎯	-10.5775
da❂60쎯se❄57쎯	-10.5783
ta❄61쎯ru❃9쎯	-10.5783
tan❂62쎯xiao❄35쎯	-10.5789
bin❄10쎯jian❃94쎯	-10.579
ou❃15쎯chong❁7쎯、	-10.5792
bo❁36쎯shuo❄33쎯	-10.5792
di❁28쎯,	-10.5793
fen❁39쎯ta❄99쎯	-10.5793
gui❄51쎯,	-10.5795
iao❁33쎯guang❁13쎯	-10.5795
ci❃11쎯zi❄22쎯	-10.5797
che❄10쎯	-10.5797
ji❂142쎯ti❂64쎯	-10.5801
hua❄17쎯lou❂31쎯	-10.5804
.huan❂12쎯shu❂7쎯	-10.5806
.쎂쎀쎀쎇mai❄10쎯	-10.5807
hui❄13쎯guan❄52쎯	-10.5811
“chuai❂1쎯ji❂169쎯	-10.5813
fan❁3쎯	-10.5814
jie❁27쎯	-10.5815
yi❂96쎯	-10.5817
qiu❂31쎯zou❁10쎯	-10.582
qie❄39쎯	-10.5824
zhi❁70쎯zui❄7쎯,	-10.5825
qiong❂27쎯.	-10.5827
ren❄6쎯yi❂157쎯	-10.5829
ke❃7쎯weng❄6쎯	-10.5832
hui❄13쎯huang❁19쎯	-10.5835
du❂72쎯xiong❂4쎯	-10.584
heng❂1쎯yu❂168쎯	-10.584
bu❄33쎯qiu❂80쎯.	-10.5842
dao❃8쎯	-10.5845
ke❂0쎯fu❂69쎯.	-10.5848
di❄13쎯rong❂58쎯	-10.585
zhe❄9쎯gu❄11쎯	-10.5851
lian❄	-10.5855
gao❃19쎯mi❄56쎯	-10.5857
쎅～	-10.5861
kao❄2쎯gai❄1쎯	-10.5866
shi❂3쎯guang❁13쎯	-10.5869
쎉쎀%	-10.5872
nan❂16쎯	-10.5876
chen❄8쎯qu❁21쎯	-10.5876
jian❁60쎯ke❂0쎯	-10.5877
ying❃29쎯gan❄31쎯	-10.5877
qin❁2쎯jiao❃86쎯	-10.588
ting❁0쎯zhan❄18쎯	-10.5884
ni❄14쎯》	-10.5886
chao❄12쎯wu❃9쎯、	-10.5889
pai❂4쎯zai❄7쎯	-10.589
쎁쎉쎅쎃mai❄10쎯	-10.5891
qu❁15쎯	-10.5891
쎅mai❄10쎯	-10.5892
du❄22쎯kao❄2쎯	-10.5895
du❂59쎯shan❁17쎯t	-10.5896
hui❄14쎯shu❂7쎯	-10.5897
gu❄11쎯jiao❃86쎯	-10.5901
ge❂52쎯tang❃12쎯	-10.5905
zhou❁8쎯	-10.5909
he❂41쎯guan❄42쎯	-10.5909
fu❄115쎯mo❄21쎯	-10.5909
shu❂7쎯ta❄40쎯	-10.5912
he❂41쎯hua❄17쎯	-10.5916
gui❁61쎯쎂쎄nv❄4쎯	-10.5918
yan❃2쎯wen❂24쎯	-10.5928
beng❄18쎯guai❄14쎯	-10.5928
kai❄1쎯gu❄11쎯	-10.5929
shuo❄33쎯ta❄40쎯	-10.5929
ng	-10.593
쎁ji❄99쎯,	-10.5932
qing❄17쎯yan❁34쎯	-10.5934
ji❄99쎯qi❁68쎯	-10.5937
yu❂78쎯	-10.5937
du❂72쎯bo❂79쎯、	-10.5938
hua❄0쎯qian❁63쎯	-10.5939
yong❁1쎯yu❄105쎯	-10.5939
xiang❂16쎯ju❄75쎯	-10.594
ta❄14쎯pie❄1쎯	-10.5942
ba❂11쎯qu❁21쎯	-10.5942
shuo❄33쎯ke❂0쎯	-10.5944
lao❄14쎯	-10.5945
bang❁16쎯sao❁28쎯	-10.5945
yan❂101쎯za❂8쎯	-10.595
ying❃29쎯yu❂112쎯,	-10.5951
,huan❂60쎯	-10.5959
guai❄14쎯pan❂20쎯	-10.5959
yu❄105쎯ao❂8쎯	-10.5963
gui❁61쎯쎆nv❄4쎯	-10.5969
shuo❄33쎯、	-10.5973
huo❄21쎯	-10.5975
sui❄66쎯po❄2쎯	-10.5977
qi❁12쎯lang❃10쎯	-10.5978
kao❄2쎯gu❄16쎯	-10.598
yi❄239쎯hua❂3쎯	-10.5981
.tai❂30쎯	-10.5985
zhuo❂66쎯jin❃18쎯	-10.5986
mei❂58쎯tiao❄9쎯	-10.5988
.shi❁69쎯ming❂14쎯	-10.5988
heng❂22쎯fan❁19쎯	-10.599
e❂47쎯	-10.5991
hong❂77쎯、	-10.5991
zong❄14쎯wen❂24쎯	-10.5995
qi❂100쎯po❂9쎯	-10.5997
jiao❁24쎯	-10.5997
ze❂56쎯biao❁11쎯	-10.5998
wai❁3쎯ru❃9쎯	-10.5999
lv❄46쎯li❄196쎯	-10.5999
teng❂24쎯ji❄23쎯	-10.6001
bu❄62쎯heng❂14쎯	-10.6004
li❂109쎯chong❁7쎯	-10.6007
cha❄12쎯zhou❄28쎯	-10.6008
yi❂114쎯qiao❄13쎯	-10.6008
mo❄20쎯	-10.6009
huo❄13쎯lin❂58쎯	-10.601
xun❂4쎯	-10.601
,li❄196쎯ku❃2쎯	-10.6011
ji❄99쎯shu❂7쎯	-10.6013
.”dun❄22쎯	-10.6016
.la❄1쎯qu❁21쎯,	-10.6017
ke❁32쎯xin❁3쎯	-10.6017
qi❂76쎯fu❁45쎯	-10.6018
e❄25쎯,	-10.6019
dian❄21쎯ge❂69쎯	-10.6019
du❄29쎯ku❃2쎯	-10.6025
lv❄22쎯gui❄72쎯	-10.6027
lian❂3쎯mai❄10쎯	-10.6027
쎁쎉쎄쎀mai❄10쎯	-10.6035
xi❄4쎯po❂9쎯	-10.6035
xian❁15쎯	-10.6036
nan❂30쎯chuai❂1쎯	-10.6037
쎁.쎆	-10.604
chu❂0쎯kuai❃3쎯	-10.604
tian❄3쎯qi❂124쎯	-10.6043
gui❄81쎯	-10.6044
gao❄16쎯ru❃9쎯	-10.6045
gui❁61쎯쎁쎁nv❄4쎯	-10.6045
.쎂쎀쎁쎀mai❄10쎯	-10.6047
yao❃12쎯gu❃15쎯.	-10.6056
dang❄28쎯gan❄4쎯	-10.6062
qu❂96쎯,	-10.6064
cai❂13쎯ta❄99쎯	-10.6064
,쎁쎈	-10.6065
ru❃9쎯yong❃30쎯	-10.6067
cheng❃6쎯	-10.6068
chu❂46쎯	-10.6068
tian❂18쎯tai❄4쎯	-10.6069
ruo❄10쎯fen❃3쎯	-10.6073
쎂qin❁2쎯	-10.6077
xu❁37쎯zhu❄17쎯	-10.6077
.쎁、	-10.6079
75쎯	-10.6079
ju❄75쎯sui❄32쎯	-10.6085
zhao❄37쎯ji❄53쎯	-10.6093
yi❂114쎯leng❄1쎯	-10.6094
쎁.쎈	-10.6095
xian❃58쎯.	-10.6096
zhi❂5쎯tang❃12쎯	-10.6099
ge❁8쎯	-10.61
zai❁7쎯	-10.61
쎂mai❄10쎯	-10.6101
lou❁0쎯ru❃9쎯	-10.6101
ou❂2쎯	-10.6102
쎄쎈쎀	-10.6103
ti❁6쎯zao❃12쎯	-10.6104
gan❃23쎯po❂9쎯	-10.6105
qi❂119쎯	-10.6106
tu❃0쎯fen❂36쎯	-10.6106
hui❄63쎯ke❁8쎯	-10.6108
bo❂109쎯zuo❄9쎯	-10.6109
gui❁61쎯쎉nv❄4쎯	-10.6111
wei❄92쎯	-10.6113
yu❂139쎯shu❄47쎯	-10.6113
yu❁17쎯,	-10.6116
qian❂64쎯luo❂2쎯	-10.612
,fu❃16쎯nei❃8쎯	-10.6123
),yi❂125쎯	-10.6125
tai❄4쎯.	-10.6129
zhang❄20쎯bi❄70쎯	-10.6134
ren❄6쎯qu❁21쎯	-10.6134
lian❂9쎯zui❃13쎯	-10.6136
liu❂57쎯	-10.6138
nao❂35쎯dun❄26쎯	-10.6138
ji❁27쎯	-10.6142
wu❄72쎯	-10.6143
ti❁6쎯fu❂70쎯	-10.6146
쎉gui❁61쎯qiao❂3쎯	-10.6146
li❂109쎯shi❂1쎯	-10.6148
.쎁쎀	-10.6151
yuan❂87쎯gui❄80쎯	-10.6153
che❄20쎯gun❃2쎯	-10.6155
gui❁61쎯쎁쎇nv❄4쎯	-10.6159
qia❃1쎯shao❄3쎯	-10.616
,zhuo❂17쎯yi❄267쎯	-10.6162
tui❄1쎯pan❂20쎯	-10.6162
yan❃2쎯ru❃9쎯	-10.6164
dong❄41쎯nan❂30쎯	-10.6164
◎	-10.6165
qiong❂33쎯	-10.6166
yu❁17쎯biao❁11쎯	-10.6166
cao❂21쎯	-10.6167
jue❂189쎯	-10.6167
qian❂41쎯ru❃9쎯	-10.617
li❄233쎯ni❂36쎯	-10.617
nie❄104쎯you❄42쎯	-10.617
cheng❁27쎯fen❃3쎯	-10.6174
jiu❃14쎯	-10.6174
man❄9쎯shuo❄33쎯	-10.6178
liu❄18쎯	-10.6178
wan❃31쎯xiao❂15쎯	-10.6186
tuo❁11쎯chan❁26쎯	-10.6187
,ping❂6쎯	-10.6187
bi❄203쎯huang❁19쎯	-10.619
li❄196쎯lou❁0쎯	-10.6191
wan❃31쎯qiao❄13쎯,	-10.6195
reng❂4쎯zhi❁70쎯	-10.6195
lei❄36쎯heng❂4쎯	-10.6203
lv❄22쎯che❄20쎯	-10.6205
ta❃6쎯xi❄4쎯	-10.6207
hu❃15쎯xian❃58쎯,	-10.621
pu❂16쎯zhi❁70쎯	-10.6214
fa❁1쎯	-10.6215
du❂72쎯huo❄13쎯	-10.622
ze❂3쎯ren❄0쎯	-10.6221
-쎁쎈	-10.6225
shi❃26쎯qu❁58쎯쎁	-10.6226
xun❂38쎯luo❂2쎯	-10.6226
shu❁71쎯	-10.623
쎁쎉쎃쎈mai❄10쎯	-10.6232
xiao❂15쎯ru❃9쎯	-10.6232
lu❄81쎯lei❃30쎯	-10.6238
쎁쎂쎅	-10.6239
ji❃	-10.6246
qiong❂72쎯yi❂157쎯	-10.6248
hui❄106쎯	-10.6249
huang❁14쎯zi❄22쎯	-10.625
wan❂21쎯xi❁243쎯	-10.6251
,xi❄31쎯qu❂96쎯	-10.6253
zi❃28쎯xu❄33쎯	-10.6256
qiao❂8쎯qian❂27쎯	-10.6256
xi❄13쎯gui❁56쎯	-10.6257
za❁23쎯biao❄8쎯	-10.6262
kai❃13쎯gu❃32쎯	-10.6263
quan❁4쎯la❄1쎯	-10.6263
yin❂	-10.6264
쎀쎀e❄71쎯,	-10.6267
kai❄8쎯sai❄5쎯	-10.6268
an❃0쎯yin❂18쎯	-10.6268
쎁쎉쎉쎅	-10.6269
chuai❂1쎯lve❄5쎯	-10.627
jiang❁7쎯qu❂72쎯	-10.627
lv❄32쎯qi❄22쎯	-10.6272
wan❃31쎯wan❃31쎯.	-10.6272
xiang❄24쎯yan❁34쎯	-10.6273
zhi❃58쎯zhong❃8쎯	-10.6275
gun❄4쎯,	-10.6279
ni❂37쎯zao❃14쎯	-10.6282
,qu❁58쎯ju❃38쎯	-10.6282
ji❄99쎯chan❄19쎯	-10.6282
jian❄83쎯	-10.6285
tuo❁11쎯tuo❃10쎯	-10.6285
fu❂78쎯zao❃12쎯	-10.6289
pu❂16쎯ye❄58쎯	-10.6291
zhi❄122쎯wu❃49쎯	-10.6291
qiao❂24쎯wei❂17쎯	-10.6291
gun❃2쎯za❂8쎯	-10.6291
po❄2쎯yu❁17쎯	-10.6292
쎈쎀mai❄10쎯ke❁55쎯	-10.6295
yi❂125쎯zao❃14쎯	-10.6295
rou❂19쎯jian❃94쎯	-10.6297
shao❄3쎯tu❂52쎯	-10.6297
gou❁0쎯	-10.6299
lu❂15쎯ling❂158쎯	-10.6304
qiao❁	-10.6305
dui❄4쎯	-10.6307
shi❃26쎯guai❄14쎯	-10.6311
lian❂47쎯	-10.6311
gu❃15쎯,	-10.6314
cai❂13쎯mang❂42쎯	-10.6318
bei❄16쎯gou❄22쎯:	-10.632
fu❄31쎯gui❄20쎯da	-10.6321
쎁쎉쎃쎅mai❄10쎯	-10.6321
.쎂쎀쎀쎅mai❄10쎯	-10.6322
쎃쎆쎀	-10.6323
tai❄4쎯ji❄99쎯	-10.6327
zai❄7쎯yao❃12쎯	-10.6328
jiu❃14쎯bian❃6쎯	-10.6331
guang❄1쎯	-10.6333
wan❃49쎯	-10.6334
meng❂67쎯yan❃118쎯	-10.6335
nuo❂15쎯	-10.6335
li❄215쎯	-10.6335
li❂109쎯zhe❂33쎯	-10.6338
mie❁5쎯	-10.6338
fu❂142쎯ji❄99쎯	-10.6344
dao❄17쎯zhe❂33쎯	-10.6347
xing❄6쎯gan❄31쎯	-10.6352
bi❄103쎯ban❄6쎯	-10.6359
lei❂35쎯zhan❁48쎯	-10.6361
nie❄82쎯ta❃6쎯	-10.6365
qu❂72쎯,	-10.6367
da❂60쎯xian❃58쎯,	-10.6372
21쎯du❂72쎯pi❁22쎯	-10.6373
mai❄10쎯kai❁11쎯	-10.6378
qi❂5쎯huang❁19쎯	-10.6379
쎈)	-10.6383
li❂122쎯fu❂70쎯	-10.6383
xuan❃2쎯	-10.6384
ying❁61쎯	-10.6389
쎁쎀쎈	-10.639
rong❂44쎯bu❄62쎯	-10.6391
qi❁68쎯tuo❄6쎯	-10.6391
chou❁18쎯	-10.6396
jie❂150쎯xiao❄14쎯	-10.6397
cai❂13쎯wa❁0쎯	-10.6397
chu❃18쎯gui❄73쎯	-10.6398
.쎁쎁	-10.6399
chi❄98쎯	-10.64
can❄15쎯ze❂49쎯	-10.64
tong❂23쎯ce❄32쎯	-10.6404
jiao❁57쎯	-10.6406
쎁쎂쎀쎀	-10.6408
64쎯	-10.6408
쎅、	-10.6411
po❂9쎯.	-10.6413
lang❄0쎯zhi❁70쎯	-10.6415
xuan❄33쎯li❂122쎯	-10.6415
쎀쎀쎀	-10.6415
ti❁6쎯ke❂0쎯	-10.6415
mang❂20쎯qian❁6쎯	-10.642
3쎯dan❁11쎯.	-10.642
쎁쎉쎃쎄mai❄10쎯	-10.6421
zhe❂33쎯lin❂58쎯	-10.6421
bi❄263쎯po❂7쎯	-10.6422
die❂112쎯yin❂3쎯	-10.6424
cong❂42쎯sui❄30쎯	-10.6427
an❁35쎯	-10.6429
gun❃24쎯mi❄56쎯	-10.643
qu❁21쎯qu❂96쎯	-10.643
쎁쎃쎀	-10.6435
nie❄85쎯bu❄33쎯	-10.6437
,hui❂17쎯da❁11쎯	-10.644
❂87쎯	-10.6441
쎁쎄쎀	-10.6442
쎁쎉쎃쎆mai❄10쎯	-10.6442
qing❄17쎯dan❁11쎯.	-10.6443
yin❂0쎯ji❄23쎯	-10.6444
3쎯ping❂44쎯mi❄56쎯	-10.6444
fan❃2쎯	-10.6444
zha❄26쎯jue❂189쎯	-10.6445
xie❂15쎯pi❂60쎯	-10.6445
쎁쎉쎆쎁mai❄10쎯	-10.6447
heng❁6쎯	-10.6449
yi❄220쎯	-10.6451
keng❁6쎯	-10.6453
wu❃9쎯cheng❄8쎯	-10.6454
lan❄17쎯huo❄13쎯	-10.6461
ding❄19쎯yi❄313쎯	-10.6463
zai❄7쎯guai❄14쎯	-10.6464
zi❁103쎯	-10.6467
huo❄45쎯ke❁8쎯,쎁쎉쎆	-10.6471
lin❂58쎯shuo❄33쎯	-10.6472
chi❃13쎯	-10.6472
zhong❁24쎯yi❂125쎯	-10.6476
쎁쎂di❄13쎯	-10.6477
pai❂4쎯ta❄99쎯	-10.6477
yin❂18쎯zi❁34쎯	-10.6478
lu❄79쎯she❄18쎯	-10.6484
----	-10.6493
yu❂65쎯shi❄63쎯	-10.6493
fu❂70쎯,	-10.6493
da❂60쎯hua❁5쎯	-10.65
쎈qin❁2쎯	-10.6502
tui❄1쎯zhuan❄29쎯	-10.6502
en❁5쎯zhe❂33쎯	-10.6503
da❂56쎯	-10.6506
xing❄6쎯di❃18쎯	-10.6506
tun❄0쎯fu❁14쎯	-10.6507
qian❂27쎯,	-10.6508
meng❂67쎯die❂9쎯	-10.6511
yin❁30쎯dao❄17쎯、	-10.6513
chang❂1쎯	-10.6514
gui❁61쎯쎁쎄nv❄4쎯	-10.6514
wu❃12쎯qi❄60쎯	-10.6519
zhong❃10쎯ta❄40쎯	-10.6519
zhi❄223쎯	-10.6522
chan❃1쎯	-10.6527
mang❂20쎯》	-10.653
쎃gou❃8쎯	-10.653
.pu❂0쎯们	-10.6532
pai❄3쎯fan❂20쎯	-10.6532
,huan❂12쎯he❂47쎯	-10.6534
쎁쎉쎉쎃	-10.6534
ru❄11쎯qing❁21쎯	-10.6534
du❂72쎯ning❂14쎯	-10.6535
huo❄45쎯ba❂2쎯	-10.6535
yi❂27쎯ren❄0쎯	-10.6537
qi❁61쎯zhuo❂9쎯	-10.6538
hong❄5쎯dian❃2쎯	-10.654
hu❂113쎯	-10.6543
jue❂158쎯	-10.6546
bi❃37쎯	-10.6553
lang❁쎯ka❃5쎯	-10.6554
tou❄5쎯nv❄4쎯	-10.6555
.ruan❄2쎯ta❄40쎯	-10.6557
bo❁6쎯cai❃16쎯	-10.6557
zhong❃10쎯shu❃12쎯	-10.6558
yuan❂87쎯han❄48쎯	-10.6558
kui❂49쎯ji❁180쎯	-10.656
jun❄24쎯zuo❂8쎯	-10.6565
gui❄80쎯ke❁8쎯	-10.6566
cheng❂14쎯.	-10.6568
dun❄22쎯zhong❃8쎯	-10.657
juan❄33쎯	-10.6571
zhi❁25쎯na❄6쎯	-10.6572
-쎂쎀	-10.6574
zhu❃4쎯	-10.6577
zi❁86쎯	-10.658
mi	-10.6582
tan❂	-10.6582
ke❁12쎯wu❁27쎯	-10.6583
cou❄6쎯suo❁6쎯	-10.6583
쎅쎀쎀e❄25쎯	-10.6583
tong❂	-10.6584
xu❄61쎯cou❄6쎯	-10.659
zan❁1쎯,	-10.6593
gui❁61쎯쎁쎃nv❄4쎯	-10.6594
ji❂25쎯	-10.6597
zou❁3쎯	-10.661
bi❄235쎯er❂19쎯“	-10.6624
ren❄6쎯,li❂122쎯	-10.6626
meng❂67쎯xi❄35쎯	-10.6627
you❄20쎯qi❁74쎯	-10.6628
lin❂58쎯guan❄42쎯	-10.6631
qiao❂8쎯fu❄115쎯	-10.6633
zhu❄30쎯	-10.6633
ta❃1쎯mie❁4쎯	-10.6635
ju❂85쎯hui❄13쎯	-10.6635
쎁쎉쎄쎁mai❄10쎯	-10.6635
li❂122쎯jiao❃86쎯	-10.6638
wu❃49쎯쎃	-10.6642
bi❄103쎯lin❂58쎯	-10.6648
liu❂10쎯jin❃18쎯	-10.6651
ta❄46쎯	-10.6651
.dao❁7쎯gu❃74쎯	-10.6651
min❃35쎯ran❃21쎯	-10.6651
heng❂22쎯ju❄62쎯	-10.6658
qiu❂45쎯zhi❂5쎯	-10.6661
qu❂72쎯qu❂96쎯	-10.6662
cui❄48쎯yi❂125쎯	-10.6663
han❄48쎯zai❄7쎯	-10.6664
mo❄35쎯wen❂2쎯	-10.6664
za❂8쎯ba❂11쎯	-10.6664
”huang❁19쎯qin❁2쎯	-10.6666
lv❄22쎯jiao❃86쎯	-10.6667
쎁쎅e❄25쎯	-10.6669
hui❄13쎯shi❃11쎯	-10.6675
fan❂20쎯tan❂62쎯	-10.6675
nie❄82쎯xian❃58쎯	-10.6676
ou❃15쎯chong❁7쎯.	-10.6678
쎀.쎆	-10.6678
、yu❃64쎯	-10.6679
hong❂0쎯gan❄4쎯	-10.6681
he❂41쎯zhu❁14쎯	-10.6681
rui❂1쎯su❁17쎯	-10.6684
shu❂7쎯dang❁1쎯	-10.6685
쎁쎉쎄쎂mai❄10쎯	-10.6686
,gu❁29쎯qia❂0쎯	-10.6686
ke❃12쎯ou❂2쎯	-10.6701
wan❃31쎯yong❃35쎯	-10.6702
-쎁쎂	-10.6702
ne❄6쎯ji❂169쎯	-10.6702
zi❁89쎯	-10.6702
쎂쎀쎀쎂	-10.6703
hu❂61쎯	-10.6708
kuai❃3쎯zi❃28쎯	-10.6714
qiong❂66쎯hao❄30쎯	-10.6714
chu❂0쎯ju❄21쎯	-10.6715
jian❃94쎯、yu❃64쎯	-10.6716
쎃쎀e❄25쎯	-10.6716
qiong❂66쎯luo❂2쎯,	-10.6721
.bi❄203쎯gun❄4쎯	-10.6722
duo❄40쎯	-10.6723
.zeng❁7쎯	-10.6727
nie❄81쎯shu❂7쎯	-10.6734
67쎯	-10.6737
gui❁61쎯쎃nv❄4쎯	-10.6737
mi❄56쎯xu❄33쎯	-10.6747
long❂72쎯ren❄0쎯	-10.6749
gui❁40쎯	-10.6749
lv❄22쎯guo❃24쎯	-10.675
.di❃18쎯li❄196쎯	-10.6751
ju❁71쎯	-10.6755
ni❃32쎯sui❄83쎯	-10.6756
xi❁173쎯lin❂62쎯	-10.6757
о	-10.6758
fei❄	-10.6761
wu❄3쎯ji❄99쎯	-10.6763
kui❄22쎯ji❄23쎯	-10.6767
chao❁21쎯	-10.6768
lv❄22쎯shi❃26쎯	-10.6774
ta❄60쎯	-10.6774
tan❂63쎯jian❃94쎯	-10.6775
wan❃31쎯)	-10.6775
ye❄50쎯dan❁40쎯	-10.6776
zhuo❂8쎯	-10.6777
ping❂44쎯weng❄4쎯	-10.6777
run❄7쎯	-10.6777
쎀쎉-	-10.678
cai❃16쎯ao❁7쎯	-10.6782
zhi❂16쎯ci❄34쎯	-10.6782
zang❁0쎯xiong❄12쎯	-10.6784
a❁8쎯	-10.6784
qu❁21쎯e❄60쎯	-10.6785
fu❂146쎯	-10.6787
sou❁7쎯	-10.6788
nie❄85쎯chou❂58쎯	-10.6788
쎁쎉쎄쎈mai❄10쎯	-10.6788
guo❃24쎯tan❂62쎯	-10.6789
lin❂58쎯shi❃26쎯	-10.6789
wei❂73쎯,	-10.679
ying❃29쎯guang❄1쎯	-10.6791
쎁쎉쎄쎄mai❄10쎯	-10.6792
li❄96쎯	-10.6792
shan❄29쎯guo❂1쎯	-10.6795
》ji❄99쎯yi❂27쎯	-10.6796
guai❄14쎯qiu❁23쎯	-10.6796
쎇)	-10.6801
na❄51쎯	-10.6802
teng❂24쎯e❄25쎯	-10.6806
qian❁30쎯jian❃4쎯	-10.6807
shi❄139쎯gan❁55쎯	-10.6809
cou❄6쎯luo❂2쎯,	-10.6809
zhu❄42쎯lou❂0쎯	-10.681
zhi❁56쎯ji❁125쎯	-10.6812
guai❄14쎯qu❂96쎯	-10.6816
shi❄63쎯bi❄70쎯	-10.6817
chan❁26쎯xie❂16쎯	-10.6824
쎃쎅쎀	-10.6825
쎁쎉쎃쎃mai❄10쎯	-10.6828
tang❂13쎯ce❄9쎯	-10.6829
di❁15쎯	-10.6829
hao❃0쎯	-10.683
ta❃6쎯,	-10.683
lou❂5쎯	-10.6831
bu❄62쎯xiong❂4쎯	-10.6831
wan❃31쎯lv❄46쎯	-10.6836
tang❂13쎯luo❂2쎯	-10.6837
,pai❂4쎯	-10.6837
pi❄20쎯huo❁1쎯	-10.6839
쎀.쎄	-10.6841
ya❄4쎯们	-10.6841
sui❄32쎯shao❃5쎯	-10.6843
dian❄40쎯zu❂29쎯	-10.6844
li❄270쎯chan❂50쎯	-10.6845
lv❄22쎯nao❃8쎯	-10.6846
tai❂18쎯	-10.6849
dai❄25쎯qu❂96쎯	-10.6851
wan❁23쎯zu❃10쎯	-10.6851
heng❂22쎯xian❃15쎯	-10.6851
xie❄139쎯	-10.6851
yu❁17쎯xu❁78쎯	-10.6853
yi❄72쎯	-10.6854
lie❄86쎯li❂109쎯	-10.6858
meng❂67쎯dun❄22쎯	-10.6859
tao❁32쎯shuo❄33쎯	-10.6864
lou❂0쎯jin❃18쎯	-10.6866
jie❂141쎯	-10.6867
ti❃10쎯nie❄82쎯,	-10.6868
ju❂85쎯sa❄42쎯	-10.6871
ru❂24쎯	-10.6877
bao❄30쎯	-10.6877
chi❄44쎯	-10.6878
mang❂20쎯gan❄30쎯.	-10.6882
쎅°C	-10.6885
bie❁11쎯	-10.6886
ce❄5쎯	-10.6888
e❄71쎯;li❂122쎯	-10.689
shu❄59쎯mo❄30쎯	-10.6892
shi❃11쎯da❁11쎯	-10.6892
hui❁56쎯	-10.6894
sui❁25쎯	-10.6894
luo❃	-10.6896
),ba❂2쎯	-10.6897
cuo❁1쎯sui❄32쎯	-10.6902
ji❂19	-10.6905
(xu❁37쎯tan❃20쎯	-10.691
ying❃29쎯ding❄19쎯	-10.691
zi❃15쎯dao❃4쎯	-10.6912
meng❃9쎯yi❂108쎯	-10.6913
lu❄144쎯lie❃4쎯	-10.6916
cuan❄14쎯	-10.6917
zha❁8쎯hu❁58쎯	-10.6917
mao❃16쎯	-10.6918
su❄13쎯ni❃32쎯	-10.6919
qing❄17쎯zan❁0쎯	-10.6922
jie❂129쎯li❄270쎯	-10.6922
ai❂5쎯tuo❄6쎯	-10.6922
bin❄2쎯feng❂14쎯	-10.6923
jiang❄20쎯zang❁0쎯	-10.6924
pang❂5쎯chao❁16쎯	-10.6924
,yi❂125쎯quan❁4쎯	-10.6924
dou❁5쎯	-10.6924
,dai❄25쎯lu❃23쎯	-10.6929
shan❁17쎯chao❁16쎯	-10.693
guo❃24쎯gan❄4쎯	-10.6931
mu❃11쎯gao❄5쎯	-10.6932
、que❄5쎯	-10.6933
lai❂4쎯ji❂169쎯	-10.694
:쎉	-10.6944
jing❁58쎯lang❃3쎯	-10.6944
la❁6쎯yin❂18쎯	-10.6946
3	-10.6947
chong❁7쎯ni❂13쎯	-10.6948
ke❂0쎯hun❄30쎯	-10.695
쎁쎉쎉쎀	-10.6951
ci❃13쎯ji❂66쎯	-10.6952
huang❃5쎯	-10.6953
yao❂15쎯mu❄44쎯	-10.6953
hua❂3쎯chu❄6쎯	-10.6955
fan❁19쎯ke❂0쎯	-10.6962
liu❂10쎯tang❂13쎯	-10.6963
kong❃5쎯chang❄9쎯	-10.6965
nie❄119쎯zhu❁34쎯	-10.6965
kun❄2쎯	-10.6968
-쎁쎆	-10.6969
.dai❄25쎯lu❃23쎯	-10.6971
wang❃8쎯、	-10.6971
gua❃0쎯wen❂24쎯	-10.6972
ju❄25쎯qian❂41쎯	-10.6972
cui❄48쎯po❂7쎯	-10.6972
쎁쎀쎅	-10.6975
shi❄8쎯luo❂2쎯	-10.6977
、yan❂41쎯ying❃29쎯	-10.6978
chu❄45쎯fu❂70쎯,	-10.6982
ke❄4쎯	-10.6984
cha❂6쎯wu❄3쎯	-10.6985
qiao❄13쎯”	-10.6986
jue❂193쎯	-10.6987
,di❃18쎯li❄196쎯	-10.6988
ji❄169쎯	-10.6991
ti❃10쎯qu❂57쎯	-10.6991
yi❄106쎯zhi❁25쎯	-10.6993
fu❂142쎯she❄9쎯	-10.6994
e❄15쎯	-10.6996
kai❁11쎯dou❄30쎯	-10.6998
cai❁7쎯zhi❁0쎯	-10.6999
,wan❃0쎯ai❄32쎯	-10.7
si❁15쎯	-10.7005
ba❂11쎯he❂41쎯	-10.7006
쎂gou❃8쎯	-10.7006
fan❄23쎯	-10.7009
,quan❂54쎯zuo❄4쎯	-10.7009
.lu❃20쎯kai❁11쎯,	-10.701
gou❁19쎯	-10.7011
yang❄4쎯chu❄45쎯	-10.7013
zhan❄	-10.7014
ke❂0쎯xiao❄35쎯	-10.7015
xu❁78쎯yu❄68쎯、	-10.7019
,쎁쎉쎈쎄mai❄10쎯	-10.7019
li❂122쎯ji❄99쎯	-10.702
ba❂20쎯lu❄79쎯	-10.702
liu❄23쎯jiao❁33쎯	-10.7021
jian❁60쎯tang❂13쎯	-10.7024
cha❄29쎯pin❁6쎯.	-10.7024
bing❁11쎯chong❁7쎯	-10.7024
tian❄3쎯dian❄21쎯	-10.7026
쎁쎉쎅쎁mai❄10쎯	-10.7034
pai❄3쎯	-10.7035
56쎯	-10.7035
yan❃2쎯bao❁15쎯	-10.7036
ran❂11쎯niao❃28쎯	-10.7037
diao❁40쎯lv❄46쎯	-10.704
xia❂34쎯	-10.7044
bian❁28쎯	-10.7045
쎁쎉쎉쎂	-10.7045
rou❂25쎯le❄11쎯	-10.7045
shi❃26쎯bin❄2쎯	-10.7047
tou❄5쎯gou❃8쎯	-10.7048
ji❄193쎯shan❁27쎯	-10.7049
deng❄6쎯qiu❂80쎯	-10.705
jiao❃86쎯,	-10.7052
ting❂20쎯ci❄36쎯	-10.7054
shan❄7쎯sou❃8쎯	-10.7057
she❄9쎯쎄	-10.7057
ti❁6쎯zong❄14쎯	-10.7058
tan❂62쎯she❄18쎯,	-10.7058
ji❁84쎯lou❂0쎯	-10.7062
,gu❃72쎯mi❄56쎯	-10.7062
ji❄99쎯、	-10.7064
zuo❂8쎯ba❂2쎯	-10.7066
yi❄381쎯li❂122쎯	-10.7069
tiao❂9쎯	-10.7071
쎀*	-10.7072
duan❁11쎯wan❃47쎯	-10.7073
ou❃5쎯li❄270쎯	-10.7075
nie❄85쎯yi❂125쎯	-10.7076
run❄9쎯	-10.7077
tao❁10쎯chong❁7쎯	-10.7078
kou❄3쎯	-10.7079
lai❂4쎯ke❁8쎯	-10.7081
tian❄11쎯li❄196쎯“	-10.7084
ni❃34쎯ku❁10쎯	-10.7085
mang❂20쎯yu❂72쎯	-10.7085
nan❂3쎯xian❄58쎯	-10.7089
쎁.쎄	-10.7091
jiao❄32쎯ji❄99쎯	-10.7093
쎁쎉쎄쎆mai❄10쎯	-10.7094
nie❄82쎯yang❂13쎯	-10.7098
gu❄7쎯guo❂2쎯	-10.7098
쎁쎆쎀쎀	-10.7099
쎃、	-10.71
tu❂39쎯	-10.7105
wei❁39쎯duan❁3쎯	-10.711
nuo❄6쎯yu❄99쎯	-10.7111
ban❄	-10.7111
yi❂125쎯gun❃24쎯	-10.7113
cha❄32쎯、	-10.7116
wu❃9쎯xie❂19쎯	-10.7122
li❂126쎯ping❂53쎯	-10.7124
xia❄15쎯	-10.7126
ao❁7쎯bi❄70쎯ru❃9쎯	-10.7129
tong❄5쎯	-10.7131
li❂122쎯jiao❄32쎯	-10.7132
.쎂쎀쎀쎄mai❄10쎯	-10.7132
chao❄12쎯xu❄36쎯	-10.7134
,ta❄40쎯yi❂125쎯	-10.7137
zai❄7쎯han❄19쎯	-10.7138
san❃7쎯yu❂68쎯	-10.7138
pai❂4쎯qu❂96쎯,	-10.7143
du❂72쎯huang❁14쎯	-10.7148
ti❃10쎯lve❄25쎯,	-10.7148
fen❁39쎯zai❄7쎯	-10.7148
sui❄66쎯li❄196쎯	-10.715
ting❂20쎯ji❄23쎯	-10.7153
zan❁0쎯jian❁41쎯	-10.7157
hui❄13쎯ling❂33쎯	-10.7164
jiang❄1쎯feng❄14쎯	-10.7165
shao❃0쎯chuai❂1쎯	-10.7171
e❄122쎯	-10.7171
.hun❂15쎯li❄196쎯	-10.7172
ping❂53쎯ai❄34쎯.	-10.7174
xun❁20쎯ci❄36쎯	-10.7176
zou❄0쎯sui❄30쎯	-10.7176
ci❃11쎯xia❄4쎯	-10.7178
kai❃13쎯wu❃9쎯、l	-10.718
qu❂96쎯.	-10.7181
fen❁39쎯huo❄45쎯	-10.7182
dun❁2쎯	-10.7182
beng❄8쎯li❂122쎯	-10.7185
,zhong❃8쎯	-10.7186
gui❁61쎯쎂nv❄4쎯	-10.7186
sha❁33쎯	-10.7187
you❂50쎯	-10.7187
fen❂10쎯zhi❂4쎯	-10.7187
xian❃40쎯kong❃2쎯	-10.7188
mai❄10쎯gan❄4쎯	-10.719
kang❂쎯hu❂119쎯	-10.7194
gui❁61쎯쎄nv❄4쎯	-10.7195
yao❃12쎯kong❃2쎯	-10.7197
qin❂39쎯zhe❂33쎯	-10.7199
ju❃12쎯ti❁6쎯ru❃9쎯	-10.72
na❄2쎯lao❂6쎯	-10.7201
er❃7쎯qiao❂8쎯	-10.7202
tuo❁11쎯chen❂53쎯	-10.7202
pao❃0쎯、	-10.7203
fu❄114쎯shao❃0쎯	-10.7204
xi❄4쎯zhi❂5쎯	-10.7204
nv❄4쎯yao❃2쎯	-10.7206
di❃21쎯qin❁2쎯	-10.721
fu❂166쎯gun❄4쎯	-10.7211
qin❂5쎯lian❂3쎯	-10.7214
nv❄4쎯fen❂2쎯	-10.722
sa❄26쎯he❂115쎯	-10.7221
(쎃	-10.7222
shi❃26쎯pu❂16쎯	-10.7224
dao❃0쎯ru❃0쎯	-10.7225
qin❂39쎯jian❃4쎯	-10.7225
쎂e❄25쎯	-10.7229
la❄52쎯po❂7쎯	-10.7229
dian❃2쎯meng❂67쎯	-10.723
xie❄73쎯	-10.7232
huo❄60쎯yan❄15쎯	-10.7233
mei❃1쎯	-10.7235
ga❄4쎯zu❂29쎯	-10.7236
ping❂47쎯	-10.7237
qi❃18쎯cong❁69쎯	-10.7238
ji❄99쎯yi❂27쎯.	-10.724
ta❄99쎯hu❂71쎯	-10.7242
쎁쎉쎉쎄	-10.7242
pai❂4쎯nie❄82쎯	-10.7243
mi❄56쎯han❂12쎯	-10.7244
du❂72쎯qing❄17쎯	-10.7247
heng❂14쎯tong❂62쎯	-10.7252
ni❃4쎯fen❁39쎯	-10.7258
chi❃46쎯	-10.7269
kong❃5쎯dun❄22쎯	-10.7271
쎂ji❄99쎯,	-10.7272
и	-10.7273
,zhuan❁18쎯	-10.7275
chuai❂1쎯zui❄7쎯	-10.7277
jian❁100쎯yao❃12쎯	-10.7279
meng❃9쎯meng❃9쎯	-10.7281
mai❄10쎯shuo❄33쎯	-10.7283
qu❂61쎯	-10.7284
cheng❂55쎯mi❄56쎯	-10.7285
xuan❄29쎯shan❁13쎯	-10.729
can❄7쎯hui❄111쎯	-10.7294
jia❁36쎯li❂122쎯	-10.7295
,li❂122쎯zhi❁70쎯	-10.7295
쎄쎀쎀쎀	-10.7296
bao❁	-10.7296
jian❁	-10.7297
zhi❁56쎯ya❁28쎯	-10.7298
zhe❂33쎯shang❁17쎯	-10.7299
:‘	-10.7299
ru❃9쎯ze❂3쎯di❃18쎯	-10.7301
che❄42쎯yan❂101쎯	-10.7308
lan❃	-10.7308
ju❂25쎯luo❂2쎯,	-10.7309
,yan❃2쎯chao❁16쎯	-10.7309
li❄270쎯xing❄6쎯	-10.731
mao❃16쎯he❄28쎯	-10.7311
,zhi❁25쎯za❂8쎯	-10.7312
yi❂125쎯zhe❂33쎯	-10.7312
hui❁34쎯ru❃0쎯	-10.7313
guan❄48쎯yin❂39쎯	-10.7317
diao❃11쎯yang❂13쎯	-10.7317
chi❁14쎯po❄2쎯	-10.732
쎁쎉쎃쎀mai❄10쎯	-10.7321
zi❃28쎯tan❁10쎯	-10.7322
sai❁15쎯xiao❄35쎯	-10.7324
ci❃11쎯yu❂108쎯	-10.7325
xuan❄33쎯jian❃4쎯:	-10.7327
fu❂88쎯ga❄4쎯	-10.7327
dao❃1쎯zhi❁70쎯	-10.7328
ji❄19쎯	-10.7329
di❃18쎯qi❁61쎯	-10.733
ju❄55쎯tun❄0쎯	-10.7331
kan❃9쎯xie❂19쎯	-10.7335
jie❂141쎯yi❂27쎯	-10.7338
zhuang❃쎯	-10.7339
jia❁36쎯shu❂7쎯	-10.7342
、lv❄46쎯	-10.7345
tui❄1쎯shi❃26쎯	-10.7345
wei❂21쎯	-10.7345
ling❂158쎯nv❄4쎯:	-10.7346
he❂16쎯	-10.7348
zhen❁	-10.7348
쎁쎀nie❄119쎯mie❁4쎯	-10.7351
du❁10쎯ge❂66쎯	-10.7351
li❂52쎯zan❁1쎯	-10.7352
suo❁14쎯qi❁2쎯	-10.7359
fu❃16쎯niao❃28쎯	-10.736
ren❃13쎯·	-10.736
gui❄20쎯shen❁45쎯	-10.7362
쎃.쎀	-10.7363
die❂19쎯gou❁4쎯	-10.7365
88쎯	-10.7365
ting❁6쎯	-10.7365
dian❃2쎯qing❄17쎯	-10.737
niu❄0쎯you❁4쎯	-10.7372
tai❂30쎯shen❁45쎯	-10.7372
tian❄3쎯na❄6쎯	-10.7375
qin❃11쎯huo❄13쎯	-10.7376
hou❄27쎯tang❃12쎯	-10.7379
nie❄82쎯yan❃2쎯	-10.7381
shuo❄33쎯yi❂27쎯	-10.7382
qi❃	-10.7384
u	-10.7384
yi❄277쎯gou❄22쎯	-10.7385
tian❂18쎯,	-10.7386
huo❄6쎯	-10.7386
gun❃6쎯	-10.739
ji❄194쎯xi❄31쎯	-10.7391
feng❁30쎯xian❂9쎯	-10.7393
ji❄99쎯yi❂27쎯,	-10.7393
feng❁	-10.7396
xie❄84쎯	-10.74
.zong❄14쎯mai❄10쎯	-10.7402
he❂41쎯qu❂96쎯,	-10.7403
kang❃1쎯fei❄59쎯	-10.7403
pi❂20쎯ji❄99쎯	-10.7405
bi❃14쎯dan❄40쎯	-10.7405
zhi❄166쎯tuo❁11쎯	-10.7407
.”(쎂).	-10.7408
pi❂20쎯yang❂13쎯	-10.7409
,ji❄21쎯	-10.7411
lu❄43쎯zong❄7쎯	-10.7413
ze❂40쎯po❂9쎯	-10.7414
po❂7쎯》	-10.7416
kao❄2쎯pie❄1쎯	-10.7419
dang❄28쎯shu❃12쎯	-10.742
,en❁5쎯si❄52쎯	-10.742
cuo❁1쎯qiao❂8쎯	-10.7421
쎁쎉쎄쎇mai❄10쎯	-10.7421
fu❁76쎯	-10.7425
chi❁14쎯wu❃9쎯	-10.7426
yao❄20쎯	-10.7428
re❄5쎯ji❄99쎯	-10.743
liang❃2쎯she❄9쎯	-10.7433
tai❂30쎯ru❃9쎯	-10.744
di❃18쎯ku❃2쎯	-10.7441
guo❁28쎯dan❁40쎯	-10.7443
shao❃5쎯an❁9쎯	-10.7448
li❄5쎯ai❄31쎯	-10.7449
ting❂20쎯rong❂58쎯	-10.7449
tian❄6쎯.	-10.745
ju❂85쎯za❁23쎯	-10.7454
qi❃51쎯zou❁17쎯	-10.7455
gu❃15쎯.	-10.7456
–	-10.7466
yang❁12쎯lang❃3쎯	-10.7468
huo❄13쎯ju❁38쎯	-10.7468
jie❂129쎯li❂109쎯	-10.7471
xuan❁43쎯	-10.7472
di❁28쎯lei❄7쎯	-10.7472
lu❄68쎯	-10.7472
ye❄58쎯	-10.7473
chi❁9쎯qia❄2쎯	-10.7477
gao❄16쎯yan❃118쎯	-10.7478
li❄196쎯ju❄25쎯	-10.7479
tuo❄6쎯zhe❂64쎯	-10.748
juan❄43쎯	-10.7481
ru❃0쎯:	-10.7484
ji❂132쎯	-10.7484
ze❄17쎯yu❁17쎯	-10.7486
wu❁27쎯ying❂62쎯	-10.7486
che❄42쎯jian❃94쎯.	-10.7487
,ling❂158쎯ta❄40쎯	-10.7489
qu❁76쎯	-10.7489
zhi❃58쎯yong❃30쎯	-10.7489
hua❄0쎯gou❄22쎯	-10.7491
쎁쎉쎂쎉mai❄10쎯	-10.7495
reng❂4쎯,	-10.7498
xi❄31쎯ke❂0쎯.	-10.7498
qian❂7쎯ruan❃20쎯	-10.7499
、shuang❁20쎯	-10.7501
dian❄57쎯	-10.7502
dao❄39쎯guo❂1쎯	-10.7502
sa❄42쎯ge❂66쎯	-10.7506
hui❃8쎯	-10.7507
chan❄17쎯kang❁4쎯	-10.7508
yin❂64쎯hui❃8쎯	-10.7509
zhuo❂9쎯zao❃14쎯	-10.7512
cui❄48쎯,	-10.7516
.쎂쎀쎁쎂mai❄10쎯	-10.7519
jia❃6쎯ya❁28쎯	-10.7522
bu❃4쎯ta❄13쎯	-10.7523
zai❄7쎯lin❂58쎯	-10.7524
er❃1쎯	-10.7524
;쎁	-10.7527
dang❁1쎯mai❄10쎯	-10.7528
chong❁32쎯ye❄73쎯	-10.7529
ji❁103쎯jia❃6쎯	-10.753
wu❄3쎯shu❂7쎯	-10.753
lv❄22쎯fu❁67쎯	-10.753
niu❄0쎯jin❃18쎯	-10.753
lv❄22쎯chuai❂1쎯	-10.7531
chong❂9쎯po❄2쎯	-10.7533
;wan❃0쎯ai❄32쎯	-10.7538
wei❃4쎯ling❂158쎯	-10.7545
qin❂1쎯dang❁1쎯	-10.7546
tu	-10.7549
kou❄	-10.7552
yu❃40쎯	-10.7556
li❄5쎯shuo❄33쎯	-10.7558
yao❃12쎯gu❃15쎯,	-10.7558
.쎀쎆	-10.7559
guan❄49쎯	-10.7567
cong❂3쎯	-10.7568
hu❂21쎯ta❄99쎯	-10.7568
yan❃118쎯jiao❁33쎯	-10.757
쎁쎉쎈쎄	-10.7575
ti❁6쎯ti❁6쎯	-10.7576
wan❃0쎯sui❃7쎯	-10.7577
zhi❂5쎯chong❁7쎯、	-10.7588
、he❂41쎯	-10.7589
kua❄7쎯	-10.7589
wai❁3쎯rou❂19쎯	-10.7592
chi❁18쎯	-10.7592
,di❃18쎯yu❃36쎯	-10.7594
xuan❄22쎯	-10.7594
zai❄7쎯ai❄54쎯쎁	-10.7594
쎂쎀mai❄10쎯	-10.7595
gun❃24쎯la❄1쎯	-10.7596
ku❁10쎯·	-10.7596
dun❄22쎯·	-10.7598
zhi❄54쎯po❂9쎯	-10.7599
lang❄0쎯ruan❃20쎯	-10.76
zao❃14쎯ze❂3쎯	-10.7606
li❄270쎯guai❄14쎯	-10.7617
lou❂31쎯guan❄42쎯	-10.762
li❄215쎯cuo❁1쎯	-10.7622
li❄5쎯wu❃49쎯	-10.7622
yi❄368쎯za❂3쎯	-10.7623
zhe❃1쎯fen❃3쎯	-10.7623
ni❂37쎯ze❂3쎯	-10.7623
ben❃3쎯	-10.7625
chong❂9쎯yan❁34쎯	-10.7625
tan❁11쎯	-10.7625
qi❂122쎯ji❁125쎯	-10.7626
pie❄1쎯yu❃64쎯	-10.7627
zhuo❂50쎯bu❄33쎯	-10.7629
li❄196쎯ji❄99쎯	-10.7632
zhan❃28쎯ying❁22쎯	-10.7632
shao❂7쎯ge❂52쎯	-10.7632
chuai❂1쎯jian❁60쎯	-10.7633
nai❂10쎯wei❂17쎯	-10.7633
fan❂29쎯	-10.7635
yu❃3쎯	-10.7636
쎁쎉쎄쎃mai❄10쎯	-10.7639
≥	-10.7642
gao❄16쎯cui❄48쎯,	-10.7643
zi❃28쎯da❂60쎯	-10.7644
shu❃19쎯	-10.7644
ye❄50쎯tu❃0쎯	-10.7646
bao❁15쎯shan❁46쎯	-10.7647
yi❄10쎯xuan❄33쎯	-10.7649
쎁쎉쎈쎈	-10.7649
ke❂0쎯gui❄51쎯	-10.7655
ben❁4쎯yan❃2쎯	-10.7656
qi❃18쎯yan❄84쎯	-10.7657
쎁쎅쎀쎀	-10.7658
xuan❃5쎯he❂41쎯	-10.766
쎀쎀ji❄23쎯,mai❄10쎯	-10.7662
qu❁8쎯ke❁55쎯	-10.7672
lv❄46쎯gui❄51쎯	-10.7674
nv❄4쎯,	-10.7677
ji❄99쎯yu❁17쎯쎄	-10.7679
tong❂72쎯	-10.7684
shao❄3쎯jie❁14쎯,	-10.7684
ping❂44쎯li❂109쎯,	-10.7685
du❁	-10.7686
zhuo❁3쎯	-10.7687
cai❂13쎯hu❂119쎯	-10.769
te❄0쎯	-10.7692
,쎂	-10.7696
qi❁32쎯	-10.7698
yan❂101쎯guang❄3쎯	-10.7698
chou❄4쎯	-10.7699
li❂76쎯gou❃8쎯	-10.77
쎁쎀/쎁쎀쎀	-10.7704
ao❃12쎯she❄18쎯,	-10.7704
qia❂0쎯guai❄14쎯	-10.7706
you❃48쎯	-10.7708
kui❁1쎯ling❂34쎯	-10.7712
dai❄25쎯ning❂14쎯	-10.7712
yin❄	-10.7713
en❁5쎯wan❁10쎯	-10.7717
shi❃11쎯jiao❁33쎯	-10.7719
shuo❄33쎯lai❄28쎯.	-10.7723
qu❁21쎯,	-10.7725
쎀쎀fan❂29쎯ji❄23쎯	-10.7728
,fu❃6쎯li❂122쎯	-10.7729
nie❄119쎯pie❁1쎯(	-10.7731
heng❂22쎯qu❂40쎯	-10.7733
song❁25쎯fu❂70쎯	-10.7739
～쎂	-10.7742
jiang❄20쎯ju❂25쎯	-10.7744
.ju❄75쎯gao❄16쎯	-10.7745
jing❁65쎯zi❄22쎯	-10.7748
.shi❄63쎯ji❂169쎯	-10.7748
fen❃3쎯kuang❂10쎯	-10.7751
yi❁58쎯ru❃9쎯	-10.7751
jian❁2쎯xin❁3쎯	-10.7753
chi❁14쎯yan❃63쎯	-10.7753
ruan❂1쎯se❄57쎯	-10.7756
쎂쎀쎀쎁	-10.7756
li❂122쎯su❄80쎯	-10.7758
쎅쎀쎀ji❄23쎯	-10.776
qi❁35쎯	-10.7761
ju❃38쎯ju❄25쎯	-10.7762
teng❁4쎯zui❄7쎯	-10.7762
suo❁14쎯	-10.7766
xu❄61쎯ban❃1쎯	-10.7767
ji❄160쎯qiu❂80쎯	-10.7767
쎁쎀쎀-	-10.7771
bi❄70쎯po❂7쎯》	-10.7773
ㄐ	-10.7773
zi❃28쎯ru❃0쎯	-10.7775
kui❂22쎯pi❁22쎯	-10.7775
jing❄3쎯qu❁21쎯	-10.7775
chang❂31쎯can❃3쎯	-10.7775
mou❃0쎯qiao❂8쎯	-10.7776
쎀)	-10.7776
rong❂58쎯tui❂33쎯	-10.7776
lv❄46쎯ji❄99쎯	-10.7777
qi❄34쎯kao❄2쎯	-10.7777
,ou❃5쎯li❂122쎯	-10.7779
,쎃	-10.7785
yan❃2쎯zhi❂5쎯guo	-10.7786
qiu❁47쎯	-10.7787
ji❄160쎯cha❂3쎯	-10.7787
ji❄218쎯tian❄6쎯	-10.7787
zhuo❂50쎯ru❃9쎯	-10.779
ying❃29쎯bao❃14쎯	-10.779
chan❃63쎯ji❄124쎯	-10.7791
쎁쎉쎈쎉	-10.7791
chun❂24쎯	-10.7792
lang❄0쎯fu❄3쎯	-10.7793
pi❂22쎯	-10.7794
xu❁75쎯	-10.7794
zi❁78쎯ji❄99쎯	-10.78
zi❃1쎯	-10.7801
gao❄18쎯	-10.7807
chan❄19쎯,	-10.7809
ju❁38쎯ling❂181쎯	-10.781
ru❃9쎯po❂7쎯du❄3쎯	-10.7811
.쎀쎂	-10.782
쎁,	-10.7821
chui❁0쎯	-10.7822
guo❁28쎯xiong❂4쎯	-10.7823
zhu❂22쎯	-10.7826
yu❁15쎯	-10.7827
zhe❄9쎯zai❃8쎯	-10.7828
dan❄17쎯	-10.7829
.hun❂15쎯la❄1쎯,	-10.7829
meng❃9쎯chao❃7쎯	-10.783
yong❃36쎯	-10.7833
zai❄7쎯yu❁17쎯	-10.7833
zai❄7쎯bin❄9쎯	-10.7836
wei❂6쎯	-10.7836
ke❂2쎯bin❁28쎯	-10.7838
yang❁12쎯lve❄25쎯	-10.7838
i❃18쎯yi❂27쎯.li❂1	-10.7838
wan❃31쎯ruan❂1쎯d	-10.784
en❁5쎯yu❃52쎯	-10.7841
cai❂13쎯huo❄45쎯	-10.7842
bing❄11쎯kou❃6쎯	-10.7842
she❂7쎯	-10.7846
ru❃9쎯bi❄203쎯	-10.7848
yan❃118쎯fu❁73쎯	-10.7851
ta❄48쎯mu❄28쎯	-10.7855
xu❃	-10.7856
zha❁8쎯、	-10.7859
wan❃31쎯ji❄99쎯	-10.786
wai❁3쎯you❄32쎯	-10.7861
guan❄52쎯fu❂70쎯	-10.7862
jing❄3쎯jian❃45쎯	-10.7866
ti❁6쎯li❂28쎯	-10.7867
luo❄3쎯you❄42쎯	-10.7869
쎃qin❁2쎯	-10.7869
ye❄50쎯ji❄99쎯	-10.7869
lin❂58쎯zhen❃34쎯	-10.7871
tao❁10쎯ci❄36쎯	-10.7873
jiang❁25쎯	-10.7877
shu❂7쎯di❁28쎯	-10.7884
ren❄0쎯duo❃43쎯	-10.7887
()ru❃9쎯	-10.7892
dai❄25쎯qiu❂82쎯	-10.7893
ba❂11쎯pai❂4쎯	-10.7896
na❄26쎯qiao❂33쎯	-10.7899
chu❂0쎯luo❂2쎯	-10.7902
guo❁23쎯	-10.7903
bao❁15쎯mao❂44쎯	-10.7904
zhi❁70쎯zhang❁28쎯	-10.7911
guai❄14쎯lve❄5쎯	-10.7911
he❂62쎯	-10.7912
li❂52쎯bei❄80쎯	-10.7912
chao❃2쎯·	-10.7927
55쎯	-10.7927
쎂쎀쎀e❄25쎯	-10.7928
、pai❂4쎯shao❂7쎯	-10.7928
、qiu❂45쎯li❄270쎯	-10.793
쎁ji❄99쎯	-10.793
lv❄22쎯bing❃32쎯	-10.7931
che❄42쎯kai❃20쎯	-10.7931
ba❁41쎯tun❄0쎯	-10.7932
쎉)	-10.7934
、xu❁78쎯yu❄68쎯	-10.7935
e❂9쎯	-10.7935
xiang❂5쎯	-10.7939
qi❁45쎯	-10.7943
bei❄83쎯	-10.7943
wu❄64쎯	-10.7944
ling❂1	-10.7945
kai❁11쎯yong❃14쎯	-10.7947
jing❃19쎯	-10.7947
yi❄239쎯ling❂158쎯	-10.795
ling❂181쎯za❁23쎯	-10.795
jing❄3쎯qian❂41쎯,	-10.7951
bao❃14쎯ji❁84쎯	-10.7952
er❂4쎯e❄141쎯	-10.7952
▁	-10.7954
shi❂8쎯	-10.7955
ru❃9쎯yan❃2쎯fu❄3쎯	-10.7955
ti❄7쎯	-10.7956
kai❃22쎯qi❂124쎯	-10.7956
.쎄.	-10.7961
mie❄37쎯	-10.7968
ce❄9쎯mie❁4쎯	-10.7968
tai❂30쎯he❂41쎯	-10.7969
tong❂23쎯ze❄17쎯	-10.797
shuo❄33쎯ji❄193쎯	-10.7974
qi❂122쎯ke❁32쎯	-10.7975
ji❄99쎯lei❄7쎯	-10.7976
li❄215쎯yan❁61쎯	-10.7979
tuo❃2쎯	-10.798
hui❄29쎯	-10.7987
he❂71쎯ye❄3쎯	-10.7988
wan❃43쎯zhi❃58쎯	-10.7989
heng❂20쎯	-10.799
kun❁1쎯	-10.8002
tong❂14쎯hu❂113쎯	-10.8002
ban❄6쎯jing❄52쎯	-10.8005
ba❁48쎯fen❂2쎯	-10.8006
e❄38쎯shan❁13쎯	-10.8009
liu❂10쎯qi❄82쎯	-10.8011
gao❄0쎯bo❁6쎯	-10.8014
lv❄22쎯heng❂14쎯	-10.8016
(쎂쎀쎀	-10.8016
hu❃15쎯xian❃58쎯	-10.8017
ke❂0쎯:	-10.8018
ti❃10쎯zhi❂69쎯,	-10.8021
po❂9쎯hui❄111쎯	-10.8022
쎁쎉쎈쎇	-10.8023
쎀ji❄23쎯,mai❄10쎯	-10.8027
li❂54쎯	-10.8028
chan❁14쎯	-10.8028
qu❂	-10.8029
ke❂0쎯fu❂69쎯,	-10.8031
,cai❂13쎯hu❂71쎯	-10.8031
qin❂5쎯yao❃2쎯	-10.8032
.wu❄3쎯们	-10.8033
jin❃18쎯nv❄4쎯	-10.8033
zao❃0쎯,	-10.8034
yan❂3	-10.8037
쎁쎀쎂쎄	-10.8038
tan❂63쎯chong❁7쎯	-10.8043
쎁gou❃8쎯	-10.8048
pi❄40쎯qiong❂72쎯.	-10.8049
쎉쎀쎀쎁	-10.8051
guan❄52쎯hui❃4쎯	-10.8052
lv❄22쎯zui❄7쎯	-10.8052
쎁쎉쎃쎉mai❄10쎯	-10.8053
jia❁36쎯chu❄45쎯	-10.8053
,yi❄267쎯ya❁28쎯	-10.8057
shi❃11쎯xiong❂4쎯	-10.806
ba❁10쎯dan❁11쎯.	-10.8061
、ning❂14쎯	-10.8063
yan❃2쎯chao❁16쎯,	-10.8065
ban❄6쎯hun❂0쎯	-10.8066
bie❁3쎯pi❂20쎯	-10.8066
zi❃5쎯qiang❁22쎯	-10.8066
쎂.쎁	-10.8067
he❂41쎯shan❁13쎯	-10.8068
ji❁164쎯di❃18쎯	-10.807
쎁쎉쎈쎆	-10.8074
3쎯xi❄31쎯ke❂0쎯	-10.8082
qi❃18쎯song❃15쎯	-10.8083
dan❁11쎯、	-10.8085
ti❄15쎯qia❄2쎯	-10.8086
lan❄14쎯	-10.8087
yong❃35쎯、	-10.8087
sheng❄6쎯xun❂38쎯	-10.8092
jian❁2쎯zhe❂33쎯	-10.8092
쎁쎇쎀	-10.8095
pie❄1쎯chen❄8쎯	-10.8097
duo❁14쎯	-10.8099
shan❁17쎯yin❁30쎯、	-10.8101
hu❁63쎯qiu❂80쎯	-10.8102
pao❄15쎯	-10.8106
chuai❂1쎯fu❂71쎯	-10.8106
zhu❁14쎯zhu❄79쎯	-10.8109
zha❂34쎯hua❂3쎯	-10.811
che❄20쎯qiao❂33쎯	-10.8113
쎄nie❄119쎯mie❁4쎯	-10.8116
.쎁쎉쎄쎉mai❄10쎯	-10.8119
zui❄7쎯tan❁10쎯	-10.8119
xuan❄33쎯ye❄50쎯	-10.812
jie❂129쎯chu❄38쎯	-10.8122
chan❄19쎯chu❄45쎯:	-10.8122
쎁.쎁	-10.8122
lian❂91쎯	-10.8123
쎁쎉쎈쎅	-10.8124
,fu❄114쎯ze❂3쎯	-10.8124
pai❂4쎯bi❃2쎯	-10.8126
ran❃21쎯gun❄4쎯	-10.8128
huan❂12쎯ran❃21쎯	-10.8129
suo❁6쎯liu❂43쎯	-10.8133
xiao❂15쎯chu❄45쎯.	-10.8135
bing❃1쎯	-10.8142
yao❃30쎯deng❄13쎯	-10.8143
ou❃5쎯jia❁36쎯	-10.8144
li❂3쎯	-10.8144
:쎅	-10.8145
nai❂10쎯rang❄3쎯	-10.8146
chu❂0쎯ji❄99쎯	-10.8146
jin❃18쎯qu❂94쎯	-10.8148
zong❄14쎯xie❂16쎯	-10.815
ji❄99쎯yang❄4쎯	-10.8151
.쎂쎀쎁쎃mai❄10쎯	-10.8152
jian❁60쎯ze❂3쎯	-10.8153
bao❄5쎯qiong❂27쎯	-10.8153
zu❃1쎯	-10.8154
pai❂4쎯shi❃26쎯	-10.8157
zhan❄18쎯xiao❁28쎯	-10.8159
yu	-10.816
fan❄35쎯	-10.8162
zhi❁70쎯ba❃2쎯	-10.8162
guai❄0쎯	-10.8164
い	-10.8165
feng❁24쎯	-10.8166
luan❄4쎯guo❁28쎯	-10.8168
hu❁63쎯lou❂0쎯	-10.8168
쎂.쎄	-10.817
rong❃28쎯shi❂3쎯	-10.8171
dang❄8쎯chuai❂1쎯	-10.8172
nv❄4쎯wei❂17쎯	-10.8174
li❂122쎯wen❂24쎯	-10.8175
li❄196쎯쎁	-10.8182
lv❄22쎯ta❄99쎯	-10.8183
shi❄99쎯ba❁10쎯	-10.8184
ㄣ	-10.8184
en❁5쎯hui❄113쎯	-10.8186
zong❁21쎯	-10.8186
ru❃9쎯xiao❄35쎯	-10.8187
,he❂41쎯hu❂71쎯	-10.8189
jian❁16쎯	-10.8192
tao❁32쎯、	-10.8193
”,yi❂125쎯	-10.8195
gui❁61쎯쎇nv❄4쎯	-10.8197
shi❃26쎯xu❁37쎯	-10.8197
yu❃22쎯	-10.8197
.쎂쎀쎀쎃mai❄10쎯	-10.8201
sui❄66쎯shi❂3쎯	-10.8209
lai❂4쎯song❄9쎯	-10.8209
xiao❄35쎯zhi❂69쎯	-10.8209
dan❄49쎯	-10.8211
zhi❃58쎯weng❄4쎯	-10.8214
san❃3쎯luo❂0쎯	-10.8215
hua❄0쎯pu❄4쎯	-10.8216
ji❄99쎯huang❁19쎯	-10.8217
ge❂52쎯ye❄50쎯	-10.8218
long❂72쎯po❄2쎯	-10.8218
、li❂76쎯	-10.8221
jiao❃86쎯、	-10.8223
chan❂17쎯za❂8쎯	-10.8223
》yi❂125쎯quan❁4쎯	-10.8224
gan❄25쎯gong❁18쎯	-10.8224
쎀.쎇	-10.8224
yu❂19쎯	-10.8227
gui❃14쎯qin❂1쎯ben	-10.8227
,mu❄44쎯	-10.8229
xiang❄24쎯yu❄68쎯	-10.8231
ji❄99쎯gu❁29쎯	-10.8234
gai❄1쎯ze❂15쎯.	-10.8235
ke❃7쎯shi❂1쎯	-10.8235
gun❃24쎯yin❂64쎯	-10.8236
suo❁0쎯	-10.8236
jian❃	-10.8238
〉	-10.824
chuai❂1쎯cai❂13쎯	-10.8243
쎈nie❄119쎯mie❁4쎯	-10.8243
la	-10.8243
tian❄11쎯cai❃16쎯	-10.8244
jiao❃86쎯guai❄14쎯	-10.8246
gu❁7쎯yun❁9쎯	-10.8247
ji❁125쎯pi❄40쎯	-10.8247
jiu❃14쎯jian❃4쎯	-10.8247
zuo❄4쎯gun❄4쎯	-10.8247
qu❂72쎯fang❂0쎯	-10.8248
wang❄8쎯	-10.825
ju❃38쎯mu❄44쎯	-10.8251
쎁nie❄119쎯mie❁4쎯	-10.8251
shu❂7쎯dai❄25쎯	-10.8251
bi❃14쎯jiao❄29쎯	-10.8254
kuang❂10쎯	-10.8254
fu❂142쎯fen❁39쎯	-10.8257
yao❃2쎯ba❁10쎯	-10.8257
cuo❂4쎯ke❂0쎯	-10.8257
di❁32쎯yi❄381쎯	-10.8259
.mang❂20쎯yi❁58쎯	-10.8261
ling❂54쎯	-10.8265
lie❄17쎯	-10.8266
《zha❄26쎯	-10.8267
teng❂24쎯da❂60쎯	-10.8269
hong❂77쎯.	-10.8269
he❂68쎯	-10.8271
4쎯,	-10.8273
cuo❁1쎯tuo❄6쎯	-10.8274
yin❂18쎯san❃3쎯	-10.8276
nuo❄13쎯	-10.8277
쎂쎀-	-10.8277
yao❃2쎯chao❁16쎯	-10.828
ou❃15쎯lai❄28쎯	-10.828
sou❃8쎯you❁30쎯	-10.8286
er❂18쎯deng❃1쎯.	-10.8291
zai❃8쎯mu❄44쎯	-10.8291
shi❃26쎯qu❁58쎯쎉	-10.8293
hong❂	-10.8297
zhi❃29쎯	-10.8297
tuo❁11쎯luo❂35쎯	-10.8299
dou❁30쎯	-10.8302
(쎁쎈쎉	-10.8302
(-	-10.8303
ha❁1쎯shen❁63쎯	-10.8304
yi❄106쎯bi❄186쎯	-10.8306
;(	-10.8308
shang❁17쎯:쎁	-10.831
wang❃25쎯	-10.831
you❁27쎯ze❄17쎯	-10.831
hui❂17쎯li❂126쎯:	-10.831
qiao❄13쎯,	-10.8312
qu❁21쎯kao❄2쎯	-10.8312
nv❄4쎯ling❂33쎯	-10.8314
.쎀쎄	-10.8314
lai❂4쎯jin❁25쎯	-10.8314
di❄13쎯gui❁61쎯	-10.8316
zhuan❄15쎯ti❁6쎯	-10.8316
guan❁30쎯	-10.8317
zhen❁15쎯ru❂27쎯	-10.8319
jiao❃86쎯chan❄19쎯	-10.8325
qi❂159쎯	-10.8325
zan❁1쎯li❂52쎯	-10.8326
guo❁25쎯ju❁48쎯	-10.8327
zhi❁56쎯huo❄13쎯	-10.8328
wa❁21쎯li❂122쎯	-10.8329
qiao❂24쎯fu❂70쎯	-10.8331
.dai❄25쎯di❄13쎯	-10.8331
dang❄26쎯	-10.8332
61쎯	-10.8333
lv❄32쎯heng❂4쎯	-10.8336
ji❂1	-10.8336
gu❃15쎯man❂32쎯,	-10.8337
luo❄3쎯duan❁11쎯	-10.8338
쎂쎀쎀ji❄23쎯	-10.8341
bi❄113쎯lin❂58쎯	-10.8341
za❂8쎯wen❂24쎯	-10.8342
cheng❁8쎯la❄52쎯	-10.8342
qiong❂72쎯gai❄1쎯	-10.8343
ni❃20쎯	-10.8343
zao❃14쎯《	-10.8344
쎇.쎅	-10.8345
li❂109쎯ji❁164쎯	-10.8346
,di❄57쎯wei❂79쎯	-10.8346
pei❃1쎯	-10.8347
쎃ji❄99쎯,	-10.835
huo❄52쎯	-10.835
yan❃2쎯chao❁16쎯、	-10.8352
teng❂24쎯ji❄23쎯,	-10.8352
wu❃49쎯li❄196쎯	-10.8356
zhua❁1쎯	-10.8357
niao❃28쎯ye❄50쎯	-10.8357
tan❂62쎯beng❄18쎯:	-10.8357
xu❁78쎯.	-10.8358
du❂72쎯ji❄160쎯	-10.8359
.쎂쎀쎀쎂mai❄10쎯	-10.8359
shan❃30쎯he❄39쎯	-10.836
e❂9쎯?	-10.8368
zhang❁14쎯	-10.8369
.dao❃1쎯dan❁40쎯	-10.8369
,yang❄4쎯	-10.837
,ci❃11쎯guo❂1쎯	-10.8371
쎁쎀mai❄10쎯	-10.8371
ju❃12쎯ti❁6쎯	-10.8374
diao❄25쎯su❄84쎯	-10.8376
ti❁6쎯qiao❄13쎯	-10.8378
ju❁5쎯ku❁10쎯	-10.8379
fen❁39쎯mang❂20쎯쎁	-10.838
luo❂35쎯,	-10.838
che❄42쎯yu❄133쎯	-10.8381
xuan❄33쎯du❂56쎯,	-10.8382
shi❃26쎯qu❁58쎯쎁쎂	-10.8383
쎄쎅쎀	-10.8388
chu❄6쎯tuo❁11쎯	-10.8388
lv❄22쎯xian❃46쎯,	-10.839
—쎁	-10.839
쎁쎉쎉쎁	-10.8392
pu❁17쎯	-10.8393
ji❁77쎯fu❄115쎯	-10.8396
du❄29쎯qiong❂72쎯	-10.8398
,hui❄13쎯ta❄40쎯	-10.8399
zhe❄9쎯ruan❄2쎯:	-10.84
jia❃6쎯guan❄52쎯	-10.8404
쎁쎉쎃쎂mai❄10쎯	-10.8405
qia❂0쎯cong❁69쎯	-10.8405
yun❃0쎯	-10.8408
lie❄21쎯	-10.841
ben❃8쎯qiu❁23쎯	-10.841
yao❂36쎯wen❂24쎯	-10.8411
쎁-쎂	-10.8416
,ye❄73쎯pai❂4쎯	-10.8419
si❄52쎯li❂122쎯	-10.842
jing❄3쎯xing❄6쎯	-10.842
(kui❂22쎯	-10.8421
jue❂40쎯tai❂30쎯	-10.8421
.tou❄5쎯	-10.8422
jian❁100쎯he❂41쎯	-10.8423
po❂7쎯,	-10.8423
쎀쎀lv❄46쎯ting❂20쎯	-10.8424
yao❂36쎯bin❁38쎯	-10.8425
yu❂65쎯rou❂25쎯	-10.8426
jiao❁33쎯ren❄0쎯	-10.8427
chua❄쎯mi❄56쎯	-10.843
쎁쎈쎈	-10.843
lve❄5쎯li❂122쎯	-10.8431
han❂12쎯ru❃9쎯	-10.8433
yun❂5쎯di❃18쎯“	-10.8436
kun❃6쎯dang❄8쎯	-10.8437
ji❂53쎯pie❄1쎯	-10.8437
xue❁6쎯ji❄99쎯	-10.8438
hui❄14쎯po❄2쎯	-10.844
ba❂11쎯ju❄75쎯,	-10.8441
qiao❂8쎯xu❄42쎯	-10.8444
ke❂0쎯.	-10.8447
qiao❂8쎯zui❄7쎯	-10.8447
gong❃28쎯	-10.8447
jiang❄20쎯shan❄7쎯	-10.8451
,ke❂0쎯bu❄33쎯	-10.8454
xian❂93쎯	-10.8456
shao❃0쎯song❄9쎯	-10.8459
qi❁2쎯qu❂96쎯	-10.8459
yan❃63쎯beng❄0쎯	-10.8461
shou❃10쎯	-10.8461
qi❄22쎯chou❂1쎯	-10.8465
쎈쎀쎂.쎃	-10.8467
zuo❄27쎯fu❁45쎯	-10.8469
rou❃1쎯	-10.847
dang❁1쎯nv❄4쎯	-10.8471
ying❂22쎯	-10.8471
wu❃9쎯e❂49쎯	-10.8472
ㄥ	-10.8473
kun❃6쎯qia❄2쎯	-10.8473
cha❂6쎯zhan❁27쎯	-10.8476
suo❁6쎯zhe❄9쎯	-10.8476
en❁5쎯yan❂101쎯	-10.8477
bao❄7쎯gui❁14쎯	-10.8478
shi❃26쎯qu❁58쎯쎁.	-10.8479
shan❄35쎯	-10.8486
、po❂7쎯zang❁0쎯	-10.8486
li❂122쎯ku❃2쎯	-10.8487
ku❁27쎯	-10.849
tai❁0쎯mo❄30쎯	-10.849
cai❂13쎯ye❄73쎯	-10.8492
jing❁65쎯pao❃0쎯	-10.8493
cai❂13쎯bi❃2쎯	-10.8494
,en❁5쎯yi❁58쎯	-10.8497
zao❃0쎯qi❄36쎯	-10.8498
.쎂쎀쎁쎁mai❄10쎯	-10.85
dian❄35쎯tian❂18쎯	-10.8501
zhong❃8쎯you❂0쎯	-10.8502
sheng❄6쎯xiong❂4쎯	-10.8503
zha❂34쎯li❂28쎯	-10.8503
zhong❁24쎯shi❃26쎯	-10.8507
zhi❂69쎯fu❂70쎯	-10.8507
li❄5쎯qian❂27쎯,	-10.8509
ding❄	-10.851
bo❁6쎯yu❁17쎯	-10.8512
niu❄0쎯gan❄31쎯	-10.8521
li❄196쎯yan❄15쎯	-10.8522
rong❂44쎯bi❄22쎯	-10.8526
tian❂6쎯	-10.8527
63쎯	-10.8529
tang❁5쎯sui❄48쎯	-10.8534
zhi❁70쎯nan❂30쎯	-10.8536
zhai❁5쎯	-10.8539
se❄57쎯mang❂20쎯	-10.854
gan❄30쎯nai❂10쎯	-10.8541
zhang❄2쎯	-10.8541
zhu❄6쎯	-10.8543
bao❄5쎯wu❃9쎯	-10.8545
yi❄3	-10.8546
,lv❄22쎯zhi❁56쎯	-10.8546
li❂132쎯zai❄7쎯	-10.8551
yi❂157쎯qin❁2쎯:	-10.8552
dun❄22쎯han❄48쎯	-10.8552
wen❂24쎯li❄196쎯“	-10.8553
wo❁5쎯dang❁1쎯	-10.8553
qian❂27쎯.	-10.8553
hu❂4쎯li❂122쎯	-10.8554
zhe❄9쎯lv❄22쎯	-10.8555
lv❄46쎯tu❂68쎯	-10.8558
xue❂7쎯hao❄14쎯	-10.8559
sa❄29쎯lang❄0쎯	-10.8563
che❄20쎯qi❁68쎯	-10.8568
jiao❃36쎯	-10.8571
ruo❄9쎯	-10.8571
쎅ji❄99쎯,	-10.8571
bao❃14쎯yan❁9쎯	-10.8571
yin❂64쎯cui❄48쎯,	-10.8572
da❂60쎯ba❂2쎯	-10.8573
bo❁6쎯xiu❁9쎯	-10.8573
,lv❄46쎯gou❃8쎯	-10.8574
qu❁21쎯,yi❄10쎯	-10.8578
pin❂9쎯tian❂18쎯	-10.858
yi❂108쎯fen❃3쎯	-10.8582
.hui❄13쎯	-10.8582
ye❄50쎯yong❃30쎯	-10.8583
zhi❁56쎯jiao❃86쎯	-10.8583
li❂76쎯xi❁173쎯	-10.8584
ruan❂1쎯jian❁2쎯	-10.8584
ti❁6쎯ci❁18쎯ru❃9쎯	-10.8585
yue❄60쎯sai❄1쎯	-10.8585
fu❂70쎯.	-10.8589
lv❄22쎯xiang❃9쎯	-10.859
쎁cheng❂85쎯	-10.8594
yi❂128쎯	-10.8595
fu❂69쎯ruan❄2쎯	-10.86
su❄93쎯	-10.8604
lv❄22쎯ji❄99쎯	-10.8605
-쎁쎁	-10.8606
쎅e❄25쎯,	-10.8607
、tong❂23쎯	-10.8607
ying❃29쎯li❄215쎯	-10.8608
,yue❄60쎯,쎁쎉쎆	-10.8609
qiu❂80쎯.	-10.8609
yong❁4쎯shan❁13쎯	-10.8611
qu❁8쎯ti❁6쎯	-10.8613
chao❄12쎯xian❃40쎯	-10.8613
쎆ji❄99쎯,	-10.8616
yi❁58쎯ji❁103쎯	-10.8617
shou❄	-10.8618
qi❄82쎯	-10.8619
쎁jiao❄32쎯,	-10.8621
.tang❁14쎯	-10.8622
ba❂2쎯su❁7쎯	-10.8623
yi❄1	-10.8625
tong❂14쎯xiao❁68쎯	-10.8632
jing❄3쎯guo❃24쎯	-10.8632
ru❃9쎯bi❄189쎯	-10.8634
쎉qin❁2쎯	-10.8635
peng❄	-10.8636
.쎁쎉쎈쎂mai❄10쎯	-10.8636
yi❁	-10.864
쎁쎉쎂쎆mai❄10쎯	-10.8642
,nie❄82쎯ji❂169쎯	-10.8643
ku❁10쎯》	-10.8643
qu❂96쎯ci❃11쎯,	-10.8645
pan❂20쎯shi❁8쎯,	-10.8647
zuo❄4쎯ye❄50쎯	-10.865
bi❄135쎯tian❃26쎯	-10.8651
.ling❂158쎯ta❄40쎯	-10.8652
〈	-10.8652
yong❁32쎯	-10.8657
^	-10.8657
qia❄	-10.8659
wen❂24쎯ze❂15쎯	-10.8661
nai❂10쎯yao❄42쎯	-10.8668
xi❂9쎯chong❁7쎯	-10.8669
chi❃3쎯qia❂0쎯	-10.8676
zi❃28쎯ze❂3쎯	-10.8677
nuo❄16쎯	-10.8677
ding❄19쎯ji❁103쎯	-10.8682
yi❄230쎯pin❁6쎯	-10.8683
cui❄48쎯:“	-10.8684
jie❂161쎯bing❁11쎯	-10.8686
,ye❄73쎯he❂41쎯	-10.8686
beng❄0쎯	-10.8688
qi❄36쎯jiao❄12쎯	-10.8688
,pai❂4쎯hu❂71쎯	-10.8688
shi❂1쎯、	-10.8689
hui❃0쎯liu❂57쎯	-10.869
xi❁147쎯yan❃88쎯	-10.8691
jia❂3쎯ke❁55쎯	-10.8692
pou❂0쎯tao❁32쎯	-10.8694
nai❂10쎯jun❄24쎯	-10.8694
qiang❂19쎯	-10.8695
ting❂19쎯bing❃32쎯	-10.8696
,yin❂64쎯	-10.8696
58쎯	-10.8697
jue❂25쎯zuo❄4쎯	-10.8697
hui❄13쎯ju❄25쎯	-10.8698
dan❁39쎯	-10.8698
jian❁100쎯fen❁39쎯	-10.87
yi❂114쎯tian❂18쎯	-10.8701
ai❁13쎯ye❄73쎯	-10.8705
po❄10쎯pi❂20쎯zhen	-10.8705
zhu❃13쎯	-10.8708
kou❄3쎯xia❂34쎯	-10.8708
a❁0쎯	-10.8709
tuo❃13쎯	-10.871
kai❃13쎯zhi❃29쎯》	-10.8712
xian❄52쎯xian❄20쎯	-10.8713
zong❄14쎯cong❁12쎯	-10.8714
san❃7쎯shuo❄14쎯	-10.872
e❄71쎯.	-10.8722
bi❄12쎯xiang❃9쎯	-10.8723
쎁쎀e❄25쎯,	-10.8727
mo❄21쎯lin❂58쎯	-10.8727
쎁쎈쎉	-10.8729
tong❂62쎯han❂12쎯	-10.8729
fei❄44쎯pi❁33쎯	-10.8731
yu❃40쎯rong❂58쎯	-10.8733
chuai❂1쎯zuo❄4쎯w	-10.8733
duan❄	-10.8734
lv❄22쎯zhi❁70쎯	-10.8735
yuan❄	-10.8736
α	-10.8737
fu❂69쎯chong❁7쎯	-10.8737
ke❁32쎯zhi❂0쎯	-10.8739
qin❁2쎯bu❄6쎯	-10.8741
gong❄10쎯	-10.8741
ling❂158쎯chi❄63쎯	-10.8741
qu❁21쎯qian❁6쎯	-10.8742
nu❄3쎯	-10.8744
jiang❁5쎯	-10.8744
ti❁6쎯fen❂36쎯	-10.8747
ta❄14쎯mei❃4쎯	-10.8748
za❁23쎯dan❄40쎯	-10.8748
(huan❂12쎯	-10.8748
man❂	-10.8749
pin❂10쎯ga❄4쎯	-10.875
bu❄62쎯xi❂9쎯	-10.8753
wu❄3쎯yi❂125쎯	-10.8754
jiang❄20쎯mai❄10쎯	-10.876
dong❄41쎯duan❁3쎯	-10.8761
ben❁4쎯yan❃117쎯	-10.8761
yang❄4쎯shu❂7쎯	-10.8762
qi❃18쎯li❂122쎯	-10.8764
zhi❄42쎯	-10.8765
zhu❁30쎯	-10.8766
qing❄17쎯zhi❂5쎯	-10.8766
huang❂43쎯suo❁6쎯	-10.8769
,fen❁39쎯	-10.877
yu❃6	-10.8771
yi❂114쎯ze❂15쎯	-10.8771
yun❂5쎯huang❁19쎯	-10.8771
jiong❃8쎯wu❁27쎯:	-10.8772
yu❃66쎯	-10.8773
qiong❂27쎯,	-10.8773
lan❂18쎯hu❁63쎯	-10.8777
ran❃21쎯ke❁8쎯	-10.8777
hu❂71쎯ju❄25쎯	-10.8777
en❁5쎯shu❁47쎯	-10.8778
tan❂14쎯ji❄160쎯	-10.8779
bo❃4쎯	-10.878
wu❁27쎯li❄196쎯	-10.8782
쎂쎀e❄25쎯	-10.8783
dao❄3쎯	-10.8783
chu❂51쎯	-10.8784
u❂79쎯du❄3쎯bie❁3쎯	-10.8784
yi❂114쎯bao❃14쎯	-10.8787
bu❄62쎯ju❁38쎯	-10.879
ong❂72쎯jian❃94쎯	-10.879
hua❄17쎯heng❂22쎯	-10.8792
ke❂0쎯wen❂24쎯	-10.8793
kai❄8쎯guai❄14쎯	-10.8795
ai❁9쎯	-10.8796
han❄48쎯meng❃9쎯	-10.8798
lv❄46쎯qu❂96쎯	-10.8798
2쎯,	-10.8802
xi❁173쎯bu❃4쎯	-10.8804
he❂41쎯shi❃26쎯	-10.8807
da❂60쎯xian❃58쎯.	-10.881
bi❄239쎯	-10.881
she❄18쎯ru❃9쎯	-10.881
ci❃11쎯xie❂16쎯:	-10.8814
ta❃1쎯xian❃46쎯	-10.8817
bo❂89쎯ben❁4쎯	-10.8822
chao❁16쎯you❁30쎯	-10.8823
xue❁6쎯ji❁125쎯	-10.8823
zong❁21쎯dun❄22쎯	-10.8825
e❄25쎯ne❄7쎯	-10.8825
yan❃118쎯xu❃6쎯	-10.8827
xian❂	-10.8828
can❄	-10.8829
che❄20쎯jiao❃86쎯	-10.8829
jiao❃10쎯	-10.883
nie❄84쎯ru❃9쎯	-10.8833
qu❂96쎯nei❃8쎯	-10.8834
la❄52쎯yu❄133쎯	-10.8834
ang❁	-10.8834
ti❄42쎯she❄18쎯	-10.8838
kai❁6쎯han❂11쎯	-10.8838
luo❂35쎯huan❁6쎯	-10.8841
meng❂67쎯ni❂36쎯	-10.8841
zi❁4	-10.8846
gun❃2쎯gui❄20쎯	-10.8849
na❄6쎯ke❁55쎯	-10.885
jiao❃86쎯zhi❂16쎯	-10.8851
yi❂34쎯	-10.8852
bao❃5쎯guan❄42쎯	-10.8854
zhu❂12쎯	-10.8854
fu❄114쎯fan❂20쎯	-10.8855
yu❁17쎯jia❃6쎯	-10.8862
yao❂61쎯tuo❁11쎯	-10.8863
kao❄2쎯wu❃9쎯	-10.8863
tong❂23쎯luo❂2쎯,	-10.8863
ca❄0쎯	-10.8866
ju❁38쎯yi❂157쎯	-10.8867
miao❄3쎯	-10.8868
쎁쎉쎃쎁mai❄10쎯	-10.8869
yuan❂18쎯	-10.8871
ya❂2쎯gou❄22쎯	-10.8872
she❃2쎯	-10.8873
쎁gui❁61쎯쎁nv❄4쎯	-10.8876
kao❄2쎯dian❃2쎯	-10.8877
long❁쎯	-10.8877
、yi❂108쎯	-10.8881
cu❄29쎯	-10.8881
pai❂4쎯ti❁6쎯	-10.8881
bo❃3쎯ju❄75쎯	-10.8881
xue❂7쎯	-10.8883
ke❂0쎯,	-10.8886
he❂71쎯gu❄16쎯	-10.8887
lai❄28쎯xiang❄24쎯	-10.8889
nai❃3쎯jiao❁43쎯	-10.8889
.dai❄25쎯mie❁4쎯	-10.8891
san❃1쎯	-10.8892
wei❃	-10.8892
qiao❁7쎯qiao❁7쎯	-10.8893
hun❂15쎯po❂9쎯	-10.8895
en❁5쎯yu❂168쎯	-10.8895
lv❄22쎯xi❂9쎯	-10.8895
ru❂	-10.8896
yi❂108쎯wai❁3쎯	-10.8901
you❁38쎯ti❁6쎯	-10.8902
zhi❂	-10.8903
zuo❄4쎯ku❁10쎯	-10.8905
ou❃5쎯qiu❂51쎯	-10.8905
po❄2쎯lai❄28쎯	-10.8909
bi❄186쎯bi❄99쎯	-10.8911
mei❃4쎯ke❂0쎯	-10.8911
tian❄3쎯fen❃3쎯	-10.8912
yu❃36쎯ji❄193쎯	-10.8913
tai❄4쎯bing❁11쎯	-10.8916
zi❃28쎯zhi❂5쎯	-10.8919
tang❁14쎯li❄270쎯	-10.8919
li❂109쎯ji❄99쎯	-10.8919
po❄10쎯pi❂20쎯	-10.892
쎂/	-10.8921
shan❁17쎯yin❁30쎯,	-10.8922
-쎁쎅	-10.8924
liang❃2쎯di❁28쎯	-10.8924
,dang❁1쎯	-10.8925
、gan❃23쎯	-10.8929
xi❁68쎯ju❁38쎯	-10.893
duo❄46쎯	-10.8932
wan❄22쎯	-10.8935
gui❃35쎯jiao❃40쎯	-10.8936
tian❂18쎯guai❄14쎯	-10.8936
,zhi❁70쎯pie❄1쎯	-10.8937
nie❄119쎯shi❄63쎯	-10.8937
—쎂쎀쎀	-10.8941
yao❄34쎯po❂9쎯	-10.8944
tian❄3쎯chan❂50쎯	-10.8945
dan❁11쎯gun❃24쎯	-10.8953
cai❃16쎯zi❁78쎯	-10.896
xiao❂15쎯chu❄45쎯,	-10.896
qi❃51쎯jia❁47쎯	-10.8965
chu❂46쎯xin❁37쎯	-10.8965
wen❂24쎯dan❁11쎯	-10.8966
jiu❁2쎯wen❂2쎯	-10.8966
zhi❁0쎯nian❂7쎯	-10.8966
kuan❃2쎯	-10.8967
fei❄44쎯gao❃19쎯	-10.8969
pi❂20쎯hou❂43쎯	-10.897
gun❄4쎯zuo❂8쎯	-10.897
fu❂160쎯	-10.8971
ye❁13쎯dang❄8쎯	-10.8973
cuo❁4쎯	-10.8974
ta❄40쎯la❄1쎯	-10.8974
f	-10.8976
yu❄68쎯lang❄0쎯	-10.8977
gao❁0쎯mai❄10쎯	-10.8983
쎂쎁lie❄86쎯yu❂72쎯	-10.8984
ke❂0쎯yan❁34쎯	-10.8985
san❃7쎯qi❁61쎯	-10.8985
en❁5쎯run❄10쎯	-10.8985
fen❁39쎯bi❃2쎯	-10.8986
pao❃0쎯,	-10.8986
cha❂39쎯jing❁62쎯	-10.8986
hou❄16쎯	-10.8988
rou❂25쎯yi❂27쎯,	-10.8989
jian❁1	-10.899
di❁32쎯gao❄16쎯	-10.899
sheng❁23쎯xie❄11쎯	-10.8992
tan❂63쎯tan❂63쎯	-10.8992
guan❄42쎯(dang❁1쎯	-10.8993
qian❄20쎯qi❄47쎯	-10.8993
쎂쎅e❄25쎯	-10.8994
쎁:	-10.8997
,yuan❄6쎯li❂122쎯	-10.8999
.쎁.	-10.9003
tui❃3쎯	-10.9004
meng❂67쎯chang❂1쎯	-10.9007
wa❄	-10.9009
qi❃25쎯yun❄9쎯	-10.9009
li❄270쎯chong❁7쎯,	-10.9009
yun❂5쎯li❂122쎯	-10.901
xi❁173쎯zi❃5쎯	-10.9012
qin❂5쎯tan❂62쎯	-10.9013
zhe❃1쎯	-10.9013
e❄25쎯mie❁4쎯	-10.9015
sai❄3쎯zhou❄5쎯	-10.9016
huan❂60쎯yi❂125쎯	-10.9016
kai❁11쎯tian❄3쎯	-10.9017
쎁쎂-	-10.9019
cui❄6쎯	-10.9022
ruan❃20쎯jian❁60쎯	-10.9025
shang❁17쎯li❄196쎯	-10.9027
ye❄73쎯di❂46쎯	-10.9028
,dai❄25쎯xian❃46쎯	-10.9028
ya❁	-10.9029
yi❄249쎯li❃40쎯	-10.903
chong❃8쎯	-10.903
ju❄	-10.903
qia❂0쎯dao❃22쎯	-10.9031
tiao❁8쎯wan❃49쎯	-10.9031
shu❁	-10.9036
qi❁71쎯nou❄1쎯:쎁	-10.9041
de❂	-10.9043
an❃0쎯chen❂57쎯	-10.9044
:zi❁61쎯gun❄4쎯>	-10.9049
-)	-10.9052
mi❂29쎯wei❄6쎯	-10.9055
zhuo❂50쎯yan❂101쎯	-10.9056
yan❂29쎯	-10.9058
pu❃10쎯zong❄14쎯	-10.9059
zhan❄18쎯tian❂18쎯	-10.9063
쎄ji❄99쎯	-10.9065
zhe❂33쎯jian❁2쎯	-10.9067
po❄2쎯lai❄28쎯,	-10.9067
ku	-10.9067
qian❁70쎯bi❄189쎯	-10.9068
《》	-10.9069
tai❄4쎯zeng❁7쎯쎁	-10.9071
쎀쎀e❄71쎯	-10.9071
ken❄2쎯》:“	-10.9073
nv❄4쎯bao❁15쎯》	-10.9075
reng❂1쎯cong❂42쎯	-10.9077
”ba❂2쎯	-10.9078
shen❃35쎯lin❂62쎯“	-10.9079
jing❄3쎯dian❃2쎯	-10.908
ge❂45쎯	-10.908
zhuo❂8쎯bian❃18쎯	-10.9083
xian❂28쎯pan❂20쎯	-10.9085
,dai❄25쎯di❄13쎯	-10.9086
bi❄39쎯	-10.9086
pao❂10쎯,	-10.9087
tian❂18쎯dang❄28쎯	-10.9087
pan❂20쎯shi❁8쎯《	-10.9089
dian❄35쎯zhu❁14쎯	-10.9092
cui❄48쎯bi❄189쎯	-10.9098
chao❄12쎯jiao❁33쎯	-10.9103
ruo❄10쎯ru❃0쎯	-10.9106
kai❁11쎯sui❄32쎯	-10.9108
zuo❂8쎯ru❃9쎯	-10.9112
쎆nie❄119쎯mie❁4쎯	-10.9113
hui❄13쎯shi❃26쎯	-10.9113
jiao❄32쎯zhi❂16쎯	-10.9114
qiao❂3쎯yan❄84쎯	-10.9115
pie❄1쎯gui❄20쎯	-10.9116
lin❃13쎯shi❃26쎯	-10.9117
zhe❂33쎯ze❂56쎯:	-10.9117
ke❂0쎯zhi❂69쎯	-10.9118
zhe❄9쎯ruan❄2쎯、	-10.9125
lv❄22쎯biao❄8쎯	-10.9125
,cai❂13쎯wei❂79쎯	-10.9127
pan❁6쎯di❄13쎯	-10.9128
쎅qin❁2쎯	-10.9129
shi❄63쎯wen❂0쎯	-10.913
chu❁5쎯	-10.9132
dai❄25쎯gou❃8쎯	-10.9134
xian❃58쎯ke❁55쎯	-10.914
쎂,	-10.9142
tan❂62쎯guang❁13쎯	-10.9143
he❂108쎯ru❂27쎯	-10.9145
qun❂3쎯	-10.9147
shi❃26쎯kai❁11쎯	-10.9147
sai❄5쎯	-10.9151
,shan❁17쎯ji❁125쎯	-10.9151
li❂76쎯gui❄72쎯	-10.9152
jia❁3쎯tian❂15쎯	-10.9152
,쎂쎀쎀쎄mai❄10쎯	-10.9153
쎂.쎈	-10.9153
jian❁60쎯、	-10.9153
yi❂114쎯xie❄21쎯	-10.9156
xiu❁9쎯ru❃9쎯	-10.9157
、gao❃19쎯	-10.916
di❁28쎯feng❄14쎯.	-10.9165
li❂122쎯luo❂2쎯	-10.9166
쎁jiao❄32쎯	-10.9167
yi❁32쎯qiao❁30쎯	-10.9172
chu❂0쎯lei❃30쎯	-10.9172
weng❄6쎯chong❁7쎯	-10.9174
fa❂15쎯	-10.9174
.쎁쎉쎈쎄mai❄10쎯	-10.918
zong❄14쎯ao❂33쎯	-10.9183
he❂47쎯qiong❂72쎯	-10.9186
chan❂50쎯kao❄2쎯	-10.9186
dai❄25쎯xie❂16쎯	-10.9188
:쎀.	-10.9189
,qiao❂3쎯dang❁1쎯	-10.919
jiao❄32쎯shi❃26쎯	-10.9192
fu❄115쎯dao❄17쎯	-10.92
dai❄25쎯sou❁22쎯	-10.9202
sao❁18쎯xiu❁9쎯	-10.9202
,zeng❁7쎯	-10.9203
qian❁30쎯jian❃4쎯:	-10.9203
xian❄20쎯lang❃3쎯	-10.9208
zhong❃8쎯hu❁58쎯	-10.921
gan❁55쎯	-10.9212
fu❁45쎯yong❃30쎯	-10.9213
qu❁21쎯kong❃5쎯	-10.9214
xiao❁90쎯chan❂28쎯	-10.9215
dan❁11쎯ti❁6쎯	-10.9216
ruo❄10쎯yin❁53쎯f	-10.9216
gu❁	-10.9216
ou❃5쎯bi❄186쎯	-10.9216
rang❃2쎯hao❄14쎯	-10.9217
yao❃43쎯	-10.9218
wu❃9쎯qian❂29쎯	-10.9221
huang❂56쎯hua❂3쎯	-10.9222
cu❄3쎯ming❂28쎯	-10.9227
xu❄42쎯yan❁34쎯	-10.9228
shi❁	-10.9232
ru❃0쎯,	-10.9233
쎉쎀쎀/쎁쎈쎀쎀	-10.9234
ke❁32쎯yong❃30쎯	-10.9235
qing❄17쎯weng❄4쎯	-10.9239
chong❁7쎯ze❂56쎯	-10.9239
che❃7쎯	-10.9239
ke❂0쎯yang❁8쎯	-10.9243
long❄15쎯	-10.9245
ji❂169쎯shuo❄33쎯	-10.9247
hun❁2쎯	-10.9248
du❂13쎯hong❂12쎯	-10.9249
chi❄73쎯	-10.925
zhi❁25쎯liang❃2쎯	-10.9253
chou❂1쎯mai❄10쎯	-10.9255
su❄8쎯	-10.9255
yun❄32쎯cuo❁1쎯	-10.9258
jue❄2쎯shan❄35쎯	-10.9259
ce❄21쎯wai❁3쎯	-10.9259
yao❄18쎯	-10.9259
,sui❄48쎯	-10.9261
zha❄26쎯ji❄99쎯	-10.9262
xuan❄33쎯shuo❄33쎯	-10.9263
huang❁24쎯li❄196쎯	-10.9263
xiao❁68쎯shao❄3쎯	-10.9264
pi❄32쎯bi❄203쎯	-10.9265
lv❄5쎯shi❁69쎯	-10.9265
zuo❄23쎯	-10.9266
yan❄93쎯hao❄14쎯	-10.9268
.쎂쎀쎀쎁mai❄10쎯	-10.9269
shi❃26쎯qu❁58쎯쎀.	-10.9269
ci❂18쎯ci❂18쎯	-10.9277
qi❁68쎯yong❃30쎯	-10.9278
chu❄0쎯gu❁7쎯	-10.928
han❄19쎯ji❄52쎯	-10.9281
liang❃2쎯dian❃2쎯	-10.9283
jian❁60쎯,	-10.9283
kao❄2쎯bo❂79쎯	-10.9285
guo❂1쎯yan❁54쎯	-10.9286
,쎁	-10.9287
you❁22쎯qu❁21쎯	-10.9287
meng❂76쎯	-10.9287
dian❄35쎯gun❄4쎯·	-10.9287
jian❁100쎯cai❂13쎯	-10.9287
yao❂36쎯wen❂24쎯:	-10.9289
qi❃24쎯wen❂2쎯	-10.9291
bing❁11쎯fen❁39쎯	-10.9295
lai❂4쎯nai❂10쎯	-10.9295
hong❄9쎯	-10.9296
ze❂56쎯chuai❂1쎯	-10.93
ta❄14쎯ku❃2쎯	-10.93
guan❄4쎯sui❃6쎯	-10.9307
쎁.쎃	-10.9307
guang❁	-10.9311
ju❂40쎯	-10.9311
,chu❄0쎯	-10.9313
quan❁4쎯xuan❄33쎯	-10.9314
yi❂21쎯	-10.9314
xing❄6쎯zhe❂33쎯	-10.9316
qi❄	-10.9318
cuo❁1쎯ci❄36쎯	-10.9318
ti❃10쎯cang❂7쎯	-10.9319
쎅ji❄99쎯	-10.9321
.shu❁47쎯yi❂125쎯	-10.9322
dan❃24쎯lin❂58쎯	-10.9324
di❃18쎯zuo❄4쎯	-10.9327
.chou❂1쎯mai❄10쎯	-10.9327
tian❂18쎯jian❃45쎯	-10.9329
fan❂46쎯ji❄23쎯	-10.933
lang❄0쎯yu❄68쎯	-10.9332
che❄20쎯nan❂30쎯	-10.9333
쎅쎀e❄25쎯,	-10.9334
zha❁8쎯qu❁82쎯	-10.9337
li❄5쎯ga❄4쎯	-10.9338
fen❄28쎯	-10.9338
zi❁81쎯	-10.934
hui❄39쎯	-10.9343
qing❄3쎯fu❂70쎯	-10.9348
di❄57쎯	-10.9349
li❄5쎯qian❂27쎯.	-10.935
nie❄8쎯	-10.9354
ta❄99쎯zou❁10쎯	-10.9362
di❁32쎯za❂8쎯	-10.9364
,쎂쎀쎀쎆mai❄10쎯	-10.9368
ao❂12쎯wu❄27쎯	-10.9368
teng❂24쎯mie❁4쎯	-10.9372
du❂59쎯ta❄40쎯	-10.9373
zao❃12쎯,	-10.9374
ji❁77쎯huang❁19쎯	-10.9377
ji❄194쎯gan❄4쎯	-10.9377
chu❂0쎯lu❂31쎯	-10.9377
hui❄33쎯ru❃0쎯	-10.9378
luo❂2쎯tu❂52쎯	-10.9378
쎂쎀nie❄119쎯mie❁4쎯	-10.9379
da❂60쎯e❄71쎯	-10.9381
da❂60쎯lv❄46쎯	-10.9381
ta❄61쎯tui❄1쎯	-10.9384
ling❂181쎯cha❂39쎯	-10.9386
.쎀쎅	-10.9386
gong❁27쎯	-10.9387
han❄48쎯chong❁32쎯	-10.9389
xi❃	-10.939
er❂14쎯shan❁17쎯	-10.9391
,beng❄18쎯	-10.9392
,쎂쎀쎀쎅mai❄10쎯	-10.9392
su❄61쎯ying❁81쎯	-10.9394
qin❂5쎯chen❂57쎯	-10.9396
쎀.쎉	-10.9396
he❂47쎯bi❄186쎯	-10.9396
yu❄43쎯la❄1쎯	-10.9398
lv❄22쎯tan❂62쎯	-10.9399
zong❄7쎯ci❄34쎯	-10.94
ji❁180쎯po❂7쎯	-10.9402
wei❄	-10.9404
쎁쎂gui❁61쎯pie❄1쎯	-10.9405
xu❁40쎯dou❁14쎯	-10.9405
yu❄68쎯jiao❁33쎯	-10.9406
fu❂142쎯chuai❂1쎯	-10.9406
yi❂27쎯jian❃4쎯	-10.9409
yu❃29쎯	-10.941
7쎯zuo❄4쎯yi❂27쎯	-10.9413
jie❄23쎯zhi❂5쎯	-10.9413
nin❂1쎯ke❁8쎯	-10.9413
shi❃26쎯weng❄6쎯	-10.9413
(zao❃14쎯weng❄6쎯)	-10.9417
쎁쎈쎅	-10.9417
cheng❂85쎯lu❃20쎯.	-10.9417
쎂.쎂	-10.9417
bao❃38쎯wei❂79쎯	-10.9418
jing❄3쎯guai❄14쎯	-10.9418
bing❄11쎯yan❃118쎯	-10.942
er❂14쎯	-10.942
he❂2	-10.9423
li❄5쎯gan❄4쎯	-10.9425
.wa❁21쎯li❂122쎯《	-10.9427
nei❃8쎯lan❄10쎯	-10.9427
qi❁68쎯zhi❂69쎯	-10.9428
,re❄2쎯们	-10.9432
ji❄101쎯	-10.9432
gua❃0쎯zhen❁15쎯	-10.9433
hu❄44쎯zao❃14쎯	-10.9434
fan❂46쎯kang❂쎯	-10.9435
,gao❄0쎯	-10.9438
-쎂쎀쎀	-10.9438
san❃7쎯ge❂52쎯	-10.9438
,can❄15쎯ze❂3쎯	-10.944
ci❄34쎯wo❁5쎯	-10.9441
,yi❄228쎯yu❃36쎯	-10.9442
yi❄310쎯	-10.9446
sui❁	-10.9448
sai❄3쎯tu❂52쎯	-10.9449
e❄25쎯hu❂119쎯	-10.945
lei❂28쎯	-10.9453
xian❂73쎯	-10.9454
hu❁57쎯	-10.9454
fu❂142쎯ji❄99쎯.	-10.9458
suo❁23쎯	-10.946
н	-10.9462
,ta❃1쎯	-10.9462
)ba❂2쎯	-10.9463
,ji❁77쎯	-10.9463
kuai❃3쎯pin❁6쎯	-10.9464
mian❃7쎯chen❂51쎯	-10.9464
shan❁24쎯ji❁7쎯	-10.9465
ce❄9쎯zi❁78쎯	-10.9466
92쎯	-10.9466
ling❂42쎯rao❄3쎯	-10.9467
lei❄7쎯liu❂10쎯	-10.9467
ju❄21쎯》	-10.9468
lan❄10쎯ban❄29쎯	-10.9471
chong❁32쎯fu❂69쎯	-10.9471
wang❃8쎯chong❁7쎯	-10.9471
lie❄24쎯	-10.9474
zong❄14쎯rong❂58쎯	-10.9475
ping❂44쎯li❂109쎯.	-10.9476
zai❄7쎯ai❄54쎯쎂	-10.9476
쎂ji❄99쎯	-10.9477
weng❄6쎯rang❄3쎯	-10.9477
쎃ji❄99쎯	-10.9477
xian❃40쎯shan❁17쎯	-10.9478
ci❁	-10.948
xing❄6쎯yu❃64쎯	-10.9481
su❄80쎯yan❂41쎯	-10.9483
lv❄22쎯ru❃0쎯	-10.9484
guo❂2쎯	-10.9485
li❂126쎯qiang❄4쎯	-10.9485
jing❄3쎯chuai❂1쎯,	-10.9487
sui❄	-10.9487
kui❂41쎯jiao❃40쎯	-10.9489
bi❄203쎯chong❁7쎯	-10.9491
can❄7쎯qiu❂80쎯,	-10.9491
mang❂15쎯	-10.9493
(쎆	-10.9496
yu❃64쎯guan❄42쎯	-10.9497
she❁12쎯	-10.9499
du❄29쎯po❂7쎯	-10.9503
gu❃26쎯mai❄10쎯	-10.9505
쎀fan❂29쎯bian❄65쎯	-10.9506
sai❄3쎯liu❂10쎯	-10.9507
dang❄28쎯qu❂96쎯	-10.9509
ting❂20쎯die❂9쎯	-10.951
/쎁	-10.9511
쎁쎁쎂	-10.9512
쎁쎅쎀e❄25쎯	-10.9513
en❁5쎯yi❄267쎯	-10.9516
ying❂62쎯yong❃14쎯	-10.9521
bu❄33쎯bo❁36쎯	-10.9524
ze❂49쎯ba❂20쎯	-10.9524
tuo❁	-10.9526
cuo❄13쎯	-10.9528
、guai❄14쎯zai❄7쎯	-10.9528
qia❄2쎯xi❄31쎯	-10.9529
lv❄22쎯zu❃12쎯	-10.9529
е	-10.953
gao❄16쎯,	-10.953
yi❂108쎯qu❂72쎯	-10.9532
a❁3쎯	-10.9532
po❄2쎯zao❃12쎯	-10.9533
lin❂62쎯li❂122쎯	-10.9536
guo❃24쎯chong❁7쎯、	-10.9537
zhua❁4쎯yin❂49쎯	-10.9537
heng❂1쎯	-10.9544
du❂58쎯shi❄99쎯	-10.9545
chen❄12쎯chuo❄38쎯	-10.955
bao❄34쎯	-10.9551
,lu❄43쎯kui❂41쎯	-10.9551
qin❁2쎯)	-10.9553
you❁38쎯yi❄69쎯	-10.9554
yan❂101쎯mo❄7쎯	-10.9555
46쎯	-10.9555
.hua❄17쎯yi❁58쎯	-10.9559
gai❄1쎯.	-10.9561
cheng❁	-10.9562
bi❃32쎯	-10.9562
jiong❁0쎯qiao❂8쎯	-10.9563
mao❂11쎯cheng❂64쎯	-10.9567
쎆qin❁2쎯	-10.9568
bian❄35쎯	-10.9572
,dai❄25쎯mie❁4쎯	-10.9573
le❄21쎯run❂2쎯	-10.9573
yin❄33쎯	-10.9575
du❂72쎯cang❁5쎯	-10.9576
ju❂32쎯zhan❄13쎯	-10.9578
luo❂2쎯,	-10.9582
luan❄4쎯shi❃11쎯	-10.9584
wa❁0쎯wa❁0쎯	-10.9585
zi❄0쎯	-10.9588
chao❄12쎯bi❄70쎯	-10.9589
7쎯lang❄0쎯gan❄30쎯	-10.959
ji❂132쎯li❄196쎯“	-10.9592
li❄270쎯chong❁7쎯、	-10.9593
tan❂14쎯	-10.9594
.wu❄3쎯ru❃9쎯	-10.9595
qing❄17쎯li❄270쎯	-10.9596
biao❁3	-10.9597
쎁쎁-	-10.9598
dai❄25쎯ruan❄2쎯	-10.9607
ai❄34쎯qi❂122쎯	-10.9608
쎁쎀쎆	-10.9609
qin❄9쎯run❂2쎯	-10.9609
guo❂1쎯ne❄7쎯	-10.961
kao❄2쎯jian❁60쎯	-10.961
di❁32쎯chen❃5쎯	-10.9611
shi❂41쎯	-10.9612
dun❄26쎯	-10.9612
.쎁쎉쎈쎅mai❄10쎯	-10.9614
쎉쎀mai❄10쎯ke❁55쎯	-10.9614
hui❄111쎯zhu❄79쎯	-10.9615
ting❂17쎯za❂8쎯	-10.9618
ti❁6쎯bei❄35쎯	-10.9619
zai❄1쎯	-10.962
zang❁0쎯xin❁23쎯、	-10.962
jie❂21쎯chuan❃3쎯	-10.9621
hua❂3쎯ji❁180쎯	-10.9621
yan❄84쎯xi❄4쎯	-10.9621
,ti❁6쎯ping❂44쎯	-10.9625
she❄9쎯쎅	-10.9625
ru❄10쎯shi❂2쎯	-10.9626
lu❄43쎯wen❂24쎯	-10.9629
xie❂16쎯、	-10.963
bi❄186쎯sa❄2쎯	-10.9634
zhong❁24쎯pi❁22쎯	-10.9634
huang❁14쎯bi❄235쎯	-10.9634
ying❃36쎯lai❂43쎯	-10.9634
rong❂37쎯	-10.9634
bing❄0쎯weng❁5쎯	-10.9635
rong❂44쎯ba❁41쎯	-10.9636
:쎁쎀	-10.9637
❂4쎯	-10.9638
hui❄98쎯	-10.9638
man❂32쎯huang❁19쎯	-10.9638
zha❄26쎯ling❂158쎯	-10.9639
jian❄97쎯	-10.9643
zi❁106쎯jin❄16쎯,	-10.9644
∶	-10.9648
can❄15쎯hua❂3쎯	-10.9649
ju❁34쎯	-10.965
zhuang❁7쎯li❂69쎯	-10.965
kuai❄32쎯yan❄63쎯	-10.9651
tai❂30쎯kao❄2쎯	-10.9655
sou❁22쎯cai❃16쎯	-10.9656
.tun❁16쎯heng❂4쎯	-10.9657
,zhen❄45쎯ci❃11쎯	-10.9658
kai❁11쎯sui❄66쎯	-10.9659
tun❂	-10.9661
fan❂20쎯xie❂30쎯	-10.9662
nie❄92쎯ni❂13쎯	-10.9663
re❄5쎯mai❄10쎯(	-10.9663
chu❂0쎯bu❄62쎯	-10.9663
fu❂142쎯cai❂13쎯	-10.9665
tian❂18쎯jian❁2쎯	-10.9668
zai❃8쎯ya❁28쎯	-10.967
ju❂77쎯guan❄42쎯	-10.9672
a❅쎯dao❁7쎯zhu❄79쎯	-10.9674
re❄5쎯gui❄72쎯	-10.9675
ba❂11쎯la❄1쎯	-10.9676
kao❄2쎯ren❄0쎯	-10.9677
fen❁39쎯heng❂22쎯	-10.9677
xie❄11쎯qian❂27쎯	-10.9678
gao❁0쎯shu❂7쎯	-10.9679
bang❃10쎯bao❁15쎯	-10.9679
쎈ji❄99쎯,	-10.9685
kui❂41쎯lin❂58쎯	-10.9686
,bao❄7쎯fen❁39쎯	-10.9686
pi❁14쎯ya❁28쎯	-10.9687
.쎁쎉쎈쎈mai❄10쎯	-10.9692
li❄270쎯she❄9쎯	-10.9693
.쎁쎉쎉쎈mai❄10쎯	-10.9695
jun❄29쎯	-10.9695
sui❄81쎯	-10.9699
zhou❁	-10.9701
쎂쎈쎀	-10.9701
yong❃30쎯cuo❁1쎯	-10.9702
ji❄43쎯lin❂58쎯	-10.9705
ju❃38쎯dong❄38쎯	-10.9706
yi❂125쎯pu❂0쎯们	-10.9706
kao❄2쎯fen❂10쎯	-10.9706
hui❄14쎯wan❂23쎯	-10.9708
tao❁10쎯pu❁21쎯	-10.971
pin❂10쎯nuo❄25쎯	-10.9714
,ka❃5쎯	-10.9718
wei❄2쎯	-10.9719
(ka❃5쎯	-10.972
mai❄10쎯ling❂158쎯	-10.972
tan❂62쎯she❄18쎯.	-10.9721
feng❄16쎯han❂12쎯	-10.9721
쎆ji❄99쎯	-10.9725
shuo❄33쎯gai❄1쎯,	-10.9725
can❄7쎯jian❃45쎯	-10.9728
kun❃6쎯ke❂0쎯	-10.9729
、chu❂0쎯	-10.973
he❂31쎯	-10.9731
wu❃	-10.9738
nan❂1쎯	-10.9738
ju❃38쎯zhi❃58쎯	-10.9739
wang❃38쎯	-10.9741
ㄒ	-10.9741
,hu❂4쎯	-10.9742
kuan❃2쎯lie❄86쎯	-10.9746
ji❄42쎯	-10.9747
쎀쎈-	-10.9748
deng❄13쎯	-10.9752
、ji❄26쎯chong❁32쎯	-10.9753
guai❄14쎯ku❃2쎯	-10.9754
kong❃5쎯ju❂29쎯	-10.9755
쎇쎀mai❄10쎯ke❁55쎯	-10.9759
huang❃28쎯yi❄38쎯	-10.976
gou❄22쎯、	-10.9762
shi❁69쎯kao❄1쎯	-10.9763
tiao❃2쎯	-10.9765
wo❁5쎯:	-10.9765
.....	-10.9766
gun❄4쎯》:“	-10.9774
ye❄38쎯ju❃38쎯	-10.9775
,shan❁17쎯lei❂45쎯	-10.9775
yang❄4쎯en❁5쎯	-10.9776
,ling❂181쎯	-10.9777
yuan❂	-10.9778
lin❂58쎯bin❄9쎯	-10.9781
jing❄3쎯tui❄1쎯	-10.9782
he❂113쎯dao❃22쎯	-10.9783
쎁쎀쎀ji❄23쎯	-10.9784
jing❃9쎯	-10.9785
xu❁78쎯shua❃1쎯	-10.9787
.bo❁6쎯	-10.9787
shi❄63쎯zhe❂33쎯	-10.9789
qian❁30쎯fu❄115쎯	-10.979
ou❃5쎯chu❄45쎯	-10.979
qian❂29쎯ben❁4쎯	-10.9791
huo❄2쎯	-10.9792
po❂7쎯hu❂119쎯	-10.9795
gun❄4쎯》	-10.9796
gu❁29쎯kuai❃3쎯:	-10.9797
ji❄99쎯们ru❃9쎯	-10.98
ge❁	-10.98
fan❂46쎯bu❄62쎯	-10.9801
bin❁27쎯luo❂2쎯:	-10.9802
,쎂쎀쎀쎃mai❄10쎯	-10.9802
、zheng❄1쎯	-10.9804
ken❃	-10.9808
、yi❂114쎯	-10.9809
ru❂27쎯》:“	-10.9811
ri❄2쎯	-10.9811
lu❃20쎯niao❃28쎯,	-10.9812
yi❂27쎯ru❃9쎯	-10.9813
jiong❁6쎯	-10.9814
xie❂46쎯,	-10.9815
쎅.쎅	-10.9819
xi❁127쎯	-10.9821
,zao❃14쎯	-10.9821
dang❄	-10.9822
tai❄4쎯di❁28쎯	-10.9822
ti❁6쎯ta❄40쎯	-10.9822
xiao❄35쎯lu❃20쎯	-10.9823
xie❂74쎯ke❁32쎯	-10.983
shi❄79쎯cheng❁48쎯	-10.9832
qin❃11쎯qi❁68쎯	-10.9832
mi❄56쎯di❁28쎯	-10.9834
yu❃64쎯tang❃12쎯	-10.9835
kuang❂7쎯shan❁17쎯	-10.9837
,kai❁6쎯xiang❄24쎯	-10.9837
—쎁쎉쎉	-10.9837
qiong❂72쎯e❂49쎯	-10.984
gu❃15쎯yu❃64쎯	-10.9841
en❄	-10.9842
bi❄203쎯guang❁13쎯	-10.9842
lou❂36쎯zong❄7쎯	-10.9845
dao❃22쎯fu❂69쎯	-10.9845
yuan❄6쎯lu❂31쎯	-10.9849
shu❂7쎯ju❄25쎯	-10.9851
쎀°	-10.9853
、pai❂4쎯	-10.9853
、jie❂129쎯yu❄68쎯	-10.9854
쎂cheng❂85쎯	-10.9857
chen❄12쎯	-10.9859
qi❃51쎯jian❃80쎯	-10.986
❁0쎯	-10.9861
bi❄203쎯jian❃45쎯	-10.9863
,di❁28쎯feng❄14쎯	-10.9864
ruan❄2쎯,	-10.9865
ling❂158쎯nv❄4쎯	-10.9866
gui❁53쎯ming❂6쎯	-10.9867
bi❃14쎯hou❄24쎯	-10.9867
dang❁25쎯xi❄4쎯	-10.9867
chao❄12쎯yan❂28쎯	-10.9873
lv❄22쎯li❃48쎯	-10.9873
yong❁13쎯xiao❁68쎯	-10.9874
fu❂142쎯ji❄99쎯,	-10.9875
、ji❂169쎯li❂109쎯	-10.9875
jie❄23쎯meng❂84쎯	-10.9875
tong❂23쎯ti❄34쎯	-10.9877
cha❂	-10.9878
shi❃26쎯qu❁58쎯쎁쎅	-10.9879
feng❁30쎯bin❄2쎯	-10.9879
mai❄10쎯qian❂41쎯,	-10.9883
mian❃7쎯duo❃43쎯	-10.9884
li❂28쎯mo❄114쎯,	-10.9884
bian❃6쎯chao❄12쎯	-10.9887
ai❂5쎯ta❄40쎯	-10.9888
gai❄4쎯fen❁39쎯	-10.9888
yao❃2쎯rou❂19쎯	-10.9889
chao❄12쎯hua❄17쎯	-10.9889
zheng❄1쎯sui❄66쎯	-10.9891
jin❃18쎯wu❃49쎯	-10.9892
쎁쎉쎀쎀	-10.9892
bo❁6쎯shao❃5쎯	-10.9893
jian❃109쎯	-10.9895
yi❁65쎯bu❄33쎯	-10.9896
qu❂96쎯chong❁7쎯、	-10.9897
,si❁36쎯	-10.9902
,shao❃0쎯zhi❁70쎯	-10.9905
zuo❄4쎯fen❃3쎯,	-10.9909
huai❄	-10.9911
qiao❂3쎯dang❁1쎯,	-10.9913
hu❂107쎯	-10.9914
ji❄99쎯li❂109쎯	-10.9915
ta❄99쎯shi❃26쎯	-10.9916
ji❂169쎯bi❄12쎯	-10.9916
,hui❁34쎯	-10.9916
gu❁29쎯bian❃18쎯	-10.9918
qiao❁46쎯	-10.9919
lei❄7쎯chuai❂1쎯	-10.9921
che❄20쎯,	-10.9922
za❁23쎯bao❄5쎯	-10.9923
zhan❄18쎯tuo❁11쎯	-10.9923
쎁쎅nie❄119쎯mie❁4쎯	-10.9923
ru❂27쎯sui❄66쎯	-10.9925
bie❁10쎯zuo❄4쎯:	-10.9926
can❄15쎯ju❄98쎯,	-10.9929
pi❄16쎯	-10.9929
ben❁4쎯mao❂11쎯	-10.993
hui❄13쎯bi❄189쎯	-10.993
ga❄4쎯qia❄2쎯	-10.9931
70쎯	-10.9931
lve❄5쎯song❃15쎯	-10.9932
쎁쎉쎇쎉	-10.9933
pai❂4쎯feng❄5쎯	-10.9937
gao❄5쎯gan❃23쎯	-10.9937
mi❄14쎯lve❄25쎯	-10.994
bi❄203쎯fu❂70쎯	-10.994
er❂19쎯ba❂11쎯	-10.9941
yi❄48쎯	-10.9945
wei❂76쎯qi❄35쎯	-10.9946
en❁5쎯san❄5쎯	-10.9948
qi❁71쎯nou❄1쎯쎁	-10.9948
wu❃59쎯	-10.9948
li❂76쎯gui❁61쎯	-10.9951
man❂40쎯	-10.9951
zhi❁	-10.9953
long❂	-10.9954
yan❃2쎯se❄57쎯.	-10.9954
qia❃1쎯dao❄17쎯	-10.9961
zao❃14쎯bing❁11쎯	-10.9962
jian❄86쎯	-10.9964
ji❄99쎯li❄196쎯	-10.9964
ta❄99쎯guai❄14쎯	-10.9964
fu❂142쎯he❂41쎯	-10.9965
65쎯	-10.9966
)wan❃31쎯	-10.9967
you❂	-10.9969
hong❄4쎯	-10.997
jie❄21쎯weng❄6쎯	-10.9972
pin❂9쎯ci❄36쎯	-10.9973
ting❂20쎯zhi❁70쎯	-10.9974
yi❄38쎯ta❄14쎯	-10.9976
yan❄15쎯fang❂0쎯	-10.9977
liu❂84쎯po❂9쎯	-10.9979
、can❃3쎯shi❂3쎯	-10.998
li❂76쎯zi❃5쎯	-10.9982
su❄12	-10.9983
,쎁쎉쎈쎅mai❄10쎯	-10.9983
zao❃12쎯zhan❃28쎯	-10.9985
lai❄28쎯ji❄193쎯	-10.9986
tan❃9쎯	-10.9987
yun❁9쎯you❁27쎯	-10.9988
ka❃5쎯lie❄86쎯	-10.9989
xu❄61쎯pi❂20쎯	-10.999
dian❃2쎯,	-10.9991
yi❄381쎯qiu❂51쎯	-10.9992
he❂41쎯chao❄12쎯	-10.9992
chuang❁9쎯	-10.9995
쎅nie❄119쎯mie❁4쎯,	-10.9995
po❄42쎯zai❄7쎯	-10.9996
mang❃	-10.9999
.쎂쎀쎀쎀mai❄10쎯	-10.9999
yi❂125쎯pu❂0쎯	-11.0001
yong❃35쎯you❂74쎯	-11.0002
ju❄54쎯	-11.0003
zhi❄82쎯	-11.0003
jing❄3쎯.	-11.0006
tan❂62쎯huan❂60쎯,	-11.0007
う	-11.0007
,he❂41쎯wei❂79쎯	-11.0008
zheng❁59쎯	-11.0008
yu❃50쎯	-11.0011
,chou❂1쎯	-11.0012
li❄182쎯	-11.0012
쎀쎇-	-11.0012
ju❃31쎯zhi❂5쎯	-11.0016
jian❃45쎯chong❁7쎯	-11.0017
ta❄99쎯yu❁17쎯	-11.0018
ji❄205쎯zhu❃4쎯	-11.002
huan❂60쎯ta❄40쎯	-11.0023
han❂33쎯qu❁21쎯	-11.0023
ta❃6쎯ling❂158쎯	-11.0025
an❁1쎯wei❂73쎯	-11.0027
yi❁15쎯	-11.0032
bian❄43쎯dao❃22쎯	-11.0032
ku❃2쎯zha❄26쎯	-11.0032
lv❄22쎯tian❄6쎯	-11.0033
gai❄1쎯ruan❄2쎯	-11.0033
ba❂11쎯fen❁39쎯	-11.0034
che❄20쎯po❂9쎯	-11.0034
chang❄16쎯	-11.0034
yao❄9쎯	-11.0035
lv❄32쎯zou❁17쎯	-11.0036
qi❁68쎯,	-11.0036
ke❃12쎯qiang❁8쎯	-11.0037
,hui❄14쎯ta❄40쎯	-11.0043
nie❄85쎯li❄270쎯	-11.0044
nv❄4쎯zui❄7쎯:	-11.0044
kai❁11쎯shu❃12쎯	-11.0046
”yan❂101쎯	-11.0052
li❄5쎯chong❁7쎯	-11.0055
tiao❄7쎯tai❁0쎯	-11.0055
zhe❄9쎯kuai❄26쎯	-11.0059
fen❄4쎯cai❁7쎯	-11.0059
bing❁11쎯cai❂13쎯	-11.0062
sai❄3쎯wu❃9쎯	-11.0063
die❂70쎯	-11.0065
wei❂17쎯qi❁68쎯	-11.0065
huan❄11쎯	-11.0066
fu❃48쎯	-11.0066
(쎁쎉쎃	-11.0067
suo❁6쎯gu❃15쎯	-11.0072
chu❂0쎯xing❄6쎯	-11.0075
wa❁0쎯yi❁65쎯	-11.0075
쎇쎅쎀	-11.0075
wai❁7쎯dang❁1쎯	-11.0079
,gun❃2쎯za❂8쎯	-11.0079
쎄ji❄99쎯,	-11.0081
,쎂쎀쎀쎇mai❄10쎯	-11.0082
jiao❃45쎯	-11.0084
chen❄8쎯pi❁22쎯.	-11.0085
zhi❄54쎯gan❄4쎯	-11.0088
beng❄18쎯kai❁11쎯	-11.0089
wan❃31쎯si❁45쎯	-11.009
쎁쎉lie❄86쎯yu❂72쎯	-11.009
huo❄45쎯ke❁55쎯	-11.009
zhuo❂54쎯	-11.0092
,jie❂33쎯duo❃43쎯	-11.0094
jia❁1	-11.0095
fen❁39쎯guan❄42쎯	-11.0097
wan❃31쎯qiao❄13쎯;	-11.0097
jue❂153쎯	-11.0098
po❂7쎯dan❁11쎯	-11.0099
wang❃19쎯	-11.01
xiu❄3쎯ju❃31쎯	-11.0103
gun❃2쎯ju❄25쎯	-11.0107
tong❂14쎯bei❄80쎯	-11.0108
yi❄381쎯yi❂125쎯	-11.0109
mang❂20쎯bu❄33쎯.	-11.0109
gu❃15쎯man❂32쎯:	-11.011
zi❄22쎯gao❃8쎯	-11.011
wan❃31쎯ke❂0쎯.	-11.0112
ling❂34쎯zao❃12쎯	-11.0115
chong❁7쎯wu❃49쎯	-11.0116
gua❃0쎯hou❄27쎯	-11.0118
,쎂쎀쎀쎂mai❄10쎯	-11.0119
쎁쎉쎂쎅mai❄10쎯	-11.012
shao❄3쎯qian❂27쎯	-11.0122
re❄5쎯zui❄7쎯	-11.0126
li❃4	-11.0126
kuan❁	-11.0126
xian❂88쎯	-11.0127
mi❄19쎯li❂126쎯	-11.0128
hong❁10쎯zhang❄2	-11.0128
fu❂142쎯zha❄26쎯	-11.0129
chan❃4쎯	-11.0129
tian❂18쎯dang❄8쎯	-11.0131
ji❁125쎯po❂7쎯	-11.0131
zhi❃58쎯zhou❁58쎯	-11.0132
ju❃38쎯ti❁6쎯	-11.0134
yong❃30쎯ke❂0쎯	-11.0138
;shu❂7쎯	-11.0139
shi❂1쎯di❁28쎯	-11.014
jin❁25쎯	-11.014
wu❃12쎯dian❄14쎯	-11.0142
yin❂64쎯ta❄40쎯	-11.0143
zi❁61쎯zuo❄4쎯	-11.0144
,tou❄5쎯mai❄10쎯	-11.0146
hong❂42쎯	-11.0147
fen❂2쎯po❂7쎯	-11.0148
er❂14쎯ning❂14쎯	-11.0148
nie❄13쎯	-11.0149
lv❂5쎯xiu❁46쎯	-11.0149
kai❁6쎯yan❃118쎯	-11.015
geng❄10쎯	-11.0151
fan❁19쎯ru❃0쎯:	-11.0151
,er❃1쎯fu❂70쎯	-11.0152
ti❄42쎯,	-11.0153
,shao❄3쎯	-11.0154
쎃쎀mai❄10쎯	-11.0154
shan❃	-11.0155
lu❄29쎯	-11.0155
.xin❁40쎯qu❁21쎯,	-11.0155
쎁쎉쎉쎈	-11.0156
()ji❄193쎯	-11.0158
dao❃1쎯ju❄75쎯	-11.0158
shi❃26쎯qu❁58쎯쎁쎁	-11.0158
huan❁6쎯)	-11.0158
hui❁14쎯	-11.0164
.he❂41쎯zhu❁14쎯	-11.0172
xu❁78쎯zhe❂33쎯	-11.0173
zhe❂33쎯gun❄4쎯	-11.0174
dian❄21쎯yao❃12쎯	-11.0175
ba❂11쎯cai❂13쎯	-11.0175
dun❄22쎯tian❃26쎯	-11.0175
lang❄0쎯tuan❂2쎯	-11.0177
gao❄16쎯qian❂29쎯:	-11.0178
yi❄10쎯shao❄3쎯	-11.0178
ci❃11쎯zhang❁28쎯,	-11.0182
cai❃4쎯	-11.0182
ge❂52쎯jian❁60쎯	-11.0183
.쎁쎉쎉쎂mai❄10쎯	-11.0184
rang❃4쎯mei❃4쎯	-11.0187
yu❄59쎯	-11.0187
ba❁10쎯tang❃12쎯、	-11.0192
jiao❄19쎯	-11.0194
gui❁61쎯li❂69쎯	-11.0196
쎁쎀쎂	-11.0196
shi❂1쎯yu❄133쎯	-11.0202
hui❄13	-11.0205
po❂7쎯、	-11.0208
quan❂54쎯nou❄1쎯	-11.0208
gai❄1쎯ze❂15쎯,	-11.0211
shan❁17쎯fu❄115쎯	-11.0213
yong❃35쎯,	-11.0214
ru❃9쎯xi❄4쎯po❂9쎯	-11.0215
qu❄13쎯	-11.0217
diao❁3	-11.0219
zao❄26쎯lou❂0쎯	-11.022
en❁5쎯yi❁32쎯	-11.0221
,gu❁29쎯hu❂71쎯	-11.0223
쎁쎉쎈쎃	-11.0224
qin❃8쎯jin❁30쎯	-11.0225
ge❂69쎯yi❂27쎯	-11.0226
wei❂73쎯hong❂12쎯	-11.0232
qu❂96쎯zao❃12쎯.	-11.0233
wen❂24쎯sui❄66쎯	-11.0233
yu❄7	-11.0234
bian❃6쎯e❂49쎯	-11.0238
ㄌ	-11.024
lv❄22쎯tong❂62쎯	-11.0244
fen❄4쎯	-11.0247
dan❃37쎯	-11.0247
쎁쎉쎉쎆	-11.0249
62쎯	-11.0251
lin❂58쎯guai❄14쎯	-11.0252
yin❂18쎯gui❁61쎯	-11.0254
cheng❂85쎯.	-11.0254
nie❄119쎯ci❃11쎯	-11.0254
ru❃9쎯er❃1쎯fu❂70쎯	-11.0256
qing❄17쎯dan❁11쎯、	-11.0257
sou❁22쎯wu❃9쎯	-11.0259
lai❂4쎯li❂109쎯	-11.0262
,tun❁16쎯heng❂4쎯	-11.0266
nie❄119쎯she❄18쎯	-11.0267
jia❃6쎯xiong❂4쎯	-11.0268
ya❂2쎯ne❄7쎯	-11.0268
li❄270쎯li❂122쎯	-11.0269
qin❂1쎯tun❁15쎯	-11.0269
cui❄58쎯qian❂41쎯	-11.027
ru❃9쎯li❄5쎯luo❂2쎯	-11.0271
쎀yin❂0쎯ji❄23쎯,	-11.0271
shi❄63쎯zhu❁34쎯	-11.0273
qin❂5쎯zhi❁31쎯	-11.0273
,nv❄4쎯ye❄50쎯	-11.0275
mu❃11쎯qiao❁30쎯	-11.0275
ta❄99쎯quan❁4쎯	-11.0275
쎀쎀쎀ji❄23쎯	-11.0277
cu❄33쎯	-11.028
yi❄10쎯bo❁6쎯	-11.0281
kui❁1쎯chong❁32쎯	-11.0282
si❁4	-11.0282
ye❄38쎯nan❂30쎯	-11.0283
们ru❃9쎯	-11.0283
yin❂64쎯feng❂14쎯	-11.0284
hun❂24쎯)	-11.0284
.ba❁41쎯gu❃34쎯	-11.0286
sheng❁36쎯	-11.0286
(wu❃49쎯	-11.0287
ju❂29쎯ou❃15쎯	-11.0288
qi❁61쎯fen❂2쎯	-11.0289
)-	-11.029
,zhe❂33쎯ta❄40쎯	-11.0292
hu❁58쎯shu❃12쎯	-11.0293
peng❂	-11.0294
guo❃24쎯、	-11.0295
fan❂46쎯huo❁1쎯	-11.0296
fei❄44쎯zhe❂33쎯.	-11.0296
mi❄56쎯、	-11.0296
쎂쎅쎀e❄25쎯	-11.0298
4	-11.0298
dou❃	-11.0299
,bi❄203쎯shi❃26쎯	-11.0299
❄5쎯	-11.0302
(쎁쎅	-11.0303
lang❃3쎯ya❂2쎯	-11.0303
ci❃11쎯jiong❃8쎯	-11.0303
(ju❄25쎯chuai❂1쎯	-11.0305
쎁쎁di❄13쎯	-11.0306
chu❂0쎯chong❁51쎯	-11.0309
qu❁8쎯gui❁61쎯	-11.0313
liao❃21쎯ke❃7쎯	-11.0314
na❄65쎯	-11.0315
guan❄42쎯feng❄16쎯	-11.0316
,can❄7쎯huang❁19쎯	-11.032
tian❂18쎯ji❄52쎯	-11.032
lve❄12쎯	-11.0322
zong❄14쎯chen❄8쎯	-11.0322
wei❂73쎯、	-11.0323
chou❂69쎯	-11.0325
li❄270쎯chong❁7쎯.	-11.0326
쎁쎃쎅	-11.0326
chi❁14쎯qiang❁22쎯	-11.0327
yong❃35쎯qian❂27쎯	-11.0328
bin❄10쎯xiao❄35쎯	-11.0329
ju❄75쎯yi❄381쎯	-11.033
.쎁쎉쎉쎇mai❄10쎯	-11.0333
xu❄33쎯mai❄10쎯	-11.0335
tao❂6쎯po❂9쎯	-11.0336
zhang❄20쎯wan❃10쎯	-11.0337
yang❂47쎯du❄3쎯	-11.0339
❅쎯	-11.0341
zhe❂33쎯ba❂11쎯	-11.0341
,re❄2쎯ru❃9쎯	-11.0343
bi❄263쎯mi❄56쎯	-11.0346
sha❁32쎯	-11.0348
qiong❂72쎯mai❄10쎯	-11.0348
shi❃26쎯qu❁58쎯쎁쎃	-11.035
,ze❄17쎯he❂41쎯	-11.0351
hui❄73쎯	-11.0352
hong❂12쎯biao❁11쎯	-11.0357
chong❁7쎯ti❁6쎯	-11.0357
1쎯,	-11.0357
zhuo❂50쎯kuan❃2쎯	-11.0358
qiong❁0쎯zhan❁29쎯	-11.0359
heng❂22쎯lin❂58쎯	-11.0359
mang❂20쎯bu❄33쎯、	-11.036
lv❄22쎯qin❁2쎯	-11.0361
zhuo❂	-11.0362
qiao❂8쎯li❄196쎯	-11.0365
nao❄5쎯jue❂196쎯	-11.0365
li❂122쎯tun❄0쎯	-11.0365
yan❃2쎯qiao❂33쎯	-11.0367
ba❂2쎯di❃21쎯	-11.0367
an❁1쎯yi❄205쎯	-11.0368
liu❄29쎯	-11.0371
,ji❁149쎯	-11.0373
쎀쎀ting❂20쎯	-11.0375
me❄쎯	-11.0376
.re❄2쎯ru❃9쎯	-11.0377
xian❂28쎯bin❄10쎯	-11.0378
he❂41쎯tian❂18쎯	-11.0378
ti❁6쎯tan❂62쎯	-11.0382
pin❂10쎯zai❄7쎯	-11.0383
쎇qin❁2쎯	-11.0383
kua❄7쎯xiong❄12쎯	-11.0385
р	-11.0385
쎅yin❂0쎯ji❄23쎯	-11.0385
ス	-11.0386
you❁4쎯	-11.0387
ti❄42쎯、	-11.039
쎁쎀xu❄33쎯	-11.0391
ji❂178쎯	-11.0392
、pu❃10쎯chen❂53쎯	-11.0393
ling❂181쎯xi❂9쎯	-11.0397
lv❄22쎯zong❄14쎯	-11.0399
hu❂57쎯	-11.0401
xia❂63쎯yu❂110쎯	-11.0402
wu❄27쎯	-11.0402
po❂7쎯qiao❂8쎯	-11.0404
qiao❂3쎯guai❄14쎯	-11.0405
mo❄	-11.0406
yin❁7쎯di❄13쎯	-11.0408
tu❃0쎯zhi❂0쎯	-11.0409
guan❄52쎯shao❃0쎯	-11.041
5쎯,	-11.0414
lin❃13쎯ju❄75쎯	-11.0421
ji❄205쎯fu❂142쎯	-11.0421
jing❄3쎯.”	-11.0422
wan❃31쎯ke❂0쎯,	-11.0424
mi❂6쎯ke❂0쎯	-11.0424
fang❃3쎯cai❂13쎯	-11.0426
mei❂12쎯wei❂73쎯	-11.0426
bi❄189쎯ge❂52쎯	-11.0428
bie❁19쎯	-11.0428
nie❄119쎯bi❄70쎯	-11.0429
lin❂58쎯qiu❂76쎯、	-11.0429
쎃gui❁61쎯pie❄1쎯	-11.0429
ru❂28쎯	-11.043
lou❁2쎯bing❄0쎯	-11.043
kang❄3쎯bing❁11쎯	-11.0432
.bi❄203쎯	-11.0433
en❁5쎯bian❃18쎯	-11.0433
qian❂39쎯	-11.0437
du❁10쎯ta❄34쎯	-11.0439
ju❁48쎯	-11.0439
zai❄7쎯ai❄54쎯쎁,	-11.044
chan❄17쎯fu❂71쎯	-11.0441
xiang❄24쎯fu❂69쎯	-11.0441
ji❄218쎯,	-11.0443
쎆.쎅	-11.0445
mei❃4쎯ye❄50쎯,	-11.0446
wu❁27쎯ni❂13쎯	-11.0447
wan❃43쎯ti❁6쎯	-11.0447
na	-11.0448
fang❂0쎯,	-11.0453
ze❂3쎯po❂7쎯	-11.0453
쎄mai❄10쎯	-11.0453
huan❄15쎯ke❁8쎯ben	-11.0454
wu❃49쎯쎄	-11.0456
쎂.쎃	-11.0457
bao❄7쎯cai❂13쎯z	-11.0457
xian❁45쎯	-11.0458
tong❂23쎯chen❂53쎯	-11.0461
ju❄55쎯jie❂157쎯	-11.0464
la❄1쎯qu❁21쎯	-11.0464
qi❃18쎯ti❁6쎯ru❃9쎯	-11.0465
.쎁쎉쎉쎃mai❄10쎯	-11.0469
fan❂46쎯tian❂15쎯	-11.0471
,ci❃11쎯	-11.0472
pi❄40쎯li❄196쎯	-11.0474
yi❁58쎯guang❁13쎯.	-11.0474
tui❂33쎯gu❃15쎯	-11.0475
zhi❂16쎯,	-11.0475
쎃쎂.	-11.0481
zou❁10쎯gui❁55쎯	-11.0487
weng❄4쎯yu❄68쎯.	-11.049
zhen❄45쎯sui❂2쎯	-11.0491
lu❂31쎯jie❁14쎯,	-11.0492
jian❁60쎯xing❄6쎯.	-11.0492
tai❁8쎯li❂122쎯	-11.0496
xiu❁9쎯lei❄7쎯	-11.0497
zai❄7쎯li❂132쎯	-11.0498
he❄28쎯yi❁58쎯	-11.0498
쎁쎉쎂쎈mai❄10쎯	-11.0498
ku❃2쎯wu❄3쎯	-11.0502
gao❁15쎯	-11.0506
qi❁68쎯lian❂9쎯	-11.0506
fu❄20쎯	-11.0507
yi❄211쎯yi❂125쎯	-11.0507
du❂72쎯jian❃4쎯:	-11.0508
du❄13쎯	-11.0508
lan❂60쎯po❂7쎯	-11.051
zha❂34쎯nie❄82쎯	-11.0513
lang❃3쎯ke❃7쎯	-11.0513
ke❂0쎯bin❄2쎯	-11.0514
yi❁58쎯la❄21쎯	-11.0515
쎅e❄71쎯	-11.0515
ru❃9쎯huan❂12쎯	-11.0517
kuai❃3쎯:	-11.0517
na❄2쎯feng❄17쎯	-11.052
tan❂62쎯ling❂42쎯、	-11.0525
zha❄26쎯jian❃45쎯	-11.0527
xia❂38쎯	-11.0527
ran❂5쎯xu❁78쎯	-11.0528
jia❁3쎯lei❃30쎯	-11.0528
xi❄	-11.0528
ke❁55쎯kong❃5쎯.	-11.053
yan❁61쎯lou❂31쎯	-11.053
mang❂20쎯yao❄42쎯	-11.053
pao❂0쎯kai❄9쎯	-11.0535
ji❄99쎯yu❁17쎯쎅	-11.0537
she❄4쎯	-11.0537
kai❁11쎯tang❂13쎯	-11.0539
쎀쎃-	-11.0539
wu❂27쎯kui❂22쎯	-11.0542
la❄1쎯gun❄4쎯	-11.0544
,zhuang❁7쎯	-11.0546
,pai❂4쎯shao❂7쎯	-11.0548
rong❃28쎯chua❁3쎯	-11.0549
da❂60쎯mie❁4쎯	-11.055
ling❂34쎯tian❂18쎯	-11.055
yan❁54쎯mi❄56쎯	-11.0551
shu❂7쎯ke❂0쎯	-11.0552
mo❄114쎯du❂56쎯	-11.0553
ang❃3쎯	-11.0554
,yu❄32쎯	-11.0556
jiang❄2쎯ci❁18쎯	-11.0557
zhang❄20쎯zi❁106쎯	-11.0558
jing❄3쎯ke❂0쎯	-11.0559
he❂50쎯	-11.0564
、fen❁39쎯	-11.0566
,ji❄99쎯们	-11.0567
tiao❄7쎯e❄54쎯	-11.0569
cuan❁5쎯	-11.057
san❃7쎯gu❄11쎯,	-11.0571
kai❁11쎯zui❄7쎯	-11.0572
ル	-11.0576
bao❁15쎯qiu❂45쎯	-11.0576
huang❁19쎯dou❁9쎯	-11.0576
ji❄218쎯zui❄7쎯	-11.0576
,ba❂11쎯“	-11.0577
zang❁0쎯ju❂29쎯:	-11.0577
ruan❂1쎯bu❄62쎯	-11.0578
ci❄36쎯hou❄24쎯	-11.058
쎅e❄71쎯,	-11.058
lv❄22쎯zao❃12쎯	-11.0581
guo❂1쎯hui❃0쎯	-11.0582
72쎯	-11.0582
gu❄1쎯	-11.0584
ta❄40쎯lv❄22쎯	-11.0587
shu❄41쎯jing❄3쎯	-11.0587
,si❄52쎯	-11.0587
쎁쎉쎂쎇mai❄10쎯	-11.059
jing❄3쎯tui❂33쎯	-11.059
jian❃105쎯nai❂10쎯	-11.0591
feng❁30쎯bian❄2쎯	-11.0591
kao❄2쎯ke❂2쎯	-11.0592
ce❄	-11.0592
80쎯yu❄68쎯xing❄6쎯	-11.0592
duo❄42쎯	-11.0592
76쎯	-11.0594
cang❂7쎯dao❃22쎯	-11.0594
ou❃15쎯yi❂125쎯	-11.0594
chu❂	-11.0594
ge❃0쎯	-11.0595
ling❂52쎯pao❁2쎯	-11.0595
ze❄17쎯bing❁11쎯	-11.0598
gui❄19쎯	-11.0599
zui❄7쎯si❁45쎯	-11.06
.쎁쎉쎈쎃mai❄10쎯	-11.0601
heng❂22쎯ju❂29쎯,	-11.0606
you❄42쎯yuan❃6쎯	-11.0608
dai❄25쎯hou❂43쎯	-11.0609
쎀/	-11.061
teng❁4쎯mai❄10쎯	-11.0612
dai❄	-11.0613
ji❂182쎯chou❂36쎯	-11.0613
ni❂13쎯niao❃28쎯	-11.0617
zang❁0쎯qiao❂8쎯,	-11.0618
gai❄25쎯	-11.0618
li❄5쎯·	-11.0622
da❄10쎯tun❁15쎯	-11.0622
ci❃13쎯ao❂8쎯	-11.0623
쎁쎁쎅	-11.0623
xi❄31쎯ke❂0쎯,	-11.0623
guo❃16쎯	-11.0624
fei❄32쎯	-11.0625
ju❁38쎯li❄270쎯	-11.0627
ren❂10쎯wu❃12쎯	-11.0628
ling❂34쎯jing❁27쎯	-11.0629
guai❄14쎯tan❂62쎯	-11.0629
jing❁27쎯lin❂58쎯	-11.0633
fen❁30쎯	-11.0635
yuan❂30쎯	-11.0635
bao❃38쎯ning❂14쎯	-11.0637
,tun❁16쎯	-11.0639
쎅ji❄23쎯	-11.064
fang❂0쎯ji❁7쎯	-11.0642
zai❄7쎯qi❁2쎯	-11.0644
li❄2	-11.0645
qi❃2	-11.0647
qiao❁30쎯guan❄42쎯	-11.0647
xian❃46쎯ye❄50쎯	-11.0648
chai❄15쎯	-11.065
qi❁2쎯fan❄23쎯	-11.065
ying❂62쎯che❄20쎯	-11.0652
si❄52쎯si❄52쎯	-11.0653
qiong❂66쎯fu❁43쎯	-11.0653
,shen❃35쎯lin❂62쎯	-11.0654
xin❁3쎯jian❃4쎯:	-11.0654
yan❁34쎯li❄270쎯,	-11.0655
쎆쎀쎀쎀	-11.0655
huo❄58쎯xue❄27쎯	-11.0657
ru❃9쎯wei❁20쎯	-11.0658
kui❁1쎯kui❁1쎯	-11.066
yu❂108쎯gou❄22쎯	-11.066
qu❂96쎯sou❁22쎯:	-11.0661
ji❄99쎯ju❂29쎯	-11.0662
en❁5쎯lv❄46쎯	-11.0662
ya❁28쎯qi❁2쎯	-11.0664
zhi❂16쎯ci❄34쎯》	-11.0664
、bao❄7쎯fen❁39쎯	-11.0665
wan❂23쎯nie❄104쎯	-11.0667
.쎅yin❂0쎯ji❄23쎯	-11.0668
lai❄3쎯	-11.0669
qian❄20쎯bi❄203쎯	-11.0671
쎇nie❄119쎯mie❁4쎯	-11.0671
diao❁40쎯yin❂64쎯	-11.0675
jie❄21쎯wai❁3쎯	-11.0675
gu❄11쎯si❄59쎯	-11.0678
en❁5쎯xiong❄17쎯	-11.0679
hui❄13쎯qian❂7쎯	-11.068
hong❂77쎯ran❃21쎯	-11.0685
,fen❁39쎯pu❂16쎯	-11.0685
lu❄3	-11.0686
liao❂42쎯qian❂27쎯	-11.0688
nian❂7쎯fu❄115쎯	-11.0688
pu❂6쎯hui❃0쎯	-11.0689
li❂109쎯yan❃118쎯	-11.0693
en❁5쎯dun❄22쎯	-11.0693
yi❂125쎯tang❁14쎯	-11.0696
kui❄10쎯	-11.0697
chou❂58쎯ju❁70쎯	-11.0698
beng❄8쎯nie❄85쎯	-11.07
ta❄14쎯man❄7쎯	-11.0707
,zai❄7쎯ai❄54쎯	-11.0708
shang❁17쎯:쎂	-11.071
,chu❄45쎯xie❂76쎯	-11.0712
zhi❁56쎯ni❂13쎯	-11.0712
yin❂64쎯xi❂9쎯,	-11.0712
li❂76쎯han❄19쎯	-11.0715
heng❂22쎯qi❂5쎯	-11.0719
(쎁쎇	-11.0721
pao❂	-11.0722
qin❂1쎯ji❄99쎯	-11.0722
ni❄14쎯fu❄115쎯	-11.0723
si❄66쎯ji❂142쎯	-11.0723
qiao❂24쎯ru❃9쎯	-11.0723
bo❂1	-11.0724
e❄25쎯·	-11.0728
ling❂	-11.0728
e❄160쎯dong❁24쎯	-11.0729
nian❃1쎯nai❂10쎯	-11.073
nuo❄16쎯ti❁6쎯	-11.073
ji❂182쎯	-11.0731
tian❃26쎯ru❃0쎯	-11.0733
le❄11쎯zhi❃58쎯	-11.0733
쎁쎂쎃	-11.0734
xing❃6쎯	-11.0734
yu❄99쎯wei❂73쎯	-11.0735
jiu❃14쎯qi❁68쎯	-11.0735
lin❄26쎯ling❂34쎯	-11.0736
쎁쎉쎂	-11.0736
tan❂62쎯po❂7쎯:	-11.0741
dai❁4쎯dao❄17쎯	-11.0741
di❃18쎯《	-11.0745
duo❄46쎯die❂70쎯	-11.0746
qi❄36쎯jie❄21쎯	-11.0746
쎅쎀ji❄23쎯	-11.0747
ㄙ	-11.0748
cha❁	-11.0751
lve❄5쎯chong❁7쎯	-11.0753
ci❄36쎯yan❁54쎯	-11.0755
ti❁6쎯chan❂50쎯	-11.0756
wen❂24쎯jian❁100쎯	-11.0756
en❁5쎯zong❄14쎯,	-11.0757
,쎂쎀쎀쎈mai❄10쎯	-11.0758
쎀쎆-	-11.0758
la❄52쎯dan❁11쎯	-11.076
po❁	-11.0761
n❃2쎯	-11.0762
.쎁쎉쎉쎅mai❄10쎯	-11.0764
xi❁84쎯	-11.0764
:쎈	-11.0765
쎁쎉쎉쎇	-11.0769
jie❂91쎯yu❄68쎯	-11.077
zu❂24쎯	-11.0771
tian❂18쎯kang❄3쎯	-11.0773
diu❁0쎯	-11.0774
hou❂35쎯yin❂64쎯	-11.0774
fa	-11.0775
xing❄6쎯wa❁21쎯	-11.0776
쎁쎀쎁	-11.0777
zhi❂6	-11.0778
ti❁6쎯ting❂31쎯	-11.0778
reng❂4쎯gui❁61쎯	-11.0779
rong❃16쎯mu❃11쎯	-11.078
bu❄62쎯wan❃31쎯	-11.0782
fu❂79쎯li❄5쎯	-11.0782
zan❁0쎯beng❄18쎯	-11.0783
yan❃2쎯cui❄48쎯	-11.0783
di❂2쎯e❄25쎯	-11.0784
qi❃51쎯pie❄1쎯	-11.0787
ke❂0쎯ruan❄2쎯.	-11.0789
nei❃1쎯	-11.0789
ze❂3쎯bu❄33쎯ru❃9쎯	-11.0791
dang❄8쎯tui❄1쎯	-11.0792
쎁쎃쎃	-11.0792
,dao❃1쎯dan❁40쎯	-11.0792
qi❄87쎯	-11.0792
zi❄22쎯ge❂69쎯	-11.0794
zhan❄13쎯	-11.0796
ci❂53쎯	-11.0796
ji❁77쎯shan❁17쎯	-11.0796
ga❄4쎯hu❂119쎯	-11.0796
qi❁12쎯shuo❄33쎯	-11.0796
쎇gui❁61쎯shu❂7쎯	-11.0798
,pai❂4쎯wei❂79쎯	-11.08
,쎁쎉쎉쎈mai❄10쎯	-11.0802
quan❂46쎯	-11.0802
lve❄5쎯yi❄267쎯	-11.0805
hun❂24쎯fen❂10쎯	-11.0806
he❂41쎯tong❂62쎯	-11.0806
ti❁6쎯dan❄40쎯	-11.0807
chao❄12쎯tuo❁11쎯	-11.0808
ze❂3쎯di❃18쎯,	-11.0809
li❂122쎯wei❂17쎯	-11.081
rong❂58쎯,	-11.0811
you❄42쎯mao❂44쎯	-11.0811
tui❂33쎯zui❄7쎯	-11.0812
zha❄26쎯tai❄4쎯	-11.0812
:chuai❂1쎯ji❂169쎯	-11.0815
sheng❄6쎯·	-11.0816
jiu❁2쎯bo❃3쎯	-11.0817
ku❁10쎯jian❃4쎯	-11.0817
wan❃31쎯huang❁24쎯	-11.0818
jiao❄32쎯yan❁34쎯	-11.0819
yan❃2쎯zhi❄54쎯,	-11.082
yi❂27쎯.	-11.0821
di❃18쎯shu❄41쎯	-11.0821
bi❄203쎯chao❁16쎯	-11.0822
.huo❄45쎯	-11.0822
xian❁55쎯	-11.0823
yin❂64쎯bing❁11쎯	-11.0823
huan❂12쎯kao❄2쎯	-11.0825
da❂60쎯mai❄10쎯	-11.0826
man❂32쎯ruan❃20쎯	-11.083
he❂41쎯wan❂23쎯	-11.0833
fu❄115쎯pao❃0쎯	-11.0834
쎅쎀-	-11.0834
he❂41쎯hao❄30쎯	-11.0835
〗	-11.0835
gu❁29쎯chong❂9쎯	-11.0836
ji❄99쎯;	-11.0837
,tun❄0쎯zhe❂33쎯	-11.0838
,쎁쎉쎈쎆mai❄10쎯	-11.0841
huo❄45쎯ke❁8쎯,쎁쎉쎅	-11.0841
zhi❄54쎯,	-11.0846
."	-11.0847
,zhi❁56쎯ya❁28쎯	-11.0847
ne❄6쎯bi❄12쎯	-11.0852
ying❃29쎯hua❄17쎯	-11.0852
duo❃36쎯	-11.0854
huo❄13쎯gong❃11쎯	-11.0854
cha❄32쎯chong❁7쎯	-11.0856
〖	-11.0856
shen❃35쎯lang❄0쎯	-11.0858
ya❅쎯ne❄7쎯	-11.0858
yi❃15쎯qiang❃4쎯	-11.0861
wei❂29쎯jiu❁29쎯	-11.0861
fan❂29쎯ji❄23쎯	-11.0862
zhuang❄7쎯	-11.0863
ye❄38쎯ne❄6쎯	-11.0866
tao❁44쎯ni❂37쎯	-11.0866
tan❂62쎯shi❃26쎯,	-11.0868
ㄠ	-11.0868
pi❁42쎯yi❂19쎯	-11.087
zi❃28쎯ci❃11쎯	-11.087
jian❁100쎯pai❂4쎯	-11.0874
li❃48쎯mai❄10쎯	-11.0878
lan❂6쎯yu❄105쎯	-11.0879
li❂28쎯tian❄11쎯	-11.0879
pie❄1쎯yu❄68쎯.	-11.0881
mei❂	-11.0882
,ta❃1쎯ai❁9쎯	-11.0882
ye❄34쎯	-11.0883
jing❄3쎯po❂9쎯	-11.0884
ao❂33쎯bing❃27쎯	-11.0888
si❄5쎯	-11.0889
ji❄21쎯li❂122쎯	-11.0891
shi❄63쎯qiu❂80쎯	-11.0891
chao❃7쎯e❄60쎯	-11.0892
yi❂	-11.0892
pan❂20쎯shi❁8쎯.	-11.0894
you❁	-11.0895
leng❂6쎯yi❂108쎯	-11.0897
zhong❃8쎯sui❄48쎯	-11.0898
,lan❄10쎯	-11.09
huan❂39쎯	-11.0904
heng❂4쎯di❁32쎯	-11.0904
diao❁40쎯ai❂5쎯	-11.0906
ya❄4	-11.0909
wei❃89쎯	-11.0911
か	-11.0911
zong❄14쎯xun❁20쎯	-11.0911
gui❁61쎯쎃쎁nv❄4쎯	-11.0912
shi❄120쎯xia❄1쎯	-11.0912
쎀쎀쎀쎀	-11.0913
yan❁54쎯ta❄40쎯	-11.0915
ba❂11쎯ji❄99쎯	-11.0917
zeng❄4쎯	-11.0918
jie❂125쎯fu❁45쎯	-11.092
hou❂43쎯,	-11.0921
ci❃11쎯qiong❂72쎯	-11.0923
po❄2쎯ge❂36쎯	-11.0923
liang❃2쎯ji❁125쎯	-11.0924
huo❄21쎯dang❄8쎯	-11.0926
sai❄1쎯po❂9쎯们	-11.0928
,ci❄36쎯pang❁0쎯	-11.0931
ye❄73쎯fu❂69쎯	-11.0934
za❂9쎯chan❄19쎯	-11.0936
hu❁37쎯	-11.0936
°Cmai❄10쎯	-11.094
qian❄8쎯dong❄41쎯	-11.0942
ting❂20쎯shi❄35쎯	-11.0942
.쎁쎉쎈쎆mai❄10쎯	-11.0943
quan❂	-11.0945
,쎂쎀쎀쎀mai❄10쎯	-11.0945
yang❄4쎯shao❄3쎯	-11.0945
huan❂12쎯yi❂114쎯	-11.0946
、yin❁3쎯zhui❄10쎯	-11.0947
qi❁68쎯tuo❄6쎯쎁	-11.0947
ruan❃20쎯ba❁48쎯	-11.0948
yin❂3쎯ju❄98쎯	-11.0948
hai❄29쎯guang❁10쎯	-11.095
wu❃9쎯meng❂67쎯	-11.0951
ju❁38쎯,	-11.0954
xi❁173쎯ga❄4쎯	-11.0954
jiong❃	-11.0955
,쎁쎉쎈쎈mai❄10쎯	-11.0955
lin❂58쎯hong❂12쎯	-11.0958
jian❃54쎯	-11.0961
na❄19쎯	-11.0961
liao❃21쎯yu❃52쎯	-11.0962
¥	-11.0962
e❂	-11.0965
쎁쎉쎉쎈.	-11.0966
za❂8쎯che❄20쎯zai	-11.0966
he❂41쎯fu❂69쎯	-11.0967
zhi❂16쎯luo❂35쎯	-11.0968
di❄53쎯qian❂27쎯	-11.0969
qu❁21쎯gao❄16쎯	-11.0971
bi❄255쎯zi❃15쎯	-11.0973
zhi❄206쎯	-11.0973
she❂19쎯	-11.0977
zha❂34쎯xiu❁46쎯	-11.0978
du❂25쎯tian❂18쎯	-11.0978
min❃28쎯	-11.0979
qin❁2쎯,	-11.0981
di❃18쎯gai❄1쎯,	-11.0982
쎁쎉쎈쎂	-11.0982
─	-11.0984
tiao❄9쎯	-11.0986
、zhan❄18쎯	-11.0989
lan❂8쎯dao❃22쎯	-11.0989
xiu❃3쎯	-11.0989
ze❄17쎯yao❃43쎯	-11.0989
tuo❁11쎯jie❁25쎯	-11.0991
ding❄7쎯	-11.0992
yi❄84쎯ga❄4쎯	-11.0995
lin❄12쎯yi❂27쎯	-11.0996
ze❂3쎯lv❄22쎯	-11.0997
xie❂46쎯yin❁53쎯	-11.0997
tian❂18쎯ta❄99쎯	-11.0998
shi❄95쎯	-11.1001
gao❄	-11.1002
ji❄99쎯bin❁0쎯.	-11.1002
ji❄194쎯cheng❂14쎯	-11.1003
pi❁23쎯	-11.1004
yu❄137쎯	-11.1005
gu❃15쎯man❂32쎯.	-11.1005
,jiao❄32쎯	-11.1006
cun❂0쎯	-11.1006
yin❁3쎯pan❂7쎯	-11.1007
niao❃28쎯zhi❄122쎯	-11.1009
ang❂2쎯qia❄2쎯	-11.101
.쎁쎉쎈쎇mai❄10쎯	-11.1015
xi❁12쎯xi❁12쎯	-11.1015
yong❃35쎯shu❂7쎯	-11.1016
chi❁25쎯	-11.1016
tian❃17쎯	-11.1017
pai❄3쎯shan❁17쎯	-11.1017
,쎁쎉쎈쎇mai❄10쎯	-11.1021
an❃0쎯ta❄99쎯	-11.1021
ge❂52쎯lu❃20쎯	-11.1021
qi❁61쎯yu❄105쎯	-11.1021
ruan❂1쎯dang❄8쎯	-11.1027
sai❄3쎯yun❄9쎯	-11.1029
hu❄44쎯bi❄186쎯	-11.103
zhi❄196쎯mi❄56쎯	-11.1031
xiao❄35쎯she❄18쎯,	-11.1036
na❄5	-11.1037
e❄71쎯shuo❄33쎯	-11.1039
ju❄75쎯shi❃26쎯	-11.1041
zhu❁34쎯ling❂158쎯	-11.1043
yi❂27쎯,	-11.1044
liao❄7쎯	-11.1044
,ci❄34쎯wo❁5쎯	-11.1045
si❁50쎯za❂8쎯	-11.1046
mo❄21쎯dian❃24쎯	-11.1051
chong❂7쎯ju❄101쎯	-11.1052
pi❁14쎯zhe❂23쎯	-11.1055
lao❂6쎯	-11.1055
yi❄381쎯lv❄22쎯	-11.1055
xu❄15쎯meng❃9쎯	-11.1055
bing❁11쎯,	-11.1056
duo❃43쎯ta❄40쎯	-11.1057
wei❃38쎯	-11.1059
po❄2쎯bo❂23쎯	-11.1059
shu❃12쎯po❂9쎯	-11.1061
,쎂쎀쎀쎉mai❄10쎯	-11.1062
bian❃18쎯ya❁28쎯	-11.1062
、huang❂43쎯	-11.1063
shi❃26쎯yang❁8쎯	-11.1065
luan❄4쎯	-11.1066
ti❁6쎯gan❄31쎯	-11.1068
qu❂96쎯chong❁7쎯,	-11.1069
tuo❄6쎯ji❄193쎯	-11.1071
zhui❄	-11.1072
gu❁29쎯yang❂13쎯	-11.1072
ou❃15쎯chong❁7쎯,	-11.1074
,ba❁41쎯wo❁5쎯	-11.1074
zhai❁13쎯	-11.1075
,zhong❁24쎯	-11.1076
❃6쎯	-11.1076
zhi❄187쎯	-11.1078
jue❂174쎯	-11.1078
jing❃17쎯beng❄18쎯	-11.1078
ti❁6쎯ji❄23쎯	-11.1081
huan❁6쎯gai❄1쎯	-11.1081
,쎂쎀쎀쎁mai❄10쎯	-11.1082
fu❄39쎯	-11.1086
,you❁38쎯	-11.1089
쎈쎀쎂.쎁쎁	-11.1089
rong❂44쎯zhu❂37쎯	-11.1091
bing❃1쎯tao❁32쎯	-11.1091
biao❁38쎯ke❂0쎯쎀.	-11.1091
wei❃89쎯gou❄22쎯	-11.1092
bi❄137쎯hu❂20쎯	-11.1096
xiao❄14쎯beng❄18쎯	-11.1097
:쎆	-11.1098
,en❁5쎯chu❄45쎯	-11.1101
ji❁125쎯tan❂62쎯	-11.1107
jian❁100쎯bi❄123쎯	-11.1108
쎁쎂쎁	-11.1108
wu❄77쎯gan❄25쎯	-11.1109
yu❃36쎯、	-11.1109
《yao❃12쎯ta❄40쎯	-11.1109
,lve❄5쎯	-11.111
lv❄22쎯qi❁61쎯	-11.1112
yao❃2쎯weng❄6쎯	-11.1112
(쎁쎆	-11.1112
gu❁7쎯ge❁8쎯	-11.1112
xuan❄37쎯	-11.1115
sou❁22쎯zhuang❁7쎯	-11.1116
zha❃6쎯xin❁23쎯、	-11.1118
,쎄	-11.1119
66쎯	-11.112
yan❂101쎯fen❃3쎯,	-11.112
쎁쎃쎆	-11.112
kai❃13쎯wu❃9쎯、	-11.1121
chen❄8쎯yan❂41쎯	-11.1122
de❂11쎯jiao❁57쎯	-11.1122
,chu❂0쎯ju❄21쎯	-11.1123
nie❄85쎯er❃7쎯	-11.1124
lou❂39쎯	-11.1124
zhi❃58쎯bang❁16쎯	-11.1125
wei❂73쎯suo❁6쎯	-11.1125
hua❄17쎯gui❁55쎯	-11.1126
long❂85쎯	-11.1126
da❂60쎯e❄71쎯,	-11.1128
ji❄23쎯ru❃9쎯	-11.1129
du❂72쎯pie❄1쎯;	-11.113
jiao❃81쎯	-11.1132
yao❂	-11.1132
ou❃5쎯zuo❃2쎯	-11.1134
ting❂17쎯fan❂46쎯	-11.1135
zhuo❂50쎯yan❃2쎯	-11.1135
ji❄99쎯you❄42쎯	-11.1136
zuo❄4쎯chan❂61쎯	-11.1139
,쎁쎉쎈쎂mai❄10쎯	-11.1139
.di❃18쎯gai❄1쎯	-11.1142
li❂76쎯xu❁37쎯	-11.1143
gen❁0쎯rong❂58쎯	-11.1145
he❂47쎯shu❂7쎯	-11.1146
you❁22쎯wan❃31쎯	-11.1147
fu❄3쎯chan❄19쎯	-11.1149
yi❁58쎯lv❄46쎯	-11.1149
duo❁	-11.115
·ya❅쎯	-11.1152
wai❃1쎯hou❄27쎯	-11.1155
me❁쎯fu❄115쎯	-11.1156
shuo❄3쎯	-11.1157
qu❁8쎯”	-11.1161
man❂21쎯	-11.1164
jiu❁2쎯ji❄99쎯	-11.1164
jiao❁43쎯ta❄40쎯	-11.1166
ju❁5	-11.1167
nv❄4쎯ren❃13쎯	-11.1171
イ	-11.1172
tai❁0쎯dao❄17쎯	-11.1172
fu❄129쎯che❄20쎯	-11.1173
ye❄108쎯	-11.1175
,jiang❄1쎯	-11.1176
kui❄10쎯cai❁7쎯	-11.1176
β	-11.1178
wan❃31쎯;	-11.1184
,ying❂62쎯shu❃12쎯	-11.1184
ni❃6쎯xiu❁9쎯ru❃9쎯	-11.1185
hu❂4쎯ben❁4쎯	-11.1186
.쎁쎉쎃쎄mai❄10쎯	-11.1186
,si❁45쎯	-11.1187
beng❄8쎯gu❃74쎯	-11.1187
chuai❂1쎯xing❄6쎯	-11.119
ye❄38쎯wei❂76쎯	-11.1191
し	-11.1191
ju❄105쎯yin❁3쎯	-11.1192
chu❂0쎯ping❂53쎯	-11.1192
.pu❂0쎯	-11.1193
jin❄60쎯	-11.1195
bian❃18쎯zi❄22쎯	-11.1196
qi❄36쎯sheng❁22쎯	-11.1198
li❄196쎯la❄1쎯	-11.1201
hun❂15쎯ju❄25쎯	-11.1202
ci❁18쎯pu❁21쎯	-11.1203
zai❃8쎯ren❄0쎯	-11.1203
jie❂129쎯ming❂14쎯	-11.1203
che❄20쎯bin❁0쎯	-11.1205
ruan❄2쎯.	-11.1206
tian❄11쎯qiao❂8쎯	-11.1206
ji❄20쎯beng❁19쎯	-11.1208
、pi❁42쎯	-11.121
qian❂29쎯guan❄42쎯	-11.121
쎃쎀da❂60쎯	-11.1211
sou❁36쎯you❂74쎯	-11.1212
ya❂2쎯hua❄17쎯	-11.1213
lin❂58쎯yong❃30쎯	-11.1214
dai❄25쎯ai❁9쎯	-11.1215
dao❁7쎯gu❃74쎯《	-11.1215
,yi❄10쎯yi❂125쎯	-11.1217
jiu❄16쎯	-11.1217
》quan❁4쎯	-11.1217
yin❁30쎯dao❄17쎯.	-11.1218
xi❁232쎯ting❂20쎯	-11.1219
you❄	-11.1222
xi❁173쎯fu❂79쎯	-11.1223
wang❃12쎯	-11.1223
쎁쎈쎇	-11.1224
li❂76쎯zi❃28쎯	-11.1224
kao❄2쎯rong❂58쎯	-11.1225
lan❄17쎯dao❃22쎯	-11.1227
tui❄1쎯po❄2쎯	-11.1229
nie❄85쎯an❁3쎯	-11.1233
jue❂100쎯jue❂100쎯	-11.1233
zhao❁20쎯	-11.1234
bo❃	-11.1235
shi❃26쎯qu❂96쎯	-11.1235
,쎁쎉쎉쎆mai❄10쎯	-11.1236
쎂쎀쎁쎃	-11.1237
chuai❂1쎯ta❄99쎯	-11.1237
wei❁20쎯bin❄2쎯	-11.1238
tuan❂14쎯	-11.1239
diao❁40쎯yan❄84쎯	-11.124
liao❃5쎯guan❄42쎯	-11.124
shu❃	-11.1242
wai❁3쎯.	-11.1244
yun❃	-11.1245
wen❂24쎯ni❄14쎯	-11.1248
jian❄80쎯	-11.1249
qian❁30쎯bu❄33쎯	-11.1253
pian❁1쎯li❄5쎯	-11.1254
.쎁쎉쎉쎆mai❄10쎯	-11.1254
yue❄94쎯	-11.1255
,du❂59쎯shan❁17쎯	-11.1256
bi❄103쎯du❄26쎯	-11.1256
sai❄1쎯po❂9쎯ru❃9쎯	-11.1257
fan❃2쎯.”	-11.1258
shang❁17쎯ji❄193쎯	-11.1259
qiu❂13쎯shi❄63쎯	-11.126
yin❂42쎯	-11.126
qing❄17쎯yu❄68쎯	-11.126
zuo❄27쎯ying❃29쎯	-11.126
huang❁19쎯.	-11.1261
yan❃2쎯ji❄193쎯	-11.1262
shan❃0쎯	-11.1263
zuo❄4쎯ju❁38쎯	-11.1264
qiu❁47쎯ling❂158쎯	-11.1264
sui❄32쎯dou❃6쎯	-11.1265
di❁32쎯bi❄186쎯	-11.1265
yu❄145쎯shi❃26쎯	-11.1265
gan❁15쎯	-11.1267
zhong❁24쎯zang❁0쎯	-11.1268
pai❂4쎯tong❂62쎯	-11.1269
pi❄40쎯zhi❁70쎯	-11.1269
nv❄4쎯zui❄7쎯:쎂쎀쎀	-11.127
ke❁1	-11.1271
bin❄2쎯、	-11.1271
쎁쎆쎈	-11.1271
jian❄	-11.1272
ze❄17쎯dian❃2쎯	-11.1274
[...]
