[UNK]	0
[PAD]	0
[CLS]	0
[SEP]	0
[MASK]	0
▁,	-2.99944
▁r쎯	-3.49322
▁。	-3.66894
▁、	-3.91391
▁	-4.66694
▁rh쎯	-4.86725
▁j쎯	-5.02129
▁:	-5.05572
▁t쎯	-5.06947
▁d쎯	-5.14777
▁)	-5.22001
▁(	-5.23657
▁o쎯	-5.39895
▁》	-5.53062
▁”	-5.54016
▁“	-5.55197
▁b쎯	-5.58847
▁《	-5.61667
▁tffu쎯	-5.66094
▁e쎯	-5.75357
▁gn쎯	-5.76834
▁eee쎯	-5.78427
▁k쎯	-5.7881
▁;	-5.8379
▁w쎯	-5.91281
▁쎁	-5.96714
▁gf쎯	-5.9918
▁-	-5.9988
▁c쎯	-6.18806
▁k쎯l쎯	-6.25115
▁h쎯	-6.28898
▁쎂	-6.29441
▁ey쎯	-6.39933
▁/	-6.42518
▁쎃	-6.43157
▁.	-6.4959
▁·	-6.52595
▁bn쎯	-6.52758
▁wc쎯ngk쎯	-6.5364
▁ua쎯	-6.54299
▁puhc쎯	-6.54656
▁a쎯wt쎯	-6.54703
▁rg쎯	-6.55308
▁pp쎯	-6.56673
gf쎯	-6.57408
▁cf쎯	-6.5772
▁mh쎯	-6.59715
▁dd쎯	-6.59824
▁i쎯	-6.60189
egc쎯	-6.66979
ymhj쎯	-6.69241
▁dmj1쎯	-6.71611
▁ak쎯	-6.73446
▁쎄	-6.76098
▁g쎯wh쎯	-6.7623
▁쎅	-6.78991
▁whf쎯og쎯	-6.79129
▁adw쎯	-6.81648
▁y쎯s쎯	-6.82322
▁wb쎯	-6.82392
▁g쎯	-6.82592
▁fny쎯og쎯	-6.84645
▁uqf쎯	-6.85057
w쎯	-6.8559
▁v쎯nae쎯	-6.85601
▁sk쎯	-6.88542
▁jjjj쎯	-6.89772
▁usr쎯	-6.9037
▁dga쎯pwv쎯	-6.90656
▁wh쎯	-6.91448
▁쎁쎀	-6.941
▁rfc쎯sy쎯	-6.94351
▁u쎯kkk쎯	-6.95536
▁wug1쎯gf쎯	-6.9593
▁eb쎯tl쎯	-6.97892
▁tp쎯gj쎯	-6.98406
▁ym쎯	-6.98845
ntg쎯	-7.02261
bb쎯	-7.03392
▁e쎯bv쎯wc쎯ngk쎯	-7.03718
▁—	-7.03907
▁jf쎯	-7.04155
▁gh쎯	-7.04247
▁쎆	-7.05219
▁ih쎯	-7.05833
▁gc쎯	-7.09341
▁tg쎯u쎯	-7.09951
▁ftjb쎯	-7.12888
▁쎈	-7.13166
▁쎇	-7.14799
▁l쎯pe쎯	-7.14905
▁f쎯	-7.17886
▁qq쎯	-7.18096
▁ww쎯	-7.19391
▁"	-7.19826
▁rn쎯	-7.20735
aq쎯	-7.21195
▁gkl쎯	-7.22247
▁gcf쎯	-7.22966
mmm쎯	-7.23524
▁et쎯	-7.24976
▁dg쎯	-7.26163
▁mw쎯	-7.28009
▁sk쎯c쎯	-7.28166
▁쎉	-7.2872
▁ip쎯suq쎯	-7.28725
▁jb쎯	-7.30772
▁ftbt쎯yce쎯	-7.31747
▁rj쎯waw쎯	-7.34762
o쎯	-7.35093
▁쎁쎂	-7.3613
▁fj쎯tf쎯	-7.36515
▁yygy쎯wx쎯	-7.37041
▁wg쎯l쎯	-7.37055
▁ymc쎯yf쎯	-7.37084
e쎯	-7.37416
▁oy쎯	-7.38381
▁l쎯bf쎯	-7.38459
▁adw쎯k쎯	-7.39374
▁cd쎯lk쎯	-7.40042
▁wc쎯jfd쎯	-7.407
▁yi쎯	-7.40754
pe쎯	-7.41983
▁ccc쎯	-7.41991
▁k쎯ny쎯	-7.43252
▁x쎯iyj쎯	-7.43289
▁dn쎯uu쎯	-7.43794
▁hw쎯e쎯	-7.44386
▁dq쎯	-7.44442
▁txi쎯xyc쎯	-7.45419
▁qk쎯	-7.47912
▁sg쎯	-7.49287
▁px쎯	-7.49609
▁p쎯	-7.49844
▁xxf쎯og쎯	-7.50009
▁wf쎯	-7.50147
▁bm쎯	-7.50356
▁cep쎯fp쎯	-7.5134
▁yynw1쎯	-7.52698
▁c쎯ey쎯	-7.528
▁vfhp1쎯ymc쎯	-7.53088
▁wtf쎯	-7.53354
▁ul쎯	-7.53522
▁g쎯tkh쎯	-7.53808
ftj쎯	-7.54196
▁ta쎯	-7.54312
▁fq쎯	-7.54451
k쎯	-7.56005
▁aqt쎯	-7.56619
▁pp쎯g쎯	-7.56983
ii쎯	-7.57636
▁thd쎯	-7.57795
▁쎂쎀	-7.58142
▁ii쎯	-7.58271
▁go쎯	-7.58588
▁ll쎯	-7.5881
uk쎯	-7.5942
▁dn쎯o쎯	-7.59784
▁nnnn쎯	-7.5982
▁ce쎯	-7.60565
▁wgkq0쎯	-7.60603
▁vk쎯	-7.6205
▁y쎯wtf쎯	-7.62176
wx쎯	-7.62649
sf쎯	-7.62719
▁vfhp1쎯tam쎯	-7.62828
▁ip쎯bpf쎯	-7.62951
▁rxj쎯	-7.63292
▁dd쎯ip쎯	-7.63443
▁q쎯	-7.63473
▁ww쎯gk쎯	-7.64331
▁qfhw0쎯	-7.65048
▁쎁쎁	-7.65538
h쎯	-7.65759
▁kgn쎯	-7.65809
▁gip쎯	-7.66162
▁reh쎯e쎯	-7.67117
ip쎯	-7.67313
▁a쎯tkgg0쎯	-7.6869
sm쎯	-7.68859
▁wgkq0쎯et쎯	-7.69078
▁an쎯lwj쎯	-7.6924
dd쎯	-7.70566
▁ukn쎯	-7.70597
쎯	-7.70608
tg쎯	-7.7073
▁gmww쎯	-7.71773
▁ux쎯yiu쎯	-7.72191
▁tu쎯rfc쎯	-7.72852
▁wjg쎯	-7.72979
▁tk쎯	-7.73582
▁hx쎯	-7.73725
▁vb쎯	-7.74201
▁ugdu쎯l쎯	-7.74636
▁xeg쎯xkw쎯	-7.74653
ta쎯	-7.75997
▁ymc쎯tlf2쎯	-7.76171
▁sf쎯	-7.76339
▁adm쎯hhhh쎯	-7.77213
▁～	-7.77487
▁wq쎯	-7.77894
▁gd쎯	-7.77987
▁fg쎯	-7.78172
▁vcb쎯	-7.78344
▁tg쎯itd쎯	-7.78376
▁py쎯wf쎯	-7.78695
▁gjq쎯	-7.78697
▁m쎯jf쎯	-7.79049
▁sghg1쎯	-7.79164
▁ga쎯v쎯	-7.79389
▁xte쎯	-7.79407
▁qqqq1쎯	-7.79735
j쎯	-7.80074
▁ylf0쎯	-7.80111
▁txg쎯	-7.80167
▁fm쎯	-7.8017
l쎯	-7.80235
▁ue쎯	-7.80641
▁ymhj쎯fnrt쎯	-7.80736
▁ujfj쎯wug1쎯	-7.81025
tfl쎯	-7.81678
▁ftbt쎯ip쎯	-7.81892
kht쎯	-7.82031
▁fp쎯	-7.82319
▁udh쎯	-7.8244
▁rcn1쎯	-7.82641
▁thd쎯nng쎯	-7.8269
dn쎯	-7.82764
▁qn쎯rtd쎯	-7.83252
f쎯	-7.83882
▁q쎯wu쎯	-7.84108
ytyh쎯	-7.84217
▁dr쎯	-7.84225
▁ggi쎯fuj쎯	-7.8457
fd쎯	-7.84701
▁쎃쎀	-7.85094
▁...	-7.85271
▁jf쎯uj쎯	-7.85983
▁tfq쎯fj쎯	-7.86089
ty쎯	-7.86129
▁dnv1쎯	-7.86206
▁h쎯itx쎯	-7.86272
▁lh쎯	-7.87008
▁wt쎯kkk쎯	-7.87056
if쎯	-7.87112
▁f쎯aq쎯	-7.87382
▁ai쎯	-7.87543
wsg0쎯	-7.88285
▁mqq쎯xtk쎯	-7.88553
▁ip쎯tg쎯	-7.89116
▁xq쎯	-7.89151
yygy쎯	-7.89819
adwr쎯	-7.89868
▁vbn쎯	-7.89915
▁ith쎯	-7.89958
▁lu쎯	-7.90097
▁yid쎯et쎯	-7.9019
▁qh쎯	-7.90255
aa쎯	-7.904
▁ggg1쎯	-7.90719
g쎯	-7.91315
▁tv쎯km쎯wf쎯	-7.91549
▁ige쎯	-7.91652
▁al쎯ce쎯	-7.91803
▁tx쎯g쎯	-7.91876
▁fc쎯rf쎯	-7.91964
▁ip쎯nu쎯	-7.92309
▁gg쎯	-7.92501
▁wt쎯o쎯	-7.92514
pp쎯	-7.92794
bm쎯	-7.9319
udi쎯	-7.93454
▁tk쎯tkh쎯	-7.93791
▁yh쎯	-7.93888
▁lk쎯ty쎯	-7.94067
▁쎁쎅	-7.94335
▁xt쎯	-7.94659
▁dn쎯	-7.94948
qk쎯	-7.95641
▁aqt쎯tj쎯	-7.95681
▁!	-7.95809
▁wys쎯	-7.95817
▁wv쎯	-7.96126
qiu0쎯	-7.96175
wf쎯	-7.96203
▁ld쎯	-7.96257
▁wg쎯	-7.9641
▁hhhh쎯ue쎯	-7.97284
tu쎯	-7.97362
▁jjjj쎯sg쎯	-7.97439
▁dl쎯kq쎯	-7.97669
▁x쎯apk쎯	-7.98036
▁anb0쎯sy쎯	-7.98331
▁tx쎯	-7.9853
▁x쎯	-7.98589
▁ymhj쎯	-7.98795
▁dm쎯tkw쎯	-7.99122
▁wys쎯lft쎯	-7.99364
▁s쎯	-7.99786
xg쎯	-7.999
▁rmc쎯uqwm0쎯	-8.00006
▁wy쎯thn쎯	-8.00203
▁i쎯m쎯	-8.00526
uthp쎯	-8.00826
▁kht쎯	-8.0111
▁itd쎯fcl쎯	-8.01693
▁jb쎯dd쎯	-8.02274
isk쎯	-8.02627
《	-8.03381
▁tf쎯og쎯	-8.03541
qfhw0쎯	-8.03559
gd쎯	-8.04123
dm쎯	-8.04228
▁bm쎯tg쎯	-8.04765
tf쎯	-8.04857
▁ftbt쎯rep쎯	-8.05131
▁tgj쎯s쎯	-8.05262
gh쎯	-8.05809
jfd쎯	-8.06088
▁od쎯gajf쎯	-8.06163
▁tg쎯gf쎯	-8.06212
▁ntk쎯	-8.06252
▁l쎯mw쎯	-8.06554
▁kkk쎯thgf0쎯	-8.06593
▁ga쎯vck쎯	-8.07648
▁rfm쎯jg쎯	-8.0794
▁jfd쎯	-8.08822
▁egc쎯	-8.08829
▁yi쎯j쎯	-8.09011
▁쎂쎀쎀쎀	-8.09296
▁tm쎯	-8.09357
lt쎯	-8.09433
c쎯	-8.09453
▁qie쎯wyk쎯	-8.09504
kkd쎯	-8.09671
▁sfi쎯uwy1쎯	-8.10002
▁tfq쎯rg쎯	-8.10021
▁wdn쎯te쎯	-8.10158
▁v쎯ge쎯	-8.10205
▁es쎯et쎯	-8.10408
▁tve쎯	-8.10514
▁yy쎯if쎯	-8.10581
▁pt쎯yne쎯	-8.10747
▁gae쎯dn쎯	-8.11365
▁aft쎯qk쎯	-8.11403
uyh쎯	-8.11487
쎁	-8.11542
iq쎯	-8.11898
i쎯	-8.1214
▁ad쎯dbm쎯	-8.12305
▁rrr쎯	-8.12364
rg쎯	-8.1294
▁쎁쎀쎀	-8.13177
▁amw쎯	-8.13184
d쎯	-8.13315
▁iytb0쎯ca쎯	-8.13604
▁gmf쎯	-8.13654
ny쎯	-8.14099
▁g쎯pe쎯	-8.14127
▁fqb1쎯	-8.14162
▁sb쎯	-8.1424
▁ux쎯	-8.14464
▁gj쎯ywx쎯	-8.14561
▁쎅쎀	-8.14578
ss쎯	-8.14606
▁fd쎯ymhj쎯	-8.14765
▁a	-8.15331
▁uq쎯cep쎯	-8.15396
▁cc쎯	-8.15423
et쎯	-8.15459
▁yy쎯dm쎯	-8.15879
▁mmm쎯	-8.16104
je쎯	-8.16345
▁fcu1쎯	-8.16397
og쎯	-8.16527
▁vfhp1쎯	-8.16782
itx쎯	-8.16856
▁iv쎯	-8.1692
ya쎯	-8.16962
▁×	-8.17016
▁ga쎯	-8.17066
▁ntk쎯gf쎯	-8.17379
▁adw쎯wb쎯	-8.17484
▁fqu쎯	-8.17572
▁fhn쎯	-8.17702
awx쎯	-8.17869
▁dgtg쎯	-8.17931
▁ghd0쎯	-8.18377
▁aq쎯	-8.18662
▁txi쎯gq쎯	-8.19316
▁gu쎯yy쎯oy쎯	-8.19442
gajf쎯	-8.19623
▁itx쎯	-8.1969
▁sm쎯sq쎯	-8.19764
wtf쎯	-8.1983
▁vvv쎯	-8.1989
▁gm쎯wtf쎯	-8.19979
▁py쎯aq쎯	-8.20101
jf쎯	-8.20148
dgtg쎯	-8.2038
▁g쎯tem쎯	-8.20517
kkkk0쎯	-8.2053
▁wdt쎯	-8.20549
▁th쎯	-8.20846
mq쎯	-8.2093
ggg1쎯	-8.2105
nnh쎯	-8.21168
▁isgg0쎯yhk쎯	-8.21432
gk쎯	-8.22509
▁awx쎯	-8.22628
▁atd쎯bpf쎯	-8.22969
wxf쎯	-8.22975
▁pei쎯og쎯	-8.23111
▁djfd쎯oy쎯	-8.23167
fm쎯	-8.23284
qc쎯	-8.2344
▁m쎯	-8.24052
▁pv쎯wg쎯	-8.24128
▁쎂쎀쎀쎆	-8.24514
▁yu쎯	-8.24647
▁a쎯og쎯	-8.24815
▁mw쎯pww쎯	-8.25367
▁dp쎯	-8.25372
dq쎯	-8.25444
yy쎯	-8.25476
▁xa쎯	-8.25998
▁i	-8.26053
▁bm쎯thgc쎯	-8.26131
▁dh쎯pgk쎯	-8.26196
▁ftbt쎯jgm쎯	-8.26261
▁mj쎯	-8.26326
▁yy쎯aa쎯	-8.26445
▁cn쎯	-8.26775
▁쎁쎆	-8.26939
▁wt쎯	-8.26955
▁tu쎯ip쎯	-8.27012
dx쎯	-8.27055
gc쎯	-8.27158
▁rp쎯	-8.27189
hko쎯	-8.27375
▁ukd0쎯jghm1쎯	-8.27417
▁vfhp1쎯uu쎯	-8.27418
▁pb쎯	-8.27601
▁et쎯gf쎯	-8.27797
▁tu쎯	-8.27849
go쎯	-8.28011
▁k쎯ip쎯	-8.28283
▁rpw쎯rmhj쎯	-8.28317
ym쎯	-8.28342
▁sve쎯rnd1쎯	-8.28668
▁if쎯	-8.28963
▁쎂쎀쎀쎈	-8.2911
▁ick쎯ubk0쎯	-8.29169
▁dnv1쎯fqb1쎯	-8.29275
▁je쎯	-8.29277
▁ic쎯ytt쎯	-8.29311
▁im쎯e쎯	-8.29379
pl쎯	-8.29456
▁ovt쎯rnd1쎯	-8.29589
▁gkp쎯	-8.298
▁쎀	-8.29942
▁o쎯y쎯	-8.3015
jg쎯	-8.30183
▁uk쎯wv쎯	-8.3021
▁쎂쎀쎀쎇	-8.30474
▁wb쎯wu쎯	-8.3071
▁aw쎯	-8.30716
▁kw쎯	-8.30802
nnk쎯	-8.30834
▁xf쎯sq쎯	-8.30859
▁wfny0쎯xyc쎯	-8.30939
xe쎯	-8.31074
▁ytey쎯iytb0쎯	-8.3117
▁pe쎯	-8.31368
▁wt쎯et쎯	-8.31427
▁쎂쎀쎁쎀	-8.31581
▁gm쎯	-8.31662
▁xeg쎯dn쎯	-8.31952
gu쎯	-8.32541
▁gm쎯wa쎯	-8.32706
▁xp쎯wgk쎯	-8.32906
▁ftx쎯	-8.32921
▁ygu쎯o쎯	-8.32956
▁qm쎯gmu1쎯	-8.32983
▁wgk쎯wt쎯	-8.3303
tjh쎯	-8.33391
▁rmhj쎯wt쎯	-8.33455
▁og쎯tl쎯	-8.33738
▁vii쎯ntk쎯	-8.34248
▁jn쎯bb쎯	-8.34515
ck쎯	-8.34593
▁lk쎯	-8.34755
▁wynb쎯	-8.34762
▁ght쎯ywf쎯	-8.34838
trf쎯	-8.34941
▁dgh쎯	-8.35033
▁rj쎯ym쎯	-8.3518
▁xw쎯	-8.35288
cn쎯	-8.35312
▁g쎯wsg0쎯	-8.35378
sghg1쎯	-8.35559
rnb쎯	-8.35642
▁fl쎯wf쎯	-8.35651
▁쎂쎀쎀쎉	-8.35667
▁ce쎯lt쎯	-8.35697
▁yff쎯	-8.35749
▁fny쎯pe쎯	-8.35788
▁ujf쎯qi쎯	-8.36196
▁wycm0쎯fakg1쎯	-8.36324
pv쎯	-8.36372
th쎯	-8.36789
thg0쎯	-8.36812
sg쎯	-8.36928
▁gm쎯e쎯	-8.37359
▁dd쎯gajf쎯	-8.37446
▁쎂쎀쎀쎅	-8.38001
▁ip쎯wf쎯	-8.38016
▁tq쎯o쎯	-8.38096
▁쎂쎀쎀쎃	-8.38129
▁ywx쎯yygy쎯	-8.3817
▁nnh쎯yn쎯	-8.3844
▁sft쎯ou쎯	-8.38541
wh쎯	-8.3861
rmhj쎯	-8.38713
▁kha쎯yb쎯	-8.3883
wt쎯	-8.38855
▁wf쎯km쎯	-8.38877
qh쎯	-8.38881
▁c쎯h쎯	-8.39152
lg쎯	-8.39262
▁pu쎯gm쎯	-8.39519
x쎯	-8.39632
ih쎯	-8.3966
▁xx쎯	-8.39827
ue쎯	-8.40092
▁lk쎯a쎯	-8.40101
▁et쎯yne쎯	-8.40247
jjjj쎯	-8.40279
▁gajf쎯	-8.40307
▁fdm쎯s쎯	-8.40475
▁fp쎯tkgg0쎯	-8.4058
▁tgj쎯hko쎯	-8.4076
▁xk쎯	-8.4108
v쎯	-8.41157
▁ba0쎯	-8.41168
▁ym쎯xe쎯	-8.41187
▁txi쎯	-8.41302
uqw쎯	-8.4133
ru쎯	-8.41399
mqq쎯	-8.41565
▁gu쎯yy쎯wc쎯jfd쎯	-8.41881
ia쎯	-8.41946
fnrt쎯	-8.42013
▁sh쎯ud쎯	-8.4218
▁ugdu쎯	-8.42645
▁쎁쎈	-8.4282
▁uy쎯	-8.42947
an쎯	-8.43019
▁tg쎯	-8.43185
▁ip쎯	-8.43441
qqqq1쎯	-8.43466
▁bs쎯	-8.43546
▁mqu쎯	-8.43588
▁od쎯	-8.43629
▁tv쎯km쎯	-8.43677
▁wbj쎯usr쎯	-8.43855
▁쎄쎀	-8.43873
▁쎂쎀쎀쎄	-8.43946
mw쎯	-8.43955
▁tgj쎯	-8.44018
txi쎯	-8.44047
▁kha쎯	-8.44117
▁w쎯kkkk0쎯	-8.443
dd쎯ip쎯	-8.44304
▁ny쎯	-8.446
rt쎯	-8.4483
▁fwm쎯aj쎯	-8.45036
▁tj쎯	-8.45178
▁*	-8.45228
▁pp쎯uj쎯	-8.4537
xte쎯	-8.45402
▁e쎯ud쎯	-8.45881
▁yvh쎯	-8.46062
dgt1쎯	-8.46175
▁°C	-8.46179
▁p쎯wh쎯	-8.46203
▁psu쎯	-8.46284
▁nnh쎯	-8.46672
bj쎯	-8.46763
qq쎯	-8.47072
▁wv쎯sr쎯	-8.47152
dp쎯	-8.47325
▁jyie쎯ktm쎯	-8.47559
▁lqw쎯wrh2쎯	-8.47776
▁l쎯	-8.48531
▁tjf쎯iawn쎯	-8.48565
udh쎯	-8.48669
▁cep쎯	-8.48701
wc쎯	-8.49111
▁s쎯fiy쎯	-8.4921
ai쎯	-8.49343
▁fge쎯fghg쎯	-8.495
▁ruv쎯kkkk0쎯	-8.49756
▁pa쎯	-8.49815
▁pfq쎯dn쎯	-8.49847
▁yygy쎯	-8.50052
▁you1쎯	-8.50191
▁rxj쎯nf쎯	-8.50258
▁ep쎯	-8.50348
▁lw쎯wc쎯pgc쎯	-8.50349
▁tq쎯	-8.50542
▁yne쎯	-8.50579
▁trf쎯hko쎯	-8.50642
▁i쎯on쎯	-8.50794
▁fhl쎯	-8.50808
▁udbb쎯	-8.50917
▁wv쎯dmh쎯	-8.50965
▁uqwm0쎯idr쎯	-8.5111
wug1쎯	-8.51185
▁q쎯l쎯	-8.51368
▁ddm쎯fghg쎯	-8.51499
tr쎯	-8.51523
▁qq쎯rh쎯	-8.5173
▁쎂쎅	-8.51844
▁dga쎯v쎯	-8.51856
▁sfhg쎯tr쎯	-8.51963
▁ih쎯ip쎯	-8.52056
▁gj쎯wynn3쎯	-8.5212
▁ftj쎯	-8.52137
tp쎯	-8.52156
▁sh쎯	-8.52253
▁fcb쎯	-8.52406
▁dx쎯	-8.52474
▁rjg0쎯wtf쎯	-8.52548
pgc쎯	-8.5257
▁ujfj쎯	-8.52577
▁v쎯tg쎯	-8.52681
▁gu쎯ck쎯	-8.52709
▁rmhj쎯tfkp쎯	-8.52877
▁쎂쎀쎀쎂	-8.53206
std쎯	-8.53629
s쎯	-8.53803
▁?	-8.54297
▁nnnn쎯x쎯	-8.54369
▁f쎯yy쎯	-8.54584
▁djd쎯	-8.54718
▁xf쎯wgk쎯	-8.55001
▁y쎯	-8.55039
fqb1쎯	-8.55106
a쎯	-8.55249
▁ad쎯sg쎯	-8.55355
▁fuk쎯yk쎯	-8.55371
▁eee쎯tg쎯	-8.55502
▁wv쎯qkhh1쎯	-8.55631
▁dga쎯pwv쎯tg쎯	-8.55712
▁uqw쎯	-8.5578
kf쎯	-8.55947
od쎯	-8.55963
bw쎯	-8.56229
▁uk쎯	-8.56315
ygk쎯	-8.56584
▁wqin쎯	-8.56662
▁쎁쎃	-8.56807
dm쎯tkw쎯	-8.56879
▁gu쎯	-8.56889
▁yj쎯	-8.56951
▁irn쎯lg쎯	-8.57029
▁th쎯gj쎯	-8.57074
cep쎯	-8.5733
▁lfo쎯	-8.57348
▁wynk쎯	-8.57424
▁ntg쎯	-8.57502
adwe1쎯	-8.57525
▁mqq쎯uh쎯	-8.57652
hw쎯	-8.57849
▁wg쎯dm쎯	-8.57964
iyc쎯	-8.57991
▁fd쎯	-8.58054
udy쎯	-8.58241
jgm쎯	-8.58245
▁uh쎯	-8.58341
▁dty쎯	-8.58389
tkh쎯	-8.58458
qa쎯	-8.58511
▁쎆쎀	-8.58593
dg쎯	-8.58713
▁wfny0쎯	-8.5876
▁uvo쎯	-8.58918
ovt쎯	-8.59026
▁jn쎯jyie쎯	-8.59123
▁bm쎯gm쎯	-8.59218
▁mfk쎯	-8.59283
▁x쎯fp쎯	-8.59286
▁w쎯n쎯	-8.59364
▁trf쎯qc쎯	-8.59448
▁k	-8.59512
▁rvyo쎯	-8.59516
▁쎂쎀쎁쎁	-8.59641
▁puv쎯	-8.59665
▁kf쎯	-8.59689
▁pyj쎯	-8.59814
▁tjh쎯et쎯	-8.59868
▁saj쎯aa쎯	-8.60035
▁dn쎯km쎯	-8.60082
▁uthp쎯	-8.60161
▁mmm쎯ai쎯	-8.60562
▁g쎯pg쎯	-8.60599
▁wqa쎯	-8.60736
▁c쎯go쎯	-8.60846
qd쎯	-8.60909
▁쎂쎄	-8.61015
▁rpv쎯	-8.61142
▁ad쎯f쎯	-8.6157
img쎯	-8.61747
▁쎂쎀쎀쎁	-8.61754
▁wk쎯ryn0쎯	-8.6178
▁tj쎯gc쎯	-8.61848
ugm쎯	-8.61963
▁+	-8.62051
fcl쎯	-8.6207
▁rn쎯e쎯	-8.62081
▁rs쎯	-8.62205
▁u쎯tg쎯	-8.62215
▁dp쎯gc쎯	-8.62421
▁bk쎯og쎯	-8.62558
▁dga쎯pwv쎯rn쎯	-8.62617
▁tx쎯fg쎯	-8.62676
▁yf쎯tha쎯sm쎯	-8.62738
▁wycm0쎯nf쎯	-8.62791
▁w쎯tr쎯	-8.62815
▁ipkh1쎯	-8.63157
▁쎁쎄	-8.63178
▁wvf쎯yvi쎯	-8.63276
wv쎯	-8.63353
▁trf쎯	-8.63384
▁k쎯aw쎯ipk쎯km쎯	-8.63388
lq쎯	-8.63576
rrr쎯	-8.6358
▁wj쎯xvk쎯	-8.63595
▁pv쎯	-8.63643
▁thd쎯qd쎯	-8.63667
ugdu쎯	-8.63818
▁k쎯md쎯	-8.63824
lfq쎯	-8.63963
▁khu쎯gfi쎯	-8.64058
▁adm쎯	-8.6413
▁ud쎯txi쎯	-8.64292
▁epc쎯	-8.64599
ce쎯	-8.64621
▁v쎯gm쎯	-8.6463
▁x쎯cwg쎯	-8.64673
wys쎯	-8.65017
▁an쎯xn쎯	-8.65198
fn쎯	-8.65279
▁gmww쎯wh쎯	-8.65332
src쎯	-8.65424
idr쎯	-8.65463
▁wa쎯ge쎯	-8.65495
▁tkh쎯	-8.65683
▁g쎯hxf쎯	-8.65766
▁tkh쎯sfhg쎯	-8.65832
hhu0쎯	-8.6595
▁>	-8.65968
▁tk쎯od쎯	-8.65976
▁sm쎯sa쎯	-8.65977
km쎯	-8.66007
▁uj쎯	-8.66035
ux쎯	-8.66149
▁tfq쎯	-8.66238
▁p쎯tkh쎯	-8.66246
▁yy쎯tm쎯	-8.66249
▁wty쎯	-8.66303
▁쎂쎀쎀	-8.66395
▁mqq쎯	-8.66867
▁ag쎯	-8.66888
▁wv쎯klj쎯	-8.6698
▁w쎯ft쎯	-8.6704
kkk쎯	-8.671
ltu쎯	-8.67157
hc쎯	-8.6735
n쎯	-8.67665
▁쎁쎇	-8.67736
rn쎯	-8.67888
uff쎯	-8.68152
▁tf쎯	-8.68192
▁gm쎯d쎯	-8.68219
▁rhf쎯	-8.68244
rh쎯	-8.68338
▁sf쎯tv쎯wf쎯	-8.68365
▁gu쎯fqu쎯	-8.68466
pfi쎯	-8.68537
yx쎯	-8.6863
▁w쎯n쎯ght쎯ywf쎯	-8.68683
▁ck쎯	-8.68712
▁wt쎯ftj쎯	-8.68715
▁wg쎯sf쎯	-8.6875
▁--	-8.68771
gae쎯	-8.68933
▁g쎯fh쎯	-8.69059
ab쎯	-8.69244
▁vt쎯	-8.69371
fcu0쎯	-8.69455
▁nge쎯ukq쎯	-8.6948
ey쎯	-8.69731
fp쎯	-8.69753
lll쎯	-8.69833
▁dn쎯al쎯	-8.70053
tj쎯	-8.70054
▁w쎯km쎯	-8.70116
▁wbj쎯vfhp1쎯	-8.70133
fw쎯	-8.70144
▁cd쎯gn쎯	-8.70233
lk쎯	-8.70236
▁쎁쎉쎉쎈	-8.70278
▁jcf쎯rf쎯	-8.703
▁synw쎯ny쎯	-8.70376
▁dty쎯gk쎯	-8.70445
▁vfb쎯	-8.70477
▁k쎯l쎯aw쎯u쎯ipk쎯	-8.70596
▁ghd0쎯aa쎯	-8.70693
▁mq쎯	-8.70751
pn쎯	-8.70776
y쎯	-8.70776
▁tu쎯dga쎯	-8.70787
▁dj쎯	-8.70829
▁fggh쎯	-8.70859
▁rc쎯	-8.70873
▁ck쎯iyo쎯	-8.70891
jtg쎯	-8.70971
▁img쎯	-8.71014
pg쎯	-8.71141
▁wyv쎯kkk쎯	-8.71282
▁pu쎯ytb쎯	-8.71473
tv쎯	-8.71713
▁yv쎯vb쎯	-8.71731
▁yygt쎯sghg1쎯	-8.71999
▁wbj쎯wt쎯	-8.72004
▁ipw쎯	-8.72019
▁tf쎯ght쎯	-8.72251
fj쎯	-8.72271
▁ntg쎯ce쎯	-8.72548
▁qtj쎯uu쎯	-8.72639
dmj1쎯	-8.72819
qi쎯	-8.72908
▁hhu0쎯	-8.73028
▁aa쎯	-8.73116
fhn쎯	-8.73248
a	-8.7325
▁yf쎯aj쎯	-8.73294
▁jgm쎯	-8.73349
▁p쎯hxf쎯	-8.73404
▁wh쎯w쎯	-8.73437
▁kg쎯	-8.73483
▁oge쎯pyj쎯	-8.7354
▁ic쎯	-8.73629
▁ld쎯hx쎯	-8.73747
▁ey쎯adw쎯	-8.73886
kq쎯	-8.73932
▁ip쎯dl쎯	-8.73943
uh쎯	-8.74202
▁sf쎯n쎯	-8.74216
▁k쎯aw쎯	-8.74293
uj쎯	-8.743
bpf쎯	-8.74434
▁irr쎯ia쎯	-8.7444
▁wxf쎯	-8.74515
fq쎯	-8.74526
nfc쎯	-8.74537
▁jf쎯adwe1쎯	-8.74561
fghg쎯	-8.74621
▁jty쎯ysi쎯	-8.74866
▁gcf쎯wynb쎯	-8.7488
▁ld쎯o쎯	-8.75129
▁pl쎯	-8.75539
▁hhhh쎯sfi쎯	-8.75549
▁aib쎯lfnh쎯	-8.75789
▁um쎯og쎯	-8.75906
▁u쎯og쎯	-8.76064
▁yid쎯	-8.76089
▁gef쎯	-8.76097
▁rn쎯c쎯	-8.7611
▁fuk쎯udyj쎯	-8.76148
gj쎯	-8.76163
o쎯b쎯	-8.76266
k	-8.76579
st쎯	-8.76662
wfny0쎯	-8.76679
usr쎯	-8.76698
▁=	-8.76849
▁yygy쎯ip쎯	-8.76884
▁v쎯	-8.76895
▁tfl쎯	-8.77022
▁djd쎯ipkh1쎯	-8.77023
▁nyi2쎯fghy0쎯	-8.77084
▁n쎯ytt쎯	-8.77084
ad쎯	-8.77096
▁aq쎯fakg1쎯	-8.77243
d	-8.77292
ujn쎯	-8.77306
▁ta쎯adwe1쎯	-8.77312
▁uqd0쎯	-8.77391
▁lfn쎯	-8.77826
▁qq쎯uqw쎯	-8.77829
▁fcu0쎯	-8.78063
▁ght쎯ick쎯	-8.78121
▁fj쎯ty쎯	-8.78385
▁yw쎯ygh쎯	-8.78495
uu쎯	-8.78736
ssss쎯	-8.78736
▁trf쎯klj쎯	-8.78763
pb쎯	-8.7889
▁w쎯wu쎯	-8.7891
▁ga쎯nae쎯	-8.78932
▁a쎯anb0쎯	-8.79
▁pei쎯sf쎯	-8.79025
gkp쎯	-8.7912
▁itx쎯rdc쎯	-8.79318
m쎯	-8.79333
rfm쎯	-8.79455
ige쎯	-8.79464
ga쎯	-8.79614
lwj쎯	-8.79747
▁ymc쎯ytb쎯	-8.79894
▁lpk0쎯	-8.79955
jn쎯	-8.801
qe쎯	-8.80108
▁kkk쎯tkh쎯	-8.80169
▁mmm쎯ai쎯ith쎯	-8.80196
wgk쎯	-8.80205
▁쎅쎀쎀	-8.80227
wy쎯	-8.8033
▁쎁쎉쎉쎇	-8.80462
▁ovt쎯	-8.80479
lft쎯	-8.80541
▁쎁쎉쎉쎉	-8.80605
▁da쎯dk쎯	-8.80628
▁yt쎯ty쎯	-8.80673
▁if쎯tvfh1쎯	-8.80691
▁fcp쎯fcl쎯	-8.80716
▁qgf쎯	-8.80984
▁af쎯wgkb2쎯	-8.81089
▁ypt쎯oy쎯	-8.81153
▁qq쎯tkh쎯	-8.81186
▁tg쎯tr쎯	-8.81443
txi쎯xyc쎯	-8.81787
▁tdg1쎯	-8.81828
▁y쎯rf쎯	-8.81898
▁uyh쎯	-8.81918
fg쎯	-8.81942
▁wc쎯	-8.81966
kthh1쎯	-8.82072
vvv쎯	-8.8215
▁ltu쎯	-8.82275
▁wdn쎯rfm쎯	-8.82337
▁쎁쎉쎉쎆	-8.82346
▁hko쎯	-8.82361
▁oge쎯	-8.82378
▁ts쎯	-8.82445
tmd쎯	-8.82496
▁y쎯yam쎯	-8.82601
yq쎯	-8.82949
▁rx쎯uwy1쎯	-8.8303
▁lh쎯kthh1쎯	-8.83061
ftbt쎯	-8.8307
▁bc쎯tj쎯	-8.83149
▁nf쎯jgm쎯	-8.83276
▁thd쎯fcl쎯	-8.83304
fnr쎯	-8.8338
xa쎯	-8.83542
▁wsg0쎯	-8.83562
▁lkd쎯	-8.83623
▁gcft2쎯lt쎯gf쎯	-8.83663
▁isk쎯	-8.83701
▁yygt쎯ai쎯	-8.83709
▁sg쎯nnh쎯	-8.83757
t	-8.83759
▁sn쎯	-8.83991
▁utd쎯ugm쎯	-8.83996
▁kgd쎯	-8.84022
▁iq쎯	-8.84059
▁yjs쎯tkgg0쎯	-8.84187
▁ii쎯gu쎯	-8.8429
um쎯	-8.84316
ide쎯	-8.84396
▁ss쎯	-8.84608
▁ln쎯shn쎯	-8.8462
qgf쎯	-8.84644
▁tfqp쎯rcf쎯	-8.84699
nge쎯	-8.84711
▁tuj쎯tq쎯	-8.84916
▁rh쎯wa쎯	-8.85148
▁lq쎯	-8.85192
▁t	-8.85198
▁hk쎯f쎯dm쎯tkw쎯	-8.85303
ts쎯	-8.85363
yny0쎯	-8.85363
▁i쎯ce쎯	-8.85405
▁sm쎯	-8.85519
▁wc쎯kht쎯	-8.85523
▁iy쎯mm쎯	-8.85543
▁s	-8.85604
▁e쎯uqt쎯	-8.85681
▁ip쎯sy쎯	-8.85736
▁gae쎯aa쎯	-8.85906
▁bde쎯	-8.86019
▁m	-8.86038
yyy쎯	-8.86064
adw쎯	-8.86171
▁qr쎯	-8.86336
▁ty쎯	-8.86422
ip쎯wug1쎯	-8.86423
ooo쎯	-8.86465
dmh쎯	-8.86492
▁ih쎯jf쎯	-8.86522
gcf쎯	-8.86676
▁xe쎯	-8.86752
a쎯tkgg0쎯	-8.86782
gl쎯	-8.86833
▁쎁쎉쎉쎅	-8.86858
▁td쎯ykw쎯	-8.86885
tgj쎯	-8.87113
vfhp1쎯	-8.87158
▁쎈쎀	-8.87375
eg쎯	-8.8746
▁uqt쎯js쎯	-8.87486
gy쎯	-8.87517
▁aw쎯m쎯	-8.8762
▁xx쎯lu쎯	-8.87693
pgy쎯	-8.87845
▁w	-8.87869
ujj쎯	-8.87949
yjjh1쎯	-8.87992
▁l쎯mw쎯qh쎯	-8.88035
▁bm쎯thgc쎯py쎯	-8.88235
▁ssss쎯	-8.88331
▁iit쎯	-8.88573
▁fii쎯	-8.88623
▁gah쎯	-8.88653
qynm1쎯	-8.88667
▁ih쎯yu쎯	-8.88699
▁쎂쎀쎁쎂	-8.88979
▁wv쎯o쎯	-8.89015
▁yygt쎯dd쎯	-8.89016
wa쎯	-8.89098
▁kn쎯	-8.89169
▁pp쎯rg쎯	-8.89312
▁쎂쎁	-8.89425
▁uf쎯	-8.89479
q	-8.89553
t쎯	-8.89565
sh쎯	-8.8966
▁fj쎯	-8.89679
▁r	-8.89809
▁wg쎯gfi쎯	-8.9007
▁쎁쎉쎉쎃	-8.90089
▁yygt쎯itp쎯	-8.90094
n	-8.90108
▁gef쎯rh쎯	-8.90166
y	-8.90242
▁gip쎯e쎯	-8.90273
▁ygk쎯yyy쎯	-8.90389
▁~	-8.9052
▁ia쎯alw쎯	-8.90629
▁amd쎯l쎯	-8.9066
sov쎯	-8.908
tm쎯	-8.90854
i	-8.90943
▁uk쎯uyh쎯	-8.91196
▁ts쎯wrh2쎯	-8.91234
▁wsg0쎯yce쎯	-8.91235
▁wu쎯	-8.91359
▁y	-8.91379
ipkf0쎯	-8.91407
▁ru쎯	-8.91574
scf쎯	-8.91706
▁q	-8.91766
gog쎯	-8.91798
▁g쎯fhn쎯	-8.91895
▁k쎯wxf쎯	-8.91959
▁sw쎯imj쎯	-8.92002
▁ft쎯	-8.9203
▁jn쎯	-8.92055
▁dd쎯jg쎯	-8.92056
▁yygt쎯ai쎯ith쎯	-8.92069
▁쎁쎉쎉쎂	-8.92094
▁rkk쎯wt쎯	-8.92171
fawk쎯	-8.92252
xt쎯	-8.92338
f쎯th쎯	-8.92431
▁wkh쎯fj쎯	-8.92445
▁ad쎯	-8.92461
▁mqb쎯	-8.92483
▁wwj쎯wfhg쎯	-8.92507
▁tjf쎯	-8.92744
▁fh쎯ruv쎯	-8.928
▁udi쎯	-8.92857
▁ytf쎯qq쎯	-8.92871
dr쎯	-8.92874
jy쎯	-8.92958
▁jf쎯wa쎯	-8.92981
▁atd쎯ip쎯	-8.93038
▁epc쎯gc쎯	-8.93073
xeg쎯	-8.93141
▁쎂쎂	-8.93159
▁wgj쎯	-8.93501
▁쎃쎀쎀	-8.93563
▁yygy쎯wrh2쎯	-8.93618
tjf쎯	-8.93626
▁pv쎯ufy쎯	-8.93655
▁mq쎯st쎯	-8.93658
sc쎯	-8.93711
▁pfq쎯uduk쎯	-8.93783
▁ul쎯wtf쎯	-8.93833
▁jhng쎯	-8.93834
▁ge쎯gm쎯	-8.93892
▁hk쎯	-8.93908
▁whw쎯qi쎯uk쎯	-8.93944
fggh쎯	-8.93977
thgc쎯	-8.94142
▁amd쎯ygk쎯	-8.94158
lp쎯	-8.94203
▁쎁쎉	-8.94341
▁kkkk0쎯	-8.94343
▁rj쎯bm쎯	-8.94383
▁yy쎯	-8.9454
▁yygt쎯ytyh쎯	-8.9461
rgw쎯	-8.94692
pyj쎯	-8.94888
▁uth쎯	-8.94895
▁tyna2쎯	-8.94918
▁tx쎯dg쎯	-8.95007
▁yy쎯wgj쎯	-8.95054
▁rs쎯tfkp쎯	-8.95058
▁tmg1쎯	-8.95142
▁thg0쎯	-8.95142
▁yygt쎯	-8.95166
▁wgc쎯	-8.95368
▁f쎯ltu쎯	-8.9544
▁pu쎯cwg쎯	-8.95511
▁nnh쎯if쎯	-8.9554
▁d	-8.95548
vk쎯	-8.95563
▁fhu쎯	-8.95575
▁km쎯a쎯	-8.95677
▁vs쎯fn쎯	-8.95734
▁ce쎯qkqq쎯	-8.95953
▁ght쎯tgm쎯	-8.9597
▁um쎯tl쎯	-8.96008
▁aws쎯	-8.96065
▁lg쎯	-8.96156
▁pe쎯ytfp1쎯	-8.96163
▁ud쎯gf쎯	-8.96259
ith쎯	-8.96275
ff쎯	-8.9638
▁쎁쎉쎉쎄	-8.964
▁쎁쎉쎈쎄	-8.96504
mqb쎯	-8.96515
▁쎂쎃	-8.96521
▁wwf쎯ait쎯	-8.96667
▁tfn쎯	-8.96717
▁ip쎯tu쎯	-8.96867
▁ral쎯syp쎯	-8.96883
ma쎯	-8.96898
▁wgj쎯tjh쎯	-8.97
▁adwe1쎯uj쎯	-8.9702
suq쎯	-8.97186
▁pu쎯bf쎯	-8.97186
▁g쎯uqw쎯	-8.97322
▁vk쎯js쎯	-8.97342
rxj쎯	-8.97522
s	-8.97594
쎉	-8.97756
▁jn쎯idr쎯	-8.97788
▁wgk쎯	-8.978
amw쎯	-8.98184
▁ftbt쎯sft쎯	-8.98335
ujf쎯	-8.9839
▁ffff5쎯f쎯	-8.98411
▁tfl쎯l쎯	-8.98427
nx쎯	-8.9862
▁ymf쎯	-8.9869
▁tkw쎯se쎯	-8.98703
iex쎯	-8.98706
ywx쎯	-8.98743
ihc쎯	-8.98794
▁쎁쎀쎀쎀	-8.98915
▁qtj쎯trf쎯	-8.98981
▁jb쎯ym쎯	-8.99015
▁bb쎯	-8.99215
ghd0쎯	-8.99219
▁xeg쎯	-8.9924
▁dy쎯	-8.99263
▁qg쎯	-8.99327
▁pu쎯khg쎯	-8.9936
▁p쎯jfd쎯	-8.99402
▁ymc쎯	-8.99503
ou쎯	-8.99553
▁ide쎯fm쎯	-8.99559
xmw쎯	-8.99577
▁uq쎯iyc쎯	-8.99635
lw쎯	-8.99666
▁dt쎯egl쎯	-8.99668
ftbt쎯yce쎯	-8.99765
▁tfq쎯tg쎯	-8.99924
oy쎯	-8.99932
▁wcy2쎯	-8.99961
▁g쎯rn쎯	-8.99984
▁xf쎯js쎯	-9.00142
▁fh쎯	-9.00153
qt쎯	-9.00277
▁gk쎯og쎯	-9.00283
f	-9.00389
wrh2쎯	-9.00583
▁ia쎯alw쎯ith쎯	-9.00605
▁nfc쎯	-9.00719
nd쎯	-9.0076
▁fgh쎯wv쎯	-9.00923
▁fdm쎯fiy쎯	-9.00947
▁pw쎯uj쎯	-9.01046
iw쎯	-9.01167
▁dmj1쎯eg쎯	-9.01238
▁g	-9.01253
▁fhw쎯	-9.01303
▁uo쎯cep쎯	-9.01366
▁lpdk0쎯	-9.01369
ge쎯	-9.01443
lkd쎯	-9.01451
▁rt쎯	-9.01494
▁pei쎯n쎯	-9.01541
▁hw쎯	-9.01735
▁tdp쎯et쎯	-9.01746
▁usr쎯ub쎯	-9.01789
▁wf쎯yyq쎯	-9.01821
▁sgn쎯ddu0쎯	-9.01839
▁dm쎯	-9.01945
▁ith쎯xe쎯	-9.01951
ep쎯	-9.02106
ntk쎯	-9.02112
▁lft쎯bw쎯	-9.02135
▁tq쎯kgn쎯	-9.02167
▁a쎯tkgg0쎯jgm쎯	-9.02178
▁rymn쎯	-9.02187
ytt쎯	-9.02208
▁inr쎯	-9.0238
thd쎯	-9.02433
▁쎁쎉쎈쎅	-9.02455
▁fm쎯yiu쎯	-9.02526
▁yt쎯	-9.02531
kgn쎯	-9.02538
▁bu쎯wgk쎯	-9.02551
▁sk쎯ce쎯	-9.02567
rp쎯	-9.0279
▁wug1쎯	-9.02865
▁dhb쎯d쎯	-9.02949
▁cnh쎯	-9.03083
▁vcl쎯lt쎯	-9.03176
▁lkmi0쎯	-9.03191
▁aps쎯aqt쎯	-9.03386
▁vcb쎯sk쎯	-9.03397
▁pfi쎯xj쎯	-9.03592
w	-9.03752
▁fwm쎯saj쎯	-9.03756
▁fhv쎯	-9.03857
▁isk쎯fm쎯	-9.03867
▁tffh1쎯uthp쎯	-9.0388
▁mmm쎯aq쎯	-9.03908
▁qq쎯wh쎯	-9.03958
ae쎯	-9.04185
bc쎯	-9.04235
g	-9.04239
▁irr쎯ia쎯ith쎯	-9.04287
▁쎁쎉쎉쎀	-9.04296
▁hka쎯ltk쎯	-9.04416
▁nty1쎯	-9.04458
▁uqwk쎯yqj쎯	-9.0452
▁wqj쎯	-9.04611
▁쎁쎉쎈쎈	-9.04701
tffu쎯	-9.04705
▁gl쎯	-9.04905
▁ge쎯dm쎯	-9.04957
▁nty1쎯af쎯	-9.04964
▁jn쎯pym쎯	-9.04986
▁ugm쎯gxgu쎯	-9.05022
yfd쎯	-9.05033
▁cd쎯ovt쎯	-9.05098
▁ufy쎯qnth쎯	-9.05118
▁v쎯tf쎯	-9.05144
▁ymc쎯e쎯	-9.05183
mtd쎯	-9.0519
▁yw쎯o쎯	-9.05243
rvyo쎯	-9.05421
hka쎯	-9.05543
▁atd쎯ubk0쎯	-9.05563
tq쎯	-9.05672
▁쎂쎈	-9.05714
ick쎯	-9.05783
▁se쎯	-9.0588
▁yo쎯wx쎯	-9.05973
▁bpf쎯ta쎯	-9.06
▁rwyg쎯yygt쎯	-9.06004
▁'	-9.0605
ajj쎯	-9.06077
rb1쎯	-9.06109
▁쎃쎂	-9.06184
ipkh1쎯	-9.06185
▁xg쎯	-9.06378
▁fcl쎯tr쎯	-9.06506
▁uu쎯	-9.06703
▁eg쎯	-9.0672
▁w쎯fqu쎯	-9.06826
▁tfqp쎯	-9.06906
▁ak쎯ftj쎯	-9.06909
▁wbj쎯lw쎯	-9.07136
『	-9.07164
▁』	-9.07191
▁rnb쎯	-9.07224
▁jb쎯rg쎯	-9.07239
▁wx쎯ip쎯	-9.07468
dgh쎯	-9.07546
▁jb쎯xtu쎯	-9.07554
▁if쎯l쎯	-9.07579
vb쎯	-9.0761
▁nua쎯ajdh쎯	-9.07811
u쎯	-9.07915
▁adw쎯px쎯	-9.07985
▁’	-9.07996
▁f	-9.0801
▁cff쎯	-9.08024
▁fu쎯lk쎯	-9.08055
▁쎂쎆	-9.08138
▁ws쎯usi0쎯	-9.08317
▁ywu쎯	-9.08352
udbb쎯	-9.08359
▁bwt쎯	-9.08456
▁qr쎯kht쎯	-9.08488
▁lpk0쎯xfn쎯	-9.08521
▁yo쎯	-9.08562
▁wjg쎯j쎯	-9.08565
▁ffff5쎯	-9.08569
▁qk쎯tq쎯	-9.08642
j	-9.08708
▁qn쎯	-9.08823
▁tp쎯	-9.08842
▁pgn쎯	-9.08867
▁alw쎯	-9.08998
▁dmj1쎯dn쎯	-9.09
gg쎯	-9.09147
▁wtu쎯	-9.09173
▁ggi쎯wk쎯	-9.09202
▁yygt쎯tfkf1쎯	-9.09264
▁gm쎯o쎯	-9.09447
▁pym쎯hid쎯	-9.09544
▁쎁쎉쎈쎆	-9.09605
▁iv쎯jf쎯	-9.09619
▁iv쎯wa쎯	-9.09671
m	-9.0971
▁yygy쎯je쎯	-9.09716
▁dj쎯ya쎯	-9.09757
▁vca쎯	-9.09785
▁쎁쎉쎈쎇	-9.09881
▁jf쎯imkf1쎯	-9.09972
▁iyc쎯	-9.09983
▁aqq쎯iyt0쎯	-9.09989
▁°	-9.10088
▁vkgd쎯qi쎯	-9.10302
▁fwm쎯pg쎯	-9.1032
xk쎯	-9.1037
▁kwyg쎯g쎯	-9.10459
uqd0쎯	-9.10561
▁ugm쎯	-9.10575
▁wbj쎯tfkp쎯	-9.10698
▁sam쎯	-9.10729
▁pgj쎯wfny0쎯	-9.10778
wyv쎯	-9.10783
yhk쎯	-9.10806
▁ktn쎯	-9.10865
pyg쎯	-9.10872
ps쎯	-9.10904
gef쎯	-9.10932
▁qqqq1쎯ntk쎯	-9.10949
▁gk쎯	-9.10992
▁rep쎯cbj쎯	-9.11018
▁xh쎯fhn쎯	-9.11028
▁lh쎯kthh1쎯ith쎯	-9.11151
▁wg쎯uk쎯	-9.11159
js쎯	-9.11291
▁wtf쎯tl쎯	-9.11402
▁wsg0쎯txi쎯	-9.11422
▁hc쎯	-9.11488
▁qqqq1쎯gkm쎯	-9.11567
▁rvy쎯tf쎯	-9.11579
ow쎯	-9.11603
▁gm쎯wa쎯wx쎯	-9.11621
▁isk쎯fm쎯ith쎯	-9.11926
▁l쎯pe쎯xe쎯	-9.12038
▁wug1쎯lfhf쎯	-9.12087
▁fhq쎯	-9.12124
gah쎯	-9.12135
▁cep쎯ipkh1쎯	-9.12143
▁aw쎯e쎯	-9.12219
▁isgg0쎯	-9.12292
▁dif쎯f쎯	-9.12542
▁it쎯	-9.1259
▁mww쎯	-9.12775
gyt쎯	-9.12843
▁xxr쎯	-9.13
ax쎯	-9.13006
▁uqwm0쎯ou쎯	-9.13017
▁쎁쎉쎈쎉	-9.13085
▁wv쎯od쎯	-9.13136
▁쎁쎉쎉쎁	-9.13211
▁tqv쎯pg쎯	-9.13288
▁ftg쎯	-9.13302
▁gae쎯	-9.13328
up쎯	-9.13406
▁ai쎯ux쎯	-9.13482
▁wc쎯lfq쎯	-9.1351
▁kl쎯	-9.13526
▁wfny0쎯rtol1쎯	-9.13676
▁ri쎯	-9.1374
▁g쎯qk쎯	-9.13806
▁tffh1쎯	-9.13866
▁wn쎯fqb1쎯	-9.13886
▁sghg1쎯fm쎯	-9.13905
▁iagw쎯khu쎯	-9.14053
▁hk쎯f쎯	-9.14141
uth쎯	-9.14295
▁nui쎯	-9.14318
▁ide쎯ux쎯	-9.14329
xxg0쎯	-9.14355
▁yb쎯	-9.14356
▁ytb쎯a쎯	-9.1439
w쎯kkkk0쎯	-9.144
▁rb1쎯	-9.14457
▁jn쎯eyb쎯	-9.14563
ire쎯	-9.14668
▁xv쎯qc쎯	-9.14714
▁nnw쎯gkip2쎯	-9.14783
▁wwj쎯st쎯	-9.14785
▁shn쎯	-9.14834
▁fcp쎯tf쎯	-9.14929
▁i쎯j쎯	-9.15036
▁ia쎯	-9.1508
dw0쎯	-9.15102
sgc쎯	-9.15335
▁gj쎯gk쎯	-9.15381
▁ih쎯xeg쎯	-9.15419
▁qng1쎯	-9.15582
▁tjt쎯	-9.15697
yn쎯	-9.15756
ln쎯	-9.15839
▁jo쎯fi쎯	-9.1595
▁c쎯gh쎯	-9.15953
xq쎯	-9.1611
gfi쎯	-9.16123
▁trf쎯tgh쎯	-9.16263
sve쎯	-9.16403
▁ftbt쎯	-9.16409
▁uq쎯	-9.1652
▁pyg쎯vfhp1쎯ith쎯	-9.16556
▁trf쎯gqr쎯	-9.16567
▁xl쎯eqn쎯	-9.16615
▁dg쎯wh쎯	-9.16678
fcu1쎯	-9.16683
▁qd쎯rg쎯	-9.16757
▁wdn쎯rvyl쎯	-9.16786
▁dgh쎯wa쎯	-9.1685
▁a쎯	-9.16928
bu쎯	-9.16943
▁qev쎯un쎯	-9.17219
gq쎯	-9.17337
▁p쎯su쎯	-9.1735
▁쎁쎉쎈쎂	-9.17369
▁pn쎯	-9.1739
▁pfq쎯wg쎯	-9.17436
▁‘	-9.17465
▁gog쎯	-9.17612
▁pv쎯tmgt1쎯	-9.17615
tel쎯	-9.17615
me쎯	-9.17789
▁fcu0쎯fm쎯ith쎯	-9.1802
jj쎯	-9.1803
▁fcu0쎯fm쎯	-9.18031
▁ge쎯fi쎯	-9.18138
▁kq쎯	-9.18329
▁ooo쎯	-9.18388
yww쎯	-9.1845
▁jh쎯	-9.18487
▁fku쎯cqw쎯	-9.18562
▁ajj쎯	-9.18708
▁pu쎯cwg쎯pgc쎯	-9.18722
▁tve쎯qq쎯	-9.18804
swc쎯	-9.18881
▁qi쎯	-9.18908
ght쎯	-9.19063
▁g쎯uk쎯	-9.19157
▁isk쎯ux쎯	-9.19201
▁wc쎯fqb1쎯	-9.19275
▁fgh쎯	-9.19302
ic쎯	-9.19467
▁ab쎯	-9.19514
▁tf쎯o쎯	-9.19554
hhhh쎯	-9.19746
▁yaa쎯cwg쎯	-9.19757
▁apk쎯qie쎯	-9.19828
▁nnh쎯gl쎯	-9.19935
▁ugdu쎯sy쎯	-9.19976
▁ide쎯	-9.20058
hv쎯	-9.2008
wdm쎯	-9.20111
▁쎇쎀	-9.20179
▁w쎯od쎯	-9.20251
▁h쎯itx쎯ymhj쎯	-9.20258
ud쎯	-9.20358
▁lw쎯ip쎯	-9.20377
isgg0쎯	-9.20485
uq쎯	-9.20509
▁bc쎯	-9.20543
▁xyna0쎯lkb쎯	-9.20543
▁tdp쎯wgk쎯	-9.20557
▁jtyl쎯hich쎯	-9.20645
▁ww쎯dmj1쎯	-9.20715
▁rmhj쎯ya쎯	-9.20866
▁kkk쎯rfm쎯	-9.20885
▁fawk쎯	-9.20919
▁ymc쎯uu쎯	-9.20986
▁..	-9.21079
▁ya쎯	-9.21129
yo쎯	-9.21132
▁gkl쎯ftbt쎯rep쎯	-9.21188
xx쎯	-9.21206
fqp쎯	-9.21244
▁tf쎯ght쎯sf쎯	-9.21325
▁tg쎯dyn쎯	-9.21336
▁itf쎯uqv쎯	-9.21398
▁rmhj쎯	-9.21422
mdf쎯	-9.21428
▁ux쎯yiu쎯ymhj쎯	-9.21443
wfg0쎯	-9.21469
▁yft쎯	-9.21485
▁tuj쎯ujfj쎯	-9.2149
▁dl쎯	-9.21638
▁dn쎯js쎯	-9.21739
▁pyg쎯vfhp1쎯	-9.21757
▁bg쎯tg쎯	-9.21774
kfi쎯	-9.21869
fcp쎯	-9.21911
▁thgc쎯	-9.22004
▁fhv쎯fp쎯	-9.22012
riu쎯	-9.22114
▁tg쎯ta쎯	-9.22152
▁fggh쎯uk쎯	-9.22157
▁pg쎯	-9.2219
▁udy쎯	-9.22229
▁fjfh1쎯l쎯	-9.22238
▁nh쎯ty쎯	-9.22515
▁bk쎯	-9.22517
ufy쎯	-9.2253
▁un쎯pg쎯	-9.22571
▁kw쎯e쎯	-9.22617
dc쎯	-9.22618
▁ijl쎯ya쎯	-9.22636
▁pgc쎯	-9.22664
▁쎁쎉쎈쎃	-9.22673
▁ccc쎯tq쎯	-9.22712
▁g쎯su쎯	-9.23008
▁qmgk0쎯	-9.23018
▁qt쎯ujff쎯	-9.23053
▁lft쎯	-9.23082
▁kj쎯	-9.2312
▁vck쎯vfhp1쎯	-9.23161
yqa쎯	-9.23194
dgkn쎯	-9.23278
▁fg쎯tffu쎯uqd0쎯	-9.23322
▁gip쎯j쎯	-9.23329
▁i쎯wcy2쎯	-9.23394
▁av쎯	-9.23402
▁dd쎯ih쎯	-9.2344
wwk쎯	-9.23457
▁dga쎯pwv쎯wf쎯	-9.23459
▁tfk쎯	-9.23554
▁bynw0쎯bb쎯	-9.23663
▁gkip2쎯ya쎯	-9.23696
▁gy쎯	-9.2374
▁nnw쎯	-9.23773
▁rrr쎯qc쎯	-9.23937
▁yny0쎯	-9.24175
▁rpv쎯jvko쎯	-9.2422
r	-9.24318
tl쎯	-9.24373
▁js쎯	-9.2438
▁qve쎯	-9.24417
▁hhhh쎯r쎯	-9.24555
cnh쎯	-9.24577
▁fny쎯	-9.24588
▁g쎯iyc쎯	-9.24707
▁www쎯qq쎯	-9.24815
▁tgj쎯yd쎯	-9.24843
▁iwf쎯lw쎯	-9.24846
gxi쎯	-9.24961
▁쎄쎅	-9.25015
▁gd쎯ivfh1쎯	-9.25062
▁adk쎯	-9.25171
▁dr쎯ou쎯	-9.25325
▁apk쎯udyj쎯	-9.25395
▁fuj쎯mw쎯	-9.25549
▁jb쎯wffg쎯	-9.25556
hx쎯	-9.25567
▁ybf0쎯epc쎯	-9.25668
ygh쎯	-9.25733
▁vtk쎯www쎯	-9.25802
dh쎯	-9.25899
ffff5쎯	-9.25915
▁bd쎯rjg0쎯	-9.25916
▁jv쎯	-9.25923
▁nd쎯n쎯	-9.26047
▁a쎯wt쎯ftj쎯	-9.26158
▁dw0쎯	-9.26185
▁qn쎯ufy쎯	-9.26201
▁ad쎯qqqq1쎯	-9.26207
▁쎃쎅	-9.26231
▁ia쎯sghg1쎯	-9.26289
▁ttg쎯	-9.26306
fhl쎯	-9.26308
▁k쎯atd쎯	-9.26391
▁xx쎯pfjm1쎯	-9.26399
▁ide쎯ux쎯ith쎯	-9.26411
▁sgn쎯	-9.26671
▁de쎯	-9.26709
▁gkih쎯wh쎯	-9.26719
umd0쎯	-9.26723
▁go쎯thd쎯	-9.26743
xwy쎯	-9.26816
wk쎯	-9.26914
▁jf쎯whn쎯	-9.26954
▁oi쎯	-9.27228
▁ukn쎯dm쎯tkw쎯	-9.27295
▁hj쎯	-9.27369
▁tmd쎯	-9.27398
tld1쎯	-9.27415
▁n	-9.27496
dnv1쎯	-9.27608
sg쎯nnh쎯	-9.27697
▁g쎯xe쎯	-9.27773
pk쎯	-9.27774
▁xyc쎯g쎯	-9.27837
▁egc쎯tv쎯	-9.27856
▁aft쎯	-9.2786
f쎯aq쎯	-9.27959
eb쎯	-9.27964
khu쎯	-9.27969
▁dmh쎯	-9.27972
▁jqr쎯	-9.28392
▁rwyg쎯bm쎯	-9.28807
▁udp쎯	-9.28902
ds쎯	-9.28989
amd쎯	-9.28995
▁pei쎯	-9.29077
▁tjh쎯	-9.29157
▁xp쎯wgk쎯ntg쎯	-9.29278
▁yfn쎯ftj쎯	-9.29344
▁fdm쎯	-9.29403
py쎯	-9.29408
dwiu쎯	-9.29509
▁by쎯	-9.29523
쎀	-9.29528
▁da쎯	-9.29639
▁pv쎯tmgt1쎯ith쎯	-9.29706
▁xh쎯	-9.29771
▁sghg1쎯ux쎯	-9.29826
▁ide쎯fm쎯ith쎯	-9.29909
l	-9.29945
▁uthp쎯kht쎯	-9.29989
▁adwe1쎯	-9.30006
u	-9.30028
▁wvt쎯	-9.30186
▁naj1쎯	-9.30258
pw쎯	-9.30327
▁afs쎯	-9.3034
▁mt쎯	-9.30481
▁rnd1쎯	-9.30542
yvi쎯	-9.30544
te쎯	-9.30565
▁wx쎯	-9.30569
▁udy쎯dyn쎯	-9.3061
▁dnv1쎯gu쎯yy쎯oy쎯	-9.30658
▁jb쎯usr쎯	-9.30701
xjm쎯	-9.30763
sk쎯	-9.30818
▁ruv쎯	-9.30879
▁nh쎯adnt1쎯	-9.30907
▁je쎯jo쎯	-9.30929
▁tr쎯rfm쎯	-9.30974
wg쎯	-9.31029
▁wx쎯a쎯	-9.31066
▁tkgg0쎯ycb쎯	-9.31228
▁we쎯	-9.31254
td쎯	-9.31291
▁dl쎯wtf	-9.31309
▁g쎯ffi쎯	-9.31354
vtk쎯	-9.31398
▁jty쎯	-9.31438
▁ymc쎯lfhf쎯	-9.31446
▁nt쎯edm쎯	-9.31455
▁gqx쎯	-9.31496
▁g쎯wug1쎯	-9.31612
ywf쎯	-9.31687
iawn쎯	-9.31705
ndj쎯	-9.31713
▁fn쎯	-9.31775
mww쎯	-9.31865
▁wsk쎯	-9.31935
▁xl쎯	-9.32051
▁nh쎯	-9.32073
▁dht쎯	-9.32131
▁wht쎯	-9.32321
▁쎉쎀	-9.32386
▁j	-9.32433
▁쎁쎅쎀	-9.32442
▁tdp쎯peg쎯	-9.32463
▁m쎯rh쎯	-9.32535
▁ovt쎯pb쎯	-9.32567
▁쎂쎇	-9.32625
▁std쎯	-9.32667
lh쎯	-9.32751
▁vfhp1쎯dn쎯	-9.32767
pu쎯	-9.32833
oo쎯	-9.32865
▁wk쎯ygh쎯	-9.32944
▁apl쎯fcl쎯	-9.33062
sy쎯	-9.33087
▁ai쎯sghg1쎯	-9.33144
▁lk쎯xk쎯	-9.33181
wycm0쎯	-9.33215
▁ipk쎯km쎯	-9.33281
▁y쎯wtf쎯atd쎯jgm쎯	-9.33309
▁ywx쎯	-9.33342
lhnh쎯	-9.33393
▁sve쎯	-9.33408
▁fcp쎯fcl쎯km쎯	-9.33566
qn쎯	-9.33592
ymf쎯	-9.33618
▁lpk0쎯ruv쎯	-9.337
▁wtf쎯wsk쎯	-9.33763
tffh1쎯	-9.33782
etg쎯	-9.33875
▁vk쎯wsk쎯	-9.33879
▁qyv쎯jqr쎯	-9.33927
cm쎯	-9.33951
▁ltu쎯nnh쎯	-9.33958
▁g쎯tffu쎯uqd0쎯	-9.3401
▁e쎯udh쎯	-9.34024
▁fny쎯lkb쎯	-9.34058
▁mw쎯uk쎯	-9.34208
mfk쎯	-9.34212
▁xv쎯	-9.34234
▁wk쎯rf쎯	-9.34237
yngk0쎯	-9.34303
tfq쎯	-9.3431
▁mw쎯lfhf쎯	-9.34331
▁u	-9.34344
▁rt쎯sm쎯	-9.34391
▁um쎯	-9.34396
fje쎯	-9.34431
▁sm쎯ud쎯	-9.34477
%	-9.34551
jgm쎯aib쎯dd쎯ip쎯	-9.34558
▁yln쎯	-9.34583
▁jn쎯lt쎯	-9.34775
▁lwg쎯bm쎯	-9.34817
▁cy쎯	-9.34829
▁k쎯yygy쎯	-9.34858
▁fge쎯	-9.34895
ght쎯ywf쎯	-9.34981
wyc쎯	-9.34988
▁sh쎯cf쎯	-9.35027
▁yny0쎯f쎯u쎯	-9.35124
dskf쎯	-9.35222
▁ftg쎯yaa쎯	-9.35255
fc쎯	-9.35271
▁ipg쎯km쎯	-9.35301
gmy1쎯	-9.35405
▁rhk쎯	-9.3544
▁ymhj쎯tv쎯	-9.35454
ymc쎯tlf2쎯	-9.35469
▁rj쎯tak쎯	-9.35512
▁tr쎯iyc쎯	-9.3555
▁um쎯kkk쎯	-9.35552
qnp쎯	-9.35556
yff쎯	-9.35562
▁bk쎯a쎯	-9.35592
bfw쎯	-9.35637
epc쎯	-9.35655
▁td쎯qk쎯	-9.3571
sksw쎯	-9.35713
▁nnk쎯	-9.35732
▁tx쎯lh쎯	-9.35797
vi쎯	-9.35814
▁amd쎯fghy0쎯	-9.35983
ldn쎯	-9.35994
▁ymf쎯sj쎯	-9.36066
vtkd1쎯	-9.36131
ww쎯	-9.3614
▁fjfh1쎯	-9.36146
▁xyna0쎯pgn쎯	-9.36269
ylk2쎯	-9.36328
iit쎯	-9.36365
▁thd쎯mh쎯	-9.36373
iyo쎯	-9.36406
▁fcp쎯et쎯	-9.36445
it쎯	-9.36475
▁ym쎯gkip2쎯	-9.36486
▁cqy쎯	-9.36495
▁ryl쎯ta쎯	-9.36517
▁g쎯av쎯	-9.36572
▁tg쎯wgkb2쎯	-9.36607
▁ax쎯	-9.36655
▁gkih쎯wsg0쎯	-9.36672
ffi쎯	-9.36747
lwx쎯	-9.36761
▁wdm쎯	-9.36837
▁쎄쎀쎀	-9.36844
▁usr쎯xfg쎯	-9.36892
▁dr쎯mj쎯	-9.36914
dfy쎯	-9.36943
▁dga쎯pwv쎯bpf쎯	-9.37036
▁bde쎯udh쎯	-9.37173
mwyc1쎯	-9.37175
▁ue쎯tmd쎯	-9.37176
pt쎯	-9.37192
▁wt쎯pe쎯	-9.37228
▁lt쎯jg쎯	-9.37243
▁ipk쎯	-9.37246
fk쎯	-9.37259
▁rmhj쎯pg쎯	-9.3728
▁rg쎯go쎯	-9.37345
▁dgt1쎯	-9.37375
▁qc쎯	-9.37384
▁qve쎯tf쎯	-9.37447
▁rbcc쎯jyie쎯	-9.37496
▁ae쎯	-9.37523
yu쎯	-9.37572
yd쎯	-9.3792
iytb0쎯	-9.37994
▁pw쎯	-9.38027
▁yjs쎯jghm1쎯	-9.38097
▁yni1쎯	-9.3817
▁adwr쎯	-9.38176
▁lp쎯	-9.38178
▁a쎯hw쎯	-9.38185
yv쎯	-9.38186
▁wa쎯gj쎯	-9.3822
▁g쎯yww쎯	-9.38242
▁iv쎯f쎯	-9.38273
ld쎯	-9.38324
▁ipw쎯fkh쎯	-9.38348
▁&	-9.38355
iyw쎯	-9.38411
▁lwg쎯ty쎯	-9.38426
apk쎯	-9.38455
mh쎯	-9.38491
▁pgk쎯	-9.38593
▁bgu쎯sghg1쎯	-9.38638
▁fha쎯	-9.38642
▁fwm쎯aib쎯	-9.38651
▁sov쎯	-9.38743
▁tld1쎯	-9.38751
▁b쎯qev쎯	-9.38755
▁tkgg0쎯ya쎯	-9.38797
▁hw쎯wsg0쎯	-9.38805
ait쎯	-9.38805
▁uk쎯ta쎯	-9.38844
▁fqp쎯	-9.3892
▁wnnp쎯fiy쎯	-9.3893
▁gfi쎯	-9.38991
▁gogj쎯	-9.39013
▁yx쎯	-9.39024
▁yygt쎯fnrt쎯	-9.39041
▁isk쎯ux쎯ith쎯	-9.39051
▁twt쎯	-9.39144
▁ovt쎯ip쎯	-9.39199
▁sm쎯fnrt쎯	-9.39232
▁wyv쎯	-9.39242
▁gy쎯oy쎯	-9.39349
▁p쎯j쎯	-9.39427
iyt0쎯	-9.39529
wc쎯ngk쎯	-9.39538
wgkq0쎯	-9.39622
mj쎯	-9.39747
▁waw쎯	-9.39748
wr쎯	-9.3981
yt쎯	-9.39898
▁utem1쎯qc쎯	-9.40049
▁wa쎯	-9.40064
▁sdm쎯	-9.40082
▁yge쎯	-9.40106
qev쎯	-9.40175
쎁쎉	-9.40182
▁v쎯dmh쎯	-9.40184
▁dg쎯tffu쎯uqd0쎯	-9.40209
▁ggi쎯	-9.40214
▁swc쎯	-9.40314
▁fje쎯	-9.40349
▁fhn쎯go쎯	-9.40379
▁dg쎯rh쎯	-9.40379
▁ujj쎯	-9.40413
▁nae쎯fi쎯	-9.40435
▁yngk0쎯	-9.40487
eee쎯	-9.40551
▁tmo쎯	-9.40573
tfqp쎯	-9.40584
fghy2쎯	-9.40686
▁nf쎯ipg쎯	-9.40787
▁bi0쎯	-9.40841
▁vtk쎯	-9.40911
▁ff쎯	-9.41062
▁tgm쎯aj쎯	-9.41067
▁dd쎯bfm쎯	-9.41105
▁mmm쎯sghg1쎯	-9.41122
▁src쎯	-9.41162
flf1쎯	-9.41204
▁jtg쎯	-9.41206
▁egc쎯fd쎯	-9.41241
wfhg쎯	-9.41253
▁lqw쎯	-9.41305
vo쎯	-9.4136
qgj쎯	-9.41379
▁ivw쎯	-9.41475
▁amd쎯	-9.4152
▁wxj쎯	-9.41551
qr쎯	-9.416
▁nd쎯	-9.41609
▁tel쎯	-9.41669
pfjm1쎯	-9.41676
av쎯	-9.41717
▁px쎯wu쎯	-9.41758
▁xf쎯	-9.41848
hi쎯	-9.41917
▁xo쎯xfn쎯	-9.41947
▁adnt1쎯	-9.41981
adnt1쎯	-9.42194
yne쎯	-9.422
▁dga쎯pwv쎯km쎯	-9.42314
▁yk쎯xan쎯	-9.42369
vn쎯	-9.42401
▁ccc쎯qk쎯	-9.42581
▁wye쎯	-9.42597
wht쎯	-9.42603
▁ddu0쎯	-9.42683
▁dr쎯qk쎯	-9.42713
▁fny쎯uyh쎯	-9.4272
e	-9.42739
▁thd쎯qd쎯sf쎯	-9.4276
▁pgy쎯	-9.42771
fh쎯	-9.42783
▁y쎯xyna0쎯	-9.42857
▁ugdu쎯gmy1쎯	-9.42929
▁fii쎯go쎯	-9.42933
▁suq쎯lfq쎯	-9.42976
▁db쎯ukd0쎯	-9.42978
▁imj쎯jg쎯	-9.43075
▁쎂쎉	-9.43112
▁xwy쎯ryn0쎯	-9.432
▁쎁쎉쎈쎀	-9.43223
thgf0쎯	-9.43255
▁ee쎯dc쎯	-9.43333
▁wk쎯	-9.43338
v	-9.43342
h	-9.4335
▁x	-9.43442
▁dn쎯ta쎯	-9.43542
▁tgj쎯dd쎯	-9.43628
gqx쎯	-9.43686
▁am쎯fmud쎯	-9.43704
fnw쎯	-9.43726
xn쎯	-9.43851
▁lll쎯	-9.4396
▁iie쎯xjm쎯ftj쎯	-9.43979
▁emc쎯wwv쎯	-9.43996
▁yww쎯	-9.44025
▁ipk쎯xeg쎯	-9.44107
▁jg쎯	-9.4413
▁oe쎯	-9.4416
▁gah쎯ic쎯	-9.44165
▁tfkp쎯dn쎯	-9.44184
▁ftjo1쎯	-9.44277
▁ym쎯uqt쎯	-9.44322
▁g쎯ts쎯	-9.44327
▁xeg쎯wgk쎯	-9.44361
▁tr쎯gj쎯	-9.44369
▁jb쎯jh쎯	-9.44379
▁hka쎯ufk0쎯	-9.44417
▁tgj쎯jg쎯	-9.44478
▁lw쎯	-9.44541
▁tqq쎯fcl쎯	-9.4466
▁xxg0쎯	-9.4472
r쎯	-9.44751
jhny쎯	-9.44778
▁anu쎯thg0쎯	-9.44869
ye쎯	-9.44883
▁x쎯maw쎯	-9.44901
▁xgb쎯	-9.4494
▁vaf쎯wsg0쎯	-9.45094
▁pwd쎯bm쎯	-9.45105
▁mw쎯apg쎯dgh쎯	-9.4512
▁sksw쎯ma쎯	-9.45149
dy쎯	-9.45227
▁iyc쎯tf쎯	-9.45356
afl쎯	-9.45415
tyna2쎯	-9.45486
▁suq쎯	-9.45605
▁uwyc0쎯	-9.45617
▁fcp쎯lwg쎯	-9.45627
▁rrk쎯ip쎯	-9.45687
bnn2쎯	-9.45701
▁trf쎯ntg쎯	-9.45701
▁sym쎯ytyh쎯	-9.45749
tyg쎯	-9.45772
▁쎁쎉쎈쎁	-9.45889
pnt쎯	-9.45911
▁fl쎯wf쎯wf쎯km쎯	-9.45945
▁lw쎯wc쎯	-9.46045
▁ow쎯	-9.46077
wgkb2쎯	-9.46116
▁txg쎯rh쎯	-9.46154
▁<	-9.46403
bk쎯	-9.46455
▁gyt쎯	-9.46477
yygt쎯	-9.4652
▁n쎯uj쎯	-9.46563
▁bm쎯kkkk0쎯	-9.46627
▁vck쎯xtu쎯	-9.46646
▁ydn쎯wy쎯	-9.46692
▁tdkj쎯ce쎯	-9.46694
wyq쎯	-9.4674
gm쎯	-9.46784
▁c쎯rg쎯	-9.46824
uo쎯	-9.46848
os쎯	-9.46885
▁gae쎯qje쎯	-9.46886
▁ugl쎯	-9.46904
pgk쎯	-9.46939
▁rrg1쎯rbcc쎯	-9.46987
▁ym쎯suq쎯	-9.47012
dj쎯	-9.47093
uduk쎯	-9.47133
▁yn쎯	-9.47165
▁fwm쎯st쎯	-9.47183
tfn쎯	-9.47204
qmq쎯	-9.47226
▁pei쎯wt쎯tr쎯	-9.47264
▁dnv2쎯adw쎯	-9.47291
b쎯	-9.47354
nh쎯	-9.47464
▁imj쎯yaa쎯	-9.47466
▁sghg1쎯uk쎯	-9.47578
yneg쎯	-9.47634
▁pl쎯gk쎯	-9.47648
ftjb쎯	-9.47687
▁udb쎯	-9.47692
iy쎯	-9.47692
▁ipkh1쎯mqb쎯	-9.47732
▁sq쎯dn쎯	-9.47771
▁stx쎯	-9.47881
▁oyvk0쎯	-9.47898
▁hxx쎯	-9.47899
▁쎁쎉쎇쎈	-9.47952
wtu쎯	-9.47971
▁aft쎯wt쎯	-9.47982
ahty쎯	-9.4812
imgk쎯	-9.48212
ib쎯	-9.48229
▁atd쎯ip쎯bpf쎯	-9.48255
ngk쎯	-9.48273
gmd쎯	-9.48285
▁qkq쎯xjm쎯	-9.48316
▁atd쎯ax쎯	-9.4835
eajd쎯	-9.48359
▁sghg1쎯pv쎯	-9.48378
▁쎂쎀쎁쎃	-9.48388
wwx쎯	-9.48479
cf쎯	-9.48487
▁hid쎯yx쎯	-9.48542
▁ovt쎯jg쎯	-9.48609
xgu쎯	-9.48636
▁uq쎯jqr쎯	-9.48657
pvs쎯	-9.48662
▁wwf쎯	-9.48682
▁rh쎯ya쎯	-9.48736
▁y쎯jghm1쎯	-9.48755
▁w쎯tg쎯	-9.48771
▁yygt쎯rtol1쎯	-9.48798
▁pu쎯	-9.48892
▁an쎯	-9.48927
sss쎯	-9.48971
wwj쎯	-9.48993
▁쎁.쎅	-9.49102
▁ajt쎯	-9.49193
k쎯l쎯	-9.49228
▁gd쎯qd쎯	-9.49249
ggi쎯	-9.49295
ft쎯	-9.4938
▁쎁쎉쎇쎉	-9.49406
▁amd쎯yygy쎯	-9.49427
▁ytyh쎯	-9.4952
▁ugv쎯	-9.49564
xqa쎯	-9.49638
▁yjj0쎯	-9.49638
▁wg쎯egc쎯	-9.49677
▁lfo쎯qc쎯	-9.49836
▁cep쎯wy쎯	-9.49855
c	-9.49883
uy쎯	-9.49896
▁ipkh1쎯tv쎯	-9.49943
▁iytb0쎯	-9.49946
fjk쎯	-9.49962
▁dga쎯rmhj쎯	-9.49968
▁aet0쎯	-9.50043
tt쎯	-9.50087
ivw쎯	-9.50225
qg쎯	-9.50249
▁sw쎯cwg쎯	-9.5025
▁yynw1쎯sf쎯	-9.50254
▁etn쎯	-9.50258
▁gx쎯bu쎯mqq쎯	-9.50265
▁u쎯	-9.50283
▁쎈쎀쎀	-9.50317
iv쎯	-9.5041
▁nnk쎯ta쎯	-9.5042
dhb쎯	-9.50421
▁wfh1쎯tc쎯	-9.50444
▁xln1쎯qt쎯lfq쎯	-9.50464
ftx쎯	-9.50512
▁wc쎯rtt쎯	-9.50543
▁wys쎯k쎯	-9.50551
pym쎯	-9.50561
쎆	-9.50571
▁ym쎯usr쎯rfc쎯sy쎯	-9.5066
lks쎯	-9.50665
▁tk쎯f쎯	-9.50743
▁fge쎯tr쎯qnp쎯	-9.50773
tdij쎯	-9.50776
▁xwy쎯	-9.50784
▁ire쎯	-9.50853
▁dskf쎯	-9.50899
▁gm쎯qje쎯	-9.50968
▁vvv쎯ntg쎯	-9.50998
▁ijl쎯	-9.51076
▁dn쎯ftjb쎯	-9.51084
▁yf쎯tha쎯	-9.51095
▁tn쎯nnh쎯ta쎯	-9.51127
▁tr쎯	-9.51216
▁쎁쎉쎅쎈	-9.51231
▁uo쎯	-9.51234
▁fcp쎯apk쎯	-9.51242
▁usr쎯gajf쎯	-9.5128
▁uxe쎯	-9.51298
▁ga쎯v쎯aq쎯	-9.51299
pf쎯	-9.51311
▁fk쎯	-9.5133
▁dn쎯ybv쎯	-9.5134
xyy0쎯	-9.51362
▁wgkb2쎯qk쎯	-9.51369
ymc쎯	-9.5139
fl쎯	-9.51393
stx쎯	-9.5146
▁rf쎯xfn쎯	-9.51584
▁qyvl쎯	-9.51605
▁dd쎯pfjm1쎯	-9.51616
▁pyg쎯	-9.5163
▁bu쎯	-9.51635
▁nty1쎯yo쎯	-9.51671
▁kwg쎯	-9.51677
▁쎆쎀쎀	-9.52005
▁f쎯fhg1쎯	-9.52009
▁wy쎯	-9.52078
▁qgb쎯	-9.52099
▁dfy쎯lt쎯	-9.52135
▁yfj쎯syp쎯	-9.52201
▁dqe쎯pg쎯	-9.52211
▁쎁쎂쎀	-9.52275
▁rh쎯wtf쎯	-9.52328
iu쎯	-9.52396
dnnl쎯	-9.52408
▁gs쎯	-9.52441
▁gkl쎯nnk쎯ta쎯	-9.52448
▁rn쎯ntk쎯	-9.5255
▁vo쎯	-9.52559
▁lc쎯	-9.52561
▁jo쎯hhu0쎯	-9.52566
▁tie쎯	-9.52566
▁kr쎯	-9.52576
▁ruv쎯epc쎯	-9.52633
jvko쎯	-9.52678
▁ujn쎯dd쎯tjh쎯	-9.5276
▁xh쎯fj쎯	-9.52761
▁쎃쎁	-9.52771
▁qc쎯ese쎯	-9.52794
▁rc쎯yid쎯	-9.52805
adm쎯hhhh쎯	-9.52912
al쎯	-9.5295
nkuf쎯	-9.52978
▁fffy쎯	-9.53006
▁tdp쎯jg쎯	-9.53027
ntf쎯	-9.53041
▁cw쎯	-9.53113
▁wg쎯ymhj쎯	-9.53118
▁qtj쎯	-9.53119
gr쎯	-9.53144
icf쎯	-9.53258
▁bwf쎯rp쎯	-9.53357
▁ipg쎯bm쎯	-9.53375
ipk쎯	-9.53558
▁yygy쎯anb0쎯	-9.5373
▁ufk0쎯qv쎯	-9.53749
▁l쎯tl쎯bpf쎯	-9.53776
▁xeg쎯vfhp1쎯	-9.53799
▁synw쎯	-9.53811
▁rh쎯tg쎯	-9.53928
▁qq쎯adm쎯	-9.54009
▁쎀쎁	-9.54023
▁ge쎯	-9.54026
yid쎯	-9.54063
▁ihc쎯	-9.54068
▁ip쎯qk쎯	-9.54282
▁rj쎯	-9.54292
▁qdm쎯yneg쎯	-9.54308
▁wyna쎯	-9.5433
쎇	-9.54346
▁g쎯rh쎯	-9.54381
▁sgh쎯	-9.54406
▁o	-9.54415
▁ick쎯	-9.54504
▁uqt쎯lt쎯	-9.54551
x	-9.54559
jfc쎯	-9.54648
▁dgkn쎯ivs쎯	-9.54656
rhk쎯	-9.54674
▁pu쎯et쎯	-9.54856
▁w쎯ovt쎯	-9.54871
▁jn쎯ib쎯	-9.5488
▁qgb쎯ya쎯	-9.54884
sdm쎯	-9.54928
▁eb쎯ufy쎯	-9.54945
▁ufy쎯tlf2쎯	-9.54962
▁ipkh1쎯et쎯	-9.55031
▁kkhn쎯ftj쎯	-9.5511
fyv쎯	-9.55112
▁gjq쎯lk쎯	-9.55188
▁nfp쎯gkip2쎯	-9.55238
iqc쎯	-9.55266
▁gj쎯shn쎯	-9.55351
sb쎯	-9.55374
so쎯	-9.55375
ynt쎯	-9.55467
▁im쎯	-9.55477
vt쎯	-9.55535
▁ym쎯ya쎯	-9.55613
▁iagw쎯	-9.55616
mm쎯	-9.55635
▁scf쎯	-9.55718
▁ia쎯sghg1쎯ith쎯	-9.55734
vx쎯	-9.55772
anb0쎯	-9.55823
yfn쎯	-9.5588
▁uqwm0쎯qqqq1쎯	-9.5589
▁tak쎯	-9.5616
▁sw쎯sj쎯	-9.56394
쎂	-9.56396
▁tffu쎯tffu쎯	-9.56476
qgb쎯	-9.56498
▁ym쎯k쎯	-9.565
▁fiy쎯	-9.56514
▁fnr쎯	-9.56552
▁yygy쎯pb쎯	-9.5664
▁wbj쎯	-9.56645
▁rb1쎯tfkf1쎯	-9.5668
▁fm쎯uk쎯	-9.56708
▁mw쎯dhb쎯	-9.56732
▁xyna0쎯	-9.56748
▁hv쎯	-9.56756
▁igt쎯	-9.56762
ugl쎯	-9.5679
▁fc쎯	-9.56818
▁sgi쎯	-9.56866
ttg쎯	-9.5689
▁iw쎯	-9.56916
▁ma쎯	-9.56937
▁wyc쎯	-9.56988
▁bnn2쎯	-9.57025
▁dr쎯gj쎯	-9.57065
▁fhh쎯	-9.57105
▁nd쎯wygg쎯	-9.57106
▁svc쎯wynn3쎯	-9.57181
▁yfj쎯	-9.57396
▁lt쎯	-9.57417
▁ajd쎯	-9.57517
fv쎯	-9.57531
gny쎯	-9.57599
▁bu쎯txi쎯	-9.57603
▁ufy쎯lfhf쎯	-9.57619
▁fg쎯xe쎯	-9.57642
▁yta쎯gh쎯	-9.57645
▁」	-9.57666
▁wc쎯aw쎯	-9.57697
▁ih쎯aq쎯	-9.57729
▁ukh쎯	-9.5773
iagw쎯	-9.5774
▁kc쎯	-9.57845
▁hq쎯qnq쎯	-9.57857
▁fl쎯ymf쎯	-9.579
▁god쎯st쎯	-9.57925
▁ghc쎯gyb쎯	-9.58
bg쎯	-9.58025
▁dk쎯	-9.58055
yle쎯	-9.58075
▁td쎯	-9.582
▁wqj쎯gxi쎯	-9.58208
▁atd쎯	-9.58235
▁rp쎯rh쎯go쎯	-9.58289
▁rymn쎯jjjj쎯	-9.583
qje쎯	-9.5831
▁vb쎯ygu쎯	-9.58378
▁lw쎯gk쎯th쎯	-9.58379
▁rt쎯sy쎯	-9.58396
▁ud쎯	-9.58402
fa쎯	-9.58495
▁pt쎯yny0쎯	-9.58541
▁tk쎯adm쎯	-9.58547
ese쎯	-9.58572
▁gkp쎯go쎯	-9.58598
▁ㄧ	-9.58625
▁f쎯rfm쎯	-9.58644
ijl쎯	-9.587
▁yvi쎯	-9.58709
▁ny쎯gj쎯	-9.58743
▁awx쎯lfq쎯	-9.58812
▁ywt쎯	-9.58852
▁bm쎯go쎯	-9.58867
sgh쎯	-9.58873
▁uk쎯bw쎯	-9.58901
▁ywe쎯on쎯	-9.58931
▁tmd쎯wsg0쎯	-9.58932
pye쎯	-9.58981
▁flf1쎯	-9.58988
▁fo쎯	-9.58992
▁ymf쎯gkih쎯	-9.58995
▁hc쎯efw쎯	-9.59022
▁fi쎯aib쎯	-9.5904
jyie쎯	-9.59041
▁dwt쎯	-9.59071
▁「	-9.59237
▁wtu쎯tyna2쎯	-9.59249
▁yiu쎯	-9.5926
▁e쎯bv쎯gmu1쎯wtf쎯	-9.59326
▁e	-9.59339
▁klj쎯	-9.59365
▁lw쎯gj쎯	-9.59377
▁gmww쎯tkh쎯	-9.5947
▁ai쎯yy쎯	-9.59523
▁yhk쎯	-9.59594
▁uduk쎯	-9.59603
▁ihi쎯ey쎯	-9.59628
▁fny쎯et쎯	-9.59639
▁lhnh쎯	-9.59678
▁pu쎯tf쎯	-9.59701
nui쎯	-9.59704
▁ux쎯uk쎯	-9.59817
yps쎯	-9.59834
▁ai쎯fm쎯	-9.59853
▁rwyg쎯fcl쎯	-9.59853
xf쎯	-9.59856
▁ghd0쎯d쎯	-9.59902
▁f쎯fdf0쎯	-9.59949
▁qev쎯yt쎯	-9.60003
to쎯	-9.60015
lpk0쎯	-9.60065
▁wk쎯buj쎯	-9.60094
dl쎯	-9.60158
▁yjj0쎯wg쎯	-9.60217
rta쎯	-9.60272
wxj쎯	-9.60274
▁bwf쎯	-9.60294
▁dd쎯pe쎯	-9.60372
▁euk쎯	-9.60387
fgh쎯	-9.60411
ujfj쎯	-9.6043
▁wtu쎯w쎯	-9.60432
▁wbj쎯uu쎯	-9.60503
itk쎯	-9.60558
▁nh쎯vi쎯	-9.6057
▁rc쎯jmd쎯	-9.60572
▁oge쎯kkk쎯	-9.60579
▁wv쎯uyt0쎯yx쎯	-9.6059
▁pu쎯lt쎯	-9.60665
yad쎯	-9.60677
▁lu쎯dd쎯	-9.60697
▁ghd0쎯ipkh1쎯	-9.6075
▁ujn쎯yq쎯	-9.60774
▁n쎯	-9.60838
▁adwn0쎯gcf쎯	-9.60851
▁cd쎯ftg쎯	-9.60927
▁ipk쎯tv쎯nnh쎯yn쎯	-9.6096
aps쎯	-9.61076
▁dd쎯uthp쎯	-9.61147
▁fv쎯	-9.61152
▁ud쎯iy쎯	-9.61358
▁djb쎯	-9.61393
qy쎯	-9.61462
djd쎯	-9.6165
▁iwf쎯tf쎯	-9.61689
▁uuk0쎯yfn쎯	-9.61755
pynn0쎯	-9.61793
▁wtf쎯ftbt쎯	-9.61799
cqy쎯	-9.61859
▁dgtg쎯img쎯	-9.61895
▁imk쎯	-9.6191
▁khgp0쎯fhg1쎯	-9.61934
▁kgb쎯	-9.62029
ub쎯	-9.62056
▁mfk쎯lp쎯	-9.62125
lfhf쎯	-9.62167
rnb쎯ijl쎯	-9.62229
▁쎁쎉쎄쎉	-9.62258
▁bgu쎯sghg1쎯ith쎯	-9.62264
▁dnnl쎯	-9.6241
ahn쎯	-9.62418
jlc쎯	-9.62429
quj쎯	-9.62522
▁tdp쎯yid쎯	-9.62546
xxe쎯	-9.62619
▁thd쎯tmd쎯	-9.62646
▁gog쎯iyt0쎯	-9.62674
sfi쎯	-9.62757
▁ge쎯ipg쎯	-9.62784
▁ui쎯	-9.62827
▁xgu쎯	-9.6284
쎃	-9.62885
tmg1쎯	-9.62893
▁ygu쎯wwj쎯	-9.62914
ddu0쎯	-9.63
fhw쎯ghd0쎯	-9.63046
▁wyq쎯kkd쎯	-9.63118
▁\	-9.6313
yta쎯	-9.63153
▁bw쎯wgg0쎯	-9.63168
wxf쎯w쎯n쎯aw쎯t쎯l쎯	-9.63222
kl쎯qh쎯	-9.63227
eyni쎯	-9.63236
▁n쎯l쎯	-9.63302
▁qgj쎯	-9.63384
▁yygy쎯ujj쎯	-9.63495
cw쎯	-9.63498
kd쎯	-9.63506
▁bfm쎯	-9.63524
▁xyc쎯yf쎯	-9.63574
▁qf쎯cf쎯	-9.63585
▁dfy쎯	-9.63605
▁i쎯sk쎯	-9.63638
▁qev쎯	-9.63652
▁ipk쎯tv쎯	-9.63674
▁ipkr쎯rng0쎯	-9.63686
▁xn쎯wynn3쎯	-9.63721
▁w쎯wsg0쎯	-9.63736
▁cf쎯qje쎯	-9.63777
▁gk쎯wrh2쎯	-9.63979
qnth쎯	-9.64009
tkgg0쎯	-9.6401
▁wf쎯yf쎯	-9.6411
▁yn쎯vi쎯	-9.6414
▁kkd쎯	-9.64207
tfk쎯	-9.6425
oge쎯	-9.64304
▁ax쎯tr쎯	-9.64329
▁nhy쎯	-9.6434
▁bpf쎯	-9.6437
xw쎯	-9.64371
▁k쎯uk쎯	-9.64433
▁rdj쎯	-9.64456
▁pfq쎯gkih쎯	-9.64471
▁qtfj1쎯	-9.64537
jcm쎯	-9.6454
▁xwy쎯wht쎯	-9.6465
ll쎯	-9.64716
pei쎯	-9.64757
▁gxi쎯rfm쎯	-9.64769
▁imgk쎯	-9.64777
▁dh쎯	-9.64902
▁dn쎯xgm쎯	-9.64981
ytd쎯	-9.64987
▁pyj쎯x쎯	-9.65019
gxgu쎯	-9.65022
▁epi쎯il쎯	-9.65029
▁dif쎯f쎯dm쎯tkw쎯	-9.65092
▁go쎯idr쎯gf쎯	-9.65103
▁me쎯	-9.65148
▁fqu쎯qu쎯	-9.65214
▁g쎯fc쎯	-9.65277
▁thd쎯fcl쎯wx쎯	-9.65283
▁qgu쎯	-9.6531
bm쎯thgc쎯py쎯	-9.65334
btg쎯	-9.65351
▁tgj쎯yd쎯ymhj쎯	-9.65443
ng쎯	-9.65449
▁tfp쎯	-9.65475
▁ty쎯tfqp쎯	-9.65558
▁wtr쎯lq쎯adwr쎯	-9.6567
ym쎯gkip2쎯wc쎯kht쎯	-9.65734
▁wdn쎯fha쎯	-9.65824
▁vtkb쎯	-9.65849
▁dmjf1쎯	-9.65855
yiu쎯	-9.65862
▁puh쎯	-9.65918
▁rfc쎯ce쎯	-9.6598
▁pk쎯	-9.6601
yf쎯	-9.66044
▁to쎯	-9.66092
▁xk쎯dd쎯	-9.66189
▁yud0쎯xl쎯	-9.66201
▁maw쎯gajf쎯	-9.66207
▁mfk쎯lfnh쎯	-9.66323
▁be쎯	-9.66331
▁adwn0쎯	-9.66518
▁ab쎯hhhh쎯	-9.66523
▁쎁쎉쎅쎆	-9.66666
▁wgku1쎯	-9.66762
▁fh쎯tca쎯	-9.66808
▁sss쎯ss쎯	-9.66835
▁fcl쎯gl쎯	-9.66911
▁qq쎯pe쎯	-9.66934
▁rfc쎯sy쎯w쎯km쎯	-9.67004
▁mdf쎯	-9.67048
▁ijlc쎯gl쎯	-9.67052
▁nge쎯	-9.67075
▁tu쎯rfc쎯fj쎯hi쎯	-9.6708
▁cbd쎯by쎯	-9.67082
▁ujn쎯	-9.6728
▁alw쎯ytyh쎯	-9.673
fhw쎯	-9.6731
▁pfqf쎯pl쎯	-9.67331
▁vs쎯	-9.67416
▁gjq쎯qk쎯	-9.67456
▁nyu쎯	-9.67504
uda쎯	-9.67525
▁tu쎯ip쎯rfc쎯sy쎯	-9.67542
▁qynm1쎯	-9.67554
▁rh쎯uj쎯	-9.67581
tmo쎯	-9.67597
klj쎯	-9.67617
▁쎁쎉쎆쎃	-9.67712
▁wgk쎯ua쎯	-9.67755
▁jfc쎯	-9.67761
▁ip쎯ftj쎯	-9.67792
mp쎯	-9.67865
▁tvr쎯	-9.67905
▁tgv쎯bd쎯	-9.67922
▁g쎯uthp쎯	-9.67926
▁tfkp쎯gajf쎯	-9.67969
rs쎯	-9.68047
▁t쎯yxxr0쎯	-9.6805
▁qe쎯qc쎯	-9.6805
ipw쎯	-9.68081
▁wqu쎯us쎯	-9.68193
ha쎯	-9.68267
ywt쎯	-9.68385
▁gfq쎯pe쎯	-9.68408
uf쎯	-9.68436
▁lft쎯wsg0쎯	-9.68487
▁nty1쎯uduk쎯	-9.6849
▁ymhj쎯ght쎯ywf쎯	-9.68521
aws쎯	-9.68545
sgi쎯	-9.68578
fpx쎯	-9.68633
▁fge쎯fghg쎯tg쎯	-9.68664
▁wg쎯usr쎯	-9.68677
▁qmq쎯	-9.68695
▁fm쎯ux쎯	-9.68695
▁vvv쎯bb쎯	-9.68772
▁bp쎯ps쎯ith쎯	-9.68775
▁쎃쎀쎀쎀	-9.68791
(	-9.68837
▁kthh1쎯	-9.68865
▁x쎯iyj쎯ip쎯	-9.68882
▁jyie쎯pym쎯	-9.68906
▁fj쎯g쎯hi쎯	-9.69092
▁ldd쎯pg쎯	-9.69093
▁x쎯ipkh1쎯	-9.69108
▁uep쎯	-9.69192
▁hka쎯	-9.69207
ytyh쎯ymhj쎯	-9.69212
▁wy쎯kgn쎯	-9.69213
▁rwyg쎯fj쎯	-9.69228
ymc쎯yf쎯	-9.69272
▁ipw쎯epc쎯	-9.69326
▁iy쎯tgj쎯	-9.69337
▁쎃쎆	-9.6934
▁dhb쎯wyf0쎯	-9.69473
ymd쎯	-9.69488
▁cm쎯	-9.69522
▁lxx쎯wycb쎯	-9.69604
on쎯	-9.6962
▁iie쎯xjm쎯	-9.69668
▁bwj쎯wdm쎯	-9.69746
▁wdt쎯bm쎯	-9.69784
▁jn쎯bb쎯um쎯tl쎯	-9.69815
▁bj쎯	-9.69818
▁ubtf쎯ou쎯	-9.69857
▁cbd쎯	-9.6987
▁pfq쎯ugdu쎯	-9.69879
gs쎯	-9.69887
pfqf쎯	-9.69917
▁by쎯ick쎯	-9.69928
▁bw쎯	-9.69945
▁ndo쎯tjt쎯	-9.69964
▁wbj쎯og쎯	-9.70008
▁ugdu쎯pww쎯	-9.70025
xyna0쎯	-9.70028
udyj쎯	-9.70129
▁yff쎯w쎯	-9.70136
▁khu쎯	-9.70197
▁mmm쎯sghg1쎯ith쎯	-9.70326
djb쎯	-9.70561
▁pw쎯rnb쎯	-9.70642
▁ynky2쎯tj쎯	-9.70667
fge쎯	-9.707
▁id쎯	-9.70734
▁khv쎯	-9.70942
mqu쎯	-9.70965
▁eyb쎯	-9.70974
▁hw쎯tlf2쎯	-9.70985
▁wm쎯	-9.70988
p	-9.70993
▁x쎯dl쎯	-9.71089
▁sfg쎯	-9.71103
▁nae쎯	-9.7111
vtg쎯	-9.7112
▁sqt쎯	-9.7118
▁fq쎯if쎯	-9.71192
▁wv쎯wf쎯	-9.71223
▁wfkb쎯tdp쎯	-9.71229
▁jy쎯aq쎯	-9.71277
▁wdn쎯yv쎯	-9.71327
▁td쎯uthp쎯	-9.71362
▁ymf쎯ab쎯	-9.71389
▁ul쎯x쎯	-9.71397
▁it쎯ytf쎯	-9.71462
▁fcl쎯dyn쎯	-9.71555
▁lfof5쎯	-9.71593
▁rwyg쎯	-9.716
▁pg쎯wug1쎯	-9.71641
▁ujf쎯hid쎯	-9.71654
▁rny1쎯	-9.7168
▁f쎯gh쎯	-9.71697
pww쎯	-9.71702
▁ep쎯nge쎯	-9.71716
abu쎯	-9.71761
▁gma쎯	-9.71775
ugh쎯	-9.7178
▁th쎯gf쎯	-9.71782
jqr쎯	-9.71798
▁wynk쎯jg쎯	-9.71861
▁쎁쎉쎆쎄	-9.72
wm쎯	-9.7205
gjh2쎯	-9.72073
▁g쎯sg쎯	-9.72113
▁dr쎯ld쎯	-9.72134
▁anh쎯ae쎯	-9.72206
tdkj쎯	-9.72229
▁tt쎯	-9.72238
▁ait쎯	-9.72243
rvyl쎯	-9.72311
gkip2쎯	-9.72321
▁tuj쎯	-9.72354
▁hka쎯qv쎯	-9.72364
▁gd쎯gh쎯	-9.72491
▁sksw쎯	-9.72521
▁twf쎯wgk쎯	-9.72566
▁xqc쎯	-9.72682
▁pei쎯yne쎯	-9.72685
▁pgj쎯	-9.72695
▁fu쎯xk쎯	-9.72701
tuk쎯	-9.72718
lfn쎯	-9.72755
yvh쎯	-9.72851
▁qq쎯vaf쎯wsg0쎯	-9.72886
oug쎯	-9.7293
eu쎯	-9.72953
▁wk쎯wvf쎯	-9.72988
▁gkih쎯wgk쎯	-9.73007
▁jn쎯ytd쎯	-9.73053
▁ke쎯nh쎯	-9.73063
xl쎯	-9.7308
▁itx쎯iu쎯	-9.73171
▁thd쎯y쎯	-9.73246
▁ek쎯uqyl쎯	-9.73309
▁wuk쎯	-9.73401
synw쎯	-9.73434
▁g쎯rx쎯	-9.73472
fpm쎯	-9.73512
▁qgb쎯nmh쎯	-9.73537
▁khgm4쎯ytyh쎯	-9.73544
▁ˋ	-9.73545
uqwm0쎯	-9.73597
▁yqa쎯	-9.73602
▁ipk쎯fc쎯uk쎯	-9.73605
thn쎯	-9.73608
▁rmc쎯ty쎯	-9.73624
▁jy쎯cm쎯	-9.73645
“	-9.73645
▁udg2쎯it쎯	-9.73705
jghm1쎯	-9.73826
▁m쎯fn쎯	-9.73851
tak쎯	-9.73874
▁jtyq0쎯pg쎯	-9.73889
▁f쎯wug1쎯	-9.73892
▁lkmi0쎯gae쎯	-9.73988
▁yy쎯pvs쎯	-9.73999
wxm쎯	-9.74065
▁dnv2쎯	-9.74086
▁g쎯adm쎯	-9.74089
thd쎯ick쎯aq쎯	-9.74098
ba0쎯	-9.74108
▁e쎯sm쎯	-9.74136
ca쎯	-9.74172
▁p쎯g쎯	-9.74186
myd쎯	-9.74197
▁xa쎯qc쎯	-9.74237
▁mqc쎯tr쎯	-9.74238
ypm쎯	-9.74246
inr쎯	-9.74269
shn쎯	-9.74271
▁%	-9.74321
▁temk쎯	-9.74391
▁wsg0쎯cwg쎯	-9.74412
▁gm쎯nnnn쎯	-9.7443
▁ybb쎯	-9.74455
fhc쎯	-9.74573
▁xyy0쎯	-9.74628
▁wgk쎯gj쎯	-9.74771
ag쎯	-9.74828
▁aqu1쎯	-9.74843
alt쎯	-9.74852
▁rtol1쎯yt쎯	-9.74951
▁l쎯qh쎯	-9.74953
rdj쎯	-9.74966
fmk쎯	-9.74967
▁wys쎯dn쎯	-9.75089
oyvk0쎯	-9.75182
▁rpws쎯fpx쎯	-9.75278
.쎁쎂	-9.7528
tu쎯ip쎯	-9.75309
▁lfq쎯	-9.75369
▁ujn쎯ln쎯	-9.75394
▁and쎯	-9.75443
uqwm0쎯idr쎯	-9.75474
▁dgv쎯	-9.75511
temk쎯	-9.75515
▁ey쎯jf쎯	-9.75608
qkd쎯	-9.75661
▁ujf쎯	-9.75679
▁y쎯wsg0쎯	-9.7572
▁fku쎯ep쎯	-9.75767
▁apk쎯	-9.75785
▁kw쎯j쎯	-9.75807
▁ltu쎯thg0쎯	-9.75833
▁yn쎯fa쎯	-9.75861
se쎯	-9.7591
▁fjh0쎯tr쎯	-9.75913
▁wg쎯ith쎯	-9.75969
▁uejo쎯	-9.75981
uqf쎯	-9.76029
▁lm쎯bd쎯	-9.76114
vcb쎯	-9.76126
▁i쎯wf쎯	-9.76173
nae쎯	-9.76217
dgv쎯	-9.7622
▁fu쎯	-9.76223
▁fhw쎯pu쎯	-9.76245
cc쎯	-9.76299
▁al쎯uqt쎯	-9.76353
▁dwiu쎯	-9.76505
▁ytb쎯	-9.76551
▁쎁쎉쎆쎂	-9.76567
▁ipw쎯ty쎯	-9.7667
wgi쎯	-9.76695
aet0쎯	-9.76695
▁mhkg2쎯	-9.76739
▁xqa쎯	-9.76811
▁dd쎯jgm쎯	-9.7692
▁yfj쎯jgm쎯	-9.76926
▁yc쎯iagw쎯	-9.76942
▁eu쎯	-9.76958
▁g쎯txi쎯gq쎯	-9.76961
▁ftx쎯jgm쎯	-9.76965
▁ijx쎯wgk쎯	-9.77061
▁l쎯ffff5쎯dm쎯tkw쎯	-9.77063
▁emc쎯	-9.77092
▁ai쎯uk쎯	-9.77123
▁tey쎯pw쎯	-9.77133
▁ipkh1쎯tl쎯gj쎯gk쎯	-9.77188
▁us쎯	-9.77197
yni1쎯	-9.77253
▁jh쎯adwe1쎯	-9.77289
▁xx쎯wgq쎯	-9.77319
▁bt쎯wqa쎯	-9.77332
▁dd쎯fny쎯	-9.77372
▁py쎯wf쎯y쎯yq쎯	-9.77408
yvcb쎯	-9.77428
▁pgc쎯mw쎯	-9.77436
▁fnrt쎯	-9.77462
▁iy쎯	-9.77523
dyt쎯	-9.77559
▁fku쎯	-9.77611
▁}	-9.7763
▁khd쎯	-9.77653
▁qq쎯tyna2쎯	-9.77655
▁ym쎯tu쎯rfc쎯	-9.77785
▁lwj쎯	-9.77789
▁ab쎯ce쎯	-9.77823
▁toln0쎯ycf쎯	-9.77867
▁sfi쎯fn쎯	-9.77876
▁bqr쎯uqwn0쎯	-9.77878
jat쎯	-9.78026
▁nf쎯gcft2쎯	-9.78041
▁{	-9.78043
▁pwat쎯	-9.78047
▁pww쎯jg쎯	-9.78049
▁rw쎯	-9.78143
▁qev쎯toc쎯	-9.78172
nf쎯	-9.78173
▁suq쎯ta쎯	-9.78183
▁wnh쎯	-9.78219
▁ga쎯yt쎯	-9.78259
▁xte쎯sf쎯	-9.78264
▁bt쎯ii쎯jg쎯	-9.78378
▁ps쎯	-9.78394
▁pye쎯	-9.78416
▁apg쎯	-9.78428
uce쎯	-9.78429
▁kd쎯	-9.7843
▁umd0쎯	-9.78445
▁ufy쎯wht쎯	-9.78478
▁dn쎯sg쎯	-9.78519
▁go쎯idr쎯	-9.7852
▁ltu쎯nnh쎯qnp쎯	-9.78524
▁wdn쎯	-9.78544
▁pww쎯jqr쎯	-9.78572
o	-9.78618
▁aca쎯	-9.78627
▁at쎯fmk쎯	-9.78669
▁guw쎯	-9.78713
fuj쎯	-9.78742
▁쎁쎉쎆쎅	-9.78758
▁d쎯bk쎯	-9.78781
▁lpdk0쎯aq쎯	-9.78874
▁v	-9.78898
▁qk쎯pb쎯	-9.78909
▁gu쎯oy쎯	-9.78937
▁dgj쎯	-9.78964
▁kfi쎯oge쎯	-9.79024
tjt쎯	-9.79026
▁hka쎯fghg쎯	-9.79072
▁yfn쎯	-9.79076
mc쎯	-9.79098
▁oat쎯	-9.79124
▁uqwm0쎯u쎯	-9.79125
▁uff쎯	-9.7918
▁rt쎯wdm쎯	-9.79185
lm쎯	-9.79206
▁imkf1쎯	-9.79232
▁bct쎯	-9.79275
▁pp쎯k쎯	-9.79282
▁iawn쎯	-9.79313
▁st쎯	-9.79332
▁fcl쎯lt쎯	-9.79335
iyj쎯	-9.79337
▁gkih쎯	-9.79354
▁tgj쎯usr쎯	-9.7936
▁rn쎯d쎯f쎯	-9.79391
▁f쎯gfi쎯	-9.79395
▁ㄨ	-9.79403
▁dcw쎯	-9.7941
▁my쎯	-9.79415
▁gajf쎯kgn쎯	-9.79471
▁uth쎯nm쎯	-9.79516
▁ieb쎯	-9.79541
lqw쎯wrh2쎯	-9.79544
▁wgi쎯	-9.79544
▁pnt쎯	-9.79601
wygg쎯	-9.79637
▁fj쎯kkkk0쎯	-9.79677
uqt쎯	-9.7971
▁fq쎯xg쎯	-9.79801
▁tjt쎯vs쎯	-9.79822
▁vn쎯	-9.79823
▁ahty쎯	-9.79955
▁pym쎯	-9.79973
▁bu쎯jel쎯	-9.80007
u쎯kkk쎯	-9.80117
lfo쎯	-9.80122
▁i쎯fp쎯	-9.80181
▁rgw쎯	-9.80182
▁itf쎯	-9.8019
▁ukn쎯uk쎯	-9.80287
aw쎯	-9.80332
sft쎯	-9.80338
▁qev쎯un쎯yy쎯pvs쎯	-9.80392
▁ntg쎯rfm쎯	-9.80401
▁ti쎯	-9.80401
▁gkl쎯wf쎯ta쎯	-9.80439
▁ntf쎯	-9.80582
▁쎁쎉쎇쎆	-9.80612
us쎯	-9.80643
wtl쎯	-9.80663
wty쎯	-9.80677
cff쎯	-9.80686
bgh쎯	-9.80735
▁uvo쎯wtf쎯	-9.8074
wksf쎯	-9.80741
▁sg쎯tu쎯	-9.80748
▁yc쎯wv쎯	-9.80767
▁rmc쎯	-9.8078
▁aqt쎯uqd0쎯	-9.80796
rlg쎯	-9.80796
▁ry쎯nae쎯	-9.808
▁ufy쎯	-9.80831
naw쎯	-9.80851
fkuk4쎯	-9.80868
▁tffy0쎯	-9.80883
▁ym쎯tffu쎯	-9.80906
▁ruv쎯qejy쎯	-9.80921
ago쎯	-9.80986
▁k쎯uj쎯	-9.81086
yjs쎯	-9.81135
▁f쎯gj쎯	-9.81141
▁uxe쎯jy쎯	-9.81161
dht쎯	-9.81164
▁iy쎯ujn쎯	-9.81168
▁qtdn0쎯	-9.81235
▁qsu쎯	-9.81267
adm쎯	-9.81315
▁bwt쎯b쎯	-9.81337
.쎉	-9.81354
xuj쎯	-9.81396
sft쎯ou쎯	-9.81405
▁ad쎯uk쎯	-9.8142
▁rnnw쎯pgn쎯	-9.81463
▁v쎯rpl쎯	-9.81545
ftg쎯	-9.81554
▁cep쎯ynf쎯	-9.81568
▁sh쎯iv쎯	-9.81623
▁kwg쎯qiu0쎯ipr쎯	-9.81716
▁rlg쎯khev쎯	-9.81725
▁ju쎯	-9.81728
▁wk쎯dhb쎯	-9.81793
▁w쎯a쎯	-9.81916
mmq쎯	-9.82073
txgt쎯	-9.8208
▁fas쎯fuk쎯	-9.82118
▁wye쎯rta쎯	-9.82133
▁ywf쎯	-9.82173
ux쎯yiu쎯	-9.82217
▁gae쎯dyn쎯	-9.82292
▁ft쎯ce쎯	-9.82293
pyu쎯	-9.82313
▁ukn쎯x쎯gj쎯	-9.82338
▁yu쎯je쎯	-9.82345
ay쎯	-9.82351
▁khgp0쎯	-9.82355
▁wk쎯bwg쎯	-9.82379
pgf1쎯	-9.82381
▁j쎯gik쎯	-9.82436
▁ftbt쎯yce쎯uk쎯	-9.82458
alp쎯	-9.82463
▁w쎯yygy쎯	-9.82572
▁ajdf쎯	-9.82631
▁stt쎯ugl쎯	-9.82668
▁al쎯yx쎯	-9.82684
www쎯	-9.82706
wffg쎯	-9.82715
dyn쎯	-9.82757
▁쎁쎉쎇쎀	-9.82771
▁rh쎯lc쎯	-9.82773
▁yygy쎯tr쎯	-9.8279
▁vfhp1쎯yyq쎯	-9.82792
qyng쎯	-9.82819
hwb쎯	-9.82843
▁ybv쎯	-9.82847
▁ytm쎯	-9.82857
▁bq쎯	-9.82874
▁pr쎯qnp쎯	-9.82934
▁wyv쎯et쎯	-9.82943
▁lpk0쎯qim쎯	-9.82987
▁jb쎯vb쎯	-9.83002
▁aps쎯iwyf2쎯	-9.83006
▁fnw쎯	-9.83006
iytb0쎯ca쎯	-9.83015
whf쎯og쎯	-9.83023
fiy쎯	-9.83028
sfc쎯	-9.83054
▁gny쎯	-9.8307
▁tffu쎯xe쎯	-9.83083
▁ywx쎯ffc쎯	-9.83113
▁i쎯qten0쎯qmq쎯	-9.83153
lud쎯	-9.8316
▁wt쎯hka쎯	-9.83176
bi0쎯	-9.83223
▁gxi쎯	-9.83226
▁itd쎯	-9.83238
ip쎯bpf쎯	-9.83247
▁gef쎯qynm1쎯	-9.83249
efcb쎯	-9.83251
▁yq쎯	-9.83256
▁xte쎯qfhw0쎯	-9.83343
xv쎯	-9.83399
▁mhny0쎯	-9.83408
▁rgf쎯	-9.83424
▁rr쎯	-9.83427
naj1쎯	-9.83552
▁qe쎯ya쎯	-9.83696
▁bm쎯th쎯	-9.83714
▁ssq쎯	-9.83768
▁fny쎯aft쎯	-9.83897
▁ywyg1쎯	-9.83916
▁wfny0쎯yu쎯	-9.83917
▁adf쎯	-9.83949
yj쎯	-9.83971
▁wsg0쎯gm쎯	-9.83996
▁ymhj쎯xe쎯	-9.84022
▁udj쎯	-9.84122
▁yaa쎯	-9.84123
▁h쎯ymhj쎯	-9.84142
▁amw쎯qc쎯	-9.84159
syg쎯	-9.84169
khgm4쎯	-9.84205
by쎯	-9.84227
▁alt쎯	-9.84262
▁gmi쎯	-9.84284
▁fl쎯egl쎯	-9.84319
▁y쎯tp쎯	-9.84332
▁sgn쎯lfhf쎯	-9.84425
▁rhf쎯gc쎯	-9.84429
▁peg쎯	-9.84455
▁ipg쎯kjj쎯	-9.84486
▁eq쎯	-9.84551
▁iaw쎯	-9.8462
▁wgq쎯vk쎯	-9.84678
▁fqb1쎯gxi쎯	-9.84767
▁jn쎯dfy쎯	-9.84782
▁god쎯tgj쎯	-9.84787
▁wycm0쎯tfq쎯	-9.84818
▁thgc쎯sg쎯	-9.84841
pfjf0쎯	-9.84862
▁쎂쎅쎀	-9.84878
▁yi쎯og쎯	-9.84936
▁qh쎯tu쎯	-9.85004
▁sksw쎯rt쎯	-9.8509
▁gl쎯pe쎯	-9.85106
▁lh쎯wh쎯	-9.85131
▁wc쎯ga쎯	-9.85136
ol쎯	-9.85163
▁aig쎯	-9.85187
▁jn쎯pym쎯ck쎯	-9.85304
▁ii쎯tev쎯	-9.85307
▁qe쎯	-9.85348
▁wnnp쎯	-9.85361
▁qq쎯w쎯	-9.85368
▁sgn쎯wgk쎯	-9.85393
▁py쎯	-9.85424
▁tkh쎯od쎯	-9.8543
▁wfhg쎯	-9.85511
emc쎯	-9.85517
▁wgj쎯rgv쎯	-9.8558
▁쎃쎃	-9.85599
▁kfi쎯	-9.8575
▁uwy1쎯tlf2쎯	-9.85751
ltk쎯	-9.85755
▁dd쎯ip쎯tg쎯	-9.85768
▁bgh쎯	-9.85782
▁쎂.쎅	-9.85799
▁wgk쎯dn쎯	-9.85802
▁et쎯if쎯	-9.85832
▁pgn쎯wt쎯	-9.85852
dtf쎯	-9.8586
gku쎯	-9.85946
▁uth쎯uqw쎯	-9.86031
▁tux쎯	-9.86122
yb쎯	-9.86151
rfc쎯sy쎯	-9.86178
pfj쎯	-9.8627
▁fa쎯	-9.86271
▁fcl쎯wt쎯	-9.86283
▁yle쎯	-9.86303
fhg1쎯	-9.86311
▁tx쎯gg쎯	-9.86313
▁o쎯uwy1쎯	-9.86319
tsh0쎯	-9.86372
▁쎁쎉쎇쎅	-9.86397
▁tn쎯nnh쎯	-9.864
▁jn쎯pym쎯ndj쎯	-9.86451
▁fgh쎯fg쎯	-9.86462
▁wy쎯thn쎯wx쎯	-9.86495
▁wv쎯bb쎯	-9.86496
wfk쎯	-9.86551
▁a쎯dgt1쎯	-9.86645
yk쎯	-9.86704
▁fwyc2쎯	-9.86711
▁udyj쎯gqf쎯	-9.86716
ptkm0쎯	-9.86776
▁pfi쎯ftbt쎯	-9.86796
▁yssd0쎯	-9.86826
▁ˊ	-9.86832
rn쎯yle쎯	-9.86842
▁pynn0쎯	-9.86842
ytfp1쎯	-9.86844
▁cqw쎯qbp쎯	-9.86857
▁vv쎯vvv쎯	-9.86857
▁쎁쎉쎅쎀	-9.86872
ruv쎯	-9.86877
saj쎯	-9.86968
▁rta쎯	-9.86981
▁lk쎯wgkr2쎯dd쎯	-9.87002
▁쎃쎈	-9.87032
▁lw쎯if쎯	-9.87137
nm쎯	-9.87137
▁afd0쎯	-9.87144
▁qn쎯wynk쎯	-9.87206
▁oug쎯	-9.87235
▁and쎯dd쎯	-9.87241
▁ytf쎯	-9.87256
▁iqc쎯	-9.87382
▁wygg쎯	-9.87456
▁ce쎯idr쎯	-9.87494
hka쎯qv쎯	-9.87561
▁wmj0쎯	-9.87582
ffc쎯	-9.87648
▁hhhh쎯	-9.87673
maw쎯	-9.87681
▁st쎯aa쎯	-9.87705
▁dgj쎯tel쎯	-9.87743
▁c	-9.87745
▁jo쎯dhb쎯	-9.87829
▁adwe1쎯fjh0쎯	-9.87884
▁lp쎯xxe쎯	-9.88012
▁ime쎯	-9.88045
----------------	-9.88065
▁rfm쎯	-9.88067
▁apl쎯fcl쎯lt쎯	-9.88069
▁toln0쎯	-9.88132
▁if쎯fwm쎯	-9.88164
▁rxj쎯rpl쎯	-9.88171
▁u쎯kkk쎯rfm쎯jg쎯	-9.88185
▁egl쎯gj쎯	-9.88217
▁쎄쎈	-9.8825
▁tkw쎯lx쎯	-9.88291
▁ftbt쎯ip쎯gyt쎯	-9.8833
▁dgkn쎯ipmq쎯	-9.88358
wqu쎯	-9.88467
▁ygk쎯	-9.88513
▁cd쎯	-9.88542
fmy1쎯	-9.88565
av쎯dn쎯	-9.88581
▁wv쎯sgn쎯	-9.886
▁f쎯gj쎯wug1쎯lfhf쎯	-9.88633
▁ese쎯	-9.88782
ssq쎯	-9.88842
gn쎯	-9.88935
▁w쎯n쎯tmh0쎯	-9.8911
▁ipq쎯	-9.89221
wmj0쎯	-9.89258
▁쎁쎉쎆쎀	-9.8928
▁xwf쎯gl쎯	-9.89301
▁wtfm3쎯waj쎯	-9.89325
qkm쎯	-9.89336
▁it쎯rh쎯	-9.89337
▁efcb쎯	-9.89361
▁gd쎯ivfh1쎯ymhj쎯	-9.89383
▁anb0쎯sy쎯pe쎯	-9.89448
bs쎯	-9.89467
▁xtf쎯xwy쎯	-9.8948
▁ipw쎯fkh쎯ymhj쎯	-9.89481
▁rlg쎯	-9.89484
khn쎯	-9.89503
▁tp쎯gj쎯wsg0쎯txi쎯	-9.89505
▁쎆쎄	-9.89566
▁gm쎯fnrt쎯	-9.89598
pr쎯	-9.89612
▁udyj쎯	-9.8963
▁et쎯go쎯	-9.89708
▁th쎯gj쎯kkd쎯	-9.89712
▁mqq쎯hhu0쎯	-9.89758
▁fnrt쎯rn쎯	-9.89793
▁thd쎯q쎯	-9.89815
▁mq쎯jy쎯	-9.89855
▁xuj쎯	-9.89856
▁ght쎯fl쎯	-9.89883
▁e쎯jf쎯	-9.89908
▁gmap쎯	-9.90054
ycb쎯	-9.90091
rnr쎯	-9.90098
▁쎂.쎀	-9.90166
iaw쎯	-9.90183
▁yyy쎯	-9.90197
▁es쎯	-9.90203
.쎀쎉	-9.90209
▁ypeu쎯wxf쎯	-9.90251
▁nty1쎯tfkp쎯	-9.90265
ufk0쎯	-9.90366
▁os쎯	-9.90371
▁쎁쎉쎆쎈	-9.90423
dtb쎯	-9.90456
fjh0쎯	-9.90512
▁ga쎯ymc쎯	-9.9053
▁ige쎯wa쎯	-9.90538
▁ooo쎯lg쎯uh쎯	-9.90548
yynw1쎯	-9.90605
▁d쎯xg쎯	-9.90613
fffy쎯	-9.90664
ifh1쎯	-9.90693
▁l쎯uthp쎯	-9.9074
pgn쎯	-9.90789
▁db쎯pt쎯	-9.90881
▁wdn쎯wx쎯	-9.9089
▁dgkn쎯	-9.90922
▁bgk쎯	-9.90945
▁saj쎯rny1쎯	-9.90974
▁h	-9.91072
fakg1쎯	-9.91097
▁bp쎯ps쎯	-9.9111
▁sh쎯m쎯	-9.91182
aft쎯	-9.91197
▁afd0쎯vij쎯	-9.91263
▁on쎯	-9.91308
sn쎯	-9.91356
▁ta쎯ia쎯	-9.91445
▁ukd0쎯	-9.91482
▁sh쎯gx쎯	-9.91503
ggw쎯	-9.91526
▁xo쎯	-9.9156
ip쎯fghg쎯ip쎯wug1쎯	-9.91594
▁yw쎯ykw쎯	-9.91597
pe쎯fl쎯wf쎯	-9.91618
▁tj쎯qk쎯	-9.91632
▁wwk쎯	-9.91763
uwl쎯	-9.91774
.쎁	-9.91834
rdf1쎯	-9.91846
▁atg쎯gk쎯ta쎯	-9.91865
▁wyc쎯w쎯	-9.91934
iugg0쎯	-9.92002
▁fg쎯rh쎯	-9.92003
thp쎯	-9.92015
▁lfhf쎯	-9.92017
▁tp쎯gj쎯nnk쎯	-9.92035
aqb쎯	-9.92043
▁tx쎯g쎯wh쎯	-9.92209
▁g쎯uth쎯	-9.92244
▁pfjm1쎯	-9.9225
▁nnh쎯if쎯pe쎯	-9.92287
▁ijx쎯	-9.92307
yyq쎯	-9.9231
▁ld쎯gxi쎯	-9.92339
▁rdfh1쎯	-9.92373
▁do쎯	-9.92374
▁ltk쎯	-9.92374
ujqu쎯	-9.92385
▁bk쎯tl쎯	-9.9249
▁쎁쎉쎅쎅	-9.92545
▁xww쎯	-9.92545
▁yfd쎯	-9.92616
fkhk쎯	-9.92621
nla쎯	-9.92689
▁fd쎯qfhw0쎯	-9.92749
▁dn쎯yi쎯	-9.9277
lkmi0쎯	-9.92884
▁tkh쎯bb쎯	-9.92887
▁dhc쎯	-9.9289
▁mf쎯ght쎯	-9.92955
▁ugdu쎯wyv쎯	-9.92974
▁qkhh1쎯	-9.92991
▁wtuf1쎯	-9.93039
▁xln1쎯	-9.93053
▁nudu쎯	-9.93074
ah쎯	-9.93137
▁mmm쎯ii쎯	-9.93139
▁saj쎯gajf쎯	-9.93148
be쎯	-9.93156
▁rmhj쎯dn쎯	-9.9318
puv쎯	-9.93191
▁rfc쎯agnn2쎯	-9.93191
▁jjjj쎯adwe1쎯	-9.93217
▁y쎯lw쎯	-9.93335
▁rxj쎯pg쎯	-9.93365
▁sghg1쎯gyt쎯ah쎯	-9.93395
▁nae쎯jtyq1쎯	-9.93398
yvc쎯	-9.93486
▁pe쎯hw쎯	-9.93527
▁〕	-9.93573
▁쎅쎀쎀쎀	-9.93606
▁pfj쎯	-9.93647
tdn쎯	-9.93791
▁gf쎯j쎯	-9.93844
▁ygu쎯wd쎯	-9.93868
▁xyna0쎯rmhj쎯	-9.93887
▁nty1쎯o쎯	-9.93913
▁dhc쎯fgi쎯	-9.93968
▁pf쎯	-9.93984
▁dm쎯tm쎯	-9.93987
▁aqrn0쎯	-9.93989
▁tdkj쎯dhd쎯	-9.94022
sj쎯	-9.94075
▁oyv쎯wyv쎯	-9.94101
▁xyna0쎯kgn쎯	-9.94126
▁ge쎯dp쎯	-9.9432
▁ige쎯ii쎯	-9.94335
▁ii쎯ylk2쎯	-9.94396
▁mf쎯tl쎯	-9.94493
▁amw쎯qqqq1쎯	-9.94503
▁gcft2쎯	-9.94527
▁tve쎯dd쎯	-9.94582
▁ddm쎯fghg쎯tg쎯	-9.94603
▁ynt쎯	-9.94654
iwf쎯	-9.94655
▁rwyg쎯adh쎯	-9.94677
▁qy쎯	-9.94759
▁gtu쎯	-9.94798
tb쎯	-9.94809
▁bwf쎯ntk쎯	-9.94846
id쎯	-9.94901
▁ftbt쎯bk쎯a쎯	-9.94937
▁쎁쎉쎅쎇	-9.9494
▁fcl쎯	-9.94975
▁bpf쎯suq쎯	-9.94996
▁tv쎯	-9.95007
▁rffg쎯	-9.95051
▁sft쎯rfm쎯	-9.95109
▁ipe쎯	-9.95114
▁wygg쎯pta쎯	-9.95171
▁tdt쎯	-9.95193
▁sghg1쎯adnt1쎯	-9.95235
▁tvfh1쎯jgm쎯	-9.95266
▁mqj쎯	-9.95293
▁vep쎯	-9.95298
▁〔	-9.95309
▁sh쎯yid쎯	-9.95323
▁fkuk4쎯	-9.95375
▁uqf쎯pl쎯	-9.95385
▁gl쎯dm쎯	-9.95432
▁pw쎯ymf쎯	-9.95444
▁f쎯dm쎯	-9.95494
▁fl쎯yyq쎯	-9.95524
gbnm0쎯	-9.95573
an쎯xn쎯	-9.95701
▁ha쎯	-9.95708
▁lfo쎯dx쎯ia쎯ith쎯	-9.9572
▁jq쎯	-9.95911
fqu쎯	-9.9592
ujfj쎯wug1쎯	-9.9593
▁thd쎯ick쎯aq쎯	-9.95933
▁dy쎯bj쎯	-9.95948
▁gjq쎯vb쎯	-9.95949
▁uwy1쎯dqe쎯	-9.95979
쎀쎀쎀쎀쎈쎀쎁	-9.95986
▁쎉쎈	-9.96051
▁aqq쎯	-9.96095
▁xv쎯wx쎯	-9.96111
▁xmw쎯	-9.96111
ps쎯iwyf2쎯tq쎯kgn쎯	-9.96183
▁fke쎯	-9.96195
adk쎯	-9.96199
▁nnw쎯qi쎯	-9.96227
▁쎁쎉쎅쎂	-9.96284
▁tyg쎯	-9.96297
▁쎁쎉쎆쎉	-9.96311
▁yssc2쎯	-9.96311
▁itk쎯	-9.96321
▁fd쎯aq쎯	-9.96334
▁kkk쎯	-9.96376
▁dd쎯uk쎯wv쎯	-9.96393
▁dd쎯ddh쎯	-9.964
tp쎯gj쎯	-9.9649
wbj쎯	-9.9654
▁ovt쎯dcg쎯	-9.96546
▁xy쎯xkw쎯	-9.9656
qyvl쎯	-9.96632
▁gef쎯it쎯rh쎯	-9.96686
aqt쎯	-9.967
▁wv쎯wc쎯ngk쎯	-9.96709
▁lft쎯xf쎯	-9.96737
▁lfq쎯ss쎯	-9.9677
▁kf쎯thg0쎯	-9.96809
▁′	-9.96842
▁ylk2쎯	-9.96854
▁wn쎯	-9.96875
▁ukn쎯nh쎯ty쎯	-9.96906
▁rn쎯d쎯	-9.96927
▁sgc쎯	-9.96992
h쎯itx쎯	-9.97113
▁mt쎯tuh쎯	-9.97159
▁쎁쎉쎇쎂	-9.97172
▁쎀.쎅	-9.97281
▁gj쎯qev쎯	-9.97512
▁qvn2쎯	-9.97529
▁wyk쎯rg쎯eb쎯tl쎯	-9.97577
▁l쎯n쎯ipk쎯	-9.97586
tvfh1쎯	-9.97621
▁yss쎯	-9.97669
▁qge쎯	-9.97746
▁ith쎯ymhj쎯	-9.97789
▁sghg1쎯yy쎯	-9.97792
▁fqb1쎯rh쎯	-9.97852
▁wc쎯xd쎯	-9.97904
alw쎯	-9.97996
▁ol쎯	-9.98043
ipg쎯	-9.98048
▁pp쎯ue쎯	-9.9816
▁g쎯gkp쎯	-9.98168
tca쎯	-9.9817
▁od쎯wny0쎯	-9.98183
쎅	-9.98201
▁jy쎯	-9.98237
▁yygy쎯fmud쎯	-9.98255
▁l	-9.98265
▁ipq쎯bj쎯	-9.98333
▁hcd쎯	-9.98352
▁wny0쎯	-9.98378
▁wxj쎯ftbt쎯	-9.98428
▁itx쎯fm쎯	-9.98428
▁쎁쎉쎇쎇	-9.98468
▁쎄쎂	-9.98545
yjj0쎯	-9.98551
▁wbj쎯ujn쎯	-9.98565
▁gkm쎯wgk쎯	-9.98585
vfhp1쎯ymc쎯	-9.98589
▁sg쎯kkk쎯	-9.98591
▁trs쎯trtg쎯	-9.98611
▁wv쎯yb쎯	-9.98659
▁ry쎯dd쎯	-9.98719
▁tp쎯lpdk0쎯	-9.98746
▁ldd쎯	-9.98771
utk쎯	-9.98775
▁wg쎯nnh쎯	-9.98786
yuo쎯	-9.98809
af쎯wgkb2쎯	-9.98857
▁ywwf쎯	-9.98859
▁gq쎯	-9.98916
kwg쎯	-9.98957
▁a쎯w쎯	-9.99014
gcft2쎯	-9.9903
▁yf쎯	-9.99083
iqpl1쎯	-9.99089
▁tdaf쎯	-9.99146
▁nt쎯	-9.99147
▁xgu쎯us쎯	-9.99148
▁jyie쎯thg0쎯	-9.99174
▁쎁쎉쎇쎄	-9.99176
cd쎯	-9.9926
ymhj쎯fnrt쎯	-9.99262
▁dwf쎯	-9.99281
bwt쎯	-9.99292
▁mqq쎯h쎯	-9.99364
▁qg	-9.99369
.쎀쎇	-9.99419
▁ebn0쎯	-9.99423
yy쎯wug1쎯	-9.99435
▁쎁쎉쎅쎉	-9.99442
rpw쎯	-9.99484
▁bd쎯	-9.99548
▁쎁쎉쎆쎆	-9.99574
▁tk쎯wh쎯	-9.99637
▁xte쎯ght쎯ywf쎯	-9.99647
▁쎃쎄	-9.99673
▁amd쎯dcw쎯	-9.99675
▁gah쎯kkd쎯	-9.99695
▁falw쎯	-9.99728
▁yfn쎯nnh쎯	-9.99769
udj쎯	-9.998
▁fny쎯iy쎯	-9.99846
▁gmu1쎯wtf쎯	-9.99872
▁fk쎯ss쎯ith쎯	-9.99886
▁pfi쎯	-9.99944
▁yygt쎯ytyh쎯ymhj쎯	-9.9996
▁jtyl쎯rpw쎯	-9.99984
▁qkk쎯	-10.0002
▁jtyl쎯imj쎯	-10.0008
▁ke쎯	-10.001
▁mnm쎯	-10.0013
aup쎯	-10.0014
wvt쎯	-10.0016
▁ymhj쎯aq쎯	-10.0017
▁ruv쎯fyk쎯	-10.0018
▁rh쎯yqa쎯	-10.0027
▁w쎯fghg쎯	-10.003
▁nx쎯	-10.0032
▁qyng쎯	-10.0034
▁g쎯gcft2쎯	-10.0034
y쎯yq쎯	-10.0041
▁ng쎯	-10.005
ytb쎯	-10.0054
▁puv쎯k쎯	-10.0057
▁tjt쎯wgk쎯	-10.0059
▁쎁쎉쎅쎃	-10.0068
▁qf쎯	-10.0068
▁ih쎯gajf쎯	-10.0069
▁bj쎯iq쎯	-10.007
▁ffff5쎯fyk쎯	-10.0074
▁hjj쎯fha쎯	-10.0076
▁cm쎯pwfi쎯	-10.0082
▁khi쎯	-10.0085
▁qh쎯cm쎯	-10.0088
yss쎯	-10.0097
▁gmww쎯wmj0쎯	-10.01
oyn쎯	-10.0101
▁wye쎯rnd1쎯	-10.0107
▁hao쎯	-10.0108
tfkp쎯	-10.0109
▁gae쎯pww쎯	-10.0111
▁lfnh쎯	-10.0115
▁tk쎯xe쎯	-10.0115
▁rq쎯	-10.012
▁waj쎯	-10.0121
▁pl쎯bw쎯	-10.0123
▁gg쎯rh쎯	-10.0123
▁geq쎯	-10.0131
▁jo쎯aft쎯	-10.0136
wqj쎯	-10.0139
▁iagw쎯ujn쎯	-10.014
▁at쎯	-10.0148
▁ipgh쎯ow쎯	-10.0152
▁ta쎯iit쎯	-10.0167
dcw쎯	-10.0182
▁bu쎯wgk쎯wf쎯	-10.0183
▁fh쎯ntk쎯	-10.0187
nua쎯	-10.0191
▁pj쎯yf쎯	-10.0195
▁fghy2쎯	-10.0196
nyu쎯	-10.0196
▁ngk쎯	-10.0197
jo쎯	-10.0197
▁klj쎯qk쎯	-10.02
▁ye쎯	-10.0209
▁gjq쎯j쎯	-10.0211
tgh쎯	-10.0216
▁iie쎯	-10.0222
▁pt쎯	-10.0227
▁xk쎯ya쎯	-10.0239
▁tg쎯u쎯xg쎯	-10.024
▁ln쎯	-10.0241
▁thp쎯	-10.0246
▁fnr쎯ujf쎯	-10.0248
▁usr쎯lk쎯fhc쎯	-10.0253
▁yid쎯yynw1쎯	-10.0254
▁wt쎯bm쎯	-10.0254
▁wv쎯tp쎯	-10.0256
▁bqr쎯	-10.0258
wgku1쎯	-10.0259
▁쎅쎅	-10.026
adf쎯	-10.0261
▁egc쎯ght쎯ywf쎯	-10.0278
▁ftbt쎯dga쎯pgc쎯	-10.0279
ffuk쎯	-10.0285
▁trh쎯	-10.0287
▁ec쎯	-10.029
▁fp쎯fcu1쎯	-10.0293
pfjs쎯	-10.0294
▁hn쎯	-10.0295
▁쎁쎉쎅쎄	-10.0297
▁etj쎯	-10.0299
▁qnp쎯	-10.0302
▁fu쎯ta쎯	-10.0303
▁sm쎯rmhj쎯	-10.0304
▁ta쎯ya쎯	-10.0306
▁쎇쎅	-10.0307
mdfj쎯	-10.0308
▁fq쎯ywx쎯	-10.0316
▁gh쎯lpdk0쎯	-10.0321
qsu쎯	-10.0322
▁qm쎯gmu1쎯w쎯	-10.0323
▁ycf쎯	-10.0323
▁tf쎯fcl쎯	-10.0323
▁g쎯ddu0쎯	-10.0323
▁ux쎯yiu쎯dd쎯ip쎯	-10.0324
ytf쎯	-10.033
▁ftbt쎯pgc쎯	-10.0333
▁yneg쎯	-10.0338
hao쎯	-10.0341
▁쎁쎉쎃쎈	-10.0347
▁ngj쎯	-10.0351
▁ufg쎯	-10.0351
qtd쎯	-10.0355
▁n쎯y쎯	-10.0356
▁ds쎯	-10.0359
▁cqy쎯nhj쎯	-10.0363
▁dnv1쎯kgb쎯	-10.0367
▁쎁쎉쎆쎁	-10.037
▁by쎯hh쎯	-10.037
▁afd0쎯vij쎯ith쎯	-10.037
▁dg쎯dd쎯	-10.0372
▁fj쎯wht쎯	-10.0374
▁fcp쎯	-10.0375
sgn쎯	-10.0376
▁ipwk0쎯	-10.0379
▁si쎯pvs쎯	-10.0386
sff0쎯	-10.0388
▁gh쎯fa쎯	-10.0389
▁itm쎯dd쎯tjh쎯gog쎯	-10.0395
tmdf1쎯	-10.0395
▁ghd0쎯dqe쎯	-10.0398
▁ytd쎯	-10.04
▁dn쎯wv쎯	-10.0403
▁tlf2쎯et쎯	-10.0405
uqwm0쎯qqqq1쎯	-10.0405
▁gqx쎯ynv쎯	-10.0408
▁xgb쎯nh쎯	-10.0412
▁wyv쎯tr쎯	-10.0415
▁i쎯it쎯	-10.0415
ykw쎯	-10.0416
▁kfa쎯	-10.0416
▁idr쎯	-10.0419
▁gx쎯fcl쎯	-10.042
▁io쎯	-10.0422
▁fggh쎯okk쎯	-10.0425
▁tfkd쎯	-10.0431
tlf2쎯	-10.0438
qie쎯	-10.044
▁fny쎯tjh쎯	-10.044
▁쎁쎉쎇쎃	-10.0441
▁py쎯wf쎯tu쎯ip쎯	-10.0443
▁dqe쎯wk쎯	-10.0444
.쎁쎀	-10.0448
▁ipkr쎯	-10.0451
▁wgk쎯m쎯	-10.0452
▁yw쎯sk쎯	-10.0454
rc쎯	-10.0458
▁jhk1쎯yge쎯	-10.0458
▁h쎯gh쎯	-10.0471
fku쎯	-10.0477
▁wh쎯ntg쎯	-10.048
▁wtf쎯bk쎯	-10.0489
xqc쎯	-10.0489
mhny0쎯	-10.049
▁ym쎯xe쎯ftbt쎯jgm쎯	-10.049
▁et쎯wtp쎯	-10.0491
▁쎁쎉쎄쎅	-10.0492
▁ue쎯rg쎯	-10.0494
▁dnv1쎯w쎯	-10.0496
▁dmu0쎯	-10.0497
▁xf쎯gki쎯	-10.0501
qf쎯	-10.0504
▁fg쎯fgh쎯	-10.0509
jq쎯	-10.0511
mhg쎯	-10.0515
▁trfh0쎯ggi쎯	-10.0517
▁fjk쎯	-10.0518
▁awf쎯	-10.052
▁쎁쎅쎀쎀	-10.0524
▁nm쎯	-10.0528
▁vfhp1쎯tfkp쎯	-10.0536
gk쎯og쎯ujfj쎯wug1쎯	-10.0538
▁wys쎯lft쎯wc쎯ngk쎯	-10.054
▁ryn0쎯	-10.0541
▁wgku1쎯yn쎯	-10.0569
▁tfkp쎯	-10.057
▁fj쎯hi쎯	-10.057
쎄	-10.0578
vck쎯	-10.0597
▁bt쎯	-10.0597
▁yo쎯dn쎯	-10.06
▁dd쎯bw쎯	-10.0603
su쎯	-10.0604
▁쎃쎇	-10.0607
▁cccs3쎯	-10.0608
▁uda쎯	-10.0614
▁ym쎯umd0쎯	-10.0623
▁rpws쎯	-10.0629
▁yad쎯	-10.063
wny0쎯	-10.0632
▁yt쎯d쎯	-10.0633
▁uth쎯rx쎯	-10.0634
▁dhb쎯	-10.0635
▁fj쎯tkgg0쎯	-10.0636
▁upy쎯	-10.0639
▁kjj쎯	-10.0642
wfn쎯	-10.0654
▁pfjf0쎯	-10.0655
▁egm쎯	-10.0655
▁wycm0쎯	-10.066
▁sfi쎯	-10.0668
▁mq쎯bwg쎯	-10.0669
▁uqsg쎯img쎯	-10.067
imj쎯	-10.0672
▁ca쎯ndj쎯	-10.0677
ijo쎯	-10.0678
eyb쎯	-10.0681
▁쎁쎈쎀	-10.0697
▁myd쎯	-10.0704
▁lu쎯o쎯	-10.0706
▁lg쎯lgm쎯	-10.0707
ifj쎯	-10.0708
▁bk쎯ce쎯	-10.0712
▁rgf쎯up쎯	-10.0712
ngc쎯	-10.0715
ajt쎯	-10.0717
▁thgf0쎯	-10.0718
▁쎁쎉쎃쎄	-10.0721
▁ryn0쎯gj쎯	-10.0723
▁og쎯xgm쎯	-10.0727
▁pe쎯ytt쎯	-10.073
▁jce쎯	-10.0731
apg쎯	-10.0733
쎁쎈	-10.0735
waye쎯	-10.0742
tha쎯	-10.0743
▁쎁쎆쎀	-10.0747
▁fwyf쎯	-10.0752
▁tp쎯gj쎯a쎯wt쎯	-10.0753
tx쎯	-10.0755
▁pg쎯yq쎯	-10.0757
▁adw쎯pu쎯	-10.0761
▁gu쎯tqdh쎯	-10.0762
▁ufk0쎯	-10.0765
▁rbcc쎯wqj쎯udi쎯	-10.077
hh쎯	-10.077
▁yn쎯ftj쎯	-10.0774
▁iv쎯tfqp쎯	-10.0776
▁gku쎯	-10.0776
▁wfny0쎯lwg쎯	-10.0782
▁iuc쎯	-10.0783
▁wgkq0쎯tj쎯	-10.0789
▁khgm4쎯ytyh쎯ith쎯	-10.0791
▁wtl쎯	-10.0792
▁g쎯uk쎯wv쎯	-10.0794
▁fpm쎯	-10.0802
▁wyq쎯	-10.0807
▁fuf1쎯pyg쎯	-10.0808
▁ia쎯fm쎯	-10.0808
▁jyie쎯	-10.0809
▁uqwm0쎯st쎯	-10.081
▁dmj1쎯j쎯	-10.081
▁sgn쎯tlf2쎯	-10.0816
▁oa쎯	-10.0822
▁yv쎯	-10.0825
▁mw쎯tu쎯	-10.0826
b	-10.0826
dd쎯ipkh1쎯tv쎯wf쎯	-10.0827
▁raj쎯ytb쎯	-10.0827
▁je쎯wa쎯	-10.0828
▁y쎯ipg쎯	-10.0829
wye쎯	-10.083
▁tdt쎯w쎯	-10.0831
▁dgk쎯	-10.0842
wynn3쎯	-10.0844
.쎈	-10.0844
▁uth쎯ftjb쎯	-10.085
▁qk쎯o쎯	-10.0855
ydn쎯	-10.0856
▁ujn쎯mqb쎯	-10.0861
▁vfb쎯tc쎯	-10.0862
▁wqu쎯xgu쎯	-10.0862
tdg1쎯	-10.0863
▁lg쎯uh쎯	-10.0867
▁sve쎯rnd1쎯f쎯	-10.0868
gh쎯ymc쎯	-10.0869
▁wffg쎯	-10.087
▁lgk쎯tmdf1쎯	-10.0871
▁jo쎯	-10.0872
▁pnt쎯ya쎯	-10.0877
▁itx쎯qh쎯	-10.0878
▁es쎯bc쎯	-10.0881
▁gmd쎯	-10.0899
▁wfi쎯	-10.0899
tfhy쎯	-10.0903
▁apl쎯	-10.0903
▁cf쎯qh쎯	-10.0903
▁wfny0쎯vaf쎯	-10.0907
▁yny0쎯ngc쎯	-10.0907
▁lwx쎯	-10.0911
rcy0쎯	-10.0914
▁kj쎯qd	-10.0914
▁wwkw1쎯	-10.0915
▁god쎯	-10.0917
▁쎂쎂쎀	-10.0918
fcp쎯fcl쎯	-10.0925
▁ipkf0쎯	-10.0926
▁sh쎯lpk0쎯	-10.0927
▁uqwm0쎯sg쎯	-10.0928
atd쎯	-10.0937
▁itx쎯pl쎯	-10.0937
▁mt쎯wh쎯	-10.0947
▁gqg1쎯	-10.0947
▁fje쎯qgu쎯	-10.0951
▁qnth쎯	-10.0955
▁wgkr2쎯	-10.0956
jv쎯	-10.0958
▁ca쎯	-10.0958
▁wxm쎯tr쎯	-10.0963
▁fwm쎯tvfh1쎯	-10.0966
쎉쎄	-10.097
▁gae쎯udy쎯	-10.0971
▁nae쎯ga쎯	-10.0972
▁xx쎯kwgj0쎯	-10.0973
▁ux쎯yy쎯	-10.0974
▁jghm1쎯	-10.0976
▁쎉쎀쎀쎁	-10.0977
▁ipm쎯	-10.0986
▁nnnn쎯e쎯	-10.0987
▁le쎯	-10.0988
gcg쎯	-10.0988
▁ra쎯gc쎯	-10.0991
▁dr쎯go쎯	-10.0993
▁jb쎯o쎯	-10.0994
▁lgey0쎯egl쎯	-10.0994
▁rep쎯	-10.0995
de쎯	-10.0997
tkgg0쎯ycb쎯	-10.0999
▁lk쎯rvyo쎯	-10.1
ipmq쎯	-10.101
▁tmd쎯wwv쎯	-10.1013
▁dm쎯cf쎯	-10.1021
▁쎁쎉쎅쎁	-10.1022
wsk쎯	-10.1022
▁rnb쎯wsg0쎯	-10.1023
▁ftjb쎯ymhj쎯	-10.1025
▁aib쎯	-10.1027
▁inx쎯	-10.103
▁qkm쎯	-10.1042
▁쎁쎉쎄쎈	-10.1043
yop쎯	-10.1045
▁gfq쎯	-10.1049
▁jjjj쎯ipkh1쎯	-10.1052
▁yff쎯yngk0쎯	-10.1052
▁pvs쎯wgq쎯	-10.1062
▁sq쎯tfkp쎯	-10.1062
.쎇	-10.107
▁rmhj쎯kkk쎯	-10.1071
▁du쎯	-10.1074
▁lc쎯swc쎯	-10.1075
sfiu0쎯	-10.1078
▁u쎯jg쎯	-10.1079
gyg1쎯	-10.1081
▁쎁쎂쎀쎀	-10.1084
fyn쎯	-10.1084
▁tuu쎯	-10.1086
▁ygh쎯udv쎯	-10.1088
▁wyp쎯	-10.1089
▁fcl쎯ijlc쎯	-10.1093
tey쎯	-10.1095
▁v쎯je쎯	-10.1096
▁afs쎯hxf쎯	-10.1102
▁fgh쎯dd쎯	-10.1103
▁rnb쎯whn쎯	-10.1109
▁umd0쎯kkkk0쎯	-10.1109
▁dgkn쎯epc쎯	-10.1109
▁yff쎯sksw쎯	-10.111
▁ujfj쎯fqb1쎯	-10.1116
▁tgh쎯	-10.1116
▁ce쎯jg쎯	-10.1118
ivfh1쎯	-10.1119
fhu쎯	-10.1121
▁dg쎯fgh쎯	-10.1122
bfm쎯	-10.1125
▁xln1쎯qt쎯	-10.1125
ybv쎯	-10.1125
▁i쎯khu쎯	-10.1126
rw쎯	-10.1127
qve쎯	-10.1132
▁lm쎯	-10.1133
▁vfb쎯hxf쎯	-10.114
▁lh쎯rh쎯	-10.1156
hj쎯	-10.1164
▁ybf0쎯e쎯	-10.1165
▁dd쎯wf쎯	-10.1166
sghg1쎯atd쎯	-10.1166
▁rvk쎯	-10.1169
▁rrg1쎯	-10.117
▁uqd0쎯ddnl쎯	-10.117
▁uu쎯khu쎯	-10.1175
wdn쎯	-10.1176
▁rkk쎯wt쎯txi쎯xyc쎯	-10.1179
tkw쎯	-10.118
rj쎯	-10.1181
▁qi쎯bw쎯	-10.1181
▁ltu쎯wqj쎯	-10.1185
▁tx쎯g쎯uqw쎯	-10.1186
▁ax쎯kkk쎯	-10.1186
▁tdkj쎯	-10.1188
▁qfhw0쎯ght쎯ywf쎯	-10.1192
▁iyj쎯fm쎯	-10.1194
kqy쎯	-10.1195
.쎀쎈	-10.1201
▁mc쎯	-10.1204
▁rxj쎯sfi쎯	-10.1205
bd쎯	-10.1205
▁rs쎯qgb쎯	-10.121
gkl쎯	-10.121
fha쎯	-10.1214
▁쎃.쎅	-10.1214
▁쎁쎉쎇쎁	-10.1216
▁qvfp1쎯tel쎯	-10.1225
▁rrhy쎯	-10.1227
nu쎯	-10.1234
▁fm쎯yy쎯	-10.1237
▁kqb쎯uxh쎯	-10.1237
k쎯ny쎯	-10.1238
▁c쎯o쎯	-10.124
▁iwf쎯	-10.1244
nty1쎯	-10.1246
▁fgh쎯rh쎯	-10.1254
▁wvd쎯v쎯	-10.1254
▁abu쎯	-10.1255
.쎀쎃	-10.1256
▁xwy쎯tg쎯gxi쎯	-10.1264
▁ip쎯km쎯	-10.1264
▁wgq쎯	-10.1264
▁쎁쎉쎃쎆	-10.1266
▁쎆쎅	-10.1272
▁쎁쎉쎃쎇	-10.1277
qkq쎯	-10.1279
alf쎯	-10.1281
▁쎁쎉쎃쎅	-10.1283
▁pyj쎯tn쎯	-10.1287
▁iqn쎯	-10.1289
▁wynb쎯gd쎯	-10.1292
▁sk쎯tfkd쎯	-10.1294
▁ny쎯gj쎯ip쎯	-10.1296
▁jsd쎯oug쎯	-10.1298
▁yxu쎯	-10.1307
▁iyw쎯wsg0쎯	-10.1308
oq쎯	-10.1308
bct쎯	-10.1314
▁pwd쎯dhc쎯	-10.1321
▁alw쎯bu쎯	-10.1324
▁nd쎯tv쎯wf쎯	-10.1324
▁rlg쎯ck쎯	-10.1326
▁sty0쎯	-10.1326
geq쎯	-10.1327
▁uygh1쎯	-10.1335
▁ago쎯	-10.1338
igey쎯	-10.1343
▁vvv쎯w쎯	-10.1347
▁fpx쎯	-10.1352
▁uqwm0쎯ynf쎯	-10.1362
▁blf쎯	-10.1365
▁iry쎯iq쎯	-10.1366
▁1	-10.1371
imkf1쎯	-10.1374
▁v쎯tmdf1쎯	-10.1375
▁wdt쎯vb쎯	-10.1377
uxx쎯	-10.139
rx쎯	-10.139
▁xtu쎯	-10.1391
uag1쎯	-10.1395
▁ld쎯dmj1쎯	-10.1395
▁pgk쎯e쎯	-10.1402
▁h쎯xe쎯	-10.1404
gqje쎯	-10.1406
▁ip쎯sy쎯ywx쎯yygy쎯	-10.1411
pj쎯	-10.1411
▁g쎯tg쎯	-10.1413
nny0쎯	-10.1416
▁waw쎯yid쎯	-10.1417
▁jn쎯iyc쎯	-10.1418
▁쎁쎁쎀	-10.142
▁sfi쎯uwy1쎯wx쎯	-10.143
sw쎯	-10.1434
▁rm쎯	-10.1434
▁yy쎯qf쎯	-10.1434
lfof5쎯	-10.1435
▁dyt쎯	-10.1435
▁nui쎯sm쎯	-10.1437
▁쎉쎀쎀	-10.144
▁uck쎯qqqq1쎯	-10.1445
fu쎯	-10.1448
▁wrh2쎯	-10.1449
▁쎄쎃	-10.1452
nnw쎯	-10.1453
▁un쎯tgm쎯	-10.1454
▁lh쎯dd쎯	-10.1454
▁●	-10.1454
▁sm쎯wf쎯	-10.1455
▁wc쎯pjm쎯	-10.1458
▁ripq1쎯rufh1쎯	-10.1459
▁gu쎯dm쎯	-10.1463
▁pei쎯n쎯nh쎯ty쎯	-10.1463
▁rb1쎯fjh0쎯	-10.1468
▁lk쎯h쎯	-10.1472
▁btg쎯	-10.1474
▁jn쎯rnb쎯	-10.1478
ad쎯gf쎯	-10.1479
▁eajd쎯	-10.1485
▁cm쎯www쎯	-10.1487
▁fny쎯og쎯wx쎯	-10.1489
▁tx쎯uy쎯	-10.1493
▁ukqb0쎯qv쎯	-10.1501
▁ishg쎯	-10.1501
▁★	-10.1506
ukh쎯	-10.1507
▁ii쎯inx쎯	-10.151
▁ss쎯og쎯	-10.151
▁sgn쎯wrh2쎯	-10.1511
▁uqwm0쎯rfm쎯	-10.1512
fd쎯ymhj쎯	-10.1516
▁lud쎯	-10.1518
qdm쎯	-10.1531
udp쎯	-10.1535
▁jyie쎯ktm쎯lt쎯	-10.1537
▁kk쎯	-10.1537
gmww쎯	-10.1537
ycf쎯	-10.1538
ajdh쎯	-10.154
ukd0쎯	-10.1544
▁fnud쎯	-10.1547
nh쎯ty쎯	-10.1548
▁yjs쎯	-10.1549
rgm쎯	-10.1559
▁x쎯gj쎯	-10.1563
쎀쎀	-10.1565
gkh0쎯	-10.1572
▁dd쎯www쎯	-10.1572
iya쎯	-10.1573
hwbc쎯	-10.1574
dhc쎯	-10.1577
▁dd쎯lpk0쎯	-10.1578
▁txi쎯gq쎯u쎯kkk쎯	-10.1578
▁imj쎯	-10.1581
▁bm쎯ffff5쎯	-10.1584
▁bg쎯	-10.1598
▁gkp쎯udi쎯w쎯	-10.1599
▁ym쎯nfc쎯	-10.1599
▁rn쎯ta쎯	-10.1603
tv쎯km쎯wf쎯	-10.1605
peg쎯	-10.1613
▁tyg쎯tyg쎯	-10.1619
▁amw쎯isk쎯	-10.1623
mf쎯	-10.1623
▁쎁쎃쎀	-10.1627
▁vck쎯	-10.1631
▁쎀쎀쎀	-10.1631
▁sbd쎯lkmi0쎯gae쎯	-10.1631
fkuc1쎯	-10.1636
.쎁쎁	-10.1637
▁txg쎯gd쎯	-10.1637
▁ftbt쎯yce쎯nnk쎯	-10.1638
▁ym쎯si쎯	-10.1645
▁od쎯klj쎯	-10.1648
▁txgi2쎯wxf쎯	-10.1651
▁sai쎯	-10.1652
qkhh1쎯	-10.1653
atd쎯bpf쎯	-10.1653
gogj쎯	-10.1654
▁www쎯	-10.1655
qrm쎯	-10.1663
▁쎁쎉쎃쎃	-10.1667
▁ep쎯vb쎯ftj쎯	-10.1668
▁mqc쎯nudu쎯	-10.1669
swb쎯	-10.1673
▁ymc쎯yf쎯jgm쎯	-10.1674
jty쎯	-10.1684
fgu쎯	-10.1684
▁sc쎯dgv쎯	-10.1689
▁g쎯hko쎯	-10.169
▁tak쎯xe쎯	-10.1695
▁ou쎯isgg0쎯	-10.1695
▁mga쎯	-10.1699
▁ukn쎯xf쎯	-10.1703
▁fkue1쎯	-10.1703
▁ad쎯ld쎯	-10.1705
▁bgh쎯sm쎯	-10.1707
▁ah쎯	-10.171
▁rb1쎯uthp쎯	-10.171
▁ipkh1쎯tl쎯	-10.1713
▁nj쎯ntg쎯	-10.1719
bj쎯egc쎯	-10.172
▁qh쎯gae쎯	-10.1721
▁lfn쎯tqq쎯	-10.1725
▁ese쎯qc쎯	-10.1725
▁jvko쎯thg0쎯	-10.1742
▁etg쎯tjh쎯	-10.1743
▁kg쎯gm쎯	-10.1743
▁wfg0쎯	-10.1746
▁a쎯tkgg0쎯ip쎯bpf쎯	-10.1747
▁wy쎯iwyf2쎯	-10.1747
▁vf쎯	-10.1752
▁nnw쎯rgv쎯	-10.1754
▁nyiy0쎯	-10.1756
▁k쎯ax쎯	-10.1757
rmhj쎯kkk쎯	-10.1759
tuh쎯	-10.1762
▁xg쎯kht쎯	-10.1764
▁jgm쎯aib쎯ip쎯bpf쎯	-10.1771
▁lg쎯tkgg0쎯	-10.1774
▁i쎯qy쎯	-10.1781
itd쎯	-10.1783
▁fcn쎯	-10.1786
▁ntg쎯st쎯	-10.1787
▁ssn쎯	-10.1788
▁ipk쎯xeg쎯nnh쎯yn쎯	-10.1789
▁ftx쎯rh쎯	-10.1801
▁fny쎯tu쎯	-10.1801
sfh쎯	-10.1803
▁nae쎯gm쎯	-10.181
kjj쎯	-10.181
rgf쎯	-10.1816
▁ad쎯nfc쎯	-10.1816
▁eb쎯	-10.1821
kha쎯	-10.1826
▁go쎯yu쎯	-10.1827
▁ke쎯xh쎯	-10.1827
yoo쎯	-10.183
▁wye쎯if쎯	-10.1837
▁쎀쎀	-10.1839
▁쎁쎉쎄쎇	-10.184
▁sg쎯f쎯	-10.1842
▁쎁쎉쎄쎆	-10.1844
vvf0쎯	-10.1845
▁ujn쎯ykw쎯	-10.1847
▁vi쎯ujf쎯	-10.185
▁c쎯ue쎯	-10.1853
▁ijx쎯uxt쎯ffff5쎯	-10.1856
▁쎁쎈쎀쎀	-10.1856
qtvb쎯	-10.1859
▁es쎯mqc쎯	-10.1866
hnd쎯	-10.1866
▁lqy쎯	-10.1866
▁nhj쎯rrr쎯rfm쎯	-10.1866
▁gku쎯ywfw쎯	-10.1871
qve쎯tf쎯	-10.1878
bv쎯	-10.1879
.	-10.1881
bqr쎯	-10.1882
▁ibi쎯ugl쎯	-10.1882
▁sg쎯tu쎯ip쎯dl쎯	-10.1887
▁cep쎯td쎯	-10.1888
▁yo쎯tkh쎯	-10.1888
▁ugh쎯udy쎯	-10.1895
▁wg쎯wsg0쎯	-10.19
▁i쎯s쎯	-10.1901
▁yyn1쎯ukd0쎯	-10.1902
▁ygh쎯nnh쎯	-10.1903
▁knx쎯	-10.1904
▁wht쎯nty1쎯	-10.1905
▁ynty쎯	-10.1906
▁tg쎯dhb쎯	-10.1906
▁v쎯dp쎯	-10.1909
▁cf쎯jvko쎯	-10.191
▁쎂쎄쎀	-10.1911
▁ian0쎯	-10.1912
tf쎯og쎯	-10.1914
▁ra쎯	-10.192
▁epi쎯hi쎯	-10.1923
▁jn쎯sm쎯	-10.1924
▁gmf쎯uqw쎯	-10.1924
wdn쎯te쎯ftbt쎯jgm쎯	-10.1931
▁gfi쎯bw쎯	-10.1933
▁abi쎯	-10.1936
▁qd쎯dmj1쎯	-10.1941
▁qdb쎯bwg쎯	-10.1944
ygu쎯	-10.1947
wdn쎯ugdu쎯	-10.1949
▁lfo쎯dx쎯ia쎯	-10.195
▁wc쎯dmh쎯	-10.1965
wgq쎯	-10.1967
▁ygu쎯	-10.1967
▁atd쎯jgm쎯	-10.197
▁dgh쎯maw쎯	-10.1976
▁―	-10.1976
yygt쎯itp쎯yid쎯et쎯	-10.1981
▁nh쎯wys쎯	-10.1986
▁iw쎯vfhp1쎯	-10.1986
▁rrr쎯oyvk0쎯	-10.1992
▁t쎯gu쎯	-10.1994
▁dnv1쎯ylf0쎯	-10.2002
▁um쎯qyv쎯	-10.201
yygy쎯tr쎯wk쎯ryn0쎯	-10.201
▁wwg쎯nnh쎯	-10.2011
▁g쎯gh쎯	-10.2012
▁ga쎯og쎯	-10.2012
▁sri쎯	-10.2015
▁ln쎯xwy쎯	-10.2016
wkhh쎯	-10.2016
▁rep쎯sc쎯	-10.2017
▁cy쎯f쎯	-10.2018
▁qk쎯w쎯	-10.2019
xeg쎯xkw쎯	-10.2027
▁xjm쎯	-10.203
aqk쎯	-10.2031
▁ldn쎯	-10.2035
▁drt쎯	-10.2038
▁ngk쎯if쎯	-10.2041
▁rqc쎯	-10.2042
▁og쎯	-10.2058
xu쎯	-10.2062
ukn쎯	-10.2069
▁ct쎯	-10.207
▁jvko쎯je쎯	-10.2074
▁wxd쎯	-10.2078
▁itp쎯	-10.208
▁gmww쎯rh쎯	-10.2081
쎉쎈	-10.2086
▁ovt쎯rnd1쎯ylk2쎯	-10.2086
▁쎁쎀쎀%	-10.2088
▁ijl쎯riu쎯	-10.209
▁jn쎯kkd쎯	-10.209
▁qje쎯	-10.2091
inx쎯	-10.2092
▁yn쎯nn쎯	-10.2093
▁fk쎯ss쎯	-10.2093
fhv쎯	-10.2099
▁yvh쎯wa쎯	-10.2099
▁ukn쎯wc쎯ngk쎯	-10.2099
ian0쎯	-10.211
yaa쎯	-10.2116
▁iv쎯rh쎯	-10.2117
▁fhv쎯xe쎯	-10.2122
▁trf쎯pg쎯	-10.2128
▁ffi쎯	-10.2131
mqq쎯xtk쎯	-10.2133
▁ymd쎯	-10.2134
▁dr쎯vck쎯	-10.2139
▁ip쎯fghg쎯	-10.2145
▁tep쎯je쎯	-10.2155
▁fqp쎯tkgg0쎯	-10.2155
▁ud쎯qvfp1쎯	-10.2159
▁py쎯lft쎯	-10.2162
▁gjq쎯usr쎯	-10.2163
▁fj쎯fghg쎯	-10.2163
▁w쎯lt쎯uqwm0쎯idr쎯	-10.2168
▁wxf쎯ai쎯	-10.2169
rtol1쎯	-10.217
▁khgm4쎯	-10.2177
▁lfnh쎯vjsj쎯	-10.218
▁ynk쎯fcl쎯	-10.2181
▁qrm쎯	-10.2181
▁pj쎯pg쎯	-10.2181
▁pu쎯og쎯	-10.2181
▁iex쎯	-10.2182
▁qt쎯bb쎯	-10.2193
jn쎯pym쎯	-10.2194
jh쎯	-10.2197
▁mpf쎯	-10.2198
▁g쎯gd쎯	-10.2202
▁iq쎯ip쎯	-10.2205
▁eb쎯tl쎯kkd쎯	-10.2207
▁gkp쎯e쎯	-10.2214
jjj쎯	-10.2214
▁uc쎯	-10.2217
▁tgj쎯pym쎯	-10.2218
▁iyo쎯	-10.222
m쎯su쎯	-10.2222
ysi쎯	-10.2222
usg쎯	-10.2224
▁sc쎯	-10.2224
▁h쎯dm쎯	-10.2241
▁ym쎯ijl쎯	-10.2243
di쎯	-10.2253
쎆쎄	-10.2253
▁cep쎯et쎯	-10.2256
qm쎯	-10.2262
▁aw쎯ybf0쎯	-10.2263
psu쎯	-10.2264
pd쎯	-10.2265
▁gr쎯	-10.2267
▁km쎯	-10.2268
▁mq쎯jy쎯aq쎯	-10.2275
▁smu1쎯	-10.2277
▁xyna0쎯tv쎯	-10.2278
▁ftb쎯	-10.2279
tdt쎯	-10.2282
▁sh쎯xf쎯wgk쎯	-10.2283
▁avi쎯	-10.2287
▁oge쎯ny쎯	-10.2295
▁gm쎯pu쎯	-10.2295
▁vtkd1쎯	-10.2295
adn쎯	-10.2297
▁ih쎯gtu쎯	-10.2299
▁쎀쎉	-10.2302
ui쎯	-10.2303
▁egc쎯xe쎯	-10.2304
▁vf쎯ra쎯	-10.2309
▁fha쎯go쎯fha쎯	-10.231
▁g쎯nnh쎯	-10.2313
▁aws쎯kf쎯	-10.2314
▁caq쎯fcl쎯	-10.2316
▁vi쎯	-10.2316
▁uk쎯wug1쎯	-10.2318
▁klj쎯jfcf쎯	-10.232
tgj쎯s쎯	-10.232
▁atd쎯tg쎯	-10.2323
▁wys쎯wsg0쎯	-10.2323
▁ym쎯kkk쎯rfm쎯	-10.2326
▁h쎯mqq쎯	-10.2327
tqq쎯	-10.2328
apl쎯	-10.233
▁wqu쎯	-10.2331
▁te쎯	-10.2332
▁ltu쎯pvs쎯	-10.2333
▁ip쎯rb1쎯	-10.2338
▁djd쎯iyt0쎯	-10.2343
▁oft쎯	-10.2344
▁쎁쎂쎈	-10.2346
etj쎯	-10.2349
you1쎯	-10.2351
▁vtk쎯wsg0쎯	-10.2353
dcg쎯	-10.2354
ktm쎯	-10.2359
▁rpws쎯yfy1쎯	-10.236
▁iqc쎯cep쎯	-10.2367
▁tn쎯pnt쎯	-10.2368
▁iie쎯by쎯	-10.2373
▁tfq쎯fj쎯wh쎯w쎯	-10.2374
▁mdf쎯dgtg쎯	-10.2377
▁쎀쎈	-10.2378
▁y쎯wtf쎯tv쎯km쎯	-10.2381
uwyc0쎯	-10.2381
▁wh쎯wsg0쎯	-10.2384
▁쎀쎇	-10.2388
▁tg쎯dn쎯	-10.2394
▁swb쎯	-10.2398
▁쎁쎉쎃쎀	-10.2399
▁sh쎯wny0쎯	-10.24
▁xh쎯nf쎯	-10.2404
쎇쎅	-10.2405
▁gogn쎯	-10.2405
bt쎯	-10.2406
yce쎯	-10.2408
▁lgey0쎯nf쎯	-10.2413
ruv쎯kkkk0쎯	-10.2414
ri쎯	-10.2415
pwfi쎯	-10.2416
▁std쎯ivw쎯	-10.2418
▁yynw1쎯suq쎯	-10.2419
▁tga쎯fh쎯	-10.242
▁yw쎯fhw쎯	-10.2421
a쎯wt쎯	-10.2421
▁wc쎯py쎯	-10.2424
▁nge쎯dgkn쎯	-10.2435
wcw쎯	-10.2437
▁ssq쎯shn쎯	-10.2442
▁wnt쎯	-10.2449
▁ukn쎯xyc쎯	-10.245
▁ef쎯	-10.2456
▁pfq쎯	-10.2458
▁kw쎯ce쎯	-10.2461
▁aps쎯	-10.2463
egl쎯	-10.2464
▁etg쎯	-10.2466
▁e쎯w쎯	-10.2466
▁tgm쎯ltk쎯	-10.2468
▁i쎯tj쎯	-10.247
▁grd쎯	-10.2473
▁lfq쎯aq쎯	-10.2475
▁rd쎯nae쎯	-10.248
▁saj쎯hw쎯	-10.2486
ftb쎯	-10.2492
ec쎯	-10.2493
▁nui쎯tf쎯	-10.2496
▁ym쎯dfy쎯	-10.2496
▁vyi0쎯	-10.2497
▁sj쎯	-10.2498
▁wf쎯ta쎯	-10.2502
▁sq쎯vfhp1쎯	-10.2503
▁fj쎯bm쎯kkkk0쎯	-10.2504
.쎃	-10.2513
▁nty1쎯fj쎯	-10.252
▁if쎯ip쎯	-10.2524
l쎯w쎯n쎯qev쎯yt쎯pl쎯	-10.2528
▁qyvl쎯gh쎯	-10.253
▁itol쎯	-10.2531
▁dm쎯ow쎯	-10.2533
▁usr쎯vfhp1쎯	-10.2534
▁fl쎯wf쎯gj쎯gk쎯	-10.2535
▁m2	-10.2541
▁ght쎯	-10.2549
▁쎁쎉쎄쎀	-10.2549
▁xo쎯bd쎯	-10.2552
atd쎯tu쎯dd쎯ip쎯	-10.2554
ul쎯	-10.2559
▁m쎯hi쎯	-10.2563
▁쎅쎂	-10.2563
▁쎁쎉쎃쎉	-10.2564
▁tu쎯ta쎯	-10.2565
▁wyo쎯	-10.2566
qnr쎯	-10.2567
▁je쎯jtg쎯	-10.2568
pa쎯	-10.2568
▁sg쎯tmd쎯	-10.2574
▁aet0쎯yygy쎯	-10.2574
▁emc쎯sfiu0쎯	-10.2575
▁rs쎯ga쎯	-10.2579
▁uqt쎯yx쎯	-10.2579
▁wvf쎯tmd쎯	-10.2588
▁wwwk쎯tq쎯	-10.2591
wnt쎯	-10.2592
itd쎯fcl쎯	-10.2593
▁ad쎯sg쎯cd쎯ovt쎯	-10.2595
▁rdj쎯gq쎯	-10.2596
ttd쎯	-10.2598
▁vfhp1쎯sft쎯	-10.26
au쎯	-10.2605
aig쎯	-10.2612
akgl쎯	-10.2618
▁ps쎯ihc쎯	-10.2619
▁tgjn0쎯	-10.2621
▁fh쎯gc쎯	-10.2621
▁sm쎯jn쎯	-10.2623
wwwk쎯	-10.2628
▁gb쎯	-10.2629
▁bib쎯ovt쎯	-10.263
▁mhr쎯	-10.263
▁de쎯shi쎯ow쎯	-10.2634
▁jghy쎯	-10.2636
▁srm쎯	-10.2636
▁xa쎯pl쎯	-10.2641
▁ywe쎯ick쎯	-10.2641
▁쎁.쎂	-10.2644
▁go쎯gc쎯	-10.2645
▁dgh쎯ftx쎯	-10.2646
tfpd쎯	-10.265
tgjn0쎯	-10.2651
▁wbj쎯vck쎯w쎯	-10.2652
ad쎯qqqq1쎯	-10.2654
▁fgh쎯g쎯	-10.2655
▁yoo쎯	-10.2658
▁g쎯fnrt쎯	-10.2659
▁pnt쎯fffy쎯	-10.266
fii쎯	-10.2665
▁aqg쎯aqr쎯	-10.2668
vnu1쎯	-10.2682
▁hq쎯ds쎯	-10.2683
tym쎯	-10.2684
▁k쎯l쎯tu쎯ip쎯bpf쎯	-10.269
▁yvi쎯tjt쎯	-10.269
▁쎄쎆	-10.2691
▁udb쎯ytyh쎯	-10.2692
wynb쎯	-10.2694
▁pujn1쎯qc쎯	-10.2699
▁qq쎯al쎯ce쎯	-10.2704
▁nnh쎯tdij쎯	-10.2705
▁kh	-10.2708
▁ll쎯bb쎯	-10.2711
▁v쎯fcl쎯sm쎯	-10.2717
▁tuj쎯wj쎯	-10.2718
eerq쎯	-10.2719
rf쎯	-10.272
wwkw1쎯	-10.2722
▁pds쎯	-10.2723
▁js쎯pu쎯	-10.2726
▁dpq쎯	-10.2728
e쎯hxf쎯	-10.273
ryn0쎯	-10.2736
▁쎄쎄	-10.2736
▁fggh쎯uqv쎯	-10.274
nhj쎯	-10.2745
▁naw쎯	-10.2747
▁gmww쎯uqw쎯	-10.2749
▁bv쎯rmhj쎯	-10.275
▁tg쎯fcl쎯	-10.2753
▁gk쎯tl쎯	-10.2753
▁_	-10.2755
▁dw0쎯to쎯	-10.2756
▁qm쎯	-10.2756
gw쎯	-10.2757
▁wr쎯	-10.2759
▁quj쎯udi쎯	-10.2765
▁f쎯qr쎯	-10.2765
▁uce쎯	-10.2768
▁trf쎯e쎯	-10.2769
▁tjh쎯uwl쎯	-10.2772
▁wg쎯ta쎯	-10.2777
▁dgt1쎯yny0쎯	-10.2777
▁pv쎯rdj쎯	-10.2777
▁lfnh쎯xat쎯	-10.2781
▁w쎯gk쎯	-10.2781
yygy쎯wx쎯	-10.2782
▁qmq쎯qr쎯	-10.2783
▁쎂쎀쎁쎄	-10.2783
▁ytey쎯	-10.2784
▁uji1쎯	-10.2789
fd쎯egc쎯	-10.279
▁rg쎯adwe1쎯	-10.2793
jgf쎯	-10.2799
▁wdt쎯if쎯	-10.2801
▁udg2쎯	-10.2806
▁txg쎯jjjj쎯	-10.2807
ulg쎯	-10.2813
▁fcp쎯wt쎯	-10.2815
▁nhj쎯rrr쎯	-10.2816
▁dg쎯xe쎯	-10.2818
▁xeg쎯xkw쎯uk쎯	-10.282
▁xk쎯gqjo0쎯	-10.2821
▁img쎯gl쎯	-10.2822
▁gjh2쎯	-10.2822
▁g쎯wdm쎯	-10.2824
▁fhu쎯tm쎯	-10.2825
▁awb쎯	-10.2826
▁fct쎯	-10.2829
xj쎯d쎯	-10.283
▁쎃쎉	-10.2834
py쎯wf쎯	-10.2835
▁dgt1쎯um쎯	-10.2835
▁tep쎯	-10.2835
▁qkq쎯umc쎯	-10.2838
▁qnq쎯wyv쎯	-10.2839
▁bde쎯sm쎯	-10.2843
▁v쎯yce쎯	-10.2849
▁riq쎯hka쎯	-10.2855
▁eyni쎯	-10.2856
▁fkuc1쎯	-10.2857
▁um쎯sfi쎯	-10.2857
▁vep쎯ws쎯	-10.286
▁tx쎯ag쎯	-10.2862
▁jgm쎯uqwm0쎯	-10.2865
vq쎯	-10.2866
▁wfny0쎯dskf쎯	-10.2867
▁rh쎯hwbc쎯	-10.2867
▁ipw쎯ya쎯	-10.2868
▁fm쎯fje쎯	-10.2871
srg쎯	-10.2875
pdc쎯	-10.2875
▁xk쎯wx쎯	-10.2889
▁fjt쎯btg쎯	-10.2892
▁thl쎯	-10.2903
▁vk쎯wynb쎯	-10.2903
▁dga쎯pwv쎯pgc쎯	-10.2904
▁dn쎯ftjb쎯ymhj쎯	-10.2914
.쎀쎁	-10.2917
▁puhc쎯iwyf2쎯o쎯	-10.2918
▁fnrt쎯h쎯	-10.2923
▁nk쎯qkq쎯	-10.2925
▁rnb쎯qje쎯	-10.2928
▁쎄쎁	-10.293
▁dfny0쎯	-10.2935
xo쎯	-10.2937
▁sm쎯kkd쎯	-10.2949
▁fny쎯jghm1쎯	-10.2954
▁gogj쎯tak쎯	-10.2958
gqjo0쎯	-10.296
▁wdn쎯ahty쎯	-10.2962
▁ukn쎯ovt쎯	-10.2967
▁m쎯g쎯	-10.297
쎅쎇	-10.2972
▁bb쎯wc쎯ngk쎯	-10.2973
▁wht쎯vfhp1쎯	-10.2974
▁kmh쎯	-10.2974
▁hid쎯uthp쎯	-10.2978
▁usg쎯	-10.298
jtyl쎯hich쎯tp쎯gj쎯	-10.2981
mfky쎯	-10.2984
▁ih쎯qt쎯	-10.299
iyv쎯	-10.2993
▁쎄쎀쎀쎀	-10.2996
▁eb쎯tl쎯k쎯ny쎯	-10.2996
ldj쎯	-10.3002
▁pfjs쎯	-10.3003
sks쎯	-10.3005
▁gah쎯ic쎯ymhj쎯	-10.3006
▁iu쎯	-10.3006
gb쎯	-10.3012
▁lks쎯	-10.3014
bg쎯tg쎯	-10.3017
▁oge쎯pnt쎯	-10.3017
rymn쎯	-10.3018
▁fmk쎯	-10.3018
nyi2쎯	-10.302
▁rnu쎯wx쎯	-10.3027
▁xm쎯	-10.3027
▁dgh쎯fd쎯	-10.3038
ubtf쎯	-10.3038
▁tdg1쎯wy쎯	-10.304
▁nty1쎯xyna0쎯	-10.304
▁atg쎯	-10.3043
▁iwt쎯	-10.3046
▁bm쎯thd쎯	-10.3061
tmgk2쎯	-10.3065
▁ugh쎯	-10.3067
jm쎯	-10.307
▁쎇쎀쎀	-10.3071
▁쎁쎉쎃쎁	-10.3072
x쎯iyj쎯	-10.3072
my쎯	-10.3076
▁gxgu쎯	-10.3077
▁pyg쎯ytyh쎯	-10.3079
▁uqwm0쎯ipw쎯	-10.3084
goi쎯	-10.3085
▁yps쎯	-10.3088
▁bfm쎯pl쎯	-10.309
▁xqc쎯cf쎯	-10.3095
▁jgm쎯aib쎯dd쎯ip쎯	-10.3096
tffy0쎯	-10.3098
▁oge쎯amd쎯	-10.3099
▁ugdu쎯vb쎯	-10.3104
▁iqgg쎯	-10.311
▁jjjj쎯bm쎯	-10.3112
▁gc쎯dp쎯	-10.3119
▁gh쎯ntk쎯	-10.3122
▁vk쎯hx쎯	-10.3122
▁d쎯gf쎯	-10.3122
▁gkih쎯gj쎯	-10.3125
▁qq쎯qk쎯	-10.3128
▁ygk쎯yygy쎯	-10.313
uwa쎯	-10.3141
▁uo쎯ynm쎯	-10.3142
wvf쎯	-10.3142
▁rtf쎯	-10.3145
▁쎀쎆	-10.3146
▁g쎯wsg0쎯wx쎯	-10.3148
kgd쎯	-10.3148
▁adw쎯uj쎯	-10.315
▁lq쎯cn쎯	-10.3153
▁0	-10.3157
▁apg쎯dgh쎯	-10.316
▁qnq쎯	-10.3171
atd쎯ip쎯	-10.3171
xan쎯	-10.3174
▁qyvl쎯ip쎯	-10.3175
vs쎯	-10.3176
▁esv쎯	-10.3179
▁gj쎯	-10.3182
▁wycb쎯	-10.3182
enr쎯	-10.3187
▁k쎯yygy쎯txi쎯	-10.319
siq쎯	-10.319
▁se쎯o쎯	-10.3196
▁dga쎯	-10.3199
wt쎯et쎯	-10.3202
▁fnh쎯	-10.3204
▁쎁쎉쎆쎇	-10.3206
ap쎯	-10.3211
▁ygh쎯je쎯	-10.3214
nt쎯	-10.3214
▁bg쎯jtg쎯	-10.3215
쎃쎂	-10.322
▁up쎯	-10.3222
▁±	-10.3223
▁wt쎯og쎯	-10.3225
fhb쎯	-10.3226
▁wsg0쎯tkw쎯	-10.3227
ajd쎯	-10.3235
▁wtfm3쎯	-10.3235
▁kt쎯ke쎯	-10.3245
▁rvy쎯if쎯	-10.3245
rr쎯	-10.3249
ud쎯txi쎯	-10.3254
▁tv쎯rta쎯	-10.3255
▁udyj쎯tg쎯	-10.3257
adj쎯	-10.3261
▁ddh쎯uyh쎯	-10.3267
▁sh쎯wycb쎯	-10.3268
▁gk쎯nge쎯	-10.3276
▁쎅쎆	-10.3277
fof쎯	-10.3277
.쎀쎆	-10.3279
diu1쎯	-10.3281
▁dr쎯wbj쎯	-10.3282
▁kqw쎯	-10.3284
▁nf쎯	-10.3287
▁khx쎯	-10.329
▁ic쎯ygk쎯	-10.329
rhj쎯	-10.3291
fnhc1쎯	-10.3296
▁vvv쎯qt쎯	-10.3297
▁ruv쎯nh쎯	-10.3302
▁eb쎯qnth쎯	-10.3305
▁wc쎯uwl쎯	-10.3306
wj쎯	-10.3308
▁ige쎯wxf쎯dd쎯ip쎯	-10.331
▁쎀쎅	-10.3316
▁oq쎯	-10.3317
▁ndj쎯	-10.3318
▁wv쎯sfc쎯	-10.3319
▁pnt쎯dcg쎯	-10.3319
es쎯	-10.332
▁iie쎯wx쎯	-10.3323
▁tp쎯uthp쎯	-10.3324
ytm쎯	-10.3326
uxh쎯	-10.3331
▁nu쎯nxf쎯	-10.3333
rnu쎯	-10.3335
▁jb쎯puv쎯	-10.3336
▁ymf쎯ou쎯	-10.3338
▁xx쎯vk쎯	-10.3342
▁쎁쎉쎄쎁	-10.3343
▁tx쎯fg쎯nm쎯	-10.3345
rnd1쎯	-10.3346
▁rtf쎯sgmj쎯	-10.335
▁lfn쎯rq쎯	-10.3355
▁lwg쎯udp쎯	-10.3359
▁iyw쎯dfy쎯	-10.3359
▁kn쎯wdt쎯	-10.3361
▁cb쎯	-10.3363
bq쎯	-10.3365
dga쎯	-10.3365
▁dd쎯isgg0쎯yhk쎯	-10.3366
▁ˇ	-10.3366
▁mfky쎯ynt쎯	-10.3369
▁wht쎯tjt쎯	-10.3373
▁khn쎯	-10.3373
▁fggh쎯gk쎯	-10.3373
▁xjm쎯et쎯	-10.3374
jel쎯	-10.3375
▁ga쎯rd쎯	-10.3378
▁gg쎯wh쎯	-10.3381
fcr쎯	-10.3388
▁uu쎯wsg0쎯	-10.3389
▁fd쎯xte쎯	-10.339
▁pwt쎯kkkk0쎯	-10.3395
idt쎯	-10.34
쎄쎅	-10.3405
▁---	-10.3405
qkqp쎯	-10.3412
▁pe쎯nd쎯	-10.3417
▁awsk쎯uff쎯	-10.3417
▁uqv쎯	-10.342
▁pl쎯aq쎯	-10.342
yygy쎯ip쎯	-10.3425
▁nty1쎯qk쎯	-10.3429
▁ukqb0쎯qv쎯lt쎯	-10.3429
▁wk쎯qyvl쎯	-10.343
▁xxm쎯	-10.3432
▁쎁쎉쎃쎂	-10.3433
▁v쎯fhn쎯	-10.3435
▁iqpl1쎯or쎯	-10.3436
▁c쎯w쎯o쎯sg쎯	-10.344
▁ln쎯ftg쎯	-10.3442
▁ijo쎯ya쎯	-10.3447
f쎯wgkb2쎯ufk0쎯qv쎯	-10.3448
▁ugdu쎯sy쎯pe쎯	-10.345
▁쎁쎉쎄쎂	-10.345
▁fgh쎯gg쎯	-10.3454
tk쎯	-10.3458
▁fmy1쎯	-10.3459
▁sqj쎯eu쎯	-10.346
▁xnf쎯xq쎯	-10.3461
xh쎯	-10.3467
▁쎀쎃	-10.3469
▁em쎯	-10.3471
▁ojf쎯ruv쎯	-10.3472
▁sk쎯dp쎯	-10.3473
▁dmd쎯	-10.3478
uqi쎯	-10.3478
uxe쎯	-10.3478
▁qhk쎯	-10.3481
ypeu쎯	-10.3483
▁pym쎯ipmq쎯	-10.3484
▁ymhj쎯ght쎯	-10.3491
xf쎯sq쎯	-10.3492
wwv쎯	-10.3493
qlp쎯	-10.3495
▁wfny0쎯dgkn쎯kkd쎯	-10.3499
ef쎯	-10.3503
▁saj쎯fnw쎯	-10.3503
▁aq쎯klj쎯	-10.3503
▁jfd쎯dm쎯	-10.3504
▁yny0쎯uj쎯	-10.3505
uyiy0쎯	-10.3506
▁tqq쎯	-10.3507
▁udy쎯ukq쎯	-10.3509
▁qmq쎯ggw쎯	-10.3551
ynk쎯	-10.3553
▁tgj쎯vfhp1쎯	-10.3556
iaqg쎯	-10.3557
▁g쎯kw쎯	-10.3558
▁lg쎯uj쎯	-10.356
▁nnh쎯gl쎯pe쎯	-10.356
qvfp1쎯	-10.3562
tmh0쎯	-10.3564
▁ai쎯fm쎯gog쎯	-10.3567
▁ww쎯hx쎯	-10.3571
rgd쎯	-10.3571
edm쎯	-10.3571
▁ukqb0쎯pfjm1쎯	-10.3573
▁qiu0쎯	-10.3577
hxf쎯	-10.3583
▁ya쎯wnh쎯	-10.3588
▁tld1쎯iyw쎯	-10.359
▁쎁쎉쎄쎄	-10.3599
▁sff0쎯	-10.3602
▁cf쎯yy쎯	-10.3604
sm쎯sa쎯	-10.3605
▁ifn쎯ivs쎯	-10.3614
▁yb쎯ga쎯	-10.3614
▁cep쎯uthp쎯	-10.3615
▁oyn쎯	-10.3616
▁쎉쎉	-10.3617
▁ymhj쎯ta쎯	-10.3617
▁dmh쎯nnk쎯	-10.3622
▁fhv쎯ymhj쎯	-10.3622
▁nfc쎯uqw쎯	-10.3625
w쎯km쎯	-10.3626
▁쎅쎁	-10.3627
▁dd쎯rnb쎯	-10.3627
▁qq쎯ovt쎯	-10.363
▁ub쎯	-10.3631
▁jhny쎯	-10.3632
▁dd쎯std쎯	-10.3634
▁wdn쎯ugdu쎯	-10.3637
drt쎯	-10.3638
▁jpx쎯	-10.3638
▁dy쎯gu쎯	-10.3639
▁dd쎯xq쎯	-10.3641
▁uy쎯rh쎯	-10.3643
▁ugm쎯w쎯	-10.3645
▁yssc2쎯if쎯	-10.3647
▁dff0쎯	-10.3647
ldd쎯	-10.3655
▁gef쎯dw0쎯	-10.3656
▁vfhp1쎯l쎯	-10.3657
▁fha쎯fm쎯	-10.3658
▁mt쎯rh쎯	-10.3661
▁ttd쎯	-10.3662
▁iha쎯	-10.3663
bwj쎯	-10.3664
▁wdn쎯hko쎯	-10.3665
▁hwb쎯	-10.3666
▁tq쎯pp쎯o쎯	-10.367
▁wxm쎯tmh0쎯	-10.3671
yssr쎯	-10.3673
▁qqqq1쎯uqd0쎯	-10.3674
drin쎯	-10.3678
▁uvo쎯bk쎯	-10.3679
▁ynma쎯	-10.3681
▁rdf1쎯fcl쎯	-10.3685
▁lkd쎯gc쎯	-10.3686
▁ftg쎯pwfi쎯	-10.3687
▁ldd쎯pg쎯uqwm0쎯u쎯	-10.3687
▁thp쎯wjh쎯	-10.3689
▁iyc쎯fcl쎯	-10.3691
▁ykw쎯klj쎯	-10.3692
▁pgj쎯wfny0쎯uk쎯	-10.3693
▁god쎯yak쎯	-10.3694
.쎀쎄	-10.3696
▁it쎯vvv쎯	-10.3698
▁temk쎯ter1쎯	-10.3699
▁ythp0쎯tg쎯	-10.37
pv쎯egc쎯	-10.3702
▁naj1쎯ipkh1쎯	-10.3703
▁thd쎯xln1쎯	-10.3707
▁puv쎯adwe1쎯	-10.3709
▁ians0쎯uthp쎯	-10.371
▁dj쎯vtg쎯	-10.3712
▁jm쎯gc쎯	-10.3718
▁ujq쎯	-10.3718
▁tld1쎯tp쎯	-10.3718
▁bd쎯qn쎯	-10.3727
▁ajj쎯sg쎯	-10.3727
xyc쎯	-10.3729
▁yf쎯jg쎯	-10.3732
kcb쎯	-10.3733
▁ijl쎯ytyh쎯	-10.3736
dhd쎯	-10.3739
uter쎯	-10.374
▁ygk쎯ujf쎯	-10.3742
▁so쎯bm쎯	-10.3746
vv쎯	-10.3747
▁lfn쎯wx쎯	-10.3749
▁br쎯	-10.3749
▁ige쎯itf쎯	-10.3749
▁ga쎯ud쎯	-10.3755
▁rh쎯puv쎯	-10.3756
▁jgm쎯tg쎯	-10.3757
▁th쎯ta쎯	-10.3759
▁yf쎯aj쎯tg쎯yce쎯	-10.376
▁ai쎯fm쎯uk쎯	-10.3764
▁egcn쎯	-10.3766
▁rqci0쎯lt쎯	-10.3767
▁ruv쎯tffy0쎯	-10.3773
▁i쎯td쎯	-10.3775
tei쎯	-10.3776
▁bk쎯tq쎯	-10.3778
oyv쎯	-10.3778
▁au쎯	-10.3783
▁g쎯thg0쎯	-10.3783
▁jx쎯jhny쎯	-10.3794
▁jgm쎯aib쎯	-10.3797
▁쎅쎈	-10.3803
▁riu쎯	-10.3807
쎅쎈	-10.381
wy쎯thn쎯	-10.3813
▁gq쎯o쎯	-10.3816
fym쎯	-10.3817
▁wdt쎯gc쎯	-10.3818
▁dx쎯mdf쎯	-10.3818
▁jghm1쎯sft쎯	-10.3819
▁iy쎯mm쎯uqwm0쎯sg쎯	-10.3822
▁yw쎯pg쎯	-10.3827
hid쎯	-10.3831
lu쎯	-10.3833
2쎯	-10.3834
▁qk쎯pe쎯	-10.3837
▁iv쎯ue쎯	-10.3838
▁wy쎯et쎯	-10.3838
rhf쎯	-10.3842
▁wg쎯aq쎯	-10.3845
▁ijo쎯	-10.3845
▁fwm쎯mj쎯	-10.3859
▁awx쎯faj쎯	-10.386
▁iq쎯caq쎯	-10.3864
▁ulg쎯	-10.3866
▁qt쎯	-10.387
tuu쎯	-10.3872
▁je쎯dqe쎯	-10.3877
▁dj쎯rh쎯	-10.3879
▁wa쎯ge쎯wt쎯	-10.3881
▁imj쎯pg쎯	-10.3882
▁sghg1쎯ux쎯uk쎯	-10.3885
▁hnd쎯	-10.389
▁pfqf쎯	-10.389
▁uwl쎯	-10.3892
qv쎯	-10.3893
ex쎯	-10.3895
sqt쎯	-10.3897
▁wc쎯y쎯	-10.3899
▁pp쎯tq쎯	-10.3901
w쎯n쎯ght쎯ywf쎯	-10.3903
▁by쎯ryn0쎯	-10.3907
▁kjj쎯thg0쎯	-10.391
▁gmi쎯iry쎯	-10.3912
▁ls쎯cw쎯	-10.3913
▁쎉쎆	-10.3915
▁rvh쎯fpx쎯	-10.3916
▁pa쎯gkp쎯	-10.3917
▁tkh쎯sfhg쎯og쎯	-10.392
▁agu쎯js쎯	-10.3922
▁egl쎯	-10.3923
▁ytt쎯	-10.3925
▁yo쎯gae쎯	-10.3933
icw쎯	-10.3934
▁ty쎯ipk쎯	-10.3935
▁nc쎯ulg쎯	-10.3938
▁lqj쎯	-10.3944
io쎯	-10.3946
▁nnl쎯	-10.3951
▁xn쎯	-10.3955
▁쎁쎉쎂쎉	-10.3956
▁aq쎯tv쎯	-10.3957
▁tk쎯dd쎯	-10.3965
▁tt쎯gl쎯	-10.3967
▁tcy쎯	-10.3969
aeu쎯	-10.3977
▁edm쎯	-10.398
▁qci쎯	-10.3982
▁gu쎯dr쎯	-10.3982
▁oa쎯mdo쎯	-10.3985
▁k쎯mmm쎯	-10.3987
▁db쎯	-10.399
▁쎈쎅	-10.3991
▁pdc쎯	-10.3995
▁yssr쎯	-10.3996
▁fiyt쎯	-10.3998
▁g쎯od쎯	-10.4002
▁vgk쎯	-10.4007
▁dcw쎯djb쎯	-10.4007
▁dtf쎯	-10.4011
▁ruv쎯rp쎯	-10.4014
▁tmdf1쎯	-10.4015
▁uqt쎯yid쎯	-10.4016
▁uuj쎯syp쎯	-10.4016
▁tga쎯	-10.4018
▁yfy1쎯ywx쎯	-10.4018
▁anb0쎯	-10.4022
▁쎈쎆	-10.4024
▁wfkb쎯	-10.4027
▁iytb0쎯fmk쎯bw쎯	-10.4027
▁fq쎯bv쎯	-10.4041
▁zzy7쎯	-10.4045
▁bc쎯bm쎯	-10.4047
▁ige쎯jsr쎯	-10.4049
▁dgj쎯wrh2쎯	-10.4049
wbb쎯	-10.4051
qgu쎯	-10.4054
atj쎯	-10.4059
▁lkm쎯	-10.4062
▁mfky쎯ubtf쎯	-10.4063
▁td쎯ykw쎯u쎯sc쎯	-10.4064
쎃쎈	-10.4066
▁xjk쎯	-10.4072
iff1쎯	-10.4072
▁ii쎯tjh쎯	-10.4073
▁ai쎯yiu쎯	-10.4075
▁dg쎯l쎯	-10.4076
gmi쎯	-10.4076
▁yjjh1쎯	-10.4079
bl쎯	-10.4084
▁mtd쎯	-10.4085
ywe쎯	-10.4087
▁qje쎯tgh쎯	-10.4088
▁ubt쎯	-10.4091
▁suf쎯hhhh쎯	-10.4091
▁bp쎯	-10.4091
▁suq쎯aq쎯	-10.4092
▁vkf1쎯ga쎯	-10.4094
epw쎯	-10.4094
▁쎉쎅	-10.4094
▁m쎯ip쎯	-10.4104
lftj쎯	-10.4105
▁aqq쎯ugdu쎯	-10.4107
▁fge쎯fghg쎯rg쎯	-10.4108
▁qdm쎯	-10.4109
▁ynj쎯	-10.4112
.쎄	-10.4117
ydm쎯	-10.4119
yyn1쎯	-10.412
lf쎯	-10.4121
sri쎯	-10.4122
▁pww쎯xmw쎯	-10.4128
▁tfk쎯oy쎯	-10.4129
▁rf쎯	-10.413
▁ftx쎯w쎯	-10.4131
▁pyuf쎯	-10.4132
▁iyw쎯	-10.4132
▁f쎯hko쎯	-10.4132
▁ll쎯w쎯	-10.4136
▁rvyo쎯gkp쎯	-10.4137
▁oh쎯	-10.4139
▁fp쎯iha쎯	-10.4141
▁rx쎯v쎯	-10.4142
▁aj쎯	-10.4143
▁ytn쎯lfn쎯	-10.4147
▁waw쎯jn쎯	-10.4148
▁jn쎯kht쎯	-10.4149
jf쎯uj쎯	-10.415
▁xxf쎯og쎯tg쎯	-10.4151
▁i쎯yud0쎯	-10.4152
▁mwyc1쎯	-10.4156
▁wgk쎯ec쎯	-10.4165
▁tuk쎯	-10.4168
wb쎯	-10.4168
shi쎯	-10.4172
▁kcg쎯	-10.4173
▁ymhj쎯k쎯ny쎯	-10.4174
▁tk쎯l쎯	-10.4176
▁qnth쎯ipg쎯	-10.4176
▁fuk쎯yce쎯	-10.4178
▁uyiy0쎯	-10.4182
▁fh쎯uu쎯	-10.4183
yssd0쎯	-10.4192
qaj쎯	-10.4193
twf쎯	-10.4197
uk쎯xe쎯	-10.42
▁dgt1쎯pe쎯	-10.4204
▁adk쎯fggh쎯	-10.4205
mty1쎯	-10.4206
▁쎁쎉쎄쎃	-10.4213
▁ii쎯wv쎯	-10.4213
▁klj쎯w쎯	-10.4219
▁y쎯ick쎯	-10.422
▁|	-10.422
ebn0쎯	-10.422
▁igd쎯lk쎯	-10.4223
tduh쎯	-10.4224
wuk쎯	-10.4226
▁tx쎯g쎯u쎯og쎯	-10.4226
▁mqq쎯dmu0쎯	-10.4232
▁se쎯dd쎯	-10.4232
▁gkf쎯	-10.4233
▁ygu쎯ywx쎯	-10.4239
uqv쎯	-10.424
▁sfc쎯	-10.4241
▁u쎯og쎯wx쎯	-10.4242
▁dt쎯	-10.4243
▁rae쎯	-10.4244
▁jhk1쎯	-10.4253
▁trf쎯tkh쎯	-10.4258
▁rnn1쎯	-10.4263
yon쎯	-10.4269
▁jvko쎯	-10.4269
▁cm쎯ipkm0쎯	-10.4271
▁rap쎯bm쎯	-10.4273
▁e쎯rn쎯	-10.4275
▁dyn쎯ya쎯	-10.4276
▁rytp0쎯yge쎯	-10.4277
▁syg쎯	-10.4279
▁uthp쎯tfl쎯	-10.428
hn쎯	-10.4282
▁it쎯ovt쎯n쎯ytt쎯	-10.4291
▁bm쎯fnrt쎯	-10.4292
bwg쎯	-10.4293
▁gx쎯	-10.4295
▁pp쎯qh쎯	-10.4306
sgyb쎯	-10.4309
▁pt쎯fcp쎯	-10.4311
▁쎄쎇	-10.4311
puh쎯	-10.4315
▁di쎯	-10.4318
▁k쎯e쎯	-10.4318
▁fgh쎯wty쎯	-10.432
do쎯	-10.4322
▁qkq쎯	-10.4322
uygh1쎯	-10.4323
▁wygg쎯yny0쎯	-10.4324
▁jtyl쎯pwfi쎯	-10.4326
▁jo쎯fi쎯nua쎯	-10.4336
syp쎯	-10.4339
▁쎅쎄	-10.4341
▁jc쎯	-10.4344
▁nkuf쎯	-10.4346
▁dwiu쎯l쎯	-10.4348
san쎯	-10.435
hm쎯	-10.4351
an쎯lwj쎯	-10.4352
▁rw쎯fcu1쎯	-10.4357
▁qvn2쎯ntg쎯	-10.4358
▁pgf1쎯pm쎯	-10.4358
▁ytey쎯pt쎯	-10.4358
▁쎅쎃	-10.436
▁sh쎯wy쎯	-10.4363
awn쎯	-10.4375
yc쎯	-10.4377
▁tdij쎯xfm쎯	-10.4377
▁uqt쎯uwl쎯	-10.4382
▁yni1쎯fqp쎯	-10.4386
aah쎯	-10.4387
▁wdy1쎯	-10.4394
▁g쎯fnw쎯	-10.4396
▁wjjg쎯nf쎯	-10.4399
▁쎀쎄	-10.44
▁fc쎯rip쎯	-10.4404
▁wjm쎯	-10.4405
▁wxm쎯fcp쎯	-10.4405
isj쎯	-10.4406
wfh1쎯	-10.4416
▁hka쎯tmc쎯	-10.4416
▁afff2쎯	-10.4417
qjq쎯	-10.442
▁v쎯fcl쎯	-10.4423
wug1쎯gf쎯	-10.4423
p쎯	-10.4425
▁dn쎯w쎯	-10.4428
▁wc쎯pv쎯nnk쎯	-10.4428
쎁쎅	-10.4435
▁sve쎯sg쎯	-10.4439
▁ige쎯ifk쎯	-10.444
▁hao쎯rny1쎯	-10.4441
hq쎯	-10.4442
auqw쎯	-10.4443
▁ip쎯wug1쎯	-10.4448
ssn쎯	-10.4455
▁쎃쎂쎀	-10.4457
▁sk쎯mqb쎯	-10.446
▁gk쎯tr쎯	-10.4464
▁wy쎯thn쎯rfc쎯sy쎯	-10.4465
▁kkkk0쎯epw쎯	-10.4466
▁pwr쎯	-10.4467
▁qjf쎯jn쎯ib쎯	-10.4469
wgkl0쎯	-10.447
wdy1쎯	-10.4479
▁itk쎯bj쎯	-10.448
▁ai쎯ux쎯uk쎯	-10.4484
▁itd쎯ntg쎯	-10.4486
▁uth쎯pe쎯	-10.4487
▁whf쎯og쎯pe쎯	-10.4488
▁wg쎯jjjj쎯rmhj쎯	-10.449
▁uo쎯ey쎯	-10.449
▁bm쎯tmd쎯	-10.4492
▁tmd쎯ym쎯	-10.4492
▁k쎯ih쎯ip쎯	-10.4496
▁gjq쎯o쎯	-10.4497
▁iw쎯fhb쎯	-10.4498
▁imkf1쎯nnh쎯	-10.4502
▁gtu쎯dq쎯mq쎯	-10.4505
pwy쎯	-10.4505
▁mw쎯qh쎯	-10.4509
▁w쎯dd쎯wa쎯ge쎯	-10.4515
am쎯	-10.4516
▁rvk쎯bmg쎯	-10.4518
▁tb쎯	-10.4518
▁vk쎯gh쎯	-10.4523
cel쎯	-10.4523
▁ycb쎯	-10.4529
:	-10.4532
▁qc쎯icf쎯	-10.4532
vyi0쎯	-10.4536
▁cbd쎯imj쎯	-10.4537
▁fu쎯u쎯	-10.454
aj쎯	-10.4542
▁jb쎯wqa쎯	-10.4548
ivs쎯	-10.4549
▁iyc쎯wfny0쎯	-10.4549
▁dr쎯bb쎯	-10.4557
▁gk쎯tl쎯rn쎯	-10.4567
▁usr쎯xtd쎯	-10.4568
▁jyie쎯wqj쎯	-10.4568
▁qh쎯l쎯	-10.4574
▁tfn쎯icf쎯ai쎯	-10.4575
▁쎀쎂	-10.4576
gtu쎯	-10.4577
▁rufh1쎯qu쎯	-10.4577
▁alf쎯	-10.458
▁fkhk쎯	-10.458
rfc쎯	-10.4581
▁ll쎯vvv쎯	-10.4581
▁a쎯anb0쎯ugdu쎯sy쎯	-10.4586
▁mfky쎯	-10.4587
.쎆	-10.4587
lqw쎯	-10.4589
▁aqky1쎯	-10.459
▁zzy3쎯	-10.459
gss쎯	-10.4592
▁uag1쎯	-10.4593
apl쎯fcl쎯saj쎯aib쎯	-10.4595
▁hhhh쎯vi쎯	-10.4598
▁bde쎯rg쎯	-10.4599
▁et쎯jg쎯	-10.4599
.쎅	-10.4601
▁tfqp쎯et쎯	-10.4602
▁rpw쎯emc쎯	-10.4607
▁dgtg쎯pe쎯yfd쎯	-10.4609
▁fw쎯	-10.4611
▁iyc쎯cep쎯	-10.4614
lfnh쎯	-10.4615
ugdu쎯sy쎯ip쎯bpf쎯	-10.4621
▁ige쎯fje쎯	-10.4622
wqa쎯	-10.4623
▁jj쎯	-10.4623
▁tom쎯	-10.4624
▁ivp쎯	-10.4626
▁ib쎯	-10.4626
▁nu쎯	-10.4628
▁k쎯tffu쎯	-10.4631
▁utu쎯uce쎯	-10.4632
▁ud쎯ny쎯	-10.4633
▁usr쎯fd쎯	-10.4635
▁lk쎯jel쎯	-10.4638
dfe쎯	-10.464
▁sghg1쎯fm쎯uk쎯	-10.4642
▁klk쎯kdj쎯	-10.4652
▁fgh쎯dg쎯	-10.4655
▁wtu쎯rh쎯	-10.4655
▁aqk쎯	-10.4656
▁xan쎯nu쎯	-10.4662
jtyl쎯	-10.4663
nnh쎯if쎯	-10.4667
twt쎯	-10.4668
▁es쎯wys쎯	-10.4669
▁g쎯nfc쎯	-10.4671
▁ghd0쎯j쎯	-10.4671
▁mqq쎯dc쎯	-10.4672
▁rxj쎯ovt쎯	-10.4672
▁ovt쎯fgh쎯	-10.4672
▁쎉쎀%	-10.4676
▁bd쎯lw쎯	-10.4677
▁ltu쎯gae쎯	-10.4684
tfp쎯	-10.4684
jc쎯	-10.4686
aqq쎯	-10.4692
▁rhc쎯	-10.4693
▁jtyl쎯	-10.4696
▁cm쎯imj쎯	-10.4696
▁dgkn쎯nge쎯	-10.4698
▁k쎯qh쎯	-10.4701
▁wgkb2쎯	-10.4706
▁lqp쎯lkb쎯	-10.471
▁tkgg0쎯	-10.4712
mqj쎯	-10.4715
waw쎯	-10.4715
▁wv쎯ybf0쎯	-10.4718
▁waw쎯yid쎯um쎯	-10.4719
▁jn쎯xjt쎯	-10.472
▁anb0쎯w쎯	-10.472
▁ygh쎯	-10.4721
yam쎯	-10.4724
▁mmm쎯f쎯	-10.4728
▁iyc쎯jg쎯	-10.4729
▁pu쎯wsg0쎯	-10.473
▁i쎯gmf쎯	-10.4731
▁rqn쎯	-10.4735
▁ii쎯js쎯	-10.4738
▁ic쎯pb쎯	-10.4738
uk쎯uyh쎯	-10.474
▁ukn쎯xg쎯	-10.4746
▁bs쎯qiu0쎯	-10.4751
▁gkih쎯gae쎯	-10.4753
▁wam쎯ffi쎯	-10.4758
▁em쎯efw쎯	-10.4758
▁qtb쎯ldj쎯	-10.476
▁oge쎯ese쎯	-10.4762
쎆쎈	-10.4763
▁yned쎯	-10.4767
▁sh쎯xx쎯	-10.477
▁nnk쎯uk쎯	-10.477
fuk쎯	-10.4771
▁sy쎯ygk쎯	-10.4775
▁gd쎯f쎯	-10.4776
wynk쎯	-10.4776
agnt쎯	-10.4778
▁xw쎯cbj쎯	-10.4778
po쎯	-10.4787
▁sj쎯yqj쎯	-10.4789
▁rvyo쎯nge쎯	-10.4793
ynj쎯	-10.4793
ce쎯lt쎯	-10.4793
▁wc쎯pv쎯	-10.4794
▁dl쎯wa쎯	-10.4796
▁iyc쎯tkgg0쎯	-10.4796
▁rfw쎯	-10.4797
rnn1쎯	-10.4805
▁dcg쎯udi쎯	-10.4805
xl쎯eqn쎯	-10.4805
▁lk쎯nnw쎯	-10.4809
▁mq쎯kfi쎯	-10.4811
▁fc쎯wfy쎯	-10.4816
쎈쎄	-10.4817
▁wt쎯ma쎯	-10.4828
ggn쎯	-10.4831
ujff쎯	-10.4834
fd쎯aq쎯	-10.4839
쎈쎅	-10.4841
fi쎯	-10.4841
yh쎯	-10.4842
▁ick쎯gj쎯	-10.4847
▁qv쎯	-10.4848
rq쎯	-10.4848
▁tt쎯qk쎯	-10.4851
▁iawn쎯kkkk0쎯	-10.4853
▁p	-10.4854
▁gkm쎯	-10.4855
▁yww쎯ait쎯	-10.4856
▁qbp쎯	-10.4856
▁rnnw쎯	-10.4859
▁gah쎯sy쎯	-10.486
▁ftg쎯han쎯	-10.4862
▁rvy쎯	-10.4863
bf쎯	-10.4868
jvk쎯	-10.4869
▁apk쎯og쎯	-10.487
pwdj쎯	-10.4872
ifk쎯	-10.4873
k쎯md쎯ipk쎯suq쎯	-10.4875
sgmj쎯	-10.4875
fwm쎯	-10.4876
▁wfn쎯dd쎯	-10.4877
▁tg쎯jjjj쎯	-10.4877
▁wj쎯rfm쎯	-10.488
▁a쎯wt쎯pgc쎯	-10.488
▁kfi쎯uthp쎯	-10.4882
▁qdt쎯	-10.4883
ynv쎯	-10.4886
▁wgk쎯st쎯	-10.4887
▁mm쎯	-10.4891
toc쎯	-10.4891
▁uwyc0쎯fcb쎯	-10.4897
▁pwd쎯qd쎯	-10.4898
▁oge쎯tfqp쎯	-10.4899
▁a쎯um쎯	-10.49
gqr쎯ivfh1쎯mhkg2쎯	-10.4901
▁ngc쎯	-10.4903
▁w쎯dd쎯	-10.4907
▁qtal1쎯	-10.491
▁k쎯ih쎯whf쎯og쎯	-10.491
▁쎁쎆쎀쎀	-10.4914
▁iytb0쎯pt쎯	-10.4915
▁siq쎯	-10.4916
▁ー	-10.4917
▁gg쎯qqqq1쎯	-10.4918
telb쎯	-10.4919
▁il쎯	-10.4924
▁jn쎯wy쎯	-10.4924
▁ypeu쎯	-10.4925
▁gkl쎯th쎯ta쎯	-10.4925
jgg1쎯	-10.4925
▁qjq쎯	-10.4928
▁tg쎯gj쎯	-10.4932
pyv쎯	-10.4933
▁k쎯dr쎯	-10.4935
▁qnr쎯yhk쎯	-10.4935
▁gmww쎯w쎯	-10.4936
▁ymf쎯kfi쎯	-10.4939
▁ydm쎯	-10.4941
▁ygu쎯pj쎯	-10.4942
qtfj1쎯	-10.4942
▁gcf쎯h쎯	-10.4942
fhq쎯	-10.4944
▁jx쎯je쎯	-10.4951
▁rp쎯wa쎯	-10.4953
▁vo쎯itd쎯	-10.4954
▁ylf0쎯u쎯	-10.4954
▁fghg쎯	-10.4958
uwy1쎯	-10.4959
▁cnh쎯sghg1쎯	-10.4959
▁tkw쎯	-10.4961
▁itm쎯uyh쎯	-10.4966
▁a쎯wt쎯w쎯km쎯	-10.4966
▁ovt쎯rpw쎯	-10.4968
▁ijl쎯fnm쎯	-10.497
▁iq쎯ime쎯	-10.4973
wys쎯lft쎯	-10.4982
pwu0쎯	-10.4984
▁wsg0쎯tgj쎯	-10.4987
eve쎯	-10.4991
af쎯	-10.4992
eud쎯	-10.5
▁um쎯fnrt쎯	-10.5001
gv쎯	-10.5002
▁psu쎯wa쎯	-10.5004
▁v쎯bm쎯	-10.5004
awv쎯	-10.5009
▁oth쎯	-10.501
tn쎯	-10.5013
▁gyg1쎯	-10.5018
▁fq쎯tfn쎯	-10.5021
epv1쎯	-10.5024
▁uqsg쎯	-10.5024
▁ㄢ	-10.5026
sgtu쎯	-10.5026
▁op쎯	-10.5029
▁iqp쎯	-10.503
pta쎯	-10.5032
▁jb쎯ih쎯	-10.5032
▁etj쎯uk쎯	-10.5034
▁qejy쎯	-10.5037
itfk쎯	-10.5042
wgc쎯	-10.5042
▁cnh쎯tqt쎯	-10.5044
▁kkkk0쎯kfi쎯	-10.5046
▁ge쎯uje쎯	-10.5047
▁sk쎯et쎯	-10.5048
▁mh쎯hx쎯	-10.5049
▁mp쎯	-10.505
op쎯	-10.505
ytn쎯	-10.505
▁isk쎯iyc쎯	-10.505
▁aw쎯u쎯ipk쎯km쎯	-10.5056
▁tu쎯uo쎯	-10.5056
▁mwy쎯	-10.5061
▁b	-10.5061
▁wtl쎯pd쎯	-10.5069
▁ps쎯dht쎯	-10.5073
.쎀쎂	-10.5073
▁pwdj쎯	-10.5074
▁sdm쎯umd0쎯	-10.5074
▁g쎯wa쎯	-10.5076
▁iyc쎯fakg1쎯	-10.5083
sfhg쎯	-10.5086
▁mw쎯ymc쎯	-10.5088
▁hv쎯hg쎯	-10.5088
▁ig쎯	-10.5097
▁bw쎯km쎯	-10.5097
▁wsg0쎯mw쎯	-10.5097
▁ta쎯pv쎯	-10.5108
▁pei쎯u쎯kkk쎯	-10.5108
▁zzj3쎯	-10.5114
▁etn쎯gcf쎯	-10.5117
▁viq쎯	-10.5119
.쎀쎅	-10.5122
▁xxe쎯	-10.5126
▁vvv쎯bynw0쎯	-10.5126
ggi쎯fuj쎯	-10.5129
▁apk쎯tfkp쎯	-10.5135
▁ex쎯eyn쎯	-10.5136
xgb쎯	-10.514
rqc쎯	-10.5144
▁gkl쎯suq쎯ta쎯	-10.5146
mnm쎯	-10.5149
yr쎯	-10.5149
▁uwa쎯uyh쎯	-10.515
▁lh쎯fgh쎯	-10.5152
▁uqwm0쎯	-10.5153
▁tmd쎯h쎯	-10.5153
dmu0쎯	-10.5154
-	-10.5156
uqwv쎯	-10.5167
▁ou쎯	-10.5167
▁al쎯	-10.5169
▁fcu1쎯an쎯	-10.517
쎇쎂	-10.5171
쎄쎄	-10.5176
▁buj쎯djg쎯	-10.5181
▁y쎯lt쎯	-10.5183
xtu쎯gf쎯	-10.5186
▁qnnk1쎯ou쎯	-10.5186
▁sf쎯yfd쎯	-10.5187
▁vv쎯tu쎯	-10.519
▁gv쎯bb쎯	-10.5194
▁oge쎯ugdu쎯	-10.5195
gk쎯og쎯	-10.5197
▁tmo쎯fcp쎯wf쎯	-10.5197
▁l쎯ggg1쎯	-10.5197
▁ajt쎯qc쎯	-10.5198
qng1쎯	-10.5204
▁cc쎯yy쎯	-10.5206
nywf0쎯	-10.5207
▁nnh쎯k쎯	-10.5214
▁fdf0쎯	-10.5216
▁jvk쎯	-10.5217
ur쎯	-10.5218
▁dg쎯tkh쎯	-10.5225
▁isw쎯	-10.5225
▁○	-10.5229
tfkf1쎯	-10.5232
gogn쎯	-10.5234
kr쎯	-10.5237
udng쎯	-10.5239
tffu쎯ftbt쎯yce쎯	-10.5239
▁ifw쎯	-10.5241
tu쎯dga쎯adm쎯hhhh쎯	-10.5243
▁if쎯rmhj쎯	-10.5244
▁ytn쎯	-10.5244
▁uth쎯yam쎯	-10.5251
▁drin쎯	-10.5253
▁ukn쎯j쎯	-10.5256
▁nhj쎯	-10.5258
▁wul쎯	-10.5258
adwr쎯trf쎯	-10.5259
.쎂	-10.5259
▁ll쎯ntg쎯	-10.5259
vtkb쎯	-10.526
un쎯	-10.5263
fiyt쎯	-10.5264
tgm쎯	-10.5264
▁xk쎯ymf쎯	-10.5266
▁f쎯gkp쎯	-10.5268
▁scf쎯uu쎯	-10.5268
▁djb쎯ya쎯	-10.5269
▁f쎯u쎯	-10.5276
▁sy쎯	-10.5281
▁ipk쎯xeg쎯xkw쎯	-10.5284
▁rt쎯if쎯	-10.5284
▁qdt쎯tfkp쎯	-10.5289
▁fof쎯	-10.529
qnj쎯	-10.5291
▁bm쎯v쎯	-10.5295
pwt쎯	-10.5296
▁y쎯qe쎯	-10.5298
iqv쎯	-10.53
▁vt쎯rh쎯	-10.5307
▁wfny0쎯uxhp쎯	-10.5311
▁tr쎯tkh쎯	-10.5311
▁rcy0쎯	-10.5311
qnu0쎯	-10.5314
pwr쎯	-10.5314
▁rvk쎯tg쎯	-10.5315
ql쎯	-10.5317
▁wxf쎯w쎯	-10.5317
▁mu쎯	-10.5319
▁toc쎯yt쎯	-10.5322
▁y쎯sm쎯	-10.5326
ytb0쎯fmk쎯hka쎯qv쎯	-10.5328
▁sk쎯ep쎯	-10.5328
▁dl쎯kq쎯whtn1쎯qy쎯	-10.5329
▁xyc쎯	-10.5334
▁fny쎯tu쎯ip쎯suq쎯	-10.5337
xvk쎯	-10.5337
▁yxl쎯trt쎯	-10.5339
▁g쎯xt쎯	-10.5341
▁dyt쎯tr쎯	-10.5346
▁rnr쎯ytyh쎯	-10.5347
▁dd쎯tffh1쎯	-10.5351
▁fcu1쎯hc쎯	-10.5357
▁raw쎯	-10.5358
▁qaj쎯ykg쎯	-10.5359
▁sgtk0쎯	-10.536
▁iwt쎯ou쎯	-10.536
▁uq쎯rq쎯	-10.536
▁uq쎯lwj쎯	-10.536
▁cbts0쎯	-10.5362
▁ym쎯dp쎯	-10.5366
▁fhn쎯idr쎯	-10.5371
▁awnu0쎯	-10.5373
mdff0쎯	-10.5374
▁aj쎯wv쎯	-10.5376
qev쎯toc쎯	-10.5378
▁kd쎯tjh쎯	-10.5381
▁ipw쎯ynt쎯	-10.5383
▁ymhj쎯n쎯	-10.5385
▁khq쎯	-10.5388
jpx쎯	-10.5388
▁ytey쎯tf쎯	-10.5391
▁yb쎯bb쎯	-10.5395
▁ej쎯	-10.5403
▁mmq쎯	-10.5407
▁dl쎯x쎯	-10.5408
▁tdj쎯	-10.5409
▁y쎯rf쎯w쎯	-10.5414
▁ipg쎯	-10.5414
utem1쎯	-10.5415
▁ajj쎯dr쎯	-10.5415
▁yx쎯tfq쎯	-10.5416
▁riu쎯ytyh쎯	-10.5416
▁xeg쎯dn쎯uk쎯wv쎯	-10.542
▁tg쎯u쎯ce쎯lt쎯	-10.5422
vfb쎯	-10.5422
▁ipg쎯dwg쎯	-10.5424
aib쎯	-10.5426
▁cq쎯ytf쎯	-10.5426
▁wye쎯tfkd쎯	-10.5434
▁tr쎯kkk쎯	-10.5434
qu쎯	-10.5436
▁ym쎯tffu쎯ip쎯suq쎯	-10.5437
▁gaj쎯	-10.5441
▁yft쎯qq쎯	-10.5443
▁wsg0쎯ta쎯	-10.5444
at쎯	-10.5446
▁쎆쎀쎀쎀	-10.5447
▁pvs쎯wrh2쎯	-10.5449
▁uda쎯naj1쎯	-10.5452
▁ymc쎯pg쎯	-10.5452
▁dn쎯gajf쎯	-10.5453
▁ym쎯ftg쎯	-10.5453
▁wy쎯gkim0쎯	-10.5455
▁tsh0쎯	-10.5456
▁txgi2쎯	-10.546
▁k쎯xe쎯	-10.5465
▁rvyo쎯ep쎯	-10.5468
dhq쎯	-10.5469
▁afi쎯	-10.5469
▁ffuk쎯	-10.5475
▁≤	-10.5476
cccs3쎯	-10.5477
▁ue쎯tyg쎯	-10.5481
yxu쎯	-10.5484
▁yygt쎯dd쎯pt쎯yne쎯	-10.5486
▁pw쎯pl쎯	-10.5487
▁ipw쎯djb쎯	-10.5487
▁lfn쎯yo쎯	-10.5487
▁w쎯vtk쎯	-10.549
▁xu쎯	-10.5491
▁dy쎯bj쎯ce쎯	-10.5493
▁pp쎯h쎯	-10.5495
tvr쎯	-10.5499
▁jc쎯wycb쎯	-10.55
ngj쎯	-10.5505
▁xl쎯alt쎯	-10.551
▁쎇쎂	-10.551
▁jhnr쎯qie쎯	-10.5515
▁uejv쎯	-10.5519
▁ih쎯ooo쎯	-10.5524
▁sgtu쎯	-10.5524
ddg0쎯	-10.5531
▁wg쎯qfhw0쎯	-10.5531
▁bib쎯rep쎯	-10.5534
▁lk쎯c쎯	-10.5535
▁l쎯e쎯	-10.5539
▁qyt쎯gae쎯	-10.5542
▁qtg쎯	-10.5543
▁g쎯th쎯	-10.5543
▁tu쎯ip쎯pe쎯	-10.5543
▁pa쎯ya쎯	-10.5547
▁alp쎯	-10.5552
▁iy쎯ty쎯	-10.5553
▁jaw쎯	-10.5555
▁mfk쎯rh쎯	-10.5559
▁ldd쎯wsg0쎯	-10.556
▁l쎯uu쎯	-10.5568
▁qq쎯it쎯	-10.5569
▁gx쎯sh쎯	-10.557
▁wk쎯wht쎯	-10.5571
▁ii쎯k쎯	-10.5573
▁kt쎯	-10.5576
▁dwf쎯fmud쎯	-10.5577
▁lh쎯mfk쎯	-10.5578
▁usr쎯qgu쎯	-10.558
sm쎯ud쎯	-10.5581
dgj쎯	-10.5583
isgg0쎯yhk쎯	-10.5583
▁nua쎯	-10.5584
▁jn쎯fcl쎯	-10.5588
▁pe쎯xte쎯	-10.5588
▁쎁쎉쎂쎇	-10.559
▁wgj쎯gf쎯	-10.5592
▁puh쎯yc쎯	-10.5592
▁ysi쎯	-10.5593
iqn쎯	-10.5594
▁ga쎯wbj쎯	-10.5599
▁cw쎯c쎯	-10.56
▁quj쎯	-10.5602
▁tuk쎯nh쎯	-10.5604
▁r쎯ytd쎯	-10.5606
▁ny쎯vo쎯	-10.5607
▁cm쎯hko쎯	-10.5608
gki쎯	-10.5609
▁itx쎯mw쎯qh쎯	-10.561
ve쎯	-10.5612
▁tdd쎯	-10.5615
ynf쎯	-10.5615
▁vcb쎯uqf쎯	-10.5615
dty쎯	-10.562
▁dy쎯gu쎯iu쎯	-10.562
▁nny0쎯	-10.5629
▁bpf쎯fghg쎯	-10.5631
▁ftbt쎯yce쎯ds쎯	-10.5631
▁wgk쎯qqqq1쎯	-10.5631
▁wxf쎯fm쎯	-10.5633
▁wyn쎯	-10.5633
▁qd쎯	-10.5633
yi쎯	-10.5634
▁tjf쎯avd쎯	-10.5637
▁gg쎯fgh쎯	-10.5638
▁ai쎯wycb쎯	-10.564
xfm쎯tavn쎯rvy쎯tf쎯	-10.564
▁iaqg쎯	-10.5644
▁k쎯yygy쎯qk쎯	-10.5645
▁usr쎯aq쎯	-10.5646
▁iie쎯bwt쎯	-10.5646
▁epi쎯	-10.5648
▁cbts0쎯tfn쎯	-10.5648
▁ifj쎯	-10.5651
▁mw쎯ibi쎯	-10.5653
▁쎈쎈	-10.5655
▁rw쎯mty1쎯	-10.5656
▁ykg쎯	-10.5656
▁tt쎯yn쎯sg쎯	-10.5661
▁yox쎯	-10.5667
▁l쎯by쎯	-10.5669
▁yynw1쎯nnh쎯	-10.5671
▁whf쎯gk쎯	-10.5674
▁xuj쎯ntg쎯	-10.5675
▁qtq쎯	-10.5675
▁ftg쎯synw쎯	-10.5676
▁pgj쎯dmh쎯	-10.568
▁fhw쎯pw쎯	-10.568
mga쎯	-10.5681
▁wa쎯dcg쎯	-10.5681
▁sym쎯ytyh쎯ymhj쎯	-10.5681
▁usi0쎯	-10.5682
wvl쎯	-10.5683
▁oja쎯v쎯	-10.5684
▁khgp0쎯wfny0쎯	-10.5685
udr쎯	-10.5685
dyw쎯	-10.5688
rep쎯	-10.5695
▁uxh쎯bb쎯	-10.5696
▁wt쎯tr쎯	-10.5697
▁qq쎯rh쎯tg쎯	-10.5703
▁y쎯fcl쎯	-10.5704
▁ubk0쎯uqt쎯	-10.5713
▁yi쎯yfn쎯gf쎯	-10.572
▁rrp쎯an쎯	-10.5721
▁v쎯jn쎯	-10.5722
▁wfny0쎯bd쎯	-10.5728
ukk쎯	-10.5731
wwg쎯	-10.5731
ipkr쎯	-10.5734
▁aet0쎯rvyo쎯	-10.5738
▁tjtl쎯gfi쎯	-10.5742
▁jlx쎯ytn쎯	-10.5745
▁it쎯jg쎯	-10.5749
▁x쎯iyj쎯uqt쎯uwl쎯	-10.5749
yssc2쎯	-10.5754
▁sh쎯wfny0쎯	-10.5754
▁oge쎯iad쎯	-10.5755
▁gh쎯dm쎯	-10.5758
▁ifh1쎯	-10.5759
bw쎯wgg0쎯	-10.5759
▁gkip2쎯	-10.5761
▁rh쎯u쎯	-10.5763
▁txgi2쎯gqf쎯	-10.5763
▁udr쎯	-10.5769
▁wf쎯yf쎯jgm쎯	-10.577
▁ssss쎯cn쎯	-10.577
▁jy쎯hko쎯	-10.5771
jtyq1쎯	-10.5772
▁lwg쎯	-10.5774
▁ith쎯ght쎯ywf쎯	-10.5778
▁i쎯et쎯	-10.5784
▁쎁쎉쎂쎈	-10.5787
aqky1쎯	-10.579
tmc쎯	-10.5791
▁mjq쎯	-10.5794
▁hi쎯	-10.5801
wfy쎯	-10.5802
▁wgk쎯wt쎯wo쎯wuf쎯	-10.5803
▁doq쎯	-10.5803
쎉쎆	-10.5804
avd쎯	-10.5806
▁rqb0쎯rmhj쎯	-10.5808
▁e쎯ss쎯f	-10.5815
▁rv쎯ral쎯	-10.5817
ijl쎯ya쎯	-10.5818
▁pwat쎯fha쎯	-10.5819
▁fgu쎯	-10.5819
▁tdn쎯	-10.5821
▁iq쎯xft쎯	-10.5828
▁toln0쎯oi쎯	-10.5829
▁et쎯wt쎯	-10.5831
▁ypt쎯tak쎯	-10.5831
▁tuk쎯tl쎯	-10.5833
▁h쎯uk쎯	-10.5836
▁xl쎯eaf쎯	-10.5839
▁saj쎯trf쎯	-10.5848
▁ntk쎯ntg쎯	-10.5849
▁tp쎯gj쎯w쎯km쎯	-10.5851
▁tjf쎯img쎯	-10.5852
▁fgh쎯uy쎯	-10.5853
▁itd쎯khtd2쎯	-10.5854
▁iak쎯ssss쎯	-10.5858
bgk쎯	-10.5863
eck쎯	-10.5865
▁cad쎯	-10.5866
ie쎯	-10.5866
▁ssf쎯	-10.5867
▁a쎯wf쎯	-10.5868
▁qim쎯	-10.5869
▁rwv쎯ipg쎯	-10.5869
▁g쎯adwe1쎯	-10.5876
dk쎯	-10.588
▁tx쎯dg쎯nm쎯	-10.5886
nng쎯	-10.5887
iie쎯	-10.5889
▁lt쎯jg쎯dcw쎯djb쎯	-10.5889
▁h쎯tak쎯	-10.5894
▁ukh쎯fmk쎯	-10.5897
▁mc쎯mrg0쎯	-10.5899
▁nnh쎯bpf쎯	-10.5903
▁nge쎯rb1쎯	-10.5916
▁uwy1쎯	-10.592
vyv쎯	-10.592
ip쎯wf쎯	-10.5924
▁c쎯qh쎯	-10.5926
ywwg1쎯	-10.5926
▁tu쎯tu쎯ta쎯	-10.5929
▁ym쎯rfm쎯jg쎯	-10.5935
iqny쎯	-10.5937
▁lt쎯fiy쎯	-10.5937
▁auq쎯	-10.5939
▁qev쎯yt쎯pl쎯	-10.595
▁pg쎯rmhj쎯	-10.595
▁rnr쎯	-10.5951
afd0쎯	-10.5952
yaf쎯	-10.5952
▁vnu1쎯sfi쎯	-10.5952
▁dd쎯qq쎯	-10.5953
ians0쎯	-10.5955
puw쎯	-10.5956
fdf0쎯	-10.5962
▁itx쎯fm쎯ith쎯	-10.5963
▁i쎯wjg쎯	-10.5963
▁pe쎯ta쎯	-10.5968
▁f쎯fakg1쎯	-10.5968
▁쎄쎉	-10.597
▁ipe쎯deb쎯	-10.597
▁xyna0쎯aft쎯	-10.5972
▁rdj쎯qk쎯	-10.5972
▁qnr쎯	-10.5973
jgm쎯ww쎯	-10.5974
▁pyj쎯ytd쎯	-10.5974
▁fhw쎯ydn쎯	-10.5975
▁gmy1쎯	-10.5979
▁irr쎯	-10.5979
▁sc쎯tjh쎯	-10.5985
▁jlc쎯	-10.5986
▁pww쎯	-10.5993
▁jjjj쎯rb1쎯	-10.5994
ps쎯egc쎯	-10.5997
▁pei쎯fnrt쎯	-10.6001
sq쎯	-10.6002
▁ral쎯pgn쎯	-10.6007
if쎯tvfh1쎯if쎯fwm쎯	-10.6007
▁up쎯l쎯	-10.601
▁jlx쎯	-10.6012
▁rmhj쎯ax쎯	-10.6012
▁uq쎯ian0쎯th쎯	-10.6014
▁oyv쎯	-10.6016
▁aq쎯mw쎯	-10.6018
▁wyp쎯lg쎯fnrt쎯	-10.6029
jqb쎯	-10.6031
▁dfy쎯xpw쎯	-10.6034
▁y쎯apk쎯	-10.6035
qqk쎯	-10.604
▁afs쎯tkh쎯	-10.6042
▁vfhp1쎯tam쎯tr쎯	-10.6044
ym쎯gxi쎯rfm쎯	-10.6046
rgv쎯	-10.6046
▁bm쎯qc쎯	-10.6048
▁yvk쎯	-10.6049
fwn쎯	-10.6049
▁ipk쎯tv쎯tv쎯km쎯	-10.605
▁wj쎯	-10.6053
▁by쎯ii쎯	-10.6056
▁yy쎯yyy쎯	-10.606
▁gq쎯ty쎯	-10.6063
▁tjf쎯kfi쎯	-10.6064
▁bu쎯wgk쎯l쎯	-10.6065
▁wgkb2쎯fcp쎯	-10.6068
▁i쎯gc쎯	-10.6069
▁imk쎯itx쎯	-10.6077
▁wtu쎯ylf0쎯	-10.608
▁rkm쎯wtl쎯	-10.6084
▁de쎯alq쎯hhy쎯	-10.609
▁tr쎯wsg0쎯	-10.6091
▁cexo1쎯	-10.6095
▁dd쎯lt쎯	-10.6096
▁xyc쎯ick쎯	-10.6096
jf쎯adwe1쎯	-10.6097
pgj쎯	-10.6098
▁dyw쎯	-10.6099
▁ggg1쎯fje쎯	-10.6101
▁kkkk0쎯tca쎯	-10.6102
lc쎯	-10.6107
▁tlo쎯	-10.6108
▁awx쎯shi쎯	-10.6109
▁pu쎯jf쎯	-10.6109
▁ndj쎯nge쎯	-10.6113
▁xfn쎯	-10.6116
▁ad쎯dbm쎯ymc쎯ytb쎯	-10.6117
▁ymf쎯ty쎯	-10.6117
▁oge쎯wxf쎯	-10.6118
▁tx쎯fg쎯uqw쎯	-10.6121
▁usr쎯iw쎯	-10.6121
eeq쎯	-10.6121
wi쎯	-10.6123
nc쎯	-10.6125
▁bwf쎯wrh2쎯	-10.6125
▁et쎯kkk쎯	-10.6125
▁usr쎯wxf쎯	-10.6126
▁sgm쎯	-10.6128
▁f쎯h쎯	-10.613
▁wyq쎯ge쎯	-10.6132
▁uqv쎯wx쎯	-10.6133
ylf0쎯	-10.6133
▁gef쎯qynm1쎯ymhj쎯	-10.6134
▁jjj쎯	-10.6136
▁ai쎯jty쎯	-10.6137
▁sg쎯w쎯	-10.6138
▁fm쎯yiu쎯ymhj쎯	-10.6139
geh쎯	-10.6139
▁rn쎯gcft2쎯	-10.614
▁yvi쎯ahko쎯	-10.6142
▁amd쎯yygy쎯qk쎯	-10.6142
▁wv쎯nnk쎯	-10.6143
▁fyv쎯	-10.6143
▁jh쎯rh쎯	-10.6154
▁xtu쎯umd0쎯	-10.6159
▁y쎯tp쎯uk쎯uyh쎯	-10.6166
▁qaj쎯	-10.6171
▁qwyc0쎯fnr쎯	-10.6175
▁tg쎯tr쎯ip쎯	-10.6176
▁fwyc2쎯wyk쎯	-10.6177
▁쎃쎅쎀	-10.6178
▁rvyo쎯ii쎯	-10.6178
▁ugdu쎯cm쎯	-10.6179
▁l쎯ffff5쎯	-10.6179
▁rhk쎯mww쎯	-10.618
쎉쎇	-10.6183
▁xnh쎯qaj쎯	-10.6187
▁auk쎯abu쎯	-10.6189
▁ryl쎯	-10.6191
▁wv쎯suq쎯	-10.6192
xfn쎯	-10.6198
▁ud쎯ab쎯	-10.6199
▁ts쎯wgq쎯	-10.62
▁ii쎯u쎯	-10.6202
▁쎀.쎂	-10.6203
▁pj쎯	-10.6206
▁gkp쎯fcl쎯	-10.6207
hic쎯	-10.6208
▁tu쎯ip쎯bpf쎯	-10.6211
cn쎯go쎯sghg1쎯gog쎯	-10.6213
▁qyt쎯	-10.6215
yjs쎯jghm1쎯	-10.6216
▁rlf1쎯	-10.6217
ip쎯suq쎯	-10.6219
mmm쎯aq쎯	-10.6219
▁mmq쎯wug1쎯	-10.6222
▁et쎯f쎯	-10.6226
▁ul쎯qq쎯uqw	-10.6227
▁dyt쎯mmm쎯	-10.6228
▁qgf쎯od쎯	-10.6228
bip쎯	-10.6228
▁mf쎯pgk쎯	-10.6234
▁vfb쎯wh쎯	-10.6236
▁gqje쎯	-10.6236
tfq쎯fj쎯wys쎯wsg0쎯	-10.6238
▁txt쎯	-10.6242
itf쎯	-10.6245
▁ugk쎯shi쎯	-10.6247
▁쎆쎃	-10.6249
▁ai쎯apfq쎯	-10.625
ght쎯ick쎯uk쎯	-10.6252
▁xmw쎯oy쎯	-10.6254
▁ahn쎯	-10.6256
▁wx쎯uv쎯kkk쎯	-10.626
▁lgey0쎯	-10.6261
▁bu쎯pfjm1쎯	-10.6262
▁qt	-10.6262
wnh쎯	-10.6263
▁oa쎯dyt쎯	-10.6272
▁xfm쎯pwat쎯	-10.6284
▁ujt쎯	-10.6288
oat쎯	-10.6288
▁rmhj쎯uwyc0쎯	-10.6289
▁awx쎯tg쎯	-10.629
wdn쎯te쎯ywx쎯yygy쎯	-10.6291
▁bw쎯ta쎯	-10.6293
▁xf쎯jjj쎯	-10.6295
▁dga쎯pwv쎯dn쎯js쎯	-10.6297
▁tu쎯pgc쎯	-10.6298
isw쎯	-10.6302
▁iq쎯tel쎯	-10.6307
▁aynq쎯	-10.6308
쎅쎅	-10.6311
agnn2쎯	-10.6311
▁yta쎯	-10.6312
▁saj쎯aib쎯	-10.6317
▁wg쎯tmd쎯	-10.6318
▁g쎯jsd쎯	-10.6318
nkue0쎯	-10.6319
▁hx쎯jf쎯	-10.632
▁by쎯trh쎯	-10.6322
▁kwyg쎯	-10.6326
ain쎯	-10.6327
▁wg쎯an쎯lwj쎯	-10.6327
▁ssss쎯sft쎯	-10.6332
▁iak쎯	-10.6332
▁mmm쎯fhc쎯	-10.6333
▁tj쎯c쎯	-10.6334
▁qgu쎯je쎯	-10.6341
qtb쎯	-10.6342
▁c쎯hx쎯	-10.6343
▁wmg1쎯	-10.6346
ime쎯	-10.6346
▁oge쎯xl쎯	-10.6347
jmd쎯	-10.6349
▁tx쎯g쎯nm쎯	-10.6352
▁pym쎯qe쎯	-10.6354
▁rb1쎯aqky1쎯	-10.6356
▁thfn쎯su쎯	-10.6356
▁ca쎯ma쎯	-10.6358
▁ffh쎯	-10.636
▁rg쎯bg쎯	-10.6361
▁wuf쎯	-10.6366
▁ipk쎯suq쎯	-10.6377
srm쎯	-10.6378
▁fny쎯bk쎯	-10.6378
▁mw쎯dhb쎯pww쎯jg쎯	-10.6381
▁it쎯ovt쎯	-10.6381
▁h쎯syp쎯	-10.6385
▁pu쎯wgq쎯	-10.6386
▁ftbt쎯ip쎯sov쎯	-10.6386
▁fhn쎯hko쎯	-10.6387
thd쎯qd쎯tu쎯ip쎯	-10.6387
e쎯fggh쎯ftbt쎯jgm쎯	-10.6389
▁we쎯qd쎯	-10.6392
gkih쎯	-10.6393
▁sgty쎯	-10.6394
▁fgh쎯wffg쎯	-10.6394
▁gmd쎯fghg쎯	-10.6396
▁iq쎯jn쎯	-10.6397
▁vcb쎯wgkq0쎯	-10.6397
▁iyn0쎯	-10.6397
sfi쎯uwy1쎯	-10.6397
쎆쎀쎀	-10.6397
▁fq쎯ovt쎯	-10.6398
▁um쎯pe쎯	-10.64
▁rwye1쎯rt쎯	-10.64
▁쎆쎈	-10.6401
▁wtr쎯	-10.6402
▁μ	-10.6404
mt쎯	-10.6405
▁rkm쎯rw쎯	-10.6406
▁iie쎯rw쎯	-10.641
▁xfm쎯tavn쎯	-10.6412
▁y쎯w쎯	-10.6413
▁fg쎯uqw쎯	-10.6415
▁dd쎯qq쎯ovt쎯	-10.6417
▁ep쎯l쎯	-10.6418
▁xyna0쎯ndj쎯	-10.6418
▁lv쎯uthp쎯	-10.6421
▁rc쎯cf쎯	-10.6433
▁fny쎯adm쎯	-10.6435
wcn쎯	-10.6439
▁mq쎯nge쎯	-10.6439
▁ub쎯qk쎯	-10.644
▁qq쎯fqb1쎯wx쎯	-10.6442
▁xvk쎯iw쎯	-10.6445
mqc쎯	-10.6445
▁gm쎯udy쎯	-10.645
rpw쎯rmhj쎯	-10.6451
▁hko쎯fmk쎯	-10.6452
▁ta쎯xq쎯	-10.6453
▁쎁쎄쎀	-10.6458
▁sfiq쎯	-10.6461
▁ooo쎯mmm쎯	-10.6464
▁ag쎯rh쎯	-10.6466
▁yo쎯tj쎯	-10.6469
▁og쎯lwj쎯	-10.647
▁aigy쎯	-10.647
▁rgm쎯	-10.6471
▁wxm쎯	-10.6471
db쎯	-10.6474
▁dy쎯bb쎯	-10.6476
▁の	-10.6477
fwyc2쎯	-10.6481
▁gkl쎯egc쎯ta쎯	-10.6483
qvn2쎯	-10.6486
▁yd쎯	-10.6488
wgj쎯	-10.6488
▁rh쎯bm쎯	-10.6488
▁nf쎯tm쎯	-10.6489
▁gcg쎯	-10.6493
uge쎯	-10.6497
▁rcp쎯	-10.6503
▁dn쎯js쎯uqd0쎯	-10.6504
▁oge쎯gcft2쎯	-10.6507
god쎯	-10.6508
tdd쎯	-10.6509
▁ivfh1쎯	-10.6514
▁fc쎯bw쎯	-10.6519
▁lr쎯	-10.6522
▁iv쎯wynb쎯	-10.6523
▁tri쎯	-10.6525
▁mf쎯	-10.6526
▁qdb쎯pd쎯	-10.6527
a쎯og쎯	-10.6527
rfm쎯jg쎯wsg0쎯txi쎯	-10.6535
sr쎯	-10.6536
▁pyj쎯dskf쎯	-10.6536
iy쎯ujf쎯	-10.6539
▁k쎯l쎯gl쎯	-10.6541
▁g쎯cf쎯	-10.6542
tg쎯itd쎯	-10.6544
ito쎯	-10.6545
▁me쎯fggh쎯	-10.6546
▁pj쎯synw쎯	-10.6548
▁tx쎯wty쎯	-10.655
▁tha쎯	-10.6552
▁tfqp쎯rt쎯	-10.6556
▁oyvk0쎯nii1쎯ugm쎯	-10.6556
▁ige쎯usr쎯	-10.6567
vit쎯	-10.6568
gkm쎯	-10.6569
▁kfg쎯	-10.6573
▁jm쎯	-10.6573
▁itdy쎯	-10.6575
▁ftbt쎯xan쎯	-10.6576
▁tu쎯dga쎯a쎯wt쎯	-10.6577
▁gk쎯dty쎯	-10.6581
▁uqwn0쎯	-10.6584
▁at쎯yfn쎯	-10.6592
sgm쎯	-10.6594
▁qmk쎯	-10.6601
▁iq쎯icf쎯	-10.6602
쎂쎄	-10.6605
▁ln쎯kht쎯	-10.6606
▁〉	-10.6613
쎂쎅	-10.6618
▁sk쎯j쎯	-10.6619
ipr쎯	-10.662
▁puv쎯xe쎯k쎯ip쎯	-10.6626
▁wynb쎯rh쎯	-10.6628
▁qsu쎯pd쎯	-10.6634
▁fpo쎯	-10.6639
aik쎯	-10.664
▁aqt쎯bc쎯	-10.6642
▁wa쎯fwf쎯	-10.6643
▁amd쎯yygy쎯qk쎯tq쎯	-10.6644
▁qie쎯	-10.6654
wu쎯	-10.6656
▁ith쎯tv쎯	-10.6657
▁mfk쎯adwe1쎯	-10.6657
xtf쎯xwy쎯	-10.6662
▁uxt쎯	-10.6664
쎂쎀	-10.667
▁cd쎯mqb쎯	-10.667
▁xat쎯	-10.6672
mqi1쎯	-10.6674
▁dty쎯buj쎯	-10.6676
xkw쎯	-10.6676
▁qgo쎯	-10.6676
▁bct쎯wys쎯	-10.668
▁ipe쎯ya쎯	-10.6681
▁fjh0쎯	-10.6683
cbj쎯	-10.6684
▁pt쎯w쎯	-10.6684
▁dg쎯qe쎯	-10.6685
▁ssk쎯	-10.6692
쎅쎉	-10.6693
▁tduh쎯	-10.6694
▁ukn쎯wsg0쎯	-10.6694
▁ftbt쎯ip쎯rfm쎯jg쎯	-10.6695
▁jty쎯jf쎯	-10.6695
▁ygu쎯tfqp쎯	-10.6697
▁....	-10.6698
▁gqjo0쎯fghg쎯	-10.6699
▁tey쎯gd쎯	-10.67
▁txgi2쎯aps쎯	-10.6701
▁cm쎯wynn3쎯	-10.6701
▁tfqm1쎯	-10.6707
dfek쎯	-10.6708
▁riq쎯	-10.6709
▁cd쎯xyna0쎯	-10.671
▁toc쎯	-10.6711
▁ujff쎯	-10.6713
xwf쎯	-10.6714
▁%%	-10.6716
▁wdn쎯te쎯uqd0쎯	-10.6716
▁pwd쎯	-10.6717
▁rtb쎯	-10.6719
wtp쎯	-10.6719
▁wg쎯xte쎯	-10.672
▁tfkf1쎯	-10.6721
▁쎆쎂	-10.6721
▁qh쎯uk쎯	-10.6724
▁inr쎯jghx쎯	-10.6726
▁fghy0쎯	-10.673
▁l쎯bf쎯wx쎯	-10.673
▁og쎯wtu쎯	-10.6732
▁mw쎯f쎯	-10.6733
▁wwx쎯ybt쎯	-10.6734
whn쎯	-10.6736
si쎯	-10.6739
▁dmj1쎯yyy쎯	-10.674
▁ogbn쎯	-10.6745
▁hh쎯	-10.6745
▁l쎯gl쎯	-10.6746
uem쎯	-10.6746
nnnn쎯	-10.6747
▁oqdo쎯oat쎯	-10.6747
wv쎯sr쎯	-10.6747
▁v쎯sgfb쎯	-10.6753
▁iv쎯k쎯	-10.6754
▁wx쎯dgtg쎯	-10.6757
▁dl쎯tkgg0쎯	-10.6759
va쎯	-10.676
▁fwm쎯aib쎯wx쎯	-10.676
▁ojf쎯	-10.6761
▁nf쎯xuj쎯	-10.6765
▁iat1쎯	-10.6767
▁it쎯uqf쎯	-10.6768
▁cn쎯dq쎯ln쎯y쎯yq쎯	-10.6771
▁iie쎯thn쎯	-10.6776
▁ajt쎯ah쎯	-10.6776
▁rufh1쎯	-10.6781
▁fq쎯qjq쎯	-10.6781
sam쎯	-10.6783
sfg쎯	-10.6785
▁vtg쎯	-10.6788
▁fm쎯kht쎯	-10.6791
▁rwb쎯	-10.6792
djdl2쎯	-10.6794
ahko쎯	-10.6794
▁ma쎯xg쎯	-10.6795
▁alp쎯awx쎯	-10.6795
▁bk쎯gmu1쎯	-10.6796
▁ywx쎯syp쎯	-10.6797
fpo쎯	-10.6797
▁tu쎯rfc쎯dn쎯js쎯	-10.6801
▁ン	-10.6802
▁pu쎯nu쎯	-10.6803
h1쎯	-10.6805
▁ym쎯mmm쎯	-10.6806
xm쎯	-10.6807
▁fmud쎯	-10.6809
▁jgg1쎯	-10.6809
▁ahtb쎯	-10.6811
▁qq쎯uk쎯	-10.6819
▁wxf쎯k쎯	-10.682
▁gh쎯bt쎯	-10.6821
▁fm쎯itx쎯	-10.6823
▁qgh쎯	-10.6824
▁ral쎯xwf쎯	-10.6826
▁thd쎯qd쎯tu쎯ip쎯	-10.6829
iwyf2쎯	-10.683
▁g쎯xg쎯	-10.6831
▁kht쎯xg쎯	-10.6833
hk쎯	-10.6835
▁gk쎯pu쎯	-10.6835
▁쎁쎉쎀쎀	-10.6843
▁쎅쎇	-10.6844
▁rua쎯	-10.6846
▁ftbt쎯ipkf0쎯	-10.6847
▁qh쎯fpm쎯	-10.6849
▁qgj쎯nfp쎯	-10.6853
lqy쎯	-10.6854
▁xh쎯wycm0쎯	-10.6855
wgu쎯	-10.6857
▁ynk쎯	-10.6859
▁tr쎯og쎯	-10.6859
▁а	-10.6865
▁wh쎯ntg쎯wx쎯	-10.6867
lx쎯	-10.6874
▁g쎯k쎯	-10.6875
▁gkl쎯gj쎯gk쎯ta쎯	-10.6877
▁fm쎯jj쎯	-10.6877
elv쎯	-10.688
▁y쎯xt쎯	-10.6882
▁jcm쎯	-10.6884
uqsg쎯	-10.6886
▁ggw쎯	-10.6886
▁〈	-10.6898
▁wb쎯w쎯	-10.6899
▁ggg1쎯l쎯	-10.69
▁2	-10.6905
▁lh쎯tb쎯	-10.6905
▁v쎯udp쎯	-10.6906
▁wv쎯qev쎯	-10.6909
▁rcn1쎯rng0쎯	-10.6911
▁lpk0쎯fa쎯	-10.6913
▁g쎯wwv쎯	-10.6916
▁dnp쎯	-10.6916
tqdh쎯	-10.6919
▁uft쎯	-10.6919
qtdn0쎯	-10.6919
▁쎀.쎁	-10.6922
veg쎯	-10.6927
ggi쎯fuj쎯wk쎯ryn0쎯	-10.6927
▁yny0쎯u쎯	-10.6928
itdy쎯	-10.6932
▁faw쎯	-10.6935
rrk쎯	-10.6937
▁kq쎯yn쎯	-10.6938
▁saj쎯	-10.6942
▁tjh쎯iugg0쎯	-10.6944
▁dpr쎯	-10.6944
▁----	-10.6945
▁tr쎯uqwm0쎯	-10.6946
▁qlp쎯	-10.6948
▁itx쎯h쎯	-10.6951
dwt쎯	-10.6951
▁bv쎯	-10.6952
▁wty쎯rh쎯	-10.6957
▁jef1쎯	-10.6959
▁bue쎯uthp쎯	-10.6961
▁pynn0쎯kkk쎯	-10.6962
▁ww쎯ih쎯	-10.6967
▁uqwm0쎯egl쎯	-10.6967
tjs쎯	-10.697
▁xwy쎯rf쎯	-10.697
▁rqw쎯ipkm0쎯	-10.6973
▁k쎯gef쎯rh쎯	-10.6973
▁x쎯iyj쎯jgm쎯	-10.6974
▁jjjj쎯pl쎯	-10.6975
mmv쎯	-10.6976
▁udjh쎯on쎯	-10.6985
▁av쎯rq쎯	-10.6988
aqo쎯	-10.6992
▁gmw쎯	-10.6994
▁sagg쎯lks쎯	-10.6995
▁tdp쎯iv쎯	-10.6997
fyb1쎯	-10.7
▁jtyl쎯tp쎯	-10.7
▁qjn쎯	-10.7001
y1쎯	-10.7001
▁mw쎯e쎯	-10.7002
▁tg쎯ugv쎯	-10.7004
▁qq쎯gu쎯yy쎯oy쎯	-10.7004
▁wa쎯ge쎯ntg쎯	-10.7004
▁maw쎯ahty쎯	-10.7015
▁ipkm0쎯	-10.7016
a쎯og쎯dd쎯ip쎯	-10.7017
sfhg쎯tr쎯	-10.7021
▁jc쎯pnt쎯	-10.7026
▁tqq쎯n쎯	-10.7031
▁thfn쎯tc쎯	-10.7032
▁gmd쎯maw쎯	-10.7032
▁ucw쎯a쎯	-10.7036
▁ybv쎯ton쎯	-10.7037
vep쎯	-10.7038
▁qgb쎯v쎯	-10.7043
▁itd쎯lt쎯	-10.7044
▁srg쎯	-10.7044
qtq쎯	-10.7045
rdfh1쎯	-10.7049
▁fhfk0쎯	-10.705
▁je쎯fje쎯	-10.7052
dfi쎯	-10.7053
ugm쎯gxgu쎯	-10.7055
qtyd1쎯	-10.7057
ipw쎯fkh쎯ymhj쎯	-10.7057
▁gh쎯uk쎯	-10.7057
▁쎈쎀쎀쎀	-10.7058
▁lkd쎯l쎯	-10.706
tuj쎯	-10.7068
▁kkkk0쎯dgkn쎯	-10.7069
▁rmc쎯uqwm0쎯ftj쎯	-10.707
▁yjs쎯ipkf0쎯	-10.707
▁쎃쎆쎀	-10.7071
▁nnh쎯gl쎯bpf쎯	-10.7077
etn쎯	-10.7078
▁amyn0쎯ndm쎯	-10.7081
▁ipk쎯ukn쎯fc쎯	-10.7081
▁pw쎯k쎯	-10.7083
▁qtgw1쎯	-10.7087
▁tl쎯pu쎯	-10.7089
xj쎯	-10.7089
ajdf쎯	-10.7089
▁sga쎯	-10.709
▁n쎯apk쎯	-10.7093
▁lu쎯xk쎯	-10.7103
▁asg쎯	-10.7108
▁qkm쎯oyn쎯	-10.7109
▁n쎯apk쎯whf쎯og쎯	-10.711
▁wda쎯	-10.7111
▁gef쎯itx쎯	-10.7116
▁y쎯iyc쎯	-10.7117
jmh쎯	-10.7122
▁sm쎯ysi쎯	-10.7125
wmg1쎯	-10.7126
▁wv쎯bb쎯jg쎯	-10.7127
▁gkl쎯tu쎯ta쎯	-10.7128
▁tfqp쎯yce쎯	-10.7129
▁bnn2쎯bb쎯	-10.7133
▁쎁쎀%	-10.7134
▁cm쎯iq쎯	-10.7134
rffg쎯	-10.7136
▁rtol1쎯bm쎯	-10.7137
▁diu1쎯	-10.714
▁ftg쎯dgh쎯	-10.714
▁irr쎯ia쎯dd쎯ip쎯	-10.7142
▁쎈쎀%	-10.7144
▁pj쎯rx쎯	-10.7146
wn쎯	-10.7148
▁dy쎯dr쎯	-10.715
▁g쎯dm쎯	-10.7151
sve쎯rnd1쎯	-10.7152
▁쎄.쎅	-10.7153
▁yt쎯tmdf1쎯	-10.7153
▁vo쎯fcr쎯	-10.7154
▁anu쎯	-10.7155
▁ifj쎯iyc쎯	-10.7156
▁쎀.쎃	-10.7156
0쎯	-10.7157
aca쎯	-10.7158
▁ptkm0쎯	-10.716
jf쎯wa쎯	-10.716
toc쎯yq쎯	-10.716
▁tqd쎯	-10.716
▁wxf쎯ux쎯	-10.7162
uve쎯	-10.7164
qtny1쎯	-10.7169
▁tve쎯nnw쎯	-10.7171
쎂쎃	-10.7173
▁dgty쎯	-10.7177
▁eve쎯	-10.7184
▁nk쎯	-10.7186
▁sm쎯tmd쎯	-10.7187
ipm쎯	-10.7187
▁atd쎯tu쎯dd쎯ip쎯	-10.7187
▁um쎯fd쎯	-10.719
▁em쎯mww쎯	-10.7192
apk쎯qie쎯	-10.7193
▁vfb쎯jfd쎯	-10.7194
▁rt쎯mm쎯	-10.7197
▁v쎯rnbm쎯	-10.7198
▁ad쎯qqqq1쎯wf쎯	-10.72
▁akgl쎯	-10.7201
▁ta쎯dw0쎯	-10.7203
▁atd쎯ip쎯wf쎯	-10.7203
▁atg쎯gk쎯	-10.7204
▁ue쎯qtd쎯	-10.7206
▁adnt1쎯nnh쎯	-10.7206
▁ryc쎯	-10.7207
rrg1쎯	-10.7208
▁lk쎯gkip2쎯	-10.7211
▁sghg1쎯wmj0쎯	-10.7213
pfq쎯	-10.7213
afff2쎯	-10.7214
▁vs쎯uq쎯	-10.7215
▁rdc쎯	-10.7216
▁ak쎯j쎯	-10.7222
▁waye쎯	-10.7228
▁rmhj쎯tlf2쎯	-10.7231
oa쎯	-10.7232
wdt쎯	-10.7236
et쎯kkk쎯	-10.7238
▁eee쎯wwv쎯	-10.724
▁ai쎯kht쎯	-10.7243
jcf쎯	-10.7247
▁ait쎯pu쎯	-10.7248
lk쎯a쎯	-10.7251
▁sg쎯tu쎯tg쎯	-10.7256
▁yygy쎯bu쎯	-10.7258
▁wvf쎯	-10.7258
▁sh쎯iv쎯gf쎯	-10.7258
▁xeg쎯ta쎯	-10.726
kw쎯	-10.7261
▁pe쎯lfq쎯	-10.7261
atd쎯ip쎯wf쎯	-10.7265
▁쎉쎇	-10.7268
▁uf쎯mmm쎯aq쎯	-10.7268
▁jty쎯ysi쎯x쎯cwg쎯	-10.7269
▁tlf2쎯	-10.7276
mhm쎯	-10.7282
tv쎯ipk쎯suq쎯	-10.7283
▁do쎯qc쎯	-10.7286
▁rt쎯fcl쎯	-10.729
▁sghg1쎯kht쎯	-10.729
tdp쎯	-10.7292
▁ii쎯dm쎯	-10.7293
▁gk쎯adm쎯	-10.7298
efc쎯	-10.7299
▁vit쎯	-10.73
▁lkc쎯ckq쎯	-10.73
▁qk쎯iwyf2쎯	-10.7303
anb0쎯sy쎯	-10.7303
rmn쎯	-10.7306
▁ssg쎯thn쎯	-10.7309
▁rawk쎯sgn쎯	-10.7313
mhr쎯	-10.7313
▁pg쎯ygk쎯	-10.7314
rvk쎯	-10.7314
▁alw쎯aq쎯	-10.7315
th쎯gj쎯	-10.7316
▁imkf1쎯fii쎯	-10.7316
▁yox쎯ma쎯	-10.7317
▁gah쎯ufy쎯	-10.7322
▁adw쎯wtu쎯	-10.7322
▁awsk쎯	-10.7322
dq쎯adwr쎯	-10.7324
▁twgi쎯xq쎯	-10.7324
▁fhqv쎯rvyl쎯	-10.7325
▁dd쎯gf쎯	-10.7325
▁iss쎯	-10.7328
▁awx쎯adwe1쎯	-10.7329
▁cds쎯	-10.733
sai쎯	-10.733
ia쎯egc쎯	-10.7331
▁쎆쎁	-10.7334
jn쎯jyie쎯	-10.7335
▁d쎯suq쎯ip쎯tg쎯	-10.7337
▁ipkh1쎯fwm쎯	-10.7339
▁wygg쎯pwdj쎯	-10.7342
▁쎂쎅쎀쎀	-10.7345
▁ixw쎯fyn쎯	-10.7346
kkhn쎯	-10.7349
▁aqky1쎯pwfi쎯	-10.7354
▁tp쎯gj쎯txi쎯xyc쎯	-10.7354
xpw쎯	-10.7356
▁tduh쎯maw쎯	-10.7357
▁teg1쎯wtfm1쎯	-10.7361
ln쎯shn쎯	-10.7361
uk쎯uth쎯	-10.7364
▁fnrt쎯f쎯	-10.7366
ynjh0쎯	-10.7366
▁ydn쎯	-10.7367
ynm쎯	-10.737
▁ggi쎯xat쎯	-10.7371
▁gu쎯pv쎯	-10.7371
▁thd쎯tf쎯	-10.7372
▁gk쎯yop쎯	-10.7376
gae쎯nyi2쎯fghy0쎯	-10.7381
▁쎆쎆	-10.7382
▁쎁쎉쎂쎆	-10.7382
▁p쎯uk쎯	-10.7382
▁qt쎯tu쎯	-10.7385
▁iyv쎯ijlc쎯	-10.7386
wda쎯	-10.7386
▁usgp1쎯trfh0쎯	-10.7388
▁dga쎯yfy1쎯wf쎯	-10.7389
▁fl쎯wt쎯	-10.7389
ws쎯	-10.7391
▁amw쎯mmm쎯	-10.7391
▁nj쎯	-10.7393
▁wf쎯yyq쎯pgc쎯	-10.7395
▁xh쎯ty쎯	-10.7398
dwg쎯	-10.7405
k쎯l쎯wt쎯pe쎯fl쎯wf쎯	-10.7405
▁ujf쎯tsh0쎯	-10.7409
▁y쎯src쎯	-10.741
▁쎂쎅쎆	-10.7411
lv쎯	-10.7412
gm쎯dhb쎯	-10.7414
▁m쎯tf쎯	-10.7417
▁fi쎯wgq쎯	-10.742
▁kl쎯e쎯	-10.742
▁tu쎯dga쎯dn쎯js쎯	-10.7422
▁ny쎯eyf쎯	-10.7425
rkm쎯	-10.7428
▁f쎯rvyl쎯	-10.743
▁rmn쎯tpi쎯	-10.7431
▁vfhp1쎯suq쎯	-10.7433
▁rxj쎯fi쎯	-10.7436
▁rcp쎯lkd쎯	-10.7436
▁wxf쎯wtd쎯	-10.7437
▁nh쎯xjm쎯	-10.7437
▁ium쎯	-10.7439
▁pn쎯yy쎯	-10.7439
▁fj쎯at쎯	-10.744
▁sg쎯tu쎯xxf쎯og쎯	-10.7441
▁쎁.쎀	-10.7443
쎈	-10.7446
▁gxi쎯e쎯	-10.7448
▁nt쎯s쎯	-10.7448
▁fhn쎯yq쎯	-10.745
▁txi쎯y쎯wtf쎯	-10.745
ypk쎯	-10.7458
▁pntj쎯	-10.7459
tcy쎯	-10.7466
▁iak쎯ivc쎯	-10.7466
▁cf쎯yid쎯	-10.747
khx쎯	-10.7472
▁thp쎯ta쎯	-10.7473
▁tx쎯g쎯pe쎯	-10.7473
ipk쎯tv쎯	-10.7475
▁pp쎯gh쎯	-10.7475
▁wfhg쎯tj쎯	-10.7475
▁uff쎯ytyh쎯	-10.7476
▁enr쎯	-10.7478
▁mq쎯jy쎯te쎯gmy1쎯	-10.7478
tep쎯	-10.7484
▁wv쎯aet0쎯	-10.7486
ugv쎯	-10.7489
gj쎯a쎯dd쎯ip쎯	-10.7489
▁tqt쎯	-10.7491
vnx쎯	-10.7492
▁mmgd쎯	-10.7497
▁uji1쎯ai쎯	-10.7497
▁utem1쎯	-10.7498
hxx쎯	-10.75
b쎯ght쎯xyna0쎯dcg쎯	-10.75
▁nf쎯tey쎯	-10.7501
▁ta쎯fd쎯	-10.7508
▁inro쎯	-10.751
qge쎯	-10.7511
▁dd쎯fw쎯	-10.7513
▁vtd쎯	-10.7516
▁쎈쎄	-10.7517
▁dd쎯fwm쎯saj쎯	-10.7517
▁rxj쎯fm쎯	-10.7521
▁ujfj쎯ma쎯	-10.7522
▁tfk쎯dq쎯	-10.7522
▁ic쎯nnh쎯	-10.7526
▁eck쎯	-10.753
▁ufw쎯	-10.7531
qmgk0쎯	-10.7532
▁tx쎯vt쎯	-10.7532
dpq쎯	-10.7534
▁bm쎯ipg쎯	-10.7535
▁oja쎯	-10.7536
▁yuo쎯	-10.7543
▁f쎯gae쎯	-10.7544
▁rpw쎯	-10.7545
▁cbq쎯	-10.7545
xjk쎯	-10.755
▁iyj쎯fm쎯ymhj쎯	-10.755
▁ytf쎯sk쎯ygh쎯	-10.7554
rmay쎯	-10.7554
▁jhf1쎯bwg쎯	-10.7554
▁mf쎯x쎯	-10.7556
▁udi쎯uk쎯	-10.7558
▁ux쎯xfnh쎯	-10.7559
▁nywf0쎯	-10.756
▁a쎯og쎯lfq쎯aq쎯	-10.7561
▁xl쎯ab쎯	-10.7563
▁nty1쎯af쎯ga쎯yt쎯	-10.7564
wyo쎯	-10.7572
▁qty1쎯	-10.7576
▁qdm쎯eaj쎯	-10.7578
iv쎯qd쎯	-10.7584
▁ipwk0쎯iyw쎯	-10.7585
▁fwy쎯	-10.7585
▁wyp쎯hh쎯	-10.7596
q쎯	-10.7596
▁gef쎯hgo쎯	-10.7598
▁쎁쎀쎅	-10.7599
쎇쎈	-10.7599
쎄쎈	-10.76
▁tw쎯	-10.7603
▁ubtf쎯tfkp쎯	-10.7605
▁y쎯yfj쎯	-10.7605
yygy쎯wrh2쎯	-10.761
▁lt쎯ip쎯	-10.761
▁nwy쎯	-10.761
jx쎯	-10.7617
▁uth쎯ywf쎯	-10.7618
jaw쎯	-10.7618
▁wtp쎯tca쎯	-10.7621
▁trfg쎯myd쎯	-10.7621
nuk1쎯	-10.7624
pei쎯og쎯dd쎯ip쎯	-10.7625
qk쎯tq쎯	-10.763
▁lwj쎯dm쎯	-10.7632
▁am쎯	-10.7635
▁ssm쎯	-10.7636
▁dd쎯ahn쎯	-10.764
▁l쎯pe쎯g쎯xe쎯	-10.7643
▁ujf쎯uqt쎯	-10.7643
▁rry쎯	-10.7644
▁tmg1쎯tg쎯tr쎯	-10.7647
▁qyvl쎯suq쎯	-10.7648
▁cbd쎯yf쎯	-10.7651
▁rdf1쎯	-10.7651
▁gfi쎯km쎯	-10.7655
▁so쎯	-10.7657
dfny0쎯	-10.7661
▁tk쎯thd쎯	-10.7663
▁vbn쎯wu쎯	-10.7666
▁gh쎯go쎯	-10.7666
▁ytb쎯tf쎯	-10.7668
▁afd0쎯ajj쎯	-10.7668
fjgh쎯	-10.767
▁쎁쎇쎀	-10.7672
▁av쎯thg0쎯	-10.7673
▁sgn쎯yy쎯	-10.7679
▁bm쎯wtf쎯	-10.768
▁wg쎯thd쎯fcl쎯	-10.768
▁ldj쎯	-10.768
▁ga쎯ynk쎯	-10.7683
▁xf쎯vq쎯	-10.7684
▁iry쎯	-10.7684
yuvo0쎯	-10.7685
▁rnn1쎯pu쎯	-10.7686
lkm쎯	-10.7687
◎	-10.7689
infy쎯	-10.7689
▁pn쎯km쎯	-10.769
▁uduk쎯gf쎯	-10.7691
▁w쎯n쎯if쎯bpf쎯	-10.7692
▁sh쎯xo쎯	-10.7693
▁puv쎯hi쎯	-10.7693
▁fym쎯	-10.7694
rnt쎯	-10.7694
▁yid쎯qvn2쎯	-10.7695
qim쎯	-10.7696
mhj쎯	-10.7698
▁xyna0쎯ty쎯	-10.77
▁wc쎯tl쎯km쎯	-10.7702
▁fw쎯w쎯	-10.7703
▁fge쎯jtyq1쎯wf쎯	-10.7705
▁tfkf1쎯yr쎯	-10.7709
▁xe쎯klj쎯	-10.771
▁nii1쎯	-10.771
gu쎯egc쎯	-10.7711
▁kjq쎯	-10.7711
▁rj쎯bc쎯	-10.7712
oufg쎯	-10.7716
▁et쎯ii쎯	-10.7716
▁qa쎯	-10.7724
▁fhc쎯	-10.7725
▁sd쎯	-10.7728
sdw쎯	-10.7729
▁tqv쎯pg쎯ntg쎯	-10.773
rmc쎯	-10.773
▁jcu쎯	-10.773
▁쎁.쎈	-10.7734
▁k쎯atd쎯ax쎯	-10.7735
▁khgm4쎯ytt쎯	-10.7735
ga쎯v쎯	-10.7736
▁xwf쎯	-10.7737
eq쎯	-10.7739
kk쎯	-10.7741
jghy쎯	-10.7742
▁djdn2쎯	-10.7742
▁ai쎯wmj0쎯	-10.7743
▁qnnk1쎯udyj쎯	-10.7743
▁mb쎯	-10.7745
▁src쎯fnw쎯	-10.7746
▁y쎯w쎯wc쎯	-10.7747
▁cwg쎯nh쎯	-10.7752
▁ywe쎯ubk0쎯	-10.7756
▁kb쎯	-10.776
faf1쎯	-10.7762
l쎯pe쎯	-10.7762
▁uxl쎯	-10.7767
▁bg쎯tg쎯uk쎯	-10.7769
▁rp쎯mt쎯rh쎯	-10.7775
▁bd쎯yad쎯	-10.7775
ym쎯tffu쎯bpf쎯suq쎯	-10.7776
▁usr쎯an쎯xn쎯	-10.778
fmud쎯	-10.7781
whf쎯	-10.7781
qqq쎯	-10.7782
▁pye쎯l쎯	-10.7782
▁xqc쎯xxe쎯	-10.7783
gwy1쎯	-10.7783
▁sg쎯ffff5쎯	-10.7786
ifh0쎯	-10.7787
fwm쎯aj쎯	-10.7787
▁yu쎯je쎯nnh쎯	-10.7789
p쎯j쎯	-10.7795
▁x쎯cwg쎯dh쎯pgk쎯	-10.7797
▁gmiu쎯	-10.78
▁tr쎯og쎯tp쎯gj쎯	-10.7801
▁ux쎯psu쎯	-10.7803
▁g쎯wrh2쎯	-10.7807
▁xcy쎯rnr쎯	-10.7807
▁pwl쎯	-10.7808
▁tfk쎯rh쎯	-10.7811
▁ujn쎯qh쎯	-10.7812
▁ftbt쎯tkgg0쎯	-10.7812
▁gmww쎯dd쎯	-10.7814
▁tu쎯ip쎯dga쎯pwv쎯	-10.7815
▁iyjh쎯jtyq1쎯	-10.7815
▁sghg1쎯wycb쎯	-10.7818
cal쎯	-10.7819
▁nh쎯mqc쎯	-10.782
▁yfj쎯qev쎯	-10.7821
gkim0쎯	-10.7824
▁gfq쎯hw쎯	-10.7825
▁kkd쎯sft쎯	-10.7827
▁rymn쎯hka쎯	-10.7829
▁wfk쎯	-10.783
▁ud쎯uft쎯	-10.7833
▁kkhn쎯	-10.7836
▁kqy쎯	-10.7837
▁dd쎯fny쎯yygy쎯wx쎯	-10.7838
▁aga쎯	-10.7841
aak쎯	-10.7843
▁ynnu쎯	-10.7844
▁py쎯wf쎯tk쎯lwj쎯	-10.7844
▁wkh쎯	-10.7845
▁wqbh쎯	-10.7848
▁lw쎯wc쎯ds쎯	-10.7849
▁txe쎯ynt쎯	-10.7849
▁usgd0쎯pg쎯	-10.7849
▁jjjj쎯fhn쎯	-10.7851
▁he쎯pg쎯	-10.7853
▁rj쎯fi쎯	-10.7854
▁gkl쎯y쎯xyna0쎯	-10.7855
▁ktm쎯yid쎯	-10.7858
▁rnw쎯lfnh쎯	-10.7864
▁rvn2쎯	-10.7864
▁w쎯lt쎯	-10.7865
▁wa쎯ytm쎯	-10.7866
yned쎯	-10.7871
▁pwt쎯	-10.7872
▁g쎯jjjj쎯	-10.7872
▁e쎯bv쎯	-10.7874
▁uu쎯vcb쎯	-10.7875
awsk쎯	-10.7875
nhj쎯rrr쎯	-10.7875
▁rb1쎯xqa쎯	-10.7875
fggh쎯uk쎯	-10.7877
ahtb쎯	-10.7877
▁xten1쎯	-10.7877
▁dgj쎯tel쎯pww쎯jg쎯	-10.7878
▁yygt쎯uit쎯	-10.7879
▁dgkn쎯gc쎯	-10.7879
▁vv쎯u쎯tu쎯	-10.7881
▁trf쎯xq쎯	-10.7882
▁fug쎯fe쎯	-10.7884
▁rc쎯tjt쎯	-10.7886
▁jgm쎯aib쎯ip쎯suq쎯	-10.7886
▁ifh0쎯	-10.7887
dxy쎯	-10.7896
▁wgku1쎯fnrt쎯	-10.7897
n0쎯	-10.7897
▁rt쎯a쎯	-10.7897
od쎯gajf쎯	-10.7898
aqrn0쎯	-10.79
▁rg쎯ic쎯nnh쎯	-10.7902
iwt쎯	-10.7907
▁rmay쎯	-10.7908
▁cf쎯tq쎯	-10.791
tdj쎯	-10.7911
▁ian0쎯wys쎯	-10.7915
▁stt쎯	-10.7915
▁fm쎯psu쎯	-10.7918
▁mt쎯fgh쎯	-10.792
▁vq쎯vld쎯	-10.7924
▁ipkh1쎯rh쎯	-10.7928
jtyq0쎯	-10.7928
▁쎈쎂	-10.793
agq쎯	-10.793
▁g쎯dd쎯	-10.7934
▁ubk0쎯if쎯	-10.7936
▁rc쎯tmdf1쎯	-10.7939
▁cep쎯mq쎯	-10.7939
▁쎅쎉	-10.7941
ptf쎯	-10.7941
▁tb쎯ab쎯	-10.7945
▁fnrt쎯jy쎯	-10.7945
▁pt쎯cm쎯	-10.7955
▁gw쎯khgm4쎯	-10.7957
▁ugdu쎯ip쎯	-10.796
쎂쎁	-10.796
▁a쎯ip쎯	-10.7962
ssf쎯	-10.7963
oge쎯pyj쎯	-10.7963
▁ubtf쎯eu쎯	-10.7966
▁h쎯jmd쎯	-10.7966
▁kml쎯ujj쎯	-10.7967
▁wdn쎯gjh2쎯	-10.7967
qwyc0쎯	-10.7969
ej쎯	-10.7972
lfof5쎯sghg1쎯sks쎯	-10.7978
wwf쎯	-10.7979
▁srm쎯awx쎯	-10.7981
▁a쎯tkgg0쎯txi쎯	-10.7981
▁ny쎯k쎯	-10.7984
dm쎯jty쎯	-10.7986
▁hi쎯tf쎯	-10.7987
▁nty1쎯rmhj쎯	-10.7988
mhkg2쎯	-10.7989
▁fg쎯w쎯	-10.799
▁kkfb1쎯	-10.7992
xtu쎯	-10.7996
▁fnr쎯iwyf2쎯	-10.7996
▁qtfj1쎯mww쎯	-10.7997
▁th쎯th쎯ta쎯	-10.7997
suf쎯	-10.7998
nhd쎯	-10.7999
▁ge쎯je쎯	-10.8
▁h쎯iytb0쎯	-10.8001
▁s쎯gxi쎯	-10.8001
▁vc쎯vc쎯	-10.8006
aynq쎯	-10.8007
ju쎯	-10.8009
▁쎇쎈	-10.8011
▁dd쎯tduh쎯maw쎯	-10.8017
▁fue쎯	-10.8023
▁kf쎯sgm쎯	-10.8026
▁xcy쎯	-10.8026
ih쎯yu쎯	-10.8027
tdh쎯	-10.803
ph쎯	-10.8031
▁uqd0쎯adm쎯	-10.8033
▁dd쎯sov쎯	-10.8033
▁sff0쎯ss쎯	-10.804
▁adj쎯	-10.804
▁txgt쎯dgkn쎯	-10.8041
▁bq쎯adnt1쎯	-10.8042
▁trf쎯bmg쎯	-10.8045
▁gw쎯gr쎯	-10.8047
▁pu쎯et쎯ntg쎯	-10.805
▁xa쎯yta쎯	-10.8051
wwj쎯wfhg쎯	-10.8053
▁ukn쎯gj쎯	-10.8055
▁tmd쎯lp쎯	-10.8055
▁dqe쎯yw쎯	-10.8056
udb쎯	-10.8057
▁e쎯lt쎯	-10.806
vj쎯	-10.806
쎈쎃	-10.8062
▁go쎯jn쎯	-10.8065
ld쎯o쎯	-10.807
▁k쎯adwe1쎯	-10.807
yygy쎯wx쎯khgp0쎯u쎯	-10.8072
▁pwy쎯	-10.8074
jjjj쎯adwe1쎯	-10.8074
▁ijo쎯f쎯	-10.8081
▁jfc쎯tg쎯	-10.8081
▁kgn쎯xg쎯	-10.8084
▁fm쎯bj쎯	-10.8085
쎇쎃	-10.8089
▁cbd쎯tha쎯	-10.809
▁gyiy쎯	-10.8094
▁aws쎯jghx쎯	-10.8094
▁tx쎯lh쎯nm쎯	-10.81
▁bu쎯xtk쎯	-10.8101
▁l쎯pe쎯bw쎯	-10.8103
▁yne쎯qh쎯	-10.811
du쎯	-10.811
▁uw쎯	-10.8111
▁lfn쎯gkip2쎯	-10.8112
▁쎁쎀쎈	-10.8113
▁g쎯kht쎯	-10.8113
vd쎯	-10.8116
yfj쎯	-10.8116
g쎯wa쎯	-10.812
kh	-10.812
▁puv쎯xe쎯	-10.8124
rwyg쎯	-10.8125
▁ivp쎯iqn쎯	-10.8126
▁wc쎯uq쎯	-10.8127
▁쎇쎆	-10.8128
▁qq쎯o쎯	-10.8129
iugi1쎯	-10.813
▁tfqp쎯iwf쎯	-10.8131
▁rgf쎯pe쎯	-10.8131
qnq쎯	-10.8134
▁uyh쎯yne쎯	-10.8136
▁cm쎯ujf쎯	-10.8138
▁qkm쎯k쎯	-10.8138
▁tn쎯	-10.8139
쎁쎆	-10.8139
cexo1쎯	-10.814
mhk쎯	-10.8141
▁rvyf쎯	-10.8145
▁dd쎯f쎯	-10.8146
▁oge쎯dqe쎯	-10.8156
wul쎯	-10.8158
▁w쎯uj쎯	-10.8162
▁jjjj쎯ygk쎯	-10.8164
gxw쎯	-10.8165
▁d쎯mw쎯	-10.8165
▁ahnh0쎯	-10.8165
▁yfn쎯hhu0쎯kkd쎯	-10.8168
▁rmn쎯	-10.8172
sty0쎯	-10.8172
▁wyq쎯aa쎯	-10.8176
▁쎉쎂	-10.8177
▁u쎯f쎯	-10.8178
▁hxx쎯qc쎯	-10.8178
wa쎯ge쎯	-10.8184
▁wxf쎯dht쎯	-10.8185
▁wc쎯www쎯	-10.8186
▁gyt쎯y쎯wtf쎯	-10.8188
▁rfc쎯if쎯	-10.819
▁fgh쎯lh쎯	-10.8191
▁gfi쎯gae쎯	-10.8192
▁qrn쎯	-10.8194
▁e쎯qk쎯	-10.8196
▁afl쎯	-10.8198
▁k쎯fny쎯	-10.8198
vnn쎯	-10.8199
▁tmg1쎯sm쎯	-10.82
▁ws쎯	-10.8201
▁m쎯qk쎯	-10.8208
▁qq쎯dnv1쎯fqb1쎯	-10.8209
▁ew쎯	-10.8211
▁yle쎯ygk쎯	-10.8214
▁qn쎯yjse쎯	-10.8215
▁jhk1쎯rb1쎯	-10.8221
▁qynm1쎯mgn쎯	-10.8223
▁ggi쎯ab쎯	-10.8225
▁emc쎯wwv쎯rmhj쎯	-10.8227
▁uxxn1쎯	-10.8228
▁о	-10.8228
▁yu쎯if쎯	-10.8231
▁wdn쎯naj1쎯	-10.8232
▁쎁쎉쎂쎀	-10.8236
▁gmww쎯dm쎯	-10.8236
▁jjjj쎯uwl쎯	-10.8236
▁ija쎯dmh쎯	-10.8238
▁wgkq0쎯wgkb2쎯	-10.824
▁jn쎯uh쎯	-10.8241
▁ss쎯f쎯	-10.8244
▁tve쎯it쎯	-10.8245
▁mmm쎯qfhw0쎯	-10.8245
▁mqc쎯	-10.8249
▁fhv쎯fha쎯	-10.8249
▁tg쎯gqf쎯	-10.825
▁wff쎯	-10.8251
▁xpw쎯pgn쎯	-10.8251
▁dgj쎯wx쎯	-10.8252
▁lfo쎯rrr쎯	-10.8252
▁uk쎯wrh2쎯	-10.8253
vgk쎯	-10.8256
▁pei쎯og쎯uk쎯	-10.8257
ufg쎯	-10.8259
▁an쎯lwj쎯tk쎯f쎯	-10.826
▁cl쎯	-10.8265
he쎯	-10.8265
▁hjj쎯	-10.8268
xtdp0쎯	-10.827
▁fmy1쎯aq쎯	-10.8272
▁wtu쎯qk쎯	-10.8272
df쎯	-10.8272
▁c쎯fm쎯	-10.8276
ke쎯	-10.8278
▁쎇쎃	-10.8281
uit쎯	-10.8284
▁yc쎯	-10.8288
▁khv쎯khp쎯	-10.829
▁xa쎯qh쎯	-10.829
▁rnb쎯thn쎯	-10.8291
gqg1쎯	-10.8294
▁≥	-10.8301
▁dd쎯rx쎯	-10.8309
▁wynn3쎯	-10.8309
▁fqb1쎯wrh2쎯	-10.8313
▁uh쎯ta쎯	-10.8313
▁uxe쎯dm쎯	-10.8314
▁qi쎯kkd쎯	-10.8321
▁gip쎯dr쎯	-10.8323
▁qvfp1쎯	-10.8327
▁mww쎯rfm쎯	-10.8327
▁tqdh쎯bj쎯	-10.8328
▁ipkh1쎯ytyh쎯	-10.8329
▁ovt쎯dj쎯	-10.833
▁dc쎯vb쎯	-10.833
tffu쎯bk쎯og쎯	-10.8331
▁wgkl0쎯	-10.8331
▁s쎯hko쎯	-10.8332
ir쎯	-10.8336
▁awx쎯ur쎯	-10.8344
▁ipg쎯yo쎯	-10.8345
쎁쎀쎀	-10.8346
▁wgkb2쎯wyc쎯	-10.8347
a쎯wt쎯ftj쎯	-10.8348
▁ywfw쎯	-10.8351
▁tg쎯idf0쎯	-10.8352
pyj쎯x쎯	-10.8352
▁td쎯qk쎯ya쎯	-10.8353
▁k쎯ny쎯ih쎯ip쎯	-10.8359
▁ghg1쎯	-10.8368
▁fhn쎯wtf쎯	-10.8368
▁ght쎯fl쎯tv쎯km쎯	-10.8369
em쎯	-10.8369
▁쎅쎁쎂	-10.837
▁whtn1쎯qy쎯	-10.8372
▁se쎯adw쎯	-10.8374
uq쎯cep쎯dd쎯ip쎯	-10.8375
▁ujfj쎯qtj쎯	-10.8375
▁iu쎯aqrn0쎯	-10.8377
▁ps쎯ihc쎯ymhj쎯	-10.8378
fl쎯wf쎯	-10.8378
▁i쎯jqr쎯	-10.8381
▁thd쎯ip쎯	-10.8382
▁gqg1쎯utd쎯w쎯	-10.8384
▁gd쎯wgkq0쎯	-10.8384
▁gkm쎯ty쎯	-10.8386
▁dwg쎯	-10.839
▁쎉쎄	-10.8402
▁bde쎯jf쎯	-10.8402
▁pynn0쎯wyq쎯	-10.8402
▁dht쎯tb쎯	-10.8402
▁fje쎯bj쎯	-10.8402
▁us쎯thd쎯	-10.8402
▁쎀.쎈	-10.8403
▁쎁쎀쎀쎀쎀	-10.8407
kkk쎯thgf0쎯	-10.8409
▁ukqb0쎯	-10.8412
▁py쎯tu쎯	-10.8416
▁wbb쎯	-10.8417
▁ajf1쎯	-10.8417
fcn쎯	-10.8418
▁fjf쎯	-10.8418
▁ga쎯ii쎯	-10.8418
gxi쎯rfm쎯	-10.8419
wcy2쎯	-10.8421
▁fj쎯hi쎯uqd0쎯	-10.8423
▁tdp쎯	-10.8424
▁ftg쎯tg쎯	-10.8428
▁pg쎯adwe1쎯	-10.8428
aiit쎯	-10.8429
▁쎄쎅쎀	-10.8431
▁sss쎯	-10.8432
▁u쎯tr쎯	-10.8432
uqyl쎯	-10.8434
sgj쎯	-10.8435
▁oanw쎯	-10.8435
▁tuu쎯tb쎯	-10.8437
▁fgh쎯pb쎯	-10.8441
k쎯yygy쎯qk쎯tq쎯	-10.8441
▁rgd쎯	-10.8441
▁og쎯mw쎯	-10.8442
▁gt쎯grq쎯	-10.8444
▁ai쎯apfq쎯ymhj쎯	-10.8445
▁qh쎯ygk쎯	-10.8445
▁iya쎯	-10.8445
tjtl쎯	-10.8447
kt쎯	-10.8447
▁ux쎯ugdu쎯	-10.8448
▁jcf쎯	-10.8449
▁fkuc1쎯ddnl쎯	-10.8452
▁iie쎯ditn0쎯	-10.8452
▁mf쎯u쎯	-10.8455
▁scf쎯ex쎯	-10.8455
▁lk쎯dd쎯	-10.8456
▁a쎯og쎯lfq쎯	-10.8463
▁g쎯vtk쎯	-10.8463
▁ffff5쎯gku쎯	-10.8466
▁bb쎯pk쎯	-10.8468
xyx쎯	-10.8471
tam쎯	-10.8472
▁sgmj쎯	-10.8474
▁thp쎯pv쎯	-10.8474
▁temq1쎯	-10.8476
▁fuk쎯yk쎯k쎯ny쎯	-10.8481
▁twt쎯ytyh쎯	-10.8481
▁bqn쎯bb쎯	-10.8488
ob쎯	-10.8488
▁cv쎯adf쎯	-10.8491
▁tdjh1쎯	-10.8494
1쎯	-10.8494
▁nae쎯bm쎯	-10.8495
▁rh쎯dw0쎯	-10.8497
▁ux쎯kht쎯	-10.8501
▁qyng쎯od쎯	-10.8501
qtj쎯	-10.8503
▁ydjn1쎯	-10.8509
▁и	-10.8511
▁qtbl쎯	-10.8511
ytey쎯	-10.8512
▁tx쎯g쎯uk쎯	-10.8512
▁쎁쎉쎂쎅	-10.8515
▁gah쎯ic쎯dd쎯ip쎯	-10.8517
▁dn쎯ygk쎯	-10.8518
▁rpwn1쎯	-10.8522
rnc쎯	-10.8523
▁uqwl쎯	-10.8526
▁hxs쎯	-10.8527
kqb쎯	-10.8528
▁eee쎯x쎯	-10.8528
▁trt쎯	-10.8534
wdk쎯	-10.8537
▁xxf쎯	-10.8538
▁an쎯pe쎯	-10.8539
▁bm쎯yam쎯	-10.854
▁goi쎯	-10.8542
▁fjg쎯dq쎯	-10.8543
▁wys쎯wgk쎯	-10.8545
▁wgk쎯wt쎯py쎯	-10.8546
▁ipf쎯	-10.8547
▁jo쎯fi쎯kkd쎯	-10.8547
idr쎯gf쎯	-10.8548
▁쎉쎃	-10.8549
▁iugg0쎯	-10.855
▁ipmq쎯tj쎯	-10.8551
▁rvh쎯	-10.8552
▁gu쎯tf쎯	-10.8554
▁tp쎯gj쎯ip쎯	-10.8555
▁sghg1쎯pv쎯ymhj쎯	-10.8556
▁ijlc쎯	-10.8557
▁l쎯n쎯	-10.8557
▁lx쎯yf쎯	-10.8559
▁qnw쎯	-10.856
▁f쎯wdm쎯	-10.8563
▁ugdu쎯kfi쎯	-10.8563
▁sfhg쎯sri쎯	-10.8566
▁ypm쎯	-10.8567
▁qqc쎯	-10.8576
wfg1쎯	-10.8577
▁qgq쎯	-10.858
tet쎯	-10.8582
▁jjj쎯wsg0쎯	-10.8582
▁pr쎯	-10.8585
▁pp쎯ujn쎯	-10.859
▁tam쎯	-10.8591
▁wqa쎯ijl쎯	-10.8594
▁rym쎯	-10.8595
▁yngk0쎯ian0쎯	-10.8595
ukn쎯a쎯tkgg0쎯jgm쎯	-10.8597
▁gkm쎯uqwm0쎯	-10.8597
▁if쎯bpf쎯	-10.8597
▁vca쎯e쎯	-10.8601
gajh쎯	-10.8602
▁rrg1쎯fnud쎯	-10.8602
rdc쎯	-10.8603
▁uq쎯cyi쎯	-10.8604
xln1쎯	-10.8606
▁ie쎯	-10.8609
▁utk쎯	-10.8609
nnl쎯	-10.8609
▁aeu쎯	-10.8611
▁o쎯wfh1쎯tc쎯	-10.8612
▁xh쎯v쎯	-10.8618
▁waw쎯ii쎯	-10.8619
▁dd쎯uyh쎯	-10.8619
▁vkb쎯	-10.862
rqw쎯	-10.8621
▁bbh쎯	-10.8621
hjj쎯	-10.8623
▁oja쎯oth쎯	-10.8623
tjh쎯gf쎯	-10.8625
dr쎯ou쎯	-10.8627
begg쎯	-10.8637
▁dyi쎯fw쎯	-10.8638
ftl쎯	-10.8639
▁ipwk0쎯qev쎯	-10.8639
▁ue쎯imk쎯	-10.8642
▁iwy1쎯	-10.8643
▁dnv1쎯wtu쎯	-10.8643
nj쎯	-10.8645
▁wyk쎯	-10.8649
▁nc쎯	-10.865
▁xkw쎯	-10.8652
▁pvs쎯	-10.8654
▁yaa쎯hko쎯	-10.8654
dt쎯	-10.8654
▁wv쎯fc쎯	-10.8655
▁mb쎯wrh2쎯	-10.8656
▁–	-10.8656
wt쎯ftj쎯	-10.8659
▁wg쎯tkgg0쎯	-10.866
▁bd쎯ruv쎯	-10.866
▁g쎯tmd쎯	-10.8664
▁9	-10.8664
▁uyh쎯yne쎯mqq쎯uh쎯	-10.8664
▁ijl쎯jef1쎯	-10.8665
▁iry쎯gqjo0쎯	-10.8667
▁vcag쎯	-10.8668
▁puh쎯wi쎯	-10.867
ynnd쎯	-10.8671
▁rrr쎯fcu0쎯	-10.8672
▁gg쎯dd쎯	-10.8675
▁dd쎯nae쎯	-10.868
▁begg쎯	-10.8682
▁ihc쎯uff쎯	-10.8691
ynty쎯	-10.8692
eri쎯	-10.8694
▁um쎯wf쎯	-10.8694
▁suq쎯wfk쎯	-10.8694
ipkm0쎯	-10.8696
▁pr쎯pt쎯	-10.8697
▁tm쎯h쎯	-10.8699
▁qh쎯l쎯ygk쎯	-10.8699
▁jn쎯sux쎯	-10.87
▁dd쎯uqd0쎯	-10.8703
▁itx쎯ii쎯	-10.8703
▁wk쎯bg쎯	-10.8706
ium쎯	-10.8707
qyv쎯	-10.8712
ls쎯	-10.8712
▁fg쎯fgh쎯rh쎯	-10.8713
▁쎈쎃	-10.8714
xi쎯	-10.8715
▁pdx쎯tr쎯	-10.8716
lgey0쎯	-10.8718
▁rjg0쎯wk쎯	-10.8718
fghy0쎯	-10.8719
▁ujfj쎯g쎯	-10.872
▁deb쎯	-10.8728
esv쎯	-10.8729
▁dd쎯dd쎯	-10.8731
▁sm쎯tsh0쎯	-10.8732
쎅쎄	-10.8736
▁wx쎯wgk쎯tr쎯	-10.8739
▁fq쎯fdm쎯	-10.8742
▁fgh쎯wtu쎯	-10.8743
bbh쎯	-10.8746
▁caq쎯	-10.8746
▁g쎯w쎯	-10.875
쎇쎉	-10.875
▁pg쎯hko쎯	-10.8751
▁a쎯tkgg0쎯rfc쎯sy쎯	-10.8751
▁qdb쎯sm쎯	-10.8752
▁k쎯fm쎯	-10.8752
nb쎯	-10.8753
▁um쎯tl쎯k쎯ny쎯	-10.8754
▁pym쎯jfc쎯	-10.8754
vfi쎯	-10.8757
fh쎯gcf쎯	-10.8759
▁gn쎯adw쎯	-10.8761
▁wbb쎯wyf0쎯	-10.8762
▁bmg쎯o	-10.8762
▁ipe쎯djb쎯	-10.8763
▁usr쎯w쎯	-10.8765
▁icd쎯tep쎯	-10.8767
▁쎄쎈쎀	-10.8768
▁gj쎯a쎯dd쎯ip쎯	-10.877
▁rtol1쎯tkh쎯	-10.877
▁dg쎯uqw쎯	-10.8773
▁#	-10.8778
▁nla쎯	-10.8781
▁wyl쎯	-10.8784
▁iytb0쎯iyni0쎯	-10.8785
▁xq쎯fjw쎯	-10.8787
▁wvt쎯adwr쎯uff쎯	-10.8787
ip쎯tu쎯	-10.879
▁wk쎯ijl쎯	-10.8791
yga쎯	-10.8793
▁mq쎯iq쎯	-10.8794
fnud쎯	-10.8796
▁tx쎯gg쎯nm쎯	-10.8799
▁xxm쎯lfod1쎯	-10.8802
▁ukn쎯fay쎯	-10.8804
▁aw쎯gef쎯lft쎯	-10.8812
tdaf쎯	-10.8812
▁qm쎯awsk쎯	-10.8813
▁wge쎯	-10.8817
▁qnq쎯ou쎯	-10.8818
▁dg쎯jtg쎯	-10.8822
▁yle쎯pp쎯	-10.8823
▁rnr쎯fnr쎯kkd쎯	-10.8825
▁jn쎯du쎯	-10.8826
▁qk쎯jgm쎯	-10.8826
▁by쎯ywfw쎯	-10.8827
▁rawk쎯	-10.8836
lkb쎯	-10.8844
▁rnd1쎯yu쎯	-10.8848
sup쎯	-10.8851
▁ih쎯gf쎯	-10.8855
▁wyf0쎯dhb쎯	-10.8856
▁qrm쎯sfi쎯pfjm1쎯	-10.8858
▁xyna0쎯dcg쎯	-10.886
▁udyj쎯gqf쎯og쎯	-10.8864
▁iyj쎯	-10.8865
▁fm쎯wycb쎯	-10.8866
oge쎯pyj쎯yygy쎯je쎯	-10.8867
▁ujf쎯qi쎯ip쎯bpf쎯	-10.8869
▁yiu쎯ndj쎯	-10.8869
▁wye쎯qd쎯	-10.8869
jan쎯	-10.887
▁tmdf1쎯fmk쎯	-10.8871
▁rgf쎯rg쎯	-10.8873
▁no쎯	-10.8876
▁pgy쎯pgy쎯	-10.8876
▁sf쎯w쎯	-10.8882
▁ym쎯ige쎯	-10.8882
▁yeu쎯	-10.8884
▁uthp쎯ftbt쎯	-10.8884
yw쎯	-10.8886
ygh쎯nnh쎯	-10.8891
▁ntt쎯tf쎯	-10.8892
▁mmm쎯sf쎯	-10.8897
▁tfqm1쎯iwyf2쎯	-10.8897
▁aak쎯	-10.8899
upy쎯	-10.89
▁txi쎯ovt쎯	-10.8903
▁ow쎯gs쎯	-10.8906
▁gu쎯yy쎯tfk쎯oy쎯	-10.8908
▁yff쎯wys쎯	-10.891
▁fii쎯td쎯	-10.891
▁ffff5쎯ssss쎯	-10.8912
▁tk쎯lwj쎯	-10.8913
ukd0쎯jghm1쎯	-10.8913
▁uqw쎯rh쎯	-10.8916
▁wgk쎯uqwm0쎯	-10.8916
▁ga쎯a쎯	-10.8922
▁fwf쎯wa쎯	-10.8925
▁pwd쎯bm쎯am쎯fmud쎯	-10.8927
mu쎯	-10.8929
▁py쎯wf쎯ip쎯	-10.8929
▁i쎯fuf1쎯	-10.893
▁ym쎯tld1쎯dfy쎯	-10.8934
ftbt쎯ip쎯	-10.8934
▁fl쎯	-10.8935
▁bda쎯	-10.8939
▁hxw쎯	-10.8941
▁wtf쎯wgkb2쎯	-10.8941
vff쎯	-10.8943
ybb쎯	-10.8946
▁wk쎯pg쎯	-10.8948
▁fa쎯wsg0쎯	-10.8949
▁yce쎯w쎯	-10.895
▁jcf쎯pu쎯	-10.895
tev쎯	-10.895
py쎯wf쎯tu쎯ip쎯bpf쎯	-10.895
▁pww쎯kkd쎯	-10.8952
▁tmgk2쎯	-10.8953
▁aq쎯ght쎯ywf쎯	-10.8955
▁uth쎯tfq	-10.8955
qj쎯	-10.8956
▁bm쎯tg쎯f쎯	-10.8961
▁rvyl쎯	-10.8961
▁vtk쎯qynm1쎯	-10.8962
▁nyu쎯tp쎯	-10.8962
▁gmww쎯mdfj쎯	-10.8965
▁dd쎯ooo쎯	-10.8966
▁a쎯og쎯aq쎯	-10.8971
▁qh쎯bm쎯	-10.8971
▁maw쎯	-10.8972
▁ygk쎯yyy쎯ip쎯	-10.8973
▁nbm쎯	-10.8974
▁ddg0쎯	-10.8978
▁fuf1쎯	-10.8978
ishg쎯	-10.8983
▁w쎯rnb쎯	-10.8986
wgk쎯qqqq1쎯	-10.8987
▁iie쎯gxgu쎯	-10.8987
qtal1쎯	-10.8991
▁je쎯ige쎯	-10.8994
▁xl쎯gcft2쎯	-10.8995
▁fjt쎯	-10.8996
wgmy3쎯	-10.9001
▁pei쎯dl쎯	-10.9002
▁pp쎯f쎯	-10.9003
bmg쎯	-10.9005
qdb쎯	-10.901
▁cd쎯yaf쎯	-10.9013
▁tkh쎯tkh쎯	-10.9016
▁fnrt쎯wgk쎯	-10.9018
eb쎯tl쎯	-10.9019
▁tcy쎯w쎯	-10.9019
▁jy쎯qc쎯	-10.902
▁wynb쎯jjjj쎯	-10.9021
▁tavn쎯yqa쎯	-10.9025
▁pei쎯ax쎯	-10.9026
a쎯hw쎯	-10.9026
▁dx쎯udi쎯	-10.9033
▁qh쎯uq쎯	-10.9034
▁sw쎯	-10.9034
▁rpv쎯yssr쎯	-10.9037
▁]	-10.9039
fs쎯	-10.904
▁sgy쎯	-10.9044
▁ynnd쎯	-10.9045
▁dgt1쎯ta쎯	-10.9047
aqu1쎯	-10.9049
▁df쎯	-10.9051
▁wtf쎯ujn쎯	-10.9052
▁qf쎯qyo쎯	-10.9052
▁jb쎯qq쎯	-10.9052
▁ymf쎯dga쎯	-10.9055
jlx쎯	-10.9056
▁ybo쎯qntf쎯	-10.9059
▁ym쎯xe쎯k쎯ip쎯	-10.9059
▁lsh쎯	-10.9063
▁ghd0쎯dm쎯	-10.9065
▁lkd쎯nh쎯	-10.9067
▁f쎯tv쎯	-10.9067
쎄쎀쎀	-10.9068
qejy쎯	-10.9069
▁sdw쎯	-10.9069
▁f쎯nfc쎯	-10.907
ipwk0쎯	-10.9071
jft쎯	-10.9072
▁ynm쎯dmh쎯	-10.9077
▁bm쎯tld1쎯	-10.9077
▁itx쎯ud쎯	-10.9078
xfm쎯	-10.908
blf쎯	-10.9081
u쎯og쎯	-10.9082
▁ua쎯ty쎯	-10.9085
ngkg쎯	-10.9087
▁zzy4쎯	-10.9089
▁yaop쎯	-10.9091
▁dgtg쎯wx쎯	-10.9094
▁dp쎯sfi쎯	-10.9095
▁uq쎯lwj쎯th쎯	-10.9097
wv쎯qkhh1쎯	-10.9098
▁ubtf쎯	-10.9099
▁adu1쎯	-10.9099
▁tk쎯e쎯	-10.9102
▁n쎯wwwk쎯	-10.9103
▁pym쎯o쎯	-10.9104
▁ggg1쎯bb쎯	-10.9104
▁ym쎯bk쎯	-10.9105
▁rpw쎯rmhj쎯kkd쎯	-10.9109
▁jtyl쎯gj쎯	-10.911
▁uq쎯cep쎯fcp쎯lwg쎯	-10.9111
wgk쎯m쎯	-10.9111
rtt쎯	-10.9113
▁xpw쎯	-10.9115
nx쎯gog쎯	-10.9115
▁a쎯pei쎯	-10.9116
▁ii쎯jjj쎯	-10.9121
▁wfd쎯	-10.9121
▁ivg쎯	-10.9121
▁ai쎯itx쎯	-10.9122
▁rnx쎯	-10.9123
▁fhn쎯ajj쎯	-10.9123
xtdh0쎯	-10.9125
▁pe쎯et쎯	-10.9125
▁infy쎯	-10.9125
▁fgh쎯mt쎯	-10.9127
▁ipg쎯xcf쎯	-10.9128
▁ipm쎯tkw쎯	-10.913
vcn0쎯	-10.9131
▁g쎯j쎯	-10.9134
▁l쎯bf쎯sfi쎯uwy1쎯	-10.9139
▁iyc쎯jhnr쎯	-10.9142
▁tgj쎯tjt쎯	-10.9142
▁oat쎯rvyo쎯	-10.9143
▁wfny0쎯fcl쎯	-10.9145
▁sfw쎯	-10.9146
▁gmww쎯ts쎯	-10.9148
▁uth쎯tfqp쎯	-10.915
▁gbnm0쎯	-10.915
▁yaf쎯	-10.9152
▁dr쎯sg쎯	-10.9152
▁ab쎯xq쎯	-10.9153
▁twf쎯kgn쎯	-10.9156
▁uqwk쎯yqj쎯eb쎯tl쎯	-10.9158
tdp쎯sgn쎯kkd쎯	-10.9159
▁cqy쎯oge쎯	-10.9159
▁tuj쎯ifk쎯	-10.916
▁dlf쎯ufk0쎯	-10.9167
thl쎯	-10.9173
▁qq쎯nfc쎯	-10.9175
▁wc쎯n쎯	-10.9175
▁ptkm0쎯pg쎯	-10.9175
▁yce쎯	-10.9177
▁twik쎯	-10.9179
▁khij쎯	-10.918
▁fje쎯tfpd쎯	-10.918
▁ihi쎯	-10.9183
▁g쎯xeg쎯	-10.9189
▁if쎯w쎯	-10.919
▁ngk쎯wyc쎯uk쎯	-10.9191
jjjj쎯rb1쎯	-10.9198
ee쎯	-10.9206
▁yny0쎯gajf쎯	-10.9206
▁l쎯u쎯	-10.9207
gk	-10.9208
▁trf쎯ta쎯	-10.921
▁v쎯rvyo쎯	-10.921
▁wwgj0쎯	-10.9212
aigh쎯	-10.9213
▁uf쎯nf쎯wsg0쎯	-10.9217
▁dc쎯ype쎯	-10.9217
▁nge쎯xft쎯	-10.9217
jhk1쎯	-10.9219
eqd쎯	-10.9219
▁ol쎯ck쎯	-10.922
qten0쎯	-10.9224
▁iyc쎯wsg0쎯	-10.9226
▁ad쎯dbm쎯td쎯ykw쎯	-10.9227
▁fh쎯xg쎯	-10.9228
▁tr쎯ou쎯	-10.9229
vfhp1쎯tam쎯	-10.9229
▁qgo쎯thg0쎯	-10.9232
▁ii쎯jn쎯	-10.9233
▁dd쎯ip쎯xxf쎯og쎯	-10.9234
▁wgen1쎯	-10.9237
▁dx쎯udi쎯whf쎯og쎯	-10.9237
dif쎯	-10.9237
▁gef쎯itx쎯ith쎯	-10.9239
▁qtb쎯	-10.9239
▁nnh쎯pgn쎯	-10.9244
tux쎯	-10.9248
▁wvm쎯ls쎯	-10.9249
▁wynk쎯yq쎯	-10.9249
▁tjt쎯rmhj쎯	-10.925
▁rdj쎯ii쎯	-10.9254
gj쎯ywx쎯	-10.9256
▁ep쎯vb쎯	-10.9259
▁ipq쎯bj쎯ymhj쎯	-10.926
▁gkl쎯ukn쎯x쎯gj쎯	-10.9265
▁쎁쎃쎀쎀	-10.9266
uv쎯	-10.9268
▁xtu쎯tmd쎯	-10.9271
▁egc쎯ta쎯	-10.9274
▁ga쎯lw쎯	-10.9276
▁ad쎯hich쎯ftbt쎯	-10.9276
▁dj쎯wxm쎯	-10.9277
udg2쎯	-10.9278
▁yff쎯yygy쎯	-10.9281
▁nty1쎯tq쎯	-10.9282
tfqm1쎯	-10.9284
ua쎯	-10.9288
bh쎯	-10.9289
▁mmm쎯eyni쎯	-10.9291
yne쎯ovt쎯	-10.9291
▁tdtf쎯vfhp1쎯	-10.9294
▁iq쎯xtf쎯	-10.9295
ew쎯	-10.9295
lpdk0쎯	-10.9295
tri쎯	-10.9295
fcl쎯tr쎯	-10.9296
▁fc쎯iyc쎯	-10.93
▁mq쎯ynnd쎯	-10.93
▁aqt쎯ith쎯	-10.9302
▁rk쎯	-10.9304
▁wyv쎯fhl쎯	-10.9307
▁gj쎯gk쎯wf쎯	-10.9308
▁ujqn0쎯ydn쎯	-10.9309
▁jn쎯begg쎯	-10.931
qyi1쎯	-10.9313
ykge쎯	-10.9315
▁fgi쎯	-10.9315
udv쎯	-10.932
ugdu쎯l쎯	-10.932
▁mhg쎯	-10.9321
ykg쎯	-10.9322
fgjg쎯	-10.9323
▁wvm쎯	-10.9325
▁cbt쎯rfh0쎯	-10.9328
yge쎯	-10.9329
▁lfo쎯ju쎯	-10.9329
▁sfi쎯sg쎯	-10.933
▁fqp쎯qi	-10.9332
▁dgkn쎯yid쎯	-10.9335
▁쎁.쎆	-10.9338
▁wk쎯pv쎯	-10.9342
▁tf쎯sb쎯	-10.9344
▁yne쎯gajf쎯	-10.9344
▁ipf쎯yaa쎯	-10.9347
▁sf쎯mw쎯	-10.9348
▁w쎯ft쎯fuk쎯udyj쎯	-10.9349
wf쎯yyq쎯	-10.9351
▁sghg1쎯ide쎯	-10.9351
▁ftbt쎯dga쎯	-10.9352
▁dd쎯gku쎯	-10.9354
▁rfc쎯anb0쎯	-10.9355
▁hv쎯tu쎯	-10.9355
▁pdc쎯cm쎯	-10.9356
▁g쎯hi쎯	-10.9356
▁yqa쎯uk쎯	-10.9357
qtjh0쎯	-10.9357
▁bm쎯kkk쎯	-10.9358
▁imj쎯xwf쎯	-10.9358
▁ii쎯jn쎯uh쎯	-10.9361
▁ugdu쎯vvv쎯	-10.9362
▁dn쎯kkk쎯	-10.9364
▁yvcb쎯	-10.9371
▁rx쎯	-10.9371
▁wgj쎯j쎯	-10.9372
▁dmh쎯lfhf쎯	-10.9373
▁rer쎯	-10.9374
▁wvl쎯	-10.9374
▁ytey쎯tf쎯py쎯	-10.9375
▁gj쎯gk쎯ta쎯	-10.9379
isjg쎯	-10.938
▁io쎯ii쎯	-10.9384
▁쎆쎇	-10.9387
▁dg쎯xwy쎯	-10.9387
tfj1쎯	-10.9392
▁vfb쎯su쎯	-10.9392
▁gmi쎯kq쎯	-10.9393
▁쎂.쎄	-10.9399
iwe쎯	-10.9402
▁ysj쎯	-10.9402
▁sgtk0쎯hpgh쎯	-10.9403
▁ta쎯iit쎯ymhj쎯	-10.9404
kn쎯	-10.9404
wfd쎯	-10.9409
▁wg쎯suq쎯	-10.9415
▁rpwn1쎯rnbm쎯	-10.9417
▁wyf0쎯	-10.9422
▁aup쎯	-10.9426
abe쎯	-10.9428
falw쎯	-10.9429
ts쎯wrh2쎯	-10.943
▁gj쎯ip쎯	-10.9437
▁oge쎯ya쎯	-10.9444
mb쎯	-10.9444
▁jy쎯tfl쎯qfhw0쎯	-10.9446
▁uy쎯wh쎯	-10.9447
▁bll쎯	-10.9447
▁yo쎯dfy쎯kkd쎯	-10.9447
qjn쎯	-10.9449
▁ndj쎯lft쎯	-10.9451
▁ym쎯wv쎯bb쎯	-10.9452
▁aynr쎯	-10.9453
▁l쎯n쎯x쎯iyj쎯	-10.9453
▁bc쎯wa쎯	-10.9455
▁ymf쎯yaa쎯	-10.9457
▁fhw쎯r쎯	-10.9458
▁ty쎯wgg0쎯	-10.9461
▁sm쎯wsg0쎯	-10.9461
▁lp쎯lwj쎯	-10.9462
▁dm쎯ue쎯	-10.9463
yca쎯	-10.9465
uqwn0쎯	-10.9467
▁dtf쎯wgkb2쎯	-10.9468
▁mmgj쎯bwt쎯	-10.9472
▁rh쎯go쎯	-10.9476
▁qkqy0쎯	-10.9476
▁c쎯ux쎯	-10.948
ftxu0쎯	-10.9484
▁aq쎯wug1쎯	-10.9485
▁tjs쎯	-10.9486
▁tjt쎯qgb쎯	-10.9489
▁wdt쎯dn쎯	-10.949
▁k쎯ai쎯	-10.9491
▁yc쎯wv쎯v쎯rpl쎯	-10.9492
▁pg쎯nd쎯	-10.9493
pww쎯jg쎯	-10.9494
▁xww쎯sam쎯	-10.95
▁fq쎯qc쎯	-10.9503
▁rbcc쎯	-10.9503
▁pyk쎯	-10.9503
▁scf쎯ssss쎯	-10.9504
▁itx쎯fakg1쎯	-10.9504
▁itx쎯mdfj쎯	-10.9508
▁ige쎯ujfj쎯	-10.951
▁qdb쎯	-10.9512
▁uxxn1쎯uduk쎯	-10.9514
▁v쎯ugm쎯	-10.9516
▁fad쎯tq쎯	-10.9517
▁ipk쎯ght쎯	-10.9518
▁k쎯md쎯jn쎯pym쎯ck쎯	-10.9519
▁vkf1쎯kqm쎯	-10.9519
▁iry쎯nge쎯	-10.9521
▁jf쎯ynt쎯	-10.9521
▁yt쎯ny쎯	-10.9525
▁ck쎯ux쎯	-10.9528
▁rmhj쎯tfkp쎯um쎯	-10.9528
pwm쎯	-10.9529
▁sc쎯lt쎯	-10.9533
qgfj쎯	-10.9534
▁쎇쎁	-10.9535
dwf쎯	-10.9538
▁utd쎯	-10.9541
▁jh쎯hq쎯	-10.9541
▁ijl쎯ytyh쎯ymhj쎯	-10.955
rkk쎯	-10.9552
▁hk쎯e쎯	-10.9552
▁rhk쎯ve쎯	-10.9554
▁adwe1쎯wxm쎯	-10.9554
▁ybf0쎯rh쎯	-10.9558
▁khd쎯fha쎯	-10.9561
▁w쎯ntg쎯wx쎯	-10.9562
▁g쎯dj쎯	-10.9563
ja쎯	-10.9564
▁tey쎯	-10.9573
ihcv쎯	-10.9573
▁ddu0쎯yny0쎯	-10.9574
▁ae쎯txi쎯	-10.9575
▁sm쎯kkd쎯w쎯	-10.9575
▁vte쎯	-10.9575
mhh쎯	-10.9577
▁su쎯	-10.9579
▁wy쎯wtf쎯	-10.9582
▁rnp쎯ad쎯sgc쎯	-10.9584
ygk쎯yyy쎯	-10.9587
▁ipkh1쎯wygg쎯	-10.9588
adwr쎯fjg쎯	-10.9591
▁cf쎯xx쎯	-10.9592
▁qgbn0쎯	-10.9592
▁et쎯ax쎯	-10.9593
▁tjt쎯jgf쎯dd쎯ip쎯	-10.9595
tol쎯	-10.9595
lfod1쎯	-10.9598
▁gajh쎯gk쎯	-10.9599
▁xh쎯aqkr쎯	-10.96
▁wsg0쎯rmhj쎯	-10.9601
fjfh1쎯	-10.9602
▁g쎯jgf쎯	-10.9608
▁aw쎯wv쎯	-10.9609
▁qvb쎯	-10.9609
▁wgep쎯	-10.9611
▁pei쎯og쎯dd쎯ip쎯	-10.9613
▁jtd쎯	-10.9622
▁tdij쎯	-10.9625
▁rnt쎯	-10.9625
▁lh쎯yy쎯	-10.9626
▁vp쎯	-10.9627
▁je쎯gd쎯	-10.9627
▁rfq쎯	-10.9629
▁fq쎯xg쎯jn쎯	-10.963
▁ige쎯rvyo쎯	-10.963
▁ht쎯	-10.9632
xww쎯	-10.9633
▁ga쎯cep쎯	-10.9636
▁igey쎯	-10.9638
▁wv쎯int쎯	-10.9641
▁pei쎯sm쎯	-10.9643
▁fku쎯ndj쎯	-10.9644
▁xn쎯tv쎯	-10.9645
f0쎯	-10.965
bpx쎯	-10.9651
uq쎯cep쎯	-10.9653
▁un쎯	-10.9653
cccg쎯	-10.9658
▁spq쎯	-10.9659
▁qr쎯uthp쎯	-10.9664
▁rv쎯	-10.9665
▁faw쎯hh쎯	-10.9666
▁lfc쎯	-10.9669
sdy2쎯	-10.9673
nk쎯	-10.9676
▁wxf쎯gmy1쎯	-10.9676
▁nh쎯xpw쎯	-10.9681
▁tfl쎯yce쎯	-10.9683
▁yygy쎯nnh쎯	-10.9683
▁gmf쎯tg쎯	-10.9686
▁ux쎯wycb쎯	-10.969
▁a쎯tv쎯	-10.969
▁rkk쎯	-10.9693
▁iq쎯je쎯	-10.9695
▁isgg0쎯kc쎯	-10.97
▁um쎯lud쎯	-10.9701
▁dfa쎯	-10.9702
▁kwn쎯	-10.9703
▁jq쎯adwe1쎯	-10.9704
▁va쎯	-10.9705
▁qgb쎯qje쎯	-10.9705
▁쎁쎁쎀쎀	-10.9709
▁dd쎯gj쎯	-10.971
▁mw쎯ny쎯	-10.9714
▁ii쎯h쎯	-10.9718
쎁쎁	-10.9721
▁opw쎯	-10.9722
▁td쎯egc쎯	-10.9726
pyuf쎯	-10.9727
쎁쎄	-10.9727
▁yi쎯yfn쎯	-10.9729
fuf1쎯	-10.9731
sga쎯	-10.9732
▁k쎯l쎯ugdu쎯sy쎯	-10.9733
▁whw쎯	-10.9733
▁jn쎯ck쎯	-10.9737
▁aw쎯wbj쎯	-10.9742
▁sp쎯	-10.9744
oja쎯	-10.9745
uqb쎯	-10.9745
▁tev쎯	-10.9746
▁awx쎯xyy0쎯	-10.9748
madt2쎯	-10.9749
▁emc쎯ai쎯	-10.9749
▁ux쎯dd쎯	-10.9749
▁pj쎯udjh쎯	-10.9751
▁afqb2쎯ide쎯	-10.9751
▁tr쎯gj쎯ip쎯	-10.9754
fhn쎯go쎯	-10.9756
▁wt쎯yngk0쎯	-10.9757
▁adw쎯rg쎯	-10.9757
▁thd쎯drin쎯	-10.9757
ydjn1쎯	-10.9759
deb쎯	-10.9761
▁xg쎯ts쎯	-10.9761
▁ert쎯	-10.9762
▁ym쎯usr쎯	-10.9763
▁y쎯ou쎯	-10.9763
▁yfj쎯rep쎯	-10.9764
yygt쎯ytyh쎯	-10.9768
▁su쎯bb쎯	-10.9777
▁rjq쎯	-10.9778
▁oqdo쎯ou쎯	-10.9781
▁uy쎯fgh쎯	-10.9786
▁gd쎯qd쎯rnb쎯	-10.9788
l쎯bf쎯	-10.979
▁c쎯h쎯ip쎯dl쎯	-10.9792
▁me쎯tu쎯	-10.9794
▁ae쎯qde쎯	-10.9794
▁sad쎯	-10.9797
tu쎯rfc쎯	-10.9798
▁pu쎯yk쎯	-10.9799
▁wwv쎯	-10.9801
▁dm쎯src쎯	-10.9802
▁lhnh쎯xe쎯	-10.9803
▁xr쎯	-10.9803
▁aqg쎯aqr쎯isgg0쎯	-10.9803
▁ynky2쎯	-10.9803
▁krt쎯isgg0쎯	-10.9805
▁gae쎯rvyl쎯	-10.9806
▁kkkk0쎯eb쎯	-10.9807
▁cb쎯ih쎯gu쎯	-10.9808
▁ukn쎯jtyl쎯	-10.9809
▁dcg쎯	-10.981
▁α	-10.9812
▁nj쎯nj쎯	-10.9812
grd쎯	-10.9813
▁fc쎯uk쎯	-10.9817
▁ujqu쎯	-10.9821
▁쎈쎁	-10.9824
▁gw쎯	-10.9825
▁tdp쎯yid쎯ugh쎯	-10.9826
▁wycm0쎯nf쎯w쎯	-10.9827
▁y쎯nf쎯	-10.9828
▁qqqq1쎯thgf0쎯	-10.9828
▁iyw쎯jjj쎯	-10.983
▁mmm쎯h쎯	-10.983
▁rgd쎯bfw쎯	-10.9832
▁ip쎯ipkf0쎯	-10.9833
▁ybv쎯xan쎯	-10.9837
▁ynm쎯ey쎯	-10.9839
▁rnc쎯	-10.984
▁cd쎯cm쎯	-10.984
▁sym쎯	-10.9842
▁tfkd쎯rp쎯	-10.9842
▁cf쎯rt쎯	-10.9843
▁pnt쎯av쎯	-10.9844
dqq쎯	-10.9848
▁rg쎯akgl쎯	-10.9849
trh쎯	-10.9851
▁rj쎯qk쎯	-10.9851
▁gkh0쎯	-10.9852
▁w쎯o쎯	-10.9852
▁siq쎯awx쎯	-10.9853
▁acbt0쎯	-10.9854
vc쎯	-10.9857
cwg쎯	-10.9858
▁pp쎯bb쎯	-10.9858
▁ny쎯tld1쎯tp쎯	-10.9859
▁a쎯um쎯tp쎯gj쎯	-10.9862
▁rs쎯fmk쎯	-10.9863
▁xgo쎯ytt쎯	-10.9865
▁eu쎯gkh0쎯	-10.9867
euk쎯	-10.9871
tqt쎯	-10.9871
▁rhc쎯qf쎯	-10.9871
▁ajq쎯	-10.9874
▁wynm0쎯	-10.9875
▁waj쎯jtyq0쎯	-10.9875
▁tgj쎯wht쎯	-10.9876
▁tfkp쎯xqa쎯	-10.9878
▁ivs쎯	-10.9879
▁wqa쎯gf쎯	-10.988
tv쎯ipkh1쎯tv쎯	-10.9883
▁g쎯mhg쎯	-10.9885
▁wht쎯ys쎯	-10.9885
▁lx쎯	-10.9885
▁bm쎯uqwm0쎯	-10.9885
▁hid쎯	-10.9885
bwf쎯	-10.9886
▁쎁쎀쎄	-10.9886
ybf0쎯	-10.9887
gkq쎯	-10.9887
ubk0쎯	-10.9889
▁쎁쎂쎅	-10.9892
▁mb쎯ght쎯	-10.9893
▁ai쎯ic쎯	-10.9893
▁ulg쎯atd쎯	-10.9894
▁q쎯ymhj쎯	-10.9895
▁qkm쎯mw쎯	-10.9897
▁yygy쎯kq쎯	-10.9898
▁uoo쎯	-10.9898
▁ypm쎯ya쎯	-10.9898
dgty쎯	-10.9901
▁sf쎯qfhw0쎯	-10.9903
tg쎯ywwf쎯	-10.9903
▁edjn쎯	-10.9903
▁rte쎯	-10.9904
▁mt쎯wsk쎯	-10.9906
bu쎯pfjm1쎯	-10.9906
gfq쎯	-10.9907
▁fggh쎯rdn쎯	-10.9908
▁fq쎯w쎯	-10.9911
▁el쎯	-10.9913
▁be쎯bj쎯	-10.9915
▁ght쎯tl쎯	-10.9915
▁gu쎯yy쎯	-10.9915
cad쎯	-10.9917
▁い	-10.9917
▁rn쎯et쎯	-10.9919
fjg쎯	-10.9921
▁쎈쎉	-10.9921
▁g쎯uyh쎯	-10.9927
▁gh쎯iytb0쎯	-10.9928
qyt쎯	-10.9928
▁k쎯l쎯w쎯n쎯dd쎯ip쎯	-10.9928
wy	-10.9931
nv쎯	-10.9931
▁vtg쎯qk쎯	-10.9932
▁kv쎯	-10.9935
▁adef0쎯aynr쎯	-10.9936
▁vijh쎯	-10.9938
▁oft쎯ol쎯	-10.9939
▁rawk쎯vfhp1쎯	-10.994
▁iy쎯mm쎯ge쎯	-10.9941
▁ih쎯ktn쎯	-10.9942
▁yid쎯iv쎯	-10.9944
▁rpwi쎯	-10.9945
▁pfq쎯tlf2쎯	-10.9945
▁vt쎯dx쎯	-10.9946
▁gkih쎯lg쎯	-10.9946
▁it쎯qt쎯	-10.9946
opf쎯	-10.9947
xy쎯	-10.9948
▁i쎯qaj쎯	-10.995
▁쎈쎇	-10.9952
▁ry쎯vfhp1쎯	-10.9953
쎁쎇	-10.9954
▁itfk쎯	-10.9955
▁dg쎯qe쎯gae쎯	-10.9959
ufw쎯	-10.9959
▁gyt쎯xe쎯	-10.996
▁waj쎯egl쎯	-10.996
▁yygy쎯wys쎯	-10.9961
▁mq쎯ijo쎯	-10.9966
▁jo쎯tj쎯	-10.997
md쎯	-10.9973
▁hl쎯	-10.9974
▁rg쎯ftj쎯	-10.9976
▁xox쎯	-10.9979
▁lkd쎯ytt쎯	-10.9979
▁o쎯hx쎯	-10.998
ahnh0쎯	-10.9981
▁lk쎯ii쎯	-10.9982
sux쎯	-10.9985
xa쎯qc쎯	-10.9986
ajdn쎯	-10.9989
▁uqi쎯	-10.9989
▁rhj쎯	-10.9989
▁wksf쎯	-10.9991
▁wt쎯yygy쎯	-10.9991
▁wtc쎯syp쎯	-10.9993
▁e쎯fhb쎯	-10.9995
ftbt쎯tv쎯	-10.9998
▁dg쎯eee쎯	-10.9999
▁qnu0쎯	-10.9999
tmgt1쎯	-11
▁rfm쎯wk쎯	-11
▁fg쎯adwe1쎯	-11
▁uk쎯ait쎯	-11.0001
▁bwg쎯	-11.0001
rrp쎯	-11.0002
ieb쎯	-11.0003
▁uqf쎯wf쎯	-11.0009
▁sk쎯waw쎯	-11.0012
▁trf쎯u쎯	-11.0015
▁ue쎯fj쎯	-11.0016
▁aft쎯tq쎯	-11.0018
▁쎆쎉	-11.002
▁afb쎯ujfb0쎯	-11.002
▁q쎯suq쎯	-11.002
nhy쎯	-11.0022
▁ajd쎯adwr쎯tu쎯	-11.0025
▁mmm쎯sdm쎯	-11.0027
▁xyna0쎯tkgg0쎯	-11.0027
▁ux쎯dm쎯	-11.0028
ivg쎯	-11.0028
▁amd쎯st쎯uff쎯	-11.003
▁쎉쎁	-11.0034
ght쎯tgm쎯	-11.0034
▁quh1쎯	-11.0035
▁◆	-11.0037
▁′′	-11.0039
▁^	-11.0039
▁mn쎯	-11.0039
teg1쎯	-11.0042
▁a쎯ip쎯bpf쎯	-11.0042
▁rgs쎯	-11.0043
▁stx쎯awx쎯	-11.0044
▁wg쎯tq쎯	-11.0045
ifn쎯	-11.0045
▁udb쎯ytyh쎯ymhj쎯	-11.0047
▁rbcc쎯wqj쎯sm쎯	-11.005
▁rum쎯	-11.0053
ag쎯nm쎯	-11.0055
▁yc쎯jn쎯kkd쎯	-11.0059
▁vtg쎯qa쎯	-11.006
▁eb쎯et쎯	-11.0062
▁pu쎯hka쎯	-11.0062
pntj쎯	-11.0063
▁쎁쎉쎂쎄	-11.0064
▁tx쎯g쎯qk쎯	-11.0066
▁pl쎯tqf쎯	-11.007
▁yt쎯yca쎯	-11.0072
▁qevj쎯	-11.0073
▁vkf1쎯	-11.0076
ymc쎯ytb쎯	-11.0076
▁y쎯hid쎯	-11.0077
▁f쎯qk쎯	-11.0077
▁iyjh쎯jtyq1쎯kkd쎯	-11.0077
rcn1쎯	-11.0079
bqv쎯	-11.0081
▁쎅%	-11.0082
▁yygy쎯sg쎯	-11.0083
▁ep쎯ny쎯	-11.0083
▁k쎯fnrt쎯	-11.0085
▁sg쎯rfm쎯	-11.0087
▁wycb쎯rp쎯	-11.0087
nn쎯	-11.009
▁rvl쎯	-11.009
ybt쎯	-11.0092
▁uuk0쎯jtyq1쎯pgc쎯	-11.0094
yuv쎯	-11.0094
▁rwyg쎯tf쎯	-11.0095
▁rf쎯e쎯	-11.0096
▁um쎯ip쎯bpf쎯	-11.0096
▁oge쎯vo쎯	-11.0098
rmhj쎯ya쎯	-11.0098
▁cep쎯wwwk쎯	-11.0101
▁tjgh2쎯	-11.0101
hhhh쎯sfi쎯	-11.0101
▁sgyb쎯	-11.0103
▁xl쎯ta쎯	-11.0108
pw쎯uj쎯	-11.0114
▁pwf쎯mqb쎯	-11.0114
gik쎯	-11.0117
▁yvc쎯	-11.0118
▁gd쎯xg쎯	-11.0119
▁iry쎯v쎯	-11.012
쎃%	-11.012
▁jn쎯a쎯	-11.0121
cbn0쎯	-11.0121
▁pj쎯sj쎯	-11.0122
▁adj쎯tvfh1쎯pr쎯	-11.0124
▁cbts0쎯lqw쎯	-11.0125
▁tux쎯bt쎯	-11.0126
▁mq쎯fghy2쎯	-11.0131
▁dm쎯qn쎯	-11.0133
▁xa쎯isk쎯	-11.0133
▁tg쎯wx쎯	-11.0133
▁qqqq1쎯qve쎯	-11.0138
▁yo쎯wyo쎯	-11.0138
▁fp쎯txgt쎯	-11.0147
▁rnu쎯	-11.0147
▁ftbt쎯nf쎯	-11.0148
dyi쎯	-11.0149
▁5	-11.0151
▁쎂쎁쎀	-11.0153
▁yam쎯	-11.0153
ms쎯	-11.0154
▁ym쎯xe쎯bk쎯tq쎯	-11.0155
▁bu쎯dtb쎯	-11.0156
▁ihk쎯	-11.0157
▁ua쎯djd쎯	-11.0158
▁amw쎯rcy0쎯	-11.016
▁bg쎯tg쎯nnk쎯	-11.0162
qyv쎯jqr쎯	-11.0165
sgx쎯	-11.0166
▁hwb쎯lwx쎯	-11.0166
▁ndj쎯sg쎯	-11.0169
▁wycm0쎯pum쎯	-11.0174
▁ntg쎯klj쎯	-11.0175
▁udi쎯uce쎯	-11.0177
▁awx쎯ycb쎯	-11.0177
▁tt쎯kd쎯	-11.0181
▁bs쎯ru쎯wr쎯	-11.0183
▁nmh쎯	-11.0183
yygy쎯je쎯	-11.0184
▁sks쎯	-11.0185
mpf쎯	-11.0186
g1쎯	-11.0186
cqw쎯	-11.0186
gmiu쎯	-11.0189
▁ih쎯veg쎯	-11.019
▁nge쎯ab쎯	-11.0191
▁fwyc2쎯wrh2쎯	-11.0195
▁pw쎯rrr쎯	-11.0195
▁jtg쎯xe쎯	-11.0196
▁dgh쎯w쎯	-11.0196
▁ugm쎯yo쎯	-11.0196
▁wg쎯lt쎯	-11.0197
▁xan쎯	-11.0205
▁ta쎯dd쎯	-11.0209
ton쎯	-11.0209
▁usg쎯tgj쎯	-11.0209
▁oo쎯	-11.0213
▁ifhw쎯	-11.0213
▁de쎯m쎯	-11.0214
w쎯n쎯wa쎯ge쎯dd쎯wf쎯	-11.0219
▁itx쎯kkkk0쎯	-11.022
▁fu쎯wfhg쎯	-11.0221
▁ai쎯mq쎯	-11.0222
▁bu쎯shn쎯	-11.0225
udjh쎯	-11.0228
▁iytb0쎯fmk쎯	-11.0229
▁gog쎯rvyo쎯gkp쎯	-11.023
ek쎯	-11.0237
▁nnh쎯gl쎯anb0쎯sy쎯	-11.0237
▁cccg쎯	-11.0238
▁sksw쎯yngk0쎯	-11.0245
▁flf1쎯dp쎯	-11.0248
▁tcy쎯uu쎯	-11.0248
▁cbj쎯c쎯	-11.0248
▁tdkj쎯lt쎯	-11.0248
▁rmn쎯bqv쎯	-11.0249
▁wjh쎯	-11.025
▁쎁.쎁	-11.025
set쎯	-11.0254
gmu1쎯	-11.0256
▁g쎯lp쎯	-11.0262
▁dyt쎯og쎯	-11.0263
▁gj쎯mf쎯	-11.0263
cq쎯	-11.0266
iry쎯	-11.0267
▁gkl쎯dga쎯pwv쎯km쎯	-11.0267
▁bfw쎯	-11.0267
▁ugdu쎯iwyf2쎯	-11.0269
yyv쎯	-11.0269
▁tdkj쎯ce쎯wx쎯	-11.0271
cyi쎯	-11.0273
▁pu쎯tl쎯	-11.0273
▁yq쎯tl쎯	-11.0275
egm쎯	-11.0276
utd쎯	-11.0277
▁gkq쎯	-11.0277
w쎯tr쎯	-11.0279
▁st쎯nnk쎯	-11.028
▁adwe1쎯tffy0쎯	-11.0281
▁jhf1쎯	-11.0282
im쎯	-11.0284
ftbt쎯yce쎯uk쎯	-11.0286
▁a쎯uqwm0쎯	-11.0288
▁d쎯suq쎯	-11.0289
rd쎯	-11.029
▁ve쎯	-11.029
▁gu쎯jf쎯	-11.0292
▁ta쎯tyna2쎯ih쎯yu쎯	-11.0292
▁rfc쎯sy쎯ga쎯v쎯	-11.0293
▁xyy0쎯qnth쎯	-11.0293
▁dqe쎯uu쎯	-11.0295
▁ux쎯wmj0쎯	-11.0295
pwkw쎯	-11.0296
▁kd쎯ycb쎯	-11.0297
▁sfhg쎯	-11.0297
▁ovt쎯wfhg쎯	-11.03
▁qqqq1쎯amw쎯qc쎯	-11.0301
▁ynm쎯	-11.0303
▁dyc쎯	-11.0304
▁ue쎯go쎯	-11.0307
▁쎁쎉쎁쎂	-11.0309
▁dty쎯xte쎯	-11.031
▁tx쎯uy쎯nm쎯	-11.0317
쎆쎂	-11.0319
▁thc쎯hx쎯	-11.032
▁ii	-11.032
▁dn쎯ddu0쎯	-11.0321
ogm쎯	-11.0322
▁sm쎯sa쎯ymc쎯tlf2쎯	-11.0328
▁gkl쎯rn쎯ta쎯	-11.0328
▁qkd쎯	-11.033
sds쎯	-11.0333
▁rfc쎯sy쎯ga쎯v쎯aq쎯	-11.0336
▁synw쎯siq쎯	-11.034
▁쎉쎅%	-11.0341
▁g쎯xfm쎯	-11.0341
▁cds쎯fghg쎯	-11.0345
▁ii쎯rfm쎯	-11.0345
▁buk쎯	-11.0346
uw쎯	-11.035
▁ue쎯adwe1쎯	-11.0351
▁pe쎯w쎯	-11.0351
▁wwwk쎯	-11.0352
an쎯lwj쎯dd쎯hka쎯	-11.0353
▁lft쎯mqc쎯	-11.0355
▁g쎯yy쎯	-11.0355
▁n쎯www쎯	-11.0356
▁jx쎯	-11.0358
▁dd쎯lpk0쎯ymhj쎯	-11.0361
▁uwyc0쎯ii쎯	-11.0363
▁쎁쎀쎁	-11.0363
▁pyg쎯tjh쎯	-11.0366
ode쎯	-11.037
▁dj쎯dnv1쎯	-11.0371
▁ab쎯jjjj쎯	-11.0377
▁tem쎯r쎯	-11.0379
▁qh쎯qyv쎯	-11.038
▁cqw쎯	-11.0382
vah쎯	-11.0383
▁py쎯wf쎯wk쎯buj쎯	-11.0385
▁kht쎯dm쎯	-11.0386
mds쎯	-11.0392
▁rfc쎯	-11.0393
▁sgn쎯ou쎯	-11.0395
▁bm쎯thgc쎯v쎯tf쎯	-11.0396
▁ghd0쎯tu쎯xe쎯	-11.0396
▁k쎯l쎯nnh쎯gl쎯	-11.0399
▁mf쎯ght쎯nnk쎯	-11.04
▁x쎯qyv쎯	-11.0403
▁gg쎯wa쎯	-11.0406
▁ny쎯nge쎯	-11.0409
▁rfm쎯jg쎯tx쎯g쎯	-11.0412
▁iwe쎯	-11.0415
▁qtjh0쎯bb쎯	-11.0416
▁i쎯yo쎯	-11.0417
▁쎁쎀쎇	-11.0424
▁nh쎯uwl쎯	-11.0424
▁쎁.쎄	-11.0426
▁fj쎯wx쎯	-11.0427
yjs쎯tkgg0쎯	-11.0427
wg쎯uqwm0쎯	-11.0429
mgu쎯	-11.0431
wx쎯ip쎯	-11.0439
▁gd쎯rnb쎯	-11.0439
▁tfq쎯qtd쎯	-11.0439
rjg0쎯	-11.0445
▁gklp쎯	-11.0447
▁dgj쎯tt쎯	-11.0448
▁you1쎯sk쎯	-11.0449
▁sup쎯	-11.0449
▁rfw쎯wvm쎯	-11.0455
▁tuxj쎯	-11.0458
▁cc쎯synw쎯	-11.0458
td쎯qk쎯kkk쎯thgf0쎯	-11.0458
jd쎯	-11.0461
▁txg쎯eb쎯	-11.0461
▁rh쎯lc쎯w쎯	-11.0462
jjjj쎯sg쎯	-11.0463
gad쎯	-11.0465
▁i쎯peg쎯	-11.0469
▁ygu쎯tv쎯	-11.0469
▁gyt쎯ta쎯	-11.0469
sgy쎯	-11.047
▁m쎯ujn쎯	-11.0471
jn쎯bb쎯tu쎯rfc쎯	-11.0471
▁puhc쎯rge쎯	-11.0474
▁vq쎯pynn0쎯	-11.0478
▁쎀.쎆	-11.0478
ai쎯egc쎯	-11.0481
▁pv쎯lfhf쎯	-11.0481
▁dg쎯qn쎯	-11.0482
▁a쎯anb0쎯kkk쎯	-11.0484
wyk쎯	-11.0486
ㄐ	-11.049
▁sksw쎯rlg쎯	-11.049
▁abi쎯irn쎯	-11.0491
▁isf쎯ypm쎯	-11.0493
쎇쎇	-11.0494
▁pj쎯ugdu쎯	-11.0494
▁iy쎯tmdf1쎯	-11.0495
▁g쎯uf쎯	-11.0497
rny1쎯	-11.0497
▁iyv쎯	-11.0499
ad쎯dbm쎯	-11.05
▁ftl쎯	-11.05
▁gd쎯pw쎯	-11.0501
▁wfi쎯pynn1쎯	-11.0503
▁pu	-11.0508
▁ry쎯xt쎯	-11.0509
▁dd쎯jghx쎯	-11.0509
▁sfh쎯	-11.0513
▁gkih쎯yjj0쎯	-11.0514
qmw쎯	-11.0515
▁ugm쎯rrp쎯	-11.0517
▁pr쎯ygk쎯	-11.0519
sce쎯	-11.052
▁je쎯gr쎯	-11.0522
▁vi쎯rmhj쎯	-11.0522
▁ditn0쎯	-11.0523
▁쎁쎄쎀쎀	-11.0523
▁vck쎯gf쎯	-11.0526
uft쎯	-11.0528
▁wcn쎯	-11.053
fny쎯	-11.0533
uqwm0쎯ou쎯	-11.0533
▁doq쎯sgc쎯	-11.0535
▁g쎯tyna2쎯	-11.0539
▁ymc쎯yf쎯bpf쎯	-11.054
▁rg쎯w쎯	-11.0541
▁txi쎯xyc쎯f쎯	-11.0542
fgi쎯	-11.0543
▁쎁쎉쎁쎁	-11.0545
▁ab쎯dwg쎯	-11.0547
idl쎯	-11.0548
▁fhw쎯alt쎯	-11.055
▁tfkp쎯yxj쎯	-11.0551
▁rxj쎯wyc쎯	-11.0553
▁nng쎯	-11.0554
▁xef쎯	-11.0554
aw쎯yf쎯	-11.0554
▁pnt쎯wys쎯	-11.0555
wyb쎯	-11.0555
▁xa쎯sov쎯ssq쎯	-11.0555
▁nty1쎯vfhp1쎯	-11.0556
▁rnb쎯rfm쎯	-11.0557
▁aw쎯t쎯l쎯	-11.0558
rk쎯	-11.056
▁dgh쎯wynb쎯	-11.0561
ftjo1쎯	-11.0567
▁sdm쎯uk쎯	-11.0568
▁i쎯fwm쎯mj쎯	-11.0569
▁irn쎯	-11.057
▁tffy0쎯et쎯	-11.0572
▁bg쎯iww쎯	-11.0573
▁xyx쎯	-11.0574
▁ukn쎯bw쎯	-11.0575
▁dm쎯lft쎯	-11.0579
cb쎯	-11.0584
▁fgh쎯ag쎯	-11.0587
nfh1쎯	-11.0587
▁dwiu쎯mmm쎯	-11.0588
uwb쎯	-11.0592
ht쎯	-11.0595
▁wty쎯qe쎯	-11.0595
▁ugm쎯gj쎯	-11.0599
▁ige쎯gs쎯	-11.0599
▁thp쎯xfn쎯	-11.0606
ddh쎯	-11.0607
▁qi쎯lfq쎯	-11.0607
▁쎁.쎃	-11.0608
qd쎯wk쎯ryn0쎯aq쎯	-11.0612
▁lft쎯ta쎯	-11.0613
▁yss쎯sgy쎯	-11.0617
mcw쎯	-11.0622
▁ry쎯	-11.0624
ipq쎯	-11.0628
▁쎁쎁쎅	-11.0629
▁wsg0쎯wf쎯	-11.063
▁svc쎯ywx쎯	-11.0634
fwy쎯	-11.0634
▁bdx쎯	-11.0639
▁rvk쎯nh쎯	-11.064
▁toc쎯yygy쎯	-11.0641
▁pynk쎯	-11.0641
▁dd쎯ej쎯	-11.0641
▁pp쎯wt쎯	-11.0641
▁alw쎯ytyh쎯ymhj쎯	-11.0645
▁yu쎯ytd쎯	-11.0649
▁ym쎯wqa쎯	-11.065
▁fwm쎯ujj쎯	-11.065
▁ide쎯ir쎯	-11.065
▁rvk쎯um쎯	-11.0654
gqjo0쎯trs쎯trtg쎯	-11.0654
▁pk쎯tfpd쎯	-11.0659
tv쎯wf쎯	-11.0659
▁qmq쎯tp쎯	-11.066
▁age쎯lll쎯	-11.0661
▁kyn1쎯	-11.0663
▁vq쎯	-11.0664
▁ga쎯es쎯	-11.0665
dfff쎯	-11.0666
▁ajj쎯f쎯	-11.0667
g0쎯	-11.0668
wbg0쎯	-11.0673
▁fct쎯ey쎯	-11.0674
temq1쎯	-11.0676
▁qug2쎯	-11.0677
▁itd쎯inty쎯	-11.0679
uqwm0쎯idr쎯tp쎯gj쎯	-11.0686
▁lfn쎯tm쎯	-11.0687
▁쎅쎀%	-11.0687
▁sgn쎯udp쎯	-11.0689
▁gog쎯tkh쎯	-11.0689
▁ngk쎯bk쎯	-11.0694
ar쎯	-11.0694
▁vb쎯dc쎯	-11.0695
▁ydx쎯dd쎯	-11.0695
▁qqqq1쎯mqj쎯	-11.0696
▁ipg쎯anb0쎯	-11.0699
n1쎯	-11.0699
▁lkd쎯jv쎯	-11.0699
pv쎯wg쎯	-11.0701
▁wdn쎯rfm쎯eb쎯tl쎯	-11.0701
▁ymf쎯wtf쎯	-11.0701
▁ujf쎯ktm쎯	-11.0703
▁wgk쎯ec쎯ymhj쎯	-11.0706
▁tx쎯fg쎯fgh쎯	-11.0706
kwgj0쎯	-11.0706
a쎯anb0쎯	-11.0708
xd쎯	-11.0708
▁tnp쎯wynb쎯	-11.0708
▁rwb쎯fiyt쎯	-11.071
▁x쎯xjm쎯	-11.0711
▁jf쎯qkhh1쎯	-11.0712
▁쎁쎀쎆	-11.0712
▁g쎯uh쎯aa쎯	-11.0714
▁ssss쎯rfm쎯	-11.0715
▁x쎯qie쎯um쎯	-11.0721
yox쎯	-11.0723
▁e쎯tjh쎯	-11.0723
▁uwa쎯	-11.0724
▁hi쎯cbc쎯	-11.0727
▁qh쎯ge쎯	-11.0727
▁l쎯bf쎯qyv쎯jqr쎯	-11.0729
▁cal쎯	-11.0729
▁qmq쎯src쎯	-11.073
▁fgh쎯eee쎯	-11.0731
▁gajh쎯	-11.0733
▁wkso0쎯	-11.0736
▁ihi쎯qh쎯	-11.0737
▁qnqv쎯	-11.0737
▁ght쎯sc쎯	-11.074
▁wbb쎯ylk2쎯	-11.0743
▁qk쎯yngk0쎯	-11.0746
▁gg쎯tt쎯	-11.0747
▁a쎯tkgg0쎯ymc쎯yf쎯	-11.0747
▁wgnb쎯	-11.0749
fct쎯	-11.0749
irn쎯lg쎯	-11.0753
▁ygu쎯pg쎯	-11.0753
▁alw쎯laa쎯	-11.0757
▁h쎯ymhj쎯wc쎯ngk쎯	-11.0758
▁rmc쎯jyie쎯	-11.0759
ktn쎯	-11.0759
▁fny쎯og쎯ntg쎯	-11.0761
▁awn쎯	-11.0763
▁tol쎯alkf0쎯	-11.0765
apw쎯	-11.0765
▁qta쎯	-11.077
▁iwgj1쎯	-11.077
▁dty쎯tq쎯	-11.0771
abi쎯	-11.0771
fpb쎯	-11.0771
yn1쎯ukd0쎯ip쎯ftj쎯	-11.0773
wo쎯	-11.0776
ubt쎯	-11.0776
▁ty쎯kkkk0쎯	-11.0777
쎈%	-11.0777
iwyf0쎯	-11.0782
fo쎯	-11.0784
▁rh쎯to쎯	-11.0785
▁н	-11.0787
▁wny0쎯tu	-11.0788
▁wye쎯gkim0쎯	-11.0789
▁sghg1쎯ic쎯	-11.0791
▁alw쎯xwy쎯fct쎯	-11.0793
▁rfc쎯sy쎯fc쎯rf쎯	-11.0794
▁dr쎯sft쎯ou쎯	-11.0794
▁ymf쎯rmhj쎯	-11.0795
▁tl쎯a쎯	-11.0798
ufg쎯ytt쎯	-11.0798
▁rnv쎯	-11.0802
▁gg쎯eee쎯	-11.0809
qqug0쎯	-11.0813
▁fjg쎯	-11.0814
▁ap쎯yss쎯	-11.0816
▁cd쎯yaf쎯ta쎯	-11.0818
▁ooo쎯tue쎯	-11.0825
쎆%	-11.0825
▁iqgg쎯og쎯	-11.0826
▁tp쎯gj쎯saj쎯aa쎯	-11.083
▁wjm쎯wqj쎯	-11.083
▁ym쎯dr쎯	-11.083
▁tgh쎯nh쎯	-11.0833
▁tu쎯km쎯	-11.0834
▁hgm쎯	-11.0836
▁fj쎯dmj1쎯	-11.0836
▁rvyl쎯lt쎯	-11.084
▁w쎯cd쎯	-11.0842
▁tg쎯u쎯dgt1쎯pe쎯	-11.0843
▁rkm쎯pd쎯	-11.0844
thd쎯ick쎯ytyh쎯	-11.0847
▁fi쎯	-11.0847
pwd쎯	-11.0848
ohj쎯	-11.085
▁wyn쎯fhw쎯	-11.0852
▁lw쎯wc쎯sov쎯	-11.0854
vjs쎯	-11.0856
쎅%	-11.0856
▁ipl쎯	-11.0859
▁yygy쎯wsg0쎯	-11.086
▁rs쎯dhc쎯	-11.0864
▁ow쎯xxg0쎯	-11.0864
▁ooo쎯eve쎯	-11.0866
gkip2쎯ya쎯	-11.0871
cds쎯	-11.0875
▁fm쎯yiu쎯dd쎯ip쎯	-11.0878
▁ax쎯og쎯	-11.088
▁쎁쎀쎂	-11.0882
▁w쎯pe쎯	-11.0886
▁ige쎯ssn쎯	-11.0888
ugk쎯	-11.0889
▁mmm쎯ss쎯	-11.0893
▁ngk쎯cn쎯	-11.0893
▁fm쎯wmj0쎯	-11.0894
▁aww쎯	-11.0895
▁lkd쎯nn쎯	-11.0896
qr쎯kht쎯nnk쎯	-11.0897
▁fqb1쎯wa쎯	-11.0897
▁ugv쎯thg0쎯	-11.0897
▁ith쎯mw쎯	-11.0898
▁pgn쎯pb쎯sov쎯	-11.0901
▁쎇쎅쎀	-11.0902
▁fm쎯jty쎯	-11.0904
▁xp쎯wgk쎯tgh쎯	-11.0904
▁ndj쎯hhhh쎯	-11.0905
bfm쎯xfn쎯	-11.0905
▁rno쎯	-11.0906
▁tx쎯fgh쎯	-11.0907
쎉쎉	-11.0908
▁쎇쎇	-11.0908
▁sam쎯tm쎯	-11.0909
▁hka쎯fnrt쎯	-11.091
▁bwf쎯lk쎯	-11.091
▁pp쎯bf쎯	-11.091
▁tp쎯tv쎯wf쎯	-11.091
▁yx쎯wycm0쎯	-11.0912
▁ia쎯ide쎯	-11.0916
wuf쎯	-11.0917
▁쎃.쎀	-11.0918
bde쎯	-11.0918
▁wgg0쎯	-11.0918
▁ufy쎯lhnh쎯	-11.0919
▁gr쎯pgy쎯	-11.0919
▁ftbt쎯km쎯	-11.0919
▁vt쎯ia쎯	-11.0919
▁rpws쎯imj쎯	-11.092
uf쎯qynm1쎯	-11.0921
쎃쎀쎀	-11.0922
ijlc쎯	-11.0922
▁ii쎯fakg1쎯	-11.0922
▁tffu쎯tffy0쎯	-11.0928
▁aig쎯eajd쎯	-11.0932
▁dgtg쎯udi쎯	-11.0932
▁gfi쎯fnrt쎯	-11.0933
▁xtdh0쎯	-11.0934
▁쎂.쎂	-11.0935
▁alq쎯hhy쎯	-11.0936
▁bmg쎯yge쎯	-11.0936
ywfw쎯	-11.0936
wyf0쎯	-11.0937
▁ycb쎯gq쎯	-11.0938
▁uu쎯wsg0쎯fnr쎯	-11.0939
▁쎇쎄	-11.0939
▁xvk쎯	-11.0942
wd쎯	-11.0942
▁rxj쎯nf쎯km쎯	-11.0945
▁p쎯yww쎯	-11.0946
▁tg쎯u쎯a쎯anb0쎯	-11.0947
▁¥	-11.0947
xkjn1쎯	-11.0949
▁uge쎯	-11.095
▁nudu쎯fnud쎯	-11.0951
▁p쎯jf쎯	-11.0952
▁jsd쎯	-11.0952
▁i쎯nb쎯	-11.0954
▁tqq쎯sfhg쎯	-11.0955
▁wbj쎯fjh0쎯	-11.0958
luf쎯	-11.0958
xft쎯	-11.0959
▁ugdu쎯iyt0쎯	-11.0961
▁y쎯yq쎯	-11.0962
▁yvh쎯fje쎯	-11.0963
▁kynw쎯kgkw쎯	-11.0964
u쎯gf쎯	-11.0964
▁qk쎯w쎯vi쎯	-11.0965
▁qk쎯atd쎯	-11.0966
▁dnv1쎯qq쎯	-11.0967
▁xdmd1쎯ql쎯	-11.0969
▁ujfj쎯xgb쎯	-11.0973
smgk쎯	-11.0973
▁gik쎯mj쎯	-11.0975
▁fnr쎯qi쎯	-11.0977
▁twgi쎯ys쎯	-11.0978
▁uvo쎯pww쎯	-11.0978
▁dgj쎯ya쎯	-11.0978
ecl쎯	-11.0978
▁ishg쎯isj쎯	-11.0978
▁dd쎯oy쎯	-11.0983
tuj쎯wj쎯	-11.0985
wqb0쎯	-11.0988
▁lll쎯tca쎯	-11.0988
▁xyc쎯tq쎯	-11.099
▁dgkf0쎯yny0쎯	-11.0992
▁ytd쎯ndj쎯	-11.0992
▁aqt쎯tj쎯ftj쎯	-11.0993
▁dtb쎯	-11.0993
▁usr쎯lh쎯pl쎯	-11.0994
쎇%	-11.0997
▁mty1쎯	-11.1
▁tha쎯if쎯	-11.1004
▁cf쎯tgm쎯	-11.1006
▁i쎯yv쎯	-11.1008
▁fffy쎯vfhp1쎯	-11.1009
▁fm쎯cep쎯	-11.101
▁gq쎯lg쎯	-11.101
▁fm쎯dm쎯	-11.1013
▁akgl쎯dlf쎯	-11.1013
▁─	-11.1015
▁usr쎯sf쎯	-11.1017
ww쎯gk쎯	-11.1017
mjq쎯	-11.1018
▁tep쎯fp쎯	-11.1018
▁쎂쎀%	-11.1021
▁rwye1쎯gkp쎯	-11.1022
▁wys쎯qfhw0쎯	-11.1024
sm쎯sa쎯rmhj쎯tfkp쎯	-11.1025
▁ige쎯wxf쎯	-11.1026
▁kkd쎯wrh2쎯	-11.1027
▁lfhf쎯gf쎯	-11.1029
▁ga쎯nku쎯	-11.1031
▁yw쎯td쎯	-11.1032
px쎯	-11.1033
▁dj쎯wtu쎯	-11.1033
m쎯tf쎯og쎯	-11.1033
▁iv쎯jv쎯	-11.1034
▁ick쎯pv쎯	-11.1034
▁wgk쎯if쎯	-11.1035
▁ip쎯sy쎯uq쎯iyc쎯	-11.1035
▁gcft2쎯lt쎯	-11.1036
pi쎯	-11.1036
▁atd쎯ubk0쎯txi쎯	-11.1037
▁av쎯pdhj쎯	-11.1039
▁wyv쎯yuo쎯	-11.1041
▁sqk쎯snn0쎯	-11.1041
puy쎯	-11.1043
j0쎯	-11.1045
▁gd쎯yygy쎯	-11.1047
▁wwj쎯	-11.1048
▁tgj쎯xeg쎯	-11.1049
efw쎯	-11.1049
▁qk쎯thgf0쎯	-11.1049
▁wv쎯dn쎯	-11.1051
▁wy쎯wqbh쎯	-11.1054
▁dd쎯ds쎯	-11.1054
mmm쎯ai쎯	-11.1056
dww쎯	-11.1056
▁oge쎯yv쎯	-11.1058
▁sks쎯sks쎯	-11.1059
▁ifw쎯lt쎯	-11.1059
▁k쎯gxgu쎯	-11.1061
▁wsg0쎯gajf쎯	-11.1064
rvyf쎯	-11.1064
tdx쎯	-11.1066
▁m쎯od쎯	-11.1068
▁tmgt1쎯	-11.1071
▁icf쎯	-11.1071
▁kl쎯g쎯	-11.1072
qdt쎯	-11.1074
▁ex쎯	-11.1075
um쎯tl쎯isgg0쎯yhk쎯	-11.1076
▁tvfh1쎯	-11.1079
▁쎂쎆쎀	-11.1081
▁pv쎯by쎯	-11.1082
▁.....	-11.1082
oth쎯	-11.1082
▁ii쎯uwy1쎯	-11.1083
v쎯ntg쎯	-11.1087
▁tmg1쎯oy쎯	-11.1088
ijfg0쎯	-11.1089
▁tg쎯rm쎯	-11.109
▁ws쎯thn쎯	-11.1091
▁xn쎯tv쎯nnh쎯yn쎯	-11.1092
▁yyq쎯	-11.1092
▁ige쎯bwt쎯	-11.1093
lkc쎯	-11.1094
▁쎁쎉쎂쎃	-11.1095
▁qn	-11.1097
wat쎯	-11.1098
pgm쎯	-11.1099
shy쎯	-11.1099
▁qk쎯ae쎯	-11.1101
▁쎃쎅쎀쎀	-11.1103
w쎯n쎯sw쎯pwfi쎯bpf쎯	-11.1104
▁pe쎯k쎯	-11.1105
rv쎯	-11.1106
stt쎯	-11.1107
▁qkqp쎯	-11.1108
▁rjq쎯fi쎯	-11.1109
▁ㄣ	-11.1111
nbm쎯	-11.1111
gae쎯qje쎯	-11.1112
qkqy0쎯	-11.1112
▁kkh쎯	-11.1113
▁qnq쎯et쎯	-11.1114
▁hk쎯wycm0쎯	-11.1117
▁lgey0쎯ou쎯	-11.1119
dlf쎯	-11.112
▁eb쎯tmc쎯	-11.1122
▁qq쎯fqb1쎯	-11.1128
▁fk쎯wb쎯	-11.1129
▁x쎯qie쎯	-11.1131
▁nfd쎯	-11.1134
▁mqb쎯gc쎯	-11.1134
▁amw쎯pujn1쎯qc쎯	-11.1135
▁qmq쎯telb쎯	-11.1136
iwy1쎯	-11.1136
▁uym쎯	-11.1137
▁jb쎯ta쎯	-11.1137
nfif쎯	-11.1145
han쎯	-11.1146
▁pfjm1쎯gk쎯	-11.1147
▁vvv쎯y쎯qe쎯	-11.115
ip쎯pe쎯	-11.1151
▁wv쎯bb쎯aa쎯	-11.1151
▁tmo쎯f쎯tjh쎯	-11.1152
xfg쎯	-11.1155
nyiy0쎯	-11.1156
▁nt쎯tlf2쎯	-11.116
▁wvf쎯wg쎯	-11.116
▁ujt쎯ytyh쎯	-11.1163
▁ue쎯rj쎯	-11.1163
▁d쎯suq쎯tg쎯	-11.1165
▁hi쎯rgw쎯	-11.1168
ytt쎯thd쎯ick쎯egc쎯	-11.1169
▁lfq쎯anb0쎯	-11.117
▁yy쎯qf쎯ght쎯tgm쎯	-11.1171
▁wvm쎯ls쎯sf쎯	-11.1175
▁k쎯sghg1쎯	-11.1176
▁ㄥ	-11.1177
▁dyc쎯sgc쎯	-11.1179
▁uai쎯	-11.1183
▁if쎯jgm쎯	-11.1184
tp쎯gj쎯nnk쎯	-11.1185
▁tj쎯gd쎯qtj쎯djb쎯	-11.1186
rma쎯	-11.1186
▁xtdh0쎯cw쎯	-11.1192
▁rdf1쎯iw쎯	-11.1193
▁tlf2쎯iy쎯	-11.1201
trt쎯	-11.1202
▁mb쎯sfiu0쎯	-11.1202
▁iry쎯ddnl쎯	-11.1204
▁mhu쎯	-11.1204
imk쎯	-11.1204
▁k쎯atd쎯ip쎯bpf쎯	-11.1208
▁cep쎯ynf쎯vi쎯	-11.1208
ukq쎯	-11.1209
▁е	-11.121
▁tp쎯gj쎯th쎯	-11.1214
▁ai쎯gcf쎯	-11.1215
▁pfjm1쎯tb쎯	-11.122
▁__	-11.122
▁pta쎯	-11.1223
▁suq쎯xe쎯	-11.1225
▁sfiu0쎯	-11.1225
▁qynm1쎯h쎯	-11.1225
▁sh쎯yneg쎯	-11.1225
▁ofd쎯oy쎯	-11.1227
▁qqqq1쎯mmm쎯	-11.1228
▁yce쎯tkh쎯	-11.1229
khq쎯	-11.1233
▁y쎯ick쎯atd쎯jgm쎯	-11.1236
▁rqa쎯	-11.1237
▁uf쎯qynm1쎯	-11.1237
▁bukn쎯je쎯	-11.1237
▁lhnh쎯ad쎯	-11.124
▁fh쎯dp쎯	-11.124
▁xx쎯tjh쎯jf쎯	-11.1244
▁lkd쎯pe쎯	-11.1245
▁nng쎯wtf쎯	-11.1245
▁fp쎯iya쎯	-11.1246
쎆쎇	-11.1248
▁rtfp쎯	-11.125
▁ooo쎯lg쎯	-11.125
▁djde0쎯	-11.1251
▁wgku1쎯bfm쎯	-11.1251
▁gah쎯jj쎯	-11.1252
▁ty쎯uyh쎯	-11.1255
▁e쎯hko쎯	-11.1256
xtd쎯	-11.1256
ymhj쎯fnrt쎯x쎯iyj쎯	-11.1257
▁aga쎯ytyh쎯	-11.1259
▁wkhh쎯	-11.1261
▁cqy쎯mww쎯	-11.1262
ny쎯wtf쎯ftbt쎯jgm쎯	-11.1263
▁dgv쎯elw쎯	-11.1264
▁dd쎯afi쎯	-11.1264
▁vfi쎯vfi쎯	-11.1265
▁vij쎯	-11.1267
▁pujn1쎯	-11.1269
▁쎁쎈쎅	-11.1269
▁awx쎯qyng쎯	-11.1272
▁yao쎯	-11.1273
▁xxm쎯ahty쎯	-11.1274
cbts0쎯	-11.1275
jsd쎯	-11.1278
▁awnu1쎯	-11.1278
▁kq쎯ou쎯	-11.1279
▁qv쎯bc쎯	-11.1279
sse쎯	-11.128
▁iwgu쎯	-11.128
▁yygy쎯wx쎯uk쎯	-11.1283
▁ovt쎯pb쎯wx쎯	-11.1284
▁usr쎯kkk쎯tkh쎯	-11.1285
▁ukn쎯uqwm0쎯u쎯	-11.1285
qt	-11.1289
▁pei쎯ip쎯bpf쎯	-11.1289
▁qev쎯sr쎯	-11.129
▁ipr쎯itx쎯	-11.1293
why쎯	-11.1293
▁gu쎯src쎯	-11.1293
▁wbg0쎯	-11.1295
▁rvy쎯nf쎯	-11.1295
▁р	-11.1296
▁dj쎯wgk쎯	-11.1306
▁wv쎯bpf쎯	-11.1308
▁ndj쎯bpf쎯	-11.1308
dmjf1쎯	-11.1309
rvy쎯	-11.1309
▁qq쎯ylf0쎯	-11.1311
▁uji1쎯sghg1쎯	-11.1314
▁yxl쎯trt쎯og쎯	-11.132
▁gqto1쎯	-11.1321
▁ixj쎯ii쎯	-11.1321
wtuf1쎯	-11.1321
쎃쎅	-11.1322
xxr쎯	-11.1326
▁sfi쎯rgw쎯	-11.1328
▁쎂쎃쎀	-11.1328
▁iugg0쎯ime쎯	-11.1328
▁nh쎯aqt쎯	-11.133
▁agnn2쎯	-11.1341
▁dx쎯uyh쎯	-11.1342
▁e쎯uwl쎯	-11.1342
▁py쎯ta쎯	-11.1343
▁rfm쎯f쎯	-11.1345
▁쎇쎉	-11.1349
▁hhu0쎯thg0쎯	-11.135
▁쎂쎈쎀	-11.135
ayn쎯	-11.1351
▁ooo쎯oat쎯	-11.1352
▁fg쎯j쎯	-11.1354
▁khgp0쎯yop쎯	-11.1358
▁k쎯mmm쎯dd쎯ip쎯	-11.136
▁rnb쎯rnw쎯	-11.1364
▁ue쎯umd0쎯	-11.1364
tw쎯	-11.1368
▁faf1쎯	-11.1369
uqwl쎯	-11.1369
▁se쎯bv쎯	-11.137
▁k쎯uqf쎯	-11.1374
▁uxe쎯rg쎯	-11.1374
▁iit쎯iaj쎯	-11.1376
▁xn쎯wynn3쎯qnp쎯	-11.1376
▁fuj쎯	-11.138
▁igd쎯lk쎯yjjh1쎯	-11.1382
▁dg쎯nfc쎯	-11.1383
▁usr쎯sghg1쎯uff쎯	-11.1383
▁wynb쎯rg쎯	-11.1389
see쎯	-11.1394
▁wfy쎯	-11.1398
▁ugdu쎯sy쎯qnp쎯	-11.14
▁dan쎯	-11.1401
▁fk쎯pyu쎯	-11.1401
▁sqq쎯	-11.1401
▁fuj쎯lwj쎯	-11.1402
asg쎯	-11.1402
▁lfon0쎯	-11.1403
▁g쎯kgn쎯	-11.1405
▁et쎯nnh쎯	-11.1406
aqv1쎯	-11.1406
▁tg쎯dyn쎯ggi쎯fuj쎯	-11.1408
▁kru쎯	-11.1408
▁js쎯scf쎯	-11.141
▁gef쎯mmm쎯	-11.1411
▁kwgj0쎯	-11.1412
▁tem쎯	-11.1415
fjw쎯	-11.1416
▁fgh쎯vt쎯	-11.1416
▁xwf쎯rmhj쎯	-11.1416
쎂%	-11.1418
▁tjf쎯ae쎯	-11.1419
rpws쎯	-11.1419
mqq쎯xtk쎯apk쎯qie쎯	-11.1421
▁yygy쎯tfqp쎯	-11.1425
▁tmo쎯fcp쎯	-11.1426
▁qkk쎯wgk쎯qqqq1쎯	-11.1427
▁wtd쎯	-11.1428
▁u쎯kkk쎯ga쎯v쎯	-11.143
▁k쎯wxf쎯n쎯ytt쎯	-11.1433
fajv쎯	-11.1433
▁nkuf쎯gl쎯	-11.1433
▁kkkk0쎯drt쎯	-11.1437
▁rg쎯dm쎯	-11.1438
▁g쎯jf쎯	-11.1438
▁uqwn0쎯kkd쎯	-11.1439
▁sw쎯fpx쎯	-11.144
▁k쎯gajf쎯	-11.1441
▁rpf쎯	-11.1442
▁jde쎯jan쎯	-11.1444
쎀쎀.쎀쎀	-11.1445
iss쎯	-11.1446
▁n쎯gk쎯	-11.1447
▁qna쎯	-11.1448
▁sk쎯kkkk0쎯	-11.1448
▁ran쎯xqc쎯	-11.1448
▁bn쎯ytf쎯	-11.1448
▁mmv쎯qt쎯	-11.145
adwe1쎯fjh0쎯	-11.145
▁gkim0쎯	-11.1455
dwy쎯	-11.1455
▁pwu0쎯	-11.1455
▁ftbt쎯yce쎯pe쎯	-11.1458
▁ukn쎯nnk쎯	-11.146
▁∶	-11.146
xfnh쎯	-11.1461
▁bg쎯pym쎯	-11.1464
▁qi쎯fhb쎯	-11.1466
▁ykk쎯	-11.1466
▁qb쎯	-11.1467
▁ptf쎯if쎯	-11.1468
▁jtyl쎯qtyd1쎯	-11.1473
▁gmww쎯ftj쎯	-11.1474
akgn0쎯	-11.1476
▁sh쎯ruv쎯	-11.1476
ref쎯	-11.1477
▁qh쎯go쎯	-11.148
▁qv쎯yyq쎯	-11.1481
ssyx쎯	-11.1485
▁쎁쎉쎂쎂	-11.1485
yygt쎯tfkf1쎯	-11.1486
▁uu쎯if쎯	-11.1486
▁tdtv쎯	-11.1486
▁yssr쎯rpwi쎯	-11.1487
▁k쎯yygy쎯qk쎯tq쎯	-11.1487
▁rgb쎯	-11.149
▁mqq쎯iytb0쎯	-11.1492
▁ud쎯ng쎯	-11.1493
egl쎯gf쎯	-11.1493
▁rmhj쎯tfkp쎯og쎯	-11.1494
▁kht쎯h쎯	-11.1498
▁epc쎯cqw쎯qbp쎯	-11.1498
▁saq쎯xnf쎯	-11.1499
▁tdg1쎯adwe1쎯	-11.1499
▁fd쎯fm쎯	-11.1501
▁uwyc0쎯uai쎯	-11.1502
▁jd쎯	-11.1505
▁fm쎯ps쎯ymhj쎯	-11.1508
▁fn쎯drin쎯ftj쎯	-11.1513
▁sm쎯xeg쎯	-11.1514
tr쎯gj쎯	-11.1514
▁qq쎯su쎯	-11.1517
dmd쎯	-11.152
▁yr쎯ywc쎯	-11.152
▁jtg쎯txi쎯	-11.1522
▁qi쎯lft쎯	-11.1522
▁rh쎯x쎯	-11.1528
▁fm쎯mmm쎯	-11.1533
▁pgy쎯mhny0쎯	-11.1533
▁ic쎯wa쎯	-11.1534
▁gmii0쎯	-11.1535
▁ta쎯dp쎯	-11.1536
khtd2쎯	-11.1538
▁dyt쎯ysi쎯	-11.1539
▁vfhp1쎯rmhj쎯	-11.1542
▁agnt쎯	-11.1544
▁pgc쎯y쎯wtf쎯	-11.1545
▁wc쎯gu쎯	-11.1546
▁p쎯tc쎯	-11.1546
▁yc쎯khu쎯	-11.1546
twgi쎯	-11.1547
▁jc쎯xt쎯	-11.1548
▁쎈쎀쎂.쎁쎁	-11.155
ig쎯	-11.1554
qb쎯	-11.1556
▁v쎯nae쎯cm쎯	-11.1557
▁ujn쎯kfi쎯	-11.1562
▁ih쎯qfhw0쎯	-11.1562
▁ght쎯tv쎯	-11.1564
▁gr쎯itx쎯	-11.1565
xad쎯	-11.1568
▁rtol1쎯	-11.1569
▁pyfc0쎯	-11.1569
ygt쎯rtol1쎯jn쎯ck쎯	-11.1571
▁mw쎯wv쎯int쎯	-11.1574
▁fqu쎯tqdh쎯	-11.1576
▁ywwg1쎯	-11.1577
▁ai쎯mmm쎯	-11.1577
▁pp쎯jtg쎯	-11.1578
▁lfhf쎯og쎯	-11.1578
▁dd쎯lt쎯fc쎯rf쎯	-11.1579
▁sg쎯sf쎯	-11.158
▁ghd0쎯fwm쎯	-11.1581
▁gjq쎯rq쎯	-11.1582
▁pe쎯jn쎯	-11.1582
▁qtj쎯e쎯	-11.1582
idr쎯thd쎯	-11.1588
ujf쎯qi쎯	-11.1589
▁xln1쎯jhny쎯	-11.1594
▁lh쎯qe쎯	-11.1596
▁c쎯ai쎯	-11.1596
▁luf쎯	-11.1599
▁쎀.쎄	-11.1601
gah쎯up쎯	-11.1602
▁wc쎯yw쎯	-11.1604
▁hx쎯nnh쎯	-11.1605
▁쎁쎉쎁쎉	-11.1608
▁uce쎯adf쎯	-11.1608
▁yygy쎯w쎯	-11.1612
▁[	-11.1612
wycm0쎯nf쎯ih쎯xeg쎯	-11.1615
gkf쎯	-11.1618
▁by쎯oja쎯	-11.1619
▁tx쎯wty쎯nm쎯	-11.1623
▁rp쎯rh쎯	-11.1623
▁pf쎯ryn0쎯	-11.1625
▁jf쎯ufy쎯	-11.1629
▁kftj0쎯	-11.163
▁lks쎯sq쎯	-11.1631
▁hk쎯rnd1쎯	-11.1632
rdn쎯	-11.1632
▁qc쎯gxi쎯	-11.1633
▁thd쎯tf쎯lg쎯	-11.1634
▁og쎯y쎯	-11.1639
▁pdhj쎯	-11.1642
쎅쎀쎀	-11.1645
▁lh쎯efc쎯	-11.1646
▁k쎯tu쎯bpf쎯	-11.1647
uxt쎯	-11.1647
▁sghg1쎯lp쎯	-11.1649
▁ul쎯uqt쎯lt쎯	-11.165
▁fq쎯sm쎯	-11.1653
▁swgu쎯	-11.1655
xfm쎯tavn쎯ait쎯pu쎯	-11.1656
▁ge쎯st쎯	-11.1657
ftg쎯yaa쎯	-11.166
rc쎯yid쎯	-11.1661
▁rvyo쎯hko쎯	-11.1666
▁ynv쎯	-11.1666
▁ovt쎯tfk쎯	-11.1667
▁y쎯wtf쎯tu쎯km쎯	-11.1668
▁o쎯sg쎯	-11.1669
▁xww쎯bw쎯	-11.167
▁gl쎯bpf쎯	-11.1671
▁kqr쎯	-11.1671
yveh쎯	-11.1674
vynu쎯	-11.1675
mgn쎯	-11.1676
▁jtyq0쎯	-11.1679
▁lfo쎯pt쎯	-11.168
▁twgi쎯	-11.168
▁bs쎯sve쎯tfpd쎯	-11.1683
▁wx쎯uv쎯	-11.1684
▁wwg쎯	-11.1684
▁ys쎯	-11.1685
▁dd쎯m쎯	-11.1685
▁sfi쎯twgi쎯	-11.169
▁uh쎯hko쎯	-11.1693
▁fwyc2쎯uk쎯wrh2쎯	-11.1699
▁ym쎯ntg쎯ce쎯	-11.1699
gx쎯	-11.1699
▁gmm쎯gde쎯	-11.1701
▁dskf쎯trf쎯	-11.1703
▁ll쎯bynw0쎯	-11.1704
▁a쎯wt쎯uk쎯uyh쎯	-11.1706
▁nyp쎯	-11.171
▁3	-11.171
▁ff쎯bpf쎯	-11.1712
▁xng1쎯	-11.1713
▁a쎯tkgg0쎯ytb쎯a쎯	-11.1713
▁udg2쎯lc쎯	-11.1714
▁wj쎯ty쎯	-11.1715
▁adwr쎯trf쎯	-11.1717
▁qmq쎯xf쎯sq쎯	-11.1717
gaj쎯	-11.1717
▁wg쎯n쎯	-11.1718
▁rfc쎯sy쎯km쎯	-11.1718
wk쎯bwg쎯	-11.1721
wcd쎯	-11.1722
▁rny1쎯pg쎯	-11.1722
▁wynb쎯ntk쎯	-11.1723
wyl쎯	-11.1723
▁myd쎯gtu쎯	-11.1723
▁whn쎯	-11.1723
▁qsu쎯gqx쎯	-11.1724
▁isj쎯	-11.1724
▁с	-11.1724
▁tm쎯ue쎯	-11.1724
kg쎯	-11.1725
qqw쎯	-11.1725
tqv쎯	-11.1727
▁qwd쎯oanw쎯	-11.1729
lhj쎯	-11.173
▁dgkn쎯fcl쎯	-11.1732
▁ga쎯v쎯um쎯	-11.1734
▁쎂.쎁	-11.1736
▁tffu쎯gf쎯	-11.1738
▁kxe쎯	-11.1739
▁ym쎯imkf1쎯	-11.1739
▁usr쎯ub쎯bm쎯thgc쎯	-11.174
▁reh쎯	-11.174
▁dg쎯w쎯	-11.174
▁tdtf쎯	-11.1742
▁fcl쎯eyni쎯	-11.1744
▁gu쎯fjg쎯	-11.1746
▁dgtg쎯ynt쎯	-11.1749
▁wv쎯a쎯	-11.1751
▁ice쎯	-11.1751
▁nnu쎯	-11.1751
▁wa쎯ge쎯wt쎯kkk쎯	-11.1751
▁pyg쎯ytyh쎯ymhj쎯	-11.1753
▁ghd0쎯yq쎯	-11.1753
▁wcw쎯	-11.1756
▁l쎯pe쎯sfi쎯uwy1쎯	-11.1759
▁rmhj쎯ys쎯	-11.176
▁w쎯st쎯	-11.176
sgw쎯	-11.1762
▁ai쎯lp쎯	-11.1763
▁th쎯yy쎯	-11.177
▁rffg쎯thgf0쎯	-11.177
▁qfhw0쎯ipk쎯tv쎯	-11.1775
▁jq쎯rh쎯	-11.1775
anu쎯	-11.1777
▁mdff0쎯	-11.1778
▁ftbt쎯wf쎯	-11.1779
▁lkd쎯rb1쎯	-11.178
▁dgv쎯itx쎯	-11.1781
▁jjjj쎯yygy쎯	-11.1782
pgk쎯wynk쎯	-11.1782
▁yt쎯lfhf쎯	-11.1782
▁pe쎯jfd쎯	-11.1784
▁c쎯sghg1쎯	-11.1785
▁pl쎯wv쎯aq쎯	-11.1786
▁hhu0쎯ru쎯	-11.1788
▁rt쎯k쎯	-11.1788
pujn1쎯	-11.1788
▁fc쎯ref쎯	-11.1788
▁hx쎯f쎯	-11.1789
▁vcb쎯jf쎯	-11.1789
▁fj쎯bc쎯	-11.179
sad쎯	-11.179
▁riv쎯	-11.1791
▁an쎯lwj쎯sgi쎯	-11.1792
▁uthp쎯iq쎯	-11.1795
▁khgm4쎯bj쎯	-11.1795
▁ukqb0쎯rfc쎯	-11.1796
▁cw쎯ya쎯	-11.1799
▁ajdf쎯f쎯	-11.1803
▁wuf쎯bde쎯	-11.1804
▁oge쎯cep쎯	-11.1806
uxxn1쎯	-11.181
▁gu쎯tffu쎯	-11.1811
▁pu쎯khg쎯x쎯cwg쎯	-11.1812
ihi쎯	-11.1812
▁trng쎯	-11.1815
lt쎯ip쎯	-11.1816
pjv쎯	-11.1817
▁ymf쎯dga쎯km쎯	-11.1817
▁lwx쎯eck쎯	-11.1819
▁cc쎯tm쎯	-11.1821
▁madt2쎯	-11.1821
usi0쎯	-11.1823
kml쎯	-11.1825
m1쎯	-11.1825
▁dww쎯	-11.1828
▁rer쎯iuc쎯	-11.183
▁wxj쎯mmm쎯	-11.183
▁vvv쎯tg쎯	-11.1831
▁ngk쎯wyc쎯	-11.1831
tuj쎯wsg0쎯k쎯yygy쎯	-11.1831
▁ryc쎯qie쎯	-11.1832
▁sp쎯qc쎯	-11.1835
▁lftj쎯	-11.1836
쎀쎇	-11.184
da쎯	-11.184
▁udg2쎯ec쎯	-11.1841
ybj쎯	-11.1845
▁qhk쎯dgtg쎯	-11.1845
▁geq쎯eyni쎯	-11.1848
▁ty쎯wvp쎯	-11.1848
▁fm쎯djd쎯	-11.1849
▁쎁쎉쎁쎃	-11.185
▁umq쎯qtg쎯	-11.1853
▁fm쎯mdfj쎯	-11.1854
yft쎯	-11.1854
▁ym쎯mtd쎯	-11.1855
▁xnf쎯	-11.1855
pynk쎯	-11.1856
▁w쎯tfkp쎯	-11.1859
▁xwv쎯xwv쎯	-11.1859
▁yw쎯	-11.1862
▁ktm쎯	-11.1863
▁tlf2쎯pvs쎯	-11.1866
gh쎯go쎯	-11.1866
▁yngk0쎯maw쎯	-11.1866
rnv쎯	-11.1868
rwyg쎯yygt쎯	-11.1869
ditn0쎯	-11.1869
▁fuk쎯yk쎯gyt쎯	-11.187
▁rrr쎯isgg0쎯	-11.1871
▁sqt쎯ytyh쎯	-11.1873
▁tmg1쎯gajf쎯	-11.1874
▁smq쎯	-11.1874
iak쎯	-11.1874
▁cf쎯rymn쎯	-11.1874
▁dd쎯gcft2쎯	-11.1875
▁if쎯ygk쎯	-11.1876
fge쎯tr쎯qnp쎯	-11.1876
▁su쎯kkk쎯	-11.1876
▁wuh쎯	-11.1877
▁wc쎯wv쎯	-11.1878
▁qk쎯vi쎯	-11.1887
▁egc쎯tv쎯nnh쎯yn쎯	-11.1887
▁ld쎯bb쎯	-11.1892
wdn쎯rvyl쎯	-11.1893
nnu쎯	-11.1895
uai쎯	-11.1896
▁vnu1쎯	-11.1898
▁wc쎯lw쎯	-11.19
▁f쎯eerq쎯	-11.19
▁ujff쎯ytd쎯	-11.1903
▁tf쎯og쎯fl쎯wf쎯	-11.1906
▁on쎯gqje쎯	-11.1908
▁wtp쎯k쎯	-11.1908
▁d쎯wug1쎯	-11.191
▁hj쎯fhg1쎯	-11.191
▁ygk쎯if쎯	-11.1912
▁oug쎯bb쎯	-11.1912
ry쎯	-11.1912
▁iqpl1쎯	-11.1913
▁jfj쎯	-11.1916
wycb쎯	-11.1917
▁kuq쎯	-11.1918
▁wcd쎯	-11.192
▁쎂쎀쎀쎀쎀	-11.1922
▁bde쎯ujn쎯	-11.1923
▁ffff5쎯bgh쎯adw쎯	-11.1925
▁yygy쎯si쎯	-11.193
▁lkmi0쎯syg쎯gae쎯	-11.1932
▁vynu쎯	-11.1939
▁icd쎯	-11.1939
▁gs쎯umd0쎯	-11.1941
▁quk쎯	-11.1945
yfy1쎯	-11.1947
▁w쎯tq쎯	-11.1948
▁iytb0쎯jtyq1쎯	-11.195
▁geht쎯	-11.1952
▁nb쎯	-11.1953
쎈.쎀	-11.1953
▁ukn쎯wf쎯	-11.1954
▁iwg쎯yoo쎯	-11.1955
igt쎯	-11.1956
▁thc쎯	-11.1956
▁alf쎯ytt쎯	-11.1957
itm쎯	-11.1958
▁anb0쎯sy쎯kkk쎯	-11.1958
▁khu쎯qkqq쎯	-11.1958
▁dg쎯tffu쎯al쎯	-11.1959
▁tmg1쎯lqw쎯	-11.1961
▁nnh쎯if쎯wt쎯kkk쎯	-11.1963
▁ypk쎯	-11.1963
▁ta쎯yy쎯gae쎯	-11.1966
▁β	-11.1967
▁su쎯sg쎯	-11.1968
▁wa쎯kgn쎯	-11.1969
▁wv쎯gqje쎯	-11.197
▁쎁쎉쎂쎁	-11.1971
▁gqje쎯thg0쎯	-11.1972
▁wc쎯ghd0쎯	-11.1972
▁n쎯ght쎯nnk쎯	-11.1973
qr쎯kht쎯	-11.1974
▁usr쎯tg쎯	-11.1975
▁jtg쎯adwe1쎯	-11.1975
▁fnhp쎯	-11.1977
tfq쎯tg쎯	-11.1982
▁lgm쎯	-11.1983
▁mq쎯wwwk쎯	-11.1983
▁dx쎯riu쎯	-11.1984
▁tkm쎯	-11.1985
fjhh쎯	-11.1986
▁ui쎯tsh0쎯	-11.1987
▁uy쎯eee쎯	-11.1988
vtg쎯qk쎯	-11.1989
▁idl쎯fggh쎯	-11.199
▁tk쎯ith쎯	-11.1992
dga쎯pwv쎯	-11.1992
▁ym쎯gf쎯	-11.1994
▁ajj쎯sg쎯sfhg쎯tr쎯	-11.1996
▁k쎯jjjj쎯	-11.1999
vcy1쎯	-11.2
▁rdj쎯ta쎯	-11.2001
▁k쎯aw쎯k쎯md쎯	-11.2005
qg	-11.2005
▁쎁쎀쎂쎄	-11.2006
▁ye쎯eb쎯	-11.2006
xtk쎯	-11.2006
▁bm쎯wyk쎯	-11.2007
▁hka쎯l쎯	-11.2008
▁dd쎯maw쎯	-11.2011
ssg쎯	-11.2012
▁rmc쎯u쎯	-11.2013
▁by쎯ooo쎯	-11.2014
▁rvk쎯sfi쎯	-11.2016
▁wyf0쎯tlf2쎯	-11.2016
▁ii쎯uqwm0쎯idr쎯	-11.2019
▁ihg1쎯	-11.2019
▁cm쎯rhf쎯	-11.2021
▁nty1쎯yv쎯	-11.2023
▁rh쎯ue쎯	-11.2025
kgb쎯	-11.2026
wfkb쎯	-11.2028
쎁쎀	-11.2031
il쎯	-11.2032
▁uk쎯lftj쎯	-11.2033
▁mq쎯ii쎯	-11.2034
nudu쎯	-11.2035
nku쎯	-11.2037
▁ffh쎯puh쎯	-11.2039
wgk쎯wt쎯	-11.204
xcy쎯	-11.204
▁fwf쎯	-11.204
▁ip쎯sy쎯wf쎯yyq쎯	-11.2044
▁ol쎯ajj쎯	-11.2044
▁ltu쎯nnh쎯pgc쎯	-11.2045
ywx쎯yygy쎯	-11.2046
▁yt쎯dd쎯	-11.2053
▁う	-11.2053
▁aqrn0쎯awx쎯	-11.2054
txgi2쎯	-11.2054
▁rj쎯ue쎯	-11.2054
▁hak쎯	-11.2057
ce쎯idr쎯	-11.2057
▁yopy1쎯	-11.2057
vii쎯	-11.2058
▁tmo쎯ss쎯aqv1쎯dq쎯	-11.2059
▁xa쎯gmiu쎯	-11.206
▁rfc쎯sy쎯wbj쎯usr쎯	-11.206
fm쎯yiu쎯	-11.2061
▁oqdo쎯rnb쎯	-11.2062
▁jjjj쎯yn쎯	-11.2062
atg쎯	-11.2063
▁mmm쎯wwk쎯	-11.2063
▁um쎯og쎯qve쎯tf쎯	-11.2065
▁k쎯kht쎯	-11.2065
tga쎯	-11.2066
jj쎯egc쎯	-11.2067
▁dnv1쎯ugdu쎯fqb1쎯	-11.2068
▁k쎯atd쎯bpf쎯	-11.2069
ivy쎯	-11.207
▁ii쎯yygy쎯	-11.207
▁wq쎯wu쎯	-11.2072
▁bgk쎯yb쎯	-11.2072
▁mmm쎯ai쎯dd쎯ip쎯	-11.2073
▁ga쎯fffy쎯	-11.2073
▁dw0쎯gd쎯	-11.2074
▁uxe쎯iq쎯	-11.2074
gqjo0쎯fghg쎯	-11.2075
▁tqv쎯	-11.2076
▁vv쎯	-11.2076
▁tdtf쎯tlf2쎯	-11.2078
fnh쎯	-11.2079
▁qev쎯yfn쎯	-11.2081
tfkd쎯	-11.2081
▁pwkw쎯	-11.2081
▁ru쎯sgh쎯	-11.2083
▁qtj쎯pe쎯	-11.2083
qty1쎯	-11.2084
▁ue쎯dm쎯	-11.2084
▁pgy쎯dgtg쎯	-11.2086
▁isk쎯uthp쎯	-11.2089
▁rgw쎯kkd쎯	-11.209
▁sm쎯gj쎯	-11.2092
▁ab쎯ith쎯	-11.2093
▁djd쎯apk쎯tjh쎯	-11.2094
gmw쎯	-11.2095
▁gu쎯my쎯	-11.2095
med쎯	-11.2097
▁qk쎯kn쎯	-11.2098
buj쎯	-11.2099
▁ay쎯	-11.21
▁tgj쎯lt쎯	-11.21
▁ue쎯bg쎯	-11.2102
nmh쎯	-11.2102
bukn쎯	-11.2102
▁oe쎯ufg쎯	-11.2103
▁um쎯et쎯	-11.2104
▁pwat쎯fp쎯	-11.2109
▁xt쎯hhu0쎯	-11.211
▁rhyc1쎯	-11.211
tem쎯	-11.211
khuh쎯	-11.2112
tu쎯ip쎯bpf쎯	-11.2118
▁jb쎯xk쎯	-11.2119
▁tuj쎯xq쎯	-11.212
▁ty쎯ip쎯	-11.212
rhyi쎯	-11.2126
▁wgej1쎯	-11.2128
sagg쎯	-11.2129
▁ga쎯awx쎯	-11.2132
▁wty쎯eee쎯	-11.2135
▁ilg2쎯	-11.2138
qgj쎯ssss쎯yjj0쎯	-11.2139
▁rhy쎯	-11.2143
f1쎯	-11.2144
iuw쎯	-11.2146
▁jqr쎯gf쎯	-11.2147
▁u쎯og쎯lfq쎯	-11.215
▁xnn0쎯	-11.2151
▁yon쎯ep쎯	-11.2151
▁fyn쎯	-11.2152
▁fiy쎯bk쎯	-11.2157
▁rny1쎯ys쎯	-11.2157
▁iff1쎯	-11.2158
irn쎯	-11.216
▁teg1쎯	-11.216
▁thd쎯ick쎯	-11.2163
▁i쎯vk쎯	-11.2163
▁isk쎯kkkk0쎯	-11.2164
▁dd쎯thd쎯qd쎯	-11.2165
▁udh쎯tgj쎯	-11.2168
▁rck쎯	-11.2169
▁쎃쎀%	-11.2173
▁ndn쎯	-11.2173
▁ga쎯uit쎯	-11.2174
▁sdm쎯id쎯	-11.2176
▁tq쎯kt쎯	-11.2178
▁ywx쎯aft쎯	-11.218
▁wa쎯gj쎯um쎯	-11.218
▁a쎯um쎯tf쎯ght쎯	-11.2182
▁gjq쎯dd쎯	-11.2184
sqdy쎯	-11.2184
▁umd0쎯bb쎯	-11.2184
wc쎯jfd쎯	-11.2185
▁fhv쎯fnr쎯	-11.2187
쎉쎀쎀	-11.2188
▁쎁쎉쎁쎄	-11.2191
▁ipg쎯yfj쎯	-11.2191
▁ih쎯iytb0쎯ca쎯	-11.2191
▁wty쎯kht쎯pl쎯	-11.2192
eeqy쎯	-11.2193
▁tey쎯pw쎯wc쎯ngk쎯	-11.2193
▁oun쎯	-11.2194
▁pu쎯tr쎯	-11.2194
▁bm쎯tf쎯	-11.2195
ssk쎯	-11.2196
▁dn쎯wwv쎯	-11.2197
▁khtd2쎯	-11.2198
quk쎯	-11.2201
dtf쎯wgkb2쎯	-11.2201
▁isk쎯luf쎯	-11.2203
▁ecl쎯	-11.2205
jtd쎯	-11.2206
pt쎯yww쎯ftbt쎯rep쎯	-11.2206
쎇.쎅	-11.2207
▁gq쎯wfny0쎯	-11.2207
▁ovt쎯rnd1쎯xg쎯	-11.2207
fjt쎯	-11.2208
okk쎯	-11.221
▁쎁쎁쎂	-11.2211
▁fnhc1쎯	-11.2212
▁fiy쎯pu쎯	-11.2212
▁dy쎯pw쎯	-11.2216
▁thd쎯wy쎯	-11.2218
▁aqk쎯og쎯	-11.2218
▁tve쎯xk쎯	-11.2225
▁kkd쎯pn쎯	-11.2225
nied쎯	-11.2228
▁dg쎯mgu쎯	-11.2233
▁rcbs쎯	-11.2234
▁agq쎯	-11.2236
▁ス	-11.2236
yid쎯et쎯	-11.2237
▁wdn쎯tfq쎯	-11.2239
nfd쎯	-11.224
▁dr쎯u쎯	-11.2241
al쎯ce쎯	-11.2241
▁gg쎯jtg쎯xe쎯	-11.2243
▁쎁쎁쎈	-11.2244
▁쎇.쎅	-11.2244
▁ur쎯	-11.2245
▁dn쎯wqj쎯	-11.2246
▁dc쎯	-11.2249
▁ytfp1쎯	-11.2249
▁g쎯yygy쎯	-11.225
▁thd쎯egl쎯	-11.2251
▁pwd쎯fhn쎯	-11.2252
sym쎯ytyh쎯	-11.2255
▁gh쎯tfj1쎯	-11.2255
▁i쎯tp쎯	-11.2256
▁ag쎯eee쎯	-11.2256
▁dg쎯gog쎯	-11.2257
▁dd쎯ftjb쎯	-11.2258
▁wsg0쎯yce쎯fnrt쎯	-11.2258
▁v쎯gc쎯	-11.2258
▁efk쎯eta쎯	-11.2259
▁kkk쎯wug1쎯	-11.226
▁rnb쎯fcl쎯	-11.226
▁usgp1쎯yq쎯	-11.2262
tg쎯u쎯	-11.2263
ipks쎯	-11.2263
▁sghg1쎯jty쎯	-11.2263
쎃쎃	-11.2264
▁yc쎯jn쎯	-11.2266
▁agnn2쎯vit쎯	-11.2267
tvt쎯	-11.2268
▁uvh쎯	-11.227
tjh쎯gog쎯	-11.2273
▁nh쎯gc쎯	-11.2274
eta쎯	-11.2276
▁xh쎯tkh쎯	-11.2277
▁po쎯pd쎯	-11.2278
▁......	-11.2278
▁ack쎯	-11.228
atm쎯	-11.2281
rmc쎯uqwm0쎯	-11.2284
▁lwg쎯ty쎯if쎯	-11.2285
▁ux쎯itx쎯	-11.2287
▁iagw쎯ytt쎯	-11.2288
▁sov쎯ym쎯	-11.2288
▁uwl쎯rnb쎯	-11.2289
▁ue쎯gq쎯	-11.229
▁fqw쎯	-11.2291
▁jge쎯	-11.2291
wdyy1쎯	-11.2291
▁쎇쎀쎀쎀	-11.2291
▁gdk쎯	-11.2292
irr쎯ia쎯	-11.2293
▁dp쎯dn쎯	-11.2293
▁udh쎯lt쎯	-11.2293
▁tmg1쎯ihc쎯	-11.2295
▁i쎯on쎯wbj쎯usr쎯	-11.2299
▁ukh쎯pwd쎯	-11.2301
▁faw쎯gcf쎯	-11.2301
▁itx쎯yqa쎯	-11.2302
▁ufy쎯sgn쎯	-11.2304
▁ifp쎯itx쎯	-11.2305
▁ntg쎯udy쎯	-11.2306
▁gc쎯yqa쎯	-11.2309
▁amyn0쎯dx쎯	-11.231
emc쎯wwv쎯	-11.2311
fay쎯	-11.2311
▁fl쎯m쎯	-11.2313
▁ght쎯ick쎯tv쎯km쎯	-11.2316
▁tg쎯yce쎯	-11.2317
puq쎯	-11.2318
▁tx쎯g쎯wug1쎯	-11.2319
tda쎯	-11.232
kfg쎯	-11.2322
▁aqg쎯aqr쎯ah쎯	-11.2325
▁bfq쎯	-11.2327
▁vt쎯eee쎯	-11.2328
tif쎯	-11.2329
4	-11.2331
▁hep쎯uj쎯	-11.2331
▁rta쎯fcp쎯	-11.2331
▁trf쎯rytp0쎯	-11.2332
▁pt쎯pe쎯	-11.2336
▁usgp1쎯	-11.2337
▁ル	-11.2337
▁df쎯tj쎯	-11.2338
▁h쎯yy쎯	-11.2338
▁qq쎯dnv1쎯	-11.2341
▁wkhh쎯fay쎯	-11.2341
ev쎯	-11.2343
rfq쎯	-11.2343
jn쎯ytd쎯	-11.2343
▁xyna0쎯pj쎯	-11.2345
▁쎉쎀쎀쎀	-11.2346
▁sg	-11.2347
▁fcl쎯lt쎯ip쎯	-11.2348
▁rgv쎯	-11.2348
▁sf쎯xe쎯	-11.2348
wjm쎯	-11.2348
▁pds쎯tg쎯	-11.2348
ytey쎯iytb0쎯	-11.235
iq쎯xft쎯	-11.2351
▁ww쎯k쎯	-11.2352
▁qyk쎯	-11.2352
▁lt쎯qv쎯	-11.2352
▁lkb쎯	-11.2355
▁sf쎯jfd쎯	-11.2357
▁xrc쎯	-11.2358
▁dgh쎯qfhw0쎯	-11.2359
▁udyj쎯ryn0쎯	-11.236
▁ba0쎯gq쎯	-11.2361
▁kkks0쎯ujf쎯	-11.2362
▁sfi쎯ykw쎯	-11.2364
▁thgf0쎯bb쎯	-11.2364
▁icw쎯	-11.2364
▁dm쎯ou쎯	-11.2364
suh쎯	-11.2365
▁dfa쎯eud쎯	-11.2366
▁eud쎯	-11.2368
▁dfi쎯	-11.237
▁khgp1쎯	-11.2373
▁yca쎯	-11.2376
sgmk쎯	-11.2376
▁yid쎯lt쎯	-11.2379
▁rvyo쎯th쎯gj쎯	-11.2381
▁bb쎯vvv쎯	-11.2383
▁g쎯g쎯	-11.2384
▁up쎯ggg1쎯	-11.2385
▁ssf쎯hh쎯	-11.239
▁fhu쎯bm쎯	-11.2392
▁rmhj쎯yjjh1쎯	-11.2392
▁쎁쎉쎁쎈	-11.2395
쎇쎀쎀	-11.2395
▁u쎯sc쎯	-11.2397
vaf쎯wsg0쎯	-11.2398
ght쎯fl쎯	-11.2399
iyni0쎯	-11.24
▁rit쎯	-11.2403
▁jq쎯h쎯	-11.2406
쎈쎈	-11.2408
▁qfhw0쎯ta쎯	-11.2409
▁ym쎯sfi쎯uwy1쎯	-11.241
▁vd쎯vyv쎯	-11.2411
▁fu쎯dd쎯	-11.2411
qn쎯ufy쎯	-11.2411
▁쎁쎃쎅	-11.2413
▁ith쎯uthp쎯	-11.2414
▁bk쎯ce쎯uk쎯uyh쎯	-11.2415
aflf쎯	-11.2417
▁wvl쎯f쎯	-11.2417
▁ip쎯yu쎯	-11.2417
▁itx쎯ipr쎯	-11.2417
▁yssc2쎯ulg쎯	-11.2417
▁yft쎯wnt쎯	-11.2419
▁ode쎯	-11.2422
▁ywg쎯toc쎯	-11.2422
쎂쎀쎀	-11.2422
pwat쎯	-11.2426
▁iej쎯	-11.2428
▁wxj쎯mmm쎯ymhj쎯	-11.2429
▁mgu쎯wwk쎯	-11.2431
▁ytn쎯tvfh1쎯	-11.2431
▁jaj1쎯	-11.2433
▁ige쎯gj쎯	-11.2435
▁sk쎯tfkd쎯ntg쎯	-11.2436
▁kgn쎯dcg쎯	-11.2437
▁wx쎯ip쎯txi쎯	-11.2437
▁sg쎯qk쎯	-11.2439
▁pei쎯lll쎯	-11.244
▁〗	-11.2442
▁qnd쎯hwb쎯	-11.2442
▁qve쎯uqd0쎯	-11.2442
〖	-11.2443
▁um쎯w쎯	-11.2445
dd쎯rx쎯	-11.2445
▁uth쎯v쎯	-11.2448
▁yssr쎯rta쎯lg쎯	-11.2448
▁f쎯src쎯	-11.245
▁ii쎯lll쎯	-11.2451
▁itf쎯ye쎯	-11.2456
▁sov쎯tel쎯	-11.2456
▁hc쎯af쎯	-11.2457
▁к	-11.2459
▁fjh0쎯wgku1쎯	-11.2462
▁kha쎯wynb쎯	-11.2463
▁qdy1쎯	-11.2469
dan쎯	-11.2472
▁dy쎯ide쎯	-11.2477
▁wwf쎯sfi쎯	-11.248
▁fm쎯lp쎯	-11.2481
▁bd쎯epc쎯	-11.2481
oqd쎯	-11.2482
▁ux쎯lp쎯	-11.2488
yf쎯aj쎯	-11.2488
▁es쎯yyn1쎯	-11.2491
▁fakg1쎯qk쎯	-11.2497
▁uxh쎯uxh쎯	-11.2498
▁mhh쎯	-11.2499
▁hjs쎯dm쎯	-11.2501
▁opw쎯hko쎯	-11.2501
dnp쎯	-11.2504
▁uqd0쎯ujj쎯	-11.2505
▁cel쎯	-11.2513
g쎯wh쎯	-11.2513
▁img쎯ae쎯	-11.2515
▁ovt쎯ip쎯txi쎯	-11.2516
▁sss쎯ss쎯wc쎯lfq쎯	-11.2516
▁sm쎯fcl쎯	-11.2518
▁쎅.쎅	-11.2519
▁c쎯tyg쎯	-11.252
▁gmww쎯umd0쎯	-11.252
ipkh1쎯tg쎯itd쎯	-11.2521
vtk쎯qynm1쎯	-11.2521
gah쎯ic쎯	-11.2522
▁sksw쎯ndj쎯	-11.2522
▁wt쎯ma쎯pe쎯	-11.2523
rh쎯eee쎯	-11.2525
▁ytey쎯iytb0쎯aq쎯	-11.2526
▁ifj쎯ytyh쎯	-11.2527
atd쎯ubk0쎯kkd쎯sa쎯	-11.2527
▁bd쎯yw쎯	-11.2528
▁tnb쎯	-11.2529
▁tr쎯gj쎯txi쎯	-11.2533
▁g쎯ck쎯	-11.2534
rrqc쎯	-11.2535
▁lp쎯fuj쎯	-11.2537
▁l쎯ygk쎯	-11.2539
▁fd쎯wksf쎯	-11.2539
▁cc쎯tgj쎯	-11.254
▁cd쎯ftg쎯nnh쎯	-11.2541
▁py쎯wf쎯uqt쎯uwl쎯	-11.2543
▁afd0쎯aya쎯	-11.2545
▁iww쎯	-11.2545
▁mqu쎯eee쎯	-11.2545
le쎯	-11.2547
▁쎂.쎈	-11.2548
o쎯hh쎯	-11.2548
▁jhnr쎯	-11.2548
wc쎯lfq쎯	-11.2548
▁v쎯iq쎯	-11.255
쎄%	-11.2552
▁nyi2쎯	-11.2554
▁ih쎯bynw0쎯	-11.2555
▁ucd쎯	-11.2562
▁xev쎯	-11.2563
c쎯wgj쎯	-11.2565
▁jjjj쎯jvko쎯	-11.2566
▁il쎯il	-11.2566
dfef쎯	-11.2566
▁g쎯uj쎯	-11.2569
▁oi쎯qkm쎯	-11.2572
▁ijl쎯t쎯	-11.2576
▁wv쎯tf쎯	-11.2577
▁srg쎯ss쎯	-11.2578
▁jc쎯jc쎯	-11.2579
▁geq쎯dyn쎯	-11.258
▁fge쎯pt쎯	-11.2582
▁aq쎯wv쎯	-11.2582
▁в	-11.2582
rvk쎯um쎯xh쎯uqwm0쎯	-11.2584
▁wg쎯rh쎯	-11.2586
▁쎁쎆쎈	-11.2587
▁rhyi쎯	-11.2588
yygt쎯fnrt쎯	-11.2589
▁eb쎯tl쎯og쎯	-11.2591
▁nae쎯wf쎯	-11.2591
▁dmj1쎯nnnn쎯	-11.26
▁dfek쎯	-11.2604
wg	-11.2605
▁tmg1쎯fge쎯	-11.2606
vef쎯	-11.2608
▁fnr쎯hhu0쎯	-11.261
▁wfh1쎯	-11.261
▁gmww쎯wug1쎯	-11.261
▁xef쎯qev쎯	-11.2611
▁nnl쎯sgyb쎯	-11.2614
▁yaa쎯ltu쎯	-11.2615
▁cf쎯ytd쎯	-11.2616
▁gd쎯ipkf0쎯	-11.2616
nfa쎯	-11.2619
▁fcln쎯	-11.262
▁lh쎯tffu쎯	-11.262
▁bct쎯wgk쎯	-11.2622
▁ad쎯sg쎯h쎯	-11.2623
▁cqw쎯qi쎯	-11.2628
▁lrj쎯	-11.2628
▁qqq쎯	-11.263
▁ta쎯tgh쎯	-11.263
xef쎯	-11.2631
▁iwy1쎯fm쎯	-11.2635
▁kkk쎯kfi쎯	-11.2635
▁ays쎯avd쎯	-11.2636
▁e쎯xg쎯	-11.2637
▁qn쎯lfnh쎯	-11.2638
▁yfd쎯bb쎯	-11.2638
▁wtu쎯tkh쎯	-11.264
▁ma쎯rr쎯	-11.2641
▁쎈쎀쎂.쎃	-11.2641
bm쎯go쎯	-11.2642
▁san쎯	-11.2643
▁jtd쎯pntj쎯	-11.2648
▁uth쎯wbj쎯	-11.2648
atgq쎯	-11.2651
▁ag쎯fgh쎯	-11.2652
xr쎯	-11.2653
▁jf쎯pw쎯	-11.2654
▁mw쎯d쎯	-11.2655
▁wds쎯	-11.2657
▁nhd쎯	-11.2657
▁jtyq0쎯ipkm0쎯	-11.2658
ujn쎯yq쎯	-11.2658
▁mmm쎯ax쎯	-11.266
▁lfn쎯gajf쎯	-11.2661
▁ymf쎯kfi쎯ou쎯	-11.2662
▁xnn0쎯shn쎯	-11.2666
▁shn쎯qje쎯	-11.2666
▁thd쎯tq쎯	-11.2668
▁wo쎯wuf쎯	-11.2671
▁dy쎯pf쎯	-11.2676
▁pgc쎯qh쎯	-11.2677
▁쎁쎈쎄	-11.2678
tonu쎯	-11.2679
▁gmap쎯jm쎯	-11.2684
▁mf쎯tl쎯tp쎯gj쎯	-11.2685
▁thd쎯go쎯ii쎯	-11.2685
▁wf쎯nae쎯	-11.2686
wgg0쎯	-11.2687
▁go쎯rhf쎯	-11.2688
nck쎯	-11.2691
ukqb0쎯qv쎯	-11.2693
▁lh쎯eee쎯	-11.2696
ujqn0쎯	-11.2697
▁dcw쎯ann쎯	-11.2698
▁twf쎯	-11.27
▁fq쎯qjq쎯ymhj쎯	-11.2704
c쎯go쎯	-11.2706
▁wmw쎯	-11.2706
▁fm쎯ruv쎯	-11.2706
mwwk쎯	-11.2707
▁ipw쎯wx쎯	-11.271
▁ipe쎯xpw쎯	-11.271
▁aah쎯	-11.2711
▁jjjj쎯gcf쎯	-11.2711
▁qqk쎯	-11.2714
dgtg쎯img쎯wx쎯a쎯	-11.2714
▁ipk쎯vfhp1쎯	-11.2717
▁rn쎯yu쎯	-11.2717
▁uf쎯gmww쎯	-11.2717
▁wt쎯kkk쎯nae쎯	-11.2718
▁nawe쎯	-11.2719
▁itm쎯iyt0쎯	-11.272
▁gd쎯y쎯ftbt쎯	-11.272
▁ugdu쎯nae쎯	-11.2721
▁skf쎯	-11.2722
▁ukn쎯u쎯wfhg쎯	-11.2722
▁fay쎯	-11.2723
▁amy쎯ldd쎯	-11.2723
▁dgtg쎯amd쎯	-11.2724
▁ipwk0쎯yjjh1쎯	-11.2724
▁dm쎯uk쎯	-11.2724
▁쎅쎅쎀	-11.2725
dty쎯gk쎯	-11.2725
▁n쎯lw쎯	-11.2726
▁ymf쎯gj쎯	-11.2729
▁dmjf1쎯yssd0쎯	-11.2729
wsg0쎯txi쎯	-11.2729
▁qqw쎯	-11.2734
▁emc쎯ta쎯	-11.2734
▁yni1쎯ngj쎯	-11.2737
▁scbk쎯	-11.2739
▁xkjn1쎯	-11.2739
rnp쎯sgc쎯	-11.2739
▁g쎯qkd쎯	-11.2741
frc쎯	-11.2741
▁dgh쎯shy쎯	-11.2742
ajq쎯	-11.2743
▁jty쎯irh쎯	-11.2743
▁xv쎯wx쎯yx쎯	-11.2743
▁ipw쎯tj쎯	-11.2744
▁wy쎯thn쎯txi쎯xyc쎯	-11.2745
▁wtr쎯ygk쎯	-11.2745
▁adw쎯wqu쎯	-11.2745
pl쎯aq쎯	-11.2745
▁nge쎯jy쎯	-11.2746
▁bv쎯ya쎯	-11.2746
oanw쎯	-11.2747
tavn쎯	-11.275
▁fi쎯aib쎯ntg쎯	-11.2751
▁ddh쎯uyh쎯ymhj쎯	-11.2751
쎀쎀쎁	-11.2755
▁x쎯xn쎯	-11.276
▁mmm쎯ii쎯gl쎯	-11.2766
▁uit쎯	-11.2768
▁qk쎯etg쎯aq쎯	-11.2769
▁ii쎯iyc쎯	-11.2771
▁lt쎯ya쎯	-11.2775
nx쎯sghg1쎯gog쎯	-11.2776
▁ke쎯bwf쎯	-11.2778
▁dd쎯ysi쎯	-11.2778
▁qh쎯lwj쎯	-11.2781
▁bwf쎯vi쎯	-11.2782
▁gmww쎯adm쎯	-11.2782
pl쎯atd쎯dd쎯ip쎯	-11.2783
▁hka쎯sy쎯	-11.2786
▁anb0쎯sy쎯lwj쎯	-11.2786
▁fj쎯nae쎯	-11.2787
▁egcn쎯rffg쎯	-11.2788
▁itm쎯	-11.2788
▁adwl쎯pwfi쎯	-11.2789
▁lfq쎯mw쎯	-11.2791
▁n쎯tg쎯	-11.2791
▁rmhj쎯if쎯	-11.2792
▁drin쎯ujn쎯	-11.2792
▁vs쎯fn쎯py쎯	-11.2792
▁jn쎯jyie쎯ab쎯	-11.2794
smu1쎯	-11.2797
ccw쎯	-11.2798
▁쎁쎀쎃	-11.2798
gmm쎯	-11.28
▁ywfw쎯qnj쎯	-11.2801
▁ripq1쎯	-11.2802
▁hndm쎯	-11.2804
ak쎯	-11.2806
▁ypt쎯dq쎯	-11.2809
▁tx쎯fgh쎯nm쎯	-11.281
▁쎁쎉쎁쎀	-11.2818
▁rfc쎯jgm쎯	-11.2818
▁bgu쎯	-11.282
▁wxd쎯wtuf1쎯	-11.2822
쎁쎉쎆	-11.2823
▁pp쎯mw쎯	-11.2826
▁mnbm0쎯fhn쎯	-11.2829
▁v쎯je쎯fny쎯tjh쎯	-11.283
qh쎯tu쎯	-11.283
▁dq쎯eb쎯	-11.2831
▁yf쎯tg쎯	-11.2832
▁ux쎯jty쎯	-11.2832
▁xeg쎯dn쎯km쎯	-11.2833
▁g쎯ih쎯	-11.2833
▁rua쎯ujf쎯	-11.2834
▁쎁쎂쎃	-11.2834
▁lhnh쎯udy쎯eri쎯	-11.2834
▁pei쎯ip쎯	-11.284
qqc쎯	-11.284
uuk0쎯	-11.2841
▁ukn쎯hich쎯	-11.2843
vf쎯	-11.2843
▁pyu쎯	-11.2844
ger쎯	-11.2848
▁xyna0쎯xkw쎯	-11.2849
vkf1쎯	-11.285
▁atdp쎯	-11.285
▁khv쎯bde쎯	-11.285
▁ywx쎯ygh쎯	-11.285
▁tg쎯gqx쎯	-11.2852
▁by쎯pw쎯	-11.2853
qbn1쎯	-11.2853
▁gyg1쎯hko쎯	-11.2857
▁xqi쎯	-11.2858
▁ga쎯rd쎯wbj쎯usr쎯	-11.286
▁fgh쎯qq쎯rh쎯	-11.286
ys쎯	-11.2861
▁ujf쎯qi쎯pe쎯	-11.2862
▁kcb쎯	-11.2863
▁pb쎯wsg0쎯	-11.2864
▁dl쎯rh쎯	-11.2864
dnv1쎯dl쎯	-11.2865
▁gu쎯ime쎯	-11.2865
vl쎯	-11.2869
▁txg쎯g쎯	-11.287
▁uqwv쎯dyn쎯	-11.287
▁ynma쎯gu쎯	-11.287
▁ykw쎯	-11.2872
▁adwl쎯rpws쎯	-11.2872
▁an쎯w쎯	-11.2872
▁uq쎯tyg쎯	-11.2872
▁fghg쎯rgw쎯	-11.2873
▁yss쎯img쎯	-11.2875
▁쎁쎂쎂	-11.2875
▁yud0쎯	-11.2876
▁if쎯ip쎯bpf쎯	-11.2877
▁eyni쎯ukh쎯	-11.2879
ihic쎯	-11.288
▁oat쎯ga쎯	-11.2881
▁nnk쎯nnk쎯ta쎯	-11.2882
▁to쎯tb쎯	-11.2887
yy쎯if쎯	-11.2889
▁し	-11.289
▁jjjj쎯bb쎯	-11.2891
▁f쎯rfm쎯ip쎯	-11.2891
▁pww쎯tkw쎯	-11.2893
og쎯tl쎯	-11.2893
oge쎯uwl쎯fiy쎯oge쎯	-11.2894
▁u쎯wfhg쎯	-11.2895
▁whf쎯	-11.2896
▁xg쎯ntg쎯	-11.2896
▁dg쎯dj쎯	-11.2896
▁ht쎯hna쎯	-11.2896
▁wgmy3쎯udv쎯	-11.2898
▁fgf쎯	-11.2901
xwy쎯dskf쎯	-11.2902
▁ytfp1쎯bpf쎯	-11.2904
▁xeg쎯wrh2쎯	-11.2905
oqdo쎯	-11.2907
▁rdj쎯yt쎯	-11.2909
▁ght쎯if쎯	-11.291
▁sfhg쎯puhc쎯	-11.2911
▁sh쎯rc쎯	-11.2911
▁wnnf쎯	-11.2912
▁ffi쎯aa쎯	-11.2913
▁apg쎯dgh쎯ytt쎯	-11.2914
▁dgtg쎯sft쎯	-11.2915
▁dgv쎯yuvo0쎯	-11.2916
▁se쎯ym쎯	-11.2918
▁ians0쎯	-11.2919
▁gv쎯	-11.292
▁쎁쎉쎁쎇	-11.292
▁ipkh1쎯xv쎯	-11.2924
▁ian0쎯bct쎯	-11.2928
쎀쎅쎀	-11.293
▁wfny0쎯udp쎯	-11.2931
ijx쎯	-11.2931
▁fge쎯jtyq1쎯	-11.2931
▁か	-11.2933
▁ftx쎯rh쎯w쎯	-11.2934
▁sm쎯jm쎯	-11.2935
▁dskf쎯yop쎯	-11.2935
▁tg쎯ow쎯	-11.2936
▁i쎯nt쎯	-11.2938
fwyf쎯	-11.2941
pfqc1쎯	-11.2941
ㄌ	-11.2941
▁ftx쎯src쎯	-11.2944
▁cf쎯dm쎯	-11.2949
▁tp쎯gj쎯rmhj쎯ya쎯	-11.2949
▁pww쎯tkw쎯yx쎯	-11.2951
▁edjn쎯rmhj쎯	-11.2952
쎁%	-11.2954
▁bu쎯ype쎯wf쎯	-11.2955
er쎯	-11.2956
▁pv쎯wg쎯ntg쎯	-11.2958
▁vvv쎯pyj쎯	-11.2962
▁po쎯	-11.2962
▁pei쎯ss쎯	-11.2963
▁w쎯n쎯wa쎯ge쎯	-11.2965
iwb쎯	-11.2965
▁wc쎯uu쎯	-11.2966
dg1쎯tyna2쎯ih쎯yu쎯	-11.2971
▁i쎯vb쎯	-11.2972
wqbh쎯	-11.2972
▁ieb쎯mfky쎯	-11.2972
▁gm쎯qqqq1쎯	-11.2976
▁sm쎯gajf쎯	-11.2978
▁tx쎯vt쎯nm쎯	-11.2979
▁lfn쎯ty쎯	-11.2979
▁hjs쎯	-11.298
▁쎁쎈쎃	-11.2981
▁yyn1쎯	-11.2982
▁lk쎯pnt쎯	-11.2983
▁wvp쎯	-11.2983
iaj쎯	-11.2983
▁qyi1쎯	-11.2986
▁rnp쎯	-11.2989
▁qsu쎯w쎯	-11.299
▁svc쎯syp쎯	-11.299
▁l쎯e쎯uqwm0쎯u쎯	-11.2992
▁pfq쎯vb쎯	-11.2993
▁mga쎯cb	-11.2994
▁gm쎯wynb쎯	-11.2995
k쎯md쎯	-11.2996
rgb쎯	-11.2997
▁ux쎯tvr쎯	-11.2998
▁xf쎯tha쎯	-11.2999
▁rdj쎯me쎯	-11.3
▁oe쎯otf쎯	-11.3001
▁rpv쎯qvfp1쎯	-11.3003
ov쎯	-11.3003
▁ulk1쎯	-11.3005
▁qvn2쎯fiyt쎯	-11.3006
▁wa쎯ge쎯dd쎯wf쎯	-11.301
▁tdj쎯ssss쎯	-11.301
▁img쎯ex쎯	-11.3013
▁xw쎯bm쎯	-11.3014
▁e쎯ycb쎯	-11.3014
▁dl쎯jf쎯	-11.3016
▁imk쎯mdfj쎯	-11.3017
▁ryj쎯	-11.3019
▁gr쎯ia쎯	-11.3019
w1쎯	-11.3021
▁ftjo1쎯ybv쎯	-11.3022
xv쎯qc쎯	-11.3023
vaf쎯	-11.3023
▁mmm쎯yfd쎯	-11.3024
▁uthp쎯hw쎯	-11.3027
▁ftg쎯ygh쎯	-11.3027
▁qo쎯	-11.3028
▁nc쎯tr쎯	-11.3028
▁iqr쎯	-11.3029
▁g쎯vt쎯vt쎯	-11.3031
▁dht쎯gd쎯	-11.3036
▁ooo쎯oqv쎯	-11.3036
bib쎯	-11.3037
▁ah쎯hwb쎯	-11.3037
▁イ	-11.3038
cbq쎯	-11.3039
▁rma쎯	-11.3039
▁rhf쎯mqb쎯	-11.3041
▁wt쎯kkk쎯wys쎯	-11.3044
▁yfj쎯yww쎯	-11.3049
▁wfny0쎯ltk쎯	-11.3052
▁pb쎯xgu쎯	-11.3053
▁jx쎯mmm쎯	-11.3055
▁yid쎯cf쎯	-11.3055
▁xfm쎯	-11.3057
▁puf쎯	-11.3057
▁쎀.쎇	-11.3057
▁adm쎯hhhh쎯tp쎯gj쎯	-11.3058
▁usr쎯yvh쎯nnh쎯	-11.3058
▁xyna0쎯thdi쎯	-11.3059
wtd쎯	-11.306
▁rs쎯qgb쎯sm쎯	-11.3061
▁ux쎯mdfj쎯	-11.3064
eyf쎯	-11.3065
▁ii쎯idr쎯	-11.3065
▁uj쎯bgk쎯	-11.3066
▁fw쎯gv쎯	-11.3067
▁bu쎯wk쎯	-11.3068
▁ygu쎯xx쎯	-11.3069
sgtk0쎯	-11.307
▁gae쎯wny0쎯	-11.307
▁whm쎯pwfi쎯	-11.307
▁aig쎯thg0쎯	-11.3072
▁xa쎯shi쎯	-11.3073
acbt0쎯	-11.3073
▁ofd쎯	-11.3073
vyi1쎯	-11.3074
tkm쎯	-11.3075
▁fd쎯ux쎯	-11.3077
▁yy쎯gae쎯	-11.3078
▁ipkh1쎯mqb쎯ugm쎯	-11.3082
▁wty쎯dd쎯	-11.3088
▁bk쎯og쎯rfc쎯ce쎯	-11.3089
▁vvv쎯fghg쎯	-11.3094
▁jh쎯ybv쎯	-11.3095
▁afwu쎯apw쎯	-11.3095
sx쎯	-11.3096
▁qth쎯	-11.3097
▁ty쎯xyna0쎯	-11.3098
▁ga쎯sm쎯	-11.3102
▁ipm쎯ipgh쎯	-11.3106
ddi쎯	-11.3106
▁e쎯qc쎯qqqq1쎯ntk쎯	-11.3108
▁pyg쎯hnd쎯	-11.311
▁uxt쎯bct쎯	-11.3112
▁fkuk4쎯iw쎯	-11.3113
▁wk쎯udyj쎯	-11.3114
▁wty쎯fgh쎯	-11.3114
▁wgk쎯aft쎯	-11.3115
▁ss쎯fnrt쎯	-11.3118
▁fm쎯ps쎯	-11.3118
,	-11.312
▁rvy쎯og쎯	-11.312
▁gd쎯ft쎯	-11.3121
▁dd쎯eyb쎯	-11.3124
◇	-11.3126
▁aqo쎯	-11.3131
▁gd쎯bb쎯	-11.3134
▁gyt쎯bb쎯	-11.3135
hhy쎯	-11.3136
▁ta쎯dw0쎯ymhj쎯	-11.3137
wuh쎯	-11.3137
ndn쎯	-11.314
▁mfk쎯gc쎯	-11.3143
▁qh쎯ian0쎯	-11.3144
▁pg쎯jf쎯	-11.3147
▁kd쎯tfl쎯	-11.3147
pwn쎯	-11.3149
gqf쎯	-11.3149
▁dhb쎯yt쎯	-11.315
▁wxd쎯tm쎯	-11.3153
ifw쎯	-11.3154
▁ica쎯	-11.3155
▁wys쎯mb쎯	-11.3155
▁qie쎯wyk쎯nh쎯ty쎯	-11.3159
▁lp쎯aq쎯	-11.3159
▁odm쎯nyb쎯	-11.316
▁ggi쎯gfi쎯	-11.3161
tom쎯	-11.3161
▁yy쎯tkgg0쎯	-11.3163
▁ivs쎯qc쎯wsg0쎯	-11.3163
▁eaj쎯	-11.3165
▁ftbt쎯yce쎯ip쎯	-11.3166
fdm쎯fiy쎯	-11.3166
▁dmq쎯	-11.3169
▁vah쎯	-11.3169
▁yd쎯pyk쎯	-11.317
k쎯gajf쎯	-11.3173
▁hv쎯quj쎯	-11.3174
ab쎯hhhh쎯	-11.3174
▁ngj쎯jtg쎯	-11.3176
▁gkih쎯ifk쎯	-11.318
▁wvf쎯ert쎯	-11.3181
▁gj쎯ntg쎯	-11.3181
▁dq쎯ru쎯	-11.3181
uck쎯	-11.3182
▁puhc쎯rpd1쎯	-11.3183
▁쎁쎉쎁쎆	-11.3185
▁epw쎯	-11.3186
fnv0쎯	-11.3189
▁xv쎯f쎯	-11.319
▁g쎯fg쎯	-11.3191
--	-11.3191
▁xyna0쎯lkb쎯uk쎯	-11.3191
▁iq쎯xg쎯	-11.3196
▁wtu쎯dnv1쎯fqb1쎯	-11.3197
▁er쎯	-11.3198
▁yuvo0쎯	-11.3199
▁쎁쎉쎀쎅	-11.3199
▁vf쎯fiy쎯	-11.3201
▁itf쎯its쎯	-11.3204
▁fq쎯i쎯	-11.3206
▁veg쎯veg쎯	-11.3208
k1쎯	-11.3208
▁i쎯yce쎯	-11.3208
▁nnk쎯dm쎯	-11.3208
▁vcn0쎯	-11.3209
▁qk쎯suq쎯	-11.3211
▁wfny0쎯ivs쎯ugm쎯	-11.3211
fss쎯	-11.3211
▁gmf쎯gm쎯	-11.3214
▁uth쎯wycm0쎯	-11.3215
ntx쎯	-11.3218
▁ww쎯og쎯w쎯km쎯	-11.3221
▁aw쎯u쎯ipk쎯	-11.3221
▁tyg쎯go쎯	-11.3222
▁ow쎯dyw쎯	-11.3222
▁k쎯wdm쎯	-11.3223
▁wgk쎯if쎯sc쎯uwl쎯	-11.3225
▁fny쎯ta쎯	-11.3225
sfw쎯	-11.3225
▁isjg쎯	-11.3226
▁ige쎯tjf쎯	-11.3227
▁isk쎯ai쎯	-11.3227
▁ifk쎯uqv쎯	-11.3227
wxf쎯w쎯	-11.3227
raj쎯	-11.3227
▁ufg쎯dd쎯	-11.3228
ga쎯nae쎯	-11.3229
▁trw쎯ycb쎯	-11.323
▁nku쎯	-11.323
▁iw쎯fhn쎯	-11.3232
▁euk쎯ait쎯	-11.3238
▁ue쎯ftj쎯	-11.3242
▁ec쎯itdy쎯	-11.3242
gdj쎯	-11.3243
▁ai쎯dm쎯	-11.3244
▁tu쎯fl쎯	-11.3245
▁qqqq1쎯qg쎯	-11.3246
▁vs쎯rfm쎯	-11.3247
▁y쎯rs쎯	-11.3247
▁qf쎯cf쎯ntg쎯	-11.3248
▁qgl쎯	-11.3252
▁bwj쎯	-11.3255
▁yo쎯fcl쎯	-11.3256
e1쎯	-11.3258
▁dg쎯fgh쎯rh쎯	-11.3258
▁cwg쎯ygh쎯	-11.3261
▁qmq쎯sft쎯	-11.3261
xjh쎯	-11.3263
▁wc쎯aa쎯	-11.3264
▁mqb쎯qev쎯	-11.3265
uni0쎯	-11.3267
▁yfy1쎯	-11.3269
▁iie쎯goi쎯	-11.327
ssu쎯	-11.3271
▁hm쎯	-11.3272
▁ax쎯sft쎯	-11.3273
▁ykge쎯	-11.3276
▁uu쎯yy쎯oy쎯	-11.3276
▁rgw쎯lft쎯	-11.328
st쎯qiu0쎯	-11.3281
qn	-11.3281
▁쎁쎂쎁	-11.3284
nii1쎯	-11.3286
▁mf쎯ght쎯uk쎯	-11.3288
▁aqn쎯thg0쎯	-11.3289
▁os쎯iq쎯	-11.329
▁nty1쎯af쎯yy쎯pvs쎯	-11.329
▁ty쎯wygg쎯	-11.329
▁쎂쎇쎀	-11.3295
wv쎯bb쎯	-11.3295
▁udy쎯fqb1쎯	-11.3296
▁mqc쎯tr쎯k쎯ny쎯	-11.3296
▁v쎯rnr쎯	-11.3297
▁rfw쎯rf쎯	-11.3299
▁thgc쎯gl쎯	-11.33
awf쎯	-11.3301
die쎯	-11.3304
▁td쎯qk쎯whf쎯og쎯	-11.3304
▁bfm쎯f쎯	-11.3304
▁yfj쎯pwv쎯	-11.3305
▁k쎯xe쎯bk쎯tq쎯	-11.3309
alfj0쎯	-11.3309
▁dyt쎯u쎯	-11.3312
jplh0쎯	-11.3313
gyiy쎯	-11.3315
▁mb쎯jn쎯	-11.3315
▁e쎯xg쎯jn쎯pym쎯	-11.3316
▁fg쎯eee쎯	-11.3317
▁쎂.쎃	-11.3317
▁begg쎯hh쎯	-11.3318
▁yge쎯fiy쎯	-11.3319
▁qnqn쎯	-11.332
▁dm쎯eerq쎯	-11.3321
▁wbj쎯wtl쎯	-11.3323
▁ω	-11.3324
▁kq쎯ip쎯	-11.3327
▁쎆쎅쎀	-11.3329
▁dnv1쎯uu쎯yy쎯oy쎯	-11.333
▁tfk쎯dnv1쎯	-11.3332
▁isk쎯sghg1쎯	-11.3334
▁dnv1쎯pb쎯	-11.3335
qevj쎯	-11.3336
▁bm쎯qkm쎯	-11.3337
▁nu쎯ntg쎯	-11.3337
▁xf쎯og쎯	-11.3337
kvi쎯	-11.3337
▁jb쎯e쎯	-11.334
▁rte쎯tfp쎯	-11.3341
▁gxgu쎯ntg쎯	-11.3343
▁yid쎯rytp0쎯	-11.3344
▁hhu0쎯qiu0쎯	-11.3344
▁rrhy쎯wygg쎯	-11.3345
trng쎯	-11.3347
mw쎯pww쎯	-11.3348
▁lqw쎯wrh2쎯ga쎯v쎯	-11.3349
▁g쎯ts쎯dx쎯	-11.3356
▁fny쎯og쎯w쎯ft쎯	-11.3356
qqqq1쎯gkm쎯sm쎯sq쎯	-11.3358
▁yjjh1쎯jg쎯	-11.3358
nyp쎯	-11.3359
▁iwf쎯w쎯	-11.336
▁ta쎯tyna2쎯	-11.3361
y0쎯	-11.337
▁fffy쎯uft쎯	-11.3372
▁ww쎯og쎯	-11.3373
▁gogn쎯yssc2쎯	-11.3374
▁tjf쎯rnb쎯	-11.3374
▁qtw쎯	-11.3374
uyu쎯	-11.3377
▁dd쎯yy쎯	-11.3379
▁gqjo0쎯	-11.3381
vcl쎯	-11.3382
▁쎁쎉쎁쎅	-11.3383
▁gah쎯aqky1쎯	-11.3384
▁gef쎯qmgk0쎯	-11.3385
▁xtdp0쎯	-11.3388
▁eb쎯tl쎯wc쎯ngk쎯	-11.3391
gg쎯rh쎯	-11.3391
▁쎀.쎀쎀	-11.3392
▁dav쎯	-11.3393
▁ref쎯	-11.3396
yce쎯adwe1쎯	-11.3398
▁pg쎯wwj쎯	-11.34
qkk쎯	-11.3401
eaj쎯	-11.3404
▁sfi쎯yn쎯	-11.3404
▁wtr쎯l쎯	-11.3408
▁tgj쎯gajf쎯	-11.3408
▁h쎯xg쎯	-11.341
▁nae쎯jtyq1쎯wf쎯	-11.341
▁pg쎯jg쎯	-11.3411
▁kkd쎯tr쎯	-11.3412
▁rwye1쎯	-11.3412
▁cw쎯jghm1쎯	-11.3413
▁rqa쎯rymn쎯	-11.3414
▁fd쎯ai쎯	-11.3414
▁tfhy쎯	-11.3415
▁쎂쎈쎀쎀	-11.3416
▁g쎯yid쎯whw쎯wg쎯	-11.3418
▁pt쎯yne쎯eb쎯tl쎯	-11.3418
▁쎆.쎅	-11.3418
▁wh쎯sf쎯	-11.3419
▁wc쎯ud쎯	-11.342
▁igd쎯	-11.342
▁f쎯ge쎯	-11.3421
▁쎁쎉쎀쎈	-11.3421
▁um쎯yhk쎯	-11.3422
gcf쎯it쎯	-11.3424
▁dqq쎯	-11.3424
▁vtkd1쎯y쎯	-11.3425
▁ygh쎯rnd1쎯	-11.3429
▁xnh쎯xwv쎯	-11.3429
▁ay쎯tjf쎯	-11.343
▁tmg1쎯wbj쎯	-11.3431
▁hc쎯efw쎯ugm쎯	-11.3432
iann쎯	-11.3433
▁ydn쎯pu쎯	-11.3434
쎁쎉쎃	-11.3435
▁sx쎯nnh쎯	-11.3435
▁gkip2쎯yx쎯	-11.3438
▁lfo쎯pujn1쎯qc쎯	-11.3441
▁qf쎯gae쎯	-11.3441
wwgi쎯	-11.3442
▁uth쎯wh쎯	-11.3442
▁xuq쎯	-11.3442
uwe쎯	-11.3443
▁bwf쎯gkp쎯	-11.3443
ulk1쎯	-11.3444
▁yngk0쎯ygk쎯	-11.3444
atq쎯	-11.3446
▁rpws쎯bwg쎯	-11.3447
jef1쎯	-11.3447
▁je쎯ypm쎯	-11.3452
▁mt쎯tkh쎯	-11.3453
hjs쎯	-11.3457
▁uqvd0쎯	-11.3459
▁epc쎯wtl쎯	-11.3462
▁me쎯rr쎯	-11.3462
▁ym쎯ahty쎯	-11.3464
▁iv쎯gk쎯w쎯	-11.3465
ihg1쎯	-11.3466
▁hh쎯uce쎯	-11.3466
▁ydx쎯	-11.3466
an	-11.3471
▁kkdu쎯	-11.3471
▁ttt쎯	-11.3472
▁fq쎯gxgu쎯	-11.3474
▁tuj쎯wgj쎯	-11.3475
▁kld쎯	-11.3477
tc쎯	-11.3479
▁tu쎯ftbt쎯	-11.3479
▁ce쎯rt쎯	-11.348
▁l쎯tdij쎯	-11.348
sm쎯sq쎯	-11.3481
ggi쎯kht쎯	-11.3482
▁rvf쎯dgv쎯	-11.3484
▁fny쎯apk쎯	-11.3485
vtk쎯www쎯	-11.3485
▁qyt쎯lkmi0쎯gae쎯	-11.3486
▁ght쎯ick쎯x쎯iyj쎯	-11.3486
▁tdp쎯k쎯	-11.3486
tdp쎯et쎯aib쎯lfnh쎯	-11.3487
▁hcd쎯hw쎯	-11.3487
▁ux쎯tfkd쎯	-11.3488
▁vq쎯xi쎯	-11.3489
▁mq쎯es쎯	-11.3489
▁um쎯og쎯tffh1쎯	-11.3492
k쎯l쎯a쎯pei쎯xa쎯pl쎯	-11.3492
▁f쎯fnw쎯	-11.3493
▁nt쎯qd쎯	-11.3493
hna쎯	-11.3496
▁wsg0쎯yce쎯qnp쎯	-11.3496
dubw쎯	-11.3498
▁gki쎯	-11.3499
ㄙ	-11.3499
▁lh쎯kthh1쎯dd쎯ip쎯	-11.35
ijq쎯	-11.3501
▁rvyo쎯jg쎯	-11.3502
▁ijo쎯iugg0쎯	-11.3503
▁dn쎯rh쎯	-11.3503
▁te쎯gmy1쎯	-11.3504
▁tjt쎯iw쎯	-11.3506
j1쎯	-11.351
▁ybf0쎯iwyf2쎯	-11.351
▁tt쎯yn쎯	-11.3511
▁쎁쎉쎀쎆	-11.3512
▁ruv쎯udh쎯	-11.3513
▁tfkp쎯yi쎯	-11.3513
▁hi쎯tf쎯tffh1쎯	-11.3518
▁ta쎯dtf쎯	-11.3521
▁ax쎯ip쎯	-11.3522
▁wtu쎯adm쎯	-11.3522
▁ck쎯ytyh쎯	-11.3523
▁fd쎯ud쎯	-11.3523
▁waw쎯xw쎯	-11.3523
▁sksw쎯kjj쎯	-11.3523
▁n쎯ght쎯	-11.3523
▁rqw쎯	-11.3533
▁y쎯tv쎯	-11.3533
▁ugdu쎯sy쎯txi쎯	-11.3533
▁apl쎯tl쎯	-11.3533
▁jja쎯iq쎯	-11.3533
쎉%	-11.3536
▁qyk쎯maf0쎯	-11.3536
▁쎂쎂쎀쎀	-11.354
ftbt쎯ip쎯ymc쎯ytb쎯	-11.3541
fdm쎯	-11.3541
▁kht쎯tca쎯	-11.3543
▁xh쎯et쎯	-11.3546
▁io쎯amw쎯qc쎯	-11.3548
qsj쎯	-11.3549
▁lfn쎯fcl쎯	-11.3549
▁vaf쎯wj쎯	-11.3549
▁amd쎯trf쎯qiu0쎯	-11.3549
▁mwyc1쎯fm쎯	-11.355
▁ip쎯ire쎯	-11.355
▁xmw쎯tuk쎯	-11.355
▁xtu쎯rh쎯	-11.3553
▁ige쎯vjsj쎯	-11.3553
▁peg쎯iw쎯	-11.3555
iujg0쎯	-11.3555
▁tmdf1쎯xg쎯	-11.3556
▁ss쎯k쎯	-11.3558
▁g쎯yngk0쎯	-11.3559
▁g쎯udbb쎯	-11.3559
▁sfg쎯geh쎯	-11.3561
▁fhu쎯h쎯	-11.3562
yem쎯	-11.3562
▁pwtf0쎯	-11.3565
▁fm쎯rcy0쎯	-11.3568
▁vck쎯wbj쎯	-11.3568
▁쎂쎄쎀쎀	-11.3569
▁wk쎯pnt쎯	-11.3572
▁jghy쎯wfg0쎯	-11.3574
gma쎯	-11.3574
▁mgu쎯	-11.3574
mdo쎯	-11.3579
▁ijl쎯cbts0쎯	-11.358
▁qtj쎯uqwm0쎯	-11.3584
▁nny0쎯tfn쎯	-11.3584
▁img쎯rnb쎯	-11.3585
▁nd쎯fghg쎯	-11.3586
▁ugk쎯	-11.3587
▁vtkd1쎯bb쎯	-11.3588
▁yygy쎯ip쎯pe쎯	-11.359
ij쎯	-11.3592
▁ts쎯xyy0쎯	-11.3593
▁bk쎯wug1쎯	-11.3594
▁ghd0쎯th쎯xe쎯	-11.3595
▁fcu1쎯bwt쎯	-11.3595
▁wgkb2쎯jghm1쎯	-11.3596
ㄠ	-11.3597
▁telb쎯	-11.3598
▁ax쎯et쎯	-11.3598
▁sh쎯sm쎯	-11.3599
ai쎯yy쎯	-11.36
▁wwj쎯wfhg쎯cm쎯	-11.36
▁vd쎯	-11.3601
▁emc쎯sc쎯	-11.3603
ugdu쎯fl쎯	-11.3604
umia쎯	-11.3605
▁udi쎯v쎯	-11.3605
▁qejy쎯rajd쎯nua쎯	-11.3606
kwyn2쎯	-11.3608
▁qh쎯cm쎯ymc쎯yf쎯	-11.3608
▁pl쎯pn쎯	-11.3609
thdu쎯	-11.361
▁qtgw1쎯pwtf0쎯	-11.361
▁qev쎯gxgu쎯	-11.3611
▁yo쎯gjq쎯	-11.3613
▁mqq쎯xtk쎯tu쎯rfc쎯	-11.3613
▁sc쎯uwl쎯	-11.3614
vij쎯	-11.3614
▁jc쎯udw쎯	-11.3615
▁uq쎯ian0쎯	-11.3615
▁uduk쎯yv쎯	-11.3617
▁pg쎯tm쎯	-11.3617
rvy쎯tf쎯	-11.3618
▁bg쎯tg쎯ds쎯	-11.3618
쎁쎂	-11.3618
et쎯yne쎯	-11.3619
▁uqf쎯wycm0쎯	-11.3621
▁wk쎯ryn0쎯aq쎯	-11.3622
▁aq쎯xe쎯	-11.3622
▁fqp쎯yb쎯	-11.3622
쎂.쎅	-11.3624
▁he쎯	-11.3625
▁nnnn쎯td쎯	-11.3625
wq쎯	-11.3625
▁qq쎯wug1쎯	-11.3626
▁suq쎯mw쎯	-11.3627
▁rg쎯an쎯	-11.3628
▁mqq쎯hko쎯	-11.3628
▁rh쎯fqu쎯	-11.363
▁uda쎯klj쎯	-11.3632
▁i쎯mqb쎯	-11.3633
▁rg쎯wa쎯	-11.3633
▁xp쎯wgk쎯ick쎯gj쎯	-11.3636
▁ipg쎯wx쎯	-11.3637
▁rep쎯yjs쎯	-11.3638
▁lnn1쎯	-11.3638
▁ikh0쎯unr쎯	-11.3638
▁ynw쎯	-11.3641
▁ftbt쎯ip쎯tu쎯dga쎯	-11.3642
▁ukn쎯tq쎯	-11.3642
qgo쎯	-11.3643
▁ifn쎯ii쎯	-11.3644
▁dj쎯xk쎯	-11.3645
▁dxy쎯fmk쎯	-11.3652
▁t쎯imkf1쎯	-11.3656
▁ooo쎯po쎯	-11.3656
smq쎯	-11.3657
pue쎯	-11.366
▁py	-11.3663
bty쎯	-11.3664
▁jtyl쎯pym쎯	-11.3671
▁mf쎯wf쎯	-11.3672
▁iq쎯yuo쎯	-11.3673
▁쎇쎀%	-11.3679
ougo쎯	-11.368
▁ma쎯anb0쎯	-11.3682
uq쎯jqr쎯	-11.3682
▁yc쎯wv쎯tjh쎯et쎯	-11.3683
▁쎁쎁쎆	-11.3684
oqm쎯	-11.3686
▁n쎯et쎯	-11.3686
▁wv쎯ga쎯	-11.3686
▁rx쎯ygu쎯	-11.3687
w쎯fghg쎯	-11.3691
▁ovt쎯hhhh쎯	-11.3691
bjm쎯	-11.3693
▁cd쎯pfjm1쎯	-11.3696
▁tue쎯	-11.3697
qtr쎯	-11.3697
al쎯yx쎯	-11.37
pykw쎯	-11.3701
▁쎁쎁쎄	-11.3703
▁ta쎯bb쎯	-11.3703
▁xef쎯nj쎯	-11.3704
jy쎯hko쎯	-11.3708
▁fiy쎯tg쎯dhb쎯	-11.3709
▁yte쎯	-11.3712
▁wmj0쎯dm쎯	-11.3712
▁tf쎯fhu쎯	-11.3713
▁eee쎯fjh0쎯	-11.3713
▁dnnl쎯u쎯	-11.3715
▁egl쎯ftbt쎯	-11.3717
▁oufg쎯	-11.3718
▁usgp1쎯pf쎯	-11.3718
▁pju쎯	-11.3719
▁kr쎯gc쎯	-11.3723
▁lds쎯gae쎯	-11.3726
▁ym쎯usr쎯aq쎯	-11.3726
kkh쎯	-11.3727
▁ynh쎯	-11.3728
▁eqd쎯	-11.3729
▁nfc쎯dm쎯	-11.373
▁sghg1쎯rcy0쎯	-11.3732
▁hich쎯	-11.3734
▁rcf쎯	-11.3734
▁yni1쎯qy쎯	-11.3736
▁쎀.쎉	-11.3737
▁pjm쎯ujn쎯	-11.3739
▁vo쎯txgt쎯ya쎯	-11.3743
▁amw쎯isgg0쎯	-11.3743
▁lxx쎯	-11.3745
▁sg쎯go쎯	-11.3745
vpq쎯	-11.3748
▁ipkh1쎯ybv쎯	-11.3748
▁maf0쎯	-11.3749
▁qtj쎯gc쎯	-11.3749
▁wht쎯ghd0쎯	-11.3749
▁h쎯tfj1쎯	-11.3751
▁jmd쎯	-11.3752
▁uhc쎯apl쎯	-11.3755
▁ui쎯kthh1쎯	-11.3757
awnu1쎯	-11.3761
▁쎈쎅쎀	-11.3761
▁wt쎯mq쎯	-11.3761
▁apo쎯iq쎯	-11.3762
▁iwyf2쎯o쎯	-11.3762
▁qo	-11.3762
▁uqf쎯go쎯	-11.3763
▁ipw쎯tfkp쎯	-11.3764
▁v쎯wyk쎯	-11.3764
▁dd쎯lt쎯v쎯nae쎯	-11.3764
▁ad쎯dbm쎯gj쎯ywx쎯	-11.3764
▁ae쎯ujfj쎯	-11.3765
▁ayn쎯	-11.3767
▁www쎯tg쎯	-11.3768
▁rmn쎯hko쎯	-11.3768
▁svc쎯rtd쎯	-11.3768
▁oyv쎯img쎯	-11.377
▁k쎯ip쎯tg쎯	-11.3775
▁rj쎯wjjg쎯	-11.3775
▁pgf1쎯	-11.3776
▁wt쎯pe쎯fl쎯wf쎯	-11.3776
nfi0쎯	-11.3778
▁rmn쎯it쎯	-11.3779
▁wfn쎯	-11.3785
▁g쎯rcn1쎯	-11.3788
▁rrr쎯ae쎯	-11.3792
▁vfhp1쎯tam쎯jgm쎯	-11.3797
▁fhv쎯dd쎯	-11.3797
pei쎯og쎯	-11.38
k쎯yygy쎯	-11.3802
▁rn쎯wt쎯	-11.3803
rb1쎯tfkf1쎯	-11.3804
qgh쎯	-11.3804
▁쎁쎀쎈쎀	-11.3805
▁lft쎯tv쎯	-11.3805
▁aqq쎯jel쎯	-11.3805
▁g쎯ya쎯	-11.3806
▁tuxj쎯wtu쎯	-11.3807
▁uxe쎯uk쎯	-11.3808
▁rdjn쎯	-11.3808
▁qfhw0쎯ia쎯	-11.3808
▁pp쎯puv쎯	-11.3808
▁ck쎯aa쎯sm쎯	-11.3808
▁fu쎯igd쎯	-11.3809
▁tqdh쎯	-11.3809
▁rvyo쎯ny쎯	-11.3809
▁g쎯sve쎯	-11.381
▁aqb쎯	-11.3811
and쎯	-11.3812
▁tak쎯bt쎯	-11.3813
ddm쎯	-11.3814
ice쎯	-11.3815
wgit쎯	-11.3815
▁fwm쎯aj쎯ymc쎯yf쎯	-11.3818
▁gm쎯adnt1쎯	-11.3818
nngt쎯	-11.382
▁dty쎯jfd쎯	-11.382
rae쎯	-11.382
▁cel쎯nb쎯	-11.3822
▁kq쎯h쎯	-11.3825
▁je쎯rrr쎯	-11.3825
itol쎯	-11.3826
▁lc쎯a쎯	-11.3827
xcc쎯	-11.3828
▁smgk쎯	-11.3829
▁tjf쎯ou쎯	-11.3832
▁lkc쎯	-11.3833
▁wc쎯et쎯	-11.3835
▁ff쎯ymd쎯	-11.3835
▁tgj쎯hko쎯k쎯ip쎯	-11.3837
▁lpk0쎯ta쎯	-11.3838
▁udj쎯mww쎯	-11.3838
ccc쎯tq쎯	-11.384
▁jjjj쎯tg쎯	-11.3841
▁rg쎯yem쎯	-11.3843
ovt쎯rnd1쎯	-11.3843
▁img쎯lll쎯	-11.3844
▁saj쎯wyn쎯	-11.3844
uyt0쎯	-11.3845
▁gajh쎯if쎯	-11.3847
▁nwgk쎯	-11.3848
▁쎁쎁쎃	-11.3848
▁ukn쎯ptkm0쎯	-11.3848
▁wg쎯pl쎯	-11.3851
▁sk쎯pym쎯	-11.3852
▁쎃쎁쎀	-11.3852
▁av쎯pu쎯	-11.3854
▁dg쎯l쎯fn쎯	-11.3855
▁xuj쎯tamw0쎯	-11.3855
▁gcft2쎯pgk쎯	-11.3856
▁wht쎯gj쎯	-11.3856
▁ebf1쎯	-11.3859
tfqp쎯o쎯	-11.3862
▁kkks0쎯fnr쎯	-11.3864
qtg쎯	-11.3865
tue쎯	-11.3866
▁wcy2쎯wcy2쎯	-11.3866
iwgu쎯	-11.3867
▁tx쎯dg쎯yy쎯	-11.3867
▁ym쎯rt쎯	-11.3869
▁쎁쎉쎀	-11.3869
▁stt쎯ugl쎯yx쎯	-11.387
▁rp쎯wny0쎯	-11.3874
▁rqym쎯	-11.3875
▁fjgh쎯	-11.3875
▁wvp쎯ltk쎯	-11.3876
▁kht쎯kkkk0쎯	-11.3878
▁tfk쎯jfd쎯	-11.3882
igk쎯	-11.3883
▁nu쎯wwwk쎯	-11.3883
fnm쎯	-11.3883
▁쎁쎇쎀쎀	-11.3884
a쎯ip쎯	-11.3884
▁ooo쎯qkm쎯	-11.3884
ghc쎯gyb쎯	-11.3884
▁jx쎯je쎯ymhj쎯	-11.3885
▁iyc쎯ire쎯	-11.3886
▁wgkq0쎯et쎯ftj쎯	-11.3887
▁o쎯hh쎯	-11.389
ght쎯if쎯dd쎯ip쎯	-11.3894
▁p쎯uth쎯	-11.3898
▁fmk쎯mty1쎯	-11.3899
▁fd쎯sghg1쎯	-11.3899
lge쎯	-11.3901
▁iaw쎯ii쎯	-11.3902
▁yyq쎯wf쎯	-11.3905
▁anu쎯thg0쎯xeg쎯	-11.3906
▁tffy0쎯jm쎯	-11.3907
쎀쎀쎂	-11.3907
▁msj쎯	-11.3908
▁lc쎯lc쎯	-11.3908
▁euk쎯yb쎯	-11.391
▁ss쎯ssss쎯	-11.3911
▁ftbt쎯tv쎯	-11.3913
▁rn	-11.3915
jb쎯	-11.3915
▁ym쎯ii쎯gu쎯	-11.3915
▁whm쎯rpws쎯	-11.3918
▁ef쎯oo쎯	-11.3919
▁arj쎯ae쎯	-11.392
▁dd쎯fd쎯ymhj쎯	-11.392
▁fii쎯ce쎯	-11.3924
g쎯yy쎯dm쎯	-11.3924
▁pp쎯od쎯	-11.3925
▁fd쎯mw쎯	-11.3925
▁ss쎯og쎯nnk쎯	-11.3925
▁da쎯wfny0쎯	-11.3928
▁rumt쎯	-11.393
wgkg0쎯	-11.393
▁uwy1쎯mj쎯	-11.3931
▁cep쎯ytd쎯jf쎯uj쎯	-11.3932
▁xad쎯tfn쎯	-11.3934
▁ipgg1쎯ivs쎯	-11.3936
▁fwm쎯	-11.3936
bp쎯	-11.3936
aaf쎯	-11.3938
▁sri쎯aa쎯wf쎯py쎯	-11.3938
▁ger쎯	-11.394
▁rvy쎯ftbt쎯	-11.394
▁txg쎯mfk쎯	-11.3941
wwj쎯st쎯	-11.3941
▁tvt쎯	-11.3943
▁irh쎯	-11.3947
▁uu쎯fn쎯	-11.3947
adh쎯	-11.3947
▁pgy쎯khgm4쎯	-11.3949
▁ufy쎯sm쎯	-11.395
▁aps쎯uu쎯	-11.395
▁ssg쎯	-11.3952
▁bm쎯teg1쎯	-11.3953
wycm0쎯fakg1쎯	-11.3955
▁yygt쎯yq쎯	-11.3955
▁yb쎯ny쎯	-11.3957
▁eb쎯tl쎯wsg0쎯txi쎯	-11.3958
pfjf0쎯qiu0쎯	-11.3958
▁uuk0쎯	-11.3959
▁sks쎯wwx쎯xx쎯gog쎯	-11.396
▁wy쎯yyn1쎯	-11.3962
▁iqn쎯igs쎯	-11.3968
▁qk쎯gq쎯	-11.3968
▁qtoy1쎯	-11.3968
qiu0쎯adwr쎯	-11.397
▁qqqq1쎯amw쎯	-11.397
▁lh쎯dm쎯	-11.3971
ywwf쎯	-11.3971
vfh쎯	-11.3972
▁yygy쎯af쎯	-11.3973
▁bb쎯yny0쎯	-11.3973
▁rqk쎯	-11.3976
▁gogj쎯nnh쎯	-11.3977
▁ert쎯le쎯	-11.3977
▁wd쎯yf쎯	-11.3979
▁lfod1쎯	-11.3979
▁aw쎯vfhp1쎯	-11.398
▁fs쎯	-11.3981
▁gs쎯rh쎯	-11.3981
▁adnt1쎯ytt쎯	-11.3982
▁rymn쎯alt쎯	-11.3983
khgp1쎯	-11.3984
▁sgjq쎯	-11.3984
▁xmw쎯ty쎯	-11.3984
▁qytb0쎯wx쎯	-11.3985
ynnu쎯	-11.3985
▁iyc쎯ii쎯	-11.3987
▁awv쎯uff쎯	-11.3989
▁bl쎯	-11.399
▁】	-11.399
▁dd쎯uqd0쎯pfjm1쎯	-11.3994
▁wtc쎯	-11.3995
▁aqw쎯	-11.3996
▁amw쎯img쎯	-11.3997
▁eb쎯tl쎯gu쎯ck쎯	-11.3997
▁ry쎯aet0쎯	-11.3998
▁sfh쎯alt쎯	-11.4
k0쎯	-11.4
▁rn쎯tj쎯	-11.4003
xyna0쎯rmhj쎯	-11.4003
▁쎇쎂쎀	-11.4006
▁dl쎯kq쎯txi쎯	-11.4006
▁gef쎯awx쎯	-11.4009
jn쎯eyb쎯	-11.4011
iuj쎯	-11.4012
▁qh쎯wmj0쎯	-11.4014
▁swc쎯ia쎯	-11.4014
▁vpe쎯	-11.4016
▁yygy쎯wx쎯u쎯og쎯	-11.4016
▁wfny0쎯an쎯	-11.4018
▁gh쎯yy쎯	-11.4018
▁rua쎯rgef쎯	-11.402
▁pei쎯pe쎯	-11.402
▁sh쎯tffu쎯	-11.402
▁jqr쎯ip쎯	-11.4022
▁fg쎯fgh쎯g쎯	-11.4025
▁pwfd쎯	-11.4025
▁ui쎯oyvk0쎯	-11.4025
▁v쎯nae쎯ufg쎯dd쎯	-11.4027
▁qqqq1쎯wxf쎯	-11.4028
▁fg쎯k쎯	-11.4032
▁us쎯av쎯	-11.4033
▁rnf쎯	-11.4035
▁ruv쎯ty쎯	-11.4042
qw쎯	-11.4042
▁xn쎯vi쎯	-11.4045
▁wgqt쎯	-11.4045
▁ugdu쎯wx쎯	-11.4048
yxl쎯	-11.405
▁tol쎯	-11.405
▁vep쎯tmc쎯	-11.405
itl쎯	-11.4052
rmc쎯ty쎯wgkq0쎯et쎯	-11.4052
▁if쎯w쎯uqwm0쎯st쎯	-11.4054
▁uq쎯gx쎯	-11.4055
▁tey쎯itx쎯	-11.4056
▁uq쎯jqr쎯rn쎯	-11.4056
ral쎯	-11.4059
▁hxf쎯	-11.406
▁ny쎯jfd쎯	-11.4061
▁qn쎯udi쎯	-11.4063
▁쎁쎉쎀쎉	-11.4063
▁yo쎯rq쎯	-11.4064
▁dm쎯h쎯	-11.4065
▁nat쎯	-11.4067
▁mq쎯sm쎯	-11.4068
yfd쎯sf쎯	-11.4068
▁lg쎯gajf쎯	-11.407
▁x쎯apk쎯aib쎯lfnh쎯	-11.4071
▁vcb쎯wug1쎯	-11.4072
k쎯yygy쎯qk쎯	-11.4074
▁pu쎯cwg쎯ip쎯suq쎯	-11.408
▁jat쎯	-11.4081
g쎯rh쎯	-11.4081
▁pfqf쎯ny쎯ugm쎯	-11.4081
▁lfn쎯yh쎯	-11.4083
▁fhl쎯fd쎯	-11.4084
▁swgj1쎯	-11.4084
▁suq쎯mq쎯	-11.4085
rge쎯	-11.4088
▁ym쎯dd쎯	-11.409
▁yxt쎯ghd0쎯	-11.4092
▁itd쎯fcl쎯pgc쎯	-11.4092
▁suq쎯fhg1쎯	-11.4094
▁bm쎯l쎯	-11.4095
▁itd쎯tld1쎯	-11.4096
▁rvyo쎯uyh쎯	-11.4097
▁pye쎯tfq쎯	-11.4098
▁le쎯enr쎯	-11.4098
rtd쎯	-11.4099
▁ytf쎯sk쎯	-11.4099
▁thdu쎯	-11.41
▁ght쎯ick쎯pe쎯	-11.41
▁ipk쎯t쎯l쎯pe쎯	-11.4102
▁maw쎯aib쎯	-11.4105
▁dmj1쎯pg쎯	-11.4106
kcy1쎯	-11.4106
▁ddm쎯	-11.4106
▁qve쎯skf쎯	-11.4107
▁gdj쎯	-11.4108
▁mhny0쎯qiu0쎯	-11.4108
▁wc쎯ngk쎯ukn쎯uk쎯	-11.4111
▁sghg1쎯ruv쎯	-11.4112
▁fgh쎯fg쎯rh쎯	-11.4113
▁ms쎯	-11.4114
▁dy쎯dr쎯ymhj쎯	-11.4115
▁txi쎯xyc쎯wys쎯dn쎯	-11.4116
xng1쎯	-11.4116
▁ymf쎯rpw쎯	-11.4116
▁rd쎯	-11.4117
iyb쎯	-11.4118
▁쎄쎀%	-11.412
dfa쎯	-11.4123
▁ybt쎯or쎯	-11.4123
▁aib쎯ldt쎯	-11.4127
▁awx쎯mmq쎯mdf쎯	-11.4128
▁cd쎯jvko쎯	-11.4128
▁rnb쎯kfi쎯	-11.4128
쎈.쎅	-11.413
쎂쎀쎁쎂	-11.4131
▁cep쎯lg쎯	-11.4133
▁i쎯je쎯	-11.4135
kgn쎯dcg쎯	-11.4135
▁qqqq1쎯dgtg쎯	-11.414
▁aqrn0쎯ugv쎯	-11.414
▁yfd쎯lfq쎯	-11.4144
▁lkd쎯go쎯	-11.4145
▁dnv1쎯jfd쎯	-11.4148
▁shi쎯	-11.4149
▁hx쎯th쎯	-11.415
▁dxy쎯	-11.4152
쎂쎀쎁쎀	-11.4152
▁tf쎯gq쎯	-11.4153
▁lh쎯jtg쎯xe쎯	-11.4155
▁jn쎯bb쎯u쎯kkk쎯	-11.4155
▁fg쎯fgh쎯lh쎯	-11.4156
▁wug1쎯nd쎯	-11.4157
▁rt쎯rxj쎯	-11.4157
▁쎁쎉쎀쎇	-11.4157
▁ipw쎯fqp쎯	-11.4158
▁qre쎯	-11.4161
▁jaw쎯fcl쎯	-11.4161
▁fkuk4쎯yd쎯	-11.4163
▁vv쎯bu쎯	-11.4165
▁ud쎯bu쎯	-11.4168
▁tak쎯ym쎯	-11.4171
▁wfny0쎯fhw쎯	-11.4172
mr쎯	-11.4174
▁kkkk0쎯mdfj쎯	-11.4174
▁pl쎯lft쎯	-11.4174
gmu1쎯wtf쎯	-11.4175
▁su쎯aa쎯	-11.4177
▁ag쎯wh쎯	-11.4178
tf쎯ght쎯aq쎯fakg1쎯	-11.4181
▁wvd쎯dmh쎯	-11.4183
▁cf쎯xx쎯ya쎯	-11.4185
▁φ	-11.4187
▁gxw쎯	-11.419
▁f쎯gh쎯ii쎯	-11.4194
dn쎯ftjb쎯	-11.4195
▁qh쎯dm쎯	-11.4196
▁bct쎯wgk쎯tr쎯	-11.4196
▁dty쎯nd쎯	-11.4196
▁fd쎯ffuk쎯	-11.4197
▁by쎯aib쎯	-11.4199
쎂쎀쎀쎀	-11.42
▁yuv쎯	-11.42
▁rnb쎯rvyl쎯	-11.4205
▁ptf쎯	-11.4206
▁waw쎯dwf쎯	-11.4207
▁ymf쎯ya쎯	-11.4208
▁dhd쎯	-11.4208
▁yuw쎯	-11.4209
▁ym쎯u쎯	-11.4209
▁gg쎯dj쎯	-11.4209
ype쎯	-11.4209
▁fwy쎯tkw쎯	-11.4211
ycm0쎯tfq쎯f쎯wug1쎯	-11.4212
▁rf쎯qy쎯	-11.4212
▁bqv쎯ty쎯	-11.4213
lwg쎯	-11.4214
▁w쎯tfqp쎯	-11.4214
viq쎯	-11.4215
afcu2쎯	-11.4215
fwm쎯saj쎯	-11.4215
▁ibi쎯	-11.4216
ufy쎯lfhf쎯	-11.4216
alw쎯aq쎯	-11.4217
▁uqw쎯ovt쎯	-11.4218
▁pb쎯ovt쎯	-11.4219
▁ta쎯jf쎯uj쎯	-11.422
wfny0쎯vaf쎯	-11.4222
▁aitl쎯	-11.4226
▁pjm쎯	-11.4229
▁v쎯yt쎯	-11.4229
▁fcp쎯apk쎯um쎯	-11.4229
iej쎯	-11.4233
▁쎁쎉쎀쎄	-11.4236
▁wv쎯aq쎯	-11.4237
vkgd쎯	-11.4239
▁rp쎯adwe1쎯	-11.4243
▁ait쎯kf쎯	-11.4244
▁jn쎯mqq쎯	-11.4244
▁dj쎯pe쎯	-11.4245
▁rtt쎯	-11.4246
▁itx쎯mgu쎯	-11.4247
▁tdp쎯gf쎯	-11.4247
rfm쎯jg쎯	-11.4247
▁wgk쎯tdp쎯	-11.4248
▁ddh쎯uyh쎯dd쎯ip쎯	-11.4249
▁fh쎯cm쎯	-11.425
▁khn쎯ydn쎯	-11.4251
▁dqe쎯	-11.4252
▁fiyt쎯ref쎯	-11.4255
▁aqq쎯bj쎯	-11.4255
trf쎯xe쎯ftbt쎯jgm쎯	-11.4256
▁wff쎯yvcb쎯	-11.4258
h0쎯	-11.4259
hhhh쎯vi쎯	-11.4259
▁h쎯up쎯	-11.4263
▁u쎯kkk쎯ymc쎯yf쎯	-11.4264
▁ipmq쎯	-11.4264
▁oge쎯rmhj쎯	-11.4265
▁vtdj쎯	-11.4267
▁qsu쎯alt쎯	-11.427
▁qtjh0쎯	-11.4273
rj쎯ym쎯	-11.4274
▁rdw쎯	-11.4278
▁qev쎯bwt쎯	-11.4278
▁qw쎯	-11.4279
wge쎯	-11.4279
▁ep쎯qiu0쎯uff쎯	-11.428
fqng쎯	-11.428
x쎯apk쎯	-11.428
▁adwe1쎯bv쎯	-11.4281
▁yid쎯e쎯	-11.4282
tf쎯o쎯	-11.4283
▁ftx쎯pt쎯yne쎯	-11.4285
▁sec쎯bu쎯	-11.4285
▁k쎯md쎯pw쎯ymf쎯	-11.4285
▁oo쎯ugh쎯	-11.4286
▁qqqq1쎯ptkm0쎯	-11.4286
▁by쎯uqwl쎯	-11.4286
▁sbb쎯	-11.4286
▁qk쎯yq쎯	-11.4286
▁ytd쎯jghm1쎯	-11.4287
pwf쎯	-11.4288
▁l쎯ip쎯	-11.4288
jhnr쎯	-11.429
rqa쎯	-11.4291
▁bc쎯qk쎯	-11.4292
▁dd쎯hka쎯	-11.4293
▁tp쎯gj쎯k쎯ny쎯	-11.4293
▁qdw쎯	-11.4294
▁ddg0쎯ntg쎯	-11.4295
wgen1쎯	-11.4296
▁ith쎯wf쎯	-11.4301
▁ihc쎯adwr쎯	-11.4301
▁sb쎯rrr쎯	-11.4302
▁saj쎯ode쎯	-11.4304
▁jn쎯ce쎯	-11.4304
▁kjj쎯sksw쎯	-11.4304
kma쎯	-11.4305
▁tif쎯tg쎯	-11.4308
▁hx쎯od쎯	-11.431
▁ian0쎯xyna0쎯	-11.4313
▁qmw쎯	-11.4316
▁쎃.쎂	-11.4317
▁yygy쎯ylk2쎯	-11.4317
▁vfh쎯	-11.432
is쎯	-11.4322
▁cn쎯qwyc0쎯alfj0쎯	-11.4322
▁uwyc0쎯adnt1쎯	-11.4323
▁nr쎯	-11.4324
▁rad쎯	-11.4325
▁sq쎯wrh2쎯	-11.4325
▁ef쎯ugm쎯	-11.4329
▁jtyq0쎯klj쎯	-11.433
▁yo쎯tfp쎯	-11.4332
▁fny쎯km쎯	-11.4335
▁fc쎯lks쎯	-11.4336
▁yhk쎯qge쎯	-11.4338
▁nyu쎯jg쎯	-11.4339
khp쎯	-11.434
nr쎯	-11.4342
▁uth쎯xt쎯	-11.4343
▁qqqq1쎯qc쎯	-11.4343
aqy쎯	-11.4344
gjq쎯	-11.4346
gip쎯	-11.4347
▁pujs쎯	-11.435
▁etj쎯f쎯	-11.4352
▁pyb1쎯	-11.4353
▁jc쎯qvn2쎯	-11.4354
▁ukn쎯jg쎯	-11.4355
▁yygy쎯wx쎯qnp쎯	-11.4356
▁ijlc쎯gl쎯pe쎯	-11.4359
▁int쎯nii1쎯	-11.436
▁ypt쎯fq쎯	-11.4361
▁mw쎯pww쎯tuj쎯wj쎯	-11.4361
▁is쎯	-11.4361
▁tq쎯wt쎯	-11.4363
▁bpf쎯mw쎯	-11.4364
▁xfn쎯tey쎯	-11.4365
▁tdtj쎯	-11.4365
uk쎯bw쎯	-11.4366
▁wc쎯nyi2쎯	-11.4367
▁tdnj쎯sj쎯	-11.4367
▁mqq쎯gfi쎯	-11.4367
▁lk쎯fhl쎯	-11.4369
▁wv쎯fc쎯sm쎯sq쎯	-11.4369
rvyo쎯qev쎯gxgu쎯	-11.4372
▁wwx쎯gj쎯	-11.4374
bwj쎯wdm쎯	-11.4375
▁qev쎯yt쎯hka쎯qv쎯	-11.4375
▁dma쎯	-11.4375
▁i쎯rw쎯	-11.4376
▁tfj1쎯	-11.4376
▁qgu쎯ugdu쎯	-11.4377
▁jf쎯iq쎯	-11.4378
▁drin쎯yneg쎯	-11.4378
▁ykg쎯uda쎯	-11.438
ide쎯aq쎯	-11.438
▁mq쎯fcu0쎯	-11.4382
▁ruv쎯udi쎯	-11.4383
img쎯qkm쎯	-11.4383
▁e쎯pd쎯	-11.4384
▁y쎯u쎯	-11.4384
kkk쎯tkh쎯	-11.4385
fgh쎯gg쎯	-11.4386
▁kld쎯kwn쎯	-11.4386
▁i쎯tj쎯i쎯	-11.4386
fny쎯og쎯	-11.4386
▁ufy쎯tel쎯	-11.4389
▁sgn쎯c쎯	-11.4394
▁sbd쎯lkmi0쎯	-11.4396
▁pfjm1쎯lg쎯	-11.4396
▁eb쎯tl쎯um쎯	-11.4397
▁bg쎯tg쎯bpf쎯	-11.4398
l쎯pe쎯tuk쎯tl쎯nnk쎯	-11.4399
▁kjf쎯	-11.44
▁쎃쎈쎀	-11.44
k쎯ta쎯adwe1쎯	-11.4403
trfh0쎯ggi쎯	-11.4404
▁qajf쎯	-11.4406
vnh쎯	-11.4406
▁rpl쎯	-11.441
▁wjm쎯qd쎯	-11.4412
▁vfb쎯tkh쎯	-11.4414
▁eq쎯uk쎯	-11.4415
▁fcp쎯fcl쎯wf쎯	-11.4415
▁rnb쎯tld1쎯	-11.4417
▁vtf쎯vdf쎯	-11.4419
▁ya쎯wnh쎯sf쎯	-11.4419
▁mqj쎯mqj쎯	-11.442
▁oge쎯uwy1쎯	-11.442
▁dmh쎯qgj쎯	-11.4421
▁rjg0쎯qm쎯	-11.4421
▁rdj쎯bm쎯	-11.4422
▁yygy쎯jj쎯	-11.4426
▁mqq쎯n쎯	-11.4427
▁vb쎯wqj쎯	-11.4432
▁rap쎯fhn쎯	-11.4432
▁ivk쎯icf쎯	-11.4433
▁sg쎯tu쎯fny쎯og쎯	-11.4436
▁qlh0쎯	-11.4436
xwx쎯	-11.4436
▁tf쎯wgkq0쎯	-11.4437
▁ktr쎯	-11.4437
wycm0쎯tfq쎯ii쎯gu쎯	-11.4439
▁bqn쎯	-11.4439
▁adn쎯	-11.444
▁gkih쎯sm쎯	-11.444
▁iwy1쎯pv쎯	-11.4442
▁wyb쎯	-11.4443
쎅.쎀쎀	-11.4444
▁wty쎯g쎯	-11.4447
▁kpt쎯	-11.4449
▁if쎯pg쎯	-11.445
▁rtf쎯ty쎯	-11.4452
▁gx쎯tg쎯	-11.4452
▁gmf쎯et쎯	-11.4454
hg쎯	-11.4455
▁iyc쎯x쎯	-11.4459
sie쎯	-11.4459
▁y쎯fggh쎯uthp쎯	-11.4461
caq쎯	-11.4462
syf쎯	-11.4463
bm쎯thgc쎯	-11.4463
fue쎯	-11.4464
jyie쎯ktm쎯	-11.4465
▁uu쎯adm쎯	-11.4465
▁uyh쎯ywe쎯	-11.4465
▁cd쎯pl쎯	-11.4466
▁ym쎯hid쎯	-11.4467
ahtg쎯	-11.4468
▁wc쎯uq쎯lg쎯	-11.4468
▁jan쎯	-11.447
▁qya쎯	-11.447
▁pye쎯wqu쎯	-11.4471
wk쎯ryn0쎯	-11.4472
▁al쎯fw쎯	-11.4473
▁ba0쎯hc쎯	-11.4473
쎀%	-11.4474
▁g쎯uqw쎯ntg쎯	-11.4477
▁sux쎯	-11.4478
▁gmy1쎯ia쎯	-11.4479
▁rt쎯xfn쎯	-11.4481
▁ght쎯a쎯jgm쎯	-11.4482
▁pgk쎯fghg쎯	-11.4483
▁vi쎯wqj쎯	-11.4484
▁yvh쎯mmm쎯	-11.4485
▁sq쎯tam쎯	-11.4488
▁scf쎯hc쎯	-11.449
▁c쎯qc쎯gq쎯	-11.449
▁dpr쎯xh쎯	-11.4491
▁ipkh1쎯e쎯	-11.4491
▁eerq쎯	-11.4491
▁wgmy3쎯tl쎯	-11.4492
▁dy쎯se쎯udr쎯	-11.4493
▁쎁쎀쎉	-11.4493
▁tfl쎯ygk쎯	-11.4495
▁tg쎯dyn쎯ip쎯	-11.4497
▁gkl쎯th쎯xe쎯	-11.4497
▁dmj1쎯rg쎯	-11.4498
▁qsu쎯rt쎯	-11.4499
ag쎯rh쎯	-11.4499
▁wys쎯wsg0쎯x쎯iyj쎯	-11.4501
▁dif쎯	-11.4504
▁fcp쎯lfn쎯	-11.4504
▁dgkn쎯jhf1쎯	-11.4507
khgp0쎯	-11.4507
vfhp1쎯tam쎯mq쎯st쎯	-11.4509
▁쎈쎆쎃	-11.4509
▁ykk쎯bj쎯	-11.4511
▁ire쎯bm쎯rn쎯	-11.4512
▁ts쎯xq쎯	-11.4514
t쎯xyx쎯qwyc0쎯fnr쎯	-11.4519
▁anb0쎯sy쎯ymc쎯yf쎯	-11.4519
pv쎯tmgt1쎯	-11.452
▁hi쎯wat쎯	-11.4521
uywu2쎯	-11.4521
▁g쎯mfk쎯	-11.4522
▁쎄쎂쎀	-11.4523
▁rdj쎯bwt쎯	-11.4524
▁sf쎯ait쎯	-11.4524
uvo쎯	-11.4524
▁isf쎯	-11.4525
rfh0쎯	-11.4527
▁rfh0쎯	-11.4527
▁bc쎯iie쎯	-11.4528
▁nnk쎯fakg1쎯mqq쎯	-11.4529
▁js쎯adwe1쎯	-11.4531
▁yy쎯yjjh1쎯	-11.4531
▁fhw쎯w쎯	-11.4532
efg0쎯	-11.4533
▁ukn쎯a쎯wf쎯	-11.4534
▁tfqp쎯rdc쎯	-11.4539
▁uqb쎯aq쎯	-11.4542
▁i쎯nq쎯vcl쎯lt쎯	-11.4542
▁dnv1쎯rh쎯	-11.4544
▁mfk쎯fjh0쎯	-11.4546
vke쎯	-11.4547
▁gl쎯nae쎯	-11.4549
ifn쎯ivs쎯	-11.455
▁nhj쎯ougo쎯	-11.455
▁ujff쎯rh쎯	-11.4551
▁gd쎯uyh쎯	-11.4551
▁wwx쎯	-11.4553
wam쎯	-11.4556
▁lfn쎯og쎯	-11.4558
▁puvk2쎯	-11.4559
cccf2쎯	-11.4561
▁in쎯	-11.4563
fr쎯	-11.4565
▁쎄쎅쎀쎀	-11.4566
▁uyt0쎯	-11.4567
▁lu쎯ta쎯	-11.4567
▁hhu0쎯cep쎯	-11.4567
hxs쎯	-11.4567
▁thgc쎯sc쎯	-11.4569
▁sgx쎯	-11.4571
▁ujf쎯wqj쎯	-11.4571
▁n쎯sksw쎯	-11.4573
fcln쎯	-11.4573
▁wsg0쎯rfm쎯	-11.4573
▁jc쎯tfkd쎯	-11.4574
qta쎯	-11.4575
▁iit쎯icw쎯	-11.4575
▁py쎯uq쎯	-11.4576
▁yo쎯jg쎯	-11.4576
▁lhnh쎯tffu쎯	-11.4576
▁rgt쎯rgy쎯gfi쎯	-11.4577
▁rb1쎯py쎯	-11.4581
awg쎯	-11.4582
pwv쎯	-11.4584
▁v쎯wt쎯	-11.4586
▁mt쎯fgh쎯rh쎯	-11.4589
▁fuk쎯	-11.459
▁tg쎯u쎯lt쎯	-11.4591
▁djd쎯if쎯	-11.4596
▁xnf쎯gkp쎯	-11.4597
▁dh쎯pgk쎯qq쎯ese쎯	-11.4598
▁eee쎯yqa쎯	-11.4599
▁cc쎯nfc쎯	-11.46
▁dyc쎯wx쎯	-11.46
▁usr쎯fu쎯	-11.4601
▁imh쎯udi쎯	-11.4602
▁wdn쎯te쎯w쎯ft쎯	-11.4603
▁fk쎯ss쎯dd쎯ip쎯	-11.4603
▁pwv쎯ujq쎯	-11.4605
▁ipk쎯tl쎯	-11.4606
▁qnq쎯ii쎯	-11.4607
▁wvm쎯adf쎯	-11.4608
▁gog쎯pl쎯	-11.4613
▁jh쎯nnnn쎯	-11.4613
▁yqa쎯yww쎯	-11.4613
▁rnv쎯wx쎯	-11.4613
▁fgh쎯dg쎯rh쎯	-11.4615
▁bb쎯bi0쎯	-11.4617
▁xte쎯ta쎯	-11.4618
▁fcl쎯sfhg쎯tr쎯	-11.4618
wty쎯rh쎯	-11.462
▁dskf쎯xnn0쎯	-11.4622
▁sj쎯rhf쎯	-11.4625
▁lh쎯tkh쎯	-11.4629
▁fggh쎯jfj쎯	-11.463
▁et쎯ny쎯	-11.4631
▁ick쎯wgen1쎯	-11.4632
▁y쎯s쎯bk쎯gmu1쎯	-11.4634
▁wnh쎯jjjj쎯	-11.4634
▁abi쎯v쎯	-11.4637
▁eri쎯	-11.4638
▁pp쎯uthp쎯	-11.4638
▁ssss쎯bgh쎯	-11.4641
▁qlp쎯ruv쎯	-11.4642
▁wlk쎯	-11.4643
▁fnhp쎯if쎯	-11.4644
▁wfl쎯	-11.4644
fwm쎯pg쎯	-11.4648
▁afw쎯	-11.465
▁wg쎯ddu0쎯	-11.4653
▁xl쎯ih쎯	-11.4653
▁ire쎯khgp1쎯	-11.4654
▁gh쎯ty쎯	-11.4656
▁fq쎯wc쎯pd쎯	-11.4658
▁ll쎯y쎯qe쎯	-11.4663
om쎯	-11.4665
▁sghg1쎯dm쎯	-11.4666
▁dd쎯iw쎯	-11.4669
▁xv쎯gku쎯	-11.467
▁wy쎯thn쎯tp쎯gj쎯	-11.4673
▁fgh쎯g쎯rh쎯	-11.4673
▁sps쎯sap쎯	-11.4674
▁puw쎯	-11.4674
▁nge쎯w쎯	-11.4674
▁pu쎯lt쎯dcw쎯djb쎯	-11.4675
▁aqo쎯awx쎯	-11.4676
▁ny쎯gj쎯uqwk쎯yqj쎯	-11.4678
▁dw0쎯ab쎯	-11.4678
▁um쎯og쎯k쎯ny쎯	-11.4679
▁trh쎯kq쎯	-11.4679
ulgj쎯	-11.468
▁aft쎯syp쎯	-11.4683
▁sf쎯sf쎯	-11.4683
▁uqt쎯	-11.4685
▁ek쎯	-11.4686
ujn쎯ykw쎯	-11.4688
▁begg쎯rymn쎯	-11.4688
▁dd쎯itx쎯	-11.4689
ii쎯gu쎯	-11.469
yygt쎯rtol1쎯	-11.469
yjj0쎯wg쎯	-11.4691
ux쎯yiu쎯ymhj쎯	-11.4691
▁pwdj쎯wfk쎯	-11.4692
▁yygy쎯ip쎯bpf쎯	-11.4692
yceh1쎯	-11.4693
jjjj쎯fhn쎯	-11.4693
▁tk쎯aa쎯	-11.4693
▁wy쎯thn쎯u쎯og쎯	-11.4696
▁ipkh1쎯tfl쎯	-11.4696
▁sfhg쎯tr쎯img쎯	-11.4697
eqn쎯	-11.4699
▁sm쎯sa쎯dgt1쎯	-11.47
▁쎁쎂쎈쎀	-11.4701
▁vep쎯bm쎯	-11.4701
▁ldd쎯wx쎯	-11.4704
▁gmww쎯lp쎯	-11.4704
▁iey쎯	-11.4704
▁ige쎯fjt쎯btg쎯	-11.4704
▁ipw쎯ipw쎯	-11.4704
▁gog쎯fcp쎯wf쎯	-11.4707
▁dd쎯wg쎯	-11.4708
▁ya쎯wnh쎯aq쎯	-11.471
▁ufg쎯cm쎯	-11.471
▁jn쎯se쎯	-11.4714
▁iss쎯iww쎯	-11.4714
▁if쎯mj쎯	-11.4715
▁xt쎯pe쎯lwj쎯	-11.4715
▁pw쎯ny쎯	-11.4716
▁dj쎯awx쎯	-11.4717
awb쎯	-11.472
▁py쎯km쎯	-11.472
▁iyt0쎯	-11.4722
▁dny쎯	-11.4723
▁bd쎯fa쎯	-11.4724
▁qbl쎯	-11.4725
▁shy쎯	-11.4726
hqd쎯	-11.4727
rvh쎯fpx쎯xh쎯aqkr쎯	-11.4729
wvm쎯	-11.4729
▁dgh쎯yygy쎯	-11.4729
▁btg쎯fhn쎯	-11.473
▁rge쎯	-11.473
▁wxj쎯wqj쎯	-11.4732
▁tx쎯fgh쎯g쎯nm쎯	-11.4734
▁fn쎯drin쎯	-11.4735
▁uygh1쎯yntw1쎯	-11.4736
▁uwl쎯tdkj쎯	-11.4738
▁kkd쎯hw쎯	-11.4738
▁wyk쎯rg쎯	-11.4739
▁tgm쎯	-11.4739
▁riu쎯ii쎯	-11.4739
▁qq쎯ts쎯	-11.4741
wk쎯rf쎯	-11.4743
▁ebf1쎯vv쎯	-11.4744
▁rrk쎯	-11.4744
▁cc쎯rt쎯	-11.4744
▁ml쎯usr쎯	-11.4746
▁mfk쎯jqr쎯	-11.4747
▁sm쎯lg쎯	-11.4748
td쎯ykw쎯	-11.4749
▁yad쎯mhny0쎯qiu0쎯	-11.4751
▁iq쎯idr쎯	-11.4753
▁dgk쎯bj쎯	-11.4754
jqw쎯	-11.4755
▁gkl쎯aq쎯ta쎯	-11.4756
▁dg쎯tfk쎯	-11.4756
▁ghd0쎯eee쎯	-11.4758
▁qtfj1쎯img쎯	-11.4759
▁egc쎯fuj쎯	-11.4761
▁wf쎯yf쎯ip쎯	-11.4762
▁qt쎯vvv쎯	-11.4763
▁gah쎯ss쎯	-11.4763
▁pgy쎯cqy쎯	-11.4763
▁tg쎯wgkb2쎯tu쎯ip쎯	-11.4768
▁pwat쎯udh쎯	-11.4769
▁쎁.쎇	-11.4769
▁vp쎯rfq쎯	-11.477
▁yt쎯fj쎯	-11.4772
ann쎯	-11.4772
gmf쎯	-11.4772
쎁.쎅	-11.4773
▁bu쎯mqq쎯	-11.4775
▁쎀.쎀	-11.4776
▁iytb0쎯w쎯	-11.4778
▁ia쎯ux쎯	-11.4781
▁dd쎯xm쎯	-11.4781
arj쎯	-11.4782
gef쎯rh쎯	-11.4783
▁rke쎯	-11.4783
▁bwff쎯	-11.4784
tqd쎯	-11.4784
ojf쎯	-11.4784
ㄏ	-11.4785
jhng쎯	-11.4785
▁ym쎯xq쎯	-11.4786
▁jb쎯nnw쎯	-11.4786
aw쎯t쎯l쎯	-11.4787
rjt쎯	-11.4787
▁dn쎯gae쎯	-11.4789
▁ny쎯eyf쎯ugm쎯	-11.4794
▁jb쎯wdn쎯	-11.4794
▁qtk쎯	-11.4797
▁ai쎯gog쎯	-11.4798
▁udh쎯qc쎯	-11.48
▁wbj쎯tfkp쎯ntg쎯	-11.4802
▁sh쎯gx쎯wt쎯et쎯	-11.4804
▁um쎯og쎯aq쎯	-11.4806
▁pv쎯pg쎯	-11.4809
▁amd쎯cel쎯	-11.4809
hame쎯	-11.481
▁ivs쎯qc쎯	-11.4813
▁yygy쎯wx쎯uq쎯iyc쎯	-11.4813
▁geq쎯jn쎯	-11.4813
▁mht쎯	-11.4814
▁xqa쎯xt쎯	-11.4815
qna쎯	-11.4816
▁gmww쎯nfc쎯	-11.4816
rdfj0쎯	-11.4817
▁gd쎯wsg0쎯	-11.4818
▁op쎯w쎯	-11.4818
▁anb0쎯sy쎯ab쎯	-11.4818
▁dqw쎯	-11.4818
▁vvv쎯ipg쎯km쎯	-11.4819
▁thd쎯ick쎯egc쎯	-11.482
▁dd쎯cm쎯	-11.482
▁tj쎯td쎯	-11.4821
▁kaqy쎯kfg쎯	-11.4822
ujf쎯qi쎯ip쎯bpf쎯	-11.4822
▁rgv쎯dq쎯	-11.4823
▁mdo쎯	-11.4824
▁な	-11.4827
▁eee쎯ypm쎯	-11.4827
▁txg쎯eee쎯	-11.4827
▁lrj쎯jf쎯	-11.4828
vte쎯	-11.4831
▁dw0쎯tb쎯	-11.4831
▁xq쎯pg쎯	-11.4832
▁fgh쎯gg쎯rh쎯	-11.4836
▁쎆쎀%	-11.4839
▁ob쎯oug쎯	-11.4842
▁jcf쎯pg쎯	-11.4842
rmhj쎯wt쎯	-11.4843
▁khh쎯	-11.4848
gef쎯qynm1쎯	-11.4848
▁rnp쎯ad쎯	-11.485
tfj0쎯	-11.4852
▁た	-11.4854
▁yq쎯qng1쎯	-11.4858
▁yny0쎯bb쎯	-11.4859
▁jvko쎯db쎯	-11.4862
▁rcb쎯nge쎯	-11.4864
▁alw쎯st쎯uff쎯	-11.4866
▁g쎯vt쎯wty쎯	-11.4871
▁qqqq1쎯bfw쎯	-11.4871
▁sgc쎯ntg쎯	-11.4876
쎂쎂	-11.4876
▁lfn쎯hka쎯	-11.4876
▁qtvb쎯	-11.4877
▁yo쎯af쎯	-11.4877
▁sw쎯pwfi쎯	-11.4877
▁fu쎯qq쎯	-11.4878
▁yb쎯ws쎯	-11.4878
saq쎯	-11.4879
▁an쎯wa쎯	-11.4879
▁ipk쎯a쎯tv쎯	-11.4881
▁ccf쎯	-11.4882
▁f쎯qtyd1쎯	-11.4883
wycm0쎯nf쎯	-11.4885
▁gkp쎯pa쎯	-11.4885
▁gkih쎯ick쎯	-11.4885
▁tel쎯k쎯	-11.4886
dga쎯pwv쎯bpf쎯	-11.4886
▁sghg1쎯mmm쎯	-11.4886
▁egi쎯	-11.4887
쎅.쎅	-11.4889
hf쎯	-11.4889
sksw쎯ma쎯	-11.489
▁a쎯ycb쎯	-11.4894
▁av쎯xxg0쎯	-11.4896
▁yyq쎯km쎯	-11.4899
sgn쎯lfhf쎯	-11.4899
▁xpw쎯tdg1쎯	-11.4899
▁xn쎯sw쎯xeg쎯	-11.4904
▁ty쎯kfi쎯	-11.4905
▁fq쎯pwl쎯	-11.4906
▁xyna0쎯rdj쎯	-11.4907
▁trf쎯uqt쎯	-11.4908
▁rbcc쎯jyie쎯jgm쎯	-11.4909
▁ue쎯jy쎯	-11.4909
rno쎯	-11.4911
▁ahtb쎯gogn쎯	-11.4911
▁pu쎯rfm쎯	-11.4912
qkql쎯	-11.4912
▁mhny0쎯fpm쎯	-11.4914
▁ovt쎯rh쎯	-11.4914
oqv쎯	-11.4916
▁ih쎯sfc쎯	-11.4916
▁wy쎯wynn3쎯	-11.4919
▁ym쎯inr쎯	-11.4919
umc쎯	-11.4925
▁lpk0쎯xfn쎯ndj쎯	-11.4926
▁t쎯xyx쎯	-11.4926
▁gl쎯yyv쎯	-11.493
▁yvw쎯	-11.493
▁lc쎯a쎯og쎯	-11.4931
▁kkkk0쎯w쎯	-11.4932
▁ebn0쎯eri쎯	-11.4934
kyn1쎯	-11.4936
▁xyc쎯tdtf쎯	-11.4937
▁yq쎯tl쎯ftbt쎯yce쎯	-11.4938
yaa쎯cwg쎯	-11.4938
▁ugdu쎯sy쎯ip쎯bpf쎯	-11.4938
jn쎯ib쎯	-11.4939
▁rh쎯u쎯wfhg쎯	-11.4939
▁ukh쎯itf쎯	-11.494
▁wmw쎯wx쎯	-11.494
rqcf0쎯	-11.4941
adwr쎯dq쎯	-11.4943
▁sghg1쎯iu쎯	-11.4946
▁rs쎯a쎯	-11.4947
▁vi쎯bc쎯	-11.4947
▁ax쎯yjjh1쎯	-11.4948
bu쎯dtb쎯	-11.4948
▁apk쎯fcp쎯	-11.4949
▁wty쎯wh쎯	-11.495
ccyj1쎯	-11.4951
▁mmm쎯mtd쎯	-11.4952
.쎂쎅	-11.4953
▁g쎯yu쎯	-11.4954
▁tdh쎯	-11.4955
▁xeg쎯xeg쎯ta쎯	-11.4956
▁fd쎯ymhj쎯fwm쎯aj쎯	-11.4957
▁ukk쎯ugh쎯	-11.4959
▁u쎯og쎯qlp쎯	-11.4961
▁yw쎯m쎯	-11.4963
▁rmhj쎯fcl쎯	-11.4963
▁mqb쎯ygh쎯	-11.4963
▁drt쎯ss쎯	-11.4964
▁쎁쎇쎆	-11.4964
▁lf쎯	-11.4964
▁wfny0쎯yn쎯	-11.4965
▁fiyt쎯egl쎯	-11.4967
wff쎯	-11.497
▁rh쎯xe쎯	-11.497
dam쎯	-11.4974
▁zzy9쎯	-11.4976
▁lk쎯a쎯dgt1쎯	-11.4978
▁apk쎯ta쎯	-11.4978
▁bfh0쎯	-11.4978
reh쎯	-11.4979
▁xkw쎯tr쎯	-11.498
▁adiy쎯	-11.498
▁ve쎯img쎯	-11.4986
▁fcl쎯a쎯	-11.4988
▁wy쎯et쎯hhu0쎯	-11.4989
▁fhl쎯sgc쎯	-11.4989
▁wtf쎯ftbt쎯gf쎯	-11.499
▁dga쎯pwv쎯tg쎯bpf쎯	-11.4991
▁ty쎯rt쎯	-11.4991
g쎯tkh쎯	-11.4992
▁xww쎯tm쎯	-11.4995
▁thd쎯bg쎯	-11.4996
▁yygy쎯ftbt쎯	-11.5
▁ih쎯kkk쎯	-11.5001
▁by쎯ooo쎯ffuk쎯	-11.5004
gkih쎯ddu0쎯	-11.5006
▁ufg쎯ytt쎯	-11.5006
▁synw쎯tha쎯	-11.5006
▁th쎯th쎯	-11.5006
▁atgn쎯	-11.5008
▁dy쎯se쎯	-11.5008
▁ga쎯kkkk0쎯	-11.501
▁fhv쎯ym쎯	-11.5012
▁tffy0쎯sm쎯jf쎯uj쎯	-11.5013
▁xg쎯tkgg0쎯	-11.5016
▁kt쎯kn쎯	-11.5016
▁bi0쎯k쎯mmm쎯	-11.5018
▁tmd쎯sft쎯	-11.5018
pwtf0쎯	-11.502
ykk쎯	-11.5023
▁ux쎯ruv쎯	-11.5023
▁rxj쎯rpl쎯uk쎯	-11.5024
khi쎯	-11.5027
▁@	-11.5032
▁ps쎯geq쎯	-11.5033
▁klg1쎯	-11.5033
▁tg쎯gj쎯ip쎯	-11.5035
▁ylk2쎯pww쎯	-11.5035
▁tx쎯fgh쎯g쎯	-11.5035
▁jcf쎯dgj쎯	-11.5036
▁nck쎯	-11.5038
▁л	-11.5039
▁maf0쎯ty쎯aa쎯	-11.504
▁wxf쎯dnnl쎯gbnm0쎯	-11.5041
in쎯	-11.5042
▁pg쎯qk쎯	-11.5043
▁qng1쎯dq쎯uff쎯	-11.5046
▁rge쎯rkh쎯	-11.5046
▁epc쎯gj쎯	-11.5048
▁www쎯w쎯	-11.5049
▁ipg쎯kjj쎯wf쎯	-11.5049
▁ujn쎯fuj쎯	-11.505
▁skf쎯wfg0쎯	-11.505
▁g쎯sty0쎯	-11.505
▁ynt쎯gl쎯	-11.505
awy쎯	-11.5051
▁lpk0쎯fcu0쎯iawn쎯	-11.5051
▁k쎯aqt쎯	-11.5053
▁wvt쎯yvc쎯	-11.5053
▁wn쎯ugdu쎯fqb1쎯	-11.5054
▁ia쎯be쎯	-11.5054
hich쎯	-11.5055
▁tg쎯tr쎯tu쎯rfc쎯	-11.5056
▁cep쎯tf쎯	-11.5056
▁gogj쎯ia쎯	-11.5058
▁lq쎯ic쎯	-11.5058
ipw쎯fkh쎯	-11.5058
▁쎁쎃쎃	-11.5059
▁rqb0쎯	-11.506
▁snb2쎯sjtq쎯	-11.5061
▁aw쎯m쎯vcl쎯lt쎯	-11.5061
▁gkl쎯ukn쎯	-11.5063
▁쎁쎁쎁	-11.5063
yygy쎯wx쎯yqa쎯axj쎯	-11.5064
▁oge쎯med쎯	-11.5066
▁ipw쎯lk쎯a쎯	-11.5067
▁wys쎯ufy쎯tsh0쎯	-11.5071
▁fg쎯hka쎯	-11.5073
▁fgh쎯fg쎯eee쎯	-11.5073
▁d쎯yfn쎯	-11.5074
▁k쎯wj쎯	-11.5075
▁wdt쎯gk쎯	-11.5076
▁tca쎯	-11.5076
▁jg쎯bb쎯	-11.5077
▁wf쎯qnp쎯	-11.5079
▁kwyn2쎯	-11.5081
mmm쎯sghg1쎯ith쎯	-11.5084
▁ycf쎯qk쎯	-11.5084
▁k쎯saq쎯	-11.5086
qm쎯gmu1쎯	-11.5086
▁xn쎯vi쎯thg0쎯	-11.5086
▁wx쎯ec쎯	-11.5087
▁ga쎯ny쎯	-11.509
▁gkub1쎯gku쎯	-11.5091
▁dr쎯gajf쎯	-11.5093
▁fkuk4쎯pg쎯	-11.5094
▁gae쎯wsg0쎯	-11.5097
▁fkuk4쎯ug	-11.5097
▁ii쎯wug1쎯	-11.5098
▁bwt쎯fcu1쎯	-11.5098
▁kt쎯t쎯itfk쎯trf쎯	-11.5099
[...]
