[UNK]	0
[PAD]	0
[CLS]	0
[SEP]	0
[MASK]	0
,	-3.5107
的	-3.97373
。	-4.0109
、	-4.04004
▁	-4.51825
和	-5.00152
在	-5.44917
为	-5.58084
是	-5.68889
:	-5.75835
与	-5.7632
(	-5.76405
中	-5.80057
;	-5.87601
)	-5.93137
等	-5.9328
有	-5.93803
人	-6.13589
《	-6.14378
大	-6.16533
及	-6.17386
“	-6.20842
上	-6.25243
以	-6.28121
了	-6.34631
”	-6.37945
之	-6.40078
一	-6.52394
于	-6.55152
不	-6.59489
对	-6.62421
县	-6.64905
水	-6.66286
或	-6.68458
后	-6.69287
中国	-6.72863
1	-6.73057
山	-6.73974
市	-6.75482
》	-6.77544
地	-6.79126
而	-6.79446
小	-6.8009
高	-6.82021
三	-6.82465
到	-6.83725
子	-6.85394
区	-6.86576
2	-6.87245
新	-6.87725
时	-6.8809
性	-6.88676
公司	-6.88799
用	-6.89775
-	-6.9129
被	-6.92604
.	-6.92668
将	-6.92818
下	-6.93651
长	-6.95157
3	-6.95984
·	-6.96156
至	-6.97941
家	-6.98537
企业	-7.01996
多	-7.03319
内	-7.03649
所	-7.04039
工作	-7.04441
由	-7.05169
天	-7.06446
出	-7.1062
日	-7.10924
其	-7.11067
生	-7.1337
可	-7.13487
名	-7.13871
/	-7.14163
产品	-7.14451
从	-7.157
成	-7.17463
会	-7.19032
来	-7.20894
4	-7.20975
法	-7.21564
无	-7.21632
技术	-7.21936
村	-7.21988
并	-7.22222
金	-7.22758
镇	-7.23358
专业	-7.23691
西	-7.23847
南	-7.23978
王	-7.24261
文	-7.24881
东	-7.25739
路	-7.27117
进行	-7.27445
也	-7.28382
系统	-7.29787
部	-7.29993
城	-7.29997
者	-7.30041
海	-7.30189
5	-7.31188
前	-7.32401
管理	-7.32567
学	-7.32773
本	-7.34645
服务	-7.34785
分	-7.3479
二	-7.35864
化	-7.35943
石	-7.36216
花	-7.36544
都	-7.38312
一个	-7.38634
()	-7.38676
国	-7.38883
体	-7.39265
,是	-7.39569
》、《	-7.40083
机	-7.40564
学校	-7.41283
国际	-7.41367
德	-7.41494
心	-7.41818
,在	-7.41995
乡	-7.42416
式	-7.42726
教育	-7.42735
任	-7.43594
大学	-7.44747
科	-7.45267
"	-7.46073
龙	-7.46732
国家	-7.46813
里	-7.47966
四	-7.4799
型	-7.48102
自	-7.48242
6	-7.48648
头	-7.48724
他	-7.49436
发展	-7.49508
经	-7.49673
道	-7.49677
五	-7.50261
能	-7.50308
马	-7.50442
位于	-7.50525
白	-7.51991
行	-7.52548
中心	-7.52654
华	-7.52867
文化	-7.53757
平	-7.53937
外	-7.54007
年	-7.54246
过	-7.54518
设计	-7.55141
研究	-7.55343
着	-7.5545
具有	-7.55647
明	-7.56226
安	-7.56603
门	-7.57295
元	-7.57424
系	-7.57909
8	-7.58072
。”	-7.58252
以及	-7.58263
工程	-7.58392
,并	-7.59495
河	-7.59978
林	-7.60203
两	-7.60248
10	-7.61476
达	-7.6209
光	-7.62159
军	-7.62206
组织	-7.62309
口	-7.63505
入	-7.63694
生产	-7.63722
线	-7.63764
7	-7.63849
全国	-7.64603
张	-7.64659
向	-7.65062
各	-7.65147
台	-7.65211
黄	-7.6535
清	-7.6556
风	-7.65571
开	-7.65654
面	-7.6617
正	-7.66423
红	-7.66922
要	-7.6726
),	-7.67517
,以	-7.67703
就	-7.68866
提供	-7.69152
项目	-7.69292
万	-7.7004
如	-7.70144
北	-7.70155
网	-7.70193
通	-7.70408
发	-7.70698
同	-7.70773
地区	-7.71094
古	-7.71113
最	-7.71136
原	-7.71337
特	-7.71346
全	-7.71687
重	-7.71724
州	-7.72242
使用	-7.72539
点	-7.73036
力	-7.73232
书	-7.73304
类	-7.74311
”。	-7.74385
集	-7.74623
手	-7.75223
叶	-7.75396
美	-7.75494
好	-7.75932
江	-7.76459
得	-7.76972
已	-7.77198
学院	-7.78044
通过	-7.78207
去	-7.78379
克	-7.78398
把	-7.78889
度	-7.79505
起	-7.79614
省	-7.79996
方	-7.80039
建设	-7.80149
作	-7.80719
北京	-7.8079
9	-7.81086
气	-7.81288
市场	-7.82191
车	-7.82262
经济	-7.82379
带	-7.82578
世界	-7.82655
制	-7.82765
双	-7.83052
热	-7.83261
级	-7.83445
相	-7.83925
可以	-7.83962
油	-7.84531
加	-7.84793
属	-7.85043
主	-7.85497
处	-7.85773
神	-7.86005
公	-7.86161
网络	-7.86343
斯	-7.86814
师	-7.87134
城市	-7.87246
人,	-7.8752
主要	-7.87782
罗	-7.87812
美国	-7.87857
又	-7.8792
李	-7.88152
米	-7.8822
种	-7.88272
我	-7.88532
数	-7.88548
老	-7.88593
字	-7.88803
获	-7.89044
上海	-7.89101
建	-7.8953
信息	-7.8961
局	-7.89931
艺术	-7.89954
利	-7.90107
工	-7.90425
号	-7.90591
流	-7.90653
器	-7.9069
学习	-7.91213
图	-7.91555
第一	-7.91767
卡	-7.91991
教学	-7.92337
使	-7.92672
设备	-7.92808
指	-7.93881
片	-7.9404
因	-7.94517
云	-7.94568
科技	-7.94672
学生	-7.94757
!	-7.95142
女	-7.95245
木	-7.95972
管	-7.96295
生活	-7.96743
该	-7.97246
六	-7.97478
近	-7.98059
色	-7.98301
单	-7.99162
环境	-7.99198
各种	-7.9921
比	-7.99372
拥有	-7.99518
干	-7.99608
行业	-7.9975
病	-7.99883
青	-7.99909
功能	-8.0039
阳	-8.00448
量	-8.0076
爱	-8.0092
总	-8.00964
人。	-8.01538
,为	-8.01858
还	-8.01861
——	-8.01913
品牌	-8.02008
集团	-8.02406
期	-8.02426
周	-8.02703
鱼	-8.02782
投资	-8.03042
香	-8.03059
拉	-8.03219
标准	-8.03421
12	-8.037
站	-8.03995
社会	-8.04146
作为	-8.04251
尔	-8.04762
活动	-8.04872
皮	-8.05187
汉	-8.05237
成为	-8.05328
位	-8.05484
说	-8.05707
乐	-8.06707
陈	-8.06976
更	-8.0698
立	-8.07174
当	-8.07235
桥	-8.07355
合	-8.08305
世	-8.08355
事	-8.08465
建筑	-8.08473
进	-8.08604
卷	-8.08687
20	-8.0907
身	-8.0931
条	-8.0932
采用	-8.09343
控制	-8.09589
共	-8.09873
开发	-8.09933
此	-8.10113
即	-8.1052
教	-8.106
团	-8.11247
间	-8.11314
田	-8.11342
官	-8.11472
等。	-8.11515
回	-8.11638
基	-8.11834
开始	-8.11851
武	-8.12091
厂	-8.12494
》:“	-8.12529
单位	-8.12691
层	-8.12727
场	-8.12745
有限公司	-8.13058
诗	-8.13136
做	-8.13262
电	-8.13331
日本	-8.13379
工业	-8.13746
打	-8.13772
你	-8.13907
八	-8.13995
参加	-8.14005
业	-8.14197
15	-8.14289
中的	-8.14572
连	-8.14741
约	-8.14749
则	-8.14812
音乐	-8.15165
九	-8.15398
系列	-8.15491
非	-8.15572
画	-8.15648
支持	-8.15715
物	-8.15812
火	-8.16285
七	-8.16572
玉	-8.16667
湖	-8.16764
18	-8.16859
节	-8.1711
初	-8.17192
传	-8.1729
商	-8.17467
。在	-8.17894
”、“	-8.1818
宝	-8.18271
医院	-8.18433
游戏	-8.18565
板	-8.189
深	-8.19047
声	-8.19054
教师	-8.19078
定	-8.19264
时间	-8.19266
社区	-8.19412
曾	-8.19511
阿	-8.19538
结构	-8.19669
强	-8.19719
史	-8.19751
源	-8.19875
获得	-8.19935
黑	-8.20073
～	-8.20135
塔	-8.20242
组	-8.20478
政府	-8.20617
从事	-8.2151
—	-8.21871
材料	-8.22073
现代	-8.22238
楼	-8.22392
作品	-8.22448
民	-8.22585
”,	-8.22651
沙	-8.22838
语	-8.22977
土	-8.23028
草	-8.23129
30	-8.23185
星	-8.23194
安全	-8.23241
园	-8.23569
见	-8.23612
应	-8.23892
代	-8.23972
章	-8.24271
树	-8.24432
”的	-8.24499
校	-8.24643
,但	-8.24811
队	-8.25021
给	-8.25201
软件	-8.25243
室	-8.25339
刘	-8.26017
形	-8.2614
版	-8.2615
百	-8.26204
调	-8.26231
次	-8.26417
)。	-8.26418
我们	-8.26643
就是	-8.26861
春	-8.26862
业务	-8.27064
经营	-8.27444
称	-8.27527
布	-8.27864
毛	-8.27999
治疗	-8.28076
边	-8.28371
房	-8.28393
个	-8.2849
状	-8.28627
食	-8.28634
自己	-8.28658
首	-8.28672
电子	-8.28745
信	-8.28793
波	-8.29028
亚	-8.29191
受	-8.29274
药	-8.29315
院	-8.29351
远	-8.29398
她	-8.29408
广	-8.29476
部分	-8.29557
质	-8.29887
11	-8.29941
户	-8.29984
月	-8.2999
率	-8.30042
角	-8.3012
盘	-8.30133
优秀	-8.30993
兰	-8.31063
志	-8.3117
科学	-8.31179
保护	-8.31476
均	-8.31503
品	-8.31748
铁	-8.31766
街	-8.3207
协会	-8.32236
酒	-8.32256
分析	-8.3228
包括	-8.32534
茶	-8.32684
合作	-8.32727
低	-8.32791
义	-8.33101
看	-8.3377
转	-8.33907
50	-8.33988
质量	-8.34248
它	-8.3445
理论	-8.34603
根	-8.34626
综合	-8.34629
后,	-8.3463
巴	-8.34671
时,	-8.34816
16	-8.3487
氏	-8.34911
超	-8.34969
情	-8.35021
曲	-8.35156
微	-8.35515
班	-8.35599
精	-8.35792
肉	-8.35809
应用	-8.35881
血	-8.35962
底	-8.36309
中学	-8.36418
菜	-8.36503
其中	-8.36548
果	-8.36673
这	-8.36705
常	-8.36781
意	-8.36851
旅游	-8.37031
放	-8.37108
,其	-8.373
宁	-8.37724
农业	-8.37765
格	-8.37967
具	-8.38174
提高	-8.38182
处理	-8.38268
岛	-8.38314
专家	-8.3874
人员	-8.38812
用户	-8.3882
负责	-8.38921
直	-8.38964
历史	-8.39004
丝	-8.39043
再	-8.39344
兵	-8.39638
奖	-8.39709
治	-8.39874
半	-8.39882
汽车	-8.40085
派	-8.40411
居	-8.40413
言	-8.40949
方法	-8.41048
销售	-8.4124
国内	-8.41402
保	-8.41509
战	-8.42002
真	-8.42108
川	-8.42115
创新	-8.42238
17	-8.42296
取	-8.42325
兴	-8.42424
唐	-8.42762
联	-8.42823
没有	-8.42964
盐	-8.43054
,有	-8.43099
反	-8.4312
让	-8.43348
制作	-8.4343
宗	-8.43555
报	-8.43892
包	-8.43925
选	-8.44008
松	-8.44139
变	-8.44162
飞	-8.44406
毕业于	-8.44684
动	-8.45228
不同	-8.4531
复	-8.45658
段	-8.45789
,而	-8.45829
牛	-8.45962
论	-8.46093
大型	-8.4612
英	-8.46356
寺	-8.46411
眼	-8.46417
关	-8.46745
粉	-8.46921
杨	-8.47131
按	-8.47198
内容	-8.4732
机构	-8.47371
景	-8.47387
指导	-8.47429
福	-8.47504
?	-8.47522
40	-8.47745
14	-8.47907
先	-8.48104
吴	-8.48435
完成	-8.48485
堂	-8.48812
岁	-8.48817
有关	-8.48931
100	-8.48949
界	-8.49147
规划	-8.49165
0	-8.49185
运动	-8.49339
资源	-8.49404
培训	-8.49632
一种	-8.49997
男	-8.50069
第二	-8.50521
加工	-8.50579
值	-8.506
能力	-8.50687
需要	-8.50734
球	-8.50807
修	-8.50876
山东	-8.51228
中央	-8.51271
极	-8.51378
士	-8.51589
永	-8.51686
易	-8.51836
人才	-8.5192
小学	-8.52027
农	-8.52028
客户	-8.52343
方式	-8.52386
25	-8.52395
酒店	-8.52676
计划	-8.52844
实现	-8.52856
细	-8.52948
权	-8.52954
宽	-8.53024
网站	-8.53026
少	-8.53098
岩	-8.53275
奇	-8.53276
那	-8.53563
剂	-8.5364
压	-8.5385
植物	-8.53971
委员会	-8.54154
才	-8.54185
自然	-8.54239
利用	-8.54271
店	-8.54323
座	-8.54336
之一。	-8.5435
空	-8.5436
表	-8.54459
音	-8.54532
群	-8.54591
游	-8.54891
其他	-8.55051
著名	-8.55062
朝	-8.55091
医学	-8.55165
较	-8.55215
十	-8.5524
骨	-8.55335
纳	-8.55381
圣	-8.55543
个人	-8.55558
防	-8.5556
只	-8.55631
兼	-8.55709
一般	-8.55814
竹	-8.55998
圆	-8.56219
要求	-8.56353
装	-8.56356
13	-8.56358
香港	-8.56579
机械	-8.56624
实	-8.56805
知	-8.56892
甲	-8.57072
文学	-8.57095
峰	-8.57178
很	-8.57319
苏	-8.57343
学会	-8.5737
,其中	-8.57388
生物	-8.57443
篇	-8.58051
各类	-8.58433
电影	-8.58607
......	-8.58657
产业	-8.58857
产	-8.58862
建立	-8.58879
,使	-8.58882
太	-8.59145
温	-8.59167
设	-8.59269
环	-8.59276
已经	-8.5931
汤	-8.59404
除	-8.59417
千	-8.5953
溪	-8.60015
异	-8.60036
健康	-8.60071
这个	-8.60097
办	-8.60145
未	-8.60298
问题	-8.60315
维	-8.60323
自动	-8.60524
解	-8.60598
谷	-8.60637
交	-8.60788
之一	-8.60865
灵	-8.60995
现	-8.61118
根据	-8.61335
宫	-8.61456
泰	-8.6147
余	-8.61477
同时	-8.61549
感	-8.61605
普	-8.6163
港	-8.61697
梅	-8.61714
酸	-8.61742
商业	-8.6182
数据	-8.61844
宋	-8.62087
博	-8.62207
洞	-8.62392
教授	-8.62705
社	-8.63008
料	-8.63279
像	-8.63455
基本	-8.63458
展	-8.63631
达到	-8.63642
进入	-8.63643
影响	-8.63662
60	-8.63835
高级	-8.63848
交通	-8.63895
运	-8.63968
康	-8.6417
一些	-8.6421
面积	-8.64274
纸	-8.64276
,由	-8.64346
成立	-8.64383
切	-8.64549
性能	-8.64582
领域	-8.6465
我国	-8.64717
结	-8.64764
盛	-8.64831
加入	-8.64904
+	-8.65018
藏	-8.65251
难	-8.65473
重点	-8.65567
实施	-8.65648
担任	-8.65718
善	-8.65823
发现	-8.65842
公路	-8.65857
目	-8.65912
,他	-8.65968
自己的	-8.65988
细胞	-8.66264
收	-8.66639
仁	-8.66648
出版	-8.66721
两个	-8.66868
然	-8.66913
抗	-8.66916
中,	-8.66988
每	-8.6712
民族	-8.67239
副	-8.67256
佛	-8.67295
孔	-8.67314
钢	-8.67326
形成	-8.67327
印	-8.67336
)、	-8.67391
食品	-8.67397
代表	-8.67414
理	-8.67511
营	-8.67577
足	-8.67581
他们	-8.6764
工艺	-8.67648
思	-8.67826
丰	-8.67845
24	-8.6802
庄	-8.6803
所有	-8.68127
尼	-8.68191
化学	-8.68473
落	-8.68587
非常	-8.68623
钱	-8.68665
--	-8.68697
夫	-8.68819
培养	-8.68889
想	-8.68959
开展	-8.68966
吉	-8.69137
丁	-8.69156
族	-8.69489
模式	-8.69545
制造	-8.69571
员	-8.69712
鲁	-8.69734
盖	-8.69985
鸡	-8.69987
是指	-8.70088
笔	-8.7012
临	-8.70143
政	-8.70178
特色	-8.70195
操作	-8.70427
青年	-8.70612
台湾	-8.70774
基础	-8.70836
夏	-8.70885
呈	-8.7135
传统	-8.714
走	-8.71489
四川	-8.71501
先生	-8.71564
的一种	-8.71586
歌	-8.71646
库	-8.71818
词	-8.71854
儿	-8.7192
死	-8.7193
短	-8.71998
但	-8.72041
正式	-8.72065
随	-8.72516
研究所	-8.72525
味	-8.72539
雷	-8.72558
离	-8.72581
银	-8.727
先进	-8.72701
比较	-8.72773
写	-8.72857
人口	-8.72876
视	-8.73163
富	-8.73208
野	-8.73213
升	-8.73255
广东	-8.73276
素	-8.7328
独立	-8.73406
成功	-8.73491
计算机	-8.73603
人民	-8.73751
浙江	-8.73758
绿	-8.73837
件	-8.73877
满	-8.73907
交流	-8.73915
创作	-8.73938
雅	-8.7403
得到	-8.74077
雪	-8.74107
全面	-8.74203
山东省	-8.74245
,男,	-8.74362
是一个	-8.74373
:“	-8.74485
排	-8.74529
归	-8.74533
端	-8.74606
散	-8.74759
套	-8.74791
泉	-8.74827
轮	-8.74844
接	-8.74847
22	-8.74852
核	-8.75083
船	-8.75123
求	-8.75173
梁	-8.75239
相关	-8.7532
改	-8.75726
目前	-8.75742
10月	-8.75744
平台	-8.75797
文件	-8.75841
观	-8.75841
广西	-8.75941
80	-8.76134
不断	-8.76236
厚	-8.76379
方面	-8.76396
作用	-8.76415
赛	-8.7642
19	-8.76423
赵	-8.76469
,对	-8.76477
灯	-8.76488
工作。	-8.76654
井	-8.76672
封	-8.76711
顶	-8.76863
卫生	-8.76909
馆	-8.7695
发生	-8.76976
知识	-8.77183
用于	-8.77258
夜	-8.77332
亦	-8.77397
空间	-8.77485
支	-8.77597
以上	-8.77707
衣	-8.77791
是由	-8.77983
新闻	-8.77998
府	-8.78067
200	-8.78116
秋	-8.78141
距离	-8.78207
类型	-8.78217
朱	-8.7823
令	-8.78284
选择	-8.78397
课程	-8.78526
昌	-8.78561
参与	-8.78758
资料	-8.78799
党	-8.78939
水平	-8.78982
占	-8.79058
牌	-8.79113
家庭	-8.79128
9月	-8.79218
英语	-8.79398
动物	-8.79412
一次	-8.7948
尾	-8.79481
铜	-8.79521
刀	-8.79573
膜	-8.79642
客	-8.79648
广州	-8.79658
编	-8.79802
却	-8.79835
奥	-8.79877
孙	-8.79956
人物	-8.80027
区域	-8.80293
密	-8.80397
糖	-8.80508
晋	-8.80519
横	-8.80608
含	-8.8069
托	-8.8079
便	-8.80943
雨	-8.8096
顺	-8.81062
母	-8.811
不能	-8.81103
旧	-8.81247
望	-8.81252
联合	-8.81352
液	-8.81358
经过	-8.81551
送	-8.81591
直接	-8.81629
今	-8.81776
推广	-8.81911
距	-8.81911
费	-8.81945
8月	-8.82113
论文	-8.82281
胶	-8.8256
地方	-8.82583
这些	-8.82839
语言	-8.82857
精神	-8.83107
接口	-8.83264
小说	-8.83273
思想	-8.83304
礼	-8.83344
商务	-8.83386
仙	-8.8351
结合	-8.8369
几	-8.837
宣传	-8.83781
生于	-8.83808
职业	-8.83909
君	-8.83964
养	-8.84387
电脑	-8.8441
金属	-8.84481
铁路	-8.84494
别	-8.84578
吃	-8.84842
本书	-8.85177
江苏	-8.8518
及其	-8.8519
引	-8.8534
创	-8.85621
彩	-8.8566
越	-8.85867
委	-8.85868
瓦	-8.85921
政治	-8.85988
京	-8.86152
湖南	-8.86229
会议	-8.86387
银行	-8.86408
▁公司	-8.86532
第三	-8.86808
全球	-8.86826
,即	-8.8688
32	-8.869
胡	-8.86911
能够	-8.8692
蓝	-8.86969
标	-8.87053
广告	-8.87139
基地	-8.87142
列	-8.87252
证	-8.87364
乌	-8.87377
秀	-8.87471
试验	-8.87482
河南	-8.87533
法律	-8.87658
的“	-8.87735
记	-8.87748
读	-8.87814
重要	-8.8787
胜	-8.87919
配	-8.88174
这种	-8.8818
瑞	-8.88325
金融	-8.88338
出现	-8.88366
载	-8.8839
英国	-8.88438
留	-8.88592
作者	-8.88683
提	-8.88692
伊	-8.88719
35	-8.88739
实验	-8.88808
岭	-8.88838
行政	-8.88863
体育	-8.8891
何	-8.88948
之间	-8.89015
农村	-8.8907
故事	-8.89128
执行	-8.89547
亲	-8.89564
产生	-8.8968
是一种	-8.89732
环保	-8.89734
安装	-8.89782
阴	-8.89811
》等	-8.90066
影	-8.90094
70	-8.90122
南京	-8.90236
条件	-8.90352
块	-8.90551
属于	-8.90574
多种	-8.90705
的一个	-8.90934
检测	-8.91059
矿	-8.91094
冷	-8.91342
菌	-8.91372
~	-8.91402
运行	-8.91475
威	-8.9162
江苏省	-8.91627
服	-8.91628
上的	-8.91632
,如	-8.91642
干部	-8.91759
守	-8.91835
末	-8.91863
领导	-8.91868
冲	-8.91912
丹	-8.91962
*	-8.92016
科研	-8.92021
时代	-8.92103
23	-8.92145
,将	-8.92255
普通	-8.92287
款	-8.92309
依	-8.9243
26	-8.92432
刻	-8.92459
快	-8.92519
效果	-8.92539
都是	-8.92602
施	-8.92635
职	-8.92689
若	-8.92886
人们	-8.93073
左	-8.93176
恩	-8.93226
组成	-8.93289
司	-8.93345
员工	-8.93417
共同	-8.93424
28	-8.93496
,可	-8.93631
》(	-8.93679
良	-8.9368
诸	-8.93781
湾	-8.93852
广东省	-8.93983
沟	-8.93998
这一	-8.94092
亩	-8.94204
主持	-8.94291
项	-8.94302
专	-8.94393
洪	-8.94495
架	-8.94715
计	-8.94723
们	-8.94908
成员	-8.94915
设施	-8.95004
部门	-8.95062
会员	-8.95075
电视	-8.95082
方向	-8.95308
徐	-8.95438
德国	-8.95561
安徽	-8.95565
时尚	-8.95576
剑	-8.95585
出生于	-8.95642
▁《	-8.95925
齐	-8.95928
置	-8.95955
制度	-8.95968
事业	-8.96021
哈	-8.9603
缘	-8.96046
虎	-8.96065
考	-8.96107
团队	-8.96301
断	-8.96421
早	-8.96451
杯	-8.9652
品种	-8.96564
90	-8.96641
脚	-8.96708
独	-8.9679
法国	-8.96798
伯	-8.96935
品质	-8.97017
目标	-8.9703
仪	-8.97035
政策	-8.97068
现有	-8.97136
厅	-8.97229
▁2.	-8.97408
於	-8.97431
听	-8.97569
题	-8.97575
帝	-8.9759
设有	-8.9762
由于	-8.97655
也是	-8.97687
生态	-8.97704
池	-8.9777
纹	-8.97778
被评为	-8.98125
出版社	-8.98146
,位于	-8.98223
命	-8.98233
完全	-8.98272
全部	-8.98364
施工	-8.98366
纯	-8.98578
种植	-8.98579
认证	-8.98581
卫	-8.98627
友	-8.98665
麻	-8.98796
决定	-8.98811
营销	-8.98831
故	-8.98993
冰	-8.99067
连续	-8.9907
虫	-8.99127
鸟	-8.99275
洛	-8.99286
倒	-8.99404
增加	-8.99428
软	-8.9973
病毒	-8.99792
背	-8.99824
梦	-8.99844
文明	-8.99906
长期	-8.9993
诺	-9.00031
国内外	-9.00097
省级	-9.00136
许多	-9.00141
步	-9.00211
脑	-9.0027
关系	-9.00278
最大	-9.00283
举	-9.00334
存	-9.00399
凤	-9.00423
仅	-9.00453
医	-9.00466
4月	-9.00514
庆	-9.00561
医疗	-9.0057
艺	-9.00788
丽	-9.00852
表面	-9.00972
荣	-9.01147
击	-9.01171
3月	-9.01171
学科	-9.01221
程序	-9.0124
临床	-9.01256
弹	-9.01281
过程	-9.01363
的发展	-9.01498
紫	-9.01608
中华	-9.01636
速	-9.01777
儿童	-9.01784
静	-9.01832
浙江省	-9.01888
体系	-9.01921
补	-9.02072
湖北	-9.02124
智	-9.0228
烟	-9.0229
失	-9.02405
》,	-9.02613
苦	-9.02657
耳	-9.0266
登	-9.02675
促进	-9.02685
东北	-9.02724
差	-9.02774
怀	-9.02778
壁	-9.0301
亭	-9.0303
连接	-9.03386
快速	-9.03402
郑	-9.03442
伤	-9.03495
时期	-9.03726
显示	-9.03755
绿色	-9.04002
尽	-9.04026
寒	-9.04091
分为	-9.04114
福建	-9.0414
工具	-9.04152
装饰	-9.04171
价	-9.04409
佳	-9.04447
价值	-9.04555
介绍	-9.04607
称为	-9.04672
书法	-9.04776
,从	-9.04836
庙	-9.04917
术	-9.04931
象	-9.05049
中医	-9.051
积极	-9.05104
舞	-9.05131
。《	-9.0516
45	-9.05196
价格	-9.05212
程	-9.05235
公园	-9.05287
。他	-9.0538
中共	-9.0538
范围	-9.05385
圈	-9.0545
学术	-9.05505
绝	-9.05644
河北	-9.05699
美术	-9.05812
代理	-9.05819
雄	-9.05861
豆	-9.05917
优	-9.05969
十分	-9.05977
收入	-9.06084
嘉	-9.06095
注	-9.06178
案	-9.06255
鲜	-9.06304
关于	-9.06318
先后	-9.06406
分别	-9.06422
教材	-9.06449
机关	-9.06514
莫	-9.06664
略	-9.06913
粒	-9.07034
整	-9.07168
规范	-9.07169
陆	-9.07368
一起	-9.07437
股	-9.07506
河南省	-9.07584
西南	-9.07665
索	-9.07669
增	-9.07751
戏	-9.07789
驻	-9.0783
侧	-9.07839
祖	-9.08087
杂	-9.08141
包装	-9.08174
毒	-9.08338
2000	-9.08414
分布	-9.08471
工作,	-9.08518
国家级	-9.08527
帮助	-9.08592
土地	-9.08597
27	-9.08612
5月	-9.08788
战略	-9.08789
行为	-9.08824
秦	-9.08884
贝	-9.08952
住	-9.08961
疾病	-9.09025
实践	-9.0905
最大的	-9.09154
。该	-9.09164
杀	-9.09206
韩	-9.0927
上海市	-9.09378
,它	-9.09457
历	-9.09546
6月	-9.09609
设置	-9.09833
喜	-9.09909
惠	-9.09958
蒙	-9.09962
熟	-9.09965
纪	-9.10006
500	-9.10089
%	-9.10204
创建	-9.10233
风格	-9.10366
天津	-9.10431
运输	-9.1045
课	-9.10483
叫	-9.10558
功	-9.1057
手机	-9.10725
之一,	-9.10733
测试	-9.10743
受到	-9.10882
且	-9.11019
为了	-9.11083
革命	-9.1111
形式	-9.11145
塘	-9.1119
或者	-9.11196
宜	-9.11399
温度	-9.11497
三个	-9.11556
话	-9.11557
21	-9.11609
商品	-9.11729
表示	-9.11825
羊	-9.11927
久	-9.11945
倍	-9.12013
剧	-9.12059
超过	-9.12094
隆	-9.12149
虚	-9.12174
物理	-9.12241
森	-9.12375
优质	-9.12512
数字	-9.12586
,不	-9.12638
勒	-9.12688
轻	-9.12711
钟	-9.12838
云南	-9.12949
配套	-9.12949
群众	-9.1298
致	-9.13168
测量	-9.1318
欧洲	-9.13252
期间	-9.13406
重庆	-9.13448
12月	-9.1356
注册	-9.13656
谓	-9.13669
人的	-9.13705
物流	-9.13732
数学	-9.13759
往	-9.13766
北京市	-9.1381
寿	-9.13828
浅	-9.13846
。其	-9.13923
300	-9.14018
研发	-9.14151
轴	-9.14203
方便	-9.14244
解决	-9.14284
训练	-9.14324
特别	-9.14339
2月	-9.14394
反应	-9.14415
斗	-9.14528
聚	-9.14577
资金	-9.14578
速度	-9.14681
活	-9.14777
宣	-9.14782
许	-9.14841
咨询	-9.14842
闻	-9.1489
尖	-9.14911
之后	-9.14912
第	-9.15085
肥	-9.15232
一直	-9.15318
1个	-9.15376
如何	-9.15457
右	-9.15473
珠	-9.15502
脉	-9.15578
墨	-9.15649
,同时	-9.15668
查	-9.15688
请	-9.15748
左右	-9.1581
运用	-9.1582
泽	-9.15822
改革	-9.15849
为主	-9.15856
供	-9.15873
了解	-9.15913
曼	-9.15988
整个	-9.16102
取得	-9.16118
博士	-9.16161
柱	-9.16489
塞	-9.16557
因为	-9.16599
传播	-9.16728
江西	-9.16748
通信	-9.16833
高校	-9.16838
化工	-9.16864
安徽省	-9.16892
11月	-9.169
考试	-9.17005
没	-9.17018
情况	-9.17072
放入	-9.17118
还有	-9.17148
必须	-9.17178
山西	-9.1719
居民	-9.1724
,又	-9.17284
1.	-9.17376
西北	-9.17523
校园	-9.17554
试	-9.1758
韩国	-9.17605
洋	-9.17678
四川省	-9.17748
征	-9.17751
刺	-9.17824
满足	-9.17879
镜	-9.17892
税	-9.17935
来自	-9.17947
延	-9.17969
广场	-9.18036
调查	-9.18115
特点	-9.18133
现任	-9.18283
硬	-9.18377
广泛	-9.18528
民间	-9.18536
广大	-9.18566
电力	-9.18574
地处	-9.18723
人类	-9.18882
实际	-9.18939
旗	-9.18953
柳	-9.18966
,所以	-9.18969
济	-9.18981
烧	-9.18985
冠	-9.19013
炉	-9.19027
尚	-9.1905
岗	-9.19206
薄	-9.19218
创造	-9.19221
讲	-9.19356
偏	-9.194
视频	-9.19468
武汉	-9.19494
装置	-9.19612
36	-9.19765
容	-9.19766
壳	-9.19783
摄影	-9.19811
交易	-9.19929
第四	-9.2004
假	-9.20097
农民	-9.20119
固	-9.20169
自由	-9.20175
陵	-9.20209
破	-9.20368
福建省	-9.20378
猪	-9.20387
枝	-9.20406
高速	-9.20501
智能	-9.20542
扬	-9.20595
饰	-9.20648
莱	-9.20818
众	-9.20821
灰	-9.20821
湖北省	-9.20912
,中国	-9.20955
皆	-9.20969
寨	-9.20978
街道	-9.20986
有效	-9.20992
麦	-9.21039
痛	-9.21189
必	-9.21202
参	-9.21301
杭州	-9.2135
29	-9.21372
迪	-9.21446
伦	-9.21475
职工	-9.21567
深圳	-9.21638
务	-9.21747
郡	-9.21755
荣获	-9.21781
,与	-9.21786
承担	-9.21836
办公室	-9.21961
陕西	-9.22005
皇	-9.22065
您	-9.22158
比赛	-9.22191
,也	-9.22242
白色	-9.22243
臣	-9.22273
贵	-9.22275
照	-9.22286
发行	-9.22316
承	-9.22351
按照	-9.2236
坚持	-9.22363
耐	-9.22378
2005年	-9.22408
良好的	-9.22437
规定	-9.22459
坡	-9.22573
媒体	-9.22657
降	-9.22706
1月	-9.22723
炎	-9.22749
物质	-9.2282
48	-9.22902
乳	-9.23015
>	-9.23094
规模	-9.23098
脱	-9.23164
核心	-9.23201
忠	-9.23221
组合	-9.23252
护	-9.23263
》。	-9.23344
最高	-9.23398
陶	-9.23403
压力	-9.23406
他的	-9.23461
任何	-9.23474
=	-9.23521
针	-9.23645
...	-9.23676
大量	-9.23703
现在	-9.23708
统一	-9.2375
推	-9.23751
额	-9.23773
炒	-9.23827
磨	-9.23926
测	-9.24024
届	-9.24041
出口	-9.24207
粗	-9.24224
鼓	-9.24266
2006年	-9.24314
贸易	-9.24323
实验室	-9.24433
问	-9.24442
表现	-9.24445
。公司	-9.2449
投	-9.24513
淡	-9.24614
杰	-9.24617
成果	-9.24619
赤	-9.24624
劳动	-9.24635
统计	-9.24642
,以及	-9.24649
的重要	-9.24697
稳定	-9.24871
形象	-9.24919
内部	-9.24927
军事	-9.24992
腹	-9.25076
部队	-9.25089
保持	-9.25097
姜	-9.25203
打造	-9.25203
采	-9.25251
箱	-9.25384
例	-9.25472
课题	-9.25526
维护	-9.25656
作家	-9.25779
党员	-9.2579
编辑	-9.25862
监督	-9.25882
煮	-9.25977
贤	-9.25991
冬	-9.2602
谢	-9.26025
娱乐	-9.26049
保证	-9.26118
滑	-9.26162
湖南省	-9.26288
货	-9.26303
2008年	-9.26339
造	-9.26381
殿	-9.26385
》《	-9.26403
杜	-9.26448
计算	-9.26463
至今	-9.2652
季	-9.26575
’	-9.26696
发表	-9.26809
晚	-9.26896
喜欢	-9.26909
唱	-9.26993
提升	-9.27058
萨	-9.27065
任务	-9.27098
▁在	-9.27144
东方	-9.2715
认为	-9.27201
高中	-9.2721
评	-9.27228
小时	-9.27243
不同的	-9.27429
积	-9.27431
▁1.	-9.27554
还是	-9.27554
2010年	-9.27587
暗	-9.27632
玻璃	-9.27647
状态	-9.27757
▁1	-9.27864
对于	-9.27877
检查	-9.27927
致力于	-9.28121
乱	-9.28225
浮	-9.28339
预	-9.28344
接受	-9.285
折	-9.28586
录	-9.28597
装备	-9.28711
杂志	-9.28792
丰富	-9.28856
休闲	-9.28869
演出	-9.28898
移动	-9.28932
调整	-9.28996
姓	-9.29008
古代	-9.29056
变化	-9.29085
附	-9.29091
努力	-9.29147
38	-9.29165
大小	-9.29177
▁2	-9.29334
加强	-9.29343
亮	-9.29486
800	-9.29558
潮	-9.29584
桂	-9.29595
服装	-9.29596
领	-9.29603
集中	-9.29696
坝	-9.29705
7月	-9.29741
患者	-9.29757
▁2、	-9.29805
);	-9.29835
更加	-9.29863
,用	-9.29864
魏	-9.29893
只有	-9.30042
枪	-9.30073
营养	-9.30103
,具有	-9.30209
刊	-9.30242
导	-9.30256
电话	-9.30353
可能	-9.30353
零	-9.30425
众多	-9.30428
墓	-9.30439
斑	-9.30442
势	-9.30468
天然	-9.30494
汇	-9.30496
电源	-9.30517
报告	-9.30612
郎	-9.3062
待	-9.30665
信号	-9.30677
经验	-9.30678
胸	-9.30758
基金	-9.30778
退	-9.30786
祥	-9.30806
,也是	-9.30933
》是	-9.3094
汁	-9.30952
齿	-9.3098
坐	-9.30993
女性	-9.31026
重大	-9.3108
成都	-9.31108
小区	-9.31119
射	-9.31124
西安	-9.31254
保障	-9.31445
未来	-9.31535
道路	-9.31548
者,	-9.31564
简	-9.31636
曰	-9.31699
整体	-9.31764
牙	-9.31799
阶段	-9.31816
症	-9.31851
凡	-9.31862
有着	-9.31868
洗	-9.31905
方案	-9.31954
新疆	-9.32211
刚	-9.32326
联系	-9.32353
地质	-9.32493
,故	-9.32585
县城	-9.32614
进行了	-9.32727
多个	-9.32761
最佳	-9.32767
亩,	-9.32779
2007年	-9.32912
锦	-9.32936
贴	-9.32937
全市	-9.32958
,后	-9.33031
城区	-9.33064
不是	-9.3307
郭	-9.33137
400	-9.3317
平方米	-9.33189
医药	-9.33209
引进	-9.33235
甘	-9.33243
..	-9.33293
继	-9.3331
著	-9.3334
消费者	-9.33377
句	-9.33503
幼儿园	-9.33522
表演	-9.33537
:1	-9.33539
艾	-9.33572
会计	-9.33628
1996年	-9.33649
技能	-9.33657
弱	-9.33756
毕业	-9.33843
赴	-9.33885
似	-9.33913
展示	-9.33994
2009年	-9.34033
益	-9.34046
的主要	-9.34054
仍	-9.34086
泥	-9.34113
劳	-9.34174
2004年	-9.34214
书画	-9.34283
以来	-9.343
河北省	-9.3445
润	-9.34453
互联网	-9.34511
免费	-9.34547
洲	-9.34565
控	-9.34566
提出	-9.34576
600	-9.34619
意大利	-9.3466
尊	-9.34903
64	-9.34905
▁3.	-9.34986
境	-9.34993
不可	-9.35098
色彩	-9.35143
欲	-9.35251
参加工作	-9.3535
琴	-9.35393
世纪	-9.35476
发布	-9.35493
疏	-9.35583
检验	-9.35625
1000	-9.35679
运营	-9.35705
制品	-9.35781
特征	-9.35807
位置	-9.35829
男,	-9.35881
协调	-9.3607
巨	-9.36083
制定	-9.36155
山区	-9.36165
优势	-9.36168
燕	-9.36443
始	-9.36448
亿	-9.3655
诚	-9.36631
村委会	-9.36641
希望	-9.36647
露	-9.36657
莲	-9.36712
父	-9.36821
敌	-9.36822
神经	-9.36861
围	-9.36875
隐	-9.36884
恒	-9.36963
机场	-9.37134
乃	-9.37148
办公	-9.37157
名称	-9.37191
换	-9.37287
专用	-9.37298
很多	-9.37303
消	-9.3731
著名的	-9.37365
碑	-9.37531
其它	-9.37556
舍	-9.37682
册	-9.37782
演	-9.37796
特殊	-9.37819
读者	-9.37824
当地	-9.379
炮	-9.3791
湿	-9.37924
提供了	-9.37943
收藏	-9.38066
理念	-9.38072
55	-9.38085
迁	-9.3809
墙	-9.38139
简单	-9.38236
穿	-9.38264
喷	-9.38496
节目	-9.38609
乘	-9.38632
,因此	-9.38657
煤	-9.38669
创业	-9.38705
以下	-9.38717
显	-9.38719
生长	-9.38725
评价	-9.3873
先进的	-9.3876
导演	-9.38839
免	-9.38848
。现任	-9.39025
曹	-9.39032
成本	-9.39046
一级	-9.39049
,被	-9.39061
参数	-9.39101
策划	-9.3929
文艺	-9.39362
皮肤	-9.39416
庭	-9.39417
拜	-9.39452
拍摄	-9.39471
新的	-9.3949
十二	-9.39495
资	-9.39496
是在	-9.39541
屋	-9.3955
宏	-9.39635
西部	-9.39635
某	-9.39638
2个	-9.39727
全县	-9.39743
鼎	-9.39746
战争	-9.39775
,成为	-9.39835
苗	-9.39864
原料	-9.40085
仪器	-9.40173
继续	-9.40266
孝	-9.40349
凯	-9.40418
图书	-9.40447
茎	-9.40611
2002年	-9.40688
,而且	-9.40847
顾问	-9.40899
生,	-9.40919
欧	-9.40983
改善	-9.41081
哲学	-9.41148
恶	-9.41251
,再	-9.41277
相对	-9.41324
过程中	-9.41354
药物	-9.41401
掌	-9.41418
笑	-9.41486
砂	-9.41495
2000年	-9.41502
感染	-9.41507
追求	-9.41558
维修	-9.41658
侯	-9.41726
隔	-9.41843
一条	-9.41874
通常	-9.41881
江西省	-9.41899
凉	-9.41929
33	-9.41951
34	-9.41964
博物馆	-9.41991
挂	-9.42092
、中国	-9.42107
突出	-9.42113
150	-9.42256
床	-9.42264
2012年	-9.42334
迅速	-9.42344
玄	-9.42378
37	-9.42392
规格	-9.42419
出生	-9.42421
实用	-9.42455
一切	-9.42476
径	-9.42486
英文	-9.42549
肿瘤	-9.42575
沉	-9.42587
通讯	-9.42598
亚洲	-9.42646
动力	-9.42764
消费	-9.42842
屏	-9.4288
著作	-9.42934
多年	-9.43006
的人	-9.43055
袋	-9.43059
靠	-9.43089
多次	-9.43098
印刷	-9.431
主编	-9.43122
辛	-9.43126
须	-9.43141
谈	-9.43226
1998年	-9.43388
诊断	-9.43441
心理	-9.43463
地震	-9.43476
磁	-9.43489
现代化	-9.43576
,包括	-9.43584
天下	-9.43714
适用于	-9.43796
即可	-9.43851
力量	-9.43851
当时	-9.43898
正常	-9.43903
投入	-9.4394
2003年	-9.4397
东南	-9.43973
分子	-9.4398
事件	-9.43995
翼	-9.44034
减	-9.44162
南部	-9.44263
外科	-9.44284
公共	-9.44332
严	-9.44375
负	-9.44387
65	-9.44407
服务。	-9.44455
描述	-9.44533
改变	-9.44613
魔	-9.44684
推进	-9.4473
精品	-9.44752
纤维	-9.44758
恢复	-9.4476
铺	-9.45045
保险	-9.45143
瓶	-9.45271
图书馆	-9.45475
周边	-9.4555
当代	-9.45585
输入	-9.45625
输出	-9.45637
存在	-9.45662
老师	-9.45715
纵	-9.45828
1.5	-9.45973
一年	-9.45986
黑色	-9.46068
设立	-9.46071
1993年	-9.46147
地下	-9.46194
'	-9.46203
模	-9.46207
研	-9.4635
吸收	-9.46372
既	-9.46492
共有	-9.46529
浦	-9.46571
稍	-9.46613
。它	-9.4664
材	-9.46662
宇	-9.46672
享受	-9.46673
生命	-9.46677
调节	-9.46691
,可以	-9.46724
希	-9.46727
晓	-9.46758
覆盖	-9.46788
记录	-9.46807
是中国	-9.46821
韵	-9.46845
塑料	-9.46868
重庆市	-9.46897
净	-9.46922
译	-9.46922
鞋	-9.46939
42	-9.46945
楚	-9.46946
人民政府	-9.47007
阅读	-9.47017
堡	-9.47058
振	-9.47069
尺寸	-9.47096
大道	-9.47129
甜	-9.47197
陕西省	-9.47231
深圳市	-9.4726
棉	-9.47275
手术	-9.47295
辖	-9.47319
诚信	-9.47353
习	-9.47386
豪	-9.47401
,通过	-9.47406
不仅	-9.4757
以“	-9.4761
平均	-9.47654
又称	-9.4766
玉米	-9.47673
津	-9.47723
范	-9.47731
鼻	-9.47928
符合	-9.47953
明显	-9.48041
夹	-9.4809
《中国	-9.48105
花园	-9.4816
急	-9.48183
正在	-9.48199
适合	-9.48218
批准	-9.4823
泡	-9.4836
75	-9.48515
成长	-9.48516
1994年	-9.48542
之间的	-9.48624
敬	-9.48643
姆	-9.48645
救	-9.48657
-1	-9.48734
青岛	-9.48763
整合	-9.48907
完善	-9.48954
海洋	-9.49026
山西省	-9.49123
实行	-9.49177
斜	-9.49201
专业的	-9.49232
2001年	-9.49238
,主要	-9.49247
为“	-9.49254
成立于	-9.49273
办学	-9.49288
等地	-9.49354
身体	-9.49373
丰富的	-9.49374
鉴定	-9.49393
配置	-9.49404
拍	-9.49404
高度	-9.4941
桑	-9.49431
原理	-9.49434
▁3	-9.49467
兽	-9.49468
始建于	-9.49472
监	-9.49474
深入	-9.49604
1990年	-9.49619
北部	-9.4963
卢	-9.49658
,让	-9.49676
苏州	-9.49679
评为	-9.49719
1992年	-9.49724
限	-9.49758
主任	-9.49793
红色	-9.49813
针对	-9.49816
境内	-9.49825
动画	-9.49851
结果	-9.49943
俄罗斯	-9.49974
翻	-9.4998
,拥有	-9.49984
(今	-9.50009
邦	-9.50026
锅	-9.50028
效	-9.50041
卖	-9.50071
印度	-9.50126
止	-9.50146
玛	-9.50184
伏	-9.50205
股份有限公司	-9.50222
,从而	-9.50228
全省	-9.50232
旅	-9.50423
论坛	-9.50441
1995年	-9.50536
,这	-9.5065
样	-9.50672
(18	-9.50699
遗	-9.50752
序	-9.50792
建成	-9.50871
每年	-9.50877
演员	-9.50978
具体	-9.51001
航空	-9.5108
造型	-9.51104
舞蹈	-9.51112
举办	-9.51234
需求	-9.51258
固定	-9.51381
体验	-9.51456
120	-9.51461
高速公路	-9.51487
研究生	-9.51567
机制	-9.51579
典	-9.51589
工程师	-9.51594
探索	-9.51785
摩	-9.5186
翻译	-9.51893
惊	-9.51951
」	-9.51993
无法	-9.52009
▁3、	-9.52035
裂	-9.52046
文章	-9.52053
人体	-9.5212
分类	-9.52127
阁	-9.52172
岳	-9.52199
配合	-9.52199
现场	-9.52252
奉	-9.52273
和谐	-9.52318
2011年	-9.52363
村民	-9.52445
对象	-9.52593
1997年	-9.52769
都有	-9.52804
文字	-9.5286
探	-9.52878
名。	-9.52935
万元,	-9.5295
鬼	-9.52995
助	-9.5301
,因	-9.53049
程度	-9.53051
中文	-9.53057
▁1、	-9.5308
铝	-9.53096
沈	-9.53131
经典	-9.53131
掌握	-9.53275
高效	-9.53299
以来,	-9.53327
,男,汉族,	-9.53329
进口	-9.53446
39	-9.53471
财政	-9.53536
海拔	-9.53567
旁	-9.53585
买	-9.53633
肝	-9.53641
玩	-9.5365
鹿	-9.53709
实力	-9.53725
1985年	-9.53759
幼	-9.53771
顿	-9.53786
自动化	-9.53803
蔬菜	-9.5382
减少	-9.53966
残	-9.53991
戴	-9.54081
地理	-9.54118
羽	-9.54134
定位	-9.54144
苑	-9.5425
议	-9.5425
三年	-9.54257
吸	-9.54297
石油	-9.5434
防治	-9.54342
沿	-9.5446
栋	-9.54481
机、	-9.5457
移	-9.54652
籍	-9.54674
航	-9.54684
元素	-9.54691
适量	-9.54725
米,	-9.54733
动态	-9.5477
瓜	-9.54813
备	-9.5482
东西	-9.5487
泵	-9.54875
胃	-9.54883
,则	-9.549
大家	-9.54926
攻	-9.54972
独特的	-9.54995
陶瓷	-9.55083
漫画	-9.55103
招	-9.55132
专门	-9.55154
混	-9.55197
玩家	-9.55237
成绩	-9.5525
「	-9.5525
本科	-9.55251
在中国	-9.55298
颜色	-9.55339
下,	-9.5538
也有	-9.55434
朗	-9.55597
引起	-9.55614
3个	-9.55695
上,	-9.55699
进一步	-9.55735
×	-9.55776
迷	-9.55795
州市	-9.55805
内蒙古	-9.55822
居住	-9.55916
甚	-9.55968
确定	-9.56046
一样	-9.56064
就业	-9.56064
谱	-9.56086
的研究	-9.56109
公斤	-9.5613
44	-9.56147
争	-9.56261
贵州	-9.56309
攻击	-9.56332
英寸	-9.56346
扎	-9.56465
遇	-9.56515
健	-9.56534
腰	-9.56581
1984年	-9.56587
需	-9.56661
紧	-9.56696
,我们	-9.5679
据	-9.56809
1988年	-9.5685
御	-9.56883
保健	-9.56927
优化	-9.5694
鸭	-9.56995
渡	-9.57057
联盟	-9.57171
含量	-9.57176
页	-9.57263
每个	-9.57275
湘	-9.57307
晶	-9.57343
芳	-9.57398
关注	-9.57475
审	-9.57491
,距	-9.57547
研究院	-9.57548
念	-9.57556
协	-9.57557
国外	-9.57563
开放	-9.57592
指挥	-9.5761
借	-9.57631
2.5	-9.57676
集成	-9.57684
<	-9.57773
,任	-9.57905
桃	-9.57934
一定	-9.57942
景观	-9.57946
工厂	-9.57979
推动	-9.57996
降低	-9.57999
46	-9.58001
吨	-9.58019
‘	-9.58025
1999年	-9.58057
女子	-9.58079
,并且	-9.58196
最新	-9.5823
二等奖	-9.58258
遗址	-9.58268
类型:	-9.58311
同志	-9.58342
科技有限公司	-9.58421
练	-9.5849
孩子	-9.58566
多项	-9.58567
公里	-9.5857
辽宁省	-9.58604
43	-9.58752
追	-9.58761
能源	-9.58792
朋友	-9.58812
文物	-9.58837
1991年	-9.58862
曾经	-9.58867
展览	-9.58884
示范	-9.58903
链	-9.58934
重要的	-9.59051
蔡	-9.59088
肺	-9.5913
如果	-9.59132
跨	-9.59178
不锈钢	-9.59215
98	-9.5924
蒂	-9.59277
因素	-9.59306
葱	-9.59318
雕	-9.59341
为主,	-9.59352
构成	-9.59354
一家	-9.59392
涂	-9.59416
算	-9.59424
1989年	-9.59426
数量	-9.59454
锡	-9.59474
成就	-9.5949
电池	-9.59514
,现任	-9.59554
旋	-9.59615
专辑	-9.59652
第五	-9.59694
合同	-9.59711
跟	-9.5981
歌手	-9.5982
辉	-9.59822
房地产	-9.59828
,该	-9.599
持	-9.59945
模型	-9.59968
吧	-9.59972
毫米	-9.60062
2.0	-9.601
面向	-9.60161
辽宁	-9.60244
蛇	-9.60324
处于	-9.60352
份	-9.60354
肠	-9.60398
自身	-9.60437
混合	-9.60447
鸣	-9.60463
大赛	-9.6047
窑	-9.60474
有限责任公司	-9.605
建立了	-9.60536
歌曲	-9.60612
合成	-9.60646
大师	-9.60732
酶	-9.60764
重新	-9.60818
柏	-9.60938
废	-9.60938
及时	-9.61023
美容	-9.61036
空气	-9.61048
是以	-9.61073
票	-9.61085
宾馆	-9.61108
知名	-9.61125
跳	-9.61173
(),	-9.61292
改造	-9.61382
财	-9.61472
穗	-9.61523
有机	-9.61548
军区	-9.61551
团体	-9.61589
称号	-9.61613
准备	-9.61707
勤	-9.61789
素质	-9.6179
漆	-9.61825
罪	-9.61858
犹	-9.61874
师范大学	-9.61958
,然后	-9.62069
私	-9.6218
透	-9.62222
1986年	-9.62231
主题	-9.62231
用品	-9.6225
推出	-9.62359
幅	-9.62406
砖	-9.62417
起来	-9.62477
纪念	-9.62616
鹤	-9.62622
意识	-9.6266
等级	-9.62679
性的	-9.62684
杆	-9.62712
4个	-9.62755
创办	-9.62819
蛋	-9.62887
人生	-9.62895
教育部	-9.62948
逐渐	-9.62954
56	-9.63001
虾	-9.63085
平衡	-9.63184
锁	-9.63296
1987年	-9.63306
涉及	-9.63455
电压	-9.63517
昭	-9.63582
碧	-9.63676
财务	-9.63695
成熟	-9.63741
好的	-9.63856
城镇	-9.63995
申请	-9.64084
人士	-9.64099
,每	-9.64108
枚	-9.6425
识	-9.64282
阀	-9.64296
餐饮	-9.64388
解释	-9.64458
唯一	-9.6446
以后	-9.64471
筒	-9.64501
电视台	-9.64503
完	-9.64511
国务院	-9.64519
丘	-9.64538
启	-9.64588
坛	-9.64611
大学生	-9.64745
队伍	-9.64768
崇	-9.64905
模拟	-9.64941
授予	-9.6496
准	-9.65005
因此	-9.65054
文献	-9.6508
主义	-9.65183
。由于	-9.65253
粮	-9.65298
授	-9.65307
购物	-9.65342
47	-9.6535
流行	-9.65352
大陆	-9.65357
格式	-9.65394
鸿	-9.65405
31	-9.65422
专利	-9.6545
育	-9.65451
充分	-9.65458
汉族	-9.65486
经常	-9.65504
影视	-9.65542
相当	-9.65602
客房	-9.65821
森林	-9.65823
接触	-9.65871
二级	-9.65908
节能	-9.66025
错	-9.66032
适应	-9.6616
万元	-9.66183
斋	-9.66227
孟	-9.66232
责任	-9.66254
注重	-9.66306
震	-9.66502
等方面	-9.66532
产品的	-9.66551
又名	-9.66575
3年	-9.66656
胆	-9.66665
举行	-9.66727
新型	-9.66778
嫩	-9.66783
也。”	-9.66784
装修	-9.66819
辞	-9.66842
童	-9.66896
天津市	-9.6692
在线	-9.66972
▁:	-9.66996
室内	-9.67066
觉	-9.67137
依据	-9.67157
焦	-9.67171
88	-9.67217
肾	-9.67264
英雄	-9.67264
厘米,	-9.67272
蒸	-9.6731
中部	-9.67323
缺	-9.67332
两种	-9.67351
工作的	-9.67391
诗人	-9.67435
54	-9.67556
息	-9.67568
轴承	-9.67604
学者	-9.67646
电子商务	-9.67675
长江	-9.67697
辐射	-9.67714
芯片	-9.67718
盒	-9.67737
团结	-9.67765
融	-9.67793
仲	-9.67812
坐落于	-9.67863
我们的	-9.67877
基于	-9.67892
发挥	-9.67896
主体	-9.67918
形态	-9.6801
检	-9.68058
58	-9.68113
荒	-9.68132
医学院	-9.68148
饭	-9.68162
49	-9.68171
播	-9.68172
特性	-9.6818
统	-9.68202
嘴	-9.68224
,她	-9.68245
推荐	-9.68261
最后	-9.68398
太阳	-9.68427
苍	-9.68459
岸	-9.68475
52	-9.68505
周围	-9.68656
赫	-9.68701
沈阳	-9.68801
平方米,	-9.68826
部、	-9.68826
,但是	-9.6889
键	-9.68971
审计	-9.6908
俱乐部	-9.69096
域	-9.69102
反映	-9.69141
吕	-9.69159
虽	-9.6931
参考	-9.69333
具备	-9.69347
东部	-9.69353
市级	-9.69353
,公司	-9.69405
数码	-9.69491
现象	-9.69587
合理	-9.69779
哥	-9.69795
为一体的	-9.69816
监测	-9.69826
编制	-9.6986
停	-9.69864
谋	-9.69867
报道	-9.69898
腔	-9.69998
66	-9.70025
佛教	-9.7009
的小	-9.70116
行动	-9.70148
码	-9.70214
告	-9.70223
南北	-9.70264
良好	-9.70292
版本	-9.70348
伟	-9.70532
硕士	-9.70611
,曾	-9.70701
不会	-9.70718
民主	-9.70734
少年	-9.70838
将军	-9.70842
评估	-9.70854
浓	-9.70936
到了	-9.70966
背景	-9.71059
屯	-9.71069
依托	-9.71153
主席	-9.71185
塑	-9.71195
持续	-9.71318
画家	-9.71362
仓	-9.71365
99	-9.71389
院校	-9.71428
增强	-9.71438
协议	-9.71454
研究中心	-9.71596
科学技术	-9.71651
贡献	-9.71773
多家	-9.71829
秒	-9.71847
分钟	-9.71872
翅	-9.71933
氧	-9.72075
都市	-9.7209
自我	-9.72092
档案	-9.72099
住宅	-9.72112
俊	-9.72118
播放	-9.72186
°C	-9.722
创意	-9.72209
遂	-9.72239
寻	-9.72298
销	-9.72307
车辆	-9.72381
滚	-9.72425
1983年	-9.72454
市政府	-9.72463
碎	-9.72486
破坏	-9.72491
民国	-9.72506
市区	-9.72549
扩大	-9.72567
肌	-9.72601
生产线	-9.72679
宗教	-9.72714
窗	-9.72772
指标	-9.72796
耕地	-9.72822
申	-9.72843
粮食	-9.72844
做好	-9.72866
养殖	-9.72873
附近	-9.72912
抓	-9.72926
循环	-9.72953
注意	-9.72966
》中	-9.72992
随着	-9.73014
拳	-9.73031
最终	-9.73056
贡	-9.73074
曾任	-9.73088
保存	-9.73092
家具	-9.73156
的历史	-9.73191
的时候	-9.73256
黄金	-9.73259
坑	-9.7326
态	-9.73269
四个	-9.73287
,现	-9.733
管理、	-9.73372
一位	-9.73384
甘肃	-9.73387
水库	-9.73398
战斗	-9.73413
才能	-9.73419
方面的	-9.7344
训	-9.73479
各项	-9.73504
掉	-9.73582
相互	-9.73595
主管	-9.73639
霍	-9.73658
图片	-9.73747
,女,	-9.73756
85	-9.73769
是否	-9.73816
宿	-9.73875
怪	-9.73885
中共党员	-9.73907
纺织	-9.73908
什么	-9.73932
而且	-9.73959
蛋白	-9.73975
妙	-9.73993
谁	-9.74043
产品质量	-9.7411
帮	-9.74113
贾	-9.74154
最早	-9.74194
理解	-9.74309
续	-9.74362
敏	-9.74387
大厦	-9.74408
的专业	-9.74449
总面积	-9.74478
坊	-9.74572
爱情	-9.74597
帕	-9.74641
囊	-9.74696
贺	-9.74711
划	-9.74725
释	-9.74772
各地	-9.74825
写作	-9.75077
首次	-9.75087
原因	-9.75173
分离	-9.75203
效率	-9.75235
》诗:“	-9.75249
济南	-9.7531
显著	-9.75372
你的	-9.75573
严格	-9.7559
弗	-9.75609
。学校	-9.75614
妇女	-9.75725
顾	-9.75792
资产	-9.75795
强度	-9.75801
种子	-9.75815
清代	-9.75821
宾	-9.75847
俗	-9.75868
68	-9.75869
记者	-9.7587
严重	-9.75912
彭	-9.75938
婚	-9.75979
系统的	-9.75998
快乐	-9.76034
藤	-9.76043
分公司	-9.76064
所以	-9.76076
人事	-9.76197
手段	-9.76229
绘画	-9.76249
的产品	-9.76263
灭	-9.76362
豪华	-9.76366
西方	-9.7649
徒	-9.76494
技巧	-9.76522
海南	-9.76573
频率	-9.76579
原名	-9.76643
----------------	-9.76863
人文	-9.769
人工	-9.76967
委员	-9.77019
证书	-9.77036
早期	-9.77036
愿	-9.77039
冠军	-9.77046
翠	-9.77046
知道	-9.77053
纲	-9.77068
坪	-9.77079
并且	-9.77091
加拿大	-9.77108
献	-9.77156
经历	-9.77307
珍	-9.77394
青少年	-9.77398
解放	-9.77457
概念	-9.77525
菲	-9.77559
集团公司	-9.77614
壮	-9.77699
1.2	-9.77704
预防	-9.77722
均匀	-9.77761
影片	-9.77803
终	-9.77877
律	-9.77896
而不	-9.78014
一座	-9.7808
协助	-9.78111
父亲	-9.78142
滴	-9.78155
,最终结果以百度地图数据为准。	-9.78295
一流的	-9.7834
配件	-9.78346
,把	-9.78362
.("/////	-9.78368
.",(){(	-9.78368
决策	-9.78399
10000801);});	-9.784
室、	-9.78417
阵	-9.78517
示	-9.78521
休	-9.7854
倾	-9.78591
出生,	-9.78628
,经	-9.78635
佐	-9.78653
恋	-9.7867
95	-9.78679
看到	-9.7868
触	-9.78703
抽	-9.78707
96	-9.78762
槽	-9.78774
它的	-9.78776
黄色	-9.78792
警	-9.78818
,且	-9.7887
依法	-9.78949
完善的	-9.78987
造成	-9.79025
兹	-9.79037
简称	-9.79056
首届	-9.79119
年)	-9.79122
创建于	-9.79263
充满	-9.79285
内置	-9.79293
鼠	-9.79314
说明	-9.79351
大会	-9.79351
观察	-9.79355
发展的	-9.79389
武器	-9.79438
,就	-9.79459
冯	-9.79475
盟	-9.79482
除了	-9.79491
▁4.	-9.79496
资讯	-9.79531
黑龙江省	-9.79552
名,	-9.79574
0.5	-9.79584
园林	-9.79597
舒	-9.79645
舒适	-9.79649
现实	-9.79673
科、	-9.79837
阳光	-9.79915
研制	-9.7994
气体	-9.79969
校长	-9.80008
这里	-9.80035
尤	-9.80045
高科技	-9.80061
启动	-9.80076
林业	-9.8008
地球	-9.80184
画面	-9.80184
丸	-9.80209
浆	-9.8027
3.5	-9.80293
作战	-9.80351
戏剧	-9.80379
始终	-9.80429
突破	-9.80463
传媒	-9.80486
尘	-9.80509
动作	-9.8053
这样	-9.80548
参加了	-9.80587
的基本	-9.80614
酱	-9.80667
煎	-9.80678
传说	-9.80679
茂	-9.80696
浪	-9.80712
逆	-9.80874
重视	-9.80893
读书	-9.80917
颜	-9.80939
插	-9.80939
汗	-9.80979
,还	-9.80983
传》:“	-9.81004
”等	-9.81026
迎	-9.81132
53	-9.81133
传输	-9.81174
互动	-9.81181
空调	-9.81221
高端	-9.81276
巷	-9.81296
解决方案	-9.81308
土壤	-9.8133
潜	-9.81357
资格	-9.81381
设计、	-9.81418
狗	-9.81433
的新	-9.81461
规律	-9.81528
胎	-9.81546
景区	-9.81549
入选	-9.81558
皇帝	-9.81605
86	-9.81616
风险	-9.81669
壶	-9.81679
措施	-9.81686
秘书	-9.81734
劳动力	-9.81835
一名	-9.81857
广州市	-9.81958
大队	-9.81975
地面	-9.81995
株	-9.82102
渔	-9.82115
袁	-9.82211
复合	-9.82238
云南省	-9.82254
重量	-9.82316
禁	-9.82342
上下	-9.82382
记载	-9.82401
她的	-9.82408
脸	-9.82413
三大	-9.82451
工人	-9.82452
饮	-9.8248
1956年	-9.82506
地址	-9.82522
工作;	-9.82535
中间	-9.82597
竞争	-9.82603
进步	-9.82635
》等。	-9.8265
欢迎	-9.82672
强大的	-9.82703
火车站	-9.82725
组建	-9.82789
腿	-9.82806
虽然	-9.82811
建议	-9.8288
切成	-9.82939
开拓	-9.82968
经济学	-9.82975
广播	-9.83001
氧化	-9.83021
瓷	-9.83064
3000	-9.83073
艺术家	-9.8321
复杂	-9.83224
个性	-9.83246
增长	-9.83349
僧	-9.83387
1982年	-9.83388
暖	-9.83454
乐队	-9.83478
网上	-9.83497
多媒体	-9.83518
耕地面积	-9.83541
批	-9.83555
澳大利亚	-9.83563
舌	-9.83579
5年	-9.83636
另外	-9.83648
飞机	-9.83695
改为	-9.83739
埃	-9.83757
激光	-9.83764
公开	-9.83766
集体	-9.83794
兄弟	-9.83817
编写	-9.83834
供应	-9.83854
事务	-9.84017
72	-9.8412
采取	-9.84136
稿	-9.84183
毕业后	-9.84207
各个	-9.84266
大部分	-9.84273
办理	-9.84277
吉林省	-9.84281
角色	-9.84324
无线	-9.84328
内存	-9.84375
少许	-9.84394
猫	-9.84404
污染	-9.84461
硅	-9.84541
2003	-9.8455
军队	-9.84553
。但	-9.84624
尺	-9.84648
5个	-9.84685
柜	-9.84708
社会主义	-9.84741
误	-9.84758
董	-9.84759
幸福	-9.84764
败	-9.84808
通道	-9.84822
逸	-9.84858
大连	-9.84864
扩展	-9.84875
勇	-9.84928
这是	-9.84982
厘米	-9.84997
咸	-9.85002
自治区	-9.85006
干燥	-9.85029
对外	-9.85081
江南	-9.85104
奖励	-9.85118
▁4、	-9.85221
海外	-9.85237
跑	-9.85319
园区	-9.8542
席	-9.85434
中华人民共和国	-9.85439
潘	-9.85516
1963年	-9.85542
电机	-9.85665
暴	-9.85695
获奖	-9.85721
学员	-9.8573
平方公里,	-9.85757
不足	-9.85776
战士	-9.85797
00	-9.85861
第2	-9.85877
常用	-9.8589
祭	-9.86007
带来	-9.86042
电器	-9.86042
也。	-9.86065
药品	-9.86136
图像	-9.86176
最具	-9.86238
建材	-9.86255
1970年	-9.86311
,能	-9.86372
十年	-9.86377
孤	-9.86394
脂	-9.86442
企业。	-9.86501
佩	-9.86514
模具	-9.86517
购	-9.86702
1965年	-9.86729
初中	-9.86755
不得	-9.86868
霞	-9.86885
栽培	-9.86935
负责人	-9.86937
洗净	-9.87084
山水	-9.8709
下载	-9.87132
几个	-9.87175
轻松	-9.87218
电流	-9.87243
策略	-9.8726
一带	-9.87273
”为	-9.87393
奏	-9.87439
资质	-9.87451
海军	-9.87464
6个	-9.87545
公里,	-9.87575
拿	-9.87575
赞	-9.87632
安排	-9.8764
敌人	-9.87671
)是	-9.87671
存储	-9.87704
700	-9.87735
更新	-9.87736
署	-9.87743
的生活	-9.87796
电气	-9.87832
乙	-9.87891
高压	-9.87906
&;	-9.87912
1976年	-9.87934
足球	-9.88045
气候	-9.88064
在此	-9.88107
直径	-9.88121
死亡	-9.88141
多年来	-9.88151
频	-9.88154
擅长	-9.88168
粘	-9.88219
坐落在	-9.88252
。此	-9.88302
呼	-9.88325
的《	-9.88327
表达	-9.88367
北方	-9.88497
1980年	-9.88527
加热	-9.8855
郑州	-9.88609
父母	-9.88613
功率	-9.88628
工作者	-9.88659
1964年	-9.88667
基层	-9.88682
一支	-9.88743
碗	-9.88744
相同	-9.88766
。主要	-9.88816
甘肃省	-9.88876
长沙	-9.88933
堆	-9.8899
国民党	-9.88999
乎	-9.89025
管道	-9.89087
密度	-9.89106
,获	-9.89111
吊	-9.89151
沃	-9.8917
长度	-9.89177
本数据来源于百度地图	-9.89268
两侧	-9.89271
卒	-9.89327
,或	-9.89357
醇	-9.89403
柄	-9.89444
小型	-9.89449
大众	-9.89485
历任	-9.89496
公司的	-9.89535
1978年	-9.89542
。从	-9.89567
,他们	-9.89581
隶属于	-9.89596
面对	-9.89631
饼	-9.89631
′	-9.89665
阳县	-9.8969
基因	-9.89705
全村	-9.89721
硬盘	-9.89724
首批	-9.89754
浩	-9.89803
公元	-9.89808
频道	-9.89823
迹	-9.89826
后来	-9.89827
荣誉	-9.89828
第六	-9.89834
占地	-9.89874
水泥	-9.89876
亡	-9.89919
人数	-9.89927
滩	-9.89944
碳	-9.90001
原则	-9.90007
三等奖	-9.90018
一套	-9.90146
状况	-9.90165
滤	-9.90189
占地面积	-9.90193
绿化	-9.90214
衡	-9.90223
可达	-9.90229
1949年	-9.90233
商标	-9.9024
己	-9.9025
梨	-9.90256
护理	-9.90292
近年来	-9.90312
它们	-9.90365
南方	-9.90366
案例	-9.9037
180	-9.90407
放在	-9.90521
贵州省	-9.9054
棒	-9.90557
甚至	-9.90613
萧	-9.90616
十五	-9.90653
资本	-9.90674
运作	-9.90674
熊	-9.9075
观众	-9.9086
能量	-9.90869
辅助	-9.90912
橡胶	-9.90929
名称:	-9.90954
食物	-9.9097
困难	-9.90993
几乎	-9.90996
行业的	-9.91006
三十	-9.91018
幕	-9.91029
险	-9.91058
▁4	-9.91084
创立	-9.91098
开关	-9.91109
决	-9.91117
是一家	-9.91144
包含	-9.91175
顾客	-9.9119
餐	-9.91269
罐	-9.91274
经济发展	-9.91322
,目前	-9.91396
合金	-9.91398
费用	-9.91472
繁	-9.91478
独特	-9.91584
,因为	-9.91591
闭	-9.91604
有一	-9.91624
综合性	-9.91668
联合会	-9.9171
执	-9.91719
得到了	-9.91729
领域的	-9.91773
1975年	-9.91794
构造	-9.91804
报》	-9.91815
拟	-9.91818
盆	-9.91846
赋	-9.9191
。目前	-9.91943
浸	-9.91958
组成的	-9.91961
避	-9.91984
五年	-9.91986
职能	-9.92033
垂	-9.92054
卿	-9.92098
只是	-9.92098
升级	-9.92133
穴	-9.92149
5000	-9.92187
厦门	-9.92197
锋	-9.92225
-2	-9.92227
赐	-9.92247
旺	-9.92254
认识	-9.92261
标志	-9.92274
容易	-9.92323
先进单位	-9.92336
,当	-9.92355
购买	-9.92401
响	-9.92416
渠道	-9.92439
1958年	-9.92559
访	-9.92579
吾	-9.92651
腾	-9.92662
狂	-9.92674
年间	-9.92682
钻	-9.92685
一等奖	-9.92688
显卡	-9.92717
共享	-9.92747
更多	-9.92785
癌	-9.92785
开设	-9.92798
中药	-9.92813
辽	-9.92887
村位于	-9.92938
智慧	-9.92945
充	-9.93009
潭	-9.93012
建有	-9.93091
明代	-9.93098
省市	-9.93099
西班牙	-9.93223
1957年	-9.93228
1962年	-9.93268
烈	-9.93295
记忆	-9.93315
融合	-9.93331
整理	-9.93345
1968年	-9.93375
思维	-9.93384
数据库	-9.93456
,自	-9.93543
演唱	-9.93551
57	-9.93581
78	-9.93659
专题	-9.9371
函数	-9.9377
万吨	-9.93797
访问	-9.93824
首先	-9.93824
颈	-9.93918
瓣	-9.93921
址	-9.93983
那些	-9.94
食用	-9.94009
51	-9.94017
然后	-9.94028
1981年	-9.94061
事业单位	-9.94063
年度	-9.94073
合并	-9.94175
,无	-9.94206
-3	-9.94217
局局长	-9.94248
舰	-9.94263
通用	-9.94268
,由于	-9.9428
一致	-9.94299
82	-9.94337
发射	-9.94375
什	-9.94436
诗歌	-9.94437
碱	-9.94465
幽	-9.94554
植	-9.94557
肩	-9.94561
柔	-9.94569
十八	-9.94632
,更	-9.94636
主要从事	-9.94649
讲师	-9.94677
收集	-9.94691
政协	-9.94722
新加坡	-9.94749
弯	-9.94752
0.0	-9.94795
售后服务	-9.94802
邪	-9.94874
之后,	-9.94896
认真	-9.94909
平面	-9.94977
作业	-9.9502
一项	-9.95066
教授,	-9.95067
真正	-9.95077
服务器	-9.95111
屏幕	-9.95165
溶	-9.95186
高等	-9.95192
沟通	-9.95202
引导	-9.95225
另一	-9.95225
赠	-9.95262
用来	-9.95292
习惯	-9.9531
&	-9.95311
龟	-9.95351
如此	-9.95355
述	-9.95359
染	-9.95421
授权	-9.95493
消防	-9.95501
获得了	-9.95538
单元	-9.95547
乡镇	-9.95559
戈	-9.95649
颗粒	-9.95679
第一个	-9.95711
2-	-9.95764
41	-9.95767
登记	-9.95769
较为	-9.95781
介绍了	-9.95832
美丽	-9.9584
察	-9.9585
拓展	-9.95851
发明	-9.95851
副教授	-9.95853
1979年	-9.95858
液体	-9.95866
连锁	-9.95871
鸡蛋	-9.95904
律师	-9.96003
沪	-9.96003
邓	-9.96039
龄	-9.96067
布局	-9.96098
灌	-9.96103
就会	-9.96124
研究会	-9.96147
魂	-9.96207
西藏	-9.96223
二十	-9.9626
村隶属于	-9.96274
97	-9.96274
的工作	-9.96334
照明	-9.96364
某些	-9.96371
水利	-9.96389
成分	-9.96395
所属	-9.9641
鹰	-9.96453
筑	-9.96526
62	-9.9656
精密	-9.96571
考入	-9.9664
闲	-9.96662
黎	-9.9669
线路	-9.96707
。其中	-9.96721
明星	-9.96722
犯	-9.9675
症状	-9.96777
250	-9.96784
散文	-9.96803
穆	-9.96805
风景	-9.96862
患	-9.96862
67	-9.96874
所在	-9.96907
信用	-9.9695
戒	-9.96967
家族	-9.97019
吉林	-9.97049
漏	-9.97069
场所	-9.97071
水稻	-9.97079
年轻	-9.97096
豆腐	-9.97099
牧	-9.97158
形状	-9.97159
韦	-9.9716
宁波	-9.97184
产量	-9.97191
国道	-9.97224
专科	-9.97252
稻	-9.97259
醋	-9.97275
2.	-9.97285
十六	-9.97304
本地	-9.97326
完美	-9.97351
更名为	-9.97421
名人	-9.97427
分配	-9.97511
呼吸	-9.97515
法学	-9.97518
是一款	-9.97562
扣	-9.9765
的基础上	-9.97739
缩	-9.97745
令人	-9.9779
照片	-9.97851
1959年	-9.97959
效益	-9.97972
禅	-9.98008
出了	-9.98011
百年	-9.98018
76	-9.98083
生存	-9.98101
高温	-9.98134
乔	-9.98137
一流	-9.98149
逃	-9.98221
取得了	-9.98242
输	-9.98275
本品	-9.98321
医生	-9.98333
朝鲜	-9.98348
音频	-9.98361
毗邻	-9.98361
证券	-9.98442
首都	-9.9854
冶金	-9.98559
”和“	-9.98562
含有	-9.98604
再次	-9.98608
2010	-9.98611
兆	-9.98668
十三	-9.98706
以前	-9.98707
建造	-9.98754
1960年	-9.98772
房屋	-9.98783
同样	-9.98787
符	-9.98811
剪	-9.98823
强化	-9.98845
1969年	-9.98927
办事处	-9.98941
垫	-9.98956
●	-9.98974
医科大学	-9.98984
密封	-9.98998
找	-9.99044
家居	-9.99047
权威	-9.99113
学历	-9.99122
59	-9.99125
老年	-9.99125
准确	-9.99146
处理器	-9.99152
闽	-9.99156
绘	-9.99249
崖	-9.9925
一生	-9.99252
。曾任	-9.9933
候	-9.99384
开发区	-9.99395
和平	-9.99438
种类	-9.99532
靖	-9.99545
事故	-9.99547
辅导	-9.9956
,先后	-9.99564
企业的	-9.99611
监控	-9.99671
卓	-9.99686
淀粉	-9.997
1966年	-9.9972
来源	-9.99743
辅	-9.99769
光学	-9.99782
改进	-9.99787
撰	-9.99792
考察	-9.99882
应该	-9.99907
刷	-9.99938
在全国	-9.99987
柯	-9.99993
作用。	-10.0002
过去	-10.0006
成了	-10.0011
幼儿	-10.0011
形成了	-10.0014
限制	-10.0016
发动机	-10.0018
案件	-10.0018
.12	-10.002
是个	-10.0023
车站	-10.0028
已有	-10.003
,并在	-10.0032
弄	-10.0032
黄河	-10.0032
凭借	-10.0039
群体	-10.004
适宜	-10.0048
餐厅	-10.0053
不要	-10.0056
寸	-10.0057
舟	-10.006
建于	-10.006
吹	-10.0062
危	-10.0064
1954年	-10.0067
氢	-10.0071
比例	-10.0072
灾	-10.0074
丛	-10.0076
农户	-10.0078
慧	-10.0081
覆	-10.0082
传统的	-10.0086
悬	-10.0087
进士	-10.0098
电路	-10.0101
哈尔滨	-10.0101
,提高	-10.0104
富有	-10.0107
钢铁	-10.0108
160	-10.0111
宅	-10.0119
捷	-10.0119
劲	-10.0123
斯特	-10.0125
动漫	-10.0131
1972年	-10.0136
型号	-10.0138
偶	-10.0142
前后	-10.0144
流量	-10.0144
心理学	-10.0145
高档	-10.0145
期刊	-10.0146
更多的	-10.0148
遍	-10.015
的服务	-10.0156
芽	-10.0158
寄	-10.0164
的故事	-10.0166
效应	-10.0168
标准化	-10.0171
当年	-10.0171
打印	-10.0172
股票	-10.0174
指定	-10.0176
四大	-10.0179
美丽的	-10.0181
黑龙江	-10.0187
,共	-10.0187
山县	-10.0188
扁	-10.0195
中外	-10.0196
,属	-10.0197
他们的	-10.0198
束	-10.02
清水	-10.0206
卫星	-10.0206
委托	-10.0208
最为	-10.0209
信誉	-10.021
竞赛	-10.021
电缆	-10.0225
:2	-10.023
同步	-10.0237
铸	-10.0238
直属	-10.0239
1年	-10.0239
角度	-10.024
付	-10.0242
后期	-10.0244
完整	-10.0254
液压	-10.0255
邑	-10.0255
毁	-10.026
平原	-10.0262
拔	-10.0263
等多种	-10.0267
0.1	-10.027
于一体的	-10.0271
69	-10.0271
流程	-10.0272
详细	-10.0273
阻	-10.0274
新建	-10.0286
办公室主任	-10.0288
币	-10.0289
危险	-10.0292
蜀	-10.0293
兼任	-10.0296
铭	-10.0299
为主的	-10.03
清晰	-10.0315
副主任	-10.0315
进程	-10.0316
录音	-10.0317
弟	-10.032
迈	-10.0332
4年	-10.0335
时间:	-10.0338
汪	-10.0344
犬	-10.0346
之前	-10.035
进修	-10.0351
导致	-10.0352
镜头	-10.0353
总结	-10.0354
焊	-10.0354
茶叶	-10.0358
扇	-10.0359
精英	-10.036
采购	-10.036
证明	-10.0364
筋	-10.0365
策	-10.037
边缘	-10.0373
计量	-10.0374
适	-10.0375
的方法	-10.0382
党的	-10.0385
另	-10.0385
。这	-10.0385
传奇	-10.0389
端口	-10.039
63	-10.0392
2007	-10.0393
只能	-10.0401
副主席	-10.0403
总部	-10.0407
生动	-10.0407
凝	-10.041
在北京	-10.0413
革	-10.0417
挑战	-10.0417
历史上	-10.0422
地位	-10.0424
▁“	-10.0426
学士	-10.043
87	-10.0434
机器	-10.0435
地区的	-10.0436
坚	-10.0439
姚	-10.044
巧	-10.0442
8个	-10.0443
气象	-10.0447
分辨率	-10.0448
爱好者	-10.0449
儒	-10.0452
害	-10.0462
透明	-10.0463
釉	-10.0464
母亲	-10.0466
有些	-10.0467
集团有限公司	-10.0471
77	-10.0475
73	-10.0475
2008	-10.0479
舞台	-10.0485
娜	-10.0492
部位	-10.0494
青春	-10.0494
系列产品	-10.0497
是一名	-10.05
寻找	-10.0505
现为	-10.0506
等等	-10.0508
规	-10.0509
测定	-10.0512
大桥	-10.0513
并不	-10.0514
总统	-10.0516
妇	-10.0518
辰	-10.0519
该校	-10.052
带领	-10.0522
公里。	-10.0522
找到	-10.0526
多功能	-10.0528
利益	-10.053
城县	-10.0535
真实	-10.0537
,促进	-10.0539
者。	-10.054
外观	-10.054
逐步	-10.0545
3.	-10.0546
饮食	-10.0551
的方式	-10.0553
均为	-10.0553
先进工作者	-10.0553
钙	-10.0555
110	-10.0555
曾在	-10.0558
输送	-10.0565
1974年	-10.0566
,却	-10.0574
卵	-10.0577
突	-10.0579
郁	-10.0579
助理	-10.058
的作用	-10.0583
0.3	-10.0583
类似	-10.0586
职称	-10.059
层次	-10.059
生成	-10.059
设计师	-10.0591
刑	-10.0597
累	-10.0598
彩色	-10.0599
1977年	-10.0601
里的	-10.0602
合格	-10.0603
外国	-10.0606
年龄	-10.0609
织	-10.0614
公安	-10.0614
79	-10.0617
书籍	-10.0617
叶片	-10.062
上级	-10.0627
下设	-10.0631
凌	-10.0631
超市	-10.0633
抱	-10.0639
爆	-10.0642
优良	-10.0644
规则	-10.0644
收录	-10.0646
赏	-10.0656
丙	-10.0657
避免	-10.0657
体现	-10.0657
,一般	-10.0658
的大	-10.0663
陆军	-10.0665
漫	-10.067
诗词	-10.0671
福州	-10.0678
答	-10.0681
康复	-10.0687
认可	-10.0687
胜利	-10.0688
89	-10.0692
原始	-10.0695
本身	-10.0697
贞	-10.07
中有	-10.07
了。	-10.0705
司法	-10.0706
内科	-10.0706
,号	-10.071
任教	-10.0714
分布于	-10.0716
视觉	-10.0716
钢琴	-10.0719
2年	-10.0719
力学	-10.0724
后的	-10.0725
的地方	-10.0732
战役	-10.0734
图案	-10.0735
道德	-10.0735
传感器	-10.0742
防止	-10.0742
配备	-10.0745
接收	-10.0745
信息化	-10.0748
1-	-10.075
北京大学	-10.0761
非洲	-10.0765
74	-10.0768
)、《	-10.077
活动,	-10.0778
普遍	-10.0778
数十	-10.078
撒	-10.0785
展开	-10.0804
发表论文	-10.0805
主要是	-10.0806
武装	-10.0808
形容	-10.081
里,	-10.0814
混凝土	-10.082
所谓	-10.0821
研究员	-10.0822
豫	-10.0825
培	-10.0825
船舶	-10.0826
倒入	-10.0827
有《	-10.0829
书·	-10.083
欢	-10.0833
桥梁	-10.0833
的大型	-10.0835
公寓	-10.0839
考核	-10.0839
自主	-10.0839
键盘	-10.0841
昂	-10.0853
荡	-10.0855
轩	-10.0856
便利	-10.0858
肖	-10.0859
中山	-10.0867
蒜	-10.087
桐	-10.0871
,亦	-10.0872
,字	-10.0872
第一次	-10.0875
飞行	-10.0876
芯	-10.0877
蜜	-10.088
东南亚	-10.0881
总公司	-10.0888
扶	-10.0891
高新技术企业	-10.0894
师生	-10.0897
窗口	-10.0898
亩。	-10.0902
分会	-10.0905
袭	-10.0905
邮	-10.0907
.07	-10.091
骑	-10.0911
焊接	-10.0913
病人	-10.0918
大街	-10.0922
慢性	-10.0924
岗位	-10.0927
离子	-10.0928
走向	-10.0928
1973年	-10.0931
租	-10.0931
企	-10.0931
在这里	-10.0931
斗争	-10.0941
在国内	-10.0944
百姓	-10.0947
我的	-10.0949
垂直	-10.0952
就可以	-10.0952
上市	-10.0953
贷款	-10.0957
但是	-10.096
,属于	-10.0966
意义	-10.0967
生产的	-10.0969
伪	-10.0973
1号	-10.0976
相似	-10.0976
环境优美	-10.0987
介	-10.099
超级	-10.0992
烂	-10.0992
了一个	-10.1003
流通	-10.1004
雾	-10.1006
5%	-10.1008
眉	-10.1013
激	-10.1015
用途	-10.1015
莉	-10.1017
一点	-10.1017
螺	-10.102
流动	-10.1033
,我	-10.1034
优秀的	-10.1035
坏	-10.1037
乡村	-10.1044
900	-10.1046
深度	-10.1051
两次	-10.1053
每一个	-10.1058
制成	-10.106
目的	-10.1061
抗日	-10.1062
苯	-10.1062
一批	-10.1064
县委	-10.1067
明确	-10.107
4.5	-10.1073
尿	-10.1075
年代	-10.1082
个体	-10.1084
5-	-10.1086
防护	-10.1087
抑制	-10.109
”是	-10.1093
性和	-10.1102
生产基地	-10.1105
1955年	-10.1106
别墅	-10.1106
周期	-10.1114
党委书记	-10.1115
互	-10.1117
主办	-10.112
慢	-10.1121
有:	-10.1122
绳	-10.1122
承办	-10.1124
84	-10.1128
工商	-10.1137
期间,	-10.1137
关节	-10.1146
技	-10.1148
→	-10.1149
县政府	-10.115
第1	-10.1152
()是	-10.1153
逐	-10.1157
2013年	-10.116
。“	-10.1161
蛋白质	-10.1164
出自	-10.1165
鑫	-10.1165
构建	-10.1171
旦	-10.1177
可见	-10.1179
资深	-10.1179
。曾	-10.1181
貌	-10.1182
廷	-10.1182
、省	-10.1184
耳机	-10.1186
阶	-10.1194
性质	-10.1196
厂房	-10.1198
岩石	-10.1198
琼	-10.1199
茨	-10.1202
正确	-10.1203
祠	-10.1203
3-	-10.1205
运动员	-10.1208
翁	-10.1209
邻	-10.1218
起义	-10.1218
叠	-10.123
清洗	-10.1231
在职	-10.1241
滨	-10.1241
古典	-10.1248
幸	-10.125
书记	-10.1251
下辖	-10.1262
仿	-10.1269
蒙古	-10.1271
狼	-10.1275
发育	-10.1281
十大	-10.1283
四年	-10.1284
转换	-10.1286
藻	-10.1289
温泉	-10.1297
修复	-10.1299
以为	-10.1301
鳞	-10.1303
庵	-10.1307
订	-10.1307
弦	-10.1307
系统、	-10.1308
椒	-10.1312
局副局长	-10.1315
建筑面积	-10.1316
温州	-10.1322
健身	-10.1325
常见	-10.1327
交通便利	-10.1331
企业管理	-10.1331
初期	-10.1335
下属	-10.1338
接待	-10.1343
褐色	-10.1345
83	-10.1346
社团	-10.1347
渠	-10.1347
翔	-10.1351
优秀教师	-10.1354
一部	-10.1357
,加	-10.1358
荷	-10.1358
热情	-10.1361
免疫	-10.1362
的影响	-10.1367
间,	-10.1368
吐	-10.1371
每一	-10.1371
葡萄	-10.1371
---	-10.1374
,已	-10.1379
男子	-10.1383
枣	-10.1388
到达	-10.1391
感觉	-10.1392
缓	-10.1394
春秋	-10.1395
二年	-10.1398
浙	-10.1401
机电	-10.1401
茅	-10.1401
治理	-10.1402
美食	-10.1402
1952年	-10.1411
活性	-10.1413
灵活	-10.1415
供应商	-10.1418
兴趣	-10.1424
阀门	-10.1426
魔法	-10.1427
膏	-10.143
养生	-10.1431
鉴	-10.1434
业绩	-10.1436
1961年	-10.1441
农业大学	-10.1446
卧	-10.1446
,地处	-10.1449
映	-10.145
模块	-10.1451
颇	-10.1452
天地	-10.1452
唯	-10.1456
各大	-10.1458
1950年	-10.1459
影像	-10.146
飘	-10.1462
榜	-10.1466
转移	-10.1467
是“	-10.1469
有一个	-10.147
职务	-10.1476
电视剧	-10.1477
驱	-10.1479
操作系统	-10.1479
臂	-10.1486
日常	-10.1486
商贸	-10.1488
立体	-10.1495
涂料	-10.1496
快捷	-10.1497
血管	-10.1498
公社	-10.1507
两年	-10.1508
唇	-10.1509
各级	-10.1515
炸	-10.1531
出土	-10.1544
上有	-10.1544
安县	-10.1545
篇,	-10.1546
魅力	-10.1547
适用	-10.1555
拨	-10.1557
培育	-10.1571
疑	-10.1574
从而	-10.1574
一下	-10.1574
不过	-10.158
艳	-10.158
秘书长	-10.1582
当前	-10.1587
打开	-10.1587
活动。	-10.1589
地图	-10.1593
醉	-10.1594
党委	-10.1599
均有	-10.1599
讨论	-10.1603
等职。	-10.1604
际	-10.1606
一场	-10.1607
1.8	-10.1607
的时间	-10.1607
国土面积	-10.1608
落实	-10.1609
办法	-10.1611
4000	-10.1612
教职工	-10.1617
的企业	-10.1622
享有	-10.1623
腺	-10.1623
专著	-10.163
清洁	-10.163
的设计	-10.163
第七	-10.1632
一定的	-10.1634
老人	-10.1635
崔	-10.1636
经理	-10.1638
高级工程师	-10.1639
全区	-10.1642
栏目	-10.1647
刺激	-10.165
做到	-10.1652
奖。	-10.1653
命名	-10.1655
犯罪	-10.1658
〕	-10.1659
92	-10.166
容量	-10.1665
盗	-10.1665
合肥	-10.1665
丛书	-10.1666
意见	-10.167
1946年	-10.167
第二届	-10.1671
局长	-10.1671
炼	-10.1672
变成	-10.1673
旋转	-10.1675
县级	-10.1675
奔	-10.1676
异常	-10.1677
凤凰	-10.1678
医师	-10.1681
串	-10.1682
葛	-10.1684
代码	-10.1686
0.2	-10.1686
刊物	-10.1692
耶	-10.1692
荷兰	-10.1692
变形	-10.1698
禄	-10.17
,放入	-10.17
苏联	-10.1701
车间	-10.1702
渐	-10.1704
弘	-10.1708
特色的	-10.1709
唐代	-10.1709
怒	-10.1711
图形	-10.1718
识别	-10.172
电动	-10.1723
摆	-10.1724
维生素	-10.1724
满意	-10.1725
鄂	-10.1725
饭店	-10.1725
校区	-10.1727
仕	-10.173
冈	-10.1733
全体	-10.1742
为客户提供	-10.1742
中国科学院	-10.1743
原子	-10.1749
年),	-10.175
耕	-10.175
探讨	-10.1752
仰	-10.1764
128	-10.1765
将其	-10.1766
思路	-10.1767
给予	-10.1768
房间	-10.177
障碍	-10.177
旗下	-10.1773
更是	-10.1775
酱油	-10.1775
▁·	-10.1786
货币	-10.1787
状,	-10.1791
全国各地	-10.1792
赶	-10.1793
缝	-10.1794
裕	-10.1797
:3	-10.1801
夺	-10.1804
家长	-10.1807
1971年	-10.1812
雕刻	-10.1815
理事	-10.182
亿元,	-10.182
排列	-10.1821
功效	-10.1825
辣	-10.1826
离开	-10.1826
蒋	-10.1827
清华大学	-10.1827
花卉	-10.183
侍	-10.1831
秉承	-10.1838
管理局	-10.1838
血液	-10.1838
4-	-10.184
个行政村	-10.1842
带有	-10.1843
加快	-10.1844
》的	-10.1844
抚	-10.1847
指数	-10.1847
汝	-10.1847
帖	-10.1849
多年的	-10.1854
粤	-10.1855
名为	-10.1855
涛	-10.1855
堤	-10.1856
赖	-10.186
较大	-10.1865
2012	-10.1866
交换	-10.1867
内外	-10.1869
围绕	-10.187
都会	-10.187
霸	-10.1872
硕士学位	-10.1873
.09	-10.1873
被称为	-10.1874
果实	-10.1875
》和《	-10.1876
阔	-10.1877
过滤	-10.1879
无限	-10.188
午	-10.1883
,形成	-10.1885
武术	-10.1899
组成。	-10.1899
子,	-10.1899
饲料	-10.1899
千年	-10.1906
出来的	-10.1911
配有	-10.1921
高等教育	-10.1921
瘤	-10.1933
》获	-10.1934
重建	-10.1934
鹏	-10.1936
搜索	-10.1936
双方	-10.1936
回:“	-10.1937
师范学院	-10.1937
市委	-10.194
相信	-10.1943
感受	-10.1947
蓝色	-10.195
已成为	-10.1951
耀	-10.1952
延伸	-10.1952
邀请	-10.1953
公主	-10.1954
扫	-10.1958
昆虫	-10.1959
回到	-10.196
泊	-10.196
乾隆	-10.1966
主动	-10.1966
留学	-10.1971
俄	-10.1973
▁●	-10.1975
罗马	-10.1978
立足	-10.1979
精心	-10.1981
一段	-10.1982
小儿	-10.1983
法规	-10.1988
小组	-10.199
管辖	-10.1991
不少	-10.1992
材质	-10.1993
宴	-10.1994
多人	-10.1996
档	-10.1997
悲	-10.1997
棋	-10.1999
1953年	-10.2
芬	-10.2004
贼	-10.2007
三级	-10.2009
足球俱乐部	-10.2009
:《	-10.2009
武汉市	-10.2012
绝对	-10.2013
结束	-10.2014
预测	-10.2016
身份	-10.2028
供电	-10.2033
闸	-10.2038
苹果	-10.2039
古城	-10.2039
让人	-10.2039
评论	-10.2041
):	-10.2046
雕塑	-10.2049
煤炭	-10.2051
栏	-10.2058
原创	-10.2059
服饰	-10.2077
贫	-10.2082
商场	-10.2082
普及	-10.2083
』	-10.2084
。本书	-10.2087
昆明	-10.2088
倡导	-10.2088
枯	-10.2091
村、	-10.2093
侠	-10.2094
脊	-10.2097
做出	-10.2097
返	-10.2098
修改	-10.21
为主。	-10.21
损	-10.2101
事物	-10.2102
脂肪	-10.2104
驱动	-10.2106
▁该	-10.2107
若干	-10.2111
洁	-10.2112
下的	-10.2115
范围内	-10.2117
。现	-10.2118
加盟	-10.212
188	-10.2121
妻	-10.2125
廉	-10.2132
一代	-10.2133
成立的	-10.2136
也可以	-10.2137
监察	-10.2137
在《	-10.214
在美国	-10.2141
94	-10.2145
即可。	-10.2145
0.8	-10.2146
成立了	-10.2154
绕	-10.2154
,实现	-10.2158
永远	-10.2158
多篇	-10.2159
辖区	-10.216
国防	-10.2169
虹	-10.2171
窝	-10.2173
弃	-10.2174
兔	-10.2175
冻	-10.2179
损失	-10.2184
耗	-10.2184
烤	-10.219
”(	-10.2191
芝	-10.2196
高考	-10.2197
华东	-10.22
对方	-10.22
三国	-10.2201
绣	-10.2202
特种	-10.2205
平方公里	-10.2206
审核	-10.2206
添加	-10.2207
多数	-10.2208
,此	-10.2209
一片	-10.221
华人	-10.2214
菊	-10.2217
疾	-10.2218
确保	-10.222
完成了	-10.2224
秘	-10.2226
基部	-10.2227
货物	-10.2228
▁5.	-10.2232
支撑	-10.2232
遭	-10.2234
往往	-10.224
太平	-10.2241
手动	-10.2241
悦	-10.2245
的各种	-10.2246
每日	-10.2248
慈	-10.2251
观念	-10.2253
//	-10.2255
师范	-10.2257
名:	-10.226
2009	-10.2262
▁5、	-10.2263
喜爱	-10.2268
磷	-10.2269
接近	-10.2275
您的	-10.2276
故障	-10.2277
介质	-10.2277
支付	-10.2278
不到	-10.228
220	-10.2284
面粉	-10.2285
附属	-10.2286
,距离	-10.2289
引起的	-10.2291
,经过	-10.2294
密码	-10.2301
稳	-10.2301
亿元	-10.2303
人力资源	-10.2309
监管	-10.2311
一只	-10.2312
大气	-10.2312
空军	-10.2315
圆形	-10.2319
冲击	-10.2322
稀	-10.2326
。而	-10.2328
辣椒	-10.2329
总经理	-10.233
_	-10.2335
奈	-10.2338
脆	-10.2352
部长	-10.2354
,加入	-10.2356
蝶	-10.2358
衰	-10.2359
十四	-10.2359
▁学校	-10.2363
里面	-10.2363
选用	-10.2369
丧	-10.237
以其	-10.2373
-01	-10.2373
职责	-10.2373
宪	-10.2375
汉语	-10.2376
查询	-10.238
等领域	-10.2381
党组书记	-10.2384
柴	-10.2386
▁支持	-10.2386
锐	-10.2387
少女	-10.2389
淮	-10.2398
有限公司是	-10.2402
冷却	-10.2402
93	-10.2406
称为“	-10.2407
由此	-10.2407
彦	-10.2413
技术、	-10.2413
艺人	-10.2414
吸引	-10.2416
组成,	-10.2416
表彰	-10.2421
的同时,	-10.2421
感情	-10.2423
消化	-10.2435
也不	-10.2437
(-)	-10.2438
坦	-10.2444
叔	-10.2445
宇宙	-10.2447
定义	-10.2448
绍	-10.2453
渣	-10.2453
电信	-10.2454
详	-10.2454
纽约	-10.2454
五个	-10.2458
朴	-10.246
年产	-10.2464
金奖	-10.2467
屈	-10.2475
拼	-10.2478
浓度	-10.248
(如	-10.2482
性格	-10.2487
之路	-10.2496
诏	-10.2499
招生	-10.25
开发的	-10.2505
截	-10.2506
来到	-10.2506
不知	-10.251
▁*	-10.2516
营造	-10.2517
相邻	-10.2526
工作人员	-10.2527
约1	-10.2528
完整的	-10.2529
分管	-10.2539
操	-10.2542
”;	-10.2547
十一	-10.2548
畅	-10.2552
”“	-10.2552
纱	-10.2553
五金	-10.2554
少数民族	-10.2556
拌	-10.2556
1.6	-10.2559
逻辑	-10.2561
泛	-10.2562
关键	-10.2562
每次	-10.2563
闪	-10.2565
我公司	-10.2565
分枝	-10.2568
1939年	-10.2569
今天	-10.2572
""	-10.2577
|	-10.2577
糊	-10.258
一所	-10.2593
仔	-10.2595
接壤	-10.2596
副秘书长	-10.2596
急性	-10.2596
先进个人	-10.2598
纳米	-10.2601
服务,	-10.2601
法制	-10.2619
曰:“	-10.262
咖啡	-10.2622
洛阳	-10.2623
该村	-10.2624
奶	-10.2628
填	-10.2631
形,	-10.2635
傅	-10.2642
相连	-10.2642
每天	-10.2644
薛	-10.2646
女人	-10.265
越南	-10.2653
裁	-10.2654
教室	-10.2657
摄	-10.2658
进出口	-10.2665
可供	-10.2667
名家	-10.2668
蜂	-10.2669
率先	-10.2671
生理	-10.2671
管理工作	-10.2674
拖	-10.2675
别人	-10.2677
是一所	-10.2684
情报	-10.2685
谦	-10.2687
小麦	-10.2688
服务中心	-10.269
第3	-10.2695
村人。	-10.2697
远程	-10.2699
男女	-10.27
发动	-10.2701
.03	-10.2702
▁主要	-10.2703
发电	-10.2704
葬	-10.2705
成人	-10.2705
墩	-10.2707
妇科	-10.2708
签	-10.2711
,现有	-10.2711
大酒店	-10.2712
中心、	-10.2714
1.0	-10.2719
传》	-10.2721
处处长	-10.2724
後	-10.2725
6年	-10.2725
首家	-10.2725
太阳能	-10.2726
中医药	-10.2737
港口	-10.2746
这样的	-10.2748
虚拟	-10.2748
报警	-10.275
传递	-10.2754
有“	-10.2755
4.	-10.2755
跃	-10.2757
先后在	-10.2758
铃	-10.2758
雀	-10.2759
严谨	-10.2767
分享	-10.2768
颗	-10.2771
的理想	-10.2772
继承	-10.2774
仪表	-10.2775
典型	-10.2777
税收	-10.2778
中小企业	-10.2779
总人口	-10.2779
新产品	-10.2783
题材	-10.2784
氯	-10.2784
讲述	-10.2785
很大	-10.2786
界面	-10.2788
最好的	-10.2788
汽	-10.2789
熙	-10.279
其实	-10.2793
昆	-10.2793
球队	-10.2794
码头	-10.2796
2011	-10.2796
1945年	-10.2796
技术人员	-10.2798
防水	-10.28
创始人	-10.28
1500	-10.2803
硬件	-10.2806
02	-10.2806
观测	-10.2806
讲述了	-10.2813
更为	-10.2819
语文	-10.282
2.4	-10.282
学家	-10.2821
1940年	-10.2823
缸	-10.2827
撰写	-10.2828
61	-10.283
强调	-10.2831
终端	-10.2832
(2)	-10.2838
钩	-10.2839
,还有	-10.2841
不再	-10.2842
差异	-10.2843
予	-10.2851
泰国	-10.2854
科普	-10.2854
猎	-10.2857
批发	-10.2859
05	-10.286
热带	-10.2861
辑	-10.2863
削	-10.2867
欣	-10.2868
大力	-10.2869
称“	-10.2871
,特别是	-10.2874
太平洋	-10.2878
工会	-10.2882
环境保护	-10.2883
制药	-10.2884
兄	-10.2885
有关部门	-10.2887
只要	-10.2887
市人民政府	-10.2887
恨	-10.2887
隶属	-10.2888
。她	-10.2892
奉献	-10.2895
斤	-10.2896
地铁	-10.2896
振动	-10.2896
财富	-10.2898
1938年	-10.2898
埋	-10.2903
产生的	-10.2906
锅炉	-10.2908
设定	-10.2908
产品。	-10.2913
青岛市	-10.2914
发出	-10.2917
深受	-10.2918
促	-10.2922
高达	-10.2923
手法	-10.2927
涌	-10.2931
梦想	-10.2932
铅	-10.2935
100%	-10.2939
眼睛	-10.294
煤矿	-10.294
(原	-10.2941
水果	-10.2943
喝	-10.2944
比喻	-10.2945
厂商	-10.2949
新颖	-10.2952
,长	-10.2956
阿尔	-10.2958
.08	-10.2962
氮	-10.2963
“”	-10.2965
发起	-10.2966
简介	-10.2966
集》	-10.2968
社会科学	-10.2972
油画	-10.2976
同年	-10.2976
些	-10.2981
练习	-10.2986
地产	-10.2987
物品	-10.2988
肌肤	-10.2988
政协委员	-10.2996
数控	-10.2996
长安	-10.2998
。当	-10.2999
展现	-10.2999
挑	-10.3003
游客	-10.3005
宁夏	-10.3013
肯	-10.3014
2004	-10.3019
礼品	-10.3021
睡	-10.3022
退休	-10.3023
新城	-10.303
群岛	-10.303
碟	-10.3031
有效的	-10.3033
兰州	-10.3033
营业	-10.3034
徽	-10.3035
器材	-10.3035
允许	-10.3036
科研项目	-10.3037
呈现	-10.3042
伤害	-10.3042
夷	-10.3044
真空	-10.3052
赢得	-10.3053
澄	-10.3055
所有的	-10.3056
极为	-10.3064
唯一的	-10.3065
管理和	-10.3066
愈	-10.3069
料酒	-10.3076
演奏	-10.3079
中国人民解放军	-10.3079
晨	-10.3079
素质教育	-10.3082
一块	-10.3082
7个	-10.3083
。我们	-10.3085
兴建	-10.3086
领先	-10.3088
欧美	-10.3088
娘	-10.3091
召开	-10.3095
铸造	-10.3096
厂家	-10.3096
考古	-10.3097
1934年	-10.3099
局部	-10.3103
讯	-10.3107
左右,	-10.3111
悟	-10.3112
梯	-10.3113
总建筑面积	-10.3114
观赏	-10.3115
、高	-10.3115
。据	-10.3115
0.6	-10.3117
和其他	-10.312
硕士研究生	-10.3124
乾	-10.3125
摇	-10.3127
支队	-10.3132
依靠	-10.3138
的作品	-10.3139
1933年	-10.314
路线	-10.3141
腐	-10.3143
霜	-10.3143
修建	-10.3143
提出了	-10.3143
学、	-10.3146
声音	-10.3146
)和	-10.3152
的形式	-10.3153
全方位	-10.3156
性、	-10.3158
,常	-10.3158
,就是	-10.3158
补充	-10.3159
全新的	-10.3162
那么	-10.3164
,学校	-10.3167
拱	-10.3168
,如果	-10.3169
抵	-10.317
风景区	-10.3171
-6	-10.3174
“三	-10.3174
2.2	-10.3174
人群	-10.3179
体内	-10.3181
教授。	-10.3182
一系列	-10.3182
大约	-10.3185
口腔	-10.3188
趣	-10.319
2005	-10.3192
有所	-10.3194
中原	-10.3194
杰出	-10.3203
清朝	-10.3205
实业	-10.3207
沿海	-10.3209
2.1	-10.321
全新	-10.3211
白糖	-10.3218
疗效	-10.3219
130	-10.322
2006	-10.3222
肿	-10.3224
使用。	-10.3229
编委	-10.3229
-4	-10.3229
户,	-10.3233
旅行	-10.3234
骨干	-10.3237
定期	-10.3238
疼痛	-10.3238
棱	-10.324
华北	-10.3241
和发展	-10.3241
万平方米	-10.3243
忍	-10.3245
厚度	-10.3252
警察	-10.3258
在一起	-10.3258
释放	-10.3258
百余	-10.3258
旱	-10.3263
0.4	-10.3265
使用的	-10.3267
搅拌	-10.3268
。现为	-10.327
▁本	-10.3273
半岛	-10.3274
保留	-10.3278
东莞	-10.328
主任医师	-10.3284
消除	-10.3291
。后	-10.3291
网友	-10.3293
帽	-10.3294
莎	-10.3297
目录	-10.3299
撤	-10.3302
利润	-10.3308
较高	-10.3309
胡椒粉	-10.3312
盈	-10.3319
工作室	-10.3327
思考	-10.3329
突然	-10.3329
勾	-10.3329
之处	-10.333
草原	-10.333
俱	-10.333
“中国	-10.3332
1.4	-10.3333
五十	-10.3337
原来	-10.3338
作出	-10.3339
召	-10.3341
辈	-10.3343
()、	-10.3344
弹性	-10.3346
西北部	-10.3354
报刊	-10.3354
真诚	-10.3357
取出	-10.3357
模特	-10.3357
一类	-10.3359
惟	-10.3359
流传	-10.3361
1人,	-10.3368
东南部	-10.3371
出来	-10.3372
经验,	-10.3375
院长	-10.3376
雁	-10.3376
最好	-10.3376
历代	-10.3376
尝	-10.3376
胺	-10.3378
():	-10.3383
钦	-10.3384
成型	-10.3386
涉	-10.339
平米	-10.3392
ー	-10.34
巴黎	-10.34
▁5	-10.3401
1.3	-10.3401
\	-10.3403
蒲	-10.3404
主要有	-10.3404
邵	-10.3413
村,	-10.3418
役	-10.3419
入党	-10.3419
酥	-10.3419
服务的	-10.3422
风情	-10.3424
烫	-10.3428
情感	-10.343
咏	-10.3431
生活的	-10.3431
匀	-10.3432
作物	-10.3435
大楼	-10.3436
哲	-10.3438
中小学	-10.3439
诉	-10.344
专注于	-10.3441
。”《	-10.3442
十佳	-10.3444
总投资	-10.3446
,根据	-10.3456
景点	-10.3461
现已	-10.3463
1951年	-10.3473
税务	-10.3474
穷	-10.3475
的精神	-10.3478
弟子	-10.3478
新兴	-10.348
1941年	-10.3481
售	-10.3482
牺牲	-10.3483
迟	-10.3483
语音	-10.3484
赣	-10.3488
带动	-10.3488
1942年	-10.3489
朵	-10.349
共和国	-10.3491
箭	-10.3492
万平方米,	-10.3494
消息	-10.3497
扫描	-10.3497
外形	-10.3502
巴西	-10.3503
狮	-10.3504
主演	-10.3504
理念,	-10.3518
无锡	-10.3518
味精	-10.352
教育教学	-10.3521
出版社出版	-10.3522
长春	-10.3523
储	-10.3524
是我们	-10.3527
颂	-10.3527
.01	-10.3529
1200	-10.3529
7.5	-10.3531
爽	-10.3533
董事长	-10.3533
勺	-10.3541
1967年	-10.3543
帝国	-10.3544
设备、	-10.3547
上述	-10.355
绵	-10.3551
则是	-10.3552
东莞市	-10.3553
神秘	-10.3554
加速	-10.3557
10-	-10.3561
祝	-10.3561
的要求	-10.3564
传承	-10.3567
细菌	-10.3573
热爱	-10.3574
上面	-10.3576
戏曲	-10.3577
泪	-10.3577
的核心	-10.3577
的关系	-10.3577
所在地	-10.3579
两人	-10.358
蟹	-10.3584
等职	-10.3588
丑	-10.3588
在于	-10.3592
螺旋	-10.3595
预算	-10.3601
伞	-10.3603
导弹	-10.3608
上升	-10.3609
发送	-10.3617
净化	-10.362
熔	-10.3621
收费	-10.3626
三种	-10.3632
贯	-10.3634
1948年	-10.3637
精选	-10.3644
家乡	-10.3647
新技术	-10.365
,采用	-10.3654
姑	-10.3657
研究》	-10.3657
毕业生	-10.3658
繁荣	-10.3659
瘦	-10.3661
相关的	-10.3663
新区	-10.3664
难以	-10.3667
,甚至	-10.3667
大量的	-10.3671
成都市	-10.3677
理工大学	-10.3678
起,	-10.368
海内外	-10.3681
文明单位	-10.3681
醒	-10.3689
中等	-10.3691
管理人员	-10.3693
ㄧ	-10.3694
商家	-10.3695
男性	-10.3696
专业委员会	-10.3705
主要用于	-10.3708
多少	-10.3719
伴	-10.372
途径	-10.3723
同学	-10.3726
任职	-10.3729
环节	-10.3729
。本	-10.3731
诊	-10.3731
固体	-10.3732
1944年	-10.3734
扬州	-10.3735
析	-10.3739
浇	-10.374
弓	-10.374
监督管理	-10.3745
。这种	-10.3745
般	-10.3746
留下	-10.3747
主机	-10.375
王朝	-10.3753
太子	-10.3755
遇到	-10.3755
,而是	-10.3756
实体	-10.376
有了	-10.3768
服务于	-10.3768
评审	-10.3769
航天	-10.3772
炖	-10.3773
▁产品	-10.3773
1项	-10.3774
夫人	-10.3776
农场	-10.3778
后勤	-10.3779
物资	-10.378
党组成员	-10.378
领先的	-10.378
姬	-10.3781
使得	-10.3783
学名	-10.3786
相应的	-10.3787
的内容	-10.3787
篇。	-10.3788
1.1	-10.3792
,同年	-10.3793
积累	-10.3793
涵盖	-10.3794
,最后	-10.3794
逢	-10.3795
是美国	-10.3802
六年	-10.3805
灰色	-10.3806
八年	-10.3807
前往	-10.3808
等行业	-10.3809
。因	-10.3809
市民	-10.3814
等)	-10.3814
伍	-10.3815
穿越	-10.3816
.10	-10.3819
史上	-10.3821
县人民政府	-10.3823
密切	-10.3824
尹	-10.3825
系数	-10.3825
帅	-10.3827
法院	-10.3831
味道	-10.3832
常务	-10.3834
压缩	-10.3839
理想	-10.384
享	-10.3842
抢	-10.3846
/2	-10.3848
氟	-10.3848
祖国	-10.3854
户外	-10.3857
责	-10.3858
属性	-10.3859
秘密	-10.3859
×1	-10.3859
损伤	-10.3862
以上的	-10.3862
随机	-10.3868
县人。	-10.3871
01	-10.3876
农产品	-10.3877
安全生产	-10.3878
,不断	-10.3879
记》	-10.3879
专业生产	-10.3881
国王	-10.3883
杭	-10.3883
常规	-10.3887
毫米,	-10.3888
遥	-10.3897
构	-10.3898
周年	-10.3899
颁发的	-10.39
03	-10.3905
活力	-10.3907
企事业单位	-10.3912
多名	-10.3914
的问题	-10.3915
禽	-10.3916
:4	-10.3916
商城	-10.3916
忘	-10.3924
幻	-10.3934
酷	-10.3934
作曲	-10.3941
河流	-10.3941
公布	-10.3942
花生	-10.3945
腹部	-10.3946
疗法	-10.3949
博士生导师	-10.3949
侨	-10.3954
专项	-10.3955
第八	-10.3955
桶	-10.3955
招聘	-10.3958
弥	-10.3959
党支部	-10.396
凶	-10.3963
诞生	-10.3964
外语	-10.3965
!”	-10.3965
浴	-10.3966
长约	-10.3968
重要参数	-10.397
爱国	-10.3971
民营企业	-10.3971
。唐	-10.3972
溢	-10.3972
首席	-10.3975
喻	-10.3976
统治	-10.3978
越来越	-10.398
去世	-10.3981
今年	-10.3984
心灵	-10.3984
本着	-10.3985
矿山	-10.3988
▁(2)	-10.3989
辟	-10.3989
000	-10.3992
,曾任	-10.3997
多元化	-10.3997
改编	-10.4001
6000	-10.4001
场地	-10.4003
书院	-10.4007
特别是	-10.4008
81	-10.401
(1)	-10.401
商会	-10.4012
默	-10.4014
的技术	-10.4016
博士后	-10.402
趋势	-10.402
琳	-10.402
注入	-10.4021
书中	-10.4022
实现了	-10.4025
互相	-10.4025
内的	-10.4027
元件	-10.403
繁殖	-10.4031
如今	-10.4032
科学家	-10.4033
斩	-10.4035
东北部	-10.4036
活跃	-10.4036
火山	-10.4038
中国共产党	-10.4038
树脂	-10.4039
陷	-10.4042
,占地面积	-10.4042
物业	-10.4048
1937年	-10.4053
考虑	-10.4053
康熙	-10.4053
高品质	-10.4054
7年	-10.4054
科科长	-10.4055
资助	-10.4055
-5	-10.4055
响应	-10.4055
评选	-10.4056
》一书	-10.406
身上	-10.4062
村庄	-10.4063
紧密	-10.4066
矿物	-10.4068
▁我们	-10.4075
家园	-10.4079
街道办事处	-10.4082
最多	-10.4088
的教学	-10.4088
观音	-10.4089
巡	-10.4091
×2	-10.4092
潮流	-10.4093
西南部	-10.4094
设计,	-10.4094
联赛	-10.4095
副校长	-10.4098
1%	-10.4099
东京	-10.4103
长期从事	-10.4105
描述:	-10.4106
即将	-10.4107
公益	-10.4107
处,	-10.4108
生产企业	-10.411
燃烧	-10.4124
前沿	-10.4125
十余	-10.4125
模范	-10.4128
返回	-10.4128
新鲜	-10.4129
▁中国	-10.4131
口味	-10.4132
俗称	-10.4132
▁-	-10.4132
地点	-10.4132
巢	-10.4133
)人。	-10.4134
毅	-10.4138
内有	-10.4138
国际化	-10.4138
知识产权	-10.4139
防御	-10.414
机会	-10.414
长城	-10.4141
危害	-10.4144
物体	-10.4145
技术和	-10.4147
下面	-10.4147
化的	-10.4147
了“	-10.4148
。如	-10.4148
国立	-10.415
婆	-10.415
江县	-10.4152
凭	-10.4154
停车场	-10.4156
太原	-10.4158
,这是	-10.4161
企业家	-10.4163
屡	-10.4165
轨	-10.4168
县人,	-10.4168
引领	-10.4169
验收	-10.4173
让你	-10.4176
专业从事	-10.4176
浑	-10.4178
困	-10.4178
领导下	-10.418
援	-10.4182
学生的	-10.4185
炭	-10.4188
筹	-10.4188
石化	-10.4192
,是中国	-10.4194
妃	-10.4196
不久	-10.4197
哀	-10.4197
一体化	-10.42
二次	-10.421
彻底	-10.4212
近代	-10.4212
男汉族	-10.4215
本公司	-10.4215
。历任	-10.4215
曲线	-10.4217
宋代	-10.422
九年	-10.4222
事,	-10.4227
方言	-10.4227
狱	-10.4229
宣布	-10.423
逊	-10.4234
竖	-10.4235
,努力	-10.4235
(即	-10.4236
中国古代	-10.4237
建筑物	-10.4237
学位	-10.4239
黔	-10.4242
毕	-10.4244
山地	-10.4245
市中心	-10.4246
总是	-10.4249
精华	-10.4252
和社会	-10.4253
紫色	-10.4253
来说	-10.4254
业有限公司	-10.4255
淋	-10.4256
少数	-10.4256
风味	-10.4257
番	-10.4259
零售	-10.4261
长,	-10.4262
其中农业人口	-10.4262
正是	-10.4262
方式:	-10.4265
下降	-10.4271
新华	-10.4272
之中	-10.4274
最初	-10.4276
巨大的	-10.4278
殷	-10.428
忌	-10.4282
拌匀	-10.4283
执法	-10.4283
地上	-10.4283
化妆品	-10.4288
县人	-10.4288
谭	-10.4289
就读于	-10.429
名字	-10.4294
十七	-10.4295
绥	-10.4296
教练	-10.4298
唱片	-10.4299
.06	-10.43
篮球	-10.4302
猛	-10.4306
仍然	-10.4309
香味	-10.4319
』『	-10.4324
》杂志	-10.4326
文化艺术	-10.4327
5.5	-10.4328
个性化	-10.4331
广播电视	-10.4331
教学楼	-10.4336
郊	-10.4338
踏	-10.4341
08	-10.4345
美观	-10.4345
区内	-10.4347
错误	-10.4352
条件下	-10.4352
地域	-10.4354
光绪	-10.4354
研究成果	-10.4355
顺利	-10.4355
叫做	-10.4357
,中共党员,	-10.4358
上网	-10.4359
选手	-10.4359
恭	-10.436
1943年	-10.4362
低温	-10.4362
,历任	-10.4364
辨	-10.4367
华侨	-10.4372
得以	-10.4373
在上海	-10.4374
专业化	-10.4377
峡	-10.4377
把握	-10.4378
〔	-10.4382
临时	-10.4382
仪式	-10.4388
历程	-10.4388
的变化	-10.4389
140	-10.439
猴	-10.4392
申报	-10.4392
是经	-10.4394
8年	-10.4394
的时候,	-10.4396
特定	-10.4397
瑞士	-10.4397
71	-10.44
最低	-10.4402
为主要	-10.4405
法律法规	-10.4407
南昌	-10.4411
190	-10.4414
制冷	-10.4416
希腊	-10.442
枫	-10.442
乐器	-10.4422
创办于	-10.4422
1947年	-10.4426
怨	-10.443
生物学	-10.443
精细	-10.4431
友好	-10.4431
凹	-10.4434
相应	-10.4434
分解	-10.4437
加以	-10.4437
器、	-10.4439
7-	-10.444
尺寸:	-10.444
怎样	-10.4443
0.7	-10.4444
保温	-10.4449
四周	-10.445
顶端	-10.4451
基金会	-10.4452
分校	-10.4456
市场的	-10.4459
红军	-10.4463
渗	-10.4464
教学工作	-10.4465
盾	-10.4468
钱,	-10.4473
国有	-10.4474
宁县	-10.4477
06	-10.4477
术语	-10.4481
盐业	-10.4481
第三届	-10.4482
驾驶	-10.4482
一道	-10.4488
日军	-10.449
莲花	-10.4492
足球俱乐部。	-10.4501
の	-10.4503
控股	-10.4504
兼职	-10.4507
合作伙伴	-10.4507
承诺	-10.4509
04	-10.4512
山脉	-10.4512
甸	-10.4517
博士学位	-10.4522
菩萨	-10.4522
工作中	-10.4522
少量	-10.4526
轨道	-10.4527
杉	-10.453
。同时	-10.4531
溶液	-10.4532
也可	-10.454
海南省	-10.4542
担	-10.4543
判断	-10.4543
林地	-10.4544
气息	-10.4544
拥	-10.4546
经济开发区	-10.4547
。此外,	-10.455
级别	-10.4552
筛	-10.4553
一张	-10.4554
(公元	-10.4558
温馨	-10.4561
说:“	-10.4562
澳门	-10.4562
妮	-10.4563
忧	-10.4565
化、	-10.4565
牵	-10.4565
320	-10.4566
的目标	-10.4567
滞	-10.4568
乃至	-10.4571
,负责	-10.4573
,遂	-10.4575
遗传	-10.4578
锌	-10.4578
为本	-10.4579
欣赏	-10.4581
教研	-10.4582
业界	-10.4582
1932年	-10.4584
获取	-10.4587
色泽	-10.4591
木材	-10.4593
妖	-10.4594
隧道	-10.4601
举办的	-10.4602
体积	-10.4602
问题,	-10.4603
2002	-10.4605
工业园区	-10.4606
态度	-10.4606
挖掘	-10.461
外部	-10.4615
稳定性	-10.4617
关心	-10.4617
脾	-10.4618
牛肉	-10.462
数百	-10.4621
酯	-10.4622
》,《	-10.4623
大多数	-10.4625
王国	-10.4626
都能	-10.4628
平台,	-10.4628
立即	-10.4628
白云	-10.4631
幢	-10.4632
开业	-10.4632
公元前	-10.4634
驾	-10.4637
.11	-10.4638
宗旨	-10.4638
细腻	-10.4641
冀	-10.4643
当然	-10.4647
人民币	-10.465
,又名	-10.4652
接口:	-10.4654
慕	-10.4659
交界	-10.4663
平方米。	-10.4664
自幼	-10.4664
-9	-10.4667
优良的	-10.4669
管理系统	-10.467
遣	-10.467
:1.	-10.4674
那个	-10.4674
廊	-10.4677
不用	-10.468
区别	-10.468
2.8	-10.4682
2.3	-10.4686
辆	-10.4686
协作	-10.4693
典雅	-10.4694
像素	-10.4698
交叉	-10.4699
寿命	-10.4703
水分	-10.4703
3.0	-10.4703
怎么	-10.4703
贯彻	-10.4708
调研	-10.4711
主流	-10.4712
本人	-10.4714
万人	-10.4717
禹	-10.4718
的学生	-10.4719
±	-10.4719
锅内	-10.4719
机床	-10.472
巨大	-10.4726
籍贯	-10.4728
2%	-10.473
发展战略	-10.4733
方针	-10.4734
事迹	-10.4738
总数	-10.4739
擦	-10.4742
褐	-10.4743
荆	-10.4743
尚书	-10.4744
-10	-10.4746
擅	-10.4746
爪	-10.4748
----	-10.4748
钝	-10.4749
解放军	-10.475
斯·	-10.4751
》中的	-10.4752
木马	-10.4757
主营	-10.4758
顶级	-10.4763
上部	-10.4764
-12	-10.4764
,支持	-10.4766
及其他	-10.4769
光电	-10.4772
先进集体	-10.4774
剧情	-10.4775
房产	-10.4775
扮演	-10.4779
体长	-10.4779
平台。	-10.4782
胶囊	-10.4791
叉	-10.4794
海岸	-10.4797
各国	-10.4797
片,	-10.4799
陇	-10.48
?”	-10.4801
省教育厅	-10.4804
并在	-10.4805
变得	-10.4807
1931年	-10.4807
贡献。	-10.481
三角	-10.4811
副局长	-10.4816
:支持	-10.4816
丈	-10.4817
点击	-10.4817
鱼类	-10.4819
马来西亚	-10.4821
科技大学	-10.4821
个自然村	-10.4822
》、《中国	-10.4822
居委会	-10.4824
财产	-10.4827
通过了	-10.4829
化石	-10.4831
现状	-10.4835
砌	-10.4839
下来	-10.4841
包括:	-10.4841
曾获	-10.4842
队长	-10.4846
判	-10.4847
停止	-10.4848
指示	-10.4848
能力,	-10.4851
四十	-10.4852
授予“	-10.4853
糖尿病	-10.4854
某种	-10.4855
1999	-10.4855
。同时,	-10.4857
投资者	-10.4858
米。	-10.4858
,你	-10.4858
红外	-10.4859
美术学院	-10.486
反对	-10.4863
平安	-10.4868
钠	-10.487
吏	-10.4871
志》	-10.4871
卤	-10.4875
。宋	-10.4876
可用	-10.4877
发酵	-10.4878
偷	-10.488
邱	-10.4881
审批	-10.4881
大专学历	-10.4885
曰:‘	-10.4887
,为了	-10.4888
聚集	-10.4889
芝麻	-10.4889
结晶	-10.489
成功的	-10.4891
2人,	-10.4891
香菇	-10.4895
儿子	-10.4896
,现为	-10.4898
和管理	-10.49
玩具	-10.49
饮料	-10.4901
电磁	-10.4902
竟	-10.4903
痰	-10.4903
例如	-10.4904
绝缘	-10.4904
终于	-10.4905
表明	-10.4906
一天	-10.4907
伦敦	-10.4907
信息技术	-10.4908
前身为	-10.492
精致	-10.4921
-8	-10.4926
而成	-10.4928
劝	-10.4931
(包括	-10.4932
讨	-10.4933
超越	-10.4935
一份	-10.4938
某一	-10.4939
芒	-10.4939
是:	-10.494
认定	-10.4942
贯穿	-10.4943
全身	-10.4943
,深受	-10.4945
。为了	-10.4946
、上海	-10.4948
,便	-10.4949
中专	-10.4951
第一届	-10.4952
5分钟	-10.4954
竣工	-10.4956
干事	-10.4957
洒	-10.4958
导航	-10.4959
2号	-10.496
设备,	-10.4966
全世界	-10.4967
、黄	-10.4968
时期的	-10.4968
技术服务	-10.4969
为基础	-10.497
活动的	-10.4971
视角	-10.4971
6-	-10.4972
,多	-10.4974
分局	-10.4975
实时	-10.4979
维持	-10.4982
毛泽东	-10.4984
氛围	-10.4988
当选为	-10.4988
十字	-10.4989
拆	-10.499
博士,	-10.4995
成品	-10.4996
日益	-10.5001
消失	-10.5004
描写	-10.5005
个村民小组	-10.5011
敢	-10.5012
一处	-10.5013
主治	-10.5013
檐	-10.5019
一线	-10.502
生。	-10.5022
高清	-10.5024
大夫	-10.5025
婚姻	-10.5027
客户的	-10.5029
验	-10.503
延长	-10.5034
.04	-10.504
计划生育	-10.5043
-19	-10.5043
城乡	-10.5043
爵	-10.5045
消耗	-10.5045
主人	-10.5046
应急	-10.5047
卓越	-10.5048
艺术学院	-10.5048
时候	-10.5048
同行	-10.505
最早的	-10.5052
披	-10.5057
危机	-10.5057
硫	-10.5058
的经营理念	-10.506
,因而	-10.5065
,现在	-10.5065
大于	-10.5065
常见的	-10.5065
租赁	-10.5066
奖项	-10.5068
跟踪	-10.5068
产于	-10.507
社会各界	-10.5072
、白	-10.5072
实例	-10.5073
纠错	-10.5073
共青团	-10.5073
燃	-10.5076
饶	-10.5078
设备的	-10.508
贫困	-10.508
、服务	-10.508
十九	-10.5081
一层	-10.5083
锅中	-10.5084
有时	-10.5084
后任	-10.5085
1人	-10.5091
浪漫	-10.5094
大门	-10.5096
移民	-10.5097
加上	-10.5098
自行	-10.51
地带	-10.51
微生物	-10.5104
的名字	-10.5104
(.)	-10.5105
别名	-10.5105
初步	-10.5106
的基础上,	-10.5106
1998	-10.5109
部件	-10.5109
为您	-10.5111
彼	-10.5111
6.5	-10.5112
南海	-10.5113
1929年	-10.5115
乡政府	-10.5117
公众	-10.5118
广泛的	-10.5119
学会理事	-10.5124
熟悉	-10.5124
音乐学院	-10.5124
框架	-10.5125
两大	-10.5125
用作	-10.5132
,积极	-10.5133
芦	-10.5135
大地	-10.5135
相继	-10.5136
要素	-10.5137
#	-10.5138
伸	-10.5141
人大代表	-10.5142
为人	-10.5142
....	-10.5148
。如果	-10.5148
50克	-10.5149
七年	-10.515
1993	-10.515
痕	-10.5152
▁二、	-10.5152
卫生部	-10.5153
出血	-10.5155
配方	-10.5158
更好的	-10.5162
收购	-10.5162
07	-10.5162
奎	-10.5163
敦	-10.5164
业余	-10.5172
污	-10.5176
等方面的	-10.5176
高山	-10.5176
等等。	-10.518
枕	-10.518
是一位	-10.5186
跌	-10.5188
妈妈	-10.5189
经费	-10.5193
卜	-10.5195
罢	-10.5195
吟	-10.5199
,这种	-10.5199
物业管理	-10.52
框	-10.5204
8-	-10.5204
的特点	-10.5205
进攻	-10.521
。目前,	-10.5211
雌	-10.5213
10个	-10.5214
硕	-10.5217
相传	-10.5218
克斯	-10.522
杏	-10.5221
350	-10.5226
世界上	-10.523
主角	-10.5233
之子	-10.5236
桌	-10.5238
喉	-10.5238
()。	-10.5241
主张	-10.5241
缺乏	-10.5242
一百	-10.5246
副院长	-10.5248
精彩	-10.525
元年	-10.5251
出的	-10.5252
公司。	-10.5253
的一部	-10.5256
10年	-10.5259
合作,	-10.5261
工资	-10.5261
电阻	-10.5262
客人	-10.5262
任中共	-10.5265
日期	-10.5266
为广大	-10.5267
同一	-10.527
高等学校	-10.5271
万亩	-10.5271
残疾人	-10.5273
细节	-10.5273
形成的	-10.5274
出身	-10.5275
代替	-10.5276
影响力	-10.5279
埠	-10.5281
(或	-10.5281
尉	-10.5281
源于	-10.5282
瑞典	-10.5282
用水	-10.5284
,这些	-10.5286
为中国	-10.5287
剧团	-10.5289
通风	-10.529
司马	-10.5293
恐怖	-10.5294
农民人均纯收入	-10.5297
光盘	-10.5299
无数	-10.5301
,致力于	-10.5305
高层	-10.5305
东路	-10.5307
推出的	-10.531
调入	-10.531
初级中学	-10.5311
人间	-10.5311
,后来	-10.5314
功能:	-10.5319
挺	-10.5324
固定资产	-10.5325
剥	-10.5325
疮	-10.5337
赢得了	-10.5337
部部长	-10.5337
91	-10.5339
编著	-10.5343
实习	-10.5348
甫	-10.5349
区政府	-10.535
空中	-10.5351
爆发	-10.5351
教堂	-10.5353
垃圾	-10.5353
狭	-10.5354
等农作物。	-10.5356
国画	-10.5357
面积1	-10.5357
阜	-10.5361
反射	-10.5364
藏书	-10.5365
香油	-10.5367
09	-10.5367
间的	-10.5369
240	-10.5376
树立	-10.5376
履行	-10.5381
教研室	-10.5385
弘扬	-10.5388
剧院	-10.5396
的综合性	-10.5397
全自动	-10.5397
向上	-10.5401
青海	-10.5402
塑造	-10.5403
机构。	-10.5404
鼓励	-10.5405
弧	-10.5406
”,“	-10.5407
路、	-10.5407
提取	-10.5408
▁二	-10.5409
(,)	-10.541
奖”	-10.5414
机,	-10.5415
面上	-10.5415
科学研究	-10.5415
口径	-10.5416
女孩	-10.5417
籽	-10.5422
南路	-10.5422
割	-10.5426
学科带头人	-10.5427
一日	-10.5431
肃	-10.5432
一颗	-10.5432
礼仪	-10.5433
1600	-10.5434
代谢	-10.5435
劫	-10.5436
胡萝卜	-10.5436
货运	-10.5437
先后任	-10.5439
加大	-10.544
5克	-10.5441
电影《	-10.5443
24小时	-10.5446
打击	-10.5456
爬	-10.5456
初级	-10.5459
。自	-10.546
硕士生导师	-10.5462
的不同	-10.5463
1994	-10.5472
分散	-10.5481
国际机场	-10.5481
10克	-10.5481
基础上	-10.5483
荫	-10.5484
内涵	-10.5485
栖	-10.5485
蜡	-10.5487
科研成果	-10.5488
大多	-10.5489
1936年	-10.5491
多为	-10.5492
采用了	-10.5506
闹	-10.5508
随时	-10.5509
技术,	-10.5511
引入	-10.5511
明朝	-10.5513
人民医院	-10.5514
后又	-10.5514
搞	-10.5515
委会	-10.5516
186	-10.5517
10分钟	-10.552
可分为	-10.5521
可靠	-10.5521
笼	-10.5523
节约	-10.5523
千克	-10.5523
怡	-10.5524
办公室、	-10.5526
管理的	-10.553
腊	-10.5531
清新	-10.554
刑事	-10.5545
花椒	-10.5548
也称	-10.5549
肌肉	-10.5556
,只	-10.5559
累计	-10.556
强大	-10.5561
▁(1)	-10.5562
去皮	-10.5563
镁	-10.5566
光滑	-10.5569
孔子	-10.5576
臭	-10.5578
手工	-10.5579
瑶	-10.5584
支部	-10.5585
鹅	-10.5586
相当于	-10.5586
经营管理	-10.5588
控制系统	-10.5588
挖	-10.5589
联邦	-10.5589
融资	-10.559
挡	-10.5591
严格的	-10.5595
劳动模范	-10.5596
育人	-10.56
管理,	-10.5604
精确	-10.5605
慎	-10.5606
1935年	-10.5607
体制	-10.5613
大臣	-10.5617
设计的	-10.5619
优美	-10.562
心脏	-10.5623
现存	-10.5623
105	-10.5627
函授	-10.5629
本科生	-10.563
命令	-10.563
1)	-10.5632
一面	-10.5632
蚕	-10.5633
渝	-10.5636
晴	-10.5636
蚀	-10.5636
编剧	-10.564
美好	-10.5641
搭配	-10.5652
衬	-10.5652
竞	-10.5653
对称	-10.5657
ン	-10.566
采集	-10.5663
定制	-10.5666
机身	-10.5666
发掘	-10.567
巫	-10.5678
组织实施	-10.5678
观光	-10.5678
3.2	-10.5678
125	-10.5682
是我国	-10.5684
他人	-10.5684
转变	-10.5687
法》	-10.5691
、北京	-10.5691
作者:	-10.5692
镇政府	-10.5694
测绘	-10.5694
誉	-10.5697
女,	-10.5704
我校	-10.5705
弯曲	-10.5706
经济效益	-10.5708
海上	-10.571
菇	-10.5711
确认	-10.5711
担保	-10.5711
矛盾	-10.5713
邹	-10.5716
外,	-10.5716
编号	-10.5717
会议室	-10.5718
笋	-10.5718
荣誉称号	-10.572
广泛应用于	-10.5721
市政	-10.5721
有限	-10.5722
失败	-10.5722
等人	-10.5723
°	-10.5727
转化	-10.5731
传动	-10.5735
公务员	-10.574
览	-10.5741
年来,	-10.5742
。这些	-10.5742
2014年	-10.5746
保卫	-10.5749
-20	-10.5753
第九	-10.5754
旭	-10.5756
第一家	-10.5757
棘	-10.5758
西路	-10.576
变种	-10.5761
搭	-10.5761
化合物	-10.5763
播出	-10.5764
奥运会	-10.5767
姿	-10.5767
全镇	-10.5769
应当	-10.5771
矮	-10.5775
女儿	-10.5778
行政管理	-10.578
钾	-10.5781
公交	-10.5782
三维	-10.5783
淳	-10.5785
万元。	-10.5791
附件	-10.5794
8000	-10.5794
全日制	-10.5794
2001	-10.5796
本土	-10.5801
下部	-10.5803
精度	-10.5804
其间	-10.5806
学报	-10.5808
、小	-10.581
增产	-10.5811
有人	-10.5813
联络	-10.5813
反复	-10.5815
南宋	-10.5817
帆	-10.5818
身高	-10.582
全程	-10.5825
电站	-10.5826
显示屏	-10.583
感到	-10.5834
澳	-10.5834
客观	-10.5834
,于是	-10.5834
杭州市	-10.5835
工程、	-10.584
盲	-10.584
爆炸	-10.5842
男人	-10.5846
视野	-10.5847
3%	-10.5848
伐	-10.585
承接	-10.5851
体重	-10.5852
108	-10.5853
签约	-10.5857
区、	-10.5858
知名度	-10.5858
环绕	-10.586
三星	-10.5863
冒险	-10.5863
官方	-10.5865
棚	-10.5866
平县	-10.5867
补偿	-10.5867
法人	-10.5871
重复	-10.5873
财经	-10.5873
北宋	-10.5875
全乡	-10.5875
村人	-10.5877
神话	-10.5879
招商	-10.588
从此	-10.5883
珍珠	-10.5884
组织的	-10.5884
(含	-10.5885
0-	-10.5886
为企业	-10.5887
,形成了	-10.5888
放射	-10.5888
成为了	-10.5891
开启	-10.5893
报纸	-10.5896
葡萄酒	-10.5898
0.00	-10.5902
拓	-10.5904
30余	-10.5905
试点	-10.5916
一件	-10.592
总理	-10.5921
摘	-10.5922
很好的	-10.5925
口感	-10.5925
面临	-10.5927
协会理事	-10.5927
麟	-10.5928
,乃	-10.5931
将会	-10.5932
刮	-10.5932
务实	-10.5933
罩	-10.5933
百货	-10.5935
1997	-10.5937
的音乐	-10.5938
一款	-10.594
胞	-10.5941
匹	-10.5943
峪	-10.5946
创造了	-10.5949
生殖	-10.5951
兼容	-10.5951
此外	-10.5955
时代的	-10.596
坦克	-10.5963
-)	-10.5964
贵族	-10.5964
。”清	-10.5965
值得	-10.5966
添	-10.5966
供水	-10.5967
5～	-10.597
泻	-10.597
游泳	-10.5971
总监	-10.5974
第4	-10.5974
国产	-10.5977
函	-10.5982
水中	-10.5983
较大的	-10.5984
回收	-10.5986
170	-10.5987
替	-10.599
收益	-10.599
中国画	-10.599
爱好	-10.5991
。因此,	-10.5992
任意	-10.5992
▁出处	-10.5992
棉花	-10.5993
意外	-10.5993
短信	-10.5997
怕	-10.6003
、李	-10.6005
暨	-10.6008
改制	-10.6008
8号	-10.6013
手册	-10.6013
,原名	-10.6015
教授、	-10.6016
疾病的	-10.6016
,受到	-10.6018
审判	-10.6018
桩	-10.6018
鼠标	-10.6019
起到	-10.6021
风光	-10.6024
),字	-10.6026
审查	-10.6026
-7	-10.6029
主力	-10.6029
°C,年降水量	-10.6032
官员	-10.6033
凸	-10.6034
房地产开发	-10.6037
中级	-10.604
沧	-10.6045
夕	-10.6047
形势	-10.6048
公顷	-10.605
牡丹	-10.605
出席	-10.6052
恰	-10.6052
控制器	-10.6053
地形	-10.6054
典型的	-10.6055
玫瑰	-10.6056
汉字	-10.6057
季节	-10.6057
时刻	-10.606
桂林	-10.6064
杂交	-10.6069
四季	-10.6071
优雅	-10.6075
坎	-10.6078
,又称	-10.6079
是日本	-10.6081
书画家	-10.6081
建筑工程	-10.6082
电梯	-10.6085
押	-10.6085
▁6、	-10.6086
奸	-10.6086
强烈	-10.6088
新世纪	-10.6089
常常	-10.6094
南京市	-10.6095
,原	-10.6095
谜	-10.6099
奋斗	-10.6099
襄	-10.61
1/2	-10.6107
,分别	-10.6108
复制	-10.6109
感应	-10.6114
途	-10.6115
专职	-10.6116
诉讼	-10.6117
蓝牙	-10.6119
20年	-10.6119
虞	-10.6121
主要以	-10.6124
作品《	-10.6126
.02	-10.6128
称之为	-10.6128
作用,	-10.6128
办公厅	-10.6132
孢子	-10.6132
参加革命	-10.6133
、电子	-10.6135
冶	-10.6136
-11	-10.6138
效果。	-10.6138
善于	-10.6138
工艺美术	-10.6139
宽带	-10.6139
为什么	-10.614
单曲	-10.6141
0.9	-10.6143
她们	-10.6145
科技成果	-10.6146
真正的	-10.6147
平方米,建筑面积	-10.6148
匠	-10.6149
,简称	-10.6153
泄	-10.6153
硬度	-10.6153
遮	-10.6153
〈	-10.6154
诊疗	-10.6155
就有	-10.6158
也会	-10.6159
住房	-10.616
全长	-10.6161
代表作	-10.6161
便捷	-10.6167
直到	-10.6168
研究方向	-10.6172
仓储	-10.6172
他在	-10.6172
遍布	-10.6173
185	-10.6173
;负责	-10.6179
尧	-10.618
搜	-10.6181
截止	-10.6181
定点	-10.6181
亲自	-10.6183
职业教育	-10.6185
不断提高	-10.6185
当今	-10.6188
9个	-10.6189
,结合	-10.619
主持人	-10.6194
是集	-10.6194
我市	-10.6196
阅	-10.6196
1927年	-10.62
王子	-10.6201
设在	-10.6201
高等院校	-10.6202
饲养	-10.6209
结婚	-10.621
粥	-10.6211
窄	-10.6215
,作为	-10.6216
美学	-10.6218
,占地	-10.622
3.3	-10.6222
吻	-10.6223
当中	-10.6225
在国内外	-10.6225
3人,	-10.6226
产业化	-10.6229
就能	-10.6229
旨	-10.6232
板块	-10.6235
以人为本	-10.6237
民俗	-10.624
华夏	-10.6242
农业部	-10.6243
祁	-10.6249
仇	-10.625
不易	-10.6251
总体	-10.6251
还原	-10.6251
场景	-10.6252
高新技术	-10.6254
创作的	-10.6256
1.7	-10.6258
德育	-10.6259
它是	-10.6259
敏感	-10.6263
是一部	-10.6265
塑胶	-10.6267
推行	-10.627
鲁迅	-10.6271
人才培养	-10.6272
北路	-10.6274
20世纪	-10.6275
及相关	-10.6276
科技进步二等奖	-10.6276
邮政	-10.628
旨在	-10.6281
下游	-10.6281
山坡	-10.6283
元年(	-10.6287
前进	-10.6288
西侧	-10.6293
厨	-10.6295
为:	-10.6295
物种	-10.6295
司令	-10.6297
无论	-10.63
移植	-10.6303
宁波市	-10.6304
科长	-10.6305
进展	-10.6307
容器	-10.631
问题的	-10.6311
尤其是	-10.6313
徐州	-10.6314
发展规划	-10.6315
燃料	-10.6316
、市	-10.6316
漂	-10.6317
,北	-10.6319
嫁	-10.6321
权利	-10.6324
模式,	-10.6324
质量管理	-10.6325
优势,	-10.6327
厂、	-10.633
渊	-10.633
处。	-10.6332
放心	-10.6333
后卫	-10.6333
生活中	-10.6335
面板	-10.6337
泉州	-10.6338
融入	-10.6339
称号。	-10.634
注射	-10.634
党组织	-10.635
恐	-10.6353
主讲	-10.6355
长达	-10.6355
的应用	-10.6355
庄村	-10.6358
畔	-10.6359
分布在	-10.6362
猪肉	-10.6362
文化的	-10.6363
储存	-10.6364
煲	-10.6367
世界各地	-10.6372
公司在	-10.6373
认	-10.6376
拍卖	-10.6379
红旗	-10.6382
民办	-10.6383
水产	-10.6383
全书	-10.6384
葫芦	-10.6385
考生	-10.6385
奴	-10.6387
(简称	-10.6387
指的是	-10.6391
一本	-10.6397
。现有	-10.6399
1公里	-10.64
的同时	-10.6403
身边	-10.6403
洗净,	-10.6405
消毒	-10.6405
作了	-10.6406
较多	-10.6406
常年	-10.6409
冒	-10.6412
(1	-10.6412
导师	-10.6415
不但	-10.6419
渗透	-10.6421
高血压	-10.6422
单独	-10.6424
(16	-10.6426
充分发挥	-10.6429
增加了	-10.6431
上了	-10.6432
播种	-10.6432
3号	-10.6433
1930年	-10.6436
均可	-10.6436
天使	-10.6438
逼	-10.6438
。位于	-10.6438
喜剧	-10.6442
本科学历	-10.6446
词汇	-10.6448
海关	-10.6449
馀	-10.6449
水面	-10.6451
橙	-10.6453
精盐	-10.6455
石家庄	-10.6456
联合国	-10.6459
,是指	-10.6463
傲	-10.6466
替代	-10.6467
并组织实施	-10.647
蓬	-10.6474
萍	-10.6474
生活在	-10.6474
人气	-10.6475
2人	-10.6475
名师	-10.648
粉末	-10.6482
设立的	-10.6485
年级	-10.6486
释义	-10.6487
美味	-10.6488
审定	-10.6489
鞭	-10.6492
觉得	-10.6493
宝宝	-10.6498
μ	-10.6499
被授予	-10.6501
产物	-10.6503
涵	-10.6503
攀	-10.6504
评为“	-10.6505
防腐	-10.6505
博览会	-10.6506
剂、	-10.6508
能力。	-10.6509
▁6.	-10.651
驰	-10.6511
较好	-10.6512
常委	-10.6515
敷	-10.6516
,不仅	-10.6519
皇家	-10.6521
中华医学会	-10.6523
济南市	-10.6525
:5	-10.6525
东海	-10.6526
1928年	-10.6527
细致	-10.6529
妹	-10.653
理论与	-10.6532
带着	-10.6533
副主编	-10.6538
256	-10.6539
发达	-10.6539
晶体	-10.654
较小	-10.6545
朝阳	-10.6546
儿科	-10.6547
高原	-10.6547
是一家集	-10.6549
工业大学	-10.6551
两岸	-10.6551
砚	-10.6551
研究和	-10.6554
内设	-10.6556
〉	-10.6565
一人	-10.6566
有利于	-10.6569
门户	-10.6569
捕	-10.657
编码	-10.657
扩	-10.6573
灌木	-10.6573
干扰	-10.6573
事项	-10.6574
秩序	-10.6577
排名	-10.6581
450	-10.6581
出任	-10.6583
肯定	-10.6588
▁(2).	-10.6593
。民国	-10.6594
这部	-10.6595
亨	-10.6596
专业技术人员	-10.6599
冬季	-10.6602
等各种	-10.6603
深刻	-10.6604
暂	-10.6606
回归	-10.6608
简单的	-10.6608
薯	-10.661
(1).	-10.661
烟台	-10.6612
住宿	-10.6615
人大	-10.6616
网页	-10.6617
皖	-10.6619
勃	-10.6621
著有	-10.6622
▁我	-10.6623
绍兴	-10.6624
溶解	-10.6625
工程学院	-10.6625
的一所	-10.6631
主要经营	-10.6632
道教	-10.6636
做了	-10.6642
扩建	-10.6642
应用于	-10.6649
,通常	-10.6649
选举	-10.6651
,获得	-10.6651
户型	-10.6651
1/	-10.6657
第四届	-10.6657
的宗旨	-10.6658
绒	-10.666
网卡	-10.6661
分别为	-10.6662
鲍	-10.6662
呢	-10.6662
乐园	-10.6662
呢?	-10.6663
就在	-10.6663
耐磨	-10.6666
很快	-10.6668
调味	-10.6669
者的	-10.667
工业园	-10.6673
抹	-10.6673
功能,	-10.6675
的行为	-10.6675
、新	-10.6676
瑟	-10.6677
雄厚的	-10.6678
揭	-10.6682
咽	-10.6683
皇后	-10.6686
可持续发展	-10.6689
度假	-10.669
3克	-10.6694
部,	-10.6701
义务	-10.6702
和服务	-10.6702
187	-10.6703
第5	-10.6706
水晶	-10.6708
由中国	-10.6709
孕	-10.6709
零件	-10.6711
步行	-10.6711
于此	-10.6711
客运	-10.6714
关闭	-10.6714
展出	-10.6716
单一	-10.6718
讲解	-10.6719
摄像头	-10.6721
失去	-10.6724
,是一所	-10.6726
,从事	-10.6726
头部	-10.6726
省部级	-10.6727
无毛	-10.6729
矣	-10.673
一中	-10.6734
。现在	-10.6739
学士学位	-10.6743
球员	-10.6743
,是一种	-10.6744
物料	-10.6752
.05	-10.6757
确	-10.6763
培训中心	-10.6765
隐藏	-10.6766
浙江大学	-10.6767
怪兽	-10.6768
独立的	-10.6768
-18	-10.6768
。2006年	-10.6769
平均亩产	-10.6769
至少	-10.6773
国民	-10.6774
经》	-10.6776
自然村隶属于	-10.6777
一个人	-10.6778
夏季	-10.6781
省、市	-10.6781
焉	-10.6781
似乎	-10.6781
100克	-10.6783
符号	-10.6786
亩,其中	-10.6791
的发展,	-10.6791
时的	-10.6791
五大	-10.6792
尊重	-10.6795
按摩	-10.6796
比如	-10.6796
研究室	-10.6798
络	-10.6799
宽度	-10.6804
出现在	-10.6808
无需	-10.6808
主管部门	-10.6811
排水	-10.6812
被誉为	-10.6818
起点	-10.6818
饰演	-10.6818
坚持“	-10.6825
▁目前	-10.6827
的好	-10.6831
逾	-10.6831
以后,	-10.6832
,皆	-10.6832
庐	-10.6833
极其	-10.6833
岁的	-10.6834
的原则	-10.6836
暑	-10.6837
齿轮	-10.6837
战国	-10.6838
日报	-10.6838
西安市	-10.6838
东侧	-10.6839
殊	-10.684
调料	-10.684
服务、	-10.6843
注:“	-10.6845
瀑布	-10.6848
都可以	-10.6848
参编	-10.6849
该公司	-10.685
,对于	-10.685
起草	-10.6859
全面的	-10.686
指南	-10.686
单位。	-10.6862
之间,	-10.6862
是国内	-10.6863
观点	-10.6864
递	-10.6869
出现的	-10.687
咨询服务	-10.687
尼亚	-10.6871
的建设	-10.6872
小于	-10.6873
山镇	-10.6874
很少	-10.6874
的艺术	-10.6877
1次	-10.6879
附加	-10.6882
二人	-10.6887
4公里	-10.6888
日语	-10.689
另一个	-10.6891
委员会委员	-10.6891
编入	-10.6892
为其	-10.6893
热水	-10.6896
个村民小组,	-10.6897
成语	-10.6897
发病	-10.6897
主人公	-10.6897
隋	-10.6898
墨西哥	-10.6898
农药	-10.6901
长沙市	-10.6902
政权	-10.6903
钢管	-10.6903
系主任	-10.6905
北美	-10.6905
禾	-10.6905
延安	-10.6907
的基础	-10.6908
不变	-10.6908
核桃	-10.6909
兮	-10.691
依然	-10.6914
好评	-10.6915
流体	-10.6915
师范学校	-10.6918
携带	-10.6918
因子	-10.6919
专业技术	-10.6923
在这	-10.6923
生产、	-10.6926
最小	-10.6927
480	-10.6929
8.5	-10.693
世家	-10.6932
市场营销	-10.6934
类别	-10.6935
出演	-10.6936
1991	-10.6941
朔	-10.6943
尸	-10.6944
项目的	-10.6944
所作	-10.6945
格局	-10.6946
邮件	-10.6946
一对	-10.6947
激情	-10.6948
提示	-10.6948
丘陵	-10.6949
2项	-10.695
肤	-10.6955
为1	-10.6955
特殊的	-10.6956
的思想	-10.6958
一路	-10.696
办公室副主任	-10.696
的功能	-10.6961
变压器	-10.6962
录》	-10.6962
的生产	-10.6962
书画艺术	-10.6962
改革开放	-10.6963
协会会员	-10.6967
名牌	-10.6969
大豆	-10.6972
万余	-10.6972
2.6	-10.6973
稳定的	-10.6975
为客户	-10.6978
、全国	-10.698
慈善	-10.6982
督	-10.6984
2.7	-10.6986
还可以	-10.6988
海水	-10.6989
的概念	-10.6991
亮度	-10.6993
马克思主义	-10.6996
技术的	-10.6996
电工	-10.6996
优秀奖	-10.6996
声誉	-10.6997
会长	-10.6999
可以在	-10.7001
的第一	-10.7001
а	-10.7003
攻读	-10.7005
圩	-10.7007
妻子	-10.7008
情绪	-10.701
常州	-10.7011
,以“	-10.7011
21世纪	-10.7012
历经	-10.7013
外贸	-10.7015
说,	-10.7016
地板	-10.7018
甲基	-10.7018
又有	-10.7019
帐	-10.7021
浸泡	-10.7023
温暖	-10.7023
爱心	-10.7025
而成的	-10.7026
玲	-10.7027
珠宝	-10.7027
特长	-10.7028
畏	-10.7028
遵循	-10.7033
佑	-10.7035
捞出	-10.7036
印象	-10.7039
逝世	-10.7044
全称	-10.7047
参观	-10.7047
引发	-10.7047
公民	-10.7047
中央电视台	-10.7051
的需求	-10.7053
研究生学历	-10.7053
8%	-10.7055
抄	-10.7056
0°	-10.7056
丈夫	-10.7056
为一	-10.7059
町	-10.706
子公司	-10.7061
用户的	-10.7066
,没有	-10.7066
拟订	-10.7067
几十	-10.7068
总裁	-10.7069
的感觉	-10.7071
温州市	-10.7072
3人	-10.7074
司令部	-10.7075
也叫	-10.7081
极具	-10.7082
解决了	-10.7085
7月参加工作,	-10.7089
外交	-10.709
妇产科	-10.709
号:	-10.709
方法。	-10.7091
、张	-10.7093
愁	-10.7095
渔业	-10.71
况	-10.71
开水	-10.71
▁◆	-10.7102
清楚	-10.7103
油田	-10.7104
出品	-10.7105
3.6	-10.7107
庚	-10.711
终身	-10.711
情况下	-10.7115
喀	-10.7115
学术论文	-10.7116
安置	-10.7116
▁三	-10.7117
开办	-10.7117
锂电池	-10.7118
方式,	-10.712
晒	-10.7121
市场上	-10.7122
淑	-10.7124
尔·	-10.7124
光纤	-10.7124
颖	-10.7125
德·	-10.7126
建国	-10.7127
低于	-10.713
最重要的	-10.7131
演变	-10.7132
,尤其是	-10.7132
繁华	-10.7135
比赛中	-10.7136
企业文化	-10.7137
斌	-10.7141
员、	-10.7143
4人	-10.7143
,是一家	-10.7145
交通运输	-10.7148
布置	-10.7151
集合	-10.7153
三次	-10.7156
指出	-10.7159
开发、	-10.7159
,总	-10.716
”)	-10.7161
主任,	-10.7163
现代化的	-10.7165
门户网站	-10.7166
工程建设	-10.7168
新一代	-10.717
这次	-10.717
坤	-10.7172
的一部分	-10.7173
的能力	-10.7174
肚	-10.7174
复旦大学	-10.7175
6%	-10.7175
常务理事	-10.7177
私人	-10.7181
节奏	-10.7181
音箱	-10.7182
检索	-10.7183
挤	-10.7183
乐团	-10.7184
一期	-10.7186
扑	-10.7189
首府	-10.719
背面	-10.7191
湿度	-10.72
鸽	-10.72
再生	-10.7202
栗	-10.7203
硬化	-10.7203
一部分	-10.7204
纽	-10.7205
技法	-10.7209
闷	-10.7213
宠	-10.7215
埃及	-10.7216
幽默	-10.7217
寡	-10.722
▁一、	-10.7225
生产设备	-10.7226
始终坚持	-10.7228
轧	-10.7229
坚持以	-10.7229
搭建	-10.7232
(3)	-10.7233
面积约	-10.7234
赛事	-10.7234
许可证	-10.7234
的世界	-10.7236
期货	-10.7236
音响	-10.7237
履	-10.7237
陀	-10.7237
研究工作	-10.7239
1995	-10.7241
光明	-10.7244
此后	-10.7245
10余	-10.7248
1800	-10.7253
数:	-10.7254
对比	-10.7255
方法,	-10.7257
20余	-10.7258
同行业	-10.7261
据说	-10.7263
一样,	-10.7263
灌溉	-10.7264
,是一个	-10.7265
肢	-10.7265
就像	-10.7266
保安	-10.7266
该书	-10.7268
甘草	-10.7268
动脉	-10.7269
理想的	-10.7273
流畅	-10.7274
忽	-10.7276
纺	-10.7277
水处理	-10.7281
电台	-10.7284
悉	-10.7285
中毒	-10.7286
教育学院	-10.7286
生涯	-10.7289
村。	-10.729
棕色	-10.7292
树木	-10.7292
吗?	-10.7292
▁6	-10.7293
效力	-10.7294
路,	-10.7294
内心	-10.7296
土豆	-10.7298
风机	-10.73
入口	-10.7301
,坚持	-10.7301
骨干教师	-10.7301
风雨	-10.7302
因其	-10.7302
解释:	-10.7303
提出的	-10.7304
半导体	-10.7305
波兰	-10.7306
连载	-10.7308
董事	-10.7309
,最终	-10.731
岁时	-10.7311
前身	-10.7311
河口	-10.7312
。同年	-10.7312
精灵	-10.7313
烦	-10.7314
啤酒	-10.7315
科技创新	-10.7318
90%	-10.7318
腐蚀	-10.7319
艇	-10.7319
整形	-10.7321
亦称	-10.7322
之地	-10.7322
地理位置	-10.7324
开通	-10.7325
美女	-10.7326
中西医结合	-10.7327
做出了	-10.7328
庸	-10.7328
平行	-10.7328
▁(3)	-10.7331
润滑	-10.7332
一旦	-10.7333
行政村	-10.7334
几何	-10.7334
无线电	-10.7337
勋	-10.734
筹建	-10.7341
,向	-10.7341
,确保	-10.7341
岛屿	-10.7342
既有	-10.7344
仓库	-10.7347
榆	-10.7349
灶	-10.736
可作为	-10.736
初,	-10.7361
贪	-10.7363
股东	-10.7365
加入中国共产党。	-10.7365
干净	-10.737
县长	-10.7371
诸多	-10.7376
。他们	-10.7379
华南	-10.7381
对其	-10.7382
择	-10.7384
辉煌	-10.7384
无人	-10.7385
器官	-10.7386
,美国	-10.7386
畜牧	-10.7389
器件	-10.7389
划分	-10.7391
常用的	-10.7393
活泼	-10.7394
两面	-10.7395
洼	-10.7395
足球运动员	-10.7396
氨	-10.7401
福利	-10.7402
尝试	-10.7405
公顷,	-10.7405
,既	-10.741
等;	-10.741
一群	-10.7413
本书是	-10.7415
。根据	-10.7415
50%	-10.7416
予以	-10.7417
机体	-10.7417
政务	-10.7417
经销商	-10.7418
内蒙古自治区	-10.7422
360	-10.7423
切片	-10.7429
本科毕业	-10.743
30年	-10.7433
步骤	-10.7435
内存容量	-10.7435
公司拥有	-10.7439
独具	-10.7444
科室	-10.7447
杯”	-10.745
豹	-10.7451
农历	-10.7454
射击	-10.7458
勐	-10.7458
规范化	-10.7459
的综合	-10.7461
1996	-10.7462
性。	-10.7467
见于	-10.7471
同意	-10.7472
烷	-10.7476
1990	-10.7476
祸	-10.748
椭圆形	-10.748
管理体系	-10.7481
朝廷	-10.7484
大专文化	-10.7484
那样	-10.7487
纵横	-10.7489
精美	-10.7489
参谋	-10.7489
叶柄	-10.7492
蒸汽	-10.7493
职业技术学院	-10.7497
是从	-10.7499
规定的	-10.7499
”之	-10.75
能力的	-10.7504
牛奶	-10.7507
用药	-10.7509
先锋	-10.751
同名	-10.7511
的东西	-10.7518
生产能力	-10.7521
机器人	-10.7521
沈阳市	-10.7522
水电	-10.7523
算法	-10.7524
晋升为	-10.7527
宠物	-10.7527
百度	-10.7528
游击队	-10.7532
家用	-10.7533
梓	-10.7533
腌	-10.7533
演绎	-10.7535
茸	-10.7539
智能化	-10.7539
昔	-10.754
锤	-10.7545
赢	-10.7545
承包	-10.7545
梗	-10.7547
活动中	-10.7547
3.1	-10.755
硫酸	-10.7551
肋	-10.7552
沉积	-10.7553
发生在	-10.7555
第五届	-10.7556
直线	-10.7556
通知	-10.7558
副主任医师	-10.7559
遍及	-10.7559
的意思	-10.7563
来说,	-10.7565
优质的服务	-10.7566
辖区内	-10.7567
使命	-10.7567
光泽	-10.7573
起任	-10.7577
回忆	-10.7578
节日	-10.7579
好,	-10.7579
最近	-10.758
-15	-10.7581
已经成为	-10.7584
,海拔	-10.7585
白菜	-10.7585
前期	-10.7588
工业区	-10.7588
宾客	-10.7589
,西	-10.7593
今日	-10.7594
发生的	-10.7596
正面	-10.7598
而又	-10.76
,交通便利,	-10.7602
大学学历	-10.7604
不幸	-10.7604
2次	-10.7605
两条	-10.7605
在校学生	-10.7606
相比	-10.7607
钢板	-10.7609
分配到	-10.7612
是一座	-10.7612
智力	-10.7613
取代	-10.7613
▁最大	-10.7616
顺序	-10.7617
不受	-10.7617
教学质量	-10.7617
的位置	-10.7617
翻炒	-10.7619
笔名	-10.762
搬	-10.7622
京剧	-10.7623
原为	-10.7623
科技进步三等奖	-10.7628
有力	-10.763
省政府	-10.7631
家人	-10.7634
势力	-10.7636
之乡	-10.7638
新人	-10.7639
2)	-10.7639
文联	-10.7641
锻炼	-10.7642
大大	-10.7642
薄膜	-10.7644
晚期	-10.7646
球形	-10.7646
小火	-10.7648
局、	-10.765
磷酸	-10.765
收缩	-10.7651
的管理	-10.7653
简洁	-10.7654
仅有	-10.7654
技艺	-10.7655
,辖	-10.7656
孢	-10.7662
大奖	-10.7662
以南	-10.7663
篮	-10.7664
权力	-10.7667
事。	-10.767
方面,	-10.7671
种种	-10.7675
针灸	-10.7676
青海省	-10.7677
组长	-10.7677
,具	-10.7683
古今	-10.7687
一步	-10.7688
学专业	-10.7692
科主任	-10.7692
器,	-10.7693
哪	-10.7695
生姜	-10.7696
家电	-10.7696
存在的	-10.7696
坐标	-10.7698
农机	-10.77
人心	-10.7701
根本	-10.7704
分支	-10.7706
聘请	-10.7708
聘	-10.771
如下	-10.771
书写	-10.7714
允	-10.7715
潜力	-10.7717
过敏	-10.7717
美洲	-10.7718
战斗中	-10.7719
监理	-10.7722
苔	-10.7722
发表学术论文	-10.7728
复印	-10.7731
指令	-10.7731
文本	-10.7732
抗战	-10.7734
争取	-10.7735
锈	-10.7739
花瓣	-10.7739
涩	-10.7739
组组长	-10.774
政法	-10.7741
上游	-10.7741
凿	-10.7744
告诉	-10.7747
缴	-10.7747
获全国	-10.775
利亚	-10.775
倚	-10.7751
肉质	-10.7751
事情	-10.7753
。后来	-10.7757
明清	-10.7759
开创	-10.7761
○	-10.7763
知县	-10.7765
借助	-10.7769
是对	-10.7769
的需要	-10.7772
领导的	-10.7772
畅销	-10.7773
,使得	-10.7773
2公里	-10.7775
六十	-10.7776
刃	-10.7779
起了	-10.7779
忙	-10.7779
制剂	-10.778
畜	-10.778
实际上	-10.7783
12个	-10.7784
清·	-10.7785
不良	-10.7787
谓之	-10.7788
房、	-10.7788
棕	-10.7789
氨基酸	-10.779
拾	-10.7793
的经营	-10.7793
雷达	-10.7794
号码	-10.7796
变焦	-10.7799
钢结构	-10.7801
啊	-10.7803
总线	-10.7803
加入中国共产党	-10.7806
烈士	-10.7807
奥运	-10.7808
制造商	-10.7808
姐	-10.7809
仆	-10.781
标准的	-10.781
缺陷	-10.7812
3公里	-10.7812
业内	-10.7812
作文	-10.7814
文书	-10.7814
几年	-10.7815
的社会	-10.7815
。因为	-10.7816
服用	-10.7817
锦标赛	-10.782
洋葱	-10.7822
优质的	-10.7825
娇	-10.7827
齐全	-10.7829
,它是	-10.783
1×	-10.783
党支部书记	-10.7831
造纸	-10.7832
用的	-10.7833
梵	-10.7834
,全	-10.7834
在今	-10.7835
党委副书记	-10.7836
建校	-10.7837
静脉	-10.7839
面前	-10.7839
金刚	-10.784
联想	-10.784
泗	-10.7841
切割	-10.7842
泾	-10.7846
滇	-10.7846
基督教	-10.7848
台北	-10.7851
损害	-10.7855
山上	-10.7855
小吃	-10.7855
中南	-10.7857
主任、	-10.7857
期待	-10.7857
主办的	-10.7858
景色	-10.7858
插槽	-10.7859
黑暗	-10.7859
科技进步奖	-10.7859
盆地	-10.7859
、美国	-10.786
9-	-10.7863
多层	-10.7866
).	-10.7869
小姐	-10.7869
麓	-10.7871
契	-10.7873
酒吧	-10.7874
,这样	-10.7874
友谊	-10.7875
东汉	-10.7878
浏览	-10.7878
外,还	-10.7878
精神,	-10.7879
。随着	-10.788
蕾	-10.7881
驻地	-10.7883
。2005年	-10.7884
便于	-10.7886
副书记	-10.7887
引擎	-10.7889
重组	-10.789
产生了	-10.789
公里处	-10.789
全国性	-10.7891
机组	-10.7892
]	-10.7893
512	-10.7893
信仰	-10.7893
地段	-10.7894
概	-10.7895
激发	-10.7898
糕	-10.79
工艺品	-10.7903
只需	-10.7904
西湖	-10.7904
。2008年	-10.7904
一时	-10.7905
金牌	-10.7907
防爆	-10.7909
书画院	-10.7909
原本	-10.791
、旅游	-10.7911
吞	-10.7912
队员	-10.7913
理学	-10.7916
产值	-10.7917
现在的	-10.7919
共计	-10.792
龙头	-10.792
烹饪	-10.7925
系统,	-10.7926
事实	-10.7929
原有	-10.7931
院士	-10.7931
深化	-10.7932
5公里	-10.7934
理财	-10.7934
:00	-10.7935
头痛	-10.7935
、盐	-10.7937
清除	-10.7937
陕	-10.7937
命运	-10.7939
麦克风	-10.7943
郑州市	-10.7943
团购	-10.7944
由原	-10.7946
闻名	-10.7948
了《	-10.7949
百万	-10.7949
▁2008年	-10.795
,一个	-10.795
网络游戏	-10.7951
与管理	-10.7951
创立于	-10.7956
领袖	-10.7956
青山	-10.7957
是用	-10.7959
路面	-10.7964
储备	-10.7964
曾多次	-10.7965
硕士研究生导师	-10.7967
特有的	-10.797
吉祥	-10.7971
,只有	-10.7973
抛	-10.7974
分泌	-10.7975
槐	-10.7977
巾	-10.7978
尤其	-10.7981
第一名	-10.7982
ㄨ	-10.7984
祛	-10.7984
钉	-10.7988
信访	-10.7989
189	-10.799
秉承“	-10.7993
负荷	-10.7993
产地	-10.7994
机械设备	-10.7994
3次	-10.7994
便是	-10.7995
一方	-10.7997
命名为	-10.7997
淘	-10.7998
演艺	-10.7998
泰山	-10.8
酮	-10.8
3)	-10.8001
,提供	-10.8001
配送	-10.8001
,除	-10.8001
线上	-10.8002
吉他	-10.8005
前锋	-10.8006
陪	-10.8007
隶	-10.8008
放弃	-10.8011
列入	-10.8011
2-3	-10.8012
全村经济总收入	-10.8013
国家自然科学基金	-10.8014
地层	-10.8016
线条	-10.8017
水电站	-10.8018
同时也	-10.8021
和技术	-10.8022
,毗邻	-10.8024
颁发	-10.8025
很大的	-10.8025
质量第一	-10.8025
早在	-10.8026
之道	-10.8028
顽	-10.8028
经济技术开发区	-10.8029
中心,	-10.8029
、南	-10.8033
发热	-10.8035
健全	-10.8035
嗣	-10.8035
-16	-10.8037
携手	-10.8037
。通过	-10.8039
而成。	-10.8042
无机	-10.8043
机遇	-10.8043
竞争力	-10.8044
问题。	-10.8046
在日本	-10.8047
名词	-10.8049
师大	-10.805
叙	-10.8053
第一部	-10.8057
边界	-10.8057
简介:	-10.8057
前来	-10.8058
少儿	-10.8058
较高的	-10.8059
回族	-10.806
裙	-10.806
捣	-10.806
签订	-10.8062
、西	-10.8068
足球运动员,	-10.8068
1992	-10.8068
学校。	-10.807
藩	-10.8072
学术交流	-10.8074
,不过	-10.8075
的开发	-10.8076
进取	-10.8076
式的	-10.8076
燃气	-10.8078
左右。	-10.808
洽谈	-10.808
完美的	-10.808
就读	-10.808
拟定	-10.8081
狐	-10.8082
ˊ	-10.8082
层,	-10.8087
版)	-10.8087
,请	-10.8088
最新的	-10.8096
外壳	-10.81
廖	-10.8104
,年	-10.8105
寂	-10.8108
蕨	-10.8109
借鉴	-10.8111
转向	-10.8117
条例	-10.8119
的所有	-10.8119
生态环境	-10.8119
膝	-10.812
理论研究	-10.812
这位	-10.812
撞	-10.8124
激励	-10.8124
可用于	-10.8125
い	-10.8127
炎、	-10.8128
准则	-10.8128
5人,	-10.8128
作出了	-10.8129
法师	-10.8129
沾	-10.8129
列车	-10.813
性疾病	-10.8132
之外	-10.8132
男,汉族,	-10.8133
中西	-10.8135
部署	-10.8137
哭	-10.8139
山、	-10.814
业主	-10.8143
×4	-10.8143
▁.	-10.8144
辩	-10.8146
黄瓜	-10.8147
景德镇	-10.8147
贝尔	-10.8147
九龙	-10.8147
纤	-10.8147
他是	-10.8148
纬	-10.815
三角形	-10.8151
秉	-10.8151
委宣传部	-10.8153
笛	-10.8153
矿业	-10.8153
纪录	-10.8156
与其他	-10.8157
备用	-10.8157
葵	-10.816
多元	-10.8162
时期,	-10.8162
研讨会	-10.8165
1926年	-10.8165
主要包括	-10.8166
叹	-10.8166
《》	-10.8166
渴	-10.8167
录制	-10.8168
占有	-10.8169
副教授,	-10.8169
板、	-10.817
基础设施	-10.8178
并入	-10.818
勘探	-10.818
4.2	-10.8185
帘	-10.8188
学会常务理事	-10.8189
卓越的	-10.8192
毫	-10.8192
,指	-10.8192
意思	-10.8193
东风	-10.8194
是为了	-10.8197
明珠	-10.8198
口服	-10.8201
第十	-10.8201
。先后	-10.8201
战场	-10.8202
实战	-10.8203
疆	-10.8204
基础知识	-10.8207
价值。	-10.8209
书法家	-10.821
员,	-10.8212
500克	-10.8213
底部	-10.8214
过的	-10.8218
纠纷	-10.8222
一致好评	-10.8225
或是	-10.8226
阴阳	-10.8226
宝石	-10.8227
高级教师	-10.8227
3项	-10.823
可谓	-10.823
仿真	-10.823
株高	-10.823
优惠	-10.8232
自然村	-10.8238
7%	-10.824
显得	-10.8242
▁三、	-10.8243
,也有	-10.8243
科学院	-10.8244
心中	-10.8246
佛山	-10.8246
沙漠	-10.8248
国际贸易	-10.825
,均	-10.8251
▁地址:	-10.8252
6人	-10.8252
技术支持	-10.8253
原材料	-10.8254
美誉	-10.8254
改名为	-10.8259
用地	-10.8259
苏州市	-10.8264
昏	-10.8265
随后	-10.8265
城关	-10.8265
信赖	-10.8267
9号	-10.8269
山顶	-10.827
慢慢	-10.827
台,	-10.8273
剧本	-10.8274
制订	-10.8274
▁电源	-10.8276
垣	-10.8277
象征	-10.828
技术创新	-10.8285
持有	-10.8286
趾	-10.8289
民众	-10.829
南县	-10.829
馅	-10.829
水准	-10.8291
载体	-10.8291
高效的	-10.8291
勤奋	-10.8291
江湖	-10.8293
,是由	-10.8294
定居	-10.8294
也能	-10.8294
般的	-10.8296
枢纽	-10.8297
笔记本	-10.8298
北大	-10.8299
党政	-10.8299
至今,	-10.8302
鸟类	-10.8302
会所	-10.8306
大理	-10.8309
,也可以	-10.8311
备用。	-10.8311
▁◎	-10.8315
『	-10.8315
充足	-10.8316
当选	-10.8317
设计和	-10.8324
等多项	-10.8325
摄像机	-10.8326
然而	-10.8327
任务。	-10.8328
咬	-10.8329
违	-10.8331
此时	-10.8331
以此	-10.8335
病变	-10.8336
,按	-10.8337
诗文	-10.8338
的原因	-10.8344
社科	-10.8345
买卖	-10.8346
坠	-10.8348
雍	-10.8348
科研工作	-10.8348
▁2009年	-10.8348
涧	-10.8349
编程	-10.8351
的理念	-10.8351
人在	-10.8351
交界处	-10.8351
。作为	-10.8353
湿地	-10.8354
姓名	-10.8358
▁本书	-10.8359
迫	-10.8361
提名	-10.8361
1-2	-10.8362
,有的	-10.8363
骑士	-10.8364
人民法院	-10.8364
无色	-10.8365
字母	-10.8366
修订	-10.8368
涅	-10.8368
5号	-10.8369
部落	-10.837
分裂	-10.8371
10%	-10.8371
的作用。	-10.8374
合肥市	-10.8374
生产经营	-10.8376
掩	-10.8378
一组	-10.838
6人,	-10.8383
华丽	-10.8383
班长	-10.8383
无论是	-10.8384
,要	-10.8384
阐述	-10.8384
特约	-10.8386
约为	-10.8391
狄	-10.8392
丰富,	-10.8392
数值	-10.8396
可靠性	-10.8396
5.	-10.8398
设备有限公司	-10.8399
30克	-10.8399
扩张	-10.8401
高级职称	-10.8401
的信息	-10.8404
、汽车	-10.8405
中央党校	-10.8406
梅花	-10.8407
早年	-10.8408
誓	-10.8408
密集	-10.8409
15克	-10.8409
192	-10.841
80年代	-10.841
商务中心	-10.8412
北侧	-10.8413
聪明	-10.8416
受到了	-10.8417
。”宋	-10.842
反映了	-10.842
。辖	-10.8422
遭到	-10.8422
适当	-10.8423
106	-10.8426
数字化	-10.8427
眼科	-10.8427
时空	-10.8427
中心。	-10.8428
与其	-10.8429
毕业,	-10.8429
珠海	-10.8429
实业有限公司	-10.843
生产厂家	-10.8431
做成	-10.8432
规划、	-10.8432
80%	-10.8433
水质	-10.8434
苏区	-10.8434
重修	-10.8434
省内	-10.8436
扰	-10.8436
想要	-10.8438
主板	-10.8438
实训	-10.8438
正式成立	-10.844
招收	-10.8441
来的	-10.8441
讲座	-10.8442
三峡	-10.8443
研究所所长	-10.8444
场上	-10.8446
中期	-10.8448
更换	-10.8449
窦	-10.8451
对手	-10.8452
生产工艺	-10.8452
地理位置优越	-10.8453
优秀共产党员	-10.8457
探测	-10.8457
支流	-10.8459
河畔	-10.8459
来源于	-10.8459
淡水	-10.8462
柔毛	-10.8465
农作物	-10.8465
皂	-10.8467
关怀	-10.8471
地址:	-10.8471
,现已	-10.8472
、陈	-10.8473
▁此	-10.8475
的话	-10.8476
社会的	-10.8476
了一	-10.8477
衍	-10.8479
铝合金	-10.848
▁(二)	-10.8481
技术开发	-10.8482
诵	-10.8483
省委党校	-10.8484
钞	-10.8487
描绘	-10.8488
沁	-10.8489
诱	-10.8491
/3	-10.8492
的网络	-10.8494
激素	-10.8495
种,	-10.8496
靠近	-10.8496
列为	-10.8496
诊治	-10.8498
较好的	-10.8498
衔	-10.8499
改称	-10.85
崩	-10.85
斯坦	-10.85
机构,	-10.8501
英格兰	-10.8502
庞	-10.8502
高级中学	-10.8502
开采	-10.8504
报》、《	-10.8508
黄山	-10.8509
蛮	-10.8512
有一定	-10.8512
婚礼	-10.8517
以北	-10.8519
志愿者	-10.8521
不见	-10.8522
愚	-10.8524
岐	-10.8527
陆续	-10.8527
萌	-10.8529
魁	-10.8529
家。	-10.8531
减轻	-10.8532
菲律宾	-10.8533
又叫	-10.8536
霉	-10.8536
侵	-10.8536
体会	-10.8538
必要	-10.8542
政委	-10.8544
”称号。	-10.8547
竞技	-10.8548
安防	-10.8549
讲授	-10.855
办公楼	-10.8552
逝	-10.8553
备案	-10.8554
的现代化	-10.8554
有效地	-10.8554
还要	-10.8556
上世纪	-10.8556
客户提供	-10.8556
六个	-10.8558
出现了	-10.8558
师资	-10.8559
制作的	-10.8563
,始建于	-10.8569
四方	-10.8571
大学文化	-10.8571
;在	-10.8572
带来的	-10.8575
全面发展	-10.8577
知名品牌	-10.8577
被评为“	-10.8578
这类	-10.8578
为您提供	-10.8579
坯	-10.858
大胆	-10.8583
北面	-10.8586
(2	-10.8586
。”唐	-10.8587
4%	-10.8588
电网	-10.8593
,同时也	-10.8595
堰	-10.8597
可容纳	-10.86
,每年	-10.8601
莫斯科	-10.8601
匪	-10.8605
伙伴	-10.8605
科研课题	-10.8605
邮票	-10.8605
川县	-10.8606
工程系	-10.8608
民用	-10.8609
商学院	-10.861
南通	-10.8611
商圈	-10.8612
、王	-10.8614
舜	-10.8615
天气	-10.8617
债	-10.8617
等产品	-10.8617
力度	-10.8619
熬	-10.8622
不宜	-10.8623
,这个	-10.8623
账	-10.8625
海域	-10.8626
所需	-10.8628
,全村	-10.8629
对应	-10.8629
科学的	-10.863
广大客户	-10.8635
750	-10.8635
厨房	-10.8636
删除	-10.8637
一边	-10.8638
,有时	-10.8639
山村	-10.8641
架构	-10.8643
▁2011年	-10.8643
伙	-10.8648
歌词	-10.8649
应力	-10.865
一幅	-10.8656
铁道	-10.8657
8人	-10.8661
8人,	-10.8662
都在	-10.8662
短期	-10.8664
/1	-10.8664
上市公司	-10.8665
教研室主任	-10.8665
ˇ	-10.8666
柏林	-10.8671
西汉	-10.8671
。所以	-10.8674
法律、法规	-10.8674
中国当代	-10.8676
从小	-10.8677
课堂	-10.8677
绪	-10.8679
奋	-10.8682
毫升	-10.8682
舱	-10.8682
花纹	-10.8684
少将	-10.8686
在这个	-10.8689
威胁	-10.869
镇位于	-10.869
英文名	-10.8692
炳	-10.8694
涨	-10.8696
建设项目	-10.8699
主要原料	-10.8701
师从	-10.8702
万字	-10.8703
卷,	-10.8703
努	-10.8704
游击	-10.8705
为核心	-10.8707
头,	-10.8711
渭	-10.8711
3.8	-10.8712
出场	-10.8713
一体	-10.8713
病理	-10.8715
学堂	-10.8717
优质服务	-10.8718
饱	-10.8718
姑娘	-10.8719
而言	-10.872
渤海	-10.8725
审美	-10.8725
杖	-10.8726
冲突	-10.8728
更有	-10.8731
很有	-10.8732
横向	-10.8733
境界	-10.8733
的目的	-10.8734
实务	-10.8734
第6	-10.8734
,例如	-10.8734
,利用	-10.8735
语言学	-10.8735
杆菌	-10.8736
噪音	-10.8736
而得名。	-10.8739
内地	-10.8741
社会学	-10.8742
庶	-10.8745
野生	-10.8746
国际标准	-10.8746
钛	-10.8747
防火	-10.875
石头	-10.875
学会会员	-10.8751
《中华人民共和国	-10.8753
岂	-10.8753
地名	-10.8756
天堂	-10.876
厘米。	-10.876
合法	-10.876
获国家	-10.876
挥	-10.8763
,全面	-10.8766
冥	-10.8766
投影	-10.8771
型企业	-10.8773
,共有	-10.8774
。它是	-10.8774
狮子	-10.8774
是因为	-10.8777
100多	-10.8778
面包	-10.8778
南侧	-10.878
路与	-10.878
铁路局	-10.878
、国家	-10.8783
并非	-10.8787
首创	-10.8789
。用于	-10.8789
电厂	-10.8789
匙	-10.8791
粒子	-10.8791
。2007年	-10.8792
,隶属	-10.8793
大厅	-10.8793
锥	-10.8795
0～	-10.8798
同类	-10.8798
′′	-10.8799
处副处长	-10.88
浏览器	-10.88
纷	-10.88
。2009年	-10.8801
路口	-10.8801
黑白	-10.8802
省道	-10.8802
"、"	-10.8802
使其	-10.8802
、金	-10.8807
信息服务	-10.8807
对策	-10.8808
面貌	-10.881
的一些	-10.8811
可选	-10.8812
不详	-10.8813
▁2006年	-10.8814
管理模式	-10.8815
最先进的	-10.8816
情节	-10.8818
之中,	-10.8818
,2004年	-10.882
发现了	-10.8822
,能够	-10.8823
券	-10.8824
序列	-10.8826
村内	-10.8826
作词	-10.8826
。2004年	-10.8826
是目前	-10.8826
特产	-10.8827
双重	-10.8831
封建	-10.8832
委员会副主任	-10.8834
水上	-10.8835
工学院	-10.8835
峡谷	-10.8837
4人,	-10.884
死后	-10.8841
游戏中	-10.8842
6号	-10.8842
复杂的	-10.8843
平方	-10.8845
五代	-10.8848
武汉大学	-10.8848
功能。	-10.8849
电视剧《	-10.8855
近百	-10.8856
进化	-10.8857
气质	-10.8857
自治	-10.886
认知	-10.886
柔软	-10.8863
摊	-10.8865
毫米,适宜种植	-10.8867
,都	-10.8867
风云	-10.8867
20分钟	-10.8867
15分钟	-10.8869
岁,	-10.887
网络营销	-10.887
难度	-10.8871
实用性	-10.8871
桃花	-10.8874
是一本	-10.8876
感动	-10.8876
州区	-10.8877
排放	-10.8878
风扇	-10.8878
球场	-10.888
不需要	-10.8882
展会	-10.8883
多部	-10.8885
基本参数	-10.8885
政协副主席	-10.8886
最高的	-10.8887
委员,	-10.8889
彼此	-10.8889
^	-10.8889
工程技术	-10.8896
薪	-10.8896
黏	-10.8897
龙头企业	-10.8899
平时	-10.89
高于	-10.8905
被称为“	-10.8907
火车	-10.8907
500米	-10.891
心情	-10.8911
说明书	-10.8912
公正	-10.8912
中学高级教师	-10.8913
阿拉伯	-10.8916
。’”	-10.8919
二年(	-10.892
披针形	-10.892
低压	-10.892
10公里	-10.8921
歌舞	-10.8922
水量	-10.8925
厌	-10.8925
8月参加工作,	-10.8929
。由	-10.8929
延续	-10.8929
对面	-10.893
体现了	-10.8931
摩擦	-10.8933
过程中,	-10.8933
参谋长	-10.8934
今后	-10.8937
1989	-10.8937
,随着	-10.8937
家协会会员	-10.8938
;《	-10.8938
的传统	-10.8939
20%	-10.894
总资产	-10.8941
保养	-10.8942
所用	-10.8942
整齐	-10.8943
千米	-10.8944
胡同	-10.8945
果树	-10.8946
、商务	-10.8947
一首	-10.8948
,这里	-10.8949
资源,	-10.8952
1988	-10.8953
骨科	-10.8953
的安全	-10.8954
登场	-10.8954
室外	-10.8955
应用程序	-10.8956
振兴	-10.8956
在其	-10.8957
于2009年	-10.8957
仪、	-10.8959
的一家	-10.8959
冷水	-10.8959
一半	-10.8961
成立,	-10.8961
人称	-10.8963
较低	-10.8964
立法	-10.8965
解放后	-10.8965
,那么	-10.8966
寓	-10.8966
,擅长	-10.8967
眼镜	-10.8967
病、	-10.8967
品牌。	-10.8967
千万	-10.8968
。另外,	-10.8969
界的	-10.8969
瞬间	-10.897
临床工作	-10.897
二十年	-10.8973
俞	-10.8974
敬业	-10.8975
卫视	-10.8978
各有	-10.8979
年轻人	-10.898
。经过	-10.8981
多样	-10.8982
;1	-10.8984
爱的	-10.8986
等待	-10.8988
永久	-10.8989
之家	-10.8989
旅客	-10.8989
握	-10.8992
麻醉	-10.8993
医学会	-10.8994
获省	-10.8995
鳞片	-10.8996
书》	-10.8997
更好地	-10.8999
(其中	-10.9002
中国大陆	-10.9003
酚	-10.9009
紧张	-10.9012
流水	-10.9013
了许多	-10.9013
艘	-10.9014
拼搏	-10.9014
占领	-10.9015
交往	-10.9015
叙述	-10.9018
的效果	-10.9018
隔离	-10.902
:6	-10.902
上映	-10.9022
涉外	-10.9023
工程施工	-10.9023
、社会	-10.9026
老年人	-10.9027
牢	-10.9027
阮	-10.9027
岛上	-10.9029
园艺	-10.9031
作风	-10.9031
于2010年	-10.9032
于2011年	-10.9032
天空	-10.9032
地势	-10.9032
5°C	-10.9034
旋律	-10.9034
软件开发	-10.9037
西亚	-10.9037
站在	-10.9037
乞	-10.9038
率领	-10.9039
琪	-10.9039
历史文化	-10.9047
中国人民大学	-10.9048
标签	-10.9048
文体	-10.9049
卸	-10.9049
收获	-10.9049
做法	-10.9049
之称	-10.9054
,尤其	-10.9054
争议	-10.9054
记·	-10.9055
的力量	-10.9057
姓氏	-10.9059
休息	-10.9061
拒绝	-10.9065
前身是	-10.9065
大战	-10.9067
优先	-10.9068
鞘	-10.9069
:10	-10.9069
嗜	-10.907
火箭	-10.907
男孩	-10.9072
,2005年	-10.9072
,它们	-10.9073
气氛	-10.9074
要求,	-10.9074
回家	-10.9075
改建	-10.9076
系统集成	-10.9076
中国国际	-10.9076
区委	-10.9078
丞	-10.9078
礁	-10.9079
迅	-10.9079
而成,	-10.908
。一般	-10.908
总户数	-10.9082
9000	-10.9083
人参	-10.9086
子、	-10.9087
公平	-10.9088
校级	-10.9089
高素质的	-10.9092
中东	-10.9094
中心主任	-10.9096
大批	-10.9097
5人	-10.9097
之上	-10.9099
治安	-10.91
在一个	-10.91
达标	-10.9102
菜单	-10.9102
等多个	-10.9103
抢救	-10.9107
椅	-10.9107
210	-10.9109
运动会	-10.9111
。酒店	-10.9111
的品牌	-10.9112
切实	-10.9114
平板	-10.9116
有益	-10.9118
勿	-10.9118
祭祀	-10.9119
民营	-10.912
生日	-10.9121
大连市	-10.9122
全校	-10.9122
很好	-10.9123
的最新	-10.9124
湖泊	-10.9128
在内的	-10.913
,基部	-10.9132
保修	-10.9133
技术研究	-10.9135
栅	-10.9135
婴儿	-10.9136
,作者	-10.9137
悠	-10.914
,给	-10.9141
生化	-10.9141
。2002年	-10.9145
论述	-10.9145
通俗	-10.9148
自身的	-10.9148
个月	-10.915
这座	-10.915
。但是	-10.9151
瓷器	-10.9152
牺牲。	-10.9153
地貌	-10.9153
风湿	-10.9154
朋	-10.9157
生产销售	-10.9159
抑	-10.9164
,1984年	-10.9165
卡拉	-10.9166
内容包括	-10.917
荐	-10.9171
装甲	-10.9171
,当时	-10.9172
合一	-10.9174
声乐	-10.9175
脉冲	-10.9175
达到了	-10.9175
,隶属于	-10.9177
为宗旨	-10.9177
相结合	-10.9178
垒	-10.9178
后者	-10.9179
研究会理事	-10.918
打印机	-10.9181
点,	-10.9183
与发展	-10.9183
后在	-10.9184
历史悠久	-10.9184
▁他	-10.9185
的朋友	-10.9185
大同	-10.9186
可在	-10.9188
概论	-10.9189
被捕	-10.919
疗	-10.919
都要	-10.9191
4.0	-10.9193
队伍,	-10.9197
北海	-10.9197
沂	-10.9197
200米	-10.9201
1/3	-10.9201
代理商	-10.9202
通过对	-10.9206
惨	-10.9207
这么	-10.9209
揉	-10.921
样品	-10.9211
人大常委会	-10.9213
大展	-10.9214
扎实	-10.9214
个教学班	-10.9216
稠	-10.9218
产权	-10.9222
9.5	-10.9224
卫浴	-10.9225
0°C	-10.9225
第六届	-10.9226
病逝	-10.9227
,称为	-10.9227
正规	-10.9228
的情况	-10.9232
新四军	-10.9236
新品种	-10.9238
也许	-10.9239
之所	-10.924
拉斯	-10.9242
可爱	-10.9242
骏	-10.9243
5厘米	-10.9244
,若	-10.9244
品牌的	-10.9247
专家,	-10.9249
崎	-10.9249
技师	-10.925
私立	-10.9251
顶部	-10.9251
节省	-10.9252
强烈的	-10.9255
的游戏	-10.9256
日报》	-10.9257
捐	-10.9258
▁『	-10.9259
致力	-10.926
自然科学	-10.926
党校	-10.9261
灾害	-10.9261
纷纷	-10.9262
饮用	-10.9263
五月	-10.9263
赋予	-10.9263
散热	-10.9264
裤	-10.9264
1两,	-10.9266
路上	-10.9266
跨越	-10.9268
、休闲	-10.9269
子女	-10.927
底,	-10.9271
1985	-10.9272
说话	-10.928
邻近	-10.9281
婉	-10.9282
相望	-10.9283
1984	-10.9283
面积2	-10.9285
氨酸	-10.9285
:8	-10.9285
卑	-10.9286
单纯	-10.9287
股份	-10.9287
让我们	-10.9287
解析	-10.9287
经贸	-10.9288
千余	-10.9289
即使	-10.9289
好友	-10.9289
▁从	-10.929
监督检查	-10.9292
透过	-10.9292
大专	-10.9294
回国	-10.9295
宪法	-10.9295
的价格	-10.9298
▁2007年	-10.9298
田径	-10.9298
工程技术人员	-10.9299
,虽然	-10.9306
不敢	-10.9308
南面	-10.9308
改良	-10.9308
。这是	-10.9309
甲级	-10.9312
)等	-10.9315
循	-10.9316
,参与	-10.9319
单位:	-10.9322
可以通过	-10.9323
社会团体	-10.9329
,用于	-10.9334
企业集团	-10.9334
3.7	-10.9334
蔚	-10.9335
木质	-10.9335
的具体	-10.9338
副研究员	-10.9348
教程	-10.9349
南宁	-10.935
垦	-10.935
写字楼	-10.9352
成熟的	-10.9352
一贯	-10.9352
力求	-10.9352
各自	-10.9354
植株	-10.9354
专注	-10.9354
文化部	-10.9355
总局	-10.9355
,尤	-10.9356
II	-10.9358
[	-10.9358
在校生	-10.936
系。	-10.936
龙门	-10.9362
加工、	-10.9366
火腿	-10.9368
金山	-10.9368
и	-10.937
矿产	-10.9371
置于	-10.9376
偶像	-10.9376
能力和	-10.9381
高峰	-10.9389
源自	-10.939
蓄	-10.939
制造业	-10.9391
已被	-10.9391
嵌	-10.9391
协同	-10.9392
30%	-10.9393
萝卜	-10.9395
宗旨,	-10.9396
》)	-10.9398
1986	-10.94
的角度	-10.9402
标兵	-10.9404
表现出	-10.9404
词典	-10.9407
罕	-10.9409
发展,	-10.941
7月毕业于	-10.9411
(约	-10.9411
直流	-10.9412
的努力	-10.9413
选拔	-10.9413
2名	-10.9414
。1998年	-10.9414
是一道	-10.9416
米,年平均气温	-10.942
类、	-10.942
效力于	-10.9422
高尚	-10.9422
灵魂	-10.9423
造成的	-10.9426
嵩	-10.9426
冷冻	-10.9428
种。	-10.9429
相同的	-10.9429
中青年	-10.943
统筹	-10.9432
的研发	-10.9432
112	-10.9433
过渡	-10.9433
依赖	-10.9433
童话	-10.9433
剧目	-10.9433
4.8	-10.9434
本着“	-10.9435
184	-10.9435
纪念馆	-10.9436
还能	-10.9439
文档	-10.944
高性能	-10.9441
经销	-10.9442
该项目	-10.9442
南宁市	-10.9442
片、	-10.9443
委员、	-10.9443
民政	-10.9446
菜肴	-10.9446
,只要	-10.9446
大规模	-10.9447
宫廷	-10.9447
的理论	-10.9448
的学习	-10.9448
尚未	-10.9453
之下	-10.9454
南阳	-10.9455
有一定的	-10.9455
现金	-10.9458
主任。	-10.946
校舍	-10.946
滋	-10.946
有限公司是一家	-10.9463
时装	-10.9466
,加强	-10.9466
中华民族	-10.9467
科植物	-10.9468
批评	-10.947
人格	-10.9471
携	-10.9472
合资	-10.9472
。近年来,	-10.9472
2500	-10.9472
产品类型:	-10.9475
面料	-10.9476
痛苦	-10.9476
工程设计	-10.9476
,北与	-10.9477
200克	-10.9477
5.2	-10.9477
的文化	-10.9478
预计	-10.9481
浊	-10.9482
我们将	-10.9483
,应	-10.9484
▁北京	-10.9484
评委	-10.9484
1987	-10.9485
国家标准	-10.9487
基地。	-10.9488
是根据	-10.9488
年间,	-10.9489
相结合的	-10.949
,2006年	-10.949
登陆	-10.9491
关系。	-10.9491
汀	-10.9492
的事情	-10.9497
袖	-10.9498
向前	-10.9499
投产	-10.9499
养护	-10.95
矩	-10.95
的故事。	-10.9507
步兵	-10.9509
充电	-10.9517
,人们	-10.9517
,距县城	-10.9517
而得名	-10.9517
演讲	-10.9518
淮南	-10.952
旅行社	-10.9521
筹备	-10.9521
4.3	-10.9522
矢	-10.9526
1.9	-10.9528
斥	-10.9533
热量	-10.9533
支援	-10.9534
赛季	-10.9534
人。中共党员。	-10.9538
女主角	-10.9538
50米	-10.9539
方针政策	-10.954
元代	-10.954
有许多	-10.9542
不知道	-10.9543
1925年	-10.9543
橘	-10.9543
公里处,	-10.9544
的新型	-10.9546
,也可	-10.9547
优越	-10.9549
十余年	-10.955
102	-10.955
仲裁	-10.955
每一位	-10.9552
加水	-10.9552
还可	-10.9552
歇	-10.9552
下了	-10.9555
村镇	-10.9556
不断创新	-10.9558
正义	-10.9559
好评。	-10.9559
八角	-10.9562
武昌	-10.9573
主要生产	-10.9573
135	-10.9573
的规定	-10.9575
发生了	-10.9575
大米	-10.9576
镍	-10.9577
名医	-10.958
秋季	-10.9581
,毕业于	-10.9583
人,中共党员,	-10.9588
草地	-10.9589
▁2005年	-10.959
1名	-10.9591
外表	-10.9592
走进	-10.9595
不含	-10.9596
,总面积	-10.9597
发展成为	-10.9599
难题	-10.96
室主任	-10.96
直立	-10.9601
更好	-10.9601
,直到	-10.9602
综合征	-10.9604
中心小学	-10.9605
风格的	-10.9605
翘	-10.9607
当时的	-10.9608
一度	-10.9609
番茄	-10.961
的声音	-10.9611
研究、	-10.9612
否	-10.9614
▁2010年	-10.9614
组件	-10.9614
有很多	-10.9615
3.4	-10.9616
亦有	-10.9616
人均	-10.9617
傍	-10.962
瘀	-10.962
等国家	-10.962
得名	-10.9621
中型	-10.9622
对照	-10.9622
漳	-10.9622
调任	-10.9622
的过程	-10.9624
中最	-10.9625
有限公司成立于	-10.963
专业委员会委员	-10.9631
标识	-10.9631
的优势	-10.9632
化妆	-10.9632
合作关系	-10.9632
”字	-10.9633
均衡	-10.9633
伽	-10.9635
比利时	-10.9636
出生在	-10.9638
始于	-10.9638
三层	-10.9641
撤销	-10.9645
(15	-10.9647
抓住	-10.9648
千里	-10.965
拥有一支	-10.9652
我省	-10.9652
现有员工	-10.9652
细长	-10.9652
运河	-10.9654
溪县	-10.9655
是国家	-10.966
缅甸	-10.966
自学	-10.966
20多	-10.9661
立体声	-10.9666
天文	-10.9667
于一体	-10.9668
邮政编码	-10.9668
优秀论文	-10.9671
先进技术	-10.9671
书,	-10.9672
培训、	-10.9673
纹饰	-10.9674
贸	-10.9674
可口	-10.9676
原料:	-10.9676
奥地利	-10.9678
水域	-10.9679
口,	-10.9679
绘制	-10.9679
新西兰	-10.9682
的一款	-10.9683
行业协会	-10.9684
卒于	-10.9685
孩子们	-10.9686
有序	-10.9686
工委	-10.9687
热点	-10.9687
论》	-10.9689
115	-10.9689
近几年	-10.9691
不规则	-10.9691
社会发展	-10.9694
医疗器械	-10.9695
滨海	-10.9697
航空公司	-10.9698
∶	-10.9698
画院	-10.97
语法	-10.9701
开拓创新	-10.9702
网是	-10.9702
论证	-10.9703
钧	-10.9704
政治部	-10.9704
洗干净	-10.9704
衣服	-10.9705
十几	-10.9705
,2002年	-10.9706
可能是	-10.9706
唐朝	-10.9706
。2003年	-10.9707
妄	-10.9708
站点	-10.9708
,2003年	-10.9711
浮雕	-10.9711
浓郁	-10.9712
清热	-10.9713
苗族	-10.9715
放大	-10.9716
专辑《	-10.9719
时任	-10.9719
访问学者	-10.972
清理	-10.9723
研究,	-10.9725
杀菌	-10.9727
主任医师,	-10.9728
,打造	-10.9728
管理制度	-10.9728
招商引资	-10.973
监狱	-10.9732
高质量	-10.9732
,今	-10.9734
嘎	-10.9735
意为	-10.9738
为国家	-10.9738
双向	-10.9739
。分布于	-10.974
概述	-10.974
研究。	-10.974
。这里	-10.9742
,人口	-10.9743
民生	-10.9743
发扬	-10.9744
体系,	-10.9745
脏	-10.9746
在香港	-10.9746
蝴蝶	-10.9747
气动	-10.9747
并不是	-10.9748
办主任	-10.9751
闯	-10.9751
女生	-10.9752
≥	-10.9754
切换	-10.9755
教员	-10.9759
30分钟	-10.9762
欠	-10.9762
明·	-10.9763
绞	-10.9765
百合	-10.977
等专业	-10.9773
光谱	-10.9777
余人,	-10.9778
禁止	-10.9779
粉丝	-10.978
于2005年	-10.978
摇滚	-10.9782
机理	-10.9783
网点	-10.9783
开始了	-10.9785
珍贵	-10.9786
,1998年	-10.9787
并没有	-10.9788
毕业于北京	-10.9788
财经大学	-10.9789
教会	-10.979
公里,距	-10.9792
于2012年	-10.9794
膨胀	-10.9797
,或者	-10.9798
范围:	-10.9801
材料的	-10.9801
发光	-10.9801
员。	-10.9803
手续	-10.9805
大火	-10.9805
一直从事	-10.9805
璧	-10.9806
即时	-10.9809
、石	-10.9809
抬	-10.9809
套房	-10.9809
科协	-10.9812
。1949年	-10.9815
发行的	-10.9815
啦	-10.9816
翰	-10.9819
耿	-10.9824
往来	-10.9825
微软	-10.9826
学院院长	-10.9828
岁月	-10.9829
大学毕业	-10.9829
共赢	-10.983
哥哥	-10.9831
各部门	-10.9831
纳税	-10.9831
特点:	-10.9831
途中	-10.9832
遵守	-10.9837
建制	-10.9838
南山	-10.9839
冰箱	-10.984
溶剂	-10.9842
核算	-10.9842
山庄	-10.9843
经纪	-10.9846
.....	-10.9847
昆山	-10.9848
月刊	-10.9848
国语	-10.9849
直达	-10.985
贵阳	-10.9851
种植业	-10.9852
断裂	-10.9853
装配	-10.9855
。这个	-10.9855
待遇	-10.9857
加入中国共产党,	-10.986
中科院	-10.9863
海峡	-10.9866
的特色	-10.9866
获得者	-10.9867
101	-10.9867
▁酒店	-10.9867
收到	-10.9867
一号	-10.9868
质地	-10.987
在我国	-10.987
鸡肉	-10.987
()的	-10.9872
目的是	-10.9874
附录	-10.9876
的质量	-10.9877
经济建设	-10.9878
,并将	-10.988
关系,	-10.9881
可靠的	-10.9881
家庄	-10.9885
产品开发	-10.9885
是指在	-10.9886
条,	-10.9886
单位,	-10.9888
星期	-10.9889
快速发展	-10.989
系列、	-10.9893
面团	-10.9894
曾先后	-10.9895
噪声	-10.9897
裴	-10.9897
遗迹	-10.9899
分别是	-10.99
学校占地面积	-10.9901
史料	-10.9901
发展有限公司	-10.9902
量的	-10.9902
第二次	-10.9904
出版的	-10.9905
制备	-10.9905
纵队	-10.9907
必备	-10.9908
花序	-10.991
尽管	-10.991
至于	-10.9912
的教育	-10.9917
铬	-10.9918
一同	-10.9919
成份	-10.9919
要点	-10.992
占据	-10.9923
是一家以	-10.9923
▁第二节	-10.9924
肆	-10.993
独家	-10.9931
理事会	-10.9935
室,	-10.9936
,帮助	-10.9937
+1	-10.9938
妹妹	-10.994
日期:	-10.9945
交通方便	-10.9945
总队	-10.9946
转型	-10.9948
。例如	-10.9949
距离村委会	-10.9951
的机会	-10.9952
突出贡献	-10.9952
微型	-10.9953
这时	-10.9953
额定	-10.9954
寺院	-10.9956
:30	-10.9957
▁据	-10.9957
的数据	-10.9959
棍	-10.9959
检测设备	-10.9959
≤	-10.996
宋·	-10.996
以上,	-10.996
农田	-10.9961
上方	-10.9963
中介	-10.9965
菱	-10.9966
遵	-10.9966
工程项目	-10.9967
杀害	-10.9968
乡位于	-10.9969
当归	-10.997
7号	-10.9972
9001	-10.9972
微米	-10.9972
处长	-10.9973
部主任	-10.9974
建设和	-10.9976
”牌	-10.9977
天主教	-10.9977
太空	-10.9979
前卫	-10.998
10人	-10.9981
,呈	-10.9983
到底	-10.9984
260	-10.9984
精通	-10.9985
明显的	-10.9987
痴	-10.9988
10000	-10.9989
,中共	-10.9989
用途:	-10.9991
流域	-10.9992
高标准	-10.9994
经营理念	-10.9995
烟草	-10.9996
选育	-10.9996
扶持	-10.9997
纪委	-10.9998
巩固	-11
。1992年	-11
体型	-11
风水	-11
矿床	-11.0001
栖息	-11.0002
让您	-11.0003
戊	-11.0006
寅	-11.0007
表现为	-11.0007
万里	-11.0007
慰	-11.0009
总部位于	-11.001
随意	-11.0011
发现的	-11.0012
人造	-11.0012
壁画	-11.0013
5.1	-11.0016
建立的	-11.0016
体的	-11.0016
等工作	-11.0017
,比对照	-11.0017
颇有	-11.0018
市委、市政府	-11.0019
总部设在	-11.002
与应用	-11.002
辊	-11.0021
你们	-11.0022
剧《	-11.0022
▁其它	-11.0023
某个	-11.0026
晚上	-11.0028
会有	-11.0031
国家重点	-11.0032
2×	-11.0033
美术馆	-11.0035
剂量	-11.0035
迦	-11.0035
糯米	-11.0035
微波	-11.0038
水资源	-11.0038
领导人	-11.004
参赛	-11.0044
质量管理体系	-11.0045
邮电	-11.0045
。”明	-11.0047
奥林匹克	-11.0047
近年	-11.0047
自助	-11.0048
7000	-11.0048
。清	-11.0049
“五	-11.0049
平等	-11.0049
,比如	-11.0051
惜	-11.0053
的支持	-11.0054
有限公司、	-11.0057
如下:	-11.0059
丹麦	-11.0061
辱	-11.0066
座落于	-11.0069
7人	-11.007
的关键	-11.0072
局面	-11.0072
入侵	-11.0072
咳嗽	-11.0073
汉代	-11.0074
验证	-11.0075
培训班	-11.0077
各方面	-11.0078
约2	-11.0078
还在	-11.0085
方程	-11.0085
特聘	-11.0088
桥镇	-11.0088
–	-11.0089
等功能	-11.0091
科员	-11.0093
米的	-11.0093
骗	-11.0094
所致	-11.0094
后面	-11.0095
岚	-11.0095
背后	-11.0097
▁7	-11.0098
钻石	-11.01
石油化工	-11.01
,改	-11.0101
商店	-11.0103
198	-11.0104
自行车	-11.0104
实践中	-11.0106
前列	-11.011
裸	-11.011
将以	-11.0111
塌	-11.0112
▁用法	-11.0113
,主要从事	-11.0113
书法作品	-11.0115
行,	-11.0115
采访	-11.0116
的经济	-11.0118
20克	-11.0118
州刺史	-11.012
。2001年	-11.0121
。擅长	-11.0123
面部	-11.0124
祀	-11.0125
一定要	-11.0126
承受	-11.0126
服役	-11.0126
5.6	-11.0126
▁由于	-11.0127
5米	-11.0129
蛾	-11.013
建筑设计	-11.0131
蓉	-11.0132
亿元。	-11.0132
委组织部	-11.0134
农家	-11.0136
敲	-11.0137
观看	-11.0139
前景	-11.0139
门,	-11.014
研发、	-11.0144
晋升	-11.0146
白酒	-11.0147
教育工作	-11.0148
奇特	-11.0153
。明	-11.0155
建设,	-11.0159
品味	-11.016
后再	-11.016
的部分	-11.0162
多次被评为	-11.0168
的相关	-11.0169
8公里	-11.017
党组成员、	-11.0171
极限	-11.0171
品位	-11.0172
以太网	-11.0175
战术	-11.0178
他还	-11.0181
意思是	-11.0181
%%	-11.0181
280	-11.0182
舆	-11.0182
开展了	-11.0182
伟大	-11.0182
著有《	-11.0182
结构,	-11.0183
转速	-11.0184
妆	-11.0184
疯狂	-11.0186
质保	-11.0187
相接	-11.0191
结构的	-11.0192
显示器	-11.0193
标本	-11.0195
放置	-11.0196
绩效	-11.0196
会展	-11.0198
家里	-11.0199
内分泌	-11.0199
石刻	-11.02
即成。	-11.02
氯化	-11.02
入门	-11.0201
戎	-11.0202
减肥	-11.0202
▁7、	-11.0204
分成	-11.0204
恋爱	-11.0205
镶	-11.0205
学系	-11.0205
两者	-11.0206
提前	-11.0208
项目。	-11.0208
妈	-11.0208
兵器	-11.0208
土耳其	-11.0211
悔	-11.0211
共分	-11.0211
婴	-11.0212
之作	-11.0212
功率:	-11.0213
商务酒店	-11.0213
顶尖	-11.0213
这款	-11.0214
教委	-11.0214
阎	-11.0214
长大	-11.0216
实践经验	-11.0219
,仅	-11.0219
说法	-11.0219
在校	-11.022
蝉	-11.0221
安全性	-11.0224
该品种	-11.0224
深厚	-11.0224
550	-11.0224
市教育局	-11.0224
厘米,宽	-11.0224
工商管理	-11.0225
,放	-11.0225
此书	-11.0226
天然气	-11.0226
转让	-11.0227
中山大学	-11.0227
贬	-11.0227
。1995年	-11.0228
峻	-11.023
热处理	-11.023
即为	-11.0234
有助于	-11.0234
、北	-11.0236
簿	-11.0236
河道	-11.0237
守护	-11.0241
不管	-11.0243
先后获得	-11.0243
专任教师	-11.0245
长途	-11.0246
公斤,	-11.0248
彬	-11.0249
等于	-11.0249
于2008年	-11.025
主要内容	-11.0251
富含	-11.0252
230	-11.0253
,建立	-11.0254
机箱	-11.0255
保证了	-11.0256
桓	-11.0256
皮革	-11.0258
如同	-11.0258
克服	-11.0259
高素质	-11.0262
静电	-11.0266
文化交流	-11.0267
出售	-11.0267
,汉族,	-11.0269
定为	-11.027
明天	-11.0272
核心期刊	-11.0272
的态度	-11.0272
理性	-11.0272
弹簧	-11.0275
对话	-11.0275
研发、生产、销售	-11.0275
潍坊	-11.0276
分院	-11.0276
策划、	-11.0276
▁7.	-11.0277
管理学	-11.0278
却是	-11.0278
外汇	-11.0278
、网络	-11.0279
。1993年	-11.0279
亚种	-11.028
生物技术	-11.0281
设备。	-11.0281
烤烟	-11.0281
来了	-11.0283
系统中	-11.0289
自信	-11.0291
专业学习	-11.0292
晚年	-11.0292
(现	-11.0293
射线	-11.0293
产业发展	-11.0293
。1997年	-11.0295
摩托车	-11.0296
达成	-11.0297
情景	-11.0305
石材	-11.0306
花鸟	-11.0307
充分利用	-11.0307
清乾隆	-11.0307
哉	-11.0309
事业的	-11.031
保密	-11.0312
不断的	-11.0312
精湛	-11.0312
众生	-11.0313
178	-11.0315
腕	-11.0315
的生命	-11.0316
镀	-11.0317
提高了	-11.0318
对抗	-11.0318
山林	-11.0321
想象	-11.0322
理论和	-11.0323
起伏	-11.0325
趋	-11.0327
鲜明	-11.0327
杀死	-11.0329
▁出版社:	-11.0331
于2006年	-11.0331
,注重	-11.0332
新生	-11.0333
5.4	-11.0333
微机	-11.0334
,1996年	-11.0334
致富	-11.0334
的情况下	-11.0335
吸附	-11.0337
勉	-11.0338
”,是	-11.0339
虑	-11.034
于是	-11.0341
下午	-11.0341
扶贫	-11.0342
场所。	-11.0342
开封	-11.0342
3米	-11.0343
总会	-11.0343
接着	-11.0344
精益求精	-11.0344
全体员工	-11.0344
实物	-11.0345
叛	-11.0346
(17	-11.0347
▁(三)	-11.0349
委员会主任	-11.035
最长	-11.035
以上。	-11.0351
为用户提供	-11.0351
无锡市	-11.0352
南非	-11.0356
广泛用于	-11.0357
状元	-11.0358
权益	-11.0358
物理学	-11.0359
会上	-11.036
,参加	-11.0363
新村	-11.0363
副理事长	-11.0363
暮	-11.0363
专业人才	-11.0364
误差	-11.0364
5.0	-11.0365
知名的	-11.0366
紧邻	-11.0366
桌面	-11.0367
)(	-11.0368
乒乓球	-11.0368
《新	-11.0369
()和	-11.0369
人均收入	-11.0369
(以下简称	-11.0371
设备和	-11.0372
价值的	-11.0373
信息系统	-11.0373
万历	-11.0374
专家。	-11.0374
滕	-11.0378
建成后	-11.038
超声	-11.0381
壮观	-11.0382
驿	-11.0382
注册资本	-11.0383
各界	-11.0384
檀	-11.0384
古人	-11.0384
,保证	-11.0384
商业银行	-11.0386
40余	-11.0386
克拉	-11.039
求职	-11.0391
的结果	-11.0391
贩	-11.0392
健脾	-11.0393
香菜	-11.0394
奠定了	-11.0395
渐渐	-11.0395
全村有	-11.0396
泛指	-11.0399
为一体	-11.04
7人,	-11.0402
求发展	-11.0403
经历了	-11.0404
龙山	-11.0406
平滑	-11.0406
6.7	-11.0406
是通过	-11.0407
为此	-11.0408
油气	-11.0408
姜片	-11.0409
25克	-11.0409
为基础,	-11.0409
名学生	-11.0411
步枪	-11.0411
网游	-11.0412
易于	-11.0415
堵	-11.0415
宰	-11.0415
▁第一节	-11.0415
不同,	-11.0417
幻想	-11.0418
娃	-11.0421
。2012年	-11.0421
更高	-11.0423
结算	-11.0423
酿	-11.0426
厦	-11.0427
,生于	-11.0428
接入	-11.0429
。2000年	-11.0429
,2001年	-11.043
名誉	-11.043
话剧	-11.0432
100米	-11.0434
疲劳	-11.0434
栽	-11.0435
轮胎	-11.0435
工程有限公司	-11.0436
汾	-11.044
重力	-11.044
农业生产	-11.0441
临沂	-11.0441
三百	-11.0443
主治医师	-11.0444
变量	-11.0449
永恒	-11.0451
。1996年	-11.0453
走出	-11.0453
高雅	-11.0453
招标	-11.0454
的儿子	-11.0455
那里	-11.0456
此次	-11.0456
??	-11.0458
最有	-11.0458
、香港	-11.0459
忆	-11.0459
扭	-11.0461
大蒜	-11.0462
东至	-11.0463
,按照	-11.0466
研究的	-11.0466
后人	-11.0469
蔓	-11.047
缓解	-11.0472
评定	-11.0472
华中	-11.0473
日照	-11.0475
梭	-11.0475
士兵	-11.0475
史》	-11.0475
篆刻	-11.0475
反馈	-11.0476
钢材	-11.0477
灯光	-11.0478
点。	-11.0478
,注册资金	-11.0478
见到	-11.0478
职能部门	-11.0479
春天	-11.0484
以往	-11.0486
类别:	-11.0486
龙泉	-11.0487
搏	-11.0489
建设的	-11.0491
颐	-11.0492
党委委员	-11.0494
被列为	-11.0494
窃	-11.0494
中共中央	-11.0495
,中共党员。	-11.0496
名录	-11.0498
游览	-11.0498
盏	-11.0498
溃疡	-11.0498
截至	-11.0499
艺术品	-11.0501
应对	-11.0503
委委员	-11.0503
出道	-11.0504
澳洲	-11.0506
微博	-11.0506
检察	-11.0507
承认	-11.0508
增大	-11.051
的语言	-11.051
,1997年	-11.051
相反	-11.0512
纪委书记	-11.0512
生产技术	-11.0513
,各	-11.0514
不如	-11.0515
厢	-11.0516
浓缩	-11.0516
较强	-11.0517
。虽然	-11.0518
一台	-11.0518
瓯	-11.0519
数千	-11.052
服务业	-11.052
的功效	-11.0522
一直在	-11.0522
о	-11.0523
中级职称	-11.0525
惑	-11.0525
学说	-11.0527
国民经济	-11.0528
南区	-11.0529
—)	-11.0531
赌	-11.0531
集镇	-11.0532
古老的	-11.0532
的角色	-11.0534
县委书记	-11.0537
旧址	-11.054
债券	-11.0541
各项工作	-11.0541
总量	-11.0541
寇	-11.0542
代表性	-11.0544
几年来	-11.0545
通往	-11.0546
绿地	-11.0548
大自然	-11.0548
《关于	-11.055
媒介	-11.0551
基础。	-11.0557
青花	-11.0558
为社会	-11.0558
总工会	-11.0558
锰	-11.0558
特·	-11.056
这是一个	-11.056
因而	-11.056
军官	-11.0561
,那	-11.0562
造诣	-11.0565
阙	-11.0567
品牌,	-11.0568
太湖	-11.0573
科技进步	-11.0575
八路军	-11.0575
药用	-11.0576
――	-11.0577
出色的	-11.0577
总督	-11.0578
金额	-11.0578
楼盘	-11.058
孜	-11.0585
大致	-11.0586
推出了	-11.0586
愿意	-11.0586
阿根廷	-11.0586
楠	-11.0586
勋章	-11.0587
批准,	-11.0587
詹	-11.0588
催	-11.0589
四肢	-11.0589
650	-11.0589
,并以	-11.059
贯彻落实	-11.0592
制成的	-11.0592
学术会议	-11.0593
性别	-11.0595
出版社:	-11.0597
炫	-11.0598
甲状腺	-11.0598
律师事务所	-11.0598
动力学	-11.0599
109	-11.0602
蕴	-11.0602
各式	-11.0603
作品。	-11.0604
。2011年	-11.0606
>>	-11.0606
大学学历,	-11.0609
,还是	-11.0609
有关的	-11.0613
,2000年	-11.0613
规划设计	-11.0614
猜	-11.0614
文史	-11.0614
为止	-11.0615
解读	-11.0615
自治州	-11.0616
方针,	-11.0618
理论与实践	-11.0619
,2007年	-11.0619
老板	-11.0622
开阔	-11.0623
有名的	-11.0624
紧急	-11.0627
,1995年	-11.0628
自愿	-11.063
聚合	-11.0631
缺点	-11.0631
入学	-11.0633
▁现任	-11.0633
间隔	-11.0635
学校的	-11.0636
诠释	-11.064
技术与	-11.0642
银奖	-11.0644
123	-11.0644
н	-11.0644
村隶属于云南省	-11.0644
和尚	-11.0645
罚	-11.0645
疑难	-11.0646
兵团	-11.0647
榕	-11.0647
仗	-11.0649
相机	-11.0649
拼音	-11.065
经国家	-11.0652
以外	-11.0652
为中心	-11.0653
研究开发	-11.0654
▁企业	-11.0656
堪	-11.0659
皱	-11.0659
古老	-11.0662
104	-11.0662
所需的	-11.0663
两项	-11.0665
议会	-11.0665
▁其他	-11.0666
妇联	-11.0667
贯彻执行	-11.0668
特邀	-11.0669
,集	-11.0669
▁(一)	-11.0672
晚会	-11.0673
陈列	-11.0674
一千	-11.0674
,西邻	-11.0675
了一批	-11.0678
爷	-11.0679
生抽	-11.0679
师,	-11.0681
性强	-11.0681
门诊	-11.0682
懂	-11.0682
交通便捷	-11.0684
咨询、	-11.0684
喘	-11.0685
参见	-11.0686
泡沫	-11.0687
改名	-11.0687
帝王	-11.0687
属植物	-11.0689
自来水	-11.0689
、建筑	-11.0689
包围	-11.069
止痛	-11.0691
食谱	-11.0694
巧妙	-11.0694
不断地	-11.0697
100余	-11.0697
机械制造	-11.07
于2007年	-11.07
回报	-11.07
6.	-11.0701
岔	-11.0704
八大	-11.0708
读物	-11.071
崛起	-11.071
之星	-11.071
,随	-11.0711
道光	-11.0712
第七届	-11.0714
高分子	-11.0714
歌剧	-11.0714
极大	-11.0716
起源于	-11.0716
世界的	-11.0717
1～	-11.0719
工商局	-11.0719
现有职工	-11.0719
》是由	-11.0719
脐	-11.0719
君子	-11.072
黄褐色	-11.072
▁2004年	-11.0721
荧光	-11.0721
厄	-11.0721
20-	-11.0721
企业。公司	-11.0721
爵士	-11.0722
教师队伍	-11.0723
9人	-11.0723
第八届	-11.0725
的最佳	-11.0725
4.1	-11.0725
同仁	-11.0727
大中型	-11.0728
、安全	-11.0729
白色,	-11.0732
分区	-11.0732
沥青	-11.0733
环境中	-11.0735
羌	-11.0736
的标准	-11.0739
接头	-11.074
展览会	-11.0742
尔斯	-11.0743
二期	-11.0743
中医学院	-11.0745
营养丰富	-11.0745
分析、	-11.0747
-),	-11.0747
等一系列	-11.0748
地区。	-11.0754
站、	-11.0754
团队,	-11.0754
5月,	-11.0756
中路	-11.0757
园内	-11.0757
珊瑚	-11.0757
图》	-11.0759
兑	-11.0762
定量	-11.0764
配套设施	-11.0765
体制改革	-11.0766
熏	-11.0767
,日本	-11.0768
公办	-11.0768
樊	-11.0769
及其它	-11.077
拘	-11.0771
交互	-11.0774
石英	-11.0774
)字	-11.0776
变为	-11.0777
执业	-11.0781
封闭	-11.0782
副总经理	-11.0784
用量	-11.0785
执导	-11.0787
薇	-11.0788
百家	-11.0788
锯	-11.0789
不等	-11.079
4号	-11.0792
军分区	-11.0792
卡尔	-11.0794
邀	-11.0795
樟	-11.0796
管、	-11.0797
的喜爱	-11.0798
电极	-11.08
语:	-11.08
市公安局	-11.0802
附近的	-11.0803
出色	-11.0803
广西壮族自治区	-11.0804
高品质的	-11.0804
很难	-11.0805
名校	-11.0814
扬声器	-11.0814
第一位	-11.0815
欢乐	-11.0815
分辨率:	-11.0816
光源	-11.0818
武帝	-11.0818
ス	-11.0818
工作;负责	-11.0818
万平米	-11.0821
三人	-11.0822
穿过	-11.0825
刊登	-11.0825
能在	-11.0825
1两	-11.0829
半年	-11.0829
倦	-11.0829
清光绪	-11.0833
鸡精	-11.0835
分行	-11.0837
请求	-11.0838
着重	-11.0838
食品有限公司	-11.0838
沉淀	-11.0839
功夫	-11.0841
毒性	-11.0842
冤	-11.0843
批准的	-11.0844
亦作“	-11.0845
星级	-11.0846
三十年	-11.0847
胀	-11.0853
幼虫	-11.0853
粉碎	-11.0856
人们的	-11.0856
焖	-11.0858
,令	-11.0859
剩	-11.086
遭遇	-11.086
变更	-11.0862
利税	-11.0862
开花	-11.0864
祖籍	-11.0865
汇聚	-11.0866
▁中文	-11.0867
传送	-11.0869
倾向	-11.0869
宿舍	-11.0871
意义。	-11.0871
成年	-11.0873
150克	-11.0875
▁2012年	-11.0875
升降	-11.0875
较少	-11.0877
共产党	-11.0879
9%	-11.088
火焰	-11.0884
格尔	-11.0885
无毒	-11.0885
,虽	-11.0886
720	-11.0888
,参加了	-11.0888
依次	-11.0892
基本上	-11.0892
长时间	-11.0893
长征	-11.0894
流行的	-11.0896
屑	-11.0897
结业	-11.0898
10克,	-11.0898
简约	-11.0898
以东	-11.0898
等地。	-11.0899
绿色,	-11.0901
凝聚	-11.0901
党建	-11.0902
环球	-11.0902
征收	-11.0902
前面	-11.0903
的特殊	-11.0906
▁作为	-11.0906
20公里	-11.0906
注音:	-11.0907
愤	-11.0908
火灾	-11.0908
宏观	-11.0908
硬笔书法	-11.0909
厅、	-11.0909
性状	-11.0909
几种	-11.0912
加密	-11.0912
至今任	-11.0914
学报》	-11.0916
不好	-11.0916
部副部长	-11.0916
浦东	-11.0916
6公里	-11.0918
主要由	-11.092
是我	-11.0924
风俗	-11.0924
村里	-11.0925
学研究	-11.0926
7.6	-11.0928
来电	-11.0928
外包	-11.0929
的战略	-11.0929
公分	-11.0929
第一批	-11.0931
沥	-11.0932
9人,	-11.0932
真的	-11.0933
犹如	-11.0935
设立了	-11.0936
札	-11.0937
社区居委会	-11.0937
博士学位。	-11.0937
的一首	-11.0938
油菜	-11.0938
过多	-11.0938
荣获“	-11.0939
的使用	-11.0941
姿态	-11.0944
出资	-11.0945
东山	-11.0947
,不能	-11.0948
等各类	-11.0948
、刘	-11.0948
▁★	-11.0957
、日本	-11.0957
的实际	-11.0957
、红	-11.0957
金黄色	-11.0959
5.8	-11.096
洁净	-11.096
用房	-11.096
学院教授	-11.0961
研究员,	-11.0961
设计与	-11.0962
沸水	-11.0962
农学院	-11.0963
6.2	-11.0963
排长	-11.0964
不明	-11.0965
篆	-11.0969
学博士学位	-11.0969
教育培训	-11.097
。1994年	-11.097
本村	-11.097
代号	-11.0972
款式	-11.0973
建设工程	-11.0973
的最大	-11.0974
2.9	-11.0974
部。	-11.0975
"="	-11.0975
城堡	-11.0975
演员,	-11.0975
、台湾	-11.0976
倾斜	-11.0979
下去	-11.0979
ル	-11.0981
厦门市	-11.0982
宝贝	-11.0983
急救	-11.0985
的认可	-11.0986
末端	-11.0989
小说《	-11.0989
葡萄牙	-11.099
高级工程师。	-11.099
之意	-11.0993
*2	-11.0995
70%	-11.0996
,北京	-11.0997
亚热带	-11.0998
曲折	-11.0999
线、	-11.1002
关系的	-11.1002
贮	-11.1003
寻求	-11.1004
将成为	-11.1004
色素	-11.1005
的结构	-11.1005
污水处理	-11.1005
依照	-11.1006
离心	-11.1006
坟	-11.101
长1	-11.101
380	-11.101
修理	-11.101
侍郎	-11.1014
也就	-11.1014
是一家专业从事	-11.1015
3名	-11.1015
另有	-11.1015
信心	-11.1018
交汇处	-11.1018
“全国	-11.102
,离	-11.1021
一二	-11.1022
无穷	-11.1022
湖区	-11.1022
客座教授	-11.1023
。’	-11.1024
精湛的	-11.1025
天子	-11.1026
▁上海	-11.1026
杂质	-11.1026
亿元人民币	-11.1026
全力	-11.1027
组成部分	-11.1028
不论	-11.1029
财政部	-11.103
。1999年	-11.1031
е	-11.1031
10万	-11.1032
清末	-11.1033
远销	-11.1035
服务机构	-11.1035
榨	-11.1036
十二年	-11.1036
19世纪	-11.1036
出行	-11.1037
10月,	-11.1037
党组副书记	-11.1038
门窗	-11.104
拒	-11.1041
于2004年	-11.1041
芥	-11.1045
世界杯	-11.1047
此地	-11.1048
女士	-11.1049
机车	-11.1049
博客	-11.105
油、	-11.105
行业中	-11.105
用户提供	-11.1051
睡眠	-11.1053
跟随	-11.1055
人中共党员	-11.1056
搬迁	-11.1056
(4)	-11.1056
,一直	-11.1058
应邀	-11.106
奖,	-11.106
。2010年	-11.1061
受理	-11.1063
袍	-11.1063
配料	-11.1066
定时	-11.1066
枢	-11.1067
个教学班,	-11.1068
生产加工	-11.1068
人民检察院	-11.1069
药材	-11.107
欧盟	-11.1071
芙蓉	-11.1072
柠檬	-11.1072
吗	-11.1074
纳入	-11.1078
财务管理	-11.1083
提倡	-11.1084
时钟	-11.1088
7.2	-11.1089
成像	-11.1089
山路	-11.1091
饰)	-11.1092
技术员	-11.1096
广大用户	-11.1096
高质量的	-11.1096
体育场	-11.1096
发展到	-11.1097
中的应用	-11.11
分钟车程	-11.11
136	-11.11
长方形	-11.11
口岸	-11.1102
迭	-11.1102
副主任、	-11.1103
班级	-11.1104
行政执法	-11.1105
商用	-11.1105
山药	-11.1106
劳务	-11.1106
寄生	-11.1106
恐龙	-11.1107
共建	-11.1107
教育家	-11.1107
正确的	-11.1107
防范	-11.1108
发放	-11.1109
有点	-11.111
村级	-11.111
水源	-11.1111
深厚的	-11.1111
各异	-11.1111
山谷	-11.1112
奇迹	-11.1112
股权	-11.1114
名单	-11.1115
县委副书记	-11.1117
供给	-11.1119
真菌	-11.1119
优质的产品	-11.1121
重点项目	-11.1122
澜	-11.1124
产品重量:	-11.1124
次年	-11.1125
军团	-11.1127
为原料	-11.1129
,并有	-11.1129
专业性	-11.113
重型	-11.1131
,使其	-11.1133
林中	-11.1133
,2008年	-11.1135
之旅	-11.1136
。著有《	-11.1138
示范学校	-11.1138
,开展	-11.1138
维尔	-11.114
魄	-11.114
油脂	-11.1143
大脑	-11.1145
创办的	-11.1147
▁外形尺寸	-11.1147
10月生,	-11.1148
主要为	-11.1148
示范性	-11.1149
海底	-11.1152
两端	-11.1155
博览	-11.1156
委党校	-11.1156
1980	-11.1157
橄榄	-11.1159
以西	-11.1161
风采	-11.1163
计生	-11.1164
名叫	-11.1165
从业人员	-11.1166
冢	-11.1166
育种	-11.1167
起来,	-11.1168
网站建设	-11.1169
科委	-11.117
广电	-11.117
为一体的综合性	-11.117
规模最大的	-11.1175
的重要组成部分	-11.1177
研究会会员	-11.1178
戚	-11.1178
也在	-11.118
人性化	-11.1181
新农村建设	-11.1183
科副科长	-11.1183
风景秀丽的	-11.1184
背光	-11.1185
于2003年	-11.1185
的样子	-11.1186
委员。	-11.1187
等相关	-11.1188
方形	-11.1189
考证	-11.119
四面	-11.119
型号:	-11.1191
变动	-11.1192
标记	-11.1193
;2	-11.1194
又是	-11.1194
授课	-11.1194
一站式	-11.1195
有色金属	-11.1197
出租	-11.1198
270	-11.1199
边境	-11.1199
扩散	-11.12
“大	-11.1201
气温	-11.1202
市场经济	-11.1203
历史的	-11.1204
腻	-11.1204
汇集	-11.1205
家中	-11.1205
的各项	-11.1207
客家	-11.1207
黄色,	-11.1208
荚	-11.1208
专业毕业	-11.1209
保定	-11.1209
、企业	-11.121
颅	-11.121
省委	-11.121
满族	-11.1211
跋	-11.1211
公司以	-11.1213
看见	-11.1213
运转	-11.1215
红枣	-11.1216
精神文明建设	-11.1217
酒店位于	-11.1217
》;	-11.1218
录取	-11.1219
团长	-11.1219
人为	-11.122
孵化	-11.122
阐述了	-11.1221
副教授。	-11.1222
两位	-11.1226
项目位于	-11.1226
淫	-11.1229
着力	-11.123
的父亲	-11.1231
,西与	-11.1232
国家一级	-11.1232
森林公园	-11.1234
质量体系认证	-11.1234
去除	-11.1234
实验室、	-11.1236
し	-11.1236
的经典	-11.1238
老化	-11.1239
部首:	-11.1241
辅料	-11.1242
立足于	-11.1244
机械工业	-11.1244
鸦	-11.1244
而已	-11.1246
林场	-11.1248
全方位的	-11.1248
的成绩	-11.125
烧开	-11.1251
最后一	-11.1252
饮水	-11.1253
楷	-11.1253
,东临	-11.1253
5平方公里	-11.1255
300多	-11.1255
其父	-11.1255
全年	-11.1256
北纬	-11.1259
重点实验室	-11.126
衷	-11.126
必然	-11.1262
高低	-11.1264
亦可	-11.1265
,1992年	-11.1265
夺得	-11.1265
体育馆	-11.1267
夫妻	-11.1268
的治疗	-11.1268
于2002年	-11.1268
这就是	-11.127
等特点	-11.127
经济管理	-11.127
子弟	-11.1272
试图	-11.1272
机等	-11.1273
庆祝	-11.1275
芹	-11.1275
▁(4)	-11.1276
而言,	-11.1278
一篇	-11.1278
经济师	-11.1279
粗壮	-11.1279
小镇	-11.1279
差别	-11.1279
用以	-11.128
长寿	-11.1282
生意	-11.1283
弟弟	-11.1285
藉	-11.1285
糯	-11.1285
。1984年	-11.1286
估计	-11.1288
祖父	-11.1288
肇	-11.1289
袭击	-11.129
850	-11.129
纹,	-11.1291
方式。	-11.1293
长圆形	-11.1295
城市规划	-11.1296
一书	-11.1297
的速度	-11.1299
4.6	-11.13
学习,	-11.13
学会会员,	-11.13
蒙古族	-11.1303
50余	-11.1304
正月	-11.1306
捧	-11.1312
古朴	-11.1313
一次性	-11.1313
线性	-11.1314
。每	-11.1314
。对于	-11.1315
诸侯	-11.1315
曝光	-11.1315
定向	-11.1316
万亩,	-11.1316
早熟	-11.1317
听到	-11.1319
抗日战争	-11.1322
当事人	-11.1324
能力强	-11.1324
有个	-11.1327
路径	-11.1327
金融机构	-11.1328
话题	-11.1328
许可	-11.133
一一	-11.1333
蹄	-11.1333
抵抗	-11.1334
南岸	-11.1335
作曲家	-11.1336
的心	-11.1338
洗涤	-11.1338
蘑菇	-11.1339
任命	-11.134
燥	-11.1343
夏天	-11.1343
可根据	-11.1347
。他的	-11.1349
管理学院	-11.135
。1988年	-11.135
科学研究院	-11.135
9787	-11.1352
从业	-11.1352
牙齿	-11.1352
车型	-11.1353
固化	-11.1355
目前已	-11.1355
历时	-11.1357
人家	-11.1357
带来了	-11.1357
笔画	-11.1358
证据	-11.1358
神奇	-11.1358
研制的	-11.1359
市长	-11.136
喙	-11.136
店)	-11.1362
们的	-11.1363
等单位	-11.1366
政治委员	-11.1366
高新区	-11.1367
调控	-11.1368
▁出处:	-11.1368
入住	-11.137
法语	-11.1371
及应用	-11.1372
显存	-11.1374
鉴赏	-11.1374
,1999年	-11.1374
11个	-11.1376
笃	-11.1376
摸	-11.1376
取名	-11.1379
磁场	-11.1379
外资	-11.138
茄	-11.1381
裂片	-11.1382
合理的	-11.1382
积分	-11.1383
▁一	-11.1383
称呼	-11.1386
公关	-11.1387
后被	-11.1388
为目标	-11.1388
至今。	-11.1389
国籍	-11.1389
芜湖	-11.1389
舒适的	-11.139
103	-11.1391
(-	-11.1391
违法	-11.1393
转入	-11.1396
学硕士学位	-11.1396
房地产开发有限公司	-11.1396
转动	-11.1398
5400	-11.1399
,待	-11.1399
4～	-11.1401
指定的	-11.1403
族自治县	-11.1406
嘉兴	-11.1407
将领	-11.1408
古镇	-11.1408
构件	-11.1409
国家的	-11.141
粮油	-11.141
侦察	-11.141
),是	-11.1412
链接	-11.1412
阅览室	-11.1413
负责全县	-11.1414
校风	-11.1414
是将	-11.1415
蚁	-11.1417
工程专业	-11.1419
或其他	-11.1419
山下	-11.1419
▁根据	-11.142
成为中国	-11.1421
编织	-11.1422
。1985年	-11.1422
第7	-11.1422
屠	-11.1423
深加工	-11.1424
和中国	-11.1426
备注	-11.1426
铁矿	-11.1428
杂志》	-11.1428
海滨	-11.1429
1924年	-11.143
情况,	-11.1431
信念	-11.1433
-30	-11.1434
踪	-11.1435
赋》:“	-11.1437
30多	-11.1439
线,	-11.1439
商人	-11.1443
回来	-11.1443
环境优雅	-11.1446
了大量	-11.1447
通话	-11.1448
论著	-11.1449
、最	-11.1449
胚	-11.1449
,实行	-11.145
而过	-11.1452
霖	-11.1454
168	-11.1457
主任委员	-11.1459
,1993年	-11.1459
饰品	-11.1461
绢	-11.1461
50克,	-11.1462
人物。	-11.1462
锯齿	-11.1464
1983	-11.1466
棵	-11.1471
注册资金	-11.1471
所得	-11.1472
人物,	-11.1472
恒星	-11.1472
银杏	-11.1472
唐山	-11.1473
传染病	-11.1473
,并于	-11.1474
90年代	-11.1474
食品安全	-11.1475
媚	-11.1476
很高	-11.1477
调理	-11.1477
字体	-11.1477
汇编	-11.1479
善良	-11.1479
40%	-11.148
第三方	-11.148
军人	-11.148
使人	-11.1481
被迫	-11.1483
劣	-11.1484
主打	-11.1484
庭院	-11.1485
按键	-11.1485
二十世纪	-11.149
期限	-11.1491
绩	-11.1492
占地面积1	-11.1492
熔点	-11.1493
爱尔兰	-11.1493
搅	-11.1494
,是一家集	-11.1495
气势	-11.1496
总额	-11.1496
江区	-11.1496
本名	-11.1498
姐妹	-11.1498
复兴	-11.15
研究”	-11.1501
8米	-11.1502
、无	-11.1503
答案	-11.1503
也就是	-11.1506
太守	-11.1508
苞	-11.1509
手中	-11.1509
的办学	-11.1509
孩子的	-11.151
的高度	-11.1512
聊	-11.1514
区级	-11.1516
4.4	-11.1516
新增	-11.1519
米,宽	-11.1519
现今	-11.1519
韶	-11.152
学院副院长	-11.1522
城墙	-11.1522
开工	-11.1523
的人生	-11.1525
步伐	-11.1526
调度	-11.1527
公式	-11.1527
5克,	-11.1527
词语	-11.153
楼、	-11.1532
周到	-11.1533
针对性	-11.1533
信任	-11.1535
厉	-11.1535
疹	-11.1536
植被	-11.1536
正科级	-11.1536
的老	-11.1536
主导	-11.1537
克·	-11.1537
60余	-11.1538
富士	-11.1539
学硕士	-11.154
谏	-11.1544
圭	-11.1545
晕	-11.1545
被认为是	-11.1546
▁2003年	-11.1546
咸丰	-11.1546
万年	-11.1547
か	-11.1547
整洁	-11.1548
羊肉	-11.1548
”的经营理念,	-11.1549
经验丰富	-11.1551
服。	-11.1552
光线	-11.1552
捉	-11.1553
的销售	-11.1553
缓慢	-11.1553
三月	-11.1554
立项	-11.1556
斧	-11.1558
未来的	-11.1559
一等奖。	-11.156
创伤	-11.1561
,旨在	-11.1561
杀人	-11.1564
分类:	-11.1566
培养学生	-11.1567
台阶	-11.1567
企业提供	-11.157
生死	-11.157
讲究	-11.157
满意的	-11.1571
人大常委会副主任	-11.1571
才是	-11.1572
4.7	-11.1572
所著	-11.1575
勇敢	-11.1576
缩短	-11.1576
、国际	-11.1578
九五	-11.1579
阻止	-11.1579
122	-11.1581
坂	-11.1582
500强	-11.1583
它们的	-11.1583
一间	-11.1584
上市时间	-11.1585
硫化	-11.1585
分开	-11.1587
编写的	-11.1587
光荣	-11.1589
烦恼	-11.1589
:7	-11.159
约翰	-11.1591
多次参加	-11.1593
天才	-11.1594
高频	-11.1595
机动	-11.1597
中医院	-11.1597
制动	-11.1598
芬兰	-11.1599
蜂蜜	-11.1601
运营商	-11.1601
青铜	-11.1604
、创新	-11.1605
107	-11.1607
外界	-11.1607
仅仅	-11.1609
维奇	-11.1609
沙滩	-11.1611
修正	-11.1613
庆典	-11.1613
状。	-11.1613
髓	-11.1616
教育事业	-11.1617
需求,	-11.1618
传真	-11.162
南京大学	-11.1621
р	-11.1621
子孙	-11.1622
可视	-11.1624
金银	-11.1625
罗汉	-11.1625
,它的	-11.1627
协会常务理事	-11.1628
一小	-11.163
机械、	-11.1631
粗糙	-11.1631
毫克	-11.1632
极大的	-11.1632
(/)	-11.1636
的整体	-11.1638
出锅	-11.1639
麻油	-11.164
°C,	-11.164
速率	-11.1641
都不	-11.1641
,先	-11.1643
,南与	-11.1644
15公里	-11.1645
万立方米	-11.1645
么	-11.1646
曾为	-11.1647
每服	-11.1649
水流	-11.1652
组建的	-11.1652
,南邻	-11.1653
,受	-11.1653
粉、	-11.1654
,达到	-11.1661
南边	-11.1662
。全村	-11.1662
专为	-11.1662
炎症	-11.1662
谈判	-11.1663
イ	-11.1663
集《	-11.1663
《大	-11.1668
农林	-11.1668
》人物之一。	-11.1672
消灭	-11.1672
奠基	-11.1675
短篇小说	-11.1675
兴起	-11.1678
最多的	-11.1679
管理咨询	-11.1682
大力发展	-11.1683
道具	-11.1687
微创	-11.169
八十	-11.1691
持久	-11.1691
建设、	-11.1692
头发	-11.1695
抗菌	-11.1695
习俗	-11.1697
编纂	-11.1698
,并与	-11.1698
的青睐	-11.17
珠江	-11.1701
剩余	-11.1702
三年(	-11.1702
热心	-11.1703
姓名:	-11.1705
岭南	-11.1705
大方	-11.1708
寺庙	-11.1708
女神	-11.1708
文集	-11.1709
201	-11.1711
有线电视	-11.1711
中所	-11.1712
▁2002年	-11.1713
机械有限公司	-11.1716
山乡	-11.172
的做法	-11.172
菜系	-11.172
较长	-11.1721
,故称	-11.1722
,东与	-11.1723
后代	-11.1723
之。”	-11.1723
座落在	-11.1724
不懈努力	-11.1724
网球	-11.1725
曾被	-11.1725
口碑	-11.1726
既是	-11.1726
协会副会长	-11.1726
屿	-11.1727
变迁	-11.1729
一直致力于	-11.1729
武警	-11.1732
报名	-11.1733
欧阳	-11.1735
市场需求	-11.1736
▁基本参数	-11.1736
参考书	-11.1737
泳	-11.1737
3月,	-11.1738
葱花	-11.1739
事务所	-11.174
河西	-11.174
华山	-11.174
的经验	-11.1742
自主研发	-11.1743
手指	-11.1743
出发	-11.1744
上午	-11.1744
远离	-11.1746
的好评	-11.1746
明亮	-11.1746
查处	-11.1747
享誉	-11.1747
挂牌	-11.1748
层面	-11.1749
研究领域	-11.1751
秧	-11.1752
湿润	-11.1752
议员	-11.1753
世代	-11.1754
城南	-11.1758
研究人员	-11.1759
火锅	-11.1759
:9	-11.176
演员。	-11.176
债务	-11.1761
此类	-11.1761
甘蔗	-11.1762
之内	-11.1765
团委	-11.1765
金钱	-11.1767
盐酸	-11.1767
预备	-11.1768
首发	-11.1769
椰	-11.1769
变换	-11.177
毕业。	-11.1771
钳	-11.1771
取消	-11.1771
版权	-11.1771
的环境	-11.1771
高产	-11.1772
的大小	-11.1772
,2009年	-11.1772
版画	-11.1774
催化	-11.1774
长春市	-11.1775
6.8	-11.1777
集邮	-11.1778
下列	-11.1779
,以便	-11.1779
粟	-11.1782
名列	-11.1783
,仍	-11.1783
高手	-11.1783
哈尔滨市	-11.1784
食用。	-11.1789
2/	-11.179
工作委员会	-11.1792
月份	-11.1793
1月1日	-11.1793
涡	-11.1793
,除了	-11.1795
中文名称:	-11.1797
下方	-11.1797
万像素	-11.18
新闻出版	-11.18
引用	-11.1804
传统文化	-11.1805
中文名	-11.1806
的空间	-11.1807
门外	-11.1808
挪威	-11.1809
工农	-11.1809
报社	-11.181
脱落	-11.181
特点是	-11.1811
斑点	-11.1813
中国人	-11.1813
输入法	-11.1814
监视	-11.1815
的最高	-11.1817
有害	-11.1817
环境下	-11.1819
,也就是	-11.1821
末,	-11.1821
其主要	-11.1822
啸	-11.1823
刊物上发表	-11.1824
油,	-11.1826
深处	-11.1827
所长	-11.1828
的要求,	-11.1829
变革	-11.1831
企业发展	-11.1831
1米	-11.1832
经验。	-11.1835
人民群众	-11.1836
参照	-11.1836
忠诚	-11.1836
中文系	-11.1836
《中华	-11.1838
成功地	-11.1838
中医药大学	-11.1838
精准	-11.1839
并获	-11.184
食堂	-11.1842
曰:	-11.1842
追求卓越	-11.1842
房子	-11.1843
国家队	-11.1845
职位	-11.1848
地表	-11.1851
五百	-11.1852
银行、	-11.1852
俭	-11.1852
1080	-11.1853
工农红军	-11.1855
。该村	-11.1856
丰县	-11.1857
魔术	-11.1859
发展。	-11.186
丽江	-11.1861
怪物	-11.1862
十五年	-11.1863
报表	-11.1865
为2	-11.1866
小游戏	-11.1867
.,.	-11.1867
求实	-11.1868
的道路	-11.1869
沸	-11.1869
70年代	-11.187
的地位	-11.1872
近期	-11.1875
桔	-11.1876
配电	-11.1877
宜兴	-11.1878
蛙	-11.1878
中央空调	-11.1879
产业链	-11.1879
召唤	-11.1883
于2001年	-11.1884
合作社	-11.1885
新能源	-11.1887
俄国	-11.1887
鳃	-11.1888
指挥部	-11.1888
立志	-11.1889
风景名胜区	-11.189
阿拉	-11.1891
人力资源管理	-11.1895
亏	-11.1897
涵盖了	-11.19
俯	-11.1901
洗净切	-11.1902
深造	-11.1902
香料	-11.1902
共同发展	-11.1903
购物中心	-11.1906
犀	-11.1906
相比,	-11.1907
店铺	-11.1907
门、	-11.1908
,总投资	-11.1908
研究与	-11.1908
6月加入中国共产党	-11.1912
御史	-11.1914
被国家	-11.1914
参加过	-11.1914
投入使用	-11.1916
连长	-11.1917
联谊会	-11.1917
织物	-11.1917
青年教师	-11.1921
风貌	-11.1924
弊	-11.1924
的知识	-11.1924
区分	-11.1924
阶级	-11.1925
姐姐	-11.1925
▁第三节	-11.1926
性好	-11.1927
音乐家	-11.1927
总占地面积	-11.1927
愿望	-11.1927
晚报	-11.1927
专长	-11.1927
一样的	-11.1928
黛	-11.1929
等服务	-11.193
的通知	-11.193
众多的	-11.1932
2克	-11.1932
无公害	-11.1934
倪	-11.1934
为中心,	-11.1935
西瓜	-11.1935
主要职责	-11.1937
猪油	-11.1939
侦探	-11.1941
9公里	-11.1941
、、、、	-11.1943
构筑	-11.1943
佛山市	-11.1943
的市场	-11.1944
6.3	-11.1944
棠	-11.1945
易学	-11.1947
,1994年	-11.1948
咳	-11.1948
林木	-11.1948
5.3	-11.1949
海口	-11.1949
山水画	-11.1949
养殖业	-11.1953
位,	-11.1953
车、	-11.1953
会员,	-11.1954
牟	-11.1955
阵地	-11.1955
、山东	-11.1955
尽量	-11.1957
收录了	-11.1957
染色体	-11.196
南端	-11.1961
领导班子	-11.1961
娶	-11.1962
之战	-11.1963
设计院	-11.1963
7公里	-11.1963
1400	-11.1963
中学生	-11.1964
秆	-11.1964
产品和	-11.1964
熟练	-11.1965
将在	-11.1967
,交通便利。	-11.1968
邢	-11.1969
动员	-11.1969
论文《	-11.197
1024	-11.1973
侵略	-11.1974
出生年月	-11.1975
日记	-11.1976
的情况下,	-11.198
规章	-11.1981
救助	-11.1981
直至	-11.1982
1300	-11.1982
是他	-11.1983
的业务	-11.1983
草本	-11.1984
歌唱	-11.1986
。当时	-11.199
地块	-11.1991
每周	-11.1992
颇具	-11.1993
救援	-11.1994
斯克	-11.1996
赛车	-11.1996
鳍	-11.1997
石家庄市	-11.1998
碰	-11.1999
上帝	-11.2
整治	-11.2
旷	-11.2
175	-11.2001
全民	-11.2001
配以	-11.2002
关联	-11.2002
亿美元	-11.2002
中日	-11.2003
胡椒	-11.2004
聪	-11.2005
龚	-11.2006
晖	-11.2006
世人	-11.2007
太原市	-11.2007
花期	-11.2008
分工	-11.201
诗集	-11.201
、文化	-11.201
250克	-11.2012
首个	-11.2013
衫	-11.2013
市场,	-11.2014
推理	-11.2014
严格按照	-11.2015
含义	-11.2016
的城市	-11.2016
闽东	-11.2017
雏	-11.2019
伊斯兰教	-11.2021
十月	-11.2021
有两个	-11.2022
骨折	-11.2023
彻	-11.2023
庄镇	-11.2023
巩	-11.2024
岱	-11.2024
曾担任	-11.2025
体质	-11.2025
迎接	-11.2025
8月,	-11.2027
如果你	-11.203
溶于	-11.2031
气味	-11.2031
行列	-11.2033
《史记·	-11.2035
另一种	-11.2036
畜牧业	-11.2036
,总人口	-11.2038
▁自	-11.2039
镶嵌	-11.204
广阔的	-11.204
太极	-11.2041
服务体系	-11.2041
埔	-11.2042
的形象	-11.2042
亲切	-11.2044
罗斯	-11.2046
未能	-11.2047
美化	-11.2047
台、	-11.205
影响。	-11.2051
民事	-11.2052
中国书画	-11.2053
主要产品	-11.2053
书》:“	-11.2054
用心	-11.2054
排骨	-11.2054
研究机构	-11.2055
北京师范大学	-11.2056
,主持	-11.2057
业务。	-11.2059
,1988年	-11.2059
事业发展	-11.206
粒重	-11.2062
▁所属分类:图书>	-11.2062
英特尔	-11.2064
人次	-11.2065
的一项	-11.2066
镇江	-11.2066
分割	-11.2066
将来	-11.2067
20个	-11.2067
就要	-11.2067
副会长	-11.2069
典范	-11.2069
亩,建筑面积	-11.207
聘为	-11.2071
自然保护区	-11.2075
情人	-11.2075
。1958年	-11.2076
调查研究	-11.2076
本质	-11.2077
人民政府批准	-11.2077
非法	-11.2078
影响力的	-11.2078
赞誉	-11.2079
等业务	-11.208
网民	-11.2081
带宽	-11.2083
知名企业	-11.2084
其后	-11.2086
梳	-11.2087
光驱	-11.2088
林业局	-11.2088
裹	-11.2088
支架	-11.2088
2～	-11.2089
烯	-11.209
的风格	-11.2091
升高	-11.2091
,面积	-11.2091
哨	-11.2095
短,	-11.2096
销量	-11.2097
的成功	-11.2097
名义	-11.2097
扁平	-11.2098
首领	-11.2099
在原	-11.2101
防盗	-11.2102
条纹	-11.2104
模糊	-11.2104
菊花	-11.2105
,1985年	-11.2105
居士	-11.2106
沿岸	-11.2107
秀丽	-11.2107
沛	-11.2107
行走	-11.2107
乡镇企业	-11.2108
第九届	-11.2109
郝	-11.2111
,加上	-11.2113
适中	-11.2113
脱离	-11.2113
m2	-11.2114
命题	-11.2115
活血	-11.2118
使用者	-11.2122
时光	-11.2122
,占	-11.2122
。因此	-11.2123
总工程师	-11.2124
和国家	-11.2124
古籍	-11.2125
两国	-11.2127
信息的	-11.2128
如意	-11.2129
长子	-11.213
游乐	-11.213
2013	-11.2132
有限公司位于	-11.2132
北区	-11.2132
先后担任	-11.2133
保鲜	-11.2133
是全国	-11.2134
悬挂	-11.2139
二十四	-11.214
轻工	-11.214
明白	-11.2141
分支机构	-11.2141
类的	-11.2144
,推动	-11.2144
会在	-11.2144
二月	-11.2146
读卡器	-11.2146
95%	-11.2146
法、	-11.2147
零部件	-11.215
灵敏度	-11.2151
位居	-11.2151
房型	-11.2151
仑	-11.2151
,故名	-11.2151
查看	-11.2152
壤	-11.2152
芳香	-11.2154
跑道	-11.2155
无不	-11.2155
中文名:	-11.2156
特有	-11.2156
成效	-11.2157
实验学校	-11.2158
已在	-11.2158
现藏	-11.216
▁2001年	-11.2164
于一身	-11.2166
(4	-11.2166
焕	-11.2169
的女儿	-11.2169
办事	-11.2171
触摸屏	-11.2171
洪水	-11.2173
寝	-11.2173
酸性	-11.2174
。1990年	-11.2175
著称	-11.2176
公立	-11.2179
生产力	-11.2181
试剂	-11.2184
1/4	-11.2185
提供一个	-11.2185
炙	-11.2186
生活。	-11.2187
全资子公司	-11.2188
淄博	-11.2189
南瓜	-11.2189
176	-11.219
系统。	-11.219
鲸	-11.2192
谊	-11.2192
,宽	-11.2193
碱性	-11.2195
天门	-11.2201
步行街	-11.2204
装有	-11.2205
演化	-11.2205
全套	-11.2206
4项	-11.2206
成套	-11.2206
常住人口	-11.2207
(去	-11.2207
灼	-11.2207
直观	-11.2207
磁盘	-11.2208
一世	-11.2209
静态	-11.2209
排出	-11.221
座,	-11.221
畸形	-11.2211
色,	-11.2212
▁五	-11.2212
60%	-11.2213
煮熟	-11.2213
障	-11.2214
-17	-11.2215
探险	-11.2215
格拉	-11.2216
占地1	-11.2217
茯苓	-11.2219
举行的	-11.222
蒸发	-11.2221
承载	-11.2222
调味料	-11.2222
1982	-11.2223
生粉	-11.2224
鲜艳	-11.2226
容积率	-11.2227
村委会,属于山区。	-11.2229
密被	-11.2229
序》:“	-11.223
要求。	-11.2231
15年	-11.2231
书法家协会会员	-11.2237
先后荣获	-11.2239
的追求	-11.2239
损坏	-11.224
约翰·	-11.224
利率	-11.224
主要研究方向	-11.2241
聚合物	-11.2241
素有“	-11.2241
▁四、	-11.2241
临床医学	-11.2243
流派	-11.2244
行使	-11.2244
演唱会	-11.2245
至今在	-11.2245
118	-11.2245
中小型	-11.2245
义乌	-11.2246
抛光	-11.2246
-2-	-11.2246
厂区	-11.2247
板材	-11.2247
排除	-11.2247
310	-11.2249
美术家协会会员	-11.225
香气	-11.2251
121	-11.2254
干旱	-11.2257
开发建设	-11.2258
的独特	-11.2259
添加剂	-11.226
名牌产品	-11.226
歧	-11.2261
兽医	-11.2261
12月生,	-11.2263
气血	-11.2265
陆地	-11.2266
太祖	-11.2267
故里	-11.2267
安定	-11.2267
培训机构	-11.227
国际上	-11.2271
栓	-11.2273
毗	-11.2275
的孩子	-11.2276
彝族	-11.2278
法兰	-11.2278
一方面	-11.2278
前者	-11.2279
,注册资本	-11.2279
大学本科学历	-11.2279
研究》、《	-11.228
媒	-11.2281
土木工程	-11.2282
主要负责	-11.2282
。1982年	-11.2282
0,000	-11.2283
即是	-11.2284
新老客户	-11.2285
配音	-11.2286
参加全国	-11.2286
,兼	-11.2286
有关规定	-11.2288
多位	-11.2289
。1983年	-11.229
认同	-11.2292
副市长	-11.2293
1个,	-11.2295
受欢迎	-11.2296
音像	-11.2296
场合	-11.2296
插入	-11.2297
法定	-11.2297
班学习	-11.2297
、经济	-11.2299
中段	-11.2299
经验的	-11.2299
馨	-11.23
一大	-11.2302
官至	-11.2304
胸部	-11.2304
先后被评为	-11.2304
衡阳	-11.2304
191	-11.2305
生活方式	-11.2306
。1989年	-11.2307
已形成	-11.2307
颁布	-11.2307
ㄐㄧ	-11.2308
派遣	-11.2309
狭窄	-11.231
,只是	-11.231
旬	-11.2311
决心	-11.2313
高新	-11.2313
设计制造	-11.2314
休闲娱乐	-11.2318
首位	-11.2318
国学	-11.232
时间内	-11.2321
这张卡	-11.2322
楷书	-11.2323
长篇	-11.2324
股份制	-11.2325
神秘的	-11.2326
互助	-11.2326
开心	-11.2327
为导向	-11.2327
建立起	-11.2327
方正	-11.2327
实质	-11.2327
每月	-11.2328
社会保障	-11.2328
被中国	-11.233
、管理	-11.233
国土资源	-11.233
体系。	-11.233
贴近	-11.2336
第十一	-11.2337
发表了	-11.2338
在他	-11.234
人均耕地	-11.2343
冰川	-11.2346
等国	-11.2349
材料:	-11.2355
绿化率	-11.2357
深远	-11.2357
产品研发	-11.2358
公司位于	-11.2358
奖章	-11.2359
健康的	-11.236
,但在	-11.236
次数	-11.236
,防止	-11.236
无效	-11.2362
美人	-11.2364
模仿	-11.2364
不起	-11.2368
空心	-11.237
产品类型	-11.237
位。	-11.2377
分子量	-11.2378
调试	-11.2378
泉水	-11.2379
+2	-11.238
及各种	-11.238
史学	-11.238
腌制	-11.2381
恶魔	-11.2383
舰队	-11.2383
庄园	-11.2384
6.6	-11.2384
广义	-11.2384
之心	-11.2385
商业街	-11.2387
杜鹃	-11.2388
斐	-11.2389
现象。	-11.2391
,建筑面积	-11.2391
半两	-11.2392
侧面	-11.2396
过来	-11.2396
敦煌	-11.2397
驳	-11.2397
也很	-11.2397
苗木	-11.2399
子宫	-11.24
顾问。	-11.2401
设施齐全	-11.2401
率高	-11.2401
温柔	-11.2403
次,	-11.2407
变成了	-11.2407
口语	-11.2407
举人	-11.2409
偿	-11.2409
伤寒	-11.2409
轻轻	-11.2409
抓好	-11.241
专科学校	-11.2411
广阔	-11.2412
溜	-11.2413
旅游区	-11.2415
的有效	-11.2416
县境内	-11.2416
展示了	-11.2417
北魏	-11.2418
毫无	-11.2418
产后	-11.2419
寓意	-11.2419
15个	-11.2421
8平方公里	-11.2423
银河	-11.2423
制的	-11.2428
人之	-11.2428
高贵	-11.2428
郊区	-11.2429
,并对	-11.243
炮兵	-11.2434
在全球	-11.2435
,全国	-11.2437
是一道美食	-11.2437
建筑师	-11.2438
的现象	-11.2439
昆明市	-11.2441
,取	-11.2442
文学院	-11.2444
刹	-11.2445
库存	-11.2445
4月,	-11.2446
数目	-11.2446
50年	-11.2446
金石	-11.2446
锚	-11.2448
、耐	-11.245
记载,	-11.2453
气,	-11.2453
形似	-11.2454
概括	-11.2454
出发,	-11.2455
花冠	-11.2455
方法和	-11.2455
客户服务	-11.2457
生产和	-11.2458
、青	-11.2458
撒上	-11.2459
钮	-11.246
数学系	-11.246
皮肤病	-11.2461
二等奖。	-11.2462
伦理	-11.2462
现效力于	-11.2462
两部分	-11.2463
解除	-11.2464
后世	-11.2464
5.7	-11.2465
、副	-11.2466
受伤	-11.2468
樱	-11.2468
叫“	-11.2468
掘	-11.2468
10月出生,	-11.2469
矿产资源	-11.2469
牵引	-11.2469
道理	-11.2473
莆田	-11.2474
,成立于	-11.2474
“一	-11.2477
充电器	-11.2479
留校任教	-11.2483
不得不	-11.2483
教导	-11.2483
,取得了	-11.2483
·阿	-11.2483
隅	-11.2484
裁判	-11.2484
椭圆形,	-11.2486
一门	-11.2488
参展	-11.2489
工件	-11.2489
矿石	-11.249
以色列	-11.249
6.0	-11.2493
项目管理	-11.2493
大学中文系	-11.2494
嘉靖	-11.2495
砍	-11.2496
参考。	-11.2497
不同于	-11.2497
致力于为	-11.2499
污水	-11.2499
有利	-11.25
134	-11.25
财会	-11.2501
,北邻	-11.2502
大海	-11.2505
、电	-11.2508
博士研究生	-11.2508
外观设计	-11.2509
整机	-11.2509
笔顺编号	-11.2511
工商联	-11.2511
矫	-11.2511
驴	-11.2513
研发中心	-11.2514
再加	-11.2514
新材料	-11.2516
县境	-11.2517
层的	-11.2517
威尔	-11.2517
,导致	-11.2517
而被	-11.2521
和应用	-11.2525
力强	-11.2525
4米	-11.2525
不超过	-11.2525
干线	-11.2526
趁	-11.2529
重点中学	-11.253
中国作家协会	-11.253
太极拳	-11.253
帧	-11.253
故居	-11.2532
十四年	-11.2532
感冒	-11.2533
该产品	-11.2533
那种	-11.2533
大型企业	-11.2535
之美	-11.2536
本来	-11.2537
电源适配器	-11.2539
,1987年	-11.254
助教	-11.254
基础教育	-11.254
交汇	-11.2541
储量	-11.2542
特定的	-11.2542
棺	-11.2543
-45	-11.2543
谨	-11.2544
经营的	-11.2544
▁8	-11.2545
▁游戏	-11.2547
踢	-11.2549
设计理念	-11.2551
与时俱进	-11.2551
刚刚	-11.2551
执教	-11.2552
产品和服务	-11.2553
提供优质	-11.2553
晏	-11.2553
刑法	-11.2555
过滤器	-11.2556
医院、	-11.2557
、抗	-11.2558
://.	-11.2558
经验丰富的	-11.2559
金华	-11.2559
▁第二	-11.256
企业和	-11.2561
教学改革	-11.2562
呆	-11.2563
文化产业	-11.2566
企业之一	-11.2566
事业部	-11.2568
裔	-11.2569
十多年	-11.2569
为你	-11.2571
其所	-11.2572
供奉	-11.2573
任务,	-11.2574
研究生院	-11.2574
了他	-11.2574
收藏。	-11.2574
,担任	-11.2575
做事	-11.2576
,其余	-11.2576
冷藏	-11.2578
人员的	-11.2578
,随后	-11.2583
焯	-11.2585
襄阳	-11.2585
高精度	-11.2586
全军	-11.2587
让他	-11.2591
器物	-11.2592
生机	-11.2592
违反	-11.2593
航海	-11.2593
的文件	-11.2594
基地,	-11.2597
开发和	-11.2598
约3	-11.2598
墓地	-11.2599
手持	-11.2599
范畴	-11.2602
酉	-11.2603
备份	-11.2603
享年	-11.2605
国际市场	-11.2606
还会	-11.2607
集装箱	-11.2607
的真实	-11.2607
主频	-11.2607
外事	-11.2607
感受到	-11.2608
。1991年	-11.2608
活动室	-11.2609
▁◇	-11.2609
后裔	-11.2615
级以上	-11.2616
大奖赛	-11.2616
计算机网络	-11.2617
站址在	-11.2617
拉丁	-11.2617
很高的	-11.2619
7.8	-11.262
3.9	-11.262
,共同	-11.2621
硬盘容量:	-11.2626
纯净	-11.2627
加入了	-11.2628
500万元	-11.2628
功耗	-11.2629
块,	-11.2631
碘	-11.2631
金陵	-11.2631
决赛	-11.2632
,1983年	-11.2632
作用下	-11.2633
击败	-11.2633
服务宗旨	-11.2633
人民出版社	-11.2633
红椒	-11.2633
期望	-11.2633
饥	-11.2635
,1986年	-11.2635
说是	-11.2638
真实的	-11.2639
阴道	-11.2641
是您	-11.2642
眠	-11.2644
羽毛	-11.2644
注释	-11.2644
一八	-11.2645
中将	-11.2645
局域网	-11.2648
见解	-11.265
祖先	-11.2652
氨基	-11.2653
规模的	-11.2654
133	-11.2656
客车	-11.2656
之一的	-11.2661
脾胃	-11.2662
聂	-11.2663
有毒	-11.2665
8.2	-11.2667
石灰	-11.2669
生平	-11.2672
科技进步一等奖	-11.2672
解毒	-11.2673
次会议	-11.2674
电容	-11.2674
黑客	-11.2676
落叶	-11.2676
里亚	-11.2678
已知	-11.2681
登上	-11.2681
工程”	-11.2681
创造性	-11.2682
的需要,	-11.2682
美的	-11.2683
,先后在	-11.2683
君主	-11.2684
卵圆形	-11.2684
数据线	-11.2684
仙人	-11.2684
缀	-11.2685
较早	-11.2685
热门	-11.2687
经验和	-11.2687
宛	-11.2688
,适合	-11.2689
科幻	-11.2689
。2.	-11.2689
器具	-11.2691
法人资格	-11.2692
脓	-11.2692
。若	-11.2693
,实现了	-11.2694
公司产品	-11.2698
指导下	-11.2698
萼	-11.2699
徵	-11.2699
汕头	-11.27
5万	-11.2701
食盐	-11.2701
语言文学	-11.2701
科学发展观	-11.2703
空白	-11.2703
衍生	-11.2707
波斯	-11.2707
清香	-11.2709
搜索引擎	-11.271
发表于	-11.271
分析和	-11.2711
鉴别	-11.2713
书法家协会	-11.2714
,每个	-11.2714
东区	-11.2715
挽	-11.2715
意义的	-11.2715
非凡	-11.2716
夫妇	-11.2717
于2000年	-11.2717
文昌	-11.2718
现任中共	-11.2718
存款	-11.2719
参军	-11.272
友人	-11.272
黄土	-11.2721
其作品	-11.2723
处、	-11.2724
革新	-11.2724
上海交通大学	-11.2724
一把	-11.2724
家村	-11.2725
绒毛	-11.2728
破碎	-11.2728
抗病	-11.2728
筛选	-11.2729
苞片	-11.2729
建筑材料	-11.273
你可以	-11.273
社员	-11.2731
之首	-11.2732
金色	-11.2732
1只	-11.2734
成形	-11.2734
▁屏幕	-11.2735
存放	-11.2736
1900	-11.2736
委员会委员,	-11.2736
法官	-11.2737
饱和	-11.2737
净水	-11.2738
行星	-11.2738
,他的	-11.2739
给人	-11.2739
福州市	-11.274
黄酒	-11.274
获“	-11.2741
1100	-11.2741
这本书	-11.2741
学派	-11.2743
年轻的	-11.2744
等多	-11.2747
提供的	-11.2749
为目标,	-11.275
更大的	-11.2751
沽	-11.2752
++	-11.2752
妥	-11.2752
退役	-11.2754
投资有限公司	-11.2754
心里	-11.2756
洛克	-11.2757
α	-11.2758
源县	-11.2758
花岗岩	-11.2758
双赢	-11.276
壹	-11.276
万人,	-11.2761
妊娠	-11.2762
人选	-11.2764
中山市	-11.2764
缠	-11.2764
篇论文	-11.2766
文人	-11.2766
娱	-11.2768
用法	-11.2768
于一体,	-11.2769
不够	-11.277
7.0	-11.2771
了大量的	-11.2772
杜甫	-11.2774
保护区	-11.2777
规划和	-11.2777
服务平台	-11.2778
义务教育	-11.2778
社区位于	-11.2778
与中国	-11.2782
超声波	-11.2784
校址	-11.2784
二百	-11.2785
嵌入式	-11.2786
骂	-11.2787
三省	-11.2787
预报	-11.2789
通行	-11.2789
领导小组	-11.279
近似	-11.279
河镇	-11.2793
潜艇	-11.2793
建设部	-11.2793
英文名称:	-11.2797
节点	-11.2798
楹联	-11.2799
约束	-11.2802
文学家	-11.2802
淡黄色	-11.2802
卡通	-11.2803
胃肠	-11.2804
诛	-11.2805
暂时	-11.2806
质量管理体系认证	-11.2806
一般的	-11.2806
真人	-11.2807
课堂教学	-11.2809
冠心病	-11.2809
了自己的	-11.2809
11月生,	-11.281
盛产	-11.2811
,,,,,	-11.2812
(3	-11.2813
得知	-11.2813
荆州	-11.2816
糟	-11.2817
专家、	-11.282
配备了	-11.2822
布拉	-11.2822
音效	-11.2823
专员	-11.2823
末年	-11.2824
可使	-11.2826
之情	-11.2828
▁当	-11.283
一卷	-11.283
,先端	-11.2831
账户	-11.2833
副主任,	-11.2833
法则	-11.2834
,必须	-11.2834
编辑部	-11.2835
商业中心	-11.2837
东临	-11.2838
药剂	-11.2838
小孩	-11.2838
作为一个	-11.284
书。	-11.284
全局	-11.2841
可爱的	-11.2841
全国优秀	-11.2842
,西至	-11.2843
镇东	-11.2843
;有	-11.2845
哦	-11.2846
深深	-11.2846
1923年	-11.2847
目标是	-11.2848
声道	-11.2848
治愈	-11.285
。1987年	-11.285
隆重	-11.285
贝壳	-11.2851
游人	-11.2851
特级教师	-11.2851
模板	-11.2852
本品为	-11.2853
个村民组	-11.2854
电子产品	-11.2855
的方向	-11.2855
增值	-11.2855
た	-11.2856
钱币	-11.2856
陷入	-11.2857
足以	-11.2858
虾仁	-11.2859
外出	-11.2859
,从此	-11.286
十七年	-11.2863
奶油	-11.2864
5名	-11.2865
的前身是	-11.2865
血压	-11.2865
药学	-11.2865
剔	-11.2866
7.1	-11.2866
德州	-11.2867
穿着	-11.2867
逐年	-11.2868
书协	-11.2869
苷	-11.287
20人	-11.2871
咒	-11.2873
领导干部	-11.2874
敛	-11.2875
低碳	-11.2875
佛像	-11.2875
龙潭	-11.2877
肥料	-11.2877
天线	-11.2877
专业毕业,	-11.2878
彝	-11.2879
湘潭	-11.2881
存在于	-11.2882
文化馆	-11.2884
管理软件	-11.2884
焚	-11.2885
公司生产的	-11.2885
农科院	-11.2885
住在	-11.2886
主料:	-11.2886
羞	-11.2887
3月任	-11.2887
精良	-11.2888
见证	-11.2888
紧凑	-11.2889
向东	-11.2889
村落	-11.289
珊	-11.2891
吨,	-11.2891
矣。”	-11.2891
写的	-11.2892
核准	-11.2892
发售	-11.2893
地位。	-11.2894
。全书	-11.2894
。1986年	-11.2894
为目的	-11.2895
省会	-11.2898
带给	-11.2898
南朝梁	-11.2899
人类的	-11.2899
な	-11.2899
开始,	-11.29
唐·	-11.2901
纶	-11.2901
型的	-11.2902
不了	-11.2903
,更是	-11.2903
打破	-11.2905
孕妇	-11.2906
(集团)	-11.2906
规程	-11.2907
自杀	-11.2907
文化遗产	-11.2913
抗癌	-11.2913
国家专利	-11.2913
酬	-11.2913
艺术设计	-11.2913
,1990年	-11.2916
另一方面	-11.2918
3/	-11.292
玻璃钢	-11.292
背部	-11.2921
东面	-11.2921
成员。	-11.2924
座椅	-11.2925
▁(四)	-11.2926
者为	-11.2926
堆积	-11.2927
的有关	-11.2927
痛,	-11.2929
负担	-11.2932
轿车	-11.2932
主干道	-11.2933
过度	-11.2934
传记	-11.2934
导向	-11.2936
强制	-11.2937
线的	-11.2938
等职务	-11.2938
服务商	-11.2941
稽查	-11.2941
拆迁	-11.2942
城北	-11.2945
中场	-11.2946
环路	-11.2946
,曾在	-11.2947
本市	-11.2948
品。	-11.2948
严重的	-11.2949
方针、政策	-11.2952
通过9001	-11.2952
动人	-11.2952
把它	-11.2953
磁性	-11.2954
职场	-11.2955
处处	-11.2957
照顾	-11.2957
关爱	-11.2959
春季	-11.2959
出生地	-11.296
等部门	-11.296
集》、《	-11.2961
爸爸	-11.2961
6.4	-11.2962
之前,	-11.2962
强力	-11.2962
运算	-11.2963
,造成	-11.2965
被选为	-11.2965
开辟	-11.2966
主料	-11.2967
传世	-11.2967
欺	-11.2967
参加革命斗争	-11.2967
直播	-11.2968
晋江	-11.2968
社交	-11.2969
,倒入	-11.297
▁本公司	-11.2971
位于中国	-11.2972
】	-11.2973
褒	-11.2973
夸	-11.2975
是由于	-11.2975
搜集	-11.2976
校内	-11.2977
目录下	-11.2977
乡人	-11.2978
参与了	-11.2978
电动机	-11.2979
孙中山	-11.298
=1	-11.298
潼	-11.2982
代表作品	-11.2982
2平方公里	-11.2983
“四	-11.2983
蛛	-11.2984
:-	-11.2984
染料	-11.2984
必需	-11.2984
贴心	-11.2985
壮大	-11.2985
水泵	-11.2985
铣	-11.2987
汶	-11.2988
浓厚	-11.2988
瞻	-11.2988
送到	-11.2988
。建于	-11.2989
藏族	-11.2989
能使	-11.2989
做的	-11.2991
从中	-11.2991
尼斯	-11.2991
0~	-11.2992
公告	-11.2992
6平方公里	-11.2992
山东大学	-11.2994
总体规划	-11.2996
揽	-11.2997
旧时	-11.2999
。其中,	-11.3
名为“	-11.3002
约定	-11.3002
32.	-11.3003
条约	-11.3004
嘉庆	-11.3005
▁开	-11.3005
藕	-11.3006
湖畔	-11.3006
多年生草本	-11.3007
/.	-11.3008
泌尿	-11.3009
机型	-11.301
113	-11.301
▁为了	-11.3013
营运	-11.3013
清澈	-11.3017
技术有限公司	-11.3018
、德国	-11.3018
年产值	-11.3019
数年	-11.302
无所	-11.302
下入	-11.3021
七十	-11.3022
黑褐色	-11.3022
世间	-11.3022
,是集	-11.3023
300米	-11.3023
保健品	-11.3023
大全	-11.3023
别名:	-11.3024
域名	-11.3024
农牧	-11.3024
1项,	-11.3024
(12	-11.3025
美好的	-11.3026
健康发展	-11.3026
睿	-11.3026
偶然	-11.3026
月亮	-11.3027
试题	-11.3027
外来	-11.3027
面的	-11.3027
松江	-11.3028
增多	-11.303
好像	-11.3031
不出	-11.3035
即位	-11.3037
线程	-11.3037
公子	-11.3038
生日:	-11.3038
村民委员会	-11.304
变化,	-11.3041
芹菜	-11.3041
建筑风格	-11.3041
-40	-11.3044
四种	-11.3044
う	-11.3044
处的	-11.3044
其余	-11.3045
蛋糕	-11.3045
退出	-11.3046
。2013年	-11.3046
制作人	-11.3047
支出	-11.3047
奖学金	-11.3047
三亚	-11.3049
造船	-11.3049
齐全,	-11.305
、商业	-11.3051
12人	-11.3052
民歌	-11.3052
组装	-11.3053
。不过	-11.3054
》()	-11.3055
肝病	-11.3055
设备及	-11.3056
30公里	-11.3057
早已	-11.3059
网、	-11.3059
5/	-11.3061
获硕士学位	-11.3061
的身份	-11.3064
太多	-11.3066
丢	-11.3067
,上海	-11.3067
酒精	-11.3068
大学本科	-11.3068
中国现代	-11.3069
火炬	-11.307
星系	-11.307
古迹	-11.3072
关于印发	-11.3072
等工作。	-11.3073
国有资产	-11.3073
菏泽	-11.3073
形目	-11.3074
富裕	-11.3074
溪镇	-11.3074
后方	-11.3075
优点	-11.3075
烘	-11.3076
竭	-11.3077
不大	-11.3077
童年	-11.3077
介入	-11.3079
马尔	-11.308
200多	-11.308
的首选	-11.3081
敞	-11.3083
个别	-11.3084
党委委员、	-11.3085
簇	-11.3085
奖、	-11.3087
年降水量	-11.3088
椎	-11.3089
水平。	-11.3089
,浙江	-11.309
废水	-11.309
、马	-11.3092
剧场	-11.3093
实力雄厚	-11.3094
。它的	-11.3094
国土	-11.3094
中文名称	-11.3097
科目	-11.3097
经营范围	-11.3097
诀	-11.3098
量子	-11.3098
容纳	-11.3098
医疗机构	-11.3102
是香港	-11.3103
一根	-11.3103
灿烂	-11.3103
会馆	-11.3105
股、	-11.3108
旗下的	-11.3109
不利	-11.311
生长在	-11.3113
420	-11.3114
马铃薯	-11.3115
颜料	-11.3116
权限	-11.3118
染色	-11.3118
运动的	-11.3118
六大	-11.3121
-14	-11.3124
,培养	-11.3125
大兴	-11.3125
连锁酒店	-11.3126
早餐	-11.3127
全过程	-11.3127
水位	-11.3128
习性	-11.3129
全村共有	-11.3129
稳健	-11.3129
田园	-11.313
▁随着	-11.313
未知	-11.3131
简历	-11.3132
亢	-11.3132
黄油	-11.3133
九江	-11.3134
窟	-11.3135
第十二	-11.3136
2米	-11.3136
碰撞	-11.3139
研究员。	-11.3141
、云南	-11.3142
114	-11.3142
科研机构	-11.3142
溃	-11.3143
坚固	-11.3143
十余篇	-11.3144
卡片	-11.3145
与社会	-11.3146
不必	-11.3147
酿酒	-11.3148
车程	-11.3148
括	-11.3148
前列腺	-11.3148
场上位置	-11.3149
志愿	-11.3149
代表大会	-11.315
乔木	-11.315
40年	-11.3151
积累了	-11.3152
钓	-11.3152
转业	-11.3155
可以用	-11.3155
遭受	-11.3155
梢	-11.3156
撇	-11.3156
捷克	-11.3157
去年	-11.3158
13个	-11.3158
学》	-11.3159
的良好	-11.3159
特效	-11.3159
硕士,	-11.316
用电	-11.3162
芸	-11.3162
癌症	-11.3163
美术系	-11.3165
客商	-11.3165
一九八	-11.3165
面积3	-11.3166
汕头市	-11.3167
器的	-11.3168
地下水	-11.3168
精髓	-11.3169
风格,	-11.3169
积极开展	-11.3169
灯具	-11.317
意味着	-11.3171
勇于	-11.3171
向南	-11.3171
咪	-11.3172
城内	-11.3177
调解	-11.3177
纪检	-11.3178
客户端	-11.3182
娄	-11.3183
号召	-11.3184
城市建设	-11.3186
大观	-11.3186
萎	-11.3187
用手	-11.3187
文库	-11.3188
开发商	-11.3189
作品展	-11.3191
不可能	-11.3193
205	-11.3193
描	-11.3195
淋浴	-11.3196
金属材料	-11.3197
究竟	-11.3197
具有良好的	-11.3197
,有着	-11.3197
,力求	-11.3198
这也是	-11.3198
盛世	-11.3199
万物	-11.3199
山脚下	-11.32
两边	-11.3203
,紧邻	-11.3203
焦点	-11.3204
独创	-11.3206
杀手	-11.3208
开发出	-11.3209
必要的	-11.3211
给你	-11.3212
等荣誉称号	-11.3217
等众多	-11.3217
肽	-11.3219
远程教育	-11.322
班主任	-11.322
经过多年的	-11.3221
安全、	-11.3221
坞	-11.3221
放射性	-11.3222
心脏病	-11.3222
的存在	-11.3222
16个	-11.3226
,1982年	-11.3226
之事	-11.3227
触摸	-11.3227
生产、销售	-11.3229
、广州	-11.3229
管理。	-11.3229
石膏	-11.323
钵	-11.323
画廊	-11.3232
304	-11.3234
贯彻执行国家	-11.3237
迷人	-11.3237
唱歌	-11.3238
的表现	-11.3238
身心	-11.3238
同时还	-11.3238
淄博市	-11.324
外面	-11.324
自称	-11.3241
,增强	-11.3241
纵向	-11.3242
挑选	-11.3245
谥	-11.3247
2月,	-11.3247
又称“	-11.3247
腹地	-11.3247
拟任	-11.3248
撕	-11.3248
各省	-11.3248
盼	-11.3249
专业知识	-11.325
法庭	-11.3251
8.4	-11.3252
、广东	-11.3252
艰苦	-11.3253
发展趋势	-11.3253
不失	-11.3255
迁移	-11.3255
的制作	-11.3255
圣地	-11.3255
外侧	-11.3255
捕捉	-11.3255
5项	-11.3256
向下	-11.3257
,出生于	-11.3258
5米,	-11.3259
视为	-11.326
,边缘	-11.3261
河东	-11.3261
适于	-11.3261
多个国家和地区	-11.3263
华盛顿	-11.3264
落后	-11.3266
最著名的	-11.3266
的心理	-11.3266
布尔	-11.3267
也没有	-11.3268
自觉	-11.3268
多篇论文	-11.3268
民航	-11.3268
院内	-11.3269
双手	-11.3269
塞尔	-11.327
,1989年	-11.3272
度,	-11.3273
不断发展	-11.3276
行业内	-11.3276
面积为	-11.3276
需求。	-11.3276
做人	-11.3279
省级以上	-11.3279
纸张	-11.3279
共创	-11.3281
9.8	-11.3282
图书室	-11.3282
先将	-11.3283
,提出	-11.3283
位于山东省	-11.3283
页面	-11.3283
歌》	-11.3284
当作	-11.3284
嘉宾	-11.3284
先后被	-11.3284
简易	-11.3285
十一年	-11.3286
液晶	-11.3288
•	-11.329
,非	-11.329
的时代	-11.329
成交	-11.3291
曾获得	-11.3292
【	-11.3294
继续教育	-11.3295
农民收入主要以	-11.3295
化肥	-11.3295
附有	-11.3296
树皮	-11.3297
芡	-11.33
竟然	-11.33
解决方案。	-11.3301
亚军	-11.3304
分明	-11.3305
地狱	-11.3306
,比	-11.3306
中国传统	-11.3309
为之	-11.3309
相互作用	-11.331
,即使	-11.331
165	-11.331
,2010年	-11.3311
河县	-11.3311
公尺	-11.3312
、科技	-11.3312
卦	-11.3314
创刊	-11.3315
、五	-11.3317
管理处	-11.3319
灵感	-11.332
,省	-11.3323
投身	-11.3323
唯一一家	-11.3324
小品	-11.3324
获学士学位	-11.3325
曲艺	-11.3325
专门从事	-11.3326
习题	-11.3327
顺德	-11.3327
仪器设备	-11.3329
伊朗	-11.3329
文教	-11.333
潜在	-11.333
教育、	-11.333
佳作	-11.3332
,是国内	-11.3333
,坐落于	-11.3333
英勇	-11.3336
等多家	-11.3336
▁外观	-11.3337
电能	-11.3337
木耳	-11.3338
现有教职工	-11.3338
小便	-11.3338
一说	-11.3339
烘干	-11.3341
壮族	-11.3341
螺纹	-11.3342
分析仪	-11.3342
画展	-11.3344
独有的	-11.3344
烛	-11.3345
的价值	-11.3345
教育学	-11.3346
基础理论	-11.3346
文化底蕴	-11.3346
1月任	-11.3349
▁2000年	-11.335
111	-11.3351
、双	-11.3351
铲	-11.3352
第二十	-11.3353
。又	-11.3354
究	-11.3354
沼泽	-11.3355
和完善	-11.3355
相对于	-11.3358
械	-11.3358
仿佛	-11.3358
不仅是	-11.3359
章,	-11.336
ん	-11.336
索尼	-11.3361
国营	-11.3361
,否则	-11.3362
总承包	-11.3362
,1991年	-11.3362
淤	-11.3365
广场、	-11.3365
发作	-11.3367
日文	-11.3372
乌克兰	-11.3373
半球	-11.3374
厥	-11.3375
提供最	-11.3375
档次	-11.3378
搅拌均匀	-11.3379
林下	-11.338
琉璃	-11.338
彪	-11.338
是世界上	-11.338
,祖籍	-11.3382
相连,	-11.3383
东亚	-11.3384
男主角	-11.3384
七个	-11.3385
足球俱乐部,	-11.3386
石门	-11.3386
去了	-11.3387
件,	-11.3388
销售网络	-11.3388
职业学院	-11.339
3-5	-11.339
洛杉矶	-11.339
师长	-11.3391
葡萄糖	-11.3391
冰糖	-11.3392
宁静	-11.3392
装潢	-11.3394
漠	-11.3395
来自于	-11.3396
痘	-11.3397
西洋	-11.3399
按钮	-11.34
视频播放	-11.34
也被	-11.34
四川大学	-11.3401
柴油	-11.3402
形体	-11.3403
潍坊市	-11.3404
激活	-11.3404
部分组成	-11.3405
娟	-11.3406
行驶	-11.3406
1920年	-11.3408
网站。	-11.3408
主要产品有	-11.3409
贷	-11.3409
7.3	-11.3409
与环境	-11.3409
1922年	-11.3409
铃声	-11.341
靶	-11.341
乳腺	-11.3411
感谢	-11.3414
之中。	-11.3414
传·	-11.3414
不一样	-11.3417
经济贸易	-11.3417
编号:	-11.3418
赔偿	-11.3419
山峰	-11.3419
138	-11.3422
此处	-11.3423
。指	-11.3423
等诸多	-11.3423
温带	-11.3424
南开大学	-11.3424
3-4	-11.3424
,便于	-11.3425
子房	-11.3427
垢	-11.343
街头	-11.343
竿	-11.343
躯	-11.343
》由	-11.343
桦	-11.3432
始创于	-11.3434
江山	-11.3434
巴尔	-11.3435
红花	-11.3435
。生于	-11.3437
女王	-11.3438
学风	-11.344
更名	-11.344
编排	-11.344
株式会社	-11.344
业务范围	-11.3443
我院	-11.3443
,授	-11.3444
内容丰富	-11.3444
红色,	-11.3445
是什么	-11.3446
籽粒	-11.3448
的秘密	-11.345
包裹	-11.345
不停	-11.3452
英文名:	-11.3452
李白	-11.3452
派出所	-11.3455
曾参加	-11.3455
常州市	-11.3455
116	-11.3455
恤	-11.3456
之滨	-11.3457
位于广东省	-11.3457
斯顿	-11.3458
悍	-11.346
6月,	-11.346
塑性	-11.3461
莹	-11.3461
面积达	-11.3462
的临床	-11.3463
有一种	-11.3465
遥感	-11.3465
亮点	-11.3466
品种。	-11.3466
每亩	-11.3466
迁至	-11.3466
简化	-11.3467
城西	-11.3469
尖端	-11.3469
重症	-11.347
印度尼西亚	-11.3471
概率	-11.3473
琦	-11.3473
微量元素	-11.3473
滑雪	-11.3475
玛丽	-11.3476
墓葬	-11.3478
颈部	-11.3478
,女,汉族,	-11.3479
辞典	-11.3479
文学作品	-11.3479
组织和	-11.348
芯片组	-11.348
本作	-11.3483
组成员	-11.3483
身材	-11.3485
声卡	-11.3485
所辖	-11.3487
-05	-11.3487
抒情	-11.3488
是利用	-11.3489
1912年	-11.3489
修养	-11.3489
勘	-11.3492
巧克力	-11.3493
。作品	-11.3493
纪律	-11.3493
部份	-11.3494
负载	-11.3494
-06	-11.3495
波长	-11.3496
是一家专业	-11.3496
调用	-11.3497
青睐	-11.3497
出家	-11.3498
处方	-11.3498
一般为	-11.3498
乏	-11.3498
暴动	-11.3499
萝	-11.3499
8.6	-11.35
。于是	-11.3503
政治家	-11.3504
旅游局	-11.3504
教务	-11.3507
老百姓	-11.3508
随之	-11.3508
;同时	-11.3512
完善,	-11.3512
喷涂	-11.3513
全球化	-11.3513
,终于	-11.3513
―	-11.3514
开发利用	-11.3515
祐	-11.3517
录像	-11.3518
留学生	-11.3519
:12	-11.3523
几十年	-11.3523
太后	-11.3523
闽南	-11.3523
梦幻	-11.3524
二层	-11.3525
的意义	-11.3526
东邻	-11.3526
著述	-11.3526
大使	-11.3526
功能的	-11.3527
重要作用	-11.3529
年鉴	-11.353
峙	-11.353
器械	-11.353
卵形	-11.3531
3平方公里	-11.3531
黄石	-11.3531
企业形象	-11.3532
大概	-11.3532
原则,	-11.3533
遗产	-11.3534
诈	-11.3534
处置	-11.3537
。形容	-11.3537
动工	-11.3539
三项	-11.354
趣味	-11.3541
执政	-11.3542
底座	-11.3543
诚信为本	-11.3545
。曾在	-11.3545
相结合,	-11.3545
组分	-11.3546
之外,	-11.3546
漂亮	-11.3547
书法艺术	-11.3551
屏幕尺寸:	-11.3551
彼得	-11.3551
出版时间:	-11.3552
的操作	-11.3553
肝炎	-11.3553
,充分	-11.3554
真相	-11.3554
高级经济师	-11.3554
管理与	-11.3554
陡	-11.3555
生产和销售	-11.3555
杏仁	-11.3555
美元	-11.3557
确立	-11.3558
促销	-11.3558
岑	-11.3559
型材	-11.356
卫生院	-11.356
是最	-11.3561
压缩机	-11.3562
紧靠	-11.3562
证实	-11.3562
学习和	-11.3563
宏伟	-11.3563
教学科研	-11.3563
第十届	-11.3565
普通的	-11.3566
的爱情	-11.3568
醚	-11.3569
制度,	-11.3569
其次	-11.3572
凭着	-11.3572
第8	-11.3572
出去	-11.3574
历史悠久,	-11.3574
二中	-11.3576
南朝	-11.3576
屋顶	-11.3576
港澳	-11.3578
有可能	-11.3579
苏格兰	-11.3579
30-	-11.358
机枪	-11.358
细小	-11.3582
标志着	-11.3582
喇叭	-11.3582
央	-11.3584
附属医院	-11.3585
。1980年	-11.3585
潜心	-11.3586
、体育	-11.3587
现为中国	-11.3587
稳步	-11.359
必将	-11.3591
党史	-11.3592
中小	-11.3592
雄伟	-11.3594
海湾	-11.3595
对待	-11.3596
蠕虫	-11.3597
走过	-11.3597
人力	-11.3597
的一座	-11.3598
又称为	-11.36
开元	-11.36
百科	-11.36
仪器仪表	-11.3602
口号	-11.3603
别致	-11.3605
预警	-11.3608
单词	-11.361
咽喉	-11.361
▁网络	-11.361
实际情况	-11.3611
痒	-11.3612
威海	-11.3612
一举	-11.3614
设备先进	-11.3614
”或“	-11.3615
评比	-11.3616
节,	-11.3617
一大批	-11.3617
以内	-11.3617
武林	-11.3618
擢	-11.3618
合唱	-11.3619
导电	-11.3619
艺术节	-11.3621
4.9	-11.3622
这件	-11.3623
落成	-11.3624
普查	-11.3625
系统和	-11.3626
防火墙	-11.3626
京都	-11.3626
学会副会长	-11.3626
米兰	-11.3627
约有	-11.3627
年生产能力	-11.3629
本县	-11.3629
海尔	-11.3631
醛	-11.3632
认为,	-11.3633
中国社会科学院	-11.3634
802.3	-11.3634
订单	-11.3635
,经常	-11.3635
”()	-11.3638
短短	-11.3638
清华	-11.3639
对此	-11.3639
焰	-11.3641
自动控制	-11.3643
提交	-11.3643
河水	-11.3644
操纵	-11.3644
不及	-11.3645
中国文化	-11.3646
坚强	-11.3647
。1956年	-11.3649
大西洋	-11.3649
高尔夫	-11.3649
▁调料:	-11.365
-25	-11.3652
启发	-11.3653
营长	-11.3653
作“	-11.3653
类型的	-11.3654
民居	-11.3654
业务的	-11.3659
洛阳市	-11.366
乙醇	-11.366
斯塔	-11.3661
二战	-11.3661
益气	-11.3662
中草药	-11.3662
之余	-11.3662
稚	-11.3662
外国语学院	-11.3663
8.8	-11.3663
转化为	-11.3664
轻工业	-11.3666
6～	-11.3666
合并而成	-11.367
的优秀	-11.3672
率达	-11.3672
形式的	-11.3673
信用卡	-11.3673
流经	-11.3673
顾名思义	-11.3674
堪称	-11.3674
(《	-11.3675
比亚	-11.3675
供应链	-11.3677
胜地	-11.3678
凄	-11.3678
的特点,	-11.3679
班子	-11.368
社长	-11.368
乡政府所在地	-11.3681
军政	-11.3681
小叶	-11.3681
▁李	-11.3681
医疗保险	-11.3682
雍正	-11.3686
外地	-11.3686
天河	-11.3687
非营利性	-11.3687
生育	-11.3688
设备齐全	-11.3688
开口	-11.3688
商业区	-11.3692
指导员	-11.3692
路交汇处	-11.3693
良种	-11.3694
故乡	-11.3695
培训基地	-11.3697
(今属	-11.3697
航运	-11.3698
曾是	-11.3698
非物质文化遗产	-11.3698
钓鱼	-11.3698
127	-11.37
出国	-11.37
国家税务局	-11.37
与之	-11.3702
大事	-11.3703
兴奋	-11.3704
便可	-11.3704
(北京)	-11.3706
万平方米。	-11.3706
系统地	-11.3706
"。	-11.3707
南昌市	-11.3707
经济管理专业	-11.3707
6.1	-11.3707
苏轼	-11.3707
硝	-11.371
两层	-11.371
残留	-11.3713
体操	-11.3713
江北	-11.3713
发音	-11.3715
距县城	-11.3715
生命的	-11.3717
淘宝	-11.3718
人所	-11.3719
夜间	-11.372
测试仪	-11.3721
常绿	-11.3722
教育局	-11.3722
运动场	-11.3723
鳌	-11.3723
组织开展	-11.3723
册,	-11.3723
-13	-11.3724
幼年	-11.3724
野生动物	-11.3725
打工	-11.3726
加固	-11.3727
艰难	-11.3728
多媒体教室	-11.373
容积	-11.373
作品被	-11.3732
邪恶	-11.3732
的健康	-11.3733
离休	-11.3733
鲜美	-11.3734
蔽	-11.3734
缓存	-11.3735
河谷	-11.3737
大庆	-11.3738
纪录片	-11.3739
*1	-11.3739
实用的	-11.374
成立于2003年	-11.374
中队	-11.3742
促使	-11.3743
以外的	-11.3744
为3	-11.3745
126	-11.3746
本片	-11.3746
1月,	-11.3747
张专辑	-11.3748
14个	-11.375
入伍	-11.3751
9月生,	-11.3751
,无论	-11.3752
系统工程	-11.3752
黄花	-11.3752
,据	-11.3754
蚊	-11.3756
第一中学	-11.3757
▁8.	-11.3757
,全长	-11.3758
潜能	-11.3758
、天津	-11.3759
传授	-11.376
被人	-11.376
复习	-11.3761
益智	-11.3761
被省	-11.3762
阻抗	-11.3762
8.3	-11.3762
所谓的	-11.3763
发展方向	-11.3767
壬	-11.3768
▁2006	-11.3769
北平	-11.377
教职员工	-11.3772
点的	-11.3772
と	-11.3774
顾问,	-11.3774
师。	-11.3775
排名第	-11.3775
电子技术	-11.3776
6克	-11.3776
标准间	-11.3777
暴力	-11.3778
》入选	-11.3779
培养了	-11.378
逼真	-11.378
)人,	-11.3781
人均纯收入	-11.3781
理由	-11.3783
这项	-11.3784
管理工作。	-11.3784
信息中心	-11.3785
八个	-11.3787
懒	-11.3788
遥控	-11.3788
马克	-11.379
瑜伽	-11.3792
4平方公里	-11.3793
播放器	-11.3794
象棋	-11.3795
,1981年	-11.3795
管理经验	-11.3796
采矿	-11.3796
4名	-11.3797
文选	-11.3797
矿区	-11.3797
8.1	-11.3798
风暴	-11.3799
在该	-11.3799
▁1998年	-11.38
粒,	-11.3801
殊荣	-11.3801
革命根据地	-11.3802
俄语	-11.3803
北岸	-11.3803
吸引了	-11.3804
锻	-11.3804
惠州	-11.3804
充满了	-11.3805
捏	-11.3806
罕见	-11.3806
嘉定	-11.3806
除去	-11.3806
,下设	-11.3807
上发表	-11.3808
斯()	-11.3808
陈皮	-11.3809
,坐落在	-11.381
县委常委、	-11.381
标准,	-11.3811
求学	-11.3811
人物之一	-11.3812
管理中心	-11.3812
0元/	-11.3814
嘉奖	-11.3814
激烈	-11.3815
的重点	-11.3816
场面	-11.3816
遵义	-11.3817
摄影师	-11.3818
促进了	-11.3818
原型	-11.3818
,平均	-11.3821
鼓楼	-11.3822
半径	-11.3822
3厘米	-11.3822
爆香	-11.3823
思想政治工作	-11.3824
陵县	-11.3824
羽毛球	-11.3827
价值观	-11.3827
哪里	-11.3828
埃尔	-11.383
保管	-11.383
小康	-11.3831
科学研究所	-11.3831
荟萃	-11.3833
三千	-11.3833
10米	-11.3833
145	-11.3833
9.2	-11.3834
匹配	-11.3834
哑	-11.3835
300克	-11.3836
京师	-11.3836
-08	-11.3837
机构编制	-11.3839
硒	-11.3839
情趣	-11.3842
出来,	-11.3846
交友	-11.3846
(5张)	-11.3846
文物保护单位	-11.3848
内衣	-11.3849
留在	-11.385
志·	-11.3851
实验教学	-11.3851
丛生	-11.3852
汽油	-11.3854
132	-11.3855
但由于	-11.3855
等国家和地区	-11.3855
奇幻	-11.3856
▁8、	-11.3857
至今已有	-11.3857
站。	-11.3857
枸杞	-11.3858
巡回	-11.3858
50亩	-11.3858
区域内	-11.3859
德语	-11.3859
标配	-11.386
干部职工	-11.386
制定了	-11.3862
很强	-11.3864
主唱	-11.3865
抗体	-11.3866
ト	-11.3867
劈	-11.3867
屏蔽	-11.3867
率为	-11.3867
大面积	-11.3868
西区	-11.3869
八卦	-11.387
的物质	-11.3871
的创作	-11.3872
音乐会	-11.3872
师、	-11.3873
交换机	-11.3874
学会理事,	-11.3874
条件。	-11.3874
属于山区	-11.3875
领导和	-11.3877
园、	-11.388
无比	-11.388
。拥有	-11.3881
征服	-11.3882
加工厂	-11.3882
圈足	-11.3884
撰写的	-11.3884
囚	-11.3885
编译	-11.3885
荔	-11.3886
工业企业	-11.3887
翡翠	-11.3887
坚硬	-11.3889
丸,	-11.3889
作谓语	-11.3889
拙	-11.3889
构图	-11.389
、杨	-11.389
优秀人才	-11.389
掠	-11.3893
是世界	-11.3893
元帅	-11.3893
售后	-11.3894
政府部门	-11.3894
位于河南省	-11.3894
死于	-11.3895
意境	-11.3899
、黑	-11.3899
天体	-11.3899
人人	-11.3899
之所以	-11.39
珍品	-11.3901
开发了	-11.3902
,另	-11.3902
拦	-11.3903
前端	-11.3904
生于海拔	-11.3904
字符	-11.3905
京城	-11.3907
随笔	-11.3909
很容易	-11.3909
0%	-11.391
神仙	-11.3911
推崇	-11.3912
饱满	-11.3913
白玉	-11.3913
清热解毒	-11.3915
的影响,	-11.3916
切除	-11.3917
、铁	-11.3917
硼	-11.3919
失眠	-11.3919
近几年来	-11.3925
搞好	-11.3925
西山	-11.3926
酌	-11.3926
伟大的	-11.3927
高职	-11.3928
烟台市	-11.393
改变了	-11.393
作用的	-11.393
呈现出	-11.3932
、生活	-11.3933
。比喻	-11.3933
“小	-11.3933
春节	-11.3934
心态	-11.3935
副处级	-11.3935
促进会	-11.3936
文学创作	-11.3936
商铺	-11.3936
构成的	-11.3936
使用寿命	-11.3937
共产党员	-11.3937
十三年	-11.3939
不多	-11.394
日常工作	-11.3941
中国美术家协会会员	-11.3941
等大型	-11.3942
小枝	-11.3943
奕	-11.3944
体外	-11.3944
委书记	-11.3945
庞大的	-11.3946
平方千米	-11.3947
大典	-11.3948
,山东	-11.3948
50公里	-11.3948
了一些	-11.3951
骚	-11.3951
坚定	-11.3951
“金	-11.3955
耻	-11.3956
学学士学位	-11.3956
双语	-11.3956
捞起	-11.3957
楼高	-11.3957
,南临	-11.3958
,凡	-11.3962
这条	-11.3962
精力	-11.3964
众人	-11.3964
的目的。	-11.3964
一段时间	-11.3965
多次获得	-11.3965
连年	-11.3966
大学教授	-11.3967
为一体,	-11.3969
水墨	-11.3969
样式	-11.3969
发展为	-11.397
崇尚	-11.3971
野外	-11.3971
工作站	-11.3971
品牌形象	-11.3971
轨道交通	-11.3972
信息管理	-11.3972
万人。	-11.3973
1000多	-11.3973
宗旨是	-11.3974
豌豆	-11.3974
-2000	-11.3974
强,	-11.3974
工商行政管理局	-11.3975
统称	-11.3976
百花	-11.3976
大成	-11.3978
为纪念	-11.3979
广泛应用	-11.3981
奉行	-11.3981
的研制	-11.3981
刻画	-11.3982
很小	-11.3982
占用	-11.3984
旁边	-11.3984
3500	-11.3985
、娱乐	-11.3986
城建	-11.3987
青龙	-11.3987
新编	-11.3989
涂层	-11.3989
养成	-11.399
多条	-11.399
,未	-11.3991
受体	-11.3992
有限公司是一家集	-11.3994
。主要从事	-11.3994
命名为“	-11.3995
改装	-11.3995
一心	-11.3998
萨尔	-11.4
并有	-11.4002
桑拿	-11.4005
二世	-11.4005
装盘	-11.4007
频繁	-11.4007
海鲜	-11.401
植物油	-11.401
做为	-11.401
,同时也是	-11.401
工程机械	-11.401
翅膀	-11.4011
尊贵	-11.4011
茵	-11.4012
清康熙	-11.4012
定律	-11.4013
泌尿外科	-11.4015
鱼肉	-11.4016
玻	-11.402
宣传部	-11.402
分数	-11.4023
皋	-11.4023
。1978年	-11.4025
高汤	-11.4025
格斗	-11.4025
业、	-11.4025
:0	-11.4026
千瓦	-11.4027
最专业的	-11.4027
的形成	-11.4027
草坪	-11.4027
英才	-11.4028
同济大学	-11.4028
少见	-11.4028
浓郁的	-11.4029
回合	-11.4029
桂花	-11.4029
折叠	-11.403
终点	-11.4033
备受	-11.4034
贸易有限公司	-11.4034
县市	-11.4034
可调	-11.4035
唑	-11.4036
打造的	-11.4037
用书	-11.4038
:16	-11.4038
公司已	-11.4038
开创了	-11.4038
533	-11.404
药业	-11.404
选取	-11.404
萧山	-11.404
的自然	-11.4041
管理办法	-11.4041
的政治	-11.4041
便秘	-11.4042
开设了	-11.4042
助手	-11.4044
对外开放	-11.4046
的选择	-11.4046
等优点	-11.4047
拐	-11.4047
一侧	-11.4048
斯基	-11.4049
口镇	-11.4049
大棚	-11.405
开了	-11.4051
,是我国	-11.4051
▁中文名:	-11.4051
封面	-11.4055
葱姜	-11.4055
事宜	-11.4055
中考	-11.4055
五行	-11.4055
整形美容	-11.4056
国有企业	-11.4056
管理体制	-11.4057
200余	-11.4057
查找	-11.4058
发达,	-11.4059
完工	-11.4059
峨	-11.4059
付款	-11.4059
变质	-11.406
15克,	-11.4062
强劲	-11.4062
港区	-11.4065
抽象	-11.4065
医用	-11.4066
终止	-11.407
永定	-11.4071
}	-11.4071
9.6	-11.4071
副总	-11.4072
记述	-11.4072
要求的	-11.4073
章节	-11.4074
资源的	-11.4074
最优	-11.4075
较深	-11.4075
食材	-11.4076
现拥有	-11.4077
催化剂	-11.4077
▁四	-11.4077
圆形,	-11.4078
谕	-11.4078
化学品	-11.4078
痕迹	-11.4079
潮湿	-11.4079
,有效	-11.4079
优美的	-11.4082
隆起	-11.4083
办、	-11.4083
158	-11.4083
机构改革	-11.4085
成为一个	-11.4085
我县	-11.4085
大队长	-11.4086
的战斗	-11.4086
特色。	-11.4087
门口	-11.4089
捐赠	-11.409
较大,	-11.409
232	-11.409
底层	-11.409
国家教育部	-11.4091
剖	-11.4093
▁张	-11.4093
一周	-11.4094
加州	-11.4094
对应的	-11.4096
者和	-11.4097
年会	-11.4098
设备;	-11.4098
8月生,	-11.4098
贱	-11.4099
合著	-11.41
老子	-11.4105
铎	-11.4108
、低	-11.4108
拯救	-11.4108
的最	-11.4108
制造工艺	-11.4109
,已经	-11.4109
机械厂	-11.411
极强	-11.4111
酒店拥有	-11.4111
和研究	-11.4111
盈利	-11.4112
局级	-11.4112
再度	-11.4112
亲王	-11.4113
癸	-11.4115
成人教育	-11.4116
复合材料	-11.4116
十八年	-11.4117
护士	-11.4118
字节	-11.4119
一枚	-11.4119
,这就是	-11.4121
环境幽雅	-11.4122
2小时	-11.4122
基本知识	-11.4122
盛行	-11.4123
眼前	-11.4124
地质学	-11.4124
、河南	-11.4124
无力	-11.4125
,进而	-11.4126
泉州市	-11.4127
リ	-11.4129
票据	-11.413
时尚的	-11.413
有趣的	-11.413
指导和	-11.413
曲阜	-11.4134
同治	-11.4134
后,他	-11.4135
卵巢	-11.4135
天皇	-11.4137
矿物质	-11.4142
火力	-11.4142
电镀	-11.4146
机械工程	-11.4146
骨骼	-11.4147
全缘	-11.4148
绿色食品	-11.4149
省内外	-11.4149
60年代	-11.415
有两	-11.4151
》系列	-11.4152
队伍建设	-11.4154
同心	-11.4154
大坝	-11.4154
I	-11.4155
:20	-11.4155
搓	-11.4157
该剧	-11.4159
400米	-11.416
铵	-11.4161
始祖	-11.4161
有限公司董事长	-11.4162
意志	-11.4162
彰显	-11.4163
轮廓	-11.4163
应用技术	-11.4164
,何	-11.4165
的通知》(	-11.4166
疲	-11.4167
,又有	-11.4168
敕	-11.4168
集群	-11.4168
2800	-11.4169
苏维埃政府	-11.417
子里	-11.417
即成	-11.4171
渴望	-11.4171
自有	-11.4171
成立于2002年	-11.4171
钻研	-11.4171
蕊	-11.4171
工序	-11.4174
树种	-11.4176
、浙江	-11.4178
性价比	-11.4182
黄冈	-11.4185
彩虹	-11.4185
镇西	-11.4185
-03	-11.4187
批准成立的	-11.4188
学术研究	-11.4189
亩产	-11.4189
负责全市	-11.419
树林	-11.419
等课程	-11.4191
成立于2005年	-11.4191
之初	-11.4193
大都	-11.4193
亥	-11.4194
稀有	-11.4196
工作先进单位	-11.4197
团委书记	-11.4198
,让您	-11.42
食用菌	-11.42
传略	-11.4201
1921年	-11.4202
的意见	-11.4202
驾驶员	-11.4203
河、	-11.4203
,维护	-11.4204
用料	-11.4206
四星级	-11.4206
娥	-11.4206
地中海	-11.4206
中的一个	-11.4206
经商	-11.4208
他为	-11.4208
她是	-11.4209
/10	-11.4209
的名称	-11.4209
名片	-11.421
・	-11.421
手段,	-11.4211
全能	-11.4211
标准。	-11.4212
索引	-11.4212
～19	-11.4213
不满	-11.4213
崇祯	-11.4213
检修	-11.4215
军工	-11.4215
重量:	-11.4216
分级	-11.4218
5×	-11.4218
整车	-11.4218
心血管	-11.4219
电力系统	-11.422
的过程中	-11.422
匈牙利	-11.422
155	-11.422
了一系列	-11.4224
5000平方米	-11.4224
(6)	-11.4224
1919年	-11.4225
高大	-11.4225
实验小学	-11.4228
美协	-11.4228
出于	-11.4229
之人	-11.423
激烈的	-11.423
禅师	-11.4233
(14	-11.4235
淮海	-11.4236
人也	-11.4236
条例》	-11.4236
阶层	-11.4236
芋	-11.4237
藏品	-11.4237
的建筑	-11.4238
交通十分便利	-11.424
质量控制	-11.4242
突起	-11.4243
;而	-11.4243
-07	-11.4244
的歌曲	-11.4244
-09	-11.4245
摆脱	-11.4247
女装	-11.4249
指向	-11.4249
变异	-11.425
高祖	-11.4251
的文字	-11.4252
。公司拥有	-11.4252
镇党委书记	-11.4253
8.0	-11.4253
黑色,	-11.4254
,入	-11.4256
、计算机	-11.4256
规章制度	-11.4258
励	-11.4258
办学条件	-11.4258
鲤	-11.4261
、安装	-11.4262
纪念碑	-11.4263
单位的	-11.4264
10/100	-11.4264
诞	-11.4265
规模化	-11.4266
极高的	-11.4267
受益	-11.4267
纯正	-11.4267
露出	-11.4268
,令人	-11.4268
年底	-11.4269
更大	-11.4269
名胜	-11.4269
330	-11.4271
教改	-11.4272
,直至	-11.4272
看起来	-11.4272
女演员	-11.4273
204	-11.4273
天王	-11.4273
计算机应用	-11.4276
,近	-11.4276
编导	-11.4277
褶	-11.4278
太行	-11.4278
{	-11.4279
隐居	-11.428
马拉	-11.428
成立于2001年	-11.4282
修行	-11.4282
沿着	-11.4283
环形	-11.4283
田间	-11.4283
▁2013年	-11.4285
。作者	-11.4285
兼职教授	-11.4287
不断完善	-11.4287
的代表	-11.4288
×3	-11.4289
历年	-11.429
集团旗下	-11.429
相关专业	-11.429
,2011年	-11.4292
科学管理	-11.4292
1700	-11.4292
乙烯	-11.4292
档案馆	-11.4295
六月	-11.4295
歼	-11.4295
研究室主任	-11.4296
车道	-11.4296
,是以	-11.4296
新农村	-11.4297
ラ	-11.4298
上层	-11.4298
▁分子量:	-11.4299
感光	-11.4299
学术期刊	-11.43
永乐	-11.43
水深	-11.4301
情况:	-11.4301
一字	-11.4302
城东	-11.4302
紫砂	-11.4303
土家族	-11.4304
教育的	-11.4304
科技工作者	-11.4305
钢筋	-11.4306
波动	-11.4307
培训学校	-11.4308
震撼	-11.431
对人体	-11.4311
统战	-11.4312
拂	-11.4312
从未	-11.4312
光荣称号	-11.4313
人民的	-11.4314
剧中	-11.4314
年(17	-11.4316
解答	-11.4317
一是	-11.4318
第二次世界大战	-11.4319
公司总经理	-11.432
硝酸	-11.432
种族	-11.432
卯	-11.4321
茄子	-11.4322
,然而	-11.4322
全文	-11.4323
安德	-11.4324
和方法	-11.4326
的建议	-11.4326
实在	-11.4326
▁你	-11.4327
12月任	-11.4327
达1	-11.4329
工会主席	-11.4329
行署	-11.4329
磨损	-11.4329
也将	-11.4329
蜘蛛	-11.4331
执着	-11.4331
会出现	-11.4332
总收入	-11.4333
人才。	-11.4333
雄厚	-11.4333
外文	-11.4335
技术研发	-11.4336
的一个重要	-11.4337
繁华的	-11.4337
宽敞	-11.4339
一番	-11.4339
长期以来	-11.4339
□	-11.4339
美景	-11.434
芭	-11.434
颍	-11.434
贵阳市	-11.4341
载入	-11.4343
活动中心	-11.4343
少年儿童	-11.4345
瓦尔	-11.4345
公益性	-11.4345
国内知名	-11.4346
杰出的	-11.4346
▁近年来,	-11.4346
市委常委	-11.4347
成虫	-11.4348
酵母	-11.4349
西面	-11.435
一栋	-11.4351
德尔	-11.4351
管理者	-11.4353
境外	-11.4353
督促	-11.4354
(学名:)为	-11.4355
经营模式	-11.4356
注塑	-11.4356
316	-11.4357
吉林大学	-11.4357
刀具	-11.4358
分化	-11.4358
因病	-11.4359
缅	-11.4359
▁页	-11.4359
认证。	-11.436
武功	-11.436
馆长	-11.436
昊	-11.4362
亚太	-11.4362
表情	-11.4362
直升机	-11.4362
汤匙	-11.4362
邯郸	-11.4363
生前	-11.4363
光辉	-11.4363
新星	-11.4363
锅里	-11.4365
(学名:)是	-11.4366
便捷的	-11.4366
董事会	-11.4367
印尼	-11.4368
原来的	-11.437
;花	-11.4371
划归	-11.4373
首饰	-11.4374
鹭	-11.4374
衡量	-11.4374
增生	-11.4374
第十一届	-11.4376
东阳	-11.4377
冬瓜	-11.4378
云:“	-11.4378
虹桥	-11.4378
师专	-11.4379
于1999年	-11.4379
介绍:	-11.4382
现已成为	-11.4383
河流域	-11.4384
接地	-11.4384
粤语	-11.4384
信贷	-11.4384
分销	-11.4384
七月	-11.4386
瞬	-11.4386
聚会	-11.4387
封装	-11.4389
砂岩	-11.4389
的主题	-11.439
素有	-11.4391
聊天	-11.4391
部门的	-11.4392
速度快	-11.4393
厦门大学	-11.4393
专栏	-11.4395
腹泻	-11.4398
是专业从事	-11.4399
团团长	-11.4399
为《	-11.4399
威力	-11.44
信息安全	-11.4401
马上	-11.4401
,南至	-11.4402
老干部	-11.4402
场、	-11.4404
胁	-11.4406
-200	-11.4408
小提琴	-11.4409
产品畅销	-11.4409
病虫害	-11.4412
ア	-11.4412
电子有限公司	-11.4413
教学设施	-11.4414
把自己	-11.4414
中关村	-11.4415
社会经济	-11.4416
:无	-11.4416
12月加入中国共产党	-11.4417
十足	-11.4418
常有	-11.4418
碾	-11.4419
积极参与	-11.442
组建了	-11.4421
颤	-11.4422
巴拉	-11.4422
的日子	-11.4424
论文集	-11.4425
外墙	-11.4425
无缝	-11.4427
片区	-11.4427
铁路、	-11.4427
领导者	-11.4429
1911年	-11.4432
注册成立	-11.4433
编辑、	-11.4433
科教	-11.4434
给了	-11.4434
(英语:	-11.4434
旗舰	-11.4436
理事长	-11.4436
之都	-11.4437
事变	-11.4437
前方	-11.4437
\\	-11.4439
紫外线	-11.444
冶炼	-11.444
576	-11.444
不错	-11.4441
故名	-11.4441
156	-11.4443
揭示	-11.4443
付出	-11.4444
它可以	-11.4444
的事	-11.4444
凭证	-11.4445
117	-11.4446
尼克	-11.4446
上百	-11.4446
的成长	-11.4447
门前	-11.4447
做过	-11.4448
珍藏	-11.4448
自治县	-11.4449
外伤	-11.445
虐	-11.445
窖	-11.4451
师傅	-11.4451
炒锅	-11.4452
两座	-11.4453
行业管理	-11.4453
,是目前	-11.4454
需要的	-11.4454
乐坛	-11.4455
说明:	-11.4456
附中	-11.4456
生态学	-11.4457
7.4	-11.4458
阿里	-11.4459
探测器	-11.446
选择。	-11.446
引起了	-11.4461
出入	-11.4464
表皮	-11.4464
十里	-11.4465
双层	-11.4466
,拟任	-11.4468
副主任。	-11.4468
铸铁	-11.4469
支部书记	-11.447
▁如果	-11.447
上传	-11.4471
笔记	-11.4471
变化的	-11.4471
侄	-11.4472
き	-11.4472
发电机	-11.4473
泰安	-11.4474
骑兵	-11.4474
技工学校	-11.4474
简便	-11.4475
等项目	-11.4475
模式。	-11.4476
地主	-11.4477
党总支	-11.4477
工作,任	-11.4478
时有	-11.4479
麦克	-11.448
阴谋	-11.4481
本机	-11.4481
远远	-11.4482
技术力量雄厚	-11.4482
高等专科学校	-11.4482
专业人员	-11.4482
100-	-11.4483
崇拜	-11.4484
核心竞争力	-11.4486
年平均	-11.4486
文件夹	-11.4487
窥	-11.4487
公安局	-11.4487
樱桃	-11.4489
,称	-11.4489
1钱	-11.4491
癣	-11.4491
规划教材	-11.4494
对他	-11.4495
创造出	-11.4496
展厅	-11.4497
二手	-11.4499
开拓进取	-11.4499
方便。	-11.45
孚	-11.4501
电子信息	-11.4501
疼	-11.4502
潮州	-11.4502
兜	-11.4503
,另外	-11.4504
规划建设	-11.4504
入味	-11.4505
白石	-11.4507
冠军。	-11.4507
的任务	-11.4508
肝脏	-11.451
深刻的	-11.4511
译名	-11.4512
艺术教育	-11.4513
蕉	-11.4513
先进学校	-11.4514
,其中包括	-11.4514
原籍	-11.4514
草书	-11.4515
战争中	-11.4516
万吨,	-11.4517
初始	-11.4517
旅游业	-11.4518
(其间:	-11.4518
投放	-11.4519
彰	-11.4519
大辞典	-11.4519
政协常委	-11.452
深受广大	-11.452
耐热	-11.4521
交付	-11.4522
称作	-11.4522
病原	-11.4522
▁示例	-11.4526
的重大	-11.4526
直隶	-11.4527
永安	-11.4528
管委会	-11.4529
500余	-11.453
溴	-11.453
,四川省	-11.4533
产品设计	-11.4533
,东邻	-11.4533
对中国	-11.4533
基准	-11.4534
确实	-11.4534
自成	-11.4535
酷睿	-11.4535
作品集	-11.4536
沥干	-11.4536
东起	-11.4536
绮	-11.4537
乘坐	-11.4538
蝇	-11.454
优越的	-11.4542
柳州	-11.4542
成才	-11.4543
可能会	-11.4545
剖析	-11.4545
特区	-11.4546
红外线	-11.4547
钨	-11.4547
目标。	-11.4548
逮捕	-11.455
5公里,	-11.455
昧	-11.455
,其中有	-11.4551
产品远销	-11.4551
污染物	-11.4552
凝结	-11.4553
楼房	-11.4553
笔墨	-11.4554
分别在	-11.4554
腥	-11.4557
肘	-11.4559
人民代表大会	-11.4559
,不久	-11.4561
娅	-11.4562
根状茎	-11.4562
小学高级教师	-11.4563
四年(	-11.4563
技术推广	-11.4563
承德	-11.4566
江镇	-11.4567
一手	-11.4567
留下了	-11.4569
的认识	-11.4569
措	-11.4571
,终	-11.4571
状态。	-11.4571
敖	-11.4571
拆除	-11.4571
多方	-11.4572
展现了	-11.4573
产品销售	-11.4574
大床房	-11.4574
500平方米	-11.4574
事业的发展	-11.4575
电解	-11.4575
;“	-11.4576
满足客户	-11.4577
7月,	-11.4578
司职	-11.458
机能	-11.4582
专家学者	-11.4582
8～	-11.4584
行政村,属于山区。	-11.4585
的影响。	-11.4585
批准为	-11.4585
微笑	-11.4586
窍	-11.4586
刨	-11.4586
瞄准	-11.4587
构思	-11.4587
发明专利	-11.4588
画册	-11.4589
宫殿	-11.4589
站长	-11.4589
彩绘	-11.4589
1981	-11.4593
俩	-11.4593
30人	-11.4594
篇,其中	-11.4594
等内容	-11.4595
。通常	-11.4596
小块	-11.4598
管理理念	-11.4598
惯	-11.4598
信阳	-11.46
专区	-11.46
前提	-11.46
的其他	-11.4601
迷你	-11.4601
惧	-11.4603
委副书记	-11.4603
新浪	-11.4605
,都是	-11.4606
腐败	-11.4606
会计师	-11.4606
知识分子	-11.4607
以及其他	-11.4607
。1979年	-11.4608
,方便	-11.4609
齐鲁	-11.4609
任教于	-11.4612
勘察	-11.4612
尽可能	-11.4613
谐	-11.4613
导入	-11.4614
作品有《	-11.4614
蓝天	-11.4614
命名的	-11.4616
收支	-11.4616
集团军	-11.4616
水肿	-11.4617
__	-11.4617
圆满	-11.462
相等	-11.4621
建筑装饰	-11.4622
。1981年	-11.4623
文帝	-11.4625
阻燃	-11.4626
烹	-11.4627
圃	-11.4629
、深圳	-11.4631
分析与	-11.4631
百强	-11.4633
茹	-11.4635
系毕业	-11.4635
院院长	-11.4635
知府	-11.4636
开发有限公司	-11.4638
2万	-11.4638
股份制企业	-11.4639
放进	-11.464
居家	-11.4641
到位	-11.4642
鲜明的	-11.4643
/秒	-11.4645
详尽	-11.4645
毒素	-11.4647
多次被	-11.4647
▁该村	-11.4649
校友	-11.465
有两种	-11.4651
148	-11.4651
调制	-11.4653
采收	-11.4654
汤汁	-11.4656
安庆	-11.4657
煮沸	-11.4658
印花	-11.4658
也要	-11.4662
匾	-11.4663
恐惧	-11.4664
十几年	-11.4665
的颜色	-11.4665
为邻	-11.4665
西岸	-11.4665
双面	-11.4666
内脏	-11.4667
变色	-11.4668
八十年代	-11.467
土木	-11.467
二者	-11.4671
通俗易懂	-11.4671
重点文物保护单位	-11.4672
交易所	-11.4672
,即可	-11.4672
轨迹	-11.4673
增进	-11.4673
理化	-11.4674
不一	-11.4674
端子	-11.4675
。1950年	-11.4675
平民	-11.4675
服务公司	-11.4676
瑜	-11.4676
沫	-11.4678
地方性	-11.4678
呀	-11.4679
50°C	-11.4679
大专以上学历	-11.4681
樵	-11.4681
润滑油	-11.4682
▁屏幕尺寸	-11.4683
9001:2000	-11.4685
篮球场	-11.4685
先天性	-11.4687
研究生毕业	-11.4688
7.7	-11.4688
膀胱	-11.4689
职业生涯	-11.4689
生态系统	-11.469
常识	-11.4691
批判	-11.4692
颌	-11.4694
世界各国	-11.4694
纺织品	-11.4695
14001	-11.4696
钥匙	-11.4696
掺	-11.4696
水性	-11.4697
的诊治	-11.4698
该病毒	-11.4698
结束后	-11.47
青椒	-11.47
宦	-11.47
蒿	-11.4701
英文名称	-11.4702
本书以	-11.4704
▁2007	-11.4706
西宁	-11.4707
花园式	-11.4708
无毛,	-11.4708
人民代表大会常务委员会	-11.4708
自定义	-11.4708
围棋	-11.4708
提醒	-11.4708
八一	-11.4708
”与“	-11.4709
实惠	-11.471
大王	-11.471
地委	-11.471
几百	-11.4711
国家教委	-11.4712
传达	-11.4713
胖	-11.4713
浴室	-11.4714
捐资	-11.4715
人均耕地0.	-11.4715
省卫生厅	-11.4715
临沂市	-11.4715
新中国	-11.4716
机房	-11.4719
至上	-11.4719
头、	-11.4722
概况	-11.4724
附着	-11.4724
海事	-11.4725
1—	-11.4726
。它们	-11.4728
霉素	-11.4728
作协	-11.4729
三条	-11.4729
源头	-11.4729
自发	-11.473
肺炎	-11.4732
冲洗	-11.4732
后门	-11.4733
206	-11.4733
3～	-11.4734
大唐	-11.4735
牢固	-11.4735
狠	-11.4735
巡抚	-11.4735
修炼	-11.4736
聊城	-11.4736
内阁	-11.4737
灿	-11.4738
。书中	-11.4738
将继续	-11.4739
词条	-11.474
戟	-11.4741
兼顾	-11.4741
5万元	-11.4741
多样化	-11.4741
南美	-11.4742
生理学	-11.4743
让我	-11.4743
稀释	-11.4744
报告文学	-11.4744
,凭借	-11.4745
与现代	-11.4745
成立。	-11.4745
今天的	-11.4747
、南京	-11.4747
于1998年	-11.4747
相声	-11.4748
2月任	-11.4749
定价	-11.4749
工具。	-11.475
研讨	-11.4751
同盟	-11.4751
成立于2006年	-11.4753
天后	-11.4753
起到了	-11.4753
的特征	-11.4754
12年	-11.4754
之父	-11.4754
、财务	-11.4755
触角	-11.4756
(一)	-11.4757
进军	-11.4758
多彩	-11.4758
创办了	-11.4759
华语	-11.4759
空气中	-11.4759
向外	-11.476
公安部	-11.476
一幢	-11.4761
暴露	-11.4761
喂	-11.4762
眷	-11.4763
模式:	-11.4763
重点学科	-11.4764
为民	-11.4765
猿	-11.4765
寂寞	-11.4765
集团、	-11.4766
,创建于	-11.4766
富贵	-11.4769
拓宽	-11.4769
软件大小	-11.4769
填充	-11.4772
经济作物	-11.4772
爱你	-11.4773
十个	-11.4773
八月	-11.4773
县委、县政府	-11.4773
缓冲	-11.4774
纲要	-11.4775
建国后	-11.4775
称之为“	-11.4776
腾讯	-11.4779
多年生	-11.478
点缀	-11.4781
照射	-11.4782
,师从	-11.4784
荷花	-11.4784
骄	-11.4784
委常委、	-11.4786
硕士学位。	-11.4786
住院	-11.4786
九州	-11.4787
绿豆	-11.4788
酿造	-11.4793
章程	-11.4793
的地方。	-11.4794
自律	-11.4794
和个人	-11.4795
支持下,	-11.4795
、卫生	-11.4796
中国人民	-11.4796
加工设备	-11.4797
温和	-11.4797
18个	-11.4797
15人	-11.4797
超强	-11.4798
蓬莱	-11.4798
栖息于	-11.4798
收藏家	-11.4801
当局	-11.4801
无疑	-11.4802
农村经济	-11.4802
、江苏	-11.4802
资源优势	-11.4802
活塞	-11.4804
起步	-11.4804
成立于2004年	-11.4807
工业化	-11.4808
顷	-11.4809
一直是	-11.481
技术及	-11.4812
层层	-11.4812
,易	-11.4812
注意事项	-11.4813
177	-11.4814
名人录	-11.4815
询	-11.4815
方位	-11.4815
类似于	-11.4815
陶器	-11.4816
,得到	-11.4817
火烧	-11.4818
世界上最	-11.482
夜晚	-11.4821
新疆维吾尔自治区	-11.4823
香蕉	-11.4824
服务质量	-11.4825
$	-11.4826
本草	-11.4827
公司将	-11.4827
网络科技有限公司	-11.483
现行	-11.483
▁目前,	-11.483
各适量	-11.4831
内侧	-11.4831
师德	-11.4831
当地的	-11.4832
神州	-11.4835
证书。	-11.4836
乐趣	-11.4837
营销策划	-11.4837
1月生,	-11.4837
▁释文:	-11.4838
他对	-11.4839
转载	-11.484
贮存	-11.484
被聘为	-11.484
成名	-11.4841
部级	-11.4841
亚科	-11.4841
抗性	-11.4842
机动车	-11.4842
优秀论文奖	-11.4842
-4-	-11.4843
保险公司	-11.4843
面向全国	-11.4844
旅游景点	-11.4845
五星级	-11.4845
研究工作。	-11.4846
主营业务	-11.4848
蛋黄	-11.4851
十六年	-11.4853
,1958年	-11.4854
520	-11.4855
的性质	-11.4855
学子	-11.4856
л	-11.4857
相近	-11.4859
一般是	-11.4859
,并被	-11.4859
美术家	-11.486
。曾获	-11.4861
回答	-11.4861
战后	-11.4862
第十三	-11.4862
攻击力	-11.4863
和销售	-11.4864
文学艺术	-11.4867
絮	-11.4867
励志	-11.4868
水田	-11.4869
洽	-11.4869
-10-	-11.487
布局合理	-11.4871
-3-	-11.4873
劳动和社会保障	-11.4875
启用	-11.4875
回路	-11.4876
是一首	-11.4878
高度重视	-11.488
石榴	-11.488
素材	-11.488
灌丛	-11.488
吧!	-11.4881
西域	-11.4882
赔	-11.4885
睦	-11.4885
中文输入	-11.4885
游泳池	-11.4887
板上	-11.4889
国际性	-11.4889
景象	-11.4889
队队长	-11.489
线形	-11.4891
跨国	-11.4891
124	-11.4891
到处	-11.4891
发布的	-11.4891
09年	-11.4893
攻关	-11.4893
60克	-11.4895
孤独	-11.4895
脊柱	-11.4897
楼宇	-11.4897
的女人	-11.4897
书店	-11.4899
动感	-11.4899
管理委员会	-11.49
高职高专	-11.49
惹	-11.4903
瞩目	-11.4903
葱段	-11.4904
园林绿化	-11.4905
,南接	-11.4906
奥斯卡	-11.4906
137	-11.4907
管理体系认证	-11.4908
,多次	-11.4909
在广州	-11.4909
ク	-11.491
并获得	-11.4911
信息、	-11.4911
充实	-11.4911
还将	-11.4912
1路	-11.4912
更高的	-11.4912
广大消费者	-11.4913
8.7	-11.4914
的联系	-11.4914
产业园	-11.4914
这两个	-11.4915
、工业	-11.4915
集体经济	-11.4916
1998.	-11.4916
蓟	-11.4918
喜爱的	-11.4918
作家协会	-11.4918
娃娃	-11.4918
积累了丰富的	-11.4918
步入	-11.4919
(13	-11.492
白马	-11.4921
。他在	-11.4921
平稳	-11.4922
前线	-11.4922
50人	-11.4923
汉中	-11.4924
沃尔	-11.4927
膜炎	-11.4928
的好评。	-11.4928
有线	-11.4929
沸点	-11.4929
是北京	-11.4931
味甘	-11.4931
海滩	-11.4932
协商	-11.4932
,提升	-11.4933
▁1999年	-11.4933
批准成立	-11.4934
西边	-11.4935
排行榜	-11.4935
噪	-11.4937
北边	-11.4937
自然科学基金	-11.4941
ま	-11.4943
不想	-11.4945
并被	-11.4946
傻	-11.4946
婴幼儿	-11.4947
组团	-11.4947
时间为	-11.4948
数量:	-11.4948
5.9	-11.4949
第9	-11.495
,最大	-11.495
散发	-11.4951
悼	-11.4951
都督	-11.4952
的优点	-11.4953
以质量求生存	-11.4955
很多人	-11.4956
科技园	-11.4956
(学名:)	-11.4956
名贵	-11.4958
石器	-11.4959
了很多	-11.4961
这里的	-11.4961
或许	-11.4962
50多	-11.4962
侦	-11.4963
故宫博物院	-11.4963
耐高温	-11.4963
暇	-11.4963
在那里	-11.4966
星座	-11.4966
▁第三	-11.4968
放电	-11.4968
多次在	-11.497
多变	-11.497
优质产品	-11.4971
的又一	-11.4972
1.5公里	-11.4973
问世	-11.4973
冲压	-11.4975
养老	-11.4976
捞	-11.4977
560	-11.4978
“双	-11.4978
匡	-11.4979
”变种	-11.4979
气流	-11.498
荔枝	-11.498
状态下	-11.4981
三等奖。	-11.4981
针织	-11.4981
商丘	-11.4982
吉安	-11.4982
抵押	-11.4984
股长	-11.4984
宽阔	-11.4985
485	-11.4988
所致的	-11.4989
12月出生,	-11.4989
▁(五)	-11.4991
的象征	-11.4993
详细的	-11.4993
末期	-11.4995
爆破	-11.4995
台州	-11.4996
丰收	-11.4996
沐	-11.4998
形式。	-11.4998
清真寺	-11.4999
具有丰富的	-11.5
了他的	-11.5
制造有限公司	-11.5002
6名	-11.5003
大专院校	-11.5003
气压	-11.5005
讲话	-11.5005
主持完成	-11.5006
鹊	-11.5007
建筑业	-11.5007
齐齐哈尔	-11.5007
区人民政府	-11.501
的比例	-11.501
缩小	-11.5012
学校占地	-11.5014
当代中国	-11.5014
生物化学	-11.5015
的责任	-11.5016
县志	-11.5017
我是	-11.5018
尾巴	-11.5018
可以说是	-11.5021
消肿	-11.5022
得天独厚的	-11.5024
天左右	-11.5026
技术培训	-11.5026
、吴	-11.5026
副科级	-11.5027
同事	-11.5027
尤为	-11.5028
西周	-11.5028
学》、《	-11.5028
并与	-11.5028
天台	-11.5029
意义上	-11.5031
行销	-11.5032
水陆	-11.5032
建模	-11.5033
高中毕业	-11.5033
待机	-11.5034
日常生活	-11.5034
的总称	-11.5035
适用范围	-11.5035
调研员	-11.5036
一个小	-11.5037
颊	-11.5037
够	-11.504
与实践	-11.504
躲	-11.504
伯特	-11.5044
国标	-11.5044
1小时	-11.5046
综合型	-11.5046
的话,	-11.5048
2厘米	-11.5048
书画大赛	-11.5048
造价	-11.5049
绿色环保	-11.505
收取	-11.505
华硕	-11.5052
现在效力于	-11.5052
的国家	-11.5053
使之	-11.5053
,约	-11.5054
5°	-11.5055
小学生	-11.5055
临近	-11.5056
产业的	-11.5058
赣州	-11.5058
父子	-11.5059
边区	-11.506
水文	-11.5061
构成了	-11.5061
灰白色	-11.5061
拥有一批	-11.5061
-04	-11.5061
流入	-11.5062
鲜花	-11.5063
的斗争	-11.5065
144	-11.5068
开始在	-11.5068
该院	-11.5068
常务委员	-11.5069
、安徽	-11.507
字形	-11.5071
雅典	-11.5071
工具书	-11.5072
稽	-11.5072
白领	-11.5073
闵	-11.5074
煤气	-11.5075
爽口	-11.5075
补肾	-11.5076
山麓	-11.5076
主产	-11.5077
一个个	-11.508
紫红色	-11.508
11月出生,	-11.5081
规范的	-11.5081
单体	-11.5082
自卫	-11.5083
在英国	-11.5083
堕	-11.5083
”称号,	-11.5084
力争	-11.5085
,建立了	-11.5087
督导	-11.5087
漳州	-11.5088
程序设计	-11.5089
高强度	-11.5089
邓小平	-11.509
普通话	-11.509
轴线	-11.5091
阻力	-11.5091
10月任	-11.5092
640	-11.5093
翟	-11.5093
砾	-11.5094
知识和	-11.5095
公会	-11.5095
北极	-11.5095
讲学	-11.5096
二级缓存	-11.5096
本次	-11.5096
竭诚为	-11.5097
取决于	-11.5098
缠绕	-11.5099
科技发展	-11.51
低音	-11.51
挥发	-11.51
焙	-11.5101
给他	-11.5101
九月	-11.5102
辅导员	-11.5104
咀	-11.5106
领先地位	-11.5106
人们对	-11.5107
南安	-11.5107
适合于	-11.5109
第二大	-11.511
主导产品	-11.511
赠送	-11.511
柚	-11.5111
副主任医师,	-11.5113
7平方公里	-11.5113
又能	-11.5115
泸州	-11.5115
混乱	-11.5115
杂志上发表	-11.5117
楼层	-11.5117
才华	-11.5118
名著	-11.5119
庄子	-11.5119
衔接	-11.512
50万	-11.512
中药材	-11.5122
注册表	-11.5126
▁适用	-11.5127
之王	-11.5127
总笔画:	-11.5127
教学研究	-11.5127
满洲	-11.5128
连续多年	-11.5128
刻录	-11.5129
磊	-11.5129
至今已	-11.5129
茗	-11.5132
交流平台	-11.5132
湛	-11.5132
贯通	-11.5133
楔形	-11.5133
合适的	-11.5134
奖金	-11.5135
住宅小区	-11.5135
的第一个	-11.514
。花期	-11.514
9.7	-11.5141
可以说	-11.5142
质量、	-11.5144
耐用	-11.5145
提到	-11.5146
聚焦	-11.5147
万多平方米	-11.5149
周刊	-11.5149
居住在	-11.5149
受聘	-11.515
出处	-11.515
儿女	-11.515
切削	-11.515
哥伦比亚	-11.515
电视机	-11.5151
随即	-11.5152
秃	-11.5152
新药	-11.5153
战胜	-11.5153
教育教学质量	-11.5155
愉快	-11.5155
突出的	-11.5156
基础设施建设	-11.5157
60年	-11.5157
线索	-11.5158
断面	-11.516
日月	-11.516
间隙	-11.5162
高效率	-11.5162
蕃	-11.5162
技术人才	-11.5162
;组织	-11.5164
950	-11.5165
露天	-11.5165
长官	-11.5166
中国国家	-11.5167
@	-11.5168
胆固醇	-11.5168
基金项目	-11.5169
中餐厅	-11.517
诚信、	-11.5171
政策和	-11.5171
素养	-11.5171
宜昌	-11.5171
▁2001	-11.5171
托管	-11.5172
天生	-11.5172
浓厚的	-11.5172
统一的	-11.5172
兴隆	-11.5173
天赋	-11.5173
▁陈	-11.5174
-50	-11.5177
人性	-11.5178
右手	-11.5178
缕	-11.5178
手枪	-11.5181
花朵	-11.5181
路灯	-11.5181
9.1	-11.5182
亦作	-11.5185
加强对	-11.5186
本厂	-11.5186
书法篆刻	-11.5186
数据传输	-11.5188
位移	-11.5189
为主导	-11.5189
老虎	-11.519
车载	-11.5191
主编《	-11.5191
沙河	-11.5192
集成电路	-11.5193
工作和	-11.5193
500多	-11.5194
陌生	-11.5194
官吏	-11.5195
吸取	-11.5196
大阪	-11.5196
灵芝	-11.5197
间接	-11.5197
停车	-11.5197
/5	-11.5198
。该书	-11.5198
防空	-11.5199
济宁	-11.5199
果园	-11.5201
蔷薇	-11.5201
、河北	-11.5202
化管理	-11.5202
沿用	-11.5202
用清水	-11.5202
都很	-11.5204
。1938年	-11.5204
候选人	-11.5204
旗帜	-11.5204
师资队伍	-11.5207
长助理	-11.5207
学校位于	-11.5208
特拉	-11.5208
30万	-11.5208
〗	-11.5209
等问题	-11.521
咨询有限公司	-11.5211
教育机构	-11.5211
臻	-11.5212
投诉	-11.5212
勘查	-11.5214
诸如	-11.5215
股市	-11.5216
在一起,	-11.5218
总面积1	-11.5218
外接	-11.5219
行业标准	-11.5219
稀土	-11.5219
4月任	-11.522
红星	-11.522
颠	-11.5222
国际质量体系认证	-11.5223
学园	-11.5223
阳区	-11.5224
技术咨询	-11.5225
〖	-11.5225
三期	-11.5225
2000多	-11.5225
理论基础	-11.5226
,该村	-11.5226
长短	-11.5226
区划	-11.5227
草莓	-11.5227
匿	-11.5228
平坦	-11.5228
氏族	-11.5228
背鳍	-11.5229
▁曾任	-11.5229
生产制造	-11.523
奋进	-11.523
刻苦	-11.5231
莺	-11.5233
还没有	-11.5234
伴奏	-11.5234
主教	-11.5234
米尔	-11.5236
丰厚	-11.5236
、环境	-11.5236
调动	-11.5236
15-	-11.5237
泸	-11.5237
1条	-11.5238
工作经验	-11.5239
显微镜	-11.5239
晒干	-11.524
7月生,	-11.5241
党委书记、	-11.5241
的合法权益	-11.5244
灸	-11.5244
度假村	-11.5245
著名商标	-11.5245
结构和	-11.5245
确定为	-11.5249
平整	-11.5249
厂厂长	-11.5249
监控系统	-11.5249
之间。	-11.525
护肤	-11.5251
鸡汤	-11.5254
一应俱全	-11.5255
1920	-11.5255
计数	-11.5256
晃	-11.5256
研磨	-11.5259
的商品	-11.5259
乌鲁木齐	-11.526
保修卡	-11.526
鞍	-11.5261
纸质	-11.5262
批发市场	-11.5262
与客户	-11.5262
,建于	-11.5262
石雕	-11.5263
冷暖	-11.5265
纳斯	-11.5265
统计局	-11.5266
民兵	-11.5268
8.9	-11.5268
。故	-11.5268
基建	-11.5269
通车	-11.5269
潜水	-11.5269
我厂	-11.5269
结石	-11.527
166	-11.5271
长久	-11.5272
场馆	-11.5272
大匙	-11.5272
萃取	-11.5273
在外	-11.5273
的权利	-11.5274
至此	-11.5276
,直径	-11.5276
独自	-11.5277
水处理设备	-11.5278
记》:“	-11.5278
的发生	-11.5278
所产生的	-11.528
缉	-11.528
波尔	-11.528
第10	-11.5281
的场合	-11.5281
由美国	-11.5281
不安	-11.5282
聚乙烯	-11.5283
委员会委员。	-11.5283
酒店管理	-11.5284
参议	-11.5285
▁1995年	-11.5285
鸠	-11.5285
操控	-11.5286
,使之	-11.5287
处在	-11.5287
防洪	-11.5287
而出	-11.5287
6×	-11.5287
饵	-11.5287
80余	-11.5288
确定的	-11.5288
1名,	-11.5288
,才能	-11.5288
的领导	-11.5289
全境	-11.5289
村地处	-11.5291
漏洞	-11.5291
综	-11.5292
较短	-11.5292
室等	-11.5293
去掉	-11.5293
酰胺	-11.5295
塘镇	-11.5295
画师	-11.5297
,进一步	-11.5298
同时也是	-11.5298
归纳	-11.5298
锭	-11.5298
极佳	-11.5298
外形设计	-11.53
汛	-11.5303
面积4	-11.5305
2月生,	-11.5305
茧	-11.5305
驯	-11.5306
ㄕ	-11.5306
名优	-11.5308
,他在	-11.5309
道士	-11.5309
万人次	-11.5309
瑞安	-11.5309
而无	-11.531
公布为	-11.5312
网址	-11.5314
淮北	-11.5315
湖州	-11.5315
胶带	-11.5316
四月	-11.5316
当天	-11.5317
烧热	-11.5317
芝加哥	-11.5319
惩	-11.5319
煸炒	-11.5319
配制	-11.532
挤压	-11.532
430	-11.5321
论》:“	-11.5322
山石	-11.5323
身为	-11.5324
ㄒㄧ	-11.5324
半小时	-11.5324
性质的	-11.5325
,整个	-11.5326
宜昌市	-11.5326
德里	-11.5327
插图	-11.5327
带头人	-11.5329
大将军	-11.5329
诚实	-11.533
油锅	-11.533
克莱	-11.533
这首	-11.5332
绿茶	-11.5332
转为	-11.5332
中世纪	-11.5333
、娱乐、	-11.5333
队伍。	-11.5333
港澳台	-11.5335
血清	-11.5336
篇文章	-11.5336
纠	-11.5337
白银	-11.5339
人力资源和社会保障	-11.534
廉洁	-11.5342
麻烦	-11.5343
▁2002	-11.5343
治病	-11.5344
琐	-11.5345
灭火	-11.5345
互联	-11.5347
▁公司拥有	-11.5348
粪	-11.5349
袜	-11.535
1克	-11.5351
突击	-11.5351
研究课题	-11.5352
国会	-11.5353
研修	-11.5353
中断	-11.5356
的特性	-11.5357
6米	-11.5358
3月生,	-11.5358
光亮	-11.5358
车身	-11.5359
宫颈	-11.536
小巧	-11.5361
上千	-11.5361
温室	-11.5361
20°C	-11.5362
,北至	-11.5363
绅	-11.5364
多层次	-11.5365
基本原理	-11.5365
▁2011	-11.5365
,并通过	-11.5366
声优	-11.5366
第二个	-11.5367
经济社会发展	-11.5367
电位	-11.5368
吓	-11.5369
在一定	-11.5369
科学、	-11.5372
切断	-11.5372
(正	-11.5372
痹	-11.5373
三等功	-11.5375
戌	-11.5377
地基	-11.5378
溯	-11.5379
病情	-11.5379
保持着	-11.538
10～	-11.538
热烈	-11.5381
根据地	-11.5382
多达	-11.5383
上线	-11.5383
的一切	-11.5383
恒温	-11.5383
m2,	-11.5384
,及时	-11.5385
月中旬	-11.5385
翌年	-11.5386
的母亲	-11.5387
比重	-11.5387
色拉油	-11.5387
编审	-11.5389
录·	-11.5389
相通	-11.539
成长为	-11.539
202	-11.5391
考取	-11.5391
文化传播有限公司	-11.5391
5毫米	-11.5392
162	-11.5392
管理水平	-11.5392
0平米	-11.5393
提供商	-11.5395
适应性	-11.5396
举办了	-11.5396
1918年	-11.5398
各行业	-11.54
感悟	-11.5401
高层次	-11.5402
100克,	-11.5405
颁	-11.5405
宜人	-11.5405
管件	-11.5406
筷	-11.5406
脱水	-11.5406
6项	-11.5407
国家二级	-11.5407
起重	-11.5407
事实上	-11.5408
儒家	-11.5408
称赞	-11.5408
琵琶	-11.5408
具有一定	-11.5409
昆仑	-11.5409
畜禽	-11.5411
宜宾	-11.5413
凝固	-11.5413
生物工程	-11.5414
鹦鹉	-11.5414
奖;	-11.5414
南北朝	-11.5415
考验	-11.5415
,实	-11.5416
辛亥革命	-11.5419
缪	-11.5419
辩证	-11.542
神圣	-11.542
排球	-11.5421
包含了	-11.5422
大殿	-11.5422
1280	-11.5423
微机室	-11.5423
社会效益	-11.5424
科长、	-11.5425
、日本、	-11.5426
立方	-11.5428
航空航天	-11.5429
牌子	-11.5429
,笔名	-11.5431
石桥	-11.5434
结论	-11.5435
▁2003	-11.5437
▁2010	-11.5439
争夺	-11.5439
酰	-11.5439
朴实	-11.544
确立了	-11.5441
姜末	-11.5441
甬	-11.5443
古文	-11.5445
委员会委员、	-11.5445
讳	-11.5446
中的一种	-11.5446
天天	-11.5447
、广西	-11.5448
四通八达	-11.5448
电视节目	-11.5449
出版发行	-11.5449
丰富的临床经验	-11.545
1979	-11.545
的全部	-11.5451
笺	-11.5451
》是一部	-11.5452
,1978年	-11.5452
不止	-11.5452
,学生	-11.5455
落户	-11.5455
核定	-11.5455
歌声	-11.5455
综合利用	-11.5455
矿井	-11.5456
刻有	-11.5456
一般在	-11.5456
水管	-11.5457
一等奖,	-11.546
秀美	-11.5461
一股	-11.5462
自然景观	-11.5462
约4	-11.5463
科技发展有限公司	-11.5465
能满足	-11.5465
县人民政府副县长	-11.5466
繁育	-11.5468
填补了	-11.5468
冬天	-11.547
教室、	-11.5471
1913年	-11.5471
圣诞	-11.5472
影院	-11.5472
心理咨询	-11.5473
这套	-11.5473
美军	-11.5474
伸缩	-11.5476
首选	-11.5476
油漆	-11.5476
20米	-11.5477
播音	-11.5478
建筑群	-11.5478
星光	-11.5479
衡阳市	-11.5479
措施,	-11.5479
海参	-11.5479
东边	-11.5481
出版《	-11.5482
为己任	-11.5482
曾荣获	-11.5482
×5	-11.5482
公益事业	-11.5484
类专业	-11.5485
纂	-11.5485
向西	-11.5486
防守	-11.5486
奉命	-11.5486
工部	-11.5488
烤箱	-11.5488
不明显	-11.5489
的意思。	-11.5492
恢	-11.5493
169	-11.5494
农业人口	-11.5494
2公里,	-11.5494
立式	-11.5494
;对	-11.5495
育成	-11.5495
安静	-11.5495
引水	-11.5496
懿	-11.5496
企图	-11.5498
国家级重点	-11.5499
》卷二	-11.5499
/6	-11.5501
需求的	-11.5501
胰	-11.5501
迄今	-11.5502
哲学社会科学	-11.5502
改性	-11.5502
跨世纪	-11.5503
质感	-11.5507
预期	-11.5509
越大	-11.551
▁王	-11.5511
流行于	-11.5512
精神病	-11.5512
残酷	-11.5512
千金	-11.5512
。本公司	-11.5513
之际,	-11.5513
支持3	-11.5514
油墨	-11.5514
欧式	-11.5515
穆斯林	-11.5515
崭新的	-11.5515
心肌	-11.5515
所说的	-11.5516
她在	-11.5516
栈	-11.5518
伴有	-11.5518
矩阵	-11.5519
余姚	-11.5519
制品有限公司	-11.552
摔	-11.552
行政区域	-11.5522
清河	-11.5523
8月任	-11.5524
云集	-11.5524
这两	-11.5526
为末	-11.5527
救灾	-11.5527
水系	-11.5528
之名	-11.553
白沙	-11.5531
文摘	-11.5531
二氧化碳	-11.5531
85%	-11.5533
莽	-11.5534
同胞	-11.5534
星级酒店	-11.5535
党委副书记、	-11.5535
搞笑	-11.5536
装入	-11.5536
婷	-11.5536
9.3	-11.5536
,为客户提供	-11.5538
向北	-11.5538
ㄉ	-11.5539
追踪	-11.554
的研究,	-11.554
南通市	-11.554
厝	-11.5541
区试	-11.5542
二十五	-11.5543
市委市政府	-11.5543
2条	-11.5543
党总支书记	-11.5545
,其实	-11.5547
1-3	-11.5547
曲目	-11.5548
怀疑	-11.5549
滚动	-11.555
鱼、	-11.555
职员	-11.5551
每位	-11.5551
雇	-11.5551
并将	-11.5551
国民政府	-11.5553
特许	-11.5553
淹	-11.5553
5月任	-11.5554
获博士学位	-11.5555
达尔	-11.5556
外围	-11.5556
走廊	-11.5557
书画展	-11.5557
3万	-11.5557
愿与	-11.5558
的能力。	-11.556
一届	-11.556
医学博士	-11.5561
一个新的	-11.5561
精美的	-11.5562
中国经济	-11.5563
之一,是	-11.5563
得出	-11.5563
,1979年	-11.5565
所谓“	-11.5565
る	-11.5566
已达	-11.5566
100万	-11.5567
行政区	-11.5569
根据《	-11.5571
三星级	-11.5571
薄片	-11.5573
大理石	-11.5573
韧性	-11.5573
这本	-11.5574
绛	-11.5574
肝胆	-11.5575
野战军	-11.5575
看来	-11.5576
下来的	-11.5576
的合作关系	-11.5578
主要研究方向为	-11.5578
床位	-11.5579
2400	-11.558
头上	-11.5581
的唯一	-11.5581
维也纳	-11.5582
躁	-11.5582
群山	-11.5584
应该是	-11.5584
楞	-11.5585
、广告	-11.5587
东坡	-11.5588
667	-11.5588
火花	-11.5591
愧	-11.5593
原生	-11.5594
灾难	-11.5596
578	-11.5598
欲望	-11.5599
获得国家	-11.5599
中空	-11.5602
立方米	-11.5602
解码	-11.5602
讲述的是	-11.5602
位于浙江省	-11.5602
编曲	-11.5603
▁号:	-11.5603
释文	-11.5603
消化道	-11.5606
影音	-11.5607
南洋	-11.5608
1978	-11.5608
革命烈士	-11.5609
。1945年	-11.561
用刀	-11.561
起锅	-11.561
政策法规	-11.5611
荀	-11.5612
问答	-11.5612
留校	-11.5613
机电设备	-11.5615
色调	-11.5616
入药	-11.5617
骨髓	-11.5618
产品及	-11.5618
馆藏	-11.5619
等称号	-11.5619
斑纹	-11.5621
是全球	-11.5621
信托	-11.5622
,,,,	-11.5622
政党	-11.5622
白天	-11.5625
疣	-11.5625
中华全国	-11.5626
四海	-11.5626
可通过	-11.5627
结成	-11.5627
保健食品	-11.5628
是上海	-11.5628
足迹	-11.5629
热血	-11.5629
9月出生,	-11.563
为核心,	-11.563
之地。	-11.563
制定的	-11.5631
摄像	-11.5631
,协助	-11.5633
的典型	-11.5635
工程的	-11.5636
家属	-11.5636
列表	-11.5636
喊	-11.5636
庄、	-11.5636
格林	-11.5637
宰相	-11.5638
技术应用	-11.5638
客户至上	-11.5639
赚	-11.5639
病因	-11.564
母本	-11.564
浚	-11.5641
已通过	-11.5642
电影节	-11.5643
的地方,	-11.5644
7月1日	-11.5644
住户	-11.5645
开放式	-11.5645
放松	-11.5646
看着	-11.5647
并以	-11.5647
止血	-11.5648
县(今	-11.5648
的一本	-11.5649
供货	-11.565
与人	-11.565
碑林	-11.565
书刊	-11.565
学院副教授	-11.5651
是英国	-11.5651
经络	-11.5651
和政策	-11.5652
,上面	-11.5653
服务有限公司	-11.5653
学科:	-11.5656
,有些	-11.5657
良性	-11.5658
7.9	-11.5659
成立于2000年	-11.566
08年	-11.5661
所需要的	-11.5662
离退休	-11.5663
畅通	-11.5664
批量	-11.5664
00多平方米,	-11.5665
签署	-11.5666
的温度	-11.5666
成立以来,	-11.5666
珍稀	-11.5666
滋补	-11.5667
大片	-11.5667
完全中学	-11.5667
无奈	-11.5667
营养价值	-11.5668
人身	-11.5668
农副产品	-11.567
理事,	-11.5671
▁1997年	-11.5673
瘟	-11.5674
光彩	-11.5674
乳化	-11.5674
人民广播电台	-11.5675
软化	-11.5676
驼	-11.5677
宾语	-11.5678
启蒙	-11.5678
鸾	-11.5679
苟	-11.568
副镇长	-11.5681
。★	-11.5681
日光	-11.5682
贰	-11.5682
号。	-11.5683
防雷	-11.5684
行程	-11.5684
珍贵的	-11.5685
病症	-11.5686
系列:	-11.5687
厂长	-11.5687
狠抓	-11.5688
”之称。	-11.5688
功勋	-11.5688
盐城	-11.5689
1,2	-11.569
总站	-11.5691
掩护	-11.5691
江河	-11.5691
“我	-11.5691
强势	-11.5692
绘图	-11.5694
畜牧兽医	-11.5696
路由器	-11.5698
领先水平	-11.5698
梧	-11.5698
/4	-11.5699
之日起	-11.5699
正当	-11.57
动画片	-11.57
佰	-11.5701
秀才	-11.5701
上饶	-11.5703
11人	-11.5703
,往往	-11.5704
制约	-11.5704
央视	-11.5705
骨干企业	-11.5706
桥头	-11.5708
极端	-11.5708
出版了	-11.5709
,赢得了	-11.571
年仅	-11.5711
释义:	-11.5713
扎实的	-11.5713
出生,汉族,	-11.5714
采样	-11.5715
也就是说	-11.5715
主题曲	-11.5717
禧	-11.5717
度过	-11.5717
硕士生导师。	-11.5718
放映	-11.5719
深入浅出	-11.572
农业产业化	-11.5722
“十一五”	-11.5723
,适用于	-11.5723
卫生局	-11.5728
牡丹江	-11.5728
约占	-11.5728
丫	-11.5731
县公安局	-11.5733
距今	-11.5733
震动	-11.5733
退化	-11.5734
担心	-11.5734
北边,距离	-11.5734
头顶	-11.5735
20000	-11.5735
意为“	-11.5736
样本	-11.5736
门下	-11.5736
指引	-11.5738
完美结合	-11.574
花草	-11.574
两部	-11.5741
向往	-11.5742
类产品	-11.5742
,供	-11.5743
水道	-11.5743
小高层	-11.5743
王家	-11.5744
斯蒂	-11.5744
交给	-11.5745
侵蚀	-11.5745
结核	-11.5747
懂得	-11.5747
768	-11.5749
地带,	-11.5749
有趣	-11.575
职业学校	-11.575
微观	-11.5751
岳阳	-11.5751
学会副理事长	-11.5752
的欢迎	-11.5753
衢	-11.5753
先进企业	-11.5754
失去了	-11.5755
り	-11.5756
中枢	-11.5759
相关部门	-11.576
伴随着	-11.576
北齐	-11.576
文革	-11.576
马路	-11.5761
纤细	-11.5762
(..)	-11.5763
25年	-11.5763
里斯	-11.5763
交货	-11.5764
传导	-11.5764
,西临	-11.5765
的原则,	-11.5765
和企业	-11.5766
▁摄像头	-11.5766
元月	-11.5767
旅游景区	-11.5771
高宗	-11.5774
丝绸	-11.5775
世界华人	-11.5778
完成的	-11.5779
碗中	-11.5779
安康	-11.5779
援助	-11.578
滨州	-11.578
周恩来	-11.578
耍	-11.578
呕吐	-11.5781
剿	-11.5781
大堂	-11.5781
漕	-11.5783
《红楼梦》	-11.5784
。”参见“	-11.5787
所能	-11.5789
担任过	-11.5789
绚丽	-11.5789
馆员	-11.5789
铜奖	-11.579
奥尔	-11.579
、重庆	-11.579
,兼任	-11.579
质量监督	-11.5791
长篇小说	-11.5793
装卸	-11.5793
沦	-11.5796
如来	-11.5797
的种类	-11.5797
助学	-11.5798
厅级	-11.5798
最佳的	-11.5798
公约	-11.5798
发挥了	-11.5799
,结果	-11.5801
理论知识	-11.5801
不懈	-11.5801
下垂	-11.5801
公司现有	-11.5802
医疗卫生	-11.5802
编写了	-11.5802
15%	-11.5803
校训	-11.5803
指导下,	-11.5804
泣	-11.5805
提炼	-11.5806
探究	-11.5807
获中国	-11.5809
奔腾	-11.581
为适应	-11.5812
闪光	-11.5812
的带领下	-11.5812
体育运动	-11.5813
椿	-11.5813
技术水平	-11.5814
一句	-11.5815
曹操	-11.5815
回顾	-11.5818
客户需求	-11.5818
适时	-11.5819
家协会理事	-11.582
动植物	-11.582
所写	-11.582
自从	-11.5823
丞相	-11.5823
决议	-11.5824
笨	-11.5824
茜	-11.5824
中兴	-11.5826
440	-11.5826
开机	-11.5827
▁金	-11.5827
0毫米适宜种植	-11.5827
,叶片	-11.5829
九三学社	-11.583
☆	-11.583
玺	-11.583
挠	-11.583
起源	-11.5831
法治	-11.5831
高科技企业	-11.5831
兴国	-11.5832
好莱坞	-11.5832
贮藏	-11.5833
机械加工	-11.5833
投资兴建	-11.5833
视听	-11.5833
品尝	-11.5834
外型	-11.5834
缩写	-11.5834
庐山	-11.5835
洗衣	-11.5836
发电厂	-11.5836
靡	-11.5836
礼物	-11.5837
锦州	-11.5837
难点	-11.584
竹林	-11.5841
年均	-11.5842
承担了	-11.5843
副县长	-11.5843
自主知识产权	-11.5844
玉器	-11.5845
优异的	-11.5845
。长期从事	-11.5846
为界	-11.5847
全面工作	-11.5847
具有较强的	-11.5847
国际先进水平	-11.5848
”的宗旨,	-11.5849
上门	-11.5849
经济区	-11.585
农学	-11.585
新乡市	-11.585
剁	-11.5851
,1980年	-11.5852
多个国家	-11.5852
综合楼	-11.5852
交错	-11.5852
。1936年	-11.5853
市场竞争	-11.5855
民盟	-11.5857
佚	-11.5858
丧失	-11.5858
擒	-11.5858
滥	-11.5858
地球物理	-11.5859
五四	-11.5859
公署	-11.5862
任职于	-11.5863
占地面积约	-11.5865
225	-11.5865
近千	-11.5866
分会会员	-11.5866
放到	-11.5867
再现	-11.5867
痈	-11.5869
门类	-11.5869
累积	-11.5872
补助	-11.5872
发展壮大	-11.5873
掷	-11.5874
祠堂	-11.5875
圣经	-11.5875
后备	-11.5876
2人。	-11.5876
镇长	-11.5876
舅	-11.5877
报价	-11.5878
林立	-11.5878
专卖店	-11.5879
40公里	-11.5879
和其它	-11.588
妾	-11.588
办副主任	-11.588
,楼高	-11.588
美容美发	-11.5883
赛区	-11.5883
巴斯	-11.5884
人生的	-11.5884
客栈	-11.5885
写了	-11.5887
中国市场	-11.5887
毕业于上海	-11.5888
篇章	-11.5888
天鹅	-11.589
检察院	-11.589
学业	-11.589
抗原	-11.5891
涟	-11.5891
表现了	-11.5891
的大力支持	-11.5892
好学	-11.5892
上乘	-11.5893
准确的	-11.5893
乖	-11.5894
各方	-11.5894
专门为	-11.5895
顶生	-11.5898
洞穴	-11.5899
较强的	-11.59
男生	-11.59
》一文	-11.5901
之法	-11.5902
柘	-11.5902
盔	-11.5902
尺度	-11.5902
先驱	-11.5903
会会长	-11.5904
厚重	-11.5907
周易	-11.5907
·卡	-11.5908
主演的	-11.5908
后,在	-11.5908
贴吧	-11.5909
死者	-11.591
(5)	-11.591
1座	-11.5911
校园文化	-11.5912
登录	-11.5912
交通部	-11.5916
巴基斯坦	-11.5916
发源于	-11.5916
基础研究	-11.5918
横跨	-11.5918
使者	-11.5919
菠菜	-11.5919
～2	-11.5919
完善的售后服务	-11.5919
对接	-11.5919
天涯	-11.5919
砂糖	-11.5921
芙	-11.5921
磅	-11.5921
理工学院	-11.5922
中国书法家协会会员	-11.5922
佩戴	-11.5923
高空	-11.5924
划分为	-11.5924
信息网	-11.5924
沿线	-11.5924
腹痛	-11.5926
大幅	-11.5926
三位	-11.593
英尺	-11.5934
▁中文名称:	-11.5934
柴油机	-11.5935
最大化	-11.5935
药理	-11.5937
帛	-11.5938
235	-11.5939
锂	-11.594
急诊	-11.594
冕	-11.5941
进驻	-11.5941
。1955年	-11.5942
恩施	-11.5942
我村	-11.5943
左手	-11.5943
之说	-11.5944
唱片公司	-11.5945
学校现有	-11.5945
家教	-11.5945
之际	-11.5945
摇篮	-11.5947
不住	-11.5949
0元。	-11.5949
典籍	-11.595
突变	-11.595
分量	-11.595
气象局	-11.5952
他曾	-11.5953
207	-11.5954
安阳	-11.5956
等农作物	-11.5957
路段	-11.5957
言语	-11.5957
移居	-11.5957
煮至	-11.5958
不育	-11.5959
的研究。	-11.596
新生儿	-11.596
为己任,	-11.5962
哩	-11.5962
''	-11.5962
迈进	-11.5962
-1-	-11.5965
。1948年	-11.5966
的作用,	-11.5967
米年平均气温	-11.5968
肾病	-11.5968
斯托	-11.5969
壑	-11.5969
风景秀丽	-11.5969
集聚	-11.5969
教学能手	-11.597
悬浮	-11.5971
海绵	-11.5971
制式	-11.5973
矾	-11.5974
光伏	-11.5974
外用	-11.5975
政治学	-11.5976
产品已	-11.5976
课题研究	-11.5976
葱、姜	-11.5976
院副院长	-11.5977
此外还	-11.5979
华东师范大学	-11.598
,中间	-11.598
800米	-11.5981
镇压	-11.5983
不顾	-11.5983
▁2008	-11.5984
6.9	-11.5986
成立于2008年	-11.5987
张家口	-11.5988
管材	-11.5989
星星	-11.599
主攻	-11.5992
玄武	-11.5992
热能	-11.5996
11月任	-11.5996
奴隶	-11.5996
汉口	-11.5998
铁道部	-11.5998
超大	-11.5999
支柱	-11.6
的根本	-11.6001
自古	-11.6001
十万	-11.6002
剪纸	-11.6003
地理学	-11.6004
市镇	-11.6005
卵状	-11.6006
此种	-11.6007
”,并	-11.6007
置业	-11.6011
,每天	-11.6012
孔雀	-11.6013
物价	-11.6013
经典的	-11.6013
863	-11.6014
张力	-11.6014
这首歌	-11.6014
滨江	-11.6015
县志》	-11.6015
什么是	-11.6016
足球队	-11.6018
布莱	-11.6019
六合	-11.6019
术后	-11.6019
便宜	-11.602
补贴	-11.602
奇异	-11.6021
麒麟	-11.6022
假设	-11.6023
叙事	-11.6023
研制开发	-11.6025
干事、	-11.6028
文化中心	-11.6029
日趋	-11.6029
流浪	-11.6032
贫血	-11.6032
攻打	-11.6032
质量和	-11.6033
花木	-11.6033
更快	-11.6033
抚顺	-11.6034
新时期	-11.6034
支行	-11.6035
等地区	-11.6035
靴	-11.6036
教育科研	-11.6037
柔和	-11.6039
提取物	-11.6041
-2008	-11.6042
4×	-11.6042
地毯	-11.6042
供销	-11.6043
小学位于	-11.6043
中间体	-11.6044
铭文	-11.6045
走上	-11.6045
星球	-11.6046
土地面积	-11.6046
经济学院	-11.6047
无线网卡	-11.6049
射程	-11.6049
又被	-11.605
印第安	-11.6053
成立于2009年	-11.6053
陂	-11.6054
严肃	-11.6054
т	-11.6055
,历经	-11.6056
▁喜欢的	-11.6056
工贸	-11.6056
看看	-11.6056
之气	-11.6059
方面有	-11.6059
创建了	-11.6062
国民党军	-11.6063
茫	-11.6064
祺	-11.6064
这段	-11.6064
雄性	-11.6065
为核心的	-11.6065
会员单位	-11.6065
,同时还	-11.6067
布鲁	-11.6067
想到	-11.6068
诚信经营	-11.607
哪些	-11.6071
那时	-11.6072
巳	-11.6073
主峰	-11.6074
最强	-11.6075
,以其	-11.6076
条款	-11.6076
开始发表作品。	-11.6077
30克,	-11.6077
杠	-11.6078
疯	-11.6078
临床研究	-11.6079
万美元	-11.608
日用	-11.608
综合实力	-11.6081
重镇	-11.6081
无缝钢管	-11.6081
望远镜	-11.6081
徐州市	-11.6082
在位	-11.6082
韭菜	-11.6083
军医	-11.6083
新娘	-11.6083
战斗机	-11.6084
症、	-11.6086
可直接	-11.6086
预定	-11.6087
短片	-11.6087
市内	-11.6087
投降	-11.6089
教程》	-11.609
有功	-11.6091
9.0	-11.6091
调到	-11.6091
《论	-11.6093
博学	-11.6094
石碑	-11.6095
没有任何	-11.6095
邸	-11.6096
公共管理	-11.6096
教学班	-11.6096
儿童文学	-11.6096
通过国家	-11.6097
服务设施	-11.6097
进了	-11.6099
眼光	-11.6099
纯粹	-11.61
★	-11.61
的专业化	-11.6101
湿热	-11.6102
而努力	-11.6103
,北靠	-11.6105
怜	-11.6106
果期	-11.6107
适宜种植	-11.6107
滋阴	-11.6107
社会科学院	-11.6108
汇集了	-11.6112
粘土	-11.6112
泼	-11.6113
殖民	-11.6113
中国著名	-11.6115
在世界	-11.6115
登山	-11.6115
瞳	-11.6115
1917年	-11.6116
-2001	-11.6117
襟	-11.6118
颜色:	-11.6119
导游	-11.612
反而	-11.6121
喜好	-11.6121
来源:	-11.6121
建筑面积1	-11.6122
妓	-11.6124
50年代	-11.6124
领军	-11.6126
建造的	-11.6126
热水器	-11.6128
发言	-11.6128
博物馆。	-11.6128
惠州市	-11.6129
隙	-11.613
进入了	-11.6131
武士	-11.6133
环抱	-11.6133
之士	-11.6134
信息化建设	-11.6135
臀	-11.6135
例子	-11.6137
薄荷	-11.6138
新安	-11.6139
区委书记	-11.614
三元	-11.614
硬盘容量	-11.6142
相遇	-11.6142
过去的	-11.6142
为何	-11.6143
[...]
