[UNK]	0
[PAD]	0
[CLS]	0
[SEP]	0
[MASK]	0
,	-3.45284
的	-3.82365
。	-4.01068
、	-4.04296
▁	-4.49974
和	-5.03385
在	-5.41638
为	-5.4698
是	-5.62166
:	-5.65224
中	-5.72107
(	-5.74454
与	-5.76199
有	-5.83074
等	-5.8601
人	-5.8877
;	-5.89855
大	-5.90532
)	-5.94229
了	-6.05455
一	-6.10288
上	-6.13528
《	-6.14616
“	-6.20135
及	-6.23772
之	-6.23925
以	-6.27223
不	-6.29106
市	-6.36959
于	-6.37531
水	-6.39114
”	-6.43629
日	-6.48421
山	-6.53791
1	-6.54431
后	-6.56332
高	-6.56825
区	-6.57267
对	-6.57674
中国	-6.57843
子	-6.58122
地	-6.58724
长	-6.62197
用	-6.62275
性	-6.62379
县	-6.6322
小	-6.67056
2	-6.68302
家	-6.68789
》	-6.69849
三	-6.70333
新	-6.72932
到	-6.73539
或	-6.74822
多	-6.74935
出	-6.76051
而	-6.76117
下	-6.77125
被	-6.77338
-	-6.77981
时	-6.78723
天	-6.78885
3	-6.79596
将	-6.80331
年	-6.80714
公司	-6.81548
所	-6.82217
名	-6.83418
生	-6.85613
·	-6.87308
会	-6.89185
学	-6.89566
内	-6.89808
部	-6.91182
至	-6.91353
企业	-6.91384
.	-6.91706
西	-6.9536
文	-6.95912
南	-6.95947
技术	-6.98031
东	-6.98251
管理	-6.98458
/	-7.00223
成	-7.0073
无	-7.00819
工作	-7.01642
镇	-7.01771
可	-7.02586
分	-7.03034
产品	-7.05511
来	-7.05865
由	-7.06069
其	-7.07008
外	-7.07849
金	-7.08132
化	-7.0819
路	-7.08654
机	-7.09326
本	-7.09333
4	-7.1028
法	-7.10536
体	-7.1087
海	-7.10907
心	-7.10936
二	-7.11164
石	-7.11169
行	-7.12016
村	-7.1202
花	-7.12409
从	-7.12811
前	-7.13943
教育	-7.13993
5	-7.1555
研究	-7.16572
线	-7.16667
服务	-7.16764
国家	-7.16924
王	-7.172
面	-7.17656
大学	-7.18971
并	-7.19472
者	-7.19793
里	-7.2059
道	-7.21164
专业	-7.21962
系统	-7.2223
国	-7.23186
力	-7.23477
城	-7.23518
门	-7.23791
一个	-7.25688
型	-7.25956
都	-7.2637
入	-7.26493
德	-7.26618
头	-7.26625
四	-7.27059
安	-7.27149
也	-7.27151
自	-7.27333
两	-7.27785
发展	-7.28689
式	-7.29102
国际	-7.29515
光	-7.29794
任	-7.30023
能	-7.30048
乡	-7.31166
五	-7.31747
林	-7.31935
明	-7.32239
发	-7.32656
6	-7.32859
位于	-7.33517
马	-7.3357
北	-7.33603
清	-7.34115
学校	-7.34171
河	-7.34383
白	-7.34582
江	-7.3486
过	-7.35077
军	-7.35262
文化	-7.35289
科	-7.35793
最	-7.36427
进行	-7.37434
着	-7.37542
中心	-7.37667
他	-7.38025
克	-7.38182
,是	-7.38615
经济	-7.38644
()	-7.38773
平	-7.38909
10	-7.39238
点	-7.39523
设计	-7.39704
万	-7.40043
龙	-7.40763
手	-7.40967
口	-7.40973
风	-7.41382
全国	-7.41582
重	-7.42021
开	-7.42049
华	-7.42176
州	-7.42188
车	-7.4219
书	-7.4257
黄	-7.42578
向	-7.42581
工程	-7.42604
美	-7.42672
建设	-7.42752
全	-7.43608
度	-7.4454
》、《	-7.45087
8	-7.4511
系	-7.45198
经	-7.45819
,并	-7.46168
特	-7.46368
,在	-7.46467
生产	-7.46603
尔	-7.4666
局	-7.46968
气	-7.47661
斯	-7.48188
台	-7.4854
师	-7.48766
正	-7.48822
方	-7.48853
7	-7.48911
作	-7.48935
元	-7.49019
工	-7.49345
处	-7.4988
集	-7.50022
位	-7.50245
通	-7.50999
古	-7.51188
制	-7.512
器	-7.51717
20	-7.51925
油	-7.52343
项目	-7.52411
网	-7.52435
"	-7.52698
张	-7.52784
原	-7.53148
达	-7.53315
提供	-7.53878
米	-7.54103
相	-7.54375
各	-7.54732
病	-7.55499
红	-7.56013
热	-7.56856
组织	-7.57767
起	-7.58403
类	-7.58905
主	-7.59071
定	-7.5917
具有	-7.5932
好	-7.5963
人,	-7.59754
已	-7.59927
就	-7.60502
要	-7.6133
得	-7.61413
如	-7.61723
阳	-7.61783
同	-7.6189
管	-7.62187
种	-7.62228
老	-7.63015
公	-7.63116
片	-7.63255
网络	-7.63615
加	-7.6398
去	-7.64151
世界	-7.64334
流	-7.64459
电	-7.64494
号	-7.64769
个	-7.64802
地区	-7.65029
层	-7.65387
可以	-7.65531
以及	-7.66043
9	-7.66127
。”	-7.66142
利	-7.66198
社会	-7.66272
约	-7.66395
叶	-7.6643
信息	-7.66892
第一	-7.66938
色	-7.67171
学院	-7.6724
),	-7.67919
级	-7.68407
省	-7.68444
双	-7.69096
数	-7.6934
通过	-7.69429
使用	-7.7008
使	-7.70544
期	-7.70556
拉	-7.71209
,以	-7.71309
图	-7.71613
量	-7.72026
市场	-7.72196
艺术	-7.72581
带	-7.72878
19	-7.7293
有限公司	-7.72941
世	-7.72991
神	-7.73114
科技	-7.73186
总	-7.73582
字	-7.74451
设备	-7.74559
近	-7.74796
站	-7.75204
教学	-7.75678
环境	-7.76075
功能	-7.76152
我	-7.77078
星	-7.77128
北京	-7.7725
30	-7.77612
主要	-7.78017
指	-7.78468
物	-7.78817
女	-7.79196
立	-7.79412
事	-7.79546
间	-7.79876
美国	-7.79921
木	-7.8001
建	-7.80144
又	-7.80196
12	-7.80241
民	-7.80301
教	-7.80687
条	-7.8069
首	-7.80692
属	-7.81269
把	-7.8141
商	-7.81518
合	-7.81682
标准	-7.82293
身	-7.82366
场	-7.82492
李	-7.8256
说	-7.82944
获	-7.82947
进	-7.83621
比	-7.83628
”。	-7.8399
月	-7.84008
卡	-7.84331
单	-7.84334
香	-7.84482
开发	-7.8454
15	-7.84604
爱	-7.84955
业	-7.85018
学生	-7.85271
建筑	-7.85529
动	-7.85609
人。	-7.85774
罗	-7.85819
上海	-7.85866
语	-7.85879
云	-7.85926
院	-7.85978
品牌	-7.86093
给	-7.87473
厂	-7.87508
情	-7.87727
青	-7.87948
当	-7.88131
作品	-7.88337
城市	-7.88475
干	-7.88553
形	-7.88922
深	-7.89035
该	-7.89342
此	-7.89714
学习	-7.89798
质	-7.90089
调	-7.9015
周	-7.90283
校	-7.90288
火	-7.90294
边	-7.90438
画	-7.90956
六	-7.91011
还	-7.91192
品	-7.91271
单位	-7.91523
官	-7.91809
强	-7.92265
拥有	-7.92507
基	-7.92603
传	-7.92649
因	-7.92859
园	-7.93307
武	-7.9338
土	-7.93427
初	-7.93568
九	-7.93677
乐	-7.93688
行业	-7.93823
回	-7.94084
亚	-7.94279
鱼	-7.94398
汉	-7.9449
八	-7.94518
16	-7.94554
节	-7.94942
皮	-7.95232
工业	-7.95317
战	-7.95909
安全	-7.95946
楼	-7.96012
状	-7.96071
副	-7.96181
!	-7.96236
投资	-7.96563
药	-7.96721
章	-7.97069
应用	-7.97341
质量	-7.97343
集团	-7.97354
见	-7.97355
卷	-7.97509
源	-7.97821
转	-7.97983
结构	-7.98209
应	-7.98304
更	-7.98306
生活	-7.98331
田	-7.98656
板	-7.98772
诗	-7.98919
血	-7.99144
即	-7.9943
百	-7.99601
房	-7.99605
50	-8.00152
率	-8.00276
作为	-8.00597
代	-8.00622
材料	-8.00624
桥	-8.00678
实	-8.00916
各种	-8.01045
次	-8.01202
组	-8.01299
称	-8.01374
变	-8.01375
成为	-8.01403
格	-8.01669
你	-8.01814
团	-8.01978
连	-8.02043
受	-8.02072
做	-8.02088
选	-8.02476
开始	-8.02566
具	-8.02614
》:“	-8.02859
声	-8.02874
这	-8.02983
布	-8.03085
非	-8.03109
参加	-8.03156
草	-8.03247
18	-8.03627
宝	-8.0368
远	-8.03741
湖	-8.04163
联	-8.04318
曾	-8.04382
打	-8.04796
史	-8.04847
0	-8.04944
医院	-8.0499
取	-8.05166
陈	-8.05181
科学	-8.05233
活动	-8.05242
果	-8.0572
七	-8.05867
系列	-8.06427
奖	-8.06508
室	-8.06608
装	-8.06735
户	-8.06907
交	-8.06931
优秀	-8.07492
电子	-8.07647
13	-8.07774
极	-8.07829
—	-8.07923
——	-8.08013
游戏	-8.08388
获得	-8.08474
兴	-8.08895
阿	-8.08947
居	-8.08968
～	-8.08993
放	-8.09001
控制	-8.09318
树	-8.09466
中的	-8.09587
波	-8.09895
信	-8.10112
底	-8.10196
14	-8.10203
则	-8.10244
巴	-8.10739
意	-8.1082
共	-8.11146
真	-8.11147
现代	-8.11171
修	-8.11694
精	-8.11712
曲	-8.11716
支持	-8.11848
玉	-8.11854
教师	-8.11894
,为	-8.12081
40	-8.12466
业务	-8.12571
产	-8.12577
音乐	-8.12859
感	-8.12892
先	-8.12957
接	-8.13392
经营	-8.13653
时间	-8.13848
政府	-8.13986
看	-8.14196
旅游	-8.14231
常	-8.144
球	-8.14418
春	-8.14536
日本	-8.14729
宁	-8.14792
理	-8.14912
微	-8.15073
酒	-8.15112
面积	-8.15157
9月	-8.15461
11	-8.15489
半	-8.15555
毕业于	-8.15557
从事	-8.15665
余	-8.1582
沙	-8.15944
专家	-8.15978
”的	-8.16148
食	-8.16283
音	-8.16449
机构	-8.16483
防	-8.16494
兰	-8.16522
目	-8.16658
方法	-8.16692
表	-8.16909
综合	-8.1697
17	-8.1705
界	-8.17134
义	-8.17277
低	-8.1728
临	-8.17458
国内	-8.17778
丝	-8.17967
资源	-8.18048
采用	-8.18318
分析	-8.18526
塔	-8.1905
报	-8.19236
中学	-8.1954
角	-8.1977
保	-8.1984
软件	-8.19953
馆	-8.20173
社区	-8.20388
广	-8.20397
士	-8.20688
治疗	-8.20714
第二	-8.20812
协会	-8.20915
等。	-8.20969
”、“	-8.21102
7月	-8.21152
论	-8.21219
队	-8.21325
超	-8.21606
刘	-8.21609
培训	-8.21952
结	-8.21991
反	-8.22076
压	-8.22089
”,	-8.22107
8月	-8.22172
版	-8.22371
盘	-8.22466
言	-8.22468
销售	-8.22576
治	-8.2339
制作	-8.23392
黑	-8.23437
,但	-8.23525
。在	-8.23636
千	-8.2384
粉	-8.24186
复	-8.24271
写	-8.24551
太	-8.24552
抗	-8.24561
班	-8.24561
关	-8.24662
均	-8.2498
派	-8.24994
志	-8.25019
直	-8.25083
25	-8.25092
才	-8.2513
人员	-8.25148
景	-8.25316
肉	-8.2558
没有	-8.25597
60	-8.25759
毛	-8.26269
自然	-8.26278
知	-8.26303
农业	-8.26502
温	-8.26542
松	-8.26569
部分	-8.26751
环	-8.2721
盐	-8.27212
街	-8.27252
空	-8.27253
菜	-8.27279
岁	-8.27704
福	-8.27724
100	-8.27942
酒店	-8.28271
文学	-8.28503
80	-8.28796
不同	-8.28863
后,	-8.2898
包括	-8.29013
宽	-8.29269
理论	-8.29395
座	-8.2945
其中	-8.29696
编	-8.29797
历史	-8.29861
根	-8.29971
十	-8.30106
12月	-8.30133
)。	-8.3017
铁	-8.30549
短	-8.30605
3月	-8.3064
茶	-8.3073
合作	-8.30802
宗	-8.30803
眼	-8.30822
自己	-8.30833
段	-8.31045
产业	-8.31057
落	-8.31063
指导	-8.31341
农	-8.32053
飞	-8.32104
解	-8.32243
游	-8.32279
专	-8.32285
易	-8.32413
唐	-8.32694
汽车	-8.3273
就是	-8.32845
10月	-8.32948
规划	-8.33146
成立	-8.33321
客户	-8.33358
营	-8.33583
让	-8.3367
著名	-8.33673
氏	-8.33685
人才	-8.33721
细	-8.34075
川	-8.34198
包	-8.34219
它	-8.34466
她	-8.34638
委员会	-8.3466
切	-8.34724
根据	-8.34726
6月	-8.34844
酸	-8.34887
机械	-8.34993
,其	-8.35091
未	-8.35109
保护	-8.3528
运	-8.3531
兼	-8.35577
能力	-8.3564
永	-8.35754
店	-8.35818
兵	-8.35942
5月	-8.36341
再	-8.36359
办	-8.36365
走	-8.36894
,有	-8.36973
词	-8.37021
加工	-8.3715
利用	-8.37209
展	-8.37282
收	-8.37417
创新	-8.37465
,其中	-8.37509
端	-8.37641
代表	-8.37653
盛	-8.37654
健康	-8.37687
员	-8.37741
少	-8.37768
尼	-8.37795
群	-8.37856
英	-8.38093
负责	-8.38111
篇	-8.38256
排	-8.38269
很	-8.38337
庄	-8.38404
需要	-8.3845
养	-8.38562
我们	-8.38816
卫生	-8.38863
纳	-8.3892
权	-8.39079
藏	-8.39489
植物	-8.395
时,	-8.39539
素	-8.39761
导	-8.39789
族	-8.39876
现	-8.39914
岩	-8.39998
那	-8.40109
人口	-8.40156
件	-8.40418
香港	-8.40455
出版	-8.40753
处理	-8.40822
圣	-8.40853
制造	-8.40939
像	-8.41141
4月	-8.41283
增	-8.41312
提高	-8.41347
堂	-8.41444
社	-8.41825
交通	-8.42016
死	-8.42159
政	-8.42164
足	-8.42231
离	-8.42291
男	-8.42398
骨	-8.42444
牛	-8.42493
味	-8.42501
设	-8.42537
杨	-8.42856
宫	-8.42879
圆	-8.42985
化学	-8.43088
小学	-8.43132
一般	-8.43315
山东	-8.43365
岛	-8.43729
剂	-8.44116
寺	-8.44143
中央	-8.4416
模式	-8.44218
列	-8.44532
1月	-8.44667
汤	-8.44692
密	-8.44694
料	-8.44806
笔	-8.44916
内容	-8.44924
项	-8.44953
大型	-8.4502
奇	-8.45099
随	-8.45169
只	-8.45285
印	-8.45537
歌	-8.45605
异	-8.45625
按	-8.45649
数据	-8.45689
朝	-8.45788
运动	-8.46076
有关	-8.46097
方式	-8.46483
厅	-8.46698
除	-8.46701
丰	-8.46732
甲	-8.46745
水平	-8.47066
这个	-8.47211
亩	-8.47641
人民	-8.47794
改	-8.48011
重点	-8.48021
要求	-8.48022
溪	-8.48064
视	-8.48301
计划	-8.48357
11月	-8.48394
较	-8.48425
党	-8.48563
其他	-8.48607
知识	-8.48614
支	-8.48797
用户	-8.48805
完成	-8.48856
同时	-8.489
套	-8.48955
证	-8.48982
便	-8.49029
载	-8.49062
观	-8.49149
普	-8.49155
吴	-8.49529
商业	-8.49595
一种	-8.49805
维	-8.49891
基本	-8.49916
功	-8.49962
医学	-8.50178
末	-8.50333
灵	-8.50484
峰	-8.50498
方面	-8.50498
职	-8.50528
不断	-8.50647
泰	-8.50809
银	-8.50888
建立	-8.50903
委	-8.50904
24	-8.50953
生物	-8.51091
全面	-8.5127
想	-8.51415
府	-8.52036
孔	-8.52161
传统	-8.52167
谷	-8.52176
纸	-8.52384
计算机	-8.52507
性能	-8.5266
每	-8.52707
距	-8.52726
苏	-8.52733
各类	-8.52894
补	-8.52917
雷	-8.52997
相关	-8.53146
+	-8.53534
值	-8.53746
工艺	-8.53777
块	-8.53804
实现	-8.53823
网站	-8.53986
200	-8.54
?	-8.54081
康	-8.54177
库	-8.54338
职业	-8.54359
用于	-8.54377
客	-8.54584
亲	-8.54809
先进	-8.55103
记	-8.55207
开展	-8.5523
食品	-8.55298
已经	-8.55374
以上	-8.55562
服	-8.55726
基地	-8.5573
博	-8.55852
然	-8.55894
结合	-8.55941
:“	-8.56141
夫	-8.56172
类型	-8.56235
参与	-8.56416
钢	-8.56474
夏	-8.56559
港	-8.5663
快	-8.56671
归	-8.57052
引	-8.5724
个人	-8.5774
特色	-8.5792
富	-8.5796
配	-8.57989
台湾	-8.58081
灯	-8.58095
,而	-8.58154
宋	-8.58154
牌	-8.58214
提	-8.58353
基础	-8.58479
吉	-8.58486
佛	-8.58651
学会	-8.58689
标	-8.58867
之一	-8.58886
占	-8.58991
儿	-8.59068
送	-8.59098
鸡	-8.59311
竹	-8.59353
,使	-8.59387
22	-8.59422
行政	-8.59526
轻	-8.59578
民族	-8.59593
达到	-8.59617
刻	-8.59677
科研	-8.59769
自己的	-8.59963
失	-8.59986
自动	-8.60004
奥	-8.601
夜	-8.60118
胜	-8.60138
膜	-8.60244
一些	-8.60248
洞	-8.60268
实施	-8.6043
医	-8.60435
散	-8.60495
京	-8.60612
满	-8.60632
胶	-8.60761
政治	-8.60804
杀	-8.6095
彩	-8.60959
2月	-8.61046
绿	-8.61071
阴	-8.61114
泉	-8.61161
成功	-8.61242
鲁	-8.61251
学术	-8.61354
接口	-8.61404
问题	-8.61479
发生	-8.61722
课程	-8.61735
难	-8.61766
影响	-8.61782
托	-8.61836
培养	-8.61967
两个	-8.62199
程	-8.62299
纹	-8.62314
实验	-8.62348
事业	-8.62369
他们	-8.62596
我国	-8.62622
厚	-8.62819
梅	-8.63149
加入	-8.63187
电影	-8.63219
人物	-8.63367
之一。	-8.6347
高级	-8.63526
部门	-8.63685
思	-8.63723
,他	-8.63819
求	-8.6397
考	-8.64178
几	-8.64278
领域	-8.6432
丽	-8.64331
所有	-8.64377
是指	-8.64384
论文	-8.64422
第三	-8.64557
升	-8.64711
思想	-8.64783
担任	-8.64823
26	-8.64924
母	-8.64956
守	-8.64963
选择	-8.65027
糖	-8.65037
独立	-8.65098
雅	-8.65184
23	-8.65196
友	-8.65209
届	-8.65452
赛	-8.65576
目标	-8.65842
操作	-8.65867
伤	-8.65963
发现	-8.65994
钱	-8.66005
形成	-8.66129
仙	-8.66274
核	-8.66487
经验	-8.66489
浙江	-8.66551
液	-8.66594
侧	-8.66655
创作	-8.66656
28	-8.66686
--	-8.67291
平台	-8.67407
关系	-8.67443
文件	-8.67463
故	-8.67531
顺	-8.67558
领	-8.67623
青年	-8.6768
中,	-8.67896
尽	-8.68019
发表	-8.68266
交流	-8.68275
小说	-8.68461
细胞	-8.68492
望	-8.68497
读	-8.6856
体育	-8.68565
区域	-8.68637
矿	-8.68703
轮	-8.6883
工作。	-8.68839
留	-8.68864
封	-8.6897
庆	-8.68991
善	-8.69021
别	-8.69159
冷	-8.6931
教授	-8.69348
剧	-8.69394
尾	-8.69417
置	-8.69513
最大	-8.6969
四川	-8.69736
昌	-8.69857
独	-8.69939
今	-8.70031
呈	-8.70055
孙	-8.70105
令	-8.70114
共同	-8.70224
......	-8.70244
设施	-8.704
盖	-8.70466
礼	-8.70511
进入	-8.70561
研究所	-8.70581
听	-8.70587
却	-8.70794
野	-8.70869
丁	-8.70955
32	-8.71054
非常	-8.71169
,由	-8.71172
风格	-8.71695
井	-8.71883
政策	-8.72242
领导	-8.72278
举	-8.72341
人们	-8.72362
仁	-8.72653
雨	-8.72723
生于	-8.72771
精神	-8.72789
21	-8.72868
70	-8.72937
出版社	-8.73036
▁公司	-8.73046
断	-8.7319
目前	-8.73198
越	-8.73232
船	-8.73263
哈	-8.73315
是由	-8.7332
梁	-8.73412
菌	-8.73442
临床	-8.73494
医疗	-8.73724
全球	-8.73779
)、	-8.73883
*	-8.73887
的一种	-8.73952
旧	-8.73997
出现	-8.73998
司	-8.74012
何	-8.74025
%	-8.74048
作用	-8.74457
刀	-8.74521
致	-8.74668
雪	-8.74696
作者	-8.74802
佳	-8.74816
架	-8.74856
价	-8.74903
卫	-8.75082
商务	-8.75114
晋	-8.75203
住	-8.75299
价值	-8.75399
耐	-8.7545
帝	-8.75643
横	-8.75673
广州	-8.75727
×	-8.75754
贵	-8.75759
股	-8.75792
本书	-8.75824
境	-8.75918
广东	-8.75972
软	-8.76026
费	-8.76048
优	-8.76063
创	-8.76209
动物	-8.76209
,男,	-8.76267
铜	-8.76283
务	-8.763
绿色	-8.76336
洋	-8.76342
款	-8.76406
虫	-8.76473
秀	-8.76591
正式	-8.76871
生,	-8.76929
是一种	-8.77051
宣传	-8.77072
静	-8.77093
鲜	-8.77099
瓦	-8.77106
冲	-8.77161
洪	-8.77197
齐	-8.7729
顶	-8.77328
样	-8.77417
速	-8.77467
银行	-8.77542
试	-8.77629
绝	-8.77649
影	-8.7773
体系	-8.77825
成立于	-8.77866
朱	-8.77881
语言	-8.77901
威	-8.77917
检测	-8.7797
安装	-8.77984
之间	-8.78057
主持	-8.78188
伊	-8.78226
衣	-8.78292
不能	-8.78349
地方	-8.78358
存	-8.78379
陵	-8.78547
秋	-8.78701
症	-8.78716
金属	-8.78825
广西	-8.7888
州市	-8.79006
是一个	-8.79023
纯	-8.79184
英国	-8.79192
墨	-8.79299
容	-8.79415
铁路	-8.79541
得到	-8.7956
参	-8.79568
普通	-8.7958
品种	-8.79609
公路	-8.79634
整	-8.79813
含	-8.79821
豆	-8.79885
35	-8.79889
会员	-8.79946
法律	-8.80046
航	-8.80105
会议	-8.80173
计	-8.80239
湾	-8.80293
题	-8.8032
烧	-8.80462
2000年	-8.80477
若	-8.805
空间	-8.80636
施	-8.8072
英语	-8.80737
》等	-8.80791
规模	-8.80791
怀	-8.80952
至今	-8.80966
聚	-8.80981
中华	-8.81142
咨询	-8.81194
推广	-8.81254
500	-8.81393
电视	-8.81409
仅	-8.81522
打造	-8.81545
往	-8.81589
生态	-8.81676
直接	-8.81737
一直	-8.81817
山东省	-8.81833
紫	-8.8184
造	-8.81994
一次	-8.82058
步	-8.82086
效果	-8.8214
预	-8.82324
脑	-8.82386
江苏	-8.82473
,可	-8.8252
们	-8.82638
,对	-8.82769
课	-8.82812
的一个	-8.82837
注册	-8.82932
新闻	-8.82947
45	-8.83085
2000	-8.83431
降	-8.83511
话	-8.83528
先生	-8.83571
丹	-8.83602
诸	-8.83706
27	-8.83707
亦	-8.83749
他的	-8.83814
护	-8.83833
农村	-8.83875
美术	-8.83877
供	-8.83925
学科	-8.8398
击	-8.8408
湖南	-8.84108
比较	-8.84265
录	-8.8435
弹	-8.84398
亩,	-8.84555
经过	-8.84562
左	-8.84835
机关	-8.84881
资料	-8.84927
积极	-8.8502
但	-8.85021
家庭	-8.85037
脚	-8.85135
仪	-8.85155
出生	-8.85253
壁	-8.853
洛	-8.85313
艺	-8.85333
执行	-8.8541
赵	-8.85465
情况	-8.85467
的“	-8.8547
吃	-8.85536
君	-8.85793
陆	-8.85933
恩	-8.86065
能够	-8.86096
距离	-8.86119
90	-8.86312
最高	-8.86399
宜	-8.86533
重要	-8.86583
》(	-8.86667
金融	-8.86872
~	-8.86874
方向	-8.86882
团队	-8.86925
乌	-8.87029
蓝	-8.87037
病毒	-8.87181
南京	-8.87205
肥	-8.87224
征	-8.87368
德国	-8.87451
隆	-8.87606
术	-8.87659
广告	-8.87681
时期	-8.87799
雄	-8.87862
试验	-8.87884
河南	-8.87915
2002年	-8.87941
缘	-8.88008
胡	-8.88051
登	-8.88142
认证	-8.88168
2006年	-8.88231
2007年	-8.88275
由于	-8.88456
2001年	-8.88484
批准	-8.88525
人的	-8.88614
嘉	-8.88704
早	-8.88739
炎	-8.88803
教材	-8.89008
伯	-8.8904
时代	-8.89084
历	-8.89168
环保	-8.8926
耳	-8.89263
2010年	-8.89308
电脑	-8.89367
瑞	-8.89383
1998年	-8.89478
干部	-8.89479
良	-8.89482
,即	-8.89593
温度	-8.8964
方便	-8.89656
育	-8.89754
莱	-8.89902
的发展	-8.90027
书法	-8.90049
塞	-8.9005
例	-8.90053
成员	-8.90111
长期	-8.9014
300	-8.90181
注	-8.90189
优质	-8.90269
种植	-8.90574
材	-8.90624
及其	-8.90662
帮助	-8.90668
麻	-8.90669
背	-8.90714
万元	-8.90763
成果	-8.90767
活	-8.90819
差	-8.90858
联合	-8.90879
祖	-8.90935
萨	-8.90987
施工	-8.91096
推	-8.91104
投	-8.91137
条件	-8.91159
射	-8.9125
勒	-8.91527
命	-8.91572
岭	-8.91578
发行	-8.91603
制度	-8.91611
沟	-8.91658
货	-8.91671
研发	-8.92005
喜	-8.92185
略	-8.92274
2008年	-8.92313
收入	-8.92337
照	-8.92973
上的	-8.92996
采	-8.93374
露	-8.93422
多次	-8.93491
运行	-8.93633
杂	-8.93747
寿	-8.9383
都是	-8.93867
依	-8.93958
连续	-8.94026
烟	-8.94033
象	-8.9404
产生	-8.94083
止	-8.94097
工作,	-8.94408
多种	-8.94454
出生于	-8.94498
形式	-8.94508
国内外	-8.94542
纪	-8.94583
演	-8.94641
江苏省	-8.94672
公园	-8.9469
译	-8.94849
表现	-8.9489
出生,	-8.949
右	-8.94929
固	-8.94993
熟	-8.95068
任务	-8.95073
。《	-8.9508
努力	-8.95187
池	-8.95208
庙	-8.95416
属于	-8.9542
称为	-8.95481
粒	-8.95523
文明	-8.95546
索	-8.95664
备	-8.95722
这些	-8.95764
徐	-8.95823
。公司	-8.95825
29	-8.95839
诺	-8.95848
您	-8.96163
蒙	-8.96246
荣	-8.96267
痛	-8.96269
额	-8.96381
案	-8.96449
腹	-8.96456
毒	-8.96457
问	-8.96519
圈	-8.96534
第	-8.96583
锅	-8.96663
柱	-8.96709
,如	-8.96711
可能	-8.96712
故事	-8.96734
1000	-8.96814
皇	-8.96958
这种	-8.97034
2003年	-8.97111
羊	-8.97156
满足	-8.97156
省级	-8.97275
箱	-8.97349
众	-8.97353
创造	-8.9738
:1	-8.97451
势	-8.97494
待	-8.97524
苦	-8.97596
东北	-8.97652
小时	-8.97973
寒	-8.97976
良好的	-8.98002
塘	-8.9802
著	-8.9802
久	-8.9803
革命	-8.98043
最大的	-8.98087
县城	-8.9813
西南	-8.9814
化工	-8.98225
辖	-8.98237
尚	-8.98302
惠	-8.98396
倒	-8.98406
完全	-8.98445
附	-8.98447
1999年	-8.98455
宣	-8.98585
讲	-8.98621
多年	-8.98629
广东省	-8.98711
。他	-8.98723
法国	-8.98771
虚	-8.98875
组成	-8.98881
显示	-8.99008
时尚	-8.99128
钟	-8.99259
书画	-8.99277
过程	-8.99278
乳	-8.99337
斗	-8.99353
2009年	-8.99398
表面	-8.99406
驻	-8.99411
速度	-8.99428
退	-8.99442
土地	-8.99473
品质	-8.99496
饰	-8.99514
警	-8.99537
贴	-8.99551
世纪	-8.99629
折	-8.99651
被评为	-8.99707
员工	-8.99713
儿童	-8.99786
剑	-8.99903
假	-8.99927
厘米	-8.99951
效	-8.99958
程序	-9.00052
1997年	-9.00069
工具	-9.00106
舞	-9.00178
战略	-9.0021
床	-9.00214
这一	-9.00334
虎	-9.00368
枝	-9.00528
安徽	-9.00529
介绍	-9.0055
改革	-9.00599
汇	-9.00658
=	-9.00696
智	-9.00925
装饰	-9.01078
设有	-9.01089
400	-9.01319
,不	-9.01397
中共	-9.0152
现有	-9.01529
镜	-9.0156
浙江省	-9.01657
交易	-9.01707
砂	-9.01729
资	-9.01894
轴	-9.01909
沿	-9.01932
必	-9.02112
实践	-9.02165
36	-9.02318
1996年	-9.0241
,中国	-9.02429
有效	-9.02473
平方米	-9.02529
贸易	-9.02565
分别	-9.02585
秦	-9.02587
先后	-9.02607
迁	-9.02645
凤	-9.02679
,将	-9.02712
。该	-9.02775
当时	-9.02777
测	-9.02847
理念	-9.02874
猪	-9.02903
许	-9.02911
全部	-9.03015
延	-9.03069
或者	-9.03152
欧	-9.03201
白色	-9.03223
益	-9.03399
冬	-9.03438
包装	-9.03462
陶	-9.03578
灰	-9.03821
认为	-9.03862
墙	-9.03889
为了	-9.03935
也是	-9.03943
亮	-9.03983
破	-9.03998
,位于	-9.04167
评	-9.04172
600	-9.04194
办公室	-9.04226
博士	-9.04289
对于	-9.04332
形象	-9.0446
助	-9.0448
柳	-9.04535
减	-9.04603
中医	-9.04624
脱	-9.04672
▁《	-9.04959
冰	-9.05103
杯	-9.05187
税	-9.05212
显	-9.05225
碑	-9.05288
实际	-9.05302
控	-9.05371
广泛	-9.05394
潮	-9.05423
加强	-9.05493
迪	-9.05565
电力	-9.05623
句	-9.05633
穿	-9.05849
国家级	-9.05863
800	-9.0591
,它	-9.05976
娱乐	-9.05977
济	-9.06114
营销	-9.06117
配套	-9.06158
农民	-9.06205
天津	-9.0627
校园	-9.06338
承	-9.06368
1995年	-9.06436
脉	-9.06474
人类	-9.06594
围	-9.06696
视频	-9.06715
范围	-9.06771
炒	-9.06831
插	-9.06839
汁	-9.06864
典	-9.06963
规范	-9.07043
梦	-9.07162
疾病	-9.07196
鸟	-9.07292
麦	-9.07312
简	-9.07458
请	-9.07522
促进	-9.07542
四川省	-9.07687
》,	-9.07715
河北	-9.07831
米,	-9.07868
殿	-9.07897
湖北	-9.07976
之一,	-9.08122
演员	-9.08171
泥	-9.08206
统一	-9.08331
贝	-9.08335
承担	-9.0836
薄	-9.08383
西北	-9.08414
规定	-9.0846
鼓	-9.0856
郑	-9.08744
迷	-9.0877
为主	-9.08799
编辑	-9.08817
全村	-9.08942
,从	-9.08949
珠	-9.0905
查	-9.09066
於	-9.09194
分为	-9.09282
价格	-9.09326
▁2.	-9.09353
唱	-9.09571
特征	-9.09674
地质	-9.09744
致力于	-9.09749
亭	-9.09882
换	-9.10032
隐	-9.10084
课题	-9.10105
1993年	-9.10114
关于	-9.10153
连接	-9.10197
扬	-9.10253
万元,	-9.10277
针	-9.10296
父	-9.10517
决定	-9.10589
33	-9.1059
物理	-9.1062
摄影	-9.10628
肝	-9.10673
保持	-9.10742
多个	-9.10782
2011年	-9.1097
磨	-9.10971
旅	-9.11013
重庆	-9.11044
>	-9.11153
刺	-9.11201
巨	-9.11294
监督	-9.11312
锦	-9.11318
浅	-9.1132
代理	-9.11396
冠	-9.11402
增加	-9.1143
赤	-9.11465
岸	-9.11472
考试	-9.11508
商品	-9.11549
莫	-9.11692
恶	-9.11756
隔	-9.11794
协	-9.11807
核心	-9.12043
变化	-9.12065
创建	-9.12092
党员	-9.12109
韩	-9.12116
册	-9.12185
其它	-9.12205
十分	-9.12229
苗	-9.12261
邻	-9.12311
甘	-9.12341
1992年	-9.12449
议	-9.12503
毕业	-9.12513
反应	-9.12547
乱	-9.12601
行为	-9.12613
墓	-9.12623
份	-9.12681
适合	-9.12731
超过	-9.12768
枪	-9.12822
48	-9.1288
。其	-9.12894
叫	-9.12986
大小	-9.1307
湿	-9.13112
北京市	-9.1316
神经	-9.13339
焦	-9.13413
丰富	-9.135
严	-9.13656
,也	-9.13893
曼	-9.13921
频	-9.1394
倍	-9.13987
晚	-9.1407
重大	-9.14088
物质	-9.14101
上海市	-9.1412
荣获	-9.14152
始	-9.14163
乘	-9.14202
启	-9.1424
表示	-9.14241
攻	-9.14261
传播	-9.14284
欧洲	-9.14346
积	-9.14365
现任	-9.14371
左右	-9.14444
存在	-9.1445
劳动	-9.14586
许多	-9.146
副主任	-9.14694
数字	-9.14747
遗	-9.14754
广场	-9.14777
壳	-9.14787
快速	-9.14873
淡	-9.14941
群众	-9.14974
凉	-9.15001
统计	-9.15023
云南	-9.15083
坡	-9.15159
地处	-9.15256
优势	-9.15367
弱	-9.15395
硬	-9.15396
战争	-9.15467
靠	-9.15545
姜	-9.1555
保证	-9.15553
岗	-9.15557
公共	-9.1563
据	-9.15635
,又	-9.15643
最佳	-9.15875
休闲	-9.15875
1994年	-9.15883
物流	-9.15906
1个	-9.15932
伦	-9.16044
透	-9.16057
起来	-9.16061
输出	-9.1609
受到	-9.16193
深圳	-9.16333
手机	-9.16389
一样	-9.1642
2005年	-9.16443
数学	-9.16484
1984年	-9.16507
追	-9.16594
润	-9.16731
特别	-9.16732
媒体	-9.16818
完善	-9.16825
福建	-9.16888
必须	-9.16945
解决	-9.16997
-1	-9.17049
提升	-9.17096
设置	-9.171
平均	-9.17133
韩国	-9.17138
泡	-9.17168
劳	-9.1721
放入	-9.17223
众多	-9.17235
稳定	-9.17238
只有	-9.17393
凡	-9.17449
营养	-9.17495
期间	-9.17505
刊	-9.17647
停	-9.17741
实验室	-9.17749
津	-9.1778
运输	-9.17818
斑	-9.179
作家	-9.17937
分布	-9.18089
河南省	-9.18248
终	-9.18311
三个	-9.18325
基金	-9.18414
道路	-9.18449
胸	-9.18509
现代化	-9.18531
没	-9.18541
杰	-9.18549
状态	-9.18581
38	-9.18657
训练	-9.18679
屏	-9.18739
的研究	-9.18748
谓	-9.18836
电源	-9.18861
来自	-9.18862
洗	-9.18872
尖	-9.18921
整个	-9.18995
还有	-9.18998
桂	-9.19074
31	-9.19128
按照	-9.19147
公里	-9.19208
福建省	-9.19374
肠	-9.19391
森	-9.19452
魔	-9.19483
一条	-9.19531
继	-9.19605
收藏	-9.1961
戏	-9.19615
测试	-9.19679
居民	-9.1974
资金	-9.19856
皆	-9.19959
移动	-9.20015
煮	-9.2022
吸	-9.20241
分子	-9.20253
浮	-9.20322
保险	-9.20366
江西	-9.20412
制定	-9.20426
算	-9.2043
智能	-9.20448
民间	-9.20463
通信	-9.20595
一起	-9.20654
2012年	-9.20696
害	-9.20701
杂志	-9.2071
安徽省	-9.20714
顾问	-9.20715
坐	-9.20732
偏	-9.20875
尊	-9.20988
生命	-9.21096
村委会	-9.21108
负	-9.21118
力量	-9.21208
任何	-9.21212
主义	-9.2135
喷	-9.21568
泽	-9.21571
取得	-9.21676
位置	-9.2168
高速	-9.21702
自由	-9.21749
,同时	-9.21816
当地	-9.21921
先进的	-9.21944
甜	-9.22005
(今	-9.22168
未来	-9.22231
示范	-9.22246
广大	-9.22286
闻	-9.2231
34	-9.22372
1985年	-9.22404
习	-9.22439
坝	-9.22538
公里,	-9.22548
丰富的	-9.22585
提出	-9.22666
洲	-9.22684
态	-9.22749
适	-9.22779
因为	-9.22805
高中	-9.229
敌	-9.22955
发布	-9.2305
十二	-9.23109
坚持	-9.23151
粘	-9.23176
统	-9.23265
计算	-9.23293
奉	-9.23349
第四	-9.23362
瓜	-9.23381
喜欢	-9.23411
欲	-9.23411
且	-9.2344
一级	-9.23533
75	-9.23598
’	-9.23681
需求	-9.23686
幅	-9.23873
,具有	-9.23873
城区	-9.23889
诚	-9.2391
裂	-9.23954
仍	-9.24102
还是	-9.24156
紧	-9.24192
废	-9.24205
辛	-9.24285
研究生	-9.24314
整体	-9.24403
特殊	-9.24441
190	-9.24541
2004年	-9.24612
内部	-9.24671
湖北省	-9.24692
读者	-9.24701
副教授	-9.24731
销	-9.24803
生长	-9.24905
知名	-9.24926
旗	-9.24935
煤	-9.24972
测量	-9.24983
1988年	-9.24988
臣	-9.24998
沉	-9.25028
既	-9.25128
以下	-9.25145
二十	-9.25171
粗	-9.25305
暗	-9.25325
杜	-9.2533
会计	-9.25458
玄	-9.25508
忠	-9.25513
救	-9.25534
籍	-9.25574
朋友	-9.25605
净	-9.25629
主席	-9.25648
滑	-9.2565
最新	-9.25796
调查	-9.25829
》。	-9.25931
这里	-9.25976
完	-9.2598
武汉	-9.25985
协调	-9.26071
°	-9.26181
孩子	-9.26272
谈	-9.26276
急	-9.26293
以来	-9.26333
平方米,	-9.26371
移	-9.26388
报告	-9.26402
庭	-9.26505
堡	-9.26508
维护	-9.26552
模	-9.26565
境内	-9.26638
炉	-9.26659
很多	-9.26751
描述	-9.26851
幼	-9.2698
》是	-9.27111
压力	-9.27126
电话	-9.2722
如何	-9.27242
诚信	-9.27249
1990年	-9.27361
什么	-9.27396
浪	-9.27472
00	-9.27637
研	-9.27733
了解	-9.2774
惊	-9.27781
之后	-9.27891
主题	-9.27905
杭州	-9.27987
继续	-9.27993
运用	-9.27999
红色	-9.2803
策划	-9.28077
研制	-9.2808
谱	-9.28084
页	-9.28161
觉	-9.28229
外科	-9.28328
湖南省	-9.28416
始建于	-9.28446
私	-9.28522
当代	-9.28561
肾	-9.28629
,距	-9.2865
雕	-9.28668
顿	-9.28698
成长	-9.28734
师范大学	-9.28771
高校	-9.28832
调整	-9.28916
郎	-9.28977
现在	-9.29005
共有	-9.29012
疏	-9.29093
规格	-9.29094
37	-9.29099
的重要	-9.29115
曰	-9.29124
浦	-9.29158
类型:	-9.29247
1.	-9.29257
出口	-9.2931
检	-9.29342
不同的	-9.29382
羽	-9.29411
节目	-9.29613
山西	-9.29634
赴	-9.29643
适应	-9.29648
办公	-9.29686
联系	-9.29692
灭	-9.29708
莲	-9.29725
纲	-9.29786
姆	-9.29912
装置	-9.29919
队伍	-9.29986
高度	-9.30094
陕西	-9.30149
1986年	-9.30272
分钟	-9.30305
▁1	-9.30307
简单	-9.30324
寨	-9.30355
宇	-9.30364
魏	-9.30411
一切	-9.30415
职工	-9.30439
一年	-9.30442
似	-9.30478
▁1.	-9.30479
街道	-9.30506
相对	-9.30527
制品	-9.3054
笑	-9.30596
残	-9.30621
1987年	-9.30682
心理	-9.30729
参数	-9.30758
茎	-9.30761
氧	-9.30787
技能	-9.30833
票	-9.30863
、中国	-9.30866
组合	-9.30878
炮	-9.31016
流行	-9.31049
玻璃	-9.31087
有机	-9.31133
著名的	-9.31163
充	-9.31191
特点	-9.31209
'	-9.3126
景观	-9.31262
挂	-9.31273
尺寸	-9.31364
随着	-9.31423
贤	-9.31499
财	-9.31561
参加工作	-9.31575
,所以	-9.3159
输入	-9.31596
勤	-9.31654
博物馆	-9.31729
购	-9.31851
阀	-9.3186
刚	-9.31861
展示	-9.31862
有着	-9.31885
具体	-9.31965
..	-9.32033
突出	-9.32034
辞	-9.32054
亿	-9.32088
成本	-9.32091
,主要	-9.32241
一定	-9.32336
为“	-9.32384
过程中	-9.32389
识	-9.32433
著作	-9.32445
结果	-9.3253
哲学	-9.32594
,以及	-9.32716
坚	-9.32791
每年	-9.3287
,再	-9.32931
64	-9.32968
方案	-9.33008
责任	-9.3301
科技有限公司	-9.33205
检验	-9.33343
恒	-9.33349
季	-9.33461
戴	-9.33475
限	-9.33511
郡	-9.33516
总面积	-9.33541
葱	-9.33683
全市	-9.33728
装备	-9.3376
通常	-9.33766
比赛	-9.3379
,后	-9.33855
天然	-9.33868
免费	-9.33928
创办	-9.34004
服装	-9.34017
幕	-9.34028
为一体的	-9.34147
保障	-9.34154
文艺	-9.34211
建成	-9.34239
楚	-9.34313
肺	-9.34348
桃	-9.34397
旁	-9.34398
乙	-9.34414
65	-9.34429
意义	-9.34544
海拔	-9.34558
牙	-9.34625
谢	-9.34626
1.5	-9.34774
户,	-9.34786
,用	-9.34815
本科	-9.3483
浆	-9.34833
铺	-9.3484
1989年	-9.3484
祥	-9.34853
磁	-9.34916
...	-9.34932
示	-9.34942
,公司	-9.34972
》《	-9.35056
振	-9.35108
1991年	-9.35166
原料	-9.35205
古代	-9.35301
歌曲	-9.35301
涂	-9.35359
燕	-9.35458
分类	-9.35481
设立	-9.35592
合理	-9.35621
享受	-9.3571
部队	-9.35727
引进	-9.35737
创业	-9.35753
零	-9.35834
存储	-9.35844
混	-9.35862
新的	-9.36032
1982年	-9.3606
颜色	-9.36111
河北省	-9.36348
纤维	-9.36364
演出	-9.36401
专业的	-9.36436
经典	-9.36479
军事	-9.36509
纵	-9.36532
跨	-9.36647
);	-9.36664
又称	-9.36681
争	-9.36747
也有	-9.36911
徒	-9.37056
确定	-9.37124
划	-9.37197
名称	-9.37218
的主要	-9.37241
者,	-9.37274
桑	-9.37276
成绩	-9.3729
的专业	-9.37296
调节	-9.3734
实用	-9.37412
繁	-9.37466
摩	-9.3747
办学	-9.37488
卖	-9.3755
潜	-9.37564
朗	-9.37565
成都	-9.37611
东南	-9.3762
医药	-9.37622
编写	-9.37629
曹	-9.3763
监	-9.37684
拜	-9.37706
信号	-9.37733
宾	-9.37737
,也是	-9.37764
艾	-9.37799
即可	-9.37825
胃	-9.37862
蒸	-9.37897
公斤	-9.38119
掌	-9.38145
追求	-9.38157
山区	-9.38196
吧	-9.38218
和谐	-9.38234
齿	-9.38385
评价	-9.38385
新型	-9.38385
空气	-9.38421
大量	-9.38457
这样	-9.38549
文字	-9.38672
一等奖	-9.38702
融	-9.38704
伏	-9.38708
吨	-9.38714
互联网	-9.38727
舍	-9.38866
实力	-9.38924
占地	-9.3895
原理	-9.38969
每个	-9.3916
容量	-9.39197
东方	-9.39204
记录	-9.39304
大赛	-9.39409
凯	-9.39435
,可以	-9.39581
消费者	-9.39675
赞	-9.3968
检查	-9.39818
表演	-9.39931
感染	-9.39982
它们	-9.40004
,被	-9.40079
不仅	-9.40192
名。	-9.40208
接受	-9.40251
,这	-9.40289
举办	-9.40294
进一步	-9.40341
▁2	-9.40359
造成	-9.40367
55	-9.4043
保健	-9.40432
集中	-9.40452
玩	-9.40453
穗	-9.40556
性的	-9.40609
西部	-9.40672
准	-9.40675
不是	-9.40683
黑色	-9.40731
<	-9.40747
姓	-9.40803
数量	-9.40809
播	-9.4081
鼎	-9.40845
全县	-9.40885
现象	-9.40892
意大利	-9.40909
二等奖	-9.40918
运营	-9.40942
屋	-9.40944
擅长	-9.41045
珍	-9.41071
,故	-9.41236
导演	-9.41238
腰	-9.41268
是在	-9.41322
杆	-9.41342
径	-9.41353
英文	-9.41376
参考	-9.41379
。它	-9.4139
希	-9.41403
豪	-9.41428
患者	-9.41447
占地面积	-9.41475
地下	-9.41505
▁2、	-9.41534
免	-9.41626
坪	-9.41668
财政	-9.41676
愿	-9.41737
兽	-9.4176
律	-9.41825
更加	-9.41838
年)	-9.41908
希望	-9.41941
消	-9.41954
阁	-9.42072
石油	-9.42083
频率	-9.42106
建立了	-9.42324
财务	-9.42371
审	-9.42376
郭	-9.42391
范	-9.42405
改变	-9.42415
餐	-9.42424
皮肤	-9.42499
1983年	-9.42532
手术	-9.42586
专用	-9.42602
婚	-9.4262
提供了	-9.42647
等地	-9.42696
缺	-9.42761
硕士	-9.42786
主编	-9.42815
需	-9.42832
通讯	-9.42873
,而且	-9.42954
服务。	-9.43052
西安	-9.43091
翻	-9.43107
韵	-9.43117
▁在	-9.43127
股份有限公司	-9.43174
,让	-9.43214
女性	-9.43217
不可	-9.4327
荷	-9.43284
孝	-9.43294
学者	-9.43401
进行了	-9.43458
琴	-9.43499
技	-9.43552
阶段	-9.43584
下,	-9.43618
地理	-9.43645
实行	-9.43669
成熟	-9.43858
所以	-9.43927
新疆	-9.4399
小区	-9.4399
宏	-9.44005
仪器	-9.44098
迅速	-9.44106
构成	-9.44128
宿	-9.44161
2.5	-9.4418
设计、	-9.44185
色彩	-9.44195
,成为	-9.44215
地震	-9.44299
适用于	-9.44328
42	-9.44363
蛋	-9.4446
秒	-9.44469
推动	-9.44502
99	-9.446
。现任	-9.44754
泵	-9.44773
适量	-9.44793
150	-9.4481
机、	-9.44878
《中国	-9.44929
玛	-9.44932
阵	-9.44947
湘	-9.44975
侯	-9.45008
招	-9.4502
囊	-9.45058
株	-9.45069
药物	-9.45257
文章	-9.45266
幼儿园	-9.45284
组建	-9.45291
电池	-9.45317
主任	-9.45325
研究院	-9.45361
研究员	-9.45367
维修	-9.45479
居住	-9.45516
39	-9.45529
正常	-9.4567
对象	-9.45709
资产	-9.4571
机场	-9.45729
人士	-9.4573
‘	-9.45743
健	-9.45772
98	-9.45776
童	-9.45777
人生	-9.45797
人民政府	-9.45935
虽然	-9.45949
深入	-9.4596
互	-9.45992
程度	-9.46136
探	-9.46163
引起	-9.46207
授	-9.46301
花园	-9.46385
中文	-9.46399
配置	-9.46571
▁3.	-9.46665
厘米,	-9.4671
夹	-9.46767
精品	-9.46849
遇	-9.4691
男,	-9.46939
某	-9.46945
°C	-9.46965
顾	-9.47024
须	-9.47113
玉米	-9.47193
图书	-9.47218
氧化	-9.47225
充分	-9.47248
44	-9.47272
消费	-9.47349
事件	-9.47356
敬	-9.47387
坛	-9.47413
碎	-9.47469
特性	-9.47649
袋	-9.47703
拍摄	-9.47755
息	-9.47777
丘	-9.47778
是中国	-9.47917
上,	-9.4809
翅	-9.48097
一家	-9.48143
内置	-9.48222
念	-9.48241
自身	-9.48535
掌握	-9.48661
脂	-9.48782
专门	-9.48884
屏幕	-9.49024
乃	-9.49109
动画	-9.49152
诊断	-9.4918
借	-9.49181
持	-9.49453
降低	-9.49455
阻	-9.49468
战斗	-9.49496
深圳市	-9.49516
天下	-9.49537
影视	-9.49594
漫画	-9.49602
汉族	-9.49603
建筑面积	-9.49637
塑	-9.49643
革	-9.49841
名,	-9.49844
证书	-9.4987
以来,	-9.4988
发展的	-9.49969
(18	-9.49992
推进	-9.50073
因此	-9.50143
66	-9.50144
重要的	-9.50148
哥	-9.5018
高效	-9.50198
人体	-9.5021
明显	-9.50247
栋	-9.50278
稍	-9.50308
如果	-9.50318
三年	-9.50363
鼻	-9.50465
,从而	-9.50702
告	-9.50731
南北	-9.50735
关注	-9.50835
,因此	-9.50857
瓶	-9.50878
颈	-9.50934
尤	-9.51003
最后	-9.51069
之间的	-9.51103
面向	-9.51103
唯一	-9.51125
46	-9.51156
覆盖	-9.51187
符合	-9.51219
举行	-9.51336
,该	-9.51346
海洋	-9.51433
塑料	-9.51446
自动化	-9.51457
周边	-9.51527
航空	-9.51642
东西	-9.51648
禁	-9.51667
产品的	-9.51676
码	-9.51678
英寸	-9.51873
署	-9.51923
餐饮	-9.51953
拍	-9.51965
付	-9.52018
档案	-9.52042
正在	-9.52045
定位	-9.52047
防治	-9.52071
2个	-9.52108
纪念	-9.52136
身体	-9.52173
坊	-9.52188
渡	-9.52223
决	-9.52412
跳	-9.52425
资格	-9.52476
亡	-9.52506
滚	-9.52538
涉及	-9.52561
针对	-9.52605
链	-9.52619
江西省	-9.52642
重量	-9.52724
学历	-9.52838
改善	-9.52844
120	-9.52848
3000	-9.52894
场所	-9.52954
格式	-9.52966
43	-9.53025
辉	-9.53034
含量	-9.53054
室内	-9.53119
2.0	-9.53169
-2	-9.53194
3个	-9.53274
印度	-9.53336
孟	-9.53354
附近	-9.53368
整合	-9.53473
部、	-9.53504
毫米	-9.53565
寻	-9.53581
评为	-9.53651
,曾	-9.53678
鬼	-9.53768
暴	-9.5377
丸	-9.53899
铝	-9.53972
「	-9.53982
触	-9.53989
鸣	-9.54054
炼	-9.54073
」	-9.54078
,包括	-9.54154
参加了	-9.54194
,拥有	-9.54258
敏	-9.54284
邦	-9.54312
肿瘤	-9.54338
二级	-9.54358
亚洲	-9.54363
址	-9.54417
就业	-9.54435
校长	-9.54451
攻击	-9.54453
买	-9.54469
探索	-9.54471
植	-9.54487
跟	-9.54556
,通过	-9.54649
柏	-9.54696
硬盘	-9.54748
多年来	-9.54756
苏州	-9.54846
污染	-9.54861
印刷	-9.54861
漆	-9.54872
工程师	-9.54926
妙	-9.54994
动力	-9.55047
效率	-9.55084
山西省	-9.55092
第1	-9.55234
有限责任公司	-9.55289
的人	-9.5534
注重	-9.55474
地球	-9.5559
衰	-9.55631
减少	-9.55693
机制	-9.55723
鉴定	-9.55767
投入	-9.55778
茂	-9.55792
翼	-9.55795
芯片	-9.55802
两种	-9.55843
▁1、	-9.5586
在中国	-9.55872
凝	-9.55902
教育部	-9.55945
持续	-9.56043
赫	-9.56082
黄色	-9.56089
预防	-9.56139
旗下	-9.56194
嫩	-9.56196
序	-9.56392
锁	-9.56453
开放	-9.56484
恢复	-9.56522
蒂	-9.56544
疑	-9.56554
都有	-9.56598
贡献	-9.56641
增强	-9.56709
俄罗斯	-9.56715
卢	-9.56802
螺	-9.56831
勇	-9.56853
伴	-9.56879
第五	-9.56973
以“	-9.57028
多家	-9.57146
团体	-9.57151
牧	-9.57162
图书馆	-9.57204
称号	-9.57281
南部	-9.57286
老师	-9.57368
尘	-9.57391
5%	-9.57426
47	-9.57489
崇	-9.57577
具备	-9.57606
原因	-9.57642
稿	-9.57649
弗	-9.5773
的产品	-9.57752
震	-9.5777
陕西省	-9.57785
释	-9.57911
56	-9.57959
村民	-9.57987
独特的	-9.58024
旋	-9.58034
1958年	-9.58045
复合	-9.58068
重庆市	-9.5808
收录	-9.58137
鞋	-9.58146
吸收	-9.58171
砖	-9.58204
淮	-9.58229
炸	-9.5826
高速公路	-9.58263
岳	-9.58286
及时	-9.58364
练	-9.58426
强度	-9.58487
动态	-9.58498
晓	-9.58519
国外	-9.58521
闪	-9.58641
4个	-9.58656
的历史	-9.58661
胆	-9.58685
晶	-9.5871
训	-9.58721
扎	-9.58736
医学院	-9.58778
阅读	-9.58785
住宅	-9.58882
满意	-9.58895
虽	-9.58938
注意	-9.58951
棉	-9.59025
0.5	-9.59086
手段	-9.59101
解放	-9.59143
文物	-9.59158
饭	-9.59181
域	-9.59199
枚	-9.59312
逐渐	-9.59332
甚	-9.5934
罪	-9.59356
先进单位	-9.59358
人文	-9.59526
谋	-9.5959
49	-9.59596
御	-9.59599
显卡	-9.59615
大道	-9.59692
建议	-9.59716
壮	-9.59871
腔	-9.59964
是以	-9.60016
烈	-9.60026
暖	-9.60036
,因	-9.60142
玩家	-9.60243
等级	-9.6032
室、	-9.60347
民国	-9.60473
58	-9.60528
青岛	-9.60532
改造	-9.60649
大家	-9.60651
经常	-9.60655
科学技术	-9.60711
芳	-9.60718
角色	-9.60761
展览	-9.60843
褐色	-9.6085
锡	-9.60883
三等奖	-9.60896
显著	-9.60952
斜	-9.60963
素质	-9.61058
主要从事	-9.61222
到了	-9.61263
同志	-9.61282
,男,汉族,	-9.61293
电子商务	-9.61308
取得了	-9.61366
稀	-9.614
始终	-9.61434
歌手	-9.61451
拿	-9.61454
固定	-9.6151
滨	-9.61521
赋	-9.61523
工厂	-9.61726
督	-9.61824
,每	-9.61879
爱情	-9.61881
无法	-9.61895
俗	-9.61921
分布于	-9.61925
答	-9.61945
授予	-9.61961
一座	-9.61964
公开	-9.62006
遗址	-9.62073
坐落于	-9.62115
背景	-9.62128
全省	-9.62128
轴承	-9.62153
郊	-9.62165
竞争	-9.62171
简称	-9.62193
廉	-9.62201
论坛	-9.62218
于一体的	-9.62223
地位	-9.6236
北部	-9.62397
混合	-9.62431
,任	-9.62456
,北	-9.62471
(),	-9.6249
各项	-9.62496
集成	-9.62564
掉	-9.62597
指挥	-9.62679
避	-9.62719
铸	-9.62826
错	-9.62844
周围	-9.62846
舞蹈	-9.62875
趣	-9.62881
怪	-9.62927
造型	-9.62979
柔	-9.62998
闽	-9.63017
的基本	-9.63078
癌	-9.63132
,我们	-9.63137
欢迎	-9.63159
创建于	-9.63219
充满	-9.63313
工作的	-9.63382
森林	-9.63433
舒适	-9.63434
体验	-9.6354
犹	-9.63556
续	-9.63608
翻译	-9.63652
▁3、	-9.63699
饮	-9.63766
它的	-9.63822
年间	-9.63823
节能	-9.63829
3年	-9.6383
冠军	-9.6384
国务院	-9.63859
好的	-9.63881
配合	-9.64019
第十	-9.6406
编制	-9.64063
合同	-9.64088
现场	-9.64143
▁3	-9.64188
委员	-9.64215
良好	-9.64277
0°C	-9.64285
经济学	-9.64388
房地产	-9.64446
长江	-9.64519
苑	-9.64791
电器	-9.64818
85	-9.64837
沈	-9.64875
入选	-9.64907
绘	-9.64933
,现任	-9.64988
装修	-9.64994
水利	-9.65001
诗人	-9.65003
寄	-9.65017
合成	-9.65119
聘	-9.65152
。主要	-9.6516
鸭	-9.65207
措施	-9.65295
幽	-9.65299
▁:	-9.65311
进口	-9.65352
直径	-9.65398
旺	-9.65403
理事	-9.65424
鹿	-9.65472
蔬菜	-9.65504
洁	-9.65584
中间	-9.65656
一流的	-9.6573
各个	-9.65774
辽	-9.65803
刑	-9.65805
发挥	-9.65848
-19	-9.65867
循环	-9.65871
画家	-9.65948
标志	-9.6596
专利	-9.66007
相同	-9.66036
养殖	-9.66042
僧	-9.66046
能源	-9.6609
2013年	-9.66114
5年	-9.66161
:2	-9.66165
,然后	-9.66195
突	-9.66232
1980年	-9.66238
5-	-9.66262
解决方案	-9.66299
该村	-9.66315
客房	-9.66366
尺	-9.66438
父亲	-9.6652
元素	-9.66523
办理	-9.6653
大师	-9.66555
1978年	-9.66584
播放	-9.666
缝	-9.66619
窑	-9.66646
执	-9.6667
处于	-9.66694
为主,	-9.66778
陶瓷	-9.66836
基于	-9.66886
察	-9.66902
粮	-9.66903
音频	-9.66955
52	-9.66966
市级	-9.67009
团结	-9.67013
研究中心	-9.67033
带来	-9.67062
吕	-9.67072
蛋白	-9.67083
用品	-9.67085
平方公里,	-9.67139
95	-9.67142
目的	-9.67151
党委书记	-9.67209
军区	-9.67318
菲	-9.67339
粮食	-9.67393
仓	-9.67524
-4	-9.67557
内蒙古	-9.67577
年代	-9.67578
历任	-9.67635
传说	-9.6769
推出	-9.67695
联盟	-9.67742
荣誉	-9.67761
剪	-9.6777
优化	-9.67797
不过	-9.67875
禅	-9.67887
将军	-9.67905
2003	-9.67944
市政府	-9.6797
盟	-9.68057
人事	-9.68067
蔡	-9.68136
奶	-9.68139
除了	-9.68165
严重	-9.68222
的小	-9.68229
溶	-9.68255
54	-9.68271
经理	-9.68275
1981年	-9.68286
患	-9.68306
筒	-9.68309
独特	-9.68333
53	-9.68356
仲	-9.68387
,则	-9.68389
的服务	-9.68389
气候	-9.68403
专辑	-9.68408
民主	-9.68432
嘴	-9.68433
增长	-9.68457
舰	-9.68563
扩大	-9.68575
埃	-9.68617
键	-9.68634
苍	-9.68731
形态	-9.68738
逃	-9.68793
昭	-9.68814
原则	-9.68828
曾任	-9.68844
丛	-9.68865
滩	-9.68874
有一	-9.68911
酱	-9.6893
97	-9.68933
孤	-9.68997
000	-9.69001
碳	-9.69052
多项	-9.69102
方面的	-9.69195
贵州	-9.69217
鸿	-9.69221
辽宁省	-9.69271
纺织	-9.6934
,并且	-9.69353
建于	-9.69373
分会	-9.69376
碧	-9.69456
依托	-9.69518
食用	-9.69686
献	-9.69703
抽	-9.69724
才能	-9.6979
购物	-9.69885
而不	-9.7002
巧	-9.70074
管理、	-9.70115
戏剧	-9.70119
烤	-9.70132
女子	-9.70146
电气	-9.70147
操	-9.7017
煎	-9.70306
钻	-9.70329
景区	-9.70353
足球	-9.70356
毁	-9.70358
真实	-9.70387
荒	-9.70403
悬	-9.70412
曾经	-9.7053
碗	-9.70557
齐全	-9.70611
的地方	-9.70715
不会	-9.70726
解释	-9.7075
概念	-9.70765
辅	-9.70798
中共党员	-9.70839
,现	-9.70844
700	-9.70851
近年来	-9.70851
性质	-9.709
鹤	-9.70902
接触	-9.70952
不锈钢	-9.70964
伟	-9.71024
因素	-9.71092
图片	-9.71105
隶属于	-9.71135
市区	-9.71148
委员会委员	-9.71153
68	-9.71184
导致	-9.71218
腾	-9.71335
监测	-9.71335
2.	-9.71343
成就	-9.71445
衡	-9.71458
说明	-9.71466
恋	-9.71503
秘书	-9.71528
协助	-9.71587
我们的	-9.71618
人数	-9.71727
审计	-9.71748
模型	-9.71777
成分	-9.71803
一项	-9.71827
响	-9.71932
57	-9.71944
,自	-9.72082
蛇	-9.72084
肿	-9.72099
1979年	-9.721
商标	-9.7211
对外	-9.72149
关键	-9.7217
盒	-9.7231
电压	-9.72312
》中	-9.72381
浓	-9.724
耗	-9.72427
败	-9.72469
批	-9.72509
胎	-9.72519
酶	-9.72523
主体	-9.72575
卵	-9.72596
。这	-9.72638
任教	-9.72655
宾馆	-9.72668
功率	-9.72681
长,	-9.72693
1949年	-9.72711
硅	-9.72726
袁	-9.72727
,无	-9.72736
院校	-9.72773
帮	-9.72822
详细	-9.7285
美容	-9.72859
重新	-9.72884
记载	-9.72902
切成	-9.72927
颜	-9.72934
首届	-9.72937
公里。	-9.72939
谁	-9.72949
72	-9.73029
”等	-9.7303
的新	-9.73061
辽宁	-9.73144
喜爱	-9.73148
肩	-9.7318
风险	-9.73386
穴	-9.73472
准备	-9.73491
园林	-9.73493
(1	-9.73504
访	-9.73506
耕地面积	-9.7352
完善的	-9.7353
介绍了	-9.73534
抓	-9.73536
自治区	-9.7355
毗邻	-9.7359
帕	-9.73628
职务	-9.73679
配件	-9.73711
中部	-9.73804
城镇	-9.73823
栽培	-9.73857
外形	-9.73862
耕地	-9.7387
密度	-9.73934
染	-9.74037
产品质量	-9.74105
述	-9.74109
公安	-9.74195
大陆	-9.74205
尿	-9.74279
构	-9.74289
霍	-9.74305
。学校	-9.74329
获奖	-9.7435
指标	-9.74358
宗教	-9.74389
佛教	-9.74394
。由于	-9.74399
意识	-9.74421
2008	-9.7443
呼	-9.74493
拔	-9.74507
登记	-9.74571
损	-9.74623
出了	-9.74631
进步	-9.74753
闭	-9.74795
1956年	-9.74834
虾	-9.74846
-3	-9.74871
柜	-9.74875
,她	-9.74883
平衡	-9.74893
垂	-9.74953
传媒	-9.74954
副主席	-9.74981
窗	-9.7499
少年	-9.75006
迹	-9.75044
逐	-9.75142
评估	-9.75158
舒	-9.7519
申请	-9.75215
险	-9.75268
96	-9.7531
迎	-9.75318
扩展	-9.75371
电视台	-9.75396
咸	-9.75399
拳	-9.75416
5000	-9.75427
早期	-9.75469
的故事	-9.75536
88	-9.75684
斗争	-9.757
认识	-9.75704
层次	-9.75745
看到	-9.75783
迈	-9.75803
,获	-9.75816
严格	-9.75816
2006	-9.75817
大学生	-9.75826
主管	-9.75865
在此	-9.75978
龄	-9.76015
吉林	-9.76084
你的	-9.76095
云南省	-9.76132
保存	-9.76182
十一	-9.76241
赏	-9.76279
传输	-9.7632
休	-9.7632
妇女	-9.76343
功效	-9.76576
沃	-9.76612
工作者	-9.76696
不得	-9.76701
模拟	-9.76713
文献	-9.76837
也。”	-9.76851
售	-9.76912
醇	-9.76937
鼠	-9.76987
缩	-9.76996
人工	-9.7702
年轻	-9.77039
蒜	-9.77069
1-	-9.77121
映	-9.77152
办法	-9.77161
社会主义	-9.7718
另外	-9.77232
灾	-9.77303
家具	-9.77324
发表论文	-9.77328
灌	-9.77456
小型	-9.77519
动作	-9.77557
腿	-9.77569
以后	-9.77576
自我	-9.77638
相当	-9.77678
黎	-9.77679
94	-9.77695
讲师	-9.77732
餐厅	-9.77772
黄金	-9.77869
锐	-9.7787
工商	-9.77872
偶	-9.77972
斋	-9.77987
例如	-9.78023
悲	-9.78061
沈阳	-9.78094
空调	-9.78162
屯	-9.78175
信誉	-9.78191
意见	-9.78201
资本	-9.78201
集体	-9.78268
十年	-9.78273
忘	-9.78316
企	-9.78324
淀粉	-9.78371
天津市	-9.78385
3.5	-9.78392
验	-9.78397
奏	-9.78441
佩	-9.78507
稻	-9.78518
曾在	-9.78537
水泥	-9.78538
监控	-9.78549
在职	-9.786
舟	-9.7867
)是	-9.78713
又名	-9.78745
战士	-9.78787
&	-9.78797
霞	-9.78841
逆	-9.78853
藤	-9.78865
定义	-9.78888
。此	-9.78921
依据	-9.78922
含有	-9.78941
申	-9.78944
英雄	-9.79049
貌	-9.7907
秘	-9.79118
盆	-9.79125
所谓	-9.7914
填	-9.79148
豪华	-9.79149
加拿大	-9.79216
儒	-9.79267
芽	-9.79312
创意	-9.79392
种类	-9.79462
等方面	-9.79475
辐射	-9.79477
,但是	-9.795
权威	-9.7951
数码	-9.79519
稳	-9.79533
是否	-9.79581
海南	-9.79588
助理	-9.79603
1963年	-9.79641
的作用	-9.7973
坐落在	-9.7974
赠	-9.79762
少许	-9.7977
基因	-9.79792
乡村	-9.79803
医科大学	-9.79904
万吨	-9.79965
订	-9.79998
推荐	-9.80025
的影响	-9.80046
最早	-9.80103
77	-9.80211
东部	-9.80289
现实	-9.80313
撰写	-9.80406
多媒体	-9.80409
只是	-9.8041
时间:	-9.80433
所属	-9.80443
邮	-9.80445
太阳	-9.80455
饼	-9.80498
的生活	-9.805
猫	-9.80521
.12	-9.80573
传》:“	-9.80673
亩。	-9.80707
,还	-9.80771
朴	-9.80821
凭借	-9.80837
俱乐部	-9.80855
万平方米	-9.80912
反映	-9.80915
在线	-9.80931
科、	-9.80946
,就	-9.80976
翠	-9.81039
产量	-9.81083
4年	-9.81111
离子	-9.8112
国民党	-9.81221
均匀	-9.81449
柄	-9.8148
五年	-9.81506
2007	-9.81518
。其中	-9.81526
协议	-9.81527
76	-9.81578
各级	-9.81642
织	-9.81729
准确	-9.81744
抱	-9.81744
网上	-9.8192
粤	-9.81942
版本	-9.81954
一流	-9.81956
比例	-9.81956
兼任	-9.82003
园区	-9.82023
候	-9.82028
广播	-9.82055
报道	-9.82093
瓷	-9.82098
血管	-9.82115
处理器	-9.82146
萧	-9.82195
妇	-9.82259
总经理	-9.82336
1年	-9.82398
跑	-9.82407
行动	-9.8244
累	-9.82606
系统的	-9.82619
逐步	-9.82704
信息化	-9.82749
四个	-9.82784
阔	-9.82851
2010	-9.82852
来源	-9.82859
滴	-9.82896
本品	-9.82947
容易	-9.82957
疗	-9.82971
司法	-9.8298
包含	-9.83001
家族	-9.83012
污	-9.83016
广州市	-9.83055
1964年	-9.83066
十五	-9.83116
下设	-9.83128
都市	-9.8321
渔	-9.83212
内存	-9.83284
企业。	-9.83292
车辆	-9.83308
进修	-9.83333
首次	-9.83343
漏	-9.83462
0.0	-9.83475
6个	-9.83504
汽	-9.83565
串	-9.83601
朵	-9.83657
”为	-9.83716
犯	-9.8373
漫	-9.83742
,把	-9.83743
担	-9.83776
依法	-9.83783
滤	-9.83806
梯	-9.83844
真正	-9.8385
厦门	-9.83858
碱	-9.83872
俊	-9.83879
大队	-9.83882
表达	-9.83927
绵	-9.83963
67	-9.8398
内科	-9.83994
遂	-9.84015
卿	-9.8403
开设	-9.84056
专著	-9.84057
绿化	-9.84074
佐	-9.84098
分公司	-9.84129
武器	-9.84245
破坏	-9.84251
4-	-9.84298
阶	-9.84301
的时候	-9.84302
艺术家	-9.84307
初中	-9.8437
肌	-9.84404
可靠	-9.84509
翔	-9.84511
78	-9.84542
更名为	-9.8456
大部分	-9.84563
流动	-9.84584
用来	-9.84603
疾	-9.84637
的《	-9.84696
做好	-9.84708
集团公司	-9.84735
生产线	-9.8474
贡	-9.84847
水库	-9.84864
1.2	-9.84871
雾	-9.84883
拨	-9.84969
59	-9.84995
坑	-9.85024
贾	-9.85108
无线	-9.85139
综合性	-9.85141
际	-9.85241
最终	-9.85251
伪	-9.85269
桐	-9.85277
相互	-9.85333
指定	-9.85348
41	-9.85399
常见	-9.85403
,女,	-9.85439
写作	-9.85455
她的	-9.85512
合并	-9.85517
火车站	-9.85591
鉴	-9.85679
6年	-9.85712
农户	-9.85721
》等。	-9.85725
奔	-9.85725
大会	-9.85731
熊	-9.85924
常务	-9.85937
席	-9.85942
乡镇	-9.85964
顾客	-9.86109
一支	-9.86164
国道	-9.86189
毕业后	-9.8619
滋	-9.86195
理解	-9.86198
大厦	-9.86244
拟	-9.86268
令人	-9.8628
专科	-9.86288
而且	-9.86291
,更	-9.86306
甘肃	-9.86381
认真	-9.86412
村位于	-9.86432
直属	-9.86468
贺	-9.86472
作用。	-9.86496
皇帝	-9.86526
理念,	-9.86537
危	-9.8656
证券	-9.86607
阳县	-9.86627
午	-9.86628
高科技	-9.8665
,目前	-9.86663
国土面积	-9.86695
得到了	-9.86731
扣	-9.86755
加热	-9.86786
抚	-9.8679
撰	-9.86829
图像	-9.86858
逸	-9.86869
冯	-9.86904
找	-9.86911
也可以	-9.86935
纱	-9.86963
一名	-9.86983
作战	-9.86984
制成	-9.86985
》诗:“	-9.8701
免疫	-9.87011
棋	-9.87048
2-	-9.87105
罐	-9.87112
认可	-9.87115
筑	-9.87121
济南	-9.87122
宗旨	-9.87142
连锁	-9.8719
86	-9.872
吾	-9.87201
分离	-9.87238
线路	-9.87254
原名	-9.87305
万人	-9.87333
合金	-9.87388
共享	-9.87404
伸	-9.87464
另	-9.87586
劳动力	-9.87672
上下	-9.87679
中华人民共和国	-9.8768
清代	-9.87691
彭	-9.87699
记者	-9.87779
多年的	-9.87779
一位	-9.8778
第2	-9.87786
。曾	-9.8779
快乐	-9.87791
风景	-9.87801
8年	-9.87805
是一家	-9.87823
林业	-9.87878
圆形	-9.87892
绘画	-9.87912
多人	-9.8801
1962年	-9.88013
斯特	-9.88034
种子	-9.88034
5个	-9.88044
盗	-9.88064
智慧	-9.88111
撒	-9.88168
教授,	-9.88172
租	-9.88189
误	-9.88207
乐队	-9.88216
技巧	-9.88284
卓	-9.88371
蜜	-9.88383
刊物	-9.88407
介	-9.88457
第一个	-9.88491
奖。	-9.88541
年度	-9.88573
巡	-9.8858
省市	-9.88599
筹	-9.88604
----------------	-9.88617
卧	-9.8862
51	-9.88624
高等	-9.88667
铭	-9.88725
69	-9.88799
青少年	-9.88807
各地	-9.88839
娜	-9.88859
辅助	-9.88937
知道	-9.88961
西方	-9.88969
情况下	-9.89025
,距离	-9.89028
几个	-9.89138
形成了	-9.8917
涉	-9.89181
大连	-9.89278
经历	-9.89319
郑州	-9.89323
三大	-9.89335
,且	-9.89343
信用	-9.89367
,能	-9.89385
中山	-9.89465
的工作	-9.89475
洗净	-9.89495
巷	-9.89507
并且	-9.89598
启动	-9.89625
联合会	-9.89651
浸	-9.89656
出来	-9.89669
呼吸	-9.89702
影片	-9.89714
棒	-9.89715
壶	-9.89724
栏	-9.89728
江南	-9.89753
飞机	-9.89766
,经	-9.89767
合格	-9.89776
创立	-9.89882
强大的	-9.89926
长沙	-9.89926
这是	-9.89961
本数据来源于百度地图	-9.90034
名称:	-9.9004
,最终结果以百度地图数据为准。	-9.90057
.("/////	-9.9013
.",(){(	-9.9013
决策	-9.9016
10000801);});	-9.90162
什	-9.90171
边缘	-9.90215
2年	-9.90218
公顷	-9.9023
局局长	-9.90255
1965年	-9.90279
倾	-9.9035
地址	-9.90372
认	-9.90449
黑龙江省	-9.90449
研究会	-9.90484
槽	-9.90531
适用	-9.90596
荡	-9.90675
西班牙	-9.90683
工作;	-9.90742
兹	-9.908
之中	-9.90838
市人民政府	-9.90907
亿元	-9.90912
枣	-9.91001
了一个	-9.91002
书记	-9.91043
规	-9.91076
之前	-9.91092
身份	-9.91097
完美	-9.91107
也。	-9.91127
观察	-9.91135
▁4.	-9.91138
63	-9.91195
资讯	-9.91281
常用	-9.91317
融合	-9.9132
输	-9.91365
阳光	-9.91391
董	-9.91415
叠	-9.91445
弦	-9.91465
部长	-9.91469
辅导	-9.91471
73	-9.91473
几乎	-9.91477
束	-9.91491
。目前	-9.91576
苯	-9.91786
全方位	-9.91813
事业单位	-9.91863
数十	-9.91867
第六	-9.91904
180	-9.91924
夺	-9.91947
防止	-9.92001
山水	-9.92007
1项	-9.9201
侵	-9.92014
主任医师	-9.92045
西藏	-9.92083
,或	-9.921
平面	-9.92198
事务	-9.92199
正确	-9.92209
资质	-9.92221
突破	-9.92229
画面	-9.92249
捕	-9.92266
79	-9.92305
朝鲜	-9.92326
自主	-9.92351
十八	-9.92407
,因为	-9.92426
名:	-9.9247
应该	-9.92486
建造	-9.92602
电流	-9.92604
62	-9.92653
材质	-9.92668
08	-9.92671
缓	-9.92728
重视	-9.92732
汗	-9.92739
锋	-9.92752
读书	-9.92777
县委	-9.92786
舌	-9.92849
机电	-9.92884
外观	-9.92944
配备	-9.92982
贫	-9.93009
互动	-9.9304
土壤	-9.9309
否	-9.93094
经济发展	-9.93186
狗	-9.93194
最具	-9.93259
过去	-9.93273
规律	-9.93287
三十	-9.93293
,先后	-9.93315
其实	-9.93321
海军	-9.93454
飞行	-9.93475
新加坡	-9.93537
3-	-9.9354
梨	-9.936
干燥	-9.93625
凌	-9.9368
高端	-9.93688
供应	-9.93693
葬	-9.93804
毕	-9.93817
焊	-9.93858
四年	-9.93864
适宜	-9.93904
浩	-9.93939
激	-9.93941
):	-9.93968
发达	-9.9399
倒入	-9.94038
猎	-9.94053
舞台	-9.9411
途	-9.9415
气体	-9.9416
清水	-9.94167
脸	-9.94172
弯	-9.94178
0.2	-9.94184
驱	-9.94216
十六	-9.94237
地面	-9.94267
军队	-9.94272
透明	-9.94282
改为	-9.94342
复杂	-9.94346
崖	-9.94432
健身	-9.94559
演唱	-9.94573
采取	-9.94683
霸	-9.94696
冶金	-9.9474
开拓	-9.94828
7年	-9.94846
学家	-9.94936
筋	-9.94946
卒	-9.94955
道德	-9.94974
05	-9.94991
揭	-9.95022
高级工程师	-9.95037
廊	-9.95116
匀	-9.9514
弥	-9.95158
釉	-9.95189
吉林省	-9.95197
姚	-9.95215
形容	-9.95228
0-	-9.95229
交换	-9.95252
2011	-9.95286
澳大利亚	-9.95324
报刊	-9.95331
激光	-9.95371
肖	-9.9545
博士学位	-9.95456
。但	-9.95481
已有	-9.95544
0.1	-9.95576
兄弟	-9.95578
.09	-9.95581
74	-9.95617
捷	-9.95686
职能	-9.95693
韦	-9.95749
戈	-9.95763
橡胶	-9.9577
监察	-9.95789
个性	-9.95793
更新	-9.95796
宴	-9.95803
市委	-9.95818
郁	-9.95819
浴	-9.95888
中药	-9.95951
电机	-9.95977
醋	-9.95986
兆	-9.96011
分辨率	-9.96023
企业的	-9.96027
类似	-9.96031
母亲	-9.96074
结束	-9.96089
爽	-9.96117
是一款	-9.96158
工人	-9.96166
发明	-9.96215
体现	-9.96272
牺牲	-9.96296
一套	-9.96312
消化	-9.9632
。本	-9.9633
长度	-9.96347
组成的	-9.96406
奖励	-9.96406
较大	-9.96409
不少	-9.96422
有些	-9.96465
慈	-9.96521
幸福	-9.9653
吹	-9.96534
性和	-9.96554
不足	-9.96559
房屋	-9.96615
悦	-9.96647
耶	-9.96648
幻	-9.96655
辣	-9.96657
吸引	-9.96681
哈尔滨	-9.96759
发射	-9.96769
进程	-9.96833
▁4、	-9.96846
扁	-9.9686
通道	-9.96947
百年	-9.96962
声音	-9.9701
海外	-9.97021
大学学历	-9.97024
覆	-9.97026
学、	-9.97101
气象	-9.97121
药品	-9.97144
邑	-9.97179
戒	-9.97195
祠	-9.97229
鸡蛋	-9.97243
酷	-9.97246
丙	-9.97268
潘	-9.97277
,当	-9.97301
芯	-9.9736
领域的	-9.9755
的企业	-9.97554
党委	-9.97621
奈	-9.97704
优良	-9.97761
祭	-9.97769
形,	-9.97798
平方公里	-9.97844
娘	-9.97849
放在	-9.97867
储	-9.97869
82	-9.97877
瓣	-9.97889
叶片	-9.97929
:3	-9.97993
快捷	-9.98023
本公司	-9.98081
高档	-9.98118
建材	-9.98127
利益	-9.98129
02	-9.98182
学员	-9.98193
。从	-9.98214
开发区	-9.98215
模具	-9.98286
公寓	-9.98287
有《	-9.98347
地区的	-9.98351
摆	-9.98394
中外	-9.98427
事故	-9.9843
耀	-9.98436
政协	-9.9844
晨	-9.98456
教室	-9.98468
1970年	-9.9857
学会会员	-9.98634
截	-9.98635
法学	-9.98638
敌人	-9.98661
的方法	-9.98667
县政府	-9.9869
2009	-9.98715
大力	-9.9872
费用	-9.98748
▁本	-9.98772
为主。	-9.98798
轻松	-9.98821
贞	-9.98844
吐	-9.98907
在全国	-9.98921
一系列	-9.98935
行业的	-9.98938
那么	-9.98945
名为	-9.98952
散文	-9.98959
,他们	-9.98975
,加	-9.99023
策略	-9.99057
面对	-9.99095
2005	-9.99098
系列产品	-9.99099
水稻	-9.99154
只要	-9.99192
蓄	-9.99198
己	-9.99204
转换	-9.99215
下载	-9.99216
甘肃省	-9.9922
ˋ	-9.99232
20世纪	-9.99242
膏	-9.99263
公司的	-9.99325
闲	-9.99442
高压	-9.99478
山县	-9.99548
猛	-9.99579
安排	-9.9958
1976年	-9.99592
十三	-9.99617
靖	-9.99659
悟	-9.9969
负责人	-9.99694
&;	-9.99746
职称	-9.9976
语文	-9.99784
仔	-9.99874
一带	-9.99883
死亡	-9.99907
,一般	-9.99944
父母	-10.0002
绣	-10.0003
仿	-10.0005
社团	-10.0005
抗日	-10.0022
报》	-10.0037
冈	-10.0041
颇	-10.0042
生存	-10.0053
法规	-10.0055
辨	-10.0059
屈	-10.006
基层	-10.0062
辰	-10.0066
另一	-10.007
流量	-10.0074
林地	-10.0075
堆	-10.0075
沪	-10.0077
乎	-10.008
贵州省	-10.0082
慢性	-10.0086
隶属	-10.0086
所在	-10.0087
管道	-10.0088
医师	-10.0089
吊	-10.0091
两侧	-10.0093
迫	-10.0098
亿元,	-10.0098
找到	-10.0098
成了	-10.0103
困	-10.0103
摄	-10.0105
驱动	-10.0107
公元	-10.0113
氢	-10.0119
记忆	-10.0119
唯	-10.0123
辣椒	-10.0124
采购	-10.0125
250	-10.0126
村,	-10.0128
、高	-10.0132
出版社出版	-10.0135
清晰	-10.0137
220	-10.014
北方	-10.0141
售后服务	-10.0144
′	-10.0144
幼儿	-10.0149
力学	-10.015
大众	-10.0154
首批	-10.0155
上级	-10.0155
忍	-10.0158
卫星	-10.016
度假	-10.0161
丛书	-10.0162
主要是	-10.0163
困难	-10.0163
椒	-10.0165
机会	-10.0169
频道	-10.0177
,海拔	-10.0184
状况	-10.0193
流程	-10.0202
可达	-10.0204
160	-10.0204
年龄	-10.0206
日常	-10.0207
精心	-10.0211
1960年	-10.0216
案例	-10.0216
档	-10.0217
变成	-10.0221
心理学	-10.0225
昆明	-10.0226
宅	-10.0226
护理	-10.023
轨	-10.0232
-01	-10.0233
,由于	-10.0233
ㄨ	-10.0234
开关	-10.0235
1955年	-10.0237
ㄧ	-10.0239
培	-10.0239
爆	-10.0241
首都	-10.0242
03	-10.0243
运作	-10.0243
的设计	-10.0247
100%	-10.0249
书·	-10.025
下的	-10.0259
彩色	-10.0259
07	-10.0264
观众	-10.0266
甚至	-10.0266
能量	-10.0269
多功能	-10.0269
虹	-10.0273
.07	-10.0277
食物	-10.0277
骑	-10.0281
改进	-10.0282
命名	-10.0283
今天	-10.0285
升级	-10.0286
欢	-10.0286
就会	-10.0288
办事处	-10.0295
89	-10.0296
1950年	-10.0298
美丽	-10.0303
邓	-10.0303
踏	-10.0306
医生	-10.031
2004	-10.031
电路	-10.0312
后来	-10.0312
打印	-10.0314
坏	-10.032
总结	-10.0331
的特点	-10.0333
南方	-10.0337
袭	-10.0345
脆	-10.0352
胜利	-10.0352
1975年	-10.0353
习惯	-10.0357
足球俱乐部	-10.0364
构造	-10.0369
茅	-10.037
动漫	-10.0371
慧	-10.0374
理工大学	-10.0377
春秋	-10.038
混凝土	-10.0384
输送	-10.0387
他们的	-10.0394
活动,	-10.0399
阅	-10.0399
赐	-10.0401
十大	-10.0401
发动机	-10.0402
关节	-10.0408
主演	-10.041
购买	-10.0412
葛	-10.0415
渠道	-10.0421
老年	-10.0423
避免	-10.0426
退休	-10.0428
跃	-10.0433
照片	-10.0434
//	-10.0436
狂	-10.0444
客户的	-10.0444
专业化	-10.0445
之后,	-10.0448
畅	-10.0455
范围内	-10.046
两年	-10.0463
硬件	-10.0466
建有	-10.0475
-6	-10.0485
潭	-10.0486
怕	-10.0487
眉	-10.0494
豫	-10.0494
劲	-10.0495
1957年	-10.0497
汉语	-10.0498
更是	-10.0502
明代	-10.0506
每天	-10.0507
1968年	-10.0508
钙	-10.0509
多篇	-10.0512
思维	-10.0517
整理	-10.0518
营业	-10.052
成立的	-10.0521
里的	-10.0522
数据库	-10.0523
展开	-10.0527
里,	-10.0532
外国	-10.0535
醒	-10.054
返	-10.0543
秉承	-10.0543
党的	-10.0549
然后	-10.055
专题	-10.0553
函数	-10.0553
也不	-10.0554
首先	-10.0555
访问	-10.0555
获得了	-10.0557
治理	-10.0563
者。	-10.0567
为客户提供	-10.0568
下辖	-10.0571
琼	-10.0575
兴趣	-10.0575
那些	-10.0576
内外	-10.0581
弟	-10.0585
继承	-10.0595
弃	-10.0596
在《	-10.0597
诗歌	-10.0598
社会科学	-10.0598
分管	-10.06
如此	-10.0612
杰出	-10.0612
学会理事	-10.0613
高层	-10.0613
。曾任	-10.0614
先进工作者	-10.0616
已成为	-10.062
,却	-10.0621
群体	-10.0621
孕	-10.0621
榜	-10.0632
带领	-10.0634
一致	-10.0637
危险	-10.064
古典	-10.0641
签	-10.0643
在北京	-10.0646
通用	-10.0646
愈	-10.0648
1952年	-10.065
车站	-10.0655
的大型	-10.0656
年),	-10.0656
党委副书记	-10.0656
▁4	-10.0657
穆	-10.0657
收集	-10.0657
忧	-10.0659
一点	-10.0661
县级	-10.0661
邪	-10.0663
有限公司是	-10.0664
高新技术企业	-10.0668
犬	-10.0672
辈	-10.0673
诗词	-10.0675
笋	-10.0679
更多	-10.0683
委会	-10.0684
管理工作	-10.0686
期刊	-10.0686
秘书长	-10.0689
接壤	-10.0696
操作系统	-10.0698
引导	-10.0702
沟通	-10.0703
作物	-10.0707
龟	-10.0711
作业	-10.0713
较为	-10.0717
在一起	-10.0721
昂	-10.0722
幸	-10.0724
判	-10.0725
授权	-10.0727
消防	-10.0729
然而	-10.0734
单元	-10.074
颗粒	-10.0743
相结合	-10.0745
,促进	-10.0752
服务器	-10.0754
液体	-10.076
称“	-10.076
拓展	-10.0762
兰州	-10.0764
厂房	-10.0765
4000	-10.0767
型号	-10.0769
是一名	-10.0777
服务,	-10.078
的要求	-10.078
怒	-10.0785
律师	-10.0786
间,	-10.0788
叔	-10.079
发电	-10.079
柯	-10.0793
原始	-10.0795
照明	-10.0796
魂	-10.0797
审定	-10.0801
189	-10.0801
电动	-10.0801
8个	-10.0804
艳	-10.0806
优秀的	-10.0811
布局	-10.0811
某些	-10.0813
国防	-10.0813
症状	-10.0814
贯	-10.0818
苏联	-10.0818
鹰	-10.0821
轩	-10.0824
蜂	-10.0826
记》	-10.0827
我的	-10.0828
相连	-10.083
前后	-10.0831
900	-10.0836
脂肪	-10.0838
诊	-10.0843
总建筑面积	-10.0844
本地	-10.0845
考入	-10.0848
董事长	-10.085
形状	-10.0854
政法	-10.0854
▁主要	-10.0855
精密	-10.0857
构建	-10.0859
编委	-10.0863
藻	-10.0866
,并在	-10.087
狱	-10.0875
莉	-10.0878
,已	-10.088
美丽的	-10.0883
诱	-10.0884
豆腐	-10.0885
走向	-10.0886
明星	-10.0887
帅	-10.0893
鳞	-10.0893
,共	-10.0895
”和“	-10.09
宁波	-10.0901
全书	-10.0901
抵	-10.091
。“	-10.0914
发育	-10.0918
侨	-10.0923
维生素	-10.0925
,我	-10.093
转移	-10.0932
管辖	-10.0935
角度	-10.0936
洛阳	-10.0939
分配	-10.094
武装	-10.0944
压缩	-10.0948
的技术	-10.095
湿度	-10.0953
芝	-10.0963
1959年	-10.0968
110	-10.0976
学士	-10.0983
:《	-10.0984
不久	-10.0985
燃	-10.0986
商贸	-10.0987
尝	-10.0988
乔	-10.0989
地铁	-10.0991
效益	-10.0997
多样	-10.0998
富有	-10.1001
93	-10.1003
高温	-10.1006
活性	-10.1009
名人	-10.1022
密封	-10.1025
泄	-10.1042
同样	-10.1044
策	-10.1053
证明	-10.1053
再次	-10.1053
辖区	-10.1057
吏	-10.1057
1969年	-10.1058
符	-10.1059
以前	-10.1059
,中共党员,	-10.106
冻	-10.1062
车间	-10.1063
强化	-10.1069
各大	-10.1069
烂	-10.1071
●	-10.1072
垫	-10.1072
局副局长	-10.1072
二年	-10.1075
币	-10.1075
肯	-10.1079
总投资	-10.1079
设计师	-10.1083
键盘	-10.1084
扶	-10.1086
,提高	-10.1087
球队	-10.1091
博士生导师	-10.1091
业有限公司	-10.1092
华人	-10.1096
往往	-10.1102
公益	-10.1104
和平	-10.111
的作品	-10.1115
便利	-10.1115
集团有限公司	-10.1116
家居	-10.1116
传统的	-10.1118
淋	-10.1119
更多的	-10.1122
后的	-10.1123
教职工	-10.1123
的方式	-10.1124
周年	-10.1127
辉煌	-10.1133
傅	-10.114
公司拥有	-10.1143
1966年	-10.1147
状,	-10.115
浙	-10.1151
高品质	-10.1154
等多种	-10.1155
生动	-10.1156
耕	-10.1159
是一所	-10.1164
中有	-10.1165
障碍	-10.1165
考察	-10.1166
越来越	-10.1166
完整	-10.1167
刷	-10.117
的基础上	-10.1174
成人	-10.1177
模块	-10.1179
暂	-10.1181
锥	-10.1182
原来	-10.1187
村隶属于	-10.119
硕士生导师	-10.119
案件	-10.1192
限制	-10.1195
当年	-10.1198
硕	-10.1199
化的	-10.12
万元。	-10.1201
弄	-10.1208
小组	-10.1211
有:	-10.1213
酯	-10.1213
▁该	-10.1217
()是	-10.1217
酱油	-10.122
企业管理	-10.1221
批发	-10.1221
做出	-10.1222
光学	-10.1223
师生	-10.1226
办公室主任	-10.1227
陷	-10.1227
业绩	-10.123
陆军	-10.1231
寸	-10.1233
产生的	-10.1234
丧	-10.1238
1954年	-10.1243
比喻	-10.1245
1号	-10.1248
1953年	-10.1248
慢	-10.125
识别	-10.1252
神秘	-10.1254
标准化	-10.1255
廷	-10.1258
大桥	-10.1261
进士	-10.1262
钢铁	-10.1263
留学	-10.1264
并不	-10.1264
蛋白质	-10.1264
阿尔	-10.1268
了“	-10.1272
默	-10.1273
黄河	-10.1276
摘	-10.1282
优越	-10.1285
星级	-10.1289
北京大学	-10.129
87	-10.129
太平	-10.1291
端口	-10.1294
集》	-10.1296
先后在	-10.1296
呈现	-10.1297
128	-10.1298
城县	-10.1301
公社	-10.1303
1972年	-10.1304
驰	-10.1305
控股	-10.1308
侍	-10.1309
效应	-10.131
态度	-10.1311
硕士学位	-10.1315
合肥	-10.1316
六年	-10.1318
个体	-10.1323
上市	-10.1327
遍	-10.1327
不要	-10.1333
92	-10.1338
腺	-10.1339
梗	-10.134
拥	-10.1344
飘	-10.1347
性、	-10.1348
优秀教师	-10.1349
股票	-10.1352
)、《	-10.1354
出土	-10.1356
起义	-10.1357
雀	-10.136
三国	-10.136
驾	-10.1363
翁	-10.1364
中小学	-10.1366
绳	-10.1368
扇	-10.137
04	-10.1372
南昌	-10.1374
有“	-10.1375
为主的	-10.1376
总公司	-10.1377
美好	-10.1385
委托	-10.1385
最为	-10.1387
竞赛	-10.1387
地图	-10.1388
,地处	-10.1392
渠	-10.1392
电缆	-10.1404
():	-10.1416
地带	-10.1419
同步	-10.1419
最多	-10.1423
ˊ	-10.1425
员,	-10.1426
三角	-10.1427
番	-10.1429
活动。	-10.143
书中	-10.1431
惟	-10.1431
的教学	-10.1432
渐	-10.1433
液压	-10.1433
0.3	-10.1434
加上	-10.1435
平原	-10.1444
四大	-10.1444
享有	-10.1446
味精	-10.1447
展现	-10.1447
麓	-10.145
为基础	-10.1451
贡献。	-10.1454
一生	-10.1463
蜀	-10.1469
性格	-10.1469
第七	-10.147
黑龙江	-10.1472
削	-10.1475
刺激	-10.1476
是“	-10.1479
管理局	-10.1482
新建	-10.1484
熔	-10.1485
经验,	-10.1489
篇,	-10.1489
磷	-10.1494
典型	-10.1495
以其	-10.1498
灵活	-10.1499
短信	-10.15
留下	-10.1502
录音	-10.1502
女人	-10.1506
后期	-10.1508
我公司	-10.1508
1938年	-10.1509
平方米。	-10.151
师范	-10.1512
1945年	-10.1518
弘	-10.1519
汪	-10.152
纽约	-10.1521
茶叶	-10.1521
器、	-10.1522
镜头	-10.1524
计量	-10.1525
是个	-10.1526
帝国	-10.1531
1961年	-10.1532
替	-10.1534
婆	-10.1536
儿子	-10.1538
▁产品	-10.1538
发起	-10.154
大街	-10.154
芬	-10.154
精英	-10.1546
期间,	-10.1547
贷款	-10.1552
脊	-10.1553
奋	-10.1554
只能	-10.1561
米。	-10.1562
不到	-10.1565
84	-10.1566
优美	-10.1567
传奇	-10.1571
评论	-10.1576
可见	-10.1582
接口:	-10.1584
绍	-10.1589
臂	-10.1589
均为	-10.159
数控	-10.159
以人为本	-10.1593
挑战	-10.1595
探讨	-10.1605
病人	-10.1605
赢得了	-10.1611
遥	-10.1612
实现了	-10.1613
如今	-10.1622
中心、	-10.1623
公布	-10.1623
爱好者	-10.1626
机器	-10.1627
,亦	-10.1628
东京	-10.1642
血液	-10.1643
安县	-10.1643
▁“	-10.1644
超级	-10.1651
总统	-10.1656
国有	-10.1657
鄂	-10.1658
历史上	-10.1658
-5	-10.166
讯	-10.1663
温泉	-10.1667
,经过	-10.1668
4.5	-10.1669
院长	-10.1672
』『	-10.1672
青春	-10.1674
小麦	-10.1675
狼	-10.1677
寻找	-10.1677
徽	-10.1678
的时间	-10.1679
测定	-10.1685
上有	-10.1687
总部	-10.1687
83	-10.1689
生产的	-10.1689
服饰	-10.169
做到	-10.1698
严谨	-10.17
,属	-10.1704
全区	-10.1713
枯	-10.1714
直到	-10.1715
闹	-10.1716
部位	-10.1723
等等	-10.1729
农业大学	-10.1733
旱	-10.1735
饮食	-10.1736
2012	-10.1739
1974年	-10.1739
梦想	-10.1743
★	-10.1746
绕	-10.1747
该校	-10.1752
.10	-10.1752
附属	-10.1753
拱	-10.1753
1500	-10.1755
就可以	-10.1755
市中心	-10.1756
一批	-10.1756
围绕	-10.1763
唇	-10.1763
一体化	-10.177
1977年	-10.1775
万平方米,	-10.1775
名家	-10.1776
为中国	-10.1776
生成	-10.1782
书籍	-10.1788
辑	-10.1789
别墅	-10.179
秘密	-10.1792
在国内	-10.1804
强烈	-10.1807
左右,	-10.1808
华东	-10.1809
菊	-10.1819
广播电视	-10.1821
志》	-10.1822
规则	-10.1822
01	-10.1822
贸	-10.1823
兴建	-10.1827
/2	-10.1832
景点	-10.1834
狭	-10.1836
契	-10.184
中专	-10.1843
,字	-10.1845
蒲	-10.1845
窝	-10.1851
邵	-10.1852
福州	-10.1858
的需求	-10.1858
语音	-10.1863
,不断	-10.1863
超市	-10.1866
康复	-10.1869
,此	-10.187
芦	-10.1871
监督管理	-10.1878
---	-10.1878
外语	-10.1881
热水	-10.1883
饶	-10.1884
骨干	-10.1888
〕	-10.1891
每一	-10.1891
”是	-10.1891
视觉	-10.1895
钢琴	-10.1895
煤炭	-10.19
炭	-10.1902
仕	-10.1906
图案	-10.1908
特定	-10.1909
战役	-10.191
红军	-10.1912
电信	-10.1914
传感器	-10.1918
本身	-10.1921
罗马	-10.1924
繁华	-10.1928
、省	-10.1933
接收	-10.1937
第一次	-10.1937
尼亚	-10.1937
兔	-10.1939
邀请	-10.194
非洲	-10.1941
咖啡	-10.1944
赖	-10.1948
忽	-10.1948
腐	-10.1948
货物	-10.1949
〔	-10.1953
普遍	-10.1954
化、	-10.1956
络	-10.1969
柴	-10.1972
10克	-10.1979
。现	-10.1979
陀	-10.1992
同学	-10.1993
有一个	-10.1993
5公里	-10.2001
船舶	-10.2002
万亩	-10.2003
特色的	-10.2005
桥梁	-10.2007
为中心	-10.2007
者的	-10.2009
少女	-10.2009
考核	-10.2018
尔·	-10.2019
村、	-10.2021
是国内	-10.2023
上网	-10.2027
科长	-10.2031
根本	-10.2035
埋	-10.2036
先进个人	-10.204
五十	-10.2042
师范学院	-10.2044
』	-10.2045
1200	-10.2046
唐代	-10.2048
生理	-10.2059
您的	-10.2067
东南亚	-10.2067
葡萄	-10.2073
窗口	-10.2076
较高	-10.2076
61	-10.2076
耳机	-10.2078
教练	-10.2082
但是	-10.2084
康熙	-10.2085
焊接	-10.209
涌	-10.2094
贼	-10.2097
料酒	-10.2097
1973年	-10.2105
闸	-10.2105
运动员	-10.2107
岗位	-10.2108
2002	-10.2109
涛	-10.211
凸	-10.2113
,属于	-10.2114
特种	-10.2114
禄	-10.2119
百姓	-10.2124
伐	-10.2129
垂直	-10.213
引起的	-10.213
环境优美	-10.2133
召开	-10.2138
在这里	-10.214
蝶	-10.214
裁	-10.2141
5克	-10.2142
荆	-10.2143
瘤	-10.2146
数:	-10.2146
都会	-10.2151
相似	-10.2157
专业从事	-10.2165
党支部	-10.2172
日期:	-10.2173
纤	-10.2174
.08	-10.2175
一所	-10.2175
流通	-10.2176
上面	-10.2177
疫	-10.2178
蒙古	-10.2181
人民医院	-10.2181
生产基地	-10.2184
介质	-10.2194
3.	-10.2196
用途	-10.2202
情感	-10.2204
,全	-10.221
糊	-10.2212
乾隆	-10.2213
庵	-10.2214
系统、	-10.2218
进出口	-10.2218
员。	-10.2219
世界上	-10.2221
每一个	-10.2226
1.8	-10.2229
主导	-10.2229
一定的	-10.223
”(	-10.2231
,历任	-10.2233
71	-10.2234
篮球	-10.2238
防护	-10.2243
》的	-10.2243
摇	-10.2245
带有	-10.2247
深度	-10.2247
明确	-10.2249
思考	-10.2249
两次	-10.2251
50克	-10.2252
1948年	-10.2253
保留	-10.2254
中国科学院	-10.2255
抑制	-10.2256
勃	-10.2262
热带	-10.2263
翰	-10.2273
党组成员	-10.2281
美术学院	-10.2288
椭圆形	-10.2288
凹	-10.2289
m2	-10.2292
岩石	-10.2293
衔	-10.2295
,长	-10.2295
一下	-10.2295
中国共产党	-10.2298
承办	-10.2302
抢	-10.2303
转化	-10.2306
芒	-10.2307
周期	-10.2308
主办	-10.2312
打开	-10.2313
全新	-10.2316
演奏	-10.2317
而成	-10.2319
搭	-10.232
→	-10.2323
同年	-10.233
局长	-10.2339
鑫	-10.2341
。本书	-10.2347
旦	-10.2347
下来	-10.235
在美国	-10.2357
×1	-10.2359
支撑	-10.236
均有	-10.2362
资深	-10.2367
添	-10.2372
1951年	-10.2373
讨	-10.2374
茨	-10.2378
出自	-10.2382
霜	-10.2384
:4	-10.2387
析	-10.2387
,形成	-10.2388
影响力	-10.2391
叉	-10.2394
开发的	-10.2394
缸	-10.2404
党组书记	-10.2406
等职。	-10.2407
注册资本	-10.241
俄	-10.2411
考虑	-10.2413
穷	-10.2414
工业大学	-10.2415
税务	-10.2417
隙	-10.2419
将其	-10.2422
风景区	-10.2425
服务中心	-10.2426
炎、	-10.2427
纺	-10.2428
三级	-10.2429
闻名	-10.2429
0.00	-10.2429
一代	-10.243
第3	-10.2434
之路	-10.2435
约1	-10.2437
.11	-10.2439
桌	-10.2439
清洗	-10.2447
白糖	-10.245
固定资产	-10.2452
初期	-10.2453
修建	-10.2454
他在	-10.2458
来的	-10.246
夷	-10.2462
蚕	-10.2464
悉	-10.2466
的原则	-10.2468
绝对	-10.2471
温州	-10.2473
伍	-10.2475
挤	-10.2477
渊	-10.2478
、黄	-10.2479
成都市	-10.2484
----	-10.2484
修复	-10.2487
现为	-10.2488
帽	-10.2488
司令	-10.2489
哲	-10.2491
驻地	-10.2494
鹅	-10.2498
常委	-10.2499
“三	-10.25
逢	-10.25
高达	-10.2505
民政	-10.252
形成的	-10.2522
前身是	-10.2523
厂家	-10.2523
接待	-10.2525
千年	-10.253
迟	-10.2531
希腊	-10.2536
姿	-10.254
拼	-10.2541
主营	-10.2545
比如	-10.2548
教授。	-10.2551
使用的	-10.2551
下属	-10.2553
口腔	-10.2553
热情	-10.2563
隋	-10.2564
遗传	-10.2571
阀门	-10.2573
遭	-10.2574
终于	-10.2576
弧	-10.2585
的各种	-10.2587
男子	-10.2587
长期从事	-10.259
开发、	-10.259
供应商	-10.2595
金奖	-10.2596
在于	-10.2598
液晶	-10.26
到达	-10.2602
1.0	-10.2603
魔法	-10.261
摄像头	-10.2611
养生	-10.2612
以为	-10.2614
.03	-10.2617
2001	-10.2618
09	-10.262
生物学	-10.2621
美食	-10.2624
-8	-10.2628
爵	-10.2629
科技大学	-10.263
尺寸:	-10.2634
创始人	-10.2639
影像	-10.2644
杭	-10.2647
花生	-10.2647
副主任医师	-10.2649
密码	-10.265
电视剧	-10.2652
新华	-10.2652
有所	-10.2653
变种	-10.2661
委书记	-10.2662
感觉	-10.2664
捐	-10.2667
是一家集	-10.267
立体	-10.267
涂料	-10.2674
驾驶	-10.2675
全国各地	-10.2675
城乡	-10.2681
排列	-10.2681
辩	-10.2682
1937年	-10.2684
不良	-10.2688
慎	-10.2688
》获	-10.2692
特别是	-10.2697
曾获	-10.2699
美洲	-10.2703
确保	-10.2703
澄	-10.2704
武汉市	-10.2706
祝	-10.2706
肢	-10.2707
庞	-10.2709
幢	-10.2709
高新技术	-10.2711
,实现	-10.2711
。如	-10.2712
是一部	-10.2717
女儿	-10.272
检察	-10.2721
不知	-10.2722
魅力	-10.2724
时候	-10.2728
来到	-10.2729
誉	-10.2729
狮	-10.273
是我国	-10.2731
洒	-10.2732
创办于	-10.2733
制药	-10.2733
崔	-10.2735
暨	-10.2736
。据	-10.2738
十四	-10.274
市政	-10.274
交通便利	-10.2744
培育	-10.2748
专业委员会	-10.2751
面粉	-10.2752
从而	-10.2752
,放入	-10.2754
旨在	-10.2756
村人。	-10.2757
故障	-10.2758
脏	-10.2759
妻	-10.2762
员、	-10.2762
唱片	-10.2763
泛	-10.2767
,积极	-10.2769
醉	-10.277
优点	-10.277
第二届	-10.2773
召	-10.2773
原子	-10.2775
一部	-10.2778
忌	-10.2778
巢	-10.278
睡	-10.2781
讨论	-10.2782
雌	-10.2783
赣	-10.2785
凭	-10.2788
技术、	-10.2792
每日	-10.2794
虚拟	-10.2794
乾	-10.2794
当前	-10.2795
全体	-10.2797
天地	-10.2801
裕	-10.2804
做法	-10.2805
领导下	-10.2807
博士,	-10.2809
,号	-10.2809
事,	-10.2809
清洁	-10.2813
俗称	-10.2819
》和《	-10.2819
胞	-10.2819
沸	-10.2822
的同时,	-10.2823
栏目	-10.2827
完成了	-10.2832
犯罪	-10.2832
好评	-10.2834
可供	-10.2836
简介	-10.2844
6-	-10.2844
1946年	-10.2844
任职	-10.2847
地产	-10.2848
,加入	-10.285
被誉为	-10.285
钦	-10.2851
凤凰	-10.2854
旋转	-10.2854
异常	-10.2857
钩	-10.2861
地点	-10.2861
各国	-10.2862
栖	-10.2864
代码	-10.2864
教育教学	-10.2868
红外	-10.287
奉献	-10.2871
荷兰	-10.2872
日报	-10.2875
中国人民解放军	-10.2876
随机	-10.2876
坦	-10.2876
容器	-10.2879
条件下	-10.2882
一场	-10.2886
汝	-10.2896
此外	-10.2898
饭店	-10.2901
图形	-10.2904
勾	-10.2906
中医药	-10.2912
变形	-10.2915
个行政村	-10.2917
所在地	-10.292
惜	-10.292
188	-10.292
扫描	-10.2921
统治	-10.2921
服务的	-10.2926
清华大学	-10.2928
为核心	-10.2928
仰	-10.293
盈	-10.2935
0.8	-10.2936
俱	-10.2937
传》	-10.294
思路	-10.2941
巴黎	-10.2943
给予	-10.2945
,还有	-10.2945
10余	-10.2948
氯	-10.2949
落实	-10.2949
°C,年降水量	-10.2952
妖	-10.2955
沧	-10.2956
房间	-10.296
离开	-10.2962
新技术	-10.2964
货币	-10.2964
领先	-10.2965
较高的	-10.2967
雕刻	-10.2969
赶	-10.2969
被称为	-10.297
菇	-10.297
主动	-10.2972
老人	-10.2972
校区	-10.2974
区别	-10.2976
“中国	-10.2977
1971年	-10.2978
夕	-10.298
1.6	-10.2984
庐	-10.2985
电站	-10.2989
昆虫	-10.2989
硕士研究生	-10.2991
贯彻	-10.2993
2.1	-10.2995
利亚	-10.2997
莎	-10.2997
蒋	-10.3004
平台,	-10.3004
很大	-10.3005
五个	-10.3005
花卉	-10.3006
科技成果	-10.3008
八年	-10.3012
。唐	-10.3013
最初	-10.3013
过滤	-10.3016
兄	-10.3017
6000	-10.3018
无限	-10.302
也就是	-10.3022
多名	-10.3023
帖	-10.3025
蕴	-10.3026
关心	-10.3027
主要有	-10.3029
挺	-10.3031
堤	-10.3032
高等教育	-10.3034
(-)	-10.3037
帐	-10.3041
称为“	-10.3042
加快	-10.3043
厂商	-10.3044
增产	-10.305
紧密	-10.305
溢	-10.3051
宽带	-10.3052
腐蚀	-10.3057
逊	-10.3057
显存	-10.306
即可。	-10.3061
指数	-10.3063
泪	-10.3064
风味	-10.3065
果实	-10.3066
客运	-10.3071
\	-10.3072
大楼	-10.3073
饲料	-10.3076
1947年	-10.3078
硫	-10.3079
十七	-10.3079
慕	-10.3079
武术	-10.3081
了《	-10.3083
出来的	-10.3088
(1)	-10.3093
有效的	-10.3095
彦	-10.3095
电磁	-10.3096
的问题	-10.3101
详	-10.3109
搜索	-10.3111
鹏	-10.3112
。”《	-10.3113
大多数	-10.3117
从此	-10.3118
原创	-10.3119
延伸	-10.3119
回:“	-10.312
放射	-10.3121
相信	-10.3123
阜	-10.3125
蓝色	-10.3126
顺利	-10.3127
毕业生	-10.3129
管理和	-10.3131
扫	-10.3132
主机	-10.3134
女孩	-10.3134
毅	-10.3134
泊	-10.3136
研究生学历	-10.3136
扬州	-10.3137
)和	-10.314
双方	-10.3143
配有	-10.315
感受	-10.3151
毫米,	-10.3152
▁●	-10.3154
查询	-10.3155
像素	-10.316
,常	-10.3161
评审	-10.3161
公主	-10.3162
年产	-10.3162
仇	-10.3163
立足	-10.3164
中小企业	-10.3166
发出	-10.3167
成立了	-10.317
的办学	-10.317
禽	-10.3175
教研	-10.3176
重建	-10.3178
畅销	-10.318
改编	-10.3181
浑	-10.3183
棱	-10.3183
活力	-10.3186
新产品	-10.3186
小儿	-10.3192
起,	-10.3194
古城	-10.3195
专业技术	-10.3197
内设	-10.3197
味道	-10.3198
的精神	-10.3199
回到	-10.32
供电	-10.3201
人民币	-10.3203
,根据	-10.3204
130	-10.3208
组成。	-10.3209
,占地面积	-10.3211
。后	-10.3211
一段	-10.3211
苹果	-10.3213
器材	-10.3213
县人民政府	-10.3215
。她	-10.3217
笔记本	-10.3218
雕塑	-10.322
家长	-10.322
勺	-10.3222
.01	-10.3223
欣	-10.3224
手动	-10.3229
笼	-10.3231
196	-10.3231
专业生产	-10.3234
×2	-10.3234
委副书记	-10.3236
卵形	-10.3252
普及	-10.3253
是目前	-10.3255
商场	-10.3257
栗	-10.326
91	-10.3262
队长	-10.3263
倡导	-10.3265
4人	-10.3269
侠	-10.327
总数	-10.3271
风光	-10.3272
递	-10.3275
命名为	-10.3277
和管理	-10.3277
基本参数	-10.3277
修改	-10.328
极为	-10.3281
精神,	-10.329
若干	-10.3291
-200	-10.3293
会长	-10.3297
昆	-10.3297
爷	-10.3297
近代	-10.3298
役	-10.3299
疮	-10.33
越南	-10.3301
加盟	-10.3301
事物	-10.3301
干事	-10.3303
这样的	-10.3303
一体	-10.3303
诞生	-10.3304
十余	-10.3304
”;	-10.3308
名誉	-10.331
预测	-10.3315
市场的	-10.3316
7-	-10.3317
联赛	-10.3323
合作关系	-10.3323
树立	-10.3324
▁中国	-10.3325
债	-10.3327
实体	-10.3328
10-	-10.3329
公元前	-10.3329
导弹	-10.3329
支付	-10.3329
欧美	-10.3329
所有的	-10.3331
颂	-10.3333
专注于	-10.334
九年	-10.3343
永远	-10.3343
大气	-10.3343
遇到	-10.3345
损失	-10.3346
瘦	-10.3349
酥	-10.3351
▁学校	-10.3353
▁5.	-10.3354
篇。	-10.3355
牵	-10.3356
问题,	-10.3356
分布在	-10.3356
1998	-10.3359
宰	-10.3362
精细	-10.3362
、白	-10.3367
密切	-10.3367
,同年	-10.3369
出的	-10.3371
些	-10.3374
撤	-10.3375
空军	-10.3377
般	-10.3377
号:	-10.3378
大量的	-10.338
净化	-10.338
添加	-10.3383
审核	-10.3383
让人	-10.3386
棚	-10.3387
锅中	-10.3389
董事	-10.3389
7个	-10.3393
绍兴	-10.3394
。当	-10.3396
通知	-10.3401
蟹	-10.3404
源于	-10.3405
组成,	-10.3415
体积	-10.3416
漂	-10.3422
甸	-10.3424
▁5、	-10.3425
铃	-10.3429
墩	-10.3429
钠	-10.3431
生活的	-10.3434
""	-10.3438
高考	-10.3438
观念	-10.3441
多数	-10.3442
总人口	-10.3442
内的	-10.3445
接近	-10.3456
对方	-10.3457
”“	-10.3459
长约	-10.3461
叛	-10.3462
树脂	-10.3464
七年	-10.3467
名字	-10.3467
享	-10.3468
信息技术	-10.3468
流传	-10.3479
240	-10.348
局、	-10.3485
硬化	-10.3486
同一	-10.3486
伤害	-10.3489
监管	-10.3492
乡政府	-10.3494
椎	-10.3495
注册资金	-10.3495
懂	-10.3496
冲击	-10.3498
润滑	-10.3498
,原	-10.35
华南	-10.3502
为企业	-10.3504
加入中国共产党,	-10.3504
胡椒粉	-10.351
_	-10.351
调味	-10.3514
灌木	-10.3514
81	-10.3515
日期	-10.3516
作出	-10.3524
油画	-10.3526
招聘	-10.3527
方式:	-10.3528
尉	-10.3531
人力资源	-10.3531
▁支持	-10.3532
里面	-10.3538
予	-10.3544
代表作	-10.3544
宁县	-10.3545
职责	-10.3548
等领域	-10.3552
痰	-10.3558
网卡	-10.3561
宪	-10.3564
平台。	-10.3567
之地	-10.3568
上了	-10.3571
信赖	-10.3575
冷却	-10.358
感情	-10.3581
一片	-10.3583
动脉	-10.3584
斯·	-10.3587
诉	-10.3589
省、市	-10.3591
由此	-10.3593
一只	-10.3595
表彰	-10.3598
巨大	-10.3601
敢	-10.3604
散热	-10.3605
和发展	-10.3608
相关的	-10.3611
前身为	-10.3613
提取	-10.3618
▁*	-10.3621
物业	-10.3622
的关系	-10.3622
宇宙	-10.3623
1936年	-10.3624
#	-10.3625
博士后	-10.3627
挡	-10.3627
称号。	-10.3628
渣	-10.3629
矿物	-10.3629
基部	-10.3629
万余	-10.3637
喝	-10.3639
-20	-10.3639
选用	-10.364
区政府	-10.3641
的核心	-10.3645
本着	-10.3648
2.4	-10.3648
新城	-10.3651
完整的	-10.3651
▁目前	-10.3658
浓度	-10.3658
相比	-10.3661
最低	-10.3661
唯一的	-10.3667
无锡	-10.3669
诏	-10.3675
中国大陆	-10.368
▁·	-10.3681
碟	-10.3682
以上的	-10.3683
(如	-10.3684
暑	-10.3687
偷	-10.3691
机床	-10.3692
招生	-10.3692
,如果	-10.3692
环节	-10.3694
便捷	-10.3695
营造	-10.3696
8-	-10.37
恨	-10.3701
“”	-10.3703
工作人员	-10.3704
毫	-10.3704
现已	-10.3712
是集	-10.3712
趋	-10.3716
相邻	-10.3716
采集	-10.3717
-7	-10.372
,就是	-10.3726
拖	-10.3728
叫做	-10.373
艺人	-10.3732
拌	-10.3732
,学校	-10.3734
机构。	-10.3737
少数民族	-10.3737
逻辑	-10.3737
生。	-10.3739
妃	-10.374
1939年	-10.3743
溶液	-10.3744
辆	-10.3748
颗	-10.3749
分枝	-10.3749
专项	-10.3749
插槽	-10.3751
领先的	-10.3752
国立	-10.3752
|	-10.3752
后勤	-10.3754
之处	-10.3755
合作伙伴	-10.3762
开业	-10.3764
每次	-10.3767
五金	-10.377
副秘书长	-10.3775
学生的	-10.3778
急性	-10.3782
纳米	-10.3785
8人	-10.3786
曰:“	-10.3787
区内	-10.3789
合法	-10.3797
处处长	-10.3798
氮	-10.3803
06	-10.3803
法制	-10.3807
斯坦	-10.3814
路线	-10.3815
扮演	-10.3818
损伤	-10.3818
男女	-10.3819
大地	-10.3819
薛	-10.3822
农民人均纯收入	-10.3824
有限公司是一家	-10.3826
拉丁	-10.383
0.6	-10.384
情报	-10.3841
所需	-10.3842
称之为	-10.3848
内有	-10.3852
率先	-10.3854
朝阳	-10.3857
象征	-10.3857
臭	-10.3859
海岸	-10.3861
嫁	-10.3862
谦	-10.3863
机,	-10.3866
为一体	-10.3866
烟台	-10.3866
最好的	-10.3869
处,	-10.3872
零售	-10.3872
发病	-10.3873
。而	-10.3873
安全生产	-10.3884
产于	-10.3885
1999	-10.3886
其中农业人口	-10.3887
无论	-10.3887
的理想	-10.3888
面积1	-10.3892
妇科	-10.3895
别人	-10.3895
叙	-10.3898
,只	-10.3898
主管部门	-10.3899
使用。	-10.3901
後	-10.3901
10年	-10.3901
远程	-10.3902
先进集体	-10.3902
太阳能	-10.3904
榆	-10.3905
援	-10.3907
高素质	-10.3907
凶	-10.3907
大酒店	-10.3909
。我们	-10.3909
广泛应用于	-10.391
发动	-10.3912
0～	-10.3913
、上海	-10.3914
尚书	-10.3915
港口	-10.3915
网页	-10.3916
报警	-10.392
:支持	-10.3922
、服务	-10.3922
设备、	-10.3929
第八	-10.393
相传	-10.393
学名	-10.3933
传递	-10.3933
税收	-10.3935
雁	-10.3941
奋斗	-10.3943
显示屏	-10.3944
(原	-10.3945
分享	-10.3948
30余	-10.3951
对比	-10.3952
讲述	-10.3953
仪表	-10.3954
1.3	-10.3957
水中	-10.3963
题材	-10.3965
熙	-10.3966
,曾任	-10.3968
精彩	-10.3969
技术人员	-10.397
忙	-10.3974
财经	-10.3977
协会会员	-10.3978
1940年	-10.3981
常见的	-10.3983
群岛	-10.3984
码头	-10.3986
320	-10.3987
(2)	-10.399
大约	-10.3994
指示	-10.3995
轧	-10.3995
讲述了	-10.3996
》、《中国	-10.3997
江县	-10.3998
(简称	-10.3998
首家	-10.3999
导师	-10.4002
0.4	-10.4003
24小时	-10.4003
观测	-10.4003
基础上	-10.4005
、新	-10.4005
牡丹	-10.4005
毛泽东	-10.4007
首席	-10.4008
强调	-10.4009
全长	-10.4011
界面	-10.4011
卸	-10.4014
终端	-10.4014
环境保护	-10.4015
提出了	-10.4015
1人,	-10.4016
妹	-10.402
科普	-10.402
2.2	-10.402
等)	-10.402
差异	-10.4022
水处理	-10.4022
特点:	-10.4025
农产品	-10.4031
泰国	-10.4035
清新	-10.4036
新区	-10.4038
水分	-10.4043
饱	-10.4045
叹	-10.4048
振动	-10.405
不再	-10.4052
教授、	-10.4052
琳	-10.4053
科学研究	-10.4053
深刻	-10.4054
太平洋	-10.4055
峡	-10.4058
拆	-10.406
个月	-10.4061
防水	-10.4061
和社会	-10.4062
有关部门	-10.4064
响应	-10.4064
最小	-10.4064
盾	-10.4066
1.4	-10.4066
说,	-10.4066
保修	-10.4069
斤	-10.4071
权利	-10.4074
财富	-10.4076
工会	-10.4078
1935年	-10.408
锅炉	-10.4081
煤矿	-10.4083
,致力于	-10.4088
优势,	-10.4089
青岛市	-10.4089
百余	-10.4089
伞	-10.4094
技术和	-10.4094
搜	-10.4095
问题的	-10.4095
。因	-10.4097
设定	-10.4097
喀	-10.4097
,特别是	-10.4099
促	-10.4103
。这种	-10.4107
经济效益	-10.4109
铅	-10.4111
,采用	-10.4116
科研项目	-10.4116
眼睛	-10.4116
,现有	-10.4116
缴	-10.4117
失去	-10.4118
更为	-10.4119
人大	-10.4123
手册	-10.4125
物品	-10.4125
千米	-10.4126
公司。	-10.4129
攀	-10.4129
浇	-10.413
学报	-10.4131
警察	-10.4132
新颖	-10.4133
手法	-10.4146
乃至	-10.4147
()、	-10.4149
练习	-10.4149
澳门	-10.4151
水果	-10.4155
衬	-10.4155
生产能力	-10.4156
政协委员	-10.4157
共和国	-10.4159
3公里	-10.4163
肌肤	-10.4164
薯	-10.4168
一本	-10.4169
而言	-10.4179
挑	-10.4181
授予“	-10.4183
-)	-10.4187
游客	-10.4189
县人。	-10.4192
宁夏	-10.4193
▁最大	-10.4201
礼品	-10.4203
新生	-10.4206
出身	-10.4208
允许	-10.4213
氟	-10.4214
橙	-10.4216
无毛	-10.4218
素质教育	-10.4219
瑶	-10.4224
的目标	-10.4225
审批	-10.4233
伦敦	-10.4237
诸多	-10.4237
能力。	-10.424
教委	-10.4242
全新的	-10.4244
悠	-10.4247
胺	-10.4247
赢得	-10.4251
真空	-10.4253
解放军	-10.4255
镇政府	-10.4259
脾	-10.4261
能力,	-10.4261
》杂志	-10.4263
竞争力	-10.4265
7.5	-10.4267
1934年	-10.427
铸造	-10.4275
主治	-10.4276
通话	-10.4277
合作,	-10.428
艇	-10.4281
考古	-10.4283
桂林	-10.4289
深受	-10.4294
观赏	-10.4295
皖	-10.4296
矩	-10.4296
的宗旨	-10.4305
体内	-10.4307
扑	-10.4313
1933年	-10.4313
长安	-10.4315
释义	-10.4315
依靠	-10.4315
及其他	-10.4315
支队	-10.4315
.06	-10.4319
农作物	-10.4319
和其他	-10.432
社科	-10.432
(.)	-10.4322
发展成为	-10.4324
2公里	-10.4326
公交	-10.4326
美观	-10.4329
一天	-10.4329
补充	-10.4337
十九	-10.4337
氛围	-10.4338
华北	-10.4338
发送	-10.4338
则是	-10.4341
定期	-10.4344
中西医结合	-10.435
加入中国共产党。	-10.4352
疗效	-10.4353
拓	-10.4356
战国	-10.4357
平米	-10.4357
县人,	-10.4361
两大	-10.4363
禹	-10.4364
在这	-10.4367
一块	-10.4368
厨	-10.437
沿海	-10.4382
竟	-10.4384
局部	-10.4386
的形式	-10.4386
清朝	-10.4387
东莞	-10.4392
冀	-10.4394
球场	-10.4395
100克	-10.4396
四十	-10.4398
实业	-10.4398
滞	-10.4404
ˇ	-10.4404
国民	-10.4405
腊	-10.4408
收费	-10.4408
疼痛	-10.4414
会计师	-10.4414
旅行	-10.4416
排水	-10.4418
全日制	-10.4419
随后	-10.4424
研究》	-10.4425
鳍	-10.4425
惑	-10.4427
人群	-10.4434
行政管理	-10.4434
一百	-10.4434
当然	-10.4434
伟大	-10.4435
广泛的	-10.4437
目录	-10.4439
厚度	-10.4442
工艺美术	-10.4443
搅拌	-10.4443
释放	-10.4445
史上	-10.4446
一层	-10.4447
总线	-10.4447
是我们	-10.4452
半岛	-10.4457
是美国	-10.4458
法人	-10.446
上述	-10.446
消除	-10.4463
2014年	-10.4464
孢子	-10.4469
韧	-10.447
。宋	-10.4475
1/	-10.4477
用地	-10.448
等农作物。	-10.448
邮件	-10.4481
网友	-10.4482
,是中国	-10.4483
利润	-10.4487
匠	-10.4489
中原	-10.4491
!”	-10.4491
东南部	-10.4493
草原	-10.4494
法律法规	-10.4495
做出了	-10.4496
(公元	-10.4497
拉斯	-10.4499
教学工作	-10.4499
禾	-10.4499
四季	-10.4501
工作室	-10.4501
披	-10.4503
》中的	-10.4504
。现为	-10.4505
西北部	-10.4506
融资	-10.4508
突然	-10.4509
责	-10.4513
使其	-10.4517
怡	-10.452
内涵	-10.4521
140	-10.4523
1997	-10.4525
危机	-10.4525
1600	-10.4528
奥运会	-10.4529
真诚	-10.4531
市民	-10.4532
模特	-10.4537
带动	-10.4538
转变	-10.454
族自治县	-10.4544
还可以	-10.4545
来说	-10.4546
克斯	-10.4546
性强	-10.4546
-10	-10.4549
弹性	-10.455
螺旋	-10.4557
概	-10.4557
取出	-10.4557
历代	-10.4559
分局	-10.4559
违	-10.4566
1.1	-10.4568
知识产权	-10.4573
男人	-10.4574
ー	-10.4575
最好	-10.4579
棕	-10.4579
的目的	-10.4586
器件	-10.4587
组长	-10.4593
而成。	-10.4594
研究方向	-10.4597
剥	-10.4598
扭	-10.4601
杂交	-10.4603
挖	-10.4603
著有《	-10.4604
烫	-10.4604
咏	-10.4607
入党	-10.4609
研究工作	-10.461
1996	-10.4612
的基础	-10.4612
8000	-10.4613
虞	-10.4615
温馨	-10.4615
又有	-10.4622
晒	-10.4623
注射	-10.4625
携	-10.4626
协作	-10.4628
钱,	-10.4629
饰演	-10.463
音乐学院	-10.4633
汉字	-10.4633
商会	-10.4637
副局长	-10.4638
包括:	-10.4638
直立	-10.4639
管理人员	-10.4639
±	-10.464
十佳	-10.464
1人	-10.4641
产品。	-10.4644
风情	-10.4644
最近	-10.4648
怨	-10.4652
而成的	-10.4652
开创	-10.4653
权益	-10.4653
时期的	-10.4653
1941年	-10.4654
弟子	-10.4659
1942年	-10.4662
箭	-10.4667
9787	-10.4668
便于	-10.4669
新兴	-10.4672
消息	-10.4674
爪	-10.4675
恰	-10.4676
,这是	-10.4676
综	-10.4676
颁发的	-10.4682
不但	-10.4682
怎么	-10.4683
,而是	-10.4686
加入中国共产党	-10.4688
一类	-10.4696
350	-10.4699
遍布	-10.4703
,努力	-10.4705
文明单位	-10.4707
20余	-10.4711
光绪	-10.4716
成型	-10.4717
1967年	-10.4718
大专	-10.4726
,你	-10.4726
场地	-10.4728
巴西	-10.4728
高等学校	-10.4729
高质量	-10.4735
,负责	-10.4736
(学名:)	-10.4744
馅	-10.475
传承	-10.4751
戏曲	-10.4754
细菌	-10.4754
岁的	-10.4755
办公室、	-10.4757
观点	-10.476
1930年	-10.476
览	-10.4763
长春	-10.4763
丑	-10.4765
起到	-10.4765
浪漫	-10.4766
精选	-10.4771
热爱	-10.4775
、电子	-10.4779
加速	-10.4781
4.	-10.4782
预算	-10.4783
官方	-10.4785
纬	-10.4785
理学	-10.4787
尸	-10.479
色泽	-10.479
砌	-10.479
主要用于	-10.4791
企业家	-10.4791
上升	-10.4793
东莞市	-10.4795
微生物	-10.4796
历经	-10.4796
亨	-10.4797
,甚至	-10.4798
于一体	-10.4799
5.5	-10.4803
2号	-10.4804
矣	-10.4805
鲍	-10.4805
泉州	-10.481
之外	-10.4814
主板	-10.4815
家乡	-10.4826
生产设备	-10.4826
必要	-10.4827
神话	-10.4827
纽	-10.4828
劳动模范	-10.4833
姑	-10.4834
科研成果	-10.4835
捞出	-10.4836
繁荣	-10.4837
观光	-10.4839
优异	-10.4842
也称	-10.4843
中南	-10.4843
设计,	-10.4843
精度	-10.4845
骨干教师	-10.4846
身高	-10.485
河流	-10.4852
的内容	-10.4852
鼠标	-10.4856
宋代	-10.4857
三种	-10.4859
海内外	-10.486
难以	-10.486
绒	-10.4866
傲	-10.4871
。历任	-10.4874
伙	-10.4875
劫	-10.4876
为主要	-10.4879
型企业	-10.4879
总局	-10.4879
哀	-10.488
胡萝卜	-10.4881
有时	-10.4884
、小	-10.4886
相应的	-10.4888
荣誉称号	-10.489
痕	-10.4894
总体	-10.4896
多少	-10.4899
描述:	-10.49
途径	-10.49
1944年	-10.4904
基础设施	-10.4907
使得	-10.4907
总裁	-10.4908
体重	-10.4908
精湛	-10.4908
活动的	-10.4912
管理系统	-10.4915
男性	-10.4915
弓	-10.4916
典型的	-10.4916
固体	-10.4917
锂电池	-10.4917
爆发	-10.4928
之乡	-10.4928
酮	-10.493
深厚	-10.493
的意思	-10.4932
商家	-10.4934
)人。	-10.4935
委员,	-10.4935
较多	-10.4937
王朝	-10.4939
米,年平均气温	-10.494
等行业	-10.4941
勋	-10.4942
人间	-10.4942
籍贯	-10.4942
病、	-10.4945
、西	-10.4946
炖	-10.4949
笔名	-10.4952
扩	-10.4953
政治部	-10.4955
的研发	-10.4956
姬	-10.4957
3.0	-10.4959
:1.	-10.4962
起点	-10.4963
物资	-10.4964
涵盖	-10.4966
绩	-10.4966
区、	-10.4966
农场	-10.4971
业界	-10.4975
太子	-10.4976
教研室	-10.4978
灰色	-10.4982
处。	-10.4985
工程学院	-10.4986
厌	-10.4988
文化艺术	-10.4988
航天	-10.4988
夫人	-10.4989
。自	-10.4989
跌	-10.4991
穿越	-10.4992
洗净,	-10.4993
的话	-10.4997
前往	-10.5
灾害	-10.5001
尹	-10.5001
精美	-10.5003
作品《	-10.5003
实时	-10.5004
鲜明	-10.5006
两人	-10.5021
肯定	-10.5021
谜	-10.5022
积累	-10.5031
昏	-10.5033
繁殖	-10.5036
中国当代	-10.5036
怪兽	-10.5039
祖国	-10.5043
服务于	-10.5044
户外	-10.5048
.04	-10.505
国王	-10.506
秉承“	-10.5063
的变化	-10.5064
甫	-10.5064
。为了	-10.5069
2项	-10.5071
附件	-10.5072
携手	-10.5072
去皮	-10.5073
部部长	-10.5074
徐州	-10.5074
15克	-10.5076
常规	-10.5081
今年	-10.5085
外交	-10.5086
系数	-10.5087
》一书	-10.5087
企事业单位	-10.5089
合资	-10.5093
属性	-10.5094
执法	-10.5097
规范化	-10.5097
,最后	-10.5097
报》、《	-10.5099
法院	-10.5099
菩萨	-10.5107
作曲	-10.5108
计划生育	-10.5109
面上	-10.511
妻子	-10.5112
该书	-10.5113
商城	-10.5115
疗法	-10.5121
心灵	-10.5121
的综合	-10.5123
德育	-10.5124
帆	-10.5125
时期,	-10.5129
发展规划	-10.513
框	-10.513
资助	-10.5131
桶	-10.5132
少数	-10.5132
菱	-10.5136
重要参数	-10.5137
较强	-10.5137
在上海	-10.5139
第4	-10.5142
主力	-10.5142
正是	-10.5143
抗日战争	-10.5145
实习	-10.5146
用户的	-10.5147
的发展,	-10.5149
失败	-10.515
矿山	-10.515
科室	-10.5151
两岸	-10.5152
喻	-10.5152
东北部	-10.5153
可爱	-10.5154
(即	-10.5155
爱国	-10.5156
注:“	-10.516
腹部	-10.5161
的好	-10.5163
竭	-10.5164
辟	-10.5164
光滑	-10.5165
性。	-10.5165
▁(2)	-10.5168
民营企业	-10.5168
平方米,建筑面积	-10.5169
学位	-10.517
即将	-10.5171
也可	-10.5173
多元化	-10.5175
英文名	-10.5175
狐	-10.5176
方针	-10.5181
割	-10.5185
成功的	-10.5187
:5	-10.5188
六十	-10.5189
去世	-10.519
,这种	-10.519
0.7	-10.5193
吻	-10.5195
的综合性	-10.5196
划分	-10.5198
账	-10.5198
陇	-10.52
等职	-10.5203
地上	-10.5205
科科长	-10.5209
注入	-10.521
”之	-10.521
斩	-10.5211
村庄	-10.5215
理想	-10.5216
好评。	-10.5218
活跃	-10.5218
是一本	-10.5218
,原名	-10.5219
大夫	-10.5222
元件	-10.5223
香味	-10.5223
现状	-10.5223
。同时	-10.5226
身上	-10.5226
,既	-10.5227
评选	-10.5227
趋势	-10.5228
扰	-10.5232
科学家	-10.5235
货运	-10.5236
栽	-10.5239
街道办事处	-10.5241
西南部	-10.5241
▁5	-10.5242
事实	-10.5242
书院	-10.5242
化合物	-10.5245
研究成果	-10.5248
列入	-10.5255
火山	-10.5258
文联	-10.5259
毕业,	-10.5265
潮流	-10.5265
宣布	-10.5266
是:	-10.5266
鞘	-10.5271
,又称	-10.5273
建筑物	-10.5277
厂、	-10.5278
互相	-10.5279
副校长	-10.5279
观音	-10.528
家园	-10.5281
蜡	-10.5282
贫困	-10.5283
一期	-10.5283
为本	-10.5284
竞	-10.5284
燃烧	-10.5284
经》	-10.529
-9	-10.5296
,支持	-10.5297
模范	-10.5304
返回	-10.5305
昔	-10.5306
口味	-10.5306
坎	-10.5309
前沿	-10.5311
务实	-10.5312
另有	-10.5316
生产企业	-10.5319
科学院	-10.5319
防御	-10.5321
危害	-10.5321
搬	-10.5321
有了	-10.5321
中等	-10.5323
有人	-10.5323
向上	-10.5325
游击队	-10.5326
停车场	-10.5329
,为了	-10.5329
剧团	-10.5329
360	-10.5337
屡	-10.5342
新鲜	-10.5342
2)	-10.5342
,占地	-10.5344
口径	-10.5346
让你	-10.5348
物体	-10.5348
区委	-10.5349
的音乐	-10.535
院士	-10.535
十字	-10.5351
力求	-10.5351
的时候,	-10.5352
管理,	-10.5352
引领	-10.5353
光泽	-10.5354
(16	-10.5357
作用,	-10.5359
常务理事	-10.5359
太原	-10.5361
锅内	-10.5363
问题。	-10.5363
国际化	-10.5366
审判	-10.5371
验收	-10.5372
仍然	-10.5375
1%	-10.538
(4)	-10.5382
结晶	-10.5383
原有	-10.5383
联邦	-10.5384
历史悠久	-10.5384
服务、	-10.5385
2.8	-10.5387
一道	-10.5388
都能	-10.5389
彻底	-10.5389
男汉族	-10.5392
枢	-10.5395
1)	-10.5397
分校	-10.5399
起了	-10.5401
下面	-10.5405
为广大	-10.5407
▁-	-10.541
诊治	-10.541
瑟	-10.5411
竖	-10.5411
2.3	-10.5411
定制	-10.5411
巨大的	-10.5411
山脉	-10.5413
,同时也	-10.5413
/3	-10.5414
水产	-10.5416
花序	-10.5416
片,	-10.5416
黔	-10.5418
1/2	-10.5418
长城	-10.5425
曲线	-10.543
晕	-10.543
中国古代	-10.5431
定点	-10.5437
紫色	-10.5437
二次	-10.5438
司马	-10.5441
地段	-10.5441
南京市	-10.5444
应急	-10.5446
谐	-10.5449
工作中	-10.5452
精华	-10.5452
6.5	-10.5454
化妆品	-10.5455
殷	-10.5457
始终坚持	-10.5459
拌匀	-10.546
面积约	-10.5462
奖”	-10.5462
谭	-10.5465
下降	-10.5466
就读于	-10.5468
经贸	-10.5471
绥	-10.5472
方言	-10.5473
-12	-10.5475
足球运动员,	-10.548
因其	-10.5485
石化	-10.5489
工程、	-10.5492
了大量	-10.5492
。2006年	-10.5494
光电	-10.5495
生殖	-10.5497
杭州市	-10.5497
地域	-10.5502
宽度	-10.5502
陕	-10.5509
卜	-10.5509
个性化	-10.5509
▁我们	-10.551
教学楼	-10.551
低温	-10.5511
强大	-10.5512
任中共	-10.5514
设备的	-10.5519
▁我	-10.552
错误	-10.5528
淳	-10.5528
当今	-10.5529
得以	-10.5529
师从	-10.5533
披针形	-10.5533
170	-10.5534
1943年	-10.5534
恭	-10.5536
▁2008年	-10.5536
第三届	-10.554
设备,	-10.5544
通过了	-10.5548
华侨	-10.555
、南	-10.5551
》,《	-10.5554
把握	-10.5554
后任	-10.5555
山地	-10.5556
疆	-10.5557
方法。	-10.5559
的价格	-10.5559
经营管理	-10.556
选手	-10.5563
申报	-10.5563
基金会	-10.5567
猴	-10.5568
匪	-10.557
历程	-10.5573
即使	-10.5576
瑞士	-10.5578
、日本	-10.5578
5分钟	-10.5579
地理位置优越	-10.5581
遮	-10.5581
临时	-10.5582
的学生	-10.5587
等方面的	-10.5588
主持人	-10.559
坚持“	-10.5593
贪	-10.5595
枫	-10.5597
为人	-10.5597
许可证	-10.5599
命运	-10.5612
专职	-10.5615
南海	-10.5616
效力	-10.5617
海南省	-10.5617
确	-10.5618
怎样	-10.5619
函授	-10.5622
发展战略	-10.5623
少量	-10.5623
仪式	-10.5623
,是一家	-10.5627
剧院	-10.563
友好	-10.563
顶端	-10.563
乐器	-10.5632
保温	-10.5635
加以	-10.5639
渗	-10.564
制冷	-10.5641
疾病的	-10.5644
全镇	-10.5648
技术服务	-10.5649
牛肉	-10.5653
流域	-10.5654
小火	-10.5654
大理	-10.5656
1995	-10.5661
县人	-10.5665
莲花	-10.5665
()。	-10.5665
分解	-10.5665
总是	-10.5668
2人,	-10.5668
吞	-10.567
立即	-10.5672
处长	-10.5673
挥	-10.5678
の	-10.5679
间的	-10.568
适当	-10.5681
民俗	-10.5682
盐业	-10.5684
。如果	-10.5685
说:“	-10.5686
年来,	-10.5686
承诺	-10.5687
稳定性	-10.5688
四周	-10.5689
的一部	-10.569
籽	-10.5694
铁道	-10.5697
研究室	-10.5697
。此外,	-10.5698
萼	-10.5702
推出的	-10.5703
亩,其中	-10.5705
国画	-10.5706
杉	-10.5707
较大的	-10.5707
相应	-10.5709
,简称	-10.5711
并在	-10.5712
优良的	-10.5714
轨道	-10.5717
麟	-10.5717
渗透	-10.5718
,便	-10.5718
电台	-10.5719
判断	-10.572
匹	-10.572
187	-10.5721
经济开发区	-10.5721
气息	-10.5723
,因而	-10.5728
大门	-10.5729
顽	-10.5729
内存容量	-10.5731
筛	-10.5733
1931年	-10.5734
白云	-10.5735
256	-10.5736
2%	-10.5738
妮	-10.5739
应用于	-10.5742
,遂	-10.5747
。现有	-10.5747
足球俱乐部。	-10.5747
冶	-10.5748
1929年	-10.575
日军	-10.5752
村隶属于云南省	-10.5753
选举	-10.5755
1932年	-10.5757
欣赏	-10.5757
级别	-10.5758
通风	-10.5759
旨	-10.5759
锌	-10.576
经验丰富	-10.5761
由中国	-10.5763
剿	-10.5764
兼职	-10.5765
晶体	-10.5765
数百	-10.5766
巾	-10.5768
罩	-10.5772
10分钟	-10.5773
皱	-10.5774
投影	-10.5775
工业园区	-10.5776
抹	-10.5776
30克	-10.5779
隧道	-10.5779
南通	-10.5784
挖掘	-10.5786
社会各界	-10.5787
2人	-10.5789
学专业	-10.579
使命	-10.5791
省教育厅	-10.5793
见于	-10.5794
木材	-10.5795
获取	-10.5799
房、	-10.5801
复制	-10.5802
泻	-10.5803
皇家	-10.5813
细腻	-10.5818
是日本	-10.5818
同时也	-10.5818
术语	-10.5818
和技术	-10.582
书画家	-10.5822
,又名	-10.5823
贝尔	-10.5825
王国	-10.5825
交界	-10.5827
常州	-10.5827
个自然村	-10.5831
全自动	-10.5835
枢纽	-10.5835
值得	-10.5837
杏	-10.5838
自幼	-10.5842
寿命	-10.5844
和服务	-10.5845
遣	-10.5845
于2010年	-10.585
被授予	-10.5854
本科学历	-10.5855
典雅	-10.5856
时代的	-10.5856
渝	-10.5861
那个	-10.5864
?”	-10.5864
龙头	-10.5872
语:	-10.5874
交叉	-10.5877
浓郁	-10.5884
对应	-10.5887
调研	-10.5889
用水	-10.589
1400	-10.5891
,分别	-10.5892
10个	-10.5894
过程中,	-10.5895
专业技术人员	-10.5895
隶	-10.5897
诉讼	-10.5898
20年	-10.5909
的应用	-10.591
锈	-10.5918
擦	-10.5918
.02	-10.5921
褐	-10.5923
擅	-10.5923
主流	-10.5923
事迹	-10.5924
的基础上,	-10.5925
钝	-10.5925
蓝牙	-10.5925
第九	-10.5929
社会发展	-10.593
进取	-10.5931
▁2009年	-10.5931
一张	-10.5931
紧邻	-10.5932
整形	-10.5934
消失	-10.5934
变得	-10.5936
全身	-10.594
主任,	-10.594
举办的	-10.5941
某一	-10.5942
柔毛	-10.5943
党委委员	-10.5944
剧情	-10.5945
顶级	-10.5945
对照	-10.5947
苔	-10.5949
领导的	-10.5951
第一届	-10.5955
木马	-10.5958
化石	-10.5961
出场	-10.5962
东邻	-10.5962
潍坊	-10.5962
版)	-10.5965
胶囊	-10.5966
办公厅	-10.5967
职业教育	-10.597
作者:	-10.597
房产	-10.5971
焉	-10.5972
家协会会员	-10.5975
186	-10.5975
外部	-10.5978
.05	-10.598
。同时,	-10.5981
遵循	-10.5982
鱼类	-10.5988
丈	-10.5992
投资者	-10.5993
居委会	-10.5994
迅	-10.5994
优惠	-10.5995
马来西亚	-10.5997
一日	-10.6
有力	-10.6004
点击	-10.6006
研讨会	-10.601
形势	-10.601
108	-10.6017
财产	-10.6018
秉	-10.602
萝卜	-10.602
祛	-10.6023
停止	-10.6025
存在的	-10.6027
糖尿病	-10.603
为您	-10.6031
人民法院	-10.6031
8%	-10.6032
某种	-10.6034
更高	-10.6034
105	-10.6041
最早的	-10.6048
高原	-10.6051
卤	-10.6051
国家自然科学基金	-10.6053
发酵	-10.6055
香菇	-10.6055
大专学历	-10.6056
邱	-10.6057
一颗	-10.6057
福利	-10.6061
曰:‘	-10.6063
芝麻	-10.6064
珠海	-10.6066
厢	-10.6067
副院长	-10.6067
无数	-10.6068
队员	-10.6071
剂、	-10.6072
玩具	-10.608
反对	-10.608
绝缘	-10.6084
、北京	-10.6084
饮料	-10.6087
麦克风	-10.609
平安	-10.6092
蹄	-10.6094
,总	-10.6097
表明	-10.6098
聚集	-10.6098
蓬	-10.6101
的名字	-10.6104
干扰	-10.6106
生产、	-10.6106
劝	-10.6107
全世界	-10.6108
精致	-10.6109
改革开放	-10.6109
贵阳	-10.6111
贯穿	-10.6111
个村民小组	-10.6113
中西	-10.6113
指南	-10.6114
超越	-10.6116
认定	-10.6117
可以在	-10.6132
竣工	-10.6132
很快	-10.6133
为客户	-10.6134
轰	-10.6136
丞	-10.6136
尧	-10.6138
霉	-10.6139
省部级	-10.6139
家用	-10.6142
办公室副主任	-10.6143
....	-10.6143
导航	-10.6145
是一位	-10.6147
,这些	-10.6148
艺术学院	-10.6149
神奇	-10.6149
视角	-10.6152
5400	-10.6156
(包括	-10.6156
地理位置	-10.6159
维持	-10.616
描写	-10.6161
省政府	-10.6165
坤	-10.6167
当选为	-10.617
▁二	-10.6172
撞	-10.618
奖项	-10.6187
的经营理念	-10.6191
同类	-10.6193
扎实	-10.6193
檐	-10.6196
提高了	-10.6197
婚姻	-10.6203
恐	-10.6204
此时	-10.6204
子公司	-10.6205
教学质量	-10.6206
,现为	-10.6207
(,)	-10.6208
部件	-10.6209
切割	-10.6212
阿拉伯	-10.6212
实际上	-10.6215
,现在	-10.6217
一份	-10.6217
不用	-10.6219
可用	-10.6219
延长	-10.622
消耗	-10.6221
μ	-10.6222
日益	-10.6222
90%	-10.6225
游戏中	-10.6226
让您	-10.6228
控制系统	-10.6228
以此	-10.6231
路、	-10.6232
开水	-10.6232
美味	-10.6233
入口	-10.6234
可选	-10.6235
马克思主义	-10.6236
,形成了	-10.6238
栓	-10.6239
租赁	-10.6242
跟踪	-10.6245
共青团	-10.6249
纠错	-10.6249
歇	-10.6253
实例	-10.6258
村。	-10.6265
成品	-10.6266
澳	-10.6267
萍	-10.6267
而成,	-10.6267
本人	-10.6271
及相关	-10.6273
▁用法	-10.6273
健全	-10.6275
等等。	-10.6276
球形	-10.6281
卓越	-10.6282
一对	-10.6283
同行	-10.6283
别名	-10.6286
彼	-10.6286
初步	-10.6289
移民	-10.629
祖籍	-10.6291
设计的	-10.6293
家。	-10.6294
屠	-10.6297
博览会	-10.6297
框架	-10.6301
熟悉	-10.6302
光盘	-10.6304
相继	-10.6304
公众	-10.6304
人大代表	-10.6305
堪	-10.6318
东路	-10.6321
要素	-10.6324
更好的	-10.6324
效果。	-10.6327
出血	-10.6327
上部	-10.6328
后又	-10.6332
▁二、	-10.6333
125	-10.6334
▁2006年	-10.6336
〉	-10.6337
奎	-10.6339
外壳	-10.634
敦	-10.634
物业管理	-10.6341
体长	-10.6341
为1	-10.6342
收购	-10.6344
。同年	-10.6349
配方	-10.6349
高清	-10.6349
宿舍	-10.635
建筑工程	-10.6352
物种	-10.6354
枕	-10.6357
电阻	-10.6357
自行	-10.636
栖息	-10.636
衍	-10.6362
,深受	-10.6364
妈妈	-10.6365
罢	-10.6371
主任、	-10.6371
毫升	-10.6373
副会长	-10.6374
吟	-10.6375
经费	-10.6376
初级	-10.6377
是经	-10.638
业余	-10.6381
,不仅	-10.6381
住房	-10.6382
潜力	-10.6382
事。	-10.6387
进攻	-10.639
早年	-10.6391
旅客	-10.6392
坦克	-10.6393
孜	-10.6398
三星	-10.6398
副主任、	-10.6398
矮	-10.64
,是一所	-10.6405
;负责	-10.6405
亦称	-10.6412
喉	-10.6414
(或	-10.6417
缺乏	-10.6418
灌溉	-10.6419
残疾人	-10.642
备用	-10.642
教程	-10.6424
初级中学	-10.6425
下游	-10.6425
委员、	-10.6426
用作	-10.6427
庸	-10.6428
3人	-10.643
3.2	-10.6431
涵	-10.6434
发展有限公司	-10.6435
专业毕业	-10.6436
功能:	-10.6436
寓	-10.6437
卫生部	-10.6437
。目前,	-10.644
瑞典	-10.644
的一所	-10.6441
1993	-10.6441
胀	-10.6448
▁(3)	-10.6451
优秀奖	-10.6452
代替	-10.6454
沉积	-10.6456
香油	-10.6457
埠	-10.6457
,坚持	-10.6457
大于	-10.6458
,后来	-10.6458
细节	-10.6459
主张	-10.6461
工资	-10.6462
肃	-10.6462
主角	-10.6463
封闭	-10.6464
藏书	-10.6465
台北	-10.6466
产地	-10.6467
岁时	-10.6469
。但是	-10.647
恐怖	-10.647
分钟车程	-10.647
”,“	-10.6471
广阔	-10.6471
抛	-10.6472
450	-10.6475
祸	-10.6476
录》	-10.6477
管理的	-10.6477
工程技术	-10.648
、盐	-10.648
垦	-10.648
宏观	-10.6488
机动	-10.6489
稳定的	-10.649
〈	-10.6491
高山	-10.6496
一处	-10.6501
膝	-10.6502
空中	-10.6505
座椅	-10.6505
80%	-10.6505
女,	-10.6507
德·	-10.6507
上游	-10.6507
增值	-10.651
所致	-10.6512
生产销售	-10.6513
钾	-10.6514
笔画	-10.6519
山镇	-10.6527
185	-10.6528
距离村委会	-10.6528
垃圾	-10.6529
参编	-10.653
调入	-10.6531
先后任	-10.6532
(15	-10.6533
部副部长	-10.6535
民办	-10.6539
出租	-10.6539
梧	-10.654
教堂	-10.6543
1800	-10.6544
反射	-10.6548
礼仪	-10.6549
珍贵	-10.6553
512	-10.6556
一线	-10.656
履行	-10.656
粥	-10.656
金刚	-10.6563
弘扬	-10.6564
况	-10.6567
▁2007年	-10.6574
简介:	-10.6576
政务	-10.6576
攻读	-10.6577
聊	-10.6577
临沂	-10.6577
鼓励	-10.6581
糕	-10.6583
于此	-10.6587
灵魂	-10.6592
塑造	-10.6592
再生	-10.6593
地址:	-10.6595
确认	-10.6595
。这些	-10.6597
电影《	-10.6597
肚	-10.6598
学科带头人	-10.6599
法》	-10.6607
编著	-10.6607
代谢	-10.6609
ン	-10.6612
它是	-10.6614
粹	-10.6616
人大常委会	-10.6617
有限	-10.6619
民营	-10.6619
吉他	-10.662
回国	-10.662
组织的	-10.6624
。因此,	-10.6626
将会	-10.6626
。2008年	-10.6627
他人	-10.6627
之子	-10.6629
,以“	-10.6631
爬	-10.6633
贮	-10.6634
1992	-10.6635
监理	-10.6636
烷	-10.6638
万字	-10.6638
打击	-10.6639
厘米。	-10.665
他是	-10.6655
元年	-10.6656
教育学院	-10.6657
黄山	-10.6657
疹	-10.6659
荫	-10.666
国际机场	-10.666
新世纪	-10.6664
渭	-10.6665
采用了	-10.6668
分散	-10.667
金山	-10.6674
全力	-10.6675
青海	-10.6681
,是一个	-10.6684
也会	-10.6685
保卫	-10.6685
特点是	-10.669
搞	-10.6691
,向	-10.6691
那里	-10.6691
襄	-10.6697
是为了	-10.6697
行政村	-10.6699
黏	-10.67
随时	-10.6706
严格的	-10.6707
担保	-10.6709
翻炒	-10.6711
明朝	-10.6711
15年	-10.6713
可分为	-10.6714
花椒	-10.6714
引入	-10.6716
。先后	-10.6719
就有	-10.6719
千克	-10.6719
肌肉	-10.6719
拾	-10.672
总理	-10.672
为宗旨	-10.6723
客人	-10.6723
,于是	-10.6724
配送	-10.6725
刑事	-10.6728
畜	-10.6729
1公里	-10.6731
选育	-10.6733
现存	-10.6734
节约	-10.6734
累计	-10.6736
南路	-10.6741
主人	-10.6742
镁	-10.6743
精盐	-10.6743
哪	-10.6749
平县	-10.6751
本科生	-10.6752
游击	-10.6754
光明	-10.6755
梵	-10.6755
%%	-10.6765
山坡	-10.6765
。2005年	-10.6766
相当于	-10.6767
1994	-10.6771
支部	-10.6772
遵	-10.6775
设施齐全	-10.6775
▁(1)	-10.6777
海关	-10.6778
外,还	-10.6778
流体	-10.6782
颖	-10.6783
编剧	-10.6783
1900	-10.6784
做了	-10.6788
预计	-10.6795
孔子	-10.6798
精确	-10.6798
8号	-10.6802
青睐	-10.6802
南县	-10.6803
命令	-10.6806
心脏	-10.6809
晴	-10.6812
华中	-10.6813
大臣	-10.6813
几十	-10.6814
效力于	-10.682
编号	-10.6824
赢	-10.6825
面临	-10.6829
加大	-10.683
9个	-10.6831
搭配	-10.6831
组织实施	-10.6831
。”清	-10.6833
▁2010年	-10.6836
惯	-10.6837
饮用	-10.6841
一步	-10.6845
的过程	-10.6845
发掘	-10.6847
烦	-10.685
桔	-10.6852
巫	-10.6854
3.3	-10.6857
粉末	-10.6858
明显的	-10.6864
纠	-10.6865
矿业	-10.6866
多部	-10.6869
0.9	-10.687
测绘	-10.687
之称	-10.688
会议室	-10.688
机身	-10.6881
龙头企业	-10.6882
声誉	-10.6883
弯曲	-10.6884
3%	-10.6886
的不同	-10.6886
蚀	-10.6887
告诉	-10.6888
矛盾	-10.6889
稠	-10.6891
280	-10.6892
邹	-10.6892
我校	-10.6895
西路	-10.6896
住宿	-10.6901
畏	-10.6901
类别	-10.6903
年级	-10.6909
内地	-10.6912
播出	-10.6913
农业部	-10.6914
公务员	-10.6915
目前已	-10.6916
草本	-10.6922
峻	-10.6922
5～	-10.6928
书法家	-10.6929
对称	-10.693
应当	-10.6931
旭	-10.6932
▁电源	-10.6934
棘	-10.6934
劣	-10.6936
、李	-10.6942
纳税	-10.6942
。”宋	-10.6945
传动	-10.6946
于2009年	-10.6948
北宋	-10.695
这就是	-10.695
在校学生	-10.6951
个村民小组,	-10.6955
:9	-10.6961
啊	-10.6961
、旅游	-10.6963
育人	-10.6965
3人,	-10.6965
纷	-10.6965
描绘	-10.6966
体制	-10.6968
5人	-10.6974
三维	-10.6976
3号	-10.698
中国书画	-10.6984
茄	-10.6987
涨	-10.6988
,作为	-10.6988
联络	-10.6989
1.7	-10.6993
反复	-10.7
元年(	-10.7001
与管理	-10.7002
南宋	-10.7005
知名度	-10.7006
从小	-10.7006
陪	-10.7007
党支部书记	-10.7008
爆炸	-10.701
产业化	-10.7011
第一家	-10.7011
盲	-10.7016
客观	-10.7019
几年	-10.7019
鲁迅	-10.702
罚	-10.7023
在国内外	-10.7023
政委	-10.7025
环绕	-10.7026
腌	-10.7026
业内	-10.7027
视野	-10.7028
国产	-10.7028
舆	-10.7029
很好的	-10.7033
全程	-10.7034
承接	-10.7036
签约	-10.7038
手工	-10.7039
冒险	-10.7039
80年代	-10.7041
各自	-10.7044
补偿	-10.7045
文化的	-10.7046
冒	-10.7047
本土	-10.7048
红旗	-10.7051
泳	-10.7051
左右。	-10.7052
湛	-10.7057
建校	-10.7059
价值。	-10.7059
▁出处	-10.706
,乃	-10.7061
师资	-10.7061
珍珠	-10.7063
招商	-10.7063
改制	-10.7066
葡萄酒	-10.7068
。根据	-10.7069
重复	-10.707
设计与	-10.7074
开启	-10.708
。2007年	-10.7081
报纸	-10.7083
全乡	-10.7083
抗战	-10.7083
主要以	-10.7083
当中	-10.7086
感到	-10.7087
一款	-10.7088
总监	-10.7092
镀	-10.7092
(含	-10.7097
,皆	-10.7099
经纪	-10.71
▁6、	-10.71
5°C	-10.7105
试点	-10.7105
刮	-10.7108
现有员工	-10.7112
论述	-10.7116
静电	-10.7117
海上	-10.712
咨询服务	-10.712
百货	-10.7122
峪	-10.7123
应力	-10.7125
乔木	-10.7126
中国画	-10.7129
是国家	-10.7134
教导	-10.7134
40余	-10.7135
兼容	-10.7136
口感	-10.7136
都可以	-10.7139
意外	-10.714
其间	-10.7142
供水	-10.7143
少将	-10.7146
铁路局	-10.7147
心血管	-10.7148
。一般	-10.7148
游泳	-10.7149
来说,	-10.715
贵族	-10.715
设在	-10.7151
函	-10.7158
10%	-10.7159
代表性	-10.7161
关闭	-10.7162
480	-10.7169
棉花	-10.7173
收益	-10.7174
大多	-10.7174
花鸟	-10.7175
,受到	-10.7176
回收	-10.7176
口服	-10.718
20克	-10.7184
▁中文	-10.7186
爱好	-10.7187
生活中	-10.7189
1名	-10.719
多为	-10.7191
下部	-10.7193
桩	-10.7194
掩	-10.7196
面板	-10.7196
人次	-10.72
创作的	-10.72
相望	-10.7201
审查	-10.7203
任意	-10.7209
加工、	-10.721
就能	-10.7212
障	-10.7215
酬	-10.7218
物理学	-10.7218
事项	-10.7219
成为了	-10.722
常年	-10.7222
为什么	-10.7223
房地产开发	-10.7223
控制器	-10.7225
帘	-10.7225
礁	-10.7228
。民国	-10.7229
省内	-10.723
刹	-10.723
玫瑰	-10.7232
参加革命	-10.7232
锤	-10.7234
出席	-10.7236
2.6	-10.7237
纵横	-10.7237
之上	-10.7238
设备有限公司	-10.724
涡	-10.7243
乏	-10.7245
创造了	-10.7246
择	-10.7246
委员。	-10.725
猪肉	-10.7251
优雅	-10.7255
常常	-10.7258
时刻	-10.7259
质量管理	-10.726
押	-10.7261
线上	-10.7261
奸	-10.7262
真正的	-10.7265
电梯	-10.7268
培训中心	-10.7269
官员	-10.7269
募	-10.7271
婴	-10.7271
-11	-10.7272
质量体系认证	-10.7273
万历	-10.7273
她们	-10.7279
4公里	-10.7282
。2009年	-10.7283
1927年	-10.7283
生姜	-10.7286
烹	-10.7288
浏览	-10.7289
乐园	-10.7289
艰苦	-10.7292
美术家协会会员	-10.73
均可	-10.7302
感应	-10.7302
为:	-10.7305
提示	-10.7307
、创新	-10.7309
明清	-10.7313
长达	-10.7314
北海	-10.7315
一件	-10.7319
工委	-10.732
之下	-10.7322
无需	-10.7324
中青年	-10.7325
个教学班,	-10.7327
大学文化	-10.733
诊疗	-10.7332
牢	-10.7335
单曲	-10.7336
信息系统	-10.7338
该公司	-10.7338
硬度	-10.7338
英文名称	-10.7339
突出贡献	-10.7339
),字	-10.7341
地形	-10.7344
理论与	-10.7345
善于	-10.7345
仓储	-10.7347
5米	-10.7354
。经过	-10.7357
9-	-10.7358
1990	-10.7359
截止	-10.7359
摇滚	-10.736
直流	-10.7362
负荷	-10.7363
歌舞	-10.7365
缠	-10.7368
朔	-10.737
惨	-10.7373
高等院校	-10.7379
不断提高	-10.7379
饲养	-10.7383
于2007年	-10.7384
中文名:	-10.7384
仆	-10.7385
合作社	-10.7386
窄	-10.7391
病理	-10.7393
人才培养	-10.7394
还原	-10.7401
崩	-10.7405
一面	-10.7406
,确保	-10.7407
副书记	-10.7412
工程建设	-10.7413
结婚	-10.7414
全村经济总收入	-10.7416
塑胶	-10.7416
板块	-10.7421
大规模	-10.7422
我市	-10.7422
浙江大学	-10.7423
祁	-10.7425
砚	-10.7428
对手	-10.7428
。2004年	-10.7429
季节	-10.7432
华夏	-10.7433
多元	-10.7433
敏感	-10.7436
薪	-10.7438
堰	-10.7439
班主任	-10.744
场景	-10.7441
天文	-10.7448
,通常	-10.7449
屑	-10.7452
科技进步二等奖	-10.7452
南阳	-10.7456
中心小学	-10.7459
股份	-10.7461
邮政	-10.7462
藩	-10.7463
党组织	-10.7471
赞誉	-10.7472
湿地	-10.7473
独具	-10.7476
中级	-10.7476
推行	-10.7477
可用于	-10.748
达标	-10.748
宁波市	-10.7481
药材	-10.7483
等各种	-10.7485
移植	-10.7486
协会理事	-10.749
古老的	-10.7493
王子	-10.7494
艘	-10.7496
杆菌	-10.7497
燃料	-10.7497
寇	-10.75
简单的	-10.75
生活在	-10.75
美学	-10.7501
进展	-10.7502
西侧	-10.7505
增加了	-10.7509
的行为	-10.7509
保定	-10.7514
亲自	-10.7514
萌	-10.7514
获国家	-10.7516
管理学院	-10.7516
颠	-10.7519
转向	-10.7523
党政	-10.7524
厉	-10.7526
著有	-10.7527
前进	-10.7528
拘	-10.7528
融入	-10.7529
编程	-10.7531
世界各地	-10.7532
小吃	-10.7534
尤其是	-10.7536
风景秀丽	-10.7537
说法	-10.7539
此后	-10.7543
煲	-10.7543
主讲	-10.7544
汾	-10.7545
北路	-10.7547
踪	-10.7549
生产、销售	-10.7552
后卫	-10.7552
拍卖	-10.7552
蒸汽	-10.7553
风雨	-10.7553
不易	-10.7557
储存	-10.756
放心	-10.7561
葫芦	-10.7561
奴	-10.7563
以后,	-10.7566
指的是	-10.7569
法律、法规	-10.757
充分发挥	-10.7572
播种	-10.7574
广大客户	-10.7574
光驱	-10.7575
市场上	-10.7578
主任。	-10.758
消毒	-10.7581
天使	-10.7582
工业园	-10.7582
的成绩	-10.7583
景色	-10.7584
高血压	-10.7585
评为“	-10.7588
搏	-10.7589
名词	-10.7589
冬季	-10.7595
海峡	-10.7595
汇集	-10.7596
▁6.	-10.7597
1928年	-10.7598
作了	-10.7599
▁其它	-10.76
联合国	-10.7601
尽管	-10.7604
企业文化	-10.7604
大火	-10.7605
庄村	-10.7606
实战	-10.7606
地势	-10.7606
身边	-10.7608
宝石	-10.7609
国家一级	-10.7609
花期	-10.761
词汇	-10.761
单独	-10.7611
考生	-10.7613
逼	-10.7614
石家庄	-10.7616
8公里	-10.7618
分辨率:	-10.7619
单位:	-10.762
连载	-10.762
5人,	-10.7622
馀	-10.7625
钉	-10.7626
喜剧	-10.7627
芋	-10.7628
觉得	-10.7629
参谋	-10.7629
剩	-10.7631
性好	-10.7636
究	-10.7643
儿科	-10.7643
替代	-10.7645
编入	-10.7648
就在	-10.765
并组织实施	-10.7652
委员会副主任	-10.7654
实训	-10.7654
条例	-10.7655
约2	-10.7656
是因为	-10.7657
股份制	-10.7659
风湿	-10.7665
鞭	-10.7668
特约	-10.767
汤匙	-10.767
坚持以	-10.7672
有利于	-10.7675
第四届	-10.7676
产物	-10.7677
载体	-10.768
优质的服务	-10.7685
宝宝	-10.7688
。现在	-10.7691
为其	-10.7692
敷	-10.7692
司令部	-10.7692
工程系	-10.7694
雄厚的	-10.7699
中华医学会	-10.7699
詹	-10.77
由原	-10.7704
不变	-10.7705
百万	-10.7706
村人	-10.7709
副主编	-10.771
3.6	-10.771
细致	-10.7711
6人,	-10.7711
济南市	-10.7716
2.7	-10.7717
设立的	-10.7718
畔	-10.7719
入伍	-10.7723
农药	-10.7726
拟任	-10.7727
交通方便	-10.7729
建国	-10.773
东海	-10.773
大同	-10.7731
甘草	-10.7733
技术研究	-10.7737
中央党校	-10.7737
带着	-10.7738
偿	-10.7747
～19	-10.775
编码	-10.7751
秩序	-10.7753
菜系	-10.7756
曾多次	-10.7759
熏	-10.776
绞	-10.776
音箱	-10.7761
防腐	-10.7762
较小	-10.7762
较好	-10.7763
长途	-10.7768
▁(2).	-10.7769
出现在	-10.7769
名师	-10.777
道教	-10.7773
(1).	-10.7774
,2004年	-10.778
耐磨	-10.778
钢管	-10.7782
中文系	-10.7786
获全国	-10.7788
7月毕业于	-10.7794
回归	-10.7795
溶解	-10.7805
可持续发展	-10.7806
10000	-10.7807
虑	-10.7808
政权	-10.7809
渔业	-10.7816
3克	-10.782
可口	-10.7822
扩建	-10.7824
尤其	-10.7825
≥	-10.7825
8.5	-10.7829
很少	-10.7829
勋章	-10.783
规定的	-10.7832
成立以来	-10.7832
委组织部	-10.7833
呢?	-10.7838
第5	-10.7839
呢	-10.7839
系主任	-10.7842
工程有限公司	-10.7844
出任	-10.7846
词典	-10.7847
水面	-10.7848
门户	-10.7848
水晶	-10.7849
1～	-10.7849
哭	-10.785
特殊的	-10.7851
晋升为	-10.7851
川县	-10.7852
党组成员、	-10.7857
咽	-10.7859
自治	-10.7859
解释:	-10.7859
涅	-10.7863
调试	-10.7869
户型	-10.787
内容包括	-10.7875
皇后	-10.7876
学博士学位	-10.7876
旅行社	-10.7879
步行	-10.7879
沁	-10.7883
评定	-10.7884
夏季	-10.7886
葵	-10.7888
梭	-10.7889
零件	-10.7889
讲解	-10.7893
物料	-10.7895
-18	-10.7896
之意	-10.7897
显示器	-10.7897
–	-10.79
治安	-10.7904
自学	-10.7908
3)	-10.7914
中文名称:	-10.7916
7月参加工作,	-10.7917
匙	-10.7919
义务	-10.7922
缀	-10.7922
特聘	-10.7926
二年(	-10.7932
千万	-10.7939
30年	-10.7939
场合	-10.794
主要经营	-10.794
人气	-10.7941
至少	-10.7942
学硕士学位	-10.7943
球员	-10.7943
平均亩产	-10.7945
也叫	-10.7947
隐藏	-10.7948
之作	-10.7948
情节	-10.7949
孢	-10.7954
似乎	-10.7955
北美	-10.7955
分别为	-10.7955
矢	-10.7957
展出	-10.7958
竭诚	-10.7958
美誉	-10.7962
国语	-10.7962
符号	-10.7965
人心	-10.7965
号码	-10.7968
复印	-10.7969
按摩	-10.7972
,2005年	-10.7973
学术论文	-10.7974
诵	-10.7975
于2011年	-10.7976
校舍	-10.7977
北纬	-10.7978
的东西	-10.7978
切片	-10.7979
办事	-10.7984
尊重	-10.7984
前锋	-10.7986
投产	-10.7987
长沙市	-10.7988
汀	-10.799
西安市	-10.799
信任	-10.7993
自治州	-10.8
出品	-10.8
场上	-10.8005
衡阳	-10.8007
逾	-10.8007
等人	-10.8009
意为	-10.8009
齿轮	-10.8014
殊	-10.8015
静脉	-10.8017
教育工作	-10.802
主要研究方向	-10.8021
勤奋	-10.8022
同行业	-10.8023
瀑布	-10.8024
前景	-10.8026
人。中共党员。	-10.8027
调料	-10.803
50余	-10.8031
扬声器	-10.8032
排名	-10.8035
6人	-10.8036
,故名	-10.8039
6%	-10.804
参谋长	-10.8042
东侧	-10.8044
烘	-10.8045
师范学校	-10.8046
一路	-10.8048
部主任	-10.8049
卫视	-10.8049
市场营销	-10.805
头部	-10.8056
另一个	-10.8061
骄	-10.8061
于2008年	-10.8062
极其	-10.8066
1次	-10.8066
核桃	-10.8069
附加	-10.8069
墨西哥	-10.8074
可作为	-10.8075
主人公	-10.8076
-16	-10.8077
县长	-10.8078
炳	-10.8079
,它是	-10.808
等多个	-10.8082
乐团	-10.8083
的感觉	-10.8085
产生了	-10.8085
,现已	-10.8086
骗	-10.8086
兮	-10.8086
十余年	-10.8088
起草	-10.8088
橘	-10.8088
携带	-10.8089
理论和	-10.809
依然	-10.8093
单一	-10.8096
全校	-10.8097
延安	-10.8102
开工	-10.8103
嘉兴	-10.8105
这部	-10.811
5.0	-10.8111
蕨	-10.8112
放大	-10.8113
愤	-10.8113
3次	-10.8117
垒	-10.8119
日报》	-10.812
对其	-10.812
天然气	-10.8123
▁2011年	-10.8124
团长	-10.8125
本科毕业	-10.8125
寄生	-10.8126
丘陵	-10.8127
激情	-10.8127
亮度	-10.8131
肤	-10.8131
的概念	-10.8131
作风	-10.8133
三次	-10.8138
变压器	-10.8138
因子	-10.8138
功率:	-10.8139
器官	-10.8139
峨	-10.8145
坐标	-10.8147
,也可	-10.8147
出演	-10.8148
大批	-10.8149
人性化	-10.815
活动中	-10.815
主要生产	-10.815
书法家协会会员	-10.8154
≤	-10.8156
地板	-10.8157
所作	-10.8158
黑白	-10.8159
慈善	-10.816
共创	-10.816
提出的	-10.8163
河口	-10.8164
大豆	-10.8167
橄榄	-10.817
2次	-10.817
集《	-10.8174
书画艺术	-10.8175
成语	-10.8176
21世纪	-10.8178
格局	-10.8178
套房	-10.8179
工程设计	-10.8179
а	-10.8179
圩	-10.8184
颌	-10.8184
。2010年	-10.8185
情绪	-10.8185
电厂	-10.8189
名牌	-10.819
镇位于	-10.8193
苏区	-10.8197
浸泡	-10.8199
管理体系	-10.82
:00	-10.8203
玲	-10.8203
温暖	-10.8203
珠宝	-10.8204
电工	-10.8205
芜湖	-10.8205
甲基	-10.8207
现在的	-10.8208
外贸	-10.8209
(以下简称	-10.821
科主任	-10.821
解决了	-10.821
,基部	-10.821
佑	-10.8211
1991	-10.8214
五大	-10.8215
用药	-10.8216
印象	-10.822
拥有一支	-10.8222
学士学位	-10.8224
▁其他	-10.8224
氨酸	-10.8227
×4	-10.8228
中央电视台	-10.8228
世家	-10.8232
抄	-10.8232
蓉	-10.8232
丈夫	-10.8234
待机	-10.8234
与发展	-10.8234
町	-10.8236
参观	-10.8242
于2006年	-10.8243
6公里	-10.8244
拟订	-10.8244
森林公园	-10.8245
植株	-10.825
,尤其是	-10.8253
九龙	-10.8254
清楚	-10.8257
悠久	-10.8261
堵	-10.8262
爱心	-10.8263
范围:	-10.8264
妇产科	-10.8265
激烈	-10.8265
科技创新	-10.8265
浓厚	-10.8266
引发	-10.8266
在日本	-10.8268
本书是	-10.8269
愁	-10.8271
公民	-10.8273
篆	-10.8273
记·	-10.8275
尼斯	-10.8276
很强	-10.8276
余人,	-10.8277
▁◆	-10.8278
提名	-10.8279
,汉族,	-10.8279
一个人	-10.8281
楼高	-10.8282
庚	-10.8286
唐山	-10.8289
的一部分	-10.829
精灵	-10.8291
理想的	-10.8291
邮政编码	-10.8292
终身	-10.8294
演变	-10.8296
安置	-10.8296
极具	-10.8297
敬业	-10.8298
。因为	-10.8298
淑	-10.83
锻	-10.8302
建设项目	-10.8303
比赛中	-10.8303
很有	-10.8303
龙岩	-10.8306
斥	-10.8307
光纤	-10.8307
最重要的	-10.8309
温州市	-10.831
192	-10.8312
漠	-10.8314
新一代	-10.8314
油田	-10.8316
斌	-10.8317
跨越	-10.8317
国际贸易	-10.8317
▁2005年	-10.8317
开办	-10.8323
交通运输	-10.8327
溶剂	-10.8329
韶	-10.833
中心主任	-10.8331
咳	-10.8334
布置	-10.8337
友谊	-10.8338
武帝	-10.8339
门户网站	-10.834
窦	-10.8341
已经成为	-10.8341
低于	-10.8345
集合	-10.8349
复旦大学	-10.835
3.1	-10.835
嵌	-10.8351
搅	-10.8352
背面	-10.8353
海水	-10.8355
委党校	-10.8359
▁一、	-10.836
检索	-10.8361
作出了	-10.8364
节奏	-10.8365
道光	-10.8369
鸽	-10.8376
过敏	-10.8379
民用	-10.8379
张专辑	-10.838
埃及	-10.8381
御史	-10.8381
(3)	-10.8382
指出	-10.8384
,最终	-10.8384
沂	-10.8385
流畅	-10.8385
路面	-10.8386
,交通便利,	-10.8386
等产品	-10.8388
庶	-10.8388
闷	-10.8389
首府	-10.8389
宠	-10.839
104	-10.839
起任	-10.8392
幽默	-10.8394
搭建	-10.8394
措	-10.8395
寡	-10.8396
小于	-10.8396
天气	-10.8399
据说	-10.84
克·	-10.8401
音响	-10.8402
魁	-10.8405
履	-10.8409
技法	-10.8409
西湖	-10.841
钢板	-10.8412
特长	-10.8412
面积2	-10.8413
科研工作	-10.8413
又是	-10.8414
分裂	-10.8418
宛	-10.8423
次会议	-10.8423
期货	-10.8424
12个	-10.8427
珊瑚	-10.843
私人	-10.843
赛事	-10.8436
品位	-10.8438
逝世	-10.8442
商务中心	-10.8442
高效的	-10.845
机组	-10.845
法兰	-10.8452
树木	-10.8455
美女	-10.8456
体现了	-10.8457
公里处	-10.8459
-15	-10.8464
吗?	-10.8467
立方米	-10.8468
就像	-10.8468
网络游戏	-10.8468
棕色	-10.847
指导下	-10.847
痴	-10.8471
榴	-10.8471
次年	-10.8474
第五届	-10.8476
额定	-10.8476
保安	-10.8477
说明书	-10.8478
凝聚	-10.8478
半导体	-10.8481
明天	-10.8482
土豆	-10.8483
专辑《	-10.8488
中毒	-10.8488
生涯	-10.8489
啤酒	-10.849
卑	-10.8492
宠物	-10.8494
无线电	-10.8496
波兰	-10.8498
报社	-10.85
硫酸	-10.8504
番茄	-10.8504
高级职称	-10.8505
于2005年	-10.8505
这次	-10.8506
渴	-10.8508
想象	-10.8509
常用的	-10.8509
2500	-10.851
几何	-10.8511
一部分	-10.8512
亿元。	-10.8513
燥	-10.8513
岛屿	-10.8518
一旦	-10.8522
仓库	-10.8524
人称	-10.8524
是一家专业从事	-10.8526
多层	-10.8527
等特点	-10.8528
出版时间:	-10.8529
9001	-10.8531
刊物上发表	-10.8532
主要原料	-10.8534
灶	-10.8536
大展	-10.8539
上映	-10.8543
濒	-10.8543
。2003年	-10.8544
筹建	-10.8544
50%	-10.8551
重点实验室	-10.8551
前身	-10.8553
《》	-10.8553
畜牧	-10.8556
日照	-10.8557
,有时	-10.8563
椅	-10.8564
"="	-10.8569
磷酸	-10.857
活泼	-10.857
蔓	-10.8571
洼	-10.8572
股东	-10.8572
开通	-10.8572
平行	-10.8573
产品类型:	-10.8573
门诊	-10.8578
实用性	-10.8578
尝试	-10.858
村委会,属于山区。	-10.8584
内心	-10.8585
兑	-10.8586
发表学术论文	-10.8586
多年生草本	-10.859
既有	-10.8593
予以	-10.8594
日语	-10.8595
经销商	-10.8595
裸	-10.8596
内蒙古自治区	-10.8598
琅	-10.86
现代化的	-10.8602
缩写	-10.8605
算法	-10.861
步骤	-10.8612
杯”	-10.8617
医学会	-10.8623
豹	-10.8627
叶柄	-10.8628
,总人口	-10.863
射击	-10.8632
农历	-10.8633
如下	-10.8633
勐	-10.8634
只需	-10.8641
自然村隶属于	-10.8643
1-2	-10.8644
杀害	-10.8644
而又	-10.8646
风机	-10.8652
氨	-10.8652
梳	-10.8652
燃气	-10.8654
朝廷	-10.8655
港澳	-10.8655
\\	-10.8658
第一部	-10.8658
欺	-10.8658
二人	-10.8658
牛奶	-10.8663
篆刻	-10.8666
聪	-10.8666
美术馆	-10.8668
那样	-10.8673
1984	-10.8673
职业技术学院	-10.8674
篮	-10.8675
特产	-10.8678
高分子	-10.8679
1988	-10.868
全称	-10.8683
贯彻执行	-10.8684
棠	-10.8685
先锋	-10.8686
水量	-10.8686
水电	-10.8688
埔	-10.869
尔斯	-10.869
一贯	-10.8691
一群	-10.8691
制备	-10.8691
100多	-10.8693
仅有	-10.8694
发生在	-10.8698
沈阳市	-10.8699
确立	-10.8701
违法	-10.8701
上市时间	-10.8703
别名:	-10.8703
,尤其	-10.8705
明珠	-10.8706
智能化	-10.8708
梓	-10.8709
演绎	-10.8711
两面	-10.8714
茸	-10.8715
同意	-10.8717
特有的	-10.8717
干净	-10.8718
创立于	-10.8721
战斗中	-10.8721
机器人	-10.8723
1×	-10.8723
承包	-10.8724
两条	-10.8724
瘀	-10.8725
足球运动员	-10.8725
肋	-10.8728
遍及	-10.8732
自成立以来	-10.8735
清·	-10.8737
总会	-10.874
宾客	-10.8741
获省	-10.8743
大学毕业	-10.8743
我们将	-10.8746
青海省	-10.8746
百度	-10.8747
辖区内	-10.8748
工学院	-10.8754
回忆	-10.8755
工业区	-10.8755
总部位于	-10.8757
书写	-10.876
委宣传部	-10.8764
国家队	-10.8767
空白	-10.8777
开封	-10.8778
桓	-10.8779
技艺	-10.8779
(现	-10.8779
1989	-10.8782
大专文化	-10.8783
”字	-10.8785
不幸	-10.8788
文书	-10.8789
分配到	-10.8789
白菜	-10.8791
顺序	-10.8791
同名	-10.8791
106	-10.8793
机体	-10.8794
薄膜	-10.8797
是一座	-10.8803
科技进步三等奖	-10.8804
制造商	-10.8805
智力	-10.8805
了许多	-10.8806
烧热	-10.8806
,隶属	-10.8806
种种	-10.8807
引擎	-10.8808
甲级	-10.8809
取代	-10.8809
亏	-10.8812
。后来	-10.8813
副主任委员	-10.8813
势力	-10.8813
『	-10.8814
直线	-10.8817
为此	-10.8817
室外	-10.8818
漳	-10.8818
锻炼	-10.8818
眠	-10.882
时间内	-10.8826
收缩	-10.8827
慰	-10.8828
晚期	-10.8829
澜	-10.883
完备	-10.883
知名品牌	-10.8831
简洁	-10.8832
火箭	-10.8832
处副处长	-10.8834
音效	-10.8836
柴油	-10.8836
,使得	-10.8841
圭	-10.8843
20%	-10.8845
前期	-10.8846
4.0	-10.8849
努	-10.8849
腕	-10.885
趾	-10.8851
针灸	-10.8852
书画院	-10.8854
花瓣	-10.886
107	-10.8865
同盟	-10.8868
扶贫	-10.8869
含义	-10.8874
肉质	-10.8877
古今	-10.8879
阅览室	-10.8882
自然村	-10.8884
正面	-10.8885
经国家	-10.8885
学院教授	-10.8885
权力	-10.8888
鸟类	-10.8889
聘请	-10.889
允	-10.889
青铜	-10.8898
京剧	-10.8898
组组长	-10.8898
4.2	-10.8904
2-3	-10.8906
分支	-10.8907
微波	-10.8907
淮南	-10.8908
涩	-10.8916
指令	-10.8916
节日	-10.8917
本质	-10.8919
沛	-10.892
凿	-10.8921
不受	-10.8923
工商管理	-10.8924
倚	-10.8927
争取	-10.8928
方针政策	-10.8929
联想	-10.8929
农机	-10.8931
○	-10.8939
雷达	-10.894
删除	-10.8941
企业。公司	-10.8943
理论研究	-10.8945
在校	-10.8945
邀	-10.8946
始于	-10.8946
借助	-10.8947
学学士学位	-10.8949
谓之	-10.895
十多年	-10.8953
洋葱	-10.8954
在今	-10.8955
刃	-10.8955
钢结构	-10.8957
今日	-10.8958
规章	-10.8959
成套	-10.8962
о	-10.8964
氨基酸	-10.8964
变焦	-10.8966
作文	-10.8968
市场经济	-10.8968
知县	-10.8972
以南	-10.8974
用以	-10.8976
风扇	-10.8976
总额	-10.8978
彻	-10.898
基督教	-10.8981
交通便捷	-10.8983
矫	-10.8986
洗衣	-10.8987
平方	-10.8988
烈士	-10.8988
的一款	-10.8989
缺陷	-10.8989
5号	-10.8993
锦标赛	-10.8996
制剂	-10.8996
奥运	-10.9001
工程施工	-10.9002
娇	-10.9003
驿	-10.9005
全国性	-10.9007
方针,	-10.9009
造纸	-10.9012
小姐	-10.9014
姐	-10.9016
泗	-10.9017
祈	-10.9017
崎	-10.9018
催	-10.9022
滇	-10.9022
泾	-10.9022
主办的	-10.9025
损害	-10.9026
滨海	-10.9028
青山	-10.9029
服用	-10.9029
复杂的	-10.903
很大的	-10.9032
科技进步奖	-10.9034
诗文	-10.9034
黑暗	-10.9035
茶匙	-10.9038
毕业于北京	-10.9039
人均	-10.904
蚁	-10.904
1985	-10.9041
高尔夫	-10.9042
工艺品	-10.9042
酒吧	-10.9043
盆地	-10.9047
总工程师	-10.9048
已被	-10.9048
男,汉族,	-10.9049
。它是	-10.905
传统文化	-10.9051
登场	-10.9051
期待	-10.9051
妆	-10.9054
文本	-10.9056
蕾	-10.9056
金牌	-10.9062
]	-10.9069
面前	-10.907
共计	-10.9071
糯米	-10.9075
机械制造	-10.9075
家电	-10.9078
泰山	-10.9079
很高的	-10.9079
激发	-10.9083
行政村,属于山区。	-10.9084
的角度	-10.9086
防爆	-10.9087
重组	-10.9088
信仰	-10.9088
东汉	-10.909
野生	-10.9096
机械设备	-10.91
烹饪	-10.9102
着力	-10.9103
机箱	-10.9104
不详	-10.9108
理财	-10.9112
这款	-10.9117
头痛	-10.9118
理事会	-10.9121
核算	-10.9123
团购	-10.913
攻关	-10.913
并入	-10.9131
硕士研究生导师	-10.9132
▁出处:	-10.9133
▁『	-10.9133
领袖	-10.9133
性疾病	-10.9135
稽	-10.9139
坚实	-10.9139
1987	-10.914
丢	-10.914
储备	-10.9144
清除	-10.9147
吉祥	-10.9148
▁2004年	-10.915
产值	-10.9151
分泌	-10.9153
槐	-10.9153
3～	-10.9156
可根据	-10.9157
750	-10.9158
郑州市	-10.916
养殖业	-10.9164
9号	-10.9164
质量管理体系	-10.9164
史》	-10.9164
无论是	-10.917
1986	-10.917
完美的	-10.917
技术开发	-10.9172
边界	-10.9174
淘	-10.9174
信访	-10.9175
脓	-10.9182
发扬	-10.9185
名学生	-10.9187
演艺	-10.9187
放弃	-10.9189
复兴	-10.919
深化	-10.9191
学术交流	-10.9192
7%	-10.9193
生态环境	-10.9196
新农村建设	-10.9196
”称号。	-10.9197
水电站	-10.9197
朋	-10.9198
毫米,适宜种植	-10.9202
。随着	-10.9204
经济技术开发区	-10.9205
原本	-10.9209
嗣	-10.9211
小说《	-10.9213
国家重点	-10.9213
侣	-10.9215
体制改革	-10.9216
颁发	-10.9216
▁三、	-10.9217
本着“	-10.9217
棵	-10.9218
半年	-10.9218
回报	-10.9219
质量第一	-10.9222
供销	-10.9224
的一首	-10.9225
出资	-10.9226
112	-10.9227
窟	-10.9228
。”唐	-10.9232
机遇	-10.9233
签订	-10.9236
捣	-10.9237
裙	-10.9237
1926年	-10.9237
高级中学	-10.9237
。这是	-10.924
早在	-10.9242
少儿	-10.9242
生产工艺	-10.9247
大奖	-10.9253
就读	-10.9254
线条	-10.9256
洽谈	-10.9256
上发表	-10.9257
拟定	-10.9261
班级	-10.9262
便是	-10.9264
株高	-10.9266
一方	-10.9277
廖	-10.928
寂	-10.9284
发热	-10.9284
科委	-10.9285
生产经营	-10.9286
回族	-10.9287
借鉴	-10.9288
卓越的	-10.929
炙	-10.929
6号	-10.929
(其中	-10.9291
般的	-10.9291
准则	-10.9292
同时还	-10.9293
三角形	-10.9293
基础知识	-10.9294
500克	-10.9295
学会常务理事	-10.9296
主要内容	-10.9299
激励	-10.93
彝族	-10.9302
い	-10.9303
技术创新	-10.9303
多次参加	-10.9304
沾	-10.9305
捧	-10.9305
厦	-10.9307
药用	-10.9311
第一名	-10.9312
客户提供	-10.9317
列车	-10.9319
前来	-10.9321
窃	-10.9322
地层	-10.9322
景德镇	-10.9323
与其他	-10.9323
科植物	-10.9325
笛	-10.933
金银	-10.9332
汕	-10.9333
纪录	-10.9339
部署	-10.934
剧本	-10.9341
好友	-10.9343
黄瓜	-10.9344
4%	-10.9347
堪称	-10.9348
研究领域	-10.9349
3.8	-10.935
勘探	-10.9357
天堂	-10.9363
有效地	-10.9364
相机	-10.9368
技术力量雄厚	-10.9369
无机	-10.9369
法师	-10.9372
切实	-10.9372
烯	-10.9372
显得	-10.9375
书》	-10.9376
方程	-10.9379
病变	-10.9381
溪县	-10.9387
底部	-10.9387
и	-10.9388
录制	-10.9388
建筑设计	-10.9391
衢	-10.9395
领导人	-10.9395
纠纷	-10.9398
镇江	-10.9398
宝贝	-10.94
东风	-10.9402
转速	-10.9402
意思	-10.9403
被评为“	-10.9406
一致好评	-10.9407
业主	-10.9412
阶级	-10.9412
文史	-10.9413
膨胀	-10.9416
自愿	-10.9417
诗集	-10.9418
泸	-10.942
可谓	-10.942
情景	-10.942
中国国际	-10.942
克拉	-10.9421
水质	-10.9422
正式成立	-10.9423
阴阳	-10.9423
山顶	-10.9423
征收	-10.9423
沙漠	-10.9425
高级教师	-10.943
武汉大学	-10.9434
柠檬	-10.9438
萎	-10.9438
也能	-10.9439
原材料	-10.944
仿真	-10.9441
决赛	-10.9441
九五	-10.9441
二期	-10.9444
慢慢	-10.9447
精良	-10.9449
博士研究生	-10.945
市教育局	-10.9451
制订	-10.9452
主要包括	-10.9453
垣	-10.9453
苏州市	-10.9454
改名为	-10.9455
可以通过	-10.9459
膳	-10.9464
六个	-10.9468
实业有限公司	-10.9469
▁地址:	-10.9469
勘	-10.9471
又叫	-10.9472
对话	-10.9473
芯片组	-10.9473
更有	-10.9473
技术支持	-10.9476
管理模式	-10.9477
河畔	-10.9479
副总经理	-10.948
定居	-10.948
企业集团	-10.948
这位	-10.9484
可靠性	-10.9486
民众	-10.9488
战场	-10.949
▁◎	-10.9491
戚	-10.9491
字母	-10.9492
摄像机	-10.9495
宜昌	-10.9497
持有	-10.9497
充足	-10.9499
江湖	-10.95
欧阳	-10.9501
还要	-10.9502
水准	-10.9502
当选	-10.9503
备用。	-10.9504
咬	-10.9505
轮胎	-10.9506
陈列	-10.9507
熟练	-10.9509
山村	-10.9516
9%	-10.9518
辅料	-10.9519
等多项	-10.9521
数值	-10.9522
要点	-10.9523
雍	-10.9523
坠	-10.9524
买卖	-10.9524
涧	-10.9525
交界处	-10.9529
不需要	-10.9529
等荣誉称号	-10.9533
占有	-10.9535
平方千米	-10.9537
姓名	-10.9537
论》	-10.9539
骑士	-10.9543
列为	-10.9543
想要	-10.9548
修订	-10.9549
较好的	-10.955
召唤	-10.9554
估	-10.9556
3项	-10.956
受欢迎	-10.9561
华丽	-10.9561
生化	-10.9563
梅花	-10.9564
阐述	-10.9565
事情	-10.9566
狄	-10.9568
15分钟	-10.9569
合肥市	-10.9569
难度	-10.9575
研究所所长	-10.9579
扩张	-10.9579
受到了	-10.9579
许可	-10.9581
省委	-10.9582
佛山	-10.9584
誓	-10.9584
歌唱	-10.9584
部落	-10.9586
20分钟	-10.9588
上世纪	-10.9589
风云	-10.9594
聪明	-10.9595
带头人	-10.9596
遭到	-10.9596
反映了	-10.9597
优秀共产党员	-10.9599
数字化	-10.9604
漂亮	-10.9606
科研课题	-10.9608
出现了	-10.9609
很好	-10.9611
软件开发	-10.9614
莹	-10.9614
邯郸	-10.9615
无色	-10.9617
▁(二)	-10.9621
气势	-10.9621
讲座	-10.9623
在这个	-10.9623
生产厂家	-10.9624
代表大会	-10.9624
谊	-10.9625
三峡	-10.9626
探测	-10.9629
招收	-10.963
樟	-10.9632
执业	-10.9633
班长	-10.9635
更换	-10.9635
交通十分便利	-10.9636
社会学	-10.9637
支流	-10.9638
嘉靖	-10.9639
重修	-10.9641
四方	-10.9642
么	-10.9643
皂	-10.9643
密集	-10.9644
淡水	-10.9645
一站式	-10.9646
胃肠	-10.9649
三月	-10.965
5.2	-10.9652
西汉	-10.9655
铝合金	-10.9655
关怀	-10.9655
眼科	-10.9658
来源于	-10.9661
钞	-10.9663
滕	-10.9663
婚礼	-10.9666
时空	-10.9667
办公楼	-10.9668
桃花	-10.9671
做成	-10.9673
于2004年	-10.9674
英格兰	-10.9677
激素	-10.9678
颅	-10.9679
靠近	-10.968
为您提供	-10.9681
樱	-10.9682
115	-10.9686
蛮	-10.9688
事务所	-10.9689
阐	-10.969
椰	-10.9691
200余	-10.9693
一组	-10.9699
志愿者	-10.97
愚	-10.97
岐	-10.9703
茫	-10.9703
描	-10.9703
陆续	-10.9704
性别	-10.9705
嗜	-10.9709
菲律宾	-10.9709
贯彻落实	-10.971
逝	-10.9715
减轻	-10.9716
10公里	-10.9721
竞技	-10.9725
开采	-10.9725
高峰	-10.9725
鲤	-10.9725
讲授	-10.9727
最先进的	-10.9727
商学院	-10.9727
方形	-10.9728
184	-10.9728
都要	-10.973
备案	-10.9734
蔽	-10.9736
信息服务	-10.9738
摸	-10.9738
桥镇	-10.9739
冰箱	-10.9741
中国人民大学	-10.9743
5.6	-10.9743
改称	-10.9747
260	-10.9748
(集团)	-10.9751
坯	-10.9756
编号:	-10.9759
方针、政策	-10.976
腻	-10.9763
国家标准	-10.9764
安防	-10.9769
工程项目	-10.9769
钓	-10.977
花纹	-10.9772
200米	-10.9772
屏幕尺寸:	-10.9777
莫斯科	-10.9777
商圈	-10.978
括	-10.9781
公里处,	-10.9781
可容纳	-10.9782
这类	-10.9782
全面发展	-10.9785
伙伴	-10.9787
500米	-10.9788
电网	-10.979
舜	-10.9791
尚未	-10.9792
歌词	-10.9792
架构	-10.9793
夸	-10.9796
熬	-10.9798
大胆	-10.9798
烟草	-10.9798
类别:	-10.9799
邮票	-10.9803
市公安局	-10.9804
可视	-10.9805
劳务	-10.9807
一幅	-10.981
海域	-10.9812
人均耕地	-10.9815
厨房	-10.9816
上市公司	-10.9816
副市长	-10.9818
柏林	-10.9819
北侧	-10.9822
而得名。	-10.9827
十一年	-10.9829
可能是	-10.983
历史文化	-10.9833
握	-10.9834
不错	-10.9834
教研室主任	-10.9844
低压	-10.9845
罕见	-10.9847
粒子	-10.9848
短期	-10.985
结核	-10.9853
绪	-10.9854
有一定	-10.9854
《中华人民共和国	-10.9858
舱	-10.9858
狮子	-10.9859
威胁	-10.9866
依赖	-10.9868
配套设施	-10.9869
纪检	-10.987
,比对照	-10.9874
村镇	-10.9877
发现了	-10.9879
不见	-10.9881
型号:	-10.9884
语言学	-10.9885
2×	-10.9888
石头	-10.989
剖	-10.989
袖	-10.9892
姑娘	-10.9893
渤海	-10.9893
招标	-10.9894
力度	-10.9894
课堂	-10.9897
第6	-10.9898
不宜	-10.9898
杖	-10.9902
国际标准	-10.9902
审美	-10.9907
瞻	-10.9908
实务	-10.9908
冲突	-10.9909
发电机	-10.9911
境界	-10.9912
噪音	-10.9913
运动会	-10.9913
学硕士	-10.9914
千里	-10.9917
于2003年	-10.9921
鳞片	-10.9923
钛	-10.9923
睿	-10.9927
岂	-10.9929
的事情	-10.993
横向	-10.9932
135	-10.994
冥	-10.9942
岛上	-10.9945
石灰	-10.9948
公里,距	-10.995
死后	-10.9951
五代	-10.9951
防火	-10.9951
浏览器	-10.9954
路口	-10.9954
了一批	-10.9958
啦	-10.9958
178	-10.9963
为己任	-10.9963
经销	-10.9963
途中	-10.9963
达到了	-10.9966
作词	-10.9966
调控	-10.9969
是指在	-10.997
面包	-10.9973
α	-10.9974
"、"	-10.9978
谨	-10.9978
对策	-10.9978
′′	-10.9979
坟	-10.9979
班学习	-10.9981
清热	-10.9982
首创	-10.9986
面貌	-10.9991
序列	-10.9994
拼音	-10.9994
向前	-10.9997
之际	-10.9999
券	-11
威尔	-11.0004
淋巴	-11.0004
4.8	-11.0004
临床工作	-11.0004
开辟	-11.0011
峡谷	-11.0012
封建	-11.0014
城关	-11.0015
打破	-11.0019
电视剧《	-11.0019
7公里	-11.002
醛	-11.0022
文物保护单位	-11.0024
力争	-11.0028
酿	-11.0029
被称为“	-11.0029
会会长	-11.0031
百家	-11.0032
1024	-11.0034
优质服务	-11.0035
裴	-11.0037
认知	-11.004
棍	-11.004
摊	-11.0041
柔软	-11.0042
乡位于	-11.0043
果树	-11.0045
还可	-11.0048
明亮	-11.0052
质量管理体系认证	-11.006
双重	-11.0061
省道	-11.0062
政协副主席	-11.0063
鸡精	-11.0065
彼此	-11.0066
^	-11.0066
9.5	-11.0066
邮电	-11.0067
村内	-11.0068
家庄	-11.0068
剧《	-11.0068
诞	-11.0069
大厅	-11.0071
还能	-11.0071
并非	-11.0071
千余	-11.0072
支气管	-11.0072
碰	-11.0074
配料	-11.0074
网络营销	-11.0076
十几	-11.0077
解放后	-11.0078
排放	-11.0078
。’”	-11.0079
一大批	-11.0082
中学高级教师	-11.0082
食盐	-11.0083
厄	-11.0083
感动	-11.0085
组成员	-11.0085
犀	-11.0085
专任教师	-11.009
8月参加工作,	-11.0091
展会	-11.0093
应用程序	-11.0093
近百	-11.0094
1.9	-11.0095
长征	-11.0097
一边	-11.0098
较低	-11.0098
珠江	-11.0102
九江	-11.0103
火车	-11.0105
气质	-11.0106
延续	-11.0106
。近年来,	-11.0107
摩擦	-11.0109
。另外,	-11.011
伦理	-11.0116
骨科	-11.0116
佛山市	-11.0117
学堂	-11.0118
立法	-11.0118
心情	-11.0121
勇于	-11.0122
整齐	-11.0124
胡同	-11.0125
1钱	-11.0127
平时	-11.0127
总资产	-11.0128
故乡	-11.0128
大辞典	-11.0131
保养	-11.0132
3.7	-11.0134
振兴	-11.0136
菜单	-11.0137
辞典	-11.0142
眼镜	-11.0142
90年代	-11.0142
文学家	-11.0143
瞬间	-11.0146
眩	-11.0147
公正	-11.0148
病逝	-11.0148
厥	-11.0149
俞	-11.015
第六届	-11.0152
10万	-11.0152
铣	-11.016
今后	-11.016
占领	-11.0165
烧开	-11.0166
著称	-11.0169
平板	-11.0169
麻醉	-11.0169
永久	-11.0171
种植业	-11.0172
进化	-11.0174
汶	-11.0177
更好地	-11.0179
第十二	-11.0182
支持下,	-11.0182
酚	-11.0185
通过对	-11.0185
100余	-11.0188
2013	-11.019
拼搏	-11.0191
230	-11.0193
莆田	-11.0194
叙述	-11.0194
总收入	-11.0194
芥	-11.0195
紧张	-11.0196
涉外	-11.0196
冷水	-11.0197
4.3	-11.0198
育种	-11.0198
中共中央	-11.0201
阮	-11.0203
隔离	-11.0203
交往	-11.0204
五月	-11.0204
委员会主任	-11.0208
口碑	-11.0208
姓氏	-11.0208
园艺	-11.021
旋律	-11.0211
乞	-11.0214
琪	-11.0216
9000	-11.0217
千瓦	-11.0218
遵守	-11.0218
系统集成	-11.0219
清末	-11.022
军官	-11.0224
走出	-11.0225
标签	-11.0226
率领	-11.0227
南侧	-11.0228
唤	-11.0229
歌剧	-11.0229
学校占地面积	-11.0233
争议	-11.0233
休息	-11.0238
优先	-11.0238
年轻人	-11.0241
拒绝	-11.0241
5.1	-11.0241
老年人	-11.0242
蛙	-11.0243
是一家专业	-11.0244
二十年	-11.0245
收获	-11.0246
遥控	-11.0247
求实	-11.0249
柑	-11.0249
气氛	-11.025
等待	-11.0254
谣	-11.0255
总户数	-11.0256
淹	-11.026
新品种	-11.0263
男孩	-11.0265
95%	-11.0265
致富	-11.0266
领导小组	-11.0268
屏幕尺寸	-11.0269
十月	-11.0272
被捕	-11.0273
1/3	-11.0273
科员	-11.0274
娄	-11.0276
茵	-11.0277
西亚	-11.0282
农牧	-11.0283
198	-11.0283
天空	-11.0284
室主任	-11.0284
抢救	-11.0284
卡拉	-11.0287
瓷器	-11.0291
极限	-11.0291
改建	-11.0294
勿	-11.0294
祭祀	-11.0295
有一定的	-11.0296
3.4	-11.03
表现出	-11.03
代理商	-11.0301
十五年	-11.0301
充电器	-11.0303
湖泊	-11.0305
200多	-11.0305
焕	-11.031
栅	-11.0311
婴儿	-11.0311
俯	-11.0313
目的是	-11.0313
楷	-11.0314
一直从事	-11.0315
公平	-11.0319
在内的	-11.032
大连市	-11.0327
跋	-11.0328
声乐	-11.0329
钢筋	-11.0331
一半	-11.0332
龙门	-11.0333
十二年	-11.0335
个教学班	-11.0337
倦	-11.0339
研究会理事	-11.034
通俗	-11.0341
率达	-11.0342
30%	-11.0342
普查	-11.0342
专科学校	-11.0345
人参	-11.0345
苗族	-11.0346
荐	-11.0347
省委党校	-11.0348
地貌	-11.035
回家	-11.0351
校级	-11.0353
脉冲	-11.0354
农田	-11.0358
抑	-11.0361
装甲	-11.0363
打印机	-11.0363
5厘米	-11.0368
70年代	-11.0372
呆	-11.0375
该项目	-11.0375
概论	-11.0379
技师	-11.038
趣味	-11.0383
揉	-11.0386
这么	-11.0388
优秀论文	-11.0388
样品	-11.0388
50米	-11.0389
▁示例	-11.0391
有益	-11.0391
无穷	-11.0393
正规	-11.0393
第二次	-11.0401
乳腺	-11.0401
卫浴	-11.0401
监督检查	-11.0402
新四军	-11.0404
顶部	-11.0404
质保	-11.0405
勘察	-11.0405
骏	-11.0419
子女	-11.042
管理制度	-11.042
这座	-11.0421
胚	-11.0424
说话	-11.0432
产权	-11.0437
遵义	-11.0437
裔	-11.0437
私立	-11.0438
纷纷	-11.0438
赋予	-11.0439
也许	-11.044
魄	-11.044
裤	-11.0441
党校	-11.0443
切换	-11.0444
宪法	-11.0446
有许多	-11.0449
管理办法	-11.0449
秧	-11.0451
提前	-11.0452
如下:	-11.0454
一定要	-11.0454
零部件	-11.0455
婉	-11.0458
工程技术人员	-11.0461
让我们	-11.0462
添加剂	-11.0463
节省	-11.0465
解析	-11.0466
单纯	-11.0469
邻近	-11.047
纪委	-11.0475
田径	-11.0478
现为中国	-11.0479
透过	-11.0481
改良	-11.0481
闽东	-11.0482
科学发展观	-11.0484
规划设计	-11.0485
致力	-11.0486
合唱	-11.0487
循	-11.0493
5平方公里	-11.0495
鲜美	-11.0497
不敢	-11.0498
社会团体	-11.0499
自然保护区	-11.05
衷	-11.0502
现金	-11.0503
公式	-11.0504
切除	-11.0508
副研究员	-11.0508
蔚	-11.0511
II	-11.0512
评委	-11.0516
30分钟	-11.0517
北面	-11.0518
均衡	-11.0519
社会效益	-11.052
写字楼	-11.0524
是一道	-11.0524
不懈	-11.0529
肝炎	-11.0532
木质	-11.0532
有很多	-11.0534
[	-11.0534
亚热带	-11.0535
新闻出版	-11.0536
发生了	-11.0539
专注	-11.054
书法家协会	-11.0542
168	-11.0542
在校生	-11.0542
制造业	-11.0546
火腿	-11.0547
藕	-11.0551
敛	-11.0553
偶像	-11.0556
重点文物保护单位	-11.0556
行业协会	-11.0558
自然科学	-11.0562
委常委、	-11.0564
管委会	-11.0565
参加革命斗争	-11.057
中华民族	-11.0572
以太网	-11.0576
,西与	-11.0577
。”明	-11.0578
源自	-11.058
罕	-11.0585
秀丽	-11.0587
烤烟	-11.0589
标兵	-11.0589
实践中	-11.0591
协同	-11.0592
国土资源	-11.0596
选拔	-11.0597
768	-11.0599
具有一定	-11.0601
嵩	-11.0602
过渡	-11.0604
冷冻	-11.0605
亦有	-11.0605
550	-11.0607
并获	-11.0608
菜肴	-11.0608
统筹	-11.0609
童话	-11.0609
溶于	-11.0609
产业发展	-11.0612
纪念馆	-11.0615
南宁	-11.0616
─	-11.0617
1月1日	-11.0617
有害	-11.0621
禁止	-11.0621
矿产	-11.0622
宫廷	-11.0624
南宁市	-11.0626
文档	-11.0627
高性能	-11.0627
置于	-11.0628
造诣	-11.0631
产品开发	-11.0639
人,中共党员,	-11.0641
湘潭	-11.0644
出生在	-11.0645
色素	-11.0646
批评	-11.0648
壹	-11.0652
家协会理事	-11.0654
威海	-11.0656
痛苦	-11.0656
浊	-11.0658
赛季	-11.0658
高尚	-11.0659
强制	-11.0659
专业委员会委员	-11.0661
晋升	-11.0662
画展	-11.0663
场上位置	-11.0663
藏族	-11.0665
洗干净	-11.0665
军衔	-11.0666
并没有	-11.0667
钧	-11.0668
剧目	-11.0668
不知道	-11.067
10人	-11.0671
醚	-11.0671
养护	-11.0671
登陆	-11.0671
秆	-11.0675
200克	-11.0676
簇	-11.0677
常绿	-11.0677
热量	-11.0678
宜人	-11.068
7000	-11.0683
书法作品	-11.0685
6.0	-11.0686
演讲	-11.0694
三年(	-11.0695
步兵	-11.0697
副所长	-11.0698
女主角	-11.0698
面料	-11.07
先进技术	-11.0701
筹备	-11.0701
语法	-11.0704
全民	-11.0706
晚会	-11.0706
支援	-11.0711
活血	-11.0713
歧	-11.0713
学院院长	-11.0715
时装	-11.0716
1925年	-11.0718
100米	-11.0719
更好	-11.0727
仲裁	-11.0727
长篇小说	-11.0728
孩子们	-11.073
走进	-11.0733
你们	-11.0733
每一位	-11.0735
咒	-11.0735
毗	-11.0736
6.7	-11.0736
鸦	-11.074
班子	-11.074
,北与	-11.074
元代	-11.0744
现藏	-11.0747
弊	-11.0747
并不是	-11.075
乐趣	-11.0751
草地	-11.0752
镍	-11.0753
秋季	-11.0754
不断创新	-11.0755
八角	-11.0755
痒	-11.0759
前列	-11.076
武昌	-11.0761
靡	-11.0764
而得名	-11.0764
正义	-11.0765
充电	-11.0775
难题	-11.0775
县委常委	-11.0776
后再	-11.0777
我省	-11.078
翘	-11.0783
主要产品有	-11.0786
成效	-11.0786
名医	-11.0787
谥	-11.0787
主频	-11.0787
,南与	-11.0788
绘制	-11.0792
综合征	-11.0793
仅仅	-11.0795
外表	-11.0795
傍	-11.0796
▁所属分类:图书>	-11.0796
航空公司	-11.0797
5.4	-11.0804
伽	-11.0811
比利时	-11.0812
组件	-11.0814
标识	-11.0817
得天独厚	-11.0818
科学与工程	-11.082
撤销	-11.0822
实践经验	-11.0824
抓住	-11.0826
经济建设	-11.0827
绑	-11.0827
资源丰富	-11.0829
化妆	-11.083
出发,	-11.0834
破碎	-11.0834
扮	-11.0836
缅甸	-11.0836
三亚	-11.0837
矿床	-11.084
足够	-11.0844
(5)	-11.0847
立体声	-11.0849
卡通	-11.085
卒于	-11.0852
开拓创新	-11.0852
古迹	-11.0853
奥地利	-11.0854
水域	-11.0855
纹饰	-11.0857
新西兰	-11.0859
正科级	-11.0862
站点	-11.0863
不含	-11.0867
医疗器械	-11.0871
∶	-11.0873
浮雕	-11.0874
金黄色	-11.0874
总队	-11.0876
调任	-11.0876
近几年	-11.0878
屿	-11.0878
.....	-11.0878
不规则	-11.088
语言文学	-11.088
民事	-11.0882
有序	-11.0882
陂	-11.0883
妄	-11.0884
09年	-11.0885
颇有	-11.0889
运河	-11.0889
其主要	-11.0891
于2002年	-11.0893
唐朝	-11.0895
论证	-11.0895
访问学者	-11.0897
,中共党员。	-11.0899
姆斯	-11.09
原料:	-11.09
创刊	-11.0901
”牌	-11.0903
月刊	-11.0905
招商引资	-11.0906
年(17	-11.0908
监狱	-11.0909
细长	-11.0909
嘎	-11.0911
杀菌	-11.0913
溃	-11.0914
嘉庆	-11.0916
概述	-11.0916
发明专利	-11.0918
衣服	-11.0919
侍郎	-11.0919
教务	-11.0921
世博	-11.0922
蝴蝶	-11.0923
闯	-11.0927
热点	-11.0928
山庄	-11.0928
衫	-11.0931
芹	-11.0931
褶	-11.0935
欠	-11.0938
办主任	-11.094
清理	-11.0945
粉丝	-11.0947
最后一	-11.0957
宗旨是	-11.0962
生产加工	-11.0965
双向	-11.0965
光谱	-11.0968
溃疡	-11.0968
雇	-11.0971
缆	-11.0975
字符	-11.0975
宋·	-11.0977
检测设备	-11.0977
人民检察院	-11.0979
璧	-11.0982
院院长	-11.0983
百合	-11.0984
抬	-11.0985
教员	-11.0986
赣州	-11.0986
荣获“	-11.0987
每服	-11.099
手续	-11.099
气动	-11.0991
微软	-11.0992
中山大学	-11.0995
科协	-11.0997
耿	-11.1
财经大学	-11.1001
服务体系	-11.1001
共赢	-11.1001
下午	-11.1003
网点	-11.1005
俘	-11.1008
哥哥	-11.1008
各部门	-11.1013
鸡肉	-11.1017
109	-11.1018
东经1	-11.1021
惠州	-11.1022
畜牧业	-11.1022
断裂	-11.1028
昆山	-11.1028
自信	-11.1029
紧凑	-11.1031
待遇	-11.1035
岁月	-11.1035
往来	-11.1036
枸杞	-11.1038
6.2	-11.1038
史料	-11.104
积累了	-11.104
中科院	-11.1042
机理	-11.1043
装配	-11.1046
焚	-11.1052
即时	-11.1052
直达	-11.1053
快速发展	-11.1054
>>	-11.1054
粟	-11.1054
衍生	-11.1055
民生	-11.1059
建制	-11.106
大典	-11.1065
生物技术	-11.1069
附录	-11.1071
噪声	-11.1074
遗迹	-11.1077
女生	-11.108
寺院	-11.1082
纵队	-11.1083
先后获得	-11.1085
9001:2000	-11.1085
评比	-11.1087
于2012年	-11.1087
容纳	-11.1089
铬	-11.1094
▁第二节	-11.1098
占据	-11.11
质量监督	-11.1101
20余篇	-11.1103
肆	-11.1106
最强	-11.1107
必备	-11.1107
挂牌	-11.1108
曾先后	-11.111
妹妹	-11.1112
1983	-11.1112
卡片	-11.1114
平滑	-11.1115
俭	-11.1117
获得者	-11.1123
百强	-11.1125
政府特殊津贴	-11.1128
揭示	-11.1131
淀	-11.1133
他还	-11.1134
星期	-11.1134
得名	-11.1134
成份	-11.1136
巍	-11.114
并获得	-11.1142
天主教	-11.1146
面团	-11.1148
剂量	-11.1149
远销	-11.115
木耳	-11.1151
核心期刊	-11.1152
学报》	-11.1153
图书室	-11.1154
中介	-11.1155
高科技企业	-11.1158
用途:	-11.1159
销售收入	-11.1162
当归	-11.1164
烛	-11.1165
176	-11.1165
转型	-11.1167
壁画	-11.1167
人民代表大会	-11.1168
介入	-11.1171
画院	-11.1171
扶持	-11.1173
独家	-11.1174
商店	-11.1175
收到	-11.1176
__	-11.1177
巩固	-11.1177
1300	-11.1178
戊	-11.1182
沥	-11.1183
寅	-11.1183
分别是	-11.1184
专业学习	-11.1185
嫌	-11.1185
前卫	-11.1187
饥	-11.1189
挽	-11.1189
市委、市政府	-11.1193
膨	-11.1194
太空	-11.1195
总部设在	-11.1196
辊	-11.1197
某个	-11.1198
▁7、	-11.1199
石油化工	-11.1201
帧	-11.1203
随意	-11.1204
微型	-11.1208
碳酸	-11.1211
经营理念	-11.1211
迦	-11.1211
精通	-11.1214
年降水量	-11.1216
验证	-11.1222
参赛	-11.1223
奥林匹克	-11.1223
晚上	-11.1224
布拉	-11.1225
优质的产品	-11.1226
巩	-11.1228
潜心	-11.1232
丹麦	-11.1235
即成。	-11.1242
辱	-11.1242
座落于	-11.1245
咳嗽	-11.1248
壮大	-11.1253
性价比	-11.1254
入侵	-11.1257
自助	-11.1257
微米	-11.1257
观看	-11.1258
会展	-11.1258
肽	-11.1259
厘米,宽	-11.1261
自行车	-11.1261
19世纪	-11.1269
岚	-11.1271
十三年	-11.1278
汉代	-11.128
塌	-11.1289
苏轼	-11.1289
钻石	-11.1291
酒店位于	-11.1292
采访	-11.1293
州刺史	-11.1295
域名	-11.1295
纶	-11.1298
服务机构	-11.1299
农业产业化	-11.13
部首:	-11.13
祀	-11.1301
服役	-11.1301
亚种	-11.1301
至今任	-11.1302
酰	-11.1302
文化交流	-11.1302
相接	-11.1304
蛾	-11.1306
求发展	-11.1307
彝	-11.1308
多次被评为	-11.131
共分	-11.131
白酒	-11.131
敲	-11.1314
承受	-11.1314
躯	-11.1315
芜	-11.1317
背后	-11.1322
25克	-11.1328
石刻	-11.133
本草	-11.1331
专业人才	-11.1332
荆州	-11.1335
保证了	-11.1335
美术家协会	-11.1341
清乾隆	-11.1343
奇特	-11.1343
品味	-11.1347
为用户提供	-11.1348
各方面	-11.1362
疯狂	-11.1362
是一家以	-11.1362
商务酒店	-11.1363
苷	-11.1365
300多	-11.1365
5.8	-11.1367
战术	-11.137
内分泌	-11.1374
绩效	-11.1374
顶尖	-11.1375
恋爱	-11.1376
戎	-11.1378
氯化	-11.1379
镶	-11.1381
龚	-11.1381
放置	-11.1382
妈	-11.1384
减肥	-11.1386
土耳其	-11.1387
悔	-11.1387
大蒜	-11.1389
阎	-11.139
羌	-11.1391
腋	-11.1392
造价	-11.1395
蝉	-11.1397
农家	-11.1398
妥	-11.14
标本	-11.14
贬	-11.1403
星级酒店	-11.1406
食品有限公司	-11.1407
不断地	-11.1409
有助于	-11.1412
簿	-11.1412
兵器	-11.1416
热处理	-11.1417
清光绪	-11.1419
守护	-11.1422
转让	-11.1423
彬	-11.1425
陡	-11.1427
▁7.	-11.1427
指导员	-11.1431
富含	-11.1433
杀死	-11.1435
皮革	-11.1435
委委员	-11.1442
数千	-11.1443
出售	-11.1443
如同	-11.1444
培训班	-11.1446
诀	-11.1447
痹	-11.1447
布鲁	-11.1448
条例》	-11.1449
研发、生产、销售	-11.145
海滨	-11.1451
弹簧	-11.1451
奖章	-11.1454
剧场	-11.1468
皋	-11.1468
克服	-11.1468
意思是	-11.1468
揽	-11.1469
该品种	-11.147
日常生活	-11.1471
福州市	-11.1472
摩托车	-11.1472
大匙	-11.1475
充分利用	-11.1479
渍	-11.1484
外汇	-11.1484
哉	-11.1486
志愿	-11.1487
使用寿命	-11.149
经历了	-11.1491
人均收入	-11.1498
晚年	-11.1502
匾	-11.1503
步枪	-11.1504
二十四	-11.1506
4.1	-11.1508
服务业	-11.1508
保密	-11.1509
石材	-11.1509
万像素	-11.151
起伏	-11.1511
270	-11.1511
勉	-11.1514
无锡市	-11.1514
司职	-11.1516
吸附	-11.1517
全体员工	-11.152
精益求精	-11.152
起源	-11.1521
农业生产	-11.1525
▁(三)	-11.1525
射线	-11.1528
此书	-11.153
香菜	-11.1532
体育场	-11.1532
广泛用于	-11.1533
误差	-11.1534
拦	-11.1536
教师队伍	-11.1537
2.9	-11.1539
暮	-11.1539
这时	-11.1541
7.2	-11.1541
乒乓球	-11.1544
附属医院	-11.1549
雍正	-11.155
众生	-11.1551
铃声	-11.1552
桌面	-11.1554
灯光	-11.1557
健脾	-11.1558
商业银行	-11.1558
奠定了	-11.1558
檀	-11.156
推出了	-11.1561
壮观	-11.1561
工农	-11.1564
《关于	-11.1564
议会	-11.1565
贩	-11.1568
状元	-11.157
十四年	-11.1571
求职	-11.1572
渐渐	-11.1572
备注	-11.1572
泛指	-11.1576
南京大学	-11.1578
超声	-11.1578
接着	-11.1579
副理事长	-11.1579
变量	-11.1581
、、、、	-11.1583
中医学院	-11.1584
7.6	-11.1585
实物	-11.1588
斧	-11.1589
▁第一节	-11.1592
遗产	-11.1592
各项工作	-11.1593
知名企业	-11.1594
姜片	-11.1596
见解	-11.1596
幻想	-11.1596
娃	-11.1597
喙	-11.1597
结算	-11.1603
焯	-11.1605
建成后	-11.1608
亚太	-11.1609
疲劳	-11.1611
300余	-11.1612
冤	-11.1613
各界	-11.1615
10月生,	-11.1616
离休	-11.1619
主治医师	-11.162
愿意	-11.1622
粒重	-11.1623
网游	-11.1623
总督	-11.1625
??	-11.163
艺术品	-11.163
永恒	-11.163
,交通便利。	-11.1631
国民经济	-11.1631
楼盘	-11.1632
名叫	-11.1633
忆	-11.1635
龙泉	-11.1636
钢材	-11.1637
海底	-11.1638
背光	-11.1639
被列为	-11.1641
车程	-11.1642
缓解	-11.165
八月	-11.1652
第八届	-11.1654
反馈	-11.1654
职能部门	-11.1656
彼得	-11.1659
е	-11.1659
工作;负责	-11.166
士兵	-11.1662
颐	-11.1668
殖民	-11.1669
盏	-11.1675
第七届	-11.1676
馨	-11.1677
游览	-11.1678
七月	-11.1679
淘宝	-11.1681
澳洲	-11.1683
研究开发	-11.1685
m	-11.1685
成像	-11.1687
截至	-11.1687
微博	-11.1691
沥干	-11.1691
纪委书记	-11.1691
驼	-11.1693
承认	-11.1693
通过9001	-11.1693
浓缩	-11.1693
总工会	-11.1694
高雅	-11.1695
瓯	-11.1695
动力学	-11.1697
中级职称	-11.1701
接入	-11.1701
传送	-11.1702
是一道美食	-11.1702
艰	-11.1706
荚	-11.1707
赌	-11.1707
区人民政府	-11.1707
》是由	-11.1709
学术会议	-11.171
较少	-11.171
几年来	-11.1716
债券	-11.1717
旧址	-11.1717
跨国	-11.1718
撕	-11.172
相反	-11.1723
4.6	-11.1725
稳步	-11.1726
媒介	-11.1728
科技进步	-11.1732
县委书记	-11.1735
锰	-11.1735
八路军	-11.1735
通往	-11.1735
墓地	-11.1737
学校现有	-11.1741
12月任	-11.1741
阙	-11.1743
同治	-11.1745
金额	-11.1751
――	-11.1753
这是一个	-11.1753
总量	-11.1754
简约	-11.1756
国有资产	-11.176
共产党	-11.1761
(/)	-11.1762
楠	-11.1762
阿根廷	-11.1762
兵团	-11.1766
有名的	-11.1766
贷	-11.1767
葱姜	-11.1769
此次	-11.177
四肢	-11.1773
甲状腺	-11.1774
炫	-11.1774
入住	-11.1774
律师事务所	-11.1774
绿地	-11.1775
位于广东省	-11.1776
第十三	-11.1779
赚	-11.1785
理论与实践	-11.1787
0°	-11.1789
猜	-11.179
胰	-11.1793
8平方公里	-11.1797
工商局	-11.1798
落叶	-11.1799
解读	-11.1799
间隔	-11.1801
名录	-11.1802
大学教授	-11.1807
两项	-11.1808
前列腺	-11.181
1982	-11.1812
开阔	-11.1813
诠释	-11.1816
乙醇	-11.1818
话剧	-11.182
改名	-11.182
н	-11.182
缺点	-11.1821
老板	-11.1821
榕	-11.1823
仗	-11.1825
硝	-11.1827
预报	-11.1833
防盗	-11.1836
太湖	-11.1837
现有职工	-11.184
积累了丰富的	-11.1841
802.3	-11.1842
绅	-11.1844
聚合	-11.1846
大中型	-11.1848
60余	-11.1848
副县长	-11.1849
妇联	-11.1849
特邀	-11.1851
食谱	-11.1851
银奖	-11.1855
β	-11.1856
止痛	-11.1858
喘	-11.1861
钻研	-11.1862
泡沫	-11.1863
自来水	-11.1865
帝王	-11.1867
用户提供	-11.1868
杂志》	-11.1868
生抽	-11.1869
巧妙	-11.1873
重点项目	-11.1879
岔	-11.1881
很难	-11.1881
参见	-11.1882
十六年	-11.1885
崛起	-11.1886
紧急	-11.1887
”的经营理念,	-11.189
属植物	-11.1891
耸	-11.1892
包围	-11.1893
价值观	-11.1894
1979	-11.1894
万平米	-11.1895
脐	-11.1895
荧光	-11.1897
150克	-11.1899
爵士	-11.1901
展览会	-11.1902
起源于	-11.1905
生产和销售	-11.1908
沥青	-11.191
11个	-11.1912
读物	-11.1912
黄褐色	-11.1913
同仁	-11.1914
营养丰富	-11.1918
公办	-11.1927
君子	-11.1927
宽敞	-11.193
专门从事	-11.1934
平坦	-11.1936
躲	-11.1938
接头	-11.1942
樊	-11.1945
交互	-11.1945
石英	-11.1947
突起	-11.1952
斐	-11.1952
规模最大的	-11.1955
军分区	-11.1962
疑难	-11.1963
薇	-11.1964
锯	-11.1965
笔顺编号	-11.1969
,先端	-11.197
执导	-11.197
20公里	-11.1977
农学院	-11.1978
三十年	-11.198
自卫	-11.198
广西壮族自治区	-11.198
歼	-11.1982
电极	-11.1982
油脂	-11.1983
ㄣ	-11.1985
6.8	-11.1988
毯	-11.1988
企业之一	-11.1989
风采	-11.199
静态	-11.199
欢乐	-11.1991
ス	-11.1993
昼	-11.1999
毒性	-11.2001
穿过	-11.2005
亦作“	-11.2005
永乐	-11.2006
等一系列	-11.2012
博览	-11.2013
圃	-11.2014
功夫	-11.2014
请求	-11.2015
5.3	-11.2015
6平方公里	-11.2016
沉淀	-11.2016
肛	-11.2018
总产值	-11.2018
工序	-11.2022
遭遇	-11.2024
幼虫	-11.2032
急救	-11.2033
焖	-11.2034
粉碎	-11.2038
70%	-11.2042
卡尔	-11.2042
6.3	-11.2043
意志	-11.2043
升降	-11.2043
无毒	-11.2044
刊登	-11.2046
倾向	-11.2046
长圆形	-11.2047
硬笔书法	-11.2048
汇聚	-11.205
2平方公里	-11.2051
呵	-11.2052
火焰	-11.2052
历年	-11.2053
利税	-11.2054
注音:	-11.2064
电解	-11.2065
火灾	-11.2072
饮水	-11.2073
开发商	-11.2076
依次	-11.2078
陌	-11.2081
沼	-11.2082
名为“	-11.2086
羲	-11.2089
铁矿	-11.2092
财务管理	-11.2092
米,宽	-11.2098
旬	-11.2098
人中共党员	-11.2101
3平方公里	-11.2102
垢	-11.2105
浦东	-11.2105
党建	-11.2105
风俗	-11.2107
环球	-11.2108
肇	-11.2108
结业	-11.2109
犹如	-11.2111
第一批	-11.2111
札	-11.2113
油菜	-11.2113
社区居委会	-11.2113
几种	-11.2116
洗净切	-11.2119
60年代	-11.212
姿态	-11.2121
变更	-11.2124
加密	-11.2126
犁	-11.213
洁净	-11.2137
中的应用	-11.2143
迄今	-11.2144
县委副书记	-11.2146
污水处理	-11.2153
倾斜	-11.2155
ル	-11.2157
亿元人民币	-11.2162
太祖	-11.2162
款式	-11.2164
城堡	-11.2165
葡萄牙	-11.2166
修理	-11.2174
党组副书记	-11.2176
组成部分	-11.2176
曲折	-11.2177
寻求	-11.2178
沸水	-11.218
依照	-11.2183
4.7	-11.2183
末端	-11.2185
搬迁	-11.2192
客座教授	-11.2194
20000	-11.2197
15公里	-11.22
う	-11.22
机械工业	-11.2202
乙烯	-11.2203
统称	-11.2205
榨	-11.2212
乌鲁木齐	-11.2215
4.4	-11.2216
拒	-11.2216
ㄥ	-11.2217
门窗	-11.2218
杂质	-11.2222
世界杯	-11.2225
睡眠	-11.2229
亦可	-11.223
销往	-11.223
学院副院长	-11.2232
博客	-11.2237
网站建设	-11.2238
为一体的综合性	-11.2238
应邀	-11.2239
袍	-11.2239
▁用法用量	-11.2241
离心	-11.2241
益气	-11.2245
厦门市	-11.2246
芙蓉	-11.2248
供给	-11.2248
欧盟	-11.225
吗	-11.2251
峭	-11.2251
更大的	-11.2253
时钟	-11.2254
徙	-11.2255
女士	-11.2257
毫克	-11.2258
提倡	-11.2261
交汇处	-11.2262
突发	-11.2264
塞尔	-11.2265
机械有限公司	-11.2268
跟随	-11.227
纳入	-11.2271
磅	-11.2275
建国后	-11.2275
受理	-11.2275
迭	-11.2279
行政执法	-11.2281
恐龙	-11.2281
潇	-11.2282
十八年	-11.2285
产品重量:	-11.2287
长方形	-11.2288
共建	-11.2289
奇迹	-11.2291
防范	-11.2291
三等功	-11.2296
口岸	-11.2301
◇	-11.2303
领先水平	-11.2304
青年教师	-11.2305
霉素	-11.2305
电源适配器	-11.2306
真菌	-11.2308
腥	-11.231
各异	-11.2312
股权	-11.2312
工农红军	-11.2315
骚	-11.2322
摔	-11.2323
广大用户	-11.2326
沃尔	-11.2331
示范学校	-11.2333
蕉	-11.2333
从业人员	-11.2339
产业园	-11.234
1980	-11.234
骆	-11.2341
冢	-11.2343
格尔	-11.2351
贯彻执行国家	-11.2353
科副科长	-11.2355
产品研发	-11.2356
的样子	-11.2361
岭南	-11.2363
财政部	-11.2363
慨	-11.2363
有色金属	-11.2367
磺	-11.2368
批量	-11.2376
授课	-11.2376
考证	-11.2378
扩散	-11.2378
革命烈士	-11.2381
的重要组成部分	-11.2384
示范性	-11.2385
代号	-11.2386
精神文明建设	-11.2389
计生	-11.239
标记	-11.2391
阐述了	-11.2392
气温	-11.2393
两端	-11.2393
边境	-11.2393
科学研究院	-11.2394
红枣	-11.2395
运转	-11.2395
孵化	-11.2397
提供优质	-11.2398
总占地面积	-11.2402
广电	-11.2404
淫	-11.2405
录取	-11.2405
剔	-11.241
し	-11.2412
看见	-11.2414
宦	-11.2417
认定为	-11.242
变动	-11.242
立足于	-11.2426
世界上最	-11.2429
岳阳	-11.2433
存放	-11.2435
其父	-11.2435
863	-11.2437
剁	-11.2442
能力强	-11.2444
必然	-11.2444
夫妻	-11.2445
研究会会员	-11.2445
夺得	-11.2445
灵敏度	-11.2446
子弟	-11.2447
去除	-11.2448
橡	-11.245
6.6	-11.2452
掠	-11.2454
被迫	-11.2454
酪	-11.2455
惩	-11.2455
粗壮	-11.2456
1924年	-11.2456
体育馆	-11.2458
祖父	-11.2458
带来了	-11.2458
询	-11.2458
弟弟	-11.2459
试图	-11.246
差别	-11.246
藉	-11.2461
庆祝	-11.2462
袭击	-11.2466
深加工	-11.2467
触摸	-11.2467
估计	-11.2471
哩	-11.2475
解剖	-11.2478
古朴	-11.248
金融机构	-11.2486
窥	-11.2487
抵抗	-11.2488
大学中文系	-11.2488
人民政府批准	-11.2489
人均纯收入	-11.249
曝光	-11.2492
诸侯	-11.2493
促进会	-11.2493
40%	-11.2493
早熟	-11.2497
当事人	-11.2501
触摸屏	-11.2501
城市规划	-11.2503
第7	-11.2503
一直致力于	-11.2503
研修	-11.2505
奔腾	-11.2507
维尔	-11.251
领先地位	-11.251
路径	-11.2513
曾担任	-11.2513
焙	-11.2513
满族	-11.2514
洗涤	-11.2514
蘑菇	-11.2515
任命	-11.2519
作曲家	-11.252
诈	-11.2524
话题	-11.2526
发展壮大	-11.2526
牙齿	-11.2526
捞	-11.253
牵引	-11.253
高新区	-11.2536
房地产开发有限公司	-11.2537
奢	-11.2538
积分	-11.2538
较深	-11.2544
证据	-11.2547
常熟	-11.2548
鉴赏	-11.2551
笃	-11.2552
糯	-11.2553
固化	-11.2555
调研员	-11.2555
的通知》(	-11.2556
称呼	-11.2557
哺乳	-11.256
莽	-11.2561
漳州	-11.2562
裂片	-11.2567
简便	-11.2571
信息产业	-11.2576
编织	-11.2577
粮油	-11.2586
侦察	-11.2587
撇	-11.2588
链接	-11.2589
传染病	-11.259
羊肉	-11.2593
转动	-11.2593
词语	-11.2599
政治委员	-11.26
关于印发	-11.26
院副院长	-11.2601
圆柱形	-11.2601
绵阳	-11.2602
构件	-11.2603
刻苦	-11.2604
炎症	-11.2604
公关	-11.2606
二十世纪	-11.2608
环境优雅	-11.2608
赋》:“	-11.2608
负责全县	-11.261
培训机构	-11.261
筝	-11.2613
信念	-11.2616
饰品	-11.2622
食品安全	-11.2624
锣	-11.2629
霖	-11.263
恒星	-11.2631
外资	-11.2635
篇论文	-11.2636
绢	-11.2638
锯齿	-11.2639
汇编	-11.2643
媚	-11.2652
银杏	-11.2652
先后担任	-11.2653
4平方公里	-11.2653
善良	-11.2654
磁场	-11.2658
按键	-11.2661
周刊	-11.2664
爱尔兰	-11.267
拥有一批	-11.2671
姐妹	-11.2675
国籍	-11.2676
熔点	-11.2678
答案	-11.2681
针对性	-11.2682
协会副会长	-11.2683
内存类型	-11.2684
培养学生	-11.2688
第三方	-11.2688
调理	-11.2689
苞	-11.269
村民委员会	-11.269
芭	-11.2691
曲艺	-11.2692
技术员	-11.2692
丝绸	-11.27
太守	-11.27
株洲	-11.2701
被认为是	-11.2702
步伐	-11.2705
一、二	-11.2706
咸丰	-11.2706
I	-11.271
粪	-11.2711
党总支	-11.2712
期限	-11.2713
蕃	-11.2714
《汉书·	-11.2715
厅级	-11.2716
玻	-11.2716
庆典	-11.2719
乘坐	-11.2719
谏	-11.272
论著	-11.2722
整洁	-11.2723
か	-11.2723
现今	-11.2725
蒙古族	-11.2725
心肌	-11.2726
7.0	-11.2728
碍	-11.2729
捉	-11.2729
主打	-11.2729
缓慢	-11.273
富士	-11.2733
6月加入中国共产党	-11.2734
1981	-11.2736
十七年	-11.2739
台阶	-11.2742
丰富的临床经验	-11.2743
城墙	-11.2743
顺德	-11.2744
植被	-11.2744
讲究	-11.2748
第九届	-11.2748
人大常委会副主任	-11.275
米年平均气温	-11.2751
挚	-11.2752
勇敢	-11.2752
销量	-11.2753
创伤	-11.2754
蜂蜜	-11.2756
坂	-11.2758
阻止	-11.2758
美协	-11.276
沙滩	-11.2761
缩短	-11.2761
庭院	-11.2761
硫化	-11.2764
烦恼	-11.2765
立项	-11.2767
万立方米	-11.2769
护肤	-11.2771
协会常务理事	-11.2773
光荣	-11.2777
芬兰	-11.2778
500强	-11.2779
垩	-11.278
运营商	-11.2781
俄语	-11.2783
约翰	-11.2785
作品展	-11.2789
峦	-11.279
市场需求	-11.2792
维奇	-11.2792
麻油	-11.2793
报表	-11.2793
髓	-11.2794
р	-11.2797
有线电视	-11.2803
故宫博物院	-11.2803
猪油	-11.2807
粗糙	-11.2807
0平米	-11.2808
亩,建筑面积	-11.2809
联谊会	-11.2809
自主研发	-11.2811
,故称	-11.2812
.,.	-11.2813
三角洲	-11.2817
传真	-11.2818
教学、科研	-11.283
速率	-11.2836
谈判	-11.2837
编审	-11.2837
イ	-11.2839
芍	-11.2841
寺庙	-11.2843
短篇小说	-11.2846
》人物之一。	-11.2848
消灭	-11.2849
产业链	-11.2854
11月生,	-11.2854
奠基	-11.2855
12月生,	-11.286
殖	-11.2864
查处	-11.2866
有限公司董事长	-11.2868
持久	-11.2869
5.7	-11.2871
大力发展	-11.2871
微创	-11.2872
编纂	-11.2874
习俗	-11.2876
参考书	-11.2876
议员	-11.2876
剩余	-11.2881
抗菌	-11.2881
盈利	-11.2882
姓名:	-11.2886
哥伦比亚	-11.2887
数学系	-11.2889
怜	-11.289
不懈努力	-11.2896
砾	-11.2898
变迁	-11.2898
座落在	-11.29
北京师范大学	-11.2903
服务平台	-11.2903
建立起	-11.2905
闵	-11.2907
甘蔗	-11.2909
臀	-11.2911
定价	-11.2911
人民出版社	-11.2917
湿润	-11.2918
葱花	-11.2918
疲	-11.2918
债务	-11.292
享誉	-11.2922
武警	-11.2924
集邮	-11.2926
农业科学院	-11.2927
斑点	-11.2928
党和国家	-11.293
,东与	-11.2934
人力资源管理	-11.2935
远离	-11.2936
主任委员	-11.2939
长春市	-11.2939
10月出生,	-11.294
现在效力于	-11.294
物理系	-11.2943
250克	-11.2944
变换	-11.2945
钳	-11.2947
包裹	-11.2951
盐酸	-11.2951
取消	-11.2952
再现	-11.2954
预备	-11.2956
催化	-11.2956
〗	-11.296
每周	-11.2961
调查研究	-11.2963
版权	-11.2964
分析仪	-11.2965
〖	-11.2971
总承包	-11.2973
脱落	-11.2976
人民群众	-11.2978
多媒体教室	-11.2979
火锅	-11.298
中医药大学	-11.2981
已形成	-11.2982
沦	-11.2982
农民收入主要以种植业	-11.2982
挪威	-11.2985
羟	-11.299
聊城	-11.2992
电影节	-11.2993
哈尔滨市	-11.2993
坚定	-11.2994
监视	-11.2997
啸	-11.2999
///	-11.3005
,以便	-11.301
输入法	-11.3013
忠诚	-11.3013
追求卓越	-11.3019
潮州	-11.302
参照	-11.3021
变革	-11.3023
精准	-11.3023
碱性	-11.3024
喂	-11.3026
食堂	-11.303
魔术	-11.304
0多平方米	-11.3041
山水画	-11.3042
喇叭	-11.3046
怪物	-11.3048
指挥部	-11.3048
中央空调	-11.3057
俄国	-11.3058
职位	-11.3058
篇,其中	-11.3059
犹太	-11.306
一应俱全	-11.3062
鳃	-11.3064
店铺	-11.3064
新能源	-11.3065
风景名胜区	-11.3066
勘查	-11.3066
宜兴	-11.3067
行政区域	-11.3072
主要负责	-11.3074
购物中心	-11.308
团委	-11.3081
琢	-11.3082
风貌	-11.3084
涵盖了	-11.3087
圆柱	-11.3089
投入使用	-11.3091
配电	-11.3091
瘫	-11.3093
讽	-11.3093
6.4	-11.3094
香料	-11.3095
休闲娱乐	-11.3096
▁第三节	-11.31
姐姐	-11.3101
奶油	-11.3104
黛	-11.3105
7.8	-11.3107
愿望	-11.3108
深造	-11.311
无公害	-11.311
倪	-11.311
咀	-11.3112
倡	-11.3113
构筑	-11.3115
蛤	-11.3116
侦探	-11.3117
织物	-11.3119
主要职责	-11.3119
领导班子	-11.3127
牟	-11.3131
染色体	-11.3135
第十届	-11.3135
1/4	-11.3136
禧	-11.3137
林业局	-11.3137
娶	-11.3138
邢	-11.3145
3.9	-11.3146
部分组成	-11.3148
西瓜	-11.315
出生年月	-11.3152
侵略	-11.3154
救助	-11.3162
心理咨询	-11.3164
尽量	-11.3164
研发中心	-11.3168
如果你	-11.3169
救援	-11.3171
旷	-11.3176
颇具	-11.3178
亿美元	-11.3178
伊斯兰教	-11.3179
惧	-11.318
晖	-11.3182
胡椒	-11.3182
整治	-11.319
骨折	-11.3191
太原市	-11.3192
严格按照	-11.3192
动员	-11.3194
雏	-11.3195
濮	-11.3199
岱	-11.3201
荔	-11.3203
石家庄市	-11.3203
推理	-11.3206
迎接	-11.3206
晚报	-11.321
另一种	-11.321
《史记·	-11.3211
典范	-11.3211
镶嵌	-11.3216
传略	-11.3228
碘	-11.3229
酷睿	-11.3229
中文名	-11.3232
6.1	-11.3234
排骨	-11.3234
录像	-11.3236
英特尔	-11.324
亲切	-11.3242
30万像素	-11.3247
北魏	-11.3247
公司生产的	-11.3247
太极	-11.3248
分割	-11.3251
乡镇企业	-11.3259
侦	-11.3262
除尘	-11.3263
60%	-11.3264
级以上	-11.3264
裹	-11.3265
扁平	-11.3267
条纹	-11.3268
哨	-11.3271
溶于水	-11.3271
成立于2003年	-11.3272
芳香	-11.3273
重点中学	-11.3275
支架	-11.3276
居士	-11.3277
援助	-11.328
模糊	-11.3281
菊花	-11.3283
总编辑	-11.3286
脱离	-11.3287
住院	-11.3287
郝	-11.3288
土木工程	-11.3288
沿岸	-11.3289
命题	-11.3295
0,000	-11.3297
恳	-11.3305
保鲜	-11.3308
十余篇	-11.3308
首领	-11.3311
悬挂	-11.3313
绿化率	-11.3316
分支机构	-11.3317
古籍	-11.3321
¥	-11.3322
读卡器	-11.3322
汲	-11.3324
盐、味精	-11.3324
于一身	-11.3324
仑	-11.3327
序》:“	-11.3327
壤	-11.3331
淮安	-11.3332
查看	-11.334
躁	-11.3341
跑道	-11.3342
丰富多彩	-11.3344
服务宗旨	-11.3344
先后荣获	-11.3344
寝	-11.3349
淄博	-11.3351
巅	-11.3354
市委常委	-11.3354
先后被评为	-11.3355
临床医学	-11.3357
活动室	-11.3363
全资子公司	-11.3364
索尼	-11.3366
生活方式	-11.3368
鲸	-11.3368
鞍	-11.3372
霄	-11.3372
眺	-11.3374
手持	-11.3374
7.1	-11.3376
步行街	-11.3379
常住人口	-11.3379
试剂	-11.338
素有“	-11.3381
灼	-11.3383
畸形	-11.3388
磁盘	-11.3389
煮熟	-11.3392
探险	-11.3392
茯苓	-11.3395
容积率	-11.34
鲜艳	-11.3401
调味料	-11.3401
承载	-11.3403
直观	-11.3406
损坏	-11.3406
悄	-11.3406
约翰·	-11.3408
属于山区	-11.3408
工贸	-11.3411
蒸发	-11.3414
聚合物	-11.3417
酉	-11.342
演唱会	-11.342
ㄐㄧ	-11.3422
中国作家协会	-11.3423
抛光	-11.3427
板材	-11.3427
义乌	-11.343
名牌产品	-11.343
雄蕊	-11.3434
物价	-11.3436
干旱	-11.3437
500余	-11.3442
琐	-11.3443
半径	-11.3451
大学本科学历	-11.3452
救灾	-11.3452
有关规定	-11.3455
媒	-11.3456
新老客户	-11.3459
皮肤病	-11.3467
音像	-11.3467
认同	-11.3471
排除	-11.3472
社会保障	-11.3474
配音	-11.3481
颁布	-11.3484
派遣	-11.3485
狭窄	-11.3486
商业街	-11.3489
模仿	-11.349
这张卡	-11.3495
衙	-11.3496
楷书	-11.35
馈	-11.3504
机构改革	-11.3506
互助	-11.3506
昧	-11.3507
舰队	-11.3509
肥料	-11.3514
决心	-11.3515
毫无	-11.3518
杠	-11.3521
贴近	-11.3523
兽医	-11.3524
冰川	-11.3525
纯净	-11.3526
1978	-11.3526
教学改革	-11.3527
腌制	-11.3532
温柔	-11.3533
目录下	-11.3542
涯	-11.3546
适用范围	-11.3548
9.0	-11.3552
恶魔	-11.3555
每月	-11.3561
杜鹃	-11.3564
8.2	-11.3564
宝鸡	-11.3566
库存	-11.357
航空航天	-11.3573
敦煌	-11.3573
驳	-11.3573
矿产资源	-11.3579
苗木	-11.3583
苟	-11.3583
文化程度	-11.3585
500万元	-11.3586
寓意	-11.3587
溜	-11.3589
伤寒	-11.3591
抓好	-11.3592
炒锅	-11.3596
呼叫	-11.3602
炮兵	-11.3603
合著	-11.3606
淄	-11.3607
杂志社	-11.3612
0平方米的	-11.3613
摧	-11.3616
人民代表大会常务委员会	-11.362
锚	-11.3624
概括	-11.3631
钮	-11.3636
外观设计	-11.3642
掘	-11.3643
受伤	-11.3644
裁判	-11.3646
现效力于	-11.3647
形似	-11.3651
蔬	-11.3651
留校任教	-11.3658
隅	-11.366
靓	-11.3666
以色列	-11.3666
有限公司是一家集	-11.3668
8.4	-11.3669
://.	-11.3669
砍	-11.3672
贝壳	-11.3673
轻轻	-11.3676
实力雄厚	-11.3676
乔治	-11.3676
株式会社	-11.3681
绰	-11.3682
参展	-11.3682
驴	-11.369
感冒	-11.3693
瘟	-11.3697
最大限度	-11.3699
趁	-11.3705
太极拳	-11.3706
50年代	-11.3707
分子量	-11.3711
(195	-11.3712
棺	-11.3719
过滤器	-11.372
解除	-11.3724
高精度	-11.3724
渲染	-11.3725
踢	-11.3725
刚刚	-11.3726
与时俱进	-11.3727
故居	-11.3728
交汇	-11.3728
晏	-11.3729
储量	-11.3736
执教	-11.374
工商联	-11.3741
助教	-11.3741
概率	-11.3744
刑法	-11.3746
羽毛	-11.3748
供奉	-11.3754
建筑装饰	-11.3758
国家专利	-11.3762
局域网	-11.3763
处罚	-11.3763
珊	-11.3765
襄阳	-11.3765
冷藏	-11.3766
薄片	-11.3768
喇	-11.3771
-2-	-11.3771
农民收入主要以	-11.3773
违反	-11.3773
滥	-11.3773
大奖赛	-11.3775
范畴	-11.3777
/2000/	-11.3781
人物之一	-11.3781
作家协会会员	-11.3782
集装箱	-11.3783
享年	-11.3788
站址在	-11.3794
备份	-11.3795
经营范围	-11.3796
后裔	-11.3796
肴	-11.3797
低碳	-11.38
击败	-11.3809
红椒	-11.3809
感受到	-11.381
功耗	-11.3812
注释	-11.3812
张家界	-11.3819
瘦肉	-11.383
氨基	-11.3833
解毒	-11.3834
眷	-11.3835
祖先	-11.3835
朽	-11.3835
研究生院	-11.3837
聂	-11.3839
较早	-11.3841
汕头	-11.3844
科技进步一等奖	-11.3847
沫	-11.385
300米	-11.3851
脾胃	-11.3852
卵圆形	-11.3856
1923年	-11.3859
挫	-11.3859
黑客	-11.3863
法人资格	-11.3867
成立于2005年	-11.3868
上海交通大学	-11.387
徵	-11.3875
领导干部	-11.3879
科幻	-11.388
++	-11.3885
搜索引擎	-11.3886
绒毛	-11.3888
7平方公里	-11.3891
夫妇	-11.3892
鉴别	-11.3892
柿	-11.3894
瀑	-11.3895
筛选	-11.3895
苞片	-11.39
非凡	-11.39
存款	-11.3904
业务范围	-11.3905
7.3	-11.3906
课堂教学	-11.3918
设计理念	-11.3919
阻抗	-11.3921
摹	-11.3924
沽	-11.3928
全村共有	-11.3929
退役	-11.3932
现任中共	-11.3932
双赢	-11.3935
花岗岩	-11.3935
成立于2006年	-11.3937
妊娠	-11.3938
576	-11.3939
每亩	-11.3942
近似	-11.3943
娱	-11.3944
3-5	-11.3947
不够	-11.3947
矣。”	-11.3951
杜甫	-11.3951
抒	-11.3959
骂	-11.3962
蒿	-11.3967
ㄌ	-11.3969
曙	-11.3977
诛	-11.3981
伺	-11.3987
诡	-11.3991
糟	-11.3993
哦	-11.4022
た	-11.4032
泣	-11.4057
羞	-11.4063
な	-11.4075
痢	-11.4083
】	-11.415
褒	-11.415
潼	-11.4158
兜	-11.4158
蛛	-11.416
奠	-11.4217
荀	-11.4235
敞	-11.4258
亢	-11.4308
梢	-11.4332
阪	-11.4338
芸	-11.4338
恪	-11.4338
с	-11.4341
咪	-11.4348
Ω	-11.4391
觅	-11.4395
坞	-11.4398
鲨	-11.4406
翌	-11.4406
钵	-11.4406
酌	-11.4414
喊	-11.4421
盼	-11.4425
蚝	-11.4451
陋	-11.4457
•	-11.4466
【	-11.447
芡	-11.4476
卦	-11.4489
}	-11.4521
铲	-11.4528
ㄙ	-11.4534
ん	-11.4536
践	-11.4538
淤	-11.4541
彪	-11.4556
忱	-11.4562
痘	-11.4573
娟	-11.4582
靶	-11.4586
竿	-11.4606
桦	-11.4608
厕	-11.4612
械	-11.4615
恤	-11.4632
匡	-11.4632
ㄠ	-11.4634
苇	-11.4634
悍	-11.4636
琦	-11.4649
@	-11.4658
噬	-11.4669
в	-11.467
萝	-11.4675
晾	-11.4675
―	-11.4691
祐	-11.4693
峙	-11.4706
缔	-11.4712
{	-11.4714
臻	-11.4721
嗓	-11.4726
岑	-11.4734
掀	-11.4761
央	-11.4766
擢	-11.4795
焰	-11.4827
藓	-11.4838
稚	-11.4838
凄	-11.4854
馏	-11.487
恢	-11.4875
蒴	-11.4879
佣	-11.4883
鳌	-11.4899
宵	-11.4912
箔	-11.4919
蚊	-11.4932
缚	-11.4939
壬	-11.4943
と	-11.495
聋	-11.4955
懒	-11.4964
愧	-11.4966
郴	-11.4968
忻	-11.4979
捏	-11.4982
哑	-11.5011
硒	-11.5015
ト	-11.5043
劈	-11.5043
囚	-11.5061
烃	-11.5061
拙	-11.5066
僚	-11.5093
硼	-11.5095
谍	-11.5104
侗	-11.5111
奕	-11.512
耻	-11.5132
辍	-11.5134
姊	-11.5182
唑	-11.5212
拐	-11.5224
昨	-11.5233
谕	-11.5254
贱	-11.5275
粳	-11.5282
铎	-11.5284
к	-11.5286
ㄢ	-11.529
癸	-11.5291
リ	-11.5305
搓	-11.5333
铵	-11.5337
敕	-11.5344
亥	-11.537
墟	-11.5373
蕊	-11.5375
娥	-11.5382
・	-11.5386
浏	-11.5398
饿	-11.5424
莒	-11.5445
狸	-11.5464
蘖	-11.5472
ラ	-11.5474
拂	-11.5488
卯	-11.5498
虏	-11.5507
镂	-11.5512
□	-11.5515
颍	-11.5516
熹	-11.5529
缅	-11.5535
昊	-11.5538
睹	-11.554
娴	-11.5545
鹭	-11.555
瞬	-11.5561
贿	-11.5576
胁	-11.5581
ア	-11.5588
碾	-11.5595
颤	-11.5597
拷	-11.5612
虐	-11.5626
窖	-11.5628
僻	-11.5634
き	-11.5648
侄	-11.5648
傣	-11.5653
励	-11.5667
癣	-11.5667
孚	-11.5677
疼	-11.5678
鳄	-11.568
彰	-11.5689
溴	-11.5706
绮	-11.5713
蝇	-11.5716
洱	-11.5723
钨	-11.5723
肘	-11.5735
娅	-11.5738
弛	-11.5745
谛	-11.5745
敖	-11.5747
槟	-11.5757
窍	-11.5762
刨	-11.5762
抖	-11.5765
俩	-11.5769
茹	-11.5811
噶	-11.5818
喧	-11.5833
蜥	-11.5835
萃	-11.5845
瑜	-11.5852
呀	-11.5855
樵	-11.5858
掺	-11.5872
胖	-11.589
蜗	-11.5907
狠	-11.5911
逻	-11.5912
灿	-11.5914
戟	-11.5917
豉	-11.5927
猿	-11.5941
顷	-11.5984
涤	-11.5995
$	-11.6001
л	-11.6033
絮	-11.6044
洽	-11.6045
饺	-11.6054
赔	-11.6061
睦	-11.6062
惹	-11.6079
楞	-11.6081
ク	-11.6086
蓟	-11.6094
噪	-11.6112
ま	-11.6119
ㄤ	-11.6119
傻	-11.6122
悼	-11.6127
暇	-11.614
嚼	-11.615
愉	-11.6159
沐	-11.6182
鹊	-11.6182
瀚	-11.62
镌	-11.6201
耆	-11.6206
铀	-11.6211
颊	-11.6213
毓	-11.6239
堕	-11.6259
翟	-11.6269
柚	-11.6287
够	-11.6289
腑	-11.6298
磊	-11.6305
茗	-11.6308
秃	-11.6329
淬	-11.6331
痔	-11.6346
缕	-11.6354
脯	-11.6365
匿	-11.6404
莺	-11.6409
涪	-11.6416
粱	-11.6419
灸	-11.642
晃	-11.6432
豚	-11.6453
缉	-11.6456
鸠	-11.6461
饵	-11.6464
锭	-11.6474
汛	-11.6479
茧	-11.6482
驯	-11.6482
ㄕ	-11.6482
袜	-11.6526
吓	-11.6545
戌	-11.6553
溯	-11.6554
滁	-11.6555
颁	-11.6578
筷	-11.6582
缪	-11.6595
芷	-11.6611
甬	-11.6619
讳	-11.6622
嘛	-11.6624
笺	-11.6627
榻	-11.6635
纂	-11.6662
懿	-11.6672
橱	-11.6672
篷	-11.6683
栈	-11.6693
婷	-11.6712
ㄉ	-11.6715
厝	-11.6718
扼	-11.6726
祺	-11.6734
る	-11.6742
绛	-11.675
踞	-11.6761
羡	-11.6763
疣	-11.6801
掖	-11.6812
浚	-11.6817
畲	-11.6842
鸾	-11.6856
贰	-11.6858
佰	-11.6877
薰	-11.6896
丫	-11.6907
り	-11.6932
耍	-11.6956
漕	-11.6959
椿	-11.699
笨	-11.7
茜	-11.7
☆	-11.7006
玺	-11.7006
挠	-11.7006
沅	-11.7025
捆	-11.7028
嘱	-11.7034
佚	-11.7034
擒	-11.7034
g	-11.7042
〇	-11.7042
痈	-11.7045
掷	-11.705
舅	-11.7053
妾	-11.7056
涟	-11.7067
乖	-11.707
盔	-11.7078
柘	-11.7078
ㄟ	-11.7092
芙	-11.7097
憾	-11.7111
帛	-11.7114
锂	-11.7116
冕	-11.7117
壑	-11.7145
矾	-11.7151
芪	-11.7182
靴	-11.7212
氰	-11.7224
т	-11.7231
毙	-11.7232
ㄚ	-11.7238
巳	-11.7249
疯	-11.7254
啶	-11.7254
楂	-11.7272
挣	-11.7272
邸	-11.7272
浒	-11.7286
泼	-11.7288
瞳	-11.7291
襟	-11.7294
妓	-11.73
羁	-11.7323
荞	-11.7331
厘	-11.7346
嚣	-11.7351
挛	-11.7357
嫡	-11.736
釜	-11.7371
蝎	-11.7374
匣	-11.738
辕	-11.74
弈	-11.7409
瑰	-11.7411
毡	-11.742
涝	-11.7423
擀	-11.7426
甄	-11.7449
蟠	-11.7449
龛	-11.7452
辄	-11.7458
妨	-11.746
み	-11.7463
镰	-11.7466
に	-11.748
祷	-11.7504
遐	-11.7507
亳	-11.7513
殉	-11.7524
夯	-11.7524
羹	-11.753
矛	-11.7574
蚌	-11.7579
酋	-11.7583
跻	-11.7618
铂	-11.7626
桨	-11.7636
豁	-11.7638
裳	-11.7644
撑	-11.7661
烽	-11.7662
韬	-11.7662
瑙	-11.7662
滔	-11.7671
稷	-11.7674
ッ	-11.7676
冉	-11.7677
渚	-11.77
皓	-11.77
鱿	-11.77
陨	-11.7721
漓	-11.7748
旌	-11.7768
闺	-11.7771
芎	-11.7798
歪	-11.7813
倭	-11.7813
ㄑ	-11.7825
窜	-11.7831
哇	-11.7843
踩	-11.7849
皿	-11.7858
く	-11.7879
■	-11.7879
瀛	-11.7922
寮	-11.7928
磐	-11.7937
盎	-11.7937
廓	-11.7943
笙	-11.7946
盂	-11.7961
晦	-11.7964
こ	-11.797
烁	-11.797
箐	-11.7979
钼	-11.7982
ㄓ	-11.7988
兀	-11.7997
糜	-11.8009
遁	-11.8013
ㄩ	-11.8022
恬	-11.8028
乍	-11.8037
墅	-11.805
倩	-11.8059
蟾	-11.8065
蔗	-11.807
鄞	-11.8083
偃	-11.809
潞	-11.8095
鳝	-11.8108
潺	-11.8111
臼	-11.8117
ㄛ	-11.8117
竺	-11.8136
慌	-11.8166
穹	-11.8182
俏	-11.8182
憩	-11.8182
寰	-11.8185
疽	-11.8191
秤	-11.8198
邕	-11.8222
胥	-11.8229
歙	-11.825
谒	-11.8257
烙	-11.8291
颚	-11.8304
蘸	-11.8307
蛟	-11.831
迥	-11.8316
琉	-11.8319
さ	-11.8323
紊	-11.8332
兖	-11.8335
碌	-11.8335
魅	-11.8337
孩	-11.835
虔	-11.8399
胫	-11.8405
蚂	-11.8414
妍	-11.8427
殡	-11.8427
ㄍ	-11.8433
嫂	-11.8434
ㄅ	-11.8446
婺	-11.8452
痉	-11.8472
鲈	-11.8472
侏	-11.8475
疱	-11.8478
炽	-11.8481
陛	-11.8485
帷	-11.8507
赎	-11.851
吡	-11.8523
麝	-11.8568
昵	-11.8597
夔	-11.8603
捻	-11.8614
裘	-11.8617
苛	-11.8655
糙	-11.8692
珀	-11.8708
躬	-11.8708
V	-11.8727
ㄊ	-11.8731
ら	-11.8734
澧	-11.8737
汞	-11.8737
睾	-11.875
鄙	-11.8773
剌	-11.8777
茴	-11.8786
耦	-11.8787
瓮	-11.879
翩	-11.8806
瞰	-11.8806
逗	-11.8816
濑	-11.8833
宕	-11.8876
漾	-11.8876
褚	-11.8879
簧	-11.8882
滦	-11.8882
媳	-11.8883
嬉	-11.8883
ド	-11.8889
筠	-11.8903
膛	-11.8919
溅	-11.8923
溧	-11.8926
弼	-11.8929
戍	-11.8983
诬	-11.8983
潍	-11.8989
ㄇ	-11.899
锉	-11.901
沭	-11.901
煨	-11.901
は	-11.905
鸥	-11.9051
缮	-11.9061
恺	-11.9068
晟	-11.9084
廿	-11.9105
恼	-11.9111
驭	-11.9112
钤	-11.9118
鳖	-11.9132
扒	-11.9163
沱	-11.9173
て	-11.9176
杞	-11.918
崭	-11.9192
芩	-11.9194
榔	-11.9197
辙	-11.9211
Φ	-11.9222
璞	-11.9225
邃	-11.9232
瞿	-11.9238
伶	-11.9239
氽	-11.9239
轿	-11.9245
啼	-11.9246
诰	-11.9267
シ	-11.9283
ㄝ	-11.9297
煞	-11.9304
咖	-11.9304
嘲	-11.9304
溺	-11.9315
璋	-11.9315
扯	-11.9325
菁	-11.9346
悸	-11.9353
诃	-11.9367
葡	-11.9391
莘	-11.9398
膺	-11.9402
あ	-11.9419
绽	-11.9423
仄	-11.9427
孺	-11.9441
荟	-11.9443
怠	-11.9448
赈	-11.9462
媛	-11.9497
缤	-11.9497
隘	-11.9504
荠	-11.9508
髻	-11.9508
羚	-11.9515
僵	-11.9525
γ	-11.9536
`	-11.9536
螟	-11.954
谟	-11.9543
拣	-11.9547
萤	-11.9547
嵊	-11.955
骤	-11.9552
隽	-11.9561
珐	-11.9565
枳	-11.959
瘾	-11.9593
婿	-11.9597
辐	-11.9605
炊	-11.9618
レ	-11.9636
茉	-11.9639
挨	-11.964
莓	-11.9661
饲	-11.9662
虱	-11.9669
屹	-11.9676
戮	-11.969
挟	-11.969
怎	-11.9703
庇	-11.9712
稼	-11.9715
骇	-11.9716
鲫	-11.9741
凋	-11.9744
棣	-11.9748
篱	-11.9748
拇	-11.9752
聆	-11.9799
镖	-11.9813
叁	-11.9814
驹	-11.9814
岷	-11.9828
崂	-11.9828
蹲	-11.9887
栾	-11.9891
煌	-11.9912
蔻	-11.992
疤	-11.9931
沌	-11.9935
扳	-11.9939
淞	-11.9976
熄	-11.9979
秽	-11.9998
狙	-12.0002
漱	-12.0002
谬	-12.0006
牡	-12.0008
跪	-12.0013
咱	-12.0028
奚	-12.0032
羣	-12.0035
删	-12.0042
辜	-12.0043
榭	-12.0058
が	-12.0069
匆	-12.0076
浜	-12.0095
タ	-12.0106
钥	-12.0129
箕	-12.0137
谅	-12.0144
疟	-12.0148
涕	-12.0148
拢	-12.0152
绸	-12.0157
鄱	-12.0159
瑾	-12.0168
睢	-12.0178
榈	-12.0212
涎	-12.0247
渺	-12.0247
闫	-12.0262
ロ	-12.0285
ㄔ	-12.0289
煸	-12.0303
雯	-12.0304
呐	-12.0319
譬	-12.032
凳	-12.032
胤	-12.0331
嗅	-12.0335
刁	-12.0335
郧	-12.0339
寥	-12.0343
笠	-12.0343
曳	-12.0347
甩	-12.0358
瑛	-12.0377
凑	-12.038
闾	-12.0385
お	-12.0397
湄	-12.0397
雉	-12.0408
マ	-12.0416
钗	-12.0416
睑	-12.0435
φ	-12.0444
谎	-12.0463
腱	-12.0463
坳	-12.0467
箫	-12.047
钴	-12.0474
丕	-12.0486
炯	-12.0486
冗	-12.0494
耒	-12.0502
糠	-12.0506
曦	-12.0517
赦	-12.0522
妒	-12.0525
缭	-12.0537
讷	-12.0549
蠕	-12.0551
悚	-12.0576
臧	-12.0581
秩	-12.0587
浔	-12.0592
辗	-12.06
砸	-12.0616
肄	-12.0628
诲	-12.0632
禀	-12.0648
媲	-12.0664
滓	-12.0668
鹑	-12.0668
俑	-12.0676
鳗	-12.0684
叟	-12.0688
裱	-12.07
斛	-12.0711
缎	-12.0712
翎	-12.0724
羧	-12.0727
姻	-12.0781
庾	-12.0784
蜕	-12.0804
汴	-12.0804
铠	-12.0808
剃	-12.0812
呕	-12.084
筱	-12.0848
脖	-12.0865
醴	-12.0877
曝	-12.0886
ジ	-12.0897
砺	-12.0922
猩	-12.0922
隍	-12.0926
畸	-12.0928
毋	-12.093
阑	-12.095
弋	-12.0975
叮	-12.0987
ち	-12.0995
曜	-12.1
σ	-12.1004
澎	-12.102
湍	-12.1028
膈	-12.1053
侃	-12.1057
彤	-12.1082
霓	-12.109
茱	-12.1099
渎	-12.1111
睛	-12.1117
痿	-12.1124
も	-12.1132
フ	-12.1149
珂	-12.1178
挝	-12.1207
恕	-12.1211
耽	-12.1237
矗	-12.1237
贻	-12.1241
溥	-12.1245
莅	-12.1254
颓	-12.1279
濂	-12.1279
唾	-12.1291
咯	-12.1309
瑕	-12.1313
祯	-12.1333
蘑	-12.1351
薏	-12.1351
呎	-12.1385
苣	-12.1415
栀	-12.1415
葆	-12.1419
匮	-12.1437
缙	-12.1437
纫	-12.1459
隧	-12.1471
礴	-12.1476
绶	-12.1476
嶂	-12.1493
诙	-12.1497
覃	-12.1502
嫉	-12.1502
慷	-12.1506
宙	-12.1509
洮	-12.1518
彗	-12.1519
癜	-12.1519
钊	-12.1523
跤	-12.1527
淇	-12.1527
睫	-12.1553
澡	-12.1554
M	-12.1593
孽	-12.1597
漯	-12.1601
槛	-12.1601
攒	-12.1606
朕	-12.1606
瘙	-12.1632
佬	-12.1632
懋	-12.1641
吵	-12.1663
爹	-12.1707
螨	-12.1707
粽	-12.1711
淌	-12.1711
垛	-12.1716
й	-12.1741
カ	-12.1742
偕	-12.1752
郫	-12.1755
姨	-12.176
搁	-12.176
啮	-12.176
绫	-12.1769
铰	-12.1787
钰	-12.1787
栉	-12.1791
眶	-12.1795
祚	-12.1796
邳	-12.18
劾	-12.1804
僳	-12.1844
桢	-12.1849
祜	-12.1867
甙	-12.1872
霆	-12.1889
惕	-12.189
攸	-12.1894
缨	-12.1908
昙	-12.1908
鞠	-12.194
荼	-12.194
疝	-12.1944
惰	-12.1948
荥	-12.1962
擂	-12.198
坷	-12.1984
诅	-12.1989
褪	-12.1998
蛎	-12.1998
萱	-12.2021
萸	-12.2021
ا	-12.2025
畴	-12.2039
咨	-12.2039
枉	-12.2057
跗	-12.2062
瓢	-12.208
叩	-12.2113
つ	-12.2122
铆	-12.2126
ㄡ	-12.2135
骸	-12.214
濠	-12.215
谚	-12.2158
螯	-12.2163
殆	-12.2163
д	-12.219
拭	-12.22
璜	-12.22
を	-12.2209
盅	-12.2209
馒	-12.2233
诫	-12.2233
楔	-12.2237
疸	-12.2238
腮	-12.2242
泓	-12.2242
吁	-12.2256
黍	-12.2261
畿	-12.2261
琛	-12.2266
у	-12.2268
扔	-12.2275
憎	-12.2289
喱	-12.2307
舵	-12.2307
泌	-12.2313
邛	-12.2317
歹	-12.2322
吼	-12.2326
捺	-12.2326
鲷	-12.2331
骥	-12.2336
ㄜ	-12.234
痞	-12.235
T	-12.2368
貂	-12.2379
躺	-12.2387
痪	-12.2387
夭	-12.2397
ㄗ	-12.2406
戳	-12.2411
轶	-12.2416
凛	-12.2421
斡	-12.2425
遏	-12.2435
秸	-12.2435
蟒	-12.2439
逛	-12.2449
筵	-12.2454
煅	-12.2459
榄	-12.2468
撮	-12.2483
テ	-12.2506
铨	-12.2516
す	-12.2521
蚜	-12.2554
瘠	-12.2559
氓	-12.2579
弩	-12.2583
籼	-12.2588
俨	-12.2603
岙	-12.2603
蚓	-12.2622
颉	-12.2622
莴	-12.2627
朐	-12.2661
簪	-12.2675
迂	-12.268
俸	-12.2681
戛	-12.2724
捡	-12.2743
诣	-12.275
佥	-12.2754
娓	-12.2768
瓤	-12.2773
藜	-12.2798
苓	-12.2812
锄	-12.2818
△	-12.2827
骋	-12.2827
笈	-12.2837
陲	-12.2842
啄	-12.2867
驶	-12.2877
浣	-12.2887
で	-12.2891
蝠	-12.2911
闰	-12.2912
迤	-12.2916
宸	-12.2932
郢	-12.2937
癖	-12.2937
嘻	-12.2941
矶	-12.2941
栎	-12.2942
娩	-12.2946
靳	-12.2951
狡	-12.2987
蓼	-12.2987
蠡	-12.2992
骈	-12.2997
梆	-12.3002
赭	-12.3002
昕	-12.3032
赂	-12.3037
饷	-12.3037
疃	-12.3042
怯	-12.3057
ィ	-12.3097
蕲	-12.3103
阆	-12.3118
酣	-12.3118
讼	-12.3142
м	-12.3198
牲	-12.3202
篡	-12.3205
ㄞ	-12.321
鹌	-12.321
じ	-12.3251
れ	-12.3261
螂	-12.3277
炜	-12.3297
脘	-12.3297
葺	-12.3303
嗪	-12.3323
砼	-12.3328
燮	-12.3329
蛀	-12.3344
擎	-12.3347
涿	-12.3365
翳	-12.3391
や	-12.3401
徊	-12.3407
葩	-12.3422
恍	-12.3433
讹	-12.3433
岫	-12.3444
芮	-12.3449
镭	-12.3449
瘘	-12.3464
婢	-12.3502
憨	-12.3517
孰	-12.3539
邺	-12.3544
侈	-12.3549
粑	-12.3554
煜	-12.357
揣	-12.3586
喃	-12.3602
蕙	-12.3608
蝗	-12.3629
钣	-12.3639
锆	-12.3656
恣	-12.3677
刍	-12.3699
淆	-12.3704
稹	-12.372
遴	-12.372
绯	-12.3726
恃	-12.3731
爸	-12.3737
螃	-12.3737
泠	-12.3742
犷	-12.3742
壕	-12.3742
腭	-12.3748
牍	-12.3759
僖	-12.378
苋	-12.3786
旖	-12.3802
睁	-12.3823
谧	-12.3824
惶	-12.3824
麾	-12.3835
旎	-12.3845
垄	-12.3855
亘	-12.3867
俺	-12.3878
恽	-12.3878
箍	-12.3878
莞	-12.3879
だ	-12.3884
逅	-12.3889
玮	-12.3889
郯	-12.3889
骁	-12.3906
螭	-12.3911
伎	-12.3911
邂	-12.3928
祇	-12.3929
袂	-12.3933
畈	-12.3933
薨	-12.3934
惬	-12.3944
捍	-12.395
璐	-12.395
眸	-12.395
※	-12.3961
ㄈ	-12.3961
镗	-12.3978
沮	-12.3983
コ	-12.4011
馥	-12.4016
徘	-12.4022
寐	-12.4033
佘	-12.4033
脍	-12.405
飙	-12.4061
腓	-12.4067
杷	-12.4078
芾	-12.4089
镑	-12.4095
淖	-12.41
箴	-12.4106
朦	-12.4117
罹	-12.4123
濡	-12.4128
キ	-12.4139
屉	-12.4167
瞒	-12.4168
苄	-12.4168
荧	-12.4197
砷	-12.4218
胄	-12.4219
г	-12.4235
侮	-12.4264
柞	-12.427
匕	-12.4281
坨	-12.4304
扉	-12.4304
荪	-12.4321
∼	-12.4333
趟	-12.4333
エ	-12.4333
蛹	-12.4333
蠢	-12.4333
琊	-12.4338
钜	-12.4345
玖	-12.4356
け	-12.4356
倘	-12.4356
搪	-12.4368
枭	-12.4385
塾	-12.4389
掐	-12.4396
扛	-12.4396
贲	-12.4414
垭	-12.4414
疡	-12.4425
え	-12.4425
オ	-12.4437
荃	-12.4442
卞	-12.4443
蜚	-12.4466
◎	-12.4471
δ	-12.4483
猷	-12.4484
汹	-12.4489
儋	-12.4501
枇	-12.4507
デ	-12.4513
幔	-12.4513
钒	-12.4518
炀	-12.4524
咫	-12.453
讥	-12.4595
舫	-12.4595
胧	-12.4618
赘	-12.463
髋	-12.4636
っ	-12.4636
幡	-12.4637
鬓	-12.4648
谯	-12.4654
昱	-12.466
嫔	-12.4666
哗	-12.4677
茬	-12.4678
腈	-12.4683
骅	-12.4684
蜴	-12.4713
壅	-12.4725
噻	-12.4737
痤	-12.4749
c	-12.4749
λ	-12.4785
ウ	-12.4797
逮	-12.4803
堇	-12.4803
佗	-12.4809
桧	-12.484
膀	-12.4844
矜	-12.4852
逵	-12.4864
ㄆ	-12.4864
龈	-12.4875
バ	-12.4887
獒	-12.4893
碣	-12.4894
踵	-12.4894
踝	-12.49
薹	-12.4912
藿	-12.4912
涓	-12.4912
忏	-12.4913
槃	-12.4931
磋	-12.4949
荤	-12.4955
遒	-12.4973
蔺	-12.4985
扈	-12.4985
汐	-12.4992
佤	-12.4997
蛊	-12.5004
璇	-12.5004
塬	-12.5035
漩	-12.5035
皎	-12.5041
咎	-12.5059
崮	-12.5078
俾	-12.5096
涸	-12.5097
サ	-12.5103
§	-12.5109
钎	-12.5115
诘	-12.5128
榛	-12.5134
驮	-12.5158
佟	-12.5171
丐	-12.5196
烩	-12.5208
籁	-12.5208
皴	-12.5209
挪	-12.5218
枋	-12.5222
ナ	-12.5234
谙	-12.5234
呜	-12.524
萦	-12.524
迩	-12.524
韭	-12.5256
讶	-12.5259
晤	-12.5265
珞	-12.5278
黜	-12.5278
纣	-12.5278
ч	-12.5296
谪	-12.5315
熠	-12.5316
ミ	-12.5328
蹦	-12.5328
翊	-12.5328
亟	-12.5354
悖	-12.536
掏	-12.536
抉	-12.5366
グ	-12.5385
熨	-12.5392
酵	-12.5398
杵	-12.5399
葶	-12.5412
爻	-12.5437
蜓	-12.5456
澹	-12.5456
я	-12.5461
わ	-12.5475
峒	-12.5482
谤	-12.5514
姥	-12.5521
铢	-12.5554
衮	-12.5559
荨	-12.5566
阡	-12.5572
黯	-12.5572
贽	-12.5585
ل	-12.5585
憧	-12.5618
埭	-12.5618
‧	-12.5637
歉	-12.5651
脲	-12.5651
谴	-12.5657
鬃	-12.5663
よ	-12.5664
鳅	-12.5664
耙	-12.5671
萘	-12.5677
鳕	-12.5677
ニ	-12.5716
锑	-12.5716
祉	-12.573
叱	-12.5743
疳	-12.5743
荸	-12.5743
憬	-12.5749
蹈	-12.5755
诂	-12.5776
ム	-12.5789
郓	-12.5796
拧	-12.5796
稃	-12.5804
燎	-12.5822
蜈	-12.5822
褥	-12.5823
惭	-12.5836
磕	-12.5836
菖	-12.5842
蚣	-12.5842
蟆	-12.5849
斓	-12.5856
偈	-12.5863
忒	-12.5889
吋	-12.5896
俎	-12.5903
ひ	-12.5909
ρ	-12.591
捶	-12.5917
‰	-12.593
蜻	-12.5936
攘	-12.5936
屁	-12.5936
拈	-12.5957
崧	-12.5957
鎏	-12.5957
垮	-12.5984
腩	-12.5984
殁	-12.5984
蚤	-12.599
霁	-12.5991
哆	-12.5997
π	-12.6005
砧	-12.6017
甾	-12.6017
瞎	-12.6031
虬	-12.6031
娑	-12.6037
绷	-12.6038
晁	-12.6038
翱	-12.6052
羔	-12.6052
惫	-12.6058
砥	-12.6065
筏	-12.6066
侬	-12.6072
毂	-12.6085
鸢	-12.6086
蔑	-12.6093
窘	-12.6106
艮	-12.6113
苴	-12.6127
馍	-12.6134
酐	-12.6134
殴	-12.6134
娲	-12.6141
枞	-12.6147
プ	-12.6161
磬	-12.6162
檄	-12.6162
夙	-12.6189
ㄎ	-12.6196
ガ	-12.6203
啉	-12.6203
慑	-12.6217
嗟	-12.6224
痊	-12.6237
绊	-12.6258
ブ	-12.6265
胭	-12.6293
锺	-12.6308
罔	-12.6308
ャ	-12.6314
廪	-12.6314
佃	-12.6321
俐	-12.6342
槎	-12.6349
茭	-12.6377
敝	-12.6378
碉	-12.6399
モ	-12.6412
麸	-12.6413
赡	-12.6413
嘧	-12.6419
匝	-12.642
怅	-12.642
箨	-12.6429
筐	-12.6448
湟	-12.6455
芫	-12.6469
袅	-12.6477
疵	-12.6483
骊	-12.6491
泮	-12.6498
厮	-12.6512
弁	-12.6512
跖	-12.6526
仟	-12.6541
沔	-12.6576
麒	-12.6583
銮	-12.6584
陟	-12.6598
谗	-12.6613
赃	-12.6648
烨	-12.6649
С	-12.6655
⊙	-12.667
殇	-12.6671
汨	-12.6677
ゆ	-12.6685
阈	-12.6686
肱	-12.67
珪	-12.67
罂	-12.6706
鲑	-12.6707
桡	-12.6714
崃	-12.6721
汆	-12.6721
巽	-12.6736
俟	-12.6736
綦	-12.6751
潢	-12.6751
晰	-12.676
噩	-12.6765
彷	-12.678
藁	-12.6787
ュ	-12.6802
晔	-12.6802
メ	-12.6824
ь	-12.6838
邯	-12.6846
嵇	-12.6853
榫	-12.6854
辫	-12.6854
ろ	-12.6868
呤	-12.6883
漪	-12.6898
奄	-12.6898
桁	-12.6905
阖	-12.692
镐	-12.6927
蹬	-12.6928
劭	-12.6943
暧	-12.695
尬	-12.695
痣	-12.6957
嵘	-12.6965
氩	-12.6972
ㄘ	-12.6972
ょ	-12.6987
蹊	-12.6987
铮	-12.6987
酝	-12.701
盱	-12.701
悯	-12.701
犊	-12.701
啥	-12.7017
坍	-12.704
鹫	-12.704
蓓	-12.7063
́	-12.7085
撷	-12.7085
鲶	-12.7085
≈	-12.7093
乒	-12.71
绚	-12.7121
チ	-12.7131
燧	-12.7131
邨	-12.7138
淼	-12.7146
蔼	-12.7153
钺	-12.7153
粲	-12.7161
槌	-12.7162
囱	-12.7162
◆	-12.7164
羸	-12.7177
ε	-12.7178
渥	-12.7184
尴	-12.7199
ㄖ	-12.7207
屎	-12.7222
濯	-12.7237
懦	-12.7238
帚	-12.7261
踊	-12.7268
牒	-12.7269
ㄒ	-12.7276
婪	-12.7276
蒡	-12.7276
戾	-12.7284
癫	-12.7322
獭	-12.7338
苕	-12.7346
猗	-12.7353
哺	-12.7391
镉	-12.74
饯	-12.7408
妞	-12.7416
搐	-12.7424
觐	-12.7439
镬	-12.7463
髦	-12.747
窒	-12.747
绦	-12.7478
觞	-12.7478
鬲	-12.7478
俪	-12.7486
皈	-12.7495
鹄	-12.7533
苎	-12.7573
哄	-12.7581
嘟	-12.7581
疙	-12.7589
ダ	-12.7597
奂	-12.7605
桀	-12.7614
螳	-12.7621
裨	-12.7637
懈	-12.7638
佞	-12.7645
樽	-12.7653
淅	-12.7661
峥	-12.7661
庠	-12.7677
徕	-12.7677
咕	-12.7701
嘿	-12.7701
蛭	-12.7701
尕	-12.7701
垅	-12.7701
玫	-12.7709
苡	-12.7709
骞	-12.7725
哌	-12.7741
迄	-12.7748
镯	-12.775
拮	-12.7757
钡	-12.7765
砀	-12.7765
粕	-12.7773
摒	-12.7806
б	-12.7821
琮	-12.7823
邬	-12.7831
玑	-12.7855
髯	-12.7871
昀	-12.7871
嘶	-12.7871
痧	-12.7888
碛	-12.7896
惮	-12.7912
盯	-12.7928
め	-12.7929
祗	-12.793
猾	-12.7945
垠	-12.7954
瘩	-12.7954
骡	-12.7954
髅	-12.797
孵	-12.7976
猝	-12.7987
俚	-12.7995
圻	-12.8053
峤	-12.8061
檗	-12.8061
炔	-12.8069
坻	-12.8078
鲉	-12.8085
洵	-12.8086
邈	-12.8095
牦	-12.8103
赉	-12.8103
湮	-12.8103
濉	-12.812
鄢	-12.812
讴	-12.8137
虢	-12.8137
忿	-12.8137
琶	-12.8153
桉	-12.8154
吝	-12.817
隼	-12.817
椽	-12.8196
奘	-12.8196
遽	-12.8213
逞	-12.8213
菟	-12.823
傩	-12.8238
瓒	-12.8255
缢	-12.8264
蹇	-12.8281
К	-12.8332
缜	-12.8332
禺	-12.834
А	-12.8349
粼	-12.8349
衅	-12.8358
ビ	-12.8366
轭	-12.8367
頫	-12.8375
铿	-12.8375
傀	-12.8392
埕	-12.8401
楹	-12.8413
簸	-12.8418
羯	-12.8418
跷	-12.8427
脩	-12.8435
沓	-12.8444
斟	-12.8453
缥	-12.8461
拽	-12.8478
澈	-12.848
蜊	-12.8487
诠	-12.8495
嗽	-12.8504
煦	-12.8513
ズ	-12.8522
潦	-12.854
茁	-12.8557
錾	-12.8557
苹	-12.856
徇	-12.8584
荽	-12.8592
舷	-12.8601
灞	-12.861
畦	-12.861
蚯	-12.8618
П	-12.8618
蛰	-12.8619
炬	-12.8632
扦	-12.8645
碚	-12.8689
骷	-12.8698
舀	-12.8707
嫣	-12.8725
焘	-12.8725
瞧	-12.8742
湃	-12.8743
豇	-12.8751
甥	-12.8752
胪	-12.8752
暹	-12.876
膘	-12.8761
眙	-12.8769
桅	-12.8769
焗	-12.8778
掇	-12.8778
辇	-12.8778
狩	-12.8787
堑	-12.8787
珈	-12.8805
飓	-12.8806
幌	-12.8823
疖	-12.8823
氦	-12.8824
蠹	-12.8832
飨	-12.8833
嘌	-12.8841
М	-12.8841
埂	-12.8868
驸	-12.8878
鞣	-12.8878
觚	-12.8887
嶙	-12.8896
颞	-12.8904
铛	-12.8905
炕	-12.8905
岖	-12.8923
篾	-12.8932
郦	-12.8941
茏	-12.8941
搽	-12.895
稔	-12.8968
愍	-12.8969
楣	-12.8987
煽	-12.8996
瘿	-12.9023
撩	-12.9042
凫	-12.9051
疔	-12.9068
哎	-12.9078
颏	-12.9079
爰	-12.9088
ㄐ	-12.9096
霭	-12.9097
陉	-12.9097
せ	-12.9115
吠	-12.9115
岘	-12.9116
笏	-12.9143
ェ	-12.9152
儡	-12.9162
溏	-12.9162
舂	-12.9162
垌	-12.9171
θ	-12.9172
ㄏ	-12.9199
骰	-12.9237
圪	-12.9237
钯	-12.9246
钿	-12.9256
X	-12.9265
锵	-12.9265
冽	-12.9283
琰	-12.9284
臆	-12.9284
揆	-12.9312
楝	-12.9331
泷	-12.9331
喹	-12.9359
矽	-12.9359
巖	-12.9378
ο	-12.9379
呋	-12.9388
瘢	-12.9425
胱	-12.9445
飒	-12.9445
挞	-12.9445
阕	-12.9465
绎	-12.9471
そ	-12.9483
砭	-12.9483
荻	-12.9484
涣	-12.9493
矸	-12.9503
峋	-12.9513
庑	-12.9522
浠	-12.9541
诒	-12.9541
疥	-12.9541
喔	-12.9551
袤	-12.9551
袒	-12.9551
莪	-12.958
汰	-12.9609
淙	-12.9619
卅	-12.9638
唢	-12.9648
叨	-12.9648
倔	-12.9658
窠	-12.9658
鸪	-12.9658
饨	-12.9677
洙	-12.9678
锢	-12.9697
宥	-12.9697
Δ	-12.9707
妩	-12.9716
薮	-12.9737
讫	-12.9737
雹	-12.9746
靛	-12.9756
馄	-12.9756
犍	-12.9766
瓠	-12.9766
鼬	-12.9796
珲	-12.9805
缇	-12.9806
孪	-12.9806
丶	-12.9825
榷	-12.9826
哟	-12.9845
蜇	-12.9845
п	-12.9854
溟	-12.9875
腴	-12.9876
悴	-12.9885
琨	-12.9885
麋	-12.9885
揖	-12.9896
苻	-12.9905
ㄋ	-12.9905
涞	-12.9916
嫦	-12.9916
掳	-12.9916
鲛	-12.9925
傈	-12.9935
黟	-12.9946
猥	-12.9946
嗔	-12.9975
镛	-12.9976
蚩	-12.9987
哮	-13.0026
拗	-13.0027
迳	-13.0027
ي	-13.0047
鹧	-13.0057
枷	-13.0068
铉	-13.0078
ы	-13.0086
昶	-13.0098
拯	-13.0106
仞	-13.0118
滘	-13.0128
ど	-13.0128
歆	-13.0139
哼	-13.0159
鹘	-13.0159
醪	-13.0159
噜	-13.0159
昉	-13.0169
骠	-13.017
蓖	-13.017
徨	-13.018
醮	-13.02
珩	-13.02
驷	-13.0221
鬣	-13.0232
ω	-13.0232
抨	-13.0242
茛	-13.0262
啃	-13.0263
苁	-13.0263
髹	-13.0263
م	-13.0273
迸	-13.0273
忤	-13.0283
烬	-13.0284
稞	-13.0294
拴	-13.0315
簋	-13.0325
纨	-13.0336
勰	-13.0336
蹼	-13.0336
颛	-13.0346
τ	-13.0347
皙	-13.0377
鹳	-13.0378
鞅	-13.0388
伫	-13.0388
饬	-13.042
础	-13.0426
峄	-13.043
掰	-13.043
ョ	-13.0473
卉	-13.0474
谑	-13.0483
骶	-13.0484
ハ	-13.0494
遨	-13.0494
瞭	-13.0505
菀	-13.0526
闇	-13.0526
羿	-13.0547
В	-13.0568
炝	-13.0569
咚	-13.0569
罡	-13.059
録	-13.0601
冼	-13.0611
呱	-13.0612
痨	-13.0633
兢	-13.0633
汊	-13.0633
椁	-13.0634
璟	-13.0644
莆	-13.0652
翦	-13.0655
饕	-13.0676
弑	-13.0676
闱	-13.0687
鹗	-13.0698
铍	-13.0698
撼	-13.0715
衄	-13.0731
凰	-13.0762
パ	-13.0774
迢	-13.0785
啰	-13.0792
鼐	-13.0796
鲀	-13.0796
ず	-13.0807
霏	-13.0818
轲	-13.0851
	-13.0862
Ф	-13.0862
楫	-13.0873
苜	-13.0884
鲢	-13.0895
ر	-13.0906
柩	-13.0918
咐	-13.0929
孛	-13.0951
杳	-13.0973
饴	-13.0984
幺	-13.0984
膊	-13.0984
姗	-13.0984
ノ	-13.0995
蓿	-13.0995
馔	-13.1018
ネ	-13.1018
蚧	-13.1018
圜	-13.104
秭	-13.1051
琏	-13.1051
幄	-13.1063
蟋	-13.1074
锗	-13.1074
ば	-13.1085
骐	-13.1108
箇	-13.1108
猬	-13.1108
泯	-13.1142
涮	-13.1153
稗	-13.1165
逶	-13.1222
蝽	-13.1244
樾	-13.1256
嬴	-13.1256
惚	-13.1267
擘	-13.1279
恻	-13.1279
惘	-13.129
鹦	-13.1302
铋	-13.1302
繇	-13.1337
铌	-13.1348
沣	-13.136
糅	-13.136
鸮	-13.1371
氙	-13.1383
揪	-13.1395
阉	-13.1406
吩	-13.1406
η	-13.1406
啤	-13.1421
臾	-13.143
堀	-13.1441
嘘	-13.1453
訇	-13.1453
墉	-13.1453
澍	-13.1476
х	-13.1487
蛔	-13.1488
釐	-13.15
殃	-13.15
瞪	-13.1523
甑	-13.1524
鞑	-13.1535
皑	-13.1547
馗	-13.1547
舶	-13.1556
缂	-13.157
岬	-13.1571
聿	-13.1582
嘈	-13.1594
鸵	-13.1594
惺	-13.1618
羰	-13.1654
이	-13.1658
吒	-13.1666
嵋	-13.1678
楸	-13.1678
囿	-13.1678
佯	-13.1678
啡	-13.1689
咲	-13.169
饧	-13.1702
鹃	-13.1713
鬻	-13.1774
溆	-13.1786
l	-13.1786
厩	-13.1798
咤	-13.1798
傥	-13.181
疎	-13.1822
淦	-13.1822
剽	-13.1823
稜	-13.1859
锶	-13.1871
埚	-13.1883
豕	-13.1908
ς	-13.1908
Б	-13.1919
胳	-13.192
箩	-13.1932
ν	-13.1945
槭	-13.1957
轸	-13.1969
囧	-13.1969
雒	-13.1969
邾	-13.1994
圳	-13.2002
鲲	-13.2018
姣	-13.2019
嚏	-13.2031
氡	-13.2031
®	-13.2043
潟	-13.2056
掾	-13.2068
Р	-13.208
セ	-13.2081
萜	-13.2081
痫	-13.2093
幂	-13.2093
猖	-13.2105
蓑	-13.2106
峯	-13.2118
肫	-13.2118
鳜	-13.2118
囤	-13.2131
з	-13.2142
趴	-13.2143
绀	-13.2143
坩	-13.2156
钹	-13.2156
氛	-13.216
蜍	-13.2168
柬	-13.2169
帙	-13.2169
檩	-13.218
━	-13.2181
筮	-13.2181
彊	-13.2193
茔	-13.2194
斫	-13.2206
锲	-13.2269
蟑	-13.2269
旻	-13.2269
螈	-13.2282
灏	-13.2295
婕	-13.2308
ι	-13.2321
窿	-13.2333
ن	-13.2346
裟	-13.2359
龋	-13.2359
逋	-13.2359
啬	-13.2371
瘰	-13.2397
祟	-13.2397
硐	-13.2397
瞩	-13.2414
骧	-13.2436
椭	-13.2452
钽	-13.2474
篁	-13.2487
锷	-13.2488
谄	-13.2501
谌	-13.2527
菅	-13.2539
疚	-13.2553
鸱	-13.2553
趺	-13.2553
邡	-13.2553
喆	-13.2566
ァ	-13.2566
蟀	-13.2592
獐	-13.2592
辋	-13.2603
谲	-13.2605
餮	-13.2605
蚬	-13.2605
砻	-13.2606
鲟	-13.2618
ワ	-13.2618
▲	-13.2618
阇	-13.2619
诋	-13.2619
汩	-13.2632
芗	-13.2658
憔	-13.2671
咙	-13.2671
蜃	-13.2671
醌	-13.2684
鬟	-13.2684
钕	-13.271
盥	-13.2711
匈	-13.2711
愫	-13.2724
篦	-13.2738
و	-13.2764
寳	-13.2777
娆	-13.2777
臊	-13.2777
埼	-13.2791
杲	-13.2804
阗	-13.2804
颢	-13.2804
仡	-13.2804
禛	-13.2817
袈	-13.2817
肼	-13.2817
顼	-13.2844
牀	-13.2858
怖	-13.2858
耘	-13.2871
悌	-13.2871
渤	-13.2871
糍	-13.2885
痂	-13.2898
惆	-13.2898
纥	-13.2899
偎	-13.2912
碓	-13.2925
咧	-13.2938
邝	-13.2952
赓	-13.2952
娣	-13.2953
蚪	-13.2953
袱	-13.2953
钏	-13.2966
霰	-13.2966
箧	-13.2979
岌	-13.2979
蝌	-13.3007
楮	-13.3034
鄄	-13.3034
铳	-13.3048
窈	-13.3048
搔	-13.3048
戦	-13.3061
瘁	-13.3062
罘	-13.3089
偁	-13.3103
ツ	-13.3103
洄	-13.3117
珙	-13.3117
熵	-13.3117
掣	-13.3117
麼	-13.3144
↓	-13.3145
咆	-13.3145
猕	-13.3145
珉	-13.3158
瑄	-13.3158
ゅ	-13.3158
闳	-13.3159
乓	-13.3172
ほ	-13.3172
豺	-13.3173
镞	-13.3173
谘	-13.3186
蛱	-13.3186
k	-13.32
膑	-13.3201
÷	-13.3201
篝	-13.3214
胛	-13.3215
垸	-13.3215
缈	-13.3242
懵	-13.3256
蛏	-13.3256
笆	-13.327
徭	-13.327
圮	-13.3271
崴	-13.3284
A	-13.3284
谔	-13.3285
〞	-13.3311
杓	-13.3312
崆	-13.3312
蒌	-13.3326
诔	-13.3326
蕈	-13.3327
槿	-13.3327
瘴	-13.334
竣	-13.3346
鼹	-13.3369
跛	-13.3397
莜	-13.3397
琬	-13.3411
箸	-13.3412
罄	-13.3425
焱	-13.3425
膦	-13.3426
厣	-13.3452
枸	-13.3469
瞄	-13.3477
o	-13.3483
僭	-13.3483
疬	-13.3497
缄	-13.3497
氵	-13.3498
辔	-13.3512
侥	-13.3512
颔	-13.3512
邗	-13.3526
徉	-13.3569
闿	-13.3569
鲵	-13.3598
Н	-13.3613
ふ	-13.3627
柒	-13.3641
僮	-13.3642
鹟	-13.3656
髂	-13.3657
穰	-13.3671
ね	-13.3671
诩	-13.3671
И	-13.3686
忡	-13.37
眨	-13.3715
珏	-13.3715
牺	-13.3759
镊	-13.3759
榉	-13.3759
挈	-13.3774
玳	-13.3774
唆	-13.3774
棂	-13.3774
n	-13.3789
璃	-13.3789
抟	-13.3803
茌	-13.3818
篓	-13.3818
偻	-13.3818
狎	-13.3818
赊	-13.3833
茯	-13.3848
亵	-13.3848
蛉	-13.3863
摭	-13.3878
癞	-13.3878
暄	-13.3878
嵴	-13.3878
獠	-13.3892
粿	-13.3895
颧	-13.3908
吮	-13.3923
嶷	-13.3937
倜	-13.3952
牯	-13.3952
鬭	-13.3952
眇	-13.3953
魇	-13.3982
慵	-13.3983
褂	-13.3983
徜	-13.3998
膻	-13.3998
谆	-13.3998
恙	-13.3998
鸫	-13.4012
阊	-13.4028
鹬	-13.4029
濞	-13.4043
ケ	-13.4043
怆	-13.4043
辂	-13.4058
鲇	-13.4089
橐	-13.4104
滹	-13.4104
璠	-13.4119
←	-13.4119
诽	-13.4119
纭	-13.4135
渑	-13.415
蛳	-13.415
ゴ	-13.4165
瑚	-13.4165
ب	-13.4165
О	-13.418
秣	-13.4181
胯	-13.4196
谀	-13.4211
仝	-13.4212
剡	-13.4212
潴	-13.4227
濬	-13.4227
吲	-13.4227
垟	-13.4242
镕	-13.4258
椹	-13.4258
沢	-13.4273
恸	-13.4273
婀	-13.4273
恂	-13.4289
Т	-13.4289
袄	-13.4289
靼	-13.4289
鹞	-13.4305
眦	-13.4305
霾	-13.432
瑁	-13.4336
葭	-13.4336
奁	-13.4336
郗	-13.4336
缫	-13.4351
蓥	-13.4351
舛	-13.4352
ゃ	-13.4382
飚	-13.4398
墀	-13.4414
孑	-13.4414
绾	-13.4414
磴	-13.4414
殓	-13.4429
裆	-13.4477
珑	-13.4477
俳	-13.4477
哚	-13.4493
Д	-13.4508
蒺	-13.4508
翕	-13.4525
撬	-13.4541
氐	-13.4557
浄	-13.4572
燹	-13.4589
箬	-13.4619
芊	-13.4621
د	-13.4636
ぎ	-13.4685
娼	-13.4685
啖	-13.4686
惇	-13.4701
惋	-13.4701
砦	-13.4701
隗	-13.4718
ф	-13.4733
挹	-13.4734
佶	-13.4766
蛆	-13.4783
漉	-13.4832
炷	-13.4847
濛	-13.4864
栝	-13.4865
蹙	-13.4865
煊	-13.4865
赅	-13.4881
琇	-13.4881
咄	-13.4881
蹠	-13.4897
狈	-13.4897
棹	-13.4914
谶	-13.4914
喋	-13.4914
刈	-13.4914
腧	-13.493
噎	-13.4947
箓	-13.498
ボ	-13.498
旃	-13.498
柠	-13.498
窕	-13.4997
む	-13.4997
赀	-13.5014
襞	-13.5014
蹶	-13.5014
捌	-13.5064
耄	-13.5064
婶	-13.5081
碁	-13.5081
ヴ	-13.5081
塍	-13.5098
湫	-13.5098
诤	-13.5115
Г	-13.5131
郸	-13.5131
硖	-13.5131
↑	-13.5131
锹	-13.5131
滂	-13.5148
蚶	-13.5148
咔	-13.5148
ザ	-13.5165
觊	-13.5165
馋	-13.5165
弭	-13.5165
珥	-13.5182
婵	-13.5216
謇	-13.5216
辘	-13.5216
笞	-13.5217
蒽	-13.5233
杈	-13.5234
啪	-13.525
纡	-13.5251
摈	-13.5251
ソ	-13.5267
鳔	-13.5268
谠	-13.5285
麂	-13.5302
爨	-13.5302
帜	-13.5335
崛	-13.5345
摺	-13.5354
徂	-13.5354
倮	-13.5371
S	-13.5371
谩	-13.5371
琥	-13.5405
眯	-13.5422
铡	-13.544
渌	-13.5458
椴	-13.5458
胍	-13.5458
蝮	-13.5475
邙	-13.5476
酢	-13.5493
嗳	-13.551
酗	-13.551
喵	-13.551
搂	-13.551
砜	-13.5528
攫	-13.5528
橼	-13.5528
掬	-13.5528
朓	-13.5545
咋	-13.5546
欤	-13.5565
隰	-13.558
狞	-13.5581
牖	-13.5598
乂	-13.5599
泱	-13.5616
蛸	-13.5616
呃	-13.5616
鹀	-13.5616
菽	-13.5616
蕤	-13.5617
晷	-13.5635
槁	-13.5652
萋	-13.567
黠	-13.5688
蚴	-13.5705
嵯	-13.5706
俦	-13.5723
ぶ	-13.5723
俶	-13.5723
阚	-13.5759
愆	-13.576
觑	-13.5777
螽	-13.5777
庖	-13.5796
√	-13.5813
ぐ	-13.5814
淝	-13.5814
辎	-13.5832
κ	-13.5832
缟	-13.585
曷	-13.585
畹	-13.5868
ц	-13.5885
蹴	-13.5886
鸳	-13.5904
宓	-13.5923
跏	-13.5923
ψ	-13.5923
殚	-13.5941
纾	-13.5941
栲	-13.596
唔	-13.5978
嬗	-13.5996
郤	-13.5997
ベ	-13.6014
酞	-13.6014
妲	-13.6051
黝	-13.6052
瘕	-13.6052
讪	-13.6088
篙	-13.6089
铄	-13.609
夼	-13.6108
睽	-13.6108
眈	-13.6108
彧	-13.6126
鲳	-13.6126
缶	-13.6126
缯	-13.6145
郏	-13.6182
C	-13.6201
肮	-13.6201
琯	-13.622
圹	-13.622
榧	-13.6238
衾	-13.6239
吱	-13.6258
璎	-13.6258
艽	-13.6276
桷	-13.6277
磡	-13.6295
ヒ	-13.6295
鲅	-13.6295
拄	-13.6296
ご	-13.6314
栱	-13.6315
橇	-13.6334
莨	-13.6352
蘅	-13.6352
泔	-13.6352
剞	-13.6353
姒	-13.6353
髁	-13.6371
铙	-13.6372
瑗	-13.6391
馁	-13.641
跸	-13.641
姝	-13.641
垓	-13.641
鼾	-13.6468
缰	-13.6487
竦	-13.6488
橹	-13.6507
蜱	-13.6545
苌	-13.6565
嗨	-13.6565
裾	-13.6565
钍	-13.6565
颡	-13.6604
哒	-13.6624
浯	-13.6624
啾	-13.6624
豢	-13.6643
勖	-13.6643
伉	-13.6643
P	-13.6644
蹑	-13.6644
镓	-13.6663
缛	-13.6663
殒	-13.6663
杼	-13.6682
酊	-13.6683
黒	-13.6702
顗	-13.6722
ヤ	-13.6742
葳	-13.6742
屐	-13.6742
玥	-13.6761
胴	-13.6762
璘	-13.6762
饽	-13.6762
蜷	-13.6782
堍	-13.6782
轼	-13.6783
嚷	-13.6802
鲮	-13.6802
尻	-13.6802
旄	-13.6822
硚	-13.6842
虺	-13.6842
椤	-13.6842
翥	-13.6862
蒯	-13.6862
郾	-13.6882
ة	-13.6882
卍	-13.6882
掸	-13.6882
ピ	-13.6902
匏	-13.6902
缬	-13.6902
嘹	-13.6902
恚	-13.6903
醍	-13.6903
垤	-13.6943
囯	-13.6943
徼	-13.6963
O	-13.6963
缗	-13.6982
诜	-13.6983
蠲	-13.7004
舔	-13.7004
疠	-13.7024
鹜	-13.7024
唧	-13.7025
竜	-13.7044
佝	-13.7045
捅	-13.7065
胗	-13.7065
瞽	-13.7065
翚	-13.7066
铗	-13.7086
芨	-13.7106
蜢	-13.7127
骜	-13.7127
鄯	-13.7127
籀	-13.7147
艹	-13.7147
溱	-13.7147
坭	-13.7147
笄	-13.7148
佺	-13.7148
裏	-13.7168
蚱	-13.7168
縻	-13.7189
扪	-13.7189
懊	-13.7189
胨	-13.721
漈	-13.721
呗	-13.721
楯	-13.7231
镳	-13.7251
潋	-13.7252
襦	-13.7272
枧	-13.7273
铑	-13.7293
菰	-13.7314
県	-13.7314
徧	-13.7335
滏	-13.7336
鹩	-13.7336
啜	-13.7356
巯	-13.7357
蹂	-13.7357
樗	-13.7378
氲	-13.7378
า	-13.7378
藐	-13.7378
欹	-13.7399
埙	-13.74
抠	-13.742
蓣	-13.742
晗	-13.7441
蓍	-13.7442
闼	-13.7443
噢	-13.7462
瑀	-13.7462
婧	-13.7463
莼	-13.7463
缁	-13.7463
嗡	-13.7463
铤	-13.7484
ギ	-13.7484
愣	-13.7505
铧	-13.7505
ㄦ	-13.7505
貉	-13.7506
鲎	-13.7506
愕	-13.7527
獗	-13.757
戗	-13.757
ш	-13.759
瞑	-13.7591
曩	-13.7613
枨	-13.7613
桠	-13.7635
阂	-13.7635
琚	-13.7656
憋	-13.7657
蓦	-13.7657
呻	-13.7679
嵬	-13.7679
遑	-13.7701
崽	-13.7722
苈	-13.7722
妫	-13.7722
ォ	-13.7744
س	-13.7744
̇	-13.7744
戢	-13.7744
铱	-13.7744
邠	-13.7744
怙	-13.7766
铟	-13.7767
怔	-13.7788
瞥	-13.7788
ポ	-13.7788
鹂	-13.7788
墒	-13.7788
F	-13.781
戡	-13.7832
泞	-13.7832
ร	-13.7833
訾	-13.7833
郜	-13.7854
砝	-13.7854
韫	-13.7854
豸	-13.7855
刎	-13.7876
糸	-13.7877
笳	-13.7899
堃	-13.7899
鳟	-13.7899
唉	-13.7921
Л	-13.7921
衽	-13.7921
蹿	-13.7922
獾	-13.7943
∈	-13.7944
蹭	-13.7965
呷	-13.7966
螫	-13.7966
樨	-13.7966
蝈	-13.7988
栩	-13.7988
赝	-13.7989
叽	-13.7989
嗯	-13.801
茼	-13.8011
孳	-13.8011
祢	-13.8011
忝	-13.8012
菔	-13.8033
呛	-13.8034
邰	-13.8034
溉	-13.8056
Đ	-13.8056
晞	-13.8056
卟	-13.8056
纔	-13.8079
菘	-13.8079
锟	-13.808
げ	-13.8101
旸	-13.8102
鏊	-13.8124
D	-13.8124
垴	-13.8124
螅	-13.8125
恁	-13.8147
盦	-13.817
び	-13.817
鳢	-13.8216
昴	-13.8239
i	-13.8239
ж	-13.8284
汜	-13.8286
泺	-13.8286
浃	-13.8308
锛	-13.8308
沤	-13.8331
啧	-13.8332
舸	-13.8332
怛	-13.8332
睨	-13.8355
铯	-13.8355
滗	-13.8355
搀	-13.8378
櫆	-13.8402
へ	-13.8425
峁	-13.8425
衲	-13.8426
胝	-13.8427
槲	-13.8449
徳	-13.8449
噤	-13.8449
妪	-13.8472
菴	-13.8473
豳	-13.8473
鏖	-13.8496
蛄	-13.8496
寤	-13.8519
醐	-13.852
嬷	-13.8543
骛	-13.8567
詈	-13.8567
麴	-13.8567
磻	-13.8567
孀	-13.8568
薤	-13.8591
妤	-13.8591
肟	-13.8591
觎	-13.8591
蔸	-13.8592
荜	-13.8615
蕻	-13.8615
绡	-13.8615
禳	-13.8639
鼩	-13.8687
ع	-13.8687
ɡ	-13.8687
雎	-13.8711
莠	-13.8712
嚎	-13.8736
瘪	-13.876
碲	-13.876
蔫	-13.8808
〜	-13.8809
蹋	-13.8833
姫	-13.8833
桫	-13.8833
诧	-13.8833
茆	-13.8833
腆	-13.8857
鲂	-13.8857
蝼	-13.8857
帏	-13.8858
ざ	-13.8858
瓘	-13.8858
璨	-13.8882
駅	-13.8882
洹	-13.8882
鄣	-13.8883
笥	-13.8906
枥	-13.8907
鹈	-13.8907
葫	-13.8931
抡	-13.8932
钇	-13.8955
¢	-13.8956
鲩	-13.8956
玠	-13.8956
骖	-13.8956
蜉	-13.8981
迨	-13.8981
躇	-13.8981
鷟	-13.8981
鹪	-13.8981
鸨	-13.8982
镫	-13.8982
鳐	-13.9006
璩	-13.9006
燔	-13.9006
绂	-13.9006
倏	-13.9006
霎	-13.9031
玷	-13.9031
蹉	-13.9031
驽	-13.9056
鞫	-13.9056
悫	-13.9081
衿	-13.9081
莳	-13.9081
滟	-13.9081
仃	-13.9105
阱	-13.9106
鲠	-13.9131
虻	-13.9131
砣	-13.9131
鲭	-13.9156
诳	-13.9156
爿	-13.9157
氤	-13.9157
躏	-13.9182
挎	-13.9233
犒	-13.9233
碴	-13.9233
拚	-13.9258
拏	-13.9258
镦	-13.9258
翮	-13.9284
麽	-13.9284
a	-13.9309
诟	-13.9309
拎	-13.9309
垡	-13.9309
黼	-13.9309
绉	-13.931
阏	-13.9335
珣	-13.9335
趸	-13.9335
瓿	-13.9335
螵	-13.936
唠	-13.9361
缦	-13.9361
踌	-13.9387
狰	-13.9412
揩	-13.9413
菏	-13.9437
卣	-13.9438
锴	-13.9465
圉	-13.9465
铈	-13.9488
颦	-13.949
ゲ	-13.949
∞	-13.949
覩	-13.9491
捂	-13.9491
ユ	-13.9517
溲	-13.9517
駰	-13.9517
浐	-13.9543
υ	-13.9544
卮	-13.9569
B	-13.9569
啭	-13.957
蝾	-13.9596
谵	-13.9596
沩	-13.9596
叼	-13.9596
嫖	-13.9596
瘗	-13.9596
도	-13.9599
ح	-13.9622
蒗	-13.9649
埗	-13.9675
呦	-13.9675
嬛	-13.9676
噫	-13.9702
熘	-13.9702
侪	-13.9702
赧	-13.9702
鹛	-13.9728
媪	-13.9729
狒	-13.9755
柰	-13.9756
蜒	-13.9756
閤	-13.9783
浍	-13.9783
觥	-13.9783
雩	-13.9783
叻	-13.9783
焓	-13.9783
屦	-13.9783
唬	-13.9809
鲱	-13.9809
N	-13.9809
鼋	-13.9837
髌	-13.9862
寞	-13.9863
罍	-13.9863
唛	-13.9864
隈	-13.9891
昺	-13.9891
아	-13.9898
喳	-13.9918
霈	-13.9945
べ	-13.9945
靥	-13.9972
지	-13.9976
颙	-14
嗦	-14.0027
┇	-14.0028
驺	-14.0028
凼	-14.0028
氘	-14.0028
荏	-14.0055
垱	-14.0055
仫	-14.0083
洺	-14.0083
臬	-14.0083
帑	-14.0083
น	-14.0083
趵	-14.0084
鰕	-14.0111
窨	-14.0111
魟	-14.0139
戸	-14.0139
嗤	-14.0139
拊	-14.0166
鳊	-14.0167
〝	-14.0194
奭	-14.0195
祎	-14.0222
玟	-14.0222
鸬	-14.0223
葑	-14.0251
蝰	-14.0251
荑	-14.0251
洌	-14.0279
郛	-14.0279
苫	-14.0279
犄	-14.028
赍	-14.028
鋬	-14.0307
鸰	-14.0308
暝	-14.0336
绔	-14.0336
叭	-14.0336
대	-14.0337
镝	-14.0362
扃	-14.0364
懑	-14.0365
絜	-14.0365
垵	-14.0365
捎	-14.0365
殄	-14.0365
耨	-14.0366
缵	-14.0393
筌	-14.0393
堌	-14.045
郄	-14.045
蘇	-14.0479
逄	-14.0479
亓	-14.048
誊	-14.0508
嬅	-14.0508
秕	-14.0508
嗒	-14.0508
铊	-14.0537
聒	-14.0537
骢	-14.0537
遯	-14.0537
薷	-14.0538
骺	-14.0566
髀	-14.0566
倞	-14.0566
菡	-14.0566
镒	-14.0595
糗	-14.0595
耋	-14.0624
砒	-14.0625
洎	-14.0625
缍	-14.0654
悱	-14.0654
鹚	-14.0654
鮨	-14.0654
∕	-14.0654
遘	-14.0654
唏	-14.0654
h	-14.0654
怂	-14.0654
屌	-14.0683
萆	-14.0683
诹	-14.0683
佻	-14.0683
晌	-14.0683
嗷	-14.0684
淛	-14.0713
ت	-14.0713
吆	-14.0713
贶	-14.0713
穑	-14.0713
抃	-14.0713
哙	-14.0714
喽	-14.0739
寔	-14.0742
寃	-14.0742
竑	-14.0742
埤	-14.0742
∠	-14.0742
髭	-14.0773
讎	-14.0802
籴	-14.0802
噱	-14.0802
麈	-14.0802
妣	-14.0802
̊	-14.0802
槊	-14.0802
荦	-14.0802
儁	-14.0832
孱	-14.0861
毽	-14.0862
牝	-14.0862
鳙	-14.0862
黻	-14.0862
膂	-14.0862
埵	-14.0862
囗	-14.089
砰	-14.0891
淠	-14.0891
痱	-14.0891
黉	-14.0892
鲽	-14.0892
한	-14.0894
嘀	-14.0922
沆	-14.0922
噌	-14.0922
骝	-14.0922
阃	-14.0922
−	-14.0952
瀬	-14.0952
廨	-14.0952
涑	-14.0952
陔	-14.0952
芈	-14.0982
耜	-14.0982
滢	-14.0982
侑	-14.0983
湜	-14.1012
钲	-14.1013
炅	-14.1013
匍	-14.1043
悭	-14.1043
逖	-14.1043
亻	-14.1043
碶	-14.1073
雠	-14.1073
讵	-14.1074
轫	-14.1104
捋	-14.1104
筲	-14.1104
陬	-14.1105
≠	-14.1134
鳉	-14.1135
瞠	-14.1135
罴	-14.1166
碇	-14.1166
埝	-14.1167
榖	-14.1167
燊	-14.1228
廝	-14.1228
│	-14.1228
躅	-14.1228
跺	-14.1229
鲆	-14.1259
ホ	-14.1259
樯	-14.1259
袴	-14.1259
어	-14.1267
甪	-14.129
唁	-14.129
鹡	-14.1291
砬	-14.1291
나	-14.1298
▪	-14.1322
柽	-14.1322
ˉ	-14.1353
钚	-14.1353
襁	-14.1353
粧	-14.1385
桎	-14.1385
蘧	-14.1385
岢	-14.1385
笕	-14.1385
裒	-14.1385
髡	-14.1385
埒	-14.1385
蝥	-14.1417
Х	-14.1447
鼯	-14.1448
妊	-14.1448
锏	-14.1449
고	-14.1451
蓇	-14.148
亶	-14.148
褓	-14.148
倬	-14.1511
簟	-14.1512
埇	-14.1512
凪	-14.1512
煇	-14.1512
艏	-14.1512
堞	-14.1545
惦	-14.1576
ư	-14.1576
葖	-14.1576
사	-14.1577
L	-14.1608
玕	-14.1609
鬯	-14.1609
炱	-14.1641
喟	-14.1641
癔	-14.1673
蓊	-14.1674
∮	-14.1706
洸	-14.1706
喾	-14.1706
藨	-14.1739
愔	-14.1739
廛	-14.1771
颀	-14.1771
ペ	-14.1771
焜	-14.1771
珅	-14.1771
逦	-14.1771
菪	-14.1803
郇	-14.1804
肓	-14.1804
踹	-14.1804
∑	-14.1804
烝	-14.1804
毘	-14.1805
偓	-14.1837
蚵	-14.1837
绌	-14.1837
貘	-14.1837
慝	-14.187
赜	-14.1871
蠖	-14.1903
岿	-14.1904
가	-14.1909
э	-14.1933
怏	-14.1937
粜	-14.1938
洧	-14.197
劼	-14.197
賸	-14.197
u	-14.197
啻	-14.197
珺	-14.197
і	-14.1971
酆	-14.1971
畋	-14.2004
김	-14.2004
劵	-14.2004
恿	-14.2004
G	-14.2004
鸻	-14.2005
崤	-14.2036
睬	-14.2037
訄	-14.2037
ぼ	-14.2037
旒	-14.2038
苒	-14.2038
炁	-14.2038
梏	-14.2071
凇	-14.2071
跣	-14.2071
缣	-14.2072
嘏	-14.2105
袪	-14.2105
姹	-14.2105
氚	-14.2138
咩	-14.2139
ั	-14.2139
檬	-14.2139
趼	-14.2173
跚	-14.2173
镧	-14.2204
翡	-14.2206
痼	-14.2207
诮	-14.2207
沏	-14.2207
吭	-14.2208
聃	-14.2208
อ	-14.2208
逍	-14.2242
跎	-14.2242
苾	-14.2243
정	-14.2244
筚	-14.2276
磙	-14.2276
銎	-14.2276
鳏	-14.2277
ی	-14.2311
棻	-14.2311
棨	-14.2311
覈	-14.2311
聩	-14.2311
‖	-14.2345
偌	-14.2345
龊	-14.2346
畑	-14.2346
狍	-14.2346
鍊	-14.2346
炆	-14.2346
哽	-14.2346
铐	-14.2381
臃	-14.2381
刽	-14.2415
鲡	-14.2415
澶	-14.2416
湎	-14.2416
竽	-14.245
缑	-14.2455
鞮	-14.2486
讦	-14.2486
褫	-14.2486
梿	-14.2486
다	-14.2488
毬	-14.2521
箅	-14.2522
泐	-14.2557
郃	-14.2557
磔	-14.2557
讧	-14.2557
粄	-14.2557
楽	-14.2592
彘	-14.2592
厍	-14.2592
桴	-14.2593
捭	-14.2593
氾	-14.2627
ệ	-14.2628
々	-14.2628
逯	-14.2628
狷	-14.2629
箜	-14.2663
ί	-14.2664
闩	-14.2664
邴	-14.2664
浈	-14.2664
弇	-14.2664
倨	-14.2664
弢	-14.2664
怿	-14.27
腼	-14.27
瓌	-14.27
咿	-14.2735
恵	-14.2736
帔	-14.2736
埽	-14.2737
ゼ	-14.2772
伝	-14.2772
ف	-14.2772
e	-14.2772
篌	-14.2808
叡	-14.2808
彖	-14.2808
鄜	-14.2809
罅	-14.2845
硇	-14.2845
瑭	-14.2845
鲔	-14.2845
畊	-14.2845
醅	-14.2845
胼	-14.2846
桕	-14.2882
椋	-14.2882
瑷	-14.2918
齎	-14.2918
龌	-14.2918
蔷	-14.2919
腠	-14.2919
匐	-14.2919
菩	-14.2951
ö	-14.2955
喫	-14.2955
戬	-14.2955
愠	-14.2955
睇	-14.2955
铖	-14.2955
鸶	-14.2955
溷	-14.2956
瓴	-14.2992
墘	-14.2992
哏	-14.2992
骘	-14.2996
榘	-14.3029
嘤	-14.3029
涔	-14.303
芟	-14.303
媾	-14.303
리	-14.3031
조	-14.3031
桄	-14.3067
鸩	-14.3067
缃	-14.3067
嵛	-14.3067
盉	-14.3104
づ	-14.3104
栌	-14.3104
의	-14.3108
夤	-14.3141
鹎	-14.3142
揍	-14.3142
蒾	-14.3142
儆	-14.3142
堠	-14.3142
倌	-14.3179
ł	-14.3179
夥	-14.318
嶝	-14.3217
帻	-14.3217
艿	-14.3217
跄	-14.3217
崞	-14.3218
蓁	-14.3218
诨	-14.3255
岜	-14.3255
疴	-14.3255
瞌	-14.3256
杪	-14.3256
剜	-14.3256
荛	-14.3256
鳚	-14.3293
蒐	-14.3294
绗	-14.3294
蹒	-14.3294
禊	-14.3294
籥	-14.3294
疋	-14.3332
睥	-14.3332
R	-14.337
犭	-14.337
啫	-14.3409
E	-14.3409
♂	-14.3447
糁	-14.3447
̈	-14.3448
撅	-14.3448
袢	-14.3448
ю	-14.3482
喑	-14.3486
耷	-14.3487
惴	-14.3487
鸲	-14.3525
煖	-14.3526
芘	-14.3526
驩	-14.3526
黥	-14.3526
巉	-14.3526
郅	-14.3565
萁	-14.3565
觇	-14.3566
시	-14.3566
赟	-14.3604
罽	-14.3604
辻	-14.3604
氖	-14.3604
搦	-14.3605
泚	-14.3605
鵟	-14.3605
襃	-14.3643
犸	-14.3644
巻	-14.3644
桯	-14.3644
刳	-14.3644
洩	-14.3644
ม	-14.3684
圯	-14.3684
醺	-14.3684
圄	-14.3723
慙	-14.3723
罟	-14.3723
気	-14.3723
菝	-14.3723
愦	-14.3724
酃	-14.3763
镏	-14.3763
Σ	-14.3803
匜	-14.3804
하	-14.3807
皲	-14.3844
烊	-14.3844
胙	-14.3844
甓	-14.3844
哔	-14.3884
脿	-14.3884
戕	-14.3884
เ	-14.3885
牂	-14.3925
ه	-14.3925
氹	-14.3925
馑	-14.3925
醯	-14.3962
Е	-14.3965
葚	-14.3965
蛐	-14.3966
翫	-14.3966
鲻	-14.3966
摅	-14.3966
У	-14.4006
〃	-14.4007
舐	-14.4007
≦	-14.4007
褊	-14.4007
実	-14.4007
秫	-14.4047
赁	-14.4048
猇	-14.4048
绺	-14.4048
屺	-14.4048
玦	-14.4048
甗	-14.4048
囡	-14.4048
ย	-14.4048
棰	-14.4049
璀	-14.4089
暐	-14.4089
蝣	-14.4089
蚺	-14.4089
萩	-14.409
舄	-14.4091
ヨ	-14.4131
ก	-14.4131
泫	-14.4172
娉	-14.4172
効	-14.4172
黩	-14.4173
χ	-14.4173
朊	-14.4214
纍	-14.4214
笪	-14.4214
铷	-14.4215
♀	-14.4255
蔹	-14.4256
ش	-14.4256
ج	-14.4256
俣	-14.4256
楩	-14.4257
貔	-14.4257
讣	-14.4257
鳎	-14.4298
〓	-14.4298
邋	-14.4298
孖	-14.4298
愎	-14.4298
蕖	-14.4299
荩	-14.4299
緜	-14.4341
谮	-14.4341
H	-14.4341
盤	-14.4383
璿	-14.4383
瞋	-14.4383
埴	-14.4383
镲	-14.4384
纛	-14.4384
杌	-14.4426
窅	-14.4426
茈	-14.4426
漭	-14.4426
箪	-14.4426
遛	-14.4427
성	-14.4427
醢	-14.4469
哕	-14.4469
逡	-14.4469
坼	-14.4469
垆	-14.4469
주	-14.4469
邶	-14.4469
癃	-14.4512
诿	-14.4513
佾	-14.4556
ə	-14.4599
鲃	-14.4599
ё	-14.4599
劬	-14.4599
毳	-14.4599
畀	-14.4599
觌	-14.4599
군	-14.4643
簕	-14.4643
笮	-14.4643
燿	-14.4643
는	-14.465
垕	-14.4686
怦	-14.4686
黾	-14.4686
葜	-14.4687
盍	-14.473
旂	-14.473
撂	-14.473
≧	-14.473
珧	-14.473
畠	-14.4731
薜	-14.4731
蜿	-14.4731
丨	-14.4775
橛	-14.4775
怵	-14.4775
鲣	-14.4775
岽	-14.4775
인	-14.4775
伋	-14.4819
Α	-14.4819
扆	-14.4819
薢	-14.4819
泅	-14.4819
ά	-14.4819
勅	-14.482
瘵	-14.4863
선	-14.4863
唳	-14.4863
囹	-14.4864
	-14.4864
忐	-14.4864
嗑	-14.4864
喈	-14.4864
畚	-14.4864
叵	-14.4865
髫	-14.4909
̄	-14.4909
Ο	-14.4909
酩	-14.4953
揄	-14.4953
斝	-14.4953
鹨	-14.4953
彀	-14.4955
锜	-14.4955
刖	-14.4998
仵	-14.4999
珽	-14.4999
З	-14.4999
踯	-14.4999
忑	-14.4999
t	-14.5044
桤	-14.5044
蛴	-14.5044
飧	-14.5045
畛	-14.5045
様	-14.509
祔	-14.509
発	-14.509
沚	-14.509
窣	-14.509
ق	-14.5136
侩	-14.5136
蒟	-14.5136
柃	-14.5136
艸	-14.5136
鬘	-14.5136
ζ	-14.5182
浉	-14.5182
眄	-14.5182
咛	-14.5182
疒	-14.5182
坌	-14.5182
泖	-14.5183
ı	-14.5228
篠	-14.5228
鴷	-14.5228
瘸	-14.5228
茕	-14.5229
烜	-14.5274
屍	-14.5275
撵	-14.5275
汧	-14.5321
攥	-14.5321
畤	-14.5321
轳	-14.5321
関	-14.5322
牋	-14.5322
ạ	-14.5322
蹻	-14.5322
笊	-14.5322
饸	-14.5322
靺	-14.5368
椪	-14.5368
铼	-14.5368
擞	-14.5369
U	-14.5369
憍	-14.5369
瘥	-14.5369
饩	-14.5369
을	-14.5374
遢	-14.5416
茇	-14.5416
s	-14.5416
谳	-14.5462
ä	-14.5462
薙	-14.5463
捱	-14.5463
ゾ	-14.5463
忄	-14.5463
荇	-14.5463
潸	-14.5463
鲹	-14.5463
幛	-14.5463
饹	-14.5464
蜩	-14.5464
ز	-14.551
逑	-14.5511
蠃	-14.5511
扞	-14.5511
阍	-14.5511
幞	-14.5511
서	-14.5511
扌	-14.5511
蒹	-14.5512
篑	-14.5558
剣	-14.5558
冏	-14.5558
厓	-14.5559
傒	-14.5559
寘	-14.5559
鞨	-14.5606
י	-14.5606
乜	-14.5607
僰	-14.5607
佉	-14.5654
悒	-14.5655
绻	-14.5655
柝	-14.5655
筼	-14.5655
屣	-14.5655
일	-14.5655
š	-14.5655
蝓	-14.5655
琵	-14.5655
鵙	-14.5655
椟	-14.5703
煳	-14.5704
瑠	-14.5704
殳	-14.5704
栃	-14.5752
铫	-14.5752
閟	-14.5752
囟	-14.5753
龢	-14.5753
게	-14.5758
晳	-14.5801
壻	-14.5801
坜	-14.5801
蒨	-14.5801
吖	-14.5801
국	-14.5801
復	-14.5801
桜	-14.5802
佼	-14.5802
蛲	-14.585
噗	-14.585
兕	-14.585
炘	-14.585
窳	-14.5851
説	-14.59
舾	-14.59
亹	-14.59
缱	-14.59
円	-14.59
衞	-14.59
団	-14.59
矧	-14.59
瞀	-14.59
腘	-14.5949
鲥	-14.595
ิ	-14.595
嬖	-14.595
瀍	-14.595
搴	-14.5951
禋	-14.6
蒻	-14.6
민	-14.6
∽	-14.6
礽	-14.6
咂	-14.6
镣	-14.6
猊	-14.6
ό	-14.6
玢	-14.6001
기	-14.6002
喏	-14.605
邽	-14.605
慊	-14.605
艉	-14.605
轵	-14.605
豊	-14.605
巿	-14.605
珰	-14.6051
纮	-14.6051
抿	-14.61
遹	-14.61
査	-14.61
廻	-14.6101
悛	-14.6101
谰	-14.6101
鳇	-14.6101
枰	-14.6101
瞅	-14.6151
嗝	-14.6151
鴈	-14.6151
勗	-14.6151
褛	-14.6151
鲕	-14.6151
崀	-14.6202
蚨	-14.6202
俛	-14.6202
ố	-14.6202
勑	-14.6202
馓	-14.6202
翀	-14.6202
鹕	-14.6203
侔	-14.6203
赳	-14.6203
塆	-14.6203
脷	-14.6253
飏	-14.6253
祧	-14.6253
恫	-14.6253
阝	-14.6254
栒	-14.6254
掂	-14.6254
摁	-14.6254
馐	-14.6254
抻	-14.6255
우	-14.6273
楦	-14.6305
내	-14.6314
鉄	-14.6357
诎	-14.6357
ơ	-14.6357
懔	-14.6357
摞	-14.6357
絷	-14.6357
ヘ	-14.6409
睐	-14.6723
渲	-14.6945
菠	-14.7923
橄	-14.7991
萄	-14.8051
肪	-14.8817
帼	-15.0398
霹	-15.0714
娠	-15.0878
骼	-15.0957
鸯	-15.1728
豌	-15.2367
跆	-15.2856
稣	-15.3471
垃	-15.4359
蝴	-15.4829
蜘	-15.6689
饪	-15.7447
圾	-15.9938
雳	-15.9938
蝙	-16.4458
鹉	-16.7388
