[UNK]	0
[PAD]	0
[CLS]	0
[SEP]	0
[MASK]	0
,	-3.52928
。	-4.02286
的	-4.04009
、	-4.05241
▁	-4.53252
和	-4.98929
在	-5.50496
为	-5.63694
是	-5.73027
与	-5.76511
(	-5.78908
:	-5.84069
;	-5.86621
中	-5.89454
)	-5.93756
等	-5.94221
有	-6.0143
及	-6.15413
《	-6.21347
“	-6.21901
人	-6.2607
大	-6.276
以	-6.29958
上	-6.31622
”	-6.39302
之	-6.49338
了	-6.51881
对	-6.63653
于	-6.66391
一	-6.6706
或	-6.68136
县	-6.74738
后	-6.77587
中国	-6.79803
不	-6.80051
》	-6.83878
小	-6.84736
水	-6.85294
地	-6.86286
而	-6.87439
1	-6.89608
山	-6.90763
到	-6.91331
高	-6.92592
-	-6.9353
公司	-6.9478
新	-6.96652
区	-6.97124
被	-6.97368
.	-6.97496
时	-6.97551
将	-6.97766
三	-6.97989
用	-7.00301
下	-7.00778
由	-7.02423
性	-7.02578
子	-7.02657
市	-7.05416
·	-7.06362
长	-7.08277
3	-7.09245
工作	-7.09765
2	-7.09854
内	-7.10998
企业	-7.11086
至	-7.11587
其	-7.12726
家	-7.1295
从	-7.1349
所	-7.14596
多	-7.15216
天	-7.18763
/	-7.19615
产品	-7.20394
生	-7.2267
可	-7.25789
并	-7.25904
进行	-7.27918
来	-7.28413
出	-7.29137
镇	-7.2968
也	-7.29771
王	-7.30116
专业	-7.30286
4	-7.30909
无	-7.31176
成	-7.31365
金	-7.31396
法	-7.3206
技术	-7.32668
者	-7.33406
会	-7.33765
名	-7.35153
路	-7.35357
文	-7.35842
系统	-7.3658
5	-7.37258
村	-7.37536
前	-7.37809
西	-7.38557
南	-7.39383
,是	-7.39783
()	-7.40222
学	-7.40416
》、《	-7.41194
,在	-7.42241
二	-7.42432
东	-7.43143
城	-7.43474
任	-7.43661
都	-7.43846
"	-7.44469
石	-7.44624
一个	-7.44804
海	-7.47138
分	-7.47255
部	-7.47325
学校	-7.48445
国际	-7.50243
式	-7.50345
本	-7.50643
花	-7.51345
服务	-7.51445
管理	-7.51506
国家	-7.52214
他	-7.52679
道	-7.53473
德	-7.53696
里	-7.53985
以及	-7.54019
科	-7.54249
能	-7.54527
。”	-7.54909
教育	-7.54986
6	-7.56084
马	-7.56634
型	-7.56716
乡	-7.56988
自	-7.57212
国	-7.57422
四	-7.57441
经	-7.57506
机	-7.5835
心	-7.58793
化	-7.59598
体	-7.59865
研究	-7.59884
发展	-7.5999
具有	-7.61387
设计	-7.61642
位于	-7.62491
,并	-7.62565
大学	-7.6351
五	-7.64399
日	-7.64475
张	-7.64602
行	-7.64704
明	-7.64993
龙	-7.65571
元	-7.65665
林	-7.66442
达	-7.66893
安	-7.67017
工程	-7.67025
白	-7.67132
系	-7.6725
过	-7.67287
),	-7.6734
中心	-7.67812
华	-7.68296
外	-7.6841
8	-7.68789
平	-7.68838
正	-7.69082
头	-7.69518
着	-7.69894
网	-7.70344
组织	-7.70758
,以	-7.71461
光	-7.71579
如	-7.71657
”。	-7.71684
线	-7.72032
文化	-7.72231
河	-7.73152
生产	-7.73716
黄	-7.73841
红	-7.74051
各	-7.74069
项目	-7.74551
7	-7.74775
向	-7.74971
提供	-7.75213
两	-7.75327
通过	-7.75578
最	-7.75879
10	-7.75982
使用	-7.77563
门	-7.77735
地区	-7.78216
风	-7.78737
清	-7.79019
就	-7.79871
面	-7.80097
美	-7.80153
全国	-7.8033
原	-7.80449
北京	-7.80613
书	-7.80722
开	-7.80737
点	-7.80952
集	-7.80981
军	-7.81122
要	-7.81261
发	-7.81773
类	-7.82364
重	-7.82405
作	-7.82818
全	-7.82921
台	-7.82932
通	-7.83163
把	-7.83337
古	-7.83546
已	-7.83552
得	-7.83566
州	-7.83676
去	-7.84049
入	-7.84138
李	-7.84335
口	-7.85296
建设	-7.85316
北	-7.85519
起	-7.85733
省	-7.86083
可以	-7.86398
上海	-7.87171
叶	-7.87677
特	-7.88087
车	-7.88376
网络	-7.88433
双	-7.88608
市场	-7.88926
属	-7.88999
同	-7.89032
经济	-7.89441
学院	-7.89863
年	-7.90167
万	-7.90259
带	-7.90343
世界	-7.91121
方	-7.91351
好	-7.91375
加	-7.91821
9	-7.92395
神	-7.93339
又	-7.93454
处	-7.9382
!	-7.94122
老	-7.94645
相	-7.94789
克	-7.95384
师	-7.9547
美国	-7.95719
我	-7.96047
行业	-7.96173
卡	-7.96899
公	-7.97318
数	-7.98055
油	-7.98534
利	-7.98574
力	-7.98725
气	-7.98846
因	-7.99278
江	-7.99759
城市	-7.99949
——	-8.00101
设备	-8.00355
度	-8.00369
使	-8.00625
功能	-8.01024
图	-8.01443
信息	-8.01889
学习	-8.02114
种	-8.02243
云	-8.02248
建	-8.02329
科技	-8.02337
学生	-8.02342
女	-8.0287
六	-8.02913
字	-8.03026
,为	-8.03241
号	-8.03739
各种	-8.03862
木	-8.03931
制	-8.03967
人,	-8.044
集团	-8.04516
手	-8.04637
主要	-8.04654
品牌	-8.04768
单	-8.05125
片	-8.05279
米	-8.05489
比	-8.05778
管	-8.05798
器	-8.05886
该	-8.05973
艺术	-8.05991
等。	-8.06468
主	-8.06938
还	-8.07124
作为	-8.07199
罗	-8.07339
标准	-8.07443
教学	-8.07585
级	-8.07826
成为	-8.08457
开始	-8.08869
陈	-8.0905
总	-8.09151
拥有	-8.09272
更	-8.09788
生活	-8.09897
建筑	-8.10071
鱼	-8.10565
斯	-8.11043
色	-8.11112
周	-8.11273
12	-8.11472
指	-8.11724
干	-8.11799
热	-8.11914
即	-8.11974
第一	-8.12
获	-8.12228
投资	-8.12366
流	-8.12393
局	-8.12562
活动	-8.12746
日本	-8.13549
采用	-8.13736
拉	-8.13924
量	-8.14104
田	-8.14195
”、“	-8.14231
参加	-8.14475
系列	-8.15098
20	-8.1513
九	-8.15256
站	-8.153
人。	-8.15318
中的	-8.15489
皮	-8.15699
社会	-8.15751
青	-8.1588
》:“	-8.15891
近	-8.15928
则	-8.16
当	-8.16288
说	-8.1634
团	-8.17114
合	-8.17134
开发	-8.17624
此	-8.17823
。在	-8.18101
单位	-8.18273
间	-8.1853
共	-8.18577
乐	-8.19032
控制	-8.19125
阳	-8.19151
进	-8.19157
工	-8.19345
位	-8.19985
节	-8.20385
桥	-8.20429
做	-8.20633
厂	-8.20995
世	-8.21045
”,	-8.21317
爱	-8.21513
环境	-8.22196
病	-8.22307
香	-8.22328
立	-8.22329
武	-8.22371
基	-8.22441
你	-8.22486
医院	-8.22642
政府	-8.22866
～	-8.23079
八	-8.23405
组	-8.23475
支持	-8.23877
星	-8.24551
)。	-8.24589
阿	-8.2471
时间	-8.24771
安全	-8.24813
汉	-8.25043
七	-8.25164
工业	-8.25255
获得	-8.25335
初	-8.25759
事	-8.25896
玉	-8.26137
非	-8.26255
,但	-8.26284
15	-8.26396
约	-8.26502
社区	-8.26537
条	-8.27128
软件	-8.27394
曾	-8.27404
黑	-8.27542
定	-8.2794
板	-8.28134
刘	-8.28197
—	-8.28239
强	-8.2831
从事	-8.28381
应	-8.28408
包括	-8.28577
业务	-8.28957
塔	-8.29
有限公司	-8.29013
”的	-8.29375
月	-8.29469
电子	-8.29636
打	-8.29718
结构	-8.29819
时,	-8.30069
自己	-8.30078
尔	-8.30122
她	-8.30132
湖	-8.30219
传	-8.30912
就是	-8.30981
诗	-8.31028
卷	-8.31063
游戏	-8.31409
官	-8.31458
调	-8.31524
春	-8.31579
音乐	-8.31907
楼	-8.31921
商	-8.32052
18	-8.32124
身	-8.32253
我们	-8.323
应用	-8.32382
部分	-8.32823
层	-8.32854
宝	-8.32953
教师	-8.33238
回	-8.33501
场	-8.33645
优秀	-8.33848
11	-8.33927
边	-8.33996
经营	-8.34051
土	-8.34233
沙	-8.34449
酒	-8.3458
教	-8.34706
画	-8.35044
声	-8.35057
章	-8.35074
,其	-8.35509
火	-8.35605
期	-8.35622
源	-8.35646
受	-8.35694
材料	-8.3609
布	-8.36126
铁	-8.36256
民	-8.36383
业	-8.37371
草	-8.37632
广	-8.37744
代	-8.379
亚	-8.3825
史	-8.38488
信	-8.38549
保护	-8.38606
现代	-8.38621
药	-8.38691
16	-8.38839
园	-8.38992
综合	-8.39063
科学	-8.39487
形	-8.39497
作品	-8.39597
后,	-8.39625
连	-8.39735
半	-8.39745
见	-8.39856
校	-8.4005
分析	-8.40066
,有	-8.40083
均	-8.40237
协会	-8.40284
川	-8.40433
深	-8.40743
志	-8.40862
首	-8.40936
旅游	-8.41048
版	-8.41063
氏	-8.41526
物	-8.41526
这	-8.41697
室	-8.41708
处理	-8.42113
它	-8.42229
理论	-8.42739
专家	-8.43017
兰	-8.43029
百	-8.43054
负责	-8.43197
率	-8.43239
根	-8.43533
兵	-8.43695
电	-8.43746
岛	-8.43859
称	-8.43865
没有	-8.43915
茶	-8.43932
给	-8.43996
班	-8.44338
质量	-8.44558
历史	-8.44601
男	-8.44722
房	-8.44849
不同	-8.44928
品	-8.45164
30	-8.45375
具	-8.45378
治疗	-8.45557
汽车	-8.45947
院	-8.46112
合作	-8.46186
语	-8.4629
底	-8.46302
毛	-8.4674
树	-8.46863
松	-8.47034
寺	-8.47041
曲	-8.47122
常	-8.47234
义	-8.4734
巴	-8.47505
中学	-8.47748
状	-8.47755
销售	-8.47781
队	-8.47995
界	-8.48099
格	-8.48295
居	-8.48315
,而	-8.48552
杨	-8.49008
微	-8.49009
波	-8.49082
街	-8.4912
唐	-8.49154
用户	-8.49285
再	-8.49328
宁	-8.49342
看	-8.49343
远	-8.49427
果	-8.49622
飞	-8.49711
盘	-8.49777
其中	-8.50025
一种	-8.50215
变	-8.50349
利用	-8.50458
低	-8.5052
规划	-8.50574
50	-8.5074
菜	-8.5077
派	-8.50973
运动	-8.51007
农业	-8.51096
制作	-8.51172
食	-8.51371
情	-8.51403
需要	-8.51486
人员	-8.51542
大型	-8.51549
?	-8.51932
英	-8.52325
论	-8.52723
奖	-8.52748
次	-8.52759
按	-8.52855
堂	-8.52878
兴	-8.52978
吴	-8.53381
兼	-8.53411
放	-8.53513
超	-8.5353
福	-8.53747
先	-8.53808
角	-8.53811
那	-8.53956
计划	-8.53957
包	-8.53973
方法	-8.5407
丝	-8.54096
圣	-8.54154
方式	-8.54248
能力	-8.54297
个	-8.5437
宗	-8.54414
眼	-8.54594
肉	-8.55288
国内	-8.55328
山东	-8.55433
表	-8.55438
修	-8.5555
其他	-8.5561
汤	-8.55887
同时	-8.55915
酒店	-8.55927
加工	-8.55998
意	-8.56214
让	-8.56216
40	-8.56564
要求	-8.5666
直	-8.56691
完成	-8.56712
质	-8.56749
联	-8.56808
实现	-8.57063
提高	-8.57191
个人	-8.57322
之一。	-8.57418
粉	-8.57419
景	-8.57441
群	-8.57459
进入	-8.57627
一般	-8.57694
根据	-8.57769
......	-8.57877
户	-8.58203
资源	-8.58365
教授	-8.58435
自动	-8.58473
问题	-8.58517
,其中	-8.58634
,使	-8.58749
中央	-8.58927
转	-8.59025
有关	-8.5909
机构	-8.59278
精	-8.59356
这个	-8.59429
14	-8.5988
骨	-8.59981
真	-8.60172
培训	-8.60809
球	-8.60974
动	-8.61158
取	-8.6116
产业	-8.61201
才	-8.61203
,由	-8.61294
只	-8.61395
言	-8.61418
各类	-8.61464
报	-8.61637
反	-8.61876
第二	-8.61969
机械	-8.6199
盐	-8.61999
之一	-8.62037
治	-8.62126
自然	-8.62223
音	-8.62271
少	-8.62383
空	-8.62432
血	-8.62432
已经	-8.62469
圆	-8.62486
17	-8.6262
小学	-8.62693
网站	-8.62744
客户	-8.62809
座	-8.62815
较	-8.62817
100	-8.62929
关	-8.62953
植物	-8.63022
办	-8.63101
香港	-8.63135
内容	-8.63219
纳	-8.63227
一些	-8.63356
人才	-8.63985
公路	-8.64245
压	-8.64247
建立	-8.64302
电影	-8.64315
他们	-8.64584
0	-8.64731
朝	-8.64919
奇	-8.64991
--	-8.65034
中,	-8.65091
形成	-8.65636
13	-8.65671
指导	-8.65709
未	-8.65735
十	-8.65783
易	-8.65943
太	-8.66049
苏	-8.66318
竹	-8.66396
印	-8.66794
毕业于	-8.66805
段	-8.67031
康	-8.67193
工艺	-8.67248
梅	-8.67483
牛	-8.67885
农	-8.68314
数据	-8.68325
士	-8.68464
基础	-8.68474
担任	-8.68811
港	-8.68831
环	-8.68911
很	-8.68942
,他	-8.6915
峰	-8.69178
开展	-8.69213
成立	-8.69261
)、	-8.69268
文学	-8.69365
呈	-8.6938
传统	-8.69485
宽	-8.69549
民族	-8.6957
60	-8.69592
比较	-8.69708
岩	-8.69725
游	-8.69793
宫	-8.69869
学会	-8.69944
灵	-8.70114
选	-8.70274
梁	-8.70344
维	-8.70359
是指	-8.70422
值	-8.70503
自己的	-8.70523
宋	-8.70548
藏	-8.70613
复	-8.70658
足	-8.70752
吉	-8.7113
模式	-8.7117
+	-8.71407
除	-8.71427
理	-8.71579
商业	-8.71627
保	-8.71696
两个	-8.71713
思	-8.71814
医学	-8.71839
先生	-8.7193
丁	-8.71999
用于	-8.72024
孔	-8.72231
得到	-8.7233
台湾	-8.72359
的一种	-8.72488
25	-8.72702
成功	-8.72735
健康	-8.72781
归	-8.72803
创新	-8.72815
食品	-8.72883
基本	-8.72951
泰	-8.72978
浙江	-8.72993
观	-8.73011
尼	-8.73048
雷	-8.73065
丰	-8.73143
博	-8.73169
发现	-8.73769
达到	-8.73795
出版	-8.73925
性能	-8.73942
委员会	-8.73959
正式	-8.73997
盛	-8.74224
词	-8.74343
细	-8.7443
装	-8.74444
非常	-8.74445
每	-8.7474
儿	-8.74809
所有	-8.74916
普	-8.75125
平台	-8.75175
,对	-8.75179
店	-8.75277
庄	-8.75429
设	-8.75462
钢	-8.75465
地方	-8.75477
余	-8.75618
永	-8.75705
交通	-8.75733
谷	-8.75826
料	-8.75848
夫	-8.75893
走	-8.75916
知	-8.76167
银	-8.76184
加入	-8.76241
发生	-8.7626
四川	-8.76467
广州	-8.76537
极	-8.76622
作用	-8.7668
是一个	-8.76697
收	-8.76797
青年	-8.76838
生物	-8.76895
富	-8.76939
战	-8.76977
计算机	-8.77185
佛	-8.77242
但	-8.7728
工作。	-8.77282
盖	-8.77359
赵	-8.77391
令	-8.7741
泉	-8.77459
独立	-8.77624
鸡	-8.77678
鲁	-8.77781
素	-8.77908
是由	-8.77924
雅	-8.77989
结	-8.78082
善	-8.78106
溪	-8.78277
代表	-8.78383
实	-8.78391
方面	-8.78597
政	-8.78616
操作	-8.78636
夏	-8.78712
温	-8.7877
仁	-8.78775
刀	-8.7881
解	-8.79185
我国	-8.79209
写	-8.79233
目	-8.79344
这些	-8.79508
广东	-8.79594
产	-8.7962
不能	-8.7976
秋	-8.79777
权	-8.79803
目前	-8.7984
空间	-8.79865
创作	-8.79959
实施	-8.80122
千	-8.80128
顺	-8.80323
:“	-8.80392
像	-8.80479
随	-8.80492
占	-8.80505
现	-8.80557
满	-8.80597
亦	-8.80626
顶	-8.80665
类型	-8.80859
精神	-8.8097
野	-8.80977
府	-8.8105
短	-8.81097
社	-8.81113
甲	-8.81165
研究所	-8.81293
钱	-8.81294
语言	-8.81294
选择	-8.81594
洞	-8.81598
雪	-8.81797
200	-8.81831
联合	-8.81851
难	-8.82023
实验	-8.82051
面积	-8.82053
化学	-8.82101
之间	-8.82183
库	-8.82273
运	-8.82274
交	-8.82362
细胞	-8.82415
,即	-8.82544
著名	-8.82583
及其	-8.82606
雨	-8.82717
篇	-8.82754
孙	-8.82796
以上	-8.83004
党	-8.83051
却	-8.83087
员	-8.83144
距	-8.83302
参与	-8.83331
落	-8.83349
君	-8.83488
绿	-8.83535
防	-8.83549
胡	-8.83564
尾	-8.83676
文件	-8.83932
直接	-8.83972
客	-8.8404
礼	-8.84047
家庭	-8.84117
纸	-8.84189
件	-8.84193
歌	-8.84239
笔	-8.8445
高级	-8.8449
广西	-8.84544
相关	-8.84611
瑞	-8.84713
的“	-8.84718
重点	-8.84723
排	-8.84847
想	-8.84954
这种	-8.84964
营	-8.85008
经过	-8.8517
异	-8.85229
然	-8.85253
切	-8.8536
生于	-8.85445
领域	-8.85625
,男,	-8.85839
不断	-8.85845
夜	-8.85972
仙	-8.86063
人口	-8.86066
动物	-8.86166
死	-8.86241
支	-8.86246
交流	-8.86362
体育	-8.86365
全面	-8.86545
制造	-8.86724
能够	-8.86832
湖南	-8.86852
影响	-8.87047
新闻	-8.87078
井	-8.87109
时代	-8.87142
旧	-8.87241
横	-8.87274
培养	-8.8728
英国	-8.87332
资料	-8.87392
小说	-8.87475
感	-8.87524
全球	-8.8761
结合	-8.87683
区域	-8.87699
朱	-8.87774
若	-8.87982
奥	-8.88071
族	-8.88097
船	-8.88101
都是	-8.88107
岁	-8.88252
农村	-8.88383
副	-8.88658
论文	-8.88688
先进	-8.88719
瓦	-8.8876
轮	-8.88799
山东省	-8.88942
24	-8.88985
便	-8.89012
,将	-8.89177
特色	-8.8919
别	-8.89194
德国	-8.892
酸	-8.89241
英语	-8.89295
是一种	-8.8953
离	-8.89565
散	-8.90026
河南	-8.90075
的一个	-8.90167
改	-8.90216
费	-8.90321
剂	-8.90336
属于	-8.90391
昌	-8.904
望	-8.90415
何	-8.90438
执行	-8.90891
创	-8.91012
冷	-8.91039
伊	-8.91077
膜	-8.91155
人物	-8.91222
,如	-8.91597
80	-8.91695
味	-8.91745
距离	-8.91754
金属	-8.91763
升	-8.91788
良	-8.92088
科研	-8.92096
们	-8.92116
套	-8.92231
出现	-8.92278
於	-8.92286
剑	-8.92401
广告	-8.92419
产生	-8.92543
上的	-8.92595
》等	-8.92596
端	-8.9261
证	-8.92629
今	-8.92667
安装	-8.92688
视	-8.92765
母	-8.93108
▁《	-8.93131
封	-8.93392
液	-8.93407
吃	-8.93528
恩	-8.93553
知识	-8.9358
威	-8.93624
灯	-8.93651
齐	-8.93723
蓝	-8.93789
记	-8.93811
也是	-8.93928
卫生	-8.93986
》(	-8.9409
托	-8.9417
效果	-8.9425
职业	-8.94321
电脑	-8.94322
衣	-8.9446
洪	-8.94709
由于	-8.94718
19	-8.94763
水平	-8.94775
江苏	-8.94805
电视	-8.94828
含	-8.94967
读	-8.94995
核	-8.95037
人民	-8.95102
湖北	-8.95138
检测	-8.95275
部门	-8.9528
抗	-8.95302
铁路	-8.95334
▁公司	-8.95568
宣传	-8.95651
京	-8.95681
秀	-8.95717
几	-8.95756
糖	-8.9577
展	-8.95847
出生于	-8.95982
儿童	-8.95987
编	-8.961
,可	-8.96264
胜	-8.96328
左	-8.96431
▁2.	-8.96444
伯	-8.96662
故事	-8.9669
最大	-8.96746
会议	-8.96748
重要	-8.96793
广东省	-8.96965
一次	-8.97003
快	-8.97043
快速	-8.97293
厚	-8.97361
送	-8.97396
胶	-8.97543
彩	-8.97628
思想	-8.97636
推广	-8.97754
徐	-8.97763
荣	-8.97768
牌	-8.97858
南京	-8.97903
赛	-8.98028
洛	-8.98061
列	-8.98092
丹	-8.98136
安徽	-8.98146
晋	-8.98185
留	-8.98249
脚	-8.98444
引	-8.98452
馆	-8.98527
营销	-8.98542
书法	-8.9872
领导	-8.98805
求	-8.9918
本书	-8.99181
影	-8.99204
司	-8.99221
提	-8.99277
多种	-8.99333
,位于	-8.99361
干部	-8.99475
试验	-8.99594
35	-8.99643
丽	-8.99688
普通	-8.99739
许多	-8.99759
组成	-8.99934
杯	-9.00056
出版社	-9.00119
分别	-9.00253
关于	-9.00315
临	-9.00318
银行	-9.00452
诸	-9.00801
全部	-9.00906
》,	-9.00938
铜	-9.00958
程序	-9.00977
沟	-9.01036
郑	-9.01036
第三	-9.01053
课程	-9.01123
一起	-9.0122
越	-9.01345
绿色	-9.01615
共同	-9.01721
仅	-9.01774
岭	-9.01898
法律	-9.01956
耳	-9.02168
被评为	-9.02334
团队	-9.02336
施	-9.02382
方向	-9.02393
称为	-9.02489
运行	-9.02493
末	-9.02557
显示	-9.02603
接	-9.02607
基地	-9.02672
法国	-9.02734
设施	-9.02737
目标	-9.02762
池	-9.02775
作者	-9.02997
服	-9.03068
政治	-9.03119
,从	-9.03255
载	-9.03323
江苏省	-9.03377
守	-9.03407
职	-9.03516
医疗	-9.03595
标	-9.04143
关系	-9.04286
品质	-9.04289
诺	-9.04368
仪	-9.04438
故	-9.04514
品种	-9.04601
友	-9.04628
商务	-9.04744
帝	-9.04788
22	-9.04882
。他	-9.04967
介绍	-9.04968
且	-9.04998
价格	-9.05038
虫	-9.05096
亲	-9.05115
施工	-9.0514
块	-9.05196
依	-9.05336
阴	-9.05399
连接	-9.05481
事业	-9.0552
时尚	-9.05687
中华	-9.05778
虎	-9.0581
人们	-9.0592
70	-9.05999
数字	-9.06185
早	-9.06193
学科	-9.06204
会员	-9.06214
重庆	-9.06219
手机	-9.06352
河北	-9.06357
金融	-9.06551
员工	-9.0665
临床	-9.06656
生态	-9.06689
河南省	-9.0685
背	-9.06901
受到	-9.06966
庙	-9.07066
长期	-9.07107
梦	-9.07468
积极	-9.0769
湾	-9.07779
文明	-9.0785
喜	-9.0787
命	-9.07895
,它	-9.07897
卫	-9.0793
听	-9.08143
架	-9.08169
条件	-9.08222
美术	-9.08386
乌	-9.08388
连续	-9.08432
冲	-9.0844
主持	-9.08629
天津	-9.08672
测试	-9.08741
中共	-9.08855
尽	-9.08891
森	-9.0898
轴	-9.0908
。《	-9.09183
促进	-9.09219
厅	-9.09429
优	-9.096
江西	-9.0966
现有	-9.09665
45	-9.0969
嘉	-9.09749
过程	-9.09828
这一	-9.09837
设有	-9.09897
脑	-9.09958
或者	-9.09977
东北	-9.0999
倒	-9.10028
冰	-9.10276
帮助	-9.10388
90	-9.10464
行为	-9.10516
亭	-9.1053
创建	-9.10577
32	-9.1061
省级	-9.10674
侧	-9.10699
福建	-9.10739
之一,	-9.10761
上海市	-9.10805
行政	-9.10862
陆	-9.10865
医	-9.10898
智	-9.10934
舞	-9.10954
隆	-9.1096
寒	-9.10973
密	-9.11064
软	-9.11066
增加	-9.11233
国内外	-9.1124
步	-9.1145
烟	-9.11607
凤	-9.11656
中医	-9.1176
云南	-9.11767
来自	-9.1187
莫	-9.11892
断	-9.12083
国家级	-9.12095
鸟	-9.1217
温度	-9.12188
雄	-9.1223
教材	-9.12328
制度	-9.12343
配	-9.12346
,同时	-9.12387
完全	-9.12481
最大的	-9.12501
计	-9.12631
解决	-9.12638
500	-9.12663
庆	-9.12712
蒙	-9.12801
熟	-9.12841
请	-9.12865
尚	-9.12867
住	-9.12869
代理	-9.12948
装饰	-9.13004
疾病	-9.13128
表示	-9.1315
1.	-9.13152
惠	-9.13183
,所以	-9.13264
规范	-9.1335
苦	-9.1347
*	-9.13478
商品	-9.135
艺	-9.13502
期间	-9.13527
欧洲	-9.1356
决定	-9.13577
差	-9.1358
环保	-9.13584
养	-9.13634
考	-9.13638
略	-9.13698
公园	-9.13808
运输	-9.13839
自由	-9.14082
时期	-9.1424
专	-9.14279
置	-9.14292
革命	-9.1431
。其	-9.1434
物理	-9.14342
训练	-9.14479
机关	-9.14594
接口	-9.14629
。该	-9.14664
28	-9.14825
刻	-9.14872
如何	-9.15074
了解	-9.15101
包装	-9.15173
交易	-9.15412
现任	-9.1548
西南	-9.15508
四川省	-9.15591
表面	-9.15597
纹	-9.15735
旗	-9.15814
十分	-9.15825
塘	-9.15917
纯	-9.15967
测量	-9.16015
谓	-9.16083
坚持	-9.16141
款	-9.16187
亩	-9.16233
传播	-9.16245
紫	-9.16306
右	-9.16402
尖	-9.16409
叫	-9.16416
钟	-9.16436
因为	-9.16611
规模	-9.16627
安徽省	-9.1666
缘	-9.16662
价	-9.16912
居民	-9.16917
秦	-9.17139
象	-9.17149
试	-9.17229
聚	-9.1725
珠	-9.1729
举	-9.17493
佳	-9.17525
贝	-9.17552
组合	-9.1758
价值	-9.17592
分布	-9.17602
毒	-9.17638
众	-9.17656
鲜	-9.17702
股	-9.1771
许	-9.17725
补	-9.17794
战略	-9.17802
速度	-9.17811
反应	-9.17963
轻	-9.18156
湖北省	-9.18212
工具	-9.18297
登	-9.18355
23	-9.18369
久	-9.18451
地处	-9.18486
资金	-9.18538
羊	-9.18604
案	-9.18737
猪	-9.18742
杀	-9.18744
种植	-9.18809
福建省	-9.18859
为了	-9.18873
项	-9.18894
陕西	-9.1899
调查	-9.18999
先后	-9.19055
泽	-9.19084
,与	-9.19151
祖	-9.19168
群众	-9.1918
病毒	-9.19193
10月	-9.19321
考试	-9.1934
程	-9.19372
街道	-9.19438
设置	-9.19444
高速	-9.19453
风格	-9.19462
浙江省	-9.19545
装置	-9.1958
活	-9.19715
北京市	-9.19769
往	-9.19796
粒	-9.19853
办公室	-9.20027
还有	-9.20042
三个	-9.20111
工作,	-9.20114
术	-9.2016
▁在	-9.20195
功	-9.20249
深圳	-9.20286
问	-9.20293
...	-9.2037
的重要	-9.20371
学术	-9.20373
化工	-9.20476
臣	-9.20561
存	-9.20669
弹	-9.20739
增	-9.20841
谢	-9.20957
麻	-9.20982
实验室	-9.21019
成员	-9.21078
收入	-9.21138
左右	-9.2114
哈	-9.21327
,以及	-9.21383
▁1.	-9.21524
形式	-9.21554
数学	-9.2159
玻璃	-9.21603
戏	-9.21668
皆	-9.21681
运用	-9.2176
韩	-9.21806
圈	-9.21837
,又	-9.21888
武汉	-9.21923
西北	-9.22007
柳	-9.2225
静	-9.22365
比赛	-9.22388
》《	-9.22409
媒体	-9.22446
26	-9.22513
博士	-9.22532
历	-9.22636
伤	-9.22668
一直	-9.2272
的发展	-9.22729
认证	-9.22812
还是	-9.22831
承担	-9.22935
优质	-9.22972
怀	-9.22998
斗	-9.23044
范围	-9.23182
调整	-9.2319
闻	-9.232
独	-9.23301
杜	-9.2335
忠	-9.23425
特别	-9.23534
湖南省	-9.23538
职工	-9.23732
保持	-9.23746
高校	-9.23785
大量	-9.23824
按照	-9.23879
,不	-9.2391
出口	-9.23936
题	-9.23963
改革	-9.23997
~	-9.24104
300	-9.24129
▁2	-9.24352
监督	-9.24426
索	-9.24452
破	-9.24502
广场	-9.24544
摄影	-9.24583
整个	-9.24605
委	-9.24609
东方	-9.24652
》。	-9.24672
咨询	-9.24842
贤	-9.24902
塞	-9.24907
计算	-9.24907
分为	-9.24935
失	-9.2503
征	-9.25037
供	-9.25182
迪	-9.25257
贵	-9.25341
为主	-9.25494
放入	-9.25508
提升	-9.25568
土地	-9.25708
注	-9.25736
实际	-9.25858
杭州	-9.25858
墨	-9.25945
山西	-9.26021
军事	-9.26045
杰	-9.26093
努力	-9.26122
校园	-9.26148
有效	-9.26216
广泛	-9.26217
灰	-9.26226
体系	-9.26272
他的	-9.2632
服装	-9.2635
勒	-9.2635
通信	-9.26428
偏	-9.2644
统一	-9.26495
杂志	-9.26506
冠	-9.26656
21	-9.26678
特点	-9.26766
2000	-9.26785
姓	-9.26795
陵	-9.26838
人类	-9.26904
智能	-9.26911
更加	-9.2693
话	-9.26936
必须	-9.27021
广大	-9.27086
菌	-9.27094
超过	-9.27121
您	-9.27166
众多	-9.27177
壳	-9.27182
发行	-9.27297
移动	-9.27311
杂	-9.27351
脉	-9.2739
检查	-9.27397
,故	-9.27471
洋	-9.27499
,也是	-9.2755
人的	-9.27741
》是	-9.27765
任何	-9.27908
只有	-9.27921
创造	-9.27923
郡	-9.27934
课	-9.27987
视频	-9.27988
情况	-9.2811
整体	-9.28229
最高	-9.28237
脱	-9.2824
曼	-9.28244
之后	-9.28392
采	-9.28401
查	-9.28411
有着	-9.28488
浅	-9.28538
作家	-9.28596
信号	-9.28633
固	-9.28663
萨	-9.28706
贸易	-9.28709
36	-9.28786
牙	-9.28844
内部	-9.28845
基金	-9.28879
接受	-9.28908
对于	-9.28967
柱	-9.29004
硬	-9.29017
陶	-9.29081
腹	-9.29137
成都	-9.29144
电力	-9.29158
绝	-9.29195
宜	-9.29195
毕业	-9.29252
▁2、	-9.29323
小区	-9.29342
27	-9.29469
刺	-9.29547
,用	-9.29783
莱	-9.2979
古代	-9.29807
河北省	-9.29893
取得	-9.29939
饰	-9.2999
郭	-9.30028
2009年	-9.30103
压力	-9.30126
驻	-9.30181
致	-9.30201
重大	-9.3021
很多	-9.3026
现在	-9.30323
者,	-9.30399
枝	-9.30436
认为	-9.30486
民间	-9.30565
没	-9.3069
,也	-9.30719
变化	-9.3072
击	-9.30737
会计	-9.30753
>	-9.3076
折	-9.3082
炉	-9.3084
娱乐	-9.30955
莲	-9.3115
大小	-9.31218
研发	-9.31265
2010年	-9.31285
齿	-9.31322
讲	-9.31444
露	-9.31527
农民	-9.3159
引进	-9.31733
形象	-9.31774
亮	-9.31833
坝	-9.31869
不同的	-9.31923
,中国	-9.32007
皇	-9.32047
休闲	-9.32202
联系	-9.32208
=	-9.32259
白色	-9.32266
参	-9.32443
展示	-9.32502
48	-9.32548
节目	-9.3256
坐	-9.3259
矿	-9.32781
幼儿园	-9.3285
可能	-9.32865
新疆	-9.32868
2008年	-9.32904
营养	-9.32949
%	-9.33058
装备	-9.3308
鼓	-9.33263
新的	-9.33283
烧	-9.33315
部队	-9.33332
寿	-9.33332
,具有	-9.33364
纪	-9.33422
道路	-9.33459
运营	-9.33489
桂	-9.33512
西安	-9.33521
赤	-9.33543
岗	-9.33584
磨	-9.33675
坡	-9.33701
照	-9.33707
伦	-9.33768
▁3.	-9.33771
2006年	-9.33896
针	-9.33899
提出	-9.33908
。公司	-9.33913
核心	-9.33963
祥	-9.33983
表现	-9.33989
任务	-9.33992
第	-9.33996
特殊	-9.34004
演出	-9.34026
剧	-9.34055
,成为	-9.34065
评价	-9.34091
粗	-9.34118
实践	-9.34148
韩国	-9.34213
壁	-9.34244
注册	-9.34247
1个	-9.34321
炒	-9.34374
女性	-9.34447
务	-9.34487
荣获	-9.34502
济	-9.34563
推	-9.34622
,而且	-9.34638
假	-9.34702
魏	-9.34786
400	-9.34975
进行了	-9.34981
速	-9.35127
冬	-9.35147
名称	-9.35157
检验	-9.35204
唱	-9.3528
暗	-9.35316
多个	-9.35349
未来	-9.35368
造	-9.35567
侯	-9.35688
货	-9.35761
麦	-9.35861
以来	-9.35861
退	-9.35894
配套	-9.35903
至今	-9.35935
发表	-9.35956
刚	-9.36057
集中	-9.36093
附	-9.36162
);	-9.36459
消费者	-9.36484
提供了	-9.36545
锦	-9.36581
丰富	-9.36659
成果	-9.36742
经验	-9.36821
墓	-9.36872
例	-9.36887
殿	-9.36919
凯	-9.36973
稳定	-9.37015
统计	-9.37066
,被	-9.37092
的主要	-9.37167
乃	-9.3725
编辑	-9.3736
2007年	-9.37463
薄	-9.37474
报告	-9.3753
皮肤	-9.3757
浮	-9.37575
互联网	-9.37658
29	-9.37714
致力于	-9.37811
机场	-9.37819
书画	-9.37834
姜	-9.37885
物质	-9.37917
欲	-9.37919
曰	-9.37935
的人	-9.37946
表演	-9.37974
赴	-9.38059
泥	-9.38089
乘	-9.3825
成本	-9.38257
800	-9.38301
恒	-9.38339
一切	-9.385
改变	-9.38583
屋	-9.38709
承	-9.3883
全市	-9.38935
,包括	-9.38937
铺	-9.38946
滑	-9.38998
世纪	-9.39
意大利	-9.39048
待	-9.39062
迅速	-9.39133
电源	-9.39148
痛	-9.39234
始	-9.39372
敌	-9.39392
多次	-9.39544
专用	-9.39607
保证	-9.39615
政策	-9.39681
艾	-9.39752
枪	-9.39808
2005年	-9.39839
第四	-9.39897
策划	-9.39907
某	-9.39931
继	-9.40026
降	-9.40091
益	-9.40223
乱	-9.40223
设立	-9.40285
生长	-9.40297
博物馆	-9.40378
肥	-9.40447
动力	-9.4045
..	-9.40482
党员	-9.4053
亚洲	-9.40561
似	-9.40566
存在	-9.40577
医药	-9.40613
容	-9.40647
收藏	-9.40764
消费	-9.4078
镜	-9.40822
加强	-9.40852
哲学	-9.40874
心理	-9.40919
延	-9.40936
孝	-9.40955
,后	-9.41005
当地	-9.4101
天然	-9.41023
额	-9.41041
电话	-9.41141
打造	-9.41406
。现任	-9.41429
父	-9.41448
虚	-9.41462
物流	-9.41569
维护	-9.41622
贴	-9.41914
神经	-9.41995
最佳	-9.42061
宏	-9.42191
城区	-9.42221
整	-9.42228
琴	-9.42229
55	-9.42243
恢复	-9.42251
共有	-9.42259
战争	-9.42277
模	-9.42282
届	-9.42317
阅读	-9.42329
’	-9.42334
青岛	-9.42423
著名的	-9.42429
纤维	-9.42433
高中	-9.42524
生,	-9.42546
豆	-9.42567
山区	-9.42575
以下	-9.42631
等地	-9.42667
扬	-9.42669
寨	-9.42684
图书馆	-9.42746
平方米	-9.42844
特征	-9.42868
希	-9.42925
通常	-9.42952
郎	-9.42953
精品	-9.42973
欧	-9.4303
洗	-9.43127
宣	-9.43186
晚	-9.43196
读者	-9.43312
调节	-9.43388
天下	-9.43472
图书	-9.43515
简单	-9.43516
既	-9.43549
分子	-9.43584
洲	-9.43607
方便	-9.43618
墙	-9.4364
大道	-9.43664
优势	-9.43688
老师	-9.43744
箱	-9.43794
,因此	-9.43834
淡	-9.43964
围	-9.43981
邦	-9.43989
楚	-9.4402
曹	-9.44038
煮	-9.4405
建成	-9.44092
须	-9.44217
不可	-9.44234
患者	-9.44242
,通过	-9.44339
论坛	-9.44397
舍	-9.4453
之间的	-9.44584
以“	-9.44597
拍摄	-9.44666
位置	-9.44777
创业	-9.44824
现代化	-9.44824
当时	-9.44831
晓	-9.44832
简	-9.4485
相对	-9.44858
地质	-9.44918
需求	-9.45045
苗	-9.45074
桑	-9.45075
乳	-9.45087
实用	-9.45103
西部	-9.45138
潮	-9.45236
凡	-9.45247
深圳市	-9.45254
显	-9.45281
汇	-9.45294
瓶	-9.45307
范	-9.45336
38	-9.45564
高速公路	-9.45564
2004年	-9.45565
症	-9.45587
势	-9.45589
陕西省	-9.45653
村委会	-9.45662
尊	-9.45698
良好的	-9.45759
无法	-9.45761
句	-9.45825
。它	-9.45846
希望	-9.45865
敬	-9.45879
红色	-9.4593
65	-9.45955
地下	-9.46028
湿	-9.46033
花园	-9.46075
'	-9.46079
隐	-9.46082
过程中	-9.46092
录	-9.46116
是在	-9.46127
现场	-9.46149
煤	-9.46163
记录	-9.46183
评	-9.46224
结果	-9.46264
经典	-9.46296
状态	-9.4633
▁1	-9.46359
靠	-9.46453
燕	-9.46466
药物	-9.46494
输出	-9.46523
文字	-9.46568
拍	-9.46611
黑色	-9.46631
汁	-9.4664
掌	-9.467
保险	-9.4672
▁1、	-9.46734
倍	-9.4674
继续	-9.468
劳动	-9.47173
严	-9.4719
领	-9.47218
海洋	-9.4723
掌握	-9.47251
股份有限公司	-9.47372
正在	-9.47396
著	-9.47411
税	-9.47482
实行	-9.47526
举办	-9.47589
追求	-9.47598
,因	-9.47642
卢	-9.47749
投入	-9.47805
投	-9.47825
穿	-9.47838
挂	-9.47987
护	-9.47994
(今	-9.48114
手术	-9.48172
谈	-9.48219
事件	-9.48252
发布	-9.48323
一级	-9.48357
季	-9.48396
1000	-9.48421
全县	-9.48537
疏	-9.48544
▁3	-9.48559
笑	-9.48581
阁	-9.48609
旁	-9.48637
胸	-9.48693
生命	-9.48709
动态	-9.48723
不是	-9.48877
37	-9.48927
通讯	-9.49008
协调	-9.49062
宇	-9.49145
「	-9.49208
适合	-9.49275
斑	-9.49301
600	-9.4933
炮	-9.49361
规定	-9.49587
,拥有	-9.496
文艺	-9.4971
内蒙古	-9.4978
辖	-9.49829
感染	-9.49868
描述	-9.50039
免费	-9.50044
9月	-9.50093
零	-9.50093
亿	-9.50128
斜	-9.50131
64	-9.50133
沈	-9.50211
拜	-9.50233
重庆市	-9.5029
攻击	-9.50305
鉴定	-9.50313
净	-9.50349
财政	-9.50416
巨	-9.50446
一样	-9.50465
120	-9.50505
为“	-9.50534
5月	-9.50576
导演	-9.50609
保障	-9.50633
润	-9.50652
:1	-9.50711
翻译	-9.51025
碑	-9.51089
▁3、	-9.51118
不仅	-9.51132
联盟	-9.51133
喜欢	-9.51169
颜色	-9.51175
仪器	-9.51193
玄	-9.51223
孩子	-9.51242
服务。	-9.51258
甘	-9.51259
,从而	-9.51275
境内	-9.51313
印刷	-9.51348
课题	-9.5139
戴	-9.51397
吸收	-9.51414
输入	-9.51442
符合	-9.51452
主编	-9.51457
魔	-9.51513
每个	-9.51534
原料	-9.51567
,可以	-9.51658
换	-9.51767
75	-9.51808
江西省	-9.51827
都有	-9.51868
景观	-9.51889
成立于	-9.51905
工厂	-9.51924
当代	-9.51941
朋友	-9.51944
女子	-9.51956
,则	-9.51956
2003年	-9.51964
整合	-9.52003
一年	-9.52132
即可	-9.52134
《中国	-9.52274
以来,	-9.52279
棉	-9.52317
伏	-9.5234
3月	-9.52395
鬼	-9.52605
导	-9.52728
印度	-9.5274
恶	-9.52862
尺寸	-9.52872
方案	-9.52935
全省	-9.53042
东南	-9.53064
构成	-9.53135
招	-9.5318
振	-9.53192
2月	-9.53204
裂	-9.53284
数量	-9.53294
12月	-9.53334
2002年	-9.53351
是中国	-9.53364
仍	-9.53452
8月	-9.53472
积	-9.53543
办学	-9.53546
陶瓷	-9.53561
航空	-9.53606
一条	-9.53641
技能	-9.53649
射	-9.5365
急	-9.53668
玛	-9.53669
跟	-9.53692
堡	-9.53779
出生	-9.53791
其它	-9.53829
山西省	-9.53962
制定	-9.53982
2000年	-9.54004
42	-9.54025
造型	-9.54029
也有	-9.54034
2个	-9.54212
又称	-9.54226
锅	-9.54247
1.5	-9.54271
」	-9.54285
必	-9.5432
‘	-9.54339
籍	-9.54349
耐	-9.5448
优化	-9.54514
顿	-9.54657
主任	-9.54684
34	-9.5469
研究生	-9.54728
姆	-9.54747
羽	-9.54815
舞蹈	-9.54836
肿瘤	-9.54853
庭	-9.54941
及时	-9.55036
苏州	-9.5504
参加工作	-9.55097
重新	-9.55148
甚	-9.55178
津	-9.55184
人生	-9.5524
身体	-9.55301
塑料	-9.55357
参数	-9.55358
,然后	-9.55373
下,	-9.55395
,让	-9.55398
改善	-9.55475
、中国	-9.555
磁	-9.55544
屏	-9.55591
诚	-9.5562
46	-9.55729
进口	-9.55755
为主,	-9.55829
深入	-9.55987
芳	-9.56018
能源	-9.56054
创办	-9.56054
南部	-9.56103
平均	-9.56143
评为	-9.56146
贵州	-9.56298
配合	-9.56311
防治	-9.56328
覆盖	-9.56333
辽宁省	-9.56368
海拔	-9.56418
2011年	-9.56549
配置	-9.56563
是以	-9.56572
先进的	-9.56615
朗	-9.56655
3个	-9.56747
鼎	-9.56958
肝	-9.56962
锡	-9.56973
固定	-9.57036
最新	-9.57044
享受	-9.57155
有限责任公司	-9.57174
11月	-9.57229
辛	-9.57268
自身	-9.57335
苑	-9.57462
人体	-9.57595
元素	-9.57645
翻	-9.57703
助	-9.57703
多项	-9.5772
办公	-9.57838
150	-9.57949
逐渐	-9.57953
成长	-9.58
文章	-9.58019
御	-9.58031
多年	-9.58057
色彩	-9.58091
歌手	-9.58104
居住	-9.58201
三年	-9.58221
地震	-9.58223
模型	-9.58223
同志	-9.58235
解释	-9.58265
始建于	-9.58265
亩,	-9.58372
4个	-9.58571
工程师	-9.58586
鸣	-9.58668
空气	-9.58728
公共	-9.58736
玩	-9.58743
翼	-9.58743
混合	-9.58863
样	-9.58877
北部	-9.58881
玩家	-9.589
译	-9.5897
辉	-9.59034
桃	-9.5909
,这	-9.5912
浦	-9.59128
专业的	-9.59148
处于	-9.59177
授	-9.59197
兽	-9.5921
,并且	-9.59222
床	-9.5924
完善	-9.59282
大家	-9.59282
33	-9.59388
注重	-9.59455
大师	-9.59469
经常	-9.59492
理念	-9.59505
森林	-9.59545
人民政府	-9.59554
上,	-9.59647
成就	-9.59686
县城	-9.59712
批准	-9.5976
指挥	-9.59837
因此	-9.59974
鸿	-9.60053
歌曲	-9.60176
晶	-9.60183
39	-9.60198
纵	-9.60225
满足	-9.60247
正常	-9.60289
定位	-9.60314
迁	-9.60338
袋	-9.60446
演员	-9.60505
中部	-9.6054
减少	-9.60552
教育部	-9.6063
具体	-9.60659
玉米	-9.60682
国外	-9.60737
43	-9.60759
模拟	-9.60789
孟	-9.60789
在线	-9.60812
推出	-9.60874
凉	-9.60936
沉	-9.61008
劳	-9.61026
56	-9.61037
炎	-9.61038
高度	-9.61101
团体	-9.6115
测	-9.61155
一定	-9.6119
改造	-9.61227
鹿	-9.61236
,我们	-9.61289
夹	-9.61322
辽宁	-9.61341
素质	-9.61408
学者	-9.61411
,男,汉族,	-9.61458
维修	-9.61474
移	-9.61607
电子商务	-9.61615
基于	-9.61646
分类	-9.61652
机制	-9.61655
研究院	-9.61847
和谐	-9.61849
救	-9.61887
一家	-9.61916
动画	-9.6196
蔡	-9.61984
本科	-9.62037
奉	-9.62082
合同	-9.62169
推荐	-9.62223
装修	-9.62277
韵	-9.6234
蛇	-9.6234
适用于	-9.62475
建立了	-9.62512
如果	-9.62533
沈阳	-9.6265
(),	-9.62652
确定	-9.62658
研	-9.62671
,她	-9.62782
,再	-9.62799
英文	-9.62852
不锈钢	-9.62873
健	-9.62885
消	-9.62902
俄罗斯	-9.62973
需	-9.62999
俱乐部	-9.63059
启	-9.63137
航	-9.63153
具备	-9.6329
序	-9.63294
资	-9.63305
沿	-9.63328
幼	-9.63404
探索	-9.63427
电视台	-9.63449
就业	-9.63549
原理	-9.63557
杆	-9.63594
。由于	-9.63597
流行	-9.63618
废	-9.63642
肺	-9.63713
紧	-9.63766
,现任	-9.63772
中文	-9.63807
关注	-9.63831
,主要	-9.63841
泡	-9.63851
控	-9.63883
稍	-9.63892
谱	-9.63898
据	-9.63946
推动	-9.63976
电池	-9.63983
名。	-9.63997
预	-9.64021
,该	-9.64202
诚信	-9.6425
4月	-9.6426
跨	-9.64301
文物	-9.64348
推进	-9.64392
境	-9.64415
评估	-9.64469
也。”	-9.64486
知名	-9.64667
十二	-9.64674
主题	-9.64689
刊	-9.64749
成绩	-9.64759
径	-9.64804
残	-9.64894
买	-9.64934
遗址	-9.64939
将军	-9.6497
行动	-9.64988
扎	-9.64995
降低	-9.65009
,但是	-9.65033
天津市	-9.65085
最后	-9.65171
隔	-9.65174
独特的	-9.65268
曾任	-9.65304
突出	-9.6535
44	-9.6536
跳	-9.65461
,任	-9.65661
甜	-9.65664
平衡	-9.65751
特性	-9.65769
渡	-9.6579
随着	-9.65814
混	-9.65902
专门	-9.6594
人士	-9.65955
第五	-9.65978
纪念	-9.66032
伟	-9.66058
湘	-9.66088
适应	-9.66109
吕	-9.66124
蛋	-9.66308
栋	-9.66313
产品的	-9.66314
东西	-9.6634
宾馆	-9.6636
接触	-9.66398
主义	-9.66416
室内	-9.6642
▁:	-9.66422
专辑	-9.66449
窑	-9.66508
岳	-9.66526
合成	-9.66529
村民	-9.6657
的时候	-9.66574
美容	-9.66605
一位	-9.66611
最终	-9.66658
自动化	-9.66669
漫画	-9.66675
新型	-9.66741
漆	-9.66846
战斗	-9.6688
辐射	-9.66885
粮	-9.66891
保存	-9.66959
习	-9.66975
家具	-9.67012
6月	-9.67028
做好	-9.67068
甘肃	-9.67084
四个	-9.67098
制品	-9.67148
大学生	-9.67151
58	-9.67197
水库	-9.67309
以后	-9.67371
大陆	-9.67387
附近	-9.67427
才能	-9.67432
房地产	-9.67446
黄金	-9.67502
蔬菜	-9.67579
持	-9.67617
罪	-9.67697
顾问	-9.67778
阶段	-9.67823
,每	-9.67902
英雄	-9.67927
页	-9.68017
,女,	-9.68037
等方面	-9.68127
酶	-9.68253
爱情	-9.68271
饭	-9.68282
机、	-9.68335
鸭	-9.6834
茎	-9.68343
轴承	-9.68353
大厦	-9.68369
胃	-9.68373
引起	-9.68401
辞	-9.68471
98	-9.68475
外科	-9.68488
程度	-9.68529
坊	-9.68543
影视	-9.68695
2012年	-9.68699
石油	-9.68703
太阳	-9.68742
所以	-9.68792
开放	-9.688
准备	-9.68808
集成	-9.68857
小时	-9.68891
首次	-9.6901
涂	-9.69079
大赛	-9.69082
攻	-9.69139
医学院	-9.69171
瓜	-9.69199
嘴	-9.69213
》诗:“	-9.69213
的研究	-9.69246
斋	-9.69254
演	-9.69277
购物	-9.69325
每年	-9.69396
丰富的	-9.69457
种子	-9.6948
豪	-9.69508
院校	-9.69604
规格	-9.6961
展览	-9.69639
昭	-9.69651
申请	-9.69694
清代	-9.69719
相当	-9.69724
吧	-9.69767
审	-9.6988
等级	-9.69963
念	-9.69966
<	-9.69984
队伍	-9.69991
虾	-9.70012
份	-9.7007
愿	-9.70112
域	-9.70125
监测	-9.70148
进一步	-9.70169
2.0	-9.70219
诗人	-9.70271
背景	-9.70282
车辆	-9.70305
1月	-9.70382
技巧	-9.70483
码	-9.70499
1984年	-9.70508
海南	-9.7056
写作	-9.70611
2001年	-9.70658
城镇	-9.70691
力量	-9.70764
实力	-9.70788
早期	-9.70815
----------------	-9.70825
赫	-9.70841
高效	-9.70868
31	-9.70892
,距	-9.70925
部、	-9.70953
自我	-9.70972
54	-9.70993
持续	-9.71064
少年	-9.71112
增强	-9.71115
丘	-9.71121
1998年	-9.71126
授予	-9.71177
英寸	-9.71197
一座	-9.71211
统	-9.71218
最早	-9.71242
青少年	-9.71253
两种	-9.71286
犹	-9.71295
长江	-9.71319
知道	-9.71361
形态	-9.71519
反映	-9.71556
地理	-9.716
针对	-9.71674
因素	-9.71704
铝	-9.71736
宗教	-9.71762
穗	-9.71768
吸	-9.71776
秒	-9.71822
为一体的	-9.71839
唯一	-9.71846
各地	-9.71885
链	-9.71971
雕	-9.71991
(18	-9.72009
加拿大	-9.72034
民国	-9.72104
体验	-9.72199
52	-9.722
保健	-9.72248
,最终结果以百度地图数据为准。	-9.72257
电压	-9.72298
协议	-9.72321
.("/////	-9.7233
.",(){(	-9.7233
10000801);});	-9.72362
创意	-9.72364
遗	-9.72374
融	-9.7246
手段	-9.72541
1995年	-9.72607
重要的	-9.72614
校长	-9.7263
卖	-9.72662
砖	-9.72678
备	-9.72704
肠	-9.72861
遇	-9.72877
2.5	-9.72913
分离	-9.7297
,把	-9.73083
柏	-9.73098
》中	-9.73155
记者	-9.73234
主管	-9.73267
的历史	-9.73272
循环	-9.73291
焦	-9.73297
▁4.	-9.73324
武器	-9.7336
住宅	-9.73384
市级	-9.7339
1996年	-9.73459
佛教	-9.73534
充分	-9.73545
涉及	-9.73564
市区	-9.73565
发挥	-9.73594
相互	-9.73741
地球	-9.73743
1997年	-9.7375
阳光	-9.73753
典	-9.73775
贾	-9.73795
,且	-9.73907
动作	-9.73943
协	-9.74017
编制	-9.74042
责任	-9.7409
旅	-9.74134
氧	-9.7415
在中国	-9.74177
抓	-9.74213
科学技术	-9.74215
1999年	-9.74321
仲	-9.74395
系统的	-9.74483
的小	-9.74517
西方	-9.7453
鞋	-9.74535
负	-9.74535
东部	-9.74555
敏	-9.74586
贺	-9.746
育	-9.74623
腰	-9.74653
不会	-9.74688
有机	-9.74741
民主	-9.74774
人工	-9.74801
旋	-9.74843
透	-9.74884
类型:	-9.74911
合理	-9.74912
文献	-9.7492
弱	-9.74921
键	-9.74991
分公司	-9.75002
册	-9.75084
集团公司	-9.75108
版本	-9.75128
,经	-9.75224
财务	-9.75263
地面	-9.75281
破坏	-9.75289
童	-9.75309
的专业	-9.75322
严重	-9.75325
砂	-9.75484
规律	-9.75486
材	-9.75523
景区	-9.75549
皇帝	-9.75575
私	-9.75575
风险	-9.75588
性的	-9.7559
摩	-9.75628
意识	-9.75662
锁	-9.7567
绘画	-9.75675
减	-9.75698
说明	-9.75734
你的	-9.75746
坑	-9.75748
图片	-9.75781
虽	-9.75837
是否	-9.75924
它的	-9.75999
,曾	-9.7601
错	-9.76022
到了	-9.76023
预防	-9.76033
读书	-9.76092
审计	-9.76177
议	-9.762
概念	-9.76241
蒂	-9.76255
止	-9.76376
饮	-9.76397
迷	-9.76422
藤	-9.76437
顾	-9.7644
碎	-9.76544
中间	-9.76674
灭	-9.76766
腿	-9.76768
槽	-9.76785
协助	-9.76807
档案	-9.7685
周围	-9.76861
现象	-9.76929
参考	-9.76934
工作的	-9.76934
票	-9.76943
蛋白	-9.76984
资产	-9.77
起来	-9.77047
盒	-9.77065
完	-9.77086
建议	-9.77119
好的	-9.7712
崇	-9.77287
88	-9.77326
方面的	-9.77368
传》:“	-9.77387
鹤	-9.77446
妇女	-9.77508
47	-9.77519
良好	-9.77529
飞机	-9.77598
效	-9.77642
乐队	-9.77644
周边	-9.77662
85	-9.77706
完善的	-9.77732
兄弟	-9.77781
肾	-9.77858
指标	-9.77888
争	-9.77898
播放	-9.77948
三大	-9.78
著作	-9.78044
气体	-9.78053
扩大	-9.78072
传输	-9.78087
彭	-9.78098
入选	-9.78106
算	-9.78132
人文	-9.78133
又名	-9.78158
决策	-9.7818
空调	-9.78241
咸	-9.78292
1987年	-9.78368
戏剧	-9.78385
强度	-9.78401
吉林省	-9.78426
1993年	-9.78536
园林	-9.78562
49	-9.78596
1992年	-9.78671
幅	-9.78711
客房	-9.78729
1990年	-9.78793
菲	-9.78796
窗	-9.7881
检	-9.78813
俊	-9.78863
》等。	-9.78961
干燥	-9.78989
海外	-9.79044
粮食	-9.79078
遂	-9.79145
酱	-9.79194
▁4、	-9.79195
舒适	-9.79212
含量	-9.79292
丸	-9.79327
仓	-9.79356
7月	-9.79371
科技有限公司	-9.79445
96	-9.79449
电机	-9.79465
黄色	-9.79485
,公司	-9.79521
,现	-9.79531
学员	-9.79543
产品质量	-9.79548
鼻	-9.79674
对象	-9.79696
格式	-9.79698
养殖	-9.79775
团结	-9.79849
坛	-9.79918
常用	-9.79918
南北	-9.79936
带来	-9.79971
壶	-9.80041
图像	-9.80128
注意	-9.80204
采取	-9.80209
汉族	-9.80217
依据	-9.80232
拳	-9.80286
供应	-9.80317
云南省	-9.80327
逸	-9.80455
专利	-9.8046
佩	-9.80475
火车站	-9.80482
洗净	-9.80485
态	-9.80505
二级	-9.80509
证书	-9.80511
震	-9.80514
经济学	-9.80538
大连	-9.80541
历任	-9.80579
监	-9.80581
市政府	-9.80642
济南	-9.8066
浆	-9.8068
。学校	-9.80753
中共党员	-9.80826
准	-9.80894
互动	-9.80937
浪	-9.80951
1980年	-9.80966
潘	-9.80973
释	-9.81017
告	-9.81028
免	-9.81048
军队	-9.81069
也。	-9.81102
练	-9.81152
影片	-9.81171
猫	-9.81173
策略	-9.8122
翅	-9.81326
袁	-9.81385
电流	-9.81388
68	-9.81393
增长	-9.81456
追	-9.81554
安排	-9.81568
借	-9.81601
茂	-9.81602
,还	-9.81648
肌	-9.81692
办理	-9.81728
浓	-9.81752
乙	-9.81778
报道	-9.81783
壮	-9.81872
这样	-9.81874
毫米	-9.81888
上下	-9.8201
3年	-9.82027
1983年	-9.82104
99	-9.82145
成熟	-9.8215
冠军	-9.82156
举行	-9.82183
掉	-9.82188
郑州	-9.82203
呼	-9.82239
初中	-9.82263
并且	-9.82307
观察	-9.82325
1994年	-9.82339
僧	-9.82358
复合	-9.82386
蒸	-9.8239
95	-9.82399
隶属于	-9.82443
充满	-9.82471
嫩	-9.82477
生产线	-9.82509
泵	-9.82547
广州市	-9.82572
父母	-9.82579
高压	-9.82697
是一家	-9.82783
,能	-9.82783
画家	-9.82788
长沙	-9.8279
山水	-9.8281
胎	-9.82818
效率	-9.82935
珍	-9.82963
工人	-9.82995
沃	-9.83022
加热	-9.8305
轻松	-9.83057
中华人民共和国	-9.83057
小型	-9.83097
甘肃省	-9.83148
硕士	-9.8315
霍	-9.83163
兹	-9.83168
原则	-9.83275
屯	-9.83303
原因	-9.83366
科、	-9.83389
惊	-9.83418
高端	-9.83448
管道	-9.83475
▁4	-9.83531
1982年	-9.83578
频道	-9.83609
训	-9.83718
两侧	-9.83754
水泥	-9.83761
,他们	-9.83849
作战	-9.83911
下载	-9.84053
状况	-9.84124
强大的	-9.84124
财	-9.84126
综合性	-9.84185
寻	-9.8424
餐饮	-9.84247
配件	-9.84255
各项	-9.84269
村位于	-9.84282
大队	-9.84413
埃	-9.84458
警	-9.84512
探	-9.84526
萧	-9.84539
造成	-9.84565
黑龙江省	-9.84568
停	-9.84656
熊	-9.84704
内存	-9.84772
她的	-9.84774
观众	-9.84824
名称:	-9.84856
1985年	-9.84897
示范	-9.84906
发展的	-9.84929
大部分	-9.84939
激光	-9.84984
江南	-9.84992
暴	-9.85005
霞	-9.85069
包含	-9.85191
解决方案	-9.85195
澳大利亚	-9.85197
坐落在	-9.85215
得到了	-9.85268
启动	-9.85275
1991年	-9.85296
宾	-9.85319
坪	-9.85461
解放	-9.85481
-1	-9.85486
先进单位	-9.85492
集体	-9.8552
国务院	-9.85546
适量	-9.85563
费用	-9.85565
栽培	-9.85607
曾经	-9.85624
申	-9.85627
”等	-9.85646
1978年	-9.85651
舌	-9.85679
构造	-9.85721
,就	-9.85761
勤	-9.85841
冯	-9.85842
醇	-9.85891
碧	-9.85902
。但	-9.85923
厦门	-9.85941
在此	-9.86064
哥	-9.8607
妙	-9.86084
直径	-9.86099
诊断	-9.86102
容易	-9.86105
5个	-9.86174
虽然	-9.86218
父亲	-9.86227
塑	-9.86274
模具	-9.86348
简称	-9.86357
购买	-9.8639
宿	-9.8643
大会	-9.86469
献	-9.86499
几个	-9.8656
明显	-9.86578
吾	-9.86611
智慧	-9.86617
中药	-9.86664
存储	-9.86708
更多	-9.8673
佐	-9.86821
林业	-9.86822
出生,	-9.86851
署	-9.86859
1986年	-9.86976
明代	-9.86978
园区	-9.86993
第2	-9.87063
西班牙	-9.87172
之后,	-9.87245
融合	-9.87298
谋	-9.87318
1989年	-9.87348
这里	-9.87386
快乐	-9.87447
足球	-9.87462
数据库	-9.87482
演唱	-9.87486
囊	-9.87513
管理、	-9.87624
建材	-9.87654
它们	-9.87724
函数	-9.87736
艺术家	-9.87763
66	-9.87788
,因为	-9.87879
吨	-9.87883
土壤	-9.87905
那些	-9.8796
通用	-9.87992
,或	-9.88005
1981年	-9.88054
新加坡	-9.88065
工作;	-9.88065
秘书	-9.8807
万元,	-9.88072
′	-9.88189
帕	-9.88232
1979年	-9.88235
男,	-9.88253
坐落于	-9.88258
巷	-9.88261
律	-9.88285
研究中心	-9.8829
筒	-9.88291
频率	-9.88302
发射	-9.88328
休	-9.88338
×	-9.88424
编写	-9.8851
职能	-9.88643
面向	-9.88644
0.5	-9.88645
我们的	-9.88659
网上	-9.88663
扩展	-9.8869
氧化	-9.88707
邪	-9.88838
资讯	-9.88844
而且	-9.88877
贵州省	-9.88883
更新	-9.89026
首届	-9.89051
86	-9.89082
除了	-9.89142
穴	-9.89182
通道	-9.89225
面对	-9.89229
的生活	-9.8924
&	-9.89258
放在	-9.89285
如此	-9.89296
浸	-9.89446
村隶属于	-9.89486
饼	-9.89496
资本	-9.89558
拟	-9.89566
研制	-9.89634
72	-9.89645
什么	-9.89662
个性	-9.89701
祭	-9.89717
公开	-9.89752
液体	-9.89772
表达	-9.89773
后来	-9.8978
较为	-9.89784
拓展	-9.89815
荒	-9.89839
沟通	-9.89886
角色	-9.8989
首批	-9.89891
鸡蛋	-9.89896
的新	-9.89914
效益	-9.89931
大众	-9.89941
律师	-9.89949
第一个	-9.89965
邓	-9.89998
帮	-9.90019
布局	-9.90056
西藏	-9.9011
药品	-9.90177
识	-9.9018
6个	-9.90216
勇	-9.90222
翠	-9.90247
徒	-9.90255
险	-9.90267
尤	-9.90277
看到	-9.90408
公元	-9.90429
甚至	-9.90432
狗	-9.90451
基因	-9.9046
专科	-9.90464
顾客	-9.90464
瓷	-9.90482
购	-9.90537
考入	-9.9056
。其中	-9.90574
参加了	-9.90579
,获	-9.90591
数码	-9.90632
席	-9.90651
犯	-9.90706
节能	-9.90714
厘米,	-9.90717
滩	-9.90717
公司的	-9.90753
穆	-9.90765
家族	-9.90765
魂	-9.90769
息	-9.90779
尺	-9.90844
的基础上	-9.90873
开关	-9.90888
措施	-9.90907
董	-9.90912
海军	-9.90914
宁波	-9.90931
乡镇	-9.90983
毗邻	-9.91086
而不	-9.91109
都市	-9.91147
。目前	-9.91147
橡胶	-9.91169
枚	-9.91259
照明	-9.913
滚	-9.91304
经济发展	-9.9139
更名为	-9.91422
获奖	-9.91453
播	-9.91461
护理	-9.91465
一流的	-9.91477
南方	-9.91507
,当	-9.91625
军区	-9.91633
人事	-9.91691
,由于	-9.91764
服务器	-9.91779
纺织	-9.91895
基层	-9.91906
气候	-9.91923
葱	-9.91949
旺	-9.92053
1988年	-9.92061
己	-9.92106
改为	-9.92116
年)	-9.92197
北方	-9.9221
医生	-9.92224
五年	-9.92267
一带	-9.92304
高温	-9.92307
棒	-9.92315
画面	-9.92391
绿化	-9.92415
卿	-9.92429
幸福	-9.9243
电气	-9.92473
再次	-9.92538
诗歌	-9.92559
57	-9.92577
各个	-9.92672
敌人	-9.9271
平方米,	-9.92747
喷	-9.928
办事处	-9.92807
和平	-9.92844
共享	-9.92863
”和“	-9.92868
密封	-9.9292
升级	-9.92933
是个	-9.92938
●	-9.92951
耕地	-9.92961
1.2	-9.92961
房屋	-9.92973
韦	-9.93029
令人	-9.93193
原名	-9.93215
登记	-9.93333
豪华	-9.93333
。从	-9.93343
商标	-9.93358
尘	-9.93374
种类	-9.93388
迹	-9.93514
不足	-9.93524
辅导	-9.93529
开发区	-9.93534
过去	-9.93553
广播	-9.9356
这是	-9.93587
公斤	-9.93589
辅助	-9.93595
突破	-9.93615
密度	-9.93626
应该	-9.93755
负责人	-9.9377
奏	-9.93773
盆	-9.93778
十五	-9.93785
,目前	-9.93799
平面	-9.938
吉林	-9.93862
可达	-9.93868
作业	-9.93889
一流	-9.93959
乔	-9.93963
2.	-9.94017
渔	-9.94244
行业的	-9.94245
赠	-9.94394
谁	-9.94438
荣誉	-9.9444
认识	-9.94468
,更	-9.94476
觉	-9.94539
阀	-9.94564
生存	-9.94622
的《	-9.94653
首先	-9.94655
兼任	-9.94656
划	-9.94664
限制	-9.94687
脂	-9.9473
慧	-9.94763
-2	-9.9479
1958年	-9.94844
食用	-9.9486
水利	-9.94906
组成的	-9.94954
电路	-9.9498
有一	-9.95047
宅	-9.95159
销	-9.95187
)是	-9.95265
动漫	-9.95265
筑	-9.95312
染	-9.95321
”为	-9.95336
一名	-9.95371
适宜	-9.95394
寸	-9.95402
电器	-9.95413
无线	-9.95432
习惯	-9.9548
当年	-9.95499
高档	-9.95598
效应	-9.95652
组建	-9.95666
访问	-9.95681
开拓	-9.95731
250	-9.95741
终	-9.95763
卫星	-9.95785
心理学	-9.95804
富有	-9.95824
第六	-9.95826
不要	-9.95835
污染	-9.95846
委托	-9.96003
开设	-9.96007
怪	-9.96056
建于	-9.96058
更多的	-9.96078
53	-9.961
弄	-9.96143
付	-9.96196
舒	-9.96206
颈	-9.9622
只是	-9.96241
潜	-9.96242
的基本	-9.96244
本数据来源于百度地图	-9.96284
插	-9.96356
均匀	-9.96374
碱	-9.96387
戈	-9.96421
理解	-9.96493
幕	-9.96505
完美	-9.96521
贡	-9.96532
现实	-9.96563
合金	-9.96581
液压	-9.96594
,属	-9.96602
拔	-9.9662
鼠	-9.96621
&;	-9.96668
3.5	-9.96672
51	-9.96704
2003	-9.96718
,并在	-9.96765
单元	-9.96767
▁“	-9.96844
,号	-9.96848
后期	-9.96879
全村	-9.96884
运作	-9.96922
线路	-9.9694
41	-9.96957
弯	-9.96993
等多种	-9.96993
记载	-9.97003
误	-9.97016
之前	-9.97142
1956年	-9.97153
报》	-9.97181
发明	-9.97185
导致	-9.97203
,提高	-9.97226
多媒体	-9.97241
吊	-9.97248
黑龙江	-9.97278
人数	-9.97305
传统的	-9.97323
潭	-9.97324
竞争	-9.97332
另一	-9.97381
医科大学	-9.97385
59	-9.9739
垂	-9.97394
颜	-9.97408
肩	-9.97415
,自	-9.97419
为主的	-9.97438
茶叶	-9.97469
,无	-9.97606
采购	-9.97612
跑	-9.97741
寄	-9.97793
事务	-9.978
发动机	-9.97802
滴	-9.97812
幽	-9.9783
边缘	-9.97835
拿	-9.9788
十年	-9.97886
黄河	-9.97895
瓣	-9.97917
名,	-9.97928
成分	-9.97956
幼儿	-9.97959
迎	-9.97986
标准化	-9.98028
禁	-9.9806
豆腐	-9.98114
首都	-9.98195
有些	-9.98205
气象	-9.98271
名人	-9.98328
国民党	-9.98349
姚	-9.98367
续	-9.98369
前后	-9.98378
机器	-9.98385
硬盘	-9.98435
腾	-9.98503
爱好者	-9.98514
学历	-9.98536
教授,	-9.98571
是一款	-9.9861
母亲	-9.98616
娜	-9.9863
批	-9.98754
部位	-9.98774
的产品	-9.9879
进程	-9.98864
逆	-9.98873
地址	-9.9889
案例	-9.98943
监控	-9.98975
亡	-9.98992
触	-9.98997
寻找	-9.99
稿	-9.99002
俗	-9.99092
执	-9.99111
多功能	-9.99116
多家	-9.99129
利益	-9.99152
碗	-9.99162
找到	-9.99205
室、	-9.99212
真实	-9.99228
明星	-9.99242
,共	-9.99265
外观	-9.99272
事故	-9.99293
传说	-9.99313
覆	-9.99345
同步	-9.99391
赋	-9.99401
柯	-9.99412
称号	-9.99412
1974年	-9.99613
龟	-9.99677
进步	-9.99686
某些	-9.99698
下设	-9.99699
贡献	-9.99749
家居	-9.99783
醋	-9.99807
重视	-9.99851
67	-9.99864
78	-9.99878
彩色	-9.99923
败	-9.99969
委员	-9.99973
180	-9.99996
犬	-10.0001
创立	-10.0002
脸	-10.0003
系列产品	-10.0005
堆	-10.0009
赞	-10.0009
均为	-10.0012
76	-10.0013
铭	-10.0014
传媒	-10.0015
考察	-10.0017
分配	-10.0022
万元	-10.0023
他们的	-10.0025
生成	-10.0027
收录	-10.0028
。曾任	-10.0029
对外	-10.0037
规则	-10.0039
缩	-10.004
垫	-10.0044
副教授	-10.0047
真正	-10.0048
本地	-10.0048
福州	-10.0052
赏	-10.0052
煎	-10.0062
,促进	-10.0065
110	-10.0066
巧	-10.0073
设计师	-10.0075
信誉	-10.0084
腔	-10.0085
主要是	-10.0089
复杂	-10.0092
一套	-10.0097
思维	-10.0097
株	-10.0098
年度	-10.0101
劲	-10.0104
婚	-10.0108
含有	-10.0111
介绍了	-10.0111
62	-10.0114
端口	-10.0118
多年来	-10.0122
省市	-10.0123
。此	-10.0123
依托	-10.0125
图案	-10.0129
灌	-10.013
信息化	-10.0131
食物	-10.0138
传感器	-10.0139
颗粒	-10.0141
展开	-10.0145
不得	-10.0145
平原	-10.0146
群体	-10.0146
案件	-10.0155
内置	-10.0157
钢铁	-10.0158
自治区	-10.0159
建有	-10.016
局局长	-10.0164
上市	-10.0175
160	-10.0181
主体	-10.0182
最为	-10.0183
汪	-10.0185
一项	-10.0186
所谓	-10.0188
狂	-10.0192
能量	-10.0198
鹰	-10.02
凌	-10.0207
充	-10.0209
植	-10.0209
指定	-10.0211
衡	-10.0214
十八	-10.0216
混凝土	-10.0216
船舶	-10.0222
。主要	-10.0223
百年	-10.0226
获得了	-10.0229
公寓	-10.0234
流量	-10.0235
考核	-10.0235
功率	-10.0235
在北京	-10.0236
69	-10.0238
非洲	-10.0242
适	-10.0246
烈	-10.0248
浩	-10.0251
罐	-10.0255
创建于	-10.0256
独特	-10.0257
严格	-10.0261
97	-10.0261
倒入	-10.0262
飞行	-10.0268
战士	-10.0268
来源	-10.0269
禅	-10.0275
纲	-10.0275
欢迎	-10.0276
并不	-10.0276
63	-10.0277
朝鲜	-10.0278
)、《	-10.0287
总公司	-10.0294
经历	-10.0299
盟	-10.03
的方式	-10.0301
,字	-10.0301
整理	-10.0305
消防	-10.0313
渠道	-10.0317
邑	-10.0318
焊接	-10.0327
型号	-10.0336
逐步	-10.0339
百姓	-10.0341
抽	-10.0342
苍	-10.0342
在这里	-10.035
社会主义	-10.0351
工作者	-10.0355
股票	-10.0356
电缆	-10.0364
一点	-10.0366
时间:	-10.0369
儒	-10.0374
的地方	-10.0374
超级	-10.038
产量	-10.0381
精英	-10.0382
十三	-10.0382
企业。	-10.0384
期刊	-10.0388
诗词	-10.039
症状	-10.0392
主席	-10.0403
领域的	-10.0407
道德	-10.0407
美丽	-10.0414
用来	-10.0415
计量	-10.0415
中外	-10.0416
哈尔滨	-10.0421
1949年	-10.0423
现为	-10.0426
73	-10.0428
什	-10.0428
授权	-10.0429
出了	-10.043
撒	-10.0437
贞	-10.0437
认真	-10.0438
卵	-10.0442
副主任	-10.0452
于一体的	-10.0452
高等	-10.0453
最具	-10.0453
轩	-10.0454
一部	-10.0463
长度	-10.0463
明确	-10.0464
个体	-10.0467
性质	-10.0471
引导	-10.0475
中山	-10.0479
但是	-10.0479
法学	-10.0485
2013年	-10.049
兆	-10.0492
,却	-10.0493
取得了	-10.0494
卓	-10.0495
切成	-10.0496
孤	-10.0499
碳	-10.05
别墅	-10.0502
原始	-10.051
制成	-10.0512
流程	-10.0514
占地	-10.0514
承办	-10.0519
建造	-10.0521
就会	-10.0527
集团有限公司	-10.0529
介	-10.0534
者。	-10.0542
耕地面积	-10.0544
四大	-10.0545
证券	-10.0549
了。	-10.0553
困难	-10.0555
第一次	-10.0555
研究会	-10.0556
改进	-10.0559
戒	-10.0562
鑫	-10.0562
详细	-10.0563
培	-10.0567
有:	-10.0572
资质	-10.0579
黎	-10.0589
阶	-10.0589
-3	-10.0593
目的	-10.0598
溶	-10.0599
运动员	-10.0601
翁	-10.0605
2-	-10.0609
新建	-10.061
汗	-10.0613
少许	-10.0616
深度	-10.0617
车站	-10.0618
垂直	-10.0623
一等奖	-10.0632
光学	-10.0635
作用。	-10.0641
钻	-10.0641
示	-10.0643
迈	-10.0647
的工作	-10.0648
奖励	-10.0649
廷	-10.0649
一致	-10.0656
赐	-10.0659
凝	-10.0665
0.0	-10.067
吹	-10.0671
狼	-10.0671
中有	-10.0672
温泉	-10.0676
病人	-10.0676
刑	-10.0677
精密	-10.0678
发育	-10.0684
北京大学	-10.0684
常见	-10.0686
,先后	-10.0689
后的	-10.069
连锁	-10.0691
梨	-10.0694
修复	-10.0696
占地面积	-10.0701
87	-10.0702
8个	-10.0707
权威	-10.0711
十大	-10.0715
岸	-10.0725
接待	-10.0738
冶金	-10.0741
绘	-10.0741
依法	-10.0748
健身	-10.0754
辽	-10.0755
屏幕	-10.0766
企业的	-10.0767
77	-10.0769
的影响	-10.077
防止	-10.077
证明	-10.0771
年龄	-10.0772
男子	-10.0773
擅长	-10.0776
骑	-10.078
胆	-10.0782
---	-10.0786
钙	-10.0788
高科技	-10.0789
测定	-10.0789
庵	-10.0792
扣	-10.0797
标志	-10.0797
1950年	-10.0803
铸	-10.0807
分会	-10.081
合并	-10.0813
茨	-10.0815
膏	-10.0822
的大	-10.0826
二等奖	-10.083
业绩	-10.0831
卧	-10.0832
始终	-10.0833
公里	-10.0838
阀门	-10.0842
键盘	-10.0842
蜀	-10.0843
斯特	-10.0843
里,	-10.0844
完整	-10.0845
模块	-10.0846
饮食	-10.0851
芯片	-10.0859
已有	-10.0859
榜	-10.0862
历史上	-10.0869
0.3	-10.0871
策	-10.0875
分钟	-10.0876
臂	-10.0881
青春	-10.0885
电视剧	-10.0886
美丽的	-10.0887
89	-10.0887
大桥	-10.0888
▁·	-10.0891
涂料	-10.0893
织	-10.0893
79	-10.0895
输送	-10.0921
初期	-10.0926
芽	-10.0927
公安	-10.093
2008	-10.093
几乎	-10.0931
龄	-10.0937
3000	-10.0937
视觉	-10.0938
形状	-10.0938
以为	-10.094
本品	-10.094
害	-10.0942
的作用	-10.0946
形容	-10.0948
比例	-10.0955
82	-10.0955
()是	-10.0957
曾在	-10.0957
大街	-10.0958
死亡	-10.096
符	-10.0964
美食	-10.0965
发表论文	-10.0965
郁	-10.0966
渠	-10.0967
培育	-10.0967
当前	-10.0972
钢琴	-10.0976
录音	-10.0978
丛	-10.098
透明	-10.0986
体现	-10.0988
显著	-10.099
访	-10.099
竞赛	-10.0994
束	-10.0997
县级	-10.0999
打印	-10.1001
优秀的	-10.1004
接收	-10.1005
全区	-10.1007
重量	-10.1011
强化	-10.1016
阳县	-10.1018
患	-10.1028
崔	-10.1032
转移	-10.1036
的大型	-10.1041
,我	-10.1043
700	-10.1046
闭	-10.105
有一个	-10.1051
山县	-10.1053
用品	-10.1053
慢	-10.1057
地位	-10.1057
闲	-10.1058
形成了	-10.1059
成了	-10.1068
异常	-10.1071
柄	-10.1071
旋转	-10.1072
收集	-10.1073
打开	-10.1074
蛋白质	-10.1076
同样	-10.108
流通	-10.1084
变形	-10.1086
离子	-10.1088
荷兰	-10.1088
坚	-10.1089
照片	-10.109
凭借	-10.109
系统、	-10.1093
苏联	-10.1095
酱油	-10.1098
鉴	-10.1098
漏	-10.1109
1970年	-10.1112
缺	-10.1118
所属	-10.1118
准确	-10.1119
餐厅	-10.112
更是	-10.1121
然后	-10.1121
危	-10.1123
记忆	-10.1125
饭店	-10.1126
主要从事	-10.1129
地图	-10.1131
刷	-10.1134
刺激	-10.1134
荷	-10.1137
乎	-10.1138
92	-10.1138
社团	-10.1146
”是	-10.1146
自主	-10.1147
淀粉	-10.1149
在全国	-10.1155
地区的	-10.1155
叶片	-10.1157
雾	-10.1172
另	-10.1181
蜜	-10.1181
秉承	-10.1184
摆	-10.1184
述	-10.1185
每一个	-10.1186
裕	-10.1193
决	-10.12
粘	-10.121
1976年	-10.1222
蒋	-10.1223
花卉	-10.1227
不少	-10.1233
高级工程师	-10.1234
公社	-10.124
资深	-10.124
老人	-10.1243
障碍	-10.1245
三等奖	-10.1246
频	-10.1247
阵	-10.1251
堤	-10.1251
将其	-10.1252
禄	-10.1253
妇	-10.1254
间,	-10.1259
围绕	-10.126
果实	-10.127
过滤	-10.1271
排列	-10.1284
无限	-10.1285
是“	-10.1285
已成为	-10.1288
0.1	-10.1296
专题	-10.1299
一段	-10.1303
带有	-10.1308
崖	-10.1311
师范学院	-10.1314
,形成	-10.1318
配有	-10.1318
年间	-10.132
中国科学院	-10.1321
双方	-10.1323
霸	-10.1326
指数	-10.133
城县	-10.1331
的方法	-10.1331
鹏	-10.1332
搜索	-10.1332
捷	-10.1333
防护	-10.1334
设计、	-10.1338
小组	-10.1341
抗日	-10.1343
感受	-10.1345
汝	-10.1348
精心	-10.1349
柜	-10.1351
硅	-10.1353
风景	-10.1355
普遍	-10.1357
公主	-10.1357
党的	-10.1358
进修	-10.1358
舰	-10.1359
乡村	-10.1359
滤	-10.1361
合格	-10.1362
以前	-10.1364
〕	-10.1366
▁●	-10.1369
立足	-10.137
清水	-10.1377
小儿	-10.1377
该校	-10.1377
主动	-10.1377
挑战	-10.1392
档	-10.1392
蓝色	-10.1394
,放入	-10.1394
偶	-10.1395
武术	-10.1396
镜头	-10.1397
结束	-10.1399
散文	-10.1402
服饰	-10.1403
响	-10.1409
绝对	-10.1411
身份	-10.1414
候	-10.1417
只能	-10.1424
二年	-10.1424
1952年	-10.1427
》和《	-10.143
遍	-10.1431
苹果	-10.1435
层次	-10.1441
煤炭	-10.1447
牧	-10.1454
规	-10.1454
都会	-10.1455
普及	-10.1462
不过	-10.1465
83	-10.1467
昆明	-10.1467
耶	-10.1469
2007	-10.1474
一下	-10.1476
,一般	-10.1476
讨论	-10.1479
平方公里	-10.148
康复	-10.1483
做出	-10.1487
扇	-10.1504
变成	-10.1505
较大	-10.1506
优秀教师	-10.1508
洁	-10.151
。“	-10.1511
组成。	-10.1512
厂房	-10.1518
温州	-10.152
总统	-10.1521
妻	-10.1521
高新技术企业	-10.1524
内外	-10.1525
里的	-10.1532
74	-10.1533
处理器	-10.1535
万吨	-10.1535
总部	-10.1538
贷款	-10.1539
900	-10.1543
永远	-10.1548
意义	-10.1548
丙	-10.1549
适用	-10.155
近年来	-10.1554
丛书	-10.1554
类似	-10.1557
治理	-10.156
县政府	-10.1562
1.8	-10.1563
专著	-10.1565
的故事	-10.1569
弟	-10.1569
养生	-10.157
总结	-10.1573
蒙古	-10.1578
烤	-10.1579
,加入	-10.1579
一片	-10.1582
四年	-10.1584
仿	-10.1584
高考	-10.1587
供电	-10.1587
多数	-10.1587
操作系统	-10.1588
唇	-10.159
驱动	-10.159
书籍	-10.1591
尿	-10.1596
在美国	-10.1598
审核	-10.1601
一生	-10.1601
芯	-10.1603
舟	-10.1605
十六	-10.1606
预测	-10.1608
祠	-10.161
流动	-10.1614
菊	-10.1617
上有	-10.1618
遭	-10.1619
艳	-10.162
犯罪	-10.1622
立体	-10.1624
。这	-10.1625
沪	-10.1626
支撑	-10.1628
货物	-10.1628
▁5.	-10.1632
炸	-10.1633
各大	-10.1633
肖	-10.1635
有《	-10.1637
旗下	-10.1641
观念	-10.1645
→	-10.1648
找	-10.1649
师生	-10.1654
大气	-10.1659
的设计	-10.166
▁5、	-10.1663
农户	-10.1663
图形	-10.1669
接近	-10.167
介质	-10.1672
眉	-10.1676
一定的	-10.1679
94	-10.1681
足球俱乐部	-10.1684
材质	-10.1686
到达	-10.1687
厘米	-10.1687
1975年	-10.1691
螺	-10.1692
重建	-10.1696
一只	-10.1697
影像	-10.1704
古城	-10.1708
监管	-10.1713
悬	-10.1713
魔法	-10.1714
汉语	-10.1716
秘书长	-10.1719
稀	-10.1722
商贸	-10.1723
▁学校	-10.1724
醉	-10.1733
先进工作者	-10.1743
所在	-10.1745
艺人	-10.1755
选用	-10.1756
第七	-10.1759
限	-10.1761
暖	-10.1768
一所	-10.1774
1957年	-10.1775
雕塑	-10.1775
岩石	-10.1781
灾	-10.1781
靖	-10.1787
添加	-10.1795
水稻	-10.1798
合肥	-10.1799
电信	-10.1801
00	-10.1807
成立了	-10.1808
,实现	-10.1815
清洁	-10.1818
五个	-10.1818
(-)	-10.1825
豫	-10.1826
医师	-10.1832
叔	-10.1841
了一个	-10.1841
宇宙	-10.1843
▁*	-10.1848
(如	-10.1849
落实	-10.1852
等职。	-10.1853
女人	-10.1855
辰	-10.1856
手动	-10.1856
支付	-10.1857
”(	-10.1862
藻	-10.1869
售后服务	-10.1869
即可。	-10.1871
货币	-10.1872
性格	-10.1874
免疫	-10.1875
93	-10.1876
查询	-10.1878
弦	-10.1879
,已	-10.188
脊	-10.1881
来到	-10.1887
耀	-10.1887
》获	-10.1891
二十	-10.1893
招生	-10.1894
诏	-10.1895
生产基地	-10.1895
,属于	-10.1895
辅	-10.1903
容量	-10.1904
出自	-10.1915
幸	-10.1921
修改	-10.1922
场所	-10.1923
县委	-10.1925
两年	-10.193
活动,	-10.1931
感觉	-10.1931
突	-10.1932
工作人员	-10.1934
为主。	-10.1935
交换	-10.1937
密码	-10.1937
赖	-10.1937
成人	-10.1943
联合会	-10.1949
呼吸	-10.1951
等等	-10.1957
逻辑	-10.1958
一批	-10.1958
欢	-10.1958
成立的	-10.1959
弗	-10.196
今天	-10.1965
饲料	-10.1966
均有	-10.1967
筋	-10.1969
本身	-10.197
。而	-10.1978
政协	-10.1982
涛	-10.1987
,亦	-10.1987
助理	-10.1991
走向	-10.1996
”“	-10.1998
维生素	-10.2
84	-10.2001
,此	-10.2002
米,	-10.2005
.07	-10.201
5年	-10.2016
拨	-10.202
组成,	-10.2021
第二届	-10.2022
曰:“	-10.2024
""	-10.2029
法制	-10.2033
61	-10.2034
雕刻	-10.2036
越南	-10.2037
胜利	-10.2038
天地	-10.2039
的各种	-10.2044
察	-10.2044
名家	-10.2044
期间,	-10.2045
不知	-10.2049
面粉	-10.2051
配备	-10.2052
生理	-10.2055
撰写	-10.2058
称为“	-10.2059
陆军	-10.2059
各级	-10.2063
蜂	-10.2065
釉	-10.2069
每天	-10.207
完成了	-10.2071
128	-10.2074
避	-10.2076
急性	-10.2077
奈	-10.208
转换	-10.2083
1965年	-10.2085
。曾	-10.2088
企业管理	-10.209
直属	-10.2092
避免	-10.2098
两次	-10.2105
慈	-10.2109
卒	-10.2115
管理局	-10.2117
1号	-10.2119
後	-10.2121
法规	-10.2122
范围内	-10.2129
活动。	-10.213
从而	-10.2134
,经过	-10.2134
港口	-10.2134
扶	-10.2135
用途	-10.2139
资格	-10.2143
贼	-10.2143
鳞	-10.2145
也可以	-10.2149
的时间	-10.2153
分享	-10.2166
事业单位	-10.2167
桥梁	-10.2167
中小企业	-10.2171
局长	-10.2171
唐代	-10.2172
咖啡	-10.2173
输	-10.2175
老年	-10.2177
题材	-10.2179
码头	-10.2182
硬件	-10.2187
舞台	-10.2194
,加	-10.2196
1963年	-10.2197
仪表	-10.2199
企	-10.2204
战役	-10.2204
1964年	-10.2205
村、	-10.2207
出来的	-10.2207
观测	-10.221
氢	-10.2212
总经理	-10.222
1955年	-10.2223
日常	-10.2226
信用	-10.2226
终端	-10.2228
葛	-10.223
芬	-10.2233
弘	-10.2236
冈	-10.224
该村	-10.2242
电动	-10.2243
琼	-10.2245
一场	-10.2251
年),	-10.2252
》的	-10.2256
扁	-10.2256
餐	-10.2257
栏目	-10.2258
加盟	-10.2262
房间	-10.2263
识别	-10.2265
高等教育	-10.2268
意见	-10.2268
窗口	-10.2271
有“	-10.2278
梦想	-10.2281
焊	-10.2282
构建	-10.2282
清晰	-10.2284
俄	-10.2287
锋	-10.2288
一支	-10.229
有关部门	-10.2292
财富	-10.2294
氯	-10.2294
”;	-10.2299
、省	-10.2299
埋	-10.2299
球队	-10.2302
外国	-10.2304
隶属	-10.2305
锅炉	-10.2306
兔	-10.2307
党委	-10.2307
葡萄	-10.2308
煤矿	-10.2313
侍	-10.2315
比喻	-10.232
经理	-10.2321
公里。	-10.2322
安县	-10.2323
监察	-10.2323
血管	-10.2325
薛	-10.233
磷	-10.233
十一	-10.2332
第3	-10.2338
水果	-10.2339
,地处	-10.2342
教职工	-10.2342
下的	-10.2342
家长	-10.2343
您的	-10.2343
最好的	-10.2348
长安	-10.2351
地产	-10.2355
三十	-10.2357
危险	-10.2359
物品	-10.236
简介	-10.2361
高达	-10.2362
太平洋	-10.2362
1969年	-10.2363
邀请	-10.2371
吐	-10.2371
些	-10.2372
闽	-10.2375
仔	-10.2381
//	-10.2383
声音	-10.2384
设定	-10.2388
肌肤	-10.2388
怒	-10.239
在国内	-10.2395
这样的	-10.2395
游客	-10.2401
逃	-10.2402
传奇	-10.2403
宁夏	-10.2407
阻	-10.2407
极为	-10.2407
0.8	-10.2411
礼品	-10.2416
疑	-10.2417
互	-10.242
更为	-10.2421
税收	-10.2422
供应商	-10.2424
柔	-10.2425
08	-10.2426
“”	-10.243
呈现	-10.2434
器材	-10.2434
原创	-10.2437
小麦	-10.2437
盗	-10.2438
留学	-10.2439
功效	-10.2441
一块	-10.2442
活性	-10.2443
渐	-10.2448
:《	-10.2449
220	-10.245
分辨率	-10.245
的服务	-10.2451
校区	-10.2454
翔	-10.2461
05	-10.2461
』	-10.2464
▁该	-10.2465
5000	-10.2465
新城	-10.2472
局部	-10.2472
奖。	-10.2475
空军	-10.2476
有所	-10.2476
内科	-10.2477
技术、	-10.2477
欧美	-10.2478
。她	-10.2478
炼	-10.2479
1年	-10.2479
1968年	-10.2484
全新	-10.2488
年代	-10.2488
铸造	-10.2492
操	-10.2494
确保	-10.2495
癌	-10.2496
绕	-10.2499
伤害	-10.2507
址	-10.2508
绍	-10.2508
坏	-10.2514
特种	-10.2515
中原	-10.2519
乾	-10.2521
为客户提供	-10.2522
):	-10.2525
正确	-10.2526
那么	-10.2526
依靠	-10.2533
书记	-10.2533
人群	-10.2535
辖区	-10.2536
霜	-10.2539
7个	-10.2543
修建	-10.2543
,还有	-10.2547
罗马	-10.255
▁5	-10.255
角度	-10.2553
悦	-10.2554
补充	-10.2555
教室	-10.2563
周期	-10.2564
男女	-10.2565
状,	-10.2572
另外	-10.2573
所有的	-10.2578
损失	-10.258
倡导	-10.258
苯	-10.2581
昆虫	-10.2583
带领	-10.2584
钩	-10.2586
泛	-10.2588
武装	-10.2588
办法	-10.2591
,学校	-10.2594
技	-10.2595
料酒	-10.26
爆	-10.2601
侠	-10.2605
年轻	-10.2606
冲击	-10.2606
东莞	-10.2608
热情	-10.2618
丧	-10.2625
抱	-10.2625
音频	-10.2631
1971年	-10.2633
清洗	-10.2634
逐	-10.2636
以其	-10.2637
五金	-10.2638
截	-10.2639
)和	-10.2641
作出	-10.2654
大约	-10.2656
厚度	-10.2657
抑制	-10.2661
拼	-10.2665
1960年	-10.2665
在一起	-10.2668
枣	-10.2675
消除	-10.2675
目录	-10.2682
清华大学	-10.2682
工作室	-10.2683
原来	-10.2685
给予	-10.2689
,于	-10.2692
可见	-10.2693
和其他	-10.2695
1954年	-10.2695
1972年	-10.2698
坦	-10.2698
利润	-10.2702
愈	-10.2704
往往	-10.2706
离开	-10.2709
武汉市	-10.2709
稻	-10.271
旅行	-10.2711
柴	-10.2712
报刊	-10.2712
草原	-10.2715
弹性	-10.2717
疼痛	-10.2718
()、	-10.2722
突然	-10.2724
生动	-10.2724
的形式	-10.2724
疾	-10.2727
典型	-10.2731
先进个人	-10.2731
商场	-10.2733
2004	-10.2733
性和	-10.2734
继承	-10.2735
▁支持	-10.2738
思考	-10.2745
召	-10.2747
司法	-10.2748
力学	-10.2752
故障	-10.2753
累	-10.2754
人力资源	-10.2757
斗争	-10.276
渣	-10.2763
3-	-10.2766
绣	-10.2771
尝	-10.2772
脆	-10.2776
率先	-10.2784
毁	-10.2786
超市	-10.2788
.09	-10.2789
原子	-10.2798
蒲	-10.28
作物	-10.28
最好	-10.2802
引起的	-10.2807
满意	-10.2811
。当	-10.2812
1.6	-10.2818
1945年	-10.2822
1951年	-10.2827
国防	-10.2827
景点	-10.2835
茅	-10.2836
4-	-10.2841
洛阳	-10.2841
1-	-10.2847
主演	-10.2849
2年	-10.2858
工商	-10.2865
三级	-10.2867
子,	-10.287
穷	-10.2871
探讨	-10.2871
凤凰	-10.2872
古典	-10.2878
长春	-10.2883
血液	-10.2886
共和国	-10.2887
缝	-10.2891
扫描	-10.2894
我的	-10.2897
2.2	-10.2899
狮	-10.29
讲师	-10.29
虚拟	-10.2902
无锡	-10.2903
填	-10.2905
秘	-10.2906
窝	-10.2909
情感	-10.291
夺	-10.291
生产的	-10.291
慢性	-10.2919
傅	-10.2921
颂	-10.2924
绳	-10.2926
爽	-10.2931
被称为	-10.2932
邻	-10.2934
上述	-10.2938
0.2	-10.2939
主要有	-10.294
严谨	-10.2945
唯一的	-10.2945
则是	-10.2945
师范	-10.2952
评论	-10.296
传承	-10.296
1948年	-10.296
机电	-10.2961
热爱	-10.2962
彦	-10.2964
吸引	-10.2964
细菌	-10.2966
关键	-10.2968
粤	-10.2969
清朝	-10.297
魅力	-10.297
只要	-10.2973
仕	-10.2973
汽	-10.2975
戏曲	-10.2977
净化	-10.2977
妇科	-10.2978
新区	-10.2979
传递	-10.298
2010	-10.2983
02	-10.2988
个行政村	-10.2991
多年的	-10.3001
回到	-10.3003
教授。	-10.301
上升	-10.3014
4.5	-10.3015
晨	-10.3019
发动	-10.302
练习	-10.3028
语音	-10.3034
剪	-10.3036
华人	-10.3036
的精神	-10.3037
漫	-10.3042
欣	-10.3048
莉	-10.3052
姑	-10.3052
繁荣	-10.3054
地铁	-10.3057
100%	-10.306
使用的	-10.3061
优良	-10.3062
兰州	-10.3062
劳动力	-10.3065
宪	-10.3071
巴西	-10.3075
海内外	-10.3077
同学	-10.3078
辑	-10.3081
映	-10.3085
基部	-10.3085
金奖	-10.3086
伴	-10.3086
发电	-10.309
情报	-10.3091
07	-10.3091
历代	-10.3092
法院	-10.3092
男性	-10.3094
叠	-10.3095
对方	-10.3096
5-	-10.3096
硕士研究生	-10.3097
兴趣	-10.3098
定义	-10.3099
理想	-10.3103
少数民族	-10.3106
葬	-10.3107
职称	-10.3109
国道	-10.3109
灵活	-10.3111
关节	-10.3116
1.4	-10.3118
售	-10.3119
途径	-10.3119
刊物	-10.3121
环节	-10.3122
多少	-10.3123
颗	-10.3124
技术人员	-10.3124
预算	-10.3124
夫人	-10.3127
中心、	-10.313
1953年	-10.3139
赶	-10.3139
1962年	-10.3139
弃	-10.3141
般	-10.3141
盈	-10.3153
恋	-10.3157
3.	-10.3162
椒	-10.3163
1.3	-10.3165
糊	-10.3166
航天	-10.3168
积累	-10.3168
王朝	-10.3169
物资	-10.317
,长	-10.3174
群岛	-10.3177
姬	-10.3177
平方公里,	-10.3178
哲	-10.3181
等)	-10.3183
。本书	-10.3183
秘密	-10.3184
1959年	-10.3185
摇	-10.3189
,如果	-10.3191
1977年	-10.3191
环境保护	-10.3192
前往	-10.3201
起,	-10.3201
烂	-10.3203
商家	-10.3204
远程	-10.3205
系数	-10.3206
相应的	-10.321
130	-10.3212
名为	-10.3218
-4	-10.3219
属性	-10.322
睡	-10.3225
左右,	-10.3228
深受	-10.3231
起义	-10.3232
演奏	-10.3232
科研项目	-10.3234
本着	-10.3234
06	-10.3235
学士	-10.3235
压缩	-10.3236
,根据	-10.3241
昆	-10.3244
徽	-10.3244
祖国	-10.3245
1946年	-10.3249
,而是	-10.3251
服务,	-10.3256
同年	-10.326
实现了	-10.3262
“三	-10.3265
常规	-10.3266
之中	-10.3268
油画	-10.327
农场	-10.3271
语文	-10.3276
构	-10.3282
,最后	-10.3283
2011	-10.3285
安全生产	-10.3285
真空	-10.3286
使用。	-10.3291
活力	-10.3294
袭	-10.3295
浓度	-10.3299
就可以	-10.3299
,就是	-10.3301
1938年	-10.3309
使得	-10.3313
相关的	-10.3314
和发展	-10.3316
赢得	-10.3317
路线	-10.332
耕	-10.3323
纳米	-10.3324
泰国	-10.3335
串	-10.3335
局副局长	-10.3335
难以	-10.3336
书中	-10.334
国王	-10.3342
疗法	-10.3342
趣	-10.3349
桶	-10.3351
学、	-10.3354
书院	-10.3358
体内	-10.3362
民营企业	-10.3365
▁(2)	-10.3366
名:	-10.3368
服务于	-10.3368
统治	-10.3372
交通便利	-10.3374
科普	-10.3378
如今	-10.3381
今年	-10.3382
尹	-10.3391
命名	-10.3395
繁	-10.3399
河流	-10.34
,甚至	-10.3403
▁主要	-10.3404
长期从事	-10.341
若干	-10.341
旦	-10.3411
互相	-10.3412
2.4	-10.3413
车间	-10.3417
网友	-10.3418
十四	-10.342
喝	-10.342
有了	-10.342
注入	-10.3421
。因	-10.3422
。这种	-10.3425
斩	-10.3431
最多	-10.3432
树脂	-10.3433
村庄	-10.3445
机会	-10.3448
春秋	-10.3448
考虑	-10.3448
事物	-10.3451
1.0	-10.3453
有效的	-10.3454
涉	-10.3455
讯	-10.3458
帽	-10.3459
相同	-10.3459
(1)	-10.346
。现	-10.3461
附属	-10.3464
身上	-10.3468
在职	-10.3468
弟子	-10.3472
科科长	-10.3472
数控	-10.3473
钦	-10.3476
物体	-10.3477
街道办事处	-10.3478
华东	-10.348
第1	-10.3484
公益	-10.3485
主机	-10.3486
称“	-10.3492
副校长	-10.3493
国立	-10.3494
出来	-10.3495
家园	-10.3496
即将	-10.3498
快捷	-10.3506
飘	-10.351
市委	-10.3512
完整的	-10.3516
1973年	-10.3517
燃烧	-10.3522
桐	-10.3526
少女	-10.3534
知识产权	-10.3538
)人。	-10.3538
矿物	-10.3538
危害	-10.354
进出口	-10.3542
蒜	-10.3542
约1	-10.3543
观赏	-10.3544
领先	-10.3548
让人	-10.3548
酥	-10.355
0.6	-10.3551
一体化	-10.3555
风情	-10.3555
腹部	-10.3555
,采用	-10.3557
币	-10.3559
轨	-10.3563
阿尔	-10.3565
赣	-10.3565
悟	-10.3571
中国共产党	-10.3571
困	-10.3574
:2	-10.3574
1%	-10.3574
援	-10.3578
发起	-10.3578
帝国	-10.3581
,这是	-10.3586
中国人民解放军	-10.359
界面	-10.359
繁殖	-10.3592
来说	-10.3592
总是	-10.3598
曲线	-10.36
近代	-10.3602
,现有	-10.3604
。现为	-10.3608
“中国	-10.3609
男汉族	-10.3611
损伤	-10.3611
社会科学	-10.3612
方言	-10.3612
屈	-10.3612
宣布	-10.3624
(即	-10.3624
最初	-10.3626
职务	-10.3627
猎	-10.3628
导弹	-10.3629
酷	-10.3632
形,	-10.3633
颇	-10.364
禽	-10.3641
管辖	-10.3645
做到	-10.3647
蟹	-10.3648
亿元,	-10.3649
|	-10.3655
热带	-10.3657
讲述	-10.3657
凭	-10.3657
防水	-10.3663
下降	-10.3664
不再	-10.3668
半岛	-10.3669
帖	-10.367
首家	-10.367
的企业	-10.3671
浙	-10.3671
专业生产	-10.3674
殷	-10.3677
忌	-10.3678
娘	-10.3678
0.4	-10.3678
。我们	-10.3679
建筑物	-10.3679
中小学	-10.3684
丑	-10.3685
教练	-10.3686
,特别是	-10.3686
名字	-10.3687
设备、	-10.3687
化妆品	-10.3689
青岛市	-10.3689
。如	-10.3689
_	-10.369
5%	-10.369
全方位	-10.369
太平	-10.3691
唱片	-10.3692
仍然	-10.3694
71	-10.3697
纱	-10.37
风味	-10.3702
锐	-10.3703
宋代	-10.3708
的内容	-10.371
享有	-10.3713
脂肪	-10.3713
荡	-10.3723
81	-10.3725
蝶	-10.3726
螺旋	-10.3729
冷却	-10.3729
4000	-10.3731
里面	-10.3732
巨大的	-10.3735
口味	-10.3736
》杂志	-10.3737
1947年	-10.374
外形	-10.3741
1967年	-10.3742
雁	-10.3744
六年	-10.3745
产品。	-10.3746
1.1	-10.3746
错误	-10.3747
2006	-10.3747
地域	-10.3747
出版社出版	-10.375
特定	-10.3754
恭	-10.3756
提出了	-10.3761
4.	-10.3761
长城	-10.3762
09	-10.3764
分解	-10.3769
匀	-10.3772
2012	-10.3772
04	-10.3773
峡	-10.3776
谦	-10.3776
把握	-10.3777
琳	-10.3778
申报	-10.3781
州市	-10.3782
1200	-10.3786
(2)	-10.3788
保留	-10.3789
数十	-10.3792
瑞士	-10.3792
研究员	-10.3796
得以	-10.3797
拱	-10.3797
储	-10.3802
下属	-10.3803
固体	-10.3804
加以	-10.3807
警察	-10.3808
出土	-10.3811
最低	-10.3812
相应	-10.3816
低温	-10.3817
枫	-10.3817
工会	-10.3818
的时候,	-10.3818
是一所	-10.3825
五十	-10.3827
悲	-10.3833
一道	-10.3837
日军	-10.3838
分校	-10.3839
伪	-10.384
临时	-10.384
昂	-10.3846
开发的	-10.3846
俱	-10.3853
每一	-10.3854
随机	-10.3857
叫做	-10.3857
栏	-10.386
03	-10.3861
执法	-10.3864
涌	-10.3866
学位	-10.3868
,距离	-10.3868
基金会	-10.387
展现	-10.3872
设计,	-10.3874
熙	-10.3874
喻	-10.3875
一代	-10.3884
企事业单位	-10.3885
夷	-10.3885
释放	-10.3886
莲花	-10.3887
国土面积	-10.3888
我公司	-10.3888
滨	-10.3894
の	-10.3899
文化艺术	-10.39
分布于	-10.3901
不到	-10.3902
租	-10.3905
真诚	-10.3909
莎	-10.3909
芝	-10.3911
党组成员	-10.3913
口腔	-10.3917
菩萨	-10.3917
铃	-10.3918
服务中心	-10.3923
朵	-10.3924
的同时,	-10.3925
一张	-10.3928
传》	-10.393
搅拌	-10.3931
气息	-10.3933
东京	-10.3933
棋	-10.3934
拖	-10.3935
分管	-10.3937
判断	-10.3938
经济开发区	-10.3944
外部	-10.3945
瘤	-10.3947
厂商	-10.3953
理念,	-10.3954
澳门	-10.3957
扫	-10.3958
乃至	-10.396
毕业生	-10.3971
处,	-10.3972
处处长	-10.3973
是美国	-10.3975
招聘	-10.3977
欣赏	-10.3977
别人	-10.3978
董事长	-10.3978
获取	-10.398
公里,	-10.3984
王国	-10.3984
新华	-10.3986
1966年	-10.3989
体积	-10.3989
涵盖	-10.399
关心	-10.3996
隧道	-10.3998
:3	-10.3999
扬州	-10.4001
1500	-10.4002
二次	-10.4003
年产	-10.401
开业	-10.4013
管理人员	-10.4016
大多数	-10.4018
\	-10.4019
恨	-10.4023
所在地	-10.4024
骨干	-10.4025
墩	-10.4028
责	-10.4029
亩。	-10.4031
大量的	-10.4032
东南亚	-10.4041
泪	-10.4046
咏	-10.4047
管理和	-10.4049
全体	-10.405
上部	-10.4053
,遂	-10.4058
▁我们	-10.4064
轨道	-10.4067
成型	-10.4068
条件下	-10.4069
的要求	-10.4069
那个	-10.4071
大楼	-10.4072
辆	-10.4075
上级	-10.4077
新技术	-10.4078
农产品	-10.4079
协作	-10.4088
奶	-10.4088
(原	-10.4088
不用	-10.4088
高品质	-10.4092
弓	-10.4093
贯彻	-10.4094
怎么	-10.4099
,常	-10.4105
县人	-10.4107
定期	-10.411
市人民政府	-10.4111
强调	-10.4112
谭	-10.4113
允许	-10.4115
.12	-10.4117
技术和	-10.4118
/2	-10.4119
铅	-10.4125
革	-10.4128
毕	-10.4131
,曾任	-10.4136
记》	-10.4137
的理想	-10.414
解放军	-10.4144
奉献	-10.4144
遇到	-10.4145
----	-10.4145
》,《	-10.4148
味精	-10.4149
地上	-10.4154
乐器	-10.4154
一系列	-10.4154
。后	-10.4155
是一名	-10.4156
召开	-10.4159
各国	-10.4161
服务的	-10.4162
延伸	-10.4164
税务	-10.4166
相信	-10.4167
及其他	-10.4167
光电	-10.4173
世界上	-10.4173
专项	-10.4176
市民	-10.4178
碟	-10.4179
剧情	-10.4179
生活的	-10.418
房产	-10.4181
1人,	-10.4184
特别是	-10.4186
廉	-10.4187
产生的	-10.4189
在于	-10.419
牺牲	-10.4199
带动	-10.4199
很大	-10.4199
立即	-10.42
的学生	-10.4202
牛肉	-10.4202
建筑面积	-10.4207
在上海	-10.4207
新产品	-10.4208
支队	-10.4212
宁县	-10.4213
少数	-10.4213
东莞市	-10.4217
淮	-10.4223
逢	-10.4227
副局长	-10.4228
商城	-10.4228
爪	-10.4229
卓越	-10.4231
。同时	-10.4231
反对	-10.4235
答	-10.4237
平台,	-10.424
指示	-10.4241
停止	-10.4243
振动	-10.4245
三种	-10.4245
终于	-10.4247
平安	-10.4248
某种	-10.4249
!”	-10.4249
友好	-10.4249
返	-10.4251
驱	-10.4256
牵	-10.4259
实体	-10.426
投资者	-10.4262
大酒店	-10.4263
精选	-10.4265
闸	-10.4267
.03	-10.4269
经验,	-10.4269
足球俱乐部。	-10.4273
发酵	-10.4275
邱	-10.4277
平台。	-10.4278
营造	-10.4279
管理系统	-10.4279
聚集	-10.428
。同时,	-10.428
2.1	-10.4282
科学家	-10.4282
曰:‘	-10.4284
结晶	-10.4291
香菇	-10.4291
吏	-10.4295
儿子	-10.4295
玩具	-10.4295
绝缘	-10.4298
祝	-10.43
枯	-10.4301
冻	-10.4305
创始人	-10.4306
抚	-10.4309
胺	-10.4316
乾隆	-10.4321
监督管理	-10.4326
芒	-10.433
一份	-10.4332
信息技术	-10.4333
▁中国	-10.4333
作曲	-10.4337
▁本	-10.4337
01	-10.4338
硫	-10.4338
棱	-10.4339
一线	-10.4342
全身	-10.4342
元件	-10.4348
某一	-10.4349
导航	-10.4355
大地	-10.4355
全世界	-10.4356
都能	-10.4358
以上的	-10.4358
140	-10.4363
的核心	-10.4366
腺	-10.4366
,努力	-10.4366
巨大	-10.4367
加快	-10.4368
(包括	-10.4371
的作品	-10.4373
第八	-10.4376
维持	-10.4377
毛泽东	-10.4379
当选为	-10.4383
矿山	-10.4383
商会	-10.4383
审批	-10.4385
挑	-10.4388
圆形	-10.4388
花生	-10.4393
91	-10.4395
消失	-10.4397
中医药	-10.4397
太原	-10.4397
驾驶	-10.4397
多名	-10.4401
澄	-10.4404
.08	-10.4409
的特点	-10.4412
延长	-10.4416
鱼类	-10.4416
为您	-10.4417
一层	-10.4421
模范	-10.4424
兄	-10.4425
学家	-10.4427
验	-10.4427
同行	-10.4428
仰	-10.4429
越来越	-10.4433
第一届	-10.4434
社会各界	-10.4435
计划生育	-10.4438
个自然村	-10.4439
眼睛	-10.444
消耗	-10.4441
海南省	-10.4443
、高	-10.4446
感情	-10.4449
点击	-10.4449
危机	-10.445
仪式	-10.4451
教育教学	-10.4451
抵	-10.4457
代码	-10.4459
遗传	-10.4464
实例	-10.4465
勾	-10.4467
激	-10.4467
1937年	-10.4468
自行	-10.4468
纠错	-10.4469
七年	-10.447
山脉	-10.4474
哀	-10.4474
常见的	-10.4477
县人。	-10.4477
实时	-10.4479
锌	-10.4479
精细	-10.4481
彻底	-10.4483
移民	-10.4484
首席	-10.449
伞	-10.449
浪漫	-10.449
产于	-10.449
炭	-10.4493
()。	-10.4495
巴黎	-10.4495
较高	-10.4496
部件	-10.4497
城乡	-10.4498
跃	-10.4499
路、	-10.4501
淋	-10.4501
资助	-10.4503
巡	-10.4505
,便	-10.4516
辣椒	-10.4518
贫	-10.452
微生物	-10.4521
相继	-10.4526
要素	-10.4528
高山	-10.4529
予	-10.453
而成	-10.453
▁二、	-10.4532
地点	-10.4532
,因而	-10.4532
太子	-10.4533
#	-10.4534
2%	-10.4535
〔	-10.4535
辣	-10.4537
防御	-10.4541
(.)	-10.4542
伸	-10.4542
劝	-10.4545
同一	-10.4545
配方	-10.4546
等等。	-10.4552
猛	-10.4556
全国各地	-10.4557
收购	-10.4558
业余	-10.4559
奎	-10.4559
敦	-10.456
南海	-10.4563
,现为	-10.4566
勺	-10.4567
专注于	-10.4568
缸	-10.4568
篮球	-10.457
红军	-10.457
厂家	-10.4578
技术服务	-10.458
。目前,	-10.4582
经费	-10.4582
....	-10.4582
氟	-10.4583
成都市	-10.4583
际	-10.4584
妈妈	-10.4585
,支持	-10.4586
下辖	-10.4588
▁-	-10.4591
退休	-10.4591
阔	-10.4593
。历任	-10.4596
叉	-10.4598
摄	-10.4598
万人	-10.4599
并在	-10.4601
进攻	-10.4602
验收	-10.4602
抢	-10.4605
发出	-10.4608
十佳	-10.4611
其中农业人口	-10.4613
总面积	-10.4617
番	-10.462
的基础上,	-10.4621
凹	-10.4624
两大	-10.4626
广泛的	-10.463
缺乏	-10.4638
主张	-10.4639
表彰	-10.464
国有	-10.4641
鄂	-10.4642
在《	-10.4643
,你	-10.4646
工资	-10.465
赢得了	-10.4651
潮流	-10.4657
华北	-10.4659
2009	-10.466
推出的	-10.4662
等人	-10.4664
市场的	-10.4667
高等学校	-10.467
瑞典	-10.4678
去皮	-10.4684
村,	-10.4688
思路	-10.4688
多为	-10.469
教研室	-10.469
恐怖	-10.4691
为主要	-10.4696
调入	-10.4698
,同年	-10.4699
专业化	-10.4703
观音	-10.4706
研究》	-10.4708
2.8	-10.4712
无数	-10.4713
1961年	-10.4713
顺利	-10.4713
编著	-10.472
妖	-10.472
一天	-10.4722
(或	-10.4725
初级中学	-10.4726
化石	-10.4726
向上	-10.4727
的关系	-10.4731
形成的	-10.4733
总人口	-10.4734
白云	-10.4735
青海	-10.4738
实习	-10.4743
白糖	-10.4743
倾	-10.4744
源于	-10.4747
披	-10.4747
垃圾	-10.4749
一类	-10.4751
是一位	-10.4755
三国	-10.4757
损	-10.4757
反射	-10.4758
上面	-10.4761
奔	-10.4763
细节	-10.4769
人间	-10.4773
的变化	-10.4774
入党	-10.4774
场地	-10.4775
褐色	-10.4776
香油	-10.4776
朴	-10.4778
最早的	-10.4778
弘扬	-10.4783
选手	-10.4784
有时	-10.4787
炖	-10.4791
胡椒粉	-10.4791
全自动	-10.4792
户,	-10.4792
多人	-10.4793
师范大学	-10.4795
默	-10.4801
鼓励	-10.4801
役	-10.4802
主人	-10.4806
2005	-10.481
停车场	-10.4813
加速	-10.4813
():	-10.4816
区内	-10.4817
纽约	-10.4821
”,“	-10.4822
学科带头人	-10.4824
一颗	-10.4827
礼仪	-10.4828
2.3	-10.4828
芦	-10.483
代谢	-10.4831
可靠	-10.4835
,这些	-10.4842
认可	-10.4846
岗位	-10.4851
广播电视	-10.4852
农业大学	-10.4858
返回	-10.486
耗	-10.486
稳定性	-10.4861
10个	-10.4863
污	-10.4863
采用了	-10.4864
分散	-10.4868
山地	-10.4872
其实	-10.4878
清新	-10.4881
蜡	-10.4883
基础上	-10.4885
太阳能	-10.4887
出身	-10.4887
订	-10.4889
驾	-10.4889
华侨	-10.489
虹	-10.4894
引入	-10.49
,是中国	-10.4901
体制	-10.4902
村人。	-10.4906
县人民政府	-10.4907
10克	-10.4907
明朝	-10.4909
千克	-10.4911
婆	-10.4911
.06	-10.4915
可分为	-10.4918
党委书记	-10.4919
肯	-10.492
毫米,	-10.4927
怡	-10.4929
包括:	-10.4929
是我国	-10.493
第三届	-10.4933
中等	-10.4934
硕	-10.4936
敢	-10.4942
篇,	-10.4942
外,	-10.4949
累计	-10.4955
尚书	-10.4955
,这种	-10.4958
的不同	-10.4958
相连	-10.496
狱	-10.4963
经营管理	-10.4968
1人	-10.4974
挖	-10.4977
相当于	-10.4979
鹅	-10.4979
融资	-10.4982
木材	-10.4982
联邦	-10.4984
藏书	-10.499
消化	-10.4991
由此	-10.4992
×1	-10.4993
喜爱	-10.4996
肃	-10.4997
,现在	-10.4997
精确	-10.4999
颁发的	-10.4999
大臣	-10.5003
说:“	-10.5003
-5	-10.5006
毕业后	-10.5006
市政	-10.5007
流传	-10.5009
内的	-10.5009
现存	-10.5011
有人	-10.5011
可用	-10.5013
态度	-10.502
命令	-10.5025
幢	-10.5032
邮	-10.5032
编剧	-10.5034
忍	-10.5037
伍	-10.504
甫	-10.504
主流	-10.5041
间的	-10.5042
氛围	-10.5043
定制	-10.5047
发送	-10.5047
搭配	-10.5048
神秘	-10.505
海上	-10.5052
理工大学	-10.5053
撤	-10.5056
地带	-10.5056
采集	-10.5057
康熙	-10.5059
收费	-10.5062
千年	-10.5064
部长	-10.5065
南昌	-10.5067
科研成果	-10.5068
斤	-10.5069
希腊	-10.5072
10-	-10.5075
350	-10.5078
方式:	-10.508
冀	-10.508
测绘	-10.5088
教授、	-10.5089
有限公司是	-10.5089
为人	-10.509
我校	-10.5093
50克	-10.5095
。此外,	-10.5095
消息	-10.5097
保温	-10.5098
元年	-10.5099
弯曲	-10.5101
办公室、	-10.5101
杭	-10.5104
联赛	-10.5105
灰色	-10.5106
经济效益	-10.5107
技术,	-10.5108
矛盾	-10.5109
合作伙伴	-10.5111
亿元	-10.5112
性、	-10.5112
笋	-10.5112
失败	-10.5115
东路	-10.5116
邵	-10.5118
沿海	-10.512
日益	-10.512
机床	-10.5121
传动	-10.5123
也可	-10.5126
八年	-10.5126
2号	-10.5131
24小时	-10.5137
下部	-10.5138
通风	-10.5143
相传	-10.5144
的综合性	-10.5146
貌	-10.5147
褐	-10.5148
播出	-10.5153
。自	-10.5155
ー	-10.5155
▁(1)	-10.5156
先后在	-10.5158
便利	-10.5159
锅中	-10.5161
糖尿病	-10.5161
男人	-10.5161
变种	-10.5165
出血	-10.5165
精度	-10.5168
手法	-10.5169
营业	-10.5169
姿	-10.517
企业家	-10.517
会议室	-10.5172
。如果	-10.5174
法律法规	-10.5174
等职	-10.5175
组织实施	-10.5176
女儿	-10.518
瘦	-10.5181
先进集体	-10.5193
超越	-10.5194
5分钟	-10.5195
南宋	-10.5197
第一家	-10.5199
1939年	-10.52
惟	-10.5201
主要用于	-10.5203
反复	-10.5205
感到	-10.5205
廊	-10.5205
行政管理	-10.5206
应当	-10.5206
联络	-10.5208
穿越	-10.5218
趋势	-10.5219
科学研究	-10.5221
内有	-10.5223
石化	-10.5229
全程	-10.5229
澳	-10.523
克斯	-10.5231
客观	-10.5231
杰出	-10.5232
三星	-10.5234
孔子	-10.5237
报警	-10.524
旱	-10.5242
,致力于	-10.5243
伐	-10.5245
承接	-10.5245
,占地面积	-10.5245
现已	-10.5246
杭州市	-10.5246
官方	-10.5251
红外	-10.5251
签约	-10.5252
工业园区	-10.5254
、市	-10.5256
环绕	-10.5256
冒险	-10.5259
环境优美	-10.5261
重复	-10.5262
烫	-10.5262
别名	-10.5263
棚	-10.5263
南路	-10.5265
任职	-10.5265
机构。	-10.5267
削	-10.5269
。这些	-10.5273
每次	-10.5273
取出	-10.5277
肌肉	-10.5279
珍珠	-10.5279
3.0	-10.5284
家乡	-10.5286
开启	-10.5286
、上海	-10.5286
(含	-10.5286
财经	-10.529
任中共	-10.5297
喉	-10.5298
拓	-10.5301
葡萄酒	-10.5302
报纸	-10.5303
试点	-10.5307
事,	-10.5308
交叉	-10.5309
辟	-10.5315
器、	-10.5315
挺	-10.5318
批发	-10.532
上网	-10.5321
人民医院	-10.5322
3.2	-10.5322
×2	-10.5326
分枝	-10.5327
百货	-10.5329
北宋	-10.533
,于是	-10.5331
不久	-10.5332
组织的	-10.5335
盐业	-10.5339
相邻	-10.5343
设备的	-10.5345
的问题	-10.5348
雀	-10.5348
遣	-10.5348
代替	-10.5353
手册	-10.5353
生产企业	-10.5354
新鲜	-10.5355
240	-10.5359
贵族	-10.5359
主办	-10.536
大于	-10.5362
意外	-10.5365
长,	-10.5365
妃	-10.5369
任意	-10.5373
函	-10.5377
回收	-10.538
公顷	-10.5385
宴	-10.5386
替	-10.5386
,负责	-10.5386
棉花	-10.5388
房地产开发	-10.5389
起到	-10.5395
电影《	-10.5397
兼职	-10.54
差异	-10.5403
显卡	-10.5404
户外	-10.5405
暨	-10.5406
》中的	-10.5407
通过了	-10.5412
衰	-10.5413
县人,	-10.5413
地形	-10.5413
强烈	-10.5414
桩	-10.5414
本人	-10.5415
爆炸	-10.5415
外语	-10.5416
四十	-10.5418
巢	-10.5419
平方米。	-10.542
审查	-10.5421
。因此,	-10.5423
痰	-10.5425
评审	-10.5427
享	-10.5427
忧	-10.5439
形势	-10.5442
汉字	-10.5442
婚姻	-10.5442
偷	-10.5443
典型的	-10.5445
兴建	-10.5447
(,)	-10.5449
怎样	-10.5451
玫瑰	-10.5452
饮料	-10.5453
妮	-10.5454
弥	-10.5455
7-	-10.5457
此外	-10.5457
多元化	-10.5459
货运	-10.546
周年	-10.5461
迟	-10.5462
、李	-10.5464
学报	-10.5465
耳机	-10.5466
禹	-10.547
时刻	-10.5472
顶级	-10.5472
坎	-10.5474
邹	-10.5476
客人	-10.5479
我市	-10.548
竣工	-10.548
十七	-10.5485
6000	-10.5485
1940年	-10.5485
▁6、	-10.5486
的技术	-10.5487
促	-10.5487
也不	-10.549
院长	-10.5492
制冷	-10.5499
搭	-10.5499
5.5	-10.5502
郊	-10.5502
为什么	-10.5503
少量	-10.5505
狭	-10.551
专职	-10.5511
任教	-10.5512
授予“	-10.5513
一款	-10.5513
。据	-10.5513
撰	-10.5515
贯	-10.5515
。唐	-10.5519
海岸	-10.5521
框架	-10.5521
电梯	-10.5522
称之为	-10.5523
补偿	-10.5523
成为了	-10.5524
孢子	-10.5525
、黄	-10.5526
国产	-10.5527
125	-10.5527
严格的	-10.5531
钠	-10.5532
控制系统	-10.5535
黔	-10.5536
常常	-10.5537
增产	-10.5537
爵	-10.5541
控制器	-10.5542
了“	-10.5543
擦	-10.5544
水分	-10.5547
西路	-10.5548
疮	-10.5548
泄	-10.5549
官员	-10.5549
便捷	-10.5551
她们	-10.5551
,历任	-10.5551
诊疗	-10.5552
吟	-10.5552
音乐学院	-10.5553
重要参数	-10.5556
9个	-10.5557
等行业	-10.5557
总体	-10.5563
用水	-10.5564
两人	-10.5564
主持人	-10.5564
牡丹	-10.5567
西北部	-10.5568
高层	-10.557
缓	-10.557
-19	-10.5571
签	-10.5574
尧	-10.5576
亲自	-10.5577
万平方米,	-10.5579
国际化	-10.5583
酯	-10.5585
日期	-10.5588
王子	-10.5588
逊	-10.5591
当中	-10.5593
评选	-10.5593
调研	-10.5593
,为了	-10.5594
一人	-10.5597
跟踪	-10.5598
交界	-10.56
结婚	-10.5603
,又称	-10.5604
帆	-10.5605
饲养	-10.5606
爱国	-10.5607
方针	-10.5607
短信	-10.5607
窄	-10.5609
电站	-10.5611
区、	-10.5615
将会	-10.5618
吻	-10.5619
担保	-10.562
是:	-10.5624
产业化	-10.5624
第4	-10.5626
刮	-10.5627
板块	-10.5628
华夏	-10.563
5克	-10.5633
留下	-10.5635
初步	-10.5637
场景	-10.5639
°C	-10.5641
美学	-10.5644
东南部	-10.5646
还原	-10.565
公众	-10.5651
真正的	-10.5654
法》	-10.5657
推行	-10.5661
尤其是	-10.5662
物种	-10.5663
,形成了	-10.5667
数百	-10.5669
320	-10.5669
就有	-10.567
光盘	-10.5673
三角	-10.5674
前进	-10.5678
一百	-10.568
新世纪	-10.568
,乃	-10.568
190	-10.5681
权利	-10.5682
畅	-10.5683
总投资	-10.5683
风景区	-10.5687
徐州	-10.5689
成功的	-10.5691
,积极	-10.5691
3%	-10.5693
本公司	-10.5695
和管理	-10.5698
不易	-10.5698
1997	-10.5701
.01	-10.5702
国际机场	-10.5703
痕	-10.5706
是一部	-10.5706
问题,	-10.571
,原名	-10.5711
放心	-10.5711
闪	-10.5712
西侧	-10.5715
。宋	-10.572
引领	-10.5723
之路	-10.5725
举办的	-10.5728
的名字	-10.5732
一中	-10.5734
溶液	-10.5735
7.5	-10.5737
片,	-10.5756
主要以	-10.5757
储存	-10.5758
南京市	-10.5758
共青团	-10.5759
拌	-10.5759
像素	-10.576
水产	-10.5761
尺寸:	-10.5765
作了	-10.5768
拍卖	-10.5775
世界各地	-10.5777
不但	-10.5779
108	-10.5779
学生的	-10.578
考生	-10.5782
奴	-10.5783
绵	-10.5783
°	-10.5787
彼	-10.5789
紧密	-10.5789
▁二	-10.5792
就读于	-10.5795
天使	-10.5796
1930年	-10.5797
新颖	-10.5797
,后来	-10.5798
史上	-10.5798
消毒	-10.5799
唯	-10.58
,是指	-10.5803
等方面的	-10.5805
设备,	-10.5806
:4	-10.5808
人民币	-10.5811
导师	-10.5811
职责	-10.5811
梯	-10.5812
稳	-10.5816
海关	-10.5816
单独	-10.5816
下面	-10.5817
虞	-10.5818
渗透	-10.5819
》、《中国	-10.582
增加了	-10.582
6-	-10.5821
电阻	-10.5823
节约	-10.5824
劫	-10.5827
256	-10.5828
石家庄	-10.583
1934年	-10.583
履行	-10.5831
喜剧	-10.5832
猪肉	-10.5832
显示屏	-10.5833
领先的	-10.5834
用作	-10.5834
为:	-10.5836
瑶	-10.5837
卫生部	-10.5837
,又名	-10.5839
播种	-10.5839
词汇	-10.5841
竖	-10.5841
帅	-10.5842
寿命	-10.5842
-)	-10.5848
教学楼	-10.5848
毅	-10.5848
指的是	-10.5849
业界	-10.5851
一日	-10.5852
联合国	-10.5853
1935年	-10.5853
网页	-10.5854
醒	-10.5855
▁产品	-10.5858
:支持	-10.5859
实业	-10.5859
搞	-10.586
管理工作	-10.5861
生物学	-10.5863
成品	-10.5865
历程	-10.5866
队长	-10.5868
10年	-10.5871
模特	-10.5872
:1.	-10.5873
就能	-10.5874
释义	-10.5875
蓬	-10.5875
熔	-10.5878
直到	-10.5881
剧团	-10.5881
是日本	-10.5885
宝宝	-10.5885
它是	-10.5886
框	-10.5886
影响力	-10.5888
觉得	-10.5888
▁6.	-10.5889
他在	-10.5893
较大的	-10.5894
1933年	-10.5897
转变	-10.5897
甸	-10.5898
涵	-10.5899
市中心	-10.5901
博览会	-10.5901
也会	-10.5903
租赁	-10.5905
矣	-10.5906
皇家	-10.5907
四周	-10.5909
驰	-10.5909
产物	-10.5911
凶	-10.5911
的同时	-10.5911
贡献。	-10.5912
敷	-10.5912
辈	-10.5912
典雅	-10.5915
荫	-10.5916
的应用	-10.5918
枕	-10.5921
荆	-10.5924
多篇	-10.5925
妹	-10.5925
晶体	-10.5926
.04	-10.5927
美观	-10.5928
出任	-10.593
肯定	-10.5931
伦敦	-10.5934
洗净,	-10.5936
时代的	-10.5937
副主编	-10.5937
中华医学会	-10.594
侨	-10.5944
随时	-10.5946
宽带	-10.5948
研究成果	-10.5949
事项	-10.5953
捕	-10.5954
值得	-10.5956
面积1	-10.5956
,不断	-10.5956
陷	-10.5956
设立的	-10.5957
工业大学	-10.5957
门户	-10.5957
,是一所	-10.5966
编码	-10.5966
会长	-10.5967
干扰	-10.5967
1942年	-10.5969
带着	-10.5969
心脏	-10.597
,多	-10.597
衬	-10.5973
绍兴	-10.5973
集》	-10.5975
创作的	-10.5976
忘	-10.5976
10分钟	-10.5976
辨	-10.5976
襄	-10.5978
面板	-10.5979
红旗	-10.5982
萍	-10.5983
氮	-10.5983
臭	-10.5985
发掘	-10.5985
烟台	-10.5988
冬季	-10.5989
东海	-10.5989
财产	-10.599
著有	-10.5991
物业管理	-10.5991
亨	-10.5992
1936年	-10.5993
。本	-10.5994
的原则	-10.5994
-10	-10.5996
应用于	-10.5999
常务	-10.5999
北路	-10.5999
公司。	-10.6
内设	-10.6001
米。	-10.6009
儿科	-10.6009
生活在	-10.601
讲述了	-10.601
1941年	-10.6011
分局	-10.6015
籽	-10.6015
皖	-10.6016
残疾人	-10.6018
公交	-10.6018
四季	-10.6021
170	-10.6032
呢	-10.6035
筛	-10.6037
调味	-10.6037
慕	-10.6037
常年	-10.6037
常委	-10.6039
每日	-10.6043
做了	-10.6044
道教	-10.6045
腊	-10.6049
绒	-10.6051
很快	-10.6053
鲍	-10.6054
棘	-10.6062
长达	-10.6064
在国内外	-10.6065
1998	-10.6067
抹	-10.6068
瑟	-10.6073
皇后	-10.6074
?”	-10.6074
),字	-10.6075
;负责	-10.6076
,只	-10.6077
展出	-10.608
呢?	-10.6082
头部	-10.6082
罢	-10.6089
一本	-10.6089
可持续发展	-10.6091
栖	-10.6091
机身	-10.6093
义务	-10.6093
的一部	-10.6099
人气	-10.6099
等各种	-10.61
水晶	-10.6101
零件	-10.6105
卜	-10.6107
第四届	-10.6107
管理的	-10.6108
三维	-10.6108
二人	-10.6109
以后,	-10.611
物业	-10.6111
,占地	-10.6112
1944年	-10.6112
活动的	-10.6113
工业园	-10.6115
后卫	-10.6115
4年	-10.6121
失去	-10.6121
发展战略	-10.6124
球员	-10.6124
电磁	-10.6126
,受到	-10.6126
教学工作	-10.613
,从事	-10.613
怪兽	-10.6131
马来西亚	-10.6132
手工	-10.6132
小于	-10.6133
住房	-10.6134
讨	-10.6141
万平方米	-10.6144
步行	-10.6144
淳	-10.6146
浴	-10.6149
埠	-10.615
就在	-10.6151
九年	-10.6151
,作为	-10.6153
物料	-10.6156
及相关	-10.6157
客运	-10.616
至少	-10.6161
打击	-10.6161
鼠标	-10.6163
夏季	-10.6165
、服务	-10.6165
东北部	-10.6167
国民	-10.617
上了	-10.6171
均可	-10.6173
可供	-10.6174
日报	-10.6175
冒	-10.6176
似乎	-10.6176
砚	-10.6178
滞	-10.6178
〈	-10.6179
指南	-10.6179
为中国	-10.6181
100克	-10.6182
0.7	-10.6186
尊重	-10.6188
按摩	-10.6189
教研	-10.6189
。民国	-10.6196
观点	-10.6196
1.7	-10.6196
水中	-10.6199
起点	-10.6199
,原	-10.6203
饰演	-10.6204
评为“	-10.6204
符号	-10.6205
专业从事	-10.6206
生殖	-10.6212
极其	-10.6213
视野	-10.6216
副秘书长	-10.6218
,是一种	-10.6218
东侧	-10.6219
中专	-10.622
、北京	-10.6221
镁	-10.6222
大夫	-10.6223
加大	-10.6224
时期的	-10.6227
逾	-10.6227
ン	-10.6227
最小	-10.6229
齿轮	-10.6232
调料	-10.6232
体长	-10.6235
关闭	-10.6239
瀑布	-10.6244
裁	-10.6245
附件	-10.6245
分布在	-10.6247
劳动模范	-10.6249
贯穿	-10.6252
晴	-10.6253
主治	-10.6257
一个人	-10.6257
五大	-10.6258
箭	-10.6262
科技大学	-10.6266
居委会	-10.6271
北美	-10.6272
农药	-10.6272
公司在	-10.6273
流体	-10.6275
▁三	-10.6275
第九	-10.628
个性化	-10.6282
空中	-10.6284
时的	-10.6285
能力,	-10.6286
支部	-10.6286
麟	-10.6288
而成的	-10.6288
因子	-10.629
是我们	-10.6292
主人公	-10.6292
墨西哥	-10.6295
出现在	-10.6299
另一个	-10.6299
钢管	-10.6301
.10	-10.6302
渝	-10.6302
火山	-10.6303
西南部	-10.6307
依然	-10.6307
很少	-10.6308
发病	-10.631
风光	-10.6316
类别	-10.6319
乡政府	-10.6319
管理,	-10.632
中国古代	-10.632
师范学校	-10.6324
零售	-10.6326
艺术学院	-10.6327
午	-10.6328
遵循	-10.6328
扩	-10.6329
女孩	-10.6331
匠	-10.6332
主力	-10.6335
、小	-10.6335
市场营销	-10.6338
咨询服务	-10.6339
描写	-10.634
激情	-10.6341
尸	-10.6341
作品《	-10.6341
提示	-10.6342
可以在	-10.6345
匹	-10.6345
全镇	-10.6358
变压器	-10.6358
大豆	-10.636
创造了	-10.6364
化的	-10.6366
,对于	-10.6366
▁我	-10.6367
妻子	-10.6368
绥	-10.637
常州	-10.6371
改革开放	-10.6372
历经	-10.6372
名牌	-10.6374
等领域	-10.6375
水面	-10.6375
▁6	-10.6377
慎	-10.6377
-9	-10.6378
厂、	-10.6381
。现有	-10.6384
博士学位	-10.6384
细腻	-10.6388
的概念	-10.6388
-8	-10.6389
观光	-10.6391
,不仅	-10.6391
。为了	-10.6392
怕	-10.6394
斯·	-10.6395
区政府	-10.6395
一期	-10.6396
踏	-10.6396
政权	-10.6398
的思想	-10.6398
尉	-10.6398
和社会	-10.6401
杂交	-10.6402
深刻	-10.6402
爱心	-10.6403
前沿	-10.6403
情绪	-10.6404
是一家集	-10.6405
排名	-10.6405
▁目前	-10.6406
一处	-10.6407
,皆	-10.6408
。现在	-10.6409
级别	-10.6414
温暖	-10.6417
帐	-10.6418
竟	-10.6419
泊	-10.642
的功能	-10.642
玲	-10.6423
杉	-10.6423
遍布	-10.6427
承诺	-10.6428
设在	-10.643
隐藏	-10.6431
家,	-10.6434
建国	-10.6434
21世纪	-10.6438
杏	-10.644
广泛应用于	-10.644
俗称	-10.644
桂林	-10.6441
中央电视台	-10.6446
工程、	-10.6446
变得	-10.6447
丈夫	-10.6452
町	-10.6456
旭	-10.6462
总裁	-10.6462
功能,	-10.6462
去世	-10.6462
极具	-10.6467
外交	-10.647
培训中心	-10.6471
新兴	-10.6474
响应	-10.6476
的建设	-10.6478
温馨	-10.6484
妇产科	-10.6486
之间,	-10.6489
术语	-10.6489
愁	-10.6491
延安	-10.6492
函授	-10.6493
,深受	-10.6496
况	-10.6497
▁◆	-10.6498
8年	-10.6498
能力。	-10.6499
终身	-10.6503
安置	-10.6504
教堂	-10.6505
450	-10.6507
让你	-10.6507
μ	-10.6509
该书	-10.6509
的音乐	-10.6511
扮演	-10.6511
编委	-10.6512
这次	-10.6512
志》	-10.6514
体重	-10.6516
晒	-10.6517
光纤	-10.6519
起草	-10.652
部部长	-10.6521
肿	-10.6522
颖	-10.6524
的需求	-10.6524
的管理	-10.6524
集合	-10.6525
加上	-10.6527
都可以	-10.6528
供水	-10.6529
全新的	-10.6531
又有	-10.6531
提取	-10.6534
正是	-10.6535
夕	-10.6536
斌	-10.6537
考古	-10.6537
香味	-10.6539
布置	-10.654
曾获	-10.654
新一代	-10.6542
弧	-10.6543
0.9	-10.6544
一路	-10.6549
8-	-10.6549
本土	-10.655
,尤其是	-10.6552
最重要的	-10.6554
指出	-10.6556
私人	-10.6563
门户网站	-10.6563
交通运输	-10.6566
坤	-10.6568
亩,其中	-10.6569
泉州	-10.657
再生	-10.657
研究室	-10.6573
脾	-10.6574
拆	-10.6575
检索	-10.6578
庚	-10.6578
背面	-10.6581
江县	-10.6582
首府	-10.6583
本科生	-10.6583
,分别	-10.6586
硬化	-10.6589
移植	-10.659
罩	-10.659
为其	-10.6592
高等院校	-10.6594
全书	-10.6595
精致	-10.6598
栗	-10.66
元年(	-10.6602
技法	-10.6603
▁一、	-10.6605
选举	-10.6606
一部分	-10.6608
ㄧ	-10.6609
无人	-10.6609
誉	-10.6611
幽默	-10.6614
控股	-10.6614
法人	-10.6616
赛事	-10.662
搜	-10.6623
(3)	-10.6624
民俗	-10.6625
表明	-10.6625
挖掘	-10.6627
搭建	-10.6628
对比	-10.663
,中共党员,	-10.6635
保安	-10.6635
风机	-10.6639
内心	-10.664
塑造	-10.6642
105	-10.6644
提出的	-10.6645
6.5	-10.6646
爆发	-10.6647
德育	-10.6648
电台	-10.6648
奥运会	-10.665
光明	-10.6651
庄村	-10.6651
,获得	-10.6651
设计的	-10.6652
一对	-10.6653
的目标	-10.6653
中毒	-10.6656
灌溉	-10.6657
大大	-10.666
音响	-10.666
1600	-10.6661
化、	-10.6661
饶	-10.6662
肢	-10.6662
甘草	-10.6664
1932年	-10.6664
作用,	-10.6666
游泳	-10.6667
全日制	-10.667
忽	-10.6672
生涯	-10.6682
燃料	-10.6683
悉	-10.6683
专业技术人员	-10.6684
机体	-10.6685
河口	-10.6686
幻	-10.6687
好评	-10.6687
土豆	-10.6687
奋斗	-10.669
下来	-10.6691
认定	-10.6691
党支部	-10.6693
波兰	-10.6695
连载	-10.6698
中西医结合	-10.6698
仓储	-10.6698
整形	-10.6699
平行	-10.6699
半导体	-10.6702
认	-10.6702
办公室主任	-10.6703
他人	-10.6703
树木	-10.6705
吗?	-10.6706
,通常	-10.6706
桌	-10.6707
洒	-10.6708
奸	-10.671
拥	-10.6711
啤酒	-10.6712
更好的	-10.6712
科技创新	-10.6713
判	-10.6713
公民	-10.6713
从此	-10.6714
化合物	-10.6715
猴	-10.6715
总建筑面积	-10.6716
,是一个	-10.6716
精灵	-10.6717
大力	-10.6718
三次	-10.672
▁(3)	-10.6726
山镇	-10.6727
几何	-10.6728
筹建	-10.673
主任医师	-10.6732
勋	-10.6735
2人,	-10.6736
岛屿	-10.6739
应急	-10.6739
丈	-10.6741
发展规划	-10.6743
发达	-10.6745
大多	-10.6747
仓库	-10.6747
笼	-10.6748
乐园	-10.675
诸多	-10.675
、张	-10.675
,确保	-10.6751
股东	-10.6753
替代	-10.6754
方法。	-10.6755
粥	-10.6761
禾	-10.6769
生产设备	-10.677
凸	-10.677
一样,	-10.6772
划分	-10.6774
本科学历	-10.6775
理想的	-10.6775
蚕	-10.6778
称号。	-10.6778
科长	-10.678
职业教育	-10.6781
胶囊	-10.6782
畜牧	-10.6782
知名度	-10.6784
详	-10.6784
履	-10.6784
生。	-10.6786
福利	-10.6787
1943年	-10.6788
,美国	-10.6788
几十	-10.6789
畔	-10.679
一群	-10.679
水电	-10.679
阅	-10.6791
确认	-10.6791
,年	-10.6795
,最终	-10.6802
描述:	-10.6803
节奏	-10.6805
主角	-10.6805
还可以	-10.6806
总监	-10.6808
经销商	-10.6814
疗效	-10.6814
农业部	-10.6817
予以	-10.6818
、白	-10.6818
内蒙古自治区	-10.6819
(16	-10.6819
〉	-10.6821
器件	-10.6821
橙	-10.6821
现状	-10.6821
省教育厅	-10.6822
平方米,建筑面积	-10.6825
是集	-10.6827
自然村隶属于	-10.6828
8%	-10.6829
坦克	-10.6831
步骤	-10.6832
是经	-10.6835
精美	-10.6836
。他们	-10.6837
。位于	-10.6842
旨	-10.6842
同意	-10.6845
同名	-10.6849
感应	-10.6853
勐	-10.6855
外贸	-10.6862
檐	-10.6863
、全国	-10.6865
参谋	-10.6866
事迹	-10.6867
科技进步二等奖	-10.6869
筹	-10.6873
祸	-10.6876
朝廷	-10.6883
那样	-10.6884
神话	-10.6884
20世纪	-10.6885
公顷,	-10.689
蒸汽	-10.689
区别	-10.6891
合作,	-10.6893
职业技术学院	-10.6893
1)	-10.6896
挡	-10.6898
,是一家	-10.69
-6	-10.6901
美女	-10.6904
机器人	-10.6907
督	-10.6909
用药	-10.6916
之乡	-10.6921
腐	-10.6925
嫁	-10.6925
牛奶	-10.6925
机,	-10.6929
精华	-10.6929
演绎	-10.6931
直线	-10.6932
当然	-10.6932
昔	-10.6939
承包	-10.6939
算法	-10.6939
视角	-10.6939
赢	-10.694
大专学历	-10.6944
沉积	-10.6947
使命	-10.6947
起任	-10.695
通知	-10.6952
6%	-10.6953
今日	-10.6954
家人	-10.6957
规定的	-10.6958
旨在	-10.6958
2002	-10.6959
该公司	-10.696
干净	-10.6961
复制	-10.6961
,没有	-10.6961
前期	-10.6962
,指	-10.6962
塑胶	-10.6964
3号	-10.6964
工业区	-10.6966
盾	-10.6967
大奖	-10.6967
暂	-10.6969
20年	-10.6975
高清	-10.6975
.02	-10.6975
智能化	-10.6981
热水	-10.6983
收益	-10.6986
质量管理	-10.6988
9-	-10.6988
原为	-10.6988
女,	-10.699
仇	-10.6993
不幸	-10.6994
智力	-10.6994
不受	-10.6995
尝试	-10.6996
办公室副主任	-10.6998
中级	-10.7
硕士学位	-10.7002
正面	-10.7002
参观	-10.7002
取代	-10.7003
顺序	-10.7006
来说,	-10.7007
无论	-10.7007
工程建设	-10.7007
3.1	-10.701
笔名	-10.7012
菇	-10.7013
本书是	-10.7014
胞	-10.7015
篇。	-10.7016
葫芦	-10.7019
势力	-10.7021
高原	-10.7025
两条	-10.7028
等;	-10.7034
晚期	-10.7037
1995	-10.7037
锻炼	-10.7038
权力	-10.7039
党组织	-10.7042
薄膜	-10.7043
根本	-10.7044
2人	-10.7047
家电	-10.7048
简洁	-10.7049
技艺	-10.705
傲	-10.7052
处。	-10.7052
纵横	-10.7057
对称	-10.7058
这部	-10.7059
宁波市	-10.706
3.6	-10.7061
委员会委员	-10.7068
2)	-10.7069
肋	-10.7069
邮件	-10.707
硬度	-10.7072
针灸	-10.7072
农机	-10.7072
前身为	-10.7076
管理体系	-10.7077
光绪	-10.7078
海水	-10.7079
0.00	-10.708
相比	-10.7081
稳定的	-10.7083
▁2008年	-10.7086
开创	-10.7087
上游	-10.7087
。2006年	-10.709
特色的	-10.7092
渊	-10.7098
下游	-10.7098
出的	-10.7098
美洲	-10.71
聘	-10.7103
煲	-10.7103
已经成为	-10.7106
聘请	-10.7107
第五届	-10.7107
蓝牙	-10.7108
活跃	-10.7109
允	-10.711
潜力	-10.711
博士后	-10.7112
2.6	-10.7112
熟悉	-10.7113
文明单位	-10.7115
季节	-10.7115
馀	-10.7116
书写	-10.7116
其间	-10.7117
青海省	-10.7117
事情	-10.7118
钝	-10.7119
内涵	-10.7119
,结合	-10.7121
争取	-10.7122
教育学院	-10.7123
明清	-10.7127
宠物	-10.7128
。根据	-10.7129
仅有	-10.7129
在这	-10.7131
人大代表	-10.7132
说,	-10.7133
遥	-10.7133
涩	-10.7136
国画	-10.7137
单位。	-10.714
建筑工程	-10.714
党委副书记	-10.7142
花椒	-10.7143
拌匀	-10.7144
实际上	-10.7145
。”清	-10.7151
卤	-10.7151
系统,	-10.7155
作文	-10.7158
疾病的	-10.7158
一时	-10.7162
畅销	-10.7164
借助	-10.7164
360	-10.7166
▁出处	-10.7166
文化的	-10.7172
亮度	-10.7173
忙	-10.7174
功能:	-10.7175
素质教育	-10.7176
十余	-10.7177
出席	-10.7177
的位置	-10.718
初级	-10.7185
1/2	-10.7186
氨基酸	-10.7186
雷达	-10.719
1800	-10.7191
啊	-10.7192
,一个	-10.7192
最近	-10.7193
诞生	-10.7196
好,	-10.7197
不良	-10.7198
姐	-10.7198
美味	-10.7199
风雨	-10.72
贫困	-10.72
济南市	-10.7201
秩序	-10.7201
独立的	-10.7202
蚀	-10.7202
奥运	-10.7203
固定资产	-10.7203
000	-10.7204
钢结构	-10.7204
相似	-10.7206
缺陷	-10.7208
建校	-10.7208
党支部书记	-10.7208
优势,	-10.7209
工程学院	-10.721
服务、	-10.7211
锦标赛	-10.7216
进士	-10.7216
的生产	-10.7217
面前	-10.722
现在的	-10.722
的艺术	-10.7221
进展	-10.7222
-7	-10.7222
娇	-10.7223
,使得	-10.7224
专业委员会	-10.7224
联想	-10.7225
金刚	-10.723
切割	-10.723
,具	-10.7231
扑	-10.7233
粉末	-10.7235
基督教	-10.7237
而又	-10.7238
制造商	-10.7239
多层	-10.7241
锅内	-10.7241
文书	-10.7241
滇	-10.7242
洋葱	-10.7244
而成。	-10.7245
扩建	-10.7247
为企业	-10.7248
期待	-10.7249
,既	-10.725
排水	-10.725
盆地	-10.7251
损害	-10.7252
水处理	-10.7252
等农作物。	-10.7255
重组	-10.7257
制剂	-10.7258
12个	-10.726
的一所	-10.726
科技进步奖	-10.7261
如下	-10.7262
产生了	-10.7265
原本	-10.7266
黑暗	-10.7266
1/	-10.7269
酒吧	-10.727
插槽	-10.7271
友谊	-10.7271
小姐	-10.7272
艇	-10.7274
勃	-10.7274
浏览	-10.7274
邮政	-10.7277
-12	-10.7277
阜	-10.7278
、新	-10.728
浙江大学	-10.7281
研究方向	-10.7282
激发	-10.7285
平米	-10.7286
1931年	-10.7287
]	-10.7289
只需	-10.7292
竞	-10.7292
割	-10.7292
金牌	-10.7293
工艺品	-10.7294
一方	-10.7295
十九	-10.7296
条例	-10.7298
浑	-10.7298
精彩	-10.7302
苔	-10.7303
第一名	-10.7305
,向	-10.7307
敏感	-10.7309
简单的	-10.7309
总理	-10.731
存在的	-10.7312
队员	-10.7312
万亩	-10.7316
事实	-10.7316
两面	-10.7318
容器	-10.7319
的东西	-10.7321
清除	-10.7321
-20	-10.7321
烹饪	-10.7322
干事	-10.7322
闹	-10.7322
收缩	-10.7323
产地	-10.7327
添	-10.7328
驻地	-10.7329
6年	-10.7333
▁.	-10.7333
色泽	-10.7338
平县	-10.734
创立于	-10.7343
命名为	-10.7346
标准的	-10.7348
的开发	-10.7351
领袖	-10.7352
朝阳	-10.7353
辉煌	-10.7355
生姜	-10.7359
储备	-10.7359
抛	-10.7359
灌木	-10.736
审判	-10.736
:00	-10.7363
机组	-10.7364
人大	-10.7365
中国画	-10.7366
日语	-10.7366
西湖	-10.7373
地层	-10.7374
巾	-10.7375
竞争力	-10.7377
:5	-10.7377
无线电	-10.7378
早在	-10.738
奖项	-10.7382
列入	-10.7383
注射	-10.7384
主讲	-10.7385
住宿	-10.7385
当今	-10.7386
之道	-10.7387
年来,	-10.7388
负荷	-10.7388
精盐	-10.739
钢板	-10.7391
同时也	-10.7392
吉他	-10.7393
特有的	-10.7395
屡	-10.7396
制药	-10.7396
。因为	-10.7396
酮	-10.7396
发热	-10.7397
项目的	-10.7399
隶	-10.74
总线	-10.7401
自然村	-10.7401
是从	-10.7405
期货	-10.7406
溶解	-10.7408
为一	-10.7413
口径	-10.7417
山上	-10.7417
氨	-10.7419
防腐	-10.742
度假	-10.7423
的基础	-10.7423
村。	-10.7424
经济技术开发区	-10.7425
六十	-10.7428
工作中	-10.7429
副主任医师	-10.7429
嗣	-10.7431
胡萝卜	-10.7432
引擎	-10.7436
大学学历	-10.7438
有限	-10.7443
倚	-10.7449
叙	-10.7449
少儿	-10.7452
185	-10.7453
择	-10.7453
动脉	-10.7455
裙	-10.7457
第一部	-10.7459
,以“	-10.7463
就读	-10.7465
放射	-10.7469
高新技术	-10.7471
为1	-10.7472
爱好	-10.7472
狐	-10.7478
。随着	-10.7479
科技成果	-10.7479
全国性	-10.7479
与管理	-10.7481
录》	-10.7482
这位	-10.7486
1994	-10.7486
1993	-10.7487
2-3	-10.7489
、美国	-10.7491
备用	-10.7492
,这样	-10.7493
外壳	-10.7495
廖	-10.75
,总	-10.75
情况下	-10.7501
(公元	-10.7505
借鉴	-10.7507
大门	-10.7511
并入	-10.7512
问题的	-10.7513
,不过	-10.7513
颁发	-10.7515
宗旨	-10.7515
男,汉族,	-10.7516
撞	-10.752
激励	-10.752
客户的	-10.7523
融入	-10.7523
沾	-10.7525
董事	-10.7527
部署	-10.7529
学术交流	-10.7531
哭	-10.7535
随后	-10.7537
黄瓜	-10.7537
三角形	-10.754
东风	-10.7542
攀	-10.7542
『	-10.7547
,坚持	-10.7547
业主	-10.7547
秉	-10.7547
笛	-10.7549
世家	-10.7552
村人	-10.7554
录制	-10.7556
,它是	-10.7557
后任	-10.756
.05	-10.7569
边界	-10.7569
服用	-10.7573
3人	-10.7574
怨	-10.7574
单曲	-10.7577
实战	-10.758
乐团	-10.758
基础设施	-10.7581
口服	-10.7585
。2008年	-10.7586
多元	-10.7588
明珠	-10.759
很好的	-10.7591
佑	-10.7592
1996	-10.7594
意思	-10.7597
主管部门	-10.7599
是用	-10.76
。”《	-10.7602
是国内	-10.7603
纺	-10.7605
,简称	-10.7608
毫	-10.7609
万元。	-10.7612
全长	-10.7613
,西	-10.7616
较好	-10.7618
象征	-10.7619
面上	-10.7621
进取	-10.7623
外,还	-10.7624
优惠	-10.7626
,有的	-10.7626
仿真	-10.7627
在日本	-10.7631
的世界	-10.7631
峪	-10.7633
最新的	-10.7634
繁华	-10.7634
▁三、	-10.7637
方式,	-10.7638
燃	-10.764
模式,	-10.7641
擅	-10.7642
阴阳	-10.7642
改名为	-10.7642
文本	-10.7642
▁地址:	-10.7643
机械设备	-10.7645
。后来	-10.7647
原材料	-10.7649
务实	-10.765
强大	-10.7651
°C,年降水量	-10.7653
剧本	-10.7657
昏	-10.7661
会所	-10.7661
馅	-10.7663
全乡	-10.7663
技术创新	-10.7663
1次	-10.7666
慢慢	-10.7666
定点	-10.7666
法师	-10.767
载体	-10.7671
垣	-10.7673
512	-10.7676
制订	-10.7677
路,	-10.7679
持有	-10.768
▁2009年	-10.7681
民众	-10.7682
可用于	-10.7682
定居	-10.7684
育人	-10.7685
生态环境	-10.7685
名师	-10.7687
枢纽	-10.7687
政法	-10.7688
480	-10.7692
鸟类	-10.7693
优美	-10.7696
诊	-10.7696
泰山	-10.7698
当选	-10.7702
显得	-10.7703
3.3	-10.7707
,毗邻	-10.7708
光滑	-10.771
▁◎	-10.771
百余	-10.7712
九龙	-10.7714
。通过	-10.7715
和服务	-10.7715
电工	-10.7718
回族	-10.7718
书法家	-10.7719
贪	-10.7723
大理	-10.7723
剧院	-10.773
字母	-10.7736
早年	-10.7738
约为	-10.7738
湿地	-10.7739
备用。	-10.7741
前来	-10.7742
买卖	-10.7743
方面,	-10.7743
涧	-10.7745
淑	-10.7747
部落	-10.7749
研讨会	-10.775
的社会	-10.7758
泾	-10.7759
常务理事	-10.7759
1-2	-10.7759
修订	-10.7762
适当	-10.7763
列车	-10.7763
为基础	-10.7767
国际贸易	-10.7768
,交通便利,	-10.7768
出演	-10.7768
水质	-10.777
攻读	-10.7771
等多项	-10.7771
印象	-10.7772
紫色	-10.7773
先锋	-10.7773
一组	-10.7773
3人,	-10.7774
招商	-10.7775
密集	-10.7777
京剧	-10.778
阐述	-10.7784
器官	-10.7786
数值	-10.7786
开水	-10.779
烈士	-10.7794
可靠性	-10.7796
扩张	-10.7797
人才培养	-10.7797
高级职称	-10.7799
正式成立	-10.7802
途	-10.7803
▁(2).	-10.7803
反映了	-10.7804
与其他	-10.7804
,北	-10.7805
便是	-10.7806
病变	-10.7807
篮	-10.7807
梅花	-10.7808
,也有	-10.7808
15克	-10.7808
姓名	-10.7811
信赖	-10.7811
。同年	-10.7811
庐	-10.7814
纠纷	-10.7814
般的	-10.7816
1992	-10.7818
生产厂家	-10.7819
左右。	-10.7821
的话	-10.7821
数字化	-10.7822
珠海	-10.7823
的所有	-10.7824
沙漠	-10.7825
现代化的	-10.7825
精神,	-10.7826
重修	-10.7827
流畅	-10.7828
西安市	-10.7828
遭到	-10.7829
讲座	-10.7835
宽度	-10.7835
郑州市	-10.7836
转化	-10.7838
分裂	-10.7839
刃	-10.7841
30克	-10.7842
切片	-10.7842
眼科	-10.7842
更换	-10.7843
北侧	-10.7846
优秀共产党员	-10.7846
改称	-10.7846
仆	-10.7846
窦	-10.7847
支流	-10.7848
公司拥有	-10.785
佛山	-10.7851
卓越的	-10.7853
问题。	-10.7853
实业有限公司	-10.7856
温州市	-10.7859
农作物	-10.7861
勤奋	-10.7869
,海拔	-10.7871
地理位置	-10.7874
镇政府	-10.7874
铝合金	-10.7876
▁(二)	-10.7876
效果。	-10.7878
有一定	-10.7878
宾客	-10.7879
黄山	-10.7882
描绘	-10.7884
珠宝	-10.7887
列为	-10.7888
然而	-10.7889
靠近	-10.7891
一件	-10.7892
出现了	-10.7894
核桃	-10.7898
-18	-10.7898
英格兰	-10.7898
诊治	-10.7898
商学院	-10.7899
庞	-10.79
开采	-10.79
、王	-10.7901
锤	-10.7903
探测	-10.7903
静脉	-10.7905
起了	-10.7906
有效地	-10.7906
完美的	-10.7911
又叫	-10.7911
研究所所长	-10.7912
第十	-10.7915
骨干教师	-10.7919
,除	-10.7919
加入中国共产党	-10.792
来源于	-10.7922
陆续	-10.7923
底部	-10.7923
-16	-10.7924
魁	-10.7925
所需	-10.7925
减轻	-10.7927
婚礼	-10.7929
菲律宾	-10.7929
顶端	-10.7931
特约	-10.7932
咽	-10.7933
,例如	-10.7935
爬	-10.7939
南通	-10.7942
对应	-10.7945
四方	-10.7946
便于	-10.7947
备案	-10.7951
六个	-10.7956
改制	-10.7957
全面发展	-10.7958
特殊的	-10.7958
逝	-10.7959
是对	-10.7959
这类	-10.796
科技进步三等奖	-10.7965
编程	-10.7967
,只有	-10.7972
水上	-10.7974
高级中学	-10.7975
坯	-10.7976
-11	-10.7978
江湖	-10.7979
翻炒	-10.798
50%	-10.7981
初,	-10.7982
想要	-10.7982
优质的	-10.7984
不宜	-10.7987
办公楼	-10.7991
陇	-10.7991
比赛中	-10.7991
以人为本	-10.7992
可容纳	-10.7992
挤	-10.7993
±	-10.7993
也能	-10.7993
北面	-10.7995
地名	-10.7996
莫斯科	-10.7998
析	-10.8002
者的	-10.8003
被授予	-10.8004
编号	-10.8004
钞	-10.8007
账	-10.8009
效力	-10.8009
时候	-10.8013
司令部	-10.8013
地板	-10.8015
河畔	-10.8016
一幅	-10.8016
熬	-10.8018
浇	-10.802
1929年	-10.8021
应力	-10.8021
较高的	-10.8022
厨房	-10.803
删除	-10.8033
商圈	-10.8035
奖”	-10.8036
器,	-10.8041
领导的	-10.8041
架构	-10.8042
诗文	-10.8044
技术开发	-10.8046
引发	-10.8052
祁	-10.8053
马克思主义	-10.8055
文联	-10.8057
歌词	-10.8057
式的	-10.806
4.2	-10.8061
为客户	-10.8061
巫	-10.8064
7%	-10.8065
柏林	-10.8067
泻	-10.8068
内地	-10.8068
教研室主任	-10.8069
十字	-10.8071
上市公司	-10.8072
,同时也	-10.8073
的综合	-10.8074
为您提供	-10.8074
而得名。	-10.8075
5.	-10.8076
课堂	-10.8076
不断提高	-10.8076
病理	-10.8077
舱	-10.8078
;在	-10.808
理论研究	-10.8081
石头	-10.8083
名词	-10.8088
的原因	-10.8089
炳	-10.809
涨	-10.809
摘	-10.8091
棕色	-10.8091
齐全	-10.8092
”)	-10.8093
愚	-10.81
抄	-10.81
钾	-10.81
努	-10.8101
览	-10.8101
创办于	-10.8102
渭	-10.8103
复旦大学	-10.8104
省、市	-10.8104
,提供	-10.8105
分别为	-10.8105
开办	-10.8106
并非	-10.8107
性。	-10.811
对手	-10.8112
短期	-10.8112
饱	-10.8114
姑娘	-10.8115
冲突	-10.8123
大厅	-10.8123
花纹	-10.8124
秉承“	-10.8124
的发展,	-10.8124
野生	-10.8126
贝尔	-10.8127
境界	-10.8128
工学院	-10.8129
7月参加工作,	-10.8132
几年	-10.8132
于2010年	-10.8132
口感	-10.8134
子公司	-10.8135
西汉	-10.8135
诉讼	-10.8136
渔业	-10.8139
生产经营	-10.814
防火	-10.814
庶	-10.814
业有限公司	-10.8142
百万	-10.8143
▁此	-10.8145
华南	-10.8148
复杂的	-10.8152
主要经营	-10.8153
藩	-10.8154
技术支持	-10.8155
同类	-10.8157
副主席	-10.8159
投影	-10.8162
冥	-10.8162
中期	-10.8163
狮子	-10.8165
第5	-10.8166
,有时	-10.8166
省内	-10.8168
合法	-10.8169
粒子	-10.8172
社会学	-10.8173
还要	-10.8174
主办的	-10.8174
省道	-10.8176
捞出	-10.8178
10%	-10.818
优良的	-10.8181
心灵	-10.8182
都在	-10.8182
圩	-10.8182
,始建于	-10.8183
一面	-10.8184
专业技术	-10.8185
锥	-10.8192
面包	-10.8192
逼	-10.8193
木马	-10.8194
青山	-10.8196
回归	-10.8197
南侧	-10.8197
优雅	-10.8197
情节	-10.82
特产	-10.8201
"、"	-10.8207
制作的	-10.8211
光泽	-10.8211
趾	-10.8212
在校学生	-10.8212
券	-10.8219
处副处长	-10.8224
的理念	-10.8224
,是由	-10.8225
新人	-10.8225
于2009年	-10.8226
气质	-10.8227
过程中,	-10.8229
序列	-10.8234
铁道	-10.8234
最高的	-10.8238
平方	-10.8238
知名品牌	-10.824
帘	-10.824
科室	-10.8241
进化	-10.8246
。2005年	-10.8246
”称号。	-10.8249
毕业,	-10.8249
展会	-10.8251
沈阳市	-10.8252
司马	-10.8254
自治	-10.8255
认知	-10.8256
黑白	-10.8257
树立	-10.8259
暑	-10.826
摊	-10.8261
特长	-10.8261
柔软	-10.8261
感动	-10.8261
味道	-10.8263
排放	-10.8266
保卫	-10.8267
景色	-10.8268
(1	-10.827
路与	-10.827
担	-10.827
火车	-10.827
尼亚	-10.8273
过的	-10.8273
后勤	-10.8273
桃花	-10.8275
揭	-10.8277
哪	-10.8278
品牌。	-10.8278
由中国	-10.8279
肉质	-10.8279
豹	-10.828
电视剧《	-10.8284
彼此	-10.8284
两岸	-10.8285
笔记本	-10.8289
闷	-10.829
,共有	-10.8291
线上	-10.8292
薪	-10.8292
×4	-10.8292
网络营销	-10.8295
公正	-10.8295
节日	-10.8296
).	-10.8299
用户的	-10.8304
不需要	-10.8306
学术论文	-10.8307
高于	-10.8308
而言	-10.8309
活泼	-10.831
《》	-10.8313
一半	-10.8314
烦	-10.8321
讲解	-10.8321
燃气	-10.8323
延续	-10.8324
刑事	-10.8328
中国大陆	-10.8329
摩擦	-10.833
携手	-10.8332
规范化	-10.8332
平时	-10.8332
是目前	-10.8333
矮	-10.8334
学堂	-10.8335
优质的服务	-10.8335
发现了	-10.8336
总资产	-10.8337
埃及	-10.8337
胡同	-10.8338
中学高级教师	-10.8338
型企业	-10.834
村内	-10.8341
之中,	-10.8344
吞	-10.8345
加入中国共产党。	-10.8348
振兴	-10.8349
参谋长	-10.8351
博士生导师	-10.8352
版)	-10.8352
信息服务	-10.8352
4%	-10.8352
多样	-10.8353
钉	-10.8354
应用程序	-10.8355
做法	-10.8356
宠	-10.8356
音箱	-10.8362
寓	-10.8363
果树	-10.8365
丘陵	-10.8365
整齐	-10.8365
省部级	-10.8369
方法,	-10.8369
鞭	-10.837
俞	-10.837
的现代化	-10.837
的能力	-10.8375
清楚	-10.8375
而成,	-10.8376
等待	-10.8378
杆菌	-10.838
解放后	-10.838
农历	-10.8385
硫酸	-10.8386
天空	-10.8388
许可证	-10.8388
麻醉	-10.8389
二年(	-10.8389
艘	-10.8394
近百	-10.8396
隔离	-10.8396
鳞片	-10.8397
骨科	-10.8398
的教学	-10.8402
园艺	-10.8402
梗	-10.8403
被评为“	-10.8407
(1).	-10.8408
上映	-10.8409
押	-10.8411
一首	-10.8412
占领	-10.8412
的一些	-10.8415
,每年	-10.8415
地势	-10.8416
涉外	-10.8417
副教授,	-10.842
生化	-10.8421
梓	-10.8421
多部	-10.8422
,那么	-10.8422
阮	-10.8423
8000	-10.8424
。2009年	-10.8425
海域	-10.8425
的信息	-10.8425
教学质量	-10.8426
山村	-10.8429
沁	-10.843
户型	-10.843
率领	-10.8431
收获	-10.8432
党组书记	-10.8433
琪	-10.8436
,按	-10.8437
功能。	-10.8437
淘	-10.8438
治安	-10.8441
东汉	-10.8441
全面的	-10.8442
兼容	-10.8443
标签	-10.8443
软件开发	-10.8444
研究生学历	-10.8444
射击	-10.8446
校级	-10.8447
,参与	-10.8448
曾多次	-10.8448
活动中	-10.8452
狄	-10.8454
休息	-10.8456
由原	-10.8457
美术学院	-10.8457
姓氏	-10.8458
鲁迅	-10.8459
,利用	-10.846
拒绝	-10.8461
优先	-10.8462
科学院	-10.8463
院士	-10.8464
站在	-10.8464
火箭	-10.8465
公平	-10.8468
达标	-10.8468
作者:	-10.8469
气氛	-10.847
,请	-10.8472
20%	-10.8473
达到了	-10.8477
总户数	-10.8478
,全	-10.8479
主营	-10.8479
,随着	-10.848
全校	-10.8481
中心,	-10.8484
在这个	-10.8488
很有	-10.8489
い	-10.8489
大批	-10.8489
千米	-10.8491
浏览器	-10.8496
的经营理念	-10.8498
民营	-10.85
灶	-10.85
与其	-10.8501
声乐	-10.8502
抢救	-10.8503
,这个	-10.8504
阿拉伯	-10.8505
在内的	-10.8507
科研课题	-10.8507
人参	-10.8508
系统集成	-10.8508
可爱	-10.8509
国家自然科学基金	-10.8513
祭祀	-10.8515
,辖	-10.8515
。它是	-10.8517
瞬间	-10.8517
历史文化	-10.8518
湖泊	-10.8521
耐磨	-10.8522
2.7	-10.8523
菜肴	-10.8524
男孩	-10.8525
大连市	-10.8526
这座	-10.8528
为宗旨	-10.853
地貌	-10.8531
婴儿	-10.8532
部,	-10.8537
8号	-10.8538
通俗	-10.8538
论述	-10.8541
之所	-10.8543
/3	-10.8548
山、	-10.8548
至今,	-10.8549
板、	-10.8549
15分钟	-10.8551
书画家	-10.8552
入口	-10.8553
《中华人民共和国	-10.8554
▁2007年	-10.8555
科学的	-10.8557
,当时	-10.8559
大同	-10.8562
的角度	-10.8563
摄像机	-10.8564
疗	-10.8566
学会会员	-10.8567
高级教师	-10.8567
荐	-10.8567
脉冲	-10.8569
天堂	-10.8571
学专业	-10.8572
装甲	-10.8575
等多个	-10.8578
威胁	-10.858
2项	-10.8581
打印机	-10.8581
台北	-10.8584
骑士	-10.8585
成熟的	-10.8589
薯	-10.8591
规划、	-10.8593
腌	-10.8598
样品	-10.86
紧张	-10.8601
防爆	-10.8602
镇位于	-10.8602
善于	-10.8603
这么	-10.8604
党政	-10.8604
代理商	-10.8606
民政	-10.8606
携带	-10.8606
揉	-10.8606
肚	-10.8606
的目的	-10.8608
临床工作	-10.861
20分钟	-10.8612
契	-10.8615
古今	-10.8616
金山	-10.8618
股份	-10.8619
各自	-10.8619
岛上	-10.862
聪明	-10.862
研究会理事	-10.862
、陈	-10.8622
焉	-10.8622
力求	-10.8624
卫浴	-10.8624
优秀奖	-10.8624
回家	-10.8626
顶部	-10.8628
文化部	-10.8629
也许	-10.8631
8.5	-10.8632
、汽车	-10.8633
正规	-10.8634
原有	-10.8636
截止	-10.8637
低于	-10.8641
朔	-10.8642
旅客	-10.8643
蕨	-10.8644
捐	-10.8644
分支	-10.8644
崎	-10.8645
.11	-10.8646
天气	-10.8646
作出了	-10.8648
线条	-10.8649
盲	-10.8649
告诉	-10.865
冶	-10.8651
▁2010年	-10.8651
节省	-10.8655
9000	-10.8655
30年	-10.8657
灾害	-10.8657
杖	-10.8658
开发、	-10.8658
纷纷	-10.8658
新品种	-10.8658
获全国	-10.8659
3公里	-10.866
主板	-10.8662
邮票	-10.8663
跨越	-10.8663
教程	-10.8669
1/3	-10.867
卡拉	-10.8674
见于	-10.8676
头痛	-10.8677
好友	-10.8679
党校	-10.8679
说话	-10.8682
南面	-10.8684
透过	-10.8684
回忆	-10.8685
开通	-10.8687
日报》	-10.8689
中南	-10.8692
隋	-10.8693
、电子	-10.8693
作风	-10.8695
。2007年	-10.8695
总局	-10.8696
占有	-10.8696
解析	-10.8697
经贸	-10.8698
产值	-10.8699
▁他	-10.87
技术的	-10.87
可以通过	-10.8702
改良	-10.8703
。经过	-10.8703
审定	-10.8705
发生在	-10.8709
;《	-10.8711
不敢	-10.8711
,虽然	-10.8713
报》、《	-10.8713
木质	-10.8715
油田	-10.8715
,现已	-10.8716
,称为	-10.8719
社会团体	-10.8722
剧目	-10.8725
战国	-10.8726
的网络	-10.8728
辩	-10.873
被称为“	-10.8731
在今	-10.8732
北大	-10.8732
机构,	-10.8733
工程技术	-10.8734
演艺	-10.8735
一贯	-10.8739
副研究员	-10.8739
常用的	-10.8739
词典	-10.8739
强烈的	-10.8741
对面	-10.8742
总数	-10.8744
在一个	-10.8745
相结合	-10.8745
理财	-10.8746
专注	-10.8748
与发展	-10.8748
写字楼	-10.8748
副书记	-10.8751
噪音	-10.8751
[	-10.8754
广大客户	-10.8762
火腿	-10.8763
冷水	-10.8765
и	-10.8765
丰富,	-10.8766
厨	-10.8767
5公里	-10.8767
源自	-10.8767
置于	-10.8767
腐蚀	-10.8768
都要	-10.8775
长沙市	-10.8775
南阳	-10.8776
指令	-10.8776
第六届	-10.8779
龙头企业	-10.8781
电厂	-10.8782
优越	-10.8783
协同	-10.8784
老年人	-10.8785
嵌	-10.8788
高峰	-10.8788
大米	-10.8788
水电站	-10.8789
的宗旨	-10.8789
身高	-10.879
千万	-10.8792
萝卜	-10.8793
灵魂	-10.8795
格局	-10.8795
滋	-10.8796
制造业	-10.8798
用的	-10.8799
2次	-10.8799
地理位置优越	-10.8805
书·	-10.8805
纤	-10.8805
体现了	-10.8806
人格	-10.8812
高尚	-10.8812
高性能	-10.8813
通过对	-10.8815
凿	-10.8816
。近年来,	-10.8817
。另外,	-10.8818
1名	-10.882
配送	-10.8822
冷冻	-10.8824
过渡	-10.8825
层,	-10.8829
的作用。	-10.883
全称	-10.8832
的价格	-10.8832
以南	-10.8834
文档	-10.8836
身边	-10.8839
时装	-10.884
纬	-10.8841
演变	-10.8843
棕	-10.8843
宫廷	-10.8844
主任医师,	-10.8845
中国国际	-10.8847
大专	-10.8847
童话	-10.8849
的行为	-10.885
尚未	-10.8854
的朋友	-10.8856
龙门	-10.8859
美好	-10.886
面料	-10.886
等产品	-10.8861
芝麻	-10.8861
陕	-10.8862
路上	-10.8863
批评	-10.8863
是因为	-10.8865
合资	-10.8865
携	-10.8865
庸	-10.8866
,若	-10.8866
预计	-10.8868
团购	-10.8869
崩	-10.887
大规模	-10.887
1991	-10.8871
3.8	-10.8874
任务。	-10.8875
浊	-10.8878
慈善	-10.8878
信仰	-10.888
▁2006年	-10.8882
也称	-10.8883
,也可以	-10.8883
之下	-10.8884
登陆	-10.8885
中心主任	-10.8887
发表学术论文	-10.8888
1927年	-10.8888
痛苦	-10.8888
舜	-10.8891
泗	-10.8891
,用于	-10.8893
养护	-10.8893
榆	-10.8895
向前	-10.8896
在其	-10.8897
中国当代	-10.89
纪念馆	-10.89
有一定的	-10.8901
(15	-10.8904
立法	-10.8906
直立	-10.8911
演讲	-10.8911
女主角	-10.8912
疆	-10.8912
充电	-10.8912
中青年	-10.8914
、水	-10.8915
旅行社	-10.8915
筹备	-10.8916
分泌	-10.892
元代	-10.8921
信访	-10.8927
支援	-10.8929
瓷器	-10.8931
。由	-10.8932
热量	-10.8933
II	-10.8933
大火	-10.8937
了许多	-10.8937
原料:	-10.8938
溢	-10.8939
八角	-10.8942
正义	-10.8945
磷酸	-10.8949
单一	-10.8949
生日	-10.8952
的过程	-10.8955
0.	-10.8955
出现的	-10.8957
发生的	-10.8958
不断创新	-10.8959
苏州市	-10.8962
不知道	-10.8964
公务员	-10.8967
外表	-10.8967
9号	-10.8969
来的	-10.8971
镍	-10.8973
杯”	-10.8974
可口	-10.8976
。但是	-10.898
大展	-10.8982
的传统	-10.8982
麦克风	-10.8983
对其	-10.8985
家用	-10.8985
′′	-10.8986
剂、	-10.8991
难题	-10.8991
天文	-10.8992
走进	-10.8993
槐	-10.8994
调任	-10.8994
球场	-10.8997
医学会	-10.8998
陪	-10.8999
寡	-10.8999
等国家	-10.9002
自身的	-10.9003
师从	-10.9004
的最新	-10.9005
组件	-10.9006
敬业	-10.9006
135	-10.9009
1990	-10.901
发行的	-10.9012
叹	-10.9013
我省	-10.9014
让我们	-10.9014
中央党校	-10.9015
80%	-10.9016
公布	-10.9016
尔·	-10.9017
中东	-10.902
5.2	-10.902
。辖	-10.9021
,直到	-10.9024
标识	-10.9027
均衡	-10.9027
,这里	-10.9028
主要包括	-10.9029
是为了	-10.9029
”字	-10.903
比利时	-10.9032
1×	-10.9032
风扇	-10.9038
名医	-10.9039
撤销	-10.904
对照	-10.9041
10余	-10.9042
员、	-10.9046
今后	-10.9049
拟定	-10.905
转向	-10.9053
锂电池	-10.9053
之家	-10.9053
,它们	-10.9053
绘制	-10.9055
教员	-10.9055
人在	-10.9055
拾	-10.9055
缅甸	-10.9056
(简称	-10.9057
资源,	-10.9057
诉	-10.906
国家标准	-10.9064
三层	-10.9065
,今	-10.9065
勿	-10.9068
1928年	-10.9068
纹饰	-10.9069
。这是	-10.9069
矿业	-10.9069
语法	-10.907
人。中共党员。	-10.9072
奥地利	-10.9074
清热	-10.9076
新西兰	-10.9079
是根据	-10.9079
2×	-10.9082
孩子们	-10.9083
不规则	-10.9085
近几年	-10.9086
有力	-10.9088
医疗器械	-10.9092
∶	-10.9094
年级	-10.9096
是一道	-10.9096
之上	-10.9096
论证	-10.9098
披针形	-10.9099
钧	-10.9099
有很多	-10.9102
唐朝	-10.9102
衣服	-10.9102
衔	-10.9103
赛季	-10.9104
民生	-10.9105
准则	-10.9106
浮雕	-10.9107
基本参数	-10.9107
更好	-10.9108
亦有	-10.911
清理	-10.911
滨海	-10.9114
品牌的	-10.9117
砌	-10.9117
建设项目	-10.9119
千里	-10.912
为核心	-10.9121
山顶	-10.9124
气动	-10.9126
招商引资	-10.9126
监狱	-10.9127
技术研究	-10.9127
至于	-10.9128
理事会	-10.9128
西亚	-10.9131
嘎	-10.9131
概述	-10.9136
水准	-10.9136
,都	-10.9137
的理论	-10.9138
组长	-10.9138
女生	-10.914
三峡	-10.9141
蝴蝶	-10.9145
既有	-10.9145
的事情	-10.9146
)等	-10.9147
面貌	-10.9148
并不是	-10.9148
时空	-10.9149
百合	-10.9149
。1949年	-10.9151
』『	-10.9151
宝石	-10.9152
切换	-10.9155
。作为	-10.9157
摇滚	-10.9157
中心。	-10.9158
络	-10.9158
欠	-10.9158
,能够	-10.9158
工程设计	-10.916
绞	-10.9161
用地	-10.9162
宪法	-10.9162
相同的	-10.9164
膝	-10.9166
并没有	-10.9166
7月毕业于	-10.9167
学名	-10.9167
的新型	-10.9171
说明书	-10.9171
机理	-10.9173
1项	-10.9173
建立的	-10.9175
禁止	-10.9175
航空公司	-10.9175
粉丝	-10.9175
实训	-10.9176
的质量	-10.9177
浸泡	-10.918
有许多	-10.9181
室外	-10.9182
6号	-10.9183
建制	-10.9184
:8	-10.9184
的情况	-10.9184
伽	-10.9185
▁北京	-10.9187
的故事。	-10.9187
750	-10.9189
界的	-10.919
膨胀	-10.9192
3)	-10.9193
手续	-10.9194
家庄	-10.9195
,人们	-10.9196
出生在	-10.9196
本着“	-10.9196
一号	-10.9198
师大	-10.92
200米	-10.9201
知县	-10.9202
吉祥	-10.9203
自然科学	-10.9206
成立,	-10.9207
事。	-10.9208
210	-10.9208
》)	-10.9213
2001	-10.9216
的力量	-10.9216
一同	-10.9217
往来	-10.9217
贵阳	-10.9218
各部门	-10.9218
运河	-10.9219
▁7	-10.9219
岁月	-10.9219
微软	-10.922
不变	-10.9221
林地	-10.9222
,隶属于	-10.9225
利亚	-10.9226
教会	-10.9227
头,	-10.9228
为广大	-10.923
哥哥	-10.9231
核算	-10.9234
百度	-10.9234
使其	-10.9236
5人	-10.9244
也叫	-10.9247
电网	-10.9248
断裂	-10.9248
收到	-10.9248
待遇	-10.9248
溶剂	-10.9251
了《	-10.9251
开始了	-10.9254
高质量	-10.9254
畜	-10.9255
坚持以	-10.9258
中科院	-10.9259
当时的	-10.9259
生产工艺	-10.9259
中华民族	-10.926
制备	-10.9264
咬	-10.9264
路口	-10.9267
的声音	-10.9268
面团	-10.9268
成语	-10.927
回国	-10.9271
雍	-10.9273
协会理事	-10.9274
于是	-10.9274
花瓣	-10.9279
在香港	-10.9279
星期	-10.928
网是	-10.9281
优质服务	-10.9282
颇有	-10.9283
球形	-10.9284
(现	-10.9286
地址:	-10.9286
南县	-10.9286
总队	-10.9287
在我国	-10.9292
2公里	-10.9293
裴	-10.9293
铁路局	-10.9294
遗迹	-10.9294
抗战	-10.9295
纵队	-10.9298
192	-10.9298
毫升	-10.9299
时期,	-10.93
独家	-10.9302
质地	-10.9303
○	-10.9303
竞技	-10.9305
中心小学	-10.9306
噪声	-10.9309
,主要从事	-10.9309
4人	-10.931
先后任	-10.931
路面	-10.9311
风水	-10.9312
,要	-10.9312
铬	-10.9314
纽	-10.9316
散热	-10.9319
▁第二节	-10.932
横向	-10.9321
等于	-10.9321
上方	-10.9324
肆	-10.9326
南宁市	-10.9327
。酒店	-10.9327
3.7	-10.9329
转型	-10.9329
微型	-10.933
-15	-10.9333
大战	-10.9334
可靠的	-10.9334
参编	-10.9337
,擅长	-10.9338
山庄	-10.934
后人	-10.9344
寺院	-10.9346
政委	-10.9347
全村经济总收入	-10.9347
相结合的	-10.9348
室主任	-10.9349
10公里	-10.9351
梵	-10.9352
清·	-10.9352
心中	-10.9353
”牌	-10.9354
到底	-10.9355
长大	-10.9356
棍	-10.9356
交往	-10.9357
精通	-10.9359
当归	-10.9361
杀害	-10.9363
放弃	-10.9364
菱	-10.9364
安防	-10.9364
万里	-10.9365
前卫	-10.9365
鸡肉	-10.9367
太空	-10.937
,均	-10.937
天主教	-10.9372
。2004年	-10.9374
30分钟	-10.9374
伙伴	-10.9377
经》	-10.9379
新四军	-10.938
眼镜	-10.9381
,并将	-10.9382
剂量	-10.9383
的好	-10.9384
20余	-10.9384
后面	-10.9386
;1	-10.9386
子女	-10.9386
白菜	-10.9387
选育	-10.9389
有序	-10.939
语言学	-10.9391
合肥市	-10.9392
烟草	-10.9392
壁画	-10.9396
巩固	-10.9396
的第一	-10.94
2500	-10.9401
随意	-10.9401
寅	-10.9403
就像	-10.9403
激素	-10.9406
近年	-10.9407
于一体	-10.941
综合征	-10.9412
始于	-10.9412
人造	-10.9414
涅	-10.9415
系列、	-10.9415
第二次	-10.9418
公里,距	-10.9419
接口:	-10.942
平等	-10.9422
坠	-10.9422
亦称	-10.9423
途中	-10.9424
政务	-10.9425
已被	-10.9426
体型	-10.9426
市委、市政府	-10.9428
工程系	-10.9429
某个	-10.943
诵	-10.943
工委	-10.943
行业协会	-10.9431
大胆	-10.9433
20多	-10.9434
之处	-10.9438
9.5	-10.944
糯米	-10.944
从小	-10.9443
监督检查	-10.9443
研究、	-10.9443
植株	-10.9443
90%	-10.9444
直流	-10.9444
晚上	-10.9444
的一家	-10.9445
的机会	-10.9447
让您	-10.9448
面部	-10.9449
葵	-10.945
微波	-10.945
、金	-10.9451
工程技术人员	-10.9452
一直从事	-10.9452
115	-10.9453
主任,	-10.9454
惜	-10.9454
丹麦	-10.9455
办主任	-10.9456
长约	-10.9457
汉代	-10.9457
6人,	-10.9457
有利于	-10.9461
背后	-10.9461
分院	-10.9462
川县	-10.9464
入侵	-10.9464
座落于	-10.9465
号:	-10.9465
验证	-10.9468
咳嗽	-10.9469
()的	-10.947
处长	-10.9471
于2011年	-10.9473
无需	-10.9474
少将	-10.9474
▁从	-10.9475
丞	-10.9481
。用于	-10.9482
≥	-10.9482
–	-10.9485
的品牌	-10.9486
3.4	-10.949
岚	-10.9491
品位	-10.9493
实务	-10.9494
游击队	-10.9494
南山	-10.9494
钻石	-10.9495
好评。	-10.9495
2014年	-10.9496
”之	-10.9497
体系,	-10.9498
的具体	-10.9501
自行车	-10.9501
1.9	-10.9502
裸	-10.9506
101	-10.9506
雌	-10.9507
石油化工	-10.9508
102	-10.9509
采访	-10.951
于2008年	-10.9516
商店	-10.9516
祀	-10.952
分成	-10.9522
无机	-10.9522
无色	-10.9522
培训班	-10.9523
蓉	-10.9523
尤其	-10.9524
装配	-10.9525
≤	-10.9531
画院	-10.9532
明显的	-10.9533
淡水	-10.9534
大学毕业	-10.9534
如下:	-10.9535
晋升	-10.9537
承受	-10.9537
0°	-10.9538
4.3	-10.9542
两者	-10.9549
循	-10.9549
科员	-10.955
品味	-10.955
获省	-10.9554
古人	-10.9554
注:“	-10.9555
雄厚的	-10.9555
子、	-10.9557
此书	-10.9557
的安全	-10.9558
省政府	-10.9558
中国人民大学	-10.9558
饮用	-10.9562
材料的	-10.9563
业内	-10.9563
极限	-10.9566
翰	-10.9567
例如	-10.9569
转速	-10.957
一定要	-10.9571
战术	-10.9573
卫视	-10.9573
标本	-10.9575
▁2011年	-10.9576
造纸	-10.9577
华中	-10.9577
岁时	-10.9578
是一本	-10.9579
妆	-10.958
等功能	-10.9581
放置	-10.9582
疯狂	-10.9582
中山大学	-10.9586
这款	-10.9587
改编	-10.9587
鲜明	-10.9588
说法	-10.9588
为本	-10.9588
如同	-10.9589
充分发挥	-10.959
绩效	-10.9592
该品种	-10.9592
5号	-10.9593
等工作	-10.9593
,加强	-10.9594
相接	-10.9594
提前	-10.9594
理性	-10.9594
减肥	-10.9595
紧邻	-10.9596
▁7、	-10.9597
游戏中	-10.9597
即成。	-10.9598
商务中心	-10.96
绪	-10.9601
260	-10.9604
议会	-10.9605
婴	-10.9606
土耳其	-10.9607
之子	-10.9607
顶尖	-10.9609
内分泌	-10.961
兵器	-10.9611
转让	-10.9612
家里	-10.9613
▁由于	-10.9614
可能是	-10.9614
晋升为	-10.9614
恋爱	-10.9615
即为	-10.9615
潍坊	-10.9618
研究和	-10.9619
河道	-10.9619
天然气	-10.962
检测设备	-10.962
书画艺术	-10.9621
提名	-10.9622
发生了	-10.9624
要求,	-10.9624
恐	-10.9625
峻	-10.9626
,2006年	-10.9629
有助于	-10.963
家。	-10.9631
扎实	-10.9633
8月参加工作,	-10.9635
肤	-10.9635
是指在	-10.9635
招收	-10.9635
辖区内	-10.9635
守护	-10.9636
达成	-10.9644
5.0	-10.9644
热处理	-10.9644
彬	-10.9645
富含	-10.9647
或是	-10.9648
5人,	-10.9649
入门	-10.9649
对话	-10.9649
。一般	-10.9649
多次被评为	-10.9649
约2	-10.9652
岐	-10.9654
明天	-10.9657
出售	-10.9658
美术馆	-10.966
较多	-10.9661
7号	-10.9662
组组长	-10.9662
水资源	-10.9665
番茄	-10.9667
管理制度	-10.9667
最先进的	-10.9668
表现出	-10.967
弹簧	-10.9671
外汇	-10.9671
挥	-10.9675
武汉大学	-10.9675
专家,	-10.9676
纪委	-10.9677
晚年	-10.9679
30%	-10.9681
解决了	-10.9682
,只要	-10.9685
风格的	-10.9685
荣誉称号	-10.9687
工程项目	-10.9687
石材	-10.9688
自信	-10.9689
的情况下	-10.969
珍贵	-10.9691
讲授	-10.9692
摩托车	-10.9696
登场	-10.9696
保密	-10.9697
的关键	-10.97
,2004年	-10.97
五代	-10.9701
充分利用	-10.9702
射线	-10.9703
众生	-10.9703
南非	-10.9705
,给	-10.9706
蛮	-10.971
大学文化	-10.9712
下午	-10.9714
为此	-10.9714
对抗	-10.9716
5.1	-10.9717
以北	-10.9719
歌舞	-10.9721
化妆	-10.9721
菜单	-10.9721
微米	-10.9721
实物	-10.9722
想象	-10.9724
▁出版社:	-10.9725
、国家	-10.9726
新生	-10.9727
趋	-10.9728
4.8	-10.9728
致富	-10.9731
吸附	-10.9731
中最	-10.9734
112	-10.9735
状元	-10.9735
掩	-10.9735
剥	-10.9736
三人	-10.9736
扶贫	-10.9737
接着	-10.9738
不断的	-10.9739
摄像头	-10.974
精益求精	-10.974
网络游戏	-10.9743
易于	-10.9747
▁本书	-10.9749
皮革	-10.9749
,保证	-10.9749
信息系统	-10.9752
权益	-10.9754
坚持“	-10.9754
桌面	-10.9756
衍	-10.9759
暮	-10.9759
新村	-10.9764
商务酒店	-10.9764
理事	-10.9766
▁7.	-10.9766
领导人	-10.9766
一旦	-10.9767
,全村	-10.9767
此次	-10.9769
书法作品	-10.9769
▁(三)	-10.9769
各界	-10.977
乡位于	-10.9774
杀死	-10.9774
个月	-10.9775
无锡市	-10.9779
显示器	-10.9779
一台	-10.9785
的游戏	-10.9791
泛指	-10.9793
香菜	-10.9796
渐渐	-10.9796
生物技术	-10.9798
对策	-10.98
网游	-10.9801
特点:	-10.9801
个教学班	-10.9802
接入	-10.9802
临沂	-10.9803
生活中	-10.9804
各有	-10.9806
的儿子	-10.9808
结算	-10.9809
站点	-10.9809
,应	-10.981
,2005年	-10.9811
主要内容	-10.9811
▁第一节	-10.9811
和技术	-10.9812
(17	-10.9813
州刺史	-10.9815
幻想	-10.9816
恰	-10.9816
娃	-10.9817
海峡	-10.9817
名誉	-10.9817
微机	-10.9818
糕	-10.982
龙头	-10.9821
那里	-10.9822
会展	-10.9822
日照	-10.9824
保养	-10.9824
厦	-10.9826
殊	-10.9826
于2007年	-10.9826
厘米。	-10.9827
变量	-10.9829
轮胎	-10.9829
经历了	-10.9829
高效的	-10.9829
疲劳	-10.983
喀	-10.9831
经销	-10.9833
为用户提供	-10.9834
能力的	-10.9834
1公里	-10.9835
农业生产	-10.9836
走出	-10.9838
主治医师	-10.984
物理学	-10.984
出道	-10.9841
的数据	-10.9843
战场	-10.9843
被誉为	-10.9846
更好地	-10.9846
系统中	-10.9846
。这个	-10.9846
社科	-10.9848
招标	-10.9849
十几	-10.985
与应用	-10.9851
乞	-10.9853
,生于	-10.9853
主任。	-10.9854
以往	-10.9854
于2006年	-10.9854
裤	-10.9857
先后获得	-10.9858
渗	-10.986
重力	-10.9862
学说	-10.9863
不同,	-10.9865
缓解	-10.9866
增大	-10.9866
蔓	-10.9866
监理	-10.9867
学会理事	-10.9869
篆刻	-10.987
梭	-10.9871
,比如	-10.9872
反馈	-10.9872
并组织实施	-10.9874
春天	-10.9875
艺术品	-10.9875
士兵	-10.9875
钢材	-10.9879
极大	-10.9881
工艺美术	-10.9883
。这里	-10.9884
的态度	-10.9885
不如	-10.9889
还在	-10.9893
灯光	-10.9893
盏	-10.9894
被列为	-10.9896
游览	-10.9896
()和	-10.9898
动力学	-10.9899
承认	-10.99
4.0	-10.9902
澳洲	-10.9902
的感觉	-10.9903
5～	-10.9904
古老的	-10.9905
楼盘	-10.9905
、西	-10.9906
师资	-10.9907
(约	-10.9911
见到	-10.9912
浓缩	-10.9913
中型	-10.9913
机箱	-10.9914
后在	-10.9914
建成后	-10.9914
,仅	-10.9916
志愿者	-10.9916
名学生	-10.9917
,2007年	-10.9917
о	-10.9919
罕	-10.992
。”宋	-10.992
数千	-10.9921
大蒜	-10.9922
渤海	-10.9925
桥镇	-10.9926
书》	-10.9926
总量	-10.9927
可作为	-10.9928
运动会	-10.9929
,呈	-10.9929
签订	-10.9931
绿地	-10.9931
▁最大	-10.9933
推出了	-10.9935
黏	-10.9936
旧址	-10.9936
通往	-10.9936
债券	-10.9937
后又	-10.9939
湿度	-10.994
的结果	-10.994
寇	-10.9941
是国家	-10.9942
。’”	-10.9943
媒介	-10.9948
双向	-10.995
椭圆形	-10.9954
牢	-10.9954
科技进步	-10.9954
国民经济	-10.9954
锰	-10.9955
健全	-10.9956
5°C	-10.9959
误差	-10.9959
大致	-10.9959
阙	-10.9963
集镇	-10.9964
,作者	-10.9965
产业发展	-10.9966
入学	-10.9969
相反	-10.9969
南区	-10.997
项目。	-10.997
勋章	-10.9973
――	-10.9973
难度	-10.9973
为止	-10.9973
。虽然	-10.9976
作词	-10.9977
因而	-10.9977
总督	-10.9977
人心	-10.9978
萌	-10.9978
前锋	-10.9979
英文名	-10.998
,中共	-10.9981
50米	-10.9982
种。	-10.9982
因其	-10.9982
楠	-10.9982
四肢	-10.9984
宏观	-10.9985
可选	-10.9985
军官	-10.9986
各式	-10.9986
做出了	-10.9986
催	-10.9986
堰	-10.9989
鞘	-10.9989
委员会副主任	-10.999
类、	-10.9992
出品	-10.9993
孢	-10.9993
解释:	-10.9994
制成的	-10.9994
律师事务所	-10.9994
▁其他	-10.9996
。2002年	-10.9996
蕴	-10.9997
金额	-10.9997
命运	-11.0001
人,中共党员,	-11.0002
等专业	-11.0003
简介:	-11.0004
,也可	-11.0004
、南	-11.0004
古老	-11.0005
太湖	-11.0005
专辑《	-11.0006
生产能力	-11.0006
学校的	-11.0008
老板	-11.0008
解读	-11.0009
中级职称	-11.0009
却是	-11.0012
”,是	-11.0013
润滑	-11.0013
出色的	-11.0013
聚合	-11.0018
这是一个	-11.0019
一体	-11.002
提高了	-11.002
紧急	-11.0022
应对	-11.0024
出版社:	-11.0028
280	-11.0029
他是	-11.0029
,注重	-11.0036
诠释	-11.0037
几种	-11.004
柔毛	-11.0041
闻名	-11.0041
花序	-11.0041
在校生	-11.0042
不断地	-11.0043
的特色	-11.0044
仗	-11.0044
规划设计	-11.0045
4人,	-11.0045
副总经理	-11.0045
能力和	-11.0046
为一体	-11.0046
和尚	-11.0047
台,	-11.0048
祛	-11.005
风云	-11.005
陈列	-11.0051
公里处,	-11.0052
你们	-11.0054
拥有一支	-11.0056
堪	-11.0058
银奖	-11.0058
特邀	-11.0059
标兵	-11.006
,还是	-11.006
妇联	-11.0061
面临	-11.0062
歌剧	-11.0062
的最佳	-11.0062
礁	-11.0062
真的	-11.0065
高标准	-11.0066
单位:	-11.0066
▁(一)	-11.0067
懂	-11.0068
现金	-11.0068
南宁	-11.0074
之星	-11.0075
门诊	-11.0075
参见	-11.0078
风湿	-11.0078
+1	-11.0079
回报	-11.008
特聘	-11.008
兮	-11.0082
泡沫	-11.0083
包围	-11.0083
,隶属	-11.0085
自来水	-11.0087
环境中	-11.0087
争议	-11.0088
出色	-11.0089
矿床	-11.009
耿	-11.0092
遍及	-11.0092
的相关	-11.0094
相望	-11.0095
钛	-11.0095
纪录	-11.0097
改名	-11.0097
/1	-11.0097
高分子	-11.0098
自学	-11.0099
。先后	-11.01
设备有限公司	-11.01
间隔	-11.01
洼	-11.01
高血压	-11.0102
嗜	-11.0106
山坡	-11.0107
接头	-11.0108
君子	-11.0108
垒	-11.0108
同仁	-11.011
读物	-11.0115
起源于	-11.0119
帝王	-11.0119
文化交流	-11.0125
主任、	-11.013
展览会	-11.0131
获国家	-11.0131
有关的	-11.0131
的使用	-11.0131
,参加	-11.0132
孕	-11.0132
足球运动员,	-11.0132
现有职工	-11.0132
专业人才	-11.0135
,全面	-11.0136
史》	-11.0138
八大	-11.0139
矢	-11.0141
所需的	-11.0143
中共中央	-11.0145
璧	-11.0145
▁现任	-11.015
此时	-11.0151
加工、	-11.0153
定量	-11.0153
珊瑚	-11.0154
委会	-11.0155
共计	-11.0157
于2005年	-11.0158
观看	-11.0159
会有	-11.016
图》	-11.016
体制改革	-11.0162
光源	-11.0162
樊	-11.0165
分区	-11.0166
一直在	-11.0167
统筹	-11.0168
二期	-11.0169
苗族	-11.0171
毒性	-11.0172
勘探	-11.0173
邮电	-11.0173
美誉	-11.0174
两项	-11.0176
▁2005年	-11.0176
封闭	-11.0178
握	-11.0178
保修	-11.018
40余	-11.018
分行	-11.0181
评定	-11.0182
锯	-11.0185
、石	-11.0186
首创	-11.0186
鸡精	-11.0189
樟	-11.0192
军分区	-11.0192
等一系列	-11.0192
附近的	-11.0193
概	-11.0193
开展了	-11.0194
的需要	-11.0195
,1984年	-11.0195
代表性	-11.0196
武昌	-11.0196
、企业	-11.02
价值。	-11.0201
电极	-11.0201
广西壮族自治区	-11.0201
传送	-11.0201
:6	-11.0203
名校	-11.0204
克拉	-11.0209
递	-11.0209
欢乐	-11.0209
之地	-11.0211
跌	-11.0211
。’	-11.0213
鸽	-11.0213
培训、	-11.0214
比如	-11.0215
学系	-11.0215
,各	-11.0218
生产技术	-11.0218
市场上	-11.0219
点,	-11.0219
主要由	-11.022
5.6	-11.0226
县委书记	-11.0229
的语言	-11.023
胀	-11.0231
请求	-11.0232
机遇	-11.0235
沉淀	-11.0235
部主任	-11.0235
号码	-11.0238
,或者	-11.0238
亦作“	-11.0239
功夫	-11.024
550	-11.0241
,令	-11.0242
局、	-11.0243
村里	-11.0243
第一位	-11.0244
第七届	-11.0245
着重	-11.0248
幼虫	-11.0248
106	-11.0249
史料	-11.025
戎	-11.025
机械制造	-11.0251
倾向	-11.0253
诱	-11.0254
征收	-11.0255
人均	-11.0256
剩	-11.0256
生产、	-11.0257
本村	-11.0257
内存容量	-11.0259
致力	-11.0259
遭遇	-11.0259
不明	-11.026
沂	-11.026
万平米	-11.0261
的研发	-11.0262
前面	-11.0264
宿舍	-11.0264
很难	-11.0267
升降	-11.0267
细致	-11.0269
百家	-11.027
农学院	-11.0271
各项工作	-11.0272
的部分	-11.0274
面积2	-11.0277
火焰	-11.028
发扬	-11.028
共产党	-11.0281
论》	-11.0283
产权	-11.0283
的效果	-11.0283
基本上	-11.0283
可在	-11.0284
。2010年	-11.0287
10000	-11.0288
万余	-11.0288
依次	-11.0289
简约	-11.0289
人称	-11.029
环球	-11.0293
加密	-11.0294
屑	-11.0294
至今任	-11.0294
草地	-11.0295
公分	-11.0296
,2003年	-11.03
注音:	-11.0301
格尔	-11.0303
愤	-11.0304
椅	-11.0306
109	-11.0307
另有	-11.0307
锈	-11.0309
叙述	-11.031
火灾	-11.031
用量	-11.0311
起来,	-11.0312
设立了	-11.0315
之意	-11.0316
▁一	-11.0317
教育培训	-11.0324
遮	-11.0324
▁出处:	-11.0327
主要为	-11.0327
放大	-11.0327
沥	-11.0328
万字	-11.0328
等各类	-11.033
开花	-11.033
步兵	-11.0331
德·	-11.0331
建筑设计	-11.0334
黄褐色	-11.0335
扭	-11.0338
油菜	-11.034
安全性	-11.034
,毕业于	-11.0344
出资	-11.0344
白酒	-11.0346
》是由	-11.0347
袖	-11.0349
▁★	-11.035
是通过	-11.0352
全力	-11.0356
洁净	-11.0359
篆	-11.0362
信心	-11.0363
将成为	-11.0363
企业文化	-11.0364
结构的	-11.0367
城堡	-11.0369
阿根廷	-11.037
咨询、	-11.0375
。2003年	-11.0378
朋	-11.0379
的标准	-11.0379
出行	-11.0379
急救	-11.0379
正确的	-11.038
末端	-11.0381
排长	-11.0381
3次	-11.0382
》一书	-11.0384
发现的	-11.0388
、刘	-11.0389
女士	-11.039
曲折	-11.0394
,2002年	-11.0395
流水	-11.0396
寻求	-11.0398
贮	-11.0398
依照	-11.04
特·	-11.04
东山	-11.0404
坟	-11.0406
100米	-11.0406
厦门市	-11.0407
《关于	-11.0409
修理	-11.041
客座教授	-11.0412
10克,	-11.0413
技术员	-11.0414
清末	-11.0415
8人,	-11.0415
子。	-11.0416
杂质	-11.0416
无穷	-11.0417
^	-11.0418
发展到	-11.0421
斯坦	-11.0427
工作;负责	-11.043
员,	-11.0433
三百	-11.0436
组成部分	-11.0436
之外	-11.0437
党组副书记	-11.0437
评委	-11.0437
的经营	-11.0438
不见	-11.0439
650	-11.0441
,集	-11.0441
等地。	-11.0442
财务管理	-11.0443
一书	-11.0443
关系。	-11.0443
村级	-11.0443
吗	-11.0444
天子	-11.0446
博客	-11.0447
穿过	-11.0447
建设工程	-11.0448
饰)	-11.0448
(4)	-11.0449
睡眠	-11.0449
商用	-11.045
出场	-11.0451
文体	-11.0453
体会	-11.0454
人性化	-11.0454
配料	-11.0455
变更	-11.0456
成像	-11.0457
受理	-11.0458
财政部	-11.0458
袍	-11.0459
坐标	-11.0459
药材	-11.0459
自幼	-11.0459
蕾	-11.0459
跟随	-11.046
门窗	-11.046
纳入	-11.0461
技师	-11.0461
较少	-11.0463
人中共党员	-11.0463
分析、	-11.0464
。著有《	-11.0464
人民检察院	-11.0465
甲基	-11.0466
始终坚持	-11.0466
有点	-11.0467
欧盟	-11.0467
政治部	-11.0468
10月生,	-11.0468
芙蓉	-11.0468
班长	-11.0468
不好	-11.0468
投产	-11.0468
长方形	-11.0477
有限公司、	-11.0477
附加	-11.0479
提倡	-11.048
基础。	-11.048
名叫	-11.0482
口岸	-11.0484
偶像	-11.0484
,建立	-11.0485
,不能	-11.0487
山谷	-11.0487
拉斯	-11.049
基地。	-11.049
国际标准	-11.0493
秋季	-11.0494
3项	-11.0496
卸	-11.0497
恐龙	-11.0499
效力于	-11.0502
行政执法	-11.0502
下去	-11.0502
必要	-11.0504
水源	-11.0504
发放	-11.0505
债	-11.0505
人家	-11.0506
单位,	-11.0507
匪	-11.0507
奇迹	-11.0508
真菌	-11.051
育种	-11.051
之旅	-11.051
维尔	-11.0512
此地	-11.0515
园内	-11.0517
发展,	-11.0517
公斤,	-11.0519
村镇	-11.0524
网卡	-11.0525
供给	-11.0525
深化	-11.0525
,2008年	-11.0527
以上,	-11.0532
州区	-11.0532
小吃	-11.0534
复印	-11.0534
家中	-11.0536
魄	-11.0536
企业集团	-11.0537
带来的	-11.054
定时	-11.0542
策划、	-11.0542
溪县	-11.0543
20克	-11.0546
蒙古族	-11.0547
拟订	-11.0547
的意思	-11.0548
创办的	-11.0548
大脑	-11.0548
一篇	-11.0548
花鸟	-11.0549
网站建设	-11.0549
食谱	-11.0549
中的应用	-11.0551
油脂	-11.0552
的教育	-11.0552
世界的	-11.0552
4.1	-11.0556
性疾病	-11.0556
的治疗	-11.0556
共建	-11.0557
市场经济	-11.0558
风采	-11.0559
团长	-11.056
▁据	-11.0561
中路	-11.0562
从业人员	-11.0562
冢	-11.0562
有个	-11.0562
队伍,	-11.0566
政协副主席	-11.0572
,并以	-11.0576
厄	-11.0578
新农村建设	-11.0578
省委党校	-11.0578
104	-11.0579
品牌,	-11.058
230	-11.058
客家	-11.0581
变动	-11.0581
,距县城	-11.0582
封建	-11.0583
委党校	-11.0584
考证	-11.0585
军人	-11.0585
标记	-11.0585
授课	-11.0586
保定	-11.0587
私立	-11.0588
边境	-11.0589
倾斜	-11.059
田径	-11.0591
重点项目	-11.0591
寂	-11.0593
1985	-11.0593
有色金属	-11.0593
为一体的综合性	-11.0594
老化	-11.0595
冤	-11.0595
扩散	-11.0596
仪、	-11.0597
风俗	-11.0598
规模最大的	-11.0598
▁上海	-11.0599
小镇	-11.06
汇集	-11.0603
自助	-11.0604
军团	-11.0604
记·	-11.0605
甲级	-11.0606
的文化	-11.0608
方形	-11.0609
红枣	-11.0609
4公里	-11.0611
录取	-11.0613
精神文明建设	-11.0613
,开展	-11.0614
看见	-11.0614
阎	-11.0614
。清	-11.0615
孵化	-11.0616
运转	-11.0616
为目标	-11.0616
两端	-11.0618
世界杯	-11.0619
过多	-11.0619
惨	-11.062
更高	-11.0621
,西与	-11.0622
的最大	-11.0622
示范学校	-11.0623
委员,	-11.0623
奠定了	-11.0624
去除	-11.0624
长寿	-11.0627
辅料	-11.0636
用以	-11.0638
求发展	-11.0639
神奇	-11.064
立足于	-11.064
其父	-11.0641
两位	-11.0641
密切	-11.0642
生意	-11.0643
能在	-11.0643
全年	-11.0644
1986	-11.0644
变为	-11.0647
楷	-11.0648
▁企业	-11.0648
部首:	-11.0649
种种	-11.065
中医学院	-11.065
,帮助	-11.065
桓	-11.0653
试图	-11.0654
光谱	-11.0656
工程施工	-11.0656
必然	-11.0657
所作	-11.0659
卑	-11.0661
理论与	-11.0662
6人	-11.0662
夺得	-11.0662
省委	-11.0665
夫妻	-11.0667
商人	-11.0667
基础知识	-11.0667
5米	-11.0668
中文系	-11.0669
▁(4)	-11.0671
而言,	-11.0671
糯	-11.0671
逝世	-11.0674
庆祝	-11.0675
等单位	-11.0676
城市规划	-11.0676
白色,	-11.0677
差别	-11.0677
平板	-11.0678
经济师	-11.068
藉	-11.0681
骏	-11.0683
肇	-11.0685
估计	-11.0685
选拔	-11.0685
袭击	-11.0685
知名的	-11.0686
峡谷	-11.0686
祖父	-11.0687
网点	-11.0688
第一批	-11.0689
伙	-11.069
一次性	-11.0692
体育馆	-11.0692
,打造	-11.0697
定向	-11.0698
辱	-11.0702
詹	-11.0702
学院院长	-11.0703
纳税	-11.0703
籍贯	-11.0704
捧	-11.0708
诸侯	-11.071
曝光	-11.071
,日本	-11.0712
路径	-11.0712
早熟	-11.0712
书,	-11.0712
校舍	-11.0713
澜	-11.0715
科植物	-11.0717
确	-11.0718
当事人	-11.072
夏天	-11.0722
专业毕业	-11.0722
▁电源	-11.0725
积分	-11.0729
金融机构	-11.073
许可	-11.073
陀	-11.0731
的高度	-11.0732
出租	-11.0732
任命	-11.0734
,那	-11.0734
洗涤	-11.0735
蘑菇	-11.0735
贸	-11.0738
橘	-11.0738
4号	-11.074
听到	-11.0741
中西	-11.0741
热点	-11.0743
9001	-11.0745
研究会会员	-11.0746
国家一级	-11.0747
1两	-11.0747
牙齿	-11.0748
证据	-11.0751
带来了	-11.0757
厘米,宽	-11.0757
、社会	-11.0758
国家重点	-11.0759
武帝	-11.0759
高新区	-11.076
满族	-11.0761
林场	-11.0761
—)	-11.0762
入住	-11.0762
1～	-11.0765
500米	-11.0766
芜湖	-11.0767
,改	-11.0768
发光	-11.0769
公关	-11.0769
驿	-11.077
鉴赏	-11.0771
第6	-11.0771
笃	-11.0772
摸	-11.0772
套房	-11.0776
作曲家	-11.0776
。”唐	-11.0777
深厚	-11.078
车型	-11.0783
质量管理体系	-11.0784
副会长	-11.0787
40%	-11.0789
将领	-11.0792
构件	-11.0792
辊	-11.0792
500克	-11.0794
专业学习	-11.0796
一一	-11.0798
区委	-11.0798
手中	-11.0803
链接	-11.0803
粮油	-11.0803
指定的	-11.0804
调控	-11.0804
侦察	-11.0806
也在	-11.0807
字体	-11.0808
人为	-11.0809
山药	-11.0809
畏	-11.0809
审美	-11.0811
很高	-11.0811
片、	-11.0814
海滨	-11.0816
经营理念	-11.0816
或其他	-11.0818
。对于	-11.0818
谜	-11.0819
1924年	-11.082
研究开发	-11.0821
编织	-11.0821
0°C	-11.0825
大方	-11.0826
种,	-11.0828
、网络	-11.083
要点	-11.0831
论著	-11.0832
点。	-11.0833
设计和	-11.0834
转入	-11.0834
赋》:“	-11.0835
流域	-11.0837
转动	-11.0838
1926年	-11.0841
副教授。	-11.0841
有限公司是一家	-11.0843
的角色	-11.0844
唐山	-11.0845
胚	-11.0845
负责全县	-11.0846
传染病	-11.0846
书画院	-11.0847
捣	-11.0849
霖	-11.085
被捕	-11.0851
,北与	-11.0853
奥林匹克	-11.0854
月刊	-11.0857
浓郁	-11.0858
>>	-11.0859
政协委员	-11.086
痴	-11.0863
所得	-11.0863
▁根据	-11.0864
第三方	-11.0865
项目位于	-11.0865
条,	-11.0866
生产销售	-11.0866
庭院	-11.0866
长时间	-11.0867
第八届	-11.0868
恒星	-11.0868
银杏	-11.0868
拼搏	-11.0869
曾为	-11.087
调理	-11.0872
。分布于	-11.0873
善良	-11.0873
皂	-11.0875
被迫	-11.0875
开工	-11.0876
名单	-11.0877
气势	-11.0879
按键	-11.0883
环境优雅	-11.0884
做成	-11.0884
海底	-11.0885
熔点	-11.0886
5.4	-11.0888
公式	-11.0888
食品有限公司	-11.0889
复兴	-11.0889
爱尔兰	-11.089
霉	-11.0891
油气	-11.0892
发展成为	-11.0892
,东临	-11.0893
龙泉	-11.0894
姐妹	-11.0894
小说《	-11.0895
司令	-11.0899
抗日战争	-11.09
太守	-11.09
期限	-11.09
杀人	-11.0901
现今	-11.0902
的经典	-11.0904
苞	-11.0904
调度	-11.0905
3克	-11.0908
9%	-11.091
新增	-11.0915
信任	-11.0916
管理模式	-11.0921
词语	-11.0924
食品安全	-11.0925
谓之	-11.0927
建设的	-11.0927
着力	-11.0929
依赖	-11.093
二十世纪	-11.093
0-	-11.093
正科级	-11.0932
千余	-11.0934
植被	-11.0935
中国人	-11.0935
硕士生导师	-11.0936
荣获“	-11.0939
1984	-11.094
立项	-11.0941
赋予	-11.0941
年间,	-11.0941
晕	-11.0942
建设,	-11.0942
か	-11.0944
将以	-11.0944
被认为是	-11.0947
外界	-11.0948
水域	-11.0949
捉	-11.0949
光线	-11.0949
回来	-11.095
斧	-11.0954
漳	-11.0956
南京大学	-11.0958
创伤	-11.0958
舒适的	-11.0959
生死	-11.096
访问学者	-11.0962
。1992年	-11.0963
1987	-11.0964
区级	-11.0965
讲究	-11.0966
参赛	-11.0967
立体声	-11.0968
缓慢	-11.0968
的学习	-11.0969
高频	-11.0971
勇敢	-11.0971
缩短	-11.0971
之内	-11.0972
个村民小组,	-11.0974
阻止	-11.0974
二十年	-11.0975
山林	-11.0975
总会	-11.0977
坂	-11.0978
,比对照	-11.0979
一二	-11.098
通话	-11.098
区的	-11.0981
6.2	-11.0981
,并有	-11.0982
7年	-11.0982
天才	-11.0984
姜片	-11.0984
烦恼	-11.0985
酚	-11.0985
学校。	-11.0989
机动	-11.0989
经济建设	-11.0993
戊	-11.0994
汀	-11.0994
芬兰	-11.0994
中医院	-11.0994
也就是	-11.0995
运营商	-11.0995
先进技术	-11.0996
硕士研究生导师	-11.0996
影响。	-11.0997
蜂蜜	-11.0997
无毒	-11.1
一间	-11.1
子孙	-11.1001
一边	-11.1002
共赢	-11.1002
协会常务理事	-11.1005
、日本	-11.1005
的速度	-11.1006
氯化	-11.1007
翘	-11.1007
专为	-11.1009
传真	-11.1009
城墙	-11.1009
出发	-11.1012
庆典	-11.1012
髓	-11.1013
配套设施	-11.1013
。擅长	-11.1015
以上。	-11.1015
的经验	-11.1016
经济管理	-11.1018
第7	-11.102
话题	-11.102
党组成员、	-11.102
设计院	-11.102
高雅	-11.1021
十余年	-11.1021
的结构	-11.1022
受到了	-11.1023
表现为	-11.1023
层面	-11.1025
烤烟	-11.1028
粗糙	-11.1029
沙滩	-11.1029
是一座	-11.103
议员	-11.103
每服	-11.1031
毫克	-11.1031
清光绪	-11.1031
校风	-11.1036
缴	-11.1036
修正	-11.1038
高手	-11.1038
,南与	-11.1039
农田	-11.104
,并于	-11.1041
仲裁	-11.1042
充足	-11.1044
事业的	-11.1046
场上	-11.1048
速率	-11.1049
方式。	-11.105
性强	-11.105
,待	-11.1053
技术与	-11.1053
1米	-11.1056
谈判	-11.1059
イ	-11.106
青铜	-11.1063
自愿	-11.1064
研制的	-11.1065
消灭	-11.1066
。1993年	-11.1067
热心	-11.1071
是将	-11.1071
客户提供	-11.1074
永久	-11.1075
口碑	-11.1076
报名	-11.1076
能力强	-11.1077
头发	-11.1077
迅	-11.1078
设备。	-11.1078
量的	-11.1081
工程有限公司	-11.1082
区分	-11.1083
铁矿	-11.1083
冰箱	-11.1084
,达到	-11.1086
持久	-11.1087
管、	-11.1087
大力发展	-11.1088
门,	-11.1089
兴起	-11.109
高低	-11.1091
习俗	-11.1091
抗菌	-11.1092
道具	-11.1094
才是	-11.1094
编纂	-11.1094
色素	-11.1096
姓名:	-11.1097
剩余	-11.1098
专家。	-11.11
饰品	-11.1102
哉	-11.1103
的实际	-11.1103
80年代	-11.1105
蔚	-11.1109
网球	-11.1112
的特殊	-11.1113
寺庙	-11.1113
:30	-11.1115
后代	-11.1116
,虽	-11.1116
,是一家集	-11.1116
于2012年	-11.1117
它们的	-11.1118
》人物之一。	-11.1118
变迁	-11.1118
起伏	-11.1118
,南邻	-11.1118
座落在	-11.112
闯	-11.112
不懈努力	-11.112
水流	-11.1122
屿	-11.1122
遵	-11.1122
火锅	-11.1123
金钱	-11.1124
高产	-11.1125
、香港	-11.1129
协会副会长	-11.1129
改建	-11.1131
世代	-11.1132
骗	-11.1133
远离	-11.1134
270	-11.1134
科协	-11.1135
环境下	-11.1136
妄	-11.1137
《新	-11.1138
目前已	-11.114
、建筑	-11.1141
镶	-11.1141
厉	-11.1142
沧	-11.1142
5.8	-11.1142
享誉	-11.1143
石刻	-11.1143
的大小	-11.1144
相机	-11.1145
成份	-11.1146
光荣	-11.1146
明亮	-11.1149
深加工	-11.115
债务	-11.1151
下方	-11.1152
炎症	-11.1152
,除了	-11.1153
最多的	-11.1154
更有	-11.1155
葱花	-11.1155
手指	-11.1156
甘蔗	-11.1157
全方位的	-11.1157
城南	-11.1158
结构,	-11.116
抬	-11.1161
名列	-11.1162
加水	-11.1164
既是	-11.1165
较长	-11.1165
设备和	-11.1166
椰	-11.1167
变换	-11.1167
取消	-11.1167
代表作	-11.1167
县长	-11.1168
催化	-11.1169
版权	-11.1173
日记	-11.1174
及其它	-11.1175
引用	-11.1175
了大量	-11.1178
实验室、	-11.1178
粟	-11.1178
,先	-11.1179
服。	-11.118
湿润	-11.1181
配电	-11.1182
极大的	-11.1183
此类	-11.1184
党委委员	-11.1191
分开	-11.1192
的生命	-11.1194
扰	-11.1195
深处	-11.1196
。1985年	-11.1197
的要求,	-11.1199
中学生	-11.1199
兵团	-11.1199
为中心	-11.1201
质量第一	-11.1201
曾被	-11.1201
(其中	-11.1202
版画	-11.1202
学研究	-11.1203
脱落	-11.1203
挪威	-11.1205
中文名称:	-11.1205
一直致力于	-11.1206
成功地	-11.1206
职位	-11.1207
20公里	-11.1207
下列	-11.1208
监视	-11.1208
研究领域	-11.1208
,2000年	-11.121
岭南	-11.1211
的各项	-11.1212
房子	-11.1213
2.9	-11.1214
长春市	-11.1214
一度	-11.1216
亿元。	-11.1218
脏	-11.1219
羊肉	-11.1219
凝聚	-11.1221
房、	-11.1222
集邮	-11.1223
。2011年	-11.1226
精准	-11.1228
103	-11.1228
,尤其	-11.123
祖籍	-11.1231
的人生	-11.1231
总工会	-11.1234
海口	-11.1235
病、	-11.1235
6.	-11.1236
变革	-11.1239
的战略	-11.1239
食堂	-11.1239
教育事业	-11.1241
舆	-11.1242
女神	-11.1242
0～	-11.1243
国家队	-11.1246
,北京	-11.1247
杀菌	-11.1253
)(	-11.1256
社会的	-11.1256
毫米,适宜种植	-11.1261
所著	-11.1262
底,	-11.1263
人力资源管理	-11.1265
又是	-11.1265
近期	-11.1266
,注册资金	-11.1267
怪物	-11.1268
桔	-11.1272
地表	-11.1272
易学	-11.1272
斑点	-11.1273
服役	-11.1274
中央空调	-11.1274
蛙	-11.1275
俄国	-11.1275
立志	-11.1275
万亩,	-11.1276
传统文化	-11.1277
行业中	-11.1278
1999	-11.1278
作品。	-11.1278
召唤	-11.1279
新能源	-11.1279
共同发展	-11.1281
、、、、	-11.1281
珠江	-11.1282
声誉	-11.1285
誓	-11.1285
产业链	-11.1285
总占地面积	-11.1286
136	-11.1286
关联	-11.1286
“大	-11.1287
:10	-11.1287
追求卓越	-11.1288
专长	-11.1288
后再	-11.1292
风景名胜区	-11.1294
深造	-11.1294
香料	-11.1294
丽江	-11.1295
之。”	-11.1301
研究的	-11.1301
公办	-11.1303
月份	-11.1304
三年(	-11.1304
,也就是	-11.1305
购物中心	-11.1305
投入使用	-11.1306
风貌	-11.1309
叶柄	-11.1314
内容包括	-11.1314
》;	-11.1318
西瓜	-11.1318
弊	-11.132
相比,	-11.132
▁第三节	-11.1321
姐姐	-11.1321
的认可	-11.1322
380	-11.1324
黛	-11.1325
织物	-11.1325
7.2	-11.1326
贯彻落实	-11.1327
林木	-11.1329
倪	-11.133
喘	-11.1331
,故称	-11.1331
迭	-11.1334
阵地	-11.1336
店铺	-11.1337
▁作为	-11.1338
用心	-11.1338
范围:	-11.1339
、创新	-11.134
,离	-11.134
长子	-11.1343
分工	-11.1346
配以	-11.1347
收录了	-11.1347
系统。	-11.1347
尽量	-11.1347
合作社	-11.1347
报社	-11.1348
博士,	-11.135
牟	-11.1351
动员	-11.1351
实用性	-11.1354
m2	-11.1356
▁『	-11.1357
地块	-11.1358
娶	-11.1358
北纬	-11.1358
熟练	-11.1359
了一	-11.1361
部副部长	-11.1365
邢	-11.1366
含义	-11.1366
系主任	-11.1367
敲	-11.1368
死后	-11.1369
泳	-11.1371
很好	-11.1371
领导班子	-11.1372
,2009年	-11.1374
救助	-11.1377
理论与实践	-11.1377
后被	-11.1377
歌唱	-11.138
颇具	-11.1384
整治	-11.1388
汇编	-11.1388
社区居委会	-11.139
忆	-11.139
1两,	-11.1391
每周	-11.1391
鳍	-11.1391
碰	-11.1392
研究,	-11.1393
管理学院	-11.1395
,随	-11.1395
上帝	-11.1397
亿美元	-11.1399
华丽	-11.1399
,使其	-11.1399
斯克	-11.14
聪	-11.1402
龚	-11.1402
晖	-11.1402
也就	-11.1402
曾担任	-11.1403
广阔的	-11.1404
曰:	-11.1404
。2000年	-11.1406
等相关	-11.1406
山水画	-11.1407
参加过	-11.1408
首个	-11.1408
衫	-11.1409
万年	-11.141
佛山市	-11.1411
求实	-11.1411
之战	-11.1412
淫	-11.1415
溶于	-11.1415
口,	-11.1415
研究员,	-11.1416
歇	-11.1416
世人	-11.1417
迎接	-11.1417
颐	-11.1419
彻	-11.1419
步枪	-11.1419
。他的	-11.142
,担任	-11.142
岱	-11.142
建设和	-11.1421
研究。	-11.1421
氨酸	-11.1423
伊斯兰教	-11.1425
,加上	-11.1426
于2004年	-11.1426
合一	-11.1426
▁8	-11.1427
行列	-11.1428
太极	-11.1428
历史的	-11.1428
250克	-11.1429
广电	-11.143
需求,	-11.143
面积约	-11.1431
“全国	-11.1432
。当时	-11.1432
严格按照	-11.1433
石家庄市	-11.1433
迦	-11.1433
迫	-11.1434
班级	-11.1435
微博	-11.1436
镶嵌	-11.1436
,占	-11.1437
升高	-11.1438
骨折	-11.1438
”的经营理念,	-11.1438
山下	-11.1439
体育场	-11.1439
花期	-11.144
。1998年	-11.1441
的道路	-11.1442
开封	-11.1444
排骨	-11.1446
学会会员,	-11.1447
不等	-11.1449
众多的	-11.1449
(2	-11.1451
的形象	-11.1453
调查研究	-11.1453
超声	-11.1453
健脾	-11.1455
名义	-11.1459
喙	-11.1459
违	-11.1459
ス	-11.146
赛车	-11.1461
两国	-11.1461
网民	-11.1461
分割	-11.1462
蹄	-11.1463
行走	-11.1464
生产力	-11.1465
数:	-11.1467
举行的	-11.1467
,参加了	-11.1469
自然保护区	-11.1471
游击	-11.1472
另一种	-11.1472
较低	-11.1474
带宽	-11.1475
的情况下,	-11.1475
非法	-11.1482
金银	-11.1482
支架	-11.1483
梳	-11.1483
4项	-11.1483
烯	-11.1483
居士	-11.1484
岁的	-11.1484
孩子的	-11.1484
裹	-11.1485
直达	-11.1486
扁平	-11.1489
哨	-11.149
,交通便利。	-11.1493
将来	-11.1493
长途	-11.1495
团队,	-11.1495
价值的	-11.1496
民办	-11.1499
条纹	-11.15
模糊	-11.15
委员、	-11.1501
脱离	-11.1502
沿岸	-11.1503
惑	-11.1504
菊花	-11.1504
乡镇企业	-11.1504
研究人员	-11.1507
命题	-11.1507
郝	-11.1507
首领	-11.1508
明白	-11.1508
即时	-11.1511
未能	-11.1511
如意	-11.1513
一世	-11.1516
的支持	-11.1516
使用者	-11.1517
,以便	-11.1519
炫	-11.1521
中文名:	-11.1524
▁自	-11.1525
核心期刊	-11.1525
北海	-11.1525
气味	-11.1526
轻工	-11.1527
办事	-11.1527
总工程师	-11.1529
销量	-11.1531
中日	-11.1532
。1995年	-11.1534
107	-11.1534
烷	-11.1535
遵守	-11.1536
悬挂	-11.1536
4.6	-11.1538
查看	-11.1538
▁2004年	-11.1539
装有	-11.1539
目的是	-11.1541
的女儿	-11.1541
等国	-11.1543
位居	-11.1543
产品开发	-11.1544
ㄨ	-11.1544
高新	-11.1544
工作委员会	-11.1544
零部件	-11.1546
社区位于	-11.1546
活血	-11.1548
先后担任	-11.1548
米,宽	-11.1548
线、	-11.1549
时光	-11.1551
直至	-11.1551
有两个	-11.1553
教育局	-11.1554
地段	-11.1555
研究机构	-11.1555
客户服务	-11.1555
焕	-11.1556
生粉	-11.1558
古镇	-11.156
占据	-11.1561
分支机构	-11.1564
,1998年	-11.1565
为基础,	-11.1566
洪水	-11.1568
举人	-11.1568
的通知	-11.1572
1982	-11.1572
市教育局	-11.1574
排出	-11.1575
,并与	-11.1575
服务机构	-11.1575
著称	-11.1576
全套	-11.1576
试剂	-11.1579
垦	-11.1582
炙	-11.1582
南瓜	-11.1582
文集	-11.1582
兽医	-11.1583
商业银行	-11.1583
演化	-11.1587
车、	-11.1587
12月生,	-11.1587
鲸	-11.1588
100多	-11.1591
设施齐全	-11.1593
成套	-11.1594
的经济	-11.1596
市长	-11.1596
直观	-11.1596
人均收入	-11.1599
河西	-11.16
无论是	-11.1602
灼	-11.1603
磁盘	-11.1606
长篇	-11.1606
720	-11.1607
畸形	-11.1607
有线电视	-11.161
障	-11.161
的老	-11.161
,按照	-11.1611
探险	-11.1611
国学	-11.1611
,总面积	-11.1611
于2003年	-11.1612
时间内	-11.1612
静态	-11.1613
蒸发	-11.1614
茯苓	-11.1615
距离村委会	-11.1615
191	-11.1617
4.4	-11.1619
调味料	-11.1619
前身是	-11.162
50克,	-11.162
第九届	-11.1621
承载	-11.1621
2/	-11.1621
前者	-11.1622
蓄	-11.1622
奖,	-11.1624
流派	-11.1625
行使	-11.1625
堵	-11.1625
站、	-11.1628
磁场	-11.1629
经验。	-11.1629
合理的	-11.163
利率	-11.163
3/	-11.1631
香气	-11.1632
排除	-11.1632
于此	-11.1633
开拓创新	-11.1633
损坏	-11.1635
开阔	-11.1636
8公里	-11.1636
聚合物	-11.1637
麻油	-11.1637
演唱会	-11.1639
及应用	-11.1639
株高	-11.164
的孩子	-11.164
民用	-11.164
▁四、	-11.1641
法兰	-11.1643
博览	-11.1645
土木工程	-11.1646
碱性	-11.1648
脐	-11.1649
,它的	-11.165
故里	-11.1652
蝉	-11.1652
陆地	-11.1652
农家	-11.1653
干旱	-11.1654
名牌产品	-11.1655
20个	-11.1656
的一款	-11.1656
,仍	-11.1657
崛起	-11.1657
一方面	-11.1658
抛光	-11.1658
123	-11.1658
村委会,属于山区。	-11.1658
高素质的	-11.1659
太祖	-11.166
法定	-11.1661
约翰·	-11.1663
罗斯	-11.1663
板材	-11.1666
情况,	-11.1666
酸性	-11.1668
毗	-11.1671
场合	-11.1672
胸部	-11.1672
搬	-11.1677
戚	-11.1678
15年	-11.1678
。因此	-11.1683
至今在	-11.1685
认同	-11.1687
输入法	-11.1689
聘为	-11.169
插入	-11.1691
在他	-11.1692
将在	-11.1693
馨	-11.1696
临床医学	-11.1696
特有	-11.1703
行,	-11.1703
一站式	-11.1705
决心	-11.1705
之心	-11.1706
ㄐㄧ	-11.1707
书》:“	-11.1708
狭窄	-11.1709
过来	-11.1711
。1997年	-11.1712
煮熟	-11.1712
次数	-11.1714
亩,建筑面积	-11.1714
扶持	-11.1716
毕业。	-11.1716
,故名	-11.1717
北京师范大学	-11.1718
这张卡	-11.1718
。所以	-11.172
之称	-11.172
文人	-11.172
慰	-11.172
互助	-11.1722
楷书	-11.1722
绿化率	-11.1722
镀	-11.1723
亚热带	-11.1724
十二年	-11.1725
嵩	-11.1726
们的	-11.1726
贴近	-11.1726
抓住	-11.1731
休闲娱乐	-11.1732
企业。公司	-11.1732
体质	-11.1733
沸	-11.1738
冰川	-11.1739
股份制	-11.1742
宋·	-11.1743
法、	-11.1743
无效	-11.1744
空心	-11.1745
方正	-11.1745
该项目	-11.1751
,1996年	-11.1752
美人	-11.1753
6.0	-11.1753
安定	-11.1754
4.7	-11.1755
扬声器	-11.1758
情人	-11.1758
三月	-11.1758
“五	-11.1759
、红	-11.176
调试	-11.176
122	-11.1762
腌制	-11.1763
室,	-11.1763
的心	-11.1764
,1985年	-11.1764
参考。	-11.1767
指挥部	-11.1767
薇	-11.1767
很大的	-11.1768
广义	-11.177
实践经验	-11.1773
神秘的	-11.1775
法语	-11.1776
侧面	-11.1776
编写的	-11.1776
方程	-11.1777
就要	-11.1778
涵盖了	-11.1779
匙	-11.178
漂	-11.1782
恶魔	-11.1782
一大	-11.1783
协会会员	-11.1783
忠诚	-11.1783
舰队	-11.1784
服务体系	-11.1786
事务所	-11.1788
参照	-11.179
苗木	-11.1791
驳	-11.1793
敦煌	-11.1793
乒乓球	-11.1793
。1994年	-11.1794
每月	-11.1794
10月出生,	-11.1797
展示了	-11.1797
温柔	-11.1797
▁五	-11.1799
生抽	-11.1799
学士学位	-11.18
、山东	-11.1803
抓好	-11.1803
博士研究生	-11.1803
。2001年	-11.1804
企业发展	-11.1804
的最高	-11.1805
11个	-11.1805
有名的	-11.1806
解除	-11.1808
建筑师	-11.1808
熏	-11.1809
溜	-11.1809
剧《	-11.1814
寓意	-11.1815
不了	-11.1815
ル	-11.1815
静电	-11.1815
金华	-11.1817
的优势	-11.1817
.....	-11.1818
批准,	-11.1819
金石	-11.182
本来	-11.1822
庄园	-11.1822
科副科长	-11.1823
触摸屏	-11.1824
1个,	-11.1824
专科学校	-11.1826
年轻人	-11.1827
有限公司位于	-11.1827
不起	-11.1827
如果你	-11.1828
经验丰富	-11.1829
皱	-11.1831
先后被评为	-11.1831
数目	-11.1832
批准的	-11.1833
及各种	-11.1833
培训机构	-11.1834
伦理	-11.1835
天门	-11.1835
2～	-11.1837
和中国	-11.1838
职能部门	-11.1844
形似	-11.1844
教导	-11.1845
妈	-11.1845
し	-11.1847
宝贝	-11.1849
概括	-11.185
研发中心	-11.1851
以此	-11.1852
谏	-11.1852
的知识	-11.1853
工件	-11.1854
亏	-11.1854
7000	-11.1855
焖	-11.1856
昆山	-11.1857
皮肤病	-11.1857
矿产资源	-11.1858
平滑	-11.1858
背光	-11.1858
食用。	-11.1858
、商务	-11.1858
樱	-11.1858
道理	-11.1858
该产品	-11.1858
南岸	-11.1859
来电	-11.1859
平均亩产	-11.1859
工商管理	-11.186
188	-11.186
库存	-11.1862
广泛用于	-11.1862
受伤	-11.1862
在校	-11.1865
窃	-11.1867
泉水	-11.1868
款式	-11.1868
小游戏	-11.1868
淮南	-11.1869
委委员	-11.1872
公司位于	-11.1872
农林	-11.1874
时钟	-11.1875
5克,	-11.1876
整机	-11.1877
所长	-11.1877
牵引	-11.1877
污水	-11.1878
隅	-11.188
后世	-11.188
信息的	-11.1883
财会	-11.1883
以色列	-11.1886
楼、	-11.1886
法律、法规	-11.1886
郊区	-11.1889
嘉靖	-11.189
蛾	-11.1891
工商联	-11.1891
砍	-11.1891
即是	-11.1892
以太网	-11.1894
社会保障	-11.1895
威尔	-11.1895
,放	-11.1895
景德镇	-11.1896
黄色,	-11.1898
大海	-11.1898
猜	-11.1899
阐述了	-11.1902
干线	-11.1904
提供一个	-11.1905
万历	-11.1906
121	-11.1907
单纯	-11.1907
山乡	-11.1908
国家的	-11.1909
驴	-11.1909
地区。	-11.1911
关系的	-11.1912
外观设计	-11.1914
工商局	-11.1915
那种	-11.1916
也很	-11.1918
邀	-11.1921
出发,	-11.1921
重点中学	-11.1921
,受	-11.1923
故居	-11.1924
油、	-11.1924
。1996年	-11.1925
洽谈	-11.1925
帧	-11.1926
执业	-11.1928
虑	-11.1928
全军	-11.1929
体系。	-11.1931
助教	-11.1931
。2012年	-11.1932
。1988年	-11.1932
一小	-11.1935
沥青	-11.1938
注册资本	-11.1938
储量	-11.1939
,西邻	-11.194
占地1	-11.194
谨	-11.194
交汇	-11.1941
状。	-11.1942
十五年	-11.1946
刚刚	-11.1947
与时俱进	-11.1947
执教	-11.1948
文化产业	-11.1949
),是	-11.195
丰县	-11.1952
事业部	-11.1953
江区	-11.1953
交界处	-11.1954
岁,	-11.1955
较好的	-11.1957
基础教育	-11.1958
呆	-11.1959
人民出版社	-11.1959
。1984年	-11.196
晚会	-11.1961
学习,	-11.1962
过滤器	-11.1963
裔	-11.1963
酿	-11.1965
学派	-11.1965
项目管理	-11.1966
5.3	-11.1966
的需要,	-11.1967
生产加工	-11.1967
各异	-11.1969
手持	-11.1969
变成了	-11.1969
衡阳	-11.1969
)字	-11.1969
年轻的	-11.197
做事	-11.197
不得不	-11.1971
供奉	-11.1971
,导致	-11.1973
襄阳	-11.1973
而被	-11.1974
冷藏	-11.1975
的销售	-11.1975
为你	-11.1977
罗汉	-11.1978
曾先后	-11.1982
器物	-11.1982
顽	-11.1982
航海	-11.1984
芳香	-11.1984
感受到	-11.1984
心情	-11.1985
,北邻	-11.1985
婉	-11.1986
材料:	-11.1986
开心	-11.1987
注册资金	-11.1988
违反	-11.1988
、旅游	-11.1989
出版的	-11.199
研究工作	-11.199
,1986年	-11.199
15个	-11.1991
高精度	-11.1991
,推动	-11.1992
人们的	-11.1992
模仿	-11.1993
、最	-11.1993
刊物上发表	-11.1994
汕头	-11.1994
生活。	-11.1994
,兼	-11.1995
美术家协会会员	-11.1996
范畴	-11.1998
175	-11.1998
特定的	-11.1998
备份	-11.1998
墓地	-11.1999
青花	-11.2002
,1988年	-11.2004
已在	-11.2005
-17	-11.2006
是您	-11.2007
特点是	-11.2008
刑法	-11.2009
大奖赛	-11.2011
金陵	-11.2012
站址在	-11.2013
后裔	-11.2014
期望	-11.2014
演员,	-11.2016
村隶属于云南省	-11.2017
,1992年	-11.2018
,主持	-11.202
,一直	-11.202
,只是	-11.202
分辨率:	-11.2021
最有	-11.2022
商业街	-11.2022
八路军	-11.2024
的父亲	-11.2024
的整体	-11.2025
碘	-11.2027
个村民小组	-11.2029
决赛	-11.2029
参展	-11.203
饥	-11.2031
击败	-11.2031
多位	-11.2032
本科毕业	-11.2032
体的	-11.2033
卷,	-11.2033
炎、	-11.2034
а	-11.2037
6.3	-11.2039
相连,	-11.2039
眠	-11.2041
加入了	-11.2041
低压	-11.2041
炮兵	-11.2042
计算机网络	-11.2044
亚种	-11.2044
九五	-11.2044
荧光	-11.2045
热门	-11.2045
友人	-11.2046
草本	-11.2046
70%	-11.2046
局域网	-11.2047
祖先	-11.2048
,实行	-11.205
贩	-11.2052
东区	-11.2052
产品和服务	-11.2052
旗下的	-11.2053
落叶	-11.2053
之首	-11.2053
密被	-11.2054
客车	-11.2054
傍	-11.2056
,1995年	-11.2057
维奇	-11.2057
30余	-11.2057
线性	-11.2058
矿石	-11.2058
聂	-11.2059
已知	-11.206
是全国	-11.2061
器具	-11.2062
,2001年	-11.2063
7人,	-11.2063
解毒	-11.2064
获得者	-11.2064
登上	-11.2064
纹,	-11.2065
黑客	-11.2066
葡萄牙	-11.2068
1988	-11.2069
人选	-11.2069
的空间	-11.207
贯彻执行	-11.2071
规模的	-11.2072
经验丰富的	-11.2072
无毛	-11.2077
1只	-11.2077
金色	-11.208
缀	-11.2081
310	-11.2081
来了	-11.2082
较早	-11.2084
否	-11.2084
宛	-11.2085
5月,	-11.2086
不超过	-11.2087
脓	-11.2088
萼	-11.2093
6公里	-11.2094
存放	-11.2094
专业委员会委员	-11.2096
,旨在	-11.2097
庄镇	-11.2097
市公安局	-11.2098
于2002年	-11.21
存款	-11.2103
发表于	-11.2105
搜索引擎	-11.2106
五月	-11.2107
小火	-11.2108
孜	-11.2109
非凡	-11.211
种植业	-11.2112
法官	-11.2112
夫妇	-11.2112
让他	-11.2112
荆州	-11.2113
1925年	-11.2114
。”明	-11.2117
上海交通大学	-11.2118
邻近	-11.212
充电器	-11.2121
α	-11.2123
破碎	-11.2123
绒毛	-11.2124
苞片	-11.2124
,1993年	-11.2126
不同于	-11.2127
建立起	-11.2128
行星	-11.2129
筛选	-11.2129
饱和	-11.2134
福州市	-11.2137
罚	-11.2137
。2.	-11.2137
;有	-11.2139
184	-11.2141
高素质	-11.2141
处、	-11.2142
卡尔	-11.2144
成形	-11.2146
缠	-11.2146
176	-11.2148
侍郎	-11.2148
的风格	-11.215
市场需求	-11.215
退役	-11.215
机车	-11.2152
疑难	-11.2152
花岗岩	-11.2155
诗集	-11.2155
参军	-11.2156
双赢	-11.2156
门外	-11.2157
壹	-11.2157
为之	-11.2158
棠	-11.2158
的真实	-11.2163
通行	-11.2165
不够	-11.2166
118	-11.2166
预报	-11.2166
中山市	-11.2167
全局	-11.2167
爷	-11.217
之情	-11.2171
药学	-11.2171
▁酒店	-11.2172
节点	-11.2173
气血	-11.2174
十月	-11.2177
学术会议	-11.2179
++	-11.218
超声波	-11.218
斥	-11.218
15公里	-11.218
研究》、《	-11.2181
骂	-11.2182
建设、	-11.2185
活动室	-11.2185
天线	-11.2186
君主	-11.2186
这本书	-11.2187
,实现了	-11.2187
的前身是	-11.2187
染色体	-11.2187
有毒	-11.2188
轻轻	-11.2189
近似	-11.2189
卡通	-11.219
黄酒	-11.2191
管理学	-11.2192
建筑材料	-11.2195
1月1日	-11.2196
栽	-11.2196
约束	-11.2196
科主任	-11.2196
▁当	-11.2197
淡黄色	-11.2197
盛产	-11.2198
,从此	-11.2198
暂时	-11.2199
诛	-11.2201
168	-11.2201
课堂教学	-11.2202
游人	-11.2203
委书记	-11.2204
科学研究院	-11.2205
东面	-11.2205
,1987年	-11.2206
线,	-11.2207
6.8	-11.2207
配备了	-11.2207
无所	-11.2208
,防止	-11.2209
明·	-11.2211
腕	-11.2212
心里	-11.2213
▁2003年	-11.2215
音效	-11.2216
衍生	-11.2218
公司产品	-11.222
省会	-11.2224
。1999年	-11.2225
公司生产的	-11.2226
台阶	-11.2226
足以	-11.2228
其主要	-11.2228
账户	-11.2229
保护区	-11.2233
中场	-11.2235
,适合	-11.2236
稠	-11.2236
东临	-11.2236
1923年	-11.2238
,但在	-11.2238
宰	-11.2239
南边	-11.224
得知	-11.2241
哦	-11.2242
之一的	-11.2242
深深	-11.2246
模板	-11.2246
特级教师	-11.2248
贝壳	-11.2248
11月生,	-11.2248
大学中文系	-11.2248
真实的	-11.2249
即使	-11.225
而得名	-11.225
钱币	-11.2251
都不	-11.2251
た	-11.2252
1300	-11.2254
30多	-11.2257
办公厅	-11.2257
10万	-11.2257
主要生产	-11.2257
,每个	-11.2257
虾仁	-11.2257
村落	-11.2258
。1958年	-11.2258
未来的	-11.2259
成为中国	-11.226
肥料	-11.2262
法则	-11.2264
定为	-11.2266
。若	-11.2269
的城市	-11.2269
和应用	-11.227
水平。	-11.227
,全国	-11.227
敛	-11.2271
人均耕地	-11.2273
七十	-11.2276
专任教师	-11.2276
佛像	-11.2276
过度	-11.2277
为目的	-11.2278
陷入	-11.2278
穿着	-11.2278
市场,	-11.2279
存在于	-11.2284
产后	-11.2286
石英	-11.2286
职场	-11.2287
核准	-11.2287
珊	-11.2287
发售	-11.2287
部。	-11.2289
以东	-11.229
集装箱	-11.2291
。1990年	-11.2293
低碳	-11.2293
其作品	-11.2294
更大的	-11.2295
了大量的	-11.2295
龙潭	-11.2296
背部	-11.2296
纶	-11.2297
,1997年	-11.2298
1400	-11.2298
打破	-11.2298
用户提供	-11.2299
艺术设计	-11.2303
壮大	-11.2303
抗癌	-11.2308
《中华	-11.2309
波斯	-11.2309
羽毛	-11.2309
酬	-11.2309
强制	-11.2311
另一方面	-11.2312
处处	-11.2313
北魏	-11.2313
各方面	-11.2315
孕妇	-11.2315
自杀	-11.2316
大专文化	-11.2317
作为一个	-11.2317
导向	-11.2318
于一体,	-11.2319
-01	-11.2319
磁性	-11.2319
的成绩	-11.232
,并对	-11.2321
玻璃钢	-11.2322
堆积	-11.2322
113	-11.2323
。每	-11.2324
规章	-11.2325
-2-	-11.2325
性好	-11.2327
负担	-11.2327
强力	-11.2328
关爱	-11.2329
不出	-11.2332
外来	-11.2332
,倒入	-11.2333
妊娠	-11.2334
一等奖。	-11.2335
簿	-11.2335
真人	-11.2335
等部门	-11.2337
拆迁	-11.2337
劳务	-11.2339
知名企业	-11.234
重型	-11.234
一样的	-11.2344
可爱的	-11.2345
为国家	-11.2347
传记	-11.2348
19世纪	-11.2349
电容	-11.235
照顾	-11.2353
社交	-11.2353
屠	-11.2353
深厚的	-11.2354
运算	-11.2355
造成的	-11.2356
传世	-11.2357
爸爸	-11.2357
电动机	-11.2357
松江	-11.2357
直播	-11.2359
被选为	-11.2359
拟任	-11.2359
春季	-11.2361
奖学金	-11.2362
畜牧业	-11.2362
开辟	-11.2363
裂片	-11.2364
愿意	-11.2364
札	-11.2365
134	-11.2365
里亚	-11.2367
,是集	-11.2367
药剂	-11.2369
褒	-11.2369
三亚	-11.237
搜集	-11.237
夸	-11.2371
四种	-11.2372
动人	-11.2373
目录下	-11.2374
藏族	-11.2374
染料	-11.2376
奠基	-11.2377
开发建设	-11.2377
汶	-11.2378
之前,	-11.2381
▁本公司	-11.2382
1989	-11.2382
瞻	-11.2382
住在	-11.2383
力度	-11.2383
约定	-11.2384
羌	-11.2385
优点	-11.2385
条约	-11.2386
新材料	-11.2388
严重的	-11.2389
拒	-11.239
委员会主任	-11.2392
揽	-11.2394
的制作	-11.2394
的业务	-11.2394
药用	-11.2395
企业提供	-11.2396
。1989年	-11.24
服务业	-11.24
850	-11.2401
藕	-11.2402
多年生草本	-11.2402
学报》	-11.2403
研究与	-11.2403
营运	-11.2403
别名:	-11.2404
即位	-11.2404
一把	-11.2408
。其中,	-11.2408
,成立于	-11.2408
域名	-11.2409
公子	-11.2411
50年	-11.2412
小孩	-11.2413
山东大学	-11.2416
机型	-11.2416
60余	-11.2416
增多	-11.2416
股、	-11.2417
月亮	-11.2418
人大常委会副主任	-11.2419
村民委员会	-11.242
偶然	-11.242
岔	-11.242
2名	-11.2421
民歌	-11.2421
睿	-11.2422
建筑风格	-11.2423
试题	-11.2423
不含	-11.2425
是香港	-11.2425
主要产品	-11.2428
黑褐色	-11.2429
退出	-11.2432
榕	-11.2433
下入	-11.2434
可使	-11.2436
早已	-11.2436
蛋糕	-11.2436
管理软件	-11.2438
年产值	-11.2438
芹菜	-11.2439
肝病	-11.244
う	-11.2441
的良好	-11.2441
阶级	-11.2441
组装	-11.2441
,更是	-11.2441
校址	-11.2443
保健品	-11.2445
组建的	-11.2445
星系	-11.2446
世间	-11.2446
每一位	-11.2446
晏	-11.2449
县境内	-11.2451
国土	-11.2452
旧时	-11.2452
美化	-11.2453
健康发展	-11.2454
(以下简称	-11.2455
视为	-11.2458
《大	-11.2458
开发商	-11.246
(-	-11.2461
太多	-11.2461
学院教授	-11.2462
一根	-11.2463
经营的	-11.2465
童年	-11.2466
把它	-11.2467
管理咨询	-11.2467
快速发展	-11.2467
的身份	-11.2467
万人,	-11.2468
数年	-11.2468
可以用	-11.2468
叫“	-11.2471
304	-11.2472
九江	-11.2472
竭	-11.2473
个别	-11.2475
现任中共	-11.2476
养殖业	-11.2476
其余	-11.2476
的首选	-11.2477
冠心病	-11.2478
的地位	-11.248
:9	-11.2483
酒精	-11.2484
黄油	-11.2484
剧场	-11.2484
椎	-11.2485
之事	-11.2487
方针,	-11.249
分析和	-11.249
5厘米	-11.2492
诀	-11.2494
英特尔	-11.2496
星级	-11.2497
总体规划	-11.2499
农民人均纯收入	-11.25
,非	-11.25
。建于	-11.2502
电子产品	-11.2504
、无	-11.2504
变化,	-11.2507
颜料	-11.251
染色	-11.251
做人	-11.251
身心	-11.251
权限	-11.2511
科目	-11.2511
所用	-11.2511
马铃薯	-11.2511
生产和	-11.2512
外面	-11.2512
清乾隆	-11.2513
,1999年	-11.2513
台、	-11.2514
支出	-11.2514
流行的	-11.2516
实力雄厚	-11.2518
5项	-11.2519
中文名称	-11.2519
篇论文	-11.2519
国际市场	-11.2521
他还	-11.2521
水位	-11.2522
一八	-11.2524
▁随着	-11.2524
稳健	-11.2524
人民政府批准	-11.2525
简历	-11.2526
重点实验室	-11.2526
卡片	-11.2527
自称	-11.253
的文件	-11.253
窟	-11.2531
抑	-11.2531
笔画	-11.2532
关系,	-11.2533
工程”	-11.2533
开发出	-11.2535
碰撞	-11.2535
8.2	-11.2537
茄	-11.2538
源县	-11.254
壮观	-11.2543
特效	-11.2543
去年	-11.2544
橄榄	-11.2545
5名	-11.2545
三十年	-11.2546
中国书画	-11.2547
侵略	-11.2547
钓	-11.2547
食盐	-11.2547
子宫	-11.2548
编入	-11.2549
酿酒	-11.2549
,2010年	-11.255
撇	-11.2552
设计制造	-11.2552
前景	-11.2552
必要的	-11.2552
型号:	-11.2556
未知	-11.2557
足球运动员	-11.2557
甲状腺	-11.2557
积极开展	-11.2558
40年	-11.2558
客商	-11.2559
参与了	-11.2559
造诣	-11.2559
一九八	-11.2561
遭受	-11.2562
方法和	-11.2563
癌症	-11.2563
°C,	-11.2563
燥	-11.2564
精髓	-11.2565
者为	-11.2565
意味着	-11.2569
日文	-11.2569
,基部	-11.257
、休闲	-11.2571
全村共有	-11.2573
。指	-11.2575
尔斯	-11.2575
娄	-11.2579
一说	-11.2579
万物	-11.258
经验的	-11.2581
会馆	-11.2582
】	-11.2583
媒	-11.2584
茸	-11.2584
号召	-11.2586
客户端	-11.2586
社会发展	-11.2587
之外,	-11.2587
地下水	-11.2588
独创	-11.2589
氨基	-11.2589
焦点	-11.259
杀手	-11.2592
-),	-11.2592
距县城	-11.2597
科研机构	-11.2598
棵	-11.26
究竟	-11.26
荚	-11.2602
13个	-11.2603
你可以	-11.2607
衷	-11.2607
描	-11.2608
锯齿	-11.2609
-30	-11.2609
会在	-11.261
班主任	-11.261
。1986年	-11.2612
向南	-11.2613
肽	-11.2616
研发、	-11.2616
了一批	-11.2617
坞	-11.2617
200克	-11.2617
上世纪	-11.2618
。1982年	-11.2621
公告	-11.2622
理论和	-11.2625
水泵	-11.2625
钵	-11.2626
媚	-11.2628
交互	-11.2629
。1991年	-11.2629
致力于为	-11.2629
触摸	-11.2629
圣地	-11.263
开始,	-11.2631
腹地	-11.2631
用房	-11.2632
70年代	-11.2634
纵向	-11.2635
具有良好的	-11.2636
石膏	-11.2638
前身	-11.2638
外侧	-11.2638
学院副院长	-11.2639
挑选	-11.264
服务商	-11.264
职业学院	-11.264
清香	-11.2641
民航	-11.2641
主干道	-11.2642
制度,	-11.2642
的规定	-11.2642
画廊	-11.2642
同时还	-11.2643
演员。	-11.2643
落后	-11.2644
适于	-11.2648
当作	-11.2649
迁移	-11.2649
校内	-11.2651
,总投资	-11.2651
还会	-11.2652
工农	-11.2652
液晶	-11.2652
自觉	-11.2652
不必	-11.2652
1980	-11.2653
个教学班,	-11.2653
32.	-11.2653
矣。”	-11.2654
欧阳	-11.2656
华盛顿	-11.266
六大	-11.266
彝族	-11.2661
一般的	-11.2661
意为	-11.2662
纸张	-11.2664
灯具	-11.2664
公安局	-11.2665
化肥	-11.2668
成年	-11.2668
小品	-11.2669
工程专业	-11.2669
马尔	-11.2669
。明	-11.2669
先将	-11.267
瓯	-11.267
汕头市	-11.2671
二中	-11.2671
发展趋势	-11.2671
御史	-11.2673
好像	-11.2673
过敏	-11.2677
潜在	-11.2678
简易	-11.268
乳腺	-11.2681
亚军	-11.2682
+2	-11.2683
滕	-11.2684
向下	-11.2684
服务平台	-11.2684
页面	-11.2684
突出贡献	-11.2684
•	-11.2686
的努力	-11.2686
5.7	-11.2686
违法	-11.2686
的独特	-11.2687
末,	-11.2687
电能	-11.2688
爵士	-11.2689
高质量的	-11.2689
楹联	-11.2691
不管	-11.2692
的环境	-11.2693
唱歌	-11.2693
地狱	-11.2695
竟然	-11.2698
污水处理	-11.2701
相互作用	-11.2703
3月,	-11.2704
16个	-11.2705
东亚	-11.2707
院内	-11.2707
拘	-11.2708
创刊	-11.2709
指导下	-11.271
卦	-11.2711
两边	-11.2711
档次	-11.2713
用电	-11.2713
国营	-11.2714
》()	-11.2715
刊登	-11.2715
城内	-11.2715
顺德	-11.2715
河镇	-11.2716
会上	-11.2717
灵感	-11.2721
管理处	-11.2722
网站。	-11.2723
伊朗	-11.2725
,总人口	-11.2725
的追求	-11.2727
、经济	-11.2727
亲切	-11.2729
同行业	-11.2729
。1987年	-11.2729
旬	-11.273
附录	-11.2731
城市建设	-11.2731
专门从事	-11.2731
木耳	-11.2731
(4	-11.2731
子弟	-11.2731
投资有限公司	-11.2732
能使	-11.2734
的存在	-11.2735
螺纹	-11.2737
树皮	-11.2738
发作	-11.2738
二百	-11.2739
,宽	-11.2739
写的	-11.274
八十	-11.274
烛	-11.2741
相对于	-11.2741
共创	-11.2741
也没有	-11.2742
现有教职工	-11.2744
索尼	-11.2747
铲	-11.2748
主导	-11.2749
▁2012年	-11.275
沼泽	-11.2751
仿佛	-11.2751
交通便捷	-11.2753
还能	-11.2754
七个	-11.2755
ん	-11.2757
科研工作	-11.2758
咳	-11.2758
绿色,	-11.2758
▁基本参数	-11.276
,力求	-11.276
,增强	-11.2761
淄博市	-11.2763
家村	-11.2766
出家	-11.2766
基础理论	-11.2767
山脚下	-11.2768
认为,	-11.2768
一般为	-11.2768
酒店位于	-11.2769
乌克兰	-11.277
西洋	-11.2771
厥	-11.2771
“四	-11.2771
产品研发	-11.2772
、商业	-11.2773
编号:	-11.2775
搅拌均匀	-11.2775
3.9	-11.2776
,否则	-11.2776
销售网络	-11.2778
1920年	-11.2778
富裕	-11.2779
财经大学	-11.2779
多篇论文	-11.278
男主角	-11.278
领导干部	-11.2781
不及	-11.2783
古朴	-11.2783
冰糖	-11.2783
历史悠久,	-11.2784
文学家	-11.2784
葡萄糖	-11.2784
缺点	-11.2785
洛杉矶	-11.2787
矿产	-11.2787
2013	-11.2789
龙山	-11.2789
装潢	-11.279
宁静	-11.279
漠	-11.2791
来自于	-11.2793
痘	-11.2793
网、	-11.2793
按钮	-11.2795
我院	-11.2796
街头	-11.2796
3-4	-11.2796
以西	-11.2797
激活	-11.2797
秧	-11.2798
柴油	-11.2799
铃声	-11.28
1922年	-11.28
大使	-11.2801
娟	-11.2802
石门	-11.2802
溪镇	-11.2802
行驶	-11.2802
6.6	-11.2802
附有	-11.2803
贷	-11.2805
靶	-11.2806
111	-11.2807
感谢	-11.2807
▁◇	-11.2808
胃肠	-11.2809
的意义	-11.2809
江山	-11.2812
其次	-11.2812
趣味	-11.2813
主要产品有	-11.2814
被中国	-11.2815
赔偿	-11.2815
武警	-11.2815
,1994年	-11.2816
,他的	-11.2816
卵形	-11.2816
最著名的	-11.2817
8人	-11.2817
等众多	-11.2817
克服	-11.2818
等诸多	-11.282
青年教师	-11.2821
商业中心	-11.2823
,紧邻	-11.2824
垢	-11.2826
抵抗	-11.2827
桦	-11.2828
英文名:	-11.2829
始创于	-11.283
3厘米	-11.2832
机械有限公司	-11.2836
之滨	-11.2836
红花	-11.2836
株式会社	-11.2837
光驱	-11.2839
县委副书记	-11.2839
以内	-11.284
女王	-11.2842
波长	-11.2843
有益	-11.2843
后者	-11.2844
业务范围	-11.2844
论文《	-11.2844
不可能	-11.2844
编排	-11.2845
调用	-11.2846
一卷	-11.2847
粉碎	-11.2849
二十四	-11.2849
为中心,	-11.2849
粉、	-11.285
溃疡	-11.2852
文教	-11.2853
,造成	-11.2853
意义的	-11.2854
常州市	-11.2854
类型的	-11.2855
之人	-11.2855
十余篇	-11.2856
中国传统	-11.2856
大型企业	-11.2857
莹	-11.2857
取名	-11.2858
,1990年	-11.2858
遥感	-11.2859
侦探	-11.286
轿车	-11.2861
简化	-11.2862
尖端	-11.2862
需求。	-11.2864
柠檬	-11.2864
1983	-11.2864
亮点	-11.2865
颈部	-11.2866
印度尼西亚	-11.2867
琦	-11.2869
微量元素	-11.2869
涡	-11.287
,共同	-11.287
身材	-11.2871
的价值	-11.2871
专业知识	-11.2871
唯一一家	-11.2872
更名	-11.2872
,坐落于	-11.2874
股权	-11.2875
潍坊市	-11.2875
从中	-11.2876
之中。	-11.2876
战斗中	-11.2876
概率	-11.2877
哈尔滨市	-11.2878
寄生	-11.288
有害	-11.2881
·阿	-11.2881
迁至	-11.2882
抒情	-11.2882
修养	-11.2883
116	-11.2883
1912年	-11.2886
遗产	-11.2887
教育工作	-11.2887
负载	-11.2887
纪律	-11.2888
巧克力	-11.2889
漂亮	-11.2889
。2013年	-11.289
墓葬	-11.2891
整洁	-11.2891
美元	-11.2893
参加全国	-11.2894
布拉	-11.2896
首发	-11.2896
喷涂	-11.2897
"。	-11.2898
*2	-11.2898
曲艺	-11.2899
组分	-11.29
留学生	-11.29
所辖	-11.2901
矩	-11.2903
嘉宾	-11.2906
双手	-11.2906
四川大学	-11.2907
品种。	-11.2907
计生	-11.2908
录像	-11.2909
闽南	-11.2909
―	-11.2911
约3	-11.2912
祐	-11.2913
执政	-11.2913
处置	-11.2915
也被	-11.2915
部份	-11.2916
,入	-11.2917
的时代	-11.2918
95%	-11.2918
山峰	-11.2919
著述	-11.292
器械	-11.2922
,必须	-11.2924
营养丰富	-11.2925
大概	-11.2926
出国	-11.2927
贬	-11.2928
机等	-11.2929
巴尔	-11.2929
底座	-11.2931
还可	-11.2933
执导	-11.2933
入伍	-11.2934
仪器设备	-11.2936
县境	-11.2936
青睐	-11.2937
意义。	-11.2937
伤寒	-11.2938
本作	-11.2938
南朝	-11.2939
位于中国	-11.2942
,出生于	-11.2942
用法	-11.2947
以外的	-11.2949
杏仁	-11.2949
,女,汉族,	-11.295
高级经济师	-11.295
178	-11.2951
陡	-11.2951
,尤	-11.2951
真相	-11.2952
促销	-11.2952
湖畔	-11.2953
功率:	-11.2954
岑	-11.2955
第二十	-11.2955
设计与	-11.2956
压缩机	-11.2956
紧靠	-11.2956
盛世	-11.2957
宏伟	-11.2957
证实	-11.2957
感冒	-11.2958
开元	-11.2958
结业	-11.2959
三项	-11.2961
-45	-11.2961
硝	-11.2962
20人	-11.2963
道光	-11.2963
普查	-11.2963
曾参加	-11.2964
河东	-11.2965
确立	-11.2966
本县	-11.2967
机枪	-11.2967
蛛	-11.2968
出锅	-11.297
屋顶	-11.2972
解决方案。	-11.2973
武林	-11.2974
港澳	-11.2974
收藏。	-11.2975
(3	-11.2975
苏格兰	-11.2975
细长	-11.2976
喇叭	-11.2979
细小	-11.2979
??	-11.2979
标志着	-11.2979
研发、生产、销售	-11.298
盐酸	-11.2981
0~	-11.2983
广大用户	-11.2983
止痛	-11.2984
堪称	-11.2986
产品和	-11.2988
5万	-11.2989
外国语学院	-11.2989
▁开	-11.2991
河县	-11.2991
对待	-11.2991
114	-11.2993
岂	-11.2993
3-5	-11.2993
较强	-11.2995
流经	-11.2995
政治家	-11.2995
功能的	-11.2996
的成功	-11.2996
;同时	-11.2996
别致	-11.2997
铣	-11.2998
短篇小说	-11.2998
单词	-11.2999
,培养	-11.2999
长征	-11.3
.,.	-11.3001
导电	-11.3001
是我	-11.3001
与中国	-11.3002
米兰	-11.3004
,1989年	-11.3005
威海	-11.3006
合唱	-11.3006
设备先进	-11.3007
纪委书记	-11.3009
捕捉	-11.3009
艺术节	-11.301
”或“	-11.3011
小叶	-11.3013
等工作。	-11.3013
水量	-11.3013
,终于	-11.3014
擢	-11.3014
历史悠久	-11.3014
搅	-11.3015
京都	-11.3016
天河	-11.3017
用手	-11.3017
是一家专业	-11.3017
彪	-11.3021
人类的	-11.3021
政治委员	-11.3023
气温	-11.3024
60%	-11.3026
测试仪	-11.3028
5米,	-11.3028
醛	-11.3028
订单	-11.3029
提交	-11.303
麓	-11.303
对此	-11.3031
的秘密	-11.3035
海湾	-11.3036
3米	-11.3036
133	-11.3037
焰	-11.3037
仪器仪表	-11.3037
专家、	-11.3039
操纵	-11.304
自动控制	-11.304
坚强	-11.304
高尔夫	-11.3041
民居	-11.3041
的办学	-11.3045
▁调料:	-11.3046
启发	-11.3047
海尔	-11.3047
指导员	-11.3048
本片	-11.3048
教育、	-11.3049
大西洋	-11.3049
二层	-11.305
镇江	-11.305
186	-11.3051
性状	-11.3051
质量管理体系认证	-11.3051
益气	-11.3052
习题	-11.3052
“一	-11.3053
机械、	-11.3054
苏区	-11.3054
乙醇	-11.3056
是利用	-11.3057
165	-11.3058
报表	-11.3059
/.	-11.3059
。1956年	-11.306
轻工业	-11.306
曾是	-11.3062
员。	-11.3062
森林公园	-11.3064
镇东	-11.3065
副主任、	-11.3065
吨,	-11.3065
。1983年	-11.3065
学会副会长	-11.3066
经验和	-11.3066
故乡	-11.3067
6克	-11.3068
一举	-11.3068
7人	-11.3068
教育家	-11.3068
中国文化	-11.3069
(/)	-11.307
实践中	-11.3071
给你	-11.3071
生育	-11.3075
方针、政策	-11.3075
▁李	-11.3076
30-	-11.3076
良种	-11.3077
集》、《	-11.308
雍正	-11.308
关怀	-11.308
独有的	-11.3081
。它的	-11.3082
清华	-11.3082
位,	-11.3084
淘宝	-11.3085
声道	-11.3085
▁8.	-11.3086
发音	-11.3086
鳃	-11.3088
爱的	-11.3088
胜地	-11.3089
吸引了	-11.3089
本市	-11.309
(今属	-11.3091
不断发展	-11.3091
学会理事,	-11.3091
的爱情	-11.3091
国家税务局	-11.3092
航运	-11.3092
开口	-11.3092
非营利性	-11.3093
)人,	-11.3094
10月,	-11.3094
北平	-11.3094
诚信为本	-11.3094
”()	-11.3096
,1991年	-11.3097
学风	-11.3099
2米	-11.3099
9月生,	-11.31
幼年	-11.31
兴奋	-11.3101
秀丽	-11.3102
(《	-11.3103
,曾在	-11.3105
与社会	-11.3106
第8	-11.3107
体操	-11.3108
落成	-11.311
▁四	-11.3111
▁其它	-11.3111
大成	-11.3113
啦	-11.3114
多媒体教室	-11.3115
夜间	-11.3115
城关	-11.3115
踪	-11.3116
风格,	-11.3116
残留	-11.3117
河谷	-11.3118
形体	-11.3119
的方向	-11.3119
。形容	-11.312
运动场	-11.312
所致	-11.312
,取得了	-11.312
,先后在	-11.3121
惠州	-11.3121
艰难	-11.3125
空白	-11.3125
短,	-11.3125
加固	-11.3126
邪恶	-11.3126
学》	-11.3127
黄花	-11.3127
搬迁	-11.3128
巩	-11.3128
离休	-11.3128
缓存	-11.3129
野生动物	-11.3129
必将	-11.3131
曾获得	-11.3132
答案	-11.3132
普通的	-11.3133
妹妹	-11.3136
纪录片	-11.3137
火炬	-11.3139
1024	-11.314
第十届	-11.3142
求学	-11.3143
促使	-11.3144
图书室	-11.3144
医院、	-11.3145
南开大学	-11.3146
古籍	-11.3147
饮水	-11.3147
微创	-11.3147
高大	-11.315
复习	-11.315
总额	-11.315
伟大的	-11.315
的健康	-11.3152
蚊	-11.3152
传授	-11.3154
这项	-11.3157
实用的	-11.3157
益智	-11.3157
等多家	-11.3158
人之	-11.316
遵义	-11.3161
八个	-11.3161
二战	-11.3161
场面	-11.3164
大面积	-11.3164
嘉兴	-11.3165
张专辑	-11.3166
成效	-11.3168
暴力	-11.3168
教职员工	-11.3168
斐	-11.3168
西区	-11.3169
と	-11.317
产品类型	-11.3171
200多	-11.3172
发展有限公司	-11.3173
逼真	-11.3174
的事	-11.3174
组织开展	-11.3174
20-	-11.3175
理由	-11.3175
毫无	-11.3175
7.8	-11.3176
原型	-11.3176
充满了	-11.3179
陈皮	-11.318
的心理	-11.3181
遥控	-11.3182
标准间	-11.3182
一心	-11.3182
天体	-11.3183
懒	-11.3184
罕见	-11.3184
人均纯收入	-11.3185
壮族	-11.3185
转化为	-11.3186
瑜伽	-11.3188
画展	-11.319
,注册资本	-11.3191
300米	-11.3191
、科技	-11.3191
外地	-11.3193
采矿	-11.3194
嘉奖	-11.3194
开发了	-11.3194
文昌	-11.3194
人民群众	-11.3195
》入选	-11.3196
,另	-11.3198
激烈	-11.3199
14个	-11.3199
保证了	-11.32
话剧	-11.32
保管	-11.32
捏	-11.3202
摄影师	-11.3205
固化	-11.3205
企业形象	-11.3206
系。	-11.3208
主要负责	-11.3209
全村有	-11.321
和国家	-11.321
不仅是	-11.321
又称为	-11.3212
》由	-11.3212
旷	-11.3214
半径	-11.3214
1/4	-11.3215
风暴	-11.3217
每亩	-11.3217
一大批	-11.3217
抗体	-11.3218
内衣	-11.3219
俄语	-11.322
劣	-11.3222
巧妙	-11.3224
座,	-11.3224
爆香	-11.3225
约有	-11.3226
京师	-11.3227
匹配	-11.3229
4月,	-11.3229
价值观	-11.323
丛生	-11.3233
,经常	-11.3233
工业企业	-11.3234
6.4	-11.3234
章,	-11.3234
留在	-11.3235
汇聚	-11.3235
河水	-11.3238
无比	-11.3239
所谓的	-11.3239
情趣	-11.324
其所	-11.3241
奶油	-11.3241
交友	-11.3241
(5张)	-11.3243
渴	-11.3243
、台湾	-11.3244
除去	-11.3244
制定了	-11.3245
彝	-11.3247
日期:	-11.3248
1100	-11.3248
便可	-11.3248
有一种	-11.3249
3月任	-11.3249
西山	-11.3251
尽管	-11.3251
出去	-11.3251
音乐会	-11.3252
的创作	-11.3252
联谊会	-11.3253
老百姓	-11.3254
▁8、	-11.3255
枸杞	-11.3255
的好评	-11.3257
,下设	-11.3257
主唱	-11.3257
=1	-11.3261
集《	-11.3261
,维护	-11.3262
劈	-11.3263
八卦	-11.3264
颅	-11.3265
交换机	-11.3267
不多	-11.3267
毕业于北京	-11.3268
药业	-11.3269
汽油	-11.327
名为“	-11.3271
信息中心	-11.3271
300克	-11.3271
容积率	-11.3272
业务。	-11.3273
强,	-11.3275
征服	-11.3275
圈足	-11.3276
大中型	-11.3276
政府部门	-11.3278
奇特	-11.3278
带给	-11.3279
被人	-11.3279
意境	-11.3279
荔	-11.328
字符	-11.3281
粒,	-11.3283
翡翠	-11.3284
坚硬	-11.3284
元帅	-11.3285
汾	-11.3285
拙	-11.3285
淄博	-11.3287
圭	-11.3288
先后被	-11.3288
前端	-11.3288
掠	-11.3289
之所以	-11.329
项目,	-11.3292
农科院	-11.3295
编译	-11.3295
后方	-11.3296
共产党员	-11.3297
原则,	-11.3297
珍品	-11.3297
思想政治工作	-11.3298
随笔	-11.3298
、广东	-11.3301
十一年	-11.3302
构图	-11.3304
壬	-11.3305
神仙	-11.3306
推崇	-11.3306
很容易	-11.3307
区域内	-11.3308
少见	-11.3308
不大	-11.3309
中医药大学	-11.3309
清热解毒	-11.3311
改变了	-11.3312
工程机械	-11.3314
失眠	-11.3314
这条	-11.3316
记载,	-11.3316
发展方向	-11.3317
李白	-11.3318
养成	-11.332
防范	-11.3321
小枝	-11.3321
自有	-11.3322
次,	-11.3322
葱姜	-11.3322
精力	-11.3323
文学创作	-11.3323
搞好	-11.3323
呈现出	-11.3324
心态	-11.3325
唐·	-11.3325
文学作品	-11.3326
双语	-11.3326
代号	-11.3328
春节	-11.3328
我县	-11.333
管理中心	-11.3332
全民	-11.3333
。1980年	-11.3333
新编	-11.3333
情景	-11.3333
京城	-11.3334
商铺	-11.3336
标准。	-11.3338
7公里	-11.3338
百花	-11.3338
使用寿命	-11.3339
30公里	-11.3343
面积为	-11.3344
受体	-11.3345
双重	-11.3347
坚定	-11.3347
使人	-11.3347
目标,	-11.3351
耻	-11.3351
委员会委员,	-11.3352
性别	-11.3352
很小	-11.3353
捞起	-11.3355
路交汇处	-11.3356
向东	-11.3356
查处	-11.3358
烟台市	-11.3359
的目的。	-11.3359
腻	-11.336
-14	-11.336
样式	-11.3361
二世	-11.3361
五行	-11.3362
为纪念	-11.3362
拼音	-11.3362
占用	-11.3363
介入	-11.3363
名录	-11.3363
、抗	-11.3363
庞大的	-11.3365
崇尚	-11.3366
4名	-11.3367
备受	-11.3367
7.1	-11.3369
簇	-11.3369
做为	-11.337
一段时间	-11.3372
层的	-11.3372
分数	-11.3373
楼高	-11.3373
构筑	-11.3373
(12	-11.3374
此处	-11.3375
广泛应用	-11.3377
的形成	-11.3379
涂层	-11.3382
改装	-11.3383
▁2002年	-11.3384
管理办法	-11.3385
管理经验	-11.3385
尼斯	-11.3385
有可能	-11.3386
一是	-11.3386
开发利用	-11.3386
斯基	-11.3388
一侧	-11.3389
旁边	-11.3389
高汤	-11.3392
装盘	-11.3392
。比喻	-11.3393
刻画	-11.3394
中考	-11.3398
开设了	-11.3399
工商行政管理局	-11.3399
信用卡	-11.34
书。	-11.34
城建	-11.34
桑拿	-11.3401
奖章	-11.3401
频繁	-11.3401
系统工程	-11.3401
▁网络	-11.3402
全体员工	-11.3402
7.	-11.3403
俭	-11.3403
于2001年	-11.3404
面积达	-11.3404
艰苦	-11.3404
推理	-11.3404
是什么	-11.3405
众人	-11.3405
尊贵	-11.3406
翅膀	-11.3406
茵	-11.3407
较小	-11.3408
研究员。	-11.341
民事	-11.3411
8月生,	-11.3412
积累了	-11.3413
底层	-11.3413
信息管理	-11.3415
搏	-11.3418
、马	-11.3419
包裹	-11.3419
周到	-11.3419
多次获得	-11.3419
皋	-11.3419
泌尿外科	-11.3419
救援	-11.342
厅、	-11.342
草坪	-11.3422
12月任	-11.3422
发展。	-11.3423
开创了	-11.3425
折叠	-11.3425
委员。	-11.3426
年会	-11.3426
不详	-11.3428
习性	-11.3428
凭着	-11.3429
选取	-11.343
学硕士学位	-11.3436
便秘	-11.3436
副主任,	-11.3437
可调	-11.3437
青龙	-11.3439
日常工作	-11.344
等优点	-11.344
海鲜	-11.3441
医用	-11.3441
野外	-11.3441
国有企业	-11.3442
大棚	-11.3442
事宜	-11.3442
格拉	-11.3442
拐	-11.3443
对外开放	-11.3443
,这就是	-11.3444
全国优秀	-11.3444
完工	-11.3446
。主要从事	-11.3448
构成的	-11.3449
桂花	-11.3449
潜能	-11.345
杂志》	-11.3451
党建	-11.3451
整形美容	-11.3452
萧山	-11.3453
浓郁的	-11.3455
高贵	-11.3455
场所。	-11.3456
嘉庆	-11.3456
学习和	-11.3456
一步	-11.3456
出于	-11.3457
阅览室	-11.3457
抽象	-11.346
文史	-11.346
人员的	-11.3461
,南临	-11.3465
再度	-11.3466
}	-11.3467
为一体,	-11.3468
括	-11.3468
了自己的	-11.3469
几年来	-11.3469
,上海	-11.347
食材	-11.3471
、杨	-11.3471
,1982年	-11.3472
催化剂	-11.3473
该剧	-11.3473
痕迹	-11.3474
潮湿	-11.3474
之初	-11.3475
。全村	-11.3475
主频	-11.3476
信息,	-11.3476
隆起	-11.3478
湖区	-11.3479
章节	-11.348
、健康	-11.3481
一周	-11.3481
终止	-11.3481
即成	-11.3484
火力	-11.3484
捐赠	-11.3486
人物。	-11.3487
奋	-11.3489
竿	-11.3489
的一座	-11.3491
徵	-11.3492
▁张	-11.3492
额定	-11.3493
60年代	-11.3493
贱	-11.3494
刹	-11.3496
研究”	-11.3496
字节	-11.3497
乔木	-11.3497
门口	-11.3498
主打	-11.3498
的意见	-11.3499
了他	-11.3502
德州	-11.3503
,东与	-11.3503
铎	-11.3504
拯救	-11.3504
位。	-11.3504
同治	-11.3506
系统和	-11.3506
一枚	-11.3507
盈利	-11.3508
同济大学	-11.3508
,同时也是	-11.3508
为2	-11.3508
;而	-11.3508
房地产开发有限公司	-11.3509
最专业的	-11.3509
查找	-11.3509
痛,	-11.351
体外	-11.3512
亲王	-11.3512
的优秀	-11.3514
促进会	-11.3515
公司以	-11.3516
护士	-11.3516
悠	-11.3516
型的	-11.3517
,系	-11.3517
等国家和地区	-11.3517
工作站	-11.352
定律	-11.3522
票据	-11.3522
,比	-11.3523
屏蔽	-11.3523
理学	-11.3524
命名为“	-11.3524
绢	-11.3526
的研制	-11.3527
精湛的	-11.3527
大坝	-11.3529
8月,	-11.353
奇幻	-11.353
▁中文名:	-11.3531
塞尔	-11.3533
更大	-11.3533
影响力的	-11.3535
15克,	-11.3536
环境幽雅	-11.3537
亩产	-11.3538
天皇	-11.3539
半年	-11.354
,省	-11.354
10米	-11.3541
骨骼	-11.3543
意志	-11.3544
绿色食品	-11.3545
人力	-11.3548
不满	-11.3548
树种	-11.3549
军工	-11.3549
省内外	-11.3549
复合材料	-11.3549
126	-11.3549
万人。	-11.355
分析仪	-11.355
县市	-11.355
高品质的	-11.3551
电镀	-11.3552
搓	-11.3553
成人教育	-11.3553
、盐	-11.3553
太原市	-11.3554
始祖	-11.3556
植物油	-11.3558
、国际	-11.3558
资源的	-11.3559
轮廓	-11.3559
任务,	-11.356
从未	-11.356
1919年	-11.356
彰显	-11.356
工序	-11.3561
矿区	-11.3563
敕	-11.3564
对应的	-11.3564
性价比	-11.3565
实在	-11.3565
侵	-11.3566
渴望	-11.3567
眼前	-11.3568
矿物质	-11.3569
万像素	-11.3569
的选择	-11.3569
优美的	-11.3578
的物质	-11.3578
经商	-11.3578
粒重	-11.358
合著	-11.3582
可根据	-11.3583
外文	-11.3584
磨损	-11.3585
管理工作。	-11.3585
轧	-11.3586
的战斗	-11.3587
十四年	-11.3587
1921年	-11.359
加工厂	-11.359
显存	-11.359
9人,	-11.3591
传略	-11.3591
6～	-11.3591
前列	-11.3592
的过程中	-11.3592
河、	-11.3593
,有着	-11.3594
,是我国	-11.3596
质量控制	-11.3596
获“	-11.3596
线的	-11.3597
远销	-11.3597
驾驶员	-11.3598
食用菌	-11.3598
有趣的	-11.3599
地中海	-11.3599
。全书	-11.36
四面	-11.3602
・	-11.3607
有利	-11.3608
检修	-11.3608
班学习	-11.361
中队	-11.3612
人物,	-11.3612
历年	-11.3612
常住人口	-11.3613
多条	-11.3613
防盗	-11.3614
、耐	-11.3615
145	-11.3615
6月,	-11.3615
匈牙利	-11.3616
勉	-11.3616
索引	-11.3616
彩虹	-11.3617
基地,	-11.3618
之美	-11.3619
团委书记	-11.3619
管理体制	-11.3619
高祖	-11.3621
一千	-11.3622
大学本科	-11.3623
,称	-11.3625
禅师	-11.3626
负责全市	-11.3626
广阔	-11.3628
生命的	-11.3629
138	-11.3629
切除	-11.363
电力系统	-11.3631
米的	-11.3632
阶层	-11.3632
科技进步一等奖	-11.3633
运动的	-11.3633
芋	-11.3634
格斗	-11.3639
质量体系认证	-11.3639
块,	-11.3642
教改	-11.3642
▁页	-11.3642
摆脱	-11.3644
预警	-11.3645
。拥有	-11.3647
女演员	-11.3647
▁中文	-11.3647
鲤	-11.3648
,让您	-11.3649
米,年平均气温	-11.365
收藏家	-11.3651
组织和	-11.3652
指向	-11.3653
天王	-11.3654
10/100	-11.3655
门、	-11.3656
癸	-11.3658
,1983年	-11.3658
、广州	-11.3659
售后	-11.3661
城东	-11.3663
看起来	-11.3664
学术期刊	-11.3665
史学	-11.3666
不断完善	-11.3668
实验学校	-11.3668
编导	-11.3669
计算机应用	-11.367
隐居	-11.3671
大兴	-11.3672
纯正	-11.3672
褶	-11.3674
双层	-11.3674
传·	-11.3674
英才	-11.3675
8.0	-11.3675
添加剂	-11.3675
{	-11.3676
永乐	-11.3677
、铁	-11.3678
波动	-11.3682
田间	-11.3683
东阳	-11.3683
已形成	-11.3683
学术研究	-11.3684
人次	-11.3684
死于	-11.3685
专员	-11.3685
啸	-11.3686
港区	-11.3687
切实	-11.3687
变异	-11.3688
乙烯	-11.3689
办、	-11.3691
之都	-11.3692
,又有	-11.3693
ラ	-11.3694
是一	-11.3695
沿着	-11.3695
咸丰	-11.3695
女装	-11.3696
之作	-11.3696
紫砂	-11.3696
永定	-11.3696
3名	-11.3697
两层	-11.3699
钱,	-11.3701
钢筋	-11.3702
首位	-11.3702
雄厚	-11.3703
,浙江	-11.3706
励	-11.3706
国家教育部	-11.3707
种族	-11.3708
拂	-11.3708
光荣称号	-11.3708
震撼	-11.3709
重量:	-11.3709
马上	-11.3713
茄子	-11.3713
放射性	-11.3714
第二次世界大战	-11.3715
他为	-11.3715
邯郸	-11.3716
兼职教授	-11.3717
卯	-11.3717
美景	-11.3719
国内知名	-11.3719
上层	-11.3719
:16	-11.372
占地面积1	-11.372
的一个重要	-11.372
经纪	-11.3721
执着	-11.3722
中草药	-11.3723
打造的	-11.3723
至上	-11.3723
油,	-11.3724
鲜美	-11.3725
解答	-11.3726
管理。	-11.3726
,随后	-11.3726
接地	-11.3726
2克	-11.3726
蜘蛛	-11.3727
顾问。	-11.3728
泉州市	-11.3729
"="	-11.373
科学管理	-11.3732
,令人	-11.3732
兑	-11.3733
优秀人才	-11.3733
□	-11.3734
杰出的	-11.3734
亚太	-11.3734
宽敞	-11.3735
,直至	-11.3735
回合	-11.3736
新星	-11.3736
西面	-11.3736
*1	-11.3738
不错	-11.3738
繁华的	-11.3738
论文集	-11.3738
相结合,	-11.374
,面积	-11.3743
一字	-11.3744
酵母	-11.3745
修行	-11.3745
境外	-11.3746
▁2013年	-11.3746
标准,	-11.3746
三千	-11.3748
于2000年	-11.3748
(学名:)为	-11.3749
表情	-11.375
故名	-11.375
刀具	-11.3752
水深	-11.3753
的任务	-11.3754
片区	-11.3755
8.4	-11.3755
红色,	-11.3755
,四川省	-11.3756
培训基地	-11.3756
地主	-11.3757
企业和	-11.3757
昊	-11.3758
厂区	-11.3758
直升机	-11.3758
等多	-11.3759
8.6	-11.3759
公益性	-11.3759
衡量	-11.376
并有	-11.3761
印尼	-11.3762
工作先进单位	-11.3763
,人口	-11.3765
研究生院	-11.3766
聚会	-11.3766
10人	-11.3766
十里	-11.3766
武功	-11.3766
做的	-11.3768
粤语	-11.3769
划归	-11.3769
6.1	-11.3769
教育学	-11.377
187	-11.377
,然而	-11.377
素有	-11.3771
特区	-11.3772
发展为	-11.3772
代表作品	-11.3772
冬瓜	-11.3773
常有	-11.3773
棺	-11.3774
的成长	-11.3776
一栋	-11.3776
荟萃	-11.3779
成员。	-11.3779
威力	-11.378
信贷	-11.378
年底	-11.3781
盛行	-11.3781
在全球	-11.3782
封装	-11.3782
条件。	-11.3782
少年儿童	-11.3782
中的一个	-11.3783
的主	-11.3783
便捷的	-11.3784
,坐落在	-11.3784
聊天	-11.3785
师专	-11.3786
分化	-11.3786
8.3	-11.3788
深远	-11.3788
研讨	-11.3788
速度快	-11.3788
特色。	-11.3789
腹泻	-11.3793
附中	-11.3795
清澈	-11.3795
。作品	-11.3796
光辉	-11.3796
的诊治	-11.3797
相等	-11.3797
、河南	-11.3799
6.7	-11.3799
生前	-11.38
件,	-11.38
,祖籍	-11.3803
小提琴	-11.3804
旅游区	-11.3804
精湛	-11.3804
前方	-11.3807
十足	-11.3808
潮州	-11.3808
ア	-11.3808
1998.	-11.3809
提供的	-11.381
有限公司是一家集	-11.3812
泰安	-11.3814
人民的	-11.3814
,便于	-11.3815
碾	-11.3815
外事	-11.3815
技术力量雄厚	-11.3816
积极参与	-11.3817
会出现	-11.3817
316	-11.3817
无毛,	-11.3818
阿里	-11.3818
公立	-11.382
1911年	-11.382
斯塔	-11.3821
派遣	-11.3823
外墙	-11.3824
糟	-11.3825
-2000	-11.3826
管理者	-11.3828
,是以	-11.3828
下了	-11.3831
事变	-11.3831
酌	-11.3832
独具	-11.3832
上午	-11.3833
的政治	-11.3833
房型	-11.3835
做过	-11.3836
紫外线	-11.3836
2厘米	-11.3837
莆田	-11.3837
外伤	-11.3839
专业人员	-11.3839
揭示	-11.384
,其中有	-11.384
冶炼	-11.3841
凭证	-11.3842
认证。	-11.3843
珍藏	-11.3844
▁游戏	-11.3845
窖	-11.3846
大自然	-11.3847
厦门大学	-11.3847
学校占地面积	-11.3848
瓦尔	-11.3848
师傅	-11.3849
检察	-11.3849
付出	-11.385
卒于	-11.3851
足球俱乐部,	-11.3851
德尔	-11.3852
长期以来	-11.3855
,是目前	-11.3855
钓鱼	-11.3856
应用技术	-11.3857
的特点,	-11.3857
探测器	-11.3858
品牌形象	-11.3861
时有	-11.3861
党总支	-11.3861
永安	-11.3863
原来的	-11.3864
分级	-11.3864
县志	-11.3865
自成	-11.3866
多次参加	-11.3866
侄	-11.3868
き	-11.3868
等项目	-11.3869
生态学	-11.3869
华山	-11.387
简便	-11.387
封面	-11.3871
远远	-11.3872
阴谋	-11.3874
等课程	-11.3876
东起	-11.3876
配音	-11.3877
核心竞争力	-11.3878
崇拜	-11.3879
吉林大学	-11.3879
文件夹	-11.388
等大型	-11.388
人民法院	-11.3882
窥	-11.3883
不论	-11.3884
乐坛	-11.3884
电子信息	-11.3886
去了	-11.3886
酒店拥有	-11.3887
樱桃	-11.3888
骑兵	-11.3888
公司将	-11.3892
档案馆	-11.3893
500平方米	-11.3895
等服务	-11.3896
的一项	-11.3896
城北	-11.3896
镇西	-11.3897
孚	-11.3897
展厅	-11.3897
,是国内	-11.3897
耐热	-11.3897
疼	-11.3897
兜	-11.3899
多次被	-11.39
な	-11.3902
肝脏	-11.3906
原籍	-11.3906
科教	-11.3906
绩	-11.3907
发电机	-11.3912
也将	-11.3912
贸易有限公司	-11.3912
先进学校	-11.3913
彰	-11.3913
山人	-11.3914
(其间:	-11.3914
后门	-11.3917
的有效	-11.3917
商业区	-11.3917
▁示例	-11.3918
;3	-11.3918
副院长	-11.3919
柳州	-11.392
入味	-11.3922
直隶	-11.3923
中将	-11.3924
钳	-11.3924
人性	-11.3924
引起了	-11.3924
基准	-11.3925
出入	-11.3925
确实	-11.3925
芯片组	-11.3925
规模化	-11.3927
楼房	-11.3928
注释	-11.3928
127	-11.3928
个村民组	-11.3928
理化	-11.3929
到位	-11.3929
团团长	-11.393
,进而	-11.393
4～	-11.393
,其中包括	-11.3931
布尔	-11.3931
因病	-11.3931
业务的	-11.3932
沥干	-11.3932
电解	-11.3933
,山东	-11.3933
乘坐	-11.3933
绮	-11.3933
藏品	-11.3934
-40	-11.3936
率高	-11.3936
初始	-11.3937
专区	-11.3937
剂,	-11.3937
送到	-11.3939
苷	-11.394
剖析	-11.3941
、双	-11.3941
设备及	-11.3942
钨	-11.3943
逮捕	-11.3945
属植物	-11.3946
2800	-11.3946
为导向	-11.3947
两座	-11.3948
凝结	-11.395
锚	-11.395
端子	-11.395
教委	-11.3951
有限公司董事长	-11.3951
7.6	-11.3952
较大,	-11.3952
色,	-11.3952
暴动	-11.3953
肘	-11.3955
度,	-11.3956
人大常委会	-11.3957
小学高级教师	-11.3958
娅	-11.3958
根状茎	-11.3958
分配到	-11.396
笔墨	-11.396
开拓进取	-11.3961
拆除	-11.3963
政协常委	-11.3963
本质	-11.3964
克·	-11.3965
国籍	-11.3966
污染物	-11.3966
措	-11.3967
鳌	-11.3967
敖	-11.3967
非物质文化遗产	-11.3967
百强	-11.3968
叛	-11.3969
、体育	-11.397
发布的	-11.397
国语	-11.3972
培训学校	-11.3975
“小	-11.3976
构思	-11.3976
微笑	-11.3977
:7	-11.3978
集团旗下	-11.3979
画册	-11.3979
全资子公司	-11.398
麦克	-11.398
清康熙	-11.3981
420	-11.3981
沛	-11.3981
窍	-11.3982
刨	-11.3982
4.9	-11.3983
12年	-11.3983
源头	-11.3984
鱼肉	-11.3984
研究室主任	-11.3985
领导者	-11.3987
合作关系	-11.3988
尼克	-11.3988
是由于	-11.3988
俩	-11.3989
7.3	-11.399
宫殿	-11.399
作用的	-11.3991
5万元	-11.3991
安庆	-11.3992
水肿	-11.3992
本书以	-11.3992
的活动	-11.3993
迷你	-11.3993
的认识	-11.3993
的建筑	-11.3995
一手	-11.3995
队伍建设	-11.3996
以及其他	-11.3996
惧	-11.3996
她是	-11.3998
为民	-11.3999
居家	-11.3999
四年(	-11.4
知识分子	-11.4
谐	-11.4001
前提	-11.4001
腐败	-11.4001
导入	-11.4002
芹	-11.4002
表皮	-11.4003
二者	-11.4003
533	-11.4004
齐鲁	-11.4004
的临床	-11.4005
会计师	-11.4005
调制	-11.4006
机能	-11.4007
成为一个	-11.4007
类别:	-11.4007
专家学者	-11.4007
尽可能	-11.4008
。曾在	-11.4008
工作,任	-11.4008
门前	-11.4011
达1	-11.4011
的名称	-11.4012
见解	-11.4012
金属材料	-11.4017
工会主席	-11.4017
股份制企业	-11.4017
作品被	-11.4018
__	-11.4018
е	-11.402
8.8	-11.402
十三年	-11.4021
等内容	-11.4021
阻燃	-11.4021
实验小学	-11.4021
创造出	-11.4022
彩绘	-11.4023
圃	-11.4024
知府	-11.4025
信息安全	-11.4025
手段,	-11.4026
活动中心	-11.4027
蓝天	-11.4027
上百	-11.4027
机房	-11.4027
条例》	-11.4028
132	-11.4028
学子	-11.403
茹	-11.4031
行政村,属于山区。	-11.4032
辞典	-11.4032
。生于	-11.4033
,取	-11.4033
0,000	-11.4036
平民	-11.4037
南美	-11.4037
名片	-11.4041
三条	-11.4042
农民收入主要以	-11.4042
雏	-11.4043
乐趣	-11.4048
。1978年	-11.4048
双面	-11.4049
采收	-11.4049
健康的	-11.405
位于广东省	-11.4051
汤汁	-11.4051
-25	-11.4053
发明专利	-11.4053
满意的	-11.4055
重点学科	-11.4057
事业发展	-11.4057
润滑油	-11.4058
匾	-11.4059
恐惧	-11.4061
十多年	-11.4061
,同	-11.4061
增进	-11.4062
行政村	-11.4067
通俗易懂	-11.4068
9.2	-11.4068
轨迹	-11.4069
瑜	-11.4072
传达	-11.4075
呀	-11.4075
篮球场	-11.4075
有两种	-11.4076
为邻	-11.4077
樵	-11.4077
大专以上学历	-11.4078
9.8	-11.4079
常识	-11.4079
5000平方米	-11.4084
颌	-11.4085
膀胱	-11.4085
陵县	-11.4086
职业生涯	-11.4086
批判	-11.4087
纺织品	-11.4088
中所	-11.4088
变色	-11.4089
。该村	-11.4089
总部位于	-11.4089
青椒	-11.409
189	-11.4091
世界各国	-11.4092
据说	-11.4092
钥匙	-11.4093
2小时	-11.4093
焚	-11.4094
宦	-11.4095
,提出	-11.4095
教学改革	-11.4096
的重点	-11.4096
山路	-11.4097
蒿	-11.4097
的有关	-11.4098
聊城	-11.41
河流域	-11.4101
旅游业	-11.4101
实惠	-11.4101
温和	-11.4102
省卫生厅	-11.4102
银行、	-11.4103
美的	-11.4103
艺术教育	-11.4103
提醒	-11.4103
。公司拥有	-11.4104
以外	-11.4105
华语	-11.4107
情况:	-11.4108
胖	-11.4108
～19	-11.4108
现有员工	-11.411
捐资	-11.411
50多	-11.4111
面积3	-11.4112
亦可	-11.4114
专业毕业,	-11.4115
相声	-11.4116
骚	-11.4117
围棋	-11.4118
概况	-11.412
八一	-11.412
最优	-11.4121
内脏	-11.4123
霉素	-11.4124
九州	-11.4125
规划建设	-11.4125
全能	-11.4126
之父	-11.4127
创办了	-11.4128
巡抚	-11.4129
”与“	-11.4129
内阁	-11.4129
肺炎	-11.413
结束后	-11.413
狠	-11.4131
的歌曲	-11.4131
英文名称	-11.4131
修炼	-11.4132
新中国	-11.4133
灿	-11.4134
▁用法	-11.4134
魔术	-11.4135
进军	-11.4135
末年	-11.4136
兼顾	-11.4136
多样化	-11.4136
自发	-11.4137
报告文学	-11.4138
起到了	-11.4139
18个	-11.4139
枢	-11.4141
锅里	-11.4141
印花	-11.4141
变化的	-11.4141
血压	-11.4142
定价	-11.4143
胡椒	-11.4145
触角	-11.4145
团委	-11.4145
一幢	-11.4146
寝	-11.4146
117	-11.4146
集团、	-11.415
鉴别	-11.415
领导和	-11.4151
医疗机构	-11.4151
(一)	-11.4152
对他	-11.4153
、计算机	-11.4153
行政村,	-11.4154
暴露	-11.4154
1月任	-11.4156
的文字	-11.4156
制动	-11.4157
喂	-11.4157
照射	-11.4158
是世界上	-11.416
目标。	-11.4161
南朝梁	-11.4161
猿	-11.4161
站长	-11.4162
寂寞	-11.4162
工业化	-11.4163
拓宽	-11.4164
富贵	-11.4164
当局	-11.4165
0%	-11.4165
中介	-11.4165
词条	-11.4167
填充	-11.4168
,东邻	-11.4169
的表现	-11.417
公安部	-11.417
容积	-11.4171
多年生	-11.4171
5×	-11.4172
、浙江	-11.4172
沸水	-11.4173
称之为“	-11.4174
派出所	-11.4174
腾讯	-11.4175
县委、县政府	-11.4176
实质	-11.4176
点缀	-11.4177
荷花	-11.4178
医疗保险	-11.4179
骄	-11.4182
章程	-11.4182
当地的	-11.4182
155	-11.4182
分别在	-11.4183
主要研究方向	-11.4183
栖息于	-11.4184
住院	-11.4184
的日子	-11.4186
是最	-11.4186
学会常务理事	-11.4187
管委会	-11.4187
,南至	-11.4188
现行	-11.4188
亚科	-11.4188
酿造	-11.4188
余人,	-11.4189
,1981年	-11.419
起步	-11.4191
跋	-11.4191
蕉	-11.4192
口镇	-11.4193
不利	-11.4193
蓬莱	-11.4193
硼	-11.4194
了一些	-11.4195
机械厂	-11.4195
的影响,	-11.4196
类似于	-11.4197
活塞	-11.4198
、安全	-11.4199
斯顿	-11.4199
,拟任	-11.4199
神州	-11.42
-13	-11.42
▁目前,	-11.42
超强	-11.4201
二等奖。	-11.4201
编辑部	-11.4202
第十一	-11.4204
顷	-11.4205
姿态	-11.4207
喜爱的	-11.4208
陶器	-11.4208
注意事项	-11.4209
1080	-11.4211
国际性	-11.4212
仅仅	-11.4212
/10	-11.4213
今天的	-11.4213
书法艺术	-11.4215
的自然	-11.4215
将继续	-11.4215
檀	-11.4215
量子	-11.4216
线形	-11.4216
夜晚	-11.4217
新疆维吾尔自治区	-11.4219
关于印发	-11.4219
向外	-11.422
香蕉	-11.4221
水田	-11.4224
点的	-11.4226
等荣誉称号	-11.4226
150克	-11.4227
鲜明的	-11.4228
200余	-11.4228
内侧	-11.4229
形式,	-11.423
游戏的	-11.423
现象。	-11.423
》系列	-11.4231
400米	-11.4234
▁释文:	-11.4234
机动车	-11.4236
贮存	-11.4237
太极拳	-11.4238
质保	-11.4239
回路	-11.424
废水	-11.4241
生长在	-11.4241
被聘为	-11.4243
掘	-11.4247
仙人	-11.4247
空气中	-11.4248
攻击力	-11.4248
付款	-11.4248
建筑装饰	-11.425
回答	-11.4254
所致的	-11.4256
旅游景点	-11.4257
台州	-11.4257
白马	-11.426
这里的	-11.4261
的最	-11.4261
我们将	-11.4262
到处	-11.4262
先后荣获	-11.4263
絮	-11.4264
300多	-11.4264
励志	-11.4264
相近	-11.4265
启用	-11.4265
布局合理	-11.4267
跨国	-11.4267
的颜色	-11.4267
董事会	-11.4267
。曾获	-11.4268
几百	-11.4269
。1950年	-11.4271
笔记	-11.4271
素材	-11.4271
水文	-11.4271
优秀论文奖	-11.4271
不想	-11.4273
高度重视	-11.4273
泌尿	-11.4274
保鲜	-11.4274
受欢迎	-11.4275
石榴	-11.4275
很多人	-11.4276
前线	-11.4276
剧中	-11.4276
绿豆	-11.4279
数量:	-11.4279
蚁	-11.428
奖、	-11.428
面向全国	-11.428
景象	-11.4281
前列腺	-11.4282
游泳池	-11.4282
土家族	-11.4284
。书中	-11.4285
▁(四)	-11.4286
8.1	-11.4288
孤独	-11.4289
同盟	-11.4289
气,	-11.429
序》:“	-11.429
▁该村	-11.429
无力	-11.429
力强	-11.4291
;“	-11.4292
脊柱	-11.4292
充实	-11.4294
吧!	-11.4295
古迹	-11.4295
高职高专	-11.4296
,1958年	-11.4298
城西	-11.4298
惹	-11.4299
,有效	-11.4299
科学发展观	-11.4299
嘉定	-11.4299
赣州	-11.4301
黑色,	-11.4302
步入	-11.4302
豌豆	-11.4302
主营业务	-11.4306
让我	-11.4308
方针政策	-11.4308
园林绿化	-11.4308
边区	-11.4308
30人	-11.4309
层层	-11.431
酷睿	-11.4312
×3	-11.4312
天左右	-11.4312
动感	-11.4313
利税	-11.4313
的一部分	-11.4313
钮	-11.4314
娃娃	-11.4314
放进	-11.4316
520	-11.4319
平稳	-11.4321
营销策划	-11.4321
地委	-11.4322
该院	-11.4323
石器	-11.4323
需要的	-11.4323
注册成立	-11.4324
口语	-11.4324
两部分	-11.4324
亿元人民币	-11.4324
新老客户	-11.4324
大王	-11.433
园、	-11.4332
,充分	-11.4332
排行榜	-11.4332
逐年	-11.4332
、江苏	-11.4333
的代表	-11.4336
科幻	-11.4337
中国人民	-11.4338
助手	-11.4339
ま	-11.4339
的现代	-11.434
名贵	-11.4341
7.0	-11.4342
妥	-11.4342
或许	-11.4342
饱满	-11.4343
本次	-11.4343
大都	-11.4344
抗性	-11.4344
组团	-11.4344
的商业	-11.4344
养老	-11.4345
设备;	-11.4346
尤为	-11.4348
共分	-11.4348
星座	-11.4354
▁近年来,	-11.4355
放电	-11.4357
产品设计	-11.4358
耐高温	-11.4359
25克	-11.4359
冲洗	-11.436
电子技术	-11.4361
。1979年	-11.4362
冲压	-11.4363
的主题	-11.4366
的地方。	-11.4367
问世	-11.4367
也要	-11.4368
毒素	-11.4368
捞	-11.4368
位于河南省	-11.4372
同事	-11.4374
匡	-11.4374
。作者	-11.4375
针织	-11.4375
详细的	-11.4375
这就是	-11.4376
时间为	-11.4376
外出	-11.4376
荔枝	-11.4376
生态系统	-11.4377
齐全,	-11.4378
西周	-11.4379
蛋黄	-11.4379
、德国	-11.438
这两个	-11.4381
组成员	-11.4381
自治县	-11.4381
、安装	-11.4383
杂志上发表	-11.4383
截至	-11.4384
科技发展	-11.4384
,方便	-11.4386
更高的	-11.4386
战后	-11.4387
▁(五)	-11.4387
3～	-11.4388
丰收	-11.4389
规程	-11.4389
7月,	-11.439
爆破	-11.439
水陆	-11.4391
(学名:)	-11.4392
海滩	-11.4392
,创建于	-11.4392
战争中	-11.4392
沐	-11.4392
,都是	-11.4393
,多次	-11.4393
宽阔	-11.4393
在那里	-11.4393
五星级	-11.4397
是一家以	-11.4398
清真寺	-11.4398
科技园	-11.4399
,近	-11.44
金黄色	-11.44
和个人	-11.44
鹊	-11.4403
缩小	-11.4403
状态。	-11.4404
建筑业	-11.4404
状态下	-11.4404
营长	-11.4406
可以说是	-11.4408
选择。	-11.4408
埃尔	-11.441
,得到	-11.441
咒	-11.4411
广场、	-11.4412
单体	-11.4412
人也	-11.4413
行销	-11.4414
一般是	-11.4414
得天独厚的	-11.4414
八十年代	-11.4414
南安	-11.4415
气压	-11.4415
中小	-11.4415
讲学	-11.4416
它可以	-11.4417
字形	-11.4418
优质的产品	-11.4418
造价	-11.4418
浓厚	-11.4419
军政	-11.442
网络科技有限公司	-11.442
节,	-11.4421
尾巴	-11.4421
治愈	-11.4422
著有《	-11.4423
的优点	-11.4423
副科级	-11.4423
、管理	-11.4425
捷克	-11.4425
的合作	-11.4425
产品远销	-11.4426
临近	-11.4427
建模	-11.4428
父子	-11.4428
自定义	-11.4432
9787	-11.4432
求职	-11.4432
心血管	-11.4433
颊	-11.4433
,学生	-11.4434
悔	-11.4434
提供最	-11.4435
附属医院	-11.4435
服务质量	-11.4436
躲	-11.4436
卵巢	-11.4438
收取	-11.4438
阿拉	-11.4441
力争	-11.4442
构成了	-11.4443
的比例	-11.4443
组建了	-11.4444
三省	-11.4445
够	-11.4445
可谓	-11.4446
后,他	-11.4446
美好的	-11.4448
事业的发展	-11.4448
北极	-11.4449
漳州	-11.4449
产业园	-11.4449
气流	-11.445
出来,	-11.445
小便	-11.445
鲜花	-11.4451
。1981年	-11.4451
天生	-11.4453
银河	-11.4454
小学生	-11.4454
公会	-11.4454
教学研究	-11.4454
对中国	-11.4456
称呼	-11.4457
流入	-11.4458
器的	-11.4459
白领	-11.446
、环境	-11.4461
爽口	-11.4462
50余	-11.4462
公元前	-11.4462
梦幻	-11.4462
日月	-11.4463
可以说	-11.4463
稽	-11.4466
阴道	-11.4467
特点,	-11.4467
大唐	-11.4468
闵	-11.447
积累了丰富的	-11.447
紫红色	-11.4472
是他	-11.4472
5°	-11.4473
日常生活	-11.4474
坚固	-11.4474
班子	-11.4477
才华	-11.4477
工具书	-11.4478
田园	-11.4478
十八年	-11.4478
灰白色	-11.4478
要求的	-11.4479
201	-11.4479
-200	-11.4479
义务教育	-11.448
队队长	-11.4482
国家教委	-11.4482
督导	-11.4482
补肾	-11.4483
邓小平	-11.4484
早餐	-11.4485
等问题	-11.4485
普通话	-11.4486
,平均	-11.4487
与客户	-11.4488
翟	-11.4489
煤气	-11.4489
永恒	-11.449
潜艇	-11.449
1克	-11.4491
12月出生,	-11.4491
黄土	-11.4493
宜昌	-11.4494
出处	-11.4494
取决于	-11.4494
程序设计	-11.4495
的市场	-11.4495
缠绕	-11.4495
稀有	-11.4495
60克	-11.4496
、工业	-11.4496
高强度	-11.4496
的其他	-11.4497
焙	-11.4497
辅导员	-11.4498
的象征	-11.4498
新药	-11.4499
丸,	-11.4501
提到	-11.4502
、北	-11.4504
I	-11.4506
,实	-11.4507
用料	-11.4507
柚	-11.4508
四星级	-11.4508
领导小组	-11.4508
旋律	-11.451
正月	-11.451
孙中山	-11.451
中药材	-11.451
混乱	-11.451
副主任医师,	-11.451
的性质	-11.4513
之名	-11.4513
的话,	-11.4514
衔接	-11.4515
注册表	-11.4517
满洲	-11.452
周刊	-11.4522
之王	-11.4523
的领导	-11.4523
:0	-11.4523
对人体	-11.4524
磊	-11.4525
主导产品	-11.4526
贯通	-11.4526
阻力	-11.4527
茗	-11.4528
。1938年	-11.4528
领先地位	-11.4528
手枪	-11.453
湛	-11.4531
溃	-11.4531
成名	-11.4535
发表了	-11.4535
德语	-11.4536
多方	-11.4537
,凡	-11.4538
一直是	-11.4541
面的	-11.4541
不安	-11.4542
▁如果	-11.4543
聚焦	-11.4544
1名,	-11.4544
切削	-11.4544
南端	-11.4545
战胜	-11.4545
是世界	-11.4545
主编《	-11.4545
哥伦比亚	-11.4548
秃	-11.4548
咪	-11.4548
,建筑面积	-11.4549
随即	-11.455
秆	-11.455
50°C	-11.455
绿色环保	-11.4551
愉快	-11.4552
年(17	-11.4552
济宁	-11.4553
第9	-11.4553
托管	-11.4554
露天	-11.4554
、文化	-11.4554
线索	-11.4555
基础设施建设	-11.4556
间隙	-11.4557
停车	-11.4558
合适的	-11.4562
公司总经理	-11.4562
天赋	-11.4563
1路	-11.4563
拦	-11.4563
殊荣	-11.4563
度假村	-11.4563
胆固醇	-11.4564
@	-11.4564
▁2000年	-11.4564
踢	-11.4565
素养	-11.4565
主持完成	-11.4565
集团军	-11.4565
11月出生,	-11.4566
6名	-11.4568
楼层	-11.4568
股市	-11.457
的一首	-11.457
,最大	-11.4571
的发生	-11.4571
主教	-11.4571
▁为了	-11.4572
137	-11.4572
配制	-11.4573
水性	-11.4573
万多平方米	-11.4573
副理事长	-11.4574
并被	-11.4575
生平	-11.4576
兴隆	-11.4577
老虎	-11.4579
7月生,	-11.458
,南接	-11.458
稽查	-11.4581
居住在	-11.4583
间接	-11.4583
民兵	-11.4583
,并被	-11.4584
低音	-11.4586
330	-11.4586
并获得	-11.4587
在英国	-11.4588
集成电路	-11.4589
2万	-11.4589
行业管理	-11.4589
陌生	-11.459
花朵	-11.4591
灵芝	-11.4591
吸取	-11.4591
为主导	-11.4591
一般在	-11.4591
潜心	-11.4591
大阪	-11.4592
分析与	-11.4593
师资队伍	-11.4593
576	-11.4594
书店	-11.4595
是北京	-11.4596
诸如	-11.4597
在原	-11.4598
,未	-11.4598
站。	-11.4598
网站,	-11.4598
0元/	-11.4599
会员,	-11.4599
草书	-11.46
湖州	-11.46
车载	-11.46
▁2001年	-11.4602
烧热	-11.4603
1—	-11.4604
上传	-11.4605
投诉	-11.4607
臻	-11.4608
,约	-11.4609
菜系	-11.4609
为3	-11.4611
3500	-11.4612
学园	-11.4613
高效率	-11.4613
稀土	-11.4614
不在	-11.4615
七月	-11.4616
,何	-11.4616
梢	-11.4617
末期	-11.4617
生产和销售	-11.4617
颠	-11.4617
官吏	-11.4618
,整个	-11.4618
一个个	-11.4619
红外线	-11.462
优质产品	-11.462
平坦	-11.462
的建议	-11.4621
把自己	-11.4622
草莓	-11.4623
住宅小区	-11.4623
党委书记、	-11.4623
环境。	-11.4623
背鳍	-11.4625
标配	-11.4625
酉	-11.4626
平整	-11.4626
莺	-11.4629
的合法权益	-11.4629
砂岩	-11.4629
调动	-11.4629
伴奏	-11.463
统一的	-11.4631
品。	-11.4632
潜水	-11.4632
得名	-11.4632
交流平台	-11.4633
当天	-11.4634
显微镜	-11.4635
中小型	-11.4635
技术研发	-11.4635
人;	-11.4636
候选人	-11.4637
技术咨询	-11.4637
牺牲。	-11.4638
万平方米。	-11.4639
(14	-11.464
湘潭	-11.464
基建	-11.464
著名商标	-11.464
恤	-11.464
灸	-11.4641
加入中国共产党,	-11.4641
1月生,	-11.4641
的国家	-11.4641
,即可	-11.4643
农牧	-11.4643
增值	-11.4644
确定为	-11.4645
纸质	-11.4645
6项	-11.4645
▁王	-11.4646
独自	-11.4646
林下	-11.4646
眷	-11.4647
护肤	-11.4647
奖金	-11.4652
晃	-11.4652
结石	-11.4652
东邻	-11.4654
一应俱全	-11.4654
品种,	-11.4654
批发市场	-11.4655
在“	-11.4655
大观	-11.4656
长1	-11.4656
主产	-11.4656
乌鲁木齐	-11.4657
理论基础	-11.4658
中断	-11.4659
水系	-11.4661
用清水	-11.4662
6米	-11.4663
多变	-11.4664
。通常	-11.4665
给他	-11.4665
研磨	-11.4666
道士	-11.4666
副主任。	-11.4667
萃取	-11.4669
历时	-11.467
教学设施	-11.4671
系统地	-11.4673
区划	-11.4674
突起	-11.4675
果园	-11.4675
还没有	-11.4676
研究生毕业	-11.4676
鸡汤	-11.4677
要求。	-11.4678
他对	-11.4679
聚乙烯	-11.4679
革新	-11.4681
鸠	-11.4681
操控	-11.4681
赌	-11.4682
防洪	-11.4683
婴幼儿	-11.4684
所产生的	-11.4685
展现了	-11.4685
给人	-11.4685
极佳	-11.4686
单位的	-11.4686
规范的	-11.4686
的场合	-11.4687
。他在	-11.4688
血清	-11.4688
综	-11.4688
纷	-11.469
归纳	-11.469
山麓	-11.469
加工设备	-11.4691
1条	-11.4692
锭	-11.4694
▁第二	-11.4694
156	-11.4694
中世纪	-11.4695
长久	-11.4695
漏洞	-11.4699
ㄒㄧ	-11.4699
交易所	-11.47
人所	-11.4701
刻有	-11.4701
味甘	-11.4702
驯	-11.4702
ㄕ	-11.4702
的第一个	-11.4703
网址	-11.4703
、吴	-11.4703
万人次	-11.4706
通车	-11.4709
名优	-11.4709
出版发行	-11.471
5400	-11.4712
语:	-11.4713
。又	-11.4713
,2011年	-11.4713
白银	-11.4715
芝加哥	-11.4715
究	-11.4717
上线	-11.4717
在一定	-11.4718
挤压	-11.4718
温室	-11.4718
09年	-11.4718
公司已	-11.4719
同时也是	-11.4719
插图	-11.4721
人们对	-11.4723
电位	-11.4723
胶带	-11.4727
▁外观	-11.4728
纪检	-11.4729
该病毒	-11.4732
纠	-11.4733
人民代表大会	-11.4734
编辑、	-11.4734
相通	-11.4735
厂厂长	-11.4737
的女人	-11.4737
麻烦	-11.4738
挽	-11.474
灭火	-11.474
粪	-11.4742
光亮	-11.4743
,建于	-11.4744
的意思。	-11.4744
留下了	-11.4746
袜	-11.4746
铵	-11.4746
多层次	-11.4749
教学科研	-11.4749
适合于	-11.475
绿茶	-11.4751
切断	-11.4752
2月,	-11.4752
贴心	-11.4752
邮政编码	-11.4753
病情	-11.4753
硫化	-11.4754
去掉	-11.4755
比重	-11.4755
研修	-11.4756
绅	-11.4756
理事长	-11.4756
各行业	-11.4756
作品展	-11.4759
协商	-11.476
1000多	-11.4761
宜人	-11.4761
声优	-11.4761
庄子	-11.4762
治病	-11.4762
还将	-11.4762
,该村	-11.4763
脱水	-11.4763
5公里,	-11.4763
的权利	-11.4764
吓	-11.4765
风景秀丽的	-11.4765
确定的	-11.4765
:无	-11.4765
大学本科学历	-11.4765
同心	-11.4766
六月	-11.4766
具有一定	-11.4767
形式。	-11.4767
车身	-11.4768
第十二	-11.4768
受益	-11.4768
08年	-11.4769
生物工程	-11.4771
百科	-11.4772
作品集	-11.4772
▁陈	-11.4772
向西	-11.4773
猪油	-11.4773
的母亲	-11.4774
的操作	-11.4774
浴室	-11.4774
完善,	-11.4778
在一起,	-11.4778
一股	-11.4779
主料	-11.478
编审	-11.478
为己任	-11.4781
大将军	-11.4781
隆重	-11.4782
有线	-11.4782
羞	-11.4782
人才。	-11.4783
奕	-11.4783
翌年	-11.4784
色拉油	-11.4784
,笔名	-11.4785
1918年	-11.4786
在广州	-11.4786
485	-11.4786
批准成立的	-11.4787
×5	-11.4787
,其余	-11.4788
考取	-11.4789
里斯	-11.479
颁	-11.4791
中餐厅	-11.4792
行业标准	-11.4792
天天	-11.4792
包含了	-11.4793
西域	-11.4794
感悟	-11.4795
第二个	-11.4797
规划和	-11.48
事实上	-11.4801
立方	-11.4802
儒家	-11.4804
昆仑	-11.4804
琵琶	-11.4805
较短	-11.4805
政策,	-11.4805
称赞	-11.4805
转为	-11.4805
85%	-11.4806
凝固	-11.4808
中国经济	-11.4808
犹如	-11.4808
功耗	-11.4809
塘镇	-11.4809
下来的	-11.4809
至此	-11.481
而有	-11.481
考验	-11.481
水平的	-11.481
产品销售	-11.4811
乏	-11.4813
缪	-11.4815
技术培训	-11.4815
辩证	-11.4815
9.6	-11.4815
神圣	-11.4816
月中旬	-11.4817
148	-11.4819
从业	-11.4819
指导和	-11.482
处在	-11.4821
多个国家和地区	-11.4821
结论	-11.4821
开始在	-11.4823
时尚的	-11.4824
成虫	-11.4825
卫生院	-11.4825
交汇处	-11.4826
引水	-11.4827
确立了	-11.4827
牌子	-11.4828
法庭	-11.4829
学校占地	-11.4834
命名的	-11.4835
电子有限公司	-11.4835
大殿	-11.4835
了一系列	-11.4837
本厂	-11.4837
争夺	-11.4837
改性	-11.4838
这套	-11.4839
讳	-11.4842
上千	-11.4842
经济社会发展	-11.4842
落户	-11.4842
%%	-11.4843
2条	-11.4843
讲话	-11.4845
保险公司	-11.4847
可能会	-11.4847
行政区域	-11.4847
成长为	-11.4848
首选	-11.4849
的样子	-11.4849
综合利用	-11.4852
并以	-11.4852
,凭借	-11.4853
,设有	-11.4853
多达	-11.4854
作家协会	-11.4854
自然景观	-11.4856
,直径	-11.4856
身为	-11.4857
1913年	-11.4858
专业性	-11.4858
▁2006	-11.4858
/6	-11.4858
繁育	-11.4859
,易	-11.486
。该书	-11.486
填补了	-11.486
冬天	-11.4861
海参	-11.4861
路灯	-11.4861
学》、《	-11.4862
制的	-11.4864
浦东	-11.4864
6×	-11.4865
9月,	-11.4865
大庆	-11.4865
的全部	-11.4866
油漆	-11.4867
。它们	-11.4867
记》:“	-11.487
迄今	-11.487
伸缩	-11.4872
电视节目	-11.4872
花冠	-11.4873
影院	-11.4873
这本	-11.4875
▁你	-11.4877
获博士学位	-11.4877
不止	-11.4878
奉命	-11.4879
纂	-11.4881
“双	-11.4881
大片	-11.4883
沙河	-11.4885
烤箱	-11.4886
曾荣获	-11.4888
企图	-11.4889
预期	-11.4889
约翰	-11.4889
的品质	-11.489
煸炒	-11.489
防守	-11.4891
的重大	-11.4891
论》:“	-11.4891
懿	-11.4892
白天	-11.4893
调解	-11.4894
美军	-11.4895
影响的	-11.4895
,才能	-11.4895
生理学	-11.4896
册,	-11.4896
心理咨询	-11.4897
精神病	-11.4897
跨世纪	-11.4898
质感	-11.4898
行政区	-11.4898
农学	-11.4899
之地。	-11.4899
老子	-11.4899
杜甫	-11.49
赠送	-11.49
油墨	-11.4902
由美国	-11.4902
流行于	-11.4903
欧式	-11.4903
长短	-11.4903
村地处	-11.4903
县人民政府副县长	-11.4904
的能力。	-11.4904
给了	-11.4905
根据《	-11.4906
残酷	-11.4907
7.4	-11.4907
中空	-11.4907
名著	-11.4908
性质的	-11.4908
等业务	-11.4908
长官	-11.4909
的喜爱	-11.491
穆斯林	-11.4911
大学教授	-11.4911
云集	-11.4912
文化传播有限公司	-11.4913
,已经	-11.4913
职员	-11.4914
本草	-11.4915
矩阵	-11.4915
天台	-11.4915
管件	-11.4919
四海	-11.492
育成	-11.4921
衡阳市	-11.4921
歧	-11.4921
人人	-11.4921
救灾	-11.4922
位移	-11.4923
25年	-11.4923
大专院校	-11.4924
640	-11.4925
市委市政府	-11.4926
,无论	-11.4926
▁号:	-11.4926
同胞	-11.4927
二氧化碳	-11.4927
每位	-11.4927
莽	-11.4928
创造性	-11.4928
为社会	-11.4929
肝炎	-11.4929
达尔	-11.4929
姜末	-11.493
具有丰富的	-11.4931
▁所属	-11.4931
100克,	-11.4932
婷	-11.4932
》是一部	-11.4933
曲目	-11.4933
搞笑	-11.4934
ㄉ	-11.4935
追踪	-11.4936
立式	-11.4936
看来	-11.4936
▁曾任	-11.4936
厝	-11.4938
委组织部	-11.4938
党总支书记	-11.4941
技术及	-11.4942
嵌入式	-11.4942
,中共党员。	-11.4943
这首	-11.4943
家属	-11.4944
作“	-11.4944
大学学历,	-11.4945
北岸	-11.4945
灵敏度	-11.4946
滚动	-11.4946
西边	-11.4947
之间。	-11.4948
并与	-11.4948
怀疑	-11.4948
国民政府	-11.4949
主要研究方向为	-11.4951
教育机构	-11.4951
走廊	-11.4952
矿井	-11.4952
“金	-11.4952
:20	-11.4953
仑	-11.4954
р	-11.4956
5/	-11.4959
裁判	-11.496
的人物	-11.496
る	-11.4962
创新的	-11.4962
的特性	-11.4963
安静	-11.4964
之际,	-11.4965
所谓“	-11.4966
第二大	-11.4968
盐城	-11.4968
绛	-11.497
马克	-11.497
闽东	-11.4972
汤匙	-11.4973
科学、	-11.4974
洗净切	-11.4974
9人	-11.4975
伴有	-11.4975
在位	-11.4975
上门	-11.4975
躁	-11.4977
原生	-11.4977
维也纳	-11.4978
编曲	-11.4979
的法律	-11.4979
床位	-11.498
铁路、	-11.498
丢	-11.4981
古文	-11.4981
的责任	-11.4983
成立。	-11.4984
南洋	-11.4987
籽粒	-11.4987
愧	-11.4988
韧性	-11.4989
赞誉	-11.4989
而无	-11.4989
都很	-11.4989
立方米	-11.499
南通市	-11.499
灾难	-11.499
欲望	-11.499
。从事	-11.4991
。本公司	-11.4994
解码	-11.4995
,全长	-11.4995
国家二级	-11.4995
:12	-11.4995
可是	-11.4996
(13	-11.4997
病因	-11.4998
评比	-11.4998
建筑面积1	-11.4999
社会经济	-11.5
,他在	-11.5
▁2011	-11.5
基金项目	-11.5
,供	-11.5001
刻苦	-11.5001
十七年	-11.5004
▁2007	-11.5004
工具。	-11.5004
950	-11.5004
馆藏	-11.5005
发达,	-11.5006
信托	-11.5006
代表大会	-11.5007
精良	-11.5007
荀	-11.5007
的著名	-11.5009
清河	-11.501
地质学	-11.501
环路	-11.5011
起锅	-11.5015
书刊	-11.5017
母本	-11.5018
0平米	-11.5019
,不久	-11.5021
娱	-11.5021
当代中国	-11.5021
已达	-11.5023
足迹	-11.5023
大理石	-11.5026
802.3	-11.5026
摄像	-11.5026
良性	-11.5027
住户	-11.5027
、青	-11.5028
、东	-11.5028
信息。	-11.5029
,及时	-11.503
开放式	-11.503
8～	-11.5031
喊	-11.5031
右手	-11.5032
止血	-11.5032
稚	-11.5032
开了	-11.5032
椭圆形,	-11.5033
放松	-11.5034
外接	-11.5034
政策法规	-11.5034
列表	-11.5035
宰相	-11.5035
客户至上	-11.5035
精美的	-11.5036
热血	-11.5036
五百	-11.5036
批量	-11.5037
成交	-11.5039
石桥	-11.5041
斑纹	-11.5042
重要作用	-11.5042
影音	-11.5043
经络	-11.5043
继续教育	-11.5043
第10	-11.5044
色调	-11.5046
软化	-11.5046
一个新的	-11.5049
制造有限公司	-11.5049
东与	-11.5049
偿	-11.5049
出版了	-11.5051
以下的	-11.5052
岳阳	-11.5052
有趣	-11.5052
公司现有	-11.5053
的功效	-11.5056
所需要的	-11.5056
不明显	-11.5057
方便。	-11.5057
无奈	-11.5058
总站	-11.506
至今。	-11.506
外围	-11.506
签署	-11.5062
斯()	-11.5062
珍稀	-11.5062
光彩	-11.5062
已通过	-11.5063
沽	-11.5063
营养价值	-11.5064
南昌市	-11.5066
行程	-11.5066
昆明市	-11.5066
农副产品	-11.5066
国会	-11.5066
9月出生,	-11.5067
强势	-11.5067
建筑群	-11.5068
开发和	-11.507
东至	-11.5071
驼	-11.5072
滋补	-11.5073
结核	-11.5073
问答	-11.5073
应该是	-11.5074
启蒙	-11.5074
萝	-11.5074
鸾	-11.5075
苟	-11.5075
完全中学	-11.5076
人身	-11.5077
保健食品	-11.5077
新闻出版	-11.5079
浓厚的	-11.508
质量监督	-11.508
病症	-11.5082
石雕	-11.5083
防雷	-11.5083
狠抓	-11.5083
骨干企业	-11.5083
”之称。	-11.5084
掩护	-11.5085
制约	-11.5086
样本	-11.5086
用刀	-11.5086
最佳的	-11.5088
8米	-11.5088
、河北	-11.5088
、安徽	-11.5089
可通过	-11.5089
至今已	-11.509
远程教育	-11.509
温带	-11.509
畜牧兽医	-11.5092
144	-11.5092
厂长	-11.5093
并将	-11.5093
、副	-11.5094
路由器	-11.5094
聊	-11.5094
谥	-11.5095
洗干净	-11.5096
1978	-11.5096
环境,	-11.5096
油锅	-11.5096
的商品	-11.5097
佰	-11.5097
央视	-11.5098
教育的	-11.5099
义乌	-11.51
,汉族,	-11.51
扎实的	-11.5101
5毫米	-11.5102
产业的	-11.5102
委常委、	-11.5102
准确的	-11.5102
芥	-11.5103
蔽	-11.5104
电影节	-11.5104
少,	-11.5104
震动	-11.5104
诚实	-11.5105
绘图	-11.5106
极端	-11.5106
欺	-11.5106
科技发展有限公司	-11.5106
子里	-11.5106
于1999年	-11.5107
红椒	-11.5108
主题曲	-11.5108
高宗	-11.5109
获硕士学位	-11.5109
技术人才	-11.511
采样	-11.511
开机	-11.511
。★	-11.511
各省	-11.5111
承担了	-11.5111
放映	-11.5111
也就是说	-11.5112
禧	-11.5113
心脏病	-11.5116
深入浅出	-11.5116
与人	-11.5117
退化	-11.5118
约占	-11.5118
位于山东省	-11.5121
的两个	-11.5121
担心	-11.5121
接壤	-11.5122
小高层	-11.5122
监控系统	-11.5123
等称号	-11.5125
鹦鹉	-11.5125
1981	-11.5126
释义:	-11.5126
,赢得了	-11.5126
老干部	-11.5127
丫	-11.5127
先进企业	-11.5128
教师队伍	-11.5128
是英国	-11.5128
北边	-11.513
向往	-11.513
生产制造	-11.513
杜鹃	-11.5131
研究课题	-11.5133
为末	-11.5133
防火墙	-11.5135
中兴	-11.5135
。1945年	-11.5136
3月生,	-11.5137
文革	-11.5138
所说的	-11.5138
建设部	-11.5139
萨尔	-11.5139
铸铁	-11.514
的特征	-11.5141
侵蚀	-11.5141
塑性	-11.5141
微观	-11.5142
外型	-11.5143
;花	-11.5144
北齐	-11.5144
师,	-11.5146
旗帜	-11.5146
而已	-11.5147
为目标,	-11.5147
,据	-11.5147
秀才	-11.5148
懂得	-11.5148
服务公司	-11.5149
制定的	-11.5149
的现象	-11.5152
り	-11.5152
头顶	-11.5152
交货	-11.5153
玛丽	-11.5153
衢	-11.5153
烘干	-11.5154
一句	-11.5155
最后一	-11.5156
副部长	-11.5156
纤细	-11.5157
中国市场	-11.5157
传导	-11.5157
伴随着	-11.5158
(..)	-11.5159
部门的	-11.5159
整车	-11.5159
了很多	-11.516
次会议	-11.516
我厂	-11.5162
安康	-11.5162
为界	-11.5163
等地区	-11.5165
起源	-11.5165
166	-11.5166
电视机	-11.5166
如来	-11.5167
交给	-11.5169
1:	-11.5169
学会副理事长	-11.5169
安阳	-11.517
烘	-11.517
者和	-11.517
,并为	-11.5171
和其它	-11.5172
丝绸	-11.5172
顾问,	-11.5173
脾胃	-11.5174
江镇	-11.5174
与现代	-11.5175
90年代	-11.5175
援助	-11.5176
看着	-11.5176
医学博士	-11.5176
无不	-11.5176
年仅	-11.5177
线程	-11.5179
、娱乐	-11.518
镇党委书记	-11.5182
。”参见“	-11.5183
1座	-11.5184
绚丽	-11.5185
儿女	-11.5189
培养学生	-11.5189
石、	-11.519
。1936年	-11.5191
管理与	-11.5191
,终	-11.5191
旅游景区	-11.5192
,上面	-11.5192
沦	-11.5193
保修卡	-11.5193
探究	-11.5193
▁公司拥有	-11.5194
成立以来,	-11.5195
中国美术家协会会员	-11.5197
模式:	-11.5198
为适应	-11.5199
自从	-11.52
泣	-11.5201
工作经验	-11.5201
闪光	-11.5202
-3-	-11.5202
提炼	-11.5202
学业	-11.5203
铭文	-11.5204
教务	-11.5205
中国社会科学院	-11.5205
了他的	-11.5205
断面	-11.5205
第十一届	-11.5205
花草	-11.5207
,楼高	-11.5207
难点	-11.5209
124	-11.5209
椿	-11.5209
回顾	-11.521
曹操	-11.5211
长篇小说	-11.5211
玉器	-11.5212
667	-11.5212
适时	-11.5213
林中	-11.5214
知识,	-11.5215
一个小	-11.5215
类专业	-11.5216
的一切	-11.5216
本机	-11.5217
被国家	-11.5218
咽喉	-11.5218
支持3	-11.5218
动植物	-11.5218
向北	-11.5219
雄伟	-11.5219
、低	-11.5219
出版《	-11.5219
笨	-11.5221
丞相	-11.5221
视听	-11.5222
常绿	-11.5222
规划教材	-11.5223
,才	-11.5223
决议	-11.5224
勇于	-11.5225
11月,	-11.5226
再现	-11.5226
玺	-11.5226
,边缘	-11.5226
故事。	-11.5227
担任过	-11.5228
▁所属分类:图书>	-11.5228
是上海	-11.5228
好莱坞	-11.5229
贮藏	-11.5229
队,	-11.5229
琉璃	-11.523
辛亥革命	-11.523
品尝	-11.523
礼物	-11.5231
;对	-11.5231
表现了	-11.5232
装卸	-11.5232
经营范围	-11.5232
民盟	-11.5234
动画片	-11.5234
桥头	-11.5235
体育运动	-11.5236
教育科研	-11.5236
工作和	-11.5237
交错	-11.5237
2月生,	-11.5237
,并通过	-11.524
完成的	-11.524
对接	-11.524
综合楼	-11.5241
各方	-11.5241
具有较强的	-11.5242
领域,	-11.5242
碗中	-11.5242
应邀	-11.5243
缩写	-11.5244
庐山	-11.5244
赛区	-11.5246
交通部	-11.5249
”的宗旨,	-11.5251
制造工艺	-11.5251
后备	-11.5252
外用	-11.5253
丧失	-11.5253
擒	-11.5253
佚	-11.5253
两部	-11.5254
烹	-11.5255
弟弟	-11.5255
中的一种	-11.5255
的中心	-11.5255
新乡市	-11.5256
之际	-11.5257
元月	-11.5259
之法	-11.5259
抗原	-11.5259
顶生	-11.5261
朴实	-11.5261
无公害	-11.5264
分别是	-11.5264
分会会员	-11.5264
报价	-11.5265
$	-11.5265
补助	-11.5266
累积	-11.5268
篇章	-11.5269
碑林	-11.527
技术有限公司	-11.527
8.7	-11.5271
冠军。	-11.5271
舅	-11.5273
书画展	-11.5273
意为“	-11.5274
专卖店	-11.5275
妾	-11.5275
20米	-11.5276
放到	-11.5277
的唯一	-11.5278
步伐	-11.5279
美容美发	-11.5279
检察院	-11.528
客栈	-11.528
500万元	-11.5283
的国际	-11.5283
说明:	-11.5283
有三	-11.5283
近千	-11.5284
科长、	-11.5284
下垂	-11.5285
的种类	-11.5285
三位	-11.5286
情歌	-11.5286
07年	-11.5286
涟	-11.5287
、生活	-11.5287
专门为	-11.5288
林立	-11.5288
趁	-11.5288
乖	-11.529
的大力支持	-11.529
小康	-11.5295
勘	-11.5295
天鹅	-11.5295
水平,	-11.5295
钻研	-11.5296
的出现	-11.5296
类产品	-11.5297
厚重	-11.5297
,有些	-11.5298
职业学校	-11.5299
理工学院	-11.5299
,1979年	-11.53
洞穴	-11.5301
八月	-11.5301
证书。	-11.5302
师、	-11.5302
▁2008	-11.5302
制作人	-11.5302
峨	-11.5302
讲述的是	-11.5302
路段	-11.5303
得出	-11.5304
此种	-11.5304
工贸	-11.5304
登录	-11.5305
药理	-11.5306
置业	-11.5307
尺度	-11.5307
最大化	-11.5308
、南京	-11.5308
现为中国	-11.531
1-3	-11.5312
巴基斯坦	-11.5312
横跨	-11.5312
她在	-11.5313
信息、	-11.5313
划分为	-11.5313
优异的	-11.5313
之气	-11.5314
发源于	-11.5314
,师从	-11.5315
菠菜	-11.5315
沿线	-11.5316
男生	-11.5316
天涯	-11.5316
磅	-11.5317
芙	-11.5317
的各类	-11.5318
祠堂	-11.5319
00多平方米,	-11.5319
硕士,	-11.5319
基础研究	-11.532
9公里	-11.5321
交通方便	-11.5321
进驻	-11.5323
的科学	-11.5323
医疗卫生	-11.5325
不育	-11.5325
周易	-11.5325
腹痛	-11.5326
英尺	-11.5328
的对象	-11.5328
十个	-11.5329
▁位于	-11.533
典籍	-11.533
分量	-11.5331
柴油机	-11.5331
》一文	-11.5333
新安	-11.5333
建造的	-11.5333
的地方,	-11.5333
帛	-11.5334
王家	-11.5335
急诊	-11.5335
锂	-11.5336
经济学院	-11.5336
冕	-11.5337
年均	-11.5338
栓	-11.5338
好学	-11.5339
177	-11.534
全球化	-11.5341
言语	-11.5343
突变	-11.5343
7.7	-11.5343
社长	-11.5344
汉口	-11.5345
唱片公司	-11.5346
制式	-11.5346
发展壮大	-11.5347
1997.	-11.5348
张力	-11.5348
厢	-11.5349
哩	-11.5349
移居	-11.535
镇压	-11.535
的联系	-11.5351
的原则,	-11.5352
。花期	-11.5352
江北	-11.5352
管理水平	-11.5353
作用下	-11.5353
进了	-11.5353
国际上	-11.5353
5.9	-11.5355
生产、销售	-11.5356
迈进	-11.5358
挂牌	-11.5359
时任	-11.5359
柔和	-11.5359
中段	-11.5359
哑	-11.5359
新生儿	-11.536
海绵	-11.5361
16年	-11.5362
社会科学院	-11.5363
(5)	-11.5363
''	-11.5363
投身	-11.5365
分明	-11.5365
悬浮	-11.5366
书面	-11.5366
公司是	-11.5366
风景秀丽	-11.5367
11人	-11.5369
矾	-11.5371
主攻	-11.5371
什么是	-11.5371
死者	-11.5373
诚信、	-11.5373
2—	-11.5374
醚	-11.5374
。1955年	-11.5375
三元	-11.5377
半小时	-11.5377
白沙	-11.5377
物价	-11.5379
化管理	-11.5379
158	-11.5381
25%	-11.5382
伟大	-11.5385
颍	-11.5385
中文名	-11.5385
连年	-11.5386
一番	-11.5388
之一,是	-11.5388
自古	-11.5389
缕	-11.539
模式。	-11.539
铁道部	-11.5391
奴隶	-11.5392
不失	-11.5392
纪念碑	-11.5393
滨江	-11.5394
162	-11.5394
,取得	-11.5394
拉丁	-11.5396
的人们	-11.5396
支柱	-11.5396
,适用于	-11.5396
,山东省	-11.5396
剪纸	-11.5397
花木	-11.5397
教学能手	-11.5399
管材	-11.5399
质量、	-11.54
,即使	-11.54
2月任	-11.54
、黑	-11.54
不住	-11.54
愿与	-11.5401
被省	-11.5401
在外	-11.5402
肾病	-11.5402
亢	-11.5403
假设	-11.5403
贫血	-11.5404
这段	-11.5405
支行	-11.5405
过于	-11.5405
气象局	-11.5405
日用	-11.5407
孔雀	-11.5407
奇异	-11.5408
看看	-11.5408
便宜	-11.5409
南下	-11.541
低,	-11.5411
年生产能力	-11.5411
崭新的	-11.5412
等特点	-11.5412
补贴	-11.5413
走上	-11.5413
见证	-11.5414
星星	-11.5415
小学、	-11.5415
天后	-11.5417
一口	-11.5418
地球物理	-11.5418
日趋	-11.5418
麒麟	-11.5418
叙事	-11.5418
政党	-11.5419
委员会委员、	-11.5419
离心	-11.542
与之	-11.542
示范性	-11.5421
获学士学位	-11.5421
攻打	-11.5422
足球队	-11.5422
中国企业	-11.5423
系毕业	-11.5423
火烧	-11.5424
大事	-11.5424
流浪	-11.5426
现在效力于	-11.5429
的爱	-11.543
土地面积	-11.543
湿热	-11.543
博学	-11.5432
的影响。	-11.5432
,提升	-11.5434
,继续	-11.5434
工程的	-11.5434
星球	-11.5434
晋江	-11.5436
863	-11.5436
汇集了	-11.5436
越大	-11.5436
重镇	-11.5438
提取物	-11.5438
地毯	-11.5439
人”	-11.5439
预定	-11.5439
,授	-11.5441
委、	-11.5441
射程	-11.5441
进入了	-11.5441
调到	-11.5441
物理系	-11.5444
创建了	-11.5446
度过	-11.5446
主要的	-11.5446
无线网卡	-11.5448
乡人	-11.5448
陂	-11.545
竹林	-11.5451
条款	-11.5452
的关注	-11.5453
撕	-11.5455
术后	-11.5456
,捞出	-11.5457
市镇	-11.5458
琐	-11.5459
,结果	-11.546
万吨,	-11.546
祺	-11.546
切碎	-11.5461
为己任,	-11.5461
业、	-11.5461
50万	-11.5462
登山	-11.5463
文库	-11.5464
东边	-11.5465
出版。	-11.5465
严肃	-11.5467
哪些	-11.5467
1小时	-11.5467
子弹	-11.5468
短片	-11.5469
7月1日	-11.547
,中间	-11.5471
战斗机	-11.5472
那时	-11.5473
教学班	-11.5473
的组织	-11.5473
疯	-11.5474
杠	-11.5474
眼光	-11.5474
无缝钢管	-11.5477
望远镜	-11.5478
中关村	-11.5478
韭菜	-11.5479
热能	-11.5479
投降	-11.548
紧凑	-11.5482
类的	-11.5483
和方法	-11.5483
博物馆。	-11.5483
,为客户提供	-11.5485
之力	-11.5486
更快	-11.5486
号,	-11.549
试验机	-11.5491
需求的	-11.5491
邸	-11.5492
国有资产	-11.5492
和企业	-11.5492
可直接	-11.5493
,协助	-11.5495
切丝	-11.5495
纯粹	-11.5495
市内	-11.5496
、财务	-11.5498
和一个	-11.5498
县(今	-11.5501
内容。	-11.5501
怜	-11.5502
滋阴	-11.5503
此菜	-11.5504
家教	-11.5504
大类	-11.5505
1917年	-11.5505
例子	-11.5506
导游	-11.5507
着色	-11.5507
4米	-11.5508
领军	-11.5508
,每天	-11.5509
畜禽	-11.5509
泼	-11.5509
殖民	-11.5509
,建立了	-11.551
使者	-11.5512
235	-11.5513
50年代	-11.5513
状态,	-11.5513
襟	-11.5514
动工	-11.5515
,1978年	-11.5516
30克,	-11.5516
为核心的	-11.5517
信息化建设	-11.5517
▁金	-11.5517
202	-11.5517
笺	-11.552
,必	-11.552
喜好	-11.5521
-2008	-11.5521
薄荷	-11.5522
中枢	-11.5522
条件的	-11.5523
长乐	-11.5523
440	-11.5524
音译	-11.5524
用途:	-11.5524
的根本	-11.5525
千金	-11.5526
耐腐蚀	-11.5527
全名	-11.5528
性感	-11.5528
50人	-11.5529
的专业化	-11.5532
不动	-11.5533
,历经	-11.5533
相遇	-11.5534
悲剧	-11.5536
综合素质	-11.5536
自主创新	-11.5536
风格。	-11.5536
中性	-11.5537
政治学	-11.5537
的结合	-11.5539
巡回	-11.5539
侦查	-11.5539
西欧	-11.5539
。多年来,	-11.5539
▁喜欢的	-11.554
的成员	-11.554
区人民政府	-11.5541
技术水平	-11.5541
之女	-11.5541
站,	-11.5542
丰田	-11.5543
粘度	-11.5543
来源:	-11.5543
苏维埃政府	-11.5544
为何	-11.5544
宋朝	-11.5545
埔	-11.5545
花柱	-11.5545
学校位于	-11.5547
保持着	-11.5548
超大	-11.5548
生活,	-11.5549
的典型	-11.5549
耗材	-11.555
拉伸	-11.555
,叶片	-11.555
韶	-11.555
户。	-11.5553
次年	-11.5553
委员会委员。	-11.5553
想到	-11.5554
结构和	-11.5554
马路	-11.5555
中国现代	-11.5556
政策和	-11.5556
革命烈士	-11.5559
克里	-11.556
胚胎	-11.556
月下旬	-11.556
富士	-11.5562
儿童文学	-11.5562
粘土	-11.5564
,同时还	-11.5565
监护	-11.5566
反而	-11.5566
主要分布在	-11.5567
九月	-11.5568
全生育期	-11.5568
特拉	-11.5571
不适	-11.5572
父本	-11.5573
珍贵的	-11.5573
9.1	-11.5573
会同有关部门	-11.5575
机械工程	-11.5575
打工	-11.5576
5月生,	-11.5578
朋友们	-11.5579
232	-11.5579
粘膜	-11.558
通体	-11.558
嫡	-11.558
培养了	-11.558
大辞典	-11.5581
注音	-11.5581
镀锌	-11.5581
变化。	-11.5582
商机	-11.5582
黄帝	-11.5583
稻瘟病	-11.5583
萼片	-11.5583
交通便利,	-11.5584
石碑	-11.5585
文化遗产	-11.5585
可以看到	-11.5586
体检	-11.5587
央	-11.5587
β	-11.5587
机械加工	-11.5588
楼宇	-11.5589
釜	-11.5591
能否	-11.5591
纯净	-11.5592
水道	-11.5592
俯	-11.5593
志愿	-11.5593
女友	-11.5593
ˇ	-11.5594
指导思想	-11.5594
服务和	-11.5594
生产商	-11.5594
一词	-11.5595
六合	-11.5596
经典的	-11.5596
被列入	-11.5596
法治	-11.5596
100-	-11.5596
笔记本电脑	-11.5597
8月出生,	-11.5597
隔热	-11.5598
面条	-11.5598
领域。	-11.5599
,西临	-11.56
辖区面积	-11.5601
,总建筑面积	-11.5601
完毕	-11.5601
惠州市	-11.5602
炸弹	-11.5602
癫痫	-11.5603
西红柿	-11.5603
新娘	-11.5603
理论知识	-11.5604
语言文字	-11.5605
晚报	-11.5609
诚信经营	-11.5611
拉萨	-11.5611
唑	-11.5611
万美元	-11.5611
师资力量雄厚	-11.5612
年份	-11.5612
宜昌市	-11.5612
的又一	-11.5612
华东师范大学	-11.5613
平方千米,	-11.5613
。1948年	-11.5615
工作原理	-11.5616
更具	-11.5617
渲染	-11.5617
抗病	-11.5618
的利益	-11.5619
完好	-11.562
利于	-11.5622
尸体	-11.5622
”为宗旨,	-11.5623
教程》	-11.5623
东经1	-11.5624
渊源	-11.5624
教育厅	-11.5625
水生	-11.5625
推广应用	-11.5626
茶园	-11.5626
,1963年	-11.5628
病害	-11.5628
海口市	-11.5629
。故	-11.5631
依旧	-11.5633
彩票	-11.5633
有功	-11.5633
系列:	-11.5634
购置	-11.5635
米尔	-11.5636
小学位于	-11.5636
鲜嫩	-11.5636
驰名	-11.5636
出生地	-11.5638
这两	-11.5638
瀑	-11.5638
党委委员、	-11.5639
头、	-11.5639
丛林	-11.5639
4月任	-11.5639
有1	-11.5639
。长期从事	-11.5641
涝	-11.5643
真是	-11.5643
教师,	-11.5643
打败	-11.5644
认定为	-11.5645
行书	-11.5645
可视	-11.5646
走在	-11.5646
发电厂	-11.5647
解剖	-11.5647
率达	-11.5647
凄	-11.5648
增设	-11.5648
失业	-11.5649
多用	-11.5649
表达了	-11.5649
:1、	-11.5651
地位。	-11.5652
中亚	-11.5652
墙体	-11.5653
合并而成	-11.5657
,往往	-11.5658
会员单位	-11.5658
胁	-11.566
预备	-11.566
涂装	-11.5662
一身	-11.5663
开始发表作品。	-11.5663
偶尔	-11.5663
装入	-11.5663
南美洲	-11.5665
石灰	-11.5665
和国际	-11.5666
年降水量	-11.5667
劳动和社会保障	-11.5668
文化中心	-11.5669
甄	-11.5669
3—	-11.5669
。今	-11.567
龛	-11.5671
9.0	-11.5672
文学艺术	-11.5672
外包	-11.5675
简明	-11.5675
3万	-11.5676
自主研发	-11.5676
质量和	-11.5676
图画	-11.5676
巳	-11.5677
辄	-11.5678
图文并茂	-11.5678
雅典	-11.5678
快递	-11.5678
与环境	-11.5678
工具,	-11.5678
1700	-11.5679
说是	-11.5679
方圆	-11.568
:"	-11.5683
的做法	-11.5683
み	-11.5684
水处理设备	-11.5684
信息网	-11.5686
,故名。	-11.5688
雄性	-11.5688
、电	-11.5691
综合实力	-11.5692
н	-11.5692
变质	-11.5692
广播电视大学	-11.5693
完善的售后服务	-11.5693
产品广泛应用于	-11.5694
克莱	-11.5694
,兼任	-11.5695
,西至	-11.5696
副总裁	-11.5696
占地面积约	-11.5696
过去的	-11.5696
贯彻执行国家	-11.5697
徙	-11.5697
马蹄	-11.5698
龙岩	-11.5698
具体的	-11.5699
8.9	-11.5701
乡政府所在地	-11.5701
に	-11.5701
直通	-11.5702
体系的	-11.5703
”称号,	-11.5703
农垦	-11.5703
造船	-11.5703
中国共产党党员	-11.5704
总编辑	-11.5704
概论	-11.5705
思想政治教育	-11.5705
,1980年	-11.5706
财税	-11.5706
舆论	-11.5707
-24	-11.5707
缔造	-11.5707
,其实	-11.5709
学府	-11.571
霄	-11.571
课题研究	-11.571
歼	-11.5711
门下	-11.5711
游乐	-11.5711
的合作关系	-11.5711
,具备	-11.5712
塔尔	-11.5713
的梦想	-11.5714
可惜	-11.5714
办副主任	-11.5714
相间	-11.5716
现藏	-11.5717
的贡献	-11.5717
上演	-11.5717
▁中文名称:	-11.5717
酰胺	-11.5719
连长	-11.5721
兰州市	-11.5721
没有任何	-11.5722
榴	-11.5722
解散	-11.5722
搬运	-11.5723
右侧	-11.5723
代表人物	-11.5724
食疗	-11.5724
背景下	-11.5724
增生	-11.5724
被动	-11.5726
硒	-11.5726
心得	-11.5728
铜奖	-11.5728
条件下,	-11.5729
三等功	-11.573
1钱	-11.5731
我司	-11.5732
本部	-11.5732
号。	-11.5733
人生的	-11.5733
坚实	-11.5734
区委书记	-11.5735
▁2003	-11.5736
▁外形尺寸	-11.5736
极高	-11.5737
功能齐全	-11.5739
归属	-11.5739
,江苏	-11.574
果肉	-11.574
、防	-11.5741
的作品。	-11.5741
左手	-11.5743
信念	-11.5744
殉	-11.5744
18年	-11.5744
竭诚	-11.5745
。叶	-11.5745
音乐家	-11.5746
聚居	-11.5747
的温度	-11.5747
2400	-11.5747
旅馆	-11.5748
2人。	-11.5748
高职	-11.5748
炒锅	-11.575
(北京)	-11.575
羹	-11.575
华中科技大学	-11.5753
渍	-11.5755
迁入	-11.5755
的性格	-11.5756
积极参加	-11.5757
所见	-11.5758
晒干	-11.5758
成才	-11.5758
比率	-11.5761
作法	-11.5762
所能	-11.5764
等活动	-11.5764
天山	-11.5764
有关规定	-11.5764
套装	-11.5764
20000	-11.5765
手册》	-11.5765
贵阳市	-11.5766
专业服务	-11.577
-50	-11.577
不已	-11.577
的通知》(	-11.577
焯	-11.5771
硕士生导师。	-11.5773
毓	-11.5773
发展和	-11.5774
而得	-11.5774
,得到了	-11.5775
酰	-11.5775
区长	-11.5777
的命运	-11.5777
宴会	-11.5777
很高的	-11.5778
、广西	-11.5779
足够	-11.5779
城、	-11.578
▁12	-11.578
1月,	-11.5781
具有一定的	-11.5782
江河	-11.5782
国土资源	-11.5782
格林	-11.5782
真理	-11.5783
硕士学位。	-11.5783
针对性	-11.5783
武士	-11.5784
参考书	-11.5784
紧紧围绕	-11.5784
1人。	-11.5785
办学条件	-11.5785
措施,	-11.5785
示范基地	-11.5787
技术改造	-11.5787
截面	-11.5787
三相	-11.579
9年	-11.5791
▁分子式:	-11.5793
矛	-11.5794
大黄	-11.5794
绝大多数	-11.5794
相处	-11.5794
大幅	-11.5795
滋味	-11.5796
205	-11.5796
涉足	-11.5797
居于	-11.5797
1914年	-11.5798
蚌	-11.5799
批准成立	-11.58
最长	-11.5802
综合治理	-11.5802
病例	-11.5803
厨师	-11.5803
社区。	-11.5804
轨道交通	-11.5804
正处级	-11.5805
207	-11.5805
临床研究	-11.5806
突出的	-11.5806
场上位置	-11.5806
灰褐色	-11.5807
肛肠	-11.5809
领域中	-11.5809
恶性	-11.5811
曾用名	-11.5812
司职	-11.5813
中国国家	-11.5813
后历任	-11.5813
标题	-11.5815
有两	-11.5816
为原料	-11.5817
罗马尼亚	-11.5818
简单,	-11.5819
水下	-11.5819
,如:	-11.5819
洁白	-11.5819
戟	-11.582
玻	-11.5821
生产线,	-11.5822
害虫	-11.5824
精神文明	-11.5824
瘦肉	-11.5825
沅	-11.5826
适当的	-11.5827
数码相机	-11.583
。1937年	-11.583
民政局	-11.5831
加强对	-11.5831
名列前茅	-11.5831
行业内	-11.5832
头上	-11.5833
举办了	-11.5833
声卡	-11.5833
区域经济	-11.5833
获得国家	-11.5834
板上	-11.5835
他曾	-11.5835
城市的	-11.5836
▁2004	-11.5837
抗生素	-11.5838
时为	-11.5839
,所有	-11.584
菠萝	-11.5841
侵入	-11.5841
▁最喜欢的	-11.5841
神经外科	-11.5842
上报	-11.5842
理论、	-11.5842
4-5	-11.5843
一族	-11.5844
乐曲	-11.5844
行情	-11.5845
失去了	-11.5845
降解	-11.5845
年平均气温	-11.5846
农业科学院	-11.5846
主要成分	-11.5846
”,并	-11.5846
铂	-11.5847
中美	-11.5848
副市长	-11.5849
产品已	-11.5849
前苏联	-11.5849
感。	-11.585
高铁	-11.585
学习。	-11.585
疹	-11.585
500强	-11.5852
给出	-11.5852
560	-11.5853
课外	-11.5854
蕊	-11.5854
呼叫	-11.5854
是一家专业从事	-11.5855
钻井	-11.5856
之下,	-11.5856
唐宋	-11.5856
核定	-11.5857
琅	-11.5858
豁	-11.5858
黄豆	-11.5859
产区	-11.5859
世界著名	-11.5861
羽毛球	-11.5862
炒香	-11.5862
市场。	-11.5862
430	-11.5863
纽带	-11.5864
的观点	-11.5864
化学品	-11.5864
婚庆	-11.5865
无可	-11.5865
。这一	-11.5868
最优秀的	-11.5868
10～	-11.5868
木瓜	-11.5869
:‘	-11.5871
失踪	-11.5872
深刻的	-11.5872
、天津	-11.5872
伸出	-11.5873
情形	-11.5873
、卫生	-11.5874
量大	-11.5876
完善的服务	-11.5876
痒	-11.5876
的好评。	-11.5877
的客户	-11.5877
物质的	-11.5878
50万元	-11.5878
蚝油	-11.5878
两家	-11.5878
为《	-11.5879
募	-11.588
性情	-11.588
Ω	-11.5881
撑	-11.5882
2公里,	-11.5882
烧开	-11.5883
无污染	-11.5883
过程。	-11.5883
菩提	-11.5884
盼	-11.5886
リ	-11.5886
肠道	-11.5887
木雕	-11.5888
在世界	-11.5888
5月任	-11.5888
传入	-11.5889
负责对	-11.589
臭氧	-11.589
:(	-11.5891
初年	-11.5891
国际国内	-11.5892
,北靠	-11.5892
隙	-11.5893
自治州	-11.5893
我村	-11.5895
文凭	-11.5895
1982年毕业于	-11.5896
历来	-11.5896
辞书	-11.5897
来看,	-11.5898
学校现有	-11.5899
教育系统	-11.5899
垄断	-11.59
农村经济	-11.5901
烧伤	-11.5901
正中	-11.5901
排名第	-11.5903
芸	-11.5903
,主要是	-11.5904
文武	-11.5904
浪费	-11.5904
专业人士	-11.5904
风流	-11.5905
利息	-11.5905
娥	-11.5905
精巧	-11.5908
和他的	-11.5909
发票	-11.591
名城	-11.591
,制定	-11.5911
少林	-11.5912
(去	-11.5913
教学经验	-11.5913
古时	-11.5914
东湖	-11.5914
9.7	-11.5915
洛阳市	-11.5915
11月任	-11.5916
▁刘	-11.5916
教育和	-11.5918
氧化物	-11.5918
巨人	-11.5919
皓	-11.592
最后的	-11.592
之声	-11.5921
操作简单	-11.5921
骨髓	-11.5921
等系列	-11.5922
匈奴	-11.5923
视频输出	-11.5923
听力	-11.5923
子·	-11.5923
通过国家	-11.5923
锻	-11.5924
又被	-11.5924
用书	-11.5924
在该	-11.5925
自律	-11.5926
陷阱	-11.5926
安全、	-11.5927
白术	-11.5927
印染	-11.5928
多重	-11.5928
官。	-11.5928
,主	-11.5929
政工	-11.5931
靴	-11.5932
释文	-11.5932
蒸气	-11.5933
昔日	-11.5933
妇人	-11.5934
三家	-11.5935
效能	-11.5936
石墨	-11.5936
;2	-11.5936
官至	-11.5936
言,	-11.5939
左侧	-11.594
▁2001	-11.594
杂志社	-11.594
电源适配器	-11.594
液晶屏	-11.5942
倦	-11.5943
的灵魂	-11.5944
才会	-11.5944
防静电	-11.5946
不一	-11.5946
的天然	-11.5946
。近年来	-11.5946
地理学	-11.5947
剖	-11.5948
方便快捷	-11.5949
的身体	-11.5949
哲学家	-11.5949
试样	-11.5949
座椅	-11.5949
劳动者	-11.595
法学院	-11.595
交通枢纽	-11.5951
情况。	-11.5952
▁2002	-11.5953
度。	-11.5954
、信息	-11.5955
伊斯兰	-11.5956
写意	-11.5957
杂志编委	-11.5957
淹	-11.5957
水发	-11.5959
物的	-11.5959
总收入	-11.5961
航道	-11.5962
断层	-11.5962
江阴	-11.5962
副教授、	-11.5962
萃	-11.5963
减小	-11.5963
聚氨酯	-11.5965
1995.	-11.5965
研制开发	-11.5966
移动通信	-11.5966
的作用,	-11.5967
1钱,	-11.5967
我是	-11.5967
引进了	-11.5967
规定,	-11.5968
大全	-11.5969
15%	-11.5969
,广东	-11.5971
,依托	-11.5972
方向的	-11.5972
片刻	-11.5972
,谓	-11.5973
(.	-11.5974
痹	-11.5975
研究会副会长	-11.5975
力作	-11.5976
的智慧	-11.5977
4厘米	-11.5979
会产生	-11.5979
管理团队	-11.5979
属下	-11.598
轻型	-11.598
电大	-11.5981
208	-11.5981
海运	-11.5981
第一品牌	-11.5982
、云南	-11.5983
设施齐全,	-11.5985
、重庆	-11.5986
协会会员,	-11.5987
电热	-11.5987
白玉	-11.5988
146	-11.5988
燃油	-11.5988
旌	-11.5988
学科:	-11.5989
对自己	-11.599
介于	-11.599
30万	-11.599
闺	-11.5991
也称为	-11.5993
过程的	-11.5993
歌》	-11.5994
水解	-11.5995
的创新	-11.5996
制图	-11.5996
不太	-11.5996
之神	-11.5998
佳作	-11.5998
车道	-11.5999
张家界	-11.5999
神奇的	-11.6
,目前已	-11.6002
3公里,	-11.6003
株洲	-11.6003
之日起	-11.6003
完备的	-11.6004
花生油	-11.6004
股长	-11.6005
力量。	-11.6005
不定	-11.6006
水平和	-11.6007
较强的	-11.6007
,北临	-11.6008
1平方公里	-11.6009
现象,	-11.601
尾部	-11.6011
雪山	-11.6012
么	-11.6012
烧结	-11.6014
病逝	-11.6014
施肥	-11.6015
山羊	-11.6015
三世	-11.6015
长三角	-11.6016
、江苏省	-11.6017
50公里	-11.6017
张家	-11.6017
囚	-11.6018
,之后	-11.6018
高约	-11.602
制作、	-11.602
,进一步	-11.602
企业之一	-11.6022
沧桑	-11.6023
等农作物	-11.6024
科研院所	-11.6024
鼓楼	-11.6025
存在着	-11.6025
纯度	-11.6025
料理	-11.6025
,减少	-11.6026
规章制度	-11.6026
生育期	-11.6027
视力	-11.6027
<<	-11.6029
战线	-11.6029
重点工程	-11.603
嗓音	-11.603
先进单位”、“	-11.603
教书育人	-11.603
带头人	-11.6031
净水	-11.6031
演示	-11.6032
▁2010	-11.6033
潮汕	-11.6033
歪	-11.6033
介绍:	-11.6034
太和	-11.6034
,满足	-11.6036
学会委员	-11.6036
政治部主任	-11.6038
花鸟画	-11.604
生猪	-11.604
注册会计师	-11.6042
搭载	-11.6043
是基于	-11.6043
果皮	-11.6043
部级	-11.6044
化学工业	-11.6044
泸	-11.6045
在同一	-11.6045
约4	-11.6047
协定	-11.6049
牌坊	-11.6049
、时尚	-11.605
形式的	-11.605
窜	-11.6051
忘记	-11.6051
使他	-11.6051
破裂	-11.6051
级的	-11.6052
底盘	-11.6052
县治	-11.6052
和各种	-11.6054
果汁	-11.6054
▁适用	-11.6054
光照	-11.6056
诞	-11.6056
有一天	-11.6057
手足	-11.6057
非线性	-11.6058
大赛中	-11.6059
流动人口	-11.6059
庄、	-11.606
家装	-11.606
北区	-11.6061
现拥有	-11.6061
产业结构	-11.6062
成立于2003年	-11.6063
世界华人	-11.6063
迄今为止	-11.6063
知识的	-11.6064
淮海	-11.6064
十万	-11.6064
80后	-11.6066
公共卫生	-11.6069
极富	-11.6069
踩	-11.6069
9.3	-11.607
,交通十分便利。	-11.6071
同一个	-11.6071
-4-	-11.6071
特务	-11.6071
条。	-11.6072
队伍。	-11.6072
单个	-11.6072
在读	-11.6073
光华	-11.6074
边防	-11.6075
肢体	-11.6075
纤维素	-11.6077
与国内外	-11.6078
录·	-11.6079
的数量	-11.6079
14001	-11.608
,荣获	-11.608
,另外	-11.608
学会理事、	-11.6081
罐头	-11.6081
场馆	-11.6081
器。	-11.6082
写了	-11.6082
总笔画:	-11.6085
煮至	-11.6086
以下简称	-11.6087
干事、	-11.6087
外交部	-11.6088
中国著名	-11.6088
产品重量:	-11.609
经济作物	-11.6091
开工建设	-11.6092
一门	-11.6092
并发症	-11.6092
★	-11.6092
鱼、	-11.6092
自然环境	-11.6094
委宣传部	-11.6095
剪切	-11.6096
型材	-11.6096
的动作	-11.6096
五年(	-11.6097
谊	-11.6097
亚目	-11.6097
各位	-11.6097
新时期	-11.6098
设色	-11.6099
く	-11.6099
6月生,	-11.6099
永不	-11.61
军用	-11.6102
新民	-11.6103
僵尸	-11.6103
-06	-11.6103
平定	-11.6103
孕育	-11.6106
批复	-11.6106
在职研究生学历	-11.6107
》及《	-11.6107
的压力	-11.6107
血糖	-11.611
,连	-11.6111
锐意进取	-11.6111
养猪	-11.6113
正常的	-11.6115
射频	-11.6115
二级缓存	-11.6115
拥有一批	-11.6115
植物。	-11.6116
▁其	-11.6116
全缘	-11.6117
感人	-11.6118
有限公司成立于	-11.6119
综合症	-11.612
肥胖	-11.612
、深圳	-11.612
结构、	-11.612
近几年来	-11.6121
”等荣誉称号。	-11.6121
时常	-11.6121
氧气	-11.6122
谕	-11.6123
组织协调	-11.6123
2000多	-11.6124
。然而	-11.6124
靡	-11.6124
家协会会员	-11.6127
块状	-11.6127
征文	-11.6127
,增加	-11.6128
▁五、	-11.6129
集团股份有限公司	-11.613
管理部门	-11.613
迅速发展	-11.613
自然界	-11.6131
收发	-11.6132
校正	-11.6132
蛤	-11.6133
瞩目	-11.6134
左右的	-11.6134
栽培技术	-11.6135
蝇	-11.6135
资源丰富	-11.6136
农业产业化	-11.6136
酒店开业时间	-11.6136
一整套	-11.6137
瀛	-11.6141
敏捷	-11.6142
掀起	-11.6142
处方	-11.6142
二月	-11.6144
细胞的	-11.6145
于1998年	-11.6145
文学奖	-11.6146
。这样	-11.6146
科学研究所	-11.6147
同类产品	-11.6147
寮	-11.6148
矣。	-11.6148
提案	-11.6148
片。	-11.6149
此后	-11.6149
孙子	-11.6149
,力争	-11.615
就开始	-11.615
、化学	-11.6153
诈	-11.6153
烃	-11.6153
育苗	-11.6153
厂,	-11.6154
承建	-11.6154
医保	-11.6154
榆林	-11.6154
文化传播	-11.6155
春风	-11.6155
之意。	-11.6155
颜色:	-11.6155
材料、	-11.6155
结构合理	-11.6156
定型	-11.6156
典故	-11.6156
磐	-11.6157
的女性	-11.6158
还包括	-11.6158
无敌	-11.6159
容纳	-11.6159
日光	-11.616
客户满意	-11.6161
和完善	-11.6162
/4	-11.6162
0元。	-11.6162
滑雪	-11.6163
8平方公里	-11.6163
地坪	-11.6164
奢华	-11.6164
廓	-11.6164
9克	-11.6165
笙	-11.6166
作家协会会员	-11.6167
空间。	-11.6167
主干	-11.6167
清凉	-11.6167
热闹	-11.6167
巴士	-11.6168
周围的	-11.6168
专属	-11.6168
情怀	-11.6169
新锐	-11.617
,希望	-11.6171
级以上	-11.6171
寒冷	-11.6172
▁9	-11.6172
疫苗	-11.6174
)/	-11.6175
不清	-11.6176
首张	-11.6177
▁1.将	-11.6178
而是	-11.6178
警卫	-11.6179
新乡	-11.6179
▁10	-11.6181
经国家	-11.6181
里克	-11.6181
症、	-11.6182
建成了	-11.6182
路由	-11.6182
-22	-11.6183
晦	-11.6184
葱段	-11.6184
原有的	-11.6184
则为	-11.6185
较深	-11.6185
是德国	-11.6185
有过	-11.6185
工部	-11.6186
重大问题	-11.6187
。《后汉书·	-11.6188
协调发展	-11.6189
こ	-11.619
139	-11.6191
国庆	-11.6191
[...]
