[UNK]	0
[PAD]	0
[CLS]	0
[SEP]	0
[MASK]	0
,	-3.54185
。	-4.01574
、	-4.07056
的	-4.09646
▁	-4.53996
和	-4.99723
在	-5.53811
为	-5.68572
是	-5.7593
与	-5.78015
(	-5.79385
;	-5.86992
:	-5.90259
)	-5.9439
等	-5.94695
中	-5.97252
有	-6.07472
及	-6.13214
“	-6.22751
《	-6.24312
以	-6.33282
人	-6.35788
大	-6.37806
”	-6.3876
上	-6.40418
之	-6.54787
了	-6.62167
对	-6.65364
或	-6.66714
于	-6.72171
一	-6.7637
县	-6.82731
后	-6.83942
中国	-6.84299
》	-6.91237
而	-6.91935
小	-6.93053
不	-6.93106
到	-6.95317
-	-6.95772
地	-6.97097
水	-6.97847
将	-7.0088
.	-7.01053
公司	-7.01333
山	-7.01385
高	-7.02696
由	-7.0364
新	-7.03808
区	-7.03951
时	-7.03976
被	-7.05456
用	-7.06106
三	-7.07766
·	-7.10029
1	-7.11427
下	-7.12486
至	-7.12601
性	-7.12852
从	-7.1301
子	-7.13224
2	-7.13703
其	-7.14102
企业	-7.15689
3	-7.17748
多	-7.19352
内	-7.20611
长	-7.21003
工作	-7.21129
市	-7.22854
所	-7.2301
产品	-7.25332
家	-7.26376
天	-7.2772
/	-7.28761
进行	-7.29569
并	-7.30032
专业	-7.31556
也	-7.31781
来	-7.33128
王	-7.34333
生	-7.35119
技术	-7.36684
成	-7.37487
镇	-7.37803
金	-7.38291
可	-7.39263
会	-7.39517
系统	-7.39835
,是	-7.39953
》、《	-7.4099
4	-7.41501
者	-7.4172
,在	-7.41793
前	-7.41884
无	-7.42528
村	-7.43281
()	-7.4371
"	-7.44204
路	-7.44224
任	-7.44546
出	-7.44685
法	-7.45451
一个	-7.45941
文	-7.46611
南	-7.47039
5	-7.47849
名	-7.48905
以及	-7.50317
东	-7.50578
西	-7.50841
都	-7.50875
石	-7.50923
学校	-7.5109
二	-7.51314
学	-7.51958
。”	-7.52728
式	-7.54529
他	-7.54926
管理	-7.55769
海	-7.55994
国际	-7.56069
服务	-7.562
里	-7.5646
城	-7.57005
道	-7.58146
花	-7.58766
国家	-7.596
经	-7.60002
能	-7.61221
部	-7.6149
型	-7.61593
马	-7.61622
科	-7.62216
德	-7.63063
分	-7.63304
设计	-7.63308
四	-7.64088
研究	-7.64322
本	-7.64383
教育	-7.64597
发展	-7.64903
6	-7.65083
乡	-7.6548
位于	-7.6591
机	-7.66057
龙	-7.6725
心	-7.67914
,并	-7.68388
自	-7.68958
张	-7.6949
”。	-7.69517
国	-7.7064
林	-7.70873
具有	-7.71442
),	-7.71798
化	-7.7278
明	-7.73046
工程	-7.73506
五	-7.73627
日	-7.73825
,以	-7.74621
8	-7.74656
系	-7.74708
达	-7.75051
文化	-7.75163
行	-7.75313
通过	-7.7538
如	-7.75434
华	-7.75649
网	-7.76583
头	-7.77137
着	-7.77198
中心	-7.77348
提供	-7.77531
使用	-7.77564
体	-7.77593
白	-7.77697
项目	-7.78625
大学	-7.78863
组织	-7.79055
向	-7.79441
外	-7.79461
平	-7.80209
生产	-7.80247
黄	-7.80264
安	-7.80455
元	-7.80785
光	-7.80924
10	-7.81347
地区	-7.82004
正	-7.82209
过	-7.82519
门	-7.82767
河	-7.828
各	-7.83311
线	-7.83313
7	-7.8353
红	-7.83707
最	-7.83876
全国	-7.84179
就	-7.84685
李	-7.84947
要	-7.85222
集	-7.85677
上海	-7.8585
美	-7.85851
原	-7.86116
面	-7.86495
类	-7.87346
点	-7.87602
得	-7.88038
清	-7.88361
把	-7.8876
作	-7.88805
去	-7.89672
开	-7.89711
书	-7.89741
口	-7.90066
北	-7.90274
两	-7.9034
台	-7.90428
北京	-7.91042
全	-7.912
已	-7.91283
建设	-7.91461
!	-7.91961
军	-7.92478
发	-7.9253
古	-7.9268
可以	-7.92712
叶	-7.93285
入	-7.93588
起	-7.94185
同	-7.94282
又	-7.94315
属	-7.94387
方	-7.94513
世界	-7.94829
风	-7.95223
带	-7.95493
通	-7.95791
好	-7.95975
市场	-7.96508
重	-7.96554
省	-7.97357
因	-7.97439
网络	-7.97908
学院	-7.98396
——	-7.98982
特	-7.99276
9	-7.99337
加	-7.99819
行业	-8.00361
万	-8.01035
经济	-8.01224
卡	-8.01511
学习	-8.01665
等。	-8.01745
双	-8.01819
城市	-8.02518
车	-8.02974
作为	-8.03021
云	-8.03112
师	-8.03267
我	-8.03593
神	-8.03852
美国	-8.03895
州	-8.04319
设备	-8.04669
学生	-8.04729
使	-8.04783
,为	-8.05131
数	-8.05261
老	-8.0607
科技	-8.06177
克	-8.06635
各种	-8.0679
处	-8.06952
油	-8.07275
集团	-8.07409
力	-8.08063
度	-8.08608
陈	-8.08735
品牌	-8.08793
年	-8.08894
字	-8.08984
功能	-8.09211
利	-8.09211
开始	-8.09216
相	-8.09579
建筑	-8.09845
女	-8.09878
公	-8.09984
图	-8.10707
还	-8.10923
六	-8.11393
生活	-8.11815
信息	-8.12018
主	-8.12614
参加	-8.12882
拥有	-8.12887
木	-8.12914
人,	-8.12918
标准	-8.13093
江	-8.13198
比	-8.13355
米	-8.13454
”、“	-8.13755
艺术	-8.13764
更	-8.13958
该	-8.14181
即	-8.14216
单	-8.14427
罗	-8.14603
采用	-8.14636
人。	-8.15269
建	-8.1534
主要	-8.15732
周	-8.15912
系列	-8.15919
活动	-8.15972
成为	-8.16084
中的	-8.16275
片	-8.16652
号	-8.17476
第一	-8.17504
管	-8.17714
当	-8.18154
则	-8.18334
12	-8.18579
气	-8.18646
。在	-8.19268
种	-8.19463
桥	-8.19813
手	-8.19881
制	-8.20326
指	-8.20509
色	-8.20901
干	-8.21431
说	-8.21474
社会	-8.21862
获	-8.21871
乐	-8.2228
站	-8.22714
鱼	-8.22815
级	-8.23063
局	-8.23322
器	-8.23339
间	-8.23343
》:“	-8.23653
教学	-8.23677
量	-8.23858
共	-8.23887
此	-8.2389
”,	-8.23951
拉	-8.23996
总	-8.2457
)。	-8.24572
20	-8.24635
田	-8.24753
日本	-8.24801
包括	-8.25005
投资	-8.2516
—	-8.25587
爱	-8.25748
～	-8.25884
获得	-8.2595
皮	-8.26176
刘	-8.26408
,但	-8.26418
斯	-8.27003
非	-8.27045
位	-8.27108
你	-8.27208
青	-8.27211
热	-8.27294
九	-8.27511
控制	-8.27641
阿	-8.27891
开发	-8.28189
社区	-8.28358
香	-8.28887
合	-8.28943
支持	-8.29226
近	-8.29227
组	-8.29412
单位	-8.29597
做	-8.29885
从事	-8.2996
进	-8.30169
流	-8.30755
八	-8.31147
自己	-8.31455
节	-8.31488
医院	-8.31587
立	-8.31616
时,	-8.32076
板	-8.3222
部分	-8.32249
黑	-8.32402
玉	-8.32599
时间	-8.32638
厂	-8.32702
15	-8.32957
,其	-8.33008
工业	-8.33106
塔	-8.3311
曾	-8.33147
工	-8.33668
应	-8.33845
政府	-8.33848
我们	-8.34189
初	-8.34461
阳	-8.34587
湖	-8.34746
星	-8.3486
武	-8.34881
”的	-8.34996
安全	-8.35206
汉	-8.35269
业务	-8.35553
有限公司	-8.35643
音乐	-8.36378
月	-8.36416
世	-8.36434
游戏	-8.3663
环境	-8.36787
软件	-8.36807
强	-8.36872
春	-8.37
铁	-8.37636
就是	-8.3797
优秀	-8.38077
后,	-8.38128
事	-8.38343
病	-8.38398
土	-8.38399
约	-8.38421
电子	-8.38666
火	-8.38953
她	-8.38989
回	-8.39144
应用	-8.39302
定	-8.39309
18	-8.39591
没有	-8.39696
源	-8.39742
楼	-8.39868
基	-8.39963
七	-8.40288
结构	-8.40309
传	-8.40475
教师	-8.40501
条	-8.40584
诗	-8.4072
场	-8.40768
,有	-8.40844
宝	-8.41154
团	-8.41283
见	-8.41644
打	-8.41669
布	-8.42156
身	-8.42165
酒	-8.42188
氏	-8.42514
材料	-8.42544
16	-8.42775
经营	-8.42839
尔	-8.43324
作品	-8.43636
沙	-8.4364
协会	-8.43805
画	-8.44314
旅游	-8.45037
亚	-8.45149
卷	-8.45189
现代	-8.45277
期	-8.45362
商	-8.45398
兰	-8.45464
,而	-8.45511
边	-8.45544
官	-8.45752
受	-8.45757
业	-8.45789
声	-8.46305
信	-8.46327
调	-8.46339
科学	-8.46453
民	-8.46604
分析	-8.46675
校	-8.46937
岛	-8.47001
不同	-8.47096
均	-8.47307
治疗	-8.47362
杨	-8.47381
院	-8.47503
百	-8.4757
茶	-8.47693
层	-8.47696
?	-8.47712
草	-8.47803
半	-8.4786
教	-8.47908
理论	-8.47991
负责	-8.48007
根	-8.48178
连	-8.48259
再	-8.48393
物	-8.48469
章	-8.48512
志	-8.48552
具	-8.4863
史	-8.48717
广	-8.48946
11	-8.49073
男	-8.49132
历史	-8.49271
它	-8.49471
这	-8.49577
给	-8.49857
利用	-8.50157
称	-8.50309
农业	-8.5031
园	-8.50376
树	-8.50758
其中	-8.50866
综合	-8.50993
保护	-8.51091
版	-8.51284
率	-8.51369
代	-8.51483
形	-8.51748
街	-8.51757
质量	-8.51903
室	-8.52046
首	-8.52299
一种	-8.52333
30	-8.52407
波	-8.52508
松	-8.52586
房	-8.52734
大型	-8.52747
汽车	-8.53331
......	-8.53778
中学	-8.53977
深	-8.54391
格	-8.5464
需要	-8.54888
兴	-8.55132
界	-8.55285
义	-8.5547
圣	-8.55704
制作	-8.55764
川	-8.56007
品	-8.56135
药	-8.56287
队	-8.56306
人员	-8.5632
论	-8.56325
包	-8.56357
教授	-8.56393
处理	-8.56476
班	-8.56579
次	-8.56733
之一。	-8.56941
合作	-8.57399
用户	-8.57401
微	-8.57404
语	-8.57426
底	-8.57606
专家	-8.57666
福	-8.57765
飞	-8.57895
进入	-8.57945
方式	-8.57946
让	-8.58022
实现	-8.58126
低	-8.5825
先	-8.58255
唐	-8.58267
寺	-8.58483
常	-8.58492
山东	-8.58494
按	-8.5855
方法	-8.58654
同时	-8.58939
堂	-8.58945
能力	-8.58962
酒店	-8.59015
兼	-8.59062
丝	-8.59319
角	-8.59374
巴	-8.594
运动	-8.59448
兵	-8.59557
,由	-8.59608
,其中	-8.59609
这个	-8.59855
根据	-8.59864
各类	-8.59902
表	-8.59937
景	-8.60053
培训	-8.60105
加工	-8.60126
要求	-8.60157
果	-8.60234
完成	-8.60482
状	-8.60632
曲	-8.6069
之一	-8.60756
,使	-8.60907
电	-8.61
国内	-8.61236
汤	-8.61479
宁	-8.61704
已经	-8.61735
眼	-8.61809
盘	-8.61819
户	-8.61895
其他	-8.61914
规划	-8.61979
英	-8.6205
毛	-8.62173
居	-8.62179
粉	-8.62197
计划	-8.62338
一般	-8.6283
问题	-8.63234
放	-8.63325
远	-8.63359
真	-8.63455
十	-8.63704
产业	-8.63766
客户	-8.63964
50	-8.6399
有关	-8.64109
一些	-8.64146
直	-8.64384
变	-8.64638
--	-8.64647
吴	-8.64897
看	-8.64972
开展	-8.6501
修	-8.65068
音	-8.65176
球	-8.65275
那	-8.65283
菜	-8.65487
超	-8.65501
派	-8.65758
建立	-8.6578
治	-8.65873
情	-8.65928
提高	-8.65975
机构	-8.66207
骨	-8.66331
联	-8.66364
肉	-8.66555
精	-8.66579
自然	-8.6659
资源	-8.66606
报	-8.66633
中,	-8.66653
宗	-8.66796
形成	-8.67044
传统	-8.67209
网站	-8.67283
自动	-8.67306
工艺	-8.67314
取	-8.67353
纳	-8.67443
只	-8.6755
成立	-8.6757
销售	-8.67588
食	-8.67961
转	-8.68177
奖	-8.68404
奇	-8.68522
少	-8.68658
,他	-8.68941
他们	-8.68964
血	-8.69193
香港	-8.69214
0	-8.69249
14	-8.69326
个人	-8.69345
易	-8.69405
先生	-8.69519
17	-8.69543
+	-8.69648
圆	-8.69674
)、	-8.69676
群	-8.69818
两个	-8.70164
数据	-8.70389
机械	-8.70429
商业	-8.70503
的一种	-8.70614
13	-8.70648
竹	-8.70944
100	-8.71015
学会	-8.71023
言	-8.71151
中央	-8.71173
关	-8.71374
梁	-8.71438
康	-8.71669
泰	-8.71684
电影	-8.72039
未	-8.72073
内容	-8.72128
呈	-8.72198
担任	-8.72517
,对	-8.72546
台湾	-8.7255
创新	-8.72573
盐	-8.72633
吉	-8.72745
牛	-8.72845
梅	-8.73039
意	-8.73273
第二	-8.73314
文学	-8.73382
环	-8.73832
个	-8.74153
40	-8.74304
地方	-8.74709
段	-8.74908
植物	-8.74992
公路	-8.75018
才	-8.75076
加入	-8.75177
压	-8.75204
港	-8.75494
峰	-8.75495
空	-8.75593
士	-8.75602
浙江	-8.7564
朝	-8.75841
尼	-8.75956
思	-8.76158
灵	-8.76444
基础	-8.76587
丁	-8.76594
苏	-8.76866
宽	-8.76871
座	-8.77081
是指	-8.77168
善	-8.7724
选择	-8.77247
反	-8.7729
广东	-8.77306
平台	-8.77395
工作。	-8.77489
印	-8.77553
模式	-8.77567
办	-8.77608
是一个	-8.77836
足	-8.77924
庄	-8.78006
较	-8.78071
除	-8.78117
宋	-8.78131
发现	-8.78215
质	-8.78231
医学	-8.78253
用于	-8.78436
民族	-8.78465
雷	-8.7855
保	-8.78653
宫	-8.7866
是由	-8.7869
健康	-8.78831
作用	-8.79152
自己的	-8.79152
比较	-8.79234
观	-8.79244
方面	-8.79367
很	-8.79367
得到	-8.79377
发生	-8.79464
青年	-8.7952
太	-8.79533
人才	-8.79551
四川	-8.7959
所有	-8.79646
令	-8.79867
及其	-8.79926
孔	-8.80083
小学	-8.80106
夏	-8.80205
复	-8.80219
库	-8.80252
藏	-8.80275
游	-8.80464
岩	-8.80594
指导	-8.80597
词	-8.80653
操作	-8.80839
目前	-8.80888
达到	-8.81012
永	-8.81055
农	-8.81126
代表	-8.8116
亦	-8.81382
盖	-8.81447
银	-8.81465
维	-8.81548
选	-8.81557
之间	-8.81613
占	-8.81708
但	-8.8174
研究所	-8.81829
广州	-8.81836
儿	-8.82066
富	-8.82073
非常	-8.82199
雪	-8.82214
素	-8.8222
知	-8.82224
食品	-8.82352
余	-8.82385
夫	-8.82496
不能	-8.82617
满	-8.82798
理	-8.82843
每	-8.82853
创作	-8.82931
成功	-8.8303
直接	-8.8304
鲁	-8.83249
经过	-8.83337
府	-8.83375
参与	-8.83393
正式	-8.83526
社	-8.83547
计算机	-8.83579
值	-8.83593
谷	-8.83642
以上	-8.83788
联合	-8.83971
丰	-8.84014
动	-8.84034
却	-8.84202
能够	-8.84266
赵	-8.84485
泉	-8.84534
出版	-8.84554
装	-8.84568
像	-8.84697
鸡	-8.85013
实施	-8.85287
是一种	-8.85349
店	-8.85433
料	-8.8555
领域	-8.85555
距	-8.85572
语言	-8.8561
设	-8.8564
极	-8.85651
空间	-8.85713
切	-8.85759
的“	-8.85834
盛	-8.85951
著名	-8.85961
,即	-8.85976
钢	-8.86019
顶	-8.86094
这些	-8.86194
细	-8.86282
化学	-8.86331
基本	-8.86526
随	-8.86674
便	-8.86679
60	-8.86682
生物	-8.8686
顺	-8.8698
独立	-8.87017
秋	-8.87049
现	-8.87114
孙	-8.87237
普	-8.87251
重点	-8.87327
产	-8.87419
生于	-8.87482
政	-8.87566
溪	-8.87591
甲	-8.87595
钱	-8.87596
解	-8.87833
时代	-8.87875
井	-8.88045
仁	-8.88099
归	-8.88171
委员会	-8.88375
培养	-8.88429
短	-8.8846
我国	-8.8847
25	-8.88576
博	-8.88609
雅	-8.88643
刀	-8.88699
都是	-8.88738
收	-8.88741
山东省	-8.88749
佛	-8.88764
面积	-8.8892
君	-8.8902
家庭	-8.89102
歌	-8.89143
细胞	-8.89166
,将	-8.89238
温	-8.89312
区域	-8.89371
文件	-8.89398
绿	-8.89412
▁《	-8.89445
:“	-8.89676
何	-8.89686
属于	-8.9005
瑞	-8.90066
走	-8.90141
电脑	-8.90366
离	-8.90445
难	-8.90459
英语	-8.90481
全球	-8.90597
由于	-8.90615
野	-8.90623
战	-8.90666
结	-8.90918
这种	-8.91098
的一个	-8.91165
千	-8.91208
交通	-8.91257
胡	-8.91258
权	-8.91344
尾	-8.91392
死	-8.91454
实验	-8.91504
奥	-8.91567
实	-8.91572
於	-8.91644
吃	-8.91661
性能	-8.91748
客	-8.91786
制造	-8.91829
目	-8.91868
交	-8.91951
然	-8.92073
瓦	-8.92103
类型	-8.92159
毕业于	-8.92234
精神	-8.92289
夜	-8.92396
,如	-8.92436
篇	-8.92581
纸	-8.92629
高级	-8.9263
也是	-8.92745
农村	-8.92807
散	-8.92906
剑	-8.93119
广西	-8.93142
运	-8.93249
安装	-8.93555
伊	-8.93787
若	-8.94136
秀	-8.94163
想	-8.94379
员	-8.94421
德国	-8.94433
动物	-8.94525
朱	-8.94692
▁2.	-8.94892
结合	-8.94894
出现	-8.94962
升	-8.95003
英国	-8.95209
齐	-8.95448
人物	-8.95542
写	-8.9557
▁公司	-8.95625
船	-8.9576
上的	-8.95968
旧	-8.96081
仙	-8.96105
产生	-8.96108
铁路	-8.96367
昌	-8.96552
湖南	-8.96556
恩	-8.96636
影响	-8.96696
雨	-8.96702
多种	-8.96827
领导	-8.96886
今	-8.97223
不断	-8.97224
胜	-8.9733
封	-8.97337
衣	-8.97338
横	-8.97344
最大	-8.97421
端	-8.97439
书法	-8.97445
笔	-8.97821
副	-8.97911
金属	-8.97921
人民	-8.97953
特色	-8.97978
一起	-8.98076
支	-8.98119
水平	-8.98214
蓝	-8.98571
先进	-8.98759
出生于	-8.98777
人口	-8.98895
》(	-8.98902
河南	-8.9894
营	-8.98951
托	-8.98961
距离	-8.99022
200	-8.99026
相关	-8.99087
件	-8.99139
礼	-8.99257
费	-8.99261
,位于	-8.99313
洞	-8.99381
新闻	-8.99409
科研	-8.99416
视	-8.99429
冷	-8.99452
抗	-8.99482
交流	-8.99521
全面	-8.99655
剂	-8.99739
80	-8.9979
赛	-8.99803
江苏	-8.99865
牌	-8.99875
威	-9.00051
》等	-9.00422
介绍	-9.00465
们	-9.00479
组成	-9.00702
会议	-9.00847
良	-9.00967
快速	-9.01123
越	-9.01212
广东省	-9.01239
知识	-9.0138
荣	-9.01439
洛	-9.01465
本书	-9.01542
,从	-9.0159
广告	-9.01657
儿童	-9.01663
电视	-9.01775
湖北	-9.01857
体育	-9.01975
检测	-9.01988
创	-9.02064
部门	-9.02119
且	-9.02208
重要	-9.0222
引	-9.0228
含	-9.02297
徐	-9.02416
受到	-9.02578
司	-9.02619
思想	-9.02672
故	-9.02751
膜	-9.0278
关系	-9.02821
送	-9.0283
丽	-9.02884
南京	-9.02914
试验	-9.02954
第三	-9.02963
落	-9.03061
执行	-9.03217
效果	-9.03244
事业	-9.03294
全部	-9.03334
称为	-9.03378
价格	-9.03408
记	-9.03425
感	-9.03427
异	-9.0347
品种	-9.03474
安徽	-9.03477
银行	-9.03496
证	-9.03585
排	-9.03624
套	-9.03678
法国	-9.03821
列	-9.03863
。他	-9.03911
仅	-9.03953
伯	-9.03969
编	-9.03995
江苏省	-9.04005
留	-9.04012
天津	-9.0405
求	-9.04163
防	-9.04163
党	-9.04242
,可	-9.0431
,男,	-9.04418
卫生	-9.04439
虎	-9.04482
铜	-9.04508
岭	-9.04511
味	-9.0464
19	-9.04723
改	-9.0487
基地	-9.05286
馆	-9.05306
读	-9.05352
共同	-9.05401
几	-9.05482
轮	-9.0549
洪	-9.05516
时尚	-9.05638
或者	-9.05701
24	-9.05708
服	-9.05862
小说	-9.05897
帝	-9.05903
酸	-9.06001
程序	-9.06089
施	-9.0612
分别	-9.06132
族	-9.06335
展	-9.06374
普通	-9.06549
望	-9.06612
诸	-9.06778
人们	-9.06788
》,	-9.06792
沟	-9.07001
作者	-9.07013
资料	-9.07201
背	-9.07292
灯	-9.07323
论文	-9.07353
提	-9.07355
关于	-9.07526
快	-9.07631
出版社	-9.07651
显示	-9.07784
创建	-9.07939
块	-9.08117
法律	-9.08153
重庆	-9.08366
晋	-9.08369
临	-9.08376
生态	-9.08441
绿色	-9.08447
末	-9.0884
推广	-9.09121
连接	-9.09215
,所以	-9.09311
许多	-9.09449
亭	-9.09533
增加	-9.09538
耳	-9.09587
接	-9.09618
糖	-9.09696
品质	-9.09791
职业	-9.09938
河北	-9.09954
别	-9.10016
岁	-9.10044
郑	-9.10092
,同时	-9.10126
宣传	-9.1019
干部	-9.10377
一次	-9.10392
梦	-9.10397
厚	-9.1052
测试	-9.10574
液	-9.10674
国内外	-9.10708
母	-9.1074
湾	-9.10789
会员	-9.10847
,它	-9.10901
故事	-9.10902
友	-9.10934
森	-9.1098
东北	-9.11035
促进	-9.11145
运行	-9.11146
目标	-9.11201
22	-9.11564
营销	-9.11613
京	-9.11769
阴	-9.11781
庆	-9.1179
金融	-9.11924
江西	-9.11942
左	-9.11944
尚	-9.12068
施工	-9.12085
1.	-9.12296
训练	-9.12331
住	-9.12366
员工	-9.12368
温度	-9.12436
冰	-9.12462
这一	-9.12501
。《	-9.12602
完全	-9.1276
守	-9.12817
丹	-9.12906
核	-9.12913
脚	-9.12922
政治	-9.13032
教材	-9.13034
省级	-9.13265
最大的	-9.1331
步	-9.13368
佳	-9.13472
嘉	-9.13512
70	-9.13567
彩	-9.13611
池	-9.13984
上海市	-9.14062
隆	-9.14123
。其	-9.14125
欧洲	-9.14149
鸟	-9.14223
杯	-9.14288
冲	-9.14289
时期	-9.14398
了解	-9.14517
中华	-9.1454
亲	-9.14661
医疗	-9.14676
倒	-9.1483
表示	-9.1491
文明	-9.15044
环保	-9.15157
听	-9.15162
临床	-9.15177
,与	-9.15206
浙江省	-9.15277
方向	-9.15416
数字	-9.15581
卫	-9.15754
中共	-9.1578
手机	-9.15811
补	-9.15926
因为	-9.15946
工具	-9.15956
仪	-9.16029
测量	-9.1603
表面	-9.16039
喜	-9.16124
安徽省	-9.16145
行为	-9.16175
河南省	-9.16176
断	-9.1631
...	-9.1634
福建	-9.16372
病毒	-9.16412
速度	-9.16604
寒	-9.16694
实验室	-9.16794
过程	-9.16831
公园	-9.16878
▁在	-9.16887
左右	-9.17016
规范	-9.17056
之一,	-9.1706
早	-9.17078
中医	-9.17216
云南	-9.17293
泽	-9.17346
机关	-9.17353
35	-9.1736
风格	-9.17415
▁1.	-9.17542
决定	-9.17618
秦	-9.17644
优	-9.17793
计	-9.17828
影	-9.17858
商务	-9.18031
纹	-9.18036
商品	-9.18041
价值	-9.18061
设置	-9.18062
蒙	-9.18071
,以及	-9.18136
庙	-9.1824
虫	-9.18259
请	-9.18279
厅	-9.18314
装饰	-9.18326
坚持	-9.18359
四川省	-9.18541
现任	-9.18692
连续	-9.18725
解决	-9.18808
配	-9.18882
种植	-9.18914
先后	-9.18944
略	-9.19015
胶	-9.19118
大量	-9.1928
45	-9.19381
组合	-9.19467
智	-9.19475
来自	-9.19518
包装	-9.19539
诺	-9.19543
西南	-9.19613
标	-9.19649
命	-9.19773
高校	-9.19819
条件	-9.19824
设有	-9.19862
物理	-9.19918
国家级	-9.20054
街道	-9.20078
养	-9.20186
乌	-9.20221
制度	-9.2026
》《	-9.20262
交易	-9.20294
舞	-9.20296
轻	-9.20447
谓	-9.20449
还有	-9.20509
凤	-9.20518
团队	-9.20582
帮助	-9.20605
依	-9.20726
叫	-9.20757
西北	-9.20869
纯	-9.20913
象	-9.20914
学科	-9.20941
问	-9.20962
现有	-9.21164
柳	-9.21233
密	-9.21249
体系	-9.21379
鲜	-9.214
十分	-9.21427
载	-9.21527
主持	-9.21548
形式	-9.21558
置	-9.216
还是	-9.21751
为了	-9.219
行政	-9.2194
羊	-9.21956
美术	-9.22057
北京市	-9.22072
课程	-9.22148
传播	-9.22191
许	-9.22293
软	-9.22313
深圳	-9.22316
土地	-9.22624
优质	-9.22642
玻璃	-9.22682
侧	-9.22701
规模	-9.22705
更加	-9.22795
三个	-9.22808
珠	-9.22932
轴	-9.23139
雄	-9.23562
活	-9.23622
▁2	-9.23631
如何	-9.23641
只有	-9.23671
职	-9.23735
项	-9.23736
媒体	-9.23768
考	-9.23775
塘	-9.23784
祖	-9.23787
,故	-9.2381
期间	-9.2389
,也是	-9.24138
谢	-9.24318
惠	-9.24322
。该	-9.24344
按照	-9.24408
整个	-9.24424
莫	-9.24425
23	-9.24457
麻	-9.24634
山西	-9.24661
聚	-9.24678
脑	-9.24716
运输	-9.24801
对于	-9.24836
》。	-9.24998
代理	-9.2508
收入	-9.2514
工作,	-9.25146
▁2、	-9.2517
架	-9.25191
戏	-9.2523
移动	-9.25288
28	-9.25295
武汉	-9.25313
艺	-9.25418
脉	-9.25428
放入	-9.25487
臣	-9.25497
他的	-9.25594
贸易	-9.25623
计算	-9.2565
杰	-9.25663
运用	-9.25733
之后	-9.25749
人类	-9.25774
登	-9.25826
自由	-9.25866
的重要	-9.25953
战略	-9.25966
调整	-9.25996
缘	-9.26154
紫	-9.26159
钟	-9.26204
办公室	-9.26243
,又	-9.26364
专	-9.2637
积极	-9.26402
猪	-9.26441
革命	-9.26539
被评为	-9.26568
90	-9.26599
久	-9.26639
广场	-9.26679
服装	-9.26761
韩	-9.26775
情况	-9.26777
广泛	-9.26808
姓	-9.2696
提升	-9.27093
有效	-9.27104
壳	-9.27119
考试	-9.27129
出口	-9.27148
500	-9.27151
塞	-9.27204
供	-9.27241
,也	-9.27313
为主	-9.27408
成员	-9.2742
众	-9.27423
陆	-9.27436
疾病	-9.27443
齿	-9.27449
职工	-9.27452
高速	-9.27475
现在	-9.27475
改革	-9.27494
斗	-9.27528
课	-9.27565
,用	-9.27679
墨	-9.27684
尖	-9.27736
分为	-9.27847
有着	-9.27934
范围	-9.27957
特别	-9.28017
校园	-9.28088
检查	-9.28111
长期	-9.2814
陕西	-9.28164
索	-9.28184
者,	-9.28282
32	-9.28387
话	-9.28439
比赛	-9.28515
新疆	-9.28557
亩	-9.28679
反应	-9.28693
的发展	-9.28826
闻	-9.28834
任何	-9.28852
术	-9.28875
分布	-9.28899
很多	-9.28909
怀	-9.28929
摄影	-9.29068
杜	-9.29077
杭州	-9.29097
款	-9.2912
陵	-9.29126
静	-9.29131
一直	-9.29308
必须	-9.29333
差	-9.29367
案	-9.29436
部队	-9.29453
学术	-9.29461
取得	-9.29584
内部	-9.29705
▁3.	-9.29707
成都	-9.29796
圈	-9.29874
女性	-9.30028
地处	-9.30092
》是	-9.30112
接受	-9.30116
古代	-9.30148
忠	-9.30193
东方	-9.30236
展示	-9.30262
股	-9.30286
努力	-9.30309
程	-9.30335
湖南省	-9.30374
300	-9.30386
烟	-9.30472
21	-9.30507
农民	-9.30585
民间	-9.30613
接口	-9.30641
创造	-9.30709
,而且	-9.30778
2010年	-9.30916
医	-9.30936
哈	-9.31058
伤	-9.31071
实际	-9.3111
尽	-9.31146
智能	-9.31188
新的	-9.3124
破	-9.31248
群众	-9.31273
赤	-9.31419
洋	-9.31434
宜	-9.31475
弹	-9.31561
坐	-9.31631
基金	-9.31701
的人	-9.31728
博士	-9.31766
化工	-9.31826
您	-9.31864
莲	-9.3203
皆	-9.32073
通信	-9.32077
粒	-9.32206
数学	-9.32264
发行	-9.32335
题	-9.32363
超过	-9.32369
居民	-9.32435
不同的	-9.32487
右	-9.32546
旗	-9.3256
河北省	-9.32625
资金	-9.3267
最高	-9.32677
郭	-9.32687
亮	-9.3279
26	-9.32811
存	-9.3283
刺	-9.32922
增	-9.32958
乃	-9.32971
军事	-9.32997
重大	-9.33011
致力于	-9.33033
苦	-9.33039
保持	-9.33093
变化	-9.3317
曼	-9.33296
,成为	-9.33329
小区	-9.33335
往	-9.33436
麦	-9.33544
贵	-9.33562
娱乐	-9.33562
刻	-9.33568
认证	-9.33711
寿	-9.33768
整体	-9.33854
贤	-9.33869
经验	-9.33939
设施	-9.34037
调查	-9.34089
炉	-9.3412
委	-9.34175
萨	-9.34189
恒	-9.3423
咨询	-9.34262
任务	-9.34328
贝	-9.34354
认为	-9.34473
统一	-9.34559
韩国	-9.34571
举	-9.34591
杂志	-9.3461
实践	-9.34698
陶	-9.348
独	-9.34896
冠	-9.35014
杂	-9.35148
配套	-9.35216
绝	-9.35237
压力	-9.35249
湖北省	-9.35299
柱	-9.35342
以来	-9.35488
书画	-9.35572
电源	-9.35617
欲	-9.35624
福建省	-9.35673
。公司	-9.35719
提出	-9.35756
固	-9.35761
迪	-9.3577
2000	-9.35818
~	-9.3583
壁	-9.35847
退	-9.35869
2009年	-9.35926
杀	-9.35994
功	-9.36025
);	-9.36085
承担	-9.36273
勒	-9.36304
演出	-9.36416
,包括	-9.36421
驻	-9.36442
机场	-9.3647
饰	-9.36478
皮肤	-9.36484
熟	-9.36524
桂	-9.36532
营养	-9.36583
表现	-9.36628
至今	-9.36932
,具有	-9.36954
电力	-9.37033
广大	-9.37063
可能	-9.37116
装置	-9.37145
>	-9.37198
采	-9.37302
*	-9.37325
,不	-9.3737
大小	-9.3766
第	-9.37771
物质	-9.37784
毒	-9.37789
节目	-9.37803
幼儿园	-9.37893
试	-9.38002
提供了	-9.38089
注册	-9.38092
针	-9.38134
装备	-9.38181
会计	-9.38239
荣获	-9.38338
折	-9.38342
共有	-9.38354
名称	-9.384
36	-9.38515
2008年	-9.38528
侯	-9.38691
进行了	-9.38798
郡	-9.38836
精品	-9.38839
多个	-9.38887
,被	-9.38916
坝	-9.38968
策划	-9.38991
额	-9.39044
多次	-9.39091
失	-9.39101
烧	-9.39104
存在	-9.39185
价	-9.39195
莱	-9.39205
姜	-9.39238
硬	-9.39244
的主要	-9.39246
消费	-9.39415
亚洲	-9.39456
坡	-9.39508
始	-9.39534
统计	-9.39604
西安	-9.39616
表演	-9.39782
400	-9.3982
腹	-9.39902
,中国	-9.40047
,因此	-9.40058
城区	-9.40076
加强	-9.40215
镜	-9.40238
天下	-9.40285
阅读	-9.40305
=	-9.40376
创业	-9.40639
意大利	-9.4066
研发	-9.40741
人的	-9.40801
改变	-9.40813
魏	-9.40961
冬	-9.40985
运营	-9.40998
希	-9.41049
信号	-9.41063
2006年	-9.41064
艾	-9.41069
特征	-9.4107
互联网	-9.41255
浅	-9.41299
维护	-9.41359
赴	-9.41397
敌	-9.41508
菌	-9.41519
视频	-9.416
降	-9.41726
矿	-9.4173
以“	-9.4191
炒	-9.42005
鼓	-9.42034
铺	-9.42049
岗	-9.42173
脱	-9.42213
..	-9.42216
过程中	-9.42232
,通过	-9.42235
▁1	-9.42261
造	-9.42266
结果	-9.42291
专用	-9.423
须	-9.42334
文字	-9.4246
道路	-9.42517
纪	-9.42666
照	-9.4271
继续	-9.42748
▁1、	-9.42774
注	-9.42852
设立	-9.42933
稳定	-9.42942
收藏	-9.42944
锦	-9.4297
论坛	-9.43004
集中	-9.43081
1个	-9.43088
最佳	-9.43114
当时	-9.43135
实行	-9.43279
生命	-9.43286
宏	-9.43344
承	-9.43349
核心	-9.43484
世纪	-9.43537
假	-9.43542
著名的	-9.43551
’	-9.43695
泥	-9.43716
发表	-9.43737
医药	-9.43849
政策	-9.43915
推	-9.43983
海洋	-9.44022
实用	-9.44038
评价	-9.44125
特殊	-9.44155
休闲	-9.44252
灰	-9.44293
记录	-9.44305
打造	-9.44318
经典	-9.44356
粗	-9.44361
燕	-9.44363
墙	-9.44446
益	-9.44521
分子	-9.44593
联系	-9.4461
现代化	-9.44612
录	-9.44659
屋	-9.44666
,因	-9.44717
模	-9.44865
全市	-9.44915
讲	-9.44951
露	-9.44972
特点	-9.45159
现场	-9.45179
曰	-9.45221
编辑	-9.45256
是在	-9.45274
希望	-9.45337
心理	-9.45337
保证	-9.4535
27	-9.45363
2007年	-9.45376
曹	-9.45433
检验	-9.45452
一切	-9.45481
欧	-9.45535
唱	-9.45606
内蒙古	-9.45657
药物	-9.45704
浮	-9.45741
继	-9.45969
众多	-9.45981
没	-9.45999
迅速	-9.46006
届	-9.46007
成本	-9.46075
无法	-9.46098
净	-9.46164
老师	-9.46176
既	-9.46206
山区	-9.46223
伦	-9.46346
祥	-9.46399
严	-9.46456
党员	-9.46523
患者	-9.46536
以下	-9.467
发布	-9.46733
洗	-9.46802
劳动	-9.46822
喜欢	-9.46826
偏	-9.46837
致	-9.46844
800	-9.46862
良好的	-9.46902
▁3、	-9.46943
优势	-9.47011
陕西省	-9.47012
延	-9.47014
货	-9.47044
毕业	-9.47081
例	-9.47145
协调	-9.47178
之间的	-9.47199
著	-9.47355
西部	-9.47423
枝	-9.47453
生长	-9.47509
「	-9.47551
白色	-9.47565
▁3	-9.47649
显	-9.47683
琴	-9.4774
未来	-9.47741
高速公路	-9.4776
一级	-9.47815
监督	-9.47854
作家	-9.47893
博物馆	-9.47897
汇	-9.479
颜色	-9.47914
出生	-9.47939
暗	-9.48099
。它	-9.48162
牙	-9.48177
保险	-9.4826
方案	-9.48265
围	-9.48267
引进	-9.48503
瓶	-9.48578
全省	-9.48584
48	-9.48639
查	-9.48645
手术	-9.48686
豆	-9.48688
似	-9.4871
句	-9.48711
形象	-9.48765
薄	-9.48775
全县	-9.48809
吸收	-9.48813
天然	-9.48838
简	-9.48857
宇	-9.48882
当代	-9.48889
待	-9.48956
乘	-9.48986
不可	-9.49007
地质	-9.49051
黑色	-9.4909
电话	-9.49101
速	-9.49133
生,	-9.4921
旁	-9.4923
动力	-9.49292
邦	-9.49298
谈	-9.49471
建成	-9.49516
父	-9.49517
景观	-9.49529
江西省	-9.49574
苗	-9.49595
参	-9.49635
皇	-9.49649
整	-9.49666
物流	-9.49735
凯	-9.49802
需求	-9.49873
附	-9.49882
简单	-9.49887
神经	-9.49889
大道	-9.49903
输出	-9.50052
又称	-9.50097
陶瓷	-9.501
重庆市	-9.50104
高中	-9.5014
刚	-9.50143
尊	-9.50157
正在	-9.50214
2个	-9.50247
卢	-9.50277
。现任	-9.50286
位置	-9.50413
症	-9.50428
原料	-9.50477
股份有限公司	-9.5052
枪	-9.50611
势	-9.50656
联盟	-9.50848
,拥有	-9.50888
跟	-9.50889
乱	-9.50919
消费者	-9.50926
楚	-9.50933
服务。	-9.50935
哲学	-9.51011
追求	-9.5104
65	-9.51084
10月	-9.51124
魔	-9.51188
,后	-9.51233
斜	-9.51328
描述	-9.51332
掌握	-9.51415
晓	-9.51494
务	-9.51527
2005年	-9.51547
技能	-9.51567
工厂	-9.51588
历	-9.51618
晚	-9.51626
图书	-9.51629
翻译	-9.51653
扬	-9.51715
阁	-9.51753
报告	-9.51816
润	-9.51929
能源	-9.51931
(今	-9.5195
600	-9.51968
恢复	-9.52028
青岛	-9.52087
纤维	-9.5209
为“	-9.52271
山西省	-9.52304
一条	-9.52341
滑	-9.52361
3个	-9.52383
人生	-9.52402
投	-9.52406
孝	-9.5249
是中国	-9.52641
成果	-9.52709
当地	-9.52714
航空	-9.52736
东南	-9.52802
济	-9.52812
挂	-9.52829
其它	-9.52837
某	-9.52846
贴	-9.52853
是以	-9.52942
感染	-9.52973
创办	-9.53144
拍	-9.53276
元素	-9.53314
淡	-9.5339
状态	-9.53399
‘	-9.53439
一样	-9.53464
,则	-9.53506
覆盖	-9.53527
积	-9.53568
沈	-9.53579
洲	-9.53591
投入	-9.53603
相对	-9.53644
29	-9.53645
湿	-9.53665
凡	-9.53686
深圳市	-9.53704
煤	-9.53712
通常	-9.53793
数量	-9.53813
箱	-9.53838
拜	-9.53847
即可	-9.53882
事件	-9.5392
鬼	-9.53925
墓	-9.54045
模型	-9.54139
规定	-9.54156
季	-9.54226
,可以	-9.54245
甘	-9.54385
平方米	-9.54432
研究生	-9.54471
第四	-9.54473
方便	-9.54486
每个	-9.5457
自身	-9.54619
攻击	-9.54699
进口	-9.54722
郎	-9.54756
不是	-9.54786
笑	-9.54801
女子	-9.54803
村委会	-9.54836
鉴定	-9.54842
胸	-9.54843
都有	-9.54896
图书馆	-9.54922
%	-9.54953
制定	-9.55028
导演	-9.55046
,并且	-9.55149
调节	-9.55164
印度	-9.55191
巨	-9.55256
混合	-9.55291
改善	-9.55358
75	-9.55447
振	-9.55549
拍摄	-9.55572
举办	-9.55582
孩子	-9.55597
征	-9.55619
寨	-9.55673
大师	-9.55704
芳	-9.55715
汁	-9.55748
穿	-9.5578
丰富	-9.55913
'	-9.56011
玄	-9.56051
成长	-9.56053
玛	-9.56065
专业的	-9.56163
一年	-9.56208
1000	-9.56223
在线	-9.56289
文章	-9.56328
乳	-9.56386
整合	-9.56402
动态	-9.56587
庭	-9.56772
也有	-9.5679
潮	-9.56791
桑	-9.56803
维修	-9.5692
读者	-9.56929
评	-9.57011
4个	-9.57172
地下	-9.57228
磨	-9.57237
零	-9.57269
苏州	-9.57318
64	-9.57346
基于	-9.57348
以来,	-9.57353
境内	-9.57362
虚	-9.5764
及时	-9.5769
,从而	-9.57728
掌	-9.57826
红色	-9.57871
38	-9.57947
领	-9.5796
朋友	-9.57968
亿	-9.57999
成立于	-9.5805
重新	-9.58058
急	-9.5808
推荐	-9.58133
同志	-9.58153
煮	-9.58214
,她	-9.58223
容	-9.58238
等地	-9.58256
学者	-9.58278
殿	-9.58304
推出	-9.58384
范	-9.58406
财政	-9.58472
戴	-9.58531
夹	-9.58783
仪器	-9.58801
上,	-9.58815
护	-9.58873
棉	-9.58946
保障	-9.58964
碑	-9.58975
税	-9.5909
疏	-9.59106
剧	-9.59131
定位	-9.59139
改造	-9.59153
亩,	-9.59165
先进的	-9.59234
导	-9.59245
适合	-9.59326
具体	-9.59425
构成	-9.59467
免费	-9.59468
锡	-9.59499
为主,	-9.59517
花园	-9.59606
南部	-9.59681
俄罗斯	-9.59723
因此	-9.59837
鸿	-9.5984
必	-9.59854
击	-9.59902
辽宁省	-9.59906
塑料	-9.59941
蔡	-9.59966
享受	-9.60053
高度	-9.60157
辖	-9.60216
招	-9.60242
。由于	-9.60263
津	-9.60278
辽宁	-9.60283
(),	-9.60287
,让	-9.60298
多年	-9.60307
森林	-9.60524
120	-9.60537
55	-9.60557
主题	-9.606
突出	-9.60612
:1	-9.6068
理念	-9.60688
,但是	-9.60718
不仅	-9.60753
评为	-9.6078
孟	-9.60807
大家	-9.60834
肥	-9.60844
辉	-9.60854
输入	-9.60954
团体	-9.61037
蛇	-9.61098
参数	-9.6155
授	-9.61555
2004年	-9.61588
探索	-9.61594
关注	-9.61599
42	-9.61628
经常	-9.61665
炮	-9.61738
,我们	-9.6174
羽	-9.61802
150	-9.61832
尺寸	-9.61904
多项	-9.61961
翼	-9.62074
玩家	-9.62183
优化	-9.62213
合同	-9.6222
适用于	-9.62303
幼	-9.62352
有限责任公司	-9.62389
十二	-9.62394
最终	-9.62464
建立了	-9.6248
减少	-9.6256
文艺	-9.62598
身体	-9.62668
天津市	-9.62699
沿	-9.62787
籍	-9.62803
舍	-9.62809
仍	-9.6286
色彩	-9.62877
,然后	-9.62877
降低	-9.62895
御	-9.62934
,任	-9.62994
辛	-9.63011
中文	-9.63105
移	-9.63195
附近	-9.6329
工程师	-9.63329
课题	-9.63454
主任	-9.63468
平均	-9.63605
符合	-9.63685
迁	-9.637
敬	-9.6373
随着	-9.63751
持	-9.63752
县城	-9.6376
伏	-9.63821
动画	-9.63939
裂	-9.63944
宣	-9.64146
舞蹈	-9.64154
所以	-9.64271
最后	-9.64292
航	-9.64364
,女,	-9.64366
贵州	-9.64366
最新	-9.64392
北部	-9.64466
鼎	-9.64493
,再	-9.645
一家	-9.645
蔬菜	-9.64544
太阳	-9.64584
下,	-9.64625
准备	-9.64714
奉	-9.64854
人体	-9.64869
屏	-9.6491
9月	-9.64962
恶	-9.64998
主编	-9.65027
纵	-9.65052
》诗:“	-9.65129
《中国	-9.65166
每年	-9.65202
成就	-9.6521
锅	-9.65213
逐渐	-9.65332
凉	-9.6534
宾馆	-9.65351
肿瘤	-9.65366
高效	-9.65409
研究院	-9.65417
配合	-9.65434
2003年	-9.65461
2011年	-9.65467
解释	-9.65548
兽	-9.65639
配置	-9.6565
三年	-9.65677
村民	-9.65689
原理	-9.65703
漫画	-9.65746
四个	-9.6579
不锈钢	-9.65813
机制	-9.65818
评估	-9.6587
推进	-9.65875
电子商务	-9.65891
,现任	-9.65912
通讯	-9.65928
就业	-9.66012
分类	-9.66017
一座	-9.66058
杆	-9.66112
等方面	-9.6613
指挥	-9.66138
战斗	-9.66174
朗	-9.66226
曾任	-9.6629
劳	-9.66374
注重	-9.66376
写作	-9.66436
玩	-9.665
地震	-9.66501
肝	-9.66506
人民政府	-9.66549
也。”	-9.66558
诗人	-9.66614
,这	-9.66634
才能	-9.66641
苑	-9.66722
----------------	-9.66736
正常	-9.66752
本科	-9.66781
战争	-9.66795
顿	-9.66798
沈阳	-9.6685
模拟	-9.66858
译	-9.66861
粮	-9.66885
持续	-9.66922
国外	-9.66983
顾问	-9.6701
室内	-9.67135
的时候	-9.67142
扎	-9.67209
需	-9.67219
甚	-9.6722
公共	-9.67295
伟	-9.67311
韵	-9.67326
开放	-9.67336
确定	-9.67391
完善	-9.67397
处于	-9.67406
反映	-9.67466
2000年	-9.67478
房地产	-9.67517
演员	-9.67575
展览	-9.67596
接触	-9.67631
一定	-9.6764
吕	-9.67767
俱乐部	-9.67769
独特的	-9.67866
鹿	-9.68027
坊	-9.68052
满足	-9.68059
换	-9.68133
针对	-9.68146
,最终结果以百度地图数据为准。	-9.68168
据	-9.682
.",(){(	-9.68241
.("/////	-9.68241
10000801);});	-9.68273
、中国	-9.68317
推动	-9.68319
水库	-9.68357
固定	-9.68384
浦	-9.68386
歌曲	-9.68482
堡	-9.68628
空气	-9.68681
▁:	-9.68701
医学院	-9.68769
健	-9.68771
人士	-9.68833
具备	-9.68881
样	-9.68898
33	-9.69027
印刷	-9.69039
控	-9.69042
痛	-9.69065
丰富的	-9.69075
海拔	-9.69149
▁4.	-9.69259
测	-9.69279
装修	-9.6928
文物	-9.69319
两种	-9.69378
流行	-9.6938
合成	-9.69399
申请	-9.69421
岳	-9.69452
购物	-9.69598
东部	-9.69609
增强	-9.69615
电视台	-9.69806
东西	-9.69833
平衡	-9.6989
技巧	-9.69891
页	-9.699
2002年	-9.69951
车辆	-9.70054
新型	-9.70061
辐射	-9.70156
早期	-9.70158
跳	-9.70165
稍	-9.70178
肠	-9.70239
以后	-9.70283
」	-9.70286
射	-9.70319
体验	-9.70347
资	-9.70372
特性	-9.70399
斑	-9.70506
蛋	-9.70562
磁	-9.70797
专门	-9.70821
自动化	-9.70829
自我	-9.7086
批准	-9.71009
名。	-9.71036
程度	-9.71076
,每	-9.71099
如果	-9.71107
窑	-9.71117
办学	-9.71162
种子	-9.71173
玉米	-9.71354
,且	-9.71365
将军	-9.71389
阶段	-9.71424
敏	-9.71454
皇帝	-9.71474
等级	-9.71481
适应	-9.7151
37	-9.71519
坑	-9.71533
授予	-9.71535
办公	-9.71573
斋	-9.71574
锁	-9.71579
码	-9.71619
诚	-9.71661
鸣	-9.71732
概念	-9.7177
,把	-9.71908
保健	-9.71939
序	-9.71941
启	-9.71945
炎	-9.71957
泡	-9.7196
融	-9.71977
机、	-9.71998
2.0	-9.72152
现象	-9.72156
图片	-9.72206
,该	-9.72216
住宅	-9.72241
止	-9.7225
阳光	-9.72263
中间	-9.72304
影视	-9.72324
造型	-9.72328
的历史	-9.72466
翻	-9.72472
茎	-9.72487
姆	-9.72498
成绩	-9.72508
始建于	-9.72527
电池	-9.7253
首次	-9.72588
财务	-9.72621
产品的	-9.72694
瓜	-9.72746
,经	-9.72753
在中国	-9.72788
遗址	-9.72841
大赛	-9.72869
耐	-9.729
2012年	-9.72933
创意	-9.72942
境	-9.73002
分离	-9.73023
为一体的	-9.73028
56	-9.73047
最早	-9.73152
英文	-9.73179
仲	-9.73184
床	-9.73261
相互	-9.73294
长江	-9.73301
集成	-9.73357
卖	-9.73375
你的	-9.73401
袋	-9.73409
中部	-9.7348
妇女	-9.73498
动作	-9.73506
集团公司	-9.73507
保存	-9.73537
大学生	-9.73538
传》:“	-9.73543
罪	-9.73563
8月	-9.73577
丘	-9.73583
砖	-9.73633
助	-9.7371
1.5	-9.73744
知名	-9.73752
的研究	-9.73936
43	-9.74009
协议	-9.74172
和谐	-9.74178
破坏	-9.74204
涉及	-9.74282
买	-9.74282
相当	-9.7431
砂	-9.7455
队伍	-9.74585
充分	-9.74601
参考	-9.74642
虽	-9.74643
2月	-9.74704
家具	-9.7472
隐	-9.74723
愿	-9.74772
它的	-9.74805
,距	-9.7483
柏	-9.74847
鸭	-9.74885
研	-9.74937
▁4、	-9.74965
宗教	-9.74994
传输	-9.75046
蒂	-9.75067
赫	-9.75078
因素	-9.7516
旅	-9.75173
审	-9.75184
残	-9.75188
,主要	-9.75196
力量	-9.75246
仓	-9.75251
人工	-9.75251
学员	-9.75288
海南	-9.7532
晶	-9.75326
饭	-9.75368
居住	-9.75381
涂	-9.75382
做好	-9.75423
引起	-9.75498
素质	-9.75563
湘	-9.75618
氧	-9.75687
漆	-9.75761
98	-9.75779
济南	-9.75791
径	-9.75888
美容	-9.75892
图像	-9.75951
责任	-9.76055
绘画	-9.76119
吧	-9.76167
遗	-9.76187
歌手	-9.76224
不会	-9.76233
》等。	-9.7626
焦	-9.76345
5月	-9.76353
2001年	-9.76413
形态	-9.76514
供应	-9.76559
主管	-9.7665
青少年	-9.76657
协助	-9.76673
鞋	-9.7674
地面	-9.76741
<	-9.7679
重要的	-9.76828
1998年	-9.7683
到了	-9.76858
材	-9.76927
大陆	-9.7694
飞机	-9.76941
错	-9.76957
消	-9.76963
常用	-9.77105
严重	-9.77107
依据	-9.7712
民国	-9.77132
碎	-9.77139
防治	-9.77152
靠	-9.77155
2.5	-9.77198
,公司	-9.7721
39	-9.77217
周边	-9.77269
饮	-9.77328
释	-9.77416
豪	-9.77438
救	-9.77438
兄弟	-9.77444
大厦	-9.77456
茂	-9.77524
编制	-9.7755
爱情	-9.77624
小时	-9.77635
三大	-9.77655
行动	-9.77662
并且	-9.77674
诚信	-9.77674
部、	-9.77686
域	-9.77717
大连	-9.77723
紧	-9.77737
顾	-9.77758
幅	-9.77776
一位	-9.77776
带来	-9.77817
34	-9.77895
安排	-9.77934
英雄	-9.77964
气体	-9.78025
的专业	-9.78025
渡	-9.78028
举行	-9.78037
吉林省	-9.78054
铝	-9.78067
泵	-9.78103
习	-9.78184
54	-9.78229
分公司	-9.78236
效率	-9.78241
教育部	-9.78283
长沙	-9.78301
地理	-9.78305
是否	-9.78376
52	-9.7842
协	-9.78421
监测	-9.78448
黄金	-9.78508
俊	-9.78512
轴承	-9.78529
嘴	-9.78548
养殖	-9.78564
军队	-9.78634
隔	-9.78653
纪念	-9.78681
小型	-9.78697
播放	-9.78802
系统的	-9.78921
档案	-9.78927
统	-9.78969
这样	-9.79075
粮食	-9.79129
,曾	-9.79206
念	-9.7921
44	-9.79238
加拿大	-9.79241
灭	-9.79256
科技有限公司	-9.79282
背景	-9.79284
复合	-9.79371
城镇	-9.79377
46	-9.79379
进一步	-9.79385
记者	-9.79424
佛教	-9.79479
办理	-9.79644
专辑	-9.79658
鼻	-9.79702
彭	-9.79711
造成	-9.79735
资产	-9.79749
1997年	-9.7977
对象	-9.79851
各地	-9.79862
含量	-9.79891
贾	-9.7991
石油	-9.79982
贺	-9.80018
状况	-9.8003
戏剧	-9.8013
1999年	-9.80207
黑龙江省	-9.80212
桃	-9.80242
发挥	-9.80278
猫	-9.8028
震	-9.80282
育	-9.80302
少年	-9.80334
1996年	-9.80361
成熟	-9.80365
汉族	-9.80417
预防	-9.80492
犹	-9.80502
壶	-9.80592
熊	-9.80605
混	-9.80681
,他们	-9.80737
潘	-9.80791
集体	-9.80842
互动	-9.80856
肺	-9.80872
清代	-9.80945
槽	-9.80971
4月	-9.80976
袁	-9.81035
链	-9.81041
山水	-9.8108
启动	-9.81167
景区	-9.81172
电机	-9.81179
上下	-9.81218
遂	-9.81239
证书	-9.81334
拳	-9.81343
雕	-9.81353
蛋白	-9.81464
画家	-9.81546
算	-9.81549
厦门	-9.8155
掉	-9.81553
备	-9.81611
抓	-9.81637
火车站	-9.81726
冯	-9.8175
胎	-9.81757
干燥	-9.81836
深入	-9.81862
冠军	-9.81895
乐队	-9.81908
辞	-9.81911
鹤	-9.81998
说明	-9.82017
循环	-9.82022
甘肃	-9.82026
负	-9.82114
腰	-9.8212
大会	-9.82128
肌	-9.82165
餐饮	-9.82182
云南省	-9.82227
年)	-9.82235
广州市	-9.82257
水泥	-9.82273
格式	-9.82304
购买	-9.82334
沉	-9.82434
市政府	-9.82476
充满	-9.82493
吾	-9.82519
典	-9.82522
建议	-9.82556
宾	-9.82584
窗	-9.82621
园林	-9.82696
也。	-9.82743
的小	-9.828
珍	-9.82806
酶	-9.82813
明代	-9.82813
激光	-9.82874
郑州	-9.82896
蒸	-9.8293
方面的	-9.82941
影片	-9.82964
童	-9.82998
藤	-9.83011
倍	-9.83028
西班牙	-9.83089
第五	-9.83142
读书	-9.83269
下载	-9.83287
,还	-9.83423
出生,	-9.83426
,现	-9.83427
之后,	-9.83433
海外	-9.83535
明显	-9.83571
电压	-9.83603
寻	-9.83697
研究中心	-9.8376
外科	-9.83781
西方	-9.83784
快乐	-9.83819
参加工作	-9.83863
那些	-9.83879
而且	-9.83948
配件	-9.83962
管道	-9.84073
1992年	-9.84113
文献	-9.84122
7月	-9.84139
废	-9.8414
85	-9.8419
澳大利亚	-9.84204
昭	-9.8421
初中	-9.84319
首届	-9.84334
财	-9.84382
95	-9.84384
中华人民共和国	-9.84395
包含	-9.84439
决策	-9.84442
追	-9.8446
父母	-9.84466
审计	-9.84511
攻	-9.84513
产品质量	-9.84518
制品	-9.8452
1995年	-9.84531
穗	-9.84584
地球	-9.84649
综合性	-9.84653
甘肃省	-9.84743
入选	-9.84749
二级	-9.84794
网上	-9.84814
版本	-9.84827
著作	-9.84869
3月	-9.84878
册	-9.84902
份	-9.84921
又名	-9.85041
通道	-9.85192
实力	-9.85193
除了	-9.85217
频率	-9.85226
逸	-9.85267
观察	-9.85302
主义	-9.85303
虾	-9.85323
科学技术	-9.85342
数据库	-9.85364
强度	-9.85404
新加坡	-9.85465
坐落于	-9.85526
霍	-9.85531
演	-9.85538
频道	-9.85546
起来	-9.85565
工作的	-9.85583
洗净	-9.85635
(18	-9.85659
曾经	-9.85732
强大的	-9.85742
大众	-9.85751
沟通	-9.85768
首批	-9.85798
的基础上	-9.85882
村位于	-9.85891
较为	-9.85901
隶属于	-9.85914
佩	-9.85949
议	-9.85964
5个	-9.85983
跨	-9.8603
尤	-9.86052
肾	-9.86062
艺术家	-9.86076
谱	-9.86156
崇	-9.86207
空调	-9.86212
申	-9.86263
盒	-9.86292
顾客	-9.86313
31	-9.86319
父亲	-9.86333
1月	-9.8636
态	-9.8636
江南	-9.86417
58	-9.86419
坪	-9.86426
弱	-9.86439
萧	-9.86452
栽培	-9.86463
舌	-9.86469
考入	-9.86471
虽然	-9.86504
专利	-9.86605
浆	-9.86608
1993年	-9.8665
策略	-9.86662
生产线	-9.86747
在此	-9.86752
舒适	-9.86752
更多	-9.86773
经济学	-9.86777
增长	-9.86845
指标	-9.86911
,因为	-9.86974
构造	-9.86987
勤	-9.86996
轻松	-9.86998
如此	-9.87012
土壤	-9.87059
唯一	-9.87063
橡胶	-9.87083
西藏	-9.87084
院校	-9.87087
甜	-9.8709
▁4	-9.87109
免	-9.87152
海军	-9.87273
演唱	-9.87277
更名为	-9.87302
南方	-9.8736
大队	-9.87388
护理	-9.87393
周围	-9.87482
服务器	-9.87535
减	-9.87604
”等	-9.87634
团结	-9.87718
改为	-9.87724
,能	-9.87756
画面	-9.87809
秒	-9.87818
碧	-9.87868
透	-9.87907
武器	-9.87963
通用	-9.87985
己	-9.88008
北方	-9.88037
吸	-9.88085
1994年	-9.8809
液体	-9.88093
完	-9.88205
资讯	-9.88219
工人	-9.88251
注意	-9.88252
措施	-9.88262
&	-9.88315
刊	-9.88316
卿	-9.88342
客房	-9.88358
,获	-9.88373
再次	-9.88441
遇	-9.88468
面向	-9.88496
乡镇	-9.88506
邪	-9.88518
什么	-9.88529
加热	-9.88558
园区	-9.88578
谁	-9.88581
诗歌	-9.88581
林业	-9.88599
原名	-9.88631
探	-9.88755
呼	-9.88761
几个	-9.8879
意识	-9.88851
0.5	-9.88861
登记	-9.88888
作战	-9.8895
过去	-9.88982
合理	-9.88998
帮	-9.89061
类型:	-9.89063
惊	-9.89067
妙	-9.89106
帕	-9.89128
效	-9.89196
放在	-9.89224
观众	-9.89287
僧	-9.89361
她的	-9.89392
”和“	-9.89431
票	-9.89467
巷	-9.89467
发射	-9.89467
高端	-9.89491
参加了	-9.89536
11月	-9.89558
,男,汉族,	-9.89563
认识	-9.89569
作业	-9.89755
47	-9.89755
内存	-9.89763
1990年	-9.89765
邓	-9.89814
应该	-9.89847
一名	-9.89863
乔	-9.89875
甚至	-9.89882
,或	-9.8991
电流	-9.89919
这是	-9.89934
函数	-9.89935
更新	-9.8995
节能	-9.89958
滩	-9.9
管理、	-9.90028
简称	-9.90029
经济发展	-9.90089
键	-9.90136
升级	-9.90143
。但	-9.90193
饼	-9.90278
数码	-9.90282
风险	-9.90322
兹	-9.90335
坐落在	-9.90355
费用	-9.90382
翅	-9.90388
药品	-9.90403
私	-9.90412
公开	-9.90412
72	-9.90443
。学校	-9.90573
这里	-9.90588
腿	-9.90613
慧	-9.90674
而不	-9.90769
原则	-9.90839
良好	-9.90855
电路	-9.90915
献	-9.90941
知道	-9.90942
》中	-9.90973
▁“	-9.90977
表达	-9.90986
扩大	-9.91082
布局	-9.9117
,当	-9.91193
旋	-9.91197
照明	-9.91282
贵州省	-9.91304
性的	-9.91366
谋	-9.91373
,号	-9.9144
各项	-9.91447
警	-9.9149
适量	-9.91534
中药	-9.91545
终	-9.91549
效应	-9.91552
访问	-9.91555
49	-9.91608
,属	-9.91618
律师	-9.91622
●	-9.9164
菲	-9.91691
村隶属于	-9.91705
佐	-9.91753
董	-9.91766
工作;	-9.91795
。从	-9.91832
-1	-9.91882
只是	-9.91932
气候	-9.91963
第一个	-9.92038
效益	-9.92048
人文	-9.9205
弄	-9.92054
6月	-9.9206
有机	-9.92065
规格	-9.92079
示范	-9.92094
瓷	-9.92099
穴	-9.92115
96	-9.92196
本数据来源于百度地图	-9.92202
旺	-9.92244
86	-9.92266
一流	-9.92279
,由于	-9.92286
,目前	-9.92332
宿	-9.92345
科、	-9.92348
勇	-9.92381
丸	-9.92409
得到了	-9.92441
国务院	-9.92512
狗	-9.92552
组建	-9.92552
单元	-9.92597
都市	-9.92602
组成的	-9.92622
,提高	-9.92669
编写	-9.92715
直径	-9.92848
浪	-9.92849
基层	-9.92912
。目前	-9.92962
咸	-9.92972
模具	-9.93093
等多种	-9.93138
6个	-9.93208
历任	-9.9321
哥	-9.93211
潭	-9.9322
监	-9.93226
它们	-9.93281
电器	-9.93298
检	-9.93312
尺	-9.93328
酱	-9.93362
茶叶	-9.93371
囊	-9.93494
民主	-9.93538
市区	-9.9355
房屋	-9.9359
市级	-9.93613
开关	-9.93662
传统的	-9.93662
韦	-9.93683
解决方案	-9.93708
幸福	-9.93738
幼儿	-9.93817
高压	-9.93878
是一家	-9.93878
毗邻	-9.93889
豆腐	-9.94028
好的	-9.94056
资本	-9.94139
令人	-9.94251
,并在	-9.943
传说	-9.94389
赋	-9.94413
,更	-9.94469
是一款	-9.9447
心理学	-9.94489
辅助	-9.94508
突破	-9.94535
律	-9.94625
中共党员	-9.94719
医生	-9.94728
埃	-9.94815
塑	-9.94864
的《	-9.9487
1986年	-9.94878
明星	-9.94965
敌人	-9.95018
公司的	-9.95021
原因	-9.95034
外观	-9.95182
翠	-9.95288
同步	-9.9529
秘书	-9.95364
建于	-9.95364
完善的	-9.95407
99	-9.9541
理解	-9.9542
。其中	-9.95445
醇	-9.95446
卫星	-9.95494
摩	-9.95496
密度	-9.95514
的新	-9.95567
借	-9.95599
的基本	-9.95706
辅导	-9.95826
重视	-9.95833
染	-9.95935
前后	-9.95953
本地	-9.95958
考察	-9.96078
多媒体	-9.96091
拟	-9.96127
&;	-9.96176
和平	-9.96212
我们的	-9.96227
舒	-9.96256
诊断	-9.96264
硕士	-9.96315
,共	-9.9637
,就	-9.96386
戈	-9.96409
迷	-9.96411
英寸	-9.96416
主要是	-9.96418
为主的	-9.96423
容易	-9.96426
南北	-9.96455
1979年	-9.96458
贡	-9.96465
66	-9.96482
宅	-9.96491
无线	-9.96529
有一	-9.96586
一流的	-9.96621
大部分	-9.96732
不足	-9.96747
足球	-9.96904
高温	-9.96906
规则	-9.96917
栋	-9.96924
胃	-9.96953
图案	-9.97183
兼任	-9.97199
姚	-9.97212
采取	-9.97237
准	-9.97265
识	-9.97314
融合	-9.97342
能量	-9.97353
2.	-9.9739
展开	-9.97443
宁波	-9.97445
创立	-9.97449
系列产品	-9.97454
,促进	-9.97525
建有	-9.97534
对外	-9.97641
黄色	-9.97658
十年	-9.97666
1985年	-9.97693
的生活	-9.97707
水利	-9.97726
席	-9.97728
气象	-9.97752
1.2	-9.97837
赠	-9.97847
省市	-9.97872
十五	-9.97872
1988年	-9.979
面对	-9.97913
训	-9.97924
全村	-9.97927
88	-9.98006
发动机	-9.98078
壮	-9.98103
吊	-9.98115
记载	-9.98116
个性	-9.98142
乙	-9.98146
副教授	-9.9816
功率	-9.98177
3年	-9.98205
基因	-9.98206
存储	-9.98264
电气	-9.98283
1978年	-9.98346
最为	-9.9838
复杂	-9.98386
办事处	-9.98395
成分	-9.98432
,无	-9.98439
阀	-9.98472
运作	-9.98489
告	-9.98521
委托	-9.98524
休	-9.98553
高档	-9.98562
氧化	-9.98587
渠道	-9.98632
商标	-9.98639
看到	-9.98647
喷	-9.98664
霞	-9.98694
独特	-9.98721
线路	-9.988
家族	-9.98873
俗	-9.98926
飞行	-9.98975
豪华	-9.99009
幽	-9.99066
各个	-9.99097
一点	-9.99112
一项	-9.99163
智慧	-9.99172
颈	-9.99179
手段	-9.99189
发展的	-9.99197
他们的	-9.99225
争	-9.99236
监控	-9.99314
百姓	-9.9932
预	-9.99336
1987年	-9.99375
黄河	-9.99394
食物	-9.99427
弯	-9.99499
污染	-9.99531
寸	-9.99561
鸡蛋	-9.99571
)是	-9.99609
设计师	-9.99668
68	-9.9968
焊接	-9.99681
端口	-9.99698
2003	-9.99704
精英	-9.9971
期刊	-9.99722
标准化	-9.99755
57	-9.99761
开发区	-9.99781
黑龙江	-9.99787
停	-9.99793
彩色	-9.99843
角色	-9.99843
怪	-9.99848
吉林	-9.9987
后来	-9.99937
获得了	-9.99993
美丽	-10.0003
产量	-10.0006
狂	-10.001
超级	-10.001
地址	-10.0011
练	-10.0011
授权	-10.0011
案例	-10.0016
建材	-10.002
署	-10.0021
液压	-10.0024
寻找	-10.0029
传感器	-10.0032
屯	-10.0032
信誉	-10.0039
密封	-10.0041
的地方	-10.0046
第六	-10.0051
1991年	-10.0052
1980年	-10.0058
四大	-10.0059
真正	-10.0059
爱好者	-10.0061
41	-10.0062
下设	-10.0062
解放	-10.0075
平原	-10.0076
1984年	-10.0079
拓展	-10.0079
在北京	-10.0082
迎	-10.0086
滴	-10.0087
流量	-10.009
采购	-10.009
)、《	-10.0092
鼠	-10.0093
250	-10.0096
建造	-10.0105
沃	-10.0105
收录	-10.0106
稿	-10.0111
吨	-10.0113
铭	-10.0117
一部	-10.0118
1956年	-10.0119
51	-10.012
险	-10.0121
1989年	-10.0121
筑	-10.0123
娜	-10.0135
第一次	-10.014
可达	-10.0152
鑫	-10.0153
五年	-10.0153
播	-10.0154
培	-10.0154
食用	-10.0154
,字	-10.0158
报》	-10.0159
有些	-10.0164
就会	-10.0167
共享	-10.0168
硬盘	-10.017
垂	-10.0171
觉	-10.0171
碗	-10.0175
并不	-10.0179
经历	-10.0188
穆	-10.0189
中外	-10.0189
了。	-10.0192
年度	-10.0196
是个	-10.0205
指定	-10.0205
高等	-10.0206
12月	-10.0206
续	-10.021
耕地	-10.0211
轩	-10.0212
滚	-10.0214
垂直	-10.0215
犬	-10.0221
自治区	-10.0224
奖励	-10.0239
廷	-10.0239
不得	-10.0244
利益	-10.0245
吹	-10.0247
巧	-10.0247
汪	-10.0251
垫	-10.0272
困难	-10.0273
群体	-10.0274
更多的	-10.0274
深度	-10.0284
多家	-10.0284
龟	-10.0285
修复	-10.0286
依托	-10.0287
温泉	-10.0289
作用。	-10.0298
兆	-10.03
59	-10.031
110	-10.0314
含有	-10.0315
购	-10.0319
整理	-10.0322
精密	-10.0327
福州	-10.0328
▁·	-10.0328
接待	-10.0328
160	-10.0331
颗粒	-10.0334
道德	-10.0335
。曾任	-10.034
插	-10.0352
诗词	-10.0354
1981年	-10.0358
介	-10.036
”为	-10.0362
专科	-10.0366
开设	-10.0372
息	-10.0374
报道	-10.0375
180	-10.0379
庵	-10.0383
腔	-10.0385
标志	-10.0386
岸	-10.0412
柯	-10.0416
卧	-10.042
分配	-10.0423
黎	-10.0424
领域的	-10.0429
尘	-10.0429
称号	-10.043
模块	-10.0435
阀门	-10.0436
棒	-10.0436
扩展	-10.0439
高科技	-10.0439
---	-10.0441
公寓	-10.0442
1982年	-10.0447
始终	-10.0449
寄	-10.0453
浓	-10.0456
真实	-10.0458
刑	-10.0462
,却	-10.0462
主体	-10.0462
北京大学	-10.0463
策	-10.0465
肩	-10.0465
名人	-10.0472
平面	-10.0472
行业的	-10.0475
创建于	-10.0476
盟	-10.0477
严格	-10.0477
堆	-10.0487
信息化	-10.0494
绿化	-10.0495
死亡	-10.0506
公斤	-10.051
筒	-10.0513
在这里	-10.0514
研制	-10.0518
97	-10.0521
研究会	-10.0523
委员	-10.0523
-2	-10.0523
广播	-10.0524
67	-10.0524
荣誉	-10.0526
全区	-10.0528
年龄	-10.0529
制成	-10.0529
祭	-10.0531
葱	-10.0533
战士	-10.0533
传媒	-10.0538
症状	-10.0543
家居	-10.0551
美食	-10.0554
边缘	-10.0556
当前	-10.0556
颜	-10.0557
浩	-10.0559
53	-10.0561
事务	-10.0562
男子	-10.0569
煎	-10.0573
患	-10.0581
透明	-10.0582
强化	-10.0582
工作者	-10.0584
魂	-10.0584
赏	-10.0586
,自	-10.0589
禅	-10.0593
逐步	-10.0596
中有	-10.0596
用品	-10.0596
卓	-10.0597
拔	-10.0602
钙	-10.0603
找到	-10.0607
腾	-10.0607
充	-10.0615
败	-10.0615
曾在	-10.0618
事故	-10.0621
崔	-10.0623
劲	-10.0623
迹	-10.0624
狼	-10.0624
优秀的	-10.0624
承办	-10.0626
于一体的	-10.0629
餐厅	-10.0632
种类	-10.0634
芯片	-10.0638
酱油	-10.0641
校长	-10.0641
企业。	-10.0643
照片	-10.0644
翁	-10.0646
邑	-10.0646
。此	-10.0647
记忆	-10.0658
收集	-10.0659
禁	-10.066
异常	-10.0662
更是	-10.0662
3.5	-10.0665
旋转	-10.0667
打印	-10.0672
后的	-10.0674
某些	-10.0681
儒	-10.0683
苏联	-10.0683
发育	-10.0684
所属	-10.069
坛	-10.0697
中山	-10.0705
凌	-10.0712
渔	-10.0713
饮食	-10.0713
后期	-10.0723
已有	-10.0725
刺激	-10.0726
证券	-10.0728
限制	-10.073
十大	-10.073
少许	-10.0731
考核	-10.0748
鹰	-10.0751
之前	-10.0755
现为	-10.0755
人数	-10.0757
的作用	-10.076
擅长	-10.0772
2013年	-10.0779
转移	-10.0784
十八	-10.0784
暴	-10.0789
最具	-10.079
目的	-10.0792
的影响	-10.0793
纺织	-10.0794
×	-10.0796
老人	-10.0796
重量	-10.0797
()是	-10.08
78	-10.0808
叶片	-10.0808
体现	-10.0809
秉承	-10.081
龄	-10.0811
蒋	-10.0814
的大型	-10.0815
,先后	-10.0822
赞	-10.0825
扣	-10.0826
63	-10.083
两侧	-10.0832
均为	-10.0833
光学	-10.0834
键盘	-10.0836
改进	-10.0838
奏	-10.0845
军区	-10.0849
不要	-10.085
竞争	-10.085
别墅	-10.0855
。主要	-10.0856
的产品	-10.0867
排列	-10.0874
87	-10.0877
电视剧	-10.09
带有	-10.09
过滤	-10.0901
成了	-10.0905
先进单位	-10.0907
师范学院	-10.0915
误	-10.0917
个体	-10.0921
搜索	-10.0923
所谓	-10.0924
汗	-10.0932
证明	-10.0934
茨	-10.0936
权威	-10.0937
公主	-10.0939
脸	-10.094
防止	-10.0944
常见	-10.0946
8个	-10.0949
者。	-10.095
朝鲜	-10.0952
大桥	-10.0954
人事	-10.0955
进步	-10.0962
凝	-10.0962
地图	-10.0963
发明	-10.0964
机器	-10.0966
服饰	-10.0968
62	-10.0969
批	-10.0971
主席	-10.0973
罐	-10.0973
2008	-10.0974
中国科学院	-10.0975
一致	-10.0977
完美	-10.098
企业的	-10.098
适宜	-10.0983
束	-10.0986
凭借	-10.0989
镜头	-10.0989
株	-10.099
冶金	-10.0993
绝对	-10.0998
钢铁	-10.0999
混凝土	-10.1005
,形成	-10.1009
非洲	-10.1018
指数	-10.1019
抽	-10.102
蛋白质	-10.1025
苹果	-10.1027
集团有限公司	-10.1031
厘米,	-10.1031
煤炭	-10.1035
意义	-10.1035
变形	-10.1045
织	-10.1045
付	-10.1047
钢琴	-10.1047
植	-10.1051
业绩	-10.1052
的大	-10.1055
的方法	-10.1057
船舶	-10.1057
1983年	-10.1057
母亲	-10.1059
形容	-10.1059
裕	-10.1064
哈尔滨	-10.1064
76	-10.1065
梨	-10.1073
学历	-10.1074
里,	-10.1075
》和《	-10.1076
在全国	-10.1077
介绍了	-10.1079
温州	-10.1083
习惯	-10.1084
渠	-10.1088
铸	-10.1092
类似	-10.1097
什	-10.1101
总结	-10.1106
蓝色	-10.1107
缩	-10.1112
贷款	-10.1114
来源	-10.1117
一片	-10.1119
几乎	-10.1122
永远	-10.1137
录音	-10.114
主要从事	-10.1141
养生	-10.1142
引导	-10.1143
名称:	-10.1143
耶	-10.1143
但是	-10.1149
长度	-10.115
▁●	-10.1153
”是	-10.1154
洁	-10.1155
绘	-10.1158
妇	-10.1162
销	-10.1164
百年	-10.1165
十三	-10.1168
有一个	-10.117
公安	-10.1174
驱动	-10.1174
荷兰	-10.1178
碱	-10.1181
瓣	-10.1188
蜜	-10.1192
消防	-10.1193
切成	-10.1197
预测	-10.1198
立体	-10.1201
是“	-10.1203
毫米	-10.1204
遭	-10.1205
三等奖	-10.1207
合金	-10.1211
▁5.	-10.1211
犯罪	-10.1213
当年	-10.1214
变成	-10.1215
肖	-10.1227
观念	-10.1233
→	-10.1239
性质	-10.1244
图形	-10.1246
公社	-10.1247
社团	-10.1248
历史上	-10.1249
接收	-10.1251
首都	-10.1253
徒	-10.1254
烈	-10.1255
▁5、	-10.1258
富有	-10.1264
纲	-10.1265
接近	-10.1267
里的	-10.1269
地区的	-10.1275
病人	-10.1277
阵	-10.1278
稀	-10.128
有:	-10.1289
操作系统	-10.129
培育	-10.1292
生存	-10.1296
犯	-10.1298
阶	-10.1298
符	-10.1299
地位	-10.13
监管	-10.1302
挑战	-10.1302
各大	-10.1304
逆	-10.1304
合并	-10.1306
述	-10.1306
总部	-10.1306
思维	-10.131
案件	-10.1319
车站	-10.132
首先	-10.1325
教授,	-10.1325
总公司	-10.1334
女人	-10.1335
一带	-10.134
。“	-10.1343
然后	-10.1343
脂	-10.1344
显著	-10.1348
潜	-10.1349
选用	-10.1349
乎	-10.1349
依法	-10.1353
骑	-10.1354
出了	-10.1356
,我	-10.1359
坚	-10.1363
政协	-10.1363
一套	-10.1366
成立了	-10.1367
1970年	-10.1369
动漫	-10.1375
计量	-10.1376
合肥	-10.1379
舟	-10.1384
室、	-10.1398
堤	-10.1402
生成	-10.1407
已成为	-10.1407
系统、	-10.1408
92	-10.1411
▁*	-10.1415
专题	-10.1417
3000	-10.1418
亡	-10.142
足球俱乐部	-10.1422
枚	-10.1429
二等奖	-10.1431
宇宙	-10.1434
流程	-10.1439
双方	-10.1446
支付	-10.1447
打开	-10.1454
容量	-10.1455
感觉	-10.1463
赐	-10.1463
完整	-10.1465
规律	-10.1466
法学	-10.1467
职能	-10.1477
73	-10.1477
多功能	-10.1483
倒入	-10.1485
高级工程师	-10.149
跑	-10.149
盆	-10.1491
岩石	-10.1492
芯	-10.1495
的工作	-10.1495
69	-10.1501
82	-10.1501
1976年	-10.1501
社会主义	-10.1506
修改	-10.1511
浸	-10.1513
县政府	-10.1514
斯特	-10.1515
覆	-10.1518
股票	-10.1522
今天	-10.1526
赖	-10.1533
欢迎	-10.1533
戒	-10.1535
豫	-10.1537
在美国	-10.154
维生素	-10.1543
溶	-10.1547
魔法	-10.1552
饲料	-10.1556
形状	-10.1566
撒	-10.1568
上市	-10.1569
雾	-10.1571
菊	-10.1576
连锁	-10.1585
(-)	-10.1585
艺人	-10.1587
旗下	-10.159
的方式	-10.1597
主动	-10.1599
天地	-10.1603
胜利	-10.1606
每天	-10.1607
内外	-10.161
材质	-10.1611
清水	-10.1612
名家	-10.1613
普遍	-10.1616
测定	-10.1619
曰:“	-10.1621
雕刻	-10.1623
77	-10.1626
美丽的	-10.1627
密码	-10.1628
等等	-10.1635
新建	-10.1638
近年来	-10.1638
导致	-10.164
配备	-10.1643
师生	-10.1643
面粉	-10.1643
漏	-10.1644
进修	-10.1645
苍	-10.1646
围绕	-10.1647
,属于	-10.165
扇	-10.1652
较大	-10.1653
闲	-10.1656
釉	-10.1658
》获	-10.166
审核	-10.1662
嫩	-10.1662
开拓	-10.1663
(如	-10.1664
急性	-10.1667
流动	-10.1668
即可。	-10.167
一批	-10.1671
货物	-10.1674
内置	-10.1678
一场	-10.168
转换	-10.1681
防护	-10.1682
一生	-10.1688
交换	-10.1691
艳	-10.1692
弟	-10.1695
型号	-10.1696
不少	-10.1697
慈	-10.1699
〕	-10.17
武术	-10.1702
经理	-10.1703
阳县	-10.1703
万元,	-10.1712
2-	-10.1713
平方米,	-10.1713
的各种	-10.1714
上有	-10.1716
”“	-10.1719
均有	-10.1726
国民党	-10.1728
书籍	-10.1728
来到	-10.173
舞台	-10.1734
管理局	-10.1736
碳	-10.1737
货币	-10.1739
影像	-10.1742
各级	-10.1743
设计、	-10.1746
老年	-10.1753
分享	-10.1757
年),	-10.1757
唐代	-10.1757
抗日	-10.1761
汝	-10.1761
贡献	-10.1765
副主任	-10.1766
做出	-10.1768
,地处	-10.177
孤	-10.1771
码头	-10.1771
重建	-10.1772
一支	-10.1775
拿	-10.1776
不过	-10.1783
中小企业	-10.1784
灌	-10.1784
128	-10.1785
取得了	-10.1786
捷	-10.1787
二十	-10.1789
适用	-10.1791
战役	-10.1793
散文	-10.1796
观测	-10.18
现实	-10.1801
鹏	-10.1801
臂	-10.1803
五个	-10.1804
小儿	-10.1807
蜀	-10.1816
终端	-10.1818
葛	-10.1822
弘	-10.1827
高考	-10.1828
间,	-10.1832
1963年	-10.1833
,实现	-10.1844
淀粉	-10.1844
找	-10.1846
构建	-10.1848
饭店	-10.185
遍	-10.1857
梦想	-10.1859
荒	-10.1859
专著	-10.186
该村	-10.1863
窗口	-10.1864
均匀	-10.1872
只能	-10.1873
▁学校	-10.1873
出来的	-10.1875
落实	-10.1879
祠	-10.1882
眉	-10.1883
的时间	-10.1884
财富	-10.1884
第七	-10.1888
花卉	-10.189
电缆	-10.189
900	-10.1893
比喻	-10.1894
兔	-10.1896
时间:	-10.1904
贞	-10.1907
藻	-10.1911
有“	-10.1916
声音	-10.1918
四年	-10.1919
柄	-10.1925
呼吸	-10.193
汉语	-10.193
。她	-10.1936
地产	-10.1938
支撑	-10.1939
缺	-10.1944
硅	-10.1947
十六	-10.1948
用途	-10.1951
醋	-10.1952
察	-10.1956
最好的	-10.1959
邀请	-10.1963
▁5	-10.1965
螺	-10.1968
叔	-10.1969
的设计	-10.1969
设定	-10.1976
身份	-10.1977
1975年	-10.1978
清洁	-10.1978
性格	-10.1978
肌肤	-10.1979
怒	-10.198
芽	-10.1981
同样	-10.1986
形成了	-10.1988
游客	-10.1991
一块	-10.1993
宁夏	-10.1996
称为“	-10.1998
第3	-10.2
自主	-10.2005
为客户提供	-10.2006
74	-10.2006
意见	-10.2006
700	-10.2009
呈现	-10.202
讨论	-10.2025
两次	-10.2032
1964年	-10.2043
89	-10.2044
,加入	-10.2044
的故事	-10.2045
,已	-10.2046
输送	-10.205
局部	-10.205
为主。	-10.2051
乡村	-10.2051
翔	-10.2051
郁	-10.2056
全新	-10.2057
辅	-10.2061
芬	-10.2064
胆	-10.2066
83	-10.2068
丛	-10.2074
这样的	-10.2075
到达	-10.2076
更为	-10.2076
房间	-10.2078
组成,	-10.2082
铸造	-10.2082
,放入	-10.2082
城县	-10.2084
古城	-10.209
本身	-10.2096
特种	-10.2097
昆明	-10.2098
比例	-10.2098
年轻	-10.2099
绍	-10.21
钻	-10.2101
成人	-10.2109
94	-10.2109
办法	-10.2117
资质	-10.2123
牧	-10.2124
欧美	-10.2124
1号	-10.2127
招生	-10.2129
炸	-10.2129
青春	-10.2129
将其	-10.2132
硬件	-10.2132
丙	-10.2134
血管	-10.2134
走向	-10.2134
感受	-10.2135
-3	-10.2137
查询	-10.2139
柜	-10.2141
悦	-10.2143
水稻	-10.2144
220	-10.2153
幸	-10.2155
另外	-10.2156
组成。	-10.2157
周期	-10.2157
隶属	-10.2158
涂料	-10.2162
涛	-10.2164
企业管理	-10.2166
一只	-10.2174
资格	-10.2175
钩	-10.2176
幕	-10.2176
满意	-10.2177
崖	-10.2177
雕塑	-10.2177
获奖	-10.2177
泛	-10.2177
决	-10.2179
榜	-10.218
迈	-10.2183
煤矿	-10.2185
0.1	-10.2186
""	-10.2187
慢	-10.2187
一定的	-10.2187
完成了	-10.2189
农户	-10.2195
等职。	-10.2197
联合会	-10.2198
添加	-10.2203
”(	-10.2203
,于	-10.2205
风景	-10.2206
薛	-10.2206
筋	-10.2208
锅炉	-10.2209
治理	-10.2216
补充	-10.2219
免疫	-10.2222
普及	-10.2223
供电	-10.2223
清华大学	-10.2228
屏幕	-10.2228
清洗	-10.2229
逻辑	-10.2229
“”	-10.223
工作人员	-10.2238
合格	-10.2239
名,	-10.2242
小组	-10.2242
1965年	-10.2244
昆虫	-10.2245
范围内	-10.2246
,经过	-10.2249
荷	-10.225
抑制	-10.2253
工作室	-10.2255
划	-10.2265
无限	-10.2267
典型	-10.2269
商场	-10.227
1958年	-10.2275
给予	-10.2277
层次	-10.228
弦	-10.2281
一段	-10.2282
该校	-10.2283
档	-10.2288
公里	-10.2291
男,	-10.2297
的形式	-10.2297
离开	-10.2298
蒙古	-10.2301
以其	-10.2302
柴	-10.2303
以前	-10.2304
两年	-10.2305
所有的	-10.2312
县委	-10.2313
力学	-10.2323
越南	-10.2323
视觉	-10.2324
流通	-10.2329
疾	-10.2331
助理	-10.2335
79	-10.234
规	-10.2343
简介	-10.2344
和其他	-10.2346
水果	-10.2352
外国	-10.2352
1957年	-10.2359
村、	-10.236
,此	-10.2367
部位	-10.2372
一所	-10.2377
了一个	-10.2378
桥梁	-10.238
蒲	-10.2391
後	-10.2393
,一般	-10.2393
洛阳	-10.2399
立足	-10.24
()、	-10.2404
多数	-10.2404
目录	-10.2409
故障	-10.2411
手动	-10.2412
情感	-10.2413
鳞	-10.2414
家长	-10.2416
辽	-10.2416
发表论文	-10.2416
医师	-10.2416
》的	-10.242
,还有	-10.2421
害	-10.2422
离子	-10.2424
另	-10.2428
凤凰	-10.2437
从而	-10.2439
厂房	-10.244
咖啡	-10.2441
引起的	-10.2442
靖	-10.2442
果实	-10.2444
长春	-10.2445
球队	-10.2452
仪表	-10.2455
耀	-10.2457
61	-10.2458
有《	-10.246
古典	-10.2461
2010	-10.2464
分会	-10.2475
生产的	-10.2476
角度	-10.2478
、省	-10.2479
狮	-10.2492
也可以	-10.2497
以为	-10.2498
执	-10.2499
窝	-10.25
。这	-10.2501
抱	-10.2503
税收	-10.2504
一等奖	-10.2505
港口	-10.2506
电动	-10.2507
都会	-10.2507
,加	-10.2509
弗	-10.2509
高达	-10.2509
适	-10.251
新城	-10.2515
负责人	-10.2522
优良	-10.2523
上述	-10.2526
。而	-10.253
活动。	-10.2534
机电	-10.2536
场所	-10.2541
摆	-10.2543
葡萄	-10.2544
热爱	-10.2548
传承	-10.2549
则是	-10.2554
1974年	-10.2558
氯	-10.2563
传递	-10.2563
仕	-10.2564
识别	-10.2564
醉	-10.2567
绕	-10.2568
1949年	-10.257
3.	-10.257
霜	-10.257
基部	-10.2571
处理器	-10.2573
详细	-10.2576
礼品	-10.2583
苯	-10.2589
语音	-10.2591
信用	-10.2592
在国内	-10.2594
原始	-10.2595
响	-10.2596
资深	-10.2598
发动	-10.2602
优秀教师	-10.2603
回到	-10.2603
用来	-10.2604
准确	-10.2609
扫描	-10.2617
练习	-10.262
撰写	-10.2623
剪	-10.2625
带领	-10.2627
山县	-10.2642
仔	-10.2643
热情	-10.2643
巴西	-10.2647
访	-10.2648
交通便利	-10.2659
定义	-10.266
理想	-10.2661
之中	-10.2661
婚	-10.2664
渐	-10.2664
避	-10.2664
吐	-10.2666
海内外	-10.2667
避免	-10.2669
尝	-10.2669
伴	-10.2671
罗马	-10.2673
二年	-10.2677
1959年	-10.268
愈	-10.2681
原创	-10.2691
供应商	-10.2695
奈	-10.2699
教授。	-10.2705
膏	-10.2711
环节	-10.2711
贼	-10.2712
师范	-10.2715
1950年	-10.2715
进程	-10.2716
秘密	-10.2717
消除	-10.2718
夫人	-10.2718
扁	-10.272
活动,	-10.272
精心	-10.2724
锋	-10.2728
作出	-10.2731
栏目	-10.2731
93	-10.2734
校区	-10.2735
卵	-10.2737
刷	-10.274
竞赛	-10.2747
共和国	-10.2748
直属	-10.2749
积累	-10.2752
技术人员	-10.2753
占地	-10.2758
物资	-10.2761
起义	-10.2766
,学校	-10.2766
电信	-10.2768
长安	-10.2773
▁支持	-10.2775
傅	-10.278
1.8	-10.2782
1955年	-10.2782
相关的	-10.2783
环境保护	-10.2784
乾	-10.2786
逃	-10.2789
前往	-10.2789
属性	-10.2793
探讨	-10.2794
,亦	-10.2795
空军	-10.2797
的精神	-10.2809
明确	-10.2812
党的	-10.2813
1962年	-10.2814
认真	-10.2814
1954年	-10.2817
传奇	-10.2817
太平洋	-10.2819
辰	-10.2822
相应的	-10.2824
7个	-10.2838
武汉市	-10.2839
新区	-10.2842
那么	-10.2842
常规	-10.2843
我的	-10.2845
压缩	-10.2845
1960年	-10.2846
1.6	-10.2846
。当	-10.2853
辖区	-10.2855
健身	-10.2855
):	-10.2858
东莞	-10.2859
衡	-10.2861
弹性	-10.2867
实现了	-10.2868
多年来	-10.2868
。曾	-10.2869
障碍	-10.2869
1945年	-10.2869
,最后	-10.287
真空	-10.2872
闭	-10.2873
使得	-10.2882
妻	-10.2884
枣	-10.2886
男女	-10.2888
脊	-10.289
疑	-10.2891
中原	-10.2891
十一	-10.2891
商家	-10.2892
超市	-10.2893
企	-10.2894
思考	-10.2896
疗法	-10.2903
出自	-10.2907
昆	-10.2907
1-	-10.2909
继承	-10.291
最好	-10.2918
农场	-10.2923
大街	-10.2932
渣	-10.2933
召	-10.2938
书院	-10.2938
局长	-10.2939
往往	-10.294
▁(2)	-10.2942
国王	-10.2944
示	-10.2945
泰国	-10.2949
粘	-10.2951
危	-10.2951
县级	-10.2952
有所	-10.2952
1973年	-10.2954
总统	-10.2955
突然	-10.2959
初期	-10.2959
,而是	-10.2963
利润	-10.2969
命名	-10.297
器材	-10.2971
发电	-10.2976
冈	-10.2979
舰	-10.298
缝	-10.2981
尹	-10.2982
逐	-10.2986
无锡	-10.2987
路线	-10.2994
河流	-10.2995
评论	-10.2997
互相	-10.2997
旅行	-10.3
1969年	-10.3
1953年	-10.3004
,如果	-10.3006
注入	-10.3009
喝	-10.3011
鉴	-10.3014
就可以	-10.3029
』	-10.303
村庄	-10.3034
司法	-10.3034
哲	-10.3036
考虑	-10.3038
职称	-10.3046
突	-10.3047
1.4	-10.305
帽	-10.3051
您的	-10.3054
弟子	-10.3054
诏	-10.306
1951年	-10.3062
爆	-10.3068
钦	-10.3069
些	-10.3069
本品	-10.3072
唯一的	-10.3073
奖。	-10.3078
彦	-10.3081
机会	-10.3086
康复	-10.3088
街道办事处	-10.3089
绣	-10.3091
使用的	-10.3095
。因	-10.3096
让人	-10.3101
填	-10.3102
报刊	-10.3105
书记	-10.3105
辑	-10.3108
国立	-10.3108
叠	-10.3109
领先	-10.3111
烤	-10.3112
2007	-10.3112
燃烧	-10.3113
禄	-10.3114
1952年	-10.3115
1977年	-10.3118
累	-10.3118
技	-10.3118
悬	-10.312
沪	-10.3122
有效的	-10.3126
耕	-10.3127
第二届	-10.3129
。这种	-10.313
危害	-10.3131
刊物	-10.3132
矿物	-10.3133
加盟	-10.3135
阿尔	-10.3135
总是	-10.3136
发起	-10.3144
滤	-10.3147
中国人民解放军	-10.3153
另一	-10.3154
轨	-10.3156
成立的	-10.3157
内科	-10.3161
稻	-10.3164
起,	-10.3165
陆军	-10.3169
帝国	-10.317
130	-10.3172
法规	-10.3174
即将	-10.3185
84	-10.3186
(即	-10.3187
氢	-10.3188
,采用	-10.3189
曲线	-10.3191
。本书	-10.3193
方言	-10.3194
留学	-10.3197
“三	-10.3201
清朝	-10.3201
职务	-10.321
有了	-10.3211
家园	-10.3212
小麦	-10.3216
虚拟	-10.3221
难以	-10.3221
酷	-10.3223
期间,	-10.3224
占地面积	-10.3225
凭	-10.3241
吸引	-10.3241
介质	-10.3242
不再	-10.3242
1%	-10.3244
一下	-10.3245
般	-10.3245
|	-10.3245
演奏	-10.325
华人	-10.325
建筑物	-10.326
极为	-10.3262
教室	-10.3266
净化	-10.3266
娘	-10.3271
下的	-10.3273
04	-10.3273
化妆品	-10.3274
教练	-10.3277
先进个人	-10.3278
,甚至	-10.3279
安县	-10.3279
太平	-10.328
灵活	-10.3288
1972年	-10.3288
一体化	-10.3289
法制	-10.3289
里面	-10.3293
限	-10.3296
地铁	-10.3298
频	-10.3298
妇科	-10.33
,特别是	-10.3302
本着	-10.3302
风味	-10.3302
出来	-10.3303
日常	-10.3304
青岛市	-10.3306
关节	-10.3306
邻	-10.331
男汉族	-10.3311
厚度	-10.3315
草原	-10.3316
情报	-10.3318
只要	-10.3319
焊	-10.3319
语文	-10.3321
春秋	-10.3322
科研项目	-10.3322
确保	-10.3325
”;	-10.3326
地域	-10.3327
第2	-10.3329
群岛	-10.3329
姑	-10.3334
3-	-10.3338
厘米	-10.3338
关键	-10.3339
2.4	-10.3343
,这是	-10.3344
暖	-10.3346
学士	-10.335
对方	-10.3352
使用。	-10.3352
分解	-10.3354
的内容	-10.336
相同	-10.336
多年的	-10.3361
尿	-10.3362
申报	-10.3367
远程	-10.3367
峡	-10.3367
的时候,	-10.3374
相应	-10.3375
坦	-10.3375
法院	-10.3379
瑞士	-10.3382
物品	-10.3382
国防	-10.3384
状,	-10.3384
100%	-10.3389
侠	-10.3393
餐	-10.3396
固体	-10.3403
分布于	-10.3408
日军	-10.3409
结束	-10.3414
雁	-10.3414
(1)	-10.3414
口味	-10.3416
外形	-10.3425
桶	-10.343
临时	-10.3431
全方位	-10.3431
0.8	-10.3437
长城	-10.3437
深受	-10.3443
栏	-10.3444
别人	-10.3447
睡	-10.3449
展现	-10.345
油画	-10.345
叫做	-10.3451
每一个	-10.3454
,就是	-10.3454
脂肪	-10.3461
男性	-10.3464
熙	-10.3466
作物	-10.3466
释放	-10.3468
繁荣	-10.3471
08	-10.3472
少数民族	-10.3472
滨	-10.3474
俄	-10.3477
血液	-10.3479
▁该	-10.3483
の	-10.349
大气	-10.3492
服务中心	-10.3492
原来	-10.3494
外部	-10.3496
唇	-10.3498
损失	-10.35
芝	-10.3502
姬	-10.3513
一系列	-10.3519
细菌	-10.3522
“中国	-10.3523
搅拌	-10.3523
4.5	-10.3524
棋	-10.3526
拖	-10.3526
判断	-10.3529
的同时,	-10.3533
经济开发区	-10.3534
工会	-10.3538
0.0	-10.3539
科普	-10.354
大量的	-10.3556
截	-10.3558
车间	-10.3563
一张	-10.3567
获取	-10.3567
配有	-10.3568
欣赏	-10.3568
人群	-10.3569
料酒	-10.3571
性和	-10.3572
丧	-10.3574
飘	-10.3574
桐	-10.3576
)和	-10.3578
平方公里	-10.3579
新华	-10.3587
隧道	-10.3589
教职工	-10.3597
。现为	-10.3602
欢	-10.3603
硕士研究生	-10.3603
万元	-10.361
主机	-10.3611
名:	-10.3616
墩	-10.3618
71	-10.3621
服务,	-10.3626
纳米	-10.3627
总经理	-10.363
年产	-10.3633
最多	-10.3637
咏	-10.3638
2004	-10.3639
厂商	-10.364
损伤	-10.3646
1971年	-10.3647
王国	-10.3647
址	-10.3651
坏	-10.3654
成型	-10.3656
2.2	-10.3657
分校	-10.366
巨大的	-10.366
强调	-10.3664
名为	-10.3677
协作	-10.3677
奶	-10.3678
05	-10.3679
慢性	-10.3684
斩	-10.3691
修建	-10.3696
那个	-10.3698
国道	-10.3699
传》	-10.3703
特别是	-10.3703
夷	-10.3704
热带	-10.3704
服务于	-10.3705
管理人员	-10.3706
奉献	-10.371
1968年	-10.3712
讲师	-10.3712
产品。	-10.3712
是一名	-10.3712
相信	-10.3712
中国共产党	-10.3721
弃	-10.3721
疼痛	-10.3721
谦	-10.3724
秘	-10.3726
名字	-10.3727
和发展	-10.3731
最低	-10.3731
解放军	-10.3733
07	-10.3737
03	-10.3737
兰州	-10.3738
音频	-10.3742
欣	-10.3745
树脂	-10.3747
召开	-10.3748
附属	-10.3752
延伸	-10.3753
房产	-10.3757
研究员	-10.376
党委	-10.376
历代	-10.3764
活性	-10.3765
市民	-10.3766
及其他	-10.3766
每一	-10.3766
拨	-10.3772
剧情	-10.3774
带动	-10.3776
允许	-10.3776
阻	-10.3778
埋	-10.3787
》,《	-10.379
社会科学	-10.3791
4.	-10.3795
快捷	-10.3795
商城	-10.3796
预算	-10.3798
平台,	-10.3802
多少	-10.3803
。如	-10.3803
扶	-10.3805
癌	-10.3805
设计,	-10.3806
技术、	-10.3806
先进工作者	-10.381
在一起	-10.381
漫	-10.3812
产生的	-10.3814
俱	-10.3815
02	-10.3815
支队	-10.3815
闽	-10.3816
五金	-10.3819
生产基地	-10.3819
反对	-10.3821
----	-10.3823
柔	-10.3824
2011	-10.3824
振动	-10.3826
1.3	-10.3829
莲花	-10.383
新技术	-10.3832
停止	-10.3834
磷	-10.3834
串	-10.3838
投资者	-10.3842
的理想	-10.3843
做到	-10.3845
牛肉	-10.3848
保留	-10.3853
一代	-10.3853
斗争	-10.3854
公益	-10.3857
莉	-10.3858
三种	-10.3859
精选	-10.3859
伤害	-10.3864
发酵	-10.3865
邱	-10.3868
▁主要	-10.3869
1.0	-10.3873
一份	-10.3874
丛书	-10.3874
儿子	-10.3875
曰:‘	-10.3875
的学生	-10.3876
东莞市	-10.3877
。同时,	-10.3877
输	-10.388
0.2	-10.388
吏	-10.3883
一线	-10.3885
玩具	-10.3885
援	-10.3885
生动	-10.3886
创始人	-10.3888
享有	-10.3889
//	-10.3891
公元	-10.3892
三十	-10.3897
糊	-10.3909
七年	-10.391
灾	-10.3911
圆形	-10.3919
近代	-10.3921
0.3	-10.3925
,遂	-10.3931
开发的	-10.3936
乐器	-10.394
夺	-10.394
年代	-10.3941
毕	-10.3947
商贸	-10.395
(包括	-10.3954
少女	-10.3954
蜂	-10.3956
禽	-10.3965
界面	-10.3965
全身	-10.3966
太原	-10.3966
维持	-10.3968
信息技术	-10.3969
当选为	-10.3973
审批	-10.3975
中心、	-10.3975
眼睛	-10.3986
驾驶	-10.3988
2006	-10.399
蟹	-10.3993
澄	-10.3993
清晰	-10.3996
风情	-10.3997
中医药	-10.3999
学位	-10.4004
特定	-10.4004
等人	-10.4006
5000	-10.4012
穷	-10.4014
被称为	-10.4017
。我们	-10.4018
葬	-10.4019
!”	-10.402
....	-10.4023
称“	-10.4023
琳	-10.4026
同学	-10.4035
▁-	-10.404
三级	-10.4043
。同时	-10.4045
海南省	-10.4046
管辖	-10.4051
厂家	-10.4052
的要求	-10.4052
武装	-10.4053
。现	-10.4054
实时	-10.4057
人力资源	-10.4058
把握	-10.4059
上升	-10.406
纠错	-10.406
澳门	-10.406
返	-10.4065
同一	-10.4067
彻底	-10.4068
完整的	-10.4068
繁殖	-10.4071
浓度	-10.4072
常见的	-10.4074
1年	-10.4074
第1	-10.4075
移民	-10.4075
巴黎	-10.4077
霸	-10.4077
十四	-10.4078
首家	-10.4079
第八	-10.4086
》杂志	-10.409
条件下	-10.4096
途径	-10.4096
招聘	-10.4097
足球俱乐部。	-10.4097
琼	-10.41
二次	-10.41
鱼类	-10.4103
左右,	-10.4104
第一届	-10.4105
辣椒	-10.4106
宣布	-10.4107
,努力	-10.4109
,现为	-10.4109
白糖	-10.4109
学、	-10.4109
(原	-10.4111
相继	-10.4113
拱	-10.4114
南海	-10.4116
▁二、	-10.4117
予	-10.4118
系数	-10.4118
(.)	-10.4119
,支持	-10.412
()。	-10.4121
09	-10.4122
随机	-10.4125
伸	-10.4125
租	-10.4126
淮	-10.4128
唱片	-10.4129
1937年	-10.4131
微生物	-10.4135
的特点	-10.4137
业余	-10.4141
冲击	-10.4142
喻	-10.4146
中小学	-10.4146
收购	-10.4148
91	-10.4151
赶	-10.4151
2009	-10.4154
感情	-10.4154
等等。	-10.4154
,因而	-10.4156
警察	-10.4157
_	-10.4158
户,	-10.4159
子,	-10.416
恨	-10.4161
发出	-10.4167
地点	-10.4168
知识产权	-10.4168
的服务	-10.4168
经费	-10.417
场地	-10.4171
粤	-10.4172
81	-10.4174
偶	-10.4174
互	-10.4175
题材	-10.4177
今年	-10.4178
▁中国	-10.4178
新产品	-10.4179
正确	-10.4181
-4	-10.4185
1966年	-10.4186
进攻	-10.4188
,便	-10.4189
验收	-10.419
菩萨	-10.4191
下辖	-10.4191
晨	-10.4192
农产品	-10.4192
酥	-10.4193
路、	-10.4194
体积	-10.4196
纱	-10.4201
的核心	-10.4204
十佳	-10.4211
绳	-10.4211
可见	-10.4212
得以	-10.4212
加以	-10.4216
等)	-10.4221
触	-10.4221
锐	-10.4222
大酒店	-10.4226
主张	-10.4228
缺乏	-10.4229
奎	-10.4235
观赏	-10.4238
汽	-10.4239
企事业单位	-10.4245
在《	-10.4247
候	-10.4247
,长	-10.4251
140	-10.4252
经验,	-10.4255
冷却	-10.4255
商会	-10.4255
倡导	-10.4256
蝶	-10.4258
06	-10.4261
骨干	-10.4263
5-	-10.4263
瑞典	-10.4265
依靠	-10.4266
上面	-10.4267
而成	-10.4267
潮流	-10.4268
同年	-10.4269
各国	-10.4271
谭	-10.4275
教研室	-10.4275
上级	-10.4278
原子	-10.428
盈	-10.4283
定期	-10.4284
仿	-10.4287
设备、	-10.4288
矿山	-10.4289
化石	-10.429
,常	-10.4291
副局长	-10.4293
防水	-10.4295
文化艺术	-10.4303
开业	-10.4306
宋代	-10.4307
华东	-10.4311
毁	-10.4314
初级中学	-10.4315
分钟	-10.4319
代码	-10.4322
莎	-10.4323
以上的	-10.4324
是一位	-10.4327
实习	-10.4332
约1	-10.4333
成都市	-10.4334
都能	-10.4335
源于	-10.4335
倾	-10.4336
2012	-10.4339
枫	-10.4343
人间	-10.4346
反射	-10.435
香油	-10.4354
奔	-10.4354
弓	-10.4365
身上	-10.4367
推出的	-10.4369
:2	-10.4374
的基础上,	-10.4379
调入	-10.438
有关部门	-10.4383
褐色	-10.4384
1.1	-10.4385
全自动	-10.439
广播电视	-10.439
默	-10.4392
加速	-10.4401
操	-10.4401
某种	-10.4404
为主要	-10.4406
认可	-10.4407
硫	-10.4408
大约	-10.4409
5年	-10.4411
0.6	-10.4415
并在	-10.4416
。历任	-10.4421
年间	-10.4422
清新	-10.4425
形成的	-10.4428
较高	-10.443
若干	-10.4431
安全生产	-10.4435
礼仪	-10.4438
乾隆	-10.4443
航天	-10.4444
阔	-10.4446
其实	-10.4449
返回	-10.4451
殷	-10.4452
山地	-10.4456
分散	-10.4456
映	-10.446
采用了	-10.4462
出身	-10.4465
10个	-10.4465
劳动力	-10.4467
戏曲	-10.4468
鄂	-10.4471
抚	-10.4473
伪	-10.4473
加快	-10.4475
专项	-10.4477
太阳能	-10.4478
驾	-10.448
订	-10.4483
明朝	-10.4492
恭	-10.4494
两大	-10.4495
香菇	-10.4497
猎	-10.4505
是一所	-10.4506
红军	-10.4507
肯	-10.4509
售	-10.4515
管理系统	-10.4518
董事长	-10.4519
高等教育	-10.4519
事业单位	-10.4521
最早的	-10.4522
怡	-10.4527
教育教学	-10.453
同行	-10.4532
生理	-10.4533
\	-10.4537
导弹	-10.4538
平安	-10.4541
运动员	-10.4542
2005	-10.4544
,根据	-10.4547
伍	-10.4549
实体	-10.455
神秘	-10.4553
区内	-10.4557
爪	-10.4558
主要有	-10.4562
木材	-10.4563
趣	-10.4563
导航	-10.4569
太子	-10.457
海上	-10.4571
监察	-10.4575
大多数	-10.4577
一层	-10.458
颁发的	-10.458
大臣	-10.4581
。后	-10.4585
外,	-10.4586
主演	-10.4588
县人	-10.459
”,“	-10.4593
防御	-10.4594
铃	-10.4595
2%	-10.4596
很大	-10.4597
机床	-10.4597
口腔	-10.4598
大地	-10.4603
哀	-10.4603
南昌	-10.4623
高山	-10.4623
一天	-10.4623
编剧	-10.4624
,这种	-10.4625
立即	-10.4625
碟	-10.4626
王朝	-10.4627
甫	-10.4631
仍然	-10.4631
长期从事	-10.4631
终于	-10.4632
入党	-10.4633
工商	-10.4633
定制	-10.4635
发送	-10.4637
搭配	-10.4638
50克	-10.464
在上海	-10.464
繁	-10.4641
基金会	-10.4646
说:“	-10.4648
采集	-10.4648
胺	-10.4649
毕业生	-10.465
来说	-10.4652
:《	-10.466
24小时	-10.466
芒	-10.4661
腹部	-10.4662
铅	-10.4663
资助	-10.4667
企业家	-10.4672
男人	-10.4673
光电	-10.4675
褐	-10.4676
测绘	-10.4678
收费	-10.4678
市人民政府	-10.4681
朵	-10.4682
先后在	-10.4688
涉	-10.4691
弯曲	-10.4691
我校	-10.4692
巨大	-10.4693
经济效益	-10.4698
4000	-10.47
冻	-10.4703
邵	-10.4706
失败	-10.4708
日益	-10.471
科学家	-10.4713
,是中国	-10.4714
合作伙伴	-10.4715
亿元,	-10.4718
技术和	-10.4723
国土面积	-10.4725
贫	-10.4725
手法	-10.4727
人民医院	-10.4735
自行	-10.4738
网友	-10.474
▁(1)	-10.4742
蜡	-10.4746
答	-10.4748
,现有	-10.475
一颗	-10.475
出土	-10.475
1人,	-10.475
挑	-10.4752
的不同	-10.4752
首席	-10.4754
事物	-10.4757
有时	-10.4758
闸	-10.4758
女儿	-10.4758
泪	-10.4765
党组成员	-10.4765
花生	-10.4766
选手	-10.4767
五十	-10.4768
宁县	-10.4769
1939年	-10.477
沿海	-10.4771
惟	-10.4775
主要用于	-10.4775
危机	-10.4782
景点	-10.4782
超越	-10.4784
颇	-10.4785
某一	-10.4785
感到	-10.4786
少数	-10.4787
抵	-10.4788
炼	-10.4788
扬州	-10.4788
村人。	-10.4789
大于	-10.4792
最初	-10.4795
穿越	-10.4796
廊	-10.4797
猛	-10.4797
处,	-10.4798
1200	-10.48
不知	-10.4802
勾	-10.4805
,这些	-10.4806
任职	-10.4807
淋	-10.481
。此外,	-10.4813
仰	-10.4816
孔子	-10.4817
元件	-10.4817
客观	-10.4822
讲述	-10.4823
摇	-10.4827
1人	-10.483
屈	-10.4831
每次	-10.4831
巡	-10.4834
官方	-10.4835
1948年	-10.4836
间的	-10.4837
忌	-10.4838
工业园区	-10.4839
家乡	-10.4845
记》	-10.4846
重复	-10.4847
上网	-10.485
低温	-10.4851
分枝	-10.4851
分管	-10.4853
本人	-10.4853
棚	-10.4855
不久	-10.4858
缸	-10.4859
,负责	-10.4862
技术,	-10.4862
局局长	-10.4865
重要参数	-10.4866
(或	-10.4867
工资	-10.4868
。如果	-10.4869
一人	-10.4869
肌肉	-10.4869
珍珠	-10.487
延长	-10.4873
妈妈	-10.4874
相邻	-10.4875
)人。	-10.4875
(含	-10.4876
悟	-10.4883
万人	-10.4884
遇到	-10.4885
县人。	-10.4886
储	-10.4886
是我国	-10.489
财经	-10.4891
拓	-10.4892
恋	-10.4894
报纸	-10.4895
瘤	-10.4898
华北	-10.4903
,同年	-10.4904
便利	-10.4904
中等	-10.4905
配方	-10.4905
专注于	-10.4906
南宋	-10.4908
下降	-10.4914
通风	-10.4915
婆	-10.4918
部件	-10.4919
劝	-10.4924
主办	-10.4925
敢	-10.4926
营造	-10.4926
模范	-10.4927
向上	-10.493
10克	-10.4933
三国	-10.4936
高等学校	-10.4942
,现在	-10.4943
十七	-10.4943
妖	-10.4945
执法	-10.4946
贵族	-10.4949
任意	-10.4954
撤	-10.4954
旱	-10.4956
1500	-10.4956
便捷	-10.4957
计划生育	-10.4957
怎样	-10.4959
友好	-10.4961
验	-10.4963
丑	-10.4964
内的	-10.4964
服务的	-10.4966
回收	-10.4971
恐怖	-10.4971
宴	-10.4977
实例	-10.4982
有人	-10.4984
新鲜	-10.4989
牺牲	-10.4991
差异	-10.4992
1961年	-10.4993
科学研究	-10.4993
活力	-10.4993
番	-10.4998
暨	-10.4998
桩	-10.5004
3.0	-10.5006
爆炸	-10.5007
跃	-10.5008
水分	-10.5008
可用	-10.5013
审查	-10.5014
凹	-10.5014
痰	-10.5016
东路	-10.5018
大楼	-10.5019
宪	-10.5019
杭	-10.5021
关心	-10.5024
汉字	-10.5024
要素	-10.5027
炖	-10.5027
北宋	-10.5028
分辨率	-10.5028
全体	-10.5029
形势	-10.5031
婚姻	-10.5032
。这些	-10.5034
偷	-10.5034
喜爱	-10.5034
(2)	-10.5037
饮料	-10.5041
观音	-10.5042
1940年	-10.5043
保温	-10.5045
如今	-10.5046
岗位	-10.5047
两人	-10.5048
细节	-10.5052
越来越	-10.5052
顶级	-10.5059
鹅	-10.5063
茅	-10.5064
坎	-10.5065
代替	-10.5066
邹	-10.5067
办公室、	-10.5071
危险	-10.5071
国有	-10.5072
体制	-10.5074
摄	-10.5078
▁6、	-10.5078
平台。	-10.5078
4-	-10.5085
/2	-10.5086
任中共	-10.5089
雀	-10.5092
一中	-10.5092
涵盖	-10.5095
烂	-10.5099
教授、	-10.5102
叉	-10.5103
称之为	-10.5106
贯	-10.5106
可靠	-10.5107
.08	-10.5109
为人	-10.511
主持人	-10.5111
框架	-10.5111
。因此,	-10.5112
提出了	-10.5113
电梯	-10.5114
补偿	-10.5114
控制器	-10.5116
1938年	-10.5118
享	-10.5119
聚集	-10.5121
爱国	-10.5123
风景区	-10.5124
授予“	-10.5127
氟	-10.5127
也可	-10.5129
所在	-10.5131
悲	-10.5137
高层	-10.5138
由此	-10.514
乃至	-10.5143
、市	-10.5145
本公司	-10.5149
纽约	-10.5149
颗	-10.5151
希腊	-10.5153
〔	-10.5154
披	-10.5157
昂	-10.5157
亲自	-10.5158
南路	-10.5159
王子	-10.5159
虹	-10.5159
高品质	-10.5161
缓	-10.5162
下属	-10.5166
顺利	-10.5171
轨道	-10.5172
民营企业	-10.5173
2.1	-10.5175
。目前,	-10.5176
赢得了	-10.5182
一道	-10.5184
我公司	-10.5188
研究》	-10.5189
跟踪	-10.5189
总体	-10.5189
3%	-10.5189
不到	-10.5192
地上	-10.5193
山脉	-10.5193
代谢	-10.5193
世界上	-10.5194
逢	-10.5195
融资	-10.5196
结婚	-10.5197
消化	-10.5198
饲养	-10.5199
电站	-10.5199
朴	-10.52
1946年	-10.5201
生活的	-10.5203
怎么	-10.5204
240	-10.5208
吻	-10.521
▁我们	-10.521
多名	-10.5213
板块	-10.5218
初步	-10.522
六年	-10.5223
,又称	-10.5224
广泛的	-10.5225
外语	-10.5231
经营管理	-10.5232
赢得	-10.5232
组织的	-10.5236
的作品	-10.5237
将会	-10.5238
华夏	-10.5239
敦	-10.5246
爽	-10.5247
一本	-10.5247
魅力	-10.5251
前进	-10.5255
所在地	-10.5257
,又名	-10.5257
的关系	-10.5264
棱	-10.5264
3.2	-10.5265
米,	-10.5268
真正的	-10.5268
举办的	-10.5279
引领	-10.5283
徽	-10.5285
点击	-10.5285
留下	-10.5285
忍	-10.5286
促	-10.5289
,原名	-10.5293
专业化	-10.5296
兴趣	-10.5302
村,	-10.5302
闪	-10.5302
荡	-10.5307
客人	-10.5307
涌	-10.5309
全世界	-10.5309
6000	-10.5312
联赛	-10.5312
遗传	-10.5316
报警	-10.5316
千年	-10.532
内有	-10.5322
,乃	-10.5324
钠	-10.5325
革	-10.5325
牡丹	-10.5325
,于是	-10.5326
溶液	-10.5326
美学	-10.5328
#	-10.5329
用水	-10.533
水产	-10.5333
西路	-10.5333
像素	-10.5334
、李	-10.5335
万吨	-10.5338
廉	-10.5339
电影《	-10.5341
储存	-10.5346
拌	-10.5348
教学楼	-10.5354
第一家	-10.5355
芦	-10.5356
,距离	-10.5356
控制系统	-10.5357
考生	-10.5363
作了	-10.5364
,你	-10.537
的综合性	-10.537
天使	-10.5371
率先	-10.5372
奴	-10.5373
金奖	-10.5375
就读于	-10.5376
网页	-10.5378
卫生部	-10.5383
高新技术企业	-10.5383
唯	-10.5385
脆	-10.5387
在于	-10.5392
旦	-10.5395
东京	-10.5397
业界	-10.5398
石家庄	-10.5402
第三届	-10.5402
、上海	-10.5404
单独	-10.5404
三星	-10.5407
弥	-10.5409
增加了	-10.5409
虞	-10.541
颂	-10.5411
辣	-10.5415
1935年	-10.5419
是:	-10.5421
350	-10.5422
环绕	-10.5422
卒	-10.5424
拼	-10.5426
播种	-10.5426
瑶	-10.5428
疮	-10.5428
新世纪	-10.5429
词汇	-10.543
传动	-10.5433
精度	-10.5434
寿命	-10.5435
祝	-10.5436
,高	-10.5444
邮	-10.5445
显示屏	-10.5446
八年	-10.5449
模特	-10.5449
,致力于	-10.5451
搞	-10.5452
():	-10.546
东南亚	-10.5462
贯彻	-10.5462
四周	-10.5464
01	-10.5465
▁6.	-10.547
释义	-10.547
宝宝	-10.5473
官员	-10.5479
反复	-10.5483
一类	-10.5488
城乡	-10.5488
的企业	-10.5489
市场的	-10.5489
皇家	-10.5491
讯	-10.5491
创作的	-10.5491
租赁	-10.5494
引入	-10.5494
公众	-10.5497
-19	-10.5499
,曾任	-10.5502
技术服务	-10.5503
可分为	-10.5511
消息	-10.5511
枕	-10.5513
妹	-10.5515
伦敦	-10.552
荆	-10.5522
尺寸:	-10.5523
污	-10.5523
洗净,	-10.5524
结晶	-10.5526
是美国	-10.5528
肯定	-10.553
侨	-10.553
晶体	-10.5534
和管理	-10.5535
椒	-10.5536
公里。	-10.5536
市委	-10.5536
、高	-10.5538
杭州市	-10.5544
节约	-10.5544
心脏	-10.5544
陷	-10.5545
联络	-10.5547
0.4	-10.5548
应用于	-10.5548
糖尿病	-10.5551
他在	-10.556
一款	-10.5562
仪式	-10.5568
辨	-10.557
带着	-10.5571
侍	-10.5572
姿	-10.5572
1941年	-10.5573
1967年	-10.5573
冬季	-10.5575
生物学	-10.5575
发掘	-10.5576
财产	-10.5576
意外	-10.5576
袭	-10.5586
面板	-10.5588
出任	-10.5589
理念,	-10.5591
光盘	-10.5594
▁本	-10.5597
公交	-10.56
干扰	-10.5603
籽	-10.5607
精细	-10.5607
二人	-10.5614
1936年	-10.5618
儿科	-10.5621
也会	-10.5622
10年	-10.5626
生活在	-10.5628
竖	-10.563
的同时	-10.5632
上部	-10.5633
做了	-10.5634
很快	-10.5635
挖	-10.564
产业化	-10.564
320	-10.564
鲍	-10.5642
交叉	-10.5643
性、	-10.5644
巢	-10.5645
头部	-10.5645
螺旋	-10.5647
役	-10.5649
管理工作	-10.5651
;负责	-10.5651
展出	-10.5653
不用	-10.5653
在职	-10.5653
?”	-10.5655
皇后	-10.5656
签约	-10.5657
1947年	-10.5657
兄	-10.5659
现已	-10.566
出血	-10.5661
物业	-10.5661
进出口	-10.5662
趋势	-10.5663
彼	-10.5666
▁二	-10.5668
全程	-10.5671
鼠标	-10.5672
驱	-10.5672
篮球	-10.5672
,后来	-10.5675
机身	-10.5675
笋	-10.5676
栖	-10.5683
2.3	-10.5683
有限公司是	-10.5686
马来西亚	-10.5687
抢	-10.5687
三维	-10.5692
1944年	-10.5693
东南部	-10.5693
蒜	-10.5693
遣	-10.5695
256	-10.5695
零件	-10.5696
日期	-10.5697
卜	-10.5698
失去	-10.5709
批发	-10.5711
球员	-10.5713
108	-10.5716
县人民政府	-10.5717
打击	-10.5718
体内	-10.5718
营业	-10.5719
道教	-10.5729
水晶	-10.573
挺	-10.5734
》中的	-10.5735
浴	-10.5735
▁6	-10.5735
的技术	-10.5736
物料	-10.5737
埠	-10.5738
局副局长	-10.5738
支部	-10.5741
日报	-10.5741
,为了	-10.5742
观点	-10.5742
成功的	-10.5742
每日	-10.5743
梯	-10.5744
绵	-10.5744
冒险	-10.5746
南京市	-10.575
指南	-10.5751
替	-10.5751
专职	-10.5752
函	-10.5756
100克	-10.5758
浙	-10.5766
它是	-10.5767
似乎	-10.5767
专业从事	-10.5768
幢	-10.5768
砚	-10.5769
短信	-10.5773
尊重	-10.5777
按摩	-10.5778
浪漫	-10.578
饰演	-10.5781
的原则	-10.5785
数十	-10.5788
最小	-10.5791
符号	-10.5794
五大	-10.5795
锌	-10.5796
卓越	-10.5797
尧	-10.58
夏季	-10.5801
西南部	-10.5801
1930年	-10.5801
葡萄酒	-10.5802
视野	-10.5806
指示	-10.5806
学报	-10.5807
,受到	-10.5808
棉花	-10.5808
法律法规	-10.5808
手册	-10.5808
分布在	-10.581
国际化	-10.5811
书中	-10.5812
联邦	-10.5812
腺	-10.5813
我市	-10.5818
逾	-10.5818
枯	-10.5823
齿轮	-10.5823
00	-10.5824
瀑布	-10.5835
,作为	-10.5836
消耗	-10.5836
乡政府	-10.5838
权利	-10.5839
组织实施	-10.5839
晴	-10.5844
流体	-10.5846
客运	-10.5849
北美	-10.585
等各种	-10.5852
箭	-10.5853
禹	-10.5853
居委会	-10.5857
10-	-10.5858
风光	-10.5858
长达	-10.5858
澳	-10.5859
,是一种	-10.586
东北部	-10.5863
体长	-10.5865
妮	-10.5869
币	-10.587
擦	-10.587
。据	-10.5871
麟	-10.5879
火山	-10.5882
:支持	-10.5883
时代的	-10.5883
专业生产	-10.5884
灰色	-10.5885
女孩	-10.5885
影响力	-10.5885
毛泽东	-10.5889
问题,	-10.589
零售	-10.5893
一期	-10.5893
孢子	-10.5894
貌	-10.5894
评为“	-10.5894
依然	-10.5898
另一个	-10.5902
ー	-10.5905
的变化	-10.5905
等方面的	-10.5907
喉	-10.5912
损	-10.5914
机构。	-10.5915
等领域	-10.592
一处	-10.5923
剧团	-10.5923
类别	-10.5924
水面	-10.5924
钢管	-10.5925
常州	-10.5929
提示	-10.5932
青海	-10.5933
描写	-10.594
排名	-10.5942
胡椒粉	-10.5943
北路	-10.5945
9个	-10.5946
氮	-10.5948
变压器	-10.5949
一部分	-10.595
科研成果	-10.5955
农药	-10.5959
遵循	-10.5961
窄	-10.5961
还原	-10.5962
观光	-10.5962
鼓励	-10.5962
细腻	-10.5962
调研	-10.5963
勺	-10.5963
爵	-10.5963
名牌	-10.5964
历经	-10.5965
级别	-10.5966
耗	-10.5967
以后,	-10.5968
很少	-10.5969
不但	-10.5969
:1.	-10.5971
起到	-10.5973
人民币	-10.5975
),字	-10.598
法》	-10.5981
爱心	-10.5986
学生的	-10.5986
职责	-10.5986
前沿	-10.5987
.06	-10.5988
承诺	-10.5988
竟	-10.599
设备的	-10.5991
是我们	-10.5993
为:	-10.6001
镁	-10.6002
刮	-10.6004
泊	-10.6006
帐	-10.601
第九	-10.6012
搭	-10.6012
地形	-10.6017
电阻	-10.602
5.5	-10.602
国际机场	-10.6021
2年	-10.6022
户外	-10.6022
桂林	-10.6026
编委	-10.6029
表彰	-10.6029
祖国	-10.6037
中央电视台	-10.6038
作品《	-10.6039
放心	-10.604
加上	-10.6041
的问题	-10.6041
丈夫	-10.6043
新兴	-10.6043
一对	-10.6045
味精	-10.6047
町	-10.6048
该书	-10.6048
史上	-10.605
白云	-10.6052
旭	-10.6053
编著	-10.6059
功能,	-10.6061
的概念	-10.6061
变得	-10.6062
,对于	-10.6067
极具	-10.6068
构	-10.6069
,尤其是	-10.6071
半岛	-10.6072
妇产科	-10.6077
延安	-10.6081
午	-10.6083
县人,	-10.6083
典型的	-10.6087
▁◆	-10.6089
安置	-10.6089
设在	-10.6092
米。	-10.6097
退休	-10.61
起草	-10.61
帖	-10.6101
痕	-10.6105
时的	-10.6108
颖	-10.6108
师范学校	-10.611
提取	-10.611
考古	-10.6115
劳动模范	-10.6116
泉州	-10.6117
关闭	-10.6117
政权	-10.6118
学科带头人	-10.6118
供水	-10.612
妃	-10.6121
均可	-10.6123
本土	-10.6123
斌	-10.6128
2号	-10.6128
税务	-10.6129
高等院校	-10.613
布置	-10.613
之间,	-10.6133
×1	-10.6134
责	-10.6138
著有	-10.6142
命令	-10.6142
亿元	-10.6148
全新的	-10.615
私人	-10.6153
义务	-10.6155
时刻	-10.6155
精致	-10.6157
多为	-10.6157
坤	-10.6159
伞	-10.6161
严格的	-10.6162
流传	-10.6162
徐州	-10.6164
检索	-10.6169
主流	-10.6172
开启	-10.6172
教堂	-10.6173
硬化	-10.6176
移植	-10.6178
培训中心	-10.6179
逊	-10.6182
▁一、	-10.6185
瘦	-10.6188
爆发	-10.6189
技法	-10.6191
为其	-10.6197
塑造	-10.621
搜	-10.6213
°C	-10.6213
的建设	-10.6215
。现在	-10.6216
,多	-10.6217
挖掘	-10.6219
猪肉	-10.622
对比	-10.6224
停车场	-10.6225
现存	-10.6227
保安	-10.6227
咨询服务	-10.6228
劫	-10.6229
削	-10.623
扮演	-10.623
机体	-10.6231
表明	-10.6231
导师	-10.6232
形,	-10.6232
三角	-10.6234
为什么	-10.6242
光纤	-10.6246
千克	-10.6251
温馨	-10.6252
匀	-10.6252
饶	-10.6253
党支部	-10.6254
选举	-10.6254
,是指	-10.6256
华侨	-10.6256
蓬	-10.6259
游泳	-10.6259
1933年	-10.6263
忽	-10.6263
通过了	-10.6263
他人	-10.6264
德育	-10.6266
先进集体	-10.6267
出现在	-10.6268
毫米,	-10.6268
玫瑰	-10.6269
平行	-10.6269
、服务	-10.627
三次	-10.6271
联合国	-10.6271
中西医结合	-10.6272
手工	-10.6273
-)	-10.6273
生涯	-10.6273
燃料	-10.6274
副主编	-10.6275
人气	-10.6276
土豆	-10.6279
2.8	-10.6279
履行	-10.6281
国民	-10.6283
波兰	-10.6284
专业技术人员	-10.6284
的思想	-10.6286
博览会	-10.6286
数控	-10.6287
克斯	-10.6291
基础上	-10.6291
红外	-10.6291
认	-10.6292
(,)	-10.6293
又有	-10.6296
吗?	-10.6296
帅	-10.6298
▁(3)	-10.63
上了	-10.6303
啤酒	-10.6303
精灵	-10.6304
中毒	-10.6306
会议室	-10.6306
一样,	-10.6306
器、	-10.6306
猴	-10.6307
狭	-10.6309
1.7	-10.6309
觉得	-10.6309
统治	-10.6311
能力。	-10.6311
从此	-10.6313
管理和	-10.6313
四十	-10.6314
诸多	-10.6318
几何	-10.6318
筹建	-10.632
呢?	-10.6322
树木	-10.6324
最重要的	-10.6326
附件	-10.6326
勋	-10.6327
公民	-10.6328
岛屿	-10.633
杂交	-10.633
生产企业	-10.633
、黄	-10.6331
股东	-10.6333
丈	-10.6333
笼	-10.6334
东海	-10.6338
仓库	-10.6338
一群	-10.6339
都可以	-10.634
可以在	-10.634
,皆	-10.634
社会各界	-10.6342
替代	-10.6344
墨西哥	-10.6345
处处长	-10.6346
更好的	-10.6347
包括:	-10.635
方式:	-10.635
教研	-10.6351
划分	-10.6351
、张	-10.6353
绝缘	-10.6353
粥	-10.6353
科技创新	-10.6353
水电	-10.6353
1943年	-10.6354
态度	-10.6355
播出	-10.6359
▁目前	-10.636
主角	-10.6361
职业教育	-10.6371
市政	-10.6371
全国各地	-10.6371
水中	-10.6371
,获得	-10.6372
炭	-10.6375
胶囊	-10.6375
扫	-10.6377
妻子	-10.6377
管理的	-10.638
确认	-10.6381
为中国	-10.6382
渗透	-10.6382
元年	-10.6386
兴建	-10.6389
忧	-10.639
事项	-10.639
及相关	-10.6391
疗效	-10.6391
▁我	-10.6392
能力,	-10.6393
农业部	-10.6395
,历任	-10.6397
总监	-10.6398
用作	-10.6399
第4	-10.6401
经销商	-10.6405
是经	-10.6406
光明	-10.6408
设备,	-10.641
研究成果	-10.6413
之乡	-10.6413
同意	-10.6414
。宋	-10.6415
现状	-10.6415
精美	-10.6416
产于	-10.6416
,最终	-10.6418
捕	-10.6418
思路	-10.6419
面积1	-10.6421
敷	-10.6422
坦克	-10.6422
步骤	-10.6423
相当于	-10.6433
、小	-10.6434
烟台	-10.6438
理工大学	-10.644
成品	-10.644
就有	-10.6445
襄	-10.6446
区、	-10.6446
▁三	-10.6446
170	-10.6451
外贸	-10.6453
檐	-10.6453
了“	-10.6455
是一家集	-10.6455
参谋	-10.6456
105	-10.6457
拍卖	-10.6461
讨	-10.6462
,指	-10.6465
工业园	-10.6468
烫	-10.6471
总裁	-10.6472
志》	-10.6472
棘	-10.6473
拆	-10.6475
朝廷	-10.6476
那样	-10.6476
蒸汽	-10.6481
精华	-10.6483
中华医学会	-10.6484
,从事	-10.6489
:3	-10.649
等行业	-10.6494
10分钟	-10.6497
民俗	-10.6497
美女	-10.65
步行	-10.6505
大夫	-10.6507
省教育厅	-10.6507
机器人	-10.6509
高清	-10.6515
职业技术学院	-10.6515
编码	-10.6516
牛奶	-10.6517
。他们	-10.6517
绒	-10.6517
工业区	-10.6518
耳机	-10.652
演绎	-10.6522
共青团	-10.6523
450	-10.6524
根本	-10.6525
弘扬	-10.6528
昔	-10.6531
应当	-10.6534
算法	-10.6535
7-	-10.6536
今日	-10.6537
前期	-10.6545
玲	-10.6545
畅	-10.6546
还可以	-10.6547
办公室主任	-10.6551
5克	-10.6551
承接	-10.6552
的名字	-10.6554
起任	-10.6555
评审	-10.6555
质量管理	-10.6563
九年	-10.6564
,是一家	-10.6565
门户	-10.6565
0.9	-10.6568
正面	-10.6569
不受	-10.6573
收益	-10.6576
术语	-10.658
智力	-10.6581
活动的	-10.6582
呢	-10.6585
》、《中国	-10.6586
尝试	-10.6586
空中	-10.659
强烈	-10.6591
的音乐	-10.6593
顺序	-10.6596
拌匀	-10.6596
,确保	-10.6597
干净	-10.6602
事,	-10.6605
势力	-10.6605
胞	-10.6606
部长	-10.6608
第四届	-10.6614
作用,	-10.6621
分局	-10.6622
此外	-10.6625
设计的	-10.6627
错误	-10.6627
黔	-10.6628
。自	-10.6629
晚期	-10.6631
季节	-10.6633
对称	-10.6634
激	-10.6635
,是一个	-10.6639
兼职	-10.664
,没有	-10.6641
框	-10.6641
傲	-10.6643
是集	-10.6644
国产	-10.6644
纵横	-10.6645
藏书	-10.6645
工业大学	-10.6646
矛盾	-10.6649
熟悉	-10.6651
市中心	-10.6652
曾获	-10.6653
7.5	-10.6655
两条	-10.666
硬度	-10.6664
时期的	-10.6665
,不仅	-10.6668
复制	-10.6669
瑟	-10.6669
醒	-10.6673
予以	-10.6676
累计	-10.6677
等;	-10.6679
际	-10.6681
,中共党员,	-10.6681
垃圾	-10.6682
▁2008年	-10.6684
较大的	-10.6685
本书是	-10.6686
,是一所	-10.6687
事情	-10.669
下部	-10.6695
辆	-10.6696
终身	-10.6697
前身为	-10.6697
1934年	-10.6698
馀	-10.6699
允	-10.6701
迟	-10.6702
物种	-10.6705
农机	-10.6707
交界	-10.6708
建筑工程	-10.6711
生产设备	-10.6712
上游	-10.6713
宁波市	-10.6714
盗	-10.6716
作文	-10.6717
真诚	-10.6717
家,	-10.6718
海岸	-10.6718
宠物	-10.6719
就在	-10.672
规定的	-10.6722
青海省	-10.6723
篇,	-10.6724
方法。	-10.6731
已经成为	-10.6737
中国古代	-10.6738
小于	-10.6745
诞生	-10.6746
8%	-10.6747
书写	-10.6747
东侧	-10.6748
辉煌	-10.675
售后服务	-10.6753
去皮	-10.6755
一日	-10.6756
物业管理	-10.6759
会长	-10.676
长,	-10.6761
初级	-10.6762
出席	-10.6764
提出的	-10.6769
取出	-10.6771
〈	-10.6772
电台	-10.6773
家人	-10.6776
最近	-10.6777
氨基酸	-10.6777
而成的	-10.6782
牵	-10.6784
管理,	-10.6787
毕业后	-10.6787
的应用	-10.6788
绍兴	-10.6788
姐	-10.6788
亨	-10.679
贫困	-10.679
面前	-10.6791
奥运	-10.6792
忘	-10.6792
和社会	-10.6795
精彩	-10.6798
缺陷	-10.6799
,积极	-10.68
担保	-10.6804
娇	-10.6814
金刚	-10.6816
排水	-10.6818
125	-10.6824
幽默	-10.6825
花椒	-10.6825
等职	-10.6826
因子	-10.6827
少量	-10.6827
文书	-10.6827
尸	-10.6828
工程、	-10.6829
盆地	-10.6831
洋葱	-10.6832
主人	-10.6832
基督教	-10.6832
扩建	-10.6834
衬	-10.6838
而又	-10.684
-5	-10.684
山镇	-10.6841
耕地面积	-10.6841
,使得	-10.6842
正是	-10.6843
海关	-10.6845
酯	-10.6845
红旗	-10.6848
集》	-10.6848
来说,	-10.6848
素质教育	-10.685
浙江大学	-10.6852
色泽	-10.6853
认定	-10.6853
第一名	-10.6854
相比	-10.6855
遍布	-10.6855
称号。	-10.6856
发病	-10.6857
总投资	-10.6859
生殖	-10.6859
可供	-10.686
学家	-10.6862
友谊	-10.6863
小姐	-10.6863
勃	-10.6864
自然村隶属于	-10.6866
浏览	-10.6866
阜	-10.6868
激发	-10.6869
只需	-10.6881
割	-10.6883
激情	-10.6883
21世纪	-10.6888
腐	-10.6891
竞争力	-10.6891
苔	-10.6894
总理	-10.6894
,原	-10.6896
敏感	-10.6899
工程建设	-10.6899
消失	-10.6904
诊疗	-10.6905
清除	-10.691
控股	-10.6911
烹饪	-10.6913
收缩	-10.6913
添	-10.6916
制药	-10.6918
朝阳	-10.6919
、北京	-10.6922
吟	-10.6923
闹	-10.6924
日语	-10.6928
抹	-10.6932
当中	-10.6932
住房	-10.6934
1931年	-10.6936
竣工	-10.6937
,向	-10.6939
任教	-10.6939
之道	-10.694
香味	-10.6941
,深受	-10.6942
领袖	-10.6943
仇	-10.6944
当今	-10.6946
市场营销	-10.695
列入	-10.6951
特有的	-10.6951
如下	-10.6951
甘草	-10.6957
西北部	-10.6958
黑暗	-10.6962
无线电	-10.6964
感应	-10.6964
个性化	-10.6968
片,	-10.6978
负荷	-10.6979
机,	-10.6981
愁	-10.6981
一方	-10.6982
吉他	-10.6982
酮	-10.6987
口径	-10.6988
试点	-10.6988
笔名	-10.699
喜剧	-10.699
监督管理	-10.6991
改革开放	-10.6992
应急	-10.6997
。唐	-10.6997
溶解	-10.6999
成为了	-10.6999
。为了	-10.6999
男,汉族,	-10.7
产生了	-10.7001
艺术学院	-10.7001
场景	-10.7004
撰	-10.7004
队长	-10.7005
8-	-10.7007
的管理	-10.7008
半导体	-10.701
辟	-10.7011
出版社出版	-10.7012
×2	-10.7016
经济技术开发区	-10.7016
禾	-10.7018
360	-10.7019
胡萝卜	-10.7021
的东西	-10.7024
尚书	-10.7025
水处理	-10.7025
主要以	-10.7026
幻	-10.7027
引擎	-10.7027
雷达	-10.7027
极其	-10.7028
本科生	-10.7029
,分别	-10.7035
罩	-10.7036
倚	-10.704
少儿	-10.7041
氨	-10.7047
自然村	-10.7052
,形成了	-10.7054
防腐	-10.7054
这位	-10.7059
发展战略	-10.7059
并入	-10.706
博士后	-10.706
推行	-10.7062
稳	-10.7063
山上	-10.7063
备用	-10.7065
至少	-10.7066
典雅	-10.7066
公里,	-10.7067
大多	-10.7072
高新技术	-10.7081
消毒	-10.7084
响应	-10.7085
首府	-10.7086
廖	-10.7091
毅	-10.7091
发热	-10.7092
栗	-10.7092
强大	-10.7093
教育学院	-10.7094
借鉴	-10.7098
。因为	-10.7102
μ	-10.7102
调味	-10.7103
增产	-10.7105
视角	-10.7107
济南市	-10.7108
颁发	-10.7108
福利	-10.711
撞	-10.7111
高原	-10.7111
世家	-10.7112
用药	-10.7112
就读	-10.7113
部署	-10.7115
东风	-10.7115
稳定的	-10.7116
签	-10.7117
贯穿	-10.7117
1932年	-10.7119
:00	-10.7124
6%	-10.7125
哭	-10.7126
誉	-10.7127
的功能	-10.7127
黄瓜	-10.7127
蚕	-10.7129
渊	-10.713
甸	-10.7131
办公室副主任	-10.7133
。2006年	-10.7133
业主	-10.7134
产物	-10.7136
石化	-10.714
边界	-10.7141
是从	-10.7143
现在的	-10.7143
尤其是	-10.7144
她们	-10.7144
中国画	-10.7145
录制	-10.7145
杏	-10.7149
罢	-10.7157
乐园	-10.716
赣	-10.7161
泄	-10.7161
常常	-10.7164
怨	-10.7165
ン	-10.7169
帆	-10.717
四季	-10.717
盾	-10.7171
也不	-10.7173
下面	-10.7173
地带	-10.7174
进取	-10.7175
整形	-10.7175
国画	-10.7176
峪	-10.7176
乐团	-10.7176
斯·	-10.7177
2人	-10.7177
实战	-10.7177
队员	-10.7179
荫	-10.7181
。根据	-10.7183
驰	-10.7184
平方米,建筑面积	-10.7187
变种	-10.7189
科技进步二等奖	-10.7189
外交	-10.719
畅销	-10.719
象征	-10.7191
条例	-10.7191
6-	-10.7193
:4	-10.7196
区政府	-10.7196
-6	-10.7199
灌溉	-10.7199
▁三、	-10.7202
物体	-10.7205
慕	-10.7205
,只	-10.7205
康熙	-10.7206
燃	-10.7209
其中农业人口	-10.7209
萍	-10.721
光绪	-10.721
文本	-10.7211
,占地面积	-10.7212
仿真	-10.7215
指的是	-10.7217
馅	-10.7219
硕士学位	-10.7219
党组织	-10.7219
会所	-10.7219
怕	-10.7219
祸	-10.7221
,既	-10.7221
残疾人	-10.7224
,简称	-10.7225
进士	-10.7227
1942年	-10.7228
法师	-10.7231
▁地址:	-10.7233
擅	-10.7234
可用于	-10.7236
枢纽	-10.7237
,不过	-10.7238
繁华	-10.7244
本科学历	-10.7244
,具	-10.7245
多元化	-10.7247
赛事	-10.7249
平方公里,	-10.7252
原材料	-10.7253
。2008年	-10.7255
厂、	-10.7258
交通运输	-10.7261
0.7	-10.7261
音响	-10.7261
▁2009年	-10.7262
定居	-10.7263
制订	-10.7266
,它是	-10.7267
电工	-10.7267
0.00	-10.7268
加入中国共产党。	-10.7269
1-2	-10.727
名师	-10.7272
项目的	-10.728
技艺	-10.7281
稳定性	-10.7283
,毗邻	-10.7283
的话	-10.7284
万亩	-10.7285
诊	-10.7285
育人	-10.7286
别名	-10.7288
9-	-10.7288
当选	-10.7289
节奏	-10.7291
在日本	-10.7291
显得	-10.7295
奖项	-10.7295
风机	-10.7298
生态环境	-10.73
一组	-10.7301
一路	-10.7306
肃	-10.7307
服用	-10.7309
让你	-10.731
为基础	-10.7311
]	-10.7313
贪	-10.7313
加入中国共产党	-10.7314
无数	-10.7316
为您	-10.7317
适当	-10.7318
委员会委员	-10.7318
优势,	-10.732
凸	-10.732
泰山	-10.7321
洒	-10.7321
不易	-10.7321
奥运会	-10.7322
塑胶	-10.7323
湿地	-10.7325
一百	-10.7325
针灸	-10.7328
淑	-10.7328
地层	-10.733
『	-10.7332
5%	-10.7332
水质	-10.7334
涧	-10.7336
庄村	-10.7336
务实	-10.7337
肢	-10.7338
生。	-10.734
2人,	-10.7343
,坚持	-10.7344
搭建	-10.7344
部落	-10.7346
不幸	-10.7346
公司在	-10.7347
备用。	-10.7347
器官	-10.7349
矣	-10.735
多人	-10.735
锅内	-10.7351
技术创新	-10.7351
.05	-10.7352
的艺术	-10.7352
、白	-10.7356
为一	-10.7356
就能	-10.7357
是用	-10.7361
功效	-10.7363
先锋	-10.7363
攻读	-10.7364
住宿	-10.7367
系统,	-10.7368
大豆	-10.737
国际贸易	-10.7372
阐述	-10.7374
服务、	-10.7375
招商	-10.7376
民众	-10.7376
。随着	-10.7379
忙	-10.738
简洁	-10.7382
书法家	-10.7383
实业有限公司	-10.7384
冒	-10.7385
元年(	-10.7387
可靠性	-10.739
珠海	-10.7393
▁(2).	-10.7394
途	-10.7398
慎	-10.7399
奸	-10.7405
纠纷	-10.7405
转变	-10.7407
院长	-10.7408
旨	-10.7408
内涵	-10.7408
190	-10.7409
六个	-10.7409
俗称	-10.7409
重修	-10.7412
姓名	-10.7412
严谨	-10.7415
沙漠	-10.7416
3.1	-10.7417
转化	-10.742
,结合	-10.7423
-10	-10.7423
2-3	-10.7423
1600	-10.7424
腊	-10.7428
的位置	-10.7429
中期	-10.743
同名	-10.7433
数字化	-10.7435
内蒙古自治区	-10.7435
。民国	-10.7437
窦	-10.7438
房地产开发	-10.7439
脾	-10.744
佛山	-10.744
化合物	-10.7444
所需	-10.7448
风雨	-10.7452
,以“	-10.7453
地名	-10.7454
列为	-10.7454
然而	-10.7456
直到	-10.7459
勐	-10.7463
珠宝	-10.7464
地理位置	-10.7466
.07	-10.7466
宾客	-10.7467
▁(二)	-10.7467
黄山	-10.7468
女,	-10.747
度假	-10.7472
详	-10.7472
效果。	-10.7474
渝	-10.7474
鸟类	-10.7477
商学院	-10.7479
4%	-10.748
开采	-10.7481
。本	-10.7481
3.3	-10.7483
,美国	-10.7484
与其他	-10.7484
精盐	-10.7486
顶端	-10.7487
村。	-10.7489
英格兰	-10.7489
庞	-10.749
是一部	-10.7491
桌	-10.7492
再生	-10.7493
12个	-10.7494
探测	-10.7496
初,	-10.7497
.04	-10.7499
好评	-10.75
制冷	-10.7501
一个人	-10.7503
精确	-10.7503
-20	-10.7504
底部	-10.7507
来源于	-10.7512
陆续	-10.7513
四方	-10.7514
改称	-10.7515
魁	-10.7516
病变	-10.7518
科技成果	-10.7519
常务	-10.752
婚礼	-10.752
菲律宾	-10.752
杰出	-10.7521
现代化的	-10.7522
镇政府	-10.7523
加大	-10.7525
嗣	-10.7529
口服	-10.753
,除	-10.753
党委书记	-10.7533
中级	-10.7538
沉积	-10.7545
副主任医师	-10.7547
般的	-10.7549
,有的	-10.7552
地板	-10.7555
相似	-10.7556
以人为本	-10.7559
,通常	-10.7562
明清	-10.7562
几十	-10.7564
通知	-10.7566
标准的	-10.7568
更换	-10.7569
方面,	-10.7569
薄膜	-10.7572
而成。	-10.7572
行政管理	-10.7572
工程学院	-10.7573
江湖	-10.7574
3号	-10.7574
修订	-10.7577
科技进步三等奖	-10.7581
左右。	-10.7583
。通过	-10.7583
不良	-10.7584
直线	-10.7584
不宜	-10.7585
好,	-10.7586
衰	-10.7589
编号	-10.759
莫斯科	-10.7592
村人	-10.7593
热水	-10.7594
大力	-10.7596
,同时也	-10.7599
美观	-10.7599
电磁	-10.76
随后	-10.7601
党委副书记	-10.7601
1929年	-10.7604
优美	-10.7609
的原因	-10.761
命名为	-10.7611
1800	-10.7611
,总	-10.7613
,提供	-10.7613
商圈	-10.7618
50%	-10.762
厨房	-10.762
邮件	-10.762
出现了	-10.7624
删除	-10.7625
内地	-10.7627
卤	-10.7628
〉	-10.763
海水	-10.763
周年	-10.763
架构	-10.7631
、王	-10.7637
粉末	-10.764
制剂	-10.7642
之路	-10.7646
歌词	-10.7649
。位于	-10.7651
佑	-10.7654
课堂	-10.7656
损害	-10.7658
泻	-10.7659
名词	-10.7666
独立的	-10.7667
舱	-10.7669
,只有	-10.7669
并非	-10.7669
1/2	-10.767
理想的	-10.7678
炳	-10.7681
心灵	-10.7681
想要	-10.7683
被授予	-10.7684
大门	-10.7685
开办	-10.7686
优雅	-10.7686
而得名。	-10.7686
应力	-10.7687
石头	-10.7689
对手	-10.769
辈	-10.7691
函授	-10.7691
铝合金	-10.7691
6.5	-10.7692
斤	-10.7693
嫁	-10.7693
邮政	-10.7693
伐	-10.7694
棕色	-10.7694
在这	-10.7695
问题。	-10.7696
下游	-10.7697
、全国	-10.7697
全书	-10.7698
货运	-10.7698
上市公司	-10.7704
大厅	-10.7706
3人	-10.7709
沾	-10.7711
冲突	-10.7714
讲述了	-10.7714
功能:	-10.7714
为您提供	-10.7717
科技进步奖	-10.7719
花纹	-10.7719
宽度	-10.7721
葫芦	-10.7722
常年	-10.7724
渔业	-10.7724
内设	-10.7725
模式,	-10.7726
社会学	-10.7726
大专学历	-10.7728
化的	-10.7729
粒子	-10.7731
庶	-10.7731
狮子	-10.7731
科室	-10.7733
踏	-10.7733
审判	-10.7737
制作的	-10.7738
滇	-10.7738
青山	-10.7739
万平方米,	-10.7741
智能化	-10.7741
蓝牙	-10.7743
秘书长	-10.7744
10%	-10.7744
藩	-10.7745
省道	-10.7747
杉	-10.7751
,不断	-10.7751
投影	-10.7753
第五届	-10.7753
.01	-10.7753
制造商	-10.7755
扩	-10.7756
弧	-10.7757
剧本	-10.7758
秩序	-10.7759
督	-10.776
这次	-10.7763
;在	-10.7764
单位。	-10.7765
,这样	-10.7766
圩	-10.7767
▁◎	-10.7768
值得	-10.7772
紧密	-10.7773
比赛中	-10.7776
光泽	-10.7779
多层	-10.778
宗旨	-10.7783
逼	-10.7785
高于	-10.7786
起点	-10.7787
聘	-10.7787
的一部	-10.7791
,交通便利,	-10.7793
涩	-10.7794
核桃	-10.7794
主办的	-10.7795
,年	-10.7795
的所有	-10.7795
理论研究	-10.7798
旨在	-10.7806
的世界	-10.7808
技术支持	-10.781
最高的	-10.781
爱好	-10.7811
特产	-10.7814
技术开发	-10.7814
司令部	-10.7817
,是由	-10.7821
生产经营	-10.7822
序列	-10.7824
进化	-10.7825
后勤	-10.7825
六十	-10.7828
,始建于	-10.7829
重组	-10.783
金牌	-10.7831
展会	-10.7832
钢板	-10.7833
于2010年	-10.7835
黑白	-10.7838
灌木	-10.7842
锅中	-10.7842
中国大陆	-10.7842
两岸	-10.7843
司马	-10.7845
基础设施	-10.7846
万元。	-10.7848
味道	-10.785
建筑面积	-10.7851
"、"	-10.7852
3.6	-10.7852
内,	-10.7853
柔软	-10.7853
钢结构	-10.7853
”)	-10.7858
挡	-10.7859
的目标	-10.7859
家电	-10.7861
温州市	-10.7865
的一所	-10.7867
沈阳市	-10.787
ㄧ	-10.7872
彼此	-10.7875
第十	-10.7877
都在	-10.7877
减轻	-10.7877
电视剧《	-10.7881
薪	-10.7883
特长	-10.7884
,共有	-10.7884
主力	-10.7886
节日	-10.7888
说,	-10.7889
,也有	-10.7889
5.	-10.789
多篇	-10.7895
优质的服务	-10.7895
建校	-10.7896
活泼	-10.7901
环境优美	-10.7902
公司。	-10.7903
机组	-10.7906
当然	-10.791
不需要	-10.791
讲解	-10.7911
切割	-10.7912
情绪	-10.7913
做法	-10.792
、新	-10.792
百余	-10.792
埃及	-10.7923
矮	-10.7924
胡同	-10.7925
是国内	-10.793
酒吧	-10.7931
的需求	-10.7932
优良的	-10.7933
取代	-10.7934
同类	-10.7936
应用程序	-10.7939
振兴	-10.7939
约为	-10.794
燃气	-10.7941
钉	-10.7945
客户的	-10.7946
宠	-10.7948
的开发	-10.7949
自治	-10.7951
分裂	-10.7952
丘陵	-10.7956
等待	-10.7957
医科大学	-10.7958
,西	-10.7959
生化	-10.7962
式的	-10.7962
回族	-10.7964
(3)	-10.7966
工艺品	-10.7967
于2009年	-10.7968
百万	-10.7969
音乐学院	-10.7971
农历	-10.7971
是对	-10.7972
一时	-10.7972
的一些	-10.7972
困	-10.7973
较高的	-10.7978
麻醉	-10.7979
许可证	-10.7981
副主席	-10.7983
网络营销	-10.7984
隔离	-10.7985
艘	-10.7985
作曲	-10.7988
路,	-10.7989
感动	-10.7991
射击	-10.7994
特色的	-10.7996
(1).	-10.7997
梗	-10.7998
相结合	-10.7999
,一个	-10.8
押	-10.8002
钾	-10.8002
阴阳	-10.8003
,那么	-10.8004
地势	-10.8004
保卫	-10.8005
对应	-10.8006
果树	-10.8008
《》	-10.8009
华南	-10.8011
海域	-10.8011
阮	-10.8014
校级	-10.8014
书画家	-10.8015
率领	-10.8017
收获	-10.8017
沁	-10.8021
精神,	-10.8022
琪	-10.8027
480	-10.8027
”称号。	-10.803
治安	-10.803
之中,	-10.8031
可爱	-10.8031
臭	-10.8032
标签	-10.8033
激励	-10.8034
站在	-10.8038
创办于	-10.8038
体重	-10.8041
骨科	-10.8041
全校	-10.8042
狄	-10.8045
怪兽	-10.8048
路与	-10.8051
20年	-10.8052
院士	-10.8052
拒绝	-10.8052
,利用	-10.8053
也能	-10.8054
复杂的	-10.8055
。现有	-10.8055
个行政村	-10.8059
达到了	-10.8068
,有时	-10.807
20%	-10.8072
处。	-10.8072
产地	-10.8073
竞	-10.8073
软件开发	-10.8074
人参	-10.8076
的信息	-10.8078
河口	-10.8079
研究室	-10.8079
い	-10.808
录》	-10.808
,占地	-10.8083
姓氏	-10.8083
三角形	-10.8083
履	-10.8084
最新的	-10.8085
浏览器	-10.8085
在这个	-10.8088
描述:	-10.8089
外壳	-10.8091
.02	-10.8093
教学质量	-10.8093
灶	-10.8095
容器	-10.8096
新人	-10.8096
这座	-10.8099
合作,	-10.8104
神话	-10.8104
祭祀	-10.8106
创立于	-10.8106
瞬间	-10.8108
东汉	-10.8111
狐	-10.8113
过程中,	-10.8113
地貌	-10.8113
4.2	-10.8114
等多个	-10.8115
品牌。	-10.8115
发现了	-10.8116
扑	-10.8119
湖泊	-10.8119
的发展,	-10.812
出的	-10.8122
省、市	-10.8123
总面积	-10.8123
无论	-10.8124
焉	-10.8124
婴儿	-10.8125
储备	-10.8125
兼容	-10.8128
2.6	-10.813
叙	-10.8132
规范化	-10.8132
多元	-10.8134
论述	-10.8134
,每年	-10.8136
优惠	-10.8142
教学工作	-10.8143
煲	-10.8144
各自	-10.8148
驻地	-10.815
光滑	-10.8151
高级教师	-10.8153
大学学历	-10.8153
特殊的	-10.8155
扩张	-10.8155
科科长	-10.8158
脉冲	-10.816
入口	-10.816
工学院	-10.8167
。2009年	-10.8168
打印机	-10.8169
7%	-10.817
威胁	-10.8171
文化部	-10.8174
台北	-10.8176
善于	-10.8176
外,还	-10.8177
科研课题	-10.8183
列车	-10.8184
样品	-10.8184
原有	-10.8184
信息服务	-10.8187
存在的	-10.8188
熔	-10.8189
这么	-10.8194
天气	-10.8198
骨干教师	-10.8202
全镇	-10.8203
20世纪	-10.8204
,当时	-10.8205
,这个	-10.8207
防爆	-10.8208
岛上	-10.8208
休息	-10.8209
聪明	-10.8211
。它是	-10.8212
新一代	-10.8213
-8	-10.8216
博士生导师	-10.8216
顶部	-10.8217
固定资产	-10.822
奖”	-10.8221
的现代化	-10.8221
狱	-10.8221
回家	-10.8222
教程	-10.8223
线条	-10.8223
裙	-10.8225
预计	-10.8227
,用于	-10.8228
成熟的	-10.8229
与其	-10.823
的经营理念	-10.8232
党组书记	-10.8233
1998	-10.8236
告诉	-10.8238
盲	-10.8241
▁2010年	-10.8243
冶	-10.8243
,按	-10.8245
字母	-10.8247
杖	-10.8249
纷纷	-10.8249
九龙	-10.8249
跨越	-10.8252
1/	-10.8254
器件	-10.8254
机械设备	-10.8256
菜肴	-10.8257
滞	-10.8257
好友	-10.8259
、陈	-10.8262
说话	-10.8262
-7	-10.8263
翻炒	-10.8265
庐	-10.8266
有限	-10.8266
透过	-10.8272
数百	-10.8274
15克	-10.8274
经贸	-10.8276
西汉	-10.8277
西侧	-10.8278
作风	-10.8278
,辖	-10.8282
解析	-10.8287
▁此	-10.8291
改良	-10.8292
水上	-10.8293
的宗旨	-10.8294
天堂	-10.8296
皖	-10.8296
创造了	-10.8297
借助	-10.8298
油田	-10.83
简单的	-10.83
,称为	-10.8302
专业委员会	-10.8302
-16	-10.8302
日报》	-10.8302
低于	-10.8304
冀	-10.8304
代理商	-10.8306
词典	-10.8306
第六届	-10.8308
,请	-10.8308
遭到	-10.831
的能力	-10.8311
▁出处	-10.8317
凶	-10.8318
生产厂家	-10.8321
锻炼	-10.8321
鞭	-10.8324
演艺	-10.8325
都要	-10.8327
耐磨	-10.8327
党校	-10.8328
静脉	-10.8328
意思	-10.8329
水电站	-10.8331
理财	-10.8333
大米	-10.8334
橙	-10.8335
问题的	-10.8336
专注	-10.8339
灵魂	-10.8342
聘请	-10.8343
菇	-10.8346
之下	-10.8348
的基础	-10.8348
政法	-10.8351
火腿	-10.8352
单曲	-10.8352
为企业	-10.8353
隶	-10.836
不敢	-10.8361
诊治	-10.8361
格局	-10.8362
区别	-10.8367
指令	-10.8368
大奖	-10.837
通俗	-10.8372
为宗旨	-10.8375
人格	-10.8376
与管理	-10.8376
平县	-10.8377
▁产品	-10.8377
身边	-10.8378
嵌	-10.8379
置于	-10.8379
与发展	-10.8382
萝卜	-10.8382
账	-10.8383
硕	-10.8385
。近年来,	-10.8385
梅花	-10.8388
买卖	-10.8391
亮度	-10.8391
常用的	-10.8392
园艺	-10.8393
纤	-10.8395
烈士	-10.8396
凿	-10.8407
可以通过	-10.8408
阿拉伯	-10.8413
过渡	-10.8413
▁2007年	-10.8414
冷冻	-10.8414
全长	-10.8414
的朋友	-10.8415
中专	-10.8415
时装	-10.8415
音箱	-10.8416
配送	-10.8416
见于	-10.8416
发展规划	-10.8419
发行的	-10.842
深刻	-10.842
发生在	-10.8421
文档	-10.8424
气息	-10.8425
2002	-10.843
纬	-10.8431
年来,	-10.8431
早年	-10.8434
大规模	-10.8434
宫廷	-10.8437
天文	-10.8439
30年	-10.844
指出	-10.8441
1927年	-10.8441
单一	-10.8442
。另外,	-10.8442
龙门	-10.8443
面料	-10.8444
刃	-10.8447
规划、	-10.8448
口感	-10.8449
的生产	-10.8449
参观	-10.8449
学堂	-10.8451
京剧	-10.8453
携	-10.8454
师范大学	-10.8456
立法	-10.846
,随着	-10.846
秉	-10.8464
勤奋	-10.8467
信仰	-10.8467
慈善	-10.8468
涵	-10.8469
。”清	-10.8471
研讨会	-10.8473
慢慢	-10.8474
备案	-10.8474
痛苦	-10.8475
登陆	-10.8475
原料:	-10.8476
抄	-10.8478
便是	-10.8481
讲座	-10.8481
泗	-10.8482
尚未	-10.8483
养护	-10.8483
纪念馆	-10.8484
达标	-10.8484
3人,	-10.8488
家用	-10.8489
有一定的	-10.8492
邮票	-10.8493
不知道	-10.8495
,海拔	-10.8496
插槽	-10.8497
赢	-10.8497
畜牧	-10.8498
一幅	-10.8499
平方	-10.8501
旅行社	-10.8503
演讲	-10.8503
方法,	-10.8506
筹备	-10.8507
紫色	-10.8509
元代	-10.851
30克	-10.8511
瓷器	-10.8511
分泌	-10.8511
庚	-10.8513
科学的	-10.8514
,要	-10.8515
°C,年降水量	-10.8515
山村	-10.8515
木马	-10.8519
▁他	-10.852
向前	-10.8521
很好的	-10.8523
杯”	-10.8526
溢	-10.8528
文化的	-10.8529
融入	-10.853
畔	-10.853
工程技术	-10.853
作者:	-10.8531
很有	-10.8531
,虽然	-10.8534
有效地	-10.8534
之家	-10.8535
8000	-10.8535
高性能	-10.8536
诗文	-10.8539
中东	-10.8544
在其	-10.8545
,直到	-10.8546
描绘	-10.8548
正义	-10.8548
爬	-10.8549
-18	-10.8553
蚀	-10.8553
硫酸	-10.8555
生日	-10.8555
也称	-10.8556
党支部书记	-10.8557
淳	-10.8558
国家自然科学基金	-10.856
:5	-10.8563
。但是	-10.8563
抛	-10.8566
设立的	-10.8567
锤	-10.8568
过的	-10.8569
的作用。	-10.8569
效力	-10.8569
,这里	-10.8571
眼科	-10.8572
(简称	-10.8572
肋	-10.8575
调任	-10.8576
。辖	-10.8578
走进	-10.858
。2005年	-10.858
更好	-10.858
北侧	-10.8582
球场	-10.8582
面上	-10.8587
苏州市	-10.8588
在校学生	-10.859
进展	-10.8591
▁2006年	-10.8591
复旦大学	-10.8591
在国内外	-10.8593
组件	-10.8595
,参与	-10.8595
声乐	-10.8596
高级中学	-10.8596
审定	-10.8597
。同年	-10.8598
之所	-10.8599
暂	-10.86
宽带	-10.8602
完美的	-10.8602
叹	-10.8604
姑娘	-10.8604
了许多	-10.8605
坯	-10.8606
病理	-10.8608
教员	-10.8609
期货	-10.8609
对其	-10.861
人。中共党员。	-10.8612
笔记本	-10.8614
紧张	-10.8615
标识	-10.8616
评选	-10.8617
新颖	-10.8617
仓储	-10.862
的目的	-10.8621
80%	-10.8621
挤	-10.8622
而成,	-10.8623
比利时	-10.8626
近百	-10.8626
风扇	-10.8628
转向	-10.8628
撤销	-10.8631
1928年	-10.8631
去世	-10.8632
通过对	-10.8634
室外	-10.8634
时候	-10.8636
绘制	-10.8638
下来	-10.8638
林地	-10.8642
1)	-10.8642
面包	-10.8644
名医	-10.8646
遥	-10.8647
起了	-10.8649
▁.	-10.865
′′	-10.8652
语法	-10.8653
本着“	-10.8653
奋斗	-10.8656
诉讼	-10.8656
南通	-10.8657
清热	-10.8657
分别为	-10.8659
勿	-10.8659
后人	-10.866
背面	-10.8661
(现	-10.8662
明珠	-10.8664
奥地利	-10.8665
我省	-10.8668
西安市	-10.8668
新西兰	-10.867
5分钟	-10.8671
无人	-10.8671
金山	-10.8672
报》、《	-10.8673
既有	-10.8673
浑	-10.8674
清理	-10.8676
近几年	-10.8676
山、	-10.8676
两面	-10.8676
同时也	-10.8677
热量	-10.8677
夕	-10.8678
理事会	-10.8679
有力	-10.868
纹饰	-10.8681
在一个	-10.8683
锦标赛	-10.8683
∶	-10.8684
唐朝	-10.8689
捞出	-10.869
论证	-10.869
钧	-10.869
为核心	-10.8691
一件	-10.8692
.10	-10.8693
千里	-10.8695
赛季	-10.8697
浮雕	-10.8697
有一定	-10.8699
俞	-10.8699
啊	-10.87
衔	-10.8701
编程	-10.8702
人才培养	-10.8702
气动	-10.8703
并不是	-10.8703
帘	-10.8704
建国	-10.8705
全日制	-10.8706
文联	-10.8707
几年	-10.871
豹	-10.8711
滨海	-10.8711
用地	-10.8713
成立,	-10.8717
招商引资	-10.8717
监狱	-10.8719
摇滚	-10.8719
印象	-10.8721
其间	-10.8721
建立的	-10.8726
概述	-10.8727
时空	-10.8729
之上	-10.8729
孩子们	-10.8729
化、	-10.8731
板、	-10.8732
原为	-10.8732
宪法	-10.8736
开创	-10.8736
力求	-10.8738
摘	-10.8741
宝石	-10.8742
全面发展	-10.8742
原本	-10.8743
盐业	-10.8744
集合	-10.8744
匠	-10.8745
并没有	-10.8745
历程	-10.8748
路上	-10.875
柏林	-10.8751
而言	-10.8758
粉丝	-10.876
2.7	-10.8761
等于	-10.8763
航空公司	-10.8767
实训	-10.8769
农作物	-10.877
一同	-10.8774
贵阳	-10.8775
组长	-10.8776
闷	-10.8777
任务。	-10.878
≥	-10.878
方针	-10.878
注射	-10.8781
膨胀	-10.8784
密集	-10.8784
的社会	-10.8787
十字	-10.8789
自然科学	-10.8791
101	-10.8793
的教学	-10.8795
吉祥	-10.8796
一号	-10.8799
趾	-10.8799
往来	-10.8801
野生	-10.8802
支流	-10.8803
,它们	-10.8803
中心主任	-10.8804
岁月	-10.8804
的角度	-10.8806
微软	-10.8808
尼亚	-10.881
回国	-10.8811
活动中	-10.8812
仆	-10.8813
,能够	-10.8815
载体	-10.8816
争取	-10.8818
公布	-10.882
各部门	-10.882
哪	-10.8823
。这是	-10.8826
民生	-10.8826
携手	-10.8827
由中国	-10.8828
的故事。	-10.8828
公顷,	-10.8833
烦	-10.8833
路面	-10.8835
×4	-10.8837
电网	-10.8838
溶剂	-10.8839
古今	-10.8841
面团	-10.8842
至于	-10.8843
总人口	-10.8843
相传	-10.8844
;《	-10.8846
排放	-10.8847
潜力	-10.8847
的理论	-10.8848
在我国	-10.8848
防火	-10.8849
出演	-10.8852
实际上	-10.8853
。由	-10.8854
锥	-10.8854
三层	-10.8854
中科院	-10.8855
咬	-10.8855
温暖	-10.8856
联想	-10.8857
判	-10.8859
优质服务	-10.886
百度	-10.8864
雍	-10.8865
出生在	-10.8865
民政	-10.8867
是因为	-10.8868
中国人民大学	-10.8873
腐蚀	-10.8874
工程设计	-10.8876
蝴蝶	-10.8876
研究、	-10.8877
等农作物。	-10.8878
后卫	-10.8879
的行为	-10.8879
学会会员	-10.888
事实	-10.8882
择	-10.8883
裴	-10.8884
树立	-10.8884
活跃	-10.8885
遗迹	-10.8885
地址:	-10.8888
风水	-10.8889
实业	-10.8889
山顶	-10.8891
使其	-10.8893
横向	-10.8896
花瓣	-10.8897
,也可以	-10.8898
的综合	-10.8899
,隶属于	-10.8899
噪声	-10.8901
教会	-10.8903
工作中	-10.8909
的新型	-10.8909
当时的	-10.891
▁第二节	-10.891
上方	-10.8914
南宁市	-10.8915
8号	-10.8919
转型	-10.892
权力	-10.892
政委	-10.8921
广大客户	-10.8922
辩	-10.8923
).	-10.8926
平等	-10.893
先后任	-10.893
总线	-10.8934
寺院	-10.8935
禁止	-10.8939
大专	-10.8939
民营	-10.8943
梵	-10.8943
安防	-10.8943
交往	-10.8944
放弃	-10.8945
系列、	-10.8947
前卫	-10.8948
▁从	-10.8949
隐藏	-10.8954
分院	-10.8954
知名品牌	-10.8955
子女	-10.8955
太空	-10.8956
摊	-10.8957
大大	-10.8957
7月毕业于	-10.8957
建设项目	-10.8958
。2007年	-10.896
眼镜	-10.8966
艇	-10.8968
的声音	-10.897
新四军	-10.8972
,人们	-10.8974
在今	-10.8975
直流	-10.8975
。用于	-10.8976
1995	-10.898
心中	-10.8983
就像	-10.8983
相连	-10.8984
改名为	-10.8984
巾	-10.8984
是根据	-10.8986
镍	-10.8986
巩固	-10.8987
中国国际	-10.8987
随意	-10.8988
前来	-10.8988
专业技术	-10.899
亦有	-10.899
剂量	-10.8991
亦称	-10.8991
品位	-10.8992
的传统	-10.8992
篇。	-10.8993
卫浴	-10.8996
优质的	-10.8997
纺	-10.8997
让您	-10.8998
壁画	-10.8998
主板	-10.9
综合征	-10.9
拥	-10.9001
筛	-10.9001
途中	-10.9003
2014年	-10.9003
有利于	-10.9004
涅	-10.9006
大胆	-10.9013
政务	-10.9015
市委、市政府	-10.9015
磷酸	-10.9016
糯米	-10.9018
某个	-10.9018
多部	-10.9019
,主要从事	-10.902
合肥市	-10.9022
的事情	-10.9023
南山	-10.9024
颇有	-10.9026
公务员	-10.9026
鸡肉	-10.9028
晚上	-10.9029
路口	-10.9029
植株	-10.9032
镇位于	-10.9032
于是	-10.9037
无需	-10.9038
汉代	-10.9039
期待	-10.904
微波	-10.904
雌	-10.904
葵	-10.9041
鳞片	-10.9043
第二次	-10.9043
国家标准	-10.9045
丹麦	-10.9045
,擅长	-10.9046
出现的	-10.9047
惜	-10.9048
美好	-10.9048
,并将	-10.9048
之子	-10.9048
和服务	-10.9051
少将	-10.9051
工程技术人员	-10.9053
入侵	-10.9054
验证	-10.9055
座落于	-10.9056
木质	-10.9059
的情况下	-10.906
面貌	-10.906
≤	-10.9062
相同的	-10.9063
西湖	-10.9065
晒	-10.9073
的力量	-10.9075
始于	-10.9075
–	-10.9076
例如	-10.9077
合法	-10.9077
方式,	-10.9078
曾多次	-10.9078
此书	-10.9078
实务	-10.9079
。经过	-10.9081
钻石	-10.9082
第一部	-10.9083
古人	-10.9083
商务中心	-10.9084
监督检查	-10.9085
210	-10.9086
捐	-10.9087
商店	-10.9088
,若	-10.9089
自行车	-10.9093
美味	-10.9094
寡	-10.9094
。作为	-10.9094
董事	-10.9097
淡水	-10.9097
石油化工	-10.9097
抢救	-10.9098
三人	-10.9099
业内	-10.91
采访	-10.91
的具体	-10.91
成语	-10.9101
涉外	-10.9105
自身的	-10.9109
分成	-10.9109
中山大学	-10.9111
30分钟	-10.9112
攀	-10.9117
这款	-10.9117
早在	-10.9119
装配	-10.9119
女生	-10.9119
102	-10.912
卓越的	-10.912
。”《	-10.9122
▁7	-10.9123
平米	-10.9125
占有	-10.9126
显卡	-10.9126
拾	-10.9128
有许多	-10.9134
(17	-10.9135
生姜	-10.9135
省政府	-10.9136
循	-10.9139
品味	-10.9139
充分发挥	-10.9141
15分钟	-10.9142
用户的	-10.9144
于2008年	-10.9144
,加强	-10.9145
、电子	-10.9145
,例如	-10.9145
紧邻	-10.9151
优先	-10.9151
检测设备	-10.9153
相结合的	-10.9157
已被	-10.9159
翰	-10.9159
一定要	-10.916
杆菌	-10.9161
1名	-10.9161
体型	-10.9162
卫视	-10.9163
战术	-10.9163
旅客	-10.9163
说法	-10.9165
器,	-10.9166
寓	-10.9166
生产工艺	-10.9167
中南	-10.9168
极限	-10.9171
放置	-10.9173
转速	-10.9173
开发、	-10.9173
提名	-10.9174
提前	-10.9175
为1	-10.9176
1×	-10.9176
新品种	-10.9177
绥	-10.9178
▁7、	-10.9179
马克思主义	-10.9181
携带	-10.9181
美洲	-10.9182
是日本	-10.9183
河道	-10.9185
冥	-10.9185
减肥	-10.9185
主任医师	-10.9186
可持续发展	-10.919
晋升为	-10.9191
随时	-10.9191
文明单位	-10.9191
绪	-10.9191
剧目	-10.9192
兵器	-10.9192
获省	-10.9193
即成。	-10.9193
科学院	-10.9194
,保证	-10.9194
恋爱	-10.9196
研究和	-10.9196
坚持以	-10.9197
裁	-10.9197
土耳其	-10.9198
达成	-10.9199
内分泌	-10.92
▁由于	-10.92
便于	-10.9202
公正	-10.9202
科技大学	-10.9203
自信	-10.9204
)等	-10.9204
荐	-10.9205
主人公	-10.9207
约2	-10.9209
梓	-10.9212
等国家	-10.9215
不断的	-10.9216
恐	-10.9216
,现已	-10.9217
峻	-10.9217
纵队	-10.9218
开始了	-10.9218
况	-10.9218
榆	-10.9219
是目前	-10.9222
桃花	-10.9222
,全	-10.9224
招收	-10.9225
-9	-10.9227
历史文化	-10.9229
解决了	-10.9232
薯	-10.9232
有很多	-10.9234
(1	-10.9234
缅甸	-10.9235
彬	-10.9236
贡献。	-10.9237
对话	-10.9237
中国当代	-10.9238
富含	-10.9238
出售	-10.9242
行业协会	-10.9243
理性	-10.9243
千米	-10.9245
协同	-10.9246
”字	-10.9247
表现出	-10.9247
3.7	-10.9248
岐	-10.925
武汉大学	-10.9252
较多	-10.9254
2)	-10.9254
以北	-10.9257
番茄	-10.9258
弹簧	-10.9262
疾病的	-10.9262
品牌的	-10.9263
咽	-10.9265
菜单	-10.9266
晚年	-10.9268
学术交流	-10.9269
技术的	-10.927
大学文化	-10.9273
郊	-10.9276
运河	-10.9276
中心,	-10.9278
特点:	-10.9278
该公司	-10.9281
石材	-10.9281
讲授	-10.9281
写字楼	-10.9283
获全国	-10.9284
保密	-10.9285
南阳	-10.9285
大连市	-10.9288
微机	-10.9289
坚持“	-10.9289
可能是	-10.9291
充分利用	-10.9292
最先进的	-10.9293
版)	-10.9296
南非	-10.9298
》)	-10.93
以南	-10.93
蛮	-10.9301
-11	-10.9301
9000	-10.9303
于2011年	-10.9304
20分钟	-10.9304
等多项	-10.9306
()的	-10.9308
浸泡	-10.931
时期,	-10.9312
清楚	-10.9313
一旦	-10.9314
▁出版社:	-10.9315
医学会	-10.9316
电厂	-10.9317
一台	-10.9317
对抗	-10.9319
吸附	-10.9322
,都	-10.9322
人大	-10.9326
致富	-10.9326
激素	-10.9327
或是	-10.9328
115	-10.933
办主任	-10.933
技术研究	-10.9331
部部长	-10.9333
。2004年	-10.9333
基本参数	-10.9333
支援	-10.9336
使命	-10.9336
分支	-10.9337
生物技术	-10.9337
此次	-10.9338
1994	-10.9341
发生了	-10.9341
3公里	-10.9342
二年(	-10.9344
桌面	-10.9344
皮革	-10.9344
▁7.	-10.9345
135	-10.9346
衍	-10.9347
30%	-10.9347
暮	-10.935
农业大学	-10.9351
努	-10.9351
▁2011年	-10.9351
连载	-10.9352
头痛	-10.9352
卡拉	-10.9355
的理念	-10.9356
的特色	-10.9361
待遇	-10.9362
江县	-10.9364
极大	-10.9364
这部	-10.9368
篆刻	-10.937
一体	-10.9373
第5	-10.9373
舜	-10.9374
为广大	-10.9375
龙头	-10.9377
新村	-10.9377
精通	-10.9379
无色	-10.938
泛指	-10.9384
接入	-10.9386
法人	-10.9386
的儿子	-10.9386
渐渐	-10.9388
站点	-10.9388
腌	-10.9388
知名度	-10.9388
之处	-10.9389
昏	-10.9389
是一道	-10.9391
人在	-10.9392
杀死	-10.9392
4年	-10.9395
仅有	-10.9396
出道	-10.9399
结算	-10.9399
日照	-10.94
3.4	-10.94
主要包括	-10.9402
▁第一节	-10.9402
为用户提供	-10.9404
如下:	-10.9405
4人	-10.9405
说明书	-10.9405
幻想	-10.9406
总局	-10.9407
娃	-10.9408
开通	-10.941
(15	-10.941
糕	-10.9411
是指在	-10.9412
被誉为	-10.9413
,北	-10.9414
槐	-10.9415
殊	-10.9417
工艺美术	-10.9417
厦	-10.9419
那里	-10.9419
轮胎	-10.942
全面的	-10.942
,生于	-10.942
是为了	-10.9422
医疗器械	-10.9422
想象	-10.9422
新生	-10.9426
领导的	-10.9427
占领	-10.9428
逝	-10.9429
被评为“	-10.943
主治医师	-10.9431
商务酒店	-10.9432
监理	-10.9434
经历了	-10.9434
变量	-10.9435
学说	-10.9437
垣	-10.9438
副总经理	-10.9439
更好地	-10.9439
▁北京	-10.944
寅	-10.944
战场	-10.9442
增大	-10.9444
会展	-10.9445
利亚	-10.9445
愚	-10.9447
承包	-10.9447
一贯	-10.9448
百货	-10.9452
前锋	-10.9452
蔓	-10.9457
缓解	-10.9458
艺术品	-10.9459
春天	-10.9461
这类	-10.9461
90%	-10.9462
梭	-10.9462
调料	-10.9466
灯光	-10.9467
士兵	-10.9471
,全村	-10.9473
悉	-10.9475
微米	-10.9479
命运	-10.9479
批评	-10.9484
不同,	-10.9487
承认	-10.9489
古老的	-10.949
,比如	-10.9491
澳洲	-10.9494
见到	-10.9494
资源,	-10.9496
用的	-10.9496
。这里	-10.9499
物理学	-10.95
浓缩	-10.9503
处长	-10.9505
州市	-10.9505
被列为	-10.9506
-15	-10.9508
的态度	-10.9508
为本	-10.9509
崩	-10.9512
6号	-10.9513
高血压	-10.9513
女主角	-10.9513
渤海	-10.9516
短期	-10.9516
通往	-10.952
的需要	-10.9521
。这个	-10.9521
股份	-10.9521
健全	-10.9523
反映了	-10.9524
旧址	-10.9524
签订	-10.9524
大致	-10.9525
的价格	-10.9525
十九	-10.9525
债券	-10.9528
,均	-10.9528
.09	-10.9528
运动会	-10.953
长沙市	-10.9531
1.9	-10.9531
。’”	-10.9534
寇	-10.9534
师资	-10.9535
线上	-10.9537
钢材	-10.9538
楼盘	-10.9539
媒介	-10.9539
网游	-10.954
领先的	-10.954
景色	-10.9541
鲜明	-10.9542
牢	-10.9543
村内	-10.9544
优越	-10.9545
5人	-10.9546
南侧	-10.955
误差	-10.9552
要求,	-10.9553
阙	-10.9553
来的	-10.9554
产值	-10.9556
于2006年	-10.9556
不如	-10.9556
难度	-10.9558
尔·	-10.9561
之地	-10.9561
解释:	-10.9561
军官	-10.9561
――	-10.9564
对面	-10.9564
咳嗽	-10.9566
萌	-10.9568
在香港	-10.9569
1次	-10.957
的游戏	-10.957
还在	-10.9572
书法作品	-10.9573
因而	-10.9573
四肢	-10.9574
真的	-10.9577
堰	-10.9579
8.5	-10.958
几种	-10.958
正规	-10.9581
览	-10.9581
出版社:	-10.9582
律师事务所	-10.9585
老板	-10.9586
▁本书	-10.9587
中级职称	-10.9587
古老	-10.9588
润滑	-10.9588
,参加	-10.9589
噪音	-10.9593
512	-10.9593
有序	-10.9596
特约	-10.9596
简介:	-10.9597
的安全	-10.9598
高峰	-10.9599
解读	-10.9599
出色	-10.9599
▁一	-10.9602
家庄	-10.9603
紧急	-10.9605
集镇	-10.9605
这是一个	-10.9608
金额	-10.9609
生产能力	-10.961
芝麻	-10.961
棕	-10.9611
头,	-10.9612
1997	-10.9614
岚	-10.9614
动脉	-10.9616
”之	-10.9617
公里,距	-10.9617
聚合	-10.9617
童话	-10.9619
的感觉	-10.9622
1/3	-10.9622
系统集成	-10.9623
蓉	-10.9624
后又	-10.9628
推出了	-10.9629
此时	-10.963
工程项目	-10.963
省内	-10.9632
隋	-10.9633
自学	-10.9633
260	-10.9634
和尚	-10.9635
骑士	-10.9635
应对	-10.9636
十余	-10.9639
你们	-10.964
大蒜	-10.9642
风云	-10.9644
网是	-10.9644
后任	-10.9646
子公司	-10.9646
环境中	-10.9648
大火	-10.965
()和	-10.9651
现金	-10.9651
性。	-10.9654
制造业	-10.9654
于2007年	-10.9657
▁(一)	-10.9657
4.0	-10.9659
入门	-10.9659
却是	-10.9659
钝	-10.9661
毫	-10.9662
男孩	-10.9663
出色的	-10.9664
的最佳	-10.9664
开水	-10.9665
机构,	-10.9665
南宁	-10.9665
科长	-10.9668
花序	-10.9669
参见	-10.967
机箱	-10.9671
二期	-10.9673
泡沫	-10.9674
包围	-10.9675
间隔	-10.9676
为一体	-10.9676
因其	-10.9677
靠近	-10.9679
契	-10.968
标本	-10.968
发生的	-10.9681
开展了	-10.9681
朔	-10.9682
,今	-10.9682
高分子	-10.9683
钛	-10.9683
干事	-10.9683
纪录	-10.9684
正式成立	-10.9684
游击队	-10.9684
毕业,	-10.9684
桥镇	-10.9686
陪	-10.9686
体系,	-10.9686
的品牌	-10.9687
君子	-10.9689
祁	-10.969
2次	-10.969
户型	-10.9691
握	-10.9692
洼	-10.9693
不变	-10.9696
西亚	-10.9696
室主任	-10.9697
节省	-10.9697
垒	-10.9698
回报	-10.9698
山坡	-10.97
主讲	-10.9701
师从	-10.9702
界的	-10.9702
主管部门	-10.9702
析	-10.9703
他是	-10.9705
3)	-10.9708
热处理	-10.9709
歌剧	-10.971
匹	-10.9711
有关的	-10.9711
5.0	-10.9712
起源于	-10.9712
切片	-10.9712
帝王	-10.9713
材料的	-10.9713
矿床	-10.9714
滋	-10.9718
管理体系	-10.9718
主任,	-10.9719
,只要	-10.9724
中华民族	-10.9724
分行	-10.9731
、水	-10.9731
在内的	-10.9734
展览会	-10.9734
,毕业于	-10.9734
.03	-10.9738
充电	-10.9741
建制	-10.9743
珊瑚	-10.9744
也叫	-10.9746
5.1	-10.9747
比如	-10.9748
烟草	-10.9748
共计	-10.9752
农业生产	-10.9756
樊	-10.9756
兮	-10.9757
疗	-10.9758
II	-10.9759
▁出处:	-10.9761
112	-10.9762
剧院	-10.9762
员、	-10.9763
美誉	-10.9763
2公里	-10.9765
水资源	-10.9765
五代	-10.9769
锂电池	-10.9769
,也可	-10.9769
八大	-10.977
封闭	-10.9771
评定	-10.9772
不断地	-10.9773
传送	-10.9774
首创	-10.9774
摄像头	-10.9774
光源	-10.9774
。虽然	-10.9774
荣誉称号	-10.9776
专业人才	-10.9777
名校	-10.9777
等一系列	-10.9778
笛	-10.9779
一书	-10.9781
战国	-10.9783
的网络	-10.9784
丰富,	-10.9785
观看	-10.9785
发展,	-10.9785
主要由	-10.9786
亩,其中	-10.9787
5号	-10.9787
嘎	-10.9787
征收	-10.9788
附近的	-10.9788
铬	-10.9789
接头	-10.9791
第七届	-10.9792
广西壮族自治区	-10.9792
欢乐	-10.9795
管理制度	-10.9796
者的	-10.9797
750	-10.9797
8月参加工作,	-10.9798
主要为	-10.9799
/3	-10.9802
老年人	-10.9805
所需的	-10.9807
生活中	-10.9811
为客户	-10.9813
人大代表	-10.9815
万里	-10.9815
体制改革	-10.9819
该品种	-10.9819
认知	-10.9821
十几	-10.9822
分区	-10.9824
请求	-10.9824
开花	-10.9825
沉淀	-10.9826
欠	-10.9826
”,是	-10.9826
号码	-10.9829
亦作“	-10.983
功夫	-10.983
罕	-10.9831
境界	-10.9832
鲁迅	-10.9832
学会理事	-10.9833
电极	-10.9837
东山	-10.9838
前面	-10.9838
很难	-10.9838
人均	-10.9839
机械制造	-10.9839
总队	-10.984
公顷	-10.984
戎	-10.9841
知县	-10.9842
引发	-10.9843
办公楼	-10.9844
百合	-10.9845
公分	-10.9847
史料	-10.9847
诱	-10.9848
宿舍	-10.985
遭遇	-10.9852
着重	-10.9856
好评。	-10.9857
八角	-10.9858
事迹	-10.986
,隶属	-10.9862
草地	-10.9864
村里	-10.9865
合资	-10.9866
火焰	-10.9868
各项工作	-10.9869
发扬	-10.9869
剂、	-10.9872
中共中央	-10.9874
的关键	-10.9875
理事	-10.9876
人,中共党员,	-10.9878
7号	-10.9878
扶贫	-10.9878
加密	-10.9879
提高了	-10.988
环球	-10.9881
基本上	-10.9883
拥有一支	-10.9884
火灾	-10.9884
屑	-10.9884
敬业	-10.9885
的语言	-10.989
地理位置优越	-10.9891
代表性	-10.9892
注音:	-10.9892
,或者	-10.9892
可选	-10.9893
长约	-10.9894
放射	-10.9895
市场上	-10.9896
至今任	-10.9897
一首	-10.9898
砌	-10.9898
北面	-10.9899
叙述	-10.9902
美术馆	-10.9903
放大	-10.9905
郑州市	-10.9905
步兵	-10.9908
全乡	-10.9908
不断创新	-10.9909
2500	-10.991
,各	-10.9911
不好	-10.9912
。2002年	-10.9914
出行	-10.9916
涨	-10.9917
耿	-10.9917
沥	-10.9918
解放后	-10.9919
庸	-10.9919
出资	-10.9925
研究生学历	-10.9925
大同	-10.9926
担	-10.9926
系统中	-10.9926
白酒	-10.9926
设立了	-10.9926
▁现任	-10.9926
细致	-10.9927
山庄	-10.9929
高质量	-10.9934
面临	-10.9934
。酒店	-10.9935
产权	-10.9935
对照	-10.9938
天子	-10.9938
独家	-10.9939
两项	-10.9939
用量	-10.994
袖	-10.994
城堡	-10.9941
毒性	-10.9941
是国家	-10.9942
了《	-10.9946
图》	-10.9949
直立	-10.9952
洁净	-10.9955
。后来	-10.9955
,2004年	-10.9957
▁★	-10.9961
面部	-10.9961
阿根廷	-10.9962
,2006年	-10.9963
又叫	-10.9963
纪委	-10.9964
显示器	-10.9968
朋	-10.997
幼虫	-10.997
源自	-10.997
末端	-10.9971
准则	-10.9971
文体	-10.9972
出品	-10.9972
此地	-10.9974
女士	-10.9975
纽	-10.9975
回归	-10.9977
200米	-10.9978
曲折	-10.9978
的标准	-10.9978
》一书	-10.9979
天然气	-10.998
9%	-10.998
项目。	-10.9981
寻求	-10.9981
能力和	-10.9984
不见	-10.9985
政协副主席	-10.9985
甲基	-10.9985
泾	-10.9986
斯坦	-10.9987
、刘	-10.9989
,还是	-10.9989
依照	-10.999
流水	-10.9993
清末	-10.9994
坟	-10.9995
持有	-10.9997
的使用	-11
。2010年	-11.0001
至今,	-11.0002
年级	-11.0003
吞	-11.0003
杂质	-11.0004
280	-11.0005
无穷	-11.0006
催	-11.0007
也许	-11.0009
情节	-11.0011
饰)	-11.0011
之外	-11.0017
价值。	-11.0018
人性化	-11.0019
络	-11.002
的一家	-11.002
》是由	-11.0022
中文系	-11.0022
矿业	-11.0023
建设工程	-11.0023
体会	-11.0029
班长	-11.0031
(4)	-11.0032
肚	-11.0032
、国家	-11.0034
博客	-11.0034
等工作	-11.0035
的部分	-11.0035
穿过	-11.0036
吗	-11.0036
、金	-11.0037
蕾	-11.0038
一面	-11.0039
睡眠	-11.0041
常务理事	-11.0041
一篇	-11.0041
秉承“	-11.0042
另有	-11.0043
部主任	-11.0044
配料	-11.0044
椭圆形	-11.0045
团购	-11.0046
贝尔	-11.0047
简约	-11.0048
袍	-11.005
坐标	-11.0051
纳入	-11.0051
药材	-11.0052
投产	-11.0052
伙伴	-11.0053
绞	-11.0054
人称	-11.0054
面积2	-11.0055
定点	-11.0057
欧盟	-11.0058
策划、	-11.0059
中最	-11.0059
鸽	-11.006
三百	-11.0061
附加	-11.0061
临床工作	-11.0064
小镇	-11.0065
财务管理	-11.0065
口岸	-11.0066
为目标	-11.0068
摩擦	-11.007
提倡	-11.0071
渭	-11.0071
偶像	-11.0072
长方形	-11.0076
抗战	-11.0078
跟随	-11.0078
发放	-11.008
趋	-11.008
网络游戏	-11.0081
、石	-11.0083
于2005年	-11.0083
维尔	-11.0085
油菜	-11.0086
优秀共产党员	-11.0087
卸	-11.0088
山谷	-11.0089
较少	-11.0089
恐龙	-11.009
深化	-11.009
刑事	-11.009
类、	-11.0092
育种	-11.0094
20克	-11.0094
(16	-11.0095
之旅	-11.0095
巫	-11.0096
奇迹	-11.0098
种种	-11.0105
可靠的	-11.0106
,呈	-11.0107
106	-11.0107
还要	-11.0108
油脂	-11.0108
正确的	-11.0111
秋季	-11.0113
疆	-11.0113
供给	-11.0115
真菌	-11.0116
气质	-11.0117
分析、	-11.0117
信息系统	-11.0118
大脑	-11.0118
。著有《	-11.0121
单位:	-11.0121
花鸟	-11.0123
功能。	-11.0126
更高	-11.0129
水源	-11.0129
食谱	-11.013
中心。	-11.013
射线	-11.0131
重点项目	-11.0131
,注重	-11.0132
双向	-11.0132
均衡	-11.0133
下去	-11.0133
有个	-11.0137
,1984年	-11.0138
主要经营	-11.0138
拟订	-11.0139
评委	-11.0145
风采	-11.0146
,建立	-11.0151
109	-11.0151
汇集	-11.0152
从业人员	-11.0153
冢	-11.0153
000	-11.0154
人家	-11.0154
县委书记	-11.0154
商人	-11.0156
产业发展	-11.016
经》	-11.016
扎实	-11.016
铁道	-11.0162
切换	-11.0164
专家,	-11.0165
9号	-11.0168
▁企业	-11.0169
新农村建设	-11.017
变动	-11.017
社科	-11.0171
等专业	-11.0173
标记	-11.0173
10余	-11.0174
主任、	-11.0175
私立	-11.0175
封建	-11.0175
的数据	-11.0176
边境	-11.0177
麦克风	-11.0177
盏	-11.0177
,日本	-11.0179
制成的	-11.0179
中心小学	-11.0179
当归	-11.0179
籍贯	-11.0181
委会	-11.0181
倾斜	-11.0181
,2008年	-11.0182
共建	-11.0182
手续	-11.0183
议会	-11.0183
千万	-11.0185
3.8	-11.0186
冤	-11.0186
微型	-11.0186
扩散	-11.0186
,不能	-11.0187
授课	-11.0187
平时	-11.0187
可作为	-11.0187
-12	-11.0191
成像	-11.0191
两者	-11.0192
5公里	-11.0193
是通过	-11.0193
摩托车	-11.0195
▁2005年	-11.0197
规模最大的	-11.0198
优秀奖	-11.0199
手中	-11.0199
科技进步	-11.02
可在	-11.02
红枣	-11.0202
两位	-11.0202
录取	-11.0204
北大	-11.0204
信赖	-11.0205
阎	-11.0205
运转	-11.0205
两端	-11.0206
改编	-11.0207
:8	-11.0211
公斤,	-11.0212
债	-11.0212
的效果	-11.0214
▁上海	-11.0214
企业文化	-11.0215
长寿	-11.0215
整齐	-11.0217
其父	-11.0217
方形	-11.0217
明天	-11.0219
,开展	-11.022
的第一	-11.0221
去除	-11.0222
全村经济总收入	-11.0222
一直在	-11.0222
人造	-11.0223
2×	-11.0224
本村	-11.0224
世界各地	-11.0225
诉	-11.0227
,给	-11.0227
坠	-11.0229
台,	-11.0231
学校的	-11.0232
为一体的综合性	-11.0236
看见	-11.0237
社会团体	-11.0237
中青年	-11.0238
中的应用	-11.0241
桓	-11.0244
立足于	-11.0244
妆	-11.0248
等单位	-11.0249
是一本	-11.0249
人心	-11.025
试图	-11.025
校舍	-11.025
平板	-11.0259
基础知识	-11.0259
夺得	-11.026
▁(4)	-11.0261
所作	-11.0263
杀害	-11.0263
断裂	-11.0264
收到	-11.0265
10月生,	-11.0265
一次性	-11.0266
始终坚持	-11.0267
1两	-11.0267
5人,	-11.0268
村镇	-11.027
外汇	-11.0271
夫妻	-11.0271
内心	-11.0272
延续	-11.0273
骏	-11.0274
闻名	-11.0274
肇	-11.0276
估计	-11.0276
峡谷	-11.0278
袭击	-11.028
白色,	-11.0281
祖父	-11.0284
定向	-11.0287
选拔	-11.0287
贸	-11.0288
第一批	-11.029
珍贵	-11.029
路径	-11.0292
党政	-11.0293
有限公司、	-11.0293
,并以	-11.0294
国际标准	-11.0294
会有	-11.0295
捧	-11.0299
曝光	-11.0301
光谱	-11.0303
热点	-11.0304
一半	-11.0305
确	-11.0309
南县	-11.031
当事人	-11.0311
2001	-11.0311
夏天	-11.0313
氛围	-11.0316
许可	-11.0317
500克	-11.0318
国家一级	-11.0319
众生	-11.0319
团长	-11.0323
天空	-11.0324
发现的	-11.0326
第6	-11.0326
蘑菇	-11.0326
芜湖	-11.0329
230	-11.0333
培训、	-11.0333
发光	-11.0334
,那	-11.0336
受理	-11.0338
牙齿	-11.0338
潍坊	-11.0339
菱	-11.034
肿	-11.0341
证据	-11.0342
学术论文	-11.0342
各有	-11.0342
火箭	-11.0347
入住	-11.0347
满族	-11.0347
遍及	-11.0348
高新区	-11.0348
总督	-11.0349
孕	-11.0349
550	-11.035
公关	-11.0352
字体	-11.0355
,2005年	-11.0356
2项	-11.0356
世界杯	-11.0357
驿	-11.0359
调控	-11.0359
104	-11.036
大方	-11.036
商用	-11.036
鉴赏	-11.0362
笃	-11.0363
事。	-11.0363
深厚	-11.0364
作曲家	-11.0365
流域	-11.0366
金融机构	-11.0366
纳税	-11.0367
咨询、	-11.0368
疲劳	-11.0369
带来的	-11.0371
号:	-11.0372
车型	-11.0373
中国人	-11.0374
辖区内	-11.0379
将领	-11.038
。先后	-11.0381
,中共	-11.0382
”牌	-11.0382
辊	-11.0382
在校生	-11.0384
挥	-11.0389
(公元	-11.0391
5.2	-11.0392
白菜	-11.0395
,令	-11.0395
1926年	-11.0396
侦察	-11.0397
等地。	-11.0397
链接	-11.0398
听到	-11.0399
厘米,宽	-11.0402
主任。	-11.0402
要点	-11.0405
长时间	-11.0406
武昌	-11.0407
唐山	-11.0409
能力的	-11.041
40%	-11.041
转入	-11.0411
歌舞	-11.0411
构件	-11.0414
或其他	-11.0415
山药	-11.0415
所得	-11.0417
业有限公司	-11.0418
用以	-11.042
转动	-11.0424
画院	-11.0424
肉质	-11.0427
阅	-11.0429
第八届	-11.043
论著	-11.0432
林场	-11.0433
赋》:“	-11.0434
20余	-11.0434
7月参加工作,	-11.0435
论》	-11.0435
副会长	-11.0436
3次	-11.0437
厦门市	-11.0438
摄像机	-11.0439
权益	-11.0439
自来水	-11.0439
处副处长	-11.044
捣	-11.044
数千	-11.044
4.3	-11.0441
书画院	-11.0441
传染病	-11.0443
如同	-11.0446
带来了	-11.0447
>>	-11.0449
中医院	-11.045
。清	-11.0453
参谋长	-11.0453
门诊	-11.0453
万余	-11.0454
公式	-11.0455
庭院	-11.0456
名单	-11.0457
棍	-11.0458
即为	-11.0459
《关于	-11.0462
长大	-11.0464
多次被评为	-11.0464
被迫	-11.0464
差别	-11.0466
师大	-11.0466
海底	-11.0467
工程施工	-11.047
较好	-11.0473
匪	-11.0473
按键	-11.0474
复兴	-11.0476
总会	-11.0477
龙泉	-11.0477
信任	-11.048
做成	-11.048
爱尔兰	-11.0481
环境优雅	-11.0482
园内	-11.0483
市场经济	-11.0484
词语	-11.0485
祀	-11.0486
钞	-11.0488
登场	-11.0492
农学院	-11.0494
新增	-11.0498
排长	-11.0498
,待	-11.05
谓之	-11.0501
,仅	-11.0501
铁路局	-11.0501
粮油	-11.0503
主营	-11.0503
出场	-11.0505
教育培训	-11.0508
风湿	-11.0509
▁电源	-11.0509
杀人	-11.0511
散热	-11.0512
村级	-11.0513
一边	-11.0514
无机	-11.0517
乞	-11.0518
植被	-11.0521
▁据	-11.0522
格尔	-11.0528
实物	-11.0529
赋予	-11.053
水域	-11.053
有限公司是一家	-11.0532
晕	-11.0533
球形	-11.0534
か	-11.0535
立项	-11.0536
蒙古族	-11.0539
,东临	-11.0539
现今	-11.054
转让	-11.0542
生死	-11.0544
斧	-11.0545
创伤	-11.0545
高频	-11.0546
副教授。	-11.0548
。2003年	-11.0549
。对于	-11.0555
曾为	-11.0555
区委	-11.0556
讲究	-11.0557
,2002年	-11.0557
参赛	-11.0557
缓慢	-11.0559
千余	-11.056
姜片	-11.0561
筹	-11.0561
缩短	-11.0561
发表学术论文	-11.0562
1两,	-11.0562
勇敢	-11.0563
渗	-11.0564
公平	-11.0564
阻止	-11.0565
项目位于	-11.0566
海峡	-11.0567
坂	-11.0569
畜	-11.057
烦恼	-11.0576
高手	-11.0577
陀	-11.0577
蜂蜜	-11.0579
今后	-11.058
经济建设	-11.0581
由原	-11.0581
火车	-11.0581
、日本	-11.0582
省部级	-11.0582
芬兰	-11.0585
动力学	-11.0586
食品有限公司	-11.0588
变为	-11.059
天才	-11.059
高雅	-11.0592
浊	-11.0595
子孙	-11.0596
500米	-11.0596
川县	-11.0596
表现为	-11.0598
创办的	-11.0599
子、	-11.06
肤	-11.0601
回来	-11.0601
层面	-11.0601
发达	-11.0603
的速度	-11.0603
也就是	-11.0605
食品安全	-11.0605
烤烟	-11.0607
副校长	-11.0607
话题	-11.0609
650	-11.061
省委党校	-11.0612
个教学班	-11.0614
克拉	-11.0616
▁(三)	-11.0616
堪	-11.062
过多	-11.0622
结构的	-11.0623
沙滩	-11.0624
二十世纪	-11.0625
香菜	-11.0626
芙蓉	-11.0627
速率	-11.0627
客户提供	-11.0627
才是	-11.0627
之内	-11.0629
太湖	-11.0631
城墙	-11.0631
品牌,	-11.0631
读物	-11.0631
体育馆	-11.0637
1992	-11.0637
10克,	-11.0638
农田	-11.0638
是一座	-11.0642
.11	-11.0647
热心	-11.0648
质量管理体系	-11.0648
自愿	-11.0649
谈判	-11.065
,帮助	-11.0654
消灭	-11.0657
财政部	-11.0657
篮	-11.0658
标兵	-11.0658
头发	-11.0659
的结构	-11.0659
城市规划	-11.0661
调度	-11.0663
永久	-11.0664
国民经济	-11.0666
,作者	-11.0667
第7	-11.0669
兴起	-11.0669
造纸	-11.067
南区	-11.0671
道具	-11.0672
,并有	-11.0673
冰箱	-11.0673
无锡市	-11.0675
指定的	-11.0675
,2003年	-11.0676
临沂	-11.0677
持久	-11.0677
祖籍	-11.0681
习俗	-11.0683
规划设计	-11.0684
被认为是	-11.0685
青铜	-11.0686
知名的	-11.0686
姓名:	-11.0686
建筑设计	-11.0686
饰品	-11.0687
的质量	-11.069
城南	-11.069
变迁	-11.0692
网球	-11.0693
○	-11.0693
哉	-11.0694
总量	-11.0698
状元	-11.0699
绿地	-11.07
水流	-11.07
高产	-11.07
金钱	-11.0701
发展到	-11.0703
的实际	-11.0703
名誉	-11.0704
委员,	-11.0705
起伏	-11.0707
的意思	-11.0707
光线	-11.0707
改建	-11.0708
科协	-11.0709
既是	-11.071
座落在	-11.0711
寺庙	-11.0712
4人,	-11.0712
屿	-11.0713
下方	-11.0714
女神	-11.0715
相机	-11.0715
各界	-11.0716
齐全	-11.0719
注:“	-11.0719
远离	-11.072
分开	-11.0721
先进技术	-11.0722
骗	-11.0724
灾害	-11.0724
鞘	-11.0725
、、、、	-11.0726
织物	-11.0728
妄	-11.0728
成份	-11.0731
4.1	-11.0732
厉	-11.0733
手指	-11.0733
享誉	-11.0734
经销	-11.0737
游戏中	-11.0738
房子	-11.0741
学专业	-11.0742
、企业	-11.0742
丞	-11.0743
名列	-11.0744
,应	-11.0744
黄褐色	-11.0745
中学生	-11.0746
一度	-11.0747
外表	-11.0748
,达到	-11.075
研究。	-11.0754
负责全县	-11.0755
陇	-11.0756
承受	-11.0756
,2007年	-11.0759
催化	-11.0759
特邀	-11.0759
中路	-11.0761
平方米。	-11.0764
及其它	-11.0765
世界的	-11.0765
职位	-11.0767
保养	-11.0767
10000	-11.0768
,集	-11.0769
版权	-11.0771
和技术	-11.0772
研究领域	-11.0773
的最大	-11.0774
员,	-11.0777
蕨	-11.0777
县长	-11.0778
省委	-11.0778
引用	-11.0778
变换	-11.0781
长子	-11.0781
中文名称:	-11.0782
,担任	-11.0783
8年	-11.0784
龙头企业	-11.0784
无毒	-11.0785
炎症	-11.0786
崎	-11.0787
此类	-11.0788
脱落	-11.0788
深加工	-11.0788
气氛	-11.0789
调理	-11.0791
成功地	-11.0791
抗菌	-11.0792
挪威	-11.0796
技术与	-11.0797
80年代	-11.0798
班级	-11.0799
凝聚	-11.08
依赖	-11.08
岭南	-11.0802
、美国	-11.0802
很好	-11.0804
出发	-11.0804
水准	-11.0808
招标	-11.0808
的特殊	-11.0811
勘探	-11.0811
中型	-11.0811
党委委员	-11.0814
人力资源管理	-11.0815
下列	-11.0816
精准	-11.0817
回忆	-11.0822
全年	-11.0826
变革	-11.0828
重力	-11.0829
▁根据	-11.083
,除了	-11.0831
一一	-11.0831
一二	-11.0832
的过程	-11.0833
一直致力于	-11.0833
第一位	-11.0834
的大小	-11.0835
区分	-11.0837
研究的	-11.0838
研究方向	-11.0842
杀菌	-11.0843
关联	-11.0844
近期	-11.0844
小说《	-11.0845
能在	-11.085
锰	-11.0852
声誉	-11.0855
极大的	-11.0858
怪物	-11.086
数值	-11.0863
的教育	-11.0863
到底	-11.0863
经济管理	-11.0863
服役	-11.0865
裤	-11.0865
俄国	-11.0866
三峡	-11.0866
新能源	-11.0868
中西	-11.0871
又是	-11.0871
石刻	-11.0876
》人物之一。	-11.0878
香料	-11.0878
深造	-11.0879
从小	-11.088
门户网站	-11.0883
的文化	-11.0885
门窗	-11.0886
部,	-11.0887
装甲	-11.0887
,注册资金	-11.0888
斑点	-11.0893
苗族	-11.0894
购物中心	-11.0895
军分区	-11.0898
风貌	-11.0898
愤	-11.09
家。	-11.09
用心	-11.0902
▁作为	-11.0902
为中心	-11.0903
产业链	-11.0903
硕士生导师	-11.0904
仪、	-11.0907
华丽	-11.0908
领导人	-11.0909
弊	-11.091
叶柄	-11.0912
姐姐	-11.0912
▁第三节	-11.0912
是将	-11.0913
内容包括	-11.0913
分工	-11.0913
中医学院	-11.0915
黛	-11.0916
相比,	-11.092
西瓜	-11.0921
倪	-11.0921
一大	-11.0923
阵地	-11.0923
迭	-11.0925
含义	-11.093
它们的	-11.093
衣服	-11.0931
。2011年	-11.0932
报社	-11.0932
蕴	-11.0934
,是一家集	-11.0934
合作社	-11.0935
尽量	-11.0936
层,	-11.0942
地块	-11.0942
兵团	-11.0947
、西	-11.0949
娶	-11.0949
区的	-11.095
羊肉	-11.0952
部副部长	-11.0955
邢	-11.0956
风格的	-11.0956
敲	-11.0957
收录了	-11.0962
遮	-11.0964
设计和	-11.0966
社区居委会	-11.0966
理论与实践	-11.0967
每周	-11.0967
更有	-11.0968
改制	-11.0969
中日	-11.097
审美	-11.0974
委员会副主任	-11.0975
合一	-11.0976
下午	-11.0977
乡位于	-11.0978
碰	-11.0978
,打造	-11.0979
首个	-11.0979
忆	-11.0981
后面	-11.0983
环境下	-11.0984
1、	-11.0985
游览	-11.0985
选育	-11.0986
上帝	-11.0987
公司拥有	-11.0988
仲裁	-11.0988
,使其	-11.0991
1985	-11.0991
楠	-11.0991
亿美元	-11.0992
歌唱	-11.0992
晖	-11.0993
龚	-11.0993
聪	-11.0993
社区位于	-11.0994
,也就是	-11.0994
高新	-11.0994
大战	-11.0996
衫	-11.1
生产技术	-11.1001
二十年	-11.1003
广阔的	-11.1003
死后	-11.1003
迎接	-11.1003
鸡精	-11.1004
追求卓越	-11.1005
广电	-11.1005
淫	-11.1006
升高	-11.1007
开封	-11.1007
的经典	-11.1008
专辑《	-11.1008
两国	-11.1008
副书记	-11.1009
颐	-11.1009
彻	-11.101
岱	-11.1011
高级职称	-11.1014
太极	-11.1015
锯	-11.1018
总户数	-11.1019
伊斯兰教	-11.102
万年	-11.102
等国	-11.102
方式。	-11.1021
微博	-11.1021
明白	-11.1021
严格按照	-11.1022
山水画	-11.1022
曾被	-11.1023
一世	-11.1025
体育场	-11.1027
岁时	-11.1027
人为	-11.1028
店铺	-11.1029
骨折	-11.1031
大批	-11.1033
等各类	-11.1035
将来	-11.1038
,并于	-11.1038
行走	-11.1044
后再	-11.1045
办事	-11.1046
樟	-11.1046
非法	-11.1047
林木	-11.1048
而言,	-11.105
违	-11.1051
ス	-11.1051
举行的	-11.1052
蹄	-11.1053
反馈	-11.1053
博士学位	-11.1054
国家队	-11.1054
排骨	-11.1056
赛车	-11.1059
面积约	-11.1059
自然保护区	-11.1062
实用性	-11.1063
网站建设	-11.1063
的要求,	-11.1064
6人,	-11.1064
制备	-11.1065
明显的	-11.1065
192	-11.1074
气味	-11.1074
于2004年	-11.1074
裹	-11.1075
大展	-11.1075
即时	-11.1076
±	-11.1077
金银	-11.1078
时光	-11.108
哨	-11.1081
3/	-11.1084
如意	-11.1085
有点	-11.1085
支架	-11.1086
事业的	-11.109
调试	-11.109
性疾病	-11.1091
模糊	-11.1091
条纹	-11.1091
以上,	-11.1092
”的经营理念,	-11.1093
,并与	-11.1093
居士	-11.1094
沿岸	-11.1094
惑	-11.1094
首领	-11.1095
服。	-11.1095
,2009年	-11.1096
的生命	-11.1097
命题	-11.1097
,虽	-11.1098
郝	-11.1098
使用者	-11.1099
健脾	-11.1102
轻工	-11.1103
直至	-11.1103
,以便	-11.1103
之。”	-11.1104
军团	-11.1106
小吃	-11.1107
地段	-11.1108
,改	-11.111
,距县城	-11.1111
4.8	-11.1111
炫	-11.1112
中文名:	-11.1112
研究人员	-11.1112
学院院长	-11.1113
古镇	-11.1113
1公里	-11.1114
生粉	-11.1114
乡镇企业	-11.1115
屡	-11.1115
的孩子	-11.1116
逝世	-11.1116
的研发	-11.1118
菊花	-11.1119
产品开发	-11.112
查看	-11.1121
位居	-11.1121
,加上	-11.1122
270	-11.1122
陈列	-11.1123
研制的	-11.1125
悬挂	-11.1126
游击	-11.1126
遵守	-11.1127
军人	-11.1127
,按照	-11.1127
焕	-11.1128
之战	-11.1134
高效的	-11.1135
。1949年	-11.1136
零部件	-11.1136
活血	-11.1138
局、	-11.1138
基地。	-11.1138
103	-11.1143
占据	-11.1143
的女儿	-11.1148
全套	-11.1148
研究机构	-11.1148
颇具	-11.115
的治疗	-11.115
20个	-11.1152
蔚	-11.1153
兽医	-11.1157
行政执法	-11.1158
长篇	-11.1158
洪水	-11.1159
装有	-11.116
不等	-11.116
国学	-11.116
121	-11.1163
1996	-11.1163
熬	-11.1164
三月	-11.1166
и	-11.1166
市长	-11.1169
家里	-11.1169
教育局	-11.117
。当时	-11.1171
演化	-11.1175
舒适的	-11.1176
。’	-11.1176
有线电视	-11.1176
喙	-11.1177
语言学	-11.1178
成套	-11.1178
效力于	-11.118
可容纳	-11.1182
民用	-11.1183
直观	-11.1183
北海	-11.1183
特聘	-11.1189
,交通便利。	-11.1191
前身是	-11.1193
畸形	-11.1198
主治	-11.1198
领导班子	-11.1199
障	-11.1201
培训班	-11.1202
的经验	-11.1202
.12	-11.1203
:6	-11.1203
民办	-11.1203
蓄	-11.1204
南瓜	-11.1204
工程系	-11.1205
静态	-11.1205
火锅	-11.1205
诠释	-11.1206
6年	-11.1207
商业银行	-11.1208
,分	-11.1208
调味料	-11.1208
+1	-11.1209
排除	-11.121
为基础,	-11.121
不了	-11.121
沸	-11.121
入学	-11.1211
结构,	-11.1212
法定	-11.1213
清·	-11.1215
香气	-11.1215
获国家	-11.1216
堵	-11.1216
麻油	-11.1217
▁最大	-11.1218
▁2004年	-11.1219
法兰	-11.122
▁五	-11.1222
磁场	-11.1223
全国性	-11.1223
未能	-11.1223
损坏	-11.1226
2.9	-11.1226
聚合物	-11.1226
开阔	-11.1226
380	-11.1227
流派	-11.1227
券	-11.1227
▁四、	-11.1228
保定	-11.1231
厘米。	-11.1231
不断提高	-11.1233
美人	-11.1233
107	-11.1234
研究,	-11.1234
霖	-11.1234
保修	-11.1235
,它的	-11.1235
脱离	-11.1235
直达	-11.1237
文化交流	-11.1239
脐	-11.124
故里	-11.124
天主教	-11.1241
范围:	-11.1242
蝉	-11.1243
聘为	-11.1244
百家	-11.1244
队伍,	-11.1246
抛光	-11.1246
高素质的	-11.1247
名牌产品	-11.1248
崛起	-11.1249
、社会	-11.125
胸部	-11.1253
田径	-11.1253
客户服务	-11.1254
召唤	-11.1255
学士学位	-11.1255
学校。	-11.126
近年	-11.1262
历史的	-11.1262
毗	-11.1262
汀	-11.1265
之心	-11.1266
广泛应用于	-11.1266
搬	-11.1266
共同发展	-11.1267
酸性	-11.1268
;1	-11.1269
宏观	-11.127
[	-11.1274
工作;负责	-11.1275
身高	-11.1275
氯化	-11.1276
星期	-11.1276
复印	-11.1279
勋章	-11.1279
插入	-11.1279
惨	-11.128
于2003年	-11.1281
场合	-11.1286
早熟	-11.1287
现有职工	-11.1288
利率	-11.129
海滨	-11.1291
100米	-11.1294
中央空调	-11.1295
晋升	-11.1297
椅	-11.1298
次数	-11.13
板材	-11.1301
蛙	-11.1302
体质	-11.1303
至今在	-11.1305
法语	-11.1306
扶持	-11.1307
编纂	-11.1308
嵩	-11.1308
线、	-11.131
文集	-11.1311
银奖	-11.1312
3项	-11.1312
实践经验	-11.1313
了大量	-11.1317
抓住	-11.1319
股份制	-11.1319
于此	-11.132
休闲娱乐	-11.1321
专家。	-11.1324
安定	-11.1326
冰川	-11.1326
恰	-11.1327
ㄐㄧ	-11.1327
学系	-11.1327
该项目	-11.1327
被称为“	-11.1328
摸	-11.133
子。	-11.1331
粗糙	-11.1332
无论是	-11.1332
煮熟	-11.1332
区级	-11.1333
的情况下,	-11.1336
尉	-11.1338
指挥部	-11.1338
信访	-11.1338
学研究	-11.1341
村委会,属于山区。	-11.1344
饱	-11.1344
礁	-11.1346
质量第一	-11.1347
委书记	-11.1348
腌制	-11.135
志愿者	-11.1351
空心	-11.1352
有色金属	-11.1354
一直从事	-11.1357
薇	-11.1358
50克,	-11.1358
0.	-11.1358
行业中	-11.1359
。2001年	-11.136
°	-11.136
教育事业	-11.1361
金石	-11.1361
最多的	-11.1361
楷书	-11.1363
方程	-11.1364
年轻人	-11.1365
,北与	-11.1366
生抽	-11.1369
恶魔	-11.137
来电	-11.1374
的战略	-11.1375
136	-11.1376
▁8	-11.1376
质地	-11.1377
建筑师	-11.1378
。一般	-11.1379
南京大学	-11.1379
苗木	-11.1379
获得者	-11.138
侧面	-11.1381
静电	-11.1381
乒乓球	-11.1383
经营理念	-11.1384
敦煌	-11.1384
12月生,	-11.1385
书》	-11.1387
。因此	-11.1388
温柔	-11.139
每月	-11.139
ル	-11.139
漂	-11.1391
抓好	-11.1391
研发中心	-11.1392
解除	-11.1394
11个	-11.1394
樱	-11.1396
的学习	-11.1396
经验。	-11.1398
熏	-11.1399
寓意	-11.14
溜	-11.14
强烈的	-11.14
伦理	-11.14
膝	-11.1401
即是	-11.1402
裸	-11.1402
厄	-11.1403
走出	-11.1403
求发展	-11.1403
家中	-11.1404
淘	-11.1404
背光	-11.1404
修理	-11.1409
教导	-11.1409
的一款	-11.141
,全面	-11.1411
改名	-11.1411
就要	-11.1411
后世	-11.1411
。所以	-11.1412
庄园	-11.1415
系统。	-11.1418
为之	-11.1421
镶	-11.1423
触摸屏	-11.1425
大海	-11.1428
专科学校	-11.1429
有两个	-11.1432
工件	-11.1436
机理	-11.1436
也就	-11.1436
书》:“	-11.1437
副教授,	-11.1437
し	-11.1438
平滑	-11.1438
形似	-11.144
风俗	-11.144
狭窄	-11.1441
概括	-11.1441
谏	-11.1443
职能部门	-11.1444
口,	-11.1445
需求,	-11.1447
婴	-11.1448
3克	-11.1449
15年	-11.1449
昆山	-11.1451
馨	-11.1451
单位,	-11.1451
庆祝	-11.1452
河畔	-11.1453
广泛用于	-11.1453
淮南	-11.1454
厨	-11.1454
以上。	-11.1455
窃	-11.1457
款式	-11.1458
多位	-11.1459
共产党	-11.1459
牵引	-11.146
方正	-11.1463
神秘的	-11.1463
总工程师	-11.1464
库存	-11.1465
6.	-11.1466
总建筑面积	-11.1466
特·	-11.1468
阐述了	-11.147
隅	-11.1471
财会	-11.1473
单纯	-11.1475
整机	-11.1477
以色列	-11.1477
设备。	-11.1478
皮肤病	-11.1482
蛾	-11.1482
污水	-11.1483
竞技	-11.1483
。他的	-11.1485
。分布于	-11.149
书画艺术	-11.1491
1项	-11.1492
粟	-11.1492
生产销售	-11.1493
山下	-11.1493
荣获“	-11.1494
外观设计	-11.1496
在校	-11.1498
椰	-11.1499
矿产资源	-11.15
7.2	-11.15
驴	-11.15
冷水	-11.1501
6.0	-11.1504
,2000年	-11.1506
版画	-11.1506
,随	-11.1506
手持	-11.1508
色素	-11.1508
拟定	-11.151
设备有限公司	-11.151
720	-11.1511
小游戏	-11.1511
故居	-11.1512
共赢	-11.1514
那种	-11.1516
帧	-11.1517
助教	-11.1518
公安局	-11.1518
虑	-11.1519
信心	-11.1523
性强	-11.1524
涵盖了	-11.1524
奥林匹克	-11.1525
注册资金	-11.1525
站、	-11.1526
及各种	-11.1528
孢	-11.1529
沥青	-11.1529
关系。	-11.153
谨	-11.1531
事业部	-11.1532
文化产业	-11.1533
储量	-11.1533
有名的	-11.1535
截止	-11.1535
急救	-11.1537
自助	-11.1537
之星	-11.154
奖,	-11.1541
器物	-11.1541
五月	-11.1542
郊区	-11.1545
及应用	-11.1546
的父亲	-11.1547
重点中学	-11.1547
晚会	-11.1549
受到了	-11.1549
心情	-11.1549
出租	-11.155
过滤器	-11.155
呆	-11.155
,离	-11.1552
的经营	-11.1552
不得不	-11.1553
汕头	-11.1553
学派	-11.1553
暑	-11.1555
人民出版社	-11.1556
如果你	-11.1556
各异	-11.1556
后在	-11.1556
冷藏	-11.1563
亿元。	-11.1563
供奉	-11.1565
副秘书长	-11.1566
酿	-11.1567
感受到	-11.1567
工作委员会	-11.1567
为你	-11.1568
高尚	-11.1568
考证	-11.157
做事	-11.1572
线性	-11.1572
小火	-11.1572
1987	-11.1574
航海	-11.1574
设备和	-11.1575
将在	-11.1577
刚刚	-11.1577
违反	-11.1579
北京师范大学	-11.158
4.4	-11.1581
起来,	-11.1581
开心	-11.1582
组组长	-11.1587
芳香	-11.1588
范畴	-11.1588
备份	-11.1589
哥哥	-11.1591
举人	-11.1593
金陵	-11.1595
122	-11.1595
超声	-11.1595
斯克	-11.1599
揭	-11.1599
加入了	-11.1599
期望	-11.16
,只是	-11.1602
4.6	-11.1604
站址在	-11.1604
企业发展	-11.1605
,适合	-11.1606
以此	-11.1607
高精度	-11.1608
项目管理	-11.161
定量	-11.1612
友人	-11.1613
的人生	-11.1618
碘	-11.1618
的老	-11.1618
恒星	-11.1619
体系。	-11.1619
年轻的	-11.1619
击败	-11.1621
编织	-11.1623
价值的	-11.1623
,兼	-11.1624
本科毕业	-11.1624
青花	-11.1627
,2001年	-11.1627
荧光	-11.1628
大理	-11.1629
1只	-11.163
已知	-11.163
m2	-11.163
尤其	-11.1631
眠	-11.1631
背后	-11.1632
客车	-11.1636
登上	-11.1637
70%	-11.1638
倾向	-11.1639
升降	-11.1639
15个	-11.1641
变成了	-11.1643
湿度	-11.1646
傍	-11.1647
史》	-11.1647
贮	-11.1647
时钟	-11.1648
浓郁	-11.1651
药学	-11.1651
低压	-11.1652
亚种	-11.1652
黑客	-11.1653
,放	-11.1653
人中共党员	-11.1655
房、	-11.1655
疯狂	-11.1656
,西邻	-11.1657
解毒	-11.1659
金色	-11.166
葡萄牙	-11.166
存放	-11.166
等功能	-11.1661
畏	-11.1661
管理学院	-11.1666
中学高级教师	-11.1666
种。	-11.1669
体现了	-11.167
递	-11.167
璧	-11.1671
的最高	-11.1672
专业委员会委员	-11.1673
α	-11.1674
世人	-11.1674
的需要,	-11.1675
专业毕业	-11.1677
1925年	-11.1677
精神文明建设	-11.1677
存款	-11.1678
卡尔	-11.168
邻近	-11.1683
诵	-11.1684
123	-11.1685
荆州	-11.1687
的优势	-11.1688
伙	-11.169
积分	-11.1692
,实行	-11.1692
为此	-11.1694
喀	-11.1694
搜索引擎	-11.1697
上海交通大学	-11.1698
计算机网络	-11.1698
行星	-11.1698
9001	-11.1701
的最新	-11.1701
于一体,	-11.1702
客座教授	-11.1704
不同于	-11.1705
迦	-11.1706
4号	-11.1706
。1998年	-11.1708
正科级	-11.171
名叫	-11.171
夫妇	-11.1711
佛山市	-11.1713
伽	-11.1713
筛选	-11.1714
定为	-11.1714
破碎	-11.1716
痴	-11.1716
东面	-11.1716
福州市	-11.1717
气血	-11.1718
不明	-11.1719
绒毛	-11.172
辱	-11.1721
气势	-11.1723
,每个	-11.1724
7000	-11.1726
、网络	-11.1728
生意	-11.1728
;有	-11.1729
让他	-11.173
罚	-11.1731
天线	-11.1732
社会的	-11.1735
葱花	-11.1735
缠	-11.1736
输入法	-11.1737
退役	-11.1741
门,	-11.1742
协会会员	-11.1742
:10	-11.1743
炮兵	-11.1744
双赢	-11.1744
剧《	-11.1745
花岗岩	-11.1745
预报	-11.1747
壹	-11.1748
。2.	-11.1748
陕	-11.1749
而得名	-11.175
定时	-11.1751
技师	-11.1751
卑	-11.1751
节点	-11.1755
发展成为	-11.1755
爷	-11.1759
十月	-11.176
“五	-11.1761
霉	-11.1761
东临	-11.1762
君主	-11.1762
118	-11.1763
科学研究院	-11.1766
++	-11.1767
地区。	-11.1767
不够	-11.1767
精益求精	-11.177
盛产	-11.177
超声波	-11.1771
示范学校	-11.1771
卡通	-11.1771
斥	-11.1771
将以	-11.1772
骂	-11.1773
科副科长	-11.1777
染色体	-11.1778
懂	-11.1778
的各项	-11.178
轻轻	-11.1781
否	-11.1781
作品。	-11.1782
暂时	-11.1784
的前身是	-11.1785
条,	-11.1786
约束	-11.1786
这本书	-11.1786
知名企业	-11.1787
浇	-11.1787
栽	-11.1787
这张卡	-11.1789
参军	-11.179
诛	-11.1792
即使	-11.1793
于一体	-11.1795
,从此	-11.1796
口碑	-11.1796
澜	-11.1797
门外	-11.1799
运营商	-11.18
第九届	-11.18
曾担任	-11.18
近似	-11.1801
将成为	-11.1802
.....	-11.1802
保护区	-11.1803
修正	-11.1803
的形象	-11.1806
课堂教学	-11.1809
村落	-11.181
歇	-11.1812
,推动	-11.1813
太守	-11.1814
黄酒	-11.1816
淡黄色	-11.1816
旗下的	-11.1816
力度	-11.1817
髓	-11.1819
生产力	-11.1819
七十	-11.1819
出版的	-11.182
以东	-11.182
账户	-11.182
商业街	-11.1822
模仿	-11.1822
文人	-11.1825
贯彻执行	-11.1825
,先	-11.1825
得知	-11.1826
合理的	-11.1827
互助	-11.1828
参加过	-11.1829
宰	-11.1829
职场	-11.183
化妆	-11.1832
1923年	-11.1835
模板	-11.1835
特级教师	-11.1839
有毒	-11.1839
(约	-11.1841
也在	-11.1841
,实现了	-11.1842
た	-11.1843
卷,	-11.1844
壮大	-11.1845
熔点	-11.1845
清光绪	-11.1846
过度	-11.1846
。”宋	-11.1848
。1992年	-11.1848
贝壳	-11.185
泉水	-11.1854
万亩,	-11.1855
孵化	-11.1855
忠诚	-11.1857
于2002年	-11.186
奖学金	-11.1861
穿着	-11.1862
松江	-11.1862
的整体	-11.1864
局域网	-11.1864
光荣	-11.1865
之一的	-11.1865
专任教师	-11.1867
。1985年	-11.1868
信息的	-11.1869
法则	-11.187
的高度	-11.1871
不出	-11.1871
石英	-11.1872
9.5	-11.1873
的空间	-11.1877
背部	-11.1881
核准	-11.1882
人们的	-11.1882
集装箱	-11.1882
低碳	-11.1882
波斯	-11.1883
矢	-11.1883
强制	-11.1885
真人	-11.1886
大专文化	-11.1887
纶	-11.1888
研究》、《	-11.1889
银杏	-11.1891
影响。	-11.1891
主要生产	-11.1892
龙潭	-11.1893
一把	-11.1893
,导致	-11.1894
的经济	-11.1894
自杀	-11.1895
强力	-11.1895
4.7	-11.1896
不超过	-11.1897
村隶属于云南省	-11.1898
套房	-11.1899
羽毛	-11.1899
疑难	-11.1899
真实的	-11.19
的风格	-11.1901
北魏	-11.1902
▁本公司	-11.1903
总数	-11.1905
打破	-11.1906
生产加工	-11.1906
片、	-11.1906
最有	-11.1906
2名	-11.1908
堆积	-11.1912
关爱	-11.1914
皂	-11.1915
。2000年	-11.1917
特定的	-11.1917
)(	-11.1919
10月出生,	-11.192
心里	-11.192
湿润	-11.1921
配备了	-11.1921
依次	-11.1921
玻璃钢	-11.1921
妊娠	-11.1925
劳务	-11.1927
三亚	-11.1928
传记	-11.1929
。其中,	-11.193
销量	-11.1931
藉	-11.1932
,防止	-11.1934
传世	-11.1934
愿意	-11.1937
生产、	-11.1937
庄镇	-11.1938
11月生,	-11.1938
开辟	-11.1939
、南	-11.1939
社交	-11.1941
相反	-11.1942
的机会	-11.1943
(以下简称	-11.1943
照顾	-11.1943
运算	-11.1944
展示了	-11.1945
屠	-11.1945
5.6	-11.1945
药剂	-11.1945
音效	-11.1945
虾仁	-11.1947
直播	-11.1948
新材料	-11.1948
电动机	-11.1948
,非	-11.1949
掩	-11.195
自幼	-11.195
提供一个	-11.1953
畜牧业	-11.1954
春季	-11.1954
姐妹	-11.1954
,但在	-11.1955
所长	-11.1955
肆	-11.1955
数目	-11.1956
(其中	-11.1957
管理学	-11.1957
《中华人民共和国	-11.1959
经验丰富的	-11.1959
营运	-11.196
约定	-11.1961
分割	-11.1962
无所	-11.1962
夸	-11.1962
1993	-11.1962
四种	-11.1965
染料	-11.1966
深厚的	-11.1966
,北京	-11.1966
20公里	-11.1967
而被	-11.1967
配电	-11.1967
丰县	-11.1967
奠基	-11.1968
▁2003年	-11.1968
整治	-11.1969
的身份	-11.1969
于2012年	-11.197
揉	-11.1971
裂片	-11.1971
严重的	-11.198
诸侯	-11.198
拒	-11.198
自称	-11.1981
不含	-11.1981
视为	-11.1982
变更	-11.1982
一根	-11.1982
佛像	-11.1983
揽	-11.1984
建筑风格	-11.1985
开始,	-11.1986
法律、法规	-11.1986
建设的	-11.1988
域名	-11.1989
藕	-11.1991
做人	-11.1992
药用	-11.1992
拟任	-11.1994
篆	-11.1996
宝贝	-11.1997
服务业	-11.1998
被选为	-11.1998
可爱的	-11.2004
月亮	-11.2004
民歌	-11.2005
参照	-11.2005
第三方	-11.2005
别名:	-11.2005
密被	-11.2005
5.3	-11.2006
退出	-11.2008
易于	-11.2008
机型	-11.2008
,南与	-11.201
。1993年	-11.2011
睿	-11.2012
),是	-11.2013
开发商	-11.2015
,入	-11.2017
事务所	-11.2021
科植物	-11.2021
1个,	-11.2022
组装	-11.2026
太多	-11.2026
蛋糕	-11.2027
健康发展	-11.2027
每一位	-11.2027
英文名	-11.2027
翘	-11.2028
橘	-11.2029
报名	-11.2029
试题	-11.2029
保健品	-11.203
芹菜	-11.2031
其余	-11.2031
旧时	-11.2032
跌	-11.2035
,倒入	-11.2036
无毛	-11.2037
存在于	-11.2038
。1958年	-11.2038
产后	-11.2038
晏	-11.204
星系	-11.204
剩余	-11.2041
国土	-11.2042
流行的	-11.2043
游人	-11.2043
住在	-11.2043
“大	-11.2045
二中	-11.2047
,主持	-11.2047
快速发展	-11.2048
早已	-11.2048
的良好	-11.2049
《中华	-11.2052
童年	-11.2054
。指	-11.2055
大奖赛	-11.2057
该产品	-11.2057
外面	-11.2059
一小	-11.206
一样的	-11.2061
、山东	-11.2063
剧场	-11.2063
州刺史	-11.2066
个别	-11.2067
科目	-11.2068
黄油	-11.2068
规模的	-11.2068
制度,	-11.2068
以太网	-11.2069
冠心病	-11.2069
水位	-11.2069
身心	-11.2073
亩。	-11.2075
已在	-11.2075
椎	-11.2076
支出	-11.2076
写的	-11.2077
以往	-11.2078
)字	-11.2079
车、	-11.208
。建于	-11.2081
的首选	-11.2081
决心	-11.2081
,更是	-11.2083
农民人均纯收入	-11.2084
-17	-11.2084
作为一个	-11.2085
造成的	-11.2086
全军	-11.2088
点。	-11.2089
三年(	-11.209
传统文化	-11.2091
油气	-11.2092
黏	-11.2093
八路军	-11.2094
6.3	-11.2095
酒精	-11.2096
壮观	-11.2099
一般的	-11.21
顽	-11.2101
山东大学	-11.2102
权限	-11.2102
、汽车	-11.2102
绩效	-11.2105
企业提供	-11.2105
卡片	-11.2105
和中国	-11.2107
肝病	-11.2107
谜	-11.2108
5°C	-11.2109
橄榄	-11.2112
稳健	-11.2115
5克,	-11.2116
的结果	-11.2118
1990	-11.2118
公里处,	-11.2119
管理软件	-11.212
同仁	-11.212
电子产品	-11.212
易学	-11.2121
抑	-11.2122
了大量的	-11.2122
流畅	-11.2123
1月1日	-11.2125
,系	-11.2125
市公安局	-11.2125
出发,	-11.2126
碰撞	-11.2126
米,宽	-11.2127
设施齐全	-11.2127
企业。公司	-11.2128
特效	-11.213
19世纪	-11.213
去年	-11.2131
工委	-11.2132
甲状腺	-11.2138
地下水	-11.2138
钓	-11.2138
编入	-11.2139
酿酒	-11.2142
充电器	-11.2144
大学中文系	-11.2148
茸	-11.2149
建筑材料	-11.2151
造诣	-11.2151
万物	-11.2151
他还	-11.2152
▁当	-11.2154
抬	-11.2154
水平。	-11.2155
世间	-11.2156
癌症	-11.2157
遭受	-11.2157
未知	-11.2157
,基部	-11.2158
燥	-11.2159
日记	-11.216
分析和	-11.2164
副研究员	-11.2165
建设和	-11.2165
的城市	-11.2165
点,	-11.2166
注册资本	-11.2166
过敏	-11.217
辅料	-11.217
娄	-11.217
客户端	-11.2174
杀手	-11.2175
】	-11.2175
媒	-11.2176
的情况	-11.2177
同时还	-11.2179
氨基	-11.2179
亚热带	-11.218
创刊	-11.2182
溪县	-11.2184
棵	-11.2187
液晶	-11.2189
社会保障	-11.219
科研机构	-11.219
马尔	-11.2191
的规定	-11.2191
荚	-11.2193
毕业。	-11.2194
全村共有	-11.2194
,仍	-11.2196
200克	-11.2197
洗涤	-11.2199
不管	-11.22
所用	-11.22
锯齿	-11.22
0～	-11.2201
会馆	-11.2205
～19	-11.2206
宋·	-11.2206
全局	-11.2206
个村民小组,	-11.2206
被捕	-11.2207
时间内	-11.2209
小品	-11.2209
13个	-11.221
重型	-11.2212
顶尖	-11.2213
。1984年	-11.2215
钵	-11.2217
出家	-11.2217
纵向	-11.2221
的成绩	-11.2221
石膏	-11.2222
8人,	-11.2223
民航	-11.2223
种,	-11.2223
有助于	-11.2224
服务商	-11.2225
,并对	-11.2226
市场需求	-11.2229
行,	-11.2231
还会	-11.2233
一般为	-11.2233
画廊	-11.2235
藏族	-11.2236
自觉	-11.2237
司令	-11.2237
清香	-11.2238
6人	-11.2239
欧阳	-11.2239
乙醇	-11.2239
职业学院	-11.2239
七个	-11.224
六大	-11.2241
篇论文	-11.2241
当作	-11.2246
客家	-11.2247
主导	-11.2248
饮用	-11.2249
孩子的	-11.225
先将	-11.2251
7年	-11.2252
不必	-11.2252
山林	-11.2254
班主任	-11.2254
楷	-11.2254
用房	-11.2255
迁移	-11.2256
开发出	-11.2256
小孩	-11.2257
后者	-11.2258
约翰·	-11.2258
,1987年	-11.2259
城关	-11.226
"。	-11.2261
爵士	-11.2262
亚军	-11.2263
纸张	-11.2263
好像	-11.2264
为国家	-11.2264
页面	-11.2265
数年	-11.2266
协会副会长	-11.2268
管、	-11.2268
简易	-11.2269
5项	-11.227
。”唐	-11.2271
的水	-11.2271
向下	-11.2273
的环境	-11.2273
常委	-11.2273
国际市场	-11.2274
把它	-11.2275
滕	-11.2276
批准的	-11.2277
、商务	-11.2277
乳腺	-11.2277
高质量的	-11.2277
东亚	-11.2278
,1998年	-11.2278
华中	-11.2279
具有良好的	-11.228
楹联	-11.2281
德·	-11.2282
中国书画	-11.2282
外侧	-11.2283
。2012年	-11.2283
步枪	-11.2285
台阶	-11.2286
国营	-11.2287
的相关	-11.2289
竟然	-11.2289
养殖业	-11.2292
等产品	-11.2292
管理处	-11.2292
墓地	-11.2293
的知识	-11.2294
誓	-11.2295
地狱	-11.2295
珠江	-11.2297
洽谈	-11.2298
卦	-11.23
演唱会	-11.2303
访问学者	-11.2303
开发建设	-11.2304
南面	-11.2306
两边	-11.2308
建设,	-11.2308
法官	-11.2311
,2010年	-11.2312
矿产	-11.2312
楼、	-11.2313
子弟	-11.2313
伊朗	-11.2313
附录	-11.2313
唱歌	-11.2315
难题	-11.2315
:30	-11.2315
落后	-11.2315
同行业	-11.2316
相互作用	-11.2317
相对于	-11.2317
适于	-11.2317
灵感	-11.2319
刊登	-11.2319
发表于	-11.2321
詹	-11.2322
交通便捷	-11.2322
各式	-11.2323
水泵	-11.2323
演员,	-11.2324
院内	-11.2325
等众多	-11.2325
长春市	-11.2327
螺纹	-11.2328
《新	-11.233
垦	-11.233
毫升	-11.233
索尼	-11.2331
烛	-11.2332
,增强	-11.2332
木耳	-11.2332
曰:	-11.2333
的存在	-11.2333
现有教职工	-11.2334
江山	-11.2337
胀	-11.2342
的独特	-11.2344
酚	-11.2345
树皮	-11.2345
油、	-11.2346
舰队	-11.2346
也很	-11.2348
ん	-11.2348
海口	-11.2352
缴	-11.2353
炙	-11.2354
长途	-11.2356
以西	-11.2357
附有	-11.2358
城内	-11.2359
上映	-11.2359
分辨率:	-11.236
乌克兰	-11.236
石门	-11.2361
目前已	-11.2361
服务平台	-11.2361
16个	-11.2362
搅拌均匀	-11.2367
开拓创新	-11.2369
处、	-11.2369
/1	-11.2369
富裕	-11.2369
行使	-11.237
约3	-11.2371
古朴	-11.2372
状。	-11.2373
胃肠	-11.2373
红花	-11.2373
救助	-11.2374
,否则	-11.2374
食盐	-11.2374
书·	-11.2375
宁静	-11.2378
冰糖	-11.238
装潢	-11.2381
排出	-11.2381
理论和	-11.2383
全方位的	-11.2383
的真实	-11.2384
按钮	-11.2386
街头	-11.2387
我院	-11.2388
山乡	-11.239
期限	-11.2391
娟	-11.2393
城市建设	-11.2393
激活	-11.2393
股、	-11.2393
也没有	-11.2394
行驶	-11.2394
-),	-11.2397
贷	-11.2397
中国传统	-11.24
70年代	-11.2401
取名	-11.2401
1922年	-11.2402
克服	-11.2402
镀	-11.2403
河西	-11.2403
850	-11.2403
武警	-11.2403
更名	-11.2405
校风	-11.2409
最著名的	-11.241
经验的	-11.2411
焖	-11.2412
,是集	-11.2414
深处	-11.2417
抵抗	-11.2417
龙山	-11.2418
戊	-11.2418
3-4	-11.2418
桦	-11.2419
以内	-11.2419
贯彻落实	-11.2421
矣。”	-11.2421
始创于	-11.2422
^	-11.2422
是全国	-11.2424
发售	-11.2425
1300	-11.2425
清乾隆	-11.2426
科主任	-11.2428
销售网络	-11.2428
遵	-11.2428
(2	-11.2429
编排	-11.243
女王	-11.2431
,女,汉族,	-11.2432
酬	-11.2432
漂亮	-11.2433
有限公司位于	-11.2434
类型的	-11.2434
113	-11.2436
2013	-11.2437
。1994年	-11.2438
们的	-11.2438
粉碎	-11.244
外来	-11.244
核心期刊	-11.2441
简化	-11.2445
协会理事	-11.2445
万字	-11.2446
不可能	-11.2447
莹	-11.2448
嗜	-11.2448
脓	-11.2449
工商管理	-11.2449
遥感	-11.2449
公告	-11.245
亮点	-11.2451
颈部	-11.2451
甘蔗	-11.2452
轿车	-11.2452
黄色,	-11.2452
安全性	-11.2453
参与了	-11.2454
趣味	-11.2455
仗	-11.2455
聂	-11.2456
领导干部	-11.2456
解决方案。	-11.2456
20多	-11.2458
印度尼西亚	-11.2458
绿化率	-11.2459
设计制造	-11.246
琦	-11.246
微量元素	-11.246
身材	-11.2461
。1999年	-11.2461
培训机构	-11.2462
柠檬	-11.2462
。若	-11.2463
本县	-11.2463
代表作	-11.2464
个教学班,	-11.2465
,紧邻	-11.2465
多篇论文	-11.2466
品种。	-11.2467
波长	-11.2468
科研工作	-11.2468
寄生	-11.2468
必然	-11.247
“全国	-11.247
用电	-11.2471
入伍	-11.2472
32.	-11.2472
,造成	-11.2472
颜料	-11.2473
负载	-11.2477
拉斯	-11.2479
巧克力	-11.248
让我们	-11.2481
1984	-11.2481
负担	-11.2483
文教	-11.2484
研究员,	-11.2484
唯一一家	-11.2484
墓葬	-11.2484
本作	-11.2485
30余	-11.2485
做出了	-11.2485
经验丰富	-11.2486
批准,	-11.2487
▁随着	-11.2489
喷涂	-11.2492
的好	-11.2492
所辖	-11.2492
尖端	-11.2493
更大的	-11.2494
二十四	-11.2495
粉、	-11.2496
嘉宾	-11.2497
录像	-11.25
八十	-11.25
不懈努力	-11.25
。1982年	-11.25
―	-11.2502
纪律	-11.2502
网卡	-11.2502
计生	-11.2503
在他	-11.2503
6公里	-11.2503
祐	-11.2504
迁至	-11.2504
不起	-11.2504
曲艺	-11.2504
腕	-11.2506
青年教师	-11.2506
投资有限公司	-11.2507
充足	-11.2508
相连,	-11.2509
堪称	-11.2509
开元	-11.251
著述	-11.251
之中。	-11.251
人民检察院	-11.251
统筹	-11.2512
器械	-11.2513
马铃薯	-11.2516
传真	-11.2516
扰	-11.2518
用法	-11.2521
′	-11.2525
十五年	-11.2527
分支机构	-11.2528
真相	-11.2529
论文《	-11.2529
道光	-11.253
、商业	-11.253
太祖	-11.2534
皱	-11.2534
组分	-11.2534
盛世	-11.2536
剥	-11.2536
杏仁	-11.2537
染色	-11.254
武林	-11.2541
陡	-11.2542
双手	-11.2542
促销	-11.2543
美元	-11.2543
等相关	-11.2545
流经	-11.2545
亏	-11.2545
岑	-11.2545
岂	-11.2546
书,	-11.2546
宏伟	-11.2548
的意义	-11.2548
氨酸	-11.2551
确立	-11.2552
蛛	-11.2559
3-5	-11.2562
能使	-11.2563
。1997年	-11.2563
,一直	-11.2566
苏格兰	-11.2566
本片	-11.2567
足以	-11.2567
,1988年	-11.2569
核算	-11.2569
。1988年	-11.257
先后获得	-11.2571
盐酸	-11.2571
南开大学	-11.2572
众多的	-11.2572
威海	-11.2573
止痛	-11.2574
1920年	-11.2575
屋顶	-11.2575
本市	-11.2575
对待	-11.2576
实验室、	-11.2577
山峰	-11.2579
以外的	-11.258
大概	-11.258
证实	-11.258
调用	-11.2581
-2-	-11.2583
合唱	-11.2584
专业知识	-11.2585
之前,	-11.2585
泳	-11.2585
,尤	-11.2586
单词	-11.2586
米兰	-11.259
导电	-11.2592
还能	-11.2592
的心	-11.2593
鳍	-11.2597
世代	-11.2597
捕捉	-11.26
168	-11.2601
基础理论	-11.2601
1980	-11.2604
、创新	-11.2604
来自于	-11.2605
农林	-11.2606
湖畔	-11.2607
情况,	-11.2608
石家庄市	-11.2608
距县城	-11.2608
实践中	-11.2609
▁其他	-11.261
镇江	-11.2611
彪	-11.2612
提交	-11.2613
”或“	-11.2613
国家税务局	-11.2613
立志	-11.2613
3.9	-11.2614
农家	-11.2615
网民	-11.2615
1～	-11.2615
布拉	-11.2618
不大	-11.262
大西洋	-11.262
订单	-11.262
高大	-11.2621
性好	-11.2625
热门	-11.2625
高尔夫	-11.2627
威尔	-11.2627
学会副会长	-11.2627
益气	-11.2628
南岸	-11.2628
坚强	-11.2629
,1985年	-11.263
操纵	-11.263
、红	-11.2631
工程有限公司	-11.2631
台、	-11.2633
启发	-11.2634
矿石	-11.2635
基础教育	-11.2635
组建的	-11.2636
一间	-11.2637
仪器仪表	-11.2637
小叶	-11.2637
、旅游	-11.2638
组成部分	-11.2639
专为	-11.264
外地	-11.264
过来	-11.2641
▁四	-11.2641
水量	-11.2642
寂	-11.2642
第十届	-11.2642
艺术节	-11.2643
,南邻	-11.2645
;同时	-11.2645
人均收入	-11.2645
京都	-11.2645
者为	-11.2649
用手	-11.2649
自动控制	-11.2652
教育家	-11.2654
孕妇	-11.2655
关系的	-11.2655
生育	-11.2656
▁◇	-11.2656
,1999年	-11.2658
委员、	-11.2658
,参加了	-11.2659
故乡	-11.266
任命	-11.266
人民政府批准	-11.2661
60%	-11.2662
三项	-11.2663
(/)	-11.2663
材料:	-11.2664
捉	-11.2664
,受	-11.2666
不规则	-11.2667
激烈	-11.2667
发音	-11.2668
大面积	-11.2669
淘宝	-11.2669
空白	-11.267
线,	-11.267
雍正	-11.2671
舆	-11.2674
(今属	-11.2674
网站。	-11.2676
的文件	-11.2678
对策	-11.2679
开口	-11.2679
鳃	-11.2679
的好评	-11.268
烷	-11.268
全力	-11.268
幼年	-11.2681
认为,	-11.2682
北平	-11.2682
惠州	-11.2683
公司产品	-11.2684
对此	-11.2684
,西与	-11.2685
地表	-11.2686
天体	-11.2687
航运	-11.2688
落成	-11.2688
碱性	-11.2688
监视	-11.2689
演变	-11.269
妈	-11.269
兴奋	-11.2691
关系,	-11.2691
甲级	-11.2693
。它的	-11.2695
秀丽	-11.2695
株式会社	-11.2696
独有的	-11.2698
,故称	-11.2699
不仅是	-11.2701
金华	-11.2701
所致	-11.2701
八个	-11.2703
干旱	-11.2703
夜间	-11.2704
啦	-11.2705
残留	-11.2705
清华	-11.2706
,旨在	-11.2707
匙	-11.2707
体操	-11.2707
踪	-11.2707
守护	-11.2707
是利用	-11.2708
本来	-11.2709
溪镇	-11.271
曾获得	-11.2712
116	-11.2712
遵义	-11.2714
偶然	-11.2716
巩	-11.2719
求学	-11.2719
诚信为本	-11.2719
总额	-11.2719
喇叭	-11.2719
。形容	-11.2721
野生动物	-11.2721
答案	-11.2723
95%	-11.2724
”()	-11.2725
细小	-11.2725
嘉兴	-11.2728
妹妹	-11.2728
高标准	-11.273
▁8.	-11.273
1983	-11.2732
纪录片	-11.2732
古籍	-11.2733
理论与	-11.2735
参考。	-11.2735
大学毕业	-11.2736
执业	-11.2737
多媒体教室	-11.2738
传授	-11.2741
的努力	-11.2742
学院副院长	-11.2743
蚊	-11.2743
海湾	-11.2744
图书室	-11.2746
的时代	-11.2747
又称为	-11.2748
罕见	-11.2748
▁基本参数	-11.2749
迫	-11.2749
无效	-11.2749
1400	-11.2749
中国文化	-11.2751
可以用	-11.2751
食堂	-11.2753
复习	-11.2753
亩,建筑面积	-11.2754
二百	-11.2756
保证了	-11.2756
暴力	-11.2757
理由	-11.2761
と	-11.2761
裔	-11.2762
扭	-11.2763
标准间	-11.2763
旬	-11.2764
毫无	-11.2765
的角色	-11.2766
企业集团	-11.2767
意为	-11.2767
足球运动员,	-11.2768
尽管	-11.2768
副主任、	-11.2768
▁李	-11.2769
话剧	-11.2769
伟大的	-11.277
情况下	-11.277
西山	-11.2771
出国	-11.2771
人均纯收入	-11.2772
底座	-11.2773
感冒	-11.2773
相接	-11.2773
细长	-11.2773
6.6	-11.2774
曾是	-11.2775
懒	-11.2775
充满了	-11.2775
协会常务理事	-11.2775
采矿	-11.2776
1991	-11.2776
5.7	-11.2777
嘉奖	-11.2777
长征	-11.2777
业务。	-11.2778
政治家	-11.2778
加工、	-11.2778
转化为	-11.2778
瑜伽	-11.2779
保管	-11.278
星级	-11.2783
的秘密	-11.2784
需求。	-11.2786
5～	-11.2787
固化	-11.2787
淄博	-11.2789
,1992年	-11.2789
纹,	-11.2791
未来的	-11.2794
会在	-11.2795
第8	-11.2797
无比	-11.2798
内衣	-11.2799
114	-11.2799
陆地	-11.2799
,成立于	-11.2799
这项	-11.28
俄语	-11.2802
半径	-11.2803
的爱情	-11.2808
演员。	-11.2809
来了	-11.2809
,坐落于	-11.2809
后方	-11.281
产品研发	-11.281
,下设	-11.281
,必须	-11.2812
爆香	-11.2812
河镇	-11.2812
吨,	-11.2815
巧妙	-11.2817
成为中国	-11.2817
县境内	-11.2819
风暴	-11.2819
商业中心	-11.2819
,他的	-11.282
叫“	-11.282
匹配	-11.2822
也被	-11.2827
全称	-11.2827
价值观	-11.2828
▁8、	-11.2829
,称	-11.2829
交友	-11.283
牟	-11.283
参加全国	-11.2831
(5张)	-11.2834
主要负责	-11.2835
抗日战争	-11.2837
人民群众	-11.2837
奶油	-11.2838
彝	-11.2838
积累了	-11.284
致力	-11.284
运动场	-11.2841
主唱	-11.2843
老百姓	-11.2845
工业企业	-11.2845
博士研究生	-11.2845
砍	-11.2846
枸杞	-11.2848
外界	-11.2848
形体	-11.2849
组织开展	-11.285
历史悠久,	-11.285
铁矿	-11.2851
国家重点	-11.2852
劈	-11.2854
185	-11.2854
神奇	-11.2855
特点是	-11.2857
▁开	-11.2858
交换机	-11.2859
取消	-11.2859
河谷	-11.286
汽油	-11.286
征服	-11.2862
这条	-11.2862
汇编	-11.2864
罗斯	-11.2864
市教育局	-11.2865
字符	-11.2865
代号	-11.2867
音乐会	-11.2868
。1987年	-11.2868
。1983年	-11.2869
元帅	-11.287
普通的	-11.287
前端	-11.287
京师	-11.2872
记·	-11.2873
翡翠	-11.2875
坚硬	-11.2875
法、	-11.2876
。1986年	-11.2876
的形成	-11.2876
研究开发	-11.2877
之所以	-11.2878
圭	-11.2879
掠	-11.2879
路交汇处	-11.288
饥	-11.288
毫米,适宜种植	-11.2882
万人,	-11.2882
此处	-11.2882
葡萄糖	-11.2882
随笔	-11.2884
经验和	-11.2885
戚	-11.2885
,1986年	-11.2886
珍品	-11.2886
十二年	-11.2887
学习,	-11.2888
175	-11.2889
政府部门	-11.2891
很容易	-11.2892
,曾在	-11.2892
一站式	-11.2892
300克	-11.2894
防范	-11.2895
构图	-11.2895
》()	-11.2895
推崇	-11.2896
养成	-11.2897
,全国	-11.2897
二世	-11.2899
双重	-11.2899
债务	-11.2899
摄影师	-11.29
很小	-11.29
精力	-11.2903
50米	-11.2903
,占	-11.2905
文学作品	-11.2906
共产党员	-11.2906
受体	-11.291
小枝	-11.2913
搞好	-11.2914
全民	-11.2914
是香港	-11.2915
春节	-11.2915
底,	-11.2916
拼搏	-11.2917
呈现出	-11.2921
开发了	-11.2922
神仙	-11.2923
商铺	-11.2924
病、	-11.2924
9月生,	-11.2926
雄厚的	-11.2926
使人	-11.2928
公子	-11.2928
样式	-11.293
配套设施	-11.2933
中央党校	-11.2934
性别	-11.2934
标准。	-11.2935
功能的	-11.2935
3厘米	-11.2935
坚定	-11.2937
京城	-11.294
议员	-11.2941
耻	-11.2942
脏	-11.2943
室,	-11.2944
,培养	-11.2945
子宫	-11.2945
画展	-11.2947
°C,	-11.2948
汇聚	-11.2949
查处	-11.295
介入	-11.295
改变了	-11.295
、杨	-11.2951
占用	-11.2951
的目的。	-11.2951
机械有限公司	-11.2952
文史	-11.2952
企业形象	-11.2954
拼音	-11.2956
汕头市	-11.2956
崇尚	-11.2957
工程机械	-11.2957
构筑	-11.2963
庞大的	-11.2966
》由	-11.2968
。1995年	-11.297
改装	-11.2971
信息中心	-11.2971
开设了	-11.2971
柔毛	-11.2972
工程”	-11.2972
高汤	-11.2973
肽	-11.2973
导向	-11.2973
哈尔滨市	-11.2975
场面	-11.2976
熟练	-11.2976
全体员工	-11.2976
向东	-11.2977
)人,	-11.2977
和应用	-11.2978
管理模式	-11.2979
旁边	-11.2981
家村	-11.2981
景德镇	-11.2981
服务体系	-11.2981
捞起	-11.2982
,先后在	-11.2983
我县	-11.2984
还可	-11.2985
学术会议	-11.2986
备受	-11.2988
信用卡	-11.2989
青龙	-11.299
推理	-11.2991
民事	-11.2992
底层	-11.2993
俭	-11.2994
尊贵	-11.2996
频繁	-11.2997
糯	-11.2997
。擅长	-11.2998
一周	-11.2999
信息,	-11.3
。1990年	-11.3002
一段时间	-11.3002
,力求	-11.3003
经营的	-11.3003
制定了	-11.3003
搏	-11.3004
5.4	-11.3005
实用的	-11.3006
医用	-11.3007
涂层	-11.3007
泌尿外科	-11.3008
奇特	-11.3009
器具	-11.3009
包裹	-11.301
皋	-11.301
救援	-11.301
于2001年	-11.3011
彝族	-11.3012
的方向	-11.3013
团队,	-11.3013
西区	-11.3014
先后被	-11.3015
折叠	-11.3016
选取	-11.3016
、香港	-11.3017
野外	-11.3017
落叶	-11.3017
意境	-11.3017
酒店位于	-11.3018
产品和	-11.3019
校内	-11.3019
庆典	-11.302
更大	-11.302
贩	-11.3022
海鲜	-11.3024
草坪	-11.3024
管理经验	-11.3024
为纪念	-11.3025
众人	-11.3025
111	-11.3025
一步	-11.3027
立体声	-11.303
大棚	-11.303
完工	-11.3033
遥控	-11.3033
高贵	-11.3034
拐	-11.3034
对外开放	-11.3034
。比喻	-11.3036
14个	-11.3038
凭着	-11.3038
艰难	-11.304
罗汉	-11.3041
10万	-11.3041
再度	-11.3042
1912年	-11.3045
为一体,	-11.3045
之初	-11.3045
188	-11.3046
潜能	-11.3046
老化	-11.3047
事宜	-11.3047
收藏。	-11.3048
嘉庆	-11.3048
,省	-11.3049
抽象	-11.305
10公里	-11.305
▁张	-11.3053
艰苦	-11.3053
笔画	-11.3054
经济师	-11.3056
3米	-11.3056
丽江	-11.3056
末,	-11.3057
的过程中	-11.3059
陈皮	-11.306
,这就是	-11.306
食材	-11.3061
房地产开发有限公司	-11.3063
潮湿	-11.3063
催化剂	-11.3064
1986	-11.3064
通行	-11.3064
被人	-11.3064
县市	-11.3065
3名	-11.3066
隆起	-11.3066
二层	-11.3068
党建	-11.3069
衡阳	-11.3069
城东	-11.307
同济大学	-11.307
公司生产的	-11.3071
大中型	-11.3072
终止	-11.3074
字节	-11.3075
副院长	-11.3076
捐赠	-11.3077
草本	-11.3077
章节	-11.3079
桂花	-11.308
的创作	-11.308
竿	-11.3081
5.8	-11.3081
除去	-11.3082
徵	-11.3083
》;	-11.3084
的制作	-11.3085
博士,	-11.3086
专长	-11.3087
工作站	-11.3087
萼	-11.3088
。1996年	-11.309
东区	-11.3091
查找	-11.3095
拯救	-11.3095
门口	-11.3097
等多家	-11.3098
亲王	-11.3098
即成	-11.3099
定律	-11.3099
系统工程	-11.31
村民委员会	-11.31
蒸发	-11.3104
军工	-11.3106
德州	-11.3106
护士	-11.3109
等国家和地区	-11.3111
梳	-11.3111
接地	-11.3112
票据	-11.3114
133	-11.3117
人大常委会	-11.3117
绢	-11.3117
1982	-11.3118
一枚	-11.3119
项目,	-11.312
不满	-11.312
,南临	-11.3121
出于	-11.3123
工序	-11.3124
天皇	-11.3126
人民法院	-11.3126
市场,	-11.3127
,东与	-11.3127
意志	-11.3127
从中	-11.3128
外文	-11.3131
等工作。	-11.3131
6.2	-11.3132
绿色食品	-11.3133
国有企业	-11.3133
收藏家	-11.3134
骨骼	-11.3134
重点实验室	-11.3134
婉	-11.3136
历年	-11.3136
构成的	-11.3137
可根据	-11.3138
一等奖。	-11.3139
首发	-11.3139
建设、	-11.314
7人,	-11.314
电镀	-11.3141
常州市	-11.3142
。每	-11.3144
合著	-11.3144
▁2012年	-11.3145
性价比	-11.3149
轮廓	-11.3149
鲸	-11.3151
彰显	-11.3151
很高	-11.3151
动员	-11.3152
仪器设备	-11.3152
一千	-11.3153
始祖	-11.3154
复合材料	-11.3154
1919年	-11.3155
敕	-11.3155
有可能	-11.3156
巴尔	-11.3157
渴望	-11.3157
十一年	-11.3158
侵	-11.3159
学习和	-11.316
矿物质	-11.316
う	-11.316
远销	-11.3161
,1993年	-11.3161
植物油	-11.3161
》入选	-11.3161
中队	-11.3161
发展。	-11.3165
员。	-11.3167
眼前	-11.3169
的价值	-11.317
;而	-11.3171
,同时也是	-11.3173
刻画	-11.3173
茯苓	-11.3173
134	-11.3174
30公里	-11.3174
轧	-11.3176
量的	-11.3177
太原市	-11.3178
之外,	-11.3179
他为	-11.318
省内外	-11.3181
彩虹	-11.3181
前列	-11.3181
上层	-11.3184
翅膀	-11.3185
多样	-11.3186
1921年	-11.3187
、无	-11.3187
、广东	-11.3187
北纬	-11.3188
管理办法	-11.3188
矿区	-11.3188
驾驶员	-11.3189
高品质的	-11.3189
之都	-11.3189
参编	-11.319
带宽	-11.319
之美	-11.319
感谢	-11.3193
机车	-11.3195
、马	-11.3196
食用菌	-11.3197
广阔	-11.3197
管理。	-11.3198
・	-11.3198
的优秀	-11.3198
检修	-11.3199
生活。	-11.3201
西面	-11.3202
常住人口	-11.3202
▁自	-11.3202
经商	-11.3205
即位	-11.3205
售后	-11.3207
电力系统	-11.3207
1924年	-11.3207
另一种	-11.3207
索引	-11.3207
匈牙利	-11.3207
是我	-11.3208
簿	-11.3211
,宽	-11.3212
防盗	-11.3212
·阿	-11.3214
大坝	-11.3215
禅师	-11.3216
史学	-11.3216
地中海	-11.3217
规章	-11.3219
切除	-11.3219
万平米	-11.3219
质量控制	-11.3223
科技进步一等奖	-11.3223
较小	-11.3225
上午	-11.3226
副主任,	-11.3227
了一批	-11.3227
集邮	-11.3228
搜集	-11.3228
学》	-11.3229
大兴	-11.3232
从未	-11.3232
预警	-11.3232
摆脱	-11.3234
编写的	-11.3236
之作	-11.3236
先后担任	-11.3238
鲤	-11.3239
型的	-11.324
女演员	-11.3241
不多	-11.3241
“四	-11.3242
加工厂	-11.3242
教委	-11.3243
大学本科	-11.3243
交汇	-11.3245
成形	-11.3245
的物质	-11.3245
参展	-11.3245
做为	-11.3247
团委书记	-11.3247
九江	-11.3249
的心理	-11.325
研讨	-11.325
编导	-11.325
,1996年	-11.3251
有利	-11.3251
的活动	-11.3251
与中国	-11.3252
实验学校	-11.3252
指向	-11.3252
纪委书记	-11.3253
干线	-11.3254
,取得了	-11.3254
看起来	-11.3254
纯正	-11.3257
树种	-11.3258
的诊治	-11.3259
英才	-11.3259
隐居	-11.3259
中场	-11.3259
岔	-11.326
田间	-11.326
双层	-11.3261
8月生,	-11.3262
1米	-11.3262
历史悠久	-11.3262
声道	-11.3263
衍生	-11.3264
,1983年	-11.3264
添加剂	-11.3264
区域内	-11.3266
大自然	-11.3267
工商联	-11.3268
研发、	-11.3268
波动	-11.3268
首位	-11.3268
不断完善	-11.3271
已形成	-11.3271
刑法	-11.3272
,经常	-11.3272
猜	-11.3272
,让您	-11.3274
性状	-11.3274
学术研究	-11.3275
工程专业	-11.3275
刊物上发表	-11.3275
,随后	-11.3277
啸	-11.3277
总体规划	-11.3278
可调	-11.3278
贴近	-11.3279
地主	-11.3279
邯郸	-11.328
的有关	-11.328
切实	-11.328
5米,	-11.3283
打造的	-11.3284
名录	-11.3284
沿着	-11.3285
修行	-11.3287
建立起	-11.3289
之意	-11.3291
分化	-11.3291
放射性	-11.3291
特有	-11.3292
钢筋	-11.3292
一侧	-11.3292
▁『	-11.3292
城北	-11.3294
水深	-11.3296
。1956年	-11.3297
美景	-11.3298
阿里	-11.33
研究生院	-11.33
片区	-11.33
。主要从事	-11.3301
茄子	-11.3302
原型	-11.3303
126	-11.3304
咳	-11.3305
种族	-11.3305
奖章	-11.3306
种植业	-11.3307
人之	-11.331
经纪	-11.3311
中草药	-11.3312
。全村	-11.3313
科学管理	-11.3313
高低	-11.3314
优秀人才	-11.3315
解答	-11.3315
6.4	-11.3316
执着	-11.3318
生产和	-11.3318
亚太	-11.332
兑	-11.3321
中山市	-11.3321
十里	-11.3322
辞典	-11.3322
科员	-11.3323
有一种	-11.3325
河水	-11.3325
并组织实施	-11.3327
米的	-11.3329
面积为	-11.333
等大型	-11.3331
8.2	-11.3331
技术员	-11.3332
曾参加	-11.3332
棠	-11.3333
相等	-11.3333
表情	-11.3334
酵母	-11.3335
国内知名	-11.3335
卒于	-11.3335
足球运动员	-11.3336
—)	-11.3336
,其中有	-11.3339
交互	-11.334
场上	-11.3343
河县	-11.3343
刀具	-11.3344
顾问。	-11.3345
316	-11.3345
机等	-11.3347
武功	-11.3347
境外	-11.3348
聚会	-11.3348
万平方米	-11.3348
印尼	-11.3348
昊	-11.3349
直升机	-11.3349
镶嵌	-11.3349
中的一个	-11.335
的业务	-11.335
的选择	-11.335
的事	-11.3352
前方	-11.3352
每亩	-11.3353
素有	-11.3353
原来的	-11.3354
划归	-11.3356
磁盘	-11.3358
潮州	-11.336
威力	-11.3361
留在	-11.3364
焦点	-11.3364
棺	-11.3365
风格,	-11.3365
故名	-11.3365
邮电	-11.3366
明亮	-11.3368
一卷	-11.3369
冬瓜	-11.3369
生前	-11.3369
认证。	-11.337
荟萃	-11.337
封装	-11.337
,直至	-11.337
信贷	-11.3371
月刊	-11.3373
聊天	-11.3375
半年	-11.3375
送到	-11.3376
衡量	-11.3376
的成功	-11.3377
,维护	-11.3378
作出了	-11.3379
师专	-11.3382
等项目	-11.3384
腹泻	-11.3384
▁页	-11.3384
桔	-11.3385
探险	-11.3385
优美的	-11.3387
泰安	-11.3387
兼职教授	-11.3387
精湛的	-11.3387
最专业的	-11.3389
公立	-11.339
,然而	-11.3392
绿色,	-11.3392
:9	-11.3393
,又有	-11.3396
其所	-11.3396
委员会委员,	-11.3397
2米	-11.3398
1999	-11.3398
人次	-11.3398
本质	-11.3399
ア	-11.3399
小提琴	-11.34
变异	-11.3402
分级	-11.3402
重量:	-11.3402
176	-11.3403
武帝	-11.3403
芋	-11.3404
维奇	-11.3405
吉林大学	-11.3405
,四川省	-11.3406
诗集	-11.3407
付出	-11.3408
积极参与	-11.3408
文学创作	-11.3409
外事	-11.3412
,1982年	-11.3413
的成长	-11.3416
派遣	-11.3416
常有	-11.3419
做过	-11.342
紫外线	-11.3426
6～	-11.3427
揭示	-11.3429
冶炼	-11.3431
珊	-11.3432
行政村	-11.3432
很大的	-11.3432
凭证	-11.3433
约有	-11.3434
,是以	-11.3436
▁2002年	-11.3436
瓦尔	-11.3437
窖	-11.3437
研究会会员	-11.3438
外伤	-11.3439
华山	-11.3439
检察	-11.3439
珍藏	-11.344
位,	-11.3441
受伤	-11.3443
总资产	-11.3443
加入中国共产党,	-11.3443
钓鱼	-11.3446
探测器	-11.3446
7.8	-11.3446
网、	-11.3446
,祖籍	-11.3447
厂区	-11.3447
遗产	-11.3448
特点,	-11.3449
并有	-11.345
,有着	-11.345
。2013年	-11.3452
一栋	-11.3452
的销售	-11.3452
质量管理体系认证	-11.3453
人员的	-11.3453
委员。	-11.3454
主要内容	-11.3455
简便	-11.3456
较大,	-11.3456
概	-11.3458
旅游区	-11.3458
学子	-11.3459
侄	-11.3459
き	-11.3459
出入	-11.3461
到位	-11.3463
马上	-11.3463
阴谋	-11.3464
肥料	-11.3465
培训基地	-11.3465
邀	-11.3466
配音	-11.3466
三千	-11.3466
等部门	-11.3469
10米	-11.3469
核心竞争力	-11.3469
崇拜	-11.3469
长期以来	-11.347
文件夹	-11.347
管理工作。	-11.3471
型企业	-11.3472
窥	-11.3473
争议	-11.3474
封面	-11.3474
宛	-11.3476
州区	-11.3477
水肿	-11.3481
两层	-11.3482
樱桃	-11.3482
骑兵	-11.3482
展厅	-11.3483
教育、	-11.3484
1100	-11.3484
300米	-11.3485
。1989年	-11.3486
加固	-11.3486
震撼	-11.3486
专业人员	-11.3487
德尔	-11.3488
原籍	-11.3488
孚	-11.3488
,其中包括	-11.349
中将	-11.349
研究”	-11.349
兜	-11.349
厦门大学	-11.349
的有效	-11.3491
生态学	-11.3491
(学名:)为	-11.3491
的一项	-11.3491
柳州	-11.3491
研究会理事	-11.3493
な	-11.3493
两座	-11.3493
机动	-11.3495
港区	-11.3495
成效	-11.3495
,1997年	-11.3496
肝脏	-11.3496
的健康	-11.3496
,总投资	-11.3496
,终于	-11.3499
,上海	-11.3504
,故名	-11.3505
密切	-11.3505
(其间:	-11.3505
彰	-11.3505
钱币	-11.3506
的特点,	-11.3506
的任务	-11.3507
永安	-11.351
闯	-11.3511
基准	-11.3512
因病	-11.3513
专区	-11.3513
▁示例	-11.3514
电解	-11.3515
钳	-11.3515
确实	-11.3515
调制	-11.3516
芯片组	-11.3516
公司以	-11.3517
▁酒店	-11.3517
注释	-11.3518
,1994年	-11.3519
-45	-11.3519
个村民组	-11.352
全国优秀	-11.3521
师傅	-11.3523
乘坐	-11.3526
负责全市	-11.3526
油,	-11.3526
便可	-11.3526
爸爸	-11.3527
初始	-11.3528
等内容	-11.3529
加水	-11.3529
标准,	-11.3529
10人	-11.353
便捷的	-11.353
命名为“	-11.3531
剖析	-11.3532
多次参加	-11.3533
入味	-11.3534
钨	-11.3534
里亚	-11.3536
,进而	-11.3536
蜘蛛	-11.3537
先进学校	-11.3537
逮捕	-11.3542
去了	-11.3542
档次	-11.3544
生命的	-11.3545
源头	-11.3545
,总面积	-11.3545
7人	-11.3546
肘	-11.3546
安庆	-11.3547
情人	-11.355
。作品	-11.3551
名学生	-11.3551
5月,	-11.3551
分配到	-11.3552
全资子公司	-11.3555
拆除	-11.3556
博览	-11.3556
、最	-11.3557
措	-11.3557
敖	-11.3558
310	-11.3559
0~	-11.356
临床医学	-11.356
百强	-11.356
谐	-11.3562
画册	-11.3562
相结合,	-11.3563
拘	-11.3564
乐趣	-11.3565
沛	-11.3565
,北邻	-11.3565
构思	-11.3565
接口:	-11.3566
本书以	-11.357
名为“	-11.357
万人。	-11.3571
管理咨询	-11.3572
会出现	-11.3574
微笑	-11.3575
名片	-11.3575
管理者	-11.3576
莆田	-11.3578
美术学院	-11.3578
俩	-11.358
居家	-11.3581
会计师	-11.3582
。拥有	-11.3583
一手	-11.3584
缀	-11.3585
导入	-11.3586
迷你	-11.3586
发展为	-11.3587
惧	-11.3587
出去	-11.3589
宫殿	-11.3589
漳	-11.3589
知识分子	-11.359
腐败	-11.3592
齐鲁	-11.3593
芹	-11.3594
委员会主任	-11.3594
札	-11.3596
о	-11.3597
为民	-11.3597
斯基	-11.3598
行政村,属于山区。	-11.3599
学校占地面积	-11.36
见解	-11.36
以及其他	-11.36
尽可能	-11.36
件,	-11.3602
条例》	-11.3604
给你	-11.3604
平民	-11.3605
妇联	-11.3606
测试仪	-11.3606
的道路	-11.3606
蓝天	-11.3609
股权	-11.3609
7.1	-11.3609
表皮	-11.3609
国家的	-11.361
部首:	-11.361
机房	-11.361
面积达	-11.3613
年底	-11.3614
团团长	-11.3614
圃	-11.3615
服务机构	-11.3615
抗体	-11.3616
南美	-11.3616
人类的	-11.3617
,比对照	-11.3617
总工会	-11.3619
1/4	-11.3621
茹	-11.3622
实验小学	-11.3622
创造出	-11.3623
彩绘	-11.3626
位。	-11.3628
门前	-11.363
工农	-11.363
艺术设计	-11.3631
机能	-11.3631
出锅	-11.3631
多次被	-11.3631
178	-11.3632
发明专利	-11.3634
政协常委	-11.3635
位于中国	-11.3636
金属材料	-11.3637
汤汁	-11.3641
强,	-11.3646
。书中	-11.3647
12年	-11.3647
汶	-11.3648
引起了	-11.3648
传达	-11.3648
厥	-11.365
厅、	-11.3651
采收	-11.3652
恐惧	-11.3652
九州	-11.3652
(学名:)	-11.3654
社会发展	-11.3654
个月	-11.3655
资源的	-11.3656
为邻	-11.3657
通俗易懂	-11.3659
,注册资本	-11.366
轨迹	-11.366
理化	-11.3662
公益性	-11.3666
呀	-11.3666
常识	-11.3667
沧	-11.3667
樵	-11.3668
美化	-11.3669
大专以上学历	-11.3669
自发	-11.3672
也将	-11.3673
岁,	-11.3673
职业生涯	-11.3677
垢	-11.3677
获“	-11.3678
。曾在	-11.3678
于2000年	-11.3678
李白	-11.3678
是世界上	-11.3678
国籍	-11.3679
襄阳	-11.3679
总部位于	-11.368
润滑油	-11.368
大型企业	-11.368
青椒	-11.368
』『	-11.368
批判	-11.368
7.	-11.368
线的	-11.3682
,1990年	-11.3682
钥匙	-11.3684
实惠	-11.3685
管理体制	-11.3685
宦	-11.3686
中介	-11.3687
的追求	-11.3688
蒿	-11.3688
变色	-11.369
最优	-11.369
18个	-11.3691
照射	-11.3692
英文名称	-11.3693
提醒	-11.3694
相声	-11.3694
羌	-11.3695
思想政治工作	-11.3696
时有	-11.3697
和国家	-11.3697
世界各国	-11.3697
(《	-11.3698
胖	-11.3698
的战斗	-11.3698
4月,	-11.3698
党组成员、	-11.3698
、广州	-11.3699
品牌形象	-11.37
新中国	-11.3701
捐资	-11.3702
有两种	-11.3703
藏品	-11.3703
创办了	-11.3704
笔墨	-11.3704
研究员。	-11.3705
屏蔽	-11.3706
制动	-11.3707
进军	-11.3708
属植物	-11.3709
前景	-11.371
概况	-11.371
围棋	-11.3711
条件。	-11.3712
委委员	-11.3712
霉素	-11.3715
场所。	-11.3715
、休闲	-11.3715
巡抚	-11.3716
127	-11.3717
肺炎	-11.3717
内阁	-11.3717
一幢	-11.3718
专员	-11.3719
5米	-11.372
纺织品	-11.372
茄	-11.3721
水文	-11.3724
灿	-11.3725
魔术	-11.3726
执政	-11.3727
修炼	-11.3727
办、	-11.3728
贸易有限公司	-11.3729
医疗机构	-11.3729
触角	-11.3731
枢	-11.3731
,共同	-11.3731
专家学者	-11.3732
情况:	-11.3732
”与“	-11.3733
,坐落在	-11.3734
寝	-11.3734
印花	-11.3735
工商局	-11.3736
国际性	-11.3737
健康的	-11.3737
研究室主任	-11.3738
鉴别	-11.374
公安部	-11.374
圣地	-11.3741
-14	-11.3741
暴露	-11.3741
三条	-11.3742
了他	-11.3742
117	-11.3743
(一)	-11.3744
队伍建设	-11.3746
管委会	-11.3746
学会常务理事	-11.3749
(4	-11.375
派出所	-11.3751
与时俱进	-11.3752
,比	-11.3752
猿	-11.3752
寂寞	-11.3753
。生于	-11.3753
拓宽	-11.3754
任务,	-11.3755
人物。	-11.3758
磁性	-11.3758
量子	-11.3758
填充	-11.3759
容积	-11.3759
亦可	-11.3759
章程	-11.3761
3月,	-11.3761
开工	-11.3762
共创	-11.3763
发布的	-11.3764
仙人	-11.3764
多年生	-11.3765
点缀	-11.3765
姿态	-11.3766
胡椒	-11.3766
现行	-11.3767
温和	-11.3768
县委、县政府	-11.3769
住院	-11.377
电能	-11.377
二者	-11.377
,另	-11.3771
骄	-11.3773
,组织	-11.3774
称之为“	-11.3774
栖息于	-11.3775
的表现	-11.3775
工作,任	-11.3775
处置	-11.3778
、盐	-11.3778
与社会	-11.3778
酿造	-11.378
起步	-11.378
我们将	-11.3781
台州	-11.3781
跋	-11.3782
业务的	-11.3782
著有《	-11.3782
,人口	-11.3784
蓬莱	-11.3784
档案馆	-11.3785
榕	-11.3786
起到了	-11.3786
类似于	-11.3787
活塞	-11.3788
笔记	-11.3789
了一	-11.3793
亲切	-11.3793
的重点	-11.3794
规划建设	-11.3794
是由于	-11.3795
420	-11.3795
城西	-11.3796
违法	-11.3797
等荣誉称号	-11.3798
杂志》	-11.3799
废水	-11.3801
仅仅	-11.3801
修养	-11.3801
事业发展	-11.3803
304	-11.3804
檀	-11.3804
挑选	-11.3804
白马	-11.3805
柴油	-11.3805
夜晚	-11.3807
生长在	-11.3807
145	-11.3808
荔	-11.3808
新疆维吾尔自治区	-11.381
相近	-11.381
广大用户	-11.3811
香蕉	-11.3811
有趣的	-11.3812
到处	-11.3813
回路	-11.3813
公办	-11.3814
的研制	-11.3814
医院、	-11.3818
剧中	-11.3818
184	-11.382
万像素	-11.382
信息安全	-11.3821
工作先进单位	-11.3821
▁游戏	-11.3823
同盟	-11.3823
用户提供	-11.3824
将继续	-11.3824
目标,	-11.3824
发作	-11.3825
数:	-11.3825
贮存	-11.3827
太极拳	-11.383
150克	-11.3832
等服务	-11.3832
富贵	-11.3834
分别在	-11.3836
都不	-11.3836
启用	-11.3837
所致的	-11.3838
荷花	-11.3839
商业区	-11.3841
了自己的	-11.3841
▁目前,	-11.3842
旅游景点	-11.3842
执教	-11.3843
董事会	-11.3844
旅游业	-11.3845
回答	-11.3846
日文	-11.3847
苏区	-11.3848
深深	-11.3849
无力	-11.385
艺术教育	-11.3851
(14	-11.3851
成年	-11.3851
认同	-11.3852
该院	-11.3853
7.6	-11.3853
▁释文:	-11.3854
励志	-11.3854
絮	-11.3855
亚科	-11.3856
坞	-11.3858
石榴	-11.3861
素材	-11.3861
保鲜	-11.3862
变化,	-11.3862
河、	-11.3863
顺德	-11.3866
今天的	-11.387
男主角	-11.387
,1995年	-11.387
▁(四)	-11.3871
蚁	-11.3871
陷入	-11.3872
赣州	-11.3873
,是我国	-11.3873
-30	-11.3874
吧!	-11.3874
不在	-11.3874
被聘为	-11.3874
赔偿	-11.3875
游泳池	-11.3875
。1980年	-11.3875
号召	-11.3877
优秀论文奖	-11.3878
一般是	-11.3878
共分	-11.3878
孤独	-11.3879
发电机	-11.3879
古迹	-11.388
提供的	-11.388
她是	-11.388
气压	-11.3881
的其他	-11.3881
节,	-11.3881
兼顾	-11.3883
充实	-11.3883
138	-11.3884
步入	-11.3885
嘉定	-11.3886
港澳	-11.3886
15克,	-11.3886
人物,	-11.3887
现象。	-11.3887
陶器	-11.3888
占地面积1	-11.3889
触摸	-11.3889
产品设计	-11.3889
惹	-11.389
向外	-11.3891
旋律	-11.3891
、德国	-11.3891
1911年	-11.3892
口语	-11.3892
之名	-11.3892
豌豆	-11.3893
系统和	-11.3894
内侧	-11.3896
本次	-11.3896
,便于	-11.3896
年间,	-11.3897
的政治	-11.3899
的建筑	-11.3899
а	-11.39
放进	-11.3901
心血管	-11.3901
人民的	-11.3903
钮	-11.3904
,方便	-11.3905
在全球	-11.3905
娃娃	-11.3905
接壤	-11.3905
平稳	-11.391
面向全国	-11.3911
这就是	-11.3912
稠	-11.3912
200余	-11.3912
外出	-11.3913
25克	-11.3916
决赛	-11.3916
风景名胜区	-11.3917
层的	-11.3918
科幻	-11.3919
或许	-11.3919
较长	-11.3919
的代表	-11.392
,东邻	-11.392
,得到	-11.3921
逐年	-11.3921
设计院	-11.3921
助手	-11.3921
主干道	-11.3922
较好的	-11.3922
组团	-11.3922
西周	-11.3923
名贵	-11.3923
排行榜	-11.3923
动感	-11.3925
治愈	-11.3926
侍郎	-11.3927
,取	-11.3927
的认识	-11.393
ま	-11.3931
慰	-11.3931
(-	-11.3931
饱满	-11.3932
▁近年来,	-11.3932
的地位	-11.3934
》系列	-11.3935
侦探	-11.3936
七月	-11.3936
灯具	-11.3936
楼高	-11.394
。1950年	-11.3942
小学生	-11.3943
非营利性	-11.3944
星座	-11.3944
先后荣获	-11.3944
同事	-11.3944
,正	-11.3945
这里的	-11.3946
8.0	-11.3946
尤为	-11.3946
。1991年	-11.3948
作品被	-11.3949
生态系统	-11.3949
四面	-11.395
让我	-11.395
冲压	-11.395
园林绿化	-11.3952
萧山	-11.3953
、北	-11.3953
褒	-11.3953
毒素	-11.3954
哦	-11.3956
等多	-11.3958
力争	-11.3958
烯	-11.3958
交界处	-11.3958
会上	-11.3959
够	-11.3959
单体	-11.396
披针形	-11.3961
客商	-11.3961
蛋黄	-11.3964
不想	-11.3964
教学改革	-11.3964
匡	-11.3965
扁平	-11.3966
60克	-11.3968
,凡	-11.3968
《大	-11.3968
荔枝	-11.3968
养老	-11.3968
这两个	-11.3969
方法和	-11.3969
问世	-11.3969
针织	-11.3969
耐高温	-11.3971
50年	-11.3971
6.7	-11.3971
丰收	-11.3974
天生	-11.3974
门、	-11.3976
放电	-11.3976
的文字	-11.3976
。”明	-11.3977
大王	-11.3977
建筑业	-11.3978
规程	-11.3979
地委	-11.398
平坦	-11.398
爆破	-11.3981
缩小	-11.3981
一般在	-11.3984
刹	-11.3985
美的	-11.3985
可谓	-11.3986
沐	-11.3986
基地,	-11.3988
-200	-11.3988
的颜色	-11.399
意义。	-11.3991
清真寺	-11.3991
201	-11.3992
公会	-11.3993
便秘	-11.3993
足球俱乐部,	-11.3994
别致	-11.3994
可以说是	-11.3994
、抗	-11.3995
父子	-11.3996
山人	-11.3996
造价	-11.3997
、河南	-11.3998
类别:	-11.3998
教育学	-11.4
海滩	-11.4
咒	-11.4002
临近	-11.4004
两部分	-11.4004
秧	-11.4005
称呼	-11.4006
不安	-11.4008
营销策划	-11.4009
气流	-11.4009
黑色,	-11.401
一应俱全	-11.4012
30多	-11.4013
章,	-11.4014
漳州	-11.4015
培训学校	-11.4015
组建了	-11.4016
捷克	-11.4016
北极	-11.4018
187	-11.4019
度,	-11.4019
的性质	-11.4019
自定义	-11.402
之人	-11.402
集团、	-11.4021
永恒	-11.4021
做的	-11.4023
腾讯	-11.4023
收取	-11.4023
悔	-11.4025
东邻	-11.4026
的主题	-11.4026
“一	-11.4026
序》:“	-11.4026
165	-11.4027
的领导	-11.4027
天左右	-11.4028
军政	-11.4029
、科技	-11.403
被中国	-11.403
得天独厚的	-11.403
状态下	-11.4031
四川大学	-11.4033
口镇	-11.4034
体的	-11.4035
在那里	-11.4035
更高的	-11.4036
5毫米	-11.4037
机械厂	-11.4037
为止	-11.4037
铲	-11.4038
6.1	-11.404
5万	-11.4041
日月	-11.4042
后代	-11.4042
扬声器	-11.4042
新药	-11.4042
白领	-11.4042
米,年平均气温	-11.4043
的建议	-11.4043
业务范围	-11.4043
5×	-11.4043
爽口	-11.4045
传·	-11.4045
4公里	-11.4046
1024	-11.4046
气温	-11.4049
成为一个	-11.4049
才华	-11.405
宜昌	-11.4051
阿拉	-11.4053
梦幻	-11.4054
明·	-11.4054
▁该村	-11.4054
,设有	-11.4054
田园	-11.4058
国家教委	-11.4058
,1989年	-11.4059
事业的发展	-11.406
紫红色	-11.4062
,都是	-11.4063
工具书	-11.4063
园、	-11.4063
周刊	-11.4064
提到	-11.4065
坚固	-11.4065
容积率	-11.4067
阴道	-11.4068
德语	-11.4068
义务教育	-11.4069
卵形	-11.407
也要	-11.4071
4.9	-11.4071
服务质量	-11.4071
鱼肉	-11.4072
用料	-11.4072
网络科技有限公司	-11.4072
饮水	-11.4072
煤气	-11.4075
银河	-11.4075
普通话	-11.4077
黄土	-11.4079
翟	-11.408
潜艇	-11.4081
补肾	-11.4081
居住在	-11.4082
I	-11.4082
与客户	-11.4083
停车	-11.4083
电容	-11.4084
取决于	-11.4086
电子技术	-11.4086
缠绕	-11.4086
稀有	-11.4087
集》、《	-11.4087
的地方。	-11.4087
源县	-11.4087
、计算机	-11.4088
县境	-11.4088
多次获得	-11.4089
选择。	-11.4093
,创建于	-11.4094
普查	-11.4094
中药材	-11.4097
永乐	-11.4098
学会会员,	-11.4098
孙中山	-11.41
混乱	-11.4101
组织和	-11.4101
济宁	-11.4104
6.8	-11.4108
、台湾	-11.4108
4项	-11.4109
衔接	-11.4109
情景	-11.411
8.6	-11.4111
多方	-11.4111
的现代	-11.4112
三省	-11.4113
成员。	-11.4115
贯通	-11.4115
注册表	-11.4115
磊	-11.4116
▁2001年	-11.4117
茗	-11.4119
8月,	-11.4119
的国家	-11.412
8人	-11.412
的名称	-11.412
南端	-11.4121
灰白色	-11.4121
早餐	-11.4121
压缩机	-11.4122
湛	-11.4122
的一部分	-11.4122
部。	-11.4123
意味着	-11.4124
高强度	-11.4128
+2	-11.4129
手枪	-11.413
的自然	-11.413
一个个	-11.413
主编《	-11.413
阻力	-11.4131
聚焦	-11.4132
机枪	-11.4132
7.3	-11.4133
品种,	-11.4133
露天	-11.4134
独具	-11.4134
生平	-11.4134
林下	-11.4134
瓯	-11.4135
托管	-11.4135
切削	-11.4136
线索	-11.4137
战胜	-11.4139
日常生活	-11.4139
秃	-11.4139
专业学习	-11.4139
失眠	-11.4141
秆	-11.4141
流入	-11.4141
民兵	-11.4143
当地的	-11.4144
,拟任	-11.4144
哥伦比亚	-11.4144
,多次	-11.4144
之王	-11.4145
向南	-11.4146
是一家以	-11.4146
基础设施建设	-11.4147
是什么	-11.4147
河东	-11.4148
间隙	-11.4148
行政村,	-11.4149
队队长	-11.415
天赋	-11.4151
主导产品	-11.4151
素养	-11.4154
拦	-11.4154
团委	-11.4155
踢	-11.4155
胆固醇	-11.4155
@	-11.4155
潜水	-11.4155
▁如果	-11.4155
圈足	-11.4157
特区	-11.4158
较低	-11.4158
给人	-11.4159
缓存	-11.4159
可以说	-11.4159
公司位于	-11.4159
状态。	-11.416
的母亲	-11.416
132	-11.4161
历时	-11.4162
试剂	-11.4163
五星级	-11.4164
营养丰富	-11.4164
与应用	-11.4165
拙	-11.4165
兴隆	-11.4166
书店	-11.4167
▁2013年	-11.4167
编号:	-11.4169
城建	-11.4169
文昌	-11.417
的话,	-11.4172
确定为	-11.4172
2/	-11.4174
11月出生,	-11.4174
520	-11.4174
间接	-11.4174
以外	-11.4175
▁王	-11.4175
股市	-11.4176
南朝梁	-11.4177
人人	-11.4177
潜心	-11.4179
篮球场	-11.4179
吸取	-11.4179
集成电路	-11.418
当天	-11.418
对人体	-11.4181
老虎	-11.4181
末期	-11.4182
灵芝	-11.4182
麓	-11.4183
必将	-11.4185
合适的	-11.4185
光驱	-11.4185
布尔	-11.4185
抒情	-11.4186
学园	-11.4187
外墙	-11.419
诸如	-11.4192
上线	-11.4193
。作者	-11.4193
整洁	-11.4194
优质产品	-11.4198
有害	-11.4198
投诉	-11.4198
臻	-11.4199
车载	-11.4199
埃尔	-11.42
书法艺术	-11.42
理事长	-11.4201
,南接	-11.4201
为己任	-11.4202
敛	-11.4203
作用的	-11.4204
稀土	-11.4205
联谊会	-11.4206
平整	-11.4207
梢	-11.4208
颠	-11.4208
绿色环保	-11.4209
江区	-11.4209
的比例	-11.4213
草莓	-11.4213
12月出生,	-11.4213
基建	-11.4214
酉	-11.4215
劣	-11.4218
、工业	-11.4218
独自	-11.422
莺	-11.422
伴奏	-11.4221
外国语学院	-11.4221
讲学	-11.4223
全能	-11.4224
背鳍	-11.4224
集团军	-11.4224
官吏	-11.4225
第9	-11.4225
显微镜	-11.4226
结石	-11.4226
中断	-11.4226
增值	-11.4226
媚	-11.4226
。该村	-11.4226
多变	-11.4227
唐·	-11.4228
候选人	-11.4228
著名商标	-11.423
7.0	-11.423
的第一个	-11.4231
灸	-11.4231
其主要	-11.4231
恤	-11.4231
设备及	-11.4233
管理中心	-11.4234
,两	-11.4234
09年	-11.4236
同时也是	-11.4236
调查研究	-11.4239
湘潭	-11.4239
运动的	-11.4241
与之	-11.4242
红外线	-11.4242
ㄨ	-11.4243
批发市场	-11.4245
溃疡	-11.4247
人大常委会副主任	-11.4247
研修	-11.4247
粤语	-11.425
,出生于	-11.425
在原	-11.4252
二等奖。	-11.4252
中世纪	-11.4252
突起	-11.4253
在英国	-11.4256
目录下	-11.4256
装盘	-11.4257
技术咨询	-11.4257
企业和	-11.4257
在“	-11.4259
发表了	-11.426
六月	-11.426
萃取	-11.426
接着	-11.4262
的主	-11.4262
2800	-11.4264
水系	-11.4264
污水处理	-11.4266
成立。	-11.4267
7月生,	-11.4268
华盛顿	-11.4268
还没有	-11.4268
八卦	-11.4268
磨损	-11.4269
聚乙烯	-11.427
革新	-11.427
、双	-11.4271
果园	-11.4272
十三年	-11.4272
血清	-11.4272
赌	-11.4273
良种	-11.4273
所产生的	-11.4275
*1	-11.4275
归纳	-11.4277
工商行政管理局	-11.4277
天天	-11.4278
综	-11.4279
婴幼儿	-11.4279
逼真	-11.428
展现了	-11.4281
大学本科学历	-11.4282
7月,	-11.4283
纷	-11.4284
森林公园	-11.4284
08年	-11.4284
锭	-11.4284
处在	-11.4286
"="	-11.4286
尼克	-11.4286
一股	-11.4287
该病毒	-11.429
的优点	-11.4291
加工设备	-11.4291
衷	-11.4292
的通知	-11.4292
命名的	-11.4292
政治部	-11.4293
机动车	-11.4293
防洪	-11.4293
主要产品有	-11.4294
领导小组	-11.4295
转为	-11.4295
五行	-11.4295
0°C	-11.4296
直隶	-11.4297
苞	-11.4301
并被	-11.4302
电位	-11.4303
满意的	-11.4304
,面积	-11.4306
比重	-11.4306
可是	-11.4306
教职员工	-11.4307
。全书	-11.4307
究	-11.4307
▁陈	-11.4308
插图	-11.4309
研磨	-11.431
挤压	-11.431
开发利用	-11.4311
50余	-11.4312
光亮	-11.4312
}	-11.4313
6月,	-11.4314
定价	-11.4315
出来,	-11.4316
相通	-11.4317
味甘	-11.4318
、浙江	-11.4318
ㄒㄧ	-11.4318
牌子	-11.4319
能力强	-11.4319
建筑面积1	-11.4319
脱水	-11.4323
十四年	-11.4323
病情	-11.4323
2厘米	-11.4324
格拉	-11.4325
结业	-11.4327
原则,	-11.4327
咸丰	-11.4328
美好的	-11.4328
本厂	-11.4328
麻烦	-11.4329
猪油	-11.4329
曾先后	-11.433
挽	-11.4331
喜爱的	-11.4332
1月生,	-11.4334
イ	-11.4334
八一	-11.4334
科教	-11.4334
壮族	-11.4334
大成	-11.4335
副主任医师,	-11.4335
度假村	-11.4335
科技发展	-11.4336
。明	-11.4336
百科	-11.4336
。又	-11.4336
切断	-11.4337
铵	-11.4337
向西	-11.4338
奖金	-11.4338
6米	-11.4339
死于	-11.4341
邮政编码	-11.4341
面积3	-11.4343
绅	-11.4346
犹如	-11.4346
主要的	-11.4348
去掉	-11.4348
,汉族,	-11.4349
万人次	-11.4351
鸡汤	-11.4353
并获得	-11.4353
长久	-11.4354
受益	-11.4356
根据《	-11.4356
爱的	-11.4357
,是国内	-11.4357
后,他	-11.4357
各行业	-11.4358
车身	-11.4359
东与	-11.436
大都	-11.4361
主料	-11.4361
道士	-11.4361
数量:	-11.4362
的功效	-11.4363
,笔名	-11.4366
搅	-11.4366
山麓	-11.4367
编审	-11.4368
年(17	-11.4369
治病	-11.437
一八	-11.437
羞	-11.4373
翌年	-11.4374
奕	-11.4374
黄花	-11.4375
,建于	-11.4377
考取	-11.4377
30人	-11.4377
水性	-11.4378
色拉油	-11.438
灭火	-11.4381
1918年	-11.4381
533	-11.4381
立方	-11.4381
骚	-11.4383
留下了	-11.4383
研究工作	-11.4385
感悟	-11.4386
精湛	-11.4386
党委书记、	-11.4386
全村有	-11.4387
首选	-11.4387
、国际	-11.4388
益智	-11.4388
包含了	-11.4389
奖、	-11.4389
主频	-11.4389
专业性	-11.439
规范的	-11.4391
委常委、	-11.4391
330	-11.4392
还将	-11.4392
陵县	-11.4392
儒家	-11.4392
凝固	-11.4393
称赞	-11.4393
一直是	-11.4393
硝	-11.4395
花朵	-11.4395
改性	-11.4396
,同	-11.4397
大将军	-11.4397
旷	-11.4398
住宅小区	-11.4398
,并被	-11.4398
,其余	-11.4399
绿豆	-11.44
、铁	-11.44
书。	-11.44
绿茶	-11.4404
这本	-11.4405
第二个	-11.4406
缪	-11.4406
结论	-11.4406
大庆	-11.441
名著	-11.441
具有一定	-11.441
至此	-11.4413
壬	-11.4414
*2	-11.4414
法庭	-11.4416
构成了	-11.4416
出版发行	-11.4419
3月任	-11.442
落户	-11.4422
确立了	-11.4423
白天	-11.4424
争夺	-11.4425
的全部	-11.4426
6项	-11.4429
作品展	-11.4429
潍坊市	-11.4431
要求的	-11.4432
讳	-11.4432
讲话	-11.4433
战后	-11.4433
,中共党员。	-11.4434
引水	-11.4434
色,	-11.4434
路灯	-11.4435
月中旬	-11.4435
海参	-11.4436
8.4	-11.4438
中国经济	-11.4439
善良	-11.4441
战争中	-11.4442
冬天	-11.4442
保险公司	-11.4442
神圣	-11.4445
老子	-11.4445
发展有限公司	-11.4445
浦东	-11.4446
给他	-11.4447
奠定了	-11.4448
他对	-11.4449
自然景观	-11.4449
迄今	-11.445
湖区	-11.445
传略	-11.4451
天台	-11.4452
的样子	-11.4452
求实	-11.4452
二战	-11.4452
产业园	-11.4455
1913年	-11.4455
为主导	-11.4458
评比	-11.4458
活动中心	-11.4458
影院	-11.4459
油漆	-11.446
,2011年	-11.446
神州	-11.4461
北岸	-11.4462
伸缩	-11.4463
大力发展	-11.4463
研究与	-11.4463
美军	-11.4464
花冠	-11.4464
人们对	-11.4464
边区	-11.4465
3～	-11.4466
家属	-11.4466
奉命	-11.4468
民居	-11.4469
的特性	-11.4469
为2	-11.447
并与	-11.447
不止	-11.447
鸠	-11.447
行政区	-11.447
中空	-11.4472
乌鲁木齐	-11.4472
火力	-11.4473
。该书	-11.4474
预期	-11.4474
斯塔	-11.4476
调解	-11.4477
企图	-11.4477
防守	-11.4478
了一些	-11.448
贬	-11.4481
信息。	-11.4482
煸炒	-11.4482
懿	-11.4483
有限公司董事长	-11.4483
靶	-11.4484
嘉靖	-11.4484
迅	-11.4485
盐城	-11.4485
质感	-11.4486
60余	-11.4486
簇	-11.4486
;“	-11.4487
创造性	-11.4489
站。	-11.449
杜甫	-11.4491
跨世纪	-11.4492
100克,	-11.4494
烧热	-11.4494
达1	-11.4496
交流平台	-11.4496
流行于	-11.4496
赠送	-11.4497
习题	-11.4497
教学研究	-11.4498
大片	-11.4499
产品销售	-11.4499
条约	-11.4501
油墨	-11.4501
市委市政府	-11.4501
驳	-11.4502
穆斯林	-11.4502
每位	-11.4502
。曾获	-11.4502
1条	-11.4503
的喜爱	-11.4505
矩阵	-11.4506
为中心,	-11.4506
家的	-11.4508
厂长	-11.4509
长短	-11.4509
环境。	-11.4509
0平米	-11.451
歧	-11.4512
而有	-11.4514
县人民政府副县长	-11.4514
大专院校	-11.4514
可能会	-11.4515
莽	-11.4518
二氧化碳	-11.4518
曲目	-11.4519
代表大会	-11.452
救灾	-11.452
电视节目	-11.4522
必要的	-11.4522
看来	-11.4523
婷	-11.4523
鲜美	-11.4524
搞笑	-11.4526
ㄉ	-11.4526
追踪	-11.4527
文化传播有限公司	-11.4527
▁所属	-11.4527
马克	-11.4528
对中国	-11.4528
较早	-11.4529
厝	-11.4529
鲜花	-11.4529
职员	-11.453
经济社会发展	-11.4532
,该村	-11.4532
食用。	-11.4532
嵌入式	-11.4534
情趣	-11.4534
的女人	-11.4535
麦克	-11.4535
主要研究方向为	-11.4536
沼泽	-11.4537
委党校	-11.4537
教学设施	-11.4538
怀疑	-11.4539
变化的	-11.4539
党总支书记	-11.454
立式	-11.454
7公里	-11.454
国民政府	-11.4541
滚动	-11.4542
灵敏度	-11.4542
裁判	-11.4543
安静	-11.4544
批量	-11.4544
,才能	-11.4544
仑	-11.4545
矿井	-11.4547
的影响,	-11.4548
适合于	-11.4548
班学习	-11.4548
之地。	-11.4548
》是一部	-11.4548
塘镇	-11.4548
{	-11.455
1:	-11.455
1988	-11.4551
6×	-11.4553
る	-11.4553
厂厂长	-11.4554
大理石	-11.4554
额定	-11.4555
时尚的	-11.4555
25年	-11.4557
剂,	-11.4557
高效率	-11.4559
锈	-11.456
附中	-11.456
编曲	-11.456
精良	-11.4564
清河	-11.4564
身为	-11.4565
优点	-11.4565
专门从事	-11.4566
需要的	-11.4566
卯	-11.4566
县志	-11.4567
工具。	-11.4568
维也纳	-11.4569
(..)	-11.4571
丢	-11.4572
多达	-11.4572
在广州	-11.4572
书刊	-11.4572
12月任	-11.4574
桑拿	-11.4574
校址	-11.4575
镇东	-11.4575
尼斯	-11.4575
病因	-11.4575
伴有	-11.4575
平均亩产	-11.4575
教育机构	-11.4576
籽粒	-11.4578
不明显	-11.4578
欲望	-11.4578
.1	-11.4579
愧	-11.4579
的商业	-11.4579
灾难	-11.4581
馆藏	-11.4583
编译	-11.4583
解码	-11.4583
公司将	-11.4585
准确的	-11.4586
,浙江	-11.4586
记》:“	-11.4586
公司已	-11.4587
炎、	-11.4588
1—	-11.4588
母本	-11.459
1月任	-11.459
之间。	-11.4592
留学生	-11.4593
,供	-11.4593
层层	-11.4594
8.3	-11.4599
主要研究方向	-11.4601
。本公司	-11.4604
葱姜	-11.4605
155	-11.4605
起锅	-11.4605
吓	-11.4607
1989	-11.4607
土木工程	-11.4609
村地处	-11.461
乙烯	-11.4611
大殿	-11.4613
有限公司是一家集	-11.4614
第十一届	-11.4616
外接	-11.4616
,1991年	-11.4616
。他在	-11.4616
止血	-11.4617
并以	-11.4619
开放式	-11.4619
配以	-11.4619
行业标准	-11.462
等问题	-11.462
放松	-11.462
政策法规	-11.462
喊	-11.4622
高级经济师	-11.4623
热血	-11.4624
第二大	-11.4624
成交	-11.4625
意义的	-11.4625
自有	-11.4625
客户至上	-11.4625
伤寒	-11.4625
宰相	-11.4627
影音	-11.4629
的歌曲	-11.4629
经络	-11.4633
的特征	-11.4633
技术研发	-11.4636
无奈	-11.4636
的一切	-11.4637
▁用法	-11.4637
机械、	-11.4637
衡阳市	-11.4638
光彩	-11.4638
所谓“	-11.4638
上传	-11.464
,整个	-11.4642
西洋	-11.4642
、管理	-11.4642
手段,	-11.4643
列表	-11.4644
东至	-11.4644
外围	-11.4646
精美的	-11.4646
所需要的	-11.4646
化肥	-11.4648
,不久	-11.4649
▁曾任	-11.465
继续教育	-11.465
成虫	-11.465
强势	-11.4651
在外	-11.4652
管件	-11.4652
珍稀	-11.4653
沽	-11.4654
涡	-11.4656
统一的	-11.4656
册,	-11.4657
滋补	-11.4658
(3	-11.4658
。公司拥有	-11.4658
而已	-11.466
盈利	-11.466
色调	-11.466
1座	-11.466
自从	-11.466
后被	-11.4661
,提出	-11.4663
驼	-11.4663
营养价值	-11.4664
为界	-11.4664
启蒙	-11.4664
性质的	-11.4664
等地区	-11.4665
90年代	-11.4665
萝	-11.4665
中考	-11.4666
鸾	-11.4666
苟	-11.4666
2～	-11.4667
要求。	-11.4667
,是目前	-11.4668
十个	-11.4668
温带	-11.4671
理论基础	-11.4671
保健食品	-11.4672
问答	-11.4673
完全中学	-11.4674
▁位于	-11.4675
最佳的	-11.4675
。1938年	-11.4675
8.8	-11.4675
闽南	-11.4676
五百	-11.4676
0-	-11.4676
是最	-11.4677
脾胃	-11.4678
远程教育	-11.4678
后裔	-11.4678
斑纹	-11.4679
一说	-11.4679
捏	-11.468
防雷	-11.468
老干部	-11.4681
代表作品	-11.4681
电影节	-11.4682
新闻出版	-11.4682
无不	-11.4683
不错	-11.4684
路由器	-11.4684
不断发展	-11.4684
谥	-11.4684
占地1	-11.4686
气,	-11.4687
第10	-11.4688
佰	-11.4688
等业务	-11.4688
中兴	-11.4689
央视	-11.4689
制约	-11.4689
勉	-11.469
百花	-11.4691
质保	-11.4691
绘图	-11.4692
极端	-11.4693
窟	-11.4694
欺	-11.4697
杜鹃	-11.4697
中国企业	-11.4697
主题曲	-11.4697
昆明市	-11.4697
天河	-11.4698
石雕	-11.4698
年会	-11.4699
义乌	-11.4699
应该是	-11.4699
释义:	-11.4699
采样	-11.47
退化	-11.4701
究竟	-11.4701
韧性	-11.4701
时间为	-11.4702
吸引了	-11.4703
政治委员	-11.4703
小高层	-11.4704
”之称。	-11.4704
我厂	-11.4704
“小	-11.4705
分析与	-11.4705
建设部	-11.4706
冲洗	-11.4706
获硕士学位	-11.4706
400米	-11.4707
的唯一	-11.4707
南昌市	-11.4709
之事	-11.4709
。它们	-11.471
已达	-11.471
一句	-11.4711
诚实	-11.4711
漠	-11.4712
红椒	-11.4712
向往	-11.4714
各方面	-11.4714
位移	-11.4715
斐	-11.4715
鹦鹉	-11.4716
同治	-11.4717
名义	-11.4718
制定的	-11.4718
洛杉矶	-11.4719
的著名	-11.472
成长为	-11.4722
人身	-11.4722
起源	-11.4723
如来	-11.4725
防火墙	-11.4725
曾荣获	-11.4727
社会经济	-11.4727
1080	-11.4728
微观	-11.4729
北齐	-11.473
贱	-11.473
心理咨询	-11.4732
侵蚀	-11.4732
八月	-11.4732
秀才	-11.4734
刨	-11.4734
形式,	-11.4735
传导	-11.4735
电视机	-11.4737
:16	-11.4737
了一系列	-11.4737
铸铁	-11.4738
、安全	-11.4741
交货	-11.4742
精神病	-11.4742
り	-11.4743
科技发展有限公司	-11.4744
懂得	-11.4744
烘干	-11.4745
的商品	-11.4745
心脏病	-11.4746
▁调料:	-11.4746
的责任	-11.4747
下了	-11.4748
石桥	-11.4751
的人物	-11.4754
整车	-11.4755
9月出生,	-11.4755
10/100	-11.4755
糟	-11.4756
焰	-11.4757
铃声	-11.4757
系。	-11.4759
之首	-11.4759
1981	-11.476
可通过	-11.4761
用刀	-11.4761
有线	-11.4763
前身	-11.4763
探究	-11.4764
伴随着	-11.4765
塞尔	-11.4766
医学博士	-11.4766
集《	-11.4767
援助	-11.4767
大唐	-11.4767
促进会	-11.4768
并将	-11.4769
中的一种	-11.477
奇幻	-11.4772
座,	-11.4772
鲜明的	-11.4773
给了	-11.4774
分数	-11.4774
。”参见“	-11.4774
电子有限公司	-11.4775
成人教育	-11.4776
委组织部	-11.4778
国际上	-11.4779
之法	-11.4779
的最	-11.4779
和其它	-11.4779
外用	-11.478
10月,	-11.4781
1路	-11.4783
学会副理事长	-11.4784
难点	-11.4786
儿女	-11.4787
的现象	-11.4788
括	-11.4789
铭文	-11.479
闪光	-11.4791
泣	-11.4792
丝绸	-11.4792
提炼	-11.4794
头顶	-11.4795
制作人	-11.4796
曹操	-11.4801
回顾	-11.4801
此种	-11.4802
基金项目	-11.4803
服务公司	-11.4804
断面	-11.4804
常绿	-11.4806
毕业于北京	-11.4807
长篇小说	-11.4807
;对	-11.4807
花草	-11.4808
中国社会科学院	-11.4809
适时	-11.481
大事	-11.481
丞相	-11.4811
07年	-11.4811
视听	-11.4812
咽喉	-11.4812
等特点	-11.4814
专业毕业,	-11.4814
得名	-11.4816
宽敞	-11.4816
е	-11.4817
玺	-11.4817
再现	-11.4817
5厘米	-11.4818
三位	-11.4818
对接	-11.4818
贮藏	-11.482
好莱坞	-11.482
琉璃	-11.4821
玉器	-11.4821
土家族	-11.4821
品尝	-11.4821
的组织	-11.4821
至上	-11.4821
赛区	-11.4822
各方	-11.4822
辛亥革命	-11.4822
民盟	-11.4822
的一个重要	-11.4823
装卸	-11.4823
其作品	-11.4825
尔斯	-11.4825
分别是	-11.4825
结核	-11.4825
交错	-11.4827
南下	-11.483
行程	-11.483
交给	-11.4831
国语	-11.4831
生产制造	-11.4831
的市场	-11.4831
男生	-11.4832
拆迁	-11.4832
表现了	-11.4833
交通部	-11.4833
3月生,	-11.4834
愿与	-11.4836
教师队伍	-11.4838
时任	-11.4838
,有效	-11.4838
而无	-11.484
”的宗旨,	-11.4841
中段	-11.4841
有1	-11.4842
置业	-11.4844
擒	-11.4844
抗原	-11.4846
,令人	-11.4847
公司总经理	-11.4848
▁网络	-11.4848
职业学校	-11.485
尾巴	-11.485
,终	-11.4851
9.8	-11.4851
决议	-11.4851
篇章	-11.4852
体育运动	-11.4853
丧失	-11.4853
烹	-11.4854
无公害	-11.4855
补助	-11.4856
$	-11.4856
情歌	-11.4857
累积	-11.4859
狠抓	-11.486
综合楼	-11.486
庐山	-11.486
技术人才	-11.4861
轻工业	-11.4862
块,	-11.4862
扎实的	-11.4864
250克	-11.4865
英特尔	-11.4865
弟弟	-11.4866
作家协会	-11.4866
妾	-11.4867
几年来	-11.4868
专卖店	-11.4868
分会会员	-11.4869
厚重	-11.487
检察院	-11.4871
三元	-11.4871
客栈	-11.4871
ラ	-11.4872
。1936年	-11.4872
不及	-11.4872
分量	-11.4873
,凭借	-11.4874
学》、《	-11.4874
高素质	-11.4874
之称	-11.4875
有益	-11.4876
下垂	-11.4876
培养学生	-11.4877
分明	-11.4877
趁	-11.4877
与现代	-11.4877
九五	-11.4878
路段	-11.4878
少,	-11.4878
书画展	-11.4879
步伐	-11.4879
最大化	-11.4879
暴动	-11.488
的合作	-11.4881
人均耕地	-11.4881
广场、	-11.4882
钻研	-11.4885
制式	-11.4885
教育厅	-11.4886
勘	-11.4886
,平均	-11.4886
天鹅	-11.4889
不利	-11.4889
技术培训	-11.4889
切丝	-11.489
、吴	-11.489
伟大	-11.4891
,上面	-11.4892
洞穴	-11.4892
礼物	-11.4892
峨	-11.4893
晋江	-11.4894
一举	-11.4894
登录	-11.4895
尺度	-11.4896
理工学院	-11.4896
的权利	-11.4898
自古	-11.4899
横跨	-11.49
的科学	-11.4901
沿线	-11.4902
,近	-11.4902
124	-11.4903
巴基斯坦	-11.4903
发源于	-11.4903
,他在	-11.4903
确定的	-11.4904
小便	-11.4904
的出现	-11.4906
菠菜	-11.4906
厢	-11.4907
得出	-11.4908
芙	-11.4908
社会科学院	-11.4909
另一方面	-11.4909
进驻	-11.491
中国美术家协会会员	-11.491
讲述的是	-11.4911
祠堂	-11.4915
,建立了	-11.4917
英尺	-11.4917
东边	-11.4917
江镇	-11.4918
通车	-11.492
广泛应用	-11.492
镇压	-11.4921
的对象	-11.4921
柔和	-11.4921
划分为	-11.4922
汉口	-11.4922
言语	-11.4923
成立以来,	-11.4924
帛	-11.4925
栓	-11.4926
锂	-11.4927
白沙	-11.4928
冕	-11.4928
胶带	-11.4928
腹痛	-11.4928
工会主席	-11.4929
典籍	-11.4929
具有较强的	-11.4929
建筑装饰	-11.4929
》一文	-11.493
瑜	-11.493
突变	-11.4931
唱片公司	-11.4931
面的	-11.4931
为目标,	-11.4933
建造的	-11.4933
注册成立	-11.4933
教学班	-11.4934
整形美容	-11.4935
张力	-11.4938
移居	-11.4938
办公厅	-11.4939
半小时	-11.4939
震动	-11.494
顾问,	-11.4942
研究课题	-11.4942
约占	-11.4942
切碎	-11.4942
气象局	-11.4943
元月	-11.4943
什么是	-11.4943
齐全,	-11.4946
医疗卫生	-11.4949
(5)	-11.4949
186	-11.495
九月	-11.495
哑	-11.495
死者	-11.495
海绵	-11.4951
新生儿	-11.4952
沙河	-11.4952
一番	-11.4952
1小时	-11.4954
悬浮	-11.4956
琵琶	-11.4956
柴油机	-11.4957
规划和	-11.4958
、建筑	-11.4961
的两个	-11.4961
矾	-11.4962
学硕士学位	-11.4963
''	-11.4964
醚	-11.4965
铁道部	-11.4965
▁为了	-11.4966
小学、	-11.4966
汾	-11.4966
攻击力	-11.4966
发展壮大	-11.4967
重镇	-11.4967
文库	-11.497
开机	-11.4973
走上	-11.4974
全名	-11.4975
上千	-11.4977
繁华的	-11.4979
的操作	-11.4979
支行	-11.4979
纪念碑	-11.498
的原则,	-11.498
拉丁	-11.4981
经济学院	-11.4981
示范性	-11.4981
缕	-11.4981
滨江	-11.4982
近千	-11.4982
溶于	-11.4983
,适用于	-11.4983
双语	-11.4984
:无	-11.4984
增进	-11.4984
出版了	-11.4986
假设	-11.4987
见证	-11.4987
生产、销售	-11.4987
连年	-11.4988
拂	-11.4989
剪纸	-11.4989
支柱	-11.499
动画片	-11.499
教学能手	-11.4992
137	-11.4993
,未	-11.4993
带给	-11.4994
星星	-11.4995
古文	-11.4996
贫血	-11.4996
预定	-11.4997
政协委员	-11.4997
孔雀	-11.4998
看看	-11.4999
阶级	-11.4999
矩	-11.5001
离心	-11.5001
创新的	-11.5002
政策,	-11.5002
重要作用	-11.5003
补贴	-11.5003
样本	-11.5003
灼	-11.5004
看着	-11.5004
国有资产	-11.5006
水平的	-11.5006
奇异	-11.5008
形式。	-11.5008
的合法权益	-11.5008
麒麟	-11.5009
中文名	-11.501
攻打	-11.5012
-40	-11.5013
全球化	-11.5014
流浪	-11.5015
教育科研	-11.5016
亩产	-11.5017
无毛,	-11.5017
的能力。	-11.5018
叙事	-11.502
土地面积	-11.502
,即使	-11.502
内存容量	-11.5022
本机	-11.5022
,最大	-11.5022
雄厚	-11.5022
、河北	-11.5023
本部	-11.5025
万历	-11.5025
制造有限公司	-11.5026
十余年	-11.5026
科技园	-11.5028
星球	-11.5028
祖先	-11.5029
提取物	-11.5029
工作经验	-11.5029
地毯	-11.5029
2月生,	-11.503
是北京	-11.5031
之气	-11.5031
几百	-11.5032
多个国家和地区	-11.5032
登山	-11.5033
少年儿童	-11.5033
不动	-11.5033
。1948年	-11.5033
了很多	-11.5034
8米	-11.5035
当代中国	-11.5035
条款	-11.5036
肾病	-11.5037
50人	-11.5038
右手	-11.5038
家教	-11.5039
林中	-11.504
物价	-11.504
摄像	-11.5041
和一个	-11.5041
撕	-11.5041
花木	-11.5042
此菜	-11.5043
中所	-11.5043
的成员	-11.5048
2小时	-11.5048
先进企业	-11.5049
琐	-11.505
特色。	-11.5051
长乐	-11.5052
火烧	-11.5058
管材	-11.506
第十一	-11.5061
大观	-11.5061
科学发展观	-11.5061
战斗机	-11.5062
开始在	-11.5062
试验机	-11.5062
崭新的	-11.5062
▁12	-11.5062
的人们	-11.5063
金黄色	-11.5064
是他	-11.5064
疯	-11.5065
杠	-11.5065
,中间	-11.5066
无缝钢管	-11.5068
望远镜	-11.5069
使者	-11.5069
中关村	-11.5069
:"	-11.507
投降	-11.5071
9人,	-11.5072
短片	-11.5072
4米	-11.5072
韭菜	-11.5073
更快	-11.5073
市内	-11.5074
水田	-11.5077
保持着	-11.5079
着色	-11.5079
沂	-11.5081
邸	-11.5083
次会议	-11.5084
碑林	-11.5084
中性	-11.5085
出版。	-11.5085
游戏的	-11.5086
端子	-11.5087
之女	-11.5089
可直接	-11.5092
户。	-11.5093
怜	-11.5093
滋阴	-11.5094
据说	-11.5095
汇集了	-11.5096
次年	-11.5097
-01	-11.5098
导游	-11.5098
珍贵的	-11.5099
1917年	-11.51
202	-11.51
薄荷	-11.51
女装	-11.5101
信息、	-11.5102
千金	-11.5103
,结果	-11.5103
江北	-11.5104
的中心	-11.5105
创建了	-11.5105
学会理事,	-11.5105
月份	-11.5105
的根本	-11.5105
襟	-11.5105
7.4	-11.5106
姜末	-11.5106
畜禽	-11.5106
道理	-11.5108
双面	-11.5108
奋	-11.5109
小康	-11.511
笺	-11.5111
湿热	-11.5111
、体育	-11.5112
信息化建设	-11.5113
500万元	-11.5113
天王	-11.5113
发达,	-11.5113
189	-11.5114
中枢	-11.5114
性感	-11.5114
相遇	-11.5115
为何	-11.5116
主教	-11.5117
的地方,	-11.5118
喜好	-11.5118
-2000	-11.5119
综合素质	-11.5119
胚	-11.512
悲剧	-11.5121
最长	-11.5122
西欧	-11.5127
粘度	-11.5128
新安	-11.5129
方针,	-11.5129
丰田	-11.5129
侦查	-11.513
报价	-11.513
较短	-11.5131
宋朝	-11.5132
碾	-11.5133
主任医师,	-11.5134
腻	-11.5138
教改	-11.5138
埔	-11.5138
黄帝	-11.5138
等活动	-11.514
。1979年	-11.514
耗材	-11.514
韶	-11.5141
拉伸	-11.5142
主打	-11.5142
多用	-11.5144
一身	-11.5145
打工	-11.5147
志愿	-11.5147
颅	-11.5147
富士	-11.5149
日期:	-11.515
考验	-11.5151
胚胎	-11.5151
儿童文学	-11.5151
粘土	-11.5152
,每天	-11.5152
β	-11.5153
烟台市	-11.5154
主要分布在	-11.5154
法学院	-11.5155
▁外形尺寸	-11.5156
中亚	-11.5156
之情	-11.5157
两部	-11.5157
全生育期	-11.5158
,尤其	-11.5158
月下旬	-11.5159
浓郁的	-11.5159
,继续	-11.5159
一词	-11.516
已通过	-11.5161
粘膜	-11.5162
148	-11.5162
党总支	-11.5163
中餐厅	-11.5163
×3	-11.5165
的办学	-11.5165
会同有关部门	-11.5165
文化遗产	-11.5166
四年(	-11.5166
岁的	-11.5166
热能	-11.5167
膀胱	-11.5168
注音	-11.517
950	-11.517
央	-11.517
点的	-11.5172
回合	-11.5173
模式:	-11.5173
商机	-11.5173
技术有限公司	-11.5175
女友	-11.5177
纯净	-11.5177
法。	-11.5178
认定为	-11.5178
,为客户提供	-11.5179
隔热	-11.5179
面条	-11.518
的关注	-11.518
行书	-11.5181
石碑	-11.5182
西域	-11.5183
党委委员、	-11.5184
的利益	-11.5185
笔记本电脑	-11.5188
1名,	-11.5189
,故名。	-11.519
工作原理	-11.519
真是	-11.5191
炸弹	-11.5191
9.2	-11.5192
癫痫	-11.5194
西红柿	-11.5194
竹林	-11.5194
朋友们	-11.5194
。1978年	-11.5195
完好	-11.5195
新娘	-11.5195
语言文字	-11.5195
周易	-11.5196
9.	-11.5197
可以看到	-11.5197
,历经	-11.5198
的爱	-11.5198
,叶片	-11.5198
生产商	-11.5199
学报》	-11.5199
窍	-11.5199
十八年	-11.5201
9月,	-11.5202
技术及	-11.5202
唑	-11.5203
截至	-11.5203
为核心的	-11.5204
茶园	-11.5206
解剖	-11.5207
西边	-11.5207
,具备	-11.5207
渲染	-11.5208
病害	-11.5208
8公里	-11.5209
重点学科	-11.5209
水下	-11.5209
尸体	-11.5211
不适	-11.5212
制造工艺	-11.5212
惠州市	-11.5212
,取得	-11.5213
楼宇	-11.5215
完成的	-11.5216
渊源	-11.5216
3500	-11.5217
,学生	-11.5218
法治	-11.522
海口市	-11.522
驰名	-11.5222
粪	-11.5224
出版《	-11.5225
依旧	-11.5225
位于广东省	-11.5226
被列入	-11.5226
,谓	-11.5226
前线	-11.5226
通体	-11.5227
产品广泛应用于	-11.5228
。叶	-11.5228
术后	-11.5229
瀑	-11.5229
清澈	-11.5229
中国现代	-11.523
杰出的	-11.523
战斗中	-11.523
增设	-11.5232
想到	-11.5232
外包	-11.5232
会员单位	-11.5232
打败	-11.5233
,必	-11.5233
于1999年	-11.5233
米尔	-11.5234
潜在	-11.5234
政治学	-11.5236
为己任,	-11.5237
总占地面积	-11.5237
是上海	-11.5238
墙体	-11.5238
,同时还	-11.5239
凄	-11.5239
的发生	-11.524
丛林	-11.5242
雄性	-11.5243
教学科研	-11.5243
大使	-11.5244
泉州市	-11.5244
风格。	-11.5246
都很	-11.5246
股份制企业	-11.5246
-13	-11.5247
预备	-11.5247
山路	-11.5248
学名	-11.5249
马路	-11.5249
方向的	-11.5249
▁2000年	-11.5249
南美洲	-11.525
石灰	-11.525
出生地	-11.5251
胁	-11.5251
涂装	-11.5251
偶尔	-11.5251
网点	-11.5252
装入	-11.5252
知府	-11.5253
当局	-11.5254
简明	-11.5255
菜系	-11.5255
音乐家	-11.5255
归属	-11.5256
社长	-11.5256
中文名称	-11.5257
管理与	-11.5258
硫化	-11.5258
门下	-11.5259
,西临	-11.5259
副主任。	-11.526
图画	-11.526
后门	-11.5261
为适应	-11.5262
龛	-11.5262
,全长	-11.5262
阶层	-11.5262
总面积1	-11.5262
类专业	-11.5264
被动	-11.5264
5月生,	-11.5267
格斗	-11.5268
辄	-11.5268
上演	-11.5268
快递	-11.5269
方圆	-11.5269
▁你	-11.5269
25%	-11.527
“双	-11.5271
约翰	-11.5271
み	-11.5275
学府	-11.5275
乡政府所在地	-11.5276
相间	-11.5276
一方面	-11.5277
信念	-11.5278
,其实	-11.5278
投入使用	-11.5279
线程	-11.5279
教程》	-11.5282
草书	-11.5283
右侧	-11.5284
聊城	-11.5286
关怀	-11.5286
徙	-11.5288
。故	-11.5288
副总裁	-11.5289
马蹄	-11.5289
经典的	-11.529
是一家专业从事	-11.529
表达了	-11.5291
的好评。	-11.5291
235	-11.5291
に	-11.5292
、南京	-11.5293
支持3	-11.5294
心得	-11.5295
不一	-11.5296
5/	-11.5297
为原料	-11.5298
缔造	-11.5298
的做法	-11.5299
,即可	-11.5301
那时	-11.5302
可惜	-11.5302
公司现有	-11.5304
广播电视大学	-11.5304
食疗	-11.5304
深刻的	-11.5305
,西至	-11.5308
没有任何	-11.5308
头上	-11.531
8月出生,	-11.531
解散	-11.5311
之际,	-11.5312
的重大	-11.5312
了他的	-11.5314
委、	-11.5314
搬运	-11.5315
我司	-11.5316
100多	-11.5316
鲜嫩	-11.5317
其次	-11.5317
文学家	-11.5318
大黄	-11.5319
▁中文名称:	-11.5321
龙岩	-11.5321
。长期从事	-11.5323
相处	-11.5325
积极参加	-11.5326
成才	-11.5329
病例	-11.533
人才。	-11.533
合并而成	-11.5331
聚居	-11.5333
时为	-11.5333
,并为	-11.5334
付款	-11.5334
旅馆	-11.5335
信息网	-11.5335
的临床	-11.5336
优异的	-11.5336
三相	-11.5339
文学艺术	-11.534
管理水平	-11.534
截面	-11.534
羹	-11.5341
网站,	-11.5341
华中科技大学	-11.5341
(北京)	-11.5342
处处	-11.5343
新编	-11.5344
开始发表作品。	-11.5344
迁入	-11.5344
:7	-11.5345
造船	-11.5346
纪检	-11.5347
增生	-11.5348
承担了	-11.5348
理论、	-11.5349
末年	-11.5349
综合实力	-11.5349
培养了	-11.535
作“	-11.5351
自主研发	-11.5352
所谓的	-11.5352
著称	-11.5353
5公里,	-11.5354
的梦想	-11.5354
比率	-11.5355
中美	-11.5356
套装	-11.5356
,并通过	-11.5359
119	-11.5359
▁第二	-11.5359
最后一	-11.5359
格林	-11.536
功能齐全	-11.536
政党	-11.5361
水处理设备	-11.5362
推广应用	-11.5364
毓	-11.5364
的性格	-11.5364
足够	-11.5365
陂	-11.5365
烧开	-11.5367
武士	-11.5367
举办了	-11.5367
铜奖	-11.5368
来源:	-11.5368
真理	-11.5368
专家、	-11.5368
、黑	-11.5369
可使	-11.5369
宴会	-11.5369
第二次世界大战	-11.5369
高职	-11.5373
背景下	-11.5374
侵略	-11.5375
规模化	-11.5375
有功	-11.5376
示范基地	-11.5377
紧紧围绕	-11.5377
小学高级教师	-11.5377
和企业	-11.5379
大幅	-11.5381
技术改造	-11.5381
的作品。	-11.5382
党组副书记	-11.5383
学术期刊	-11.5384
粒,	-11.5385
偿	-11.5386
涉足	-11.5386
站长	-11.5387
组成员	-11.5388
人选	-11.5389
里克	-11.539
蚌	-11.539
绝大多数	-11.539
9.6	-11.5391
上报	-11.5391
人所	-11.5392
综合治理	-11.5392
两家	-11.5393
用书	-11.5395
服务和	-11.5395
冠军。	-11.5396
,满足	-11.5396
抗病	-11.5397
住户	-11.5397
144	-11.5397
轨道交通	-11.5398
430	-11.5399
正处级	-11.5399
晒干	-11.54
1914年	-11.54
一门	-11.54
论文集	-11.54
曾用名	-11.5401
7月1日	-11.5401
参考书	-11.5401
20-	-11.5402
南洋	-11.5403
厨师	-11.5403
能否	-11.5403
贵阳市	-11.5403
类产品	-11.5405
的影响。	-11.5407
黑褐色	-11.5408
罗马尼亚	-11.5409
行情	-11.541
一心	-11.541
动植物	-11.5411
戟	-11.5411
副科级	-11.5411
玻	-11.5412
学校位于	-11.5412
机械加工	-11.5413
之一,是	-11.5416
高铁	-11.5417
超大	-11.5417
▁中文名:	-11.5419
农业科学院	-11.542
数码相机	-11.5421
,授	-11.5422
名城	-11.5422
害虫	-11.5422
喂	-11.5423
主要成分	-11.5424
5.9	-11.5424
“金	-11.5425
有关规定	-11.5425
1-3	-11.5425
洁白	-11.5426
,充分	-11.5427
太和	-11.5427
性情	-11.5428
抗生素	-11.5429
设计与	-11.5429
蔽	-11.5429
侵入	-11.5431
▁最喜欢的	-11.5432
菠萝	-11.5432
县(今	-11.5432
教育工作	-11.5433
有过	-11.5435
诚信经营	-11.5435
,已经	-11.5435
核定	-11.5435
具体的	-11.5436
头、	-11.5437
阻燃	-11.5437
失去了	-11.5438
瘦肉	-11.5438
多重	-11.5438
、文化	-11.5439
华东师范大学	-11.5439
一族	-11.544
杂志社	-11.544
”为宗旨,	-11.5442
前苏联	-11.5443
撇	-11.5443
概论	-11.5444
8.	-11.5444
呼叫	-11.5445
钻井	-11.5445
7.7	-11.5445
蕊	-11.5445
区委书记	-11.5445
的意见	-11.5446
化学品	-11.5447
リ	-11.5448
东湖	-11.5449
琅	-11.5449
乐曲	-11.5451
▁其它	-11.5451
婚庆	-11.5452
质量、	-11.5453
美术家协会会员	-11.5453
▁中文	-11.5453
羽毛球	-11.5455
-3-	-11.5456
批准成立的	-11.5456
辞书	-11.5457
有三	-11.5457
木瓜	-11.5457
二月	-11.5457
而得	-11.5457
的种类	-11.5458
传入	-11.5458
状态,	-11.5459
国土资源	-11.546
型号:	-11.546
课题研究	-11.546
炒香	-11.5461
参加革命	-11.5461
:0	-11.5461
失踪	-11.5462
现有员工	-11.5462
竭诚	-11.5463
▁刘	-11.5463
,约	-11.5464
副市长	-11.5465
不定	-11.5465
配制	-11.5465
神奇的	-11.5466
,主要是	-11.5466
功耗	-11.5467
标题	-11.5467
痒	-11.5467
蚝油	-11.5469
伸出	-11.5469
募	-11.547
无污染	-11.547
进入了	-11.5471
Ω	-11.5472
撑	-11.5472
少林	-11.5473
的命运	-11.5473
等农作物	-11.5473
肠道	-11.5476
各省	-11.5476
菩提	-11.5476
巨人	-11.5477
神经外科	-11.5478
臭氧	-11.5479
的各类	-11.548
环境,	-11.548
隙	-11.5481
结构和	-11.5481
技术水平	-11.5482
监控系统	-11.5483
30-	-11.5483
江河	-11.5483
环境幽雅	-11.5483
给出	-11.5484
文凭	-11.5484
1钱,	-11.5485
天山	-11.5485
概率	-11.5486
加强对	-11.5487
适当的	-11.5487
模式。	-11.5488
合作关系	-11.5488
烧伤	-11.549
垄断	-11.5491
具有一定的	-11.5491
计算机应用	-11.5492
天后	-11.5492
浪费	-11.5493
古时	-11.5493
利息	-11.5493
的一座	-11.5493
芸	-11.5494
深远	-11.5494
一大批	-11.5495
初年	-11.5495
非物质文化遗产	-11.5496
娥	-11.5496
。1937年	-11.5496
精巧	-11.5498
白术	-11.5499
锚	-11.5501
是一家专业	-11.5502
不已	-11.5503
历来	-11.5503
来看,	-11.5503
专业人士	-11.5504
氧化物	-11.5504
是英国	-11.5505
最优秀的	-11.5506
人”	-11.5506
听力	-11.5507
15公里	-11.5508
属下	-11.5509
为目的	-11.551
、东	-11.551
楼房	-11.5511
皓	-11.5511
,北靠	-11.5512
革命烈士	-11.5512
手册》	-11.5513
,协助	-11.5513
:‘	-11.5514
匈奴	-11.5514
风流	-11.5515
方便快捷	-11.5515
效能	-11.5515
行业内	-11.5516
陷阱	-11.5517
她在	-11.5518
石、	-11.5518
石墨	-11.5519
妇人	-11.5521
,何	-11.5521
昔日	-11.5523
靴	-11.5523
致力于为	-11.5524
过程。	-11.5524
省会	-11.5524
之声	-11.5525
王家	-11.5526
之下,	-11.5526
过去的	-11.5527
信息管理	-11.5528
酰胺	-11.5531
三世	-11.5531
工具,	-11.5531
50公里	-11.5531
试样	-11.5532
和方法	-11.5532
倦	-11.5534
劳动者	-11.5534
等系列	-11.5535
”称号,	-11.5536
写意	-11.5536
叛	-11.5537
农村经济	-11.5538
的法律	-11.5538
市镇	-11.5538
研究会副会长	-11.5539
减小	-11.5539
伊斯兰	-11.5541
农科院	-11.5541
左侧	-11.5542
不太	-11.5542
质量和	-11.5545
5名	-11.5545
交通便利,	-11.5547
第一品牌	-11.5547
淹	-11.5548
航道	-11.5548
,山东	-11.5548
防静电	-11.5548
大全	-11.555
才会	-11.555
衢	-11.5551
,减少	-11.5552
详细的	-11.5552
萃	-11.5554
是一	-11.5554
木雕	-11.5554
断层	-11.5554
工程的	-11.5554
写了	-11.5555
聚氨酯	-11.5556
株洲	-11.5557
的观点	-11.5557
,山东省	-11.5558
钱,	-11.5559
也称为	-11.5559
漏洞	-11.5559
正中	-11.556
方针政策	-11.556
花生油	-11.5562
委员会委员。	-11.5564
战线	-11.5564
,有些	-11.5566
赞誉	-11.5567
颊	-11.5567
轻型	-11.5567
ㄕ	-11.5568
▁10	-11.5569
条件的	-11.5569
洛阳市	-11.5571
滋味	-11.5574
国际国内	-11.5575
,另外	-11.5576
介于	-11.5577
语:	-11.5578
椭圆形,	-11.5579
旌	-11.5579
的结合	-11.558
房型	-11.5581
闺	-11.5582
地位。	-11.5583
人性	-11.5584
制图	-11.5586
丸,	-11.5588
新老客户	-11.5589
发展和	-11.5589
排名第	-11.5589
尾部	-11.559
左手	-11.559
232	-11.5591
海运	-11.5591
文武	-11.5592
颜色:	-11.5594
实在	-11.5595
英文名:	-11.5596
三家	-11.5596
多条	-11.5597
附属医院	-11.5597
绮	-11.5599
环路	-11.56
,及时	-11.56
烧结	-11.5602
移动通信	-11.5602
杂志编委	-11.5602
燃油	-11.5603
县委副书记	-11.5605
介绍:	-11.5605
饱和	-11.5606
▁金	-11.5608
张家界	-11.5609
操作简单	-11.561
十七年	-11.561
▁2008	-11.5611
料理	-11.5611
之际	-11.5612
管理团队	-11.5613
2条	-11.5613
沧桑	-11.5614
目标。	-11.5614
电大	-11.5614
施肥	-11.5615
科研院所	-11.5615
动人	-11.5617
完备的	-11.5617
这两	-11.5617
矣。	-11.5617
突出的	-11.5618
同心	-11.5618
自治县	-11.5618
液晶屏	-11.5619
家装	-11.5619
带头人	-11.5619
雏	-11.562
河流域	-11.562
▁其	-11.562
18年	-11.562
教书育人	-11.5621
演示	-11.5622
视力	-11.5622
唐宋	-11.5622
潮汕	-11.5623
80后	-11.5624
硕士研究生导师	-11.5625
生猪	-11.5626
<<	-11.5627
产品重量:	-11.5627
规章制度	-11.5629
之意。	-11.5629
高职高专	-11.563
瞻	-11.563
忘记	-11.563
电热	-11.5631
诞	-11.5631
,1981年	-11.5631
的灵魂	-11.5635
底盘	-11.5635
▁2010	-11.5636
交通枢纽	-11.5637
,北临	-11.5637
牌坊	-11.5637
协定	-11.5637
主干	-11.5638
黄豆	-11.5638
证书。	-11.5638
绛	-11.5639
天门	-11.5639
规划教材	-11.5639
办副主任	-11.5641
破裂	-11.5642
,之后	-11.5643
泸	-11.5643
极富	-11.5643
进了	-11.5643
的作用,	-11.5644
制的	-11.5644
南边	-11.5644
位于河南省	-11.5644
永不	-11.5644
单个	-11.5645
/10	-11.5645
不清	-11.5646
白玉	-11.5648
脊柱	-11.5648
万平方米。	-11.5649
鳌	-11.5649
污染物	-11.565
非线性	-11.565
提供最	-11.565
手足	-11.5652
迄今为止	-11.5654
淮海	-11.5654
城、	-11.5657
四海	-11.5657
▁9	-11.5657
外交部	-11.5658
的国际	-11.566
踩	-11.566
花鸟画	-11.5661
公共卫生	-11.5662
边防	-11.5662
部门的	-11.5662
平定	-11.5662
短,	-11.5662
发展趋势	-11.5663
肢体	-11.5663
此后	-11.5663
有一天	-11.5664
又被	-11.5665
军用	-11.5666
的数量	-11.5667
罐头	-11.5668
经国家	-11.5668
各位	-11.5669
通话	-11.567
205	-11.5671
三十年	-11.5671
果皮	-11.5672
领域中	-11.5672
居于	-11.5672
特务	-11.5673
与环境	-11.5673
行列	-11.5674
走在	-11.5675
2月,	-11.5675
。多年来,	-11.5675
克莱	-11.5675
系主任	-11.5676
8.1	-11.5677
的人。	-11.5677
财税	-11.5677
新时期	-11.5678
经济作物	-11.568
净水	-11.568
、天津	-11.568
先后被评为	-11.5681
更具	-11.5681
生物工程	-11.5682
同一个	-11.5682
干事、	-11.5682
简历	-11.5683
八十年代	-11.5683
的实施	-11.5683
哲学家	-11.5684
并发症	-11.5684
5000平方米	-11.5684
副理事长	-11.5684
在读	-11.5685
谊	-11.5686
缺点	-11.5686
匾	-11.5687
纤维素	-11.5688
以下简称	-11.5689
剪切	-11.569
く	-11.569
内在	-11.5692
征文	-11.5692
和各种	-11.5693
,交通十分便利。	-11.5693
:1、	-11.5694
•	-11.5695
)/	-11.5696
社区。	-11.5697
资源丰富	-11.5697
放到	-11.5697
孕育	-11.5697
,1963年	-11.5699
水平,	-11.57
的动物	-11.57
果肉	-11.57
血糖	-11.57
是基于	-11.57
养猪	-11.5701
新乡	-11.5701
近几年来	-11.5702
故事。	-11.5702
交易所	-11.5702
收发	-11.5703
批复	-11.5704
萨尔	-11.5705
清凉	-11.5705
。1945年	-11.5706
本名	-11.5706
▁五、	-11.5708
氧气	-11.5709
距离村委会	-11.571
、江苏省	-11.571
典故	-11.5711
肥胖	-11.5711
管理委员会	-11.5713
:20	-11.5714
谕	-11.5714
组织协调	-11.5715
在同一	-11.5715
型材	-11.5715
158	-11.5715
靡	-11.5716
积极开展	-11.5717
拥有一批	-11.5717
15%	-11.5718
独创	-11.5718
永定	-11.5719
股长	-11.5719
腹地	-11.572
锅里	-11.5721
蛤	-11.5723
学会委员	-11.5725
护肤	-11.5725
蝇	-11.5726
时常	-11.5726
一整套	-11.5727
疼	-11.5727
300多	-11.5728
专属	-11.5728
增多	-11.573
的品质	-11.573
640	-11.573
类的	-11.573
的天然	-11.5731
瀛	-11.5732
出名	-11.5732
敏捷	-11.5733
物质的	-11.5734
建成了	-11.5735
存在着	-11.5735
校正	-11.5735
较强的	-11.5737
北区	-11.5738
我是	-11.5738
1人。	-11.5738
寮	-11.5738
承建	-11.5739
山羊	-11.5739
新民	-11.574
无敌	-11.574
定型	-11.574
发票	-11.574
育苗	-11.5741
结构合理	-11.5741
,提升	-11.5742
,希望	-11.5742
雪山	-11.5743
诈	-11.5744
同类产品	-11.5744
生活,	-11.5744
路由	-11.5745
学风	-11.5746
专业服务	-11.5746
领域,	-11.5746
,兼任	-11.5746
栽培技术	-11.5746
地坪	-11.5747
紫砂	-11.5748
情怀	-11.5748
楼层	-11.5748
2400	-11.5748
机遇	-11.5749
、耐	-11.5749
,师从	-11.575
巴士	-11.5751
m2,	-11.5751
中国著名	-11.5751
知识,	-11.5752
极高	-11.5752
镇党委书记	-11.5753
滑雪	-11.5753
愉快	-11.5754
花期	-11.5754
1982年毕业于	-11.5754
迅速发展	-11.5754
奢华	-11.5755
几十年	-11.5755
廓	-11.5755
作家协会会员	-11.5756
新锐	-11.5756
第十二	-11.5757
、广西	-11.5757
被省	-11.5757
成立于2003年	-11.576
自然环境	-11.576
春风	-11.5761
,如:	-11.5761
。《后汉书·	-11.5763
寒冷	-11.5763
日起施行。	-11.5763
显示出	-11.5765
》及《	-11.5766
疫苗	-11.5766
0%	-11.5767
4名	-11.5767
酌	-11.5768
、财务	-11.5769
警卫	-11.5769
体系的	-11.5769
志·	-11.5769
办学条件	-11.577
是德国	-11.577
人生的	-11.5771
水解	-11.5771
。1952年	-11.5772
,才	-11.5773
▁1.将	-11.5773
先进单位”、“	-11.5774
9克	-11.5774
一条龙	-11.5775
晦	-11.5775
6月生,	-11.5776
求职	-11.5776
斯()	-11.5776
引进了	-11.5777
蕉	-11.5778
,增加	-11.5778
顶生	-11.5778
东门	-11.578
躲	-11.5781
胜地	-11.5781
开拓进取	-11.5782
称号,	-11.5782
尽快	-11.5782
司机	-11.5782
葱段	-11.5783
过程的	-11.5786
盛行	-11.5787
溃	-11.5788
间距	-11.5788
。然而	-11.5788
紧凑	-11.5789
(13	-11.5789
佳作	-11.5789
协调发展	-11.5789
老鼠	-11.579
而是	-11.579
空间。	-11.579
箐	-11.579
于1998年	-11.579
国庆	-11.5791
测评	-11.5792
行车	-11.5793
钼	-11.5793
▁公司拥有	-11.5793
站,	-11.5794
,无论	-11.5794
一夜	-11.5794
2人。	-11.5796
参演	-11.5797
除尘	-11.5797
博物馆。	-11.5798
掘	-11.5799
”等荣誉称号。	-11.5799
使他	-11.5799
ㄓ	-11.58
小学位于	-11.5801
跳跃	-11.5807
耳朵	-11.5809
,制定	-11.581
数次	-11.581
焚	-11.581
生产和销售	-11.581
十万	-11.5811
委员会委员、	-11.5811
经济区	-11.5811
高约	-11.5811
则为	-11.5813
破产	-11.5814
畅通	-11.5815
学生会	-11.5815
编辑出版	-11.5817
最后的	-11.5818
,西接	-11.5818
文化传播	-11.5819
师,	-11.5821
安装在	-11.5822
犀	-11.5822
学历教育	-11.5823
毁灭	-11.5824
是世界	-11.5825
严谨的	-11.5825
国标	-11.5826
远东	-11.5826
,连	-11.5827
恶意	-11.5827
恶劣	-11.5828
对外贸易	-11.5828
,力争	-11.5829
原有的	-11.5829
量大	-11.583
海尔	-11.583
严密	-11.5832
全景	-11.5833
100-	-11.5834
,往往	-11.5835
供热	-11.5836
大学教授	-11.5836
绵阳	-11.5837
▁特点:	-11.5837
结局	-11.5838
坚守	-11.584
现拥有	-11.584
畜牧兽医	-11.584
水墨	-11.5845
绿树成荫	-11.5845
条件下,	-11.5845
6克	-11.5846
不堪	-11.5846
教育和	-11.5847
排气	-11.5847
红色,	-11.5847
第11	-11.5847
回转	-11.5848
乍	-11.5848
公认的	-11.5848
其子	-11.5848
兰州市	-11.5851
208	-11.5851
越来越多的	-11.5852
亲情	-11.5853
三等奖。	-11.5853
两地	-11.5853
为代表的	-11.5854
质检	-11.5854
三环	-11.5855
山楂	-11.5855
站站长	-11.5856
学问	-11.5856
肛	-11.5856
自如	-11.5857
管理员	-11.5858
精神文明	-11.5858
锻	-11.5858
水利工程	-11.5858
苷	-11.5859
485	-11.5859
庄子	-11.5861
露出	-11.5862
全文	-11.5862
温室	-11.5863
的原理	-11.5864
落地	-11.5865
为辅	-11.5866
软化	-11.5867
。1981年	-11.5868
变化。	-11.5869
倩	-11.587
8.7	-11.587
。今	-11.587
米饭	-11.587
鲤鱼	-11.5871
水温	-11.5871
-2008	-11.5872
唱腔	-11.5873
恒温	-11.5873
淄博市	-11.5875
诀	-11.5875
30克,	-11.5875
优秀党员	-11.5876
还包括	-11.5876
用途:	-11.5877
部级	-11.5877
生活方式	-11.5881
花粉	-11.5881
铣	-11.5882
之时	-11.5882
这场	-11.5882
农垦	-11.5883
▁第四节	-11.5884
西邻	-11.5885
4月任	-11.5886
可口	-11.5886
邓小平	-11.5886
宣传教育	-11.5887
之神	-11.5887
曲阜	-11.5888
张家	-11.5888
后台	-11.5891
,易	-11.5892
2月任	-11.5892
流水线	-11.5892
很多人	-11.5893
而闻名	-11.5896
坚决	-11.5898
生物化学	-11.5898
为先	-11.5898
详细参数切换到传统表格版	-11.5901
一个小	-11.5902
万能	-11.5903
条。	-11.5903
成立于2005年	-11.5903
公尺	-11.5903
应变	-11.5903
周围的	-11.5904
回乡	-11.5905
万册	-11.5905
占地面积约	-11.5905
文学奖	-11.5906
室温	-11.5906
基础。	-11.5907
需求的	-11.5909
4厘米	-11.5909
这首歌	-11.5909
回国后	-11.5909
衙	-11.591
显然	-11.591
全线	-11.5911
90%以上	-11.5911
遗物	-11.5912
昼夜	-11.5912
听说	-11.5912
连锁酒店	-11.5912
研究项目	-11.5913
,以其	-11.5914
镇西	-11.5917
,堪称	-11.5917
烧烤	-11.5917
舞曲	-11.5917
本病	-11.5918
硅胶	-11.5918
汽车站	-11.5918
弧形	-11.5918
影响,	-11.592
托盘	-11.5921
狩猎	-11.5922
四月	-11.5923
专栏	-11.5924
估	-11.5924
人;	-11.5925
有趣	-11.5925
新星	-11.5925
场馆	-11.5925
御史	-11.5926
0,000	-11.5926
询	-11.5927
农牧	-11.593
走了	-11.593
克里	-11.593
。1955年	-11.5931
气功	-11.5931
纪检监察	-11.5932
、重庆	-11.5933
第一中学	-11.5935
终点	-11.5935
烹调	-11.5936
家湾	-11.5938
立刻	-11.5938
歌》	-11.5938
于一体的综合性	-11.5938
研制开发	-11.5939
科学研究所	-11.5939
力量。	-11.5943
▁(五)	-11.5943
道家	-11.5943
雕像	-11.5946
职业道德	-11.5946
'///////	-11.5947
_('__'))	-11.5947
交通十分便利	-11.5947
在他的	-11.5948
电荷	-11.5948
攻关	-11.5948
庞大	-11.5949
//..';?>/*/%%:	-11.595
城市的	-11.595
造福	-11.5951
厌	-11.5953
的身体	-11.5954
现象,	-11.5954
黄连	-11.5955
支配	-11.5955
云集	-11.5956
你可以	-11.5956
首饰	-11.5956
162	-11.5957
佛法	-11.5958
汇总	-11.5958
我村	-11.5958
桥、	-11.5958
程序设计	-11.5959
可将	-11.5959
高祖	-11.5959
功底	-11.596
方位	-11.5961
板上	-11.5962
主持完成	-11.5963
投票	-11.5963
泄漏	-11.5963
种植。	-11.5963
视频输出	-11.5964
177	-11.5964
历史文化名城	-11.5965
其中有	-11.5966
协会会员,	-11.5967
。从事	-11.5968
忠实	-11.5969
1.5公里	-11.5969
重生	-11.5972
市场占有率	-11.5972
用语	-11.5972
60年代	-11.5973
,已成为	-11.5974
交流与合作	-11.5975
了不少	-11.5975
156	-11.5975
保洁	-11.5978
乡土	-11.5978
,1958年	-11.5978
交际	-11.5978
指针	-11.598
相关部门	-11.5981
和他的	-11.5981
的女性	-11.5982
具有较高的	-11.5982
的创新	-11.5983
中学教师	-11.5984
。这一	-11.5985
,据	-11.5986
师、	-11.5986
多处	-11.5986
在一起,	-11.5987
并获	-11.5987
会员,	-11.5989
丰产	-11.599
走廊	-11.5991
亥	-11.5992
9公里	-11.5992
俏	-11.5993
庄、	-11.5993
约4	-11.5993
纹理	-11.5995
窜	-11.5996
红褐色	-11.5999
师德	-11.5999
等诸多	-11.6001
:12	-11.6002
是企业	-11.6002
仅次于	-11.6002
省卫生厅	-11.6003
朴实	-11.6005
进度	-11.6005
环形	-11.6005
仙女	-11.6005
年降水量	-11.6006
不停	-11.6006
复活	-11.6006
。1947年	-11.6008
秤	-11.6008
癣	-11.6008
紫金	-11.601
终极	-11.601
系统地	-11.601
▁2004	-11.6011
毫克	-11.6011
年年	-11.6013
仿佛	-11.6013
助学	-11.6015
浓厚	-11.6015
醛	-11.6016
经营模式	-11.6017
称作	-11.6017
祛	-11.6017
研发、生产、销售	-11.6018
98年	-11.602
对他	-11.6021
一期工程	-11.6022
处方	-11.6022
资产管理	-11.6023
名将	-11.6024
万吨,	-11.6026
目前公司	-11.6026
,可是	-11.6028
连长	-11.6029
购置	-11.6029
学院教授	-11.6029
必需	-11.603
3—	-11.6032
丁香	-11.6032
泰州	-11.6032
效率高	-11.6032
多层次	-11.6033
,得到了	-11.6033
州,	-11.6033
契约	-11.6035
。另外	-11.6035
形式的	-11.6036
辞赋	-11.6039
黎明	-11.6041
骨架	-11.6042
小块	-11.6042
”,并	-11.6042
包括了	-11.6042
同期	-11.6042
》词:“	-11.6043
发行。	-11.6044
大典	-11.6044
清康熙	-11.6044
银色	-11.6045
史诗	-11.6045
、电	-11.6046
隆重	-11.6046
五花肉	-11.6047
制作、	-11.6048
常见病	-11.6048
百里	-11.6049
调到	-11.605
鲜艳	-11.605
沿江	-11.605
和国际	-11.6051
指导下	-11.6053
、青	-11.6053
牺牲。	-11.6053
立方米	-11.6054
、维生素	-11.6056
的研究,	-11.6057
玩法	-11.6058
互通	-11.6059
现任中共	-11.606
不存在	-11.606
淮安	-11.606
领导和	-11.6061
高地	-11.6061
林业局	-11.6062
远古	-11.6063
平方千米,	-11.6063
几次	-11.6063
注意事项	-11.6065
使之	-11.6065
1998.	-11.6065
的女孩	-11.6065
学会理事、	-11.6065
配套的	-11.6066
徐州市	-11.6066
未经	-11.6066
成名	-11.6067
谒	-11.6067
技工学校	-11.6069
癸	-11.607
航线	-11.6071
通过国家	-11.6072
高水平	-11.6072
饮酒	-11.6073
他们在	-11.6074
稀释	-11.6074
说是	-11.6074
后续	-11.6074
沫	-11.6074
地基	-11.6075
区人民政府	-11.6076
、周	-11.6076
祺	-11.6077
休闲度假	-11.6077
珠海市	-11.6078
每个人	-11.6078
。通常	-11.6079
。最后	-11.6082
早期的	-11.6084
功能性	-11.6084
而出	-11.6084
兴办	-11.6084
这时	-11.6085
西藏自治区	-11.6086
1916年	-11.6087
英勇	-11.6087
安全、	-11.6088
烤箱	-11.6089
生日:	-11.6089
顷	-11.609
金黄	-11.609
16岁	-11.609
这套	-11.609
300余	-11.6091
应邀	-11.6091
寻常	-11.6092
科长、	-11.6092
沐浴	-11.6092
警方	-11.6093
、深圳	-11.6093
穴位	-11.6095
后,在	-11.6095
捞	-11.6097
合约	-11.6098
正常的	-11.6099
精髓	-11.6099
西门	-11.6099
领域。	-11.6099
85%	-11.6101
块状	-11.6101
的方法。	-11.6101
娅	-11.6101
嫌	-11.6101
番禺	-11.6102
人力	-11.6103
电子邮件	-11.6103
一定会	-11.6104
亦作	-11.6104
的企业精神	-11.6104
的控制	-11.6107
柿	-11.6111
委宣传部	-11.6112
同学们	-11.6112
诱导	-11.6115
保障。	-11.6116
长于	-11.6116
分部	-11.6117
的认可	-11.6117
。毕业于	-11.6117
,还可以	-11.6117
的日子	-11.6118
蘸	-11.6118
中风	-11.6118
操场	-11.6118
仔细	-11.6119
村委会,属于山区。位于	-11.612
莲子	-11.6121
微小	-11.6122
镇政府所在地	-11.6123
全资	-11.6123
行销	-11.6123
丢失	-11.6124
齐全的	-11.6124
责任制	-11.6126
乡人	-11.6128
,我国	-11.6129
卷。	-11.6131
湛江	-11.6131
4×	-11.6132
??	-11.6133
博学	-11.6133
数据的	-11.6133
优越的	-11.6134
联网	-11.6134
さ	-11.6134
叶子	-11.6136
瞄准	-11.6136
继承了	-11.6137
40公里	-11.6137
第一期	-11.6139
和研究	-11.6139
文帝	-11.6139
191	-11.6142
就开始	-11.6142
,被誉为“	-11.6143
斯蒂	-11.6143
高教	-11.6143
轰	-11.6143
129	-11.6144
文化馆	-11.6145
□	-11.6145
成立于2006年	-11.6145
定位于	-11.6145
同胞	-11.6145
免疫力	-11.6145
思想政治教育	-11.6146
新生代	-11.6147
”品牌	-11.6147
左右的	-11.6148
较深	-11.6148
大山	-11.615
很高的	-11.6151
100万	-11.6152
魅	-11.6152
头村	-11.6153
天涯	-11.6154
,楼高	-11.6154
哮喘	-11.6155
疣	-11.6156
服务社会	-11.6158
——“	-11.6158
三代	-11.6158
供销社	-11.6158
四人	-11.6158
三间	-11.616
次,	-11.616
结构、	-11.6161
15-	-11.6162
正统	-11.6163
压力容器	-11.6163
山川	-11.6164
菏泽	-11.6164
,1980年	-11.6164
音译	-11.6164
西安交通大学	-11.6165
分子量	-11.6166
庙宇	-11.6166
网址	-11.6167
1茶匙	-11.6169
领土	-11.6169
虹桥	-11.6169
产区	-11.617
撰写的	-11.6171
无关	-11.6174
调研员	-11.6174
造像	-11.6174
团员	-11.6175
生产线,	-11.6176
风景秀丽的	-11.6177
×5	-11.6177
协会会长	-11.6177
北边	-11.6177
中小学生	-11.6178
8.9	-11.6178
交替	-11.6178
民警	-11.618
外型	-11.618
制度。	-11.618
的一条	-11.618
,避免	-11.6181
泰安市	-11.6182
盛大	-11.6182
的文章	-11.6182
防风	-11.6182
博士生	-11.6183
航行	-11.6184
离休	-11.6185
的情感	-11.6185
之父	-11.6186
分析了	-11.6186
街镇	-11.6187
小巧	-11.6187
入驻	-11.6187
数据线	-11.6188
365	-11.6188
(!	-11.6189
▁9.	-11.6189
饮用水	-11.619
完善,	-11.6191
着手	-11.6191
,因其	-11.6191
微创	-11.6191
为中心的	-11.6191
为主题的	-11.6193
奶牛	-11.6193
———	-11.6193
云:“	-11.6193
讲师,	-11.6195
见面	-11.6195
★	-11.6197
消肿	-11.6197
是非	-11.6197
部份	-11.6197
社会效益	-11.62
只好	-11.62
11月,	-11.6201
:一是	-11.6203
。不过	-11.6203
尚有	-11.6204
研究所副所长	-11.6204
抗性	-11.6206
材料、	-11.6206
信托	-11.6206
着力	-11.6207
的人员	-11.6208
六年(	-11.6208
4月生,	-11.6208
9人	-11.621
报表	-11.6211
内脏	-11.6211
560	-11.6212
社会保险	-11.6212
2两,	-11.6214
写成	-11.6214
长篇小说《	-11.6214
设计制作	-11.6214
,认为	-11.6215
武侠	-11.6215
▁现在	-11.6216
年,	-11.6216
离婚	-11.6217
下入	-11.6217
并于	-11.6217
▁2009	-11.6217
地方政府	-11.6219
又译	-11.6219
地球化学	-11.6219
,从而使	-11.622
耐热	-11.622
痛,	-11.6222
洗干净	-11.6224
低,	-11.6225
附着	-11.6225
感。	-11.6227
活化	-11.6228
深层	-11.6228
主料:	-11.6229
生理学	-11.6229
接口,	-11.6229
。近年来	-11.6229
布里	-11.623
;2	-11.6231
总编辑	-11.6232
这件	-11.6232
填补了	-11.6232
1915年	-11.6232
乔木	-11.6232
欧式	-11.6234
石窟	-11.6234
卫生院	-11.6235
食品加工	-11.6235
少先队	-11.6235
,面向	-11.6236
管理部门	-11.6236
敢于	-11.6237
兴业	-11.6238
地壳	-11.6238
栅	-11.6238
妍	-11.6238
德拉	-11.6238
、广告	-11.6239
成立于2002年	-11.6239
集团股份有限公司	-11.6239
风靡	-11.624
铺设	-11.624
批准成立	-11.6241
,并获得	-11.6242
III	-11.6242
在当地	-11.6242
华语	-11.6242
是一支	-11.6242
嫂	-11.6244
冬笋	-11.6244
电影制片厂	-11.6244
被国家	-11.6245
灯、	-11.6247
并行	-11.6247
13人	-11.6247
后历任	-11.6247
迁居	-11.6248
与服务	-11.6251
非标	-11.6251
石器	-11.6252
大阪	-11.6252
他曾	-11.6252
溴	-11.6253
尼龙	-11.6253
军民	-11.6253
职务:	-11.6253
特拉	-11.6254
膨大	-11.6254
▁距	-11.6254
渴	-11.6255
板栗	-11.6255
电源适配器	-11.6255
该机	-11.6257
反击	-11.6257
所在的	-11.6257
切块	-11.6259
随之	-11.6259
抵押	-11.6261
指导和	-11.6262
地理学	-11.6263
。即	-11.6263
血压	-11.6263
处罚	-11.6264
举行。	-11.6264
店)	-11.6265
、赵	-11.6266
的支持	-11.6266
化疗	-11.6266
政治部主任	-11.6267
师资队伍	-11.6267
度。	-11.6267
闵	-11.6269
建模	-11.6271
乐观	-11.6272
▁喜欢的	-11.6272
公元前	-11.6275
学习。	-11.6275
湖州	-11.6275
一直以来	-11.6275
产品类型:	-11.6276
340	-11.6276
中国人民	-11.6276
粉红色	-11.6277
两类	-11.6279
繁育	-11.6279
333	-11.6279
反抗	-11.6279
矿务局	-11.628
黄埔军校	-11.6282
客服	-11.6282
重叠	-11.6283
50°C	-11.6283
20克,	-11.6283
示范校	-11.6284
产品已	-11.6284
之说	-11.6284
3亩	-11.6285
国会	-11.6285
官兵	-11.6287
已发展成为	-11.6287
出租车	-11.6288
征集	-11.6288
正当	-11.629
杂志上发表	-11.629
示范区	-11.6291
疑难杂症	-11.6292
火炬	-11.6293
五种	-11.6294
旗帜	-11.6295
脊髓	-11.6296
道:“	-11.6297
七星	-11.6297
脚本	-11.6298
碑文	-11.6299
跨国	-11.63
互联	-11.63
总部设在	-11.63
夺取	-11.63
所著	-11.63
意思是	-11.6302
老抽	-11.6302
副处级	-11.6302
学校现有	-11.6302
勇气	-11.6303
搬迁	-11.6306
专业化的	-11.6306
4-5	-11.6307
绍酒	-11.6308
。然而,	-11.6308
稽	-11.6308
旺盛	-11.6308
力量,	-11.631
目标是	-11.6313
万家	-11.6313
使用寿命	-11.6313
最初的	-11.6313
学会会员。	-11.6315
锁定	-11.6315
转战	-11.6315
3公里,	-11.6316
杨家	-11.6317
秘书处	-11.6317
词条	-11.6319
,此时	-11.6319
专线	-11.6321
台湾省	-11.6322
濒	-11.6322
酷爱	-11.6322
科学、	-11.6323
经济学家	-11.6323
记述	-11.6324
细胞的	-11.6325
30万	-11.6325
公文	-11.6325
算是	-11.6326
音乐人	-11.6326
殿堂	-11.6327
”系列	-11.6328
在位	-11.6328
将于	-11.6328
,周边	-11.6328
,直径	-11.6329
乡、	-11.6329
权威性	-11.6329
分钟车程	-11.633
铎	-11.6331
▁(5)	-11.6332
目的是	-11.6333
哩	-11.6333
1月,	-11.6335
科技局	-11.6335
排球	-11.6336
茧	-11.6336
辅导员	-11.6337
教育系统	-11.6338
,建筑面积	-11.6339
字形	-11.634
三面	-11.634
自然资源	-11.6341
(见	-11.6341
聊	-11.6341
私营企业	-11.6341
痹	-11.6342
措施,	-11.6343
活动场所	-11.6344
。1951年	-11.6344
子弹	-11.6345
。但是,	-11.6347
肾脏	-11.6349
贵金属	-11.635
砂岩	-11.635
腾飞	-11.6352
傻	-11.6353
完备	-11.6353
网络小说	-11.6354
作品有《	-11.6355
电子书	-11.6356
,依托	-11.6357
9年	-11.6357
。1935年	-11.6357
。离	-11.6358
的过程。	-11.6358
月经	-11.6358
大葱	-11.6358
4次	-11.6358
370	-11.6359
顺应	-11.6359
供销	-11.6359
嫡	-11.636
综合管理	-11.6361
40余	-11.6361
、经济	-11.6361
阅览室	-11.6361
桂林市	-11.6362
年鉴	-11.6362
接线	-11.6362
省科技厅	-11.6362
经营者	-11.6365
的信任	-11.6365
东经1	-11.6368
1979	-11.6368
严肃	-11.6369
是专业从事	-11.6371
调动	-11.6371
言,	-11.6371
部委	-11.6373
技术力量	-11.6373
公交车	-11.6374
吸入	-11.6376
当地人	-11.6376
舟山	-11.6376
30米	-11.6376
高等专科学校	-11.6376
建筑群	-11.6376
微机室	-11.6377
3月出生,	-11.6377
上学	-11.6378
火炮	-11.6379
国家二级	-11.6379
发展方向	-11.6379
自然村隶属于云南省	-11.638
药业	-11.638
队,	-11.638
领略	-11.6381
研发的	-11.6382
器的	-11.6384
名胜	-11.6384
应用技术	-11.6384
的土地	-11.6387
临汾	-11.6387
俗名	-11.6387
211	-11.6388
化痰	-11.6388
围墙	-11.6388
精制	-11.6388
。花期	-11.6389
材料,	-11.639
智利	-11.639
社员	-11.639
资本主义	-11.639
之时,	-11.6391
的定义	-11.6391
漂流	-11.6392
召开的	-11.6392
;组织	-11.6392
擢	-11.6393
预订	-11.6394
操控	-11.6394
您可以	-11.6395
,内容	-11.6395
波浪	-11.6396
全院	-11.6398
出来。	-11.6398
融为一体	-11.6398
4～	-11.6398
笨	-11.6398
崇祯	-11.6398
中国书法	-11.6399
喷射	-11.6399
是全球	-11.6399
书法家协会会员	-11.6399
,曾经	-11.64
咸阳	-11.64
联手	-11.64
宣言	-11.64
施行	-11.64
通常是	-11.6401
倒卵形	-11.6403
地方性	-11.6405
获得国家	-11.6407
看似	-11.6409
缴纳	-11.6409
’,	-11.6409
致力于打造	-11.641
四处	-11.6411
规范性文件	-11.6411
产业的	-11.6412
五星	-11.6412
阐释	-11.6412
待用。	-11.6413
财经大学	-11.6413
主要研究	-11.6413
教学、科研	-11.6413
万余人	-11.6414
460	-11.6414
一是	-11.6414
夔	-11.6414
。他是	-11.6415
为3	-11.6416
研究所、	-11.6416
友情	-11.6417
能满足	-11.6418
品。	-11.6418
太仓	-11.6419
文化中心	-11.642
马力	-11.6421
179	-11.6421
螺丝	-11.6422
奇石	-11.6423
学术界	-11.6423
梳理	-11.6423
队伍。	-11.6424
捻	-11.6424
,主	-11.6424
对应的	-11.6425
销往	-11.6425
中年	-11.6427
自此	-11.6427
第十三	-11.6427
任教于	-11.6427
荷叶	-11.6427
裘	-11.6427
地质学	-11.6428
报告文学	-11.643
不怕	-11.6431
高级工程师。	-11.6431
班子	-11.6431
反响	-11.6432
近在咫尺	-11.6433
天津大学	-11.6434
长1	-11.6434
角落	-11.6434
环氧	-11.6435
山脚下	-11.6435
科技人员	-11.6435
秦汉	-11.6435
:(	-11.6437
物理系	-11.6438
与控制	-11.6439
,分布于	-11.6439
兰花	-11.644
奥斯卡	-11.644
本产品	-11.6441
讨厌	-11.6441
优于	-11.6442
内含	-11.6442
[...]
