[UNK]	0
[PAD]	0
[CLS]	0
[SEP]	0
[MASK]	0
,	-3.71276
。	-4.11613
r쎯	-4.13593
、	-4.17925
▁	-4.60257
t쎯	-5.03893
d쎯	-5.55446
o쎯	-5.67492
j쎯	-5.7374
gn쎯	-5.80838
(	-5.82826
k쎯	-5.88615
:	-5.94344
;	-5.94431
tffu쎯	-5.99265
e쎯	-6.03483
)	-6.0604
ey쎯	-6.18604
《	-6.21307
w쎯	-6.25192
c쎯	-6.29417
“	-6.31663
dd쎯	-6.33138
h쎯	-6.33466
”	-6.46061
pp쎯	-6.53338
b쎯	-6.58505
g쎯	-6.65586
gf쎯	-6.65996
ak쎯	-6.67526
cf쎯	-6.71225
i쎯	-6.77771
rg쎯	-6.82323
k쎯l쎯	-6.8474
f쎯	-6.8534
egc쎯	-6.87452
ih쎯	-6.8899
ym쎯	-6.92323
wc쎯ngk쎯	-6.9387
dmj1쎯	-6.9477
gc쎯	-6.95234
ii쎯	-6.95356
》	-6.96929
usr쎯	-6.99764
jf쎯	-7.00169
-	-7.01152
mmm쎯	-7.01583
aq쎯	-7.01583
·	-7.01952
bb쎯	-7.03194
uqf쎯	-7.03593
dg쎯	-7.03683
et쎯	-7.04154
mh쎯	-7.04623
ymhj쎯	-7.0668
쎁	-7.06928
puhc쎯	-7.08119
gh쎯	-7.08286
쎃	-7.08559
쎂	-7.10103
.	-7.11298
ww쎯	-7.11448
ntg쎯	-7.1306
e쎯bv쎯wc쎯ngk쎯	-7.13789
mw쎯	-7.14207
qq쎯	-7.15156
adw쎯	-7.15462
rn쎯	-7.15678
gcf쎯	-7.17616
whf쎯og쎯	-7.1844
ta쎯	-7.19666
pe쎯	-7.20225
gd쎯	-7.20454
a쎯wt쎯	-7.21048
fq쎯	-7.28301
tg쎯	-7.28464
ftbt쎯yce쎯	-7.29634
fny쎯og쎯	-7.29805
ua쎯	-7.30644
dn쎯	-7.31481
/	-7.31549
go쎯	-7.31809
ggg1쎯	-7.31929
qqqq1쎯	-7.32045
wf쎯	-7.32213
bm쎯	-7.32291
rfc쎯sy쎯	-7.33395
쎄	-7.33575
bn쎯	-7.36446
fj쎯tf쎯	-7.36561
sk쎯	-7.36817
qfhw0쎯	-7.37532
sf쎯	-7.37941
yygy쎯	-7.38051
txi쎯xyc쎯	-7.3825
wug1쎯gf쎯	-7.39175
qk쎯	-7.39286
u쎯kkk쎯	-7.40512
ftj쎯	-7.40747
if쎯	-7.41172
,j쎯	-7.41204
wtf쎯	-7.41699
fm쎯	-7.42215
》、《	-7.42286
()	-7.42294
ue쎯	-7.42317
dga쎯pwv쎯	-7.42413
ip쎯	-7.44681
sghg1쎯	-7.44776
sg쎯	-7.44848
쎅	-7.45314
uk쎯	-7.45836
"	-7.46387
ai쎯	-7.46394
,d쎯	-7.46926
。”	-7.47261
fg쎯	-7.47664
a쎯tkgg0쎯	-7.4801
kht쎯	-7.48429
l쎯	-7.48485
dgtg쎯	-7.48509
ny쎯	-7.49349
fd쎯	-7.49552
awx쎯	-7.50092
itx쎯	-7.50407
g쎯wh쎯	-7.51311
x쎯	-7.51325
ftjb쎯	-7.52978
vfhp1쎯ymc쎯	-7.53202
eb쎯tl쎯	-7.54727
cn쎯	-7.5489
thd쎯	-7.55017
ip쎯suq쎯	-7.5568
ce쎯	-7.5601
jfd쎯	-7.56353
wb쎯	-7.5649
c쎯ey쎯	-7.56585
tu쎯	-7.56603
dx쎯	-7.56778
l쎯pe쎯	-7.57353
yygy쎯wx쎯	-7.57713
aa쎯	-7.5772
xte쎯	-7.57813
je쎯	-7.58111
tfl쎯	-7.58411
tp쎯gj쎯	-7.58526
쎆	-7.58994
dd쎯ip쎯	-7.59029
l쎯bf쎯	-7.59128
lh쎯	-7.59161
wx쎯	-7.59294
wv쎯	-7.59321
uthp쎯	-7.59762
ymc쎯yf쎯	-7.60398
fp쎯	-7.62789
gajf쎯	-7.64325
vfhp1쎯tam쎯	-7.64559
sm쎯	-7.6489
gg쎯	-7.65402
rrr쎯	-7.66316
ss쎯	-7.66428
iq쎯	-7.66644
udi쎯	-7.66992
xt쎯	-7.6807
tf쎯	-7.68318
adm쎯hhhh쎯	-7.68799
xa쎯	-7.69228
vk쎯	-7.69854
gu쎯	-7.69921
쎈	-7.70194
쎇	-7.70454
amw쎯	-7.70865
pv쎯	-7.7117
”。	-7.71429
qh쎯	-7.71631
dp쎯	-7.71647
v쎯	-7.71739
jjjj쎯	-7.71749
hw쎯e쎯	-7.71793
,ua쎯	-7.72138
wxf쎯	-7.72142
),	-7.72205
v쎯nae쎯	-7.73687
ux쎯yiu쎯	-7.74332
udh쎯	-7.74743
ymhj쎯fnrt쎯	-7.75365
dm쎯	-7.756
s쎯	-7.75819
mq쎯	-7.76466
ty쎯	-7.76472
wt쎯	-7.76691
ux쎯	-7.76917
wsg0쎯	-7.78183
xg쎯	-7.78419
ige쎯	-7.78508
쎁쎀	-7.78594
txi쎯	-7.78827
tm쎯	-7.7949
mqq쎯	-7.79745
uyh쎯	-7.80301
tg쎯u쎯	-7.80697
,c쎯	-7.80771
ga쎯	-7.80812
ghd0쎯	-7.8088
ip쎯bpf쎯	-7.80938
tk쎯	-7.81571
cep쎯fp쎯	-7.81606
dr쎯	-7.81769
k쎯ny쎯	-7.81818
rj쎯waw쎯	-7.82147
isk쎯	-7.82181
m쎯	-7.8226
kkkk0쎯	-7.82783
fqb1쎯	-7.82864
hko쎯	-7.83002
sb쎯	-7.83657
pl쎯	-7.83807
xeg쎯xkw쎯	-7.83879
ck쎯	-7.8403
ugdu쎯	-7.84047
kf쎯	-7.84281
cc쎯	-7.84565
nnh쎯	-7.84642
wg쎯	-7.84872
mqq쎯xtk쎯	-7.85129
cep쎯	-7.85327
f쎯aq쎯	-7.85364
yy쎯	-7.85442
ymc쎯tlf2쎯	-7.85593
wgkq0쎯et쎯	-7.86203
wys쎯	-7.86396
lk쎯	-7.86418
jb쎯	-7.8652
tgj쎯	-7.86765
trf쎯	-7.86788
h쎯itx쎯	-7.87055
tj쎯	-7.87623
gmww쎯	-7.87743
ith쎯	-7.88082
sh쎯	-7.881
yi쎯	-7.8849
rh쎯	-7.88738
fcu1쎯	-7.88827
쎉	-7.89018
wg쎯l쎯	-7.89218
y쎯	-7.89571
dgh쎯	-7.89803
od쎯	-7.89954
ntk쎯	-7.9029
vb쎯	-7.92244
nnnn쎯	-7.92532
lg쎯	-7.92776
fhn쎯	-7.92819
ytyh쎯	-7.93271
!	-7.93414
rcn1쎯	-7.93605
x쎯iyj쎯	-7.93633
pyj쎯	-7.94047
q쎯	-7.94924
an쎯lwj쎯	-7.95231
rt쎯	-7.95485
wc쎯	-7.95678
sk쎯c쎯	-7.95913
ld쎯	-7.96075
dq쎯	-7.97166
ujfj쎯wug1쎯	-7.97276
tu쎯rfc쎯	-7.97365
ya쎯	-7.9759
rmc쎯uqwm0쎯	-7.9784
ccc쎯	-7.98458
th쎯	-7.98631
dnv1쎯	-7.98966
rnb쎯	-7.99627
img쎯	-7.99939
wys쎯lft쎯	-8.00208
jgm쎯	-8.00397
gkp쎯	-8.00467
fd쎯ymhj쎯	-8.00613
tjh쎯	-8.00897
hhu0쎯	-8.01097
——	-8.01628
vvv쎯	-8.01667
fcu0쎯	-8.0192
ftx쎯	-8.01998
kkk쎯thgf0쎯	-8.0226
ia쎯	-8.02315
lq쎯	-8.02491
xx쎯	-8.02842
kkd쎯	-8.03162
tffu쎯。	-8.03241
w쎯,	-8.03455
ugdu쎯l쎯	-8.03458
ep쎯	-8.03471
lt쎯	-8.03934
uy쎯	-8.03978
y쎯s쎯	-8.03998
ltu쎯	-8.04062
,o쎯	-8.0437
ovt쎯	-8.05098
xxf쎯og쎯gf쎯	-8.05413
tp쎯	-8.05639
ssss쎯	-8.05648
i	-8.05658
pb쎯	-8.05663
k	-8.05779
thg0쎯	-8.06266
xe쎯	-8.07066
qgf쎯	-8.07166
wgkq0쎯	-8.07732
ftbt쎯ip쎯	-8.08441
tk쎯tkh쎯	-8.08635
ggi쎯fuj쎯	-8.08645
쎁쎂	-8.08786
anb0쎯sy쎯	-8.08789
yu쎯	-8.09045
aqt쎯	-8.09376
qc쎯	-8.09903
ba0쎯	-8.09934
wt쎯o쎯	-8.10289
uj쎯	-8.10369
tkh쎯	-8.10459
ga쎯vck쎯	-8.10745
yynw1쎯	-8.11193
ujfj쎯	-8.11265
vfhp1쎯	-8.11727
oy쎯	-8.1178
rpw쎯rmhj쎯	-8.12406
gip쎯	-8.12561
w쎯。	-8.12644
iyc쎯	-8.1267
a쎯	-8.12875
vcb쎯	-8.12956
iv쎯	-8.13132
ip쎯nu쎯	-8.13193
bs쎯	-8.13229
adwr쎯	-8.13321
ad쎯	-8.13345
mfk쎯	-8.13459
rmhj쎯	-8.13568
rxj쎯	-8.13603
uh쎯	-8.13724
fggh쎯	-8.14067
reh쎯e쎯	-8.14113
al쎯ce쎯	-8.1413
tf쎯og쎯	-8.14354
ru쎯	-8.14614
ip쎯tg쎯	-8.14631
dn쎯o쎯	-8.14704
ab쎯	-8.14782
a	-8.14876
kgn쎯	-8.14912
bj쎯	-8.15017
》:“	-8.15099
hc쎯	-8.15368
an쎯	-8.15439
cd쎯lk쎯	-8.15628
hx쎯	-8.15809
ytey쎯iytb0쎯	-8.16016
wug1쎯	-8.16161
gjq쎯	-8.16162
fj쎯	-8.1662
mj쎯	-8.16638
tg쎯itd쎯	-8.16973
qi쎯	-8.17034
sfi쎯uwy1쎯	-8.1741
nnk쎯	-8.17595
gef쎯	-8.17754
jg쎯	-8.18072
tjf쎯	-8.18627
tx쎯g쎯	-8.18823
rs쎯	-8.18959
wy쎯thn쎯	-8.20045
pn쎯	-8.20375
r	-8.2077
wgk쎯	-8.2089
t	-8.20917
ww쎯gk쎯	-8.21036
es쎯et쎯	-8.21226
itd쎯fcl쎯	-8.21323
ght쎯ywf쎯	-8.21385
rvyo쎯	-8.21445
p쎯	-8.21543
)。	-8.21547
djd쎯	-8.21733
n쎯	-8.21739
yj쎯	-8.21742
uu쎯	-8.21746
gk쎯	-8.22027
k쎯r쎯	-8.22156
iytb0쎯ca쎯	-8.22448
ukn쎯	-8.22469
ftbt쎯jgm쎯	-8.22796
rp쎯	-8.22931
aw쎯	-8.23026
gah쎯	-8.23182
lft쎯	-8.23223
pg쎯	-8.23386
std쎯	-8.23453
jjjj쎯sg쎯	-8.23505
py쎯wf쎯	-8.23564
txi쎯gq쎯	-8.23717
lll쎯	-8.23902
ul쎯	-8.24168
쎂쎀	-8.24183
wty쎯	-8.24348
q	-8.24357
ic쎯	-8.24418
”,	-8.24439
gy쎯	-8.24545
atd쎯bpf쎯	-8.24588
”、“	-8.24815
lkd쎯	-8.25113
vt쎯	-8.25196
wfny0쎯	-8.25263
wq쎯	-8.25643
um쎯	-8.26109
쎁쎅	-8.26235
gl쎯	-8.26436
。d쎯	-8.26498
wy쎯	-8.26875
xeg쎯	-8.26966
fawk쎯	-8.27175
ts쎯	-8.27428
fc쎯rf쎯	-8.27698
gog쎯	-8.2771
dw0쎯	-8.27739
yid쎯et쎯	-8.27759
”r쎯	-8.28181
uf쎯	-8.28255
puv쎯	-8.28498
dmh쎯	-8.28738
isgg0쎯yhk쎯	-8.28829
xk쎯	-8.28835
dgt1쎯	-8.28934
ga쎯v쎯	-8.2894
eee쎯	-8.29275
wdn쎯te쎯	-8.29389
uqwm0쎯idr쎯	-8.2977
yff쎯	-8.30639
lfo쎯	-8.31042
s	-8.31289
fn쎯	-8.31388
aqt쎯tj쎯	-8.31613
qiu0쎯	-8.31628
ugm쎯	-8.31984
mqb쎯	-8.32242
ffff5쎯	-8.32255
wdt쎯	-8.3226
lp쎯	-8.3232
udbb쎯	-8.32434
,wjg쎯	-8.32551
ftbt쎯	-8.32681
lqw쎯wrh2쎯	-8.32839
src쎯	-8.32853
iit쎯	-8.33066
tmd쎯	-8.33194
ooo쎯	-8.33347
jtg쎯	-8.3346
ipw쎯	-8.33752
jn쎯bb쎯	-8.34045
ide쎯	-8.34067
qr쎯	-8.34321
py쎯aq쎯	-8.34334
hw쎯	-8.34336
wa쎯	-8.34372
pgy쎯	-8.34412
jf쎯,	-8.3446
쎁쎈	-8.34764
bpf쎯	-8.34943
qa쎯	-8.35237
yid쎯	-8.35321
y	-8.35468
ll쎯	-8.35639
tr쎯	-8.35669
jf쎯uj쎯	-8.35684
a쎯og쎯	-8.35927
qn쎯rtd쎯	-8.36074
xq쎯	-8.36108
ajj쎯	-8.36505
yx쎯	-8.3657
j	-8.37237
kq쎯	-8.3733
lfq쎯	-8.37427
js쎯	-8.37784
isgg0쎯	-8.37788
sov쎯	-8.37965
fnrt쎯	-8.38236
ujf쎯qi쎯	-8.38312
qe쎯	-8.38322
rg쎯,	-8.38369
vbn쎯	-8.38466
thd쎯nng쎯	-8.38504
uff쎯	-8.38543
,adw쎯	-8.3887
yi쎯j쎯	-8.3889
ag쎯	-8.39047
tq쎯	-8.39113
ick쎯ubk0쎯	-8.39415
ymf쎯	-8.39739
dl쎯kq쎯	-8.39829
ax쎯	-8.39866
uth쎯	-8.40109
bw쎯	-8.40179
uk쎯wv쎯	-8.40241
jn쎯	-8.40248
ujj쎯	-8.40492
nfc쎯	-8.40547
thd쎯qd쎯	-8.40655
suq쎯	-8.40877
sft쎯ou쎯	-8.40978
～	-8.40986
xw쎯	-8.40992
dj쎯	-8.41096
idr쎯	-8.41219
epc쎯	-8.41256
st쎯	-8.41329
lk쎯ty쎯	-8.4152
scf쎯	-8.41524
fnr쎯	-8.41792
pv쎯wg쎯	-8.42107
yq쎯	-8.42145
qynm1쎯	-8.42257
tv쎯km쎯wf쎯	-8.42723
gj쎯ywx쎯	-8.42729
rgw쎯	-8.42794
g	-8.42986
쎁쎆	-8.43081
x쎯apk쎯	-8.43363
bc쎯	-8.4347
q쎯wu쎯	-8.43545
xf쎯sq쎯	-8.43678
aws쎯	-8.43682
yt쎯	-8.43725
yvh쎯	-8.43824
tfn쎯	-8.44176
쎃쎀	-8.44296
ma쎯	-8.44444
og쎯tl쎯	-8.44476
f	-8.44512
k쎯ip쎯	-8.44765
lpk0쎯	-8.44901
fl쎯wf쎯	-8.44966
swc쎯	-8.45085
sn쎯	-8.45148
px쎯	-8.45475
gae쎯	-8.45488
fh쎯	-8.45495
tu쎯ip쎯	-8.45639
adwe1쎯	-8.4575
,e쎯	-8.45863
d	-8.45868
gm쎯wa쎯	-8.45922
iw쎯	-8.46169
쎁쎁	-8.46192
rfm쎯jg쎯	-8.46262
nd쎯	-8.46264
qn쎯	-8.46269
uqw쎯	-8.46377
pgc쎯	-8.46379
tfq쎯	-8.46479
pfi쎯	-8.46483
w	-8.46636
ihc쎯	-8.46693
yqa쎯	-8.46806
oge쎯	-8.4732
yygt쎯	-8.47336
ae쎯	-8.4739
ipk쎯	-8.47889
bu쎯	-8.47957
nui쎯	-8.48023
ukd0쎯jghm1쎯	-8.48132
nge쎯	-8.48145
wk쎯ryn0쎯	-8.48345
jy쎯	-8.48396
ipkh1쎯	-8.48605
yny0쎯	-8.48627
sve쎯	-8.48679
,dmj1쎯	-8.48771
im쎯e쎯	-8.48772
+	-8.4892
fqu쎯	-8.4894
ff쎯	-8.491
wt쎯kkk쎯	-8.49181
fhw쎯	-8.49504
rmhj쎯tfkp쎯	-8.49528
cnh쎯	-8.49695
irn쎯lg쎯	-8.497
ygk쎯	-8.49778
ywx쎯	-8.49845
og쎯	-8.49983
kthh1쎯	-8.50151
yo쎯	-8.50275
xp쎯wgk쎯	-8.50988
uqd0쎯	-8.51095
wk쎯	-8.51129
gmf쎯	-8.51141
tffh1쎯	-8.51205
wfny0쎯xyc쎯	-8.51591
rfm쎯	-8.51623
dd쎯gajf쎯	-8.5188
bm쎯thgc쎯py쎯	-8.51899
cff쎯	-8.51974
ow쎯	-8.52169
tmg1쎯	-8.52218
gyt쎯	-8.52269
dy쎯	-8.52424
fwm쎯aj쎯	-8.52461
fqp쎯	-8.52546
wyv쎯	-8.53164
ire쎯	-8.53203
kkk쎯	-8.53244
mmm쎯ai쎯	-8.53567
rhf쎯	-8.53654
me쎯	-8.53706
wv쎯sr쎯	-8.53914
thgc쎯	-8.54194
pei쎯og쎯	-8.54533
ujf쎯	-8.5463
xmw쎯	-8.54658
tel쎯	-8.54819
pw쎯	-8.55078
th쎯gj쎯	-8.55089
m	-8.55173
udy쎯	-8.55231
wht쎯	-8.5529
inr쎯	-8.5538
xxg0쎯	-8.5546
hv쎯	-8.55505
kgd쎯	-8.55557
pyg쎯	-8.55557
fny쎯pe쎯	-8.55607
wqa쎯	-8.5563
yh쎯	-8.55643
ftbt쎯rep쎯	-8.55652
mww쎯	-8.55662
쎅쎀	-8.55757
ps쎯	-8.55767
ipkf0쎯	-8.5592
g쎯tkh쎯	-8.56082
fge쎯	-8.56375
n	-8.56491
fcp쎯fcl쎯	-8.56555
i쎯m쎯	-8.56631
wh쎯	-8.56713
tjh쎯et쎯	-8.5673
fhv쎯	-8.5674
xl쎯	-8.56786
pp쎯g쎯。	-8.56796
rc쎯	-8.56885
k쎯md쎯	-8.57077
rmhj쎯wt쎯	-8.57121
lwj쎯	-8.57368
......	-8.57377
ud쎯	-8.57492
lfn쎯	-8.57527
tgj쎯hko쎯	-8.57572
l쎯mw쎯	-8.57577
amd쎯	-8.57638
yf쎯tha쎯sm쎯	-8.58011
wycm0쎯fakg1쎯	-8.58204
kg쎯	-8.58378
gfi쎯	-8.58421
vfb쎯	-8.58443
ge쎯	-8.58516
lu쎯	-8.58573
gkl쎯	-8.59154
—	-8.59453
yww쎯	-8.59794
nx쎯	-8.59867
fghg쎯	-8.59985
qm쎯gmu1쎯	-8.60199
tld1쎯	-8.602
vtk쎯	-8.60505
gm쎯	-8.6058
it쎯	-8.60662
dskf쎯	-8.609
fk쎯	-8.60947
g쎯tem쎯	-8.61558
mqq쎯uh쎯	-8.61574
ip쎯wf쎯	-8.61624
et쎯yne쎯	-8.61631
rb1쎯	-8.61696
yyy쎯	-8.61893
ln쎯	-8.61982
dfy쎯	-8.62208
pu쎯	-8.62227
w쎯km쎯	-8.62313
fcl쎯	-8.62609
,mh쎯	-8.62664
lkmi0쎯	-8.62937
yf쎯aj쎯	-8.62958
fgh쎯	-8.62974
ruv쎯kkkk0쎯	-8.63226
ujn쎯	-8.6324
쎄쎀	-8.6335
dga쎯pwv쎯rn쎯	-8.63476
a쎯anb0쎯	-8.63486
mdf쎯	-8.63616
lk쎯a쎯	-8.63647
tfq쎯fj쎯	-8.6373
rpv쎯	-8.63787
k쎯,	-8.63884
wgk쎯wt쎯	-8.63968
yy쎯aa쎯	-8.64013
jn쎯jyie쎯	-8.64015
pei쎯	-8.64098
ft쎯	-8.64123
adw쎯wb쎯	-8.64155
sve쎯rnd1쎯	-8.64563
fj쎯ty쎯	-8.64612
yy쎯if쎯	-8.64623
ce쎯lt쎯	-8.64715
alw쎯	-8.64748
fhl쎯	-8.64765
sm쎯sa쎯	-8.64784
vo쎯	-8.6499
yne쎯	-8.65057
tjf쎯iawn쎯	-8.65059
wh쎯w쎯	-8.65099
fdm쎯s쎯	-8.65127
fje쎯	-8.65411
adw쎯k쎯	-8.65444
ih쎯ip쎯	-8.65451
nh쎯	-8.65575
fw쎯	-8.65624
p쎯wh쎯	-8.65659
g쎯hxf쎯	-8.65698
ick쎯	-8.65824
khu쎯	-8.66043
uq쎯	-8.6623
dh쎯	-8.66508
tjt쎯	-8.66524
,wgkq0쎯	-8.66823
bwt쎯	-8.66891
pp쎯g쎯	-8.66894
ivw쎯	-8.66937
rhk쎯	-8.67002
kw쎯	-8.67009
uvo쎯	-8.67103
ufy쎯	-8.67473
쎁쎇	-8.67516
fc쎯	-8.67547
pu쎯gm쎯	-8.67604
m쎯jf쎯	-8.67604
sm쎯sq쎯	-8.67646
mtd쎯	-8.67708
yvi쎯	-8.67807
stx쎯	-8.67845
ttg쎯	-8.68325
u	-8.68365
lw쎯	-8.68368
pa쎯	-8.68388
fv쎯	-8.68575
sgh쎯	-8.68827
adnt1쎯	-8.68864
thd쎯fcl쎯	-8.68881
iytb0쎯	-8.68894
pk쎯	-8.68988
dht쎯	-8.6912
nnnn쎯x쎯	-8.69176
s쎯fiy쎯	-8.69532
r쎯g쎯tkh쎯	-8.69585
u쎯og쎯	-8.6966
fii쎯	-8.69835
qgb쎯	-8.69846
yni1쎯	-8.70037
bnn2쎯	-8.70175
py쎯	-8.70293
wdm쎯	-8.70312
wb쎯wu쎯	-8.70581
fuk쎯yk쎯	-8.70831
mmm쎯ai쎯ith쎯	-8.70838
yygy쎯ip쎯	-8.70915
)、	-8.71078
rjg0쎯wtf쎯	-8.71154
gj쎯	-8.71201
cw쎯	-8.7136
bm쎯thgc쎯	-8.71455
j쎯rxj쎯	-8.71588
cm쎯	-8.71629
tx쎯fg쎯	-8.71709
gxi쎯	-8.71738
ijl쎯	-8.71948
yfd쎯	-8.7195
jv쎯	-8.71987
um쎯og쎯	-8.72007
qie쎯wyk쎯	-8.72025
w쎯n쎯ght쎯ywf쎯	-8.7208
pfq쎯dn쎯	-8.72164
pgk쎯	-8.72193
mw쎯pww쎯	-8.72243
ggi쎯	-8.72261
td쎯	-8.72396
xwy쎯	-8.72423
wfg0쎯	-8.72504
flf1쎯	-8.72628
qt쎯	-8.72641
psu쎯	-8.72667
gae쎯dn쎯	-8.72681
x	-8.72859
ugl쎯	-8.73264
dga쎯pwv쎯tg쎯	-8.73316
jqr쎯	-8.73337
vfhp1쎯uu쎯	-8.7371
lh쎯kthh1쎯	-8.73731
xf쎯	-8.73761
yygt쎯sghg1쎯	-8.73838
to쎯	-8.73899
fhu쎯	-8.7398
ovt쎯rnd1쎯	-8.7413
se쎯	-8.74187
qve쎯	-8.74195
tfq쎯tg쎯	-8.74243
tk쎯od쎯	-8.7431
쎁쎃	-8.74417
e쎯ud쎯	-8.74486
dnnl쎯	-8.74601
lhnh쎯	-8.74637
uq쎯cep쎯	-8.74689
,wb쎯	-8.74726
av쎯	-8.7473
ck쎯iyo쎯	-8.74748
jfc쎯	-8.74903
uduk쎯	-8.7492
dn쎯uu쎯	-8.74977
hj쎯	-8.75121
gmww쎯wh쎯	-8.75143
xf쎯wgk쎯	-8.75248
vn쎯	-8.754
hka쎯	-8.75437
gef쎯rh쎯	-8.7557
wxj쎯	-8.75695
qgj쎯	-8.75903
tt쎯	-8.75906
tve쎯	-8.76051
j쎯mh쎯	-8.76061
dwiu쎯	-8.76064
rj쎯ym쎯	-8.7608
ymc쎯	-8.76107
쎁쎀쎀	-8.76214
ywf쎯	-8.7624
u쎯	-8.76412
qd쎯	-8.76416
쎆쎀	-8.76494
sfhg쎯tr쎯	-8.76547
atd쎯ip쎯	-8.7681
yygt쎯ai쎯	-8.7685
hk쎯	-8.76921
cqy쎯	-8.76951
djd쎯ipkh1쎯	-8.76954
uo쎯	-8.76969
iawn쎯	-8.7701
wyv쎯kkk쎯	-8.77014
j쎯g쎯wh쎯	-8.77052
,cf쎯	-8.77079
쎁쎄	-8.77094
wwk쎯	-8.77134
de쎯	-8.77293
pgn쎯	-8.7731
wsg0쎯yce쎯	-8.7734
pt쎯yne쎯	-8.77473
irr쎯ia쎯	-8.77509
apk쎯	-8.77656
ye쎯	-8.77768
fhq쎯	-8.77781
km쎯	-8.77842
yygt쎯ai쎯ith쎯	-8.7793
iagw쎯	-8.78152
yhk쎯	-8.78215
xv쎯	-8.78267
wc쎯kht쎯	-8.78391
wyc쎯	-8.7843
ym쎯xe쎯	-8.78789
wfhg쎯	-8.78891
iex쎯	-8.78912
ait쎯	-8.78993
tdg1쎯	-8.793
sam쎯	-8.79412
et쎯gf쎯	-8.79456
쎂쎅	-8.79557
wa쎯ge쎯	-8.79582
qev쎯	-8.79593
bi0쎯	-8.79594
--	-8.79642
yjs쎯tkgg0쎯	-8.79717
v쎯gm쎯	-8.79739
saj쎯aa쎯	-8.79787
fghy2쎯	-8.7993
wbj쎯wt쎯	-8.79996
aft쎯qk쎯	-8.80024
ylk2쎯	-8.80072
yygt쎯ytyh쎯	-8.80119
ntf쎯	-8.80123
hhhh쎯	-8.80198
ad쎯dbm쎯	-8.80368
wvf쎯yvi쎯	-8.80404
ghd0쎯aa쎯	-8.80413
qg쎯	-8.80426
n쎯ytt쎯	-8.80513
v쎯tg쎯	-8.80801
qmq쎯	-8.80883
ga쎯nae쎯	-8.80968
yb쎯	-8.81003
jn쎯pym쎯	-8.81011
ght쎯	-8.81214
yn쎯	-8.81221
,adw쎯k쎯	-8.81265
xh쎯	-8.81348
jj쎯	-8.81363
ywt쎯	-8.81447
w쎯kkkk0쎯	-8.81562
gny쎯	-8.81824
i쎯ce쎯	-8.82015
sc쎯	-8.82056
yygt쎯tfkf1쎯	-8.82156
ahty쎯	-8.82295
tkgg0쎯ycb쎯	-8.82311
xx쎯lu쎯	-8.82315
riu쎯	-8.82334
쎀	-8.82405
ygk쎯yyy쎯	-8.82759
txg쎯	-8.82823
tfqp쎯	-8.82913
yngk0쎯	-8.82984
rxj쎯nf쎯	-8.82994
sgc쎯	-8.8311
sdm쎯	-8.83174
af쎯wgkb2쎯	-8.83177
by쎯	-8.83269
gq쎯	-8.83376
o	-8.83479
thd쎯nng쎯r쎯	-8.8358
pp쎯uj쎯	-8.83668
usr쎯ub쎯	-8.83825
fm쎯yiu쎯	-8.83901
te쎯	-8.83966
naj1쎯	-8.83982
yy쎯dm쎯	-8.84034
aet0쎯	-8.84046
ad쎯sg쎯	-8.84067
shn쎯	-8.84084
qtj쎯uu쎯	-8.84132
wtu쎯	-8.84138
rdj쎯	-8.84195
kha쎯	-8.84231
ri쎯	-8.84239
,wug1쎯gf쎯	-8.84314
wbj쎯usr쎯	-8.84338
wt쎯et쎯	-8.8438
lwx쎯	-8.84435
you1쎯	-8.84718
w쎯ft쎯	-8.84768
lw쎯wc쎯pgc쎯	-8.84922
,vcb쎯	-8.85005
tj쎯gc쎯	-8.85025
pynn0쎯	-8.85118
wu쎯	-8.85148
:“	-8.85188
bde쎯	-8.85254
rwyg쎯yygt쎯	-8.85273
ia쎯alw쎯ith쎯	-8.85284
tfk쎯	-8.85337
rj쎯	-8.85402
wm쎯	-8.85484
tfqp쎯rcf쎯	-8.85552
rymn쎯	-8.85555
qr쎯kht쎯	-8.85586
pt쎯	-8.85637
a쎯wt쎯。	-8.85694
ywx쎯yygy쎯	-8.85698
kd쎯	-8.85783
fcp쎯	-8.85948
wjg쎯	-8.85964
yv쎯	-8.86155
wvt쎯	-8.86289
wsk쎯	-8.86291
rkk쎯wt쎯	-8.86361
wgi쎯	-8.86398
x쎯fp쎯	-8.866
hhhh쎯ue쎯	-8.86632
ou쎯	-8.86662
aq쎯fakg1쎯	-8.86674
wqj쎯	-8.8668
j쎯g쎯tkh쎯	-8.86705
fcb쎯	-8.86785
yneg쎯	-8.86796
tg쎯gf쎯	-8.86823
adk쎯	-8.86959
pym쎯	-8.86992
q쎯l쎯	-8.87151
~	-8.8717
f쎯yy쎯	-8.87206
ey쎯adw쎯	-8.8722
vtkd1쎯	-8.87316
yygy쎯wrh2쎯	-8.8733
up쎯	-8.87358
od쎯gajf쎯	-8.87402
dn쎯al쎯	-8.87403
yfn쎯	-8.87549
pe쎯ytfp1쎯	-8.87727
tg쎯tr쎯	-8.87913
ha쎯	-8.87925
jgm쎯aib쎯dd쎯ip쎯	-8.87951
sksw쎯	-8.88153
yjj0쎯	-8.88202
ajt쎯	-8.88372
gqx쎯	-8.88421
fjk쎯	-8.88685
dp쎯gc쎯	-8.88778
dc쎯	-8.88947
gs쎯	-8.89089
amd쎯ygk쎯	-8.89161
gmd쎯	-8.89239
ywu쎯	-8.89259
r쎯g쎯wh쎯	-8.89299
dm쎯tkw쎯	-8.89473
ntk쎯gf쎯	-8.89476
nnh쎯if쎯	-8.89552
nty1쎯	-8.89606
xjm쎯	-8.89679
uwyc0쎯	-8.89753
fuk쎯udyj쎯	-8.89809
rn쎯e쎯	-8.89917
bu쎯wgk쎯	-8.89919
qqqq1쎯ntk쎯	-8.9003
e	-8.90102
ktn쎯	-8.90111
ldn쎯	-8.90132
xl쎯eqn쎯	-8.90146
tak쎯	-8.90214
r쎯“	-8.90334
fge쎯fghg쎯	-8.90399
sf쎯tv쎯wf쎯	-8.9042
pu쎯ytb쎯	-8.90482
jyie쎯ktm쎯	-8.90517
da쎯	-8.90554
jf쎯wa쎯	-8.9058
xqa쎯	-8.90986
qnp쎯	-8.91002
imgk쎯	-8.91083
aps쎯	-8.91148
ymc쎯ytb쎯	-8.91175
ytt쎯	-8.91353
wg쎯dm쎯	-8.91475
?	-8.9155
eajd쎯	-8.91621
etg쎯	-8.91707
wrh2쎯	-8.91708
isk쎯fm쎯	-8.91779
us쎯	-8.91793
ng쎯	-8.91807
os쎯	-8.91863
irr쎯ia쎯ith쎯	-8.91983
amd쎯l쎯	-8.91999
gu쎯ck쎯	-8.92043
pf쎯	-8.92061
쎂쎄	-8.92136
pei쎯sf쎯	-8.92429
gcft2쎯lt쎯gf쎯	-8.92429
bgh쎯	-8.92451
iaw쎯	-8.92545
cd쎯gn쎯	-8.92685
tyna2쎯	-8.92778
ce쎯qkqq쎯	-8.92876
temk쎯	-8.92902
isk쎯fm쎯ith쎯	-8.9299
fffy쎯	-8.93023
ngk쎯	-8.93032
wr쎯	-8.93039
wfny0쎯rtol1쎯	-8.93163
rta쎯	-8.93196
iqc쎯	-8.93231
ugdu쎯sy쎯	-8.93246
h쎯r쎯	-8.93263
ygh쎯	-8.93265
ih쎯yu쎯	-8.93303
xgu쎯	-8.93319
jn쎯eyb쎯	-8.93357
mc쎯	-8.93404
wgj쎯	-8.93442
yjjh1쎯	-8.93478
iyw쎯	-8.9349
wynb쎯	-8.93517
dgv쎯	-8.9355
ui쎯	-8.93598
w쎯tr쎯	-8.93647
fh쎯ruv쎯	-8.93648
w쎯n쎯	-8.93721
pu쎯cwg쎯	-8.93872
twt쎯	-8.93904
▁wc쎯ngk쎯	-8.93907
qyvl쎯	-8.93936
ide쎯fm쎯	-8.94135
,ll쎯,	-8.9423
umd0쎯	-8.94247
p쎯hxf쎯	-8.94468
wx쎯ip쎯	-8.94508
pw쎯uj쎯	-8.94634
,uqf쎯	-8.94709
tu쎯dga쎯	-8.9502
u쎯tg쎯	-8.95144
tmo쎯	-8.95168
if쎯tvfh1쎯	-8.95241
wycm0쎯nf쎯	-8.95265
yft쎯	-8.95418
ddu0쎯	-8.95471
bm쎯gm쎯	-8.95692
eu쎯	-8.95767
dgkn쎯	-8.95781
▁《	-8.95866
,vk쎯	-8.95969
wg쎯gfi쎯	-8.96034
bn쎯j쎯	-8.96056
pv쎯tmgt1쎯	-8.96083
hi쎯	-8.961
fcl쎯tr쎯	-8.96174
jb쎯dd쎯	-8.96202
fiy쎯	-8.96204
klj쎯	-8.96249
p쎯tkh쎯	-8.96399
yiu쎯	-8.96478
ftjb쎯j쎯	-8.96568
jh쎯	-8.96612
bm쎯tg쎯gf쎯	-8.96817
jty쎯	-8.96821
ght쎯ick쎯	-8.96832
tffh1쎯uthp쎯	-8.96942
itk쎯	-8.97052
nnw쎯	-8.97118
synw쎯	-8.97162
kfi쎯	-8.97186
ukh쎯	-8.97275
pnt쎯	-8.97282
qqqq1쎯gkm쎯	-8.97307
eg쎯	-8.97369
pv쎯ufy쎯	-8.97421
ide쎯ux쎯	-8.97442
h쎯itx쎯ymhj쎯	-8.97584
wynk쎯	-8.97627
pgj쎯wfny0쎯	-8.97661
puhc쎯ygu쎯o쎯	-8.978
fha쎯	-8.97859
djb쎯	-8.97953
》(	-8.98004
ufy쎯qnth쎯	-8.98187
tfl쎯l쎯	-8.98253
mh쎯gf쎯	-8.98254
쎈쎀	-8.98382
be쎯	-8.98507
uxe쎯	-8.98517
fnw쎯	-8.98619
udp쎯	-8.98632
apk쎯qie쎯	-8.98643
trf쎯qc쎯	-8.9869
sh쎯ud쎯	-8.98709
xyna0쎯	-8.98874
fa쎯	-8.99087
c쎯h쎯	-8.99206
bg쎯	-8.9922
nae쎯	-8.99331
td쎯ykw쎯	-8.99367
ddm쎯fghg쎯	-8.99398
eb쎯	-8.99678
if쎯l쎯	-8.99728
i쎯on쎯	-8.99768
》,	-8.99839
ugm쎯gxgu쎯	-9.00043
gmy1쎯	-9.00055
tq쎯o쎯	-9.00087
wwj쎯wfhg쎯	-9.00168
iu쎯	-9.00184
ssq쎯	-9.0022
tx쎯dg쎯	-9.00312
ca쎯	-9.00368
pfjm1쎯	-9.00451
qve쎯tf쎯	-9.00482
isk쎯ux쎯	-9.00579
uqwm0쎯qqqq1쎯	-9.00585
qq쎯tkh쎯	-9.00629
sg쎯nnh쎯	-9.00691
lc쎯	-9.00703
g쎯fhn쎯	-9.00781
ese쎯	-9.00804
ai쎯ux쎯	-9.00925
tkh쎯sfhg쎯	-9.01185
uq쎯iyc쎯	-9.0122
ia쎯alw쎯	-9.01305
qng1쎯	-9.01311
wbj쎯	-9.01387
gogj쎯	-9.01681
uda쎯	-9.01745
ntg쎯ce쎯	-9.01754
oyvk0쎯	-9.0178
쎃쎂	-9.01875
쎃쎅	-9.02227
v	-9.02288
yaa쎯cwg쎯	-9.0287
lh쎯kthh1쎯ith쎯	-9.03029
myd쎯	-9.03069
yf쎯	-9.03083
qyng쎯	-9.03232
vs쎯	-9.03325
ol쎯	-9.03428
nnw쎯gkip2쎯	-9.03442
jty쎯ysi쎯	-9.03458
dhb쎯	-9.03538
sfi쎯	-9.03599
bfm쎯	-9.0372
sgi쎯	-9.0375
tf쎯ght쎯	-9.03763
wgc쎯	-9.03925
dwt쎯	-9.0394
,sk쎯	-9.04011
btg쎯	-9.04047
qt쎯ujff쎯	-9.04203
쎄쎅	-9.04233
yygy쎯je쎯	-9.0429
ii쎯gu쎯	-9.04406
ruv쎯	-9.04468
ymd쎯	-9.04531
efcb쎯	-9.04634
ide쎯ux쎯ith쎯	-9.0494
xv쎯qc쎯	-9.04949
uo쎯cep쎯	-9.04978
on쎯	-9.04981
ytb쎯	-9.05039
쎂쎂	-9.05051
,ww쎯	-9.05052
sghg1쎯fm쎯	-9.05102
ud쎯gf쎯	-9.05125
ib쎯	-9.05272
pyg쎯vfhp1쎯	-9.05374
iyo쎯	-9.05415
kr쎯	-9.05469
eyb쎯	-9.05486
fkuk4쎯	-9.05536
aw쎯m쎯	-9.05594
yd쎯	-9.05771
ajd쎯	-9.05807
wv쎯klj쎯	-9.05847
》tffu쎯	-9.05859
쎂쎀쎀	-9.05892
oge쎯pyj쎯	-9.05922
wg쎯uk쎯	-9.05984
ux쎯yiu쎯ymhj쎯	-9.05985
mwyc1쎯	-9.06023
fcu0쎯fm쎯ith쎯	-9.06045
gr쎯	-9.06057
uqwm0쎯ou쎯	-9.06148
emc쎯	-9.06268
bg쎯tg쎯	-9.06269
쎁쎉	-9.06317
lfhf쎯	-9.06379
wtl쎯	-9.06485
fggh쎯uk쎯	-9.06514
yps쎯	-9.06837
gk쎯og쎯	-9.06858
dty쎯	-9.06907
pye쎯	-9.07209
rvy쎯tf쎯	-9.0725
pv쎯tmgt1쎯ith쎯	-9.07303
cy쎯	-9.07306
xeg쎯dn쎯	-9.07537
jf쎯imkf1쎯	-9.07578
gm쎯wtf쎯	-9.07668
wdn쎯	-9.07776
fku쎯	-9.07878
xgb쎯	-9.0795
sy쎯	-9.07965
ia쎯sghg1쎯	-9.07989
쎂쎈	-9.08003
ynt쎯	-9.08008
hxx쎯	-9.0802
qy쎯	-9.08035
fmk쎯	-9.08192
mt쎯	-9.08244
kha쎯yb쎯	-9.08323
dty쎯gk쎯	-9.08406
wwj쎯st쎯	-9.08416
ud쎯txi쎯	-9.0848
ip쎯sy쎯	-9.08521
kn쎯	-9.08569
gd쎯ivfh1쎯	-9.08583
wt쎯ftj쎯	-9.0872
sf쎯vii쎯ntk쎯gf쎯	-9.08803
ide쎯fm쎯ith쎯	-9.08835
um쎯tl쎯	-9.08884
fu쎯	-9.08911
puh쎯	-9.08929
jf쎯adwe1쎯	-9.08953
jo쎯fi쎯	-9.09075
▁쎂.	-9.09367
rlg쎯	-9.09441
,gn쎯	-9.09482
thgf0쎯	-9.09493
fpx쎯	-9.09574
sw쎯imj쎯	-9.09599
tgj쎯s쎯	-9.09645
udb쎯	-9.09711
dcw쎯	-9.09724
k쎯wxf쎯	-9.09818
tx쎯	-9.09861
dl쎯	-9.09931
sss쎯	-9.09951
adf쎯	-9.09971
wgkb2쎯	-9.09994
uqt쎯js쎯	-9.10033
anb0쎯	-9.10081
ltk쎯	-9.10116
*	-9.10233
jyie쎯	-9.10312
ftg쎯	-9.104
apg쎯	-9.10437
al쎯	-9.10454
k쎯aw쎯	-9.10507
w쎯wu쎯	-9.10531
jhny쎯	-9.10543
g쎯uqw쎯	-9.10674
wbj쎯vfhp1쎯	-9.10709
xuj쎯	-9.10717
ds쎯	-9.10733
wj쎯xvk쎯	-9.10763
epc쎯gc쎯	-9.10766
lqw쎯	-9.10791
kwg쎯	-9.10886
udyj쎯	-9.10938
rt쎯sm쎯	-9.10939
。wb쎯	-9.10955
tg쎯dyn쎯	-9.11111
pfj쎯	-9.11254
oug쎯	-9.11291
tgj쎯yd쎯	-9.11316
wf쎯yyq쎯	-9.11344
wyq쎯	-9.11393
c	-9.1142
aqq쎯iyt0쎯	-9.11767
wgku1쎯	-9.11834
sgn쎯	-9.11848
nyu쎯	-9.11965
ovt쎯pb쎯	-9.11969
k쎯atd쎯	-9.11976
ffi쎯	-9.12091
。《	-9.12164
쎉쎀	-9.12204
pei쎯n쎯	-9.12218
fny쎯	-9.12254
lpk0쎯xfn쎯	-9.1241
udj쎯	-9.12434
pu쎯cwg쎯pgc쎯	-9.12468
yy쎯tm쎯	-9.12531
>	-9.12567
synw쎯ny쎯	-9.12571
sfg쎯	-9.12619
yad쎯	-9.12763
ufk0쎯	-9.12814
lpk0쎯ruv쎯	-9.12837
o쎯g쎯wsg0쎯r쎯	-9.12839
yjs쎯jghm1쎯	-9.1286
rw쎯	-9.12864
dhc쎯	-9.12875
ub쎯	-9.13056
r쎯tgj쎯s쎯	-9.13142
wmj0쎯	-9.13143
jq쎯	-9.13163
mqu쎯	-9.13191
ftbt쎯sft쎯	-9.13214
ad쎯f쎯	-9.1327
wcy2쎯	-9.13414
쎇쎀	-9.13418
qyv쎯jqr쎯	-9.13427
bk쎯	-9.13465
pyg쎯vfhp1쎯ith쎯	-9.13553
qmgk0쎯	-9.13669
bgu쎯sghg1쎯	-9.137
bk쎯og쎯	-9.13777
sghg1쎯ux쎯	-9.13777
qev쎯un쎯	-9.13891
bd쎯	-9.13923
wygg쎯	-9.13983
mp쎯	-9.14066
tr쎯gj쎯	-9.14116
pvs쎯	-9.14212
geq쎯	-9.14222
ak쎯ftj쎯	-9.14236
xyy0쎯	-9.14296
khu쎯gfi쎯	-9.1432
uk쎯uyh쎯	-9.14323
sqt쎯	-9.14324
tyg쎯	-9.14713
sgn쎯ddu0쎯	-9.14821
ytf쎯	-9.14952
쎂쎃	-9.14994
jlc쎯	-9.15035
iy쎯	-9.15067
bqr쎯	-9.15109
pfjf0쎯	-9.15168
yge쎯	-9.15227
itd쎯	-9.15234
,rn쎯c쎯	-9.1526
thd쎯mh쎯	-9.15272
qtj쎯	-9.1529
xxe쎯	-9.15409
xn쎯	-9.15499
www쎯	-9.15585
imkf1쎯	-9.15705
wffg쎯	-9.15853
bct쎯	-9.15918
ffff5쎯f쎯	-9.15975
hao쎯	-9.15992
lks쎯	-9.16006
pfqf쎯	-9.16229
yle쎯	-9.16287
fcp쎯tf쎯	-9.16363
jb쎯dd쎯r쎯	-9.16368
ytf쎯qq쎯	-9.16413
tdkj쎯	-9.16572
qje쎯	-9.16576
nd쎯n쎯	-9.16583
gjh2쎯	-9.16601
qkhh1쎯	-9.16662
lm쎯	-9.16664
dk쎯	-9.16716
쎁.	-9.16717
so쎯	-9.1683
nyi2쎯fghy0쎯	-9.1683
yss쎯	-9.16868
oi쎯	-9.1691
jcm쎯	-9.17032
dga쎯pwv쎯bpf쎯	-9.17067
ahn쎯	-9.17136
isk쎯ux쎯ith쎯	-9.17246
kkk쎯rfm쎯	-9.17246
afl쎯	-9.17302
iwf쎯	-9.17411
=	-9.17504
l쎯mw쎯qh쎯	-9.17524
jghm1쎯	-9.17552
pp쎯g쎯,	-9.17606
fcu0쎯fm쎯	-9.17703
pym쎯hid쎯	-9.17747
es쎯	-9.17818
id쎯	-9.17828
ah쎯	-9.1786
wsg0쎯txi쎯	-9.17862
ge쎯fi쎯	-9.17863
wye쎯	-9.17935
fp쎯tkgg0쎯	-9.17962
wyna쎯	-9.17962
fhc쎯	-9.1805
ta쎯adwe1쎯	-9.18161
yygt쎯rtol1쎯	-9.18162
l쎯pe쎯xe쎯	-9.1826
fu쎯lk쎯	-9.18279
hhhh쎯sfi쎯	-9.18288
xqc쎯	-9.18426
ec쎯	-9.18438
alt쎯	-9.18474
,px쎯	-9.18509
ln쎯shn쎯	-9.18565
tv쎯	-9.18617
ijl쎯ya쎯	-9.18781
hka쎯ltk쎯	-9.18942
yta쎯	-9.19237
igt쎯	-9.19249
adm쎯	-9.19265
yygt쎯dd쎯	-9.19268
ftg쎯yaa쎯	-9.19288
hwb쎯	-9.19291
tfq쎯rg쎯	-9.19314
nty1쎯af쎯	-9.19567
。yynw1쎯	-9.19575
。adw쎯	-9.19582
kkk쎯tkh쎯	-9.19651
ju쎯	-9.19667
dt쎯egl쎯	-9.19711
gmi쎯	-9.19718
gm쎯e쎯	-9.19806
ukd0쎯	-9.19807
tgh쎯	-9.19851
ndj쎯	-9.19948
qf쎯	-9.19974
wv쎯dmh쎯	-9.20021
y쎯rf쎯	-9.20059
atd쎯ubk0쎯	-9.20066
mq쎯st쎯	-9.20067
rbcc쎯jyie쎯	-9.20083
wx쎯a쎯	-9.20135
ge쎯dm쎯	-9.20173
pfq쎯wg쎯	-9.20221
uq쎯jqr쎯	-9.20246
yk쎯xan쎯	-9.20279
ad쎯qqqq1쎯	-9.20431
mw쎯apg쎯dgh쎯	-9.20435
do쎯	-9.20679
쎂쎇	-9.2081
》。	-9.20903
qtfj1쎯	-9.20947
qsu쎯	-9.21004
o쎯b쎯	-9.21019
ip쎯tu쎯	-9.21042
ith쎯xe쎯	-9.21103
,m쎯jf쎯	-9.21106
tf쎯o쎯	-9.21123
rq쎯	-9.21127
khn쎯	-9.21211
yygy쎯anb0쎯	-9.21222
im쎯	-9.21344
iy쎯mm쎯	-9.21356
qgu쎯	-9.21369
un쎯pg쎯	-9.21414
p쎯g쎯	-9.21478
fpm쎯	-9.2149
bq쎯	-9.21724
ytm쎯	-9.21733
uqwk쎯yqj쎯	-9.21743
vaf쎯wsg0쎯	-9.21748
um쎯kkk쎯	-9.21786
imj쎯yaa쎯	-9.2185
wkh쎯fj쎯	-9.21852
lfof5쎯	-9.2189
》j쎯	-9.21935
쎂쎁	-9.22013
》《	-9.22038
waw쎯	-9.22054
gkip2쎯ya쎯	-9.22108
gah쎯ic쎯	-9.22133
gxgu쎯	-9.22144
thp쎯	-9.22165
peg쎯	-9.22215
mmm쎯sghg1쎯	-9.22223
ago쎯	-9.22224
a쎯hw쎯	-9.22259
go쎯thd쎯	-9.22342
wc쎯lfq쎯	-9.22363
wwj쎯	-9.22426
bfw쎯	-9.2248
ipw쎯fkh쎯	-9.22633
sym쎯ytyh쎯	-9.22685
fgh쎯wv쎯	-9.2275
fo쎯	-9.22787
icf쎯	-9.2279
euk쎯	-9.22833
imj쎯jg쎯	-9.22872
tuj쎯	-9.2289
atd쎯	-9.23038
,c쎯ey쎯	-9.23055
abu쎯	-9.23057
jvko쎯	-9.23136
fyv쎯	-9.23253
wf쎯km쎯	-9.23266
ymc쎯e쎯	-9.23465
nkuf쎯	-9.23493
rmhj쎯ya쎯	-9.23587
mhny0쎯	-9.23674
ime쎯	-9.23678
b쎯qev쎯	-9.23758
yygt쎯fnrt쎯	-9.23852
sfc쎯	-9.23914
vtg쎯	-9.23961
l	-9.24104
dg쎯wh쎯	-9.24142
ftj쎯,	-9.24189
yfj쎯	-9.24211
ymc쎯lfhf쎯	-9.24448
ytb쎯a쎯	-9.24506
yt쎯ty쎯	-9.24727
vi쎯	-9.2477
qn쎯ufy쎯	-9.2487
yaa쎯	-9.24922
gip쎯e쎯	-9.25062
'	-9.25067
wv쎯o쎯	-9.25096
xeg쎯wgk쎯	-9.25127
wdn쎯rfm쎯	-9.25196
쎂쎆	-9.25311
eq쎯	-9.25341
tkgg0쎯	-9.25382
rmc쎯	-9.25403
oat쎯	-9.25426
ybv쎯	-9.25448
lft쎯bw쎯	-9.25466
ggi쎯wk쎯	-9.2555
g쎯fh쎯	-9.25656
ytd쎯	-9.25723
ghc쎯gyb쎯	-9.25789
vtk쎯www쎯	-9.25846
vep쎯	-9.25868
utd쎯ugm쎯	-9.25883
w쎯od쎯	-9.25957
yygt쎯itp쎯	-9.26038
쎂쎉	-9.26044
eyni쎯	-9.26174
adwe1쎯uj쎯	-9.26203
rc쎯yid쎯	-9.26227
km쎯a쎯	-9.26252
dgj쎯	-9.26292
xxr쎯	-9.26352
cd쎯	-9.26421
ld쎯o쎯	-9.2648
rr쎯	-9.26486
syg쎯	-9.2656
nf쎯	-9.26574
nt쎯	-9.26597
usr쎯xfg쎯	-9.26622
fcp쎯lwg쎯	-9.26649
fjfh1쎯	-9.26673
yssd0쎯	-9.26676
ybb쎯	-9.26874
sj쎯	-9.26984
ypm쎯	-9.27112
wa쎯gj쎯	-9.27121
xyna0쎯lkb쎯	-9.27166
tqq쎯fcl쎯	-9.27222
,bn쎯j쎯	-9.27251
nh쎯ty쎯	-9.27264
<	-9.27317
xx쎯pfjm1쎯	-9.27399
da쎯dk쎯	-9.27457
bt쎯	-9.27631
fcp쎯et쎯	-9.27768
gtu쎯	-9.27788
gip쎯j쎯	-9.27991
tvr쎯	-9.28068
thd쎯ick쎯aq쎯	-9.28105
,ccc쎯	-9.28305
a쎯wt쎯,	-9.28359
iyj쎯	-9.28405
gkih쎯wsg0쎯	-9.28517
,et쎯	-9.28671
dtf쎯	-9.28692
ip쎯wug1쎯	-9.28788
wnh쎯	-9.28847
dd쎯jg쎯	-9.28907
gkih쎯wh쎯	-9.28936
o쎯y쎯	-9.2898
rwyg쎯	-9.29114
w쎯r쎯	-9.29136
sm쎯ud쎯	-9.29172
,i쎯	-9.29198
vck쎯vfhp1쎯gf쎯	-9.29199
fwm쎯saj쎯	-9.29226
ufy쎯tlf2쎯	-9.29266
nnh쎯gl쎯	-9.29403
tuu쎯	-9.29458
ldd쎯	-9.29479
ay쎯	-9.29544
lud쎯	-9.2957
rgf쎯	-9.29573
’	-9.29589
gae쎯aa쎯	-9.29678
ih쎯aq쎯	-9.29689
쎃쎀쎀	-9.29954
쎃쎆	-9.30049
ymf쎯sj쎯	-9.30054
ts쎯wrh2쎯	-9.30105
쎇쎅	-9.30119
wwx쎯	-9.30157
ym쎯gkip2쎯	-9.3021
fwm쎯aib쎯	-9.30211
rb1쎯tfkf1쎯	-9.30237
fkhk쎯	-9.30242
wb쎯r쎯	-9.30262
pp쎯rg쎯	-9.30351
fjfh1쎯l쎯	-9.30353
hn쎯	-9.30429
vtkb쎯	-9.30475
hka쎯qv쎯	-9.30482
gx쎯bu쎯mqq쎯	-9.30504
etn쎯	-9.30676
ftb쎯	-9.30753
ym쎯suq쎯	-9.30838
aib쎯lfnh쎯	-9.30903
vk쎯wsk쎯	-9.31109
쎅쎀쎀	-9.31112
,dty쎯	-9.31146
f쎯th쎯	-9.31168
atd쎯ip쎯bpf쎯	-9.31193
쎄쎈	-9.31234
tve쎯qq쎯	-9.3124
pyu쎯	-9.31307
qm쎯	-9.31308
quj쎯	-9.31369
io쎯	-9.31397
gm쎯d쎯	-9.31412
kw쎯e쎯	-9.31452
oe쎯	-9.31565
qv쎯	-9.3159
kjj쎯	-9.31679
tl쎯	-9.31746
oyn쎯	-9.31763
qnth쎯	-9.31775
sghg1쎯pv쎯	-9.31819
jo쎯	-9.31885
dn쎯ftjb쎯	-9.31919
wbj쎯tfkp쎯	-9.31948
dn쎯km쎯	-9.31973
ymf쎯gkih쎯	-9.32056
dyt쎯	-9.32057
alp쎯	-9.32148
tkw쎯se쎯	-9.32166
ifh1쎯	-9.32288
uwl쎯	-9.32289
v쎯tf쎯	-9.32331
dgh쎯wa쎯	-9.32355
qrm쎯	-9.32403
ai쎯yy쎯	-9.32413
trf쎯klj쎯	-9.32413
pgj쎯	-9.32492
etj쎯	-9.32528
suq쎯lfq쎯	-9.328
www쎯qq쎯	-9.32817
fge쎯tr쎯qnp쎯	-9.32821
ia쎯sghg1쎯ith쎯	-9.32878
apk쎯udyj쎯	-9.32894
oq쎯	-9.32925
sff0쎯	-9.32936
k쎯l쎯aw쎯u쎯ipk쎯	-9.32944
nh쎯adnt1쎯	-9.32977
jb쎯ym쎯	-9.32997
wwf쎯	-9.33053
khgm4쎯	-9.33071
gcft2쎯	-9.33079
ryn0쎯	-9.33144
jn쎯idr쎯	-9.33202
dd쎯ih쎯	-9.33248
inx쎯	-9.33288
);	-9.33493
tfkp쎯	-9.33542
aig쎯	-9.33691
,bn쎯	-9.33762
oo쎯	-9.33871
...	-9.33879
gku쎯	-9.33917
iyt0쎯	-9.3398
ipg쎯bm쎯	-9.34225
tkw쎯	-9.34227
sm쎯fnrt쎯	-9.34244
yf쎯tha쎯	-9.34259
vck쎯	-9.34334
n쎯uj쎯	-9.34361
dga쎯v쎯	-9.34363
aqq쎯	-9.34392
cf쎯gf쎯	-9.34517
쎃쎈	-9.34596
swb쎯	-9.34607
imj쎯	-9.34622
apl쎯	-9.34754
vkgd쎯qi쎯	-9.3478
ugv쎯	-9.34797
mw쎯uk쎯	-9.3481
tdkj쎯ce쎯	-9.34928
yoo쎯	-9.3498
mmm쎯sghg1쎯ith쎯	-9.35008
v쎯ge쎯	-9.3501
tdt쎯	-9.35186
wfk쎯	-9.35195
vvv쎯ntg쎯	-9.35208
bk쎯a쎯	-9.35365
xln1쎯qt쎯lfq쎯	-9.35443
c쎯go쎯	-9.35449
mqj쎯	-9.35463
nae쎯fi쎯	-9.35485
jtyl쎯hich쎯	-9.35491
and쎯	-9.35579
kh	-9.35613
jcf쎯rf쎯	-9.35706
trf쎯gqr쎯	-9.35716
nu쎯	-9.35718
▁d쎯	-9.35796
uk쎯bw쎯	-9.35858
ruv쎯epc쎯	-9.36006
ipw쎯fkh쎯ymhj쎯	-9.36039
aw쎯e쎯	-9.36085
ovt쎯ip쎯	-9.36121
cep쎯wy쎯	-9.36129
gjq쎯lk쎯	-9.36131
gma쎯	-9.36143
,puhc쎯	-9.36293
itf쎯	-9.36336
yo쎯wx쎯	-9.36565
wxm쎯	-9.36656
mnm쎯	-9.36726
ge쎯gm쎯	-9.3678
,k쎯l쎯	-9.36985
tux쎯	-9.37022
pu쎯bf쎯	-9.3704
wqu쎯	-9.37062
my쎯	-9.37079
wwkw1쎯	-9.37259
gcf쎯wynb쎯	-9.37295
」	-9.37317
wnt쎯	-9.37347
fhh쎯	-9.37363
aqu1쎯	-9.37612
eb쎯ufy쎯	-9.37629
iie쎯	-9.37644
qkd쎯	-9.37682
tuk쎯	-9.37733
tffy0쎯	-9.37755
쎁wh쎯	-9.37774
gkih쎯	-9.37805
wny0쎯	-9.37826
rs쎯tfkp쎯	-9.37859
bm쎯kkkk0쎯	-9.37873
쎃쎇	-9.37877
r쎯v쎯nae쎯	-9.3791
wuk쎯	-9.38084
e쎯udh쎯	-9.38091
ws쎯usi0쎯	-9.38139
dfy쎯lt쎯	-9.38142
pww쎯	-9.38177
mf쎯	-9.38211
naw쎯	-9.38325
ngj쎯	-9.38354
uce쎯	-9.38361
ptkm0쎯	-9.3839
usg쎯	-9.38471
yv쎯vb쎯r쎯	-9.38628
xyc쎯g쎯	-9.38661
tb쎯	-9.38721
ssn쎯	-9.38789
wug1쎯lfhf쎯	-9.38805
god쎯	-9.38865
yjs쎯	-9.38944
wf쎯yf쎯	-9.39018
ngc쎯	-9.39027
ieb쎯	-9.39054
guw쎯	-9.39086
,dn쎯o쎯	-9.39232
fkuc1쎯	-9.39252
gm쎯wa쎯wx쎯	-9.39259
op쎯	-9.39395
▁쎁.	-9.39453
rnr쎯	-9.39503
,dmj1쎯eg쎯	-9.39528
fd쎯aq쎯	-9.39548
bgu쎯sghg1쎯ith쎯	-9.39552
r쎯y쎯s쎯	-9.39646
,qn쎯rtd쎯	-9.39683
쎅쎅	-9.39687
afs쎯	-9.39725
x쎯cwg쎯	-9.39735
yw쎯o쎯	-9.39769
qk쎯tq쎯	-9.39789
gogn쎯	-9.39799
iie쎯xjm쎯ftj쎯	-9.39959
▁쎂、	-9.39984
vcl쎯lt쎯	-9.4006
rdf1쎯	-9.40129
nt쎯edm쎯	-9.40145
쎆쎀쎀	-9.40209
sk쎯ce쎯	-9.40211
tgj쎯yd쎯ymhj쎯	-9.40276
쎃쎄	-9.40335
rrg1쎯rbcc쎯	-9.4043
atd쎯ax쎯	-9.40446
「	-9.40456
saj쎯	-9.40545
jat쎯	-9.40602
hc쎯efw쎯	-9.40637
vs쎯fn쎯	-9.40725
rvyl쎯	-9.4074
r쎯w쎯	-9.40792
,ll쎯,ic쎯ytt쎯,	-9.40799
qdm쎯	-9.40813
xo쎯	-9.40832
dhb쎯d쎯	-9.40901
pwat쎯	-9.40936
jb쎯wffg쎯	-9.41001
qq쎯uqw쎯	-9.41036
gae쎯qje쎯	-9.41077
an쎯xn쎯	-9.41201
wn쎯	-9.41247
bc쎯tj쎯	-9.41315
쎆쎄	-9.41357
fhv쎯fp쎯	-9.41442
pu쎯khg쎯	-9.41452
ffuk쎯	-9.41575
wqin쎯	-9.41627
xu쎯	-9.41798
uag1쎯	-9.418
wtf쎯wsk쎯	-9.41858
ajdf쎯	-9.41865
ygu쎯wwj쎯	-9.41905
xp쎯wgk쎯ntg쎯	-9.41912
oge쎯kkk쎯	-9.41919
aft쎯	-9.41928
ttd쎯	-9.41934
rpv쎯jvko쎯	-9.41939
bwf쎯	-9.41955
tg쎯,	-9.41992
uthp쎯kht쎯	-9.42044
tgm쎯aj쎯	-9.42074
ge쎯ipg쎯	-9.42109
ygu쎯	-9.42144
apl쎯fcl쎯	-9.42172
pl쎯gk쎯	-9.42233
ght쎯tgm쎯	-9.42407
vx쎯	-9.42491
oa쎯	-9.42545
tdn쎯	-9.42584
edm쎯	-9.42658
rrr쎯qc쎯	-9.42674
ltu쎯nnh쎯	-9.42744
wk쎯rf쎯	-9.42764
yw쎯ygh쎯	-9.42767
ybf0쎯epc쎯	-9.42853
gd쎯gh쎯	-9.42872
pdc쎯	-9.4296
gxi쎯rfm쎯	-9.42967
쎂쎀쎀쎀	-9.42976
wk쎯bwg쎯	-9.43016
wnnp쎯fiy쎯	-9.43045
ian0쎯	-9.431
iugg0쎯	-9.43141
쎂쎀쎀쎈rh쎯	-9.43145
rj쎯tak쎯	-9.43244
ipkr쎯rng0쎯	-9.43421
sw쎯sj쎯	-9.43518
cccs3쎯	-9.43564
yssc2쎯	-9.43579
uuk0쎯yfn쎯	-9.43606
ipq쎯	-9.43664
gk쎯wrh2쎯	-9.4367
dn쎯js쎯	-9.43719
쎃쎃	-9.43753
wy쎯kgn쎯	-9.43776
ipkr쎯	-9.43842
pyj쎯x쎯	-9.43847
ufy쎯lfhf쎯	-9.43851
ujn쎯dd쎯tjh쎯	-9.43857
trf쎯hko쎯	-9.43999
ab쎯hhhh쎯	-9.44012
xxf쎯og쎯	-9.44014
aqk쎯	-9.44062
,ld쎯	-9.44095
g쎯av쎯	-9.44147
쎆쎅	-9.44153
mhkg2쎯	-9.44209
lfnh쎯	-9.44265
쎈쎀쎀	-9.44289
ggw쎯	-9.44305
e쎯uqt쎯	-9.44322
bm쎯tg쎯	-9.4436
mmm쎯aq쎯	-9.44373
di쎯	-9.44472
xyc쎯yf쎯	-9.44538
wys쎯k쎯	-9.44548
uqv쎯	-9.44567
fmy1쎯	-9.44617
drt쎯	-9.4465
ftjo1쎯	-9.44856
i쎯sk쎯	-9.44907
au쎯	-9.44997
wtuf1쎯	-9.45006
g쎯xe쎯	-9.45014
qgb쎯ya쎯	-9.45056
gog쎯iyt0쎯	-9.45063
uygh1쎯	-9.45065
,hw쎯e쎯	-9.45069
alf쎯	-9.45124
mm쎯	-9.4513
mmq쎯	-9.45204
jhng쎯	-9.45235
fcp쎯apk쎯	-9.45266
nty1쎯yo쎯	-9.45339
qg	-9.45375
dtb쎯	-9.45388
aib쎯	-9.45464
wv쎯bb쎯	-9.45519
ijo쎯	-9.45558
rdfh1쎯	-9.45584
fii쎯go쎯	-9.45618
jn쎯ytd쎯	-9.45689
ipk쎯km쎯	-9.4572
rqc쎯	-9.45786
쎄쎀쎀	-9.458
iv쎯f쎯	-9.45817
utk쎯	-9.45871
xtf쎯xwy쎯	-9.45871
rj쎯bm쎯	-9.45876
iie쎯xjm쎯	-9.45954
tgj쎯dd쎯	-9.45998
od쎯gajf쎯:	-9.46086
nge쎯ukq쎯	-9.4613
qge쎯	-9.46154
tg쎯wgkb2쎯	-9.46199
nla쎯	-9.46258
gqg1쎯	-9.46279
pu쎯et쎯	-9.46295
ugh쎯	-9.46326
qkq쎯xjm쎯	-9.46348
쎂쎀쎁쎀rh쎯	-9.46402
nua쎯	-9.46445
rrk쎯ip쎯	-9.4647
ym쎯usr쎯rfc쎯sy쎯	-9.46479
hh쎯	-9.46492
ral쎯syp쎯	-9.46498
bd쎯rjg0쎯	-9.4662
,ld쎯hx쎯	-9.4666
pgf1쎯	-9.46692
pp쎯uj쎯r쎯	-9.46754
ym쎯gkip2쎯wc쎯kht쎯	-9.46767
nm쎯	-9.46797
afd0쎯	-9.4682
aft쎯qk쎯r쎯	-9.46961
yygy쎯pb쎯	-9.47025
nny0쎯	-9.4705
ftbt쎯yce쎯uk쎯	-9.47097
vca쎯	-9.4713
f쎯gh쎯	-9.47134
aps쎯aqt쎯	-9.47185
..	-9.47197
fj쎯tf쎯b쎯	-9.47224
ynj쎯	-9.47244
cep쎯ipkh1쎯	-9.47313
ydn쎯	-9.4737
sh쎯cf쎯	-9.4742
ef쎯	-9.47439
iqn쎯	-9.4745
i쎯m쎯r쎯	-9.47483
yvcb쎯	-9.47544
tsh0쎯	-9.47658
rrg1쎯	-9.47661
xh쎯fj쎯	-9.47698
ccc쎯tq쎯	-9.47702
qvn2쎯	-9.4774
쎂쎀쎀쎇rh쎯	-9.47748
fp쎯tkgg0쎯k쎯	-9.47748
dgkn쎯ivs쎯	-9.47889
dd쎯uthp쎯	-9.47918
gkip2쎯	-9.47922
wgq쎯	-9.47933
ip쎯ftj쎯	-9.48011
,rg쎯	-9.4805
wksf쎯	-9.48083
ysi쎯	-9.48106
tu쎯rfc쎯fj쎯hi쎯	-9.48125
g쎯rh쎯	-9.48149
gbnm0쎯	-9.48158
khgp0쎯fhg1쎯	-9.48191
。wc쎯ngk쎯	-9.48262
qkm쎯	-9.48283
wdn쎯rvyl쎯	-9.483
dn쎯sg쎯	-9.48303
ipg쎯	-9.48381
tmd쎯wsg0쎯	-9.48402
jc쎯	-9.48429
x쎯maw쎯	-9.48467
tr쎯rfm쎯	-9.48491
lfo쎯qc쎯	-9.48533
jn쎯lt쎯	-9.48553
j쎯d쎯	-9.48634
bp쎯ps쎯ith쎯	-9.48646
lw쎯gk쎯th쎯	-9.48651
j쎯k쎯l쎯	-9.48651
xa쎯qc쎯	-9.48686
cbd쎯	-9.48729
ugdu쎯pww쎯	-9.48759
ax쎯tr쎯	-9.48847
gd쎯qd쎯	-9.48929
thd쎯fcl쎯wx쎯	-9.48953
sw쎯cwg쎯	-9.48991
egl쎯	-9.48998
gcg쎯	-9.49042
ebn0쎯	-9.49044
tu쎯ip쎯rfc쎯sy쎯	-9.49083
itx쎯iu쎯	-9.49136
bu쎯txi쎯	-9.49156
qq쎯wh쎯	-9.49256
fny쎯et쎯	-9.49417
nfp쎯gkip2쎯	-9.49445
kqy쎯	-9.49559
dh쎯pgk쎯	-9.49631
iv쎯jf쎯	-9.4965
yn쎯vi쎯	-9.49711
wbj쎯og쎯	-9.49718
tx쎯lh쎯	-9.49755
bw쎯wgg0쎯	-9.4976
ym쎯k쎯	-9.49807
rj쎯waw쎯b쎯	-9.49809
ymf쎯ab쎯	-9.49898
ndo쎯tjt쎯	-9.49907
ke쎯	-9.49916
wycm0쎯	-9.49937
fuj쎯mw쎯	-9.50048
o쎯“	-9.50087
ymc쎯uu쎯	-9.50123
tr쎯iyc쎯	-9.50127
h쎯,	-9.50135
tdp쎯wgk쎯	-9.50165
adwe1쎯fjh0쎯	-9.50176
fuj쎯	-9.50202
▁쎂	-9.5022
tg쎯ta쎯	-9.50308
gef쎯qynm1쎯	-9.50341
wt쎯pe쎯	-9.50423
쎂쎀쎀쎆rh쎯	-9.50447
ywx쎯ffc쎯	-9.50454
ufy쎯wht쎯	-9.50498
fcl쎯dyn쎯	-9.50575
ny쎯gj쎯	-9.50592
,cep쎯fp쎯	-9.50804
wtr쎯lq쎯adwr쎯	-9.50891
jn쎯bb쎯um쎯tl쎯	-9.50938
eb쎯tl쎯。	-9.50972
dga쎯	-9.50984
wtf쎯tl쎯	-9.51049
ltu쎯nnh쎯qnp쎯	-9.51166
yvc쎯	-9.51329
bqr쎯uqwn0쎯	-9.51414
rffg쎯	-9.51444
쎉쎈	-9.51578
yln쎯	-9.51672
rt쎯sy쎯	-9.51694
fku쎯cqw쎯	-9.5173
(wynb쎯	-9.51749
vfhp1쎯uu쎯b쎯	-9.51878
rvk쎯	-9.51942
aca쎯	-9.51991
y쎯wtf쎯	-9.52007
xww쎯	-9.52227
▁쎃.	-9.52264
rx쎯uwy1쎯	-9.52302
gkih쎯wgk쎯	-9.5231
‘	-9.52311
rf쎯	-9.52318
yk쎯	-9.52326
sghg1쎯uk쎯	-9.52329
bu쎯jel쎯	-9.52407
tqq쎯	-9.52542
ycf쎯	-9.52592
nty1쎯tfkp쎯	-9.52673
gf쎯g쎯wsg0쎯r쎯	-9.52707
h	-9.52711
ubtf쎯ou쎯	-9.52728
tdp쎯et쎯gf쎯	-9.52729
xwy쎯ryn0쎯	-9.52816
rmc쎯ty쎯	-9.52895
쎂쎀쎀쎉rh쎯	-9.53028
ulg쎯	-9.5307
rnn1쎯	-9.53095
at쎯fmk쎯	-9.53187
。gm쎯wtf쎯	-9.53198
c쎯gh쎯	-9.53214
쎄쎂	-9.53307
we쎯	-9.53323
awf쎯	-9.53337
dwf쎯	-9.53339
srm쎯	-9.53383
xf쎯js쎯	-9.53429
ifj쎯	-9.53458
dr쎯ou쎯	-9.53485
adwn0쎯	-9.53494
xo쎯xfn쎯	-9.53519
v쎯dmh쎯	-9.53522
fq쎯if쎯	-9.53552
alw쎯ytyh쎯	-9.53604
,mj쎯	-9.53767
usr쎯r쎯	-9.53886
dd쎯jgm쎯	-9.53914
ytn쎯	-9.53983
at쎯	-9.53984
bynw0쎯bb쎯	-9.54136
nhy쎯	-9.54281
kwg쎯qiu0쎯ipr쎯	-9.54315
쎂wh쎯	-9.54412
sss쎯ss쎯	-9.54422
nf쎯ipg쎯	-9.54457
w쎯tg쎯	-9.54465
tqv쎯pg쎯	-9.54651
pj쎯	-9.54911
。px쎯	-9.54912
yygy쎯ujj쎯	-9.54915
tha쎯	-9.54918
iv쎯wa쎯	-9.54971
upy쎯	-9.54978
ghd0쎯d쎯	-9.54998
vvv쎯bb쎯	-9.55015
yxu쎯	-9.55026
gj쎯wynn3쎯	-9.55028
qk쎯。	-9.55072
whw쎯qi쎯uk쎯	-9.55095
vfhp1쎯dn쎯	-9.55099
khgm4쎯ytyh쎯	-9.55184
tfp쎯	-9.55262
wyq쎯kkd쎯	-9.5532
jy쎯cm쎯	-9.554
sf쎯wug1쎯gf쎯	-9.55477
qjq쎯	-9.55507
쎄쎆	-9.55511
qev쎯toc쎯	-9.55557
lk쎯xk쎯	-9.55717
aqb쎯	-9.55739
anh쎯ae쎯	-9.55752
wk쎯ygh쎯	-9.55793
(),	-9.55841
yy쎯wgj쎯	-9.5591
kk쎯	-9.5595
qdm쎯yneg쎯	-9.55976
dmjf1쎯	-9.55992
hnd쎯	-9.56007
g쎯ts쎯	-9.56111
rpw쎯	-9.56127
쎃wh쎯	-9.56136
adw쎯px쎯	-9.56163
ˋ	-9.56237
a쎯tkgg0쎯jgm쎯	-9.56282
ghd0쎯ipkh1쎯	-9.56315
y쎯xyna0쎯	-9.56368
jpx쎯	-9.56391
khv쎯	-9.56406
wvf쎯	-9.56427
쎃쎉	-9.56473
jtyq0쎯pg쎯	-9.56526
쎄쎄	-9.56554
iwf쎯lw쎯	-9.56562
ym쎯tffu쎯	-9.56618
e쎯bv쎯gmu1쎯wtf쎯	-9.56619
c쎯go쎯,	-9.56656
rymn쎯jjjj쎯	-9.56673
ㄧ	-9.5668
lwg쎯ty쎯	-9.56688
쎂쎀쎀쎅rh쎯	-9.5672
trf쎯tgh쎯	-9.56753
fwyc2쎯	-9.56841
nhj쎯	-9.56851
쎄wh쎯	-9.5687
khgp0쎯	-9.56886
e쎯bv쎯wc쎯ngk쎯j쎯	-9.56898
gfq쎯	-9.56907
▁쎃、	-9.56943
wbj쎯lw쎯	-9.57001
ijx쎯	-9.57014
ydm쎯	-9.57048
wdy1쎯	-9.57055
kkhn쎯ftj쎯	-9.57056
tgj쎯usr쎯	-9.57138
tmdf1쎯	-9.57175
mf쎯ght쎯	-9.57232
dd쎯pfjm1쎯	-9.57292
,reh쎯e쎯	-9.57323
awx쎯lfq쎯	-9.57347
ipm쎯	-9.57522
trh쎯	-9.57536
,sk쎯c쎯	-9.57543
wwf쎯ait쎯gf쎯	-9.5755
ke쎯nh쎯	-9.57612
rgm쎯	-9.57629
ftx쎯jgm쎯	-9.57663
bn쎯。”	-9.57735
rmhj쎯kkk쎯	-9.57753
blf쎯	-9.57779
khi쎯	-9.57801
쎄쎃	-9.57957
sgn쎯lfhf쎯	-9.58035
pfjs쎯	-9.58106
tca쎯	-9.58112
nua쎯ajdh쎯	-9.58149
o쎯y쎯,	-9.58164
fm쎯uk쎯	-9.58172
▁:	-9.58296
ek쎯uqyl쎯	-9.5831
yyq쎯	-9.58315
fdm쎯fiy쎯	-9.58424
tfkd쎯	-9.58437
iqpl1쎯	-9.58459
lqy쎯	-9.58464
cep쎯ynf쎯	-9.5848
lwg쎯bm쎯	-9.58496
ul쎯wtf쎯	-9.58565
f쎯rfm쎯	-9.58579
fwm쎯pg쎯	-9.58586
i쎯j쎯	-9.58596
tdij쎯	-9.58635
mhg쎯	-9.58637
k쎯yygy쎯	-9.58658
toln0쎯	-9.58729
gu쎯fqu쎯	-9.58743
,vvv쎯,	-9.58773
xyna0쎯rmhj쎯	-9.58855
tie쎯	-9.58866
wwv쎯	-9.58897
rnd1쎯	-9.58906
su쎯	-9.5898
tdaf쎯	-9.59022
pu쎯tf쎯	-9.59078
gm쎯fnrt쎯	-9.59086
tlf2쎯	-9.5916
tey쎯pw쎯	-9.59254
fnud쎯	-9.59388
gb쎯	-9.59402
yfn쎯ftj쎯	-9.5941
j쎯c쎯	-9.59423
rep쎯	-9.59466
tuj쎯ujfj쎯	-9.59478
ycb쎯	-9.59502
ovt쎯jg쎯	-9.59541
ynk쎯	-9.59579
pg쎯wug1쎯	-9.59614
ee쎯dc쎯	-9.59616
udg2쎯	-9.59623
dga쎯pwv쎯k쎯ny쎯	-9.59664
toln0쎯ycf쎯	-9.59673
×	-9.5968
bgk쎯	-9.59682
fjh0쎯	-9.59794
qkq쎯	-9.59821
dn쎯uu쎯gf쎯	-9.59846
》yff쎯:“	-9.59915
sw쎯	-9.59949
wg쎯ymhj쎯	-9.59979
fof쎯	-9.60048
a쎯dgt1쎯	-9.60092
wk쎯buj쎯	-9.60094
khx쎯	-9.60098
ytfp1쎯	-9.60127
lpdk0쎯	-9.60151
qgb쎯nmh쎯	-9.60183
waye쎯	-9.60201
xan쎯	-9.60216
ijx쎯wgk쎯	-9.60229
ai쎯fm쎯	-9.60263
ㄨ	-9.60275
dn쎯ta쎯	-9.60282
egm쎯	-9.60284
by쎯ick쎯	-9.60297
gd쎯ivfh1쎯ymhj쎯	-9.60299
vq쎯	-9.60311
wbj쎯vfhp1쎯gf쎯	-9.6034
e쎯sm쎯	-9.60356
ce쎯idr쎯	-9.60356
qc쎯ese쎯	-9.60356
g쎯su쎯	-9.60418
c쎯“	-9.6044
fcl쎯gl쎯	-9.6052
epi쎯il쎯	-9.60563
iaqg쎯	-9.60616
쎁.쎅	-9.60624
bn쎯e쎯	-9.6072
udy쎯dyn쎯	-9.60755
oyv쎯	-9.60767
gqje쎯	-9.60813
srg쎯	-9.60858
db쎯ukd0쎯	-9.60925
utem1쎯qc쎯	-9.61107
du쎯	-9.61121
siq쎯	-9.61152
em쎯	-9.61173
uqwm0쎯	-9.61238
f쎯fdf0쎯	-9.61268
dcg쎯	-9.61286
sfh쎯	-9.61354
vcb쎯sk쎯	-9.61361
▁쎁、	-9.61461
,gmf쎯	-9.61494
rwyg쎯bm쎯	-9.61538
tep쎯	-9.61575
▁쎁	-9.61598
rfc쎯sy쎯w쎯km쎯	-9.61635
ldj쎯	-9.61658
jyie쎯pym쎯	-9.61683
akgl쎯	-9.61751
쎃쎁	-9.61797
uyiy0쎯	-9.61807
,vbn쎯	-9.61857
ftjb쎯e쎯	-9.61937
rfc쎯ce쎯	-9.6198
yff쎯w쎯	-9.62025
jb쎯usr쎯	-9.62035
qnr쎯	-9.62057
jn쎯pym쎯ck쎯	-9.62094
imk쎯	-9.62145
ltu쎯thg0쎯	-9.62156
whf쎯og쎯。	-9.62183
dyw쎯	-9.62291
fl쎯ymf쎯	-9.62292
rlg쎯khev쎯	-9.62346
gw쎯	-9.62501
wynn3쎯	-9.62546
dgtg쎯img쎯	-9.6264
tfkp쎯gajf쎯	-9.62652
iwt쎯	-9.62722
ffc쎯	-9.62757
cd쎯lk쎯a쎯wt쎯,	-9.62886
fcl쎯lt쎯	-9.62942
mqc쎯tr쎯	-9.62952
kfa쎯	-9.62989
iya쎯	-9.63006
,ua쎯eg쎯	-9.63095
pfq쎯uduk쎯	-9.63112
hka쎯ufk0쎯	-9.63116
wg쎯ith쎯	-9.63178
sgtu쎯	-9.632
yuo쎯	-9.63231
x쎯ipkh1쎯	-9.63265
fl쎯	-9.63288
rcy0쎯	-9.63322
bp쎯ps쎯	-9.63373
쎂쎀쎀쎄rh쎯	-9.63392
falw쎯	-9.63543
,y쎯s쎯	-9.6356
fiyt쎯	-9.63592
thl쎯	-9.63597
yny0쎯f쎯u쎯	-9.63597
ic쎯ytt쎯	-9.63645
mpf쎯	-9.63737
쎅쎆	-9.63744
,wtf쎯	-9.63777
yygt쎯ytyh쎯ymhj쎯	-9.63798
db쎯	-9.63799
pwr쎯	-9.63807
gh쎯,	-9.63817
atd쎯tu쎯dd쎯ip쎯	-9.6382
saj쎯gajf쎯	-9.63836
qlp쎯	-9.63908
ipg쎯km쎯	-9.64105
qaj쎯	-9.64145
saj쎯rny1쎯	-9.64223
yygy쎯fmud쎯	-9.64235
wyo쎯	-9.64255
r쎯dga쎯pwv쎯	-9.64283
gkl쎯y쎯wtf쎯	-9.64384
ypeu쎯	-9.64401
ux쎯uk쎯	-9.64429
jm쎯	-9.64436
pr쎯	-9.64475
쎁쎅쎀	-9.64612
《k쎯l쎯	-9.64644
tffu쎯f쎯	-9.64658
쎁쎀쎀쎀	-9.64709
wnnp쎯	-9.64718
dmu0쎯	-9.64827
ld쎯hx쎯	-9.64858
lw쎯wc쎯	-9.65134
rpws쎯	-9.65183
ujqu쎯	-9.65194
qtdn0쎯	-9.65217
bwf쎯rp쎯	-9.65266
lft쎯wsg0쎯	-9.65271
abi쎯	-9.65281
thd쎯tmd쎯	-9.653
fny쎯og쎯r쎯	-9.654
igey쎯	-9.65459
&	-9.65471
ipw쎯ty쎯	-9.65482
ufk0쎯qv쎯	-9.65541
th쎯gf쎯	-9.65558
쎄쎇	-9.65644
nty1쎯uduk쎯	-9.6572
쎂쎀쎀쎀rh쎯	-9.65761
wfny0쎯lwg쎯	-9.65822
gkm쎯	-9.65842
ykw쎯	-9.65872
d쎯xg쎯	-9.65945
sksw쎯ma쎯	-9.65994
pfq쎯uduk쎯r쎯	-9.65997
vv쎯vvv쎯	-9.66015
wfn쎯	-9.66111
fgh쎯fg쎯	-9.66139
y쎯jghm1쎯	-9.66156
쎁쎂쎀	-9.66162
ym쎯ya쎯	-9.66192
fdm쎯	-9.66206
k쎯uk쎯	-9.66384
ijlc쎯gl쎯	-9.66387
sgn쎯wgk쎯	-9.66398
dd쎯bfm쎯	-9.66593
sf쎯n쎯	-9.66603
yssr쎯	-9.66725
j쎯g쎯pe쎯	-9.66748
i쎯wcy2쎯	-9.66784
wk쎯wvf쎯	-9.66814
ivfh1쎯	-9.66836
aeu쎯	-9.66861
ey쎯jf쎯	-9.66886
tey쎯	-9.66897
fj쎯kkkk0쎯	-9.66927
ynty쎯	-9.66981
wkhh쎯	-9.66999
。mh쎯gf쎯	-9.66999
ai쎯sghg1쎯	-9.67039
nae쎯jtyq1쎯	-9.67097
khd쎯	-9.67206
ujff쎯	-9.67245
dh쎯pgk쎯r쎯	-9.67255
xln1쎯	-9.67297
sg쎯tu쎯	-9.67342
egc쎯fd쎯	-9.67344
lh쎯wh쎯	-9.67345
py쎯wf쎯y쎯yq쎯	-9.67409
wc쎯aw쎯	-9.67409
hw쎯wsg0쎯	-9.67416
fqb1쎯gxi쎯	-9.67447
pwd쎯bm쎯	-9.67525
tgj쎯s쎯r쎯	-9.67569
udg2쎯it쎯	-9.67571
goi쎯	-9.67634
,wjg쎯j쎯	-9.6769
,ww쎯dmj1쎯	-9.67745
m쎯fn쎯	-9.67896
gyg1쎯	-9.67951
sft쎯	-9.68079
jjj쎯	-9.68136
ti쎯	-9.6814
쎆쎆	-9.68141
rpws쎯fpx쎯	-9.68142
,kha쎯	-9.68143
jy쎯aq쎯	-9.68148
wfny0쎯》:“	-9.68175
nudu쎯	-9.68177
쎅쎈	-9.68187
mfky쎯	-9.68234
pwy쎯	-9.68283
fyn쎯	-9.68302
w쎯wsg0쎯	-9.68326
pr쎯qnp쎯	-9.68359
----------------	-9.68367
enr쎯	-9.68383
isw쎯	-9.68438
xwy쎯wht쎯	-9.68576
stt쎯ugl쎯	-9.68594
rtol1쎯yt쎯	-9.686
toc쎯	-9.68721
vk쎯js쎯	-9.68793
tfq쎯fj쎯r쎯	-9.68815
dd쎯pe쎯	-9.68835
ad쎯gf쎯	-9.68975
fpo쎯	-9.69015
ymhj쎯ght쎯ywf쎯	-9.69045
grd쎯	-9.69049
g쎯pe쎯	-9.69087
wg쎯sf쎯	-9.69141
wynk쎯jg쎯	-9.69223
wys쎯dn쎯	-9.693
tf쎯ght쎯sf쎯	-9.69319
ˊ	-9.69403
fke쎯	-9.69454
d쎯k쎯l쎯	-9.695
txg쎯wh쎯	-9.69525
ishg쎯	-9.69538
iyc쎯tf쎯	-9.6956
vf쎯	-9.69577
wg쎯egc쎯	-9.69646
esv쎯	-9.69803
dy쎯bj쎯	-9.69846
kj쎯	-9.69937
,yh쎯	-9.69975
kc쎯	-9.69992
,p쎯	-9.70036
,txg쎯	-9.70173
ruv쎯qejy쎯	-9.70208
uqi쎯	-9.70224
tffu쎯yy쎯dm쎯	-9.70252
yy쎯pvs쎯	-9.70269
pgn쎯wt쎯	-9.70316
twf쎯wgk쎯	-9.70338
쎄쎉	-9.70393
sghg1쎯adnt1쎯	-9.70443
쎂쎀쎁쎁rh쎯	-9.70449
ex쎯	-9.70529
w쎯a쎯	-9.70533
l쎯qh쎯	-9.70597
wfny0쎯vaf쎯	-9.70619
jvk쎯	-9.70652
trfh0쎯ggi쎯	-9.7071
jb쎯rg쎯	-9.70758
ubtf쎯	-9.70784
am쎯	-9.70837
le쎯	-9.70842
wgk쎯dn쎯	-9.70843
sghg1쎯gyt쎯ah쎯	-9.70888
c쎯rg쎯	-9.709
,gm쎯wtf쎯	-9.70987
udr쎯	-9.71002
▁쎃	-9.71028
wv쎯od쎯	-9.71065
sm쎯、	-9.71125
ldd쎯pg쎯	-9.71135
쎂쎀쎀쎂rh쎯	-9.71139
rn쎯c쎯	-9.71165
,yynw1쎯	-9.71168
dd쎯lpk0쎯	-9.71173
tduh쎯	-9.71193
gu쎯tqdh쎯	-9.7123
lfo쎯dx쎯ia쎯ith쎯	-9.71259
gy쎯oy쎯	-9.71262
un쎯	-9.71413
itx쎯fm쎯	-9.71424
rwyg쎯adh쎯	-9.71448
aps쎯iwyf2쎯	-9.71486
r쎯jf쎯whn쎯	-9.71695
쎂쎀쎀쎃rh쎯	-9.71723
iy쎯tgj쎯	-9.71761
qim쎯	-9.71899
쎉쎉	-9.71966
yygy쎯tr쎯	-9.71996
qtj쎯trf쎯r쎯	-9.72018
rmhj쎯pg쎯	-9.72042
tkgg0쎯ya쎯	-9.72085
uxe쎯jy쎯	-9.72087
wcw쎯	-9.72118
vgk쎯	-9.72124
bde쎯udh쎯	-9.72162
쎅쎂	-9.72171
ej쎯	-9.72173
tdd쎯	-9.72224
qnq쎯	-9.72232
pfq쎯	-9.72262
sks쎯	-9.72285
ovt쎯rnd1쎯go쎯idr쎯	-9.72329
ai쎯uk쎯	-9.72354
uqf쎯pl쎯	-9.72362
,qd쎯rg쎯	-9.72384
ii쎯ylk2쎯	-9.72387
w쎯lt쎯uqwm0쎯idr쎯	-9.72394
ft쎯ce쎯	-9.7242
fdf0쎯	-9.72448
sh쎯iv쎯	-9.72471
thd쎯q쎯	-9.72504
w쎯fghg쎯	-9.72554
uc쎯	-9.72566
adj쎯	-9.72574
》tffu쎯。	-9.72608
g쎯yww쎯	-9.72619
i쎯qten0쎯qmq쎯	-9.72623
rwyg쎯fcl쎯	-9.72663
lkm쎯	-9.72686
jghy쎯	-9.72713
x쎯iyj쎯ip쎯	-9.72731
wt쎯hka쎯	-9.72733
bwj쎯wdm쎯	-9.72737
tp쎯gj쎯nnk쎯	-9.72827
g쎯pg쎯	-9.72845
gkh0쎯	-9.72907
fi쎯	-9.72948
fakg1쎯	-9.72959
uqwm0쎯u쎯	-9.72992
ipmq쎯	-9.73017
uqsg쎯	-9.7304
afff2쎯	-9.7307
khu쎯gfi쎯whw쎯qi쎯	-9.73096
sq쎯dn쎯	-9.73121
ooo쎯lg쎯uh쎯	-9.73152
td쎯qk쎯	-9.7318
ym쎯uqt쎯	-9.7318
tcy쎯	-9.73182
thn쎯	-9.73238
yce쎯	-9.73356
drin쎯	-9.73439
sksw쎯rt쎯	-9.73487
ws쎯	-9.73547
y쎯tp쎯	-9.73551
dl쎯wtf쎯	-9.73612
aqky1쎯	-9.73652
wk쎯dhb쎯	-9.73658
qvfp1쎯	-9.73732
dn쎯xgm쎯	-9.73876
qq쎯adm쎯	-9.73905
ygh쎯nnh쎯	-9.73946
qq쎯rh쎯	-9.73963
jh쎯adwe1쎯	-9.73969
dn쎯yi쎯	-9.73973
dt쎯	-9.74035
gfq쎯pe쎯	-9.74103
rgf쎯up쎯	-9.74112
eck쎯	-9.74115
sfiu0쎯	-9.74165
fwyf쎯	-9.7418
nyiy0쎯	-9.74181
txgt쎯	-9.74214
dgk쎯	-9.74272
nnl쎯	-9.74332
ga쎯yt쎯	-9.74358
fny쎯uyh쎯	-9.74387
amd쎯dcw쎯	-9.74394
,jb쎯xtu쎯xf쎯js쎯	-9.74401
r쎯fny쎯og쎯	-9.74422
c쎯dj쎯ya쎯f쎯ltu쎯o	-9.74476
gf쎯dj쎯ya쎯f쎯ltu쎯	-9.74476
vt쎯rnd1쎯o쎯uwy1쎯。	-9.74498
qtq쎯	-9.74534
.",(){(	-9.74564
.("/////	-9.74564
쎁쎀쎀쎀쎀쎈쎀쎁);});	-9.746
cd쎯ovt쎯	-9.74644
tfkf1쎯	-9.74733
rnu쎯	-9.74754
wbb쎯	-9.74788
uqt쎯	-9.74795
sai쎯	-9.74798
,ul쎯	-9.7483
qkk쎯	-9.74832
wxf쎯w쎯n쎯aw쎯t쎯l쎯	-9.74847
bt쎯wqa쎯	-9.74895
wdn쎯wx쎯	-9.74935
uwy1쎯tlf2쎯	-9.74962
u쎯kkk쎯rfm쎯jg쎯	-9.74964
wyp쎯	-9.75023
jn쎯ib쎯	-9.75025
maw쎯	-9.75031
iyv쎯	-9.75083
xte쎯qfhw0쎯	-9.75089
jtyl쎯imj쎯	-9.75099
rc쎯jmd쎯	-9.75145
uep쎯	-9.75156
cb쎯	-9.75176
쎂.쎀	-9.75182
wfi쎯	-9.75219
dga쎯pwv쎯wf쎯	-9.75222
hm쎯	-9.7533
yam쎯	-9.75333
jb쎯xtu쎯	-9.7544
ud쎯iy쎯	-9.75467
hw쎯tlf2쎯	-9.75476
dd쎯ip쎯tg쎯	-9.75499
gef쎯it쎯rh쎯	-9.75522
rwyg쎯fj쎯	-9.75539
mf쎯tl쎯	-9.75541
fd쎯qfhw0쎯	-9.75578
sgmj쎯	-9.7559
smu1쎯	-9.7559
f쎯gfi쎯	-9.75636
vyi0쎯	-9.75637
tkh쎯bb쎯	-9.75639
iagw쎯khu쎯	-9.75641
jce쎯	-9.75643
aup쎯	-9.75752
ipq쎯bj쎯	-9.75763
dhc쎯fgi쎯	-9.75764
g쎯wug1쎯	-9.75786
쎂.쎅	-9.75869
wgkl0쎯	-9.75877
qtal1쎯	-9.75937
p	-9.75995
rgd쎯	-9.76006
ufg쎯	-9.76008
ygu쎯o쎯	-9.76015
eve쎯	-9.7602
dg쎯rh쎯	-9.76031
trf쎯ntg쎯	-9.76032
mq쎯bwg쎯	-9.76052
wul쎯	-9.76188
afd0쎯vij쎯	-9.76211
qh쎯tu쎯	-9.76269
gmww쎯tkh쎯	-9.76297
dyn쎯	-9.76356
pw쎯rnb쎯	-9.76451
vb쎯r쎯	-9.76459
ifw쎯	-9.76476
fym쎯	-9.76489
fk쎯ss쎯ith쎯	-9.76582
쎂쎀쎀쎁rh쎯	-9.76608
wxj쎯ftbt쎯	-9.76628
qq쎯vaf쎯wsg0쎯	-9.7664
ytey쎯	-9.76694
,q쎯wu쎯	-9.76713
tffu쎯xe쎯	-9.76741
xh쎯fhn쎯	-9.76743
rxj쎯rpl쎯	-9.76779
쎁쎉쎉쎈rh쎯	-9.76788
rm쎯	-9.76889
qkqp쎯	-9.76957
uxx쎯	-9.77037
pt쎯yny0쎯	-9.77089
y쎯yq쎯	-9.7712
yyn1쎯ukd0쎯	-9.77129
wv쎯yb쎯	-9.77139
쎈쎅	-9.77198
r쎯ih쎯	-9.77279
sh쎯gx쎯	-9.77305
lgk쎯tmdf1쎯	-9.77317
atg쎯	-9.7732
k쎯uj쎯	-9.77387
wgk쎯m쎯	-9.77388
k쎯aw쎯ipk쎯km쎯	-9.77395
r쎯dl쎯kq쎯	-9.77413
ypeu쎯wxf쎯	-9.77418
itf쎯uqv쎯	-9.77422
ipe쎯	-9.77437
dd쎯ddh쎯	-9.77442
sm쎯rmhj쎯	-9.77474
mmm쎯ii쎯	-9.77495
vfhp1쎯yyq쎯	-9.77558
wda쎯	-9.77559
tvfh1쎯	-9.77602
itol쎯	-9.7767
ep쎯nge쎯	-9.7769
uwy1쎯	-9.77718
ywe쎯on쎯	-9.77732
xk쎯ya쎯	-9.77738
tx쎯gg쎯	-9.77861
lg쎯lgm쎯	-9.7792
f쎯gj쎯	-9.77927
쎈쎆	-9.77948
uth쎯uqw쎯	-9.77968
bl쎯	-9.77993
bj쎯iq쎯	-9.78007
svc쎯wynn3쎯	-9.78024
amw쎯qqqq1쎯	-9.78026
,eg쎯	-9.78046
ygu쎯wd쎯	-9.78063
px쎯r쎯	-9.781
awb쎯	-9.78105
xyc쎯	-9.7818
xn쎯wynn3쎯	-9.78186
,rcn1쎯	-9.7822
fg쎯tffu쎯uqd0쎯	-9.78264
gk쎯og쎯ujfj쎯wug1쎯	-9.78361
lk쎯wgkr2쎯dd쎯	-9.78382
txg쎯rh쎯	-9.78394
wwf쎯ait쎯d쎯	-9.78419
wycm0쎯fakg1쎯r쎯	-9.78466
nui쎯sm쎯	-9.78492
qf쎯cf쎯	-9.78496
xyna0쎯pgn쎯	-9.78528
ukqb0쎯qv쎯	-9.78551
쎂-	-9.78577
txi쎯xyc쎯r쎯	-9.786
aw쎯ybf0쎯	-9.78617
cd쎯lk쎯af쎯wgkb2쎯	-9.78658
anb0쎯sy쎯pe쎯	-9.78666
tq쎯kgn쎯	-9.78724
:쎁	-9.78732
fu쎯xk쎯	-9.7874
adn쎯	-9.78829
dwg쎯	-9.789
wmg1쎯	-9.78904
rrhy쎯	-9.78929
tn쎯	-9.79014
wsg0쎯cwg쎯	-9.79021
wye쎯rnd1쎯	-9.79042
uk쎯、	-9.79048
wq쎯r쎯	-9.79067
xeg쎯vfhp1쎯	-9.79114
aynq쎯	-9.79123
tf쎯fcl쎯	-9.79123
fcl쎯wt쎯	-9.79133
diu1쎯	-9.79204
b	-9.79226
xwf쎯gl쎯	-9.79235
v쎯ge쎯ywx쎯yygy쎯	-9.79243
ipkh1쎯et쎯	-9.79285
gkl쎯ftbt쎯rep쎯	-9.79288
yu쎯je쎯	-9.79294
fg쎯xe쎯	-9.79416
it쎯rh쎯	-9.79472
rnb쎯wsg0쎯	-9.79482
xtu쎯	-9.79545
쎉쎅	-9.79575
w쎯yygy쎯	-9.79585
fkue1쎯	-9.79777
lm쎯bd쎯	-9.79785
mu쎯	-9.7996
》k쎯	-9.79981
dfny0쎯	-9.79987
gm쎯qje쎯	-9.80014
yy쎯dm쎯r쎯	-9.80084
bm쎯tg쎯,	-9.80112
쎀.쎅	-9.80144
aft쎯wt쎯	-9.80149
fmud쎯	-9.80198
gmu1쎯wtf쎯	-9.80272
gh쎯fa쎯	-9.80291
、k쎯l쎯	-9.80319
wygg쎯pta쎯	-9.80339
dqe쎯pg쎯	-9.80355
pd쎯	-9.80406
pwt쎯	-9.80414
lfq쎯ss쎯	-9.80486
wfkb쎯	-9.80513
afd0쎯vij쎯ith쎯	-9.80514
ssf쎯	-9.80649
vit쎯	-9.8068
oyv쎯wyv쎯	-9.80707
쎉쎆	-9.80771
dr쎯gj쎯	-9.80791
fgu쎯	-9.80897
ntg쎯r쎯	-9.80916
pwdj쎯	-9.80918
tgjn0쎯	-9.80976
cd쎯lk쎯b쎯	-9.80995
rhj쎯	-9.81014
dnv2쎯	-9.81026
ld쎯gxi쎯	-9.81032
,ntk쎯gf쎯mmm쎯aq쎯。	-9.81034
yi쎯og쎯	-9.81043
i쎯wf쎯	-9.8111
rf쎯xfn쎯	-9.8115
thgc쎯sg쎯	-9.81164
wys쎯lft쎯wc쎯ngk쎯	-9.81186
qnu0쎯	-9.81216
쎇쎂	-9.81224
cel쎯	-9.81304
쎁쎉쎉쎆rh쎯	-9.81336
god쎯tgj쎯	-9.81344
tq쎯kgn쎯。	-9.81376
ca쎯ndj쎯	-9.81411
kqb쎯uxh쎯	-9.8145
td쎯uthp쎯	-9.81489
f쎯dm쎯	-9.81515
k쎯l쎯aw쎯u쎯ipk쎯,	-9.81606
dg쎯dd쎯	-9.81637
nng쎯	-9.81668
usr쎯gajf쎯	-9.81676
pfi쎯ftbt쎯	-9.81701
쎁쎉쎉쎇rh쎯	-9.81828
dn쎯ybv쎯	-9.81855
kmh쎯	-9.81881
쎁쎉쎉쎉rh쎯	-9.81892
bn쎯。	-9.8195
tfqm1쎯	-9.81956
fm쎯ux쎯	-9.82038
ty쎯tfqp쎯	-9.8209
pe쎯hw쎯	-9.82104
df쎯	-9.82155
khgm4쎯ytyh쎯ith쎯	-9.82222
ylf0쎯	-9.82266
qie쎯	-9.82273
fj쎯g쎯hi쎯	-9.82293
iuc쎯	-9.8234
jhk1쎯yge쎯	-9.82369
waw쎯yid쎯	-9.82421
fi쎯aib쎯	-9.82422
nd쎯wygg쎯	-9.82453
lx쎯	-9.82459
ige쎯wa쎯	-9.82495
pfqf쎯pl쎯	-9.82507
gc쎯b쎯	-9.82574
tam쎯	-9.82594
ta쎯ia쎯	-9.8265
fcn쎯	-9.82652
쎆쎈	-9.82678
t쎯yxxr0쎯	-9.82718
vii쎯ntk쎯gf쎯	-9.82783
jb쎯jh쎯	-9.828
,ntk쎯	-9.82835
ydn쎯wy쎯	-9.82862
iff1쎯	-9.82888
lf쎯	-9.82895
fl쎯yyq쎯	-9.82909
jhk1쎯	-9.82972
ujfj쎯wug1쎯。	-9.82987
pl쎯bw쎯	-9.83059
,ak쎯	-9.83074
anu쎯thg0쎯	-9.83074
jyie쎯thg0쎯	-9.83126
yt쎯d쎯	-9.83149
쎈쎈	-9.8315
wqu쎯xgu쎯	-9.83156
cexo1쎯	-9.83175
wfkb쎯tdp쎯	-9.83233
nhj쎯rrr쎯	-9.83341
ffff5쎯fyk쎯	-9.83408
l쎯tl쎯bpf쎯	-9.83413
sghg1쎯yy쎯	-9.83454
쎇쎈	-9.83465
uth쎯ftjb쎯	-9.83473
lk쎯rvyo쎯	-9.83507
쎅쎄	-9.83516
jaw쎯	-9.83518
waj쎯	-9.83568
,x쎯	-9.83619
ifh0쎯	-9.83646
pgc쎯mw쎯	-9.83733
uqwm0쎯sg쎯	-9.83765
gkf쎯	-9.8379
aj쎯	-9.83898
iwf쎯tf쎯	-9.8391
yaf쎯	-9.83934
j쎯gik쎯	-9.83962
br쎯	-9.84075
ta쎯iit쎯	-9.84087
amd쎯yygy쎯	-9.84087
a쎯wt쎯ftj쎯	-9.84117
iyj쎯fm쎯	-9.84157
fny쎯tjh쎯	-9.84161
avi쎯	-9.84252
ul쎯x쎯	-9.84252
pj쎯yf쎯	-9.84272
u쎯kkk쎯r쎯	-9.84279
ykg쎯	-9.84382
tdj쎯	-9.84408
lg쎯uh쎯	-9.84446
ia쎯fm쎯	-9.84527
qtvb쎯	-9.84532
쎁쎉쎉쎅rh쎯	-9.84588
tp쎯gj쎯、	-9.84601
lc쎯swc쎯	-9.84604
ltu쎯wqj쎯	-9.84607
lt쎯jg쎯	-9.84623
gae쎯dyn쎯	-9.84736
udyj쎯gqf쎯	-9.84766
je쎯wa쎯	-9.84969
wv쎯wc쎯ngk쎯	-9.84983
yc쎯	-9.84985
a쎯wt쎯r쎯	-9.85061
쎅쎇	-9.8517
qi쎯bw쎯	-9.85243
ujn쎯ykw쎯	-9.85289
tmgk2쎯	-9.85353
mhr쎯	-9.85375
ua쎯eg쎯	-9.85384
mfk쎯lfnh쎯	-9.85391
pwu0쎯	-9.85417
jtyl쎯rpw쎯	-9.85428
gah쎯kkd쎯	-9.85442
ovt쎯dcg쎯	-9.85465
hid쎯yx쎯	-9.85471
nywf0쎯	-9.85471
ubt쎯	-9.8548
,kgn쎯	-9.8549
&;	-9.85535
ahtb쎯	-9.8554
n쎯y쎯	-9.85542
tfhy쎯	-9.85544
′	-9.85544
tfq쎯fj쎯a쎯wt쎯ftj쎯	-9.85549
un쎯tgm쎯	-9.8555
a쎯w쎯	-9.85597
mfk쎯lp쎯	-9.85602
쎁쎉쎅쎆rh쎯	-9.85662
tu쎯、	-9.85683
isj쎯	-9.85828
쎅wh쎯	-9.85852
h쎯gh쎯	-9.85895
,gm쎯	-9.85906
itx쎯qh쎯	-9.85907
cd쎯ftg쎯	-9.85931
ew쎯	-9.85948
쎁쎉쎉쎂rh쎯	-9.86069
yff쎯sksw쎯	-9.8611
jtyl쎯	-9.86185
hid쎯uthp쎯	-9.86296
kt쎯	-9.86506
tri쎯	-9.86506
cf쎯qje쎯	-9.86527
fl쎯egl쎯	-9.86533
gqjo0쎯	-9.86571
wvl쎯	-9.86687
sgn쎯wrh2쎯	-9.86702
dpq쎯	-9.86708
d쎯hx쎯	-9.86711
rtf쎯	-9.86821
yny0쎯ngc쎯	-9.86866
yox쎯	-9.8688
nyi2쎯	-9.86905
ccc쎯qk쎯	-9.86943
쎅쎃	-9.86946
wbj쎯ujn쎯	-9.86965
itdy쎯	-9.87048
uqwm0쎯ynf쎯	-9.87052
dmj1쎯i쎯	-9.8706
lpk0쎯qim쎯	-9.87366
jn쎯sm쎯	-9.87418
dr쎯qk쎯	-9.87502
ss쎯og쎯	-9.87537
bib쎯ovt쎯	-9.87546
awn쎯	-9.87565
ip쎯dl쎯	-9.87588
fnh쎯	-9.87594
qk쎯,	-9.87678
ymhj쎯aq쎯	-9.87685
dg쎯tffu쎯uqd0쎯	-9.87698
nc쎯	-9.87741
itx쎯pl쎯	-9.87809
p쎯su쎯	-9.87833
tdp쎯yid쎯	-9.87843
ym쎯tu쎯rfc쎯	-9.87844
amw쎯qc쎯	-9.8785
mqc쎯	-9.87851
cm쎯www쎯	-9.87877
gjq쎯qk쎯o쎯	-9.87884
nty1쎯o쎯	-9.87888
tk쎯f쎯	-9.8795
cm쎯pwfi쎯	-9.87969
bpf쎯suq쎯	-9.88099
qn쎯wynk쎯	-9.88165
ih쎯gajf쎯	-9.88199
jgg1쎯	-9.88256
tn쎯nnh쎯	-9.88319
ygh쎯udv쎯	-9.88328
,wb쎯wu쎯	-9.88334
wdt쎯vb쎯	-9.88413
pta쎯	-9.88453
jn쎯dfy쎯	-9.88478
yfn쎯nnh쎯	-9.88536
wsg0쎯txi쎯yw쎯ygh쎯	-9.88553
ivs쎯	-9.88645
xln1쎯qt쎯	-9.88655
gx쎯fcl쎯	-9.88675
yud0쎯xl쎯	-9.88678
。y쎯s쎯	-9.88742
ihi쎯ey쎯	-9.88791
gl쎯pe쎯	-9.88794
p쎯j쎯	-9.88799
sgyb쎯	-9.88814
쎁쎉쎉쎃rh쎯	-9.88834
fggh쎯okk쎯	-9.88837
yop쎯	-9.88866
cbd쎯by쎯	-9.88872
jn쎯kkd쎯	-9.88873
,gip쎯	-9.88885
)j쎯	-9.88899
fhn쎯go쎯	-9.88976
lgey0쎯egl쎯	-9.88978
iqgg쎯	-9.88982
bp쎯	-9.88989
dd쎯bw쎯	-9.89014
sq쎯tfkp쎯	-9.89022
쎁쎉쎈쎆rh쎯	-9.89092
gkp쎯go쎯	-9.89103
ipg쎯kjj쎯	-9.89157
w쎯fqu쎯xgb쎯nh쎯ty쎯	-9.89193
usr쎯lk쎯fhc쎯	-9.89196
ddh쎯uyh쎯	-9.89206
tuj쎯tq쎯	-9.89208
pp쎯rg쎯,	-9.89221
wfh1쎯	-9.89299
yc쎯iagw쎯	-9.89385
lw쎯ip쎯	-9.89449
x쎯dl쎯	-9.89491
ujfj쎯fqb1쎯	-9.895
itm쎯dd쎯tjh쎯gog쎯	-9.89507
fas쎯fuk쎯	-9.89527
puv쎯k쎯	-9.89545
쎄-	-9.89553
v쎯tmdf1쎯	-9.89607
rep쎯cbj쎯	-9.89619
mw쎯lfhf쎯	-9.8962
fct쎯	-9.89704
kwyg쎯g쎯	-9.89705
쎄쎁	-9.89713
fny쎯lkb쎯	-9.89734
xxm쎯	-9.89756
lu쎯o쎯	-9.89804
bwg쎯	-9.89807
fwm쎯st쎯	-9.8992
rfc쎯agnn2쎯	-9.89927
icw쎯	-9.89932
nnw쎯qi쎯	-9.89954
kj쎯qd쎯	-9.90025
qev쎯un쎯yy쎯pvs쎯	-9.9005
gx쎯	-9.90055
ftjb쎯ymhj쎯	-9.90063
qejy쎯	-9.90076
rxj쎯sfi쎯	-9.90115
wy쎯thn쎯wx쎯	-9.90151
pww쎯jqr쎯	-9.90166
ugdu쎯gmy1쎯r쎯	-9.90199
xwf쎯	-9.9023
gki쎯	-9.90245
jx쎯	-9.90283
qtb쎯	-9.90297
ium쎯	-9.90318
ux쎯yiu쎯dd쎯ip쎯	-9.90343
ip쎯km쎯	-9.90347
rmn쎯	-9.90355
쎁-	-9.90474
j쎯g쎯ffi쎯	-9.90492
st쎯aa쎯	-9.90505
쎁쎉쎉쎀rh쎯	-9.90517
rvy쎯	-9.90552
lw쎯wc쎯pgc쎯y쎯wtf쎯	-9.90572
jn쎯iyc쎯	-9.9059
rx쎯	-9.90625
,wc쎯ngk쎯	-9.90718
sty0쎯	-9.90724
wfny0쎯yu쎯	-9.90745
y쎯s쎯ww쎯gk쎯	-9.90751
dm쎯tm쎯	-9.90826
ip쎯fghg쎯ip쎯wug1쎯	-9.90913
pyuf쎯	-9.90988
vfb쎯hxf쎯	-9.91043
fwy쎯	-9.91079
mga쎯	-9.91122
gkm쎯wgk쎯	-9.91138
dhd쎯	-9.91161
udb쎯ytyh쎯	-9.9122
udy쎯ukq쎯	-9.91221
yned쎯	-9.91229
emc쎯wwv쎯	-9.91236
tfkp쎯dn쎯	-9.91284
r쎯usr쎯	-9.91284
jn쎯rnb쎯	-9.91355
쎆쎂	-9.91382
iry쎯iq쎯	-9.91416
쎂쎀쎁쎂rh쎯	-9.91508
쎁쎉쎈쎅rh쎯	-9.91544
gj쎯a쎯dd쎯ip쎯	-9.91546
wfh1쎯tc쎯	-9.91625
rdc쎯	-9.91628
g쎯tffu쎯uqd0쎯	-9.91634
iyw쎯wsg0쎯	-9.91652
aqrn0쎯	-9.91698
ymhj쎯xe쎯	-9.91727
ge쎯dp쎯	-9.91788
▁쎄、	-9.91819
tjs쎯	-9.91819
gajh쎯	-9.91848
dhb쎯wyf0쎯	-9.91877
gku쎯ywfw쎯	-9.91884
sgm쎯	-9.91916
si쎯pvs쎯	-9.92065
쎅쎉	-9.9207
uth쎯nm쎯	-9.92072
쎅쎁	-9.92129
ux쎯yy쎯	-9.92152
,aqt쎯	-9.92168
fu쎯ta쎯	-9.92186
rt쎯wdm쎯	-9.92195
xk쎯dd쎯r쎯	-9.92208
fm쎯yy쎯	-9.92215
uth쎯rx쎯	-9.92278
wys쎯wsg0쎯	-9.9228
aah쎯	-9.92338
gjq쎯usr쎯	-9.92377
ii쎯inx쎯	-9.92439
agnt쎯	-9.92485
,ce쎯	-9.92503
-쎁	-9.92559
tak쎯xe쎯	-9.9259
nk쎯	-9.92615
gl쎯dm쎯	-9.92629
dd쎯wf쎯	-9.92645
ax쎯kkk쎯	-9.92647
k쎯ax쎯	-9.92655
tw쎯	-9.92706
gaj쎯	-9.92745
cep쎯et쎯	-9.92761
cad쎯	-9.92768
ynk쎯fcl쎯	-9.92785
uwa쎯	-9.92792
hq쎯	-9.92936
ynv쎯	-9.92984
wgk쎯gj쎯	-9.92987
vfhp1쎯e쎯	-9.93053
,ld쎯o쎯	-9.93074
쎆쎃	-9.93102
tjt쎯wgk쎯	-9.93139
쎁쎉쎈쎈rh쎯	-9.93142
vbn쎯r쎯	-9.93158
쎀쎁	-9.93161
sfi쎯uwy1쎯wx쎯	-9.93184
adwn0쎯gcf쎯	-9.93185
fnhc1쎯	-9.93203
wh쎯ntg쎯	-9.9326
tgm쎯ltk쎯	-9.93267
jel쎯	-9.93302
utem1쎯	-9.93419
fghy0쎯	-9.93446
saj쎯hw쎯	-9.93473
jlx쎯	-9.93546
yc쎯wv쎯	-9.93599
fh쎯tca쎯	-9.93612
dd쎯www쎯	-9.93616
wjm쎯	-9.93634
sdw쎯	-9.93644
ywyg1쎯	-9.93698
bwt쎯b쎯	-9.93705
px쎯wu쎯	-9.93775
hq쎯qnq쎯	-9.93796
dmj1쎯eg쎯	-9.93807
uqwn0쎯	-9.93825
uejo쎯	-9.93891
mqc쎯nudu쎯	-9.93975
r쎯ad쎯dbm쎯h쎯	-9.93996
ra쎯	-9.94024
ryn0쎯gj쎯	-9.94056
vnu1쎯	-9.94078
uqt쎯yx쎯	-9.94099
sfhg쎯	-9.94129
vfhp1쎯gf쎯	-9.94132
”tffu쎯	-9.9417
,yi쎯	-9.9419
whn쎯	-9.94193
iqp쎯	-9.94209
v쎯rpl쎯	-9.94214
ga쎯v쎯aq쎯	-9.94218
ab쎯ce쎯	-9.94225
yon쎯	-9.94239
gg쎯rh쎯	-9.94263
tei쎯	-9.9428
ry쎯dd쎯	-9.94313
usi0쎯	-9.94358
tym쎯	-9.9436
je쎯jo쎯	-9.94383
itfk쎯	-9.94405
tga쎯	-9.94495
qtg쎯	-9.94515
tx쎯쎂	-9.94551
쎆쎇	-9.94571
쎁쎉쎉쎄rh쎯	-9.94576
▁쎄.	-9.94605
g쎯qk쎯	-9.94618
ad쎯ld쎯	-9.94682
,iv쎯	-9.94699
uqd0쎯。	-9.94703
pwd쎯	-9.94717
rk쎯	-9.94799
gj쎯qev쎯	-9.94816
쎇쎇	-9.94869
cqw쎯qbp쎯	-9.94877
v쎯nae쎯r쎯	-9.9488
쎇쎆	-9.94882
vfhp1쎯sft쎯	-9.94891
ll쎯,	-9.94894
tp쎯uthp쎯	-9.94917
egl쎯gj쎯	-9.9501
쎁쎉쎉쎁rh쎯	-9.95034
kcb쎯	-9.95036
쎁쎉쎈쎄rh쎯	-9.9507
tqt쎯	-9.95104
。ip쎯suq쎯	-9.95112
ipkh1쎯mqb쎯	-9.95143
xfn쎯	-9.95259
epw쎯	-9.95276
,pb쎯	-9.95286
e쎯g쎯	-9.95309
ovt쎯rnd1쎯ylk2쎯	-9.95374
wxd쎯	-9.95383
wj쎯	-9.95473
fcr쎯	-9.95474
pv쎯rdj쎯	-9.95551
ym쎯dfy쎯	-9.95628
tx쎯uy쎯	-9.9564
qev쎯yt쎯	-9.95647
쎆쎉	-9.95672
pnt쎯ya쎯	-9.95674
eb쎯tl쎯kkd쎯	-9.95676
sga쎯	-9.95702
dgty쎯	-9.95785
ur쎯	-9.9579
kqw쎯	-9.95827
wyc쎯w쎯	-9.95839
gv쎯	-9.95926
rnb쎯whn쎯	-9.95944
lfq쎯aq쎯	-9.95958
nu쎯nxf쎯	-9.95996
ktm쎯	-9.96009
gu쎯dm쎯	-9.96018
쎃-	-9.96021
cep쎯uthp쎯	-9.96054
lft쎯xf쎯	-9.96054
쎇쎃	-9.96084
uft쎯	-9.96085
uqwm0쎯st쎯	-9.96097
▁(	-9.96114
〕	-9.96139
쎈쎂	-9.96166
,mh쎯gf쎯	-9.96168
ap쎯	-9.96187
mqq쎯h쎯	-9.96212
viq쎯	-9.96291
emc쎯sfiu0쎯	-9.96321
khq쎯	-9.96351
rgv쎯	-9.96363
pu쎯lt쎯	-9.96372
tk쎯adm쎯	-9.96378
,fq쎯	-9.96408
wqu쎯us쎯	-9.96454
ftg쎯ty쎯	-9.96474
fp쎯fcu1쎯	-9.96483
atd쎯jgm쎯	-9.96512
dmh쎯nnk쎯	-9.96529
sri쎯	-9.96691
bj쎯egc쎯	-9.96702
wc쎯ngk쎯r쎯	-9.96709
ftbt쎯dga쎯pgc쎯	-9.96732
rny1쎯	-9.96828
eud쎯	-9.96829
tx쎯g쎯uqw쎯	-9.96969
rfw쎯	-9.96988
쎉쎇	-9.97088
。ww쎯	-9.97106
ep쎯vb쎯ftj쎯	-9.97163
ddg0쎯	-9.97177
lgey0쎯nf쎯	-9.97199
atd쎯tg쎯	-9.97206
vvf0쎯	-9.9722
r쎯tg쎯itd쎯	-9.97227
mty1쎯	-9.97285
w쎯n쎯qev쎯yt쎯pl쎯	-9.9731
gu쎯dr쎯	-9.97362
wwwk쎯	-9.97474
uvo쎯wtf쎯	-9.97479
sg쎯f쎯	-9.97486
jcf쎯	-9.9753
dr쎯mj쎯	-9.97579
infy쎯	-9.9759
ny쎯gj쎯ip쎯	-9.97613
n쎯l쎯	-9.97631
f쎯fhg1쎯	-9.97667
gjq쎯qq쎯	-9.97672
trt쎯	-9.97682
yn쎯ftj쎯	-9.97682
yw쎯ykw쎯	-9.97713
y쎯wsg0쎯	-9.97799
egc쎯w쎯n쎯ght쎯ywf쎯	-9.97843
xpw쎯	-9.97991
t쎯gu쎯	-9.98003
tvfh1쎯jgm쎯	-9.98004
es쎯bc쎯	-9.98043
iqc쎯cep쎯	-9.98173
d쎯ux쎯yiu쎯	-9.98176
wj쎯xvk쎯b쎯	-9.98188
,gjq쎯	-9.98197
lxx쎯wycb쎯	-9.98279
san쎯	-9.98309
egc쎯ght쎯ywf쎯	-9.98433
tkh쎯od쎯	-9.98459
bu쎯wgk쎯wf쎯	-9.98471
2쎯	-9.98473
wy쎯iwyf2쎯	-9.98511
”t쎯“	-9.98519
ig쎯	-9.98579
epi쎯	-9.98626
ufw쎯	-9.98635
gmf쎯uqw쎯	-9.98681
ywwg1쎯	-9.98714
p쎯jfd쎯	-9.98723
xeg쎯dn쎯r쎯	-9.98728
tx쎯g쎯wh쎯	-9.98733
o쎯pt쎯yne쎯rj쎯waw쎯	-9.98734
ys쎯	-9.98779
pds쎯	-9.98827
it쎯ytf쎯	-9.98828
쎆wh쎯	-9.98866
쎁쎉쎅쎈rh쎯	-9.98872
iy쎯ujn쎯	-9.98881
caq쎯fcl쎯	-9.98888
,hhhh쎯ue쎯	-9.98903
tgm쎯	-9.98934
o쎯y쎯r쎯	-9.9895
agnn2쎯	-9.98957
pvs쎯wgq쎯	-9.98964
xm쎯	-9.98984
xy쎯xkw쎯	-9.99006
。hhhh쎯ue쎯	-9.99008
qe쎯qc쎯	-9.99022
iha쎯	-9.9904
syp쎯	-9.99129
djd쎯iyt0쎯	-9.99165
fuf1쎯pyg쎯	-9.99262
po쎯	-9.99292
je쎯jtg쎯	-9.99299
fqu쎯o쎯	-9.99303
raj쎯ytb쎯	-9.99322
jgm쎯aib쎯ip쎯bpf쎯	-9.99345
ipkh1쎯tl쎯	-9.99349
ipkm0쎯	-9.99356
ue쎯rg쎯	-9.99357
쎇쎉	-9.99373
va쎯	-9.99382
jn쎯kht쎯	-9.99389
aak쎯	-9.9948
nh쎯vi쎯	-9.99487
wgkr2쎯	-9.99522
tuh쎯	-9.99523
ijx쎯uxt쎯ffff5쎯	-9.99561
wt쎯og쎯	-9.99572
。wjg쎯	-9.99624
tg쎯u쎯xg쎯	-9.99632
bg쎯jtg쎯	-9.99633
ymc쎯yf쎯、	-9.99669
ynnd쎯	-9.99673
쎁쎉쎈쎉rh쎯	-9.99683
쎆-	-9.99737
ftj쎯。	-9.99751
yn쎯fa쎯	-9.99764
rae쎯	-9.99795
qhk쎯	-9.99805
mjq쎯	-9.99813
rmay쎯	-9.99855
wfy쎯	-9.99949
fqu쎯qu쎯	-9.99974
ykw쎯klj쎯	-10.0001
vtk쎯wsg0쎯	-10.0001
kw쎯j쎯	-10.0001
tdkj쎯dhd쎯	-10.0004
mw쎯dhb쎯	-10.0005
b쎯。	-10.0006
qdt쎯	-10.0008
rtol1쎯	-10.0011
dr쎯ld쎯	-10.0013
uqt쎯yid쎯	-10.0017
e쎯hxf쎯	-10.0022
qh쎯cm쎯	-10.0024
ssk쎯	-10.0031
qbp쎯	-10.0033
wyv쎯et쎯	-10.0035
wyv쎯tr쎯	-10.0035
tffu쎯qq쎯tkh쎯	-10.0036
yid쎯yynw1쎯	-10.0038
)、《	-10.0044
cqw쎯	-10.0046
gmww쎯wmj0쎯	-10.0054
yygy쎯tr쎯wk쎯ryn0쎯	-10.0054
,“	-10.0055
xwy쎯tg쎯gxi쎯	-10.0056
iv쎯rh쎯	-10.0056
db쎯pt쎯	-10.0059
tj쎯gc쎯b쎯	-10.0061
qjn쎯	-10.0064
lgey0쎯	-10.0069
ym쎯umd0쎯	-10.0072
bv쎯rmhj쎯	-10.0076
wyk쎯rg쎯eb쎯tl쎯	-10.0076
쎂eee쎯	-10.0077
fje쎯qgu쎯	-10.0082
wdn쎯te쎯ftbt쎯jgm쎯	-10.0083
。hx쎯	-10.0092
rb1쎯uthp쎯	-10.0093
dfek쎯	-10.0099
tdp쎯jg쎯	-10.0102
ese쎯qc쎯	-10.0107
쎁쎉쎈쎇rh쎯	-10.0108
jjjj쎯ipkh1쎯	-10.0112
lfo쎯dx쎯ia쎯	-10.0112
uth쎯tfq쎯	-10.0113
ltu쎯pvs쎯	-10.012
umd0쎯kkkk0쎯	-10.0124
jvko쎯thg0쎯	-10.0127
emc쎯wwv쎯e쎯bv쎯	-10.0127
gmw쎯	-10.0133
dm쎯cf쎯	-10.0133
xv쎯wx쎯	-10.0143
”o쎯	-10.0143
쎁쎉쎈쎃rh쎯	-10.0145
쎉eee쎯	-10.0148
rnb쎯qje쎯	-10.0149
rn쎯yle쎯	-10.0152
tv쎯km쎯	-10.0154
ad쎯nfc쎯	-10.0168
ivp쎯	-10.017
u쎯jg쎯	-10.0172
qyt쎯	-10.0175
쎂.	-10.0181
stt쎯	-10.0192
jvko쎯je쎯	-10.0199
dmd쎯	-10.0202
vf쎯ra쎯	-10.0205
egcn쎯	-10.0207
nui쎯tf쎯	-10.0207
ftg쎯pwfi쎯	-10.0208
ydjn1쎯	-10.0211
jb쎯o쎯	-10.0214
쎅-	-10.0215
rfc쎯	-10.0222
쎆eee쎯	-10.0224
dn쎯wv쎯	-10.0227
dgt1쎯yny0쎯	-10.0229
iak쎯	-10.0239
,thd쎯	-10.0243
ftbt쎯rep쎯,	-10.0243
dnp쎯	-10.0243
lp쎯xxe쎯	-10.0244
mb쎯	-10.0246
lqj쎯	-10.0247
dga쎯pwv쎯km쎯	-10.0251
eb쎯qnth쎯	-10.0251
amw쎯isk쎯	-10.0254
fny쎯og쎯tv쎯km쎯wf쎯	-10.0258
,ua쎯d쎯	-10.026
nmh쎯	-10.0261
cds쎯	-10.0262
nae쎯ga쎯	-10.0271
pntj쎯	-10.0273
fgh쎯rh쎯	-10.0274
cal쎯	-10.0282
dd쎯uk쎯wv쎯	-10.0286
j쎯wh쎯	-10.0287
pe쎯ytt쎯	-10.0289
fny쎯tu쎯	-10.0291
gkih쎯gj쎯	-10.0292
kl쎯	-10.0294
me쎯fggh쎯	-10.0295
hjj쎯	-10.0297
agq쎯	-10.0309
wcn쎯	-10.031
xg쎯kht쎯	-10.0313
y쎯s쎯j쎯	-10.0315
awsk쎯	-10.0315
dn쎯ftjb쎯ymhj쎯	-10.0331
ryl쎯ta쎯	-10.0332
tgj쎯pym쎯	-10.0333
bwj쎯	-10.0337
k쎯l쎯tu쎯ip쎯bpf쎯	-10.0341
ripq1쎯rufh1쎯	-10.0344
tjt쎯vs쎯	-10.0348
x쎯iyj쎯v쎯nae쎯	-10.0352
r쎯f쎯yy쎯	-10.0352
fhw쎯pu쎯	-10.0353
wv쎯uyt0쎯yx쎯	-10.0354
auqw쎯	-10.0358
kkhn쎯	-10.0359
()j쎯	-10.0359
q쎯wu쎯r쎯	-10.036
쎇쎄	-10.0361
ll쎯bb쎯	-10.0362
yff쎯yngk0쎯	-10.0362
qty1쎯	-10.0363
a쎯wt쎯;	-10.0363
iyc쎯tkgg0쎯	-10.0365
dga쎯rmhj쎯	-10.0366
fny쎯jghm1쎯	-10.0368
ry쎯nae쎯	-10.0374
쎃.쎅	-10.038
pgc쎯、	-10.0382
vp쎯	-10.0382
dfe쎯	-10.0384
-쎃	-10.0385
uqt쎯uwl쎯	-10.0388
sk쎯dp쎯	-10.039
fuk쎯	-10.0392
v쎯fcl쎯sm쎯	-10.0394
oth쎯	-10.0395
wgu쎯	-10.0397
gmiu쎯	-10.04
ln쎯xwy쎯	-10.0404
fq쎯xg쎯	-10.041
hid쎯	-10.0411
ie쎯	-10.042
rg쎯go쎯	-10.0422
wc쎯pjm쎯	-10.0425
쎁.쎂	-10.0428
oja쎯	-10.0431
쎁쎁eee쎯	-10.0433
jef1쎯	-10.0434
쎅eee쎯	-10.0436
bk쎯ce쎯	-10.0437
pl쎯aq쎯	-10.0443
ps쎯ihc쎯	-10.0447
utd쎯	-10.0451
쎂쎅쎀	-10.0454
r쎯《	-10.0465
al쎯yx쎯	-10.0467
jfd쎯,	-10.0471
g쎯iyc쎯	-10.0476
wtfm3쎯waj쎯	-10.0479
dff0쎯	-10.048
rvyf쎯	-10.0485
,rj쎯ym쎯	-10.0485
rs쎯ga쎯	-10.0487
ym쎯si쎯	-10.0492
쎈쎃	-10.0496
ms쎯	-10.0497
wgk쎯ua쎯	-10.0498
쎁쎉쎈쎂rh쎯	-10.05
tfpd쎯	-10.0503
tom쎯	-10.0504
쎄eee쎯	-10.0505
twf쎯	-10.0509
쎁쎈쎀	-10.051
ugdu쎯gmy1쎯	-10.0512
ght쎯fl쎯	-10.0513
쎈쎇	-10.0517
pei쎯og쎯dd쎯ip쎯	-10.0518
tdt쎯w쎯	-10.0519
nj쎯	-10.0524
atj쎯	-10.0527
ymc쎯yf쎯jgm쎯	-10.0528
g쎯uk쎯	-10.0531
fwm쎯mj쎯	-10.0536
ians0쎯uthp쎯	-10.054
fj쎯hi쎯	-10.0542
fcp쎯fcl쎯km쎯	-10.0543
lwg쎯	-10.0548
g쎯hko쎯	-10.0558
af쎯	-10.0558
ce쎯jg쎯	-10.0559
쎈쎄	-10.0559
쎁쎆쎀	-10.0559
fgi쎯	-10.0562
et쎯kkk쎯	-10.0566
,aw쎯	-10.0567
a쎯og쎯dd쎯ip쎯	-10.057
shi쎯	-10.0574
r쎯dd쎯gajf쎯	-10.0576
fqp쎯tkgg0쎯	-10.058
wc쎯ga쎯	-10.058
uxt쎯	-10.0582
k쎯mmm쎯	-10.0593
gh쎯ymc쎯	-10.0594
v쎯yce쎯	-10.0598
》r쎯	-10.0601
txi쎯gq쎯u쎯kkk쎯	-10.0602
wht쎯nty1쎯	-10.0605
sqj쎯eu쎯	-10.0613
ijl쎯riu쎯	-10.0613
lh쎯dd쎯	-10.0615
wfd쎯	-10.0615
wfny0쎯xyc쎯r쎯	-10.0616
qqk쎯	-10.0619
ii쎯tjh쎯	-10.062
rnu쎯wx쎯	-10.0621
xjm쎯et쎯	-10.0622
쎁쎉쎈쎁rh쎯	-10.0623
wb쎯wu쎯r쎯	-10.0631
tdp쎯	-10.0634
rd쎯nae쎯	-10.0639
g쎯tg쎯	-10.0642
ftl쎯	-10.0642
쎁쎉쎈쎀rh쎯	-10.0643
▁nua쎯ajdh쎯	-10.0646
g쎯ddu0쎯	-10.0647
pwd쎯dhc쎯	-10.0652
iqv쎯	-10.0653
ga쎯ud쎯	-10.0659
ians0쎯	-10.0663
o쎯y쎯。	-10.0671
iry쎯	-10.0672
mdfj쎯	-10.0682
ivg쎯	-10.0682
rb1쎯》	-10.0688
k쎯yygy쎯txi쎯	-10.0691
,fcb쎯	-10.0691
mwy쎯	-10.0692
쎈eee쎯	-10.0694
ugdu쎯wyv쎯	-10.0694
jn쎯pym쎯ndj쎯	-10.0697
qgo쎯	-10.0704
쎁쎉쎇쎉rh쎯	-10.0707
uejv쎯	-10.0707
uj쎯,	-10.0707
i쎯khu쎯	-10.0708
aws쎯kf쎯	-10.0708
ahnh0쎯	-10.071
fcp쎯wt쎯	-10.0715
kfg쎯	-10.0715
쎈쎉	-10.0716
tep쎯je쎯	-10.0717
tev쎯	-10.072
dj쎯vtg쎯	-10.0727
r쎯ad쎯sg쎯	-10.0729
wxf쎯ai쎯	-10.073
m쎯su쎯	-10.0733
ugdu쎯sy쎯ip쎯bpf쎯	-10.0738
qt	-10.074
fhv쎯xe쎯	-10.0742
dl쎯kq쎯h쎯	-10.0746
ua쎯i쎯	-10.0747
ftbt쎯pgc쎯	-10.0749
sg쎯kkk쎯	-10.075
qtj쎯trf쎯	-10.0752
ga쎯rd쎯	-10.0756
hka쎯fghg쎯	-10.076
gae쎯pww쎯	-10.0763
kgb쎯	-10.0763
yv쎯vb쎯	-10.0763
ifn쎯ivs쎯	-10.0769
fg쎯fgh쎯	-10.077
xgu쎯us쎯	-10.077
d쎯p쎯jfd쎯	-10.0775
wv쎯sgn쎯	-10.0775
dhq쎯	-10.0777
uqsg쎯img쎯	-10.0778
fk쎯ss쎯	-10.0778
bb쎯,	-10.0781
rmhj쎯dn쎯	-10.0784
lw쎯gj쎯	-10.0785
gm쎯o쎯	-10.0787
iyc쎯jg쎯	-10.0791
ypk쎯	-10.0797
-쎂	-10.0797
ipw쎯ya쎯	-10.0799
xjk쎯	-10.0799
pwfi쎯	-10.0802
qk쎯w쎯	-10.0803
vk쎯hx쎯	-10.0804
ih쎯jf쎯	-10.0804
쎁쎉쎇쎈rh쎯	-10.0806
tjh쎯uwl쎯	-10.0808
x쎯iyj쎯ukn쎯nh쎯ty쎯	-10.0809
fgh쎯gg쎯	-10.082
qnq쎯wyv쎯	-10.0823
lftj쎯	-10.0825
cqy쎯nhj쎯	-10.0829
ta쎯ya쎯	-10.0832
yca쎯	-10.0836
f쎯gj쎯wug1쎯lfhf쎯	-10.0838
g쎯iyc쎯r쎯	-10.0839
mq쎯jy쎯	-10.0842
pfq쎯ugdu쎯	-10.0844
r쎯dd쎯	-10.0847
ynm쎯	-10.0847
yta쎯gh쎯	-10.085
gae쎯udy쎯	-10.0856
uqwl쎯	-10.0859
temk쎯ter1쎯	-10.0862
qvfp1쎯tel쎯	-10.0871
v쎯je쎯	-10.0872
adwr쎯trf쎯	-10.0873
nhj쎯rrr쎯rfm쎯	-10.0877
wbj쎯uu쎯	-10.0877
wjg쎯j쎯	-10.088
tk쎯wh쎯	-10.0883
rg쎯r쎯	-10.0886
mmm쎯egc쎯	-10.0888
쎉쎂	-10.0894
tdp쎯peg쎯	-10.0896
by쎯hh쎯	-10.0897
rhf쎯gc쎯	-10.0902
begg쎯	-10.0905
wgk쎯qqqq1쎯	-10.0907
yf쎯jg쎯	-10.0909
gk쎯tl쎯	-10.0914
mt쎯wh쎯	-10.0918
xcy쎯	-10.0919
e쎯《	-10.0922
bbh쎯	-10.0924
ajdh쎯	-10.0926
,wkh쎯fj쎯	-10.0927
wfny0쎯dgkn쎯kkd쎯	-10.0933
ra쎯gc쎯	-10.0935
awv쎯	-10.0937
sgy쎯	-10.0941
ih쎯qt쎯	-10.0941
jsd쎯oug쎯	-10.0943
es쎯mqc쎯	-10.0945
uqd0쎯ddnl쎯	-10.0946
tf쎯og쎯r쎯	-10.0949
tv쎯rta쎯	-10.0949
ukn쎯wc쎯ngk쎯	-10.0952
um쎯sfi쎯	-10.0952
qq쎯pe쎯	-10.0955
qqq쎯	-10.0958
th쎯gj쎯kkd쎯	-10.0961
alw쎯bu쎯	-10.0961
pyg쎯ytyh쎯	-10.0966
pe쎯nd쎯	-10.0967
tgj쎯jg쎯	-10.0969
dfi쎯	-10.0973
sup쎯	-10.0974
iyc쎯fcl쎯	-10.0978
gmww쎯rh쎯	-10.0984
d쎯wg쎯l쎯	-10.0984
god쎯st쎯	-10.0985
nii1쎯	-10.0987
fhw쎯ghd0쎯	-10.0988
▁u쎯kkk쎯	-10.0991
fwm쎯tvfh1쎯	-10.0991
faf1쎯	-10.0992
m쎯hi쎯	-10.0997
w쎯n쎯tmh0쎯	-10.0998
aet0쎯yygy쎯	-10.0999
jtyl쎯pwfi쎯	-10.0999
wc쎯y쎯	-10.1008
쎆쎁	-10.1012
ls쎯cw쎯	-10.1015
dgj쎯tel쎯	-10.1016
ynma쎯	-10.1016
1	-10.1019
rg쎯adwe1쎯	-10.1022
):	-10.1024
tg쎯dhb쎯	-10.103
ojf쎯ruv쎯	-10.103
nv쎯	-10.1031
ugm쎯w쎯	-10.1032
★	-10.1042
yn쎯nn쎯	-10.1043
cf쎯qh쎯	-10.1047
±	-10.1053
txgi2쎯	-10.1054
hic쎯	-10.1055
쎁쎀eee쎯	-10.1059
whf쎯	-10.1061
dd쎯std쎯	-10.1062
fd쎯egc쎯	-10.1063
qdb쎯	-10.1064
yvk쎯	-10.1065
wxm쎯tmh0쎯	-10.107
afs쎯hxf쎯	-10.1071
awsk쎯uff쎯	-10.1075
awx쎯faj쎯	-10.1075
,tfq쎯rg쎯	-10.1082
qtb쎯ldj쎯	-10.1084
oge쎯amd쎯	-10.1085
。ul쎯wtf쎯	-10.1086
tu쎯rfc쎯dd쎯ip쎯	-10.1086
rh쎯hwbc쎯	-10.1088
ul쎯d쎯	-10.1096
yi쎯wf쎯	-10.1099
mhh쎯	-10.1115
wgk쎯ec쎯	-10.1117
ajt쎯qc쎯	-10.1118
gqx쎯ynv쎯	-10.1119
tga쎯fh쎯	-10.1121
i쎯tj쎯	-10.1123
tx쎯쎁	-10.1126
yynw1쎯sf쎯	-10.1128
mdff0쎯	-10.1133
ntg쎯rfm쎯	-10.114
gah쎯ic쎯ymhj쎯	-10.1145
fgh쎯dg쎯	-10.1145
f쎯ltu쎯	-10.1152
kf쎯thg0쎯	-10.1156
(쎁쎉쎀	-10.1156
w쎯ovt쎯	-10.1159
k쎯qh쎯	-10.116
yyn1쎯	-10.1164
wqbh쎯	-10.1165
c쎯o쎯	-10.1172
uthp쎯tfl쎯	-10.1173
쎇eee쎯	-10.118
。adw쎯k쎯	-10.1182
rn쎯ntk쎯	-10.1183
ugh쎯udy쎯	-10.1184
0	-10.1184
jtyl쎯hich쎯tp쎯gj쎯	-10.1186
bm쎯b쎯	-10.1186
tu쎯ip쎯ad쎯qqqq1쎯	-10.1187
pp쎯ue쎯	-10.1192
xkw쎯	-10.1193
bv쎯	-10.1193
puw쎯	-10.1195
ige쎯wxf쎯dd쎯ip쎯	-10.1199
e쎯g쎯wh쎯	-10.1204
yny0쎯f쎯u쎯ga쎯v쎯	-10.1207
。“	-10.1212
gkim0쎯	-10.1213
oft쎯	-10.1214
wynk쎯e쎯	-10.1216
ecl쎯	-10.1216
k쎯e쎯	-10.1219
qk쎯tq쎯:	-10.122
qnr쎯yhk쎯	-10.1224
ga쎯ymc쎯	-10.1225
wht쎯tjt쎯	-10.1226
udng쎯	-10.1229
vii쎯ntk쎯	-10.1235
쎁쎉쎆쎃rh쎯	-10.1236
nnnn쎯e쎯	-10.1236
pw쎯ymf쎯	-10.1238
jb쎯hw쎯	-10.124
쎈wh쎯	-10.124
gmi쎯iry쎯	-10.1242
uk쎯wug1쎯	-10.1244
ym쎯ijl쎯	-10.1248
dfa쎯	-10.1249
cbts0쎯	-10.1253
ygh쎯je쎯	-10.1253
dgtg쎯pe쎯yfd쎯	-10.1256
sq쎯vfhp1쎯	-10.1259
aqo쎯	-10.126
asg쎯	-10.1261
cbq쎯	-10.1262
f쎯aq쎯r쎯	-10.1264
xh쎯nf쎯	-10.1265
》t쎯《	-10.1269
wt쎯et쎯。	-10.1271
naj1쎯ipkh1쎯	-10.1272
a쎯tkgg0쎯ip쎯bpf쎯	-10.1276
fgh쎯wty쎯	-10.1278
agu쎯js쎯	-10.1279
iq쎯ip쎯	-10.1284
---	-10.1287
auq쎯	-10.1287
py쎯lft쎯	-10.1288
jan쎯	-10.1289
fj쎯wht쎯	-10.1289
gkp쎯e쎯	-10.1289
▁“	-10.1292
”j쎯	-10.1292
sm쎯kkd쎯	-10.1292
tld1쎯iyw쎯	-10.1293
쎁쎉쎆쎄rh쎯	-10.1295
ve쎯	-10.1298
wgku1쎯yn쎯	-10.1301
wv쎯wf쎯	-10.1301
ojf쎯	-10.1302
vck쎯xtu쎯	-10.1303
i쎯s쎯	-10.1307
pym쎯ipmq쎯	-10.131
rh쎯ya쎯	-10.1314
k쎯sghg1쎯atd쎯	-10.1314
imj쎯pg쎯	-10.1315
dy쎯gu쎯	-10.1316
oh쎯	-10.1318
uxh쎯	-10.1318
rnc쎯	-10.1318
f쎯wug1쎯	-10.1318
idt쎯	-10.1318
쎉쎄	-10.1321
av쎯dn쎯	-10.1322
hq쎯ds쎯	-10.1323
ffh쎯	-10.1326
am쎯fmud쎯	-10.1327
dgj쎯wrh2쎯	-10.1327
r쎯a쎯wt쎯	-10.133
nkue0쎯	-10.133
itp쎯	-10.133
aqt쎯uqd0쎯	-10.1333
nf쎯gcft2쎯	-10.1334
ip쎯wug1쎯。	-10.134
klj쎯jfcf쎯	-10.134
jqb쎯	-10.134
j쎯“	-10.1342
fh쎯ntk쎯	-10.1344
iwe쎯	-10.1348
ip쎯sy쎯ywx쎯yygy쎯	-10.1349
tlo쎯	-10.1349
fjgh쎯	-10.1355
xx쎯wgq쎯	-10.136
iqny쎯	-10.1362
h쎯ymhj쎯	-10.1366
쎁쎉쎆쎂rh쎯	-10.1368
쎁.쎀	-10.137
rqn쎯	-10.138
txi쎯xyc쎯、	-10.1382
pnt쎯fffy쎯	-10.1384
nh쎯wys쎯	-10.1387
쎃.	-10.1391
rfm쎯jg쎯tp쎯gj쎯	-10.1393
et쎯go쎯	-10.1397
xyx쎯	-10.1399
fgh쎯dd쎯	-10.1405
yo쎯gae쎯	-10.1406
ipwk0쎯	-10.1407
yb쎯bb쎯	-10.1408
ain쎯	-10.1409
lpdk0쎯aq쎯	-10.1417
aib쎯lfnh쎯mw쎯	-10.1419
yssc2쎯if쎯	-10.1419
rs쎯qgb쎯	-10.142
wdt쎯bm쎯	-10.1423
ipgh쎯ow쎯	-10.1427
egc쎯tv쎯	-10.1429
gah쎯sy쎯	-10.1431
xqc쎯cf쎯	-10.1431
rxj쎯ovt쎯	-10.1437
aqt쎯tj쎯b쎯	-10.1442
r쎯yy쎯if쎯	-10.1444
lh쎯rh쎯	-10.1447
mqi1쎯	-10.1447
acbt0쎯	-10.1449
▁쎄	-10.145
go쎯idr쎯	-10.145
qq쎯ovt쎯	-10.1453
mdf쎯dgtg쎯	-10.1457
vv쎯	-10.1458
yo쎯dn쎯	-10.1459
fjg쎯	-10.1461
ftx쎯w쎯	-10.1462
ldd쎯pg쎯uqwm0쎯u쎯	-10.1462
jfd쎯r쎯	-10.1465
uck쎯qqqq1쎯	-10.1465
oge쎯pnt쎯	-10.1466
쎁쎉쎆쎅rh쎯	-10.1473
nhd쎯	-10.1474
eeq쎯	-10.1477
,k쎯aw쎯ipk쎯km쎯,	-10.1478
qkqy0쎯	-10.1486
ytn쎯lfn쎯	-10.149
uxxn1쎯	-10.1493
rep쎯sc쎯	-10.1496
nyi2쎯fghy0쎯:	-10.1496
temq1쎯	-10.1501
pu	-10.1501
oufg쎯	-10.1504
xx쎯kwgj0쎯	-10.1506
dn쎯b쎯	-10.1509
od쎯wny0쎯	-10.151
dxy쎯	-10.1521
aik쎯	-10.1522
gmap쎯	-10.1529
ic쎯ygk쎯	-10.1529
kt쎯ke쎯	-10.1532
sgn쎯e쎯	-10.1535
lfn쎯tqq쎯	-10.1535
ruv쎯tffy0쎯	-10.1542
fj쎯bm쎯kkkk0쎯	-10.1547
tgj쎯vfhp1쎯	-10.1561
ygk쎯yygy쎯	-10.1563
rqw쎯	-10.1563
d쎯ugdu쎯l쎯	-10.1564
il쎯	-10.1565
쎁쎉쎅쎅rh쎯	-10.1568
h쎯e쎯	-10.1568
wdn쎯te쎯r쎯	-10.1568
y쎯yam쎯	-10.158
tqd쎯	-10.1583
wyn쎯	-10.1583
anb0쎯w쎯	-10.1588
sfi쎯fn쎯	-10.1589
tmd쎯wwv쎯	-10.1607
f쎯qr쎯	-10.1607
gk쎯dty쎯	-10.1608
hwbc쎯	-10.161
deb쎯	-10.1612
rvh쎯fpx쎯	-10.1615
dgh쎯fd쎯	-10.1618
▁fc쎯rf쎯	-10.1619
telb쎯	-10.1621
』	-10.1625
pnt쎯dcg쎯	-10.1627
uge쎯	-10.163
쎃쎀쎀쎀	-10.163
mt쎯tuh쎯	-10.1632
wye쎯rta쎯	-10.1632
ˇ	-10.1636
py쎯wf쎯tu쎯ip쎯	-10.1637
pvs쎯wrh2쎯	-10.1642
r쎯wt쎯et쎯	-10.1642
iv쎯ue쎯	-10.1642
nty1쎯fj쎯	-10.1643
쎁eee쎯	-10.1643
qu쎯	-10.1644
g쎯gkp쎯	-10.1649
rnnw쎯pgn쎯	-10.165
pww쎯jg쎯	-10.1651
,f쎯th쎯	-10.1651
hhhh쎯r쎯	-10.1652
riq쎯hka쎯	-10.1652
sgtk0쎯	-10.1653
qqc쎯	-10.166
,gf쎯	-10.1663
,gae쎯dn쎯	-10.1666
,g쎯tem쎯	-10.1667
쎉쎃	-10.1671
iie쎯by쎯	-10.1673
,lk쎯	-10.1676
ntg쎯st쎯	-10.1679
ifk쎯	-10.1682
dgkn쎯epc쎯	-10.1683
vfhp1쎯tfkp쎯	-10.1686
fcl쎯ijlc쎯	-10.1686
hka쎯tmc쎯	-10.1687
xtdh0쎯	-10.1688
vcn0쎯	-10.1688
wsg0쎯gm쎯	-10.1689
sf쎯、	-10.169
hxs쎯	-10.1692
dd쎯isgg0쎯yhk쎯	-10.1699
쎇-	-10.17
tg쎯dn쎯	-10.1708
fue쎯	-10.1712
w쎯n쎯atd쎯bpf쎯	-10.1722
e쎯:	-10.1724
tqdh쎯	-10.173
쎀.쎁	-10.1731
si쎯	-10.1733
lwg쎯udp쎯	-10.1733
rkk쎯wt쎯txi쎯xyc쎯	-10.1736
tx쎯ag쎯	-10.1737
():	-10.1741
wgc쎯ty쎯	-10.1747
yfj쎯jgm쎯	-10.1749
saj쎯fnw쎯	-10.175
pgf1쎯pm쎯	-10.1751
awnu0쎯	-10.1752
udyj쎯tg쎯	-10.1752
qq쎯al쎯ce쎯	-10.1752
if쎯ip쎯	-10.1758
쎃eee쎯	-10.1759
tffu쎯pei쎯wt쎯tr쎯。	-10.176
ftbt쎯rep쎯。	-10.176
ijl쎯ytyh쎯	-10.1762
xvk쎯	-10.1763
qk쎯pe쎯	-10.1766
fs쎯	-10.1767
wff쎯	-10.1768
rp쎯rh쎯go쎯	-10.177
itd쎯fcl쎯,	-10.1773
qe쎯ya쎯	-10.1773
mw쎯qh쎯	-10.1781
wh쎯wsg0쎯	-10.1785
dm쎯ow쎯	-10.1786
quj쎯udi쎯	-10.1788
wwg쎯	-10.1789
gajf쎯kgn쎯	-10.179
i쎯it쎯	-10.1795
ruv쎯nh쎯	-10.1797
pfq쎯gkih쎯	-10.1802
xat쎯	-10.1806
wbg0쎯	-10.1807
gjq쎯j쎯	-10.1809
yynw1쎯suq쎯	-10.181
doq쎯	-10.1811
bm쎯go쎯r쎯	-10.1814
ukqb0쎯pfjm1쎯	-10.1815
ipk쎯fc쎯uk쎯	-10.1816
fhg1쎯	-10.1816
iwt쎯ou쎯	-10.1817
ad쎯uk쎯	-10.1818
og쎯xgm쎯	-10.1819
um쎯qyv쎯	-10.1827
dj쎯rh쎯	-10.1828
ige쎯ii쎯	-10.183
pyv쎯	-10.1836
vcb쎯sk쎯。	-10.1844
iyw쎯dfy쎯	-10.1845
nnh쎯tdij쎯	-10.1848
(-)	-10.1853
jf쎯uj쎯:	-10.1858
fgh쎯uy쎯	-10.1858
,lk쎯ty쎯	-10.1858
rdj쎯gq쎯	-10.1861
fhb쎯	-10.1862
fqu쎯e쎯	-10.1865
》aqt쎯	-10.1867
쎀쎈	-10.1869
js쎯pu쎯	-10.1873
fp쎯iha쎯	-10.1876
ftjb쎯wf쎯	-10.1882
itd쎯fcl쎯。	-10.1883
xi쎯	-10.1883
tq쎯o쎯“	-10.1886
qkq쎯umc쎯	-10.1889
ruv쎯rp쎯	-10.1892
apg쎯dgh쎯	-10.1893
tgv쎯bd쎯	-10.1893
rxj쎯pg쎯	-10.1903
oge쎯ny쎯	-10.1906
wyl쎯	-10.1908
gjq쎯qq쎯r쎯	-10.1911
qh쎯gae쎯	-10.1918
”(	-10.192
lfnh쎯xat쎯	-10.1922
vvv쎯w쎯	-10.1922
fc쎯rip쎯	-10.1923
fuf1쎯	-10.1929
ijlc쎯	-10.1932
thd쎯y쎯	-10.194
wge쎯	-10.1942
trf쎯tkh쎯	-10.1943
xeg쎯dn쎯,	-10.1947
fjf쎯	-10.195
쎁)	-10.195
g쎯thg0쎯	-10.1952
rh쎯lc쎯	-10.1953
jsd쎯	-10.1953
qmq쎯ggw쎯	-10.1955
fny쎯aft쎯	-10.1955
(쎁쎉쎁	-10.1955
ddm쎯	-10.1956
qmq쎯qr쎯	-10.1966
waw쎯jn쎯	-10.197
l쎯n쎯ipk쎯	-10.1971
,hx쎯	-10.1971
wyf0쎯	-10.1977
ahko쎯	-10.1977
sc쎯dgv쎯	-10.1978
jo쎯aft쎯	-10.1985
dif쎯	-10.1986
eri쎯	-10.1987
pgk쎯e쎯	-10.199
txt쎯	-10.1992
uqwm0쎯ipw쎯	-10.1996
mfky쎯ynt쎯	-10.2
tv쎯km쎯wf쎯tv쎯km쎯	-10.2002
,yt쎯ty쎯	-10.2003
,ntk쎯gf쎯	-10.2005
gc쎯dp쎯	-10.202
faw쎯	-10.2022
ptf쎯	-10.2026
쎁쎉쎇쎀rh쎯	-10.2026
oa쎯mdo쎯	-10.2026
sfiq쎯	-10.2028
qtd쎯	-10.2031
uu쎯wsg0쎯	-10.2034
qnnk1쎯ou쎯	-10.2035
ukn쎯xyc쎯	-10.2039
ujn쎯yq쎯	-10.2042
wc쎯ngk쎯。	-10.2044
gss쎯	-10.2044
rnt쎯	-10.2045
xf쎯gki쎯	-10.2048
dww쎯	-10.2049
epi쎯hi쎯	-10.205
쎁쎉쎅쎇rh쎯	-10.2051
w쎯gk쎯	-10.2052
udy쎯,	-10.2053
qb쎯	-10.2054
sad쎯	-10.2057
r쎯u쎯kkk쎯	-10.2058
oanw쎯	-10.2062
""	-10.2065
cbd쎯imj쎯	-10.2068
whf쎯og쎯tp쎯gj쎯	-10.2077
gef쎯dw0쎯	-10.2078
anu쎯	-10.2081
rcp쎯	-10.2088
igd쎯lk쎯	-10.2088
sft쎯rfm쎯	-10.209
r쎯dty쎯gk쎯	-10.2093
g쎯fnrt쎯	-10.2093
wfny0쎯dskf쎯	-10.2095
uo쎯ynm쎯	-10.2098
wc쎯pv쎯	-10.21
쎁쎉쎆쎀rh쎯	-10.2101
wfg1쎯	-10.2105
gd쎯f쎯	-10.2108
nnnn쎯dn쎯o쎯	-10.2113
k쎯l쎯aw쎯u쎯ipk쎯。	-10.2129
qvn2쎯ntg쎯	-10.213
wc쎯py쎯	-10.2131
gfi쎯bw쎯	-10.2137
jx쎯je쎯	-10.2138
wj쎯rfm쎯	-10.2138
b쎯g쎯wh쎯	-10.2141
ll쎯vvv쎯	-10.2146
쎁쎉쎇쎁rh쎯	-10.2148
dr쎯bb쎯	-10.2149
rkk쎯	-10.215
pw쎯pl쎯	-10.215
yni1쎯fqp쎯	-10.2151
tgj쎯s쎯cd쎯ovt쎯	-10.2151
rvyo쎯gkp쎯	-10.2151
,ym쎯	-10.2153
suq쎯ta쎯	-10.2158
|	-10.2159
jhng쎯:“	-10.2175
ajq쎯	-10.2178
lkb쎯	-10.2178
ryc쎯	-10.2181
egc쎯xe쎯	-10.2186
쎀쎅	-10.2188
쎁쎂쎈	-10.2188
up쎯l쎯	-10.2193
uwa쎯uyh쎯	-10.2196
bf쎯	-10.2197
ukn쎯xf쎯	-10.2198
lv쎯	-10.2205
cccg쎯	-10.2205
quk쎯	-10.2208
trs쎯trtg쎯	-10.2209
sgn쎯tlf2쎯	-10.221
xkjn1쎯	-10.2211
ii쎯tev쎯	-10.2215
wgen1쎯	-10.2217
x쎯gj쎯	-10.2218
lt쎯ip쎯	-10.2226
쎂쎀쎀쎈	-10.2227
ii쎯js쎯	-10.2232
bqv쎯	-10.2234
nuk1쎯	-10.2237
_	-10.2241
ftx쎯rh쎯	-10.2241
wam쎯ffi쎯	-10.2241
jjjj쎯adwe1쎯:	-10.2245
fha쎯fm쎯	-10.2249
sgty쎯	-10.2249
\	-10.225
gmww쎯uqw쎯	-10.2251
ukn쎯uk쎯	-10.2254
klk쎯kdj쎯	-10.2257
dd쎯rnb쎯	-10.226
ith쎯ymhj쎯	-10.2261
fjt쎯	-10.2263
jx쎯jhny쎯	-10.2263
xte쎯sf쎯	-10.2264
xk쎯wx쎯	-10.2266
it쎯ovt쎯n쎯ytt쎯	-10.2266
dgkn쎯ipmq쎯	-10.2267
rua쎯	-10.2267
r쎯tk쎯tkh쎯	-10.2268
hxf쎯	-10.227
ymhj쎯tv쎯	-10.227
jtd쎯	-10.2271
gae쎯dn쎯b쎯	-10.2271
yvh쎯wa쎯	-10.2271
tp쎯lpdk0쎯	-10.2279
tu쎯ip쎯dga쎯pwv쎯	-10.2281
rnv쎯	-10.2283
mfk쎯adwe1쎯	-10.2286
fwm쎯	-10.229
쎁쎁쎀	-10.2292
jo쎯hhu0쎯	-10.2293
rma쎯	-10.2294
bd쎯lw쎯	-10.2298
wgkq0쎯et쎯。	-10.2299
tdp쎯et쎯	-10.231
ek쎯	-10.2312
wxm쎯tr쎯	-10.2312
by쎯ryn0쎯	-10.2317
tffu쎯tffu쎯	-10.2317
cm쎯wynn3쎯	-10.2318
쎉쎀쎀	-10.2319
lq쎯cn쎯	-10.2321
ltu쎯gae쎯	-10.2336
ynf쎯	-10.2337
yid쎯et쎯gf쎯	-10.2338
bn쎯sk쎯c쎯	-10.2339
g쎯wdm쎯	-10.2339
etg쎯tjh쎯	-10.2341
jtyq0쎯	-10.2341
jmd쎯	-10.2343
cm쎯imj쎯	-10.2345
mfky쎯ubtf쎯	-10.2349
fc쎯wfy쎯	-10.2353
uu쎯khu쎯	-10.2356
uai쎯	-10.236
(vk쎯	-10.236
jgm쎯uqwm0쎯	-10.2361
-쎄	-10.2364
pv쎯egc쎯	-10.2365
쎀쎆	-10.2366
tdh쎯	-10.237
r쎯yy쎯aa쎯	-10.2371
kkh쎯	-10.2372
쎀쎇	-10.2372
#	-10.2381
yny0쎯uj쎯	-10.2383
pwkw쎯	-10.2387
qd쎯rg쎯	-10.2387
e쎯“	-10.2388
fay쎯	-10.2389
fnr쎯ujf쎯	-10.2391
qm쎯gmu1쎯w쎯	-10.2394
uq쎯rq쎯	-10.2394
ex쎯eyn쎯	-10.2395
itm쎯uyh쎯	-10.2395
쎁쎉쎅쎀rh쎯	-10.2401
y쎯wtf쎯atd쎯jgm쎯	-10.2402
。p쎯	-10.2405
whf쎯og쎯r쎯	-10.241
pjv쎯	-10.2411
dmj1쎯dn쎯	-10.2418
rlg쎯ck쎯	-10.2418
rlf1쎯	-10.2423
y쎯fcl쎯	-10.2425
wc쎯fqb1쎯	-10.2427
쎃rh쎯	-10.2429
wvf쎯tmd쎯	-10.2431
inro쎯	-10.2433
yw쎯fhw쎯	-10.2439
ih쎯xeg쎯	-10.2446
。vbn쎯	-10.2447
dcg쎯udi쎯	-10.2449
xeg쎯dn쎯。	-10.245
iawn쎯kkkk0쎯	-10.2453
usr쎯fd쎯	-10.2456
bwf쎯ntk쎯	-10.2458
ht쎯	-10.2462
yfy1쎯ywx쎯	-10.2465
et쎯wtp쎯	-10.247
tfq쎯fj쎯wh쎯w쎯	-10.247
pynk쎯	-10.2471
쎀쎃	-10.2475
qevj쎯	-10.2477
ps쎯dht쎯	-10.2478
ud쎯ab쎯	-10.2481
go쎯gc쎯	-10.2482
qci쎯	-10.2484
r쎯jyie쎯ktm쎯	-10.2484
쎀쎉	-10.2485
ipf쎯	-10.2488
rno쎯	-10.249
eqd쎯	-10.249
g쎯rn쎯	-10.249
xtdp0쎯	-10.2492
raw쎯	-10.2493
jyie쎯wqj쎯	-10.2504
ftg쎯synw쎯	-10.2507
tfqp쎯et쎯	-10.251
gkih쎯gae쎯	-10.2511
sg쎯tu쎯ip쎯dl쎯	-10.2513
jgm쎯aib쎯	-10.2515
wv쎯dmh쎯gf쎯	-10.2515
lfn쎯rq쎯	-10.2517
kyn1쎯	-10.2517
rv쎯	-10.2518
g쎯gh쎯	-10.2519
iyc쎯cep쎯	-10.2532
쎁쎉쎄쎉rh쎯	-10.2538
쎅%	-10.2542
te	-10.2542
fhv쎯ymhj쎯	-10.2544
tuk쎯nh쎯	-10.2545
nbm쎯	-10.2549
g쎯rx쎯	-10.2552
gg쎯wh쎯	-10.2555
wycb쎯	-10.2555
xten1쎯	-10.2557
g쎯fnw쎯	-10.2565
tol쎯	-10.2569
bs쎯qiu0쎯	-10.2569
jn쎯wy쎯	-10.2569
wv쎯ybf0쎯	-10.257
rn쎯d쎯	-10.2572
vi쎯ujf쎯	-10.2574
fhu쎯tm쎯	-10.2574
g쎯kw쎯	-10.2576
vkb쎯	-10.2578
c쎯ue쎯	-10.2578
▁*	-10.258
puv쎯adwe1쎯	-10.2582
ige쎯ifk쎯	-10.2582
,q쎯	-10.2584
wtr쎯	-10.2585
qq쎯rh쎯go쎯	-10.2587
aw	-10.2592
,nnnn쎯	-10.2598
fuk쎯yce쎯	-10.2598
twgi쎯	-10.2599
tk쎯dd쎯	-10.2602
ajj쎯dr쎯	-10.2603
aigy쎯	-10.2604
qdb쎯bwg쎯	-10.2607
uw쎯	-10.261
쎁쎉쎅쎂rh쎯	-10.2611
ssq쎯shn쎯	-10.2611
madt2쎯	-10.2611
xfm쎯	-10.2612
qk쎯:	-10.2614
riq쎯	-10.2615
fyb1쎯	-10.2617
if쎯rmhj쎯	-10.2622
kg쎯gm쎯	-10.2626
cc쎯yy쎯	-10.2628
mhj쎯	-10.2628
aqq쎯ugdu쎯	-10.2632
nge쎯dgkn쎯	-10.2637
jy쎯hko쎯	-10.264
ipk쎯tv쎯nnh쎯yn쎯	-10.2643
▁y쎯s쎯	-10.2646
쎁쎉쎇쎇rh쎯	-10.2647
iej쎯	-10.2649
()、	-10.265
usr쎯vfhp1쎯	-10.2656
rfq쎯	-10.2656
qh쎯l쎯	-10.2659
i쎯fp쎯	-10.2662
ukn쎯vfhp1쎯tam쎯	-10.2662
epv1쎯	-10.2662
caq쎯	-10.2663
pwl쎯	-10.2664
apl쎯fcl쎯saj쎯aib쎯	-10.2664
he쎯	-10.2664
uvh쎯	-10.2665
gxw쎯	-10.267
cnh쎯sghg1쎯	-10.2672
sk쎯mqb쎯	-10.2676
l쎯ffff5쎯dm쎯tkw쎯	-10.2677
쎇쎁	-10.2678
xxf쎯	-10.2683
wfny0쎯》	-10.2684
itk쎯bj쎯	-10.2684
uqf쎯adw쎯	-10.2686
buj쎯djg쎯	-10.2689
fj쎯tkgg0쎯	-10.2693
rrk쎯	-10.2697
em쎯efw쎯	-10.2698
ー	-10.2698
tffu쎯bk쎯。	-10.2705
ige쎯fje쎯	-10.2705
maw쎯gajf쎯	-10.2708
vkf1쎯	-10.2711
k쎯dr쎯	-10.2713
쎂쎂쎀	-10.2713
“”	-10.2715
uter쎯	-10.2716
jb쎯vb쎯r쎯	-10.2718
nyp쎯	-10.2724
nnk쎯uk쎯	-10.2727
djdn2쎯	-10.273
wwg쎯nnh쎯	-10.2735
se쎯o쎯	-10.2736
,x쎯fp쎯	-10.2738
,gip쎯e쎯	-10.2741
쎂쎀쎁쎀	-10.2741
ukk쎯	-10.2742
sux쎯	-10.2742
ai쎯apfq쎯ymhj쎯	-10.2743
쎀.쎂	-10.2745
쎇쎀쎀	-10.2748
ditn0쎯	-10.2748
suf쎯hhhh쎯	-10.2749
kkkk0쎯epw쎯	-10.2749
c쎯adw쎯	-10.275
eb쎯tl쎯k쎯ny쎯	-10.2757
ll쎯ic쎯ytt쎯	-10.2759
std쎯ivw쎯	-10.2759
ode쎯	-10.2761
xfm쎯tavn쎯rvy쎯tf쎯	-10.2761
uy쎯rh쎯	-10.2762
q쎯r쎯	-10.2766
wy쎯thn쎯rfc쎯sy쎯	-10.2766
쎁kgn쎯	-10.2766
dqq쎯	-10.2772
dif쎯f쎯	-10.2776
iytb0쎯pt쎯	-10.278
lqp쎯lkb쎯	-10.2783
wuf쎯	-10.2783
mf쎯pgk쎯	-10.2785
nfd쎯	-10.2785
fhn쎯yq쎯	-10.2785
qmk쎯	-10.2785
ob쎯	-10.2791
etj쎯uk쎯	-10.2792
쎁쎉쎇쎂rh쎯	-10.2793
wg쎯usr쎯	-10.2796
sd쎯	-10.2797
wy쎯et쎯	-10.2797
쎁쎉쎅쎉rh쎯	-10.2798
lk쎯jel쎯	-10.2799
r쎯gae쎯aa쎯	-10.2799
pynn0쎯kkk쎯	-10.2807
irn쎯	-10.2812
xt쎯)	-10.2813
쎂)	-10.2819
kl쎯g쎯	-10.2819
yeu쎯	-10.2819
f쎯u쎯	-10.2821
a쎯wt쎯pgc쎯	-10.2823
jn쎯xjt쎯	-10.2824
wvm쎯	-10.2826
dr쎯vck쎯	-10.2826
uq쎯cep쎯dd쎯ip쎯	-10.283
쎁쎉쎆쎆rh쎯	-10.2832
rer쎯	-10.2833
dy쎯gu쎯iu쎯	-10.2833
gkq쎯	-10.2834
kw쎯ce쎯	-10.2838
pwd쎯qd쎯	-10.2841
dr쎯wbj쎯	-10.2841
gm쎯pu쎯	-10.2842
um쎯fnrt쎯	-10.2843
dty쎯buj쎯	-10.2845
쎀.쎃	-10.2846
hcd쎯	-10.2847
mc쎯mrg0쎯	-10.2851
dgh쎯maw쎯	-10.2862
wg쎯yy쎯wug1쎯	-10.2864
uxh쎯bb쎯	-10.2868
j쎯g쎯pe쎯wys쎯	-10.2869
jd쎯	-10.287
lfod1쎯	-10.2874
tp쎯gj쎯wsg0쎯txi쎯	-10.2876
vah쎯	-10.2877
dtf쎯wgkb2쎯	-10.2877
dn쎯uu쎯r쎯	-10.2884
tyg쎯tyg쎯	-10.2887
。ul쎯	-10.2888
fhfk0쎯	-10.2889
g쎯wa쎯	-10.2891
ja쎯	-10.2893
qqw쎯	-10.2894
쎁쎉쎇쎆rh쎯	-10.2896
”“	-10.2898
ipk쎯tv쎯	-10.2899
l쎯by쎯	-10.2901
//	-10.2901
wcd쎯	-10.2904
wgkq0쎯et쎯r쎯	-10.2907
rpws쎯yfy1쎯	-10.2907
wye쎯if쎯	-10.2908
ih쎯gtu쎯	-10.2911
sg	-10.2912
e쎯rn쎯	-10.2914
qtjh0쎯	-10.2914
x쎯apk쎯gj쎯wynn3쎯	-10.2915
l쎯uu쎯	-10.2916
ym쎯dp쎯	-10.2921
tld1쎯tp쎯	-10.2925
yvi쎯tjt쎯	-10.2928
qwyc0쎯	-10.293
kkd쎯sft쎯	-10.2931
bm쎯thd쎯	-10.2934
ta쎯dw0쎯	-10.2935
쎁쎉쎆쎉rh쎯	-10.2935
쎇wh쎯	-10.2936
uqyl쎯	-10.2938
dyt쎯tr쎯	-10.294
fghg쎯tg쎯nf쎯jgm쎯	-10.2942
ujf쎯hid쎯	-10.2943
uf쎯qynm1쎯	-10.2945
gkp쎯wycm0쎯	-10.2951
,you1쎯	-10.2954
dyc쎯	-10.2954
ygu쎯ywx쎯	-10.2955
vd쎯	-10.2957
nnu쎯	-10.2957
yuv쎯	-10.2958
txg쎯gd쎯	-10.296
xef쎯	-10.2964
xo쎯bd쎯	-10.2965
dd쎯xq쎯	-10.2971
dgt1쎯um쎯	-10.2976
ajdn쎯	-10.2977
vtk쎯qynm1쎯	-10.2977
fq쎯bv쎯	-10.2993
r쎯ymc쎯yf쎯	-10.2994
iyn0쎯	-10.2994
suf쎯	-10.2994
gjq쎯o쎯	-10.2997
rvk쎯tg쎯	-10.2999
ym쎯xe쎯ftbt쎯jgm쎯	-10.3001
tqv쎯	-10.3005
%	-10.3005
ln쎯ftg쎯	-10.3008
tfn쎯icf쎯ai쎯	-10.3009
sg쎯tmd쎯	-10.3018
g쎯pg쎯r쎯	-10.3018
qdt쎯tfkp쎯	-10.3026
tx쎯fg쎯nm쎯	-10.3026
wh쎯sf쎯n쎯ih쎯xeg쎯,	-10.3026
tmgt1쎯	-10.3026
)r쎯	-10.3031
y쎯ipg쎯	-10.3033
vte쎯	-10.3035
ujf쎯qi쎯ip쎯bpf쎯	-10.3038
rh쎯uj쎯	-10.3038
wg쎯aq쎯	-10.304
if쎯fwm쎯	-10.3042
kwgj0쎯	-10.3043
vjs쎯	-10.3045
tx쎯쎃	-10.3049
wyq쎯ge쎯	-10.3049
gae쎯,	-10.3051
jlx쎯ytn쎯	-10.3057
t쎯adw쎯wb쎯	-10.306
yb쎯ga쎯	-10.3062
xng1쎯	-10.3062
rn쎯d쎯f쎯	-10.3064
mj쎯j쎯	-10.3065
qdb쎯sm쎯	-10.3067
wgk쎯st쎯	-10.3068
jtyl쎯tp쎯	-10.3069
bgh쎯sm쎯	-10.3073
ihi쎯	-10.3075
ybf0쎯e쎯	-10.3081
l쎯ggg1쎯	-10.3089
rh쎯wa쎯	-10.3092
kqb쎯	-10.3092
je쎯dqe쎯	-10.3093
tq쎯“	-10.3093
r쎯synw쎯ny쎯	-10.3095
dd쎯tffh1쎯	-10.3097
isk쎯iyc쎯	-10.3098
wdn쎯ugdu쎯	-10.3099
▁·	-10.3105
qyvl쎯ip쎯	-10.3107
vfb쎯tc쎯	-10.3107
tem쎯	-10.3107
k쎯md쎯ipk쎯suq쎯	-10.311
whf쎯og쎯,	-10.311
adwe1쎯uj쎯,	-10.3111
yygt쎯itp쎯yid쎯et쎯	-10.3113
쎁쎉쎅쎄rh쎯	-10.3113
dn쎯w쎯	-10.3114
ta쎯pv쎯	-10.3115
fw쎯w쎯	-10.3115
wxf쎯w쎯	-10.3116
cm쎯ipkm0쎯	-10.3116
쎈-	-10.312
cbj쎯	-10.3127
▁쎅、	-10.3128
,g쎯	-10.3128
×쎂	-10.3129
eb쎯tl쎯,	-10.3129
djb쎯ya쎯	-10.313
ym쎯ftg쎯	-10.3131
쎈쎁	-10.3132
ll쎯ntg쎯	-10.3134
dn쎯uu쎯b쎯	-10.3135
xtu쎯umd0쎯	-10.3143
aw쎯t쎯l쎯	-10.3145
,jb쎯rg쎯	-10.3146
iagw쎯ujn쎯	-10.315
yn쎯》	-10.315
xuj쎯ntg쎯	-10.3153
ulk1쎯	-10.3153
쎀쎂	-10.3155
、ym쎯	-10.3158
jjjj쎯adwe1쎯	-10.3159
wsg0쎯tkw쎯	-10.3159
ipr쎯	-10.316
쎁쎀쎀%	-10.3161
쎉쎁	-10.3164
wye쎯tfkd쎯	-10.3166
jgm쎯tg쎯	-10.3168
p쎯su쎯r쎯	-10.3168
dwiu쎯l쎯	-10.317
fq쎯qjq쎯	-10.3171
sj쎯yqj쎯	-10.3173
xh쎯fhn쎯r쎯	-10.3177
aqg쎯aqr쎯	-10.3182
cf쎯yy쎯	-10.3183
x쎯iyj쎯tp쎯gj쎯	-10.3184
cm쎯iq쎯	-10.3185
kkkk0쎯kfi쎯	-10.3185
wdn쎯yv쎯	-10.3186
isjg쎯	-10.3189
pwt쎯kkkk0쎯	-10.3191
gh쎯r쎯	-10.3191
rkm쎯rw쎯	-10.3193
,yi쎯j쎯	-10.3195
iwy1쎯	-10.3199
yy쎯yyy쎯	-10.32
v쎯fcl쎯	-10.3203
r쎯jf쎯uj쎯	-10.3205
usr쎯aq쎯	-10.3206
hhhh쎯vi쎯	-10.321
fnrt쎯rn쎯	-10.3212
bm쎯ffff5쎯	-10.3213
wtfm3쎯	-10.3216
gef쎯qynm1쎯ymhj쎯	-10.3218
pyk쎯	-10.3218
ogbn쎯	-10.3221
uo쎯ey쎯	-10.323
dg쎯xe쎯	-10.3231
k쎯ih쎯whf쎯og쎯	-10.3236
ujn쎯mqb쎯	-10.324
aw쎯u쎯ipk쎯km쎯	-10.3243
sf쎯yfd쎯	-10.3244
d쎯l쎯mw쎯	-10.3245
▁yynw1쎯	-10.3246
rbcc쎯wqj쎯udi쎯	-10.3249
rqb0쎯rmhj쎯	-10.325
kjq쎯	-10.3252
pfq쎯dn쎯b쎯	-10.3252
nku쎯	-10.3253
nfc쎯uqw쎯	-10.3257
psu쎯wa쎯	-10.3259
eerq쎯	-10.3259
mq쎯jy쎯aq쎯	-10.3259
nnh쎯yn쎯	-10.326
ㄢ	-10.3263
쎁쎉쎆쎈rh쎯	-10.3268
jb쎯vb쎯	-10.327
ymc쎯pg쎯	-10.3273
sm쎯jn쎯	-10.3279
rn쎯e쎯r쎯	-10.328
▁●	-10.3281
xan쎯nu쎯	-10.3283
u쎯kkk쎯。	-10.3284
qk쎯o쎯	-10.3288
xyc쎯ick쎯	-10.3288
gkl쎯y쎯yam쎯	-10.3289
pe쎯ta쎯	-10.3291
hhy쎯	-10.3294
hjj쎯fha쎯	-10.3295
-쎅	-10.3298
th쎯,	-10.3304
ke쎯xh쎯	-10.3305
sfw쎯	-10.3311
jgf쎯	-10.3314
(쎂)	-10.3316
puh쎯yc쎯	-10.3318
ldd쎯wsg0쎯	-10.3319
rtb쎯	-10.332
ftbt쎯yce쎯nnk쎯	-10.3321
wyk쎯	-10.3322
rvyo쎯ep쎯	-10.3323
rvyo쎯nge쎯	-10.3326
ait쎯pu쎯	-10.3327
tg쎯u쎯r쎯	-10.3328
pu쎯og쎯	-10.333
bfm쎯pl쎯	-10.3331
wgkb2쎯qk쎯	-10.3335
rb1쎯fjh0쎯	-10.3341
。dmj1쎯	-10.3348
bk쎯og쎯rfc쎯sy쎯	-10.335
-쎆	-10.335
auk쎯abu쎯	-10.3353
。ld쎯	-10.3357
iie쎯bwt쎯	-10.3358
h쎯tak쎯	-10.3359
fgh쎯g쎯	-10.336
fhn쎯,	-10.3367
gmu1쎯	-10.337
pg쎯yq쎯	-10.337
suq쎯aq쎯	-10.3371
tu쎯rfc쎯dn쎯js쎯	-10.3372
쎁쎉쎇쎅rh쎯	-10.3372
ukh쎯fmk쎯	-10.3372
ls쎯	-10.3375
j쎯g쎯rn쎯	-10.3381
ue쎯tyg쎯	-10.3381
ytey쎯tf쎯	-10.3385
vo쎯itd쎯	-10.3385
ygk쎯ujf쎯	-10.3387
itd쎯ntg쎯	-10.3389
nnh쎯bpf쎯	-10.3394
:《	-10.3394
-쎈	-10.3395
kht쎯xg쎯	-10.3398
egc쎯w쎯	-10.3399
xyna0쎯dcg쎯	-10.34
gyiy쎯	-10.3404
쎀쎄	-10.3409
ntk쎯ntg쎯	-10.3409
ifn쎯	-10.341
쎁쎉쎇쎃rh쎯	-10.3414
쎂쎀쎁쎃rh쎯	-10.3415
wv쎯suq쎯	-10.3416
tu쎯dga쎯adm쎯hhhh쎯	-10.342
nnw쎯rgv쎯	-10.3421
h쎯xe쎯	-10.3424
rgb쎯	-10.3424
kb쎯	-10.3427
ipw쎯epc쎯	-10.3427
mqq쎯dmu0쎯	-10.3435
hao쎯rny1쎯	-10.3438
!”	-10.344
wynb쎯gd쎯	-10.3442
x쎯iyj쎯uqt쎯uwl쎯	-10.3444
“dg쎯	-10.3445
▁sg쎯	-10.345
uwy1쎯dqe쎯	-10.345
tg쎯fcl쎯	-10.3453
gg쎯qqqq1쎯	-10.346
iy쎯ty쎯	-10.346
itx쎯mw쎯qh쎯	-10.3463
xq쎯쎁	-10.3468
,vk쎯js쎯	-10.3469
ww쎯dmj1쎯	-10.3469
jhng쎯:‘	-10.3473
ngkg쎯	-10.3473
bu쎯pfjm1쎯	-10.3474
tu쎯uo쎯	-10.3474
。iv쎯	-10.3478
rv쎯ral쎯	-10.348
kw쎯s쎯	-10.3484
tn쎯pnt쎯	-10.3486
。sg쎯nnh쎯	-10.3489
g쎯fc쎯	-10.3492
kn쎯wdt쎯	-10.3496
ggi쎯fuj쎯wk쎯ryn0쎯	-10.3499
qkm쎯oyn쎯	-10.3502
aqky1쎯pwfi쎯	-10.3502
ya쎯wnh쎯	-10.3502
k쎯ny쎯、	-10.3504
a쎯anb0쎯ugdu쎯sy쎯	-10.3509
sym쎯ytyh쎯ymhj쎯	-10.3513
rkm쎯wtl쎯	-10.3517
ysj쎯	-10.3518
vyv쎯	-10.3521
쎁쎉쎅쎃rh쎯	-10.3525
ipe쎯ya쎯	-10.353
uqwm0쎯rfm쎯	-10.3532
ssss쎯cn쎯	-10.3532
tr쎯kkk쎯	-10.3534
ypt쎯oy쎯,tdp쎯peg쎯	-10.3536
kwyg쎯g쎯r쎯	-10.3537
g쎯uthp쎯	-10.3537
it쎯vvv쎯	-10.3539
rdf1쎯fcl쎯	-10.3542
ykge쎯	-10.3546
itx쎯fm쎯ith쎯	-10.3548
tmd쎯h쎯	-10.3549
fjh0쎯tr쎯	-10.355
awnu1쎯	-10.3553
vv쎯tu쎯	-10.3554
txi쎯ovt쎯	-10.3556
rvn2쎯	-10.3557
mw쎯tu쎯	-10.3561
rw쎯mty1쎯	-10.3564
rytp0쎯yge쎯	-10.3564
egc쎯w쎯。	-10.3566
pei쎯fnrt쎯	-10.3567
rfc쎯sy쎯、	-10.3568
ou쎯isgg0쎯	-10.357
ick쎯gj쎯	-10.357
pp쎯k쎯	-10.357
wt쎯bm쎯	-10.3572
tmc쎯	-10.3573
●	-10.3577
tjh쎯iugg0쎯	-10.3578
ntg쎯t쎯	-10.3578
mmgd쎯	-10.3581
、ith쎯	-10.3582
it쎯ovt쎯	-10.3582
tdx쎯	-10.3585
tffu쎯)	-10.3587
bc쎯tj쎯b쎯	-10.3587
lkd쎯gc쎯	-10.3592
,fc쎯rf쎯	-10.3594
i쎯td쎯	-10.3597
,pu쎯gm쎯	-10.36
wqj쎯gxi쎯	-10.3601
tu쎯ip쎯pe쎯	-10.3602
dfy쎯xpw쎯	-10.3606
mq쎯kfi쎯	-10.3606
g쎯adm쎯	-10.3606
wtd쎯	-10.3611
teg1쎯	-10.3612
w쎯n쎯wa쎯ge쎯dd쎯wf쎯	-10.3615
fg쎯rh쎯	-10.3618
ynky2쎯tj쎯b쎯	-10.362
mmm쎯eyni쎯	-10.3627
bip쎯	-10.3627
ndj쎯nge쎯	-10.363
。p쎯tkh쎯	-10.3631
wfny0쎯uxhp쎯	-10.3633
ipk쎯xeg쎯dn쎯km쎯	-10.3633
pgj쎯dmh쎯	-10.3644
gj쎯shn쎯	-10.3645
nnk쎯nnk쎯ta쎯	-10.365
gkl쎯nnk쎯ta쎯	-10.3652
xr쎯	-10.3654
qtbl쎯	-10.3655
쎄.쎅	-10.3655
▁ip쎯suq쎯	-10.3656
lu쎯dd쎯	-10.3657
iwgu쎯	-10.366
ymc쎯tlf2쎯、	-10.3661
cw쎯c쎯	-10.3661
aiit쎯	-10.3662
lr쎯	-10.3662
qta쎯	-10.3666
gx쎯sh쎯	-10.3667
,adwn0쎯gcf쎯	-10.3668
iy쎯:“	-10.3672
uji1쎯	-10.3673
ymc쎯yf쎯,	-10.3677
jcu쎯	-10.3677
()。	-10.3677
mgu쎯	-10.368
wycm0쎯tfq쎯	-10.3682
iwyf0쎯	-10.3684
,ip쎯suq쎯	-10.3684
sh쎯ud쎯r쎯	-10.3685
,es쎯et쎯	-10.3686
dg쎯fgh쎯	-10.3687
qyi1쎯	-10.369
fm쎯yiu쎯ymhj쎯	-10.3695
vtd쎯	-10.3701
wuh쎯	-10.3701
usr쎯wxf쎯	-10.3702
rhyi쎯	-10.3704
tkm쎯	-10.3706
,dmj1쎯j쎯	-10.3706
sce쎯	-10.3709
rpw쎯emc쎯	-10.3709
쎅쎀dq쎯	-10.3711
a쎯wt쎯w쎯km쎯	-10.3712
nfh1쎯	-10.3714
bm쎯go쎯	-10.3714
ai쎯apfq쎯	-10.3715
ps쎯egc쎯	-10.3717
uem쎯	-10.3717
。dl쎯wtf쎯	-10.372
m쎯rh쎯	-10.3721
txg쎯g쎯	-10.3721
쎆)	-10.3722
rkm쎯	-10.3724
ud쎯qvfp1쎯	-10.3729
cyi쎯	-10.373
)w쎯。	-10.3732
ip쎯、	-10.3735
ta쎯fd쎯	-10.3737
dan쎯	-10.374
jfd쎯dm쎯	-10.374
(vcb쎯	-10.3749
wtp쎯tca쎯	-10.3752
xeg쎯xkw쎯pu쎯ytb쎯	-10.3759
no쎯	-10.376
vcb쎯uqf쎯	-10.3761
tk쎯xe쎯	-10.3764
jn쎯ck쎯	-10.3765
ert쎯	-10.3767
trf쎯pg쎯	-10.3771
wt쎯tr쎯	-10.3775
ta쎯,	-10.3776
wyb쎯	-10.3776
uff쎯ytyh쎯	-10.3778
ggg1쎯l쎯	-10.3779
ngk쎯if쎯	-10.3779
ruv쎯kkkk0쎯:	-10.3785
tfq쎯fj쎯wys쎯wsg0쎯	-10.3789
jb쎯wqa쎯	-10.3792
m쎯ip쎯	-10.3792
f쎯fakg1쎯	-10.3795
xmw쎯oy쎯	-10.3803
uqv쎯wx쎯	-10.3804
h쎯syp쎯	-10.3805
iyc쎯wfny0쎯	-10.3807
ugk쎯	-10.3807
oa쎯dyt쎯	-10.3808
ubk0쎯if쎯	-10.381
alp쎯awx쎯	-10.381
xj쎯	-10.3814
v쎯jn쎯	-10.3815
:쎃	-10.3816
yh쎯w쎯	-10.3816
wyp쎯lg쎯fnrt쎯	-10.382
lwj쎯dm쎯	-10.3822
uwb쎯	-10.3823
ym쎯nfc쎯	-10.3824
nnk쎯ta쎯	-10.3827
saj쎯aib쎯	-10.3829
v쎯fhn쎯	-10.3836
fd쎯xte쎯	-10.3837
r쎯mw쎯pww쎯	-10.3839
ai쎯yiu쎯	-10.3845
ayn쎯	-10.3847
awx쎯tg쎯	-10.385
rwb쎯	-10.385
by쎯trh쎯	-10.3851
rqa쎯	-10.3853
sh쎯m쎯	-10.3854
qgf쎯od쎯	-10.3854
tr쎯uqwm0쎯	-10.3854
tp쎯gj쎯w쎯km쎯	-10.3861
bk쎯tl쎯	-10.3861
qdb쎯pd쎯	-10.3863
rrr쎯oyvk0쎯	-10.3864
if쎯tvfh1쎯if쎯fwm쎯	-10.3868
rhk쎯mww쎯	-10.3871
yuvo0쎯	-10.3872
nk쎯qkq쎯	-10.3875
xnh쎯qaj쎯	-10.3877
°C	-10.3877
r쎯eb쎯tl쎯	-10.3885
td쎯ykw쎯u쎯sc쎯	-10.3887
ftbt쎯xan쎯	-10.389
img쎯gl쎯	-10.3894
wgkq0쎯tj쎯	-10.3895
gj쎯wynn3쎯,	-10.3895
pe쎯fl쎯wf쎯wf쎯km쎯,	-10.3897
smq쎯	-10.3901
ukn쎯j쎯	-10.3901
nge쎯rb1쎯	-10.3903
ito쎯	-10.3907
xw쎯cbj쎯	-10.391
tg쎯gj쎯	-10.3918
vfhp1쎯tam쎯tr쎯	-10.3919
ujfj쎯wug1쎯,	-10.3921
pe쎯lfq쎯	-10.3925
ref쎯	-10.393
x쎯iyj쎯ga쎯v쎯aq쎯	-10.3933
ige쎯itf쎯	-10.3934
ynky2쎯tj쎯	-10.3939
lk쎯c쎯	-10.394
dy쎯bb쎯	-10.3941
kl쎯qh쎯	-10.3941
쎂쎅쎆	-10.3941
mmm쎯f쎯	-10.3943
mqu쎯。	-10.3946
)t쎯	-10.3947
jo쎯fi쎯nua쎯	-10.3949
qk쎯pb쎯	-10.395
tjf쎯img쎯	-10.3952
ym쎯kkk쎯rfm쎯	-10.3956
uyt0쎯	-10.3958
vk쎯wynb쎯	-10.3962
ihg1쎯	-10.3964
쎁쎉쎅쎁rh쎯	-10.3967
gmd쎯fghg쎯	-10.3967
쎁쎉쎆쎁rh쎯	-10.397
uit쎯	-10.3973
:쎂	-10.3979
avd쎯	-10.3985
kht쎯、	-10.3986
sh쎯yid쎯r쎯	-10.3986
utu쎯uce쎯	-10.3991
“k쎯l쎯	-10.3994
l쎯ffff5쎯	-10.3998
wjh쎯	-10.4
og쎯e쎯bv쎯wc쎯ngk쎯	-10.4
fhw쎯pw쎯	-10.4001
nj쎯ntg쎯	-10.4004
(.)	-10.4007
vynu쎯	-10.4009
tuj쎯wj쎯	-10.401
iss쎯	-10.4013
e쎯b쎯	-10.4016
anb0쎯sy쎯ip쎯bpf쎯	-10.4018
,uep쎯	-10.4019
iww쎯	-10.4024
tu쎯dga쎯dn쎯js쎯	-10.4026
tx쎯fg쎯uqw쎯	-10.4026
쎁.쎈	-10.4027
ice쎯	-10.4029
pujn1쎯qc쎯	-10.403
ad쎯dbm쎯ymc쎯ytb쎯	-10.4031
ugk쎯shi쎯	-10.4031
tkw쎯lx쎯	-10.4034
。”ige쎯	-10.4037
nn쎯	-10.4044
bpf쎯ta쎯	-10.4045
ftbt쎯bk쎯a쎯	-10.4046
▁쎅.	-10.4047
(쎁)	-10.4051
wx쎯dgtg쎯	-10.4052
쎀.쎈	-10.4054
lw쎯if쎯	-10.4057
wa쎯dcg쎯	-10.4058
쎁쎉쎇쎄rh쎯	-10.4059
ndn쎯	-10.406
,gm쎯o쎯	-10.4062
fghg쎯tg쎯nf쎯jgm쎯。	-10.4063
uth쎯pe쎯	-10.4063
d쎯h쎯itx쎯	-10.4065
ifj쎯iyc쎯	-10.4065
ipg쎯dwg쎯	-10.4072
pj쎯synw쎯	-10.4072
rvk쎯bmg쎯	-10.4075
uk쎯,	-10.4076
sf쎯,	-10.4076
um쎯pe쎯	-10.4077
ma쎯xg쎯	-10.4081
×쎁	-10.4088
lkmi0쎯gae쎯	-10.4089
zzj3쎯	-10.4091
afs쎯tkh쎯	-10.4092
jb쎯qq쎯	-10.4092
k쎯ih쎯ip쎯	-10.4101
uq쎯cep쎯wgj쎯tjh쎯	-10.4103
i쎯gmf쎯	-10.4105
fpb쎯	-10.4107
nb쎯	-10.4108
qtgw1쎯	-10.4108
の	-10.4108
yi쎯sk쎯c쎯	-10.411
whw쎯	-10.411
ca쎯ma쎯	-10.4111
jn쎯fcl쎯	-10.4112
lv쎯uthp쎯	-10.4114
klj쎯w쎯	-10.4119
,ipkh1쎯	-10.4122
ga쎯v쎯r쎯	-10.4122
yf쎯aj쎯tg쎯yce쎯	-10.4126
ipkh1쎯fwm쎯	-10.4133
tue쎯	-10.4137
eb쎯tl쎯gf쎯	-10.4137
rum쎯	-10.4138
a쎯wf쎯	-10.414
i쎯gc쎯	-10.4141
bu쎯dtb쎯	-10.4143
cbd쎯tha쎯	-10.4143
afs쎯g쎯	-10.4144
wg쎯jjjj쎯rmhj쎯	-10.4148
kkfb1쎯	-10.4149
dy쎯bj쎯ce쎯	-10.415
쎁쎉쎄쎅rh쎯	-10.415
tmh0쎯	-10.4151
elv쎯	-10.4153
y쎯wtf쎯atd쎯jgm쎯,	-10.4154
。rg쎯	-10.4155
yjs쎯ipkf0쎯	-10.4156
fjt쎯btg쎯	-10.4159
wbj쎯vck쎯w쎯	-10.4159
쎃.쎀	-10.4161
uuk0쎯	-10.4165
go쎯yu쎯	-10.4166
wqin쎯r쎯	-10.4166
ey쎯adw쎯wb쎯	-10.4171
ymf쎯ty쎯	-10.4171
iv쎯tfqp쎯o쎯	-10.4173
ige쎯jsr쎯	-10.4176
d쎯gf쎯	-10.4179
puhc쎯tq쎯o쎯	-10.418
waw쎯yid쎯um쎯	-10.4181
d쎯《	-10.4182
qq쎯rh쎯r쎯	-10.4185
shy쎯	-10.4187
aga쎯	-10.4188
iie쎯wx쎯	-10.419
y쎯lw쎯	-10.4195
mhu쎯	-10.4196
wv쎯qev쎯	-10.42
bm쎯tmd쎯	-10.4204
fg쎯uqw쎯	-10.4206
oge쎯tfqp쎯	-10.4209
ovt쎯fgh쎯	-10.4212
,trf쎯klj쎯j쎯	-10.4213
kwn쎯	-10.4214
쎁쎀dq쎯	-10.4214
adk쎯fggh쎯	-10.4216
ggi쎯ab쎯	-10.422
。yvh쎯	-10.422
yud0쎯	-10.4222
tfqp쎯rt쎯	-10.4224
nae쎯gm쎯	-10.4225
by쎯ii쎯	-10.4228
cn쎯go쎯sghg1쎯gog쎯	-10.4233
rp쎯wa쎯	-10.4236
fgh쎯lh쎯	-10.4237
dr쎯go쎯	-10.424
puf쎯	-10.424
wc쎯jfd쎯	-10.4241
jhnr쎯	-10.4244
r쎯xp쎯wgk쎯ntg쎯	-10.4244
qgh쎯	-10.425
。gm쎯o쎯	-10.4253
thp쎯wjh쎯	-10.4254
y0쎯	-10.4261
r쎯jf쎯whn쎯,	-10.4263
ta쎯adwe1쎯ww쎯gk쎯	-10.4266
g쎯nfc쎯	-10.4266
toc쎯yt쎯	-10.4268
xqi쎯	-10.427
,p쎯j쎯	-10.4272
wk쎯qyvl쎯	-10.4273
ym쎯mmm쎯	-10.4274
”;	-10.4284
wtl쎯pd쎯	-10.4285
xl쎯alt쎯	-10.429
gu쎯ck쎯。	-10.429
x쎯cwg쎯,	-10.429
bue쎯uthp쎯	-10.4294
vij쎯	-10.4294
ipkh1쎯mqb쎯r쎯	-10.4297
wgk쎯wt쎯wo쎯wuf쎯	-10.4297
oqdo쎯oat쎯	-10.4301
rfc쎯sy쎯,	-10.4302
g쎯xt쎯	-10.4302
rqw쎯ipkm0쎯	-10.4304
▁jb쎯dd쎯	-10.4307
saj쎯trf쎯	-10.431
a쎯og쎯lfq쎯aq쎯	-10.4311
rhc쎯	-10.4313
lg쎯uj쎯	-10.4314
rufh1쎯	-10.4323
dd쎯qq쎯ovt쎯	-10.433
ftbt쎯ip쎯rfm쎯jg쎯	-10.433
sqdy쎯	-10.4331
nnk쎯gkl쎯nnk쎯ta쎯	-10.4333
tvt쎯	-10.4337
μ	-10.434
ipkh1쎯tl쎯gj쎯gk쎯	-10.4343
yyv쎯	-10.4345
ibi쎯ugl쎯	-10.4347
ii쎯th쎯gj쎯	-10.4347
tg쎯itd쎯r쎯	-10.4348
hko쎯fmk쎯	-10.4348
ybt쎯	-10.4349
jghm1쎯sft쎯	-10.4352
hl쎯	-10.4354
lhj쎯	-10.4354
y쎯s쎯e쎯	-10.4358
txg쎯g쎯wh쎯	-10.4358
dyi쎯	-10.436
gh쎯lpdk0쎯	-10.4362
ftg쎯han쎯	-10.4363
:쎄	-10.4363
。vk쎯	-10.4368
l쎯pe쎯thd쎯qd쎯	-10.437
qh쎯uk쎯	-10.4372
yi쎯yfn쎯gf쎯	-10.4373
vnn쎯	-10.4373
m1쎯	-10.4374
r쎯oge쎯pyj쎯	-10.438
kwyg쎯	-10.438
jfj쎯	-10.4381
》,《	-10.4383
kkd쎯、	-10.4384
》vs쎯fn쎯	-10.4385
sg쎯udh쎯	-10.4386
sq쎯	-10.4388
yygy쎯wx쎯anb0쎯sy쎯	-10.4388
y쎯w쎯	-10.4391
khtd2쎯	-10.4393
whf쎯og쎯pe쎯	-10.4393
qi쎯kkd쎯	-10.4394
jjjj쎯pl쎯	-10.4394
fny쎯og쎯ww쎯gk쎯	-10.4398
j쎯g쎯wug1쎯	-10.4398
geh쎯	-10.4398
쎁.쎆	-10.4398
oyvk0쎯nii1쎯ugm쎯	-10.4399
tu쎯ip쎯bpf쎯	-10.4399
and쎯dd쎯r쎯	-10.4402
irr쎯	-10.4403
wht쎯vfhp1쎯	-10.4404
dfff쎯	-10.4405
sm쎯wf쎯	-10.4405
uwyc0쎯fcb쎯	-10.4408
。gm쎯	-10.4408
mq쎯nge쎯	-10.4413
bm쎯tld1쎯	-10.4415
gh쎯bt쎯	-10.4417
y쎯tp쎯uk쎯uyh쎯	-10.4418
vfb쎯wh쎯	-10.4419
u쎯tg쎯r쎯	-10.442
w쎯vtk쎯	-10.4422
wgg0쎯	-10.4424
g쎯txi쎯gq쎯	-10.4429
jty쎯jf쎯	-10.443
mdo쎯	-10.4431
igk쎯	-10.4434
h쎯dm쎯	-10.4436
hv쎯hg쎯	-10.4437
ts쎯wrh2쎯gh쎯	-10.4438
dwf쎯fmud쎯	-10.4438
cnh쎯tqt쎯	-10.4441
rc쎯cf쎯	-10.4441
wg쎯tmd쎯	-10.4443
egc쎯w쎯,	-10.4446
쎁쎉쎃쎇rh쎯	-10.4447
fc쎯bw쎯	-10.4448
wqa쎯ijl쎯	-10.4452
а	-10.4453
sh쎯yid쎯	-10.4454
txgi2쎯gqf쎯	-10.4457
tj쎯c쎯	-10.4457
mqq쎯dc쎯	-10.4461
xyna0쎯ndj쎯	-10.4463
kwyn2쎯	-10.4463
v쎯bm쎯	-10.4466
i쎯et쎯	-10.4467
rx쎯v쎯	-10.4469
atg쎯gk쎯ta쎯	-10.447
l쎯uthp쎯	-10.4471
amyn0쎯ndm쎯	-10.4473
if쎯bpf쎯	-10.4476
쎁쎀wv쎯qkhh1쎯	-10.4482
afi쎯	-10.4488
tg쎯u쎯ad쎯f쎯	-10.4491
dg쎯tkh쎯	-10.4495
jmh쎯	-10.4499
yfy1쎯	-10.45
rt쎯fcl쎯	-10.4502
cq쎯ytf쎯	-10.4502
gfq쎯hw쎯	-10.4503
dmj1쎯dn쎯r쎯	-10.4505
quh1쎯	-10.4509
rcn1쎯rng0쎯	-10.4511
cl쎯	-10.4511
。l쎯ffff5쎯dm쎯tkw쎯	-10.4512
,gm쎯e쎯	-10.4513
puv쎯xe쎯k쎯ip쎯	-10.4514
dh쎯pgk쎯,	-10.4515
dl쎯wa쎯	-10.4515
spq쎯	-10.4516
쎂쎀쎀쎇	-10.4516
qqqq1쎯uqd0쎯	-10.4518
e쎯jf쎯	-10.4519
dm쎯tkw쎯쎃	-10.4522
qt쎯bb쎯	-10.4523
sf쎯w쎯。	-10.4526
gu쎯ck쎯,	-10.4526
쎅dq쎯	-10.4529
dd쎯sov쎯	-10.453
scf쎯ex쎯	-10.453
dc쎯vb쎯	-10.4531
wfny0쎯bd쎯	-10.4533
ga쎯og쎯	-10.4534
t쎯v쎯nae쎯	-10.4538
udjh쎯on쎯	-10.4545
,ld쎯dmj1쎯	-10.4548
um쎯fd쎯	-10.4548
tx쎯wty쎯	-10.4549
rbcc쎯	-10.455
fge쎯fghg쎯rg쎯	-10.4561
qq쎯it쎯	-10.4565
gae쎯dn쎯r쎯	-10.4566
aqt쎯bc쎯	-10.4568
dn쎯gajf쎯	-10.4569
o쎯y쎯s쎯	-10.457
쎁쎃쎀	-10.4571
khij쎯	-10.4576
쎁.쎄	-10.4576
v쎯sgfb쎯	-10.4576
ai쎯fm쎯gog쎯	-10.4579
eaj쎯	-10.4579
ad쎯qqqq1쎯wf쎯	-10.4579
g쎯gd쎯	-10.4579
uve쎯	-10.4583
wynb쎯rh쎯	-10.4584
ygu쎯tfqp쎯	-10.4587
bn쎯sk쎯	-10.4589
wygg쎯yny0쎯	-10.459
bct쎯wys쎯	-10.459
wtf쎯k쎯aw쎯	-10.4592
a쎯um쎯	-10.4593
y쎯sm쎯	-10.4596
g쎯wsg0쎯wx쎯	-10.4597
쎄.	-10.4598
uth쎯yam쎯	-10.4603
ymhj쎯k쎯ny쎯	-10.4603
쎁쎉쎄쎈rh쎯	-10.4604
gu쎯pv쎯	-10.461
ujt쎯	-10.4612
pn쎯yy쎯	-10.4617
nh쎯xjm쎯	-10.4617
dy쎯dr쎯	-10.4619
smgk쎯	-10.4622
trng쎯	-10.4623
qgq쎯	-10.4626
。psu쎯	-10.4627
wg쎯wsg0쎯	-10.4629
ン	-10.4635
ukn쎯rmc쎯uqwm0쎯	-10.4637
wa쎯fwf쎯	-10.4639
usr쎯rfc쎯sy쎯	-10.4639
lfc쎯	-10.464
ym쎯tffu쎯ip쎯suq쎯	-10.464
kjj쎯thg0쎯	-10.4641
e쎯uqt쎯r쎯	-10.4642
iak쎯ssss쎯	-10.4644
ggg1쎯fje쎯	-10.4648
dg쎯l쎯	-10.4648
쎅rh쎯	-10.4648
yfj쎯syp쎯	-10.4649
m쎯g쎯	-10.465
쎁쎂eee쎯	-10.4651
pujn1쎯	-10.4659
----	-10.4661
dpr쎯	-10.4663
vc쎯vc쎯	-10.4668
khgp0쎯wfny0쎯	-10.4668
쎂쎀쎀쎉	-10.4671
gef쎯itx쎯	-10.4673
gmd쎯maw쎯	-10.4674
bk쎯tq쎯	-10.4675
g쎯xg쎯	-10.4675
ssg쎯	-10.4676
lk쎯gkip2쎯	-10.4676
pu쎯wsg0쎯	-10.4676
쎁쎂쎀쎀	-10.4681
cn쎯dq쎯ln쎯y쎯yq쎯	-10.4684
xa쎯pl쎯	-10.4686
rwyg쎯bm쎯r쎯	-10.469
do쎯qc쎯	-10.4692
yne쎯qh쎯	-10.4693
hjs쎯	-10.4696
rqci0쎯lt쎯	-10.4696
trf쎯klj쎯j쎯	-10.47
iq쎯tel쎯	-10.47
wv쎯qkhh1쎯	-10.4704
da쎯dk쎯,	-10.4704
tk쎯l쎯	-10.4706
、dd쎯	-10.4707
쎅쎀쎀쎀	-10.4707
gq	-10.4716
yny0쎯u쎯	-10.4717
ymc쎯ytb쎯yjj0쎯wg쎯	-10.4721
:쎁.	-10.4724
y쎯xt쎯	-10.4724
fcln쎯	-10.4725
xk쎯ymf쎯	-10.4726
ybf0쎯	-10.4726
g쎯wwv쎯	-10.4728
idr쎯gf쎯	-10.4729
e쎯ud쎯uk쎯uyh쎯	-10.4729
y쎯wtf쎯,	-10.4729
cm쎯ujf쎯	-10.473
tffu쎯tffu쎯。	-10.4732
쎁쎉쎆쎇rh쎯	-10.4732
h0쎯	-10.474
fqb1쎯wrh2쎯	-10.4741
gmii0쎯	-10.4742
ddm쎯fghg쎯dga쎯	-10.4743
ipk쎯r쎯	-10.4743
iw쎯fhb쎯	-10.4745
sh쎯wy쎯	-10.4745
dd쎯ahn쎯	-10.4748
w쎯uj쎯	-10.4752
쎁rh쎯	-10.4752
jaj1쎯	-10.4754
dd쎯f쎯	-10.4756
ige쎯usr쎯	-10.4757
cd쎯lk쎯a쎯wt쎯	-10.4758
쎂쎀쎀쎆	-10.4759
fny쎯iy쎯gf쎯	-10.4759
ud쎯ny쎯	-10.476
ibi쎯	-10.4762
iw쎯vfhp1쎯	-10.4762
r쎯ip쎯tg쎯	-10.4766
s쎯gxi쎯	-10.4768
gah쎯ufy쎯	-10.4769
fghg쎯tg쎯nf쎯jgm쎯,	-10.4774
qfhw0쎯ght쎯ywf쎯	-10.4775
wxf쎯wtd쎯	-10.4775
gk쎯,	-10.4776
sbd쎯lkmi0쎯gae쎯	-10.4778
dd쎯jg쎯r쎯	-10.4781
,j쎯k쎯l쎯	-10.4781
jb쎯jh쎯r쎯	-10.4782
vep쎯ws쎯	-10.4784
gkl쎯y쎯wtf쎯、	-10.4785
pyj쎯tn쎯	-10.4785
wvn쎯	-10.4788
,wgj쎯	-10.4788
sgj쎯	-10.4788
pu쎯gm쎯b쎯	-10.4788
wty쎯rh쎯	-10.4789
(qn쎯rtd쎯	-10.4791
tv쎯gkl쎯nnh쎯yn쎯	-10.4796
rfc쎯sy쎯t쎯	-10.4797
iyb쎯	-10.4798
wxf쎯fm쎯	-10.4799
uqb쎯	-10.48
h쎯mqq쎯	-10.48
,sve쎯rnd1쎯	-10.4812
rtfp쎯	-10.4815
쎂쎀쎁쎂	-10.4824
qh쎯,	-10.4825
uqwm0쎯egl쎯	-10.4831
tmo쎯fcp쎯wf쎯	-10.4837
l쎯bf쎯sm쎯fnrt쎯	-10.4837
rb1쎯aqky1쎯	-10.4839
nf쎯xuj쎯	-10.484
ymhj쎯ght쎯	-10.4844
fm쎯psu쎯	-10.4846
dqe쎯wk쎯	-10.4846
rh쎯u쎯	-10.4846
k쎯atd쎯ax쎯	-10.4846
dmj1쎯dn쎯。	-10.4856
qbn1쎯	-10.4857
fny쎯adm쎯	-10.4866
pwat쎯fha쎯	-10.487
fny쎯og쎯tg쎯u쎯	-10.4875
ymhj쎯n쎯	-10.4876
xwy쎯rf쎯	-10.4884
ymc쎯tlf2쎯,	-10.4885
nwy쎯	-10.4886
abe쎯	-10.4889
d쎯g쎯fhn쎯	-10.4889
k쎯tffu쎯	-10.4898
ux쎯psu쎯	-10.4901
itf쎯uqv쎯,	-10.4902
c쎯h쎯r쎯	-10.4904
dd쎯gf쎯	-10.4907
쎂쎀쎁쎁	-10.4911
tv쎯gkl쎯nnh쎯yn쎯、	-10.4915
uoo쎯	-10.4915
jn쎯jyie쎯《	-10.4916
ynnu쎯	-10.4916
wv쎯tp쎯	-10.492
fku쎯ep쎯	-10.4922
rmc쎯uqwm0쎯ftj쎯	-10.4922
tqq쎯n쎯	-10.4922
pdhj쎯	-10.4923
dyt쎯mmm쎯	-10.4924
yw쎯sk쎯	-10.4927
▁(쎂)	-10.4928
dgkn쎯nge쎯	-10.4928
wg쎯thd쎯fcl쎯	-10.4928
jhf1쎯bwg쎯	-10.4932
▁k쎯l쎯	-10.4935
ll쎯w쎯	-10.4936
ov쎯	-10.4939
wdt쎯gc쎯	-10.494
tffu쎯w쎯	-10.4941
uj쎯r쎯	-10.4943
sgn쎯yy쎯	-10.4945
2	-10.4948
ai쎯fm쎯uk쎯	-10.4958
sagg쎯	-10.4959
je쎯fje쎯	-10.4962
쎃)	-10.4971
wc쎯uwl쎯	-10.4973
gk쎯tr쎯	-10.4975
uk쎯wrh2쎯	-10.4979
ggi쎯xat쎯	-10.4979
,m쎯rh쎯	-10.4983
bnn2쎯bb쎯	-10.4983
yox쎯ma쎯	-10.4986
ytyh쎯ymhj쎯	-10.4992
thdu쎯	-10.4993
toc쎯yq쎯	-10.4996
wdn쎯te쎯ywx쎯yygy쎯	-10.4999
tfq쎯rg쎯d쎯	-10.4999
쎁쎉쎄쎆rh쎯	-10.5
nck쎯	-10.5
rd쎯	-10.5001
vijh쎯	-10.5002
j쎯ugdu쎯l쎯	-10.5003
wsg0쎯rmhj쎯	-10.5003
ua쎯d쎯	-10.5003
thp쎯ta쎯	-10.5004
쎁쎉쎃쎉rh쎯	-10.5004
ooo쎯mmm쎯	-10.5004
(dr쎯	-10.5005
ywfw쎯	-10.5006
gqjo0쎯fghg쎯	-10.5006
wyp쎯hh쎯	-10.5008
lkc쎯	-10.5009
rnr쎯ytyh쎯	-10.501
xte쎯ght쎯ywf쎯	-10.5011
wycm0쎯tfq쎯r쎯	-10.5012
쎁/쎂	-10.5017
djdl2쎯	-10.5017
tm쎯h쎯	-10.5019
g쎯sg쎯	-10.502
rc쎯tmdf1쎯	-10.502
rnx쎯	-10.5023
,dr쎯qk쎯	-10.5024
wxf쎯ux쎯	-10.5025
ukq쎯	-10.5028
0쎯	-10.503
nnh쎯k쎯	-10.5031
uu쎯vcb쎯	-10.5033
hxw쎯	-10.5034
qev쎯yt쎯pl쎯	-10.5039
rry쎯	-10.504
nf쎯tey쎯	-10.5042
f쎯h쎯	-10.5056
ukd0쎯jghm1쎯,	-10.5056
v쎯udp쎯	-10.5057
hk쎯f쎯dm쎯tkw쎯	-10.5065
wtf쎯bk쎯	-10.5065
pei쎯yne쎯	-10.5066
pe쎯,	-10.5067
nty1쎯af쎯ga쎯yt쎯	-10.5068
ftbt쎯dga쎯	-10.5068
tx쎯dg쎯nm쎯	-10.507
d쎯bk쎯	-10.5071
fl쎯wt쎯	-10.5073
itx쎯h쎯	-10.5075
jge쎯	-10.5076
uk쎯。	-10.5081
▁쎅	-10.5088
y쎯s쎯et쎯gf쎯	-10.5089
xox쎯	-10.5091
tmg1쎯tg쎯tr쎯	-10.5092
a쎯tkgg0쎯rfc쎯sy쎯	-10.5093
uxl쎯	-10.5097
f쎯hko쎯	-10.5097
qvb쎯	-10.5099
reh쎯	-10.5102
ip쎯tu쎯gkp쎯udi쎯w쎯	-10.5106
qtny1쎯	-10.511
aww쎯	-10.5113
set쎯	-10.5117
ggn쎯	-10.5122
mb쎯ght쎯	-10.5123
fqw쎯	-10.5123
쎂.쎄	-10.5125
em쎯mww쎯	-10.5127
xrc쎯	-10.5128
ag쎯rh쎯	-10.5128
eb쎯tl쎯r쎯	-10.5131
,ccc쎯tq쎯	-10.5131
vvv쎯qt쎯	-10.5132
rmn쎯tpi쎯	-10.5132
uqwv쎯	-10.5133
(ak쎯	-10.5138
fny쎯og쎯rfc쎯sy쎯	-10.5141
gdj쎯	-10.5142
whw쎯qi쎯uk쎯。	-10.5144
j쎯q쎯l쎯	-10.5145
and쎯dd쎯	-10.5145
maw쎯gajf쎯r쎯	-10.5146
mf쎯u쎯	-10.5147
fny쎯og쎯wx쎯	-10.5147
쎃쎂쎀	-10.5148
r쎯ud쎯txi쎯	-10.5149
ai쎯kht쎯	-10.5149
,p쎯tkh쎯	-10.5152
iuw쎯	-10.5152
teg1쎯wtfm1쎯	-10.5153
fhv쎯fha쎯	-10.5154
lg쎯tkgg0쎯	-10.5155
imk쎯itx쎯	-10.5156
"="	-10.5159
ihcv쎯	-10.5161
ymhj쎯fnrt쎯r쎯	-10.5162
mf쎯x쎯	-10.5162
,j쎯g쎯rn쎯	-10.5165
,gm쎯d쎯	-10.5166
xev쎯	-10.5169
fm쎯itx쎯	-10.5171
wdn쎯ahty쎯	-10.5171
ght쎯ywf쎯rn쎯d쎯f쎯	-10.5171
ftjb쎯ce쎯	-10.5172
fj쎯at쎯	-10.5172
rmhj쎯uwyc0쎯	-10.5173
lu쎯ym쎯	-10.5175
-쎉	-10.518
dq쎯adwr쎯	-10.5181
mw쎯,	-10.5181
ipk쎯xeg쎯dn쎯km쎯、	-10.5182
ntg쎯、	-10.5184
fm쎯kht쎯	-10.5189
쎁.쎁	-10.5189
itx쎯mdfj쎯	-10.519
ukqb0쎯qv쎯lt쎯	-10.519
trfg쎯myd쎯	-10.5192
rpwn1쎯	-10.5192
tr쎯og쎯tp쎯gj쎯	-10.5194
bib쎯	-10.5199
ukn쎯x쎯gj쎯	-10.5204
udi쎯uk쎯	-10.5204
mw쎯r쎯	-10.5206
tx쎯g쎯nm쎯	-10.5206
fha쎯go쎯fha쎯	-10.5208
bm쎯fnrt쎯	-10.5208
〔	-10.521
ffff5쎯ssss쎯	-10.5212
ymf쎯dga쎯	-10.5214
r쎯m쎯jf쎯,	-10.5214
tv쎯xeg쎯xkw쎯uk쎯	-10.5218
ynjh0쎯	-10.522
ny쎯eyf쎯	-10.5221
adw쎯pu쎯	-10.5221
ipl쎯	-10.5221
igd쎯	-10.5227
n0쎯	-10.5228
jb쎯puv쎯	-10.5232
wdn쎯fha쎯	-10.5232
rt쎯if쎯	-10.5234
▁rn쎯ntk쎯	-10.5234
afd0쎯ajj쎯	-10.5239
-쎇	-10.5241
ln쎯kht쎯	-10.5241
rawk쎯sgn쎯	-10.5242
rcp쎯lkd쎯	-10.5243
pynn0쎯wyq쎯	-10.5244
ssss쎯sft쎯	-10.5245
qdm쎯eaj쎯	-10.5245
m쎯tf쎯	-10.5247
iwgj1쎯	-10.5248
fgh쎯wffg쎯	-10.5253
쎉-	-10.5256
oy쎯,	-10.5256
is쎯	-10.5257
vj쎯	-10.5258
k쎯l쎯dgh쎯wa쎯	-10.526
tjf쎯avd쎯	-10.5261
ia쎯egc쎯	-10.5262
r쎯ad쎯dbm쎯h쎯,	-10.5265
,ta쎯	-10.5267
vfh쎯	-10.5268
tp쎯gj쎯t쎯	-10.5271
gkp쎯fcl쎯	-10.5275
tg쎯itd쎯d쎯	-10.5276
쎁쎉쎄쎀rh쎯	-10.5276
kqr쎯	-10.5279
tq쎯pp쎯o쎯	-10.5281
l쎯e쎯	-10.5282
ps쎯ihc쎯ymhj쎯	-10.5283
ry쎯	-10.5283
xh쎯ty쎯	-10.5285
쎁쎀-	-10.5286
pu쎯wgq쎯	-10.5287
awx쎯shi쎯	-10.5287
ywwf쎯	-10.5287
qtfj1쎯mww쎯	-10.5287
o쎯k쎯l쎯	-10.5294
g1쎯	-10.5296
aft쎯e쎯	-10.5297
khgm4쎯ytt쎯	-10.5298
pfq쎯gkih쎯r쎯	-10.5301
nf쎯jgm쎯	-10.5306
ip쎯wug1쎯,	-10.5307
fku쎯ndj쎯	-10.5309
,j쎯g쎯pe쎯	-10.5312
gw쎯gr쎯	-10.5319
쎁쎀wh쎯	-10.5323
e쎯bv쎯wc쎯ngk쎯、	-10.5326
wa쎯ytm쎯	-10.5328
dw0쎯to쎯	-10.5329
fge쎯jtyq1쎯wf쎯	-10.5331
lkc쎯ckq쎯	-10.5331
dga쎯pwv쎯pgc쎯	-10.5332
mmq쎯wug1쎯	-10.5333
xl쎯ab쎯	-10.5333
sff0쎯ss쎯	-10.5334
wv쎯aet0쎯	-10.5337
▁bm쎯th쎯	-10.5347
mw쎯e쎯	-10.5348
yygt쎯itp쎯r쎯	-10.5348
ijl쎯fnm쎯	-10.5349
wat쎯	-10.5349
usr쎯qgu쎯	-10.535
ph쎯	-10.5351
ssu쎯	-10.5352
pn쎯km쎯	-10.5353
gmww쎯dd쎯	-10.5353
쎅쎁쎂	-10.5353
ovt쎯rpw쎯	-10.5354
ln쎯shn쎯ght쎯ick쎯	-10.536
ujn쎯qh쎯	-10.5361
qkm쎯k쎯	-10.5363
쎂쎄쎀	-10.5363
pe쎯xte쎯	-10.5369
opw쎯	-10.5371
f쎯gae쎯	-10.5372
ggg1쎯bb쎯	-10.5373
g쎯ffi쎯	-10.5378
ykk쎯	-10.5381
▁-	-10.5382
wv쎯sfc쎯	-10.5385
ghd0쎯dqe쎯	-10.5388
wwgj0쎯	-10.5389
。vk쎯js쎯	-10.539
tavn쎯yqa쎯	-10.5392
riv쎯	-10.5394
tr쎯wsg0쎯	-10.5395
cep쎯mq쎯	-10.54
、amw쎯	-10.5403
aynr쎯	-10.5404
dmq쎯	-10.5405
usr쎯an쎯xn쎯	-10.5414
쎄)	-10.5417
tey쎯gd쎯	-10.542
r쎯trf쎯hko쎯	-10.5423
,ul쎯wtf쎯	-10.5423
rawk쎯	-10.5424
etn쎯gcf쎯	-10.5425
iv쎯k쎯	-10.5427
쎁쎉쎄쎇rh쎯	-10.5427
lh쎯tb쎯	-10.543
khgp1쎯	-10.5431
atgq쎯	-10.5436
mhm쎯	-10.5436
hak쎯	-10.5436
pwtf0쎯	-10.5437
fwf쎯	-10.544
an쎯lwj쎯h쎯	-10.5442
iie쎯thn쎯	-10.5443
es쎯et쎯b쎯	-10.5443
sghg1쎯kht쎯	-10.5445
。m쎯jf쎯,	-10.5447
fm쎯jj쎯	-10.5448
mh쎯hx쎯	-10.5448
qh쎯ygk쎯	-10.5451
uq쎯cyi쎯	-10.5452
rym쎯	-10.5459
fnrt쎯f쎯	-10.5461
ql쎯	-10.5463
k쎯wxf쎯atd쎯ip쎯wf쎯	-10.5463
쎁.쎃	-10.5464
、ih쎯	-10.5468
thd쎯qd쎯sf쎯	-10.547
wsg0쎯mw쎯	-10.5471
wg쎯l쎯tk쎯f쎯	-10.5471
itx쎯rdc쎯	-10.5475
wgkb2쎯wyc쎯	-10.5476
sh쎯xo쎯	-10.5477
쎁쎉쎃쎅rh쎯	-10.5478
vq쎯vld쎯	-10.548
fug쎯fe쎯	-10.548
,gcft2쎯lt쎯gf쎯	-10.5481
ukn쎯jtyl쎯	-10.5484
qn쎯rtd쎯:	-10.5485
o쎯w쎯	-10.5488
w쎯rnb쎯	-10.5489
w쎯。k쎯aw쎯ipk쎯km쎯。	-10.5492
rnnw쎯	-10.5493
dg쎯qe쎯	-10.55
wtp쎯	-10.5501
swgu쎯	-10.5502
,g쎯wh쎯	-10.5502
ger쎯	-10.5503
rpwi쎯	-10.5505
쎁쎉쎃쎈rh쎯	-10.5505
skf쎯	-10.5505
xtu쎯gf쎯	-10.5507
kd쎯tjh쎯	-10.5507
i쎯qy쎯	-10.5509
yaop쎯	-10.5512
rvh쎯	-10.5513
thfn쎯su쎯	-10.5514
mh	-10.5515
,etn쎯	-10.5518
dd쎯fw쎯	-10.5519
tjtl쎯gfi쎯	-10.5519
xnn0쎯	-10.552
aq쎯mw쎯	-10.5521
gd쎯wgkq0쎯	-10.5523
gmww쎯w쎯	-10.5524
xf쎯vq쎯	-10.5524
,rg쎯go쎯	-10.5527
tdjh1쎯	-10.5529
yu쎯:“	-10.553
nx쎯gog쎯	-10.5535
atdp쎯	-10.5536
et쎯wt쎯	-10.5538
wc쎯uq쎯	-10.5542
kht쎯,	-10.5542
qt쎯tu쎯	-10.5542
thg0쎯,	-10.5543
g쎯k쎯	-10.5543
bda쎯	-10.5543
oja쎯oth쎯	-10.5545
쎀.쎆	-10.5546
%。	-10.5547
sm쎯ysi쎯	-10.5548
efc쎯	-10.5553
、sb쎯	-10.5558
nnh쎯if쎯pe쎯	-10.5558
vcy1쎯	-10.5558
쎁쎀쎀dq쎯	-10.5558
sgx쎯	-10.556
irr쎯ia쎯dd쎯ip쎯	-10.5561
iyj쎯fm쎯ymhj쎯	-10.5562
srm쎯awx쎯	-10.5563
tr	-10.5569
rgf쎯rg쎯	-10.557
ga쎯ynk쎯	-10.5571
wx쎯r쎯	-10.5571
쎁쎉쎀	-10.5572
nh쎯mqc쎯	-10.5575
sm쎯,	-10.5576
xtf쎯	-10.5578
ic쎯pb쎯	-10.5578
kv쎯	-10.5583
rvy쎯if쎯	-10.5585
,ccc쎯qk쎯	-10.5588
쎃쎆쎀	-10.5588
y쎯rf쎯w쎯	-10.5591
쎁쎉쎃쎆rh쎯	-10.5592
af	-10.5592
rc쎯tjt쎯	-10.5593
qnj쎯	-10.5594
qna쎯	-10.5594
wkh쎯	-10.5599
um쎯wf쎯	-10.5601
txg쎯uqw쎯	-10.5603
jn쎯uh쎯	-10.5605
。hx쎯qh쎯,	-10.5608
ud쎯uft쎯	-10.5608
adwr쎯·	-10.5611
lk쎯nnw쎯	-10.5613
jhf1쎯	-10.5613
thfn쎯tc쎯	-10.5614
vpe쎯	-10.5617
dm쎯tkw쎯쎁	-10.5618
vkf1쎯ga쎯	-10.5621
tffu쎯yy쎯dm쎯r쎯	-10.5621
icd쎯	-10.5625
sghg1쎯fm쎯uk쎯	-10.5625
x쎯apk쎯tp쎯gj쎯	-10.5626
h쎯uk쎯	-10.5627
gm쎯nnnn쎯	-10.5631
xxf쎯og쎯tg쎯	-10.5632
vfi쎯	-10.5633
yngk0쎯ian0쎯	-10.5635
wxf쎯k쎯	-10.5636
r쎯yid쎯et쎯	-10.5639
pye쎯l쎯	-10.5639
tp쎯gj쎯,	-10.564
》k쎯r쎯	-10.5644
x쎯》	-10.5644
gkl쎯y쎯wtf쎯tv쎯km쎯	-10.5648
gu쎯egc쎯	-10.5648
adef0쎯aynr쎯	-10.5648
,o쎯b쎯	-10.5651
yy쎯aa쎯:	-10.5652
vnx쎯	-10.5659
,p쎯hxf쎯	-10.5659
gkl쎯nnh쎯yn쎯	-10.5659
see쎯	-10.566
wgqt쎯	-10.5662
wt쎯ma쎯	-10.5662
tp쎯gj쎯txi쎯xyc쎯	-10.5663
pt쎯yne쎯r쎯	-10.5665
,j쎯g쎯tkh쎯	-10.5667
pu쎯jf쎯	-10.567
qnnk1쎯udyj쎯	-10.5671
。q쎯wu쎯	-10.5678
쎀쎀	-10.5681
쎂.쎂	-10.5684
hk쎯f쎯	-10.5686
uda쎯naj1쎯	-10.5687
g쎯jjjj쎯	-10.5696
쎁쎉쎃쎀rh쎯	-10.5697
쎀.쎄	-10.5698
pt쎯cm쎯	-10.5699
r쎯wt쎯kkk쎯	-10.5699
es쎯wys쎯	-10.57
ywe쎯ubk0쎯	-10.57
ral쎯syp쎯:	-10.5701
rhy쎯	-10.5701
tf쎯ght쎯tp쎯gj쎯	-10.5703
xk쎯gqjo0쎯	-10.5705
pyj쎯ytd쎯	-10.5705
iann쎯	-10.5707
쎁쎄쎀	-10.5707
txg쎯jjjj쎯	-10.5708
sym쎯	-10.5708
bu쎯xtk쎯	-10.5711
”,“	-10.5712
lh쎯mfk쎯	-10.5717
dgkn쎯gc쎯	-10.572
wfny0쎯fcl쎯	-10.5722
iyjh쎯jtyq1쎯	-10.5724
cwg쎯	-10.5725
』『	-10.5727
uk쎯ta쎯	-10.5728
src쎯fnw쎯	-10.5731
wdn쎯rvyl쎯,	-10.5734
,gf쎯j쎯	-10.5734
lsh쎯	-10.5736
sk쎯et쎯	-10.5739
(,)	-10.574
itm쎯	-10.5741
ipk쎯xeg쎯xkw쎯	-10.5742
ujfj쎯wug1쎯:	-10.5742
tdg1쎯wy쎯	-10.5743
fcu1쎯hc쎯	-10.5744
fwm쎯aib쎯wx쎯	-10.5745
wx쎯uv쎯kkk쎯	-10.5746
dm쎯src쎯	-10.575
sk쎯wv쎯o쎯	-10.5753
we쎯qd쎯	-10.5753
yo쎯tkh쎯	-10.576
rb1쎯xqa쎯	-10.576
rgf쎯pe쎯	-10.5761
gfi쎯km쎯	-10.5762
о	-10.5763
,j쎯rxj쎯	-10.5765
et쎯ii쎯	-10.5769
aqg쎯aqr쎯isgg0쎯	-10.5771
ai쎯ux쎯uk쎯	-10.5771
pe쎯fl쎯wf쎯wf쎯km쎯	-10.5772
wbj쎯wt쎯r쎯	-10.5772
jhk1쎯rb1쎯	-10.5773
wxf쎯dht쎯	-10.5778
ii쎯dm쎯	-10.5781
rke쎯	-10.5782
usr쎯u쎯kkk쎯	-10.5782
tg쎯tr쎯ip쎯	-10.5782
sh쎯wycb쎯	-10.5783
ymc쎯tlf2쎯r쎯	-10.5786
,qq쎯	-10.5786
,gh쎯	-10.5787
aq쎯、	-10.5787
/쎂	-10.5787
txi쎯xyc쎯,	-10.5788
。m쎯jf쎯	-10.5796
ujfj쎯wug1쎯、	-10.5798
apk쎯og쎯	-10.5799
ii쎯wv쎯	-10.5806
sm쎯sq쎯。	-10.5806
j1쎯	-10.5808
px쎯j쎯	-10.5812
fu쎯u쎯	-10.5815
》、《k쎯l쎯	-10.5815
xa쎯qh쎯	-10.5819
j쎯g쎯qk쎯	-10.5822
khu쎯gfi쎯fcp쎯fcl쎯	-10.5823
uth쎯ywf쎯	-10.5827
tfj1쎯	-10.5828
tg쎯u쎯qie쎯wyk쎯	-10.5831
sc쎯tjh쎯	-10.5833
sdm쎯xe쎯	-10.5833
ukd0쎯jghm1쎯r쎯	-10.5834
nwgk쎯	-10.5838
r쎯s쎯fiy쎯	-10.584
thc쎯	-10.5841
xyna0쎯aft쎯	-10.5843
yxl쎯	-10.5843
쎁쎉쎄쎁rh쎯	-10.5844
fcp쎯fcl쎯km쎯,	-10.5845
afw쎯	-10.5847
쎂.쎁	-10.5849
。rnd1쎯	-10.585
ym쎯tffu쎯bpf쎯suq쎯	-10.5851
쎀～	-10.5851
쎁쎉쎄쎂rh쎯	-10.5857
n쎯apk쎯whf쎯og쎯	-10.5862
hgm쎯	-10.5864
gklp쎯	-10.5865
wg쎯an쎯lwj쎯	-10.5865
txgi2쎯aps쎯	-10.5869
xnf쎯xq쎯	-10.5869
l쎯pe쎯tgj쎯hko쎯	-10.587
pt쎯yne쎯rj쎯waw쎯	-10.5871
qq쎯o쎯	-10.5876
rjg0쎯wk쎯	-10.5876
qs쎯	-10.5877
mmm쎯qfhw0쎯	-10.5878
jjj쎯wsg0쎯	-10.5878
a쎯uqwm0쎯	-10.5879
yw쎯	-10.5879
pu쎯nu쎯	-10.5885
g쎯cf쎯	-10.5886
gqg1쎯utd쎯w쎯	-10.5887
bn쎯i쎯	-10.589
tfk쎯rh쎯	-10.5896
bu쎯wgk쎯l쎯	-10.5897
,rxj쎯	-10.5898
kfi쎯oge쎯	-10.59
jc쎯pnt쎯	-10.5904
pg쎯rmhj쎯	-10.5904
vt쎯rh쎯	-10.5905
og쎯wtu쎯	-10.5906
sagg쎯lks쎯	-10.5915
fny쎯bk쎯	-10.5922
knx쎯	-10.5926
ybj쎯	-10.5928
rmhj쎯ax쎯	-10.5932
bm쎯wtf쎯	-10.5933
thd쎯tf쎯	-10.5934
ii쎯u쎯	-10.5936
ygu쎯pj쎯	-10.5936
yvi쎯ahko쎯	-10.5938
bde쎯sm쎯	-10.5939
ral쎯pgn쎯	-10.5939
utd쎯ugm쎯r쎯	-10.5941
qq쎯rh쎯tg쎯ajj쎯sg쎯	-10.5943
pg쎯adwe1쎯	-10.5949
gip쎯dr쎯	-10.595
,rh쎯	-10.5952
ux쎯kht쎯	-10.5953
el쎯	-10.5957
ffff5쎯gku쎯	-10.5966
pwd쎯bm쎯am쎯fmud쎯	-10.5966
qtyd1쎯	-10.5966
hi쎯tf쎯	-10.5967
py	-10.5968
qyvl쎯gh쎯	-10.5972
ubk0쎯uqt쎯	-10.5972
dga쎯pwv쎯dn쎯js쎯	-10.5975
▁isgg0쎯yhk쎯	-10.5979
qr쎯kht쎯nnk쎯	-10.5983
▁(쎃)	-10.5984
ai쎯wmj0쎯	-10.5988
fnrt쎯jy쎯	-10.5988
/쎃	-10.5989
wt쎯b쎯	-10.5989
qrn쎯	-10.5994
qnq쎯ou쎯	-10.5994
fhqv쎯rvyl쎯	-10.5994
fn쎯》	-10.5995
dn쎯o쎯b쎯	-10.5996
fcl쎯eyni쎯	-10.5996
sqq쎯	-10.5996
qtw쎯	-10.5997
ugdu쎯ip쎯	-10.5999
bc쎯bm쎯	-10.5999
wv쎯dmh쎯d쎯	-10.6
nd쎯tv쎯wf쎯	-10.6003
sghg1쎯pv쎯ymhj쎯	-10.6006
syf쎯	-10.6006
wwwk쎯tq쎯	-10.6006
wk쎯ijl쎯	-10.6013
ija쎯dmh쎯	-10.6014
pt쎯w쎯	-10.6016
bg쎯tg쎯uk쎯	-10.6017
r쎯g쎯uk쎯	-10.6017
xnf쎯	-10.6018
uyh쎯yne쎯	-10.6018
rl쎯	-10.602
ryl쎯	-10.6022
qgbn0쎯	-10.6028
usr쎯pei쎯sf쎯	-10.6034
g쎯w쎯	-10.6035
lfof5쎯sghg1쎯sks쎯	-10.6038
xad쎯	-10.6038
쎂쎄ih쎯jf쎯	-10.6039
sghg1쎯ux쎯uk쎯	-10.6041
tgj쎯tjt쎯	-10.6043
쎁쎉쎄쎄rh쎯	-10.6045
prh쎯	-10.6047
fg쎯w쎯	-10.6049
ijl쎯ytyh쎯ymhj쎯	-10.605
v쎯rnbm쎯	-10.605
wg쎯nnh쎯	-10.605
ymc쎯d쎯	-10.605
cwg쎯nh쎯	-10.605
k쎯l쎯gl쎯	-10.605
,vfhp1쎯tam쎯	-10.6051
r쎯ftbt쎯ip쎯	-10.6052
r쎯whf쎯og쎯	-10.6054
tuu쎯tb쎯	-10.6054
tr쎯tkh쎯	-10.6055
wtf쎯ujn쎯	-10.6055
tdtv쎯	-10.6057
。sg쎯	-10.6059
jjjj쎯uwl쎯	-10.606
и	-10.606
fhw쎯ghd0쎯r쎯	-10.6062
vcag쎯	-10.6063
ep쎯l쎯	-10.6063
,ipw쎯epc쎯	-10.6067
yn	-10.6068
hxx쎯qc쎯	-10.6075
rj쎯bm쎯b쎯	-10.6078
itd쎯lt쎯	-10.608
iie쎯rw쎯	-10.6083
w쎯dd쎯	-10.6084
yynw1쎯nnh쎯	-10.6085
fhl쎯og쎯	-10.6086
쎁쎅쎀쎀	-10.6087
쎁쎀rh쎯	-10.6089
imj쎯xwf쎯	-10.6092
j쎯g쎯pe쎯fny쎯og쎯	-10.6092
ntt쎯tf쎯	-10.6096
vvv쎯bynw0쎯	-10.6099
jf쎯ynt쎯	-10.6099
amd쎯fghy0쎯	-10.61
g쎯od쎯	-10.61
dht쎯tb쎯	-10.6101
fkuc1쎯ddnl쎯	-10.6101
ta쎯iit쎯ymhj쎯	-10.6102
rgs쎯	-10.6103
wt쎯kkk쎯《	-10.6105
fwn쎯	-10.6106
,xxr쎯	-10.6107
k쎯gxgu쎯	-10.6107
ovt쎯dj쎯	-10.6111
iwf쎯lw쎯r쎯	-10.6112
jf쎯r쎯	-10.6112
ttt쎯	-10.6114
쎂kgn쎯	-10.6115
qjf쎯jn쎯ib쎯	-10.6116
?”	-10.6117
xxf쎯og쎯rg쎯	-10.6119
kkdu쎯	-10.612
쎂쎀쎀쎅	-10.6124
。p쎯hxf쎯	-10.6124
cq쎯	-10.6129
。ld쎯hx쎯,	-10.613
sp쎯qc쎯	-10.613
xeg쎯xkw쎯r쎯	-10.6131
pp쎯uj쎯,	-10.6131
ab쎯xq쎯	-10.6136
。hhhh쎯ue쎯,	-10.6137
pei쎯n쎯nh쎯ty쎯y쎯s쎯	-10.6139
ght쎯sc쎯	-10.614
xy쎯	-10.614
e쎯w쎯	-10.6141
adnt1쎯nnh쎯	-10.6141
ack쎯	-10.6144
dnv2쎯adw쎯j쎯	-10.6148
fwyc2쎯wyk쎯	-10.6148
rnw쎯lfnh쎯	-10.6149
dgtg쎯wx쎯	-10.6149
≥	-10.6152
ux쎯ugdu쎯	-10.6152
sg쎯nnh쎯j쎯	-10.6153
wjjg쎯nf쎯	-10.6156
nngt쎯	-10.6156
lfo쎯rrr쎯	-10.6158
ta쎯dp쎯	-10.6158
,wt쎯o쎯	-10.616
ghd0쎯j쎯	-10.616
ukn쎯wsg0쎯	-10.6163
rpwn1쎯rnbm쎯	-10.6164
trs쎯trtg쎯。	-10.6165
pei쎯u쎯kkk쎯	-10.6166
쎉wh쎯	-10.6168
wb쎯d쎯	-10.6168
jn쎯sux쎯	-10.617
o쎯adw쎯	-10.6173
rjq쎯	-10.6175
r쎯rfc쎯sy쎯	-10.6177
qynm1쎯mgn쎯	-10.618
twf쎯kgn쎯	-10.6181
u쎯gf쎯	-10.6182
gkp쎯udh쎯	-10.6184
whf쎯gk쎯og쎯	-10.6185
dnv1쎯gu쎯yy쎯oy쎯,	-10.6188
ge쎯uje쎯	-10.6189
r쎯fdm쎯fiy쎯	-10.6191
gkm쎯uqwm0쎯	-10.6191
twgi쎯xq쎯	-10.6193
gg쎯fgh쎯	-10.6194
wn쎯fqb1쎯,	-10.6196
tonu쎯	-10.6198
geht쎯	-10.62
gwy1쎯	-10.6202
r쎯g쎯rn쎯	-10.6203
ywe쎯	-10.6206
cm쎯hko쎯	-10.6206
kkkk0쎯tca쎯	-10.6208
oge쎯vo쎯	-10.6209
mq쎯iq쎯	-10.6216
rxj쎯fm쎯	-10.6216
thp쎯pv쎯	-10.6226
sg쎯w쎯	-10.6228
uni0쎯	-10.6228
rufh1쎯qu쎯	-10.6228
ftbt쎯ip쎯sov쎯	-10.623
yx쎯tfq쎯	-10.623
h1쎯	-10.623
wbj쎯lw쎯gf쎯	-10.6232
xqc쎯xxe쎯	-10.6234
bd쎯ruv쎯	-10.6235
pgy쎯pgy쎯	-10.6237
▁q쎯wu쎯	-10.6238
....	-10.6238
l쎯n쎯	-10.6239
uthp쎯ftbt쎯	-10.6241
oge쎯ya쎯	-10.6242
wvt쎯adwr쎯uff쎯	-10.6243
rfc쎯if쎯	-10.6244
tp쎯gj쎯r쎯	-10.6244
kkd쎯,	-10.6247
ipkh1쎯ytyh쎯	-10.6247
fhn쎯wtf쎯	-10.6248
dnv1쎯kgb쎯	-10.6249
ad쎯sg쎯cd쎯ovt쎯	-10.6252
wx쎯、	-10.6256
qq쎯fqb1쎯wx쎯	-10.6263
쎇.쎅	-10.6265
쎄쎈쎀	-10.6266
ue쎯fj쎯	-10.6267
riu쎯ytyh쎯	-10.6269
쎄쎀쎀쎀	-10.627
jf쎯wa쎯r쎯	-10.6275
ujfj쎯qtj쎯	-10.6276
,dl쎯wtf쎯	-10.6278
al쎯uqt쎯	-10.6279
쎀.쎀	-10.628
us쎯thd쎯	-10.6281
쎅)	-10.6285
(쎁	-10.6286
so쎯bm쎯	-10.6288
,j쎯g쎯wh쎯	-10.6288
pdx쎯	-10.629
,wq쎯	-10.6291
gv쎯bb쎯	-10.6293
tv쎯pgj쎯wfny0쎯uk쎯	-10.6293
,uq쎯cep쎯	-10.6294
sg쎯wc쎯ngk쎯	-10.6295
xtd쎯	-10.6298
wdn쎯ugdu쎯,	-10.6299
rwv쎯ipg쎯	-10.6302
r쎯gj쎯shn쎯	-10.6302
rt쎯mm쎯	-10.6307
aq쎯ght쎯ywf쎯	-10.6311
nae쎯bm쎯	-10.6315
sy쎯ygk쎯	-10.6315
(wynk쎯	-10.6319
ukn쎯gj쎯	-10.632
i쎯wjg쎯	-10.6321
ihic쎯	-10.6323
ubte쎯	-10.6324
lw쎯wc쎯pgc쎯、	-10.6325
lge쎯	-10.6328
bn쎯wf쎯	-10.6329
y쎯qe쎯	-10.633
쎁w쎯,	-10.6332
ii쎯jjj쎯	-10.6334
rrg1쎯fnud쎯	-10.6336
nfif쎯	-10.6337
xl쎯eaf쎯	-10.6338
wh쎯ftbt쎯ip쎯gyt쎯,	-10.6338
wg쎯tkgg0쎯	-10.6338
쎅wv쎯qkhh1쎯	-10.6338
l쎯gl쎯	-10.634
itx쎯ii쎯	-10.6341
qug2쎯	-10.6343
yygt쎯dd쎯pt쎯yne쎯	-10.6345
o쎯:	-10.6345
ii	-10.6345
gh쎯ntk쎯	-10.6346
tuk쎯tl쎯	-10.6349
。n쎯l쎯	-10.6354
iq쎯jn쎯	-10.6357
yvw쎯	-10.6358
pw쎯k쎯	-10.6359
al쎯ce쎯,	-10.6361
ftbt쎯yce쎯ip쎯bpf쎯	-10.6364
ukqb0쎯	-10.6365
fj쎯fghg쎯	-10.637
jf쎯adwe1쎯r쎯	-10.6371
dgt1쎯pe쎯	-10.6374
1쎯	-10.6374
wyf0쎯dhb쎯	-10.6374
j쎯:	-10.6376
쎇)	-10.6378
dn쎯kkk쎯	-10.6379
o쎯wfh1쎯tc쎯	-10.6383
pei쎯ax쎯	-10.6384
r쎯qk쎯pb쎯	-10.6387
wdt쎯b쎯	-10.6388
dn쎯al쎯r쎯	-10.6391
hich쎯	-10.6392
jjjj쎯rb1쎯	-10.6392
ipgg0쎯	-10.6392
c쎯rg쎯,	-10.6393
jgm쎯aib쎯ip쎯suq쎯	-10.6393
cep쎯fp쎯b쎯	-10.6395
ugdu쎯vvv쎯	-10.6398
iyv쎯ijlc쎯	-10.6398
,ukn쎯	-10.6405
rw쎯fcu1쎯	-10.6408
tt쎯qk쎯	-10.6409
xxm쎯lfod1쎯	-10.6413
bw쎯ta쎯	-10.6415
odm쎯	-10.6415
itd쎯fcl쎯r쎯	-10.6416
wc쎯xd쎯	-10.6417
ipwk0쎯iyw쎯	-10.6419
v쎯nae쎯fwm쎯aj쎯	-10.642
lkd쎯nh쎯	-10.6422
ipq쎯bj쎯ymhj쎯	-10.6422
bk쎯gmu1쎯	-10.6424
se쎯adw쎯	-10.6431
ul쎯aqt쎯	-10.6432
ijl쎯jef1쎯	-10.6432
g쎯th쎯	-10.6434
ymf쎯kfi쎯	-10.6434
dj쎯wtu쎯	-10.6435
yi쎯e쎯	-10.6438
ihc쎯uff쎯	-10.6439
apk쎯tfkp쎯	-10.6439
fu쎯lk쎯b쎯	-10.644
iyc쎯fakg1쎯	-10.644
wyq쎯aa쎯	-10.644
、h쎯itx쎯	-10.6441
if쎯》	-10.6442
ndj쎯lft쎯	-10.6443
tfqp쎯iwf쎯	-10.6444
wwx쎯ybt쎯	-10.6447
a쎯tkgg0쎯txi쎯	-10.645
dga쎯pwv쎯》	-10.6451
쎂쎀쎀쎃	-10.6452
puh쎯wi쎯	-10.6456
ftbt쎯ipkf0쎯	-10.6456
fhn쎯hko쎯	-10.6457
쎂rh쎯	-10.6458
。”《	-10.6461
od쎯klj쎯	-10.6462
tjt쎯jgf쎯dd쎯ip쎯	-10.6463
gkl쎯y쎯wtf쎯,	-10.6463
ftg쎯tg쎯	-10.6463
ll쎯,ic쎯ytt쎯,	-10.6465
gm쎯dhb쎯	-10.6466
rpf쎯	-10.6467
swgj1쎯	-10.6473
qlh0쎯	-10.6473
jm쎯gc쎯	-10.6474
쎀.쎇	-10.6474
ipmq쎯tj쎯	-10.6478
쎈)	-10.6479
puhc쎯rep쎯cbj쎯	-10.648
rnr쎯fnr쎯kkd쎯	-10.648
wfhg쎯tj쎯	-10.648
wdk쎯	-10.6486
ntt쎯	-10.6486
vfhp1쎯l쎯	-10.6486
wf쎯yyq쎯pgc쎯	-10.6492
r쎯ukd0쎯jghm1쎯	-10.6493
wdn쎯gjh2쎯	-10.6494
sk쎯tfkd쎯	-10.6496
rtt쎯	-10.6496
mhk쎯	-10.6499
(쎁쎉쎂	-10.6501
kl쎯g쎯wh쎯	-10.6502
oge쎯pyj쎯yygy쎯je쎯	-10.6502
%,	-10.6504
쎁쎉쎃쎂rh쎯	-10.6505
pv쎯wg쎯tg쎯u쎯	-10.6511
qh쎯uq쎯	-10.6512
g쎯vtk쎯	-10.6512
gh쎯uk쎯	-10.6516
b쎯“	-10.6519
ip쎯fghg쎯	-10.6522
쎁쎂쎅	-10.6524
gu쎯tf쎯	-10.6525
vt쎯dx쎯	-10.6526
ftbt쎯rep쎯、	-10.6526
rpw쎯rmhj쎯kkd쎯	-10.6527
tve쎯it쎯	-10.6527
n쎯wwwk쎯	-10.6527
gg쎯dd쎯	-10.653
fnhp쎯	-10.6532
icd쎯tep쎯	-10.6536
o쎯g쎯	-10.6537
rep쎯cbj쎯“	-10.6541
usr쎯iw쎯	-10.6542
t쎯tp쎯gj쎯	-10.6546
gt쎯grq쎯	-10.6551
iat1쎯	-10.6551
r쎯yo쎯wx쎯	-10.6555
th쎯。	-10.6557
dyn쎯ya쎯	-10.6558
y쎯wtf쎯、	-10.6561
pt쎯fcp쎯	-10.6562
pde쎯	-10.6563
fgh쎯ag쎯	-10.6564
wny0쎯tuh쎯	-10.6564
pdx쎯tr쎯	-10.6564
xa쎯yta쎯	-10.6567
yh쎯wq쎯	-10.6571
wynm0쎯	-10.6574
ujq쎯	-10.6578
rhk쎯ve쎯	-10.6578
tffu쎯tk쎯tkh쎯	-10.6578
a쎯og쎯lfq쎯	-10.6579
,qm쎯gmu1쎯	-10.6581
wtc쎯	-10.659
쎅.쎅	-10.6595
wvp쎯	-10.6597
tx쎯쎄	-10.6598
–	-10.6598
wtf쎯ftbt쎯	-10.6599
gogj쎯tak쎯o쎯	-10.6605
。thd쎯	-10.6606
쎅～	-10.6606
yne쎯,e쎯xte쎯sf쎯	-10.6607
wgep쎯	-10.661
iytb0쎯iyni0쎯	-10.6612
쎁×	-10.6615
rge쎯	-10.6616
iyc쎯wsg0쎯	-10.6617
se쎯hw쎯	-10.6617
eeqy쎯	-10.662
vvv쎯,	-10.6621
bdx쎯	-10.6622
f쎯fhg1쎯:	-10.6623
ytb0쎯fmk쎯hka쎯qv쎯	-10.6624
uqf쎯wf쎯	-10.6625
uxhp쎯	-10.6625
gef쎯itx쎯ith쎯	-10.6625
(쎁쎈쎉	-10.6626
rj쎯fi쎯	-10.6627
gae쎯rvyl쎯	-10.6627
rs쎯fmk쎯	-10.6629
sf쎯。	-10.663
bpf쎯fghg쎯	-10.663
yi쎯d쎯	-10.6631
ce쎯lt쎯,	-10.6634
쎂～	-10.6639
lk쎯h쎯	-10.664
kq쎯h쎯	-10.6644
dc쎯ype쎯	-10.6644
jtyq1쎯	-10.6645
uvo쎯bk쎯	-10.6645
xj쎯d쎯	-10.6645
qnw쎯	-10.6646
、ux쎯yiu쎯	-10.6651
iie쎯gxgu쎯	-10.6652
pp쎯xte쎯	-10.6653
、xt쎯	-10.6655
fwyc2쎯wrh2쎯	-10.6658
ipw쎯ynt쎯	-10.6661
tfk쎯dq쎯	-10.6661
mwwk쎯	-10.6663
ougo쎯	-10.6665
cd쎯yaf쎯	-10.6669
xh쎯v쎯	-10.667
de쎯alq쎯hhy쎯	-10.667
nc쎯ulg쎯	-10.6671
qh쎯qyv쎯	-10.6671
l쎯u쎯	-10.6672
scf쎯ssss쎯	-10.6674
yi쎯ce쎯	-10.6676
rt쎯a쎯	-10.6679
yveh쎯	-10.668
yynw1쎯wc쎯ngk쎯	-10.6682
twt쎯ytyh쎯	-10.6684
oge쎯gcft2쎯	-10.6686
kml쎯	-10.6687
nge쎯xft쎯	-10.6691
,epc쎯gc쎯	-10.6694
v쎯nae쎯hka쎯ltk쎯	-10.6695
yga쎯	-10.6695
ab쎯dwg쎯	-10.6698
pykw쎯	-10.6699
g쎯adwe1쎯	-10.6703
tve쎯nnw쎯	-10.6703
aw쎯gef쎯lft쎯	-10.6712
ajf1쎯	-10.6713
wc쎯ngk쎯wug1쎯gf쎯	-10.6713
aq쎯,	-10.6714
wgj쎯rgv쎯	-10.6714
yu쎯,	-10.6716
×쎄	-10.6716
jn쎯du쎯	-10.6719
ccc쎯e쎯	-10.6719
,gae쎯dn쎯b쎯	-10.6719
sm쎯tmd쎯	-10.6721
dd쎯qq쎯	-10.6721
。gm쎯d쎯	-10.6722
sgjq쎯	-10.6723
r쎯svc쎯wynn3쎯	-10.6724
yo쎯tj쎯	-10.6725
pym쎯jfc쎯	-10.6725
wg쎯usr쎯r쎯	-10.6725
rj쎯bm쎯r쎯	-10.6728
xh쎯wycm0쎯	-10.6729
、rrr쎯	-10.6729
tp쎯gj쎯a쎯wt쎯	-10.6729
tffu쎯aps쎯iwyf2쎯	-10.673
fqu쎯sk쎯	-10.6732
dl쎯x쎯	-10.6734
vfhp1쎯suq쎯	-10.6739
쎃쎅쎀	-10.6739
ii쎯k쎯	-10.674
wye쎯qd쎯	-10.674
jy	-10.674
jn쎯begg쎯	-10.674
fc쎯uk쎯	-10.6741
,ww쎯gk쎯	-10.6742
쎈kgn쎯	-10.6743
kpt쎯	-10.6744
쎂쎁an쎯xn쎯	-10.6746
fjhh쎯	-10.6748
쎂.쎃	-10.675
adm쎯hhhh쎯r쎯	-10.6751
g쎯su쎯,	-10.6752
bw쎯km쎯	-10.6752
tffu쎯qq쎯wh쎯	-10.6754
cf쎯tq쎯	-10.6762
쎂.쎈	-10.6764
sg쎯tu쎯tg쎯	-10.6764
쎇eee쎯cd쎯lk쎯a쎯wt쎯	-10.6764
ih쎯gf쎯	-10.6766
g쎯kht쎯	-10.6775
opf쎯	-10.6776
jf쎯whn쎯	-10.6777
rdj쎯qk쎯	-10.678
ubtf쎯eu쎯	-10.678
oge쎯xl쎯	-10.678
dd쎯gku쎯	-10.6785
쎁쎀%	-10.6786
pei쎯wt쎯tr쎯	-10.6786
x쎯xjm쎯	-10.679
iq쎯je쎯	-10.6791
쎉)	-10.6792
tr쎯ou쎯	-10.6793
xww쎯sam쎯	-10.6793
vfhp1쎯ymc쎯r쎯	-10.6794
bm쎯gm쎯d쎯	-10.6795
ivy쎯	-10.6795
o쎯yygt쎯dd쎯	-10.6795
dgj쎯wx쎯	-10.6795
mht쎯	-10.6796
ipm쎯tkw쎯	-10.6796
k쎯md쎯jn쎯pym쎯ck쎯	-10.6797
gu쎯yy쎯wc쎯jfd쎯。	-10.6798
dg쎯jtg쎯	-10.6798
jyie쎯ktm쎯lt쎯	-10.6798
xcy쎯rnr쎯	-10.6799
nnh쎯·	-10.68
rpv쎯yssr쎯	-10.6801
kha쎯yb쎯sf쎯tv쎯wf쎯	-10.6801
”)	-10.6802
iie쎯ditn0쎯	-10.6802
tmdf1쎯fmk쎯	-10.6804
ym쎯dr쎯	-10.6805
xf쎯jjj쎯	-10.6807
gm쎯udy쎯	-10.6809
tfl쎯·	-10.6816
mt쎯wsk쎯	-10.6816
de쎯shi쎯ow쎯	-10.6817
dnv1쎯gu쎯yy쎯oy쎯	-10.6818
trw쎯ycb쎯	-10.6819
tlf2쎯et쎯。	-10.6819
rfh0쎯	-10.6822
,dr쎯	-10.6826
dcw쎯djb쎯r쎯	-10.6828
jb쎯tgj쎯s쎯r쎯	-10.6831
iqpl1쎯or쎯	-10.6833
rtol1쎯bm쎯	-10.6833
ii쎯,	-10.6834
oge쎯ugdu쎯	-10.6835
l쎯bf쎯wx쎯	-10.6837
,wv쎯klj쎯	-10.6849
dm쎯tkw쎯쎄	-10.685
amw쎯rcy0쎯	-10.6852
-)	-10.6852
r쎯vb쎯	-10.6853
wds쎯	-10.6853
qmw쎯	-10.6853
r쎯ujf쎯qi쎯	-10.6855
qi쎯lfq쎯	-10.6857
al쎯ce쎯:	-10.6857
pfjm1쎯gk쎯	-10.6859
nnh쎯gl쎯anb0쎯sy쎯	-10.686
rfc쎯sy쎯ga쎯v쎯aq쎯	-10.6861
vb쎯,	-10.6865
qc쎯icf쎯	-10.6866
alfj0쎯	-10.6866
tg쎯itd쎯k쎯	-10.6866
dgj쎯ya쎯	-10.6869
wgk쎯uqwm0쎯	-10.6869
je쎯gr쎯	-10.687
a쎯tkgg0쎯、	-10.6871
pj쎯rx쎯	-10.6875
ai쎯ic쎯	-10.6876
dg쎯uqw쎯	-10.6879
bqn쎯bb쎯	-10.6881
,jb쎯xtu쎯	-10.6883
hwb쎯lwx쎯	-10.6883
,dnv2쎯adw쎯j쎯	-10.6884
쎈쎀%	-10.6885
kld쎯	-10.6889
qk쎯yngk0쎯	-10.689
tcy쎯w쎯	-10.689
tr쎯og쎯	-10.689
rwyg쎯tf쎯	-10.6892
▁(쎂).	-10.6892
,ugdu쎯l쎯	-10.6893
tyna2쎯,	-10.6905
:fc쎯rf쎯	-10.6905
ey쎯sh쎯ud쎯	-10.6905
rrr쎯fcu0쎯	-10.6905
,cf쎯gf쎯	-10.6908
wv쎯nnk쎯	-10.6909
h쎯b쎯	-10.6911
mb쎯wrh2쎯	-10.6915
,cep쎯ipkh1쎯	-10.6916
ftg쎯dgh쎯	-10.6918
f쎯nfc쎯	-10.692
-쎁쎈	-10.6921
fggh쎯rdn쎯	-10.6921
eqn쎯	-10.6924
fuk쎯yk쎯k쎯ny쎯	-10.6925
khv쎯khp쎯	-10.6926
fhn쎯ajj쎯	-10.6927
tqq쎯sfhg쎯	-10.6931
i쎯fuf1쎯	-10.6933
bwf쎯wrh2쎯	-10.6935
쎁쎉쎃쎁rh쎯	-10.6938
lgm쎯	-10.6938
ton쎯	-10.6939
adwr쎯fjg쎯	-10.6942
fggh쎯uqv쎯	-10.6945
g쎯gcft2쎯	-10.6945
f1쎯	-10.6945
rpd1쎯	-10.6947
yygy쎯wx쎯khgp0쎯u쎯	-10.6947
ujf쎯ktm쎯	-10.6949
쎂쎀rh쎯	-10.6952
,tuj쎯tq쎯	-10.6952
y쎯src쎯	-10.6953
g쎯jsd쎯	-10.6955
ab쎯jjjj쎯	-10.6956
lh쎯fgh쎯	-10.6957
aj쎯wv쎯	-10.6958
rit쎯	-10.6959
fhn쎯gc쎯	-10.6961
w쎯,adw쎯k쎯ww쎯gk쎯t	-10.6962
mds쎯	-10.6966
wt쎯et쎯,	-10.6967
q쎯ymhj쎯	-10.6968
ga쎯ii쎯	-10.6969
xfm쎯tavn쎯	-10.6973
qf쎯qyo쎯	-10.6973
g쎯uk쎯wv쎯	-10.6976
adwe1쎯wxm쎯	-10.6976
a쎯og쎯aq쎯	-10.6977
ipwk0쎯yjjh1쎯	-10.6977
r쎯m쎯jf쎯	-10.6977
wsg0쎯ta쎯	-10.698
yxl쎯trt쎯	-10.6981
uq쎯cep쎯fcp쎯lwg쎯	-10.6981
y쎯iyc쎯	-10.6983
ujf쎯tsh0쎯	-10.6983
y쎯s쎯c쎯	-10.6986
fjg쎯dq쎯	-10.6989
aqv1쎯	-10.6989
sr쎯	-10.6989
ih쎯veg쎯	-10.6991
iq쎯xtf쎯	-10.6993
쎁쎅dq쎯	-10.6993
y쎯s쎯x쎯apk쎯	-10.6994
fje쎯tfpd쎯	-10.6994
veg쎯	-10.6995
og쎯lwj쎯	-10.6995
ce쎯lt쎯。	-10.6995
rfc쎯sy쎯eb쎯tl쎯	-10.6996
u쎯og쎯wx쎯	-10.6997
ld쎯bb쎯	-10.6998
qrm쎯sfi쎯pfjm1쎯	-10.6998
,쎀쎀쎀	-10.7
apl쎯fcl쎯lt쎯	-10.7001
cbn0쎯	-10.7001
gd쎯qd쎯rnb쎯	-10.7001
ntk쎯gf쎯mmm쎯aq쎯	-10.7004
je쎯ige쎯	-10.7006
,im쎯e쎯	-10.7011
why쎯	-10.7011
jsg쎯	-10.7012
dg쎯xwy쎯	-10.7017
mcw쎯	-10.7018
js쎯scf쎯	-10.7022
xtu쎯tmd쎯	-10.7022
).	-10.7022
ith쎯ftbt쎯yce쎯ds쎯	-10.7022
it쎯jg쎯	-10.7023
j쎯jjjj쎯sg쎯	-10.7025
ybo쎯qntf쎯	-10.7029
trf쎯xq쎯	-10.7029
sg쎯ffff5쎯	-10.703
wc쎯tl쎯km쎯	-10.7032
。o쎯b쎯	-10.7033
vfhp1쎯ymc쎯、	-10.7035
g0쎯	-10.7037
-쎀쎁	-10.7037
wk쎯pv쎯	-10.7041
u쎯f쎯	-10.7041
tve쎯dd쎯	-10.7041
et쎯ax쎯	-10.7042
rxj쎯r쎯j쎯	-10.7043
cf쎯xx쎯	-10.7044
ifhw쎯	-10.7046
iytb0쎯fmk쎯bw쎯	-10.7047
gcf쎯it쎯	-10.7048
tx쎯vt쎯	-10.7049
bde쎯jf쎯	-10.705
uxxn1쎯uduk쎯	-10.7052
py쎯wf쎯tu쎯ip쎯bpf쎯	-10.7052
dmh쎯lfhf쎯	-10.7056
]	-10.7057
khh쎯	-10.7058
fjw쎯	-10.7058
qnth쎯ipg쎯	-10.706
tb쎯ab쎯	-10.7061
ukd0쎯jghm1쎯。	-10.7061
ai쎯itx쎯	-10.7062
bm쎯ipg쎯	-10.7065
fgh쎯pb쎯	-10.7065
ynw쎯	-10.7065
sh쎯iv쎯gf쎯	-10.7066
쎁w쎯	-10.7066
yft쎯qq쎯	-10.7066
。”psu쎯	-10.7068
lfo쎯ju쎯	-10.7069
xfm쎯pwat쎯	-10.707
rnp쎯	-10.7071
ymc쎯yf쎯r쎯	-10.7072
jy쎯qc쎯	-10.7074
vtdj쎯	-10.7075
sh쎯lpk0쎯	-10.7076
rxj쎯fi쎯	-10.7077
vyi1쎯	-10.7077
m쎯qk쎯	-10.708
、tg쎯u쎯、qie쎯wyk쎯	-10.7082
toln0쎯oi쎯	-10.7082
tlf2쎯et쎯	-10.7082
u쎯kkk쎯,	-10.7087
t쎯py쎯wf쎯	-10.7087
쎃쎀dq쎯	-10.7088
bll쎯	-10.709
uf쎯nf쎯wsg0쎯	-10.7093
ad쎯hich쎯ftbt쎯	-10.7094
itx쎯ud쎯	-10.7095
sds쎯	-10.7095
bh쎯	-10.7098
bn쎯tq쎯	-10.7099
,aqt쎯tj쎯	-10.71
wdn쎯rfm쎯r쎯eb쎯tl쎯	-10.71
。gm쎯e쎯	-10.7101
ipg쎯xcf쎯	-10.7102
tfl쎯yce쎯	-10.7103
wkso0쎯	-10.7103
lu쎯dd쎯r쎯	-10.7106
yt쎯ny쎯	-10.7107
rjg0쎯	-10.7107
tg쎯u쎯whf쎯og쎯	-10.7112
bb쎯、	-10.7115
〉	-10.7115
tuj쎯ifk쎯	-10.7115
oqdo쎯	-10.7115
ghd0쎯dm쎯	-10.7115
km쎯,	-10.7117
쎁쎀쎈	-10.7117
ilg2쎯	-10.7119
lkd쎯ytt쎯	-10.7119
klj쎯qk쎯	-10.7122
dmj1쎯ccc쎯	-10.7123
wb쎯w쎯	-10.7125
sh쎯wny0쎯	-10.7128
yjj0쎯wg쎯,	-10.7128
yq쎯tl쎯	-10.7129
xe쎯a쎯tkgg0쎯jgm쎯	-10.713
bq쎯adnt1쎯	-10.7131
gj쎯ywx쎯dga쎯pwv쎯	-10.7133
gu쎯yy쎯	-10.7134
),pb쎯	-10.7137
qnqv쎯	-10.7138
udjh쎯	-10.7138
bk쎯og쎯ftbt쎯yce쎯	-10.7138
≤	-10.7138
pe쎯w쎯	-10.714
j쎯g쎯uk쎯	-10.714
gmf쎯tg쎯	-10.7144
rvyl쎯lt쎯	-10.7146
pwm쎯	-10.7146
qqqq1쎯mqj쎯	-10.7147
쎁%	-10.7149
wc쎯n쎯	-10.7149
jb쎯rp쎯	-10.715
puvk2쎯	-10.7154
dgt1쎯、	-10.7155
ad쎯dbm쎯h쎯	-10.7158
nh쎯xpw쎯	-10.7161
usgp1쎯trfh0쎯	-10.7162
whf쎯og쎯。wc쎯ngk쎯	-10.7162
ssm쎯	-10.7163
ga쎯lw쎯	-10.7163
kd쎯ycb쎯	-10.7164
fqb1쎯rh쎯	-10.7167
wdt쎯bm쎯b쎯	-10.7169
ica쎯	-10.7171
wh쎯ntg쎯wx쎯	-10.7173
tdtf쎯vfhp1쎯	-10.7174
▁쎆、	-10.7174
abi쎯irn쎯	-10.7175
nnh쎯gl쎯pe쎯	-10.7176
l쎯bf쎯qyv쎯jqr쎯	-10.7181
ftjb쎯sk쎯c쎯	-10.7186
wynb쎯jjjj쎯	-10.7188
ogu쎯	-10.719
yygy쎯nnh쎯	-10.719
sw쎯fpx쎯	-10.7193
tv쎯km쎯wf쎯tv쎯km쎯,	-10.7197
rj쎯bc쎯	-10.7198
ow쎯gs쎯	-10.7198
。wb쎯wu쎯	-10.7201
dgkn쎯yid쎯	-10.7201
sc쎯lt쎯	-10.7201
sk쎯waw쎯	-10.7203
pju쎯	-10.7204
▁bm쎯thgc쎯jf쎯uj쎯:	-10.7207
rcf쎯	-10.7208
oge쎯fhl쎯	-10.7209
dmj1쎯dn쎯,	-10.7213
ii쎯jn쎯	-10.7215
wnnf쎯	-10.7217
dj쎯wxm쎯	-10.7218
p쎯uqw쎯	-10.7219
bd쎯yad쎯	-10.722
쎁쎇쎀	-10.7221
g쎯jf쎯	-10.7224
xvk쎯iw쎯	-10.7225
ngk쎯cn쎯	-10.7225
y쎯yfj쎯	-10.7225
q쎯suq쎯	-10.7226
m2	-10.7227
krt쎯isgg0쎯	-10.7227
yo쎯dfy쎯kkd쎯	-10.723
,vcl쎯lt쎯	-10.723
wvl쎯f쎯	-10.7235
ip쎯rb1쎯	-10.7238
▁(쎁)	-10.7239
wygg쎯pwdj쎯	-10.724
tdtf쎯	-10.7242
in쎯	-10.7244
wys쎯》	-10.7246
amd쎯st쎯uff쎯	-10.7253
tx쎯lh쎯nm쎯	-10.7254
iqr쎯	-10.7256
vs쎯uq쎯	-10.7257
g쎯dj쎯	-10.7257
w쎯adw쎯k쎯	-10.7257
aitl쎯	-10.7259
ct쎯	-10.7263
an쎯pe쎯	-10.7266
,hw쎯	-10.7268
sk쎯c쎯d쎯	-10.7269
oge쎯wxf쎯	-10.727
▁q쎯	-10.7271
gk쎯nge쎯	-10.7271
tjtl쎯	-10.7272
qfhw0쎯wug1쎯gf쎯	-10.7274
dd쎯lt쎯	-10.7276
dd쎯gj쎯	-10.7276
ipf쎯yaa쎯	-10.7276
j쎯g쎯uthp쎯	-10.7276
ol쎯ck쎯	-10.7277
w쎯ft쎯fuk쎯udyj쎯	-10.7277
〈	-10.728
txgt쎯dgkn쎯	-10.7281
,px쎯j쎯	-10.7282
vii쎯	-10.7287
tg쎯gqf쎯	-10.7288
udb쎯ytyh쎯ymhj쎯	-10.7289
쎁쎀쎅	-10.7291
gqr쎯ivfh1쎯mhkg2쎯	-10.7293
tffu쎯bk쎯	-10.7293
bc쎯wa쎯	-10.7296
쎀°C	-10.7296
yygy쎯wx쎯r쎯	-10.7297
jgm쎯dd쎯	-10.7301
gip쎯sk쎯c쎯	-10.7302
hi쎯cbc쎯	-10.7304
j쎯et쎯	-10.7304
dm쎯tkw쎯쎂	-10.7305
r쎯dr쎯mj쎯	-10.7307
sm쎯kkd쎯w쎯	-10.7307
rfc쎯anb0쎯	-10.7308
tkh쎯。	-10.731
pq쎯	-10.7311
cd쎯xyna0쎯	-10.7311
uuj쎯syp쎯	-10.7311
srq쎯	-10.7311
,vca쎯	-10.7313
ihk쎯	-10.7314
gmww쎯ts쎯	-10.7315
dav쎯	-10.7315
fje쎯bj쎯	-10.7318
wc쎯xd쎯,	-10.7318
,tkw쎯se쎯	-10.7318
ythp0쎯tg쎯	-10.7319
vfb쎯su쎯	-10.7321
oqdo쎯ou쎯	-10.7321
txgi2쎯wxf쎯	-10.7322
uqwk쎯yqj쎯eb쎯tl쎯	-10.7323
rtol1쎯tkh쎯	-10.7323
iq쎯ime쎯	-10.7323
ynh쎯	-10.7324
jq쎯adwe1쎯	-10.7325
wxm쎯fcp쎯	-10.7325
tfq쎯qtd쎯	-10.7325
q쎯wc쎯ngk쎯	-10.7328
,lxx쎯wycb쎯	-10.7329
ugdu쎯cm쎯	-10.733
iwyf2쎯	-10.7332
yfj쎯syp쎯b쎯	-10.7334
tet쎯	-10.7334
sf쎯w쎯	-10.7335
knx쎯?	-10.7336
tgv쎯bd쎯“	-10.7336
mmgj쎯bwt쎯	-10.7336
sk쎯rf쎯xfn쎯v쎯nae쎯	-10.7337
vi쎯》	-10.7338
wt쎯yygy쎯	-10.7338
qi쎯lft쎯	-10.7339
gu쎯yy쎯oy쎯	-10.7339
flf1쎯dp쎯	-10.7339
ukn쎯dm쎯tkw쎯	-10.7341
awg쎯	-10.7341
rgd쎯bfw쎯	-10.7341
ia쎯ide쎯	-10.7345
lw쎯wc쎯ds쎯	-10.7345
nnh쎯pgn쎯	-10.7347
k쎯aw쎯ipk쎯km쎯,	-10.7347
r쎯anb0쎯sy쎯	-10.7348
xh쎯aqkr쎯	-10.7353
nnh쎯if쎯pe쎯fl쎯wf쎯	-10.7356
kma쎯	-10.7357
eu쎯gkh0쎯	-10.7365
dhv쎯	-10.7365
wy쎯wqbh쎯	-10.7366
d쎯jjjj쎯sg쎯	-10.7366
xfnh쎯	-10.7368
geq쎯eyni쎯	-10.7369
gef쎯mmm쎯	-10.737
쎆.쎅	-10.7371
tdkj쎯lt쎯	-10.7374
쎂쎀an쎯xn쎯	-10.7375
lfon0쎯	-10.7377
sss쎯ss쎯wc쎯lfq쎯	-10.7379
uym쎯	-10.7379
gkl쎯y쎯xyna0쎯	-10.7381
qajf쎯	-10.7389
of쎯	-10.7389
ua쎯ty쎯	-10.7395
iv쎯wynb쎯	-10.7397
,i쎯wcy2쎯	-10.74
쎁쎉쎃쎃rh쎯	-10.7401
fny쎯tu쎯ip쎯suq쎯	-10.7402
ip쎯pe쎯	-10.7404
ith쎯ght쎯ywf쎯	-10.7405
pj쎯sj쎯	-10.7411
nh쎯uwl쎯	-10.7411
mmm쎯、	-10.7411
g쎯xeg쎯	-10.7413
ii쎯jn쎯uh쎯	-10.7413
、usr쎯	-10.7417
go쎯yu쎯,	-10.742
l쎯n쎯x쎯iyj쎯	-10.7421
vb쎯dc쎯	-10.7421
nynn쎯	-10.7425
ubtf쎯tfkp쎯	-10.7425
,i쎯fp쎯	-10.7427
gah쎯ic쎯dd쎯ip쎯	-10.7428
gtu쎯dq쎯mq쎯	-10.7431
tjf쎯kfi쎯	-10.7432
wycm0쎯nf쎯r쎯	-10.7432
쎃～	-10.7434
fq쎯w쎯	-10.7435
j쎯ww쎯	-10.7437
ep쎯ny쎯	-10.7439
k쎯adwe1쎯	-10.744
qgo쎯thg0쎯	-10.7441
aigh쎯	-10.7442
ayx쎯	-10.7443
yqa쎯uk쎯	-10.7443
uq쎯cep쎯wgj쎯tjh쎯,	-10.7446
yygy쎯sg쎯	-10.7449
dmj1쎯tj쎯qk쎯。	-10.745
pa쎯gkp쎯	-10.7451
lp쎯lwj쎯	-10.7452
kcy1쎯	-10.7452
gkl쎯ftbt쎯rep쎯,	-10.7453
jjjj쎯ygk쎯	-10.7454
qqqq1쎯thgf0쎯	-10.7455
dwy쎯	-10.7455
oge쎯ese쎯	-10.7456
rnp쎯ad쎯sgc쎯	-10.7458
wsg0쎯tgj쎯	-10.7458
rmhj쎯tfkp쎯um쎯	-10.7459
tjt쎯rmhj쎯	-10.746
r쎯py쎯wf쎯	-10.746
jft쎯	-10.7461
v쎯rvyo쎯	-10.7461
tffu쎯tf쎯og쎯	-10.7462
puv쎯xe쎯	-10.7462
r쎯ln쎯shn쎯	-10.7464
mt쎯fgh쎯	-10.7466
svc쎯	-10.747
jhnr쎯qie쎯	-10.747
yu쎯je쎯nnh쎯	-10.747
wbj쎯uu쎯gf쎯	-10.7471
pyg쎯tjh쎯	-10.7474
qje쎯tgh쎯	-10.7475
wx쎯wgk쎯tr쎯	-10.7475
(쎁).	-10.7476
puv쎯hi쎯	-10.7477
fy쎯	-10.748
ylf0쎯,adw쎯k쎯	-10.7481
쎁쎅wv쎯qkhh1쎯	-10.7482
vfhp1쎯ymc쎯,	-10.7483
gm쎯d쎯r쎯	-10.749
pw	-10.749
qwd쎯oanw쎯	-10.7491
wycm0쎯pum쎯	-10.7491
iujg0쎯	-10.7495
wbb쎯ylk2쎯	-10.7496
,vck쎯vfhp1쎯gf쎯	-10.7496
vkf1쎯kqm쎯	-10.7501
emc쎯ai쎯	-10.7501
synw쎯siq쎯	-10.7501
iv쎯tfqp쎯	-10.7503
g쎯hi쎯	-10.7503
sdm쎯umd0쎯	-10.7506
fgh쎯vt쎯	-10.7506
wc쎯jfd쎯,	-10.7507
ga쎯wbj쎯	-10.7507
eb쎯tl쎯、	-10.751
tqv쎯pg쎯ntg쎯	-10.751
tha쎯if쎯	-10.7512
f쎯gkp쎯	-10.7522
dgkf0쎯	-10.7522
wf쎯ta쎯	-10.7523
ybv쎯ton쎯	-10.7527
wgkb2쎯qk쎯o쎯	-10.7528
gq쎯ty쎯	-10.753
wdn쎯yv쎯r쎯	-10.7537
iit쎯iaj쎯	-10.7537
y쎯ick쎯	-10.7539
uck쎯	-10.7541
qgb쎯qje쎯	-10.7541
wk쎯ryn0쎯aq쎯	-10.7543
tuj쎯ujfj쎯r쎯	-10.7544
ith쎯uk쎯xe쎯	-10.7549
pg쎯nd쎯	-10.7549
tjgh2쎯	-10.755
ip쎯tg쎯r쎯	-10.7552
qtoy1쎯	-10.7552
qq쎯nfc쎯	-10.7557
dqe쎯yw쎯	-10.7559
vnu1쎯sfi쎯	-10.7561
qq쎯tyna2쎯	-10.7561
,e쎯r쎯	-10.7565
dm쎯ue쎯	-10.7568
jn쎯pym쎯ndj쎯《	-10.7568
qk쎯thgf0쎯	-10.757
sm쎯wsg0쎯	-10.757
uk쎯ait쎯	-10.7575
dm쎯tkw쎯xq쎯	-10.7576
i쎯epc쎯	-10.7576
mq쎯ynnd쎯	-10.7576
wv쎯gqje쎯	-10.7579
buk쎯	-10.7579
yaa쎯hko쎯	-10.7581
pei쎯sm쎯	-10.7583
usg쎯tgj쎯	-10.7583
e쎯bv쎯	-10.7586
rn	-10.7586
tgv쎯	-10.7588
tl쎯pu쎯	-10.7588
pb쎯xgu쎯	-10.7588
ukn쎯fay쎯	-10.7591
hv쎯tu쎯	-10.7591
ym쎯xe쎯k쎯ip쎯	-10.7596
cd쎯cm쎯	-10.7596
yi쎯yfn쎯	-10.7601
mmm쎯h쎯	-10.7605
kht쎯gn쎯	-10.7607
itx쎯fakg1쎯	-10.7608
isgg0쎯kc쎯	-10.7611
xg쎯h쎯	-10.7612
mq쎯fcu0쎯	-10.7612
(쎁쎈	-10.7613
쎂쎀wv쎯qkhh1쎯	-10.7615
tqf쎯	-10.7618
yyne쎯	-10.7619
qo쎯	-10.7619
쎁/	-10.762
ruj쎯	-10.762
atd쎯ip쎯wf쎯	-10.7621
ynky2쎯	-10.7622
bm쎯r쎯	-10.7623
쎃쎀wv쎯qkhh1쎯	-10.7623
pym쎯qe쎯	-10.7623
wc쎯www쎯	-10.7627
gqto1쎯	-10.7628
▁◎	-10.763
aig쎯eajd쎯	-10.7632
sgmk쎯	-10.7636
alw쎯ytyh쎯ymhj쎯	-10.7636
o쎯ad쎯dbm쎯	-10.7637
cbt쎯rfh0쎯	-10.764
bm쎯yam쎯	-10.764
thd쎯qd쎯tu쎯ip쎯	-10.7642
qkm쎯mw쎯	-10.7642
。wug1쎯gf쎯	-10.7643
rvyo쎯ii쎯	-10.7645
gg쎯wa쎯	-10.7646
qaj쎯ykg쎯	-10.7647
hx쎯qh쎯	-10.7648
gkl쎯ymhj쎯ta쎯	-10.765
쎁쎉쎄쎃rh쎯	-10.7651
awx쎯xyy0쎯	-10.7651
uqd0쎯adm쎯	-10.7656
sfh쎯alt쎯	-10.7656
fq쎯xg쎯jn쎯	-10.7656
bwff쎯	-10.7657
tffu쎯;	-10.7657
。쎁쎈	-10.7659
qtr쎯	-10.7659
rawk쎯vfhp1쎯	-10.7661
쎈eee쎯cd쎯lk쎯a쎯wt쎯	-10.7661
yy쎯if쎯。	-10.7663
-쎁쎀	-10.7664
pe쎯jn쎯	-10.7664
iytb0쎯ca쎯k쎯	-10.7664
gmww쎯mdfj쎯	-10.7665
kfi쎯uthp쎯	-10.7665
sf쎯mw쎯	-10.7668
r쎯an쎯lwj쎯	-10.7668
vcl쎯	-10.767
ral쎯xwf쎯	-10.7671
be쎯bj쎯	-10.7671
trf쎯e쎯r쎯	-10.7674
jb쎯ih쎯	-10.7677
siq쎯awx쎯	-10.7677
uyu쎯	-10.7679
k쎯ny쎯ih쎯ip쎯	-10.7682
pwfd쎯	-10.7683
a쎯ip쎯bpf쎯	-10.7684
ue쎯adwe1쎯	-10.7685
い	-10.7689
fq쎯ywx쎯	-10.7691
yoj쎯	-10.7694
qmq쎯tp쎯	-10.7694
mee쎯	-10.7696
,kw쎯	-10.7696
yfd쎯sf쎯	-10.7697
r쎯ai쎯sghg1쎯	-10.7698
isk쎯kkkk0쎯	-10.77
▁jn쎯idr쎯	-10.7702
kcg쎯?	-10.7704
pj쎯udjh쎯	-10.7704
nnh쎯gl쎯bpf쎯	-10.7705
。ld쎯o쎯	-10.7705
adj쎯tvfh1쎯pr쎯	-10.7705
mb쎯sfiu0쎯	-10.7706
▁hhhh쎯ue쎯	-10.7706
yxt쎯	-10.7707
mqb쎯gf쎯	-10.7707
▁f쎯fhg1쎯:	-10.7707
qit쎯	-10.7712
▁쎈	-10.7713
dnv1쎯fqb1쎯	-10.7713
vfhp1쎯ymc쎯t쎯	-10.7713
jf쎯adwe1쎯,	-10.7713
wc쎯ngk쎯d쎯	-10.7714
,wg쎯sf쎯	-10.7714
ylf0쎯。	-10.7714
um쎯lud쎯	-10.7716
r쎯jb쎯wffg쎯	-10.7719
쎀.쎉	-10.7722
sdy2쎯	-10.7723
ai쎯mq쎯	-10.7723
x쎯apk쎯gj쎯wynn3쎯,	-10.7724
p쎯uk쎯	-10.7724
sghg1쎯ic쎯	-10.7725
쎂쎀쎀쎄	-10.7727
ipkh1쎯ipkh1쎯	-10.7734
rkm쎯pd쎯	-10.7735
d쎯suq쎯ip쎯tg쎯	-10.7736
g쎯yy쎯	-10.7737
yao쎯	-10.7738
waw쎯ii쎯	-10.7743
adwe1쎯tffy0쎯	-10.7747
sk쎯et쎯gf쎯	-10.7747
k쎯ny쎯,	-10.7748
wgk쎯wt쎯py쎯	-10.775
puv쎯,	-10.7751
iv쎯qd쎯	-10.7752
gn쎯adw쎯wb쎯	-10.7752
nj쎯nj쎯	-10.7753
쎀.쎀쎀	-10.7753
sm쎯sa쎯ymc쎯tlf2쎯	-10.7754
mfc쎯	-10.7755
jmhn0쎯	-10.7757
wf쎯rn쎯	-10.776
ukn쎯yne쎯ovt쎯	-10.7768
쎁-쎂	-10.777
dm쎯qn쎯	-10.7771
:쎅	-10.7772
fm쎯wmj0쎯	-10.7778
α	-10.7779
。sve쎯rnd1쎯	-10.778
oge쎯dqe쎯	-10.7784
ith쎯tv쎯ipk쎯suq쎯	-10.7784
tv쎯wf쎯	-10.7787
j쎯wys쎯	-10.7787
ry쎯vfhp1쎯	-10.7788
ajd쎯adwr쎯tu쎯	-10.7789
ifw쎯lt쎯	-10.779
vbn쎯wu쎯	-10.7791
oja쎯v쎯	-10.7794
l쎯pe쎯g쎯xe쎯	-10.7795
eb쎯et쎯	-10.7796
gh쎯dm쎯	-10.7796
gk쎯pu쎯	-10.7797
、ggg1쎯	-10.7797
jo쎯fi쎯kkd쎯	-10.7797
tyna2쎯ywx쎯yygy쎯	-10.7797
bmg쎯	-10.7801
pww쎯kkd쎯	-10.7801
epqh쎯	-10.7802
gjq쎯vb쎯r쎯	-10.7802
waj쎯jtyq0쎯	-10.7803
it쎯qt쎯	-10.7803
ugm쎯yo쎯	-10.7804
kkd쎯pn쎯	-10.7804
r쎯tg쎯u쎯	-10.7805
,j쎯mh쎯	-10.7807
▁『	-10.7812
ght쎯ick쎯uk쎯	-10.7813
wgk쎯ec쎯ymhj쎯	-10.7816
k쎯l쎯w쎯n쎯dd쎯ip쎯	-10.7818
tmf쎯	-10.7818
,kha쎯yb쎯	-10.7819
mq쎯sm쎯	-10.782
yth쎯	-10.7823
jfc쎯tg쎯	-10.7823
wvd쎯v쎯r쎯	-10.7824
ddh쎯	-10.7824
dd쎯uyh쎯	-10.7826
vck쎯xtu쎯jcf쎯rf쎯	-10.7826
i쎯yv쎯	-10.7827
rryf쎯	-10.783
쎁쎉쎂쎉rh쎯	-10.7831
rbcc쎯wqj쎯sm쎯	-10.7832
xfg쎯	-10.7838
nnnn쎯x쎯dn쎯o쎯	-10.7841
mw쎯ibi쎯	-10.7842
rab쎯	-10.7842
imkf1쎯nnh쎯	-10.7843
。ige쎯	-10.7852
mh쎯k쎯l쎯	-10.7852
d쎯p쎯	-10.7853
wy쎯thn쎯txi쎯xyc쎯	-10.7854
pp쎯uthp쎯	-10.7854
km쎯、	-10.7855
ywe쎯ick쎯	-10.7855
edjn쎯	-10.7855
iqgg쎯og쎯	-10.7857
dnv1쎯w쎯	-10.7859
dd쎯ip쎯ip쎯dl쎯	-10.786
cf쎯rt쎯	-10.7862
tx쎯g쎯pe쎯	-10.7862
da쎯dk쎯。	-10.7864
wht쎯ys쎯	-10.7868
oo쎯、	-10.7869
puhc쎯ygu쎯o쎯“	-10.787
vtg쎯qk쎯	-10.787
rmhj쎯wt쎯r쎯	-10.7871
wwj쎯wfhg쎯。	-10.7872
ucw쎯a쎯	-10.7874
vc쎯	-10.7876
lh쎯yy쎯	-10.7876
tgj쎯wht쎯	-10.7877
yid쎯iv쎯	-10.788
bukn쎯je쎯	-10.788
stx쎯awx쎯	-10.7882
,i쎯on쎯	-10.7886
sfi쎯uwy1쎯r쎯	-10.7887
dwiu쎯mmm쎯	-10.7887
qtjh0쎯bb쎯	-10.789
kuq쎯	-10.7891
wc쎯ngk쎯,	-10.7892
sve쎯sg쎯	-10.7892
쎀°	-10.7893
dm쎯h쎯	-10.7897
ipk쎯ukn쎯fc쎯	-10.7901
fq쎯ovt쎯	-10.7907
sm쎯sa쎯rmhj쎯tfkp쎯	-10.791
rvl쎯	-10.791
td쎯qk쎯ya쎯	-10.791
rmn쎯bqv쎯	-10.7911
go쎯idr쎯gf쎯	-10.7915
tmo쎯fcp쎯	-10.7915
qkk쎯wgk쎯qqqq1쎯	-10.7916
▁hx쎯	-10.7917
tu쎯tu쎯ta쎯	-10.7918
yce쎯w쎯	-10.792
wycm0쎯nf쎯w쎯	-10.792
adjd쎯	-10.7925
tfqp쎯yce쎯	-10.7925
v쎯nae쎯,	-10.7927
쎁쎉쎃쎄rh쎯	-10.7927
ftbt쎯yce쎯a쎯wt쎯	-10.7928
xyna0쎯tkgg0쎯	-10.7929
whf쎯og쎯yygy쎯wx쎯	-10.793
f0쎯	-10.7931
,wgkq0쎯tj쎯	-10.7932
wgku1쎯fnrt쎯	-10.7932
^	-10.7934
fwf쎯wa쎯	-10.7934
hjj쎯fha쎯r쎯	-10.794
j쎯cf쎯	-10.7942
xk쎯dd쎯	-10.7942
ydx쎯	-10.7945
ith쎯uthp쎯	-10.7945
jh쎯d쎯	-10.7945
ym쎯xe쎯bk쎯tq쎯	-10.7947
de쎯m쎯	-10.7949
cep쎯wwwk쎯	-10.7949
f쎯qk쎯	-10.7951
aa쎯r쎯	-10.7956
,f쎯gj쎯wug1쎯lfhf쎯	-10.7958
xtk쎯	-10.7958
,tm쎯	-10.7962
wf	-10.7964
aje쎯	-10.7964
ytf쎯sk쎯ygh쎯	-10.7966
amw쎯mmm쎯	-10.7968
iry쎯v쎯	-10.7968
i쎯jqr쎯	-10.7971
ghg1쎯	-10.7971
a쎯um쎯tp쎯gj쎯	-10.7978
,c쎯“	-10.7978
suh쎯	-10.798
bs쎯ru쎯wr쎯	-10.7983
trf쎯u쎯	-10.7983
dr쎯ou쎯:	-10.7985
bm쎯thgc쎯。	-10.7986
iffg쎯	-10.7989
pu쎯hka쎯	-10.7989
,bn쎯e쎯	-10.799
p쎯wug1쎯	-10.799
fk쎯wb쎯	-10.7991
m쎯jf쎯bn쎯	-10.7991
,e쎯jf쎯	-10.7992
ooo쎯eve쎯	-10.7994
gmap쎯gc쎯	-10.7995
pum쎯	-10.7997
rqcf0쎯	-10.7999
、wg쎯l쎯	-10.8
nty1쎯tq쎯	-10.8001
k쎯l쎯wfny0쎯xyc쎯	-10.8001
ile쎯	-10.8001
dj쎯ya쎯	-10.8001
쎁쎆쎀쎀	-10.8002
mta쎯	-10.8005
ee쎯	-10.8006
wgj쎯j쎯	-10.8006
yw쎯pg쎯	-10.8007
iyjh쎯jtyq1쎯kkd쎯	-10.8009
yte쎯	-10.8009
쎁쎂wh쎯	-10.8009
yy쎯qf쎯	-10.8009
u쎯tg쎯b쎯	-10.801
gyt쎯y쎯wtf쎯	-10.8012
vtg쎯qa쎯	-10.8013
r쎯ytd쎯	-10.8014
gajh쎯gk쎯	-10.8014
ae쎯qde쎯	-10.8015
ym쎯ige쎯	-10.8016
dn쎯ddu0쎯	-10.8017
ip쎯sy쎯uq쎯iyc쎯	-10.8018
uqd0쎯”	-10.8018
kkd쎯wrh2쎯	-10.8019
ip쎯fny쎯og쎯	-10.802
쎄쎅쎀	-10.8022
srg쎯ss쎯	-10.8023
xyna0쎯kgn쎯	-10.8023
kkkk0쎯dgkn쎯	-10.8024
ep쎯vb쎯	-10.8031
kw쎯fdm쎯	-10.8037
iy쎯tmdf1쎯	-10.8037
tem쎯r쎯	-10.8039
x쎯qie쎯um쎯	-10.8039
쎃kgn쎯	-10.8041
wn쎯fqb1쎯	-10.8041
udi쎯,	-10.8042
ue쎯imk쎯	-10.8042
ugdu쎯kfi쎯	-10.8045
sh쎯xx쎯	-10.8045
rxj쎯wyc쎯	-10.8045
yceh1쎯	-10.8045
tx쎯g쎯qk쎯	-10.8046
rmc쎯jyie쎯	-10.8047
m쎯ujn쎯	-10.8049
g쎯mhg쎯	-10.805
rap쎯bm쎯	-10.805
wycm0쎯fakg1쎯。	-10.8053
rdj쎯ii쎯	-10.8054
isf쎯	-10.8055
pfq쎯ugdu쎯r쎯	-10.8056
g쎯wh쎯w쎯	-10.8056
wvm쎯ls쎯	-10.8057
,tq쎯o쎯	-10.8059
。px쎯j쎯	-10.806
jo쎯tj쎯	-10.8061
y쎯wtf쎯。	-10.8061
r쎯v쎯nae쎯,	-10.8066
w쎯cd쎯	-10.8067
p쎯od쎯	-10.8067
tdkj쎯ce쎯wx쎯	-10.8069
qynm1쎯h쎯	-10.8069
amyn0쎯	-10.807
mw쎯f쎯	-10.807
ntg쎯。	-10.807
cbj쎯c쎯	-10.8071
:쎀쎀	-10.8073
fj쎯nae쎯	-10.8074
qwy1쎯	-10.8077
tdij쎯xfm쎯	-10.8078
、ymhj쎯	-10.8078
wxj쎯mmm쎯ymhj쎯	-10.8078
wgej1쎯	-10.8079
fhw쎯ydn쎯	-10.808
dyi쎯fw쎯	-10.8082
n쎯www쎯	-10.8083
vq쎯pynn0쎯	-10.8085
dl쎯kq쎯yygy쎯wx쎯	-10.8088
me쎯tu쎯	-10.8089
。’”	-10.809
ck쎯,	-10.8091
ypt쎯	-10.8092
bm쎯thgc쎯r쎯	-10.8095
xft쎯	-10.8096
ge쎯je쎯	-10.8097
wk쎯bg쎯	-10.8098
if쎯w쎯	-10.81
jn쎯a쎯	-10.8103
,fm쎯	-10.8105
ga쎯es쎯	-10.8108
e쎯pei쎯yne쎯	-10.811
ii쎯h쎯	-10.8111
”tq쎯kgn쎯。	-10.8111
sk쎯ep쎯	-10.8113
gr쎯itx쎯	-10.8113
쎃.쎂	-10.8116
f쎯rvyl쎯	-10.8116
ryj쎯	-10.8117
pa쎯ya쎯	-10.8121
rrp쎯	-10.8123
psu쎯·	-10.8124
pr쎯pt쎯	-10.8126
iry쎯nge쎯	-10.8127
uq쎯lwj쎯	-10.8128
wdt쎯if쎯	-10.813
tjh쎯gog쎯	-10.8132
。lpdk0쎯	-10.8133
fhn쎯b쎯	-10.8134
mw쎯pww쎯qn쎯rtd쎯	-10.8135
reh쎯e쎯g쎯fc쎯	-10.8138
vd쎯vyv쎯	-10.8139
fffy쎯vfhp1쎯	-10.8139
iy쎯mm쎯uqwm0쎯sg쎯	-10.814
ynm쎯dmh쎯	-10.8141
qq쎯qk쎯	-10.8143
gkl쎯egc쎯ta쎯	-10.8143
lk쎯dd쎯	-10.8144
fj쎯wx쎯	-10.8147
kkk쎯thgf0쎯。	-10.8147
rf쎯e쎯	-10.8149
adu1쎯	-10.8149
dd쎯fny쎯ip쎯dl쎯	-10.815
god쎯yak쎯	-10.8153
tg쎯。	-10.8153
rhyc1쎯	-10.8154
쎅°C	-10.8154
uv쎯	-10.8155
ip쎯wf쎯wf쎯km쎯	-10.8156
gkm쎯ty쎯	-10.816
(쎃)	-10.8162
yn쎯·	-10.8163
쎁、	-10.8165
qyv쎯	-10.8168
ywx쎯syp쎯	-10.8171
uy쎯wh쎯	-10.8172
cbts0쎯lqw쎯	-10.8174
pei쎯og쎯uk쎯	-10.8176
f쎯eerq쎯	-10.8176
pjm쎯	-10.8177
ux쎯dd쎯	-10.8178
ngk쎯wyc쎯uk쎯	-10.8178
cf쎯dm쎯	-10.8181
fct쎯ey쎯	-10.8183
w쎯,k쎯aw쎯ipk쎯km쎯,	-10.8184
qh쎯fpm쎯	-10.8185
iytb0쎯fmk쎯	-10.8187
yid쎯qvn2쎯	-10.8188
-쎁쎆	-10.8189
ts쎯wgq쎯	-10.8189
mw쎯ymc쎯	-10.819
쎂-쎃	-10.8191
ue쎯go쎯	-10.8193
dm쎯tkw쎯쎅	-10.8195
pv쎯lfhf쎯	-10.8196
i쎯peg쎯	-10.8198
dhb쎯d쎯r쎯	-10.8198
,rj쎯waw쎯	-10.8199
g쎯dm쎯	-10.82
ugdu쎯iyt0쎯	-10.82
fwm쎯pg쎯r쎯	-10.8201
i쎯fdm쎯s쎯	-10.8205
gdk쎯	-10.8205
ide쎯ir쎯	-10.8208
r쎯al쎯ce쎯	-10.8208
shn쎯s쎯	-10.8209
쎁.쎇	-10.821
ogm쎯	-10.821
ii쎯rfm쎯	-10.8211
gkip2쎯yx쎯	-10.8211
qv쎯bc쎯	-10.8211
rdn쎯	-10.8212
v쎯ugm쎯	-10.8213
ijo쎯f쎯	-10.8215
axj쎯	-10.8217
ygk쎯yyy쎯ip쎯	-10.8217
qd쎯dmj1쎯	-10.822
twik쎯	-10.8223
쎆쎀쎀쎀	-10.8224
jy쎯tfl쎯qfhw0쎯	-10.8225
egi쎯	-10.8227
py쎯wf쎯ip쎯	-10.8228
fp쎯tkgg0쎯k쎯,	-10.8234
adm쎯hhhh쎯。	-10.8235
gkl쎯bpf쎯ta쎯	-10.8235
mq쎯fghy2쎯	-10.8235
dj쎯dnv1쎯	-10.8236
dd쎯lpk0쎯ymhj쎯	-10.8241
itd쎯inty쎯	-10.8244
th쎯th쎯ta쎯	-10.8245
tg쎯jjjj쎯	-10.8245
,sghg1쎯	-10.8246
5	-10.8247
gfi쎯fnrt쎯	-10.8248
gr쎯pgy쎯	-10.8253
rng0쎯	-10.8256
iak쎯ivc쎯	-10.8257
r쎯hhhh쎯sfi쎯	-10.8258
sjx쎯	-10.8259
yfj쎯qev쎯	-10.826
thc쎯hx쎯	-10.8261
usr쎯xtd쎯	-10.8262
н	-10.8264
tnb쎯	-10.8264
nr쎯	-10.8265
ftbt쎯ip쎯a쎯wt쎯	-10.8267
fgf쎯	-10.8268
fggh쎯gk쎯	-10.8269
yy쎯if쎯,	-10.8273
쎅쎀%	-10.8274
yid쎯lt쎯	-10.8275
alq쎯hhy쎯	-10.8276
gkih쎯yjj0쎯	-10.8277
rcbs쎯	-10.8279
dgv쎯elw쎯	-10.8281
pe쎯fl쎯wf쎯	-10.8282
ujfj쎯ma쎯	-10.8283
tqv쎯pg쎯r쎯	-10.8284
′′	-10.8284
dgtg쎯udi쎯	-10.8288
y쎯lw쎯r쎯	-10.8288
wc쎯jfd쎯。	-10.829
qev쎯toc쎯:	-10.8291
trf쎯bmg쎯	-10.8292
g쎯pg쎯s쎯	-10.8293
nge쎯ab쎯	-10.8294
쎉kgn쎯	-10.8297
dga쎯yfy1쎯wf쎯	-10.83
ooo쎯lg쎯	-10.8301
wdn쎯rfm쎯r쎯	-10.8302
vvv쎯y쎯qe쎯	-10.8302
ry쎯xt쎯	-10.8304
fgh쎯wtu쎯	-10.8305
tmd쎯ym쎯	-10.8306
gm쎯wa쎯wx쎯r쎯	-10.8306
ujn쎯ln쎯	-10.8307
ukh쎯pwd쎯	-10.8308
qtgf2쎯	-10.8308
dlf쎯	-10.8312
sghg1쎯ide쎯	-10.8313
thd쎯ick쎯ytyh쎯	-10.8314
gd쎯rnb쎯	-10.8319
yiu쎯ndj쎯	-10.8321
vi쎯rmhj쎯	-10.8321
dd쎯ip쎯yygy쎯wx쎯	-10.8322
ukn쎯xg쎯	-10.8323
sk쎯pww쎯xmw쎯	-10.8325
awx쎯ycb쎯	-10.8326
,kw쎯e쎯	-10.8326
tu쎯rfc쎯wbj쎯usr쎯	-10.8327
gk쎯adm쎯	-10.8327
n1쎯	-10.8328
fa쎯wsg0쎯	-10.8329
fh쎯gc쎯	-10.8332
sfhg쎯sri쎯	-10.8333
ue쎯tmd쎯o쎯	-10.8334
if쎯jgm쎯	-10.8335
r쎯wug1쎯lfhf쎯	-10.8337
usr쎯w쎯	-10.8338
ukn쎯ptkm0쎯	-10.834
ww쎯hx쎯	-10.8341
et쎯yne쎯r쎯	-10.8343
xe쎯klj쎯	-10.8343
r쎯i쎯m쎯	-10.8344
ukn쎯a쎯tkgg0쎯jgm쎯	-10.8345
tg쎯u쎯lk쎯a쎯	-10.8346
dga쎯pwv쎯yy쎯tm쎯o쎯	-10.8346
tdp쎯iv쎯	-10.8349
pp쎯k쎯,	-10.8349
tffu쎯pei쎯wt쎯tr쎯	-10.835
ua쎯djd쎯	-10.8353
efg0쎯	-10.8353
h쎯ymhj쎯wc쎯ngk쎯	-10.8354
rwye1쎯gkp쎯	-10.8357
qq쎯w쎯	-10.8358
tol쎯alkf0쎯	-10.8359
dl쎯kq쎯whtn1쎯qy쎯	-10.836
r쎯tp쎯gj쎯	-10.8362
tr쎯gj쎯ip쎯	-10.8363
dd쎯fny쎯	-10.8364
qk쎯jgm쎯	-10.8365
fh쎯xg쎯	-10.8366
wfi쎯pynn1쎯	-10.8366
v쎯tg쎯d쎯	-10.8367
c쎯fm쎯	-10.8367
wt쎯ftj쎯:	-10.837
gq쎯o쎯	-10.8373
ige쎯bwt쎯	-10.8373
yjj0쎯wg쎯	-10.8374
okk쎯	-10.8374
sm쎯xeg쎯	-10.8375
"、"	-10.8377
udv쎯	-10.8379
ftj쎯r쎯	-10.8381
,gm쎯d쎯uqt쎯lt쎯gf쎯	-10.8383
tkh쎯,	-10.8384
,aw쎯e쎯	-10.8385
、ba0쎯	-10.8385
▁◆	-10.8386
cy쎯f쎯	-10.8386
dn쎯uu쎯,	-10.8386
efw쎯	-10.8387
wv쎯fc쎯	-10.8388
r쎯ywe쎯ick쎯	-10.839
r쎯wfny0쎯xyc쎯	-10.839
k쎯l쎯dd쎯bfm쎯	-10.839
lx쎯yf쎯	-10.8392
wxj쎯mmm쎯	-10.8392
jb쎯usr쎯r쎯	-10.8396
wgj쎯gf쎯	-10.8399
tg쎯dyn쎯ggi쎯fuj쎯	-10.84
wbj쎯tfkp쎯b쎯	-10.8402
img쎯lll쎯	-10.8404
iu쎯aqrn0쎯	-10.8404
gqr쎯	-10.8405
wc쎯ngk쎯reh쎯e쎯	-10.8414
ny쎯vo쎯	-10.8414
oy쎯。	-10.8416
maw쎯ahty쎯	-10.8417
ssss쎯rfm쎯	-10.8418
dgkf0쎯yny0쎯	-10.842
scbk쎯	-10.8423
:쎁쎀	-10.8424
lfn쎯wx쎯	-10.8427
vpq쎯	-10.843
gad쎯	-10.843
an쎯lwj쎯dd쎯hka쎯	-10.8432
tkw쎯lx쎯b쎯dh쎯pgk쎯	-10.8433
mmm쎯sf쎯	-10.8434
bm쎯gm쎯b쎯	-10.8435
g쎯uth쎯	-10.8436
mq쎯ii쎯	-10.8436
dga쎯pwv쎯km쎯,	-10.8436
sdm쎯uk쎯	-10.8437
pfi쎯xj쎯	-10.8438
fg쎯adwe1쎯	-10.844
ktm쎯yid쎯	-10.844
lu쎯vb쎯	-10.8443
ddi쎯	-10.8443
r쎯gm쎯wa쎯wx쎯	-10.8443
dn쎯ygk쎯	-10.8445
jb쎯ym쎯r쎯	-10.8446
trf쎯qc쎯r쎯	-10.8446
gq쎯lg쎯	-10.8446
gh쎯go쎯	-10.8446
xyy0쎯qnth쎯	-10.8446
▁ad쎯sg쎯cd쎯ovt쎯	-10.8447
adnt1쎯ytt쎯	-10.8448
▁쎆.	-10.8449
a쎯anb0쎯kkk쎯	-10.8452
wv쎯klj쎯o쎯	-10.8455
rgw쎯lft쎯	-10.8457
gn쎯adw쎯	-10.846
qmq쎯src쎯	-10.846
qr쎯uthp쎯	-10.8462
yy쎯dm쎯,	-10.8464
gkl쎯y쎯wtf쎯。	-10.8464
uqwm0쎯idr쎯,	-10.8465
ipkh1쎯rh쎯	-10.8469
bfq쎯	-10.8469
bg쎯iww쎯	-10.8471
djfd쎯oy쎯	-10.8473
iq쎯icf쎯	-10.8474
yss쎯sgy쎯	-10.8478
wyf0쎯tlf2쎯	-10.8478
tv쎯ipkh1쎯tv쎯、	-10.8479
▁wb쎯	-10.8482
rfc쎯sy쎯ga쎯v쎯	-10.8482
wty쎯qe쎯	-10.8482
tdg1쎯adwe1쎯	-10.8483
tg쎯ugv쎯	-10.8484
fgig쎯	-10.8486
pp쎯rn쎯	-10.8487
,yge쎯	-10.8488
。et쎯gf쎯	-10.849
ck쎯ux쎯	-10.849
usr쎯lh쎯pl쎯	-10.8491
iry쎯ddnl쎯	-10.8491
ip쎯suq쎯。	-10.8492
bib쎯rep쎯	-10.8495
wyn쎯fhw쎯	-10.8497
j쎯l쎯mw쎯	-10.8501
qq쎯fqb1쎯	-10.8502
vv쎯u쎯tu쎯	-10.8502
r쎯dty쎯gk쎯。	-10.8502
adh쎯	-10.8503
dx쎯udi쎯whf쎯og쎯	-10.8504
uxe쎯dm쎯	-10.8505
gkl쎯ftbt쎯rep쎯。	-10.8507
ap쎯yss쎯	-10.8508
oug쎯bb쎯	-10.851
ee	-10.8511
usgp1쎯	-10.8513
ooo쎯tue쎯	-10.8514
ycb쎯gq쎯	-10.8514
;쎁	-10.8518
ip쎯ipkf0쎯	-10.8519
tx쎯gg쎯nm쎯	-10.852
god쎯st쎯r쎯	-10.8521
trf쎯gqr쎯r쎯	-10.8524
。bde쎯udh쎯	-10.8524
(-	-10.8525
k쎯l쎯wt쎯pe쎯fl쎯wf쎯	-10.8526
、ii쎯	-10.8526
bpx쎯	-10.8529
gk쎯。	-10.8529
thd쎯ick쎯	-10.8532
ftbt쎯tkgg0쎯	-10.8533
r쎯wy쎯thn쎯	-10.8533
uvo쎯pww쎯	-10.8536
r쎯pv쎯wg쎯	-10.8536
dj쎯wgk쎯	-10.8536
tjt쎯vs쎯r쎯	-10.854
쎁/쎃	-10.8541
d쎯adw쎯	-10.8541
pwf쎯	-10.8542
khr쎯	-10.8542
sghg1쎯wmj0쎯	-10.8544
,m쎯jf쎯bn쎯	-10.8544
fqb1쎯wa쎯	-10.8545
r쎯dr쎯ld쎯	-10.8547
fm쎯ps쎯ymhj쎯	-10.8547
pfjm1쎯tb쎯	-10.8549
bb쎯。	-10.8551
[	-10.8552
fj쎯bc쎯	-10.8555
uu쎯if쎯	-10.8556
jgm쎯ww쎯	-10.8557
pk쎯tfpd쎯	-10.8558
go쎯r쎯	-10.8559
、eb쎯tl쎯	-10.856
jcf쎯rf쎯c쎯	-10.8563
bb쎯wc쎯ngk쎯	-10.8563
ftxu0쎯	-10.8567
wgkg0쎯	-10.8569
usgd0쎯pg쎯b쎯	-10.857
쎃.쎁	-10.8573
쎂쎀쎁쎄rh쎯	-10.8573
dr쎯sft쎯ou쎯	-10.8573
,p쎯wh쎯	-10.8577
r쎯mqq쎯xtk쎯	-10.8579
pp쎯kht쎯	-10.858
rrqc쎯	-10.8581
fg쎯tffu쎯uqd0쎯。	-10.8581
lfq쎯anb0쎯	-10.8582
hhu0쎯ru쎯	-10.8585
he쎯pg쎯	-10.8585
r쎯rn쎯e쎯	-10.8585
tg쎯u쎯dgt1쎯pe쎯	-10.8586
,et쎯gf쎯	-10.8588
awx쎯ur쎯	-10.8589
yu쎯ytd쎯	-10.859
yygy쎯bu쎯	-10.8593
mqq쎯xtk쎯apk쎯qie쎯	-10.8594
bfm쎯xfn쎯	-10.8594
src쎯、	-10.8596
lk쎯ty쎯k쎯l쎯aw쎯u쎯	-10.86
uqt쎯js쎯。	-10.8603
gd쎯yygy쎯	-10.8604
rcw쎯	-10.8605
dm쎯eerq쎯	-10.8607
,bwt쎯	-10.861
,tjh쎯et쎯	-10.8613
。mh쎯	-10.8614
iyc쎯ii쎯	-10.8615
dx쎯uyh쎯	-10.8617
쎂/	-10.8617
rpws쎯imj쎯	-10.8617
wg쎯ta쎯	-10.8617
cf쎯yid쎯	-10.8618
tfq쎯rg쎯wtf쎯	-10.8618
bmg쎯yge쎯	-10.8619
tm쎯ue쎯	-10.8624
r쎯g쎯hxf쎯	-10.8625
fm쎯egc쎯	-10.8625
sm쎯sq쎯nty1쎯af쎯	-10.8625
,xf쎯wgk쎯	-10.8626
fp쎯r쎯	-10.8627
cqy쎯mww쎯	-10.8628
oqdo쎯rnb쎯	-10.8629
쎀)	-10.863
ygu쎯o쎯“	-10.8632
,wg쎯	-10.8635
tffu쎯qq쎯adm쎯	-10.8636
-쎂쎀	-10.864
r쎯gj쎯ywx쎯	-10.864
qtj쎯uu쎯r쎯	-10.864
ty쎯kkkk0쎯	-10.864
hep쎯uj쎯	-10.8641
fnr쎯qi쎯	-10.8643
pp쎯gh쎯	-10.8644
pyb1쎯	-10.8645
쎃.쎃	-10.8647
tevc쎯	-10.8649
w쎯dd쎯ipkh1쎯tv쎯	-10.8649
saj쎯aa쎯,	-10.865
mmv쎯qt쎯	-10.8651
lj쎯	-10.8655
oge쎯pyj쎯,	-10.8656
qnqn쎯	-10.8657
dm쎯lft쎯	-10.8657
de	-10.8658
thgc쎯)	-10.8661
yy쎯aa쎯,	-10.8663
ajt쎯ah쎯	-10.8664
pp쎯pe쎯	-10.8666
ypt쎯oy쎯	-10.8666
trfh0쎯	-10.8666
ufy쎯lhnh쎯	-10.8668
dd쎯m쎯	-10.867
qmq쎯xf쎯sq쎯	-10.8672
(쎄	-10.8676
rg쎯wtf쎯	-10.8676
,uq쎯cep쎯wgj쎯tjh쎯	-10.8676
xe쎯a쎯tkgg0쎯jgm쎯。	-10.8677
xg쎯ts쎯	-10.8678
ihi쎯qh쎯	-10.868
yw쎯td쎯	-10.8682
ncd쎯	-10.8683
lu쎯ym쎯r쎯	-10.8685
p쎯yww쎯	-10.8686
qqqq1쎯mmm쎯	-10.8686
vcb쎯dn쎯。	-10.8688
ipg쎯anb0쎯	-10.8688
ipk쎯suq쎯	-10.8688
sx쎯	-10.8689
udbb쎯,	-10.869
sm쎯sq쎯,	-10.869
r쎯dga쎯v쎯	-10.869
sam쎯tm쎯	-10.869
w쎯d쎯	-10.8691
dga쎯pwv쎯。	-10.8694
ih쎯yu쎯《	-10.8694
vk쎯gh쎯	-10.8695
ix쎯	-10.8699
sp쎯	-10.8699
rn쎯fdm쎯	-10.8702
쎁쎉쎂쎇rh쎯	-10.8705
fn쎯drin쎯ftj쎯	-10.8707
h쎯iytb0쎯	-10.8708
oqm쎯	-10.8709
ftbt쎯ip쎯gyt쎯	-10.871
yt쎯tmdf1쎯	-10.871
lkd쎯l쎯	-10.8711
m쎯od쎯	-10.8712
cccf2쎯	-10.8716
k쎯fm쎯	-10.8717
wgk쎯wt쎯,	-10.8719
qh쎯ge쎯	-10.8721
ipkh1쎯et쎯r쎯	-10.8722
w쎯n쎯if쎯bpf쎯	-10.8722
py쎯aq쎯wug1쎯gf쎯	-10.8722
lrj쎯	-10.8723
rqb0쎯	-10.8723
yff쎯yygy쎯	-10.8723
tu쎯pgc쎯	-10.8724
xdmd1쎯ql쎯	-10.8725
bd쎯qn쎯	-10.8726
mt쎯rh쎯	-10.8733
wgj쎯tjh쎯	-10.8733
qre쎯	-10.8736
iv쎯jv쎯	-10.874
bn쎯ce쎯	-10.8742
hv쎯quj쎯	-10.8744
lkd쎯jv쎯	-10.8748
ccw쎯	-10.8749
ige쎯rvyo쎯	-10.8751
sgjg쎯	-10.8751
y1쎯	-10.8753
bn쎯kn쎯	-10.8753
je쎯·	-10.8755
you1쎯tq쎯	-10.8757
uqwn0쎯kkd쎯	-10.8759
,vii쎯ntk쎯gf쎯	-10.8762
rrr쎯ae쎯	-10.8766
anf쎯	-10.8769
sfi쎯twgi쎯	-10.8769
tu쎯rfc쎯v쎯nae쎯	-10.877
ftjb쎯d쎯	-10.8772
v쎯gm쎯b쎯	-10.8772
sgw쎯	-10.8775
iwb쎯	-10.8775
r쎯qe쎯ya쎯	-10.8776
fc쎯iyc쎯	-10.8778
kht쎯kkkk0쎯	-10.8779
tffu쎯tffy0쎯	-10.8783
r쎯ga쎯v쎯	-10.8784
nty1쎯rmhj쎯	-10.8785
、l쎯pe쎯	-10.8785
rnp쎯sgc쎯	-10.8786
dgkn쎯fcl쎯	-10.8788
dnv1쎯ylf0쎯	-10.8791
yfj쎯yww쎯	-10.8791
tg쎯idf0쎯	-10.8792
yygy쎯wsg0쎯	-10.8793
r쎯kkk쎯thgf0쎯	-10.8793
rhb쎯	-10.8794
gn쎯tp쎯gj쎯	-10.8796
vvv쎯tg쎯	-10.8797
ndj쎯hhhh쎯	-10.8798
tf쎯,	-10.88
,jcf쎯rf쎯	-10.88
lt쎯fiy쎯	-10.88
thd쎯ip쎯	-10.8801
е	-10.8801
yvh쎯fje쎯	-10.8801
jjjj쎯rb1쎯》	-10.8801
ukn쎯w쎯kkkk0쎯	-10.8802
ptf쎯if쎯	-10.8802
wsg0쎯txi쎯,	-10.8803
kdh쎯	-10.8805
,iv쎯jf쎯	-10.8805
uduk쎯gf쎯	-10.8806
wsg0쎯gajf쎯	-10.8806
lfn쎯tm쎯	-10.8807
xnh쎯xwv쎯	-10.8807
r쎯ad쎯dbm쎯	-10.8807
gip쎯s쎯	-10.8809
,u쎯kkk쎯	-10.881
yx쎯wycm0쎯	-10.8814
i쎯nb쎯	-10.8814
쎂쎀dq쎯	-10.8814
lw쎯y쎯wtf쎯	-10.8814
ow쎯xxg0쎯	-10.8816
lw쎯wc쎯sov쎯	-10.8816
jtg쎯xe쎯	-10.8817
fgjg쎯	-10.8818
qyng쎯od쎯	-10.8819
wc쎯ngk쎯、	-10.882
tey쎯pw쎯wc쎯ngk쎯	-10.8821
lqw쎯wrh2쎯ga쎯v쎯	-10.8821
uq쎯tyg쎯	-10.8821
y쎯lt쎯	-10.8824
o쎯wqin쎯rj쎯waw쎯	-10.8824
hko쎯,	-10.8825
k쎯mmm쎯dd쎯ip쎯	-10.8828
qiu0쎯·	-10.8828
fff5쎯f쎯af쎯wgkb2쎯	-10.8829
w쎯ny쎯	-10.8831
tjt쎯iw쎯	-10.8833
ghd0쎯yq쎯	-10.8835
fcu1쎯an쎯	-10.8836
。m쎯rh쎯	-10.884
rfc쎯sy쎯fc쎯rf쎯	-10.8842
jde쎯jan쎯	-10.8842
wc쎯rtt쎯	-10.8844
쎄.쎀	-10.8845
wgk쎯if쎯	-10.8845
maf0쎯	-10.8849
rtf쎯sgmj쎯	-10.8849
rg쎯akgl쎯	-10.8852
tu쎯sfhg쎯tr쎯	-10.8852
cds쎯fghg쎯	-10.8853
lfn쎯yo쎯	-10.8853
▁fg쎯、	-10.8855
k0쎯	-10.8856
,bn쎯sk쎯c쎯	-10.886
ige쎯ssn쎯	-10.8861
ymhj쎯fnrt쎯x쎯iyj쎯	-10.8861
,ftjb쎯	-10.8862
w쎯n쎯bm쎯thgc쎯py쎯	-10.8863
쎂쎀%	-10.8863
《》	-10.8863
qqug0쎯	-10.8866
tg쎯u쎯a쎯anb0쎯	-10.8869
wdn쎯fha쎯,	-10.8869
sh쎯xf쎯wgk쎯	-10.887
uk쎯lftj쎯	-10.887
iux쎯	-10.8871
yssr쎯rpwi쎯	-10.8872
ipkh1쎯wygg쎯	-10.8873
tdu쎯	-10.8873
wvd쎯v쎯	-10.8875
gh쎯iytb0쎯	-10.8877
udg2쎯lc쎯	-10.888
uu쎯wsg0쎯fnr쎯	-10.888
쎃uqw쎯	-10.8881
ip쎯dl쎯,	-10.8881
vo쎯fcr쎯	-10.8882
ofd쎯oy쎯	-10.8882
io쎯ii쎯	-10.8883
tu쎯ip쎯r쎯	-10.8885
tgj쎯xeg쎯	-10.8885
lfhf쎯gf쎯	-10.8886
a쎯tkgg0쎯fny쎯og쎯	-10.8886
jc쎯xt쎯	-10.8887
dq쎯ru쎯	-10.8887
tmo쎯f쎯tjh쎯	-10.8887
∶	-10.8887
pyfc0쎯	-10.8888
ymf쎯rmhj쎯	-10.8888
puy쎯	-10.8888
ii쎯egc쎯	-10.8889
jtr쎯	-10.8889
rfc쎯sy쎯dga쎯pwv쎯	-10.8891
aus쎯	-10.8891
py쎯wf쎯lft쎯wsg0쎯	-10.8892
og쎯y쎯	-10.8892
nnh쎯》	-10.8893
j쎯o쎯b쎯	-10.8893
xp쎯wgk쎯tgh쎯	-10.8897
er쎯	-10.89
dmj1쎯yyy쎯	-10.8902
r쎯ym쎯tu쎯rfc쎯	-10.8903
lks쎯sq쎯	-10.8905
vfhp1쎯uu쎯r쎯	-10.8908
dyt쎯ysi쎯	-10.8908
쎂.쎆	-10.8909
hk쎯wycm0쎯	-10.8911
e쎯g쎯pg쎯r쎯	-10.8911
rqym쎯	-10.8912
usr쎯sghg1쎯uff쎯	-10.8913
sk쎯tfkd쎯ntg쎯	-10.8914
쎂uqw쎯	-10.8915
d쎯bk쎯dga쎯pwv쎯tg쎯	-10.8918
xx쎯pfjm1쎯k쎯	-10.8918
a쎯um쎯tf쎯ght쎯	-10.8921
kynw쎯kgkw쎯	-10.8922
,p쎯su쎯	-10.8923
aq쎯klj쎯	-10.8927
k쎯l쎯nnh쎯gl쎯	-10.8929
sk쎯wt쎯o쎯	-10.8929
um쎯ip쎯bpf쎯	-10.8929
。”je쎯	-10.8929
xx쎯tjh쎯jf쎯	-10.893
,tg쎯gf쎯	-10.893
lkd쎯pe쎯	-10.8934
d쎯g쎯wh쎯	-10.8935
dga쎯pwv쎯km쎯。	-10.8936
d쎯p쎯wh쎯	-10.8937
쎂.쎇	-10.8937
gu쎯yy쎯wc쎯jfd쎯	-10.8938
fm쎯bj쎯	-10.8939
adw쎯uj쎯	-10.8941
itp쎯rxj쎯	-10.8942
쎂w쎯,	-10.8943
wg쎯xte쎯	-10.8945
yngk0쎯maw쎯	-10.8947
р	-10.8947
쎉.	-10.8948
、fm쎯	-10.8948
ght쎯tv쎯	-10.895
,dqe쎯wk쎯	-10.8953
xry쎯	-10.8953
std쎯qfhw0쎯	-10.8954
rh쎯go쎯,	-10.8958
쎁쎉쎂쎈rh쎯	-10.8959
wg쎯dm쎯v쎯nae쎯	-10.8959
sou1쎯	-10.8962
dd쎯ds쎯	-10.8963
jc쎯wycb쎯	-10.8964
by쎯ywfw쎯	-10.8964
b쎯ytf쎯qq쎯	-10.8967
td쎯egc쎯	-10.8968
tjf쎯ae쎯	-10.8968
qgj쎯nfp쎯	-10.8969
gmww쎯dm쎯	-10.8969
k쎯atd쎯ip쎯bpf쎯	-10.897
tep쎯fp쎯	-10.897
wc쎯dmh쎯	-10.8972
av쎯pdhj쎯	-10.8974
j쎯rxj쎯d쎯	-10.8976
nkuy1쎯	-10.8977
egc쎯ta쎯	-10.8979
c쎯w쎯o쎯sg쎯	-10.898
tve쎯e쎯	-10.8981
ith쎯、ymhj쎯	-10.8982
(tuj쎯tq쎯	-10.8985
tmg1쎯oy쎯	-10.8986
et쎯r쎯	-10.8989
ws쎯thn쎯	-10.8989
u쎯kkk쎯od쎯gajf쎯:	-10.8989
ftbt쎯km쎯	-10.899
y쎯w쎯wc쎯	-10.8991
e쎯ytf쎯qq쎯	-10.8993
,px쎯wu쎯	-10.8993
tjt쎯qgb쎯	-10.8994
rdf1쎯iw쎯	-10.8995
dj쎯pe쎯	-10.8998
ue쎯bg쎯	-10.9
,p쎯jfd쎯	-10.9
bm쎯tg쎯d쎯	-10.9001
w쎯st쎯	-10.9003
qev쎯sr쎯	-10.9004
xq쎯쎂	-10.9005
e1쎯	-10.9005
j쎯sve쎯rnd1쎯	-10.9006
ick쎯pv쎯	-10.9007
,kj쎯qd쎯	-10.9007
you1쎯e쎯	-10.9008
쎉쎀%	-10.9008
sk쎯tfqp쎯	-10.9008
ntg쎯utd쎯ugm쎯	-10.9011
,txg쎯rh쎯	-10.9012
r쎯ce쎯lt쎯	-10.9012
r쎯ee쎯dc쎯	-10.9015
xwv쎯	-10.9016
ta쎯dd쎯	-10.9016
,ux쎯	-10.9017
pu쎯yk쎯	-10.9017
a쎯tkgg0쎯ymc쎯yf쎯	-10.9018
▁쎆	-10.9021
tmd쎯lp쎯	-10.9022
y쎯s쎯mw쎯pww쎯	-10.9024
ght쎯if쎯	-10.9024
aq쎯。	-10.9025
djde0쎯	-10.9025
gd쎯y쎯ftbt쎯	-10.9026
rymn쎯hka쎯	-10.9028
ovt쎯pb쎯wx쎯	-10.9028
fl쎯wf쎯wf쎯km쎯	-10.9028
usr쎯g쎯wa쎯	-10.9029
;d쎯	-10.903
qsu쎯pd쎯	-10.9033
tx쎯쎅	-10.9033
fjh0쎯tr쎯h쎯v쎯ge쎯	-10.9034
gmm쎯gde쎯	-10.9035
。cep쎯fp쎯	-10.9036
rvk쎯um쎯	-10.9036
kht쎯h쎯	-10.9036
─	-10.9039
tu쎯ta쎯	-10.904
o쎯pt쎯yne쎯	-10.9041
nh쎯aqt쎯	-10.9044
gkl쎯ukn쎯x쎯gj쎯	-10.9046
fm쎯ps쎯	-10.9047
k쎯l쎯iv쎯wa쎯	-10.9047
tk쎯thd쎯	-10.9048
r쎯fp쎯tkgg0쎯	-10.9048
wg쎯lt쎯	-10.9051
utdk쎯	-10.9055
r쎯wwj쎯st쎯	-10.9055
,ryl쎯ta쎯	-10.9056
nudu쎯fnud쎯	-10.9057
kht쎯dm쎯	-10.9058
ieb쎯mfky쎯	-10.9058
g쎯tffu쎯uqd0쎯。	-10.9059
rb1쎯》、《	-10.9059
ghd0쎯fwm쎯	-10.906
um쎯tl쎯isgg0쎯yhk쎯	-10.9061
쎂w쎯	-10.9065
ubk0쎯	-10.9065
xte쎯wug1쎯gf쎯	-10.9067
ran쎯xqc쎯	-10.9068
ipkh1쎯tl쎯tv쎯km쎯	-10.9068
d쎯suq쎯tg쎯	-10.907
ipr쎯itx쎯	-10.9071
f쎯src쎯	-10.9072
》)	-10.9076
wgku1쎯bfm쎯	-10.9076
j쎯l쎯pe쎯	-10.9076
fq쎯qc쎯	-10.9077
xn쎯wynn3쎯qnp쎯	-10.9077
suq쎯xe쎯	-10.9078
(gm쎯	-10.9081
rg쎯bg쎯	-10.9082
xyna0쎯ty쎯	-10.9083
j쎯q쎯wu쎯	-10.9083
rs쎯qgb쎯sm쎯	-10.9083
wv쎯int쎯	-10.9085
fp쎯iya쎯	-10.9087
pei쎯dl쎯	-10.9087
qk쎯atd쎯	-10.9089
ymc쎯uu쎯r쎯	-10.9089
dd쎯oy쎯	-10.909
ukn쎯uqwm0쎯u쎯	-10.9091
yygy쎯wx쎯uk쎯	-10.9091
o쎯sg쎯	-10.9092
d쎯l쎯mw쎯qh쎯	-10.9093
w쎯tq쎯	-10.9094
rfm쎯f쎯	-10.9095
gah쎯jj쎯	-10.9095
x쎯qyv쎯	-10.9096
txi쎯xyc쎯k쎯	-10.9096
ym쎯gf쎯	-10.9097
trh쎯kq쎯	-10.9099
emc쎯wwv쎯rmhj쎯	-10.91
e쎯g쎯pg쎯	-10.91
쎁gmww쎯	-10.9101
,rpv쎯	-10.9101
쎂쎀쎀쎁	-10.9106
mhny0쎯qiu0쎯	-10.9107
jtyl쎯gj쎯	-10.9107
nty1쎯yv쎯	-10.911
rfc쎯sy쎯r쎯	-10.9113
gkl쎯uk쎯ta쎯	-10.9113
dr쎯sg쎯	-10.9113
vef쎯	-10.9113
wv쎯dn쎯	-10.9114
wg쎯suq쎯	-10.9114
cbd쎯yf쎯	-10.9115
uce쎯adf쎯	-10.9116
dn쎯ybv쎯r쎯	-10.9116
jf쎯pw쎯	-10.9117
sh쎯wfny0쎯	-10.9118
y쎯s쎯qn쎯rtd쎯	-10.9119
tfk쎯jfd쎯	-10.9121
ty쎯uyh쎯	-10.9123
fcp쎯fcl쎯wf쎯	-10.9126
qm쎯awsk쎯	-10.9132
vfhp1쎯rmhj쎯	-10.9132
gik쎯	-10.9135
ucd쎯	-10.9135
gkl쎯tn쎯nnh쎯ta쎯	-10.9138
rwgk쎯	-10.9139
gn쎯v쎯nae쎯	-10.9139
cep쎯fp쎯cf쎯	-10.9142
cw쎯ya쎯	-10.9144
xyna0쎯tv쎯	-10.9146
r쎯tf쎯o쎯	-10.9147
(쎁쎉쎃	-10.9147
j쎯x쎯	-10.9149
yww쎯ait쎯gf쎯	-10.915
jf쎯ufy쎯	-10.9151
쎃.쎆	-10.9152
w쎯n쎯sw쎯pwfi쎯bpf쎯	-10.9154
yjjh1쎯、	-10.9155
pp쎯h쎯	-10.9156
dr쎯e쎯	-10.9158
tn쎯nnh쎯ta쎯	-10.9158
fcp쎯isk쎯	-10.9159
ygk쎯if쎯	-10.9161
bm쎯kkk쎯	-10.9162
rwye1쎯	-10.9163
yon쎯ep쎯	-10.9163
,vfb쎯tc쎯	-10.9164
i쎯td쎯uthp쎯	-10.9165
ymf쎯wtf쎯	-10.9166
n쎯ght쎯	-10.9166
g쎯m쎯	-10.9167
gjq쎯rq쎯	-10.9168
tg쎯u쎯x쎯apk쎯	-10.9169
jtyl쎯qtyd1쎯	-10.9172
。쎂쎀쎀쎆rh쎯	-10.9174
fk쎯pyu쎯	-10.9177
o쎯synw쎯ny쎯	-10.9182
to쎯tb쎯	-10.9183
av쎯rq쎯	-10.9185
fnr쎯iwyf2쎯	-10.9187
쎁—	-10.9189
kkkk0쎯drt쎯	-10.9192
,ggi쎯fuj쎯	-10.9193
bm쎯uthp쎯	-10.9194
scw쎯	-10.9195
ndj쎯bpf쎯	-10.9196
ic쎯wa쎯	-10.9196
▁qh쎯gae쎯	-10.9197
wlk쎯	-10.9199
xn쎯tv쎯nnh쎯yn쎯	-10.9199
pujs쎯	-10.9199
i쎯on쎯rj쎯ym쎯	-10.9199
it쎯uqf쎯	-10.9199
lfo	-10.92
h쎯yy쎯	-10.9201
.쎁쎂	-10.9201
d쎯mw쎯r쎯	-10.9203
pgy쎯dgtg쎯	-10.9205
qh쎯,gip쎯	-10.9208
pyg쎯ytyh쎯ymhj쎯	-10.9209
ryi쎯	-10.9209
w쎯fqu쎯nh쎯ty쎯	-10.921
hi쎯rgw쎯	-10.9211
xeg쎯ta쎯	-10.9211
by쎯ooo쎯	-10.9212
pgm쎯	-10.9214
aqt쎯l쎯pe쎯	-10.9214
ymf쎯ou쎯	-10.9214
dp쎯sfi쎯	-10.9217
bgk쎯yb쎯	-10.9217
,fh쎯gc쎯	-10.9219
wyv쎯yuo쎯	-10.9221
ㄣ	-10.9223
mqq쎯iytb0쎯	-10.9225
awx쎯qyng쎯	-10.9226
fm쎯cep쎯	-10.9228
sve쎯rnd1쎯f쎯	-10.923
dga쎯pwv쎯yy쎯tm쎯	-10.9231
waj쎯egl쎯	-10.9232
,adk쎯	-10.9233
nty1쎯qk쎯o쎯	-10.9234
ymhj쎯fnrt쎯h쎯	-10.9235
쎂%	-10.9235
pg쎯hko쎯	-10.9237
d쎯wynb쎯	-10.9239
r쎯x쎯cwg쎯	-10.924
kthh1쎯egc쎯	-10.924
kxe쎯	-10.9243
nge쎯ukq쎯gh쎯	-10.9245
j쎯ld쎯o쎯	-10.9245
pe쎯fl쎯wf쎯wf쎯km쎯、	-10.9246
cf쎯adw쎯	-10.9247
bn쎯ytf쎯	-10.9248
wtp쎯k쎯	-10.925
wys쎯wgk쎯	-10.9252
tf쎯og쎯fl쎯wf쎯	-10.9254
aqt쎯wg쎯l쎯	-10.9257
dny쎯	-10.9261
bo쎯	-10.9262
k쎯fny쎯	-10.9263
xl쎯gcft2쎯	-10.9264
ebf1쎯	-10.9265
mqq쎯j쎯	-10.9267
mmm쎯sdm쎯	-10.9269
dm쎯ou쎯	-10.927
mq쎯ijo쎯	-10.927
afwt1쎯	-10.9273
쎃%	-10.9273
wc쎯ngk쎯dn쎯uu쎯gf쎯	-10.9274
c쎯ux쎯	-10.9274
xww쎯bw쎯	-10.9275
fjn쎯	-10.9275
gw쎯khgm4쎯	-10.9277
d쎯q쎯l쎯	-10.9278
gj쎯mf쎯	-10.928
you1쎯wt쎯“	-10.9283
hx쎯nnh쎯	-10.9284
tffu쎯gf쎯	-10.9285
mmm쎯yfd쎯	-10.929
khgm4쎯bj쎯	-10.929
q0쎯	-10.9291
rmhj쎯yjjh1쎯	-10.9292
。rp쎯rh쎯go쎯,	-10.9294
。쎂쎀쎀쎅rh쎯	-10.9296
rnb쎯thn쎯	-10.9296
igd쎯lk쎯yjjh1쎯	-10.9296
fny쎯pe쎯,	-10.9297
쎀-	-10.9299
yopy1쎯	-10.9301
iq	-10.9302
p쎯tc쎯	-10.9303
mf쎯x쎯dd쎯ip쎯	-10.9304
fny쎯iy쎯	-10.9304
wc쎯gu쎯	-10.9306
tg쎯u쎯ymc쎯tlf2쎯	-10.9306
ijfg0쎯	-10.9308
>>	-10.9308
aqt쎯ith쎯	-10.9308
mmm쎯,	-10.9309
o쎯쎁	-10.9311
iy쎯ujf쎯:	-10.9313
쎁쎀.	-10.9314
uqd0쎯,	-10.9317
k쎯ny쎯。	-10.9317
bm쎯gm쎯r쎯	-10.9317
。isgg0쎯yhk쎯	-10.9318
rmhj쎯ys쎯	-10.9319
tg쎯wx쎯	-10.9321
mmqu쎯	-10.9322
ym쎯mtd쎯	-10.9322
sse쎯	-10.9323
。쎂쎀쎀쎇rh쎯	-10.9324
ftbt쎯wf쎯	-10.9325
rnn1쎯pu쎯	-10.9325
rvyo쎯jg쎯	-10.9325
с	-10.9325
gj쎯ywx쎯gn쎯	-10.9328
pp쎯th쎯	-10.9329
g쎯kgn쎯	-10.9332
▁쎂쎀쎀쎈rh쎯	-10.9332
qten0쎯	-10.9332
rfc쎯sy쎯wbj쎯usr쎯	-10.9332
cqy쎯oge쎯	-10.9334
td쎯qk쎯kkk쎯thgf0쎯	-10.9335
saq쎯xnf쎯	-10.9336
uwyc0쎯uai쎯	-10.9336
ndj쎯sg쎯	-10.9339
。wjg쎯j쎯	-10.934
ytt쎯thd쎯ick쎯aq쎯	-10.934
wdn쎯rfm쎯eb쎯tl쎯	-10.9341
mqu쎯,	-10.9342
dg쎯nfc쎯	-10.9342
dv쎯	-10.9343
yc쎯jn쎯	-10.9343
dgh쎯w쎯	-10.9345
r쎯wt쎯et쎯。	-10.9347
smm쎯	-10.9347
khgp0쎯yop쎯	-10.9349
pynn1쎯	-10.9349
ye쎯eb쎯	-10.9351
tfkf1쎯yr쎯	-10.9351
tfk쎯dnv1쎯	-10.9351
ujfj쎯g쎯	-10.9353
fq쎯sm쎯	-10.9353
e쎯tve쎯qq쎯	-10.9353
nkuf쎯gl쎯	-10.9355
tx쎯g쎯uk쎯	-10.9356
fwm쎯aj쎯、	-10.9357
usr쎯kkk쎯tkh쎯	-10.9357
kq쎯ou쎯	-10.9359
fc쎯ref쎯	-10.9359
yxl쎯trt쎯og쎯	-10.936
ywx쎯》	-10.9361
ipk쎯ght쎯	-10.9363
dd쎯fwm쎯saj쎯	-10.9363
ypm쎯ya쎯	-10.9363
ijq쎯	-10.9365
suq쎯wfk쎯	-10.9369
gogj쎯tak쎯	-10.9373
uh쎯d쎯	-10.9374
dnv1쎯wtu쎯	-10.9374
wh쎯tf쎯ght쎯sf쎯,	-10.9374
。kl쎯qh쎯,	-10.9377
쎂×	-10.938
vck쎯gf쎯	-10.9381
wycm0쎯nf쎯ih쎯xeg쎯	-10.9382
g쎯wrh2쎯	-10.9384
at쎯yfn쎯	-10.9384
k쎯tu쎯bpf쎯	-10.9384
km쎯。	-10.9387
usr쎯ub쎯bm쎯thgc쎯	-10.9389
ipk쎯tv쎯tv쎯km쎯	-10.9389
dr쎯o쎯	-10.939
tew쎯	-10.939
”pb쎯	-10.9391
afie쎯	-10.9392
,w쎯wu쎯	-10.9394
vca쎯e쎯	-10.9395
v쎯tg쎯b쎯	-10.9396
nnh쎯,	-10.9397
ukn쎯nnk쎯	-10.9397
d쎯tjf쎯iawn쎯	-10.9399
pnt쎯wys쎯	-10.9399
j쎯hhhh쎯ue쎯	-10.9402
▁.	-10.9403
rdj쎯yt쎯	-10.9403
r쎯rfm쎯jg쎯	-10.9403
,wynb쎯	-10.9405
bu쎯shn쎯	-10.9406
쎁～	-10.9407
kftj0쎯	-10.9409
rrp쎯an쎯	-10.9412
ev쎯	-10.9412
tp쎯gj쎯ip쎯bpf쎯	-10.9412
ugm쎯gj쎯	-10.9415
ga쎯v쎯、	-10.9415
tmg1쎯lqw쎯	-10.9415
sk쎯c쎯cep쎯fp쎯	-10.9415
vff쎯	-10.9417
oge쎯cep쎯	-10.9417
txi쎯xyc쎯wys쎯dn쎯	-10.9418
tuj쎯wj쎯:	-10.9419
,ce쎯qkqq쎯	-10.9423
쎅.	-10.9424
dnv1쎯jfd쎯	-10.9424
dy쎯pw쎯	-10.9424
najg쎯	-10.9425
ipwk0쎯qev쎯	-10.9426
bynw0쎯bb쎯wu쎯	-10.9427
bs쎯sve쎯tfpd쎯	-10.9427
gqt	-10.9429
dd쎯afi쎯	-10.943
yygy쎯si쎯	-10.9431
쎂쎀쎀oy쎯	-10.9431
,cd쎯gn쎯	-10.9433
sbd쎯lkmi0쎯gae쎯,	-10.9433
dp쎯gc쎯b쎯	-10.9435
dfef쎯	-10.9436
wt쎯mq쎯	-10.9439
qyk쎯	-10.9439
v쎯tg쎯r쎯	-10.944
ap	-10.9441
xwf쎯rmhj쎯	-10.9442
wx쎯uv쎯	-10.9443
ade쎯	-10.9444
쎁쎀쎂쎄	-10.9445
;《	-10.9446
wy쎯thn쎯eb쎯tl쎯	-10.9448
ㄥ	-10.9448
po쎯pd쎯	-10.9449
mfk쎯rh쎯	-10.945
atd쎯ubk0쎯txi쎯	-10.9451
qdy1쎯	-10.9453
pue쎯	-10.9453
xwv쎯xwv쎯	-10.9456
tu쎯rfc쎯e쎯bv쎯	-10.9456
rvyo쎯hko쎯	-10.9457
,bde쎯udh쎯	-10.9457
w쎯tfkp쎯	-10.9458
mqu쎯eee쎯	-10.946
gcf쎯wynb쎯wtf쎯	-10.9461
dd쎯uqd0쎯	-10.9463
rg쎯w쎯	-10.9465
wgkq0쎯adw쎯	-10.9467
ytey쎯tf쎯py쎯	-10.9469
myd쎯gtu쎯	-10.9472
。p쎯j쎯	-10.9472
pgy쎯mhny0쎯	-10.9472
tg쎯u쎯、	-10.9473
쎃/	-10.9474
。wv쎯dmh쎯gf쎯	-10.9474
atg쎯gk쎯	-10.9474
ua쎯i쎯j쎯	-10.9477
imkf1쎯fii쎯	-10.9478
jq쎯rh쎯	-10.9479
tve쎯vb쎯r쎯	-10.948
o쎯whf쎯og쎯	-10.948
apw쎯	-10.9483
쎃쎀rh쎯	-10.9485
yynw1쎯kkk쎯tkh쎯	-10.9491
sft쎯ou쎯r쎯	-10.9491
pp쎯bb쎯	-10.9492
afs쎯wh쎯	-10.9492
;qm쎯gmu1쎯	-10.9492
r쎯usr쎯gajf쎯	-10.9493
qq쎯uqw쎯cd쎯lk쎯	-10.9493
jtg쎯adwe1쎯	-10.9493
rxj쎯bm쎯	-10.9494
i쎯m쎯,	-10.9494
um쎯tl쎯k쎯ny쎯	-10.9495
ijo쎯ya쎯	-10.9498
jh쎯hq쎯	-10.9498
쎂쎀쎁쎃	-10.9502
tig쎯	-10.9503
k쎯l쎯nnh쎯if쎯	-10.9503
u쎯wfhg쎯	-10.9504
ige쎯·	-10.9505
r쎯gk쎯nge쎯	-10.9506
r쎯wgkq0쎯et쎯	-10.951
fad쎯	-10.9513
rx쎯ygu쎯	-10.9513
vcb쎯o쎯	-10.9515
xnn0쎯shn쎯	-10.9516
dd쎯hka쎯	-10.9516
ftbt쎯rep쎯,fge쎯	-10.9517
ajdj1쎯	-10.9518
wfl쎯	-10.9518
rrr쎯qc쎯,	-10.952
ybv쎯xan쎯	-10.9521
cyna0쎯	-10.9521
tfk쎯oy쎯	-10.9522
rx쎯uwy1쎯,	-10.9524
ym쎯ntg쎯ce쎯	-10.9525
,wgq쎯vk쎯	-10.9526
thd쎯tf쎯lg쎯	-10.9527
mw쎯wv쎯int쎯	-10.9527
(쎂	-10.9529
alf쎯ytt쎯	-10.9532
ddu0쎯yny0쎯	-10.9532
mqu쎯jf쎯	-10.9533
jujf1쎯	-10.9534
,fqu쎯	-10.9534
ivp쎯iqn쎯	-10.9538
yygt쎯sghg1쎯ufg쎯	-10.9539
ftjb쎯s쎯	-10.9539
v쎯dp쎯	-10.954
ipg쎯km쎯,	-10.9541
r쎯xp쎯wgk쎯	-10.9542
xq쎯o쎯	-10.9542
ip쎯fge쎯fghg쎯	-10.9543
uxe쎯rg쎯	-10.9544
xxf쎯og쎯,	-10.9546
fwyc2쎯uk쎯wrh2쎯	-10.9547
cd쎯mqb쎯	-10.9548
k쎯l쎯l쎯bf쎯	-10.9549
tmg1쎯gajf쎯	-10.9549
lu쎯qq쎯	-10.9549
rer쎯iuc쎯	-10.9549
w쎯k쎯aw쎯ipk쎯km쎯	-10.955
p쎯ffi쎯	-10.955
tkh쎯sfhg쎯ii쎯tev쎯	-10.9551
i쎯yo쎯	-10.9551
rp쎯rh쎯	-10.9554
r쎯fnr쎯ujf쎯	-10.9554
sksw쎯yngk0쎯	-10.9554
ue쎯qtd쎯	-10.9555
》j쎯mh쎯	-10.9557
rpl쎯	-10.9558
、sghg1쎯	-10.9558
ce쎯lt쎯r쎯	-10.9562
wg쎯dm쎯r쎯	-10.9563
pu쎯tl쎯	-10.9564
epq쎯	-10.9567
sh쎯m쎯r쎯	-10.9567
tp쎯lpdk0쎯。	-10.9567
tmo쎯ss쎯aqv1쎯dq쎯	-10.9567
ajl쎯	-10.9568
eyni쎯ukh쎯	-10.9568
tyg쎯go쎯	-10.9569
oqd쎯	-10.9569
qhk쎯dgtg쎯	-10.9571
yu쎯if쎯	-10.9571
rmhj쎯tfkp쎯og쎯	-10.9573
o쎯g쎯wsg0쎯	-10.9573
dg쎯mgu쎯	-10.9573
apk쎯udyj쎯dh쎯pgk쎯	-10.9574
n쎯tg쎯	-10.9576
hko쎯。	-10.9576
xf쎯sq쎯,	-10.958
쎃w쎯	-10.958
tx쎯fgh쎯	-10.9581
쎅kgn쎯	-10.9583
syl쎯	-10.9583
fq쎯qjq쎯ymhj쎯	-10.9583
『	-10.9585
t1쎯	-10.9585
uqvd0쎯	-10.9587
r쎯tx쎯g쎯	-10.9588
ffff5쎯bgh쎯adw쎯	-10.9589
yt쎯dd쎯	-10.9591
efk쎯eta쎯	-10.9592
ff쎯bpf쎯	-10.9593
ih쎯ktn쎯	-10.9595
dm쎯uk쎯	-10.9597
(?	-10.9597
쎆kgn쎯	-10.9597
th쎯gkl쎯th쎯ta쎯	-10.9599
dx쎯riu쎯	-10.9601
▁bm쎯th쎯:	-10.9603
wqa쎯gf쎯	-10.9603
iv쎯jf쎯r쎯	-10.9603
aguw쎯	-10.9603
aqk쎯og쎯	-10.9604
scf쎯uu쎯	-10.9604
sghg1쎯gog쎯	-10.9606
od쎯、	-10.9608
cc쎯tm쎯	-10.9608
r쎯qt쎯bb쎯	-10.9608
sf쎯qfhw0쎯	-10.9611
()r쎯	-10.9611
r쎯gj쎯wynn3쎯	-10.9612
dfn쎯	-10.9614
。tfq쎯rg쎯	-10.9618
rwb쎯fiyt쎯	-10.9619
ul쎯qq쎯uqw쎯	-10.9621
on쎯gqje쎯	-10.9621
wgnb쎯	-10.9622
bb쎯vvv쎯	-10.9622
gf쎯쎂쎀쎀쎉rh쎯	-10.9625
yfj쎯rep쎯	-10.9627
fm쎯djd쎯	-10.963
up쎯ggg1쎯	-10.9635
dg쎯tffu쎯uqd0쎯。	-10.9636
wys쎯qfhw0쎯	-10.9636
trf쎯ta쎯	-10.9638
j쎯g쎯sg쎯	-10.9639
yc쎯jn쎯kkd쎯	-10.9643
mmm쎯fhc쎯	-10.9643
egc쎯tv쎯ipkh1쎯tv쎯	-10.9645
dnv1쎯fqb1쎯。	-10.9646
r쎯hhhh쎯r쎯	-10.9646
rte쎯	-10.9647
j0쎯	-10.9649
rg쎯dm쎯	-10.965
luf쎯	-10.9651
ntx쎯	-10.9652
fm쎯mmm쎯	-10.9657
ipg쎯yfj쎯	-10.9657
fp	-10.9657
fak쎯	-10.9657
nfc쎯,	-10.9658
hna쎯	-10.9659
aq쎯r쎯	-10.9661
fm쎯yiu쎯dd쎯ip쎯	-10.9661
nnnn쎯puhc쎯	-10.9664
)tffu쎯	-10.9665
dd쎯fny쎯yygy쎯wx쎯	-10.9668
wo쎯	-10.9669
pgk쎯wynk쎯	-10.9669
,y쎯s쎯ww쎯gk쎯	-10.967
thd쎯tmd쎯r쎯	-10.967
,hk쎯f쎯	-10.967
qw쎯	-10.967
wynb쎯rg쎯	-10.9671
ty쎯wvp쎯	-10.9672
쎄rh쎯	-10.9672
ryc쎯qie쎯	-10.9675
쎁쎀쎂	-10.9676
、dgtg쎯	-10.9678
nnh쎯if쎯wt쎯kkk쎯	-10.9679
uub쎯	-10.968
ywfw쎯qnj쎯	-10.968
puhc쎯iwyf2쎯o쎯	-10.968
av쎯thg0쎯	-10.9681
www쎯tg쎯	-10.9681
udg2쎯ec쎯	-10.9685
kkk쎯thgf0쎯r쎯	-10.9688
쎂、	-10.969
dm쎯tkw쎯쎆	-10.9691
cf쎯rymn쎯	-10.9692
qtk쎯	-10.9694
qa	-10.9694
lh쎯efc쎯	-10.9696
gl쎯bpf쎯	-10.9696
mmv쎯	-10.9696
wqr쎯	-10.9696
xln1쎯jhny쎯	-10.97
dg쎯w쎯	-10.9702
ukn쎯hich쎯	-10.9703
itl쎯	-10.9703
ccf쎯	-10.9703
um쎯yhk쎯	-10.9704
xfm쎯tavn쎯ait쎯pu쎯	-10.9706
e쎯dif쎯f쎯	-10.9709
ga쎯cep쎯	-10.9709
rdjn쎯	-10.971
glf쎯	-10.9711
usr쎯tg쎯	-10.9714
akgn0쎯	-10.9714
ujff쎯ytd쎯	-10.9714
gmww쎯ftj쎯	-10.9716
sk쎯ce쎯j쎯	-10.9716
。g쎯tem쎯	-10.9716
jh쎯rh쎯	-10.9717
ux쎯tvr쎯	-10.9721
,xx쎯vk쎯	-10.9721
ep쎯r쎯	-10.9723
mm	-10.9725
ymhj쎯tv쎯、ymhj쎯	-10.9728
lpk0쎯fa쎯	-10.9731
kgb쎯,	-10.9732
mn쎯	-10.9732
kmd쎯	-10.9732
fhqv쎯	-10.9732
fhn쎯idr쎯gf쎯	-10.9734
uqw쎯wf쎯yyq쎯	-10.9738
wgmy3쎯udv쎯	-10.9738
bwf쎯ntk쎯atd쎯bpf쎯	-10.9739
gf쎯쎂쎀쎁쎀rh쎯	-10.9741
k쎯wxf쎯n쎯ytt쎯	-10.9741
dg쎯qe쎯gae쎯	-10.9742
sgn쎯udp쎯	-10.9745
k쎯sghg1쎯	-10.9746
ii쎯uqwm0쎯idr쎯	-10.9747
uwyc0쎯ii쎯	-10.9747
ipk쎯xeg쎯nnh쎯yn쎯	-10.9748
uyh쎯,	-10.9749
wvmj쎯	-10.975
hka쎯l쎯	-10.9753
usr쎯sf쎯	-10.9753
tgj쎯lt쎯	-10.9756
rck쎯	-10.9757
kgn쎯:	-10.9759
ty쎯ipk쎯,	-10.9759
3	-10.976
nfi0쎯	-10.9761
pfqc1쎯	-10.9761
qmq쎯telb쎯	-10.9761
gd쎯ipkf0쎯	-10.9763
쎅쎀쎀dq쎯	-10.9766
qk쎯iwyf2쎯	-10.9768
bqn쎯	-10.9771
wup쎯	-10.9772
rwye1쎯rt쎯	-10.9772
su쎯kkk쎯	-10.9773
fhu쎯fj쎯	-10.9775
yr쎯ywc쎯	-10.9776
쎈.쎅	-10.9777
ge쎯gm쎯bm쎯	-10.9778
。p쎯wh쎯	-10.9778
쎁쎃쎅	-10.9778
tdtf쎯tlf2쎯	-10.9779
ymkc0쎯	-10.978
hka쎯sy쎯	-10.978
pe쎯yfd쎯	-10.9782
r쎯lt쎯jg쎯	-10.9782
pwav쎯	-10.9784
tif쎯	-10.9785
itd쎯khtd2쎯	-10.9786
쎄～	-10.9786
iwv쎯	-10.9787
rnb쎯fcl쎯	-10.9787
gcf쎯wynb쎯,	-10.9787
qnth쎯)	-10.9791
egc쎯tv쎯nnh쎯yn쎯	-10.9792
qsu쎯gqx쎯	-10.9794
pl쎯wv쎯aq쎯	-10.9794
dgh쎯ftx쎯	-10.9795
gf쎯쎁쎈	-10.9796
khd쎯fha쎯	-10.9798
pe쎯et쎯	-10.9798
쎂쎀쎀쎂	-10.9799
쎅.쎀	-10.9801
udy쎯fqb1쎯	-10.9801
lwj쎯r쎯	-10.9802
pei쎯ip쎯bpf쎯	-10.9802
bde쎯ujn쎯	-10.9803
isk쎯uthp쎯	-10.9804
yne쎯gajf쎯	-10.9804
sgi쎯”	-10.9806
ajj쎯f쎯	-10.9807
rc쎯jmd쎯b쎯	-10.9807
wa쎯gj쎯um쎯	-10.9808
쎃w쎯,	-10.9808
han쎯	-10.9809
dgj쎯tt쎯nnh쎯if쎯	-10.9811
jb쎯tfq쎯fj쎯r쎯	-10.9813
eyj쎯	-10.9815
kgn쎯xg쎯	-10.9815
+쎁	-10.9815
,ukn쎯vfhp1쎯tam쎯	-10.9815
wc쎯wv쎯	-10.9817
qvhc1쎯	-10.9817
wo쎯wuf쎯	-10.9819
쎀쎀쎀	-10.9821
ll쎯bynw0쎯	-10.9821
ssf쎯hh쎯	-10.9823
b쎯《	-10.9824
°	-10.9825
쎇쎅쎀	-10.9826
ak	-10.9826
wgkb2쎯fcp쎯	-10.9827
ltu쎯》	-10.9828
wbb쎯wyf0쎯	-10.9829
dbv쎯	-10.9829
rrr쎯isgg0쎯	-10.9829
。p쎯jfd쎯	-10.9829
am쎯fmud쎯。	-10.9833
ua쎯im쎯e쎯	-10.9833
wdn쎯tfq쎯	-10.9834
。wt쎯o쎯	-10.9835
▁쎂쎀쎀쎆rh쎯	-10.9835
ip쎯wf쎯gj쎯gk쎯	-10.9836
st쎯nnk쎯	-10.9836
r쎯g쎯pe쎯	-10.9836
g쎯fh쎯ww쎯gk쎯	-10.9838
fh쎯uu쎯	-10.9838
nnk쎯、	-10.9839
rffg쎯thgf0쎯	-10.9841
wdn쎯te쎯uqd0쎯	-10.9842
tffy0쎯jm쎯	-10.9843
wg쎯l쎯ntg쎯	-10.9843
pu쎯khg쎯x쎯cwg쎯	-10.9844
ip쎯yu쎯	-10.9845
awj쎯	-10.9847
gyt쎯ta쎯	-10.9848
rp쎯mt쎯rh쎯	-10.985
wtf쎯tl쎯。	-10.985
쎁쎉쎉쎈	-10.985
ii쎯uwy1쎯	-10.9851
ugdu쎯sy쎯qnp쎯	-10.9854
sh쎯xf쎯wgk쎯r쎯	-10.9854
wb쎯j쎯	-10.9855
yi쎯wqj쎯	-10.9859
。aft쎯e쎯《	-10.986
、jn쎯bb쎯	-10.9861
ab쎯ith쎯	-10.9864
ld쎯adw쎯	-10.9868
iq쎯yuo쎯	-10.9871
p쎯j쎯g쎯wh쎯	-10.9872
sfm쎯	-10.9872
xtdh0쎯cw쎯	-10.9874
ccc쎯kn쎯	-10.9875
β	-10.9876
-쎁쎅	-10.9877
e쎯ycb쎯	-10.9878
qtge쎯	-10.9883
yt쎯lfhf쎯	-10.9885
,xw쎯	-10.9887
i쎯je쎯	-10.9887
rj쎯ue쎯	-10.9889
uqt쎯lt쎯	-10.9889
py쎯aq쎯nd쎯tv쎯wf쎯	-10.9889
itx쎯yqa쎯	-10.9889
gjq쎯vb쎯	-10.989
rg쎯ccc쎯	-10.989
,sghg1쎯gn쎯	-10.9891
k쎯jb쎯	-10.9891
/쎁	-10.9892
akgl쎯dlf쎯	-10.9893
py쎯wf쎯tk쎯lwj쎯	-10.9894
。”yvh쎯	-10.9894
sksw쎯rlg쎯	-10.9895
iy쎯mm쎯ge쎯	-10.9895
dlf쎯ufk0쎯	-10.9898
▁gm쎯wtf쎯	-10.9898
mga쎯》:“	-10.9899
vtkd1쎯bb쎯	-10.9899
dd쎯gcft2쎯	-10.99
udrc쎯	-10.9901
ifp쎯itx쎯	-10.9903
jq쎯h쎯	-10.9904
et쎯f쎯	-10.9904
,gm쎯nnnn쎯	-10.9907
gs쎯,	-10.9907
vk쎯m쎯	-10.9909
xa쎯gmiu쎯	-10.9909
yt쎯yca쎯	-10.9909
cm쎯rhf쎯	-10.991
dgh쎯ftx쎯r쎯	-10.9911
gd쎯bb쎯	-10.9912
hj쎯fhg1쎯	-10.9914
쎃dq쎯	-10.9916
wcy2쎯e쎯	-10.9917
oyx쎯	-10.9917
qtj쎯pe쎯	-10.9917
gj쎯ntg쎯	-10.9917
hjs쎯dm쎯	-10.9918
hka쎯fnrt쎯	-10.9921
쎁쎁쎂	-10.9922
i쎯vk쎯	-10.9923
”,j쎯	-10.9925
tmg1쎯ihc쎯	-10.9929
il쎯il쎯	-10.9932
ak쎯j쎯	-10.9932
shn쎯qje쎯	-10.9934
xx쎯vk쎯	-10.9938
uwy1쎯mj쎯	-10.994
pe쎯。	-10.9941
ai쎯egc쎯	-10.9944
lhnh쎯udy쎯eri쎯	-10.9946
。je쎯	-10.9946
trf쎯·	-10.9949
qkql쎯	-10.9949
i쎯mqb쎯	-10.995
dd쎯ej쎯	-10.995
rp쎯dj쎯	-10.9951
bm쎯wyk쎯	-10.9951
qq쎯uk쎯	-10.9952
t쎯rfc쎯sy쎯	-10.9952
vb쎯ygu쎯。	-10.9954
mqu쎯r쎯	-10.9954
c쎯h쎯。	-10.9955
ly쎯	-10.9958
k쎯gajf쎯	-10.9958
쎁쎀쎆	-10.9959
doq쎯sgc쎯	-10.9959
iq쎯xft쎯	-10.9962
tdg1쎯tyna2쎯	-10.9962
,ua쎯uqf쎯	-10.9963
xeg쎯wrh2쎯	-10.9964
,kg쎯	-10.9969
tuj쎯wsg0쎯k쎯yygy쎯	-10.9969
gs쎯umd0쎯	-10.997
cw쎯jghm1쎯	-10.997
쎁쎀쎁	-10.9971
iytb0쎯jtyq1쎯	-10.9974
ymc쎯tlf2쎯。	-10.9975
gog쎯rvyo쎯gkp쎯	-10.9976
wg쎯yy쎯wug1쎯r쎯	-10.9977
tx쎯uy쎯nm쎯	-10.9977
wgkq0쎯wgkb2쎯	-10.9978
sksw쎯ndj쎯	-10.9978
()t쎯	-10.9979
r쎯pfi쎯xj쎯	-10.9979
ub쎯qk쎯	-10.9979
sfi쎯sg쎯	-10.998
ftbt쎯ip쎯dn쎯js쎯	-10.998
vv쎯bu쎯	-10.9982
i쎯on쎯wbj쎯usr쎯	-10.9982
zzy3쎯	-10.9983
fajv쎯	-10.9984
dw0쎯gd쎯	-10.9984
o쎯pfi쎯xj쎯	-10.9986
sg쎯sf쎯	-10.9988
tfkd쎯rp쎯	-10.9989
l쎯bf쎯sfi쎯uwy1쎯	-10.9991
wty쎯kht쎯pl쎯	-10.9992
rmhj쎯tlf2쎯	-10.9994
mw쎯ny쎯	-10.9996
、ytey쎯iytb0쎯	-10.9997
sw쎯imj쎯ymc쎯tlf2쎯	-10.9997
pv쎯by쎯	-10.9999
thd쎯egl쎯	-11
wty쎯dd쎯	-11.0002
ス	-11.0004
cep쎯tyg쎯	-11.0004
ux쎯dm쎯	-11.0005
snn1쎯	-11.0006
um쎯og쎯qve쎯tf쎯	-11.0006
sh쎯sm쎯	-11.001
ym쎯ahty쎯	-11.0013
dsh1쎯	-11.0015
tg쎯tr쎯rfc쎯sy쎯	-11.0015
wgmy3쎯	-11.0017
uxe쎯iq쎯	-11.0018
uk쎯uk쎯ta쎯	-11.0018
wtc쎯syp쎯	-11.002
fqb1쎯。	-11.0023
suj쎯	-11.0024
ai쎯mmm쎯	-11.0027
jjjj쎯,	-11.0028
tuj쎯xq쎯	-11.0029
(쎁쎅	-11.003
mq쎯wwwk쎯	-11.003
ahkm1쎯	-11.0032
jjjj쎯jvko쎯	-11.0033
rnb쎯ijl쎯쎁	-11.0033
fny쎯og쎯xxf쎯og쎯	-11.0033
anb0쎯sy쎯kkk쎯	-11.0036
vfb쎯jfd쎯	-11.0037
쎁쎉쎉쎇	-11.0037
gf쎯j쎯	-11.0037
v쎯tf쎯r쎯	-11.0038
nae쎯wf쎯	-11.004
쎁qk쎯	-11.0042
r쎯ygk쎯yyy쎯	-11.0043
kcg쎯	-11.0043
r쎯trf쎯qc쎯	-11.0048
wg쎯tq쎯	-11.0048
sov쎯tel쎯	-11.005
jn쎯dgt1쎯	-11.0051
gj쎯shn쎯r쎯	-11.0052
ufy쎯sgn쎯	-11.0053
udyj쎯ryn0쎯	-11.0054
itx쎯mgu쎯	-11.0054
itm쎯iyt0쎯	-11.0055
sgn쎯ou쎯	-11.0062
6	-11.0063
pey쎯	-11.0064
gu쎯tffu쎯	-11.0065
▁gg쎯	-11.0066
mmm쎯wwk쎯	-11.0067
wjm쎯wqj쎯	-11.007
쎇kgn쎯	-11.0072
ywx쎯ygh쎯	-11.0072
fd쎯wksf쎯	-11.0073
,yt쎯	-11.0073
ma쎯rr쎯	-11.0073
ga쎯vck쎯b쎯	-11.0075
ny쎯k쎯	-11.0075
yo쎯jg쎯	-11.0077
an쎯lwj쎯sgi쎯	-11.0079
wfkb쎯tdp쎯r쎯	-11.008
yce쎯tkh쎯	-11.0082
fnrt쎯h쎯	-11.0083
う	-11.0084
t쎯eb쎯tl쎯	-11.0084
tgl쎯	-11.0085
lpdk0쎯aq쎯mw쎯	-11.0086
ige쎯gj쎯	-11.0089
。쎂쎀쎀쎈rh쎯	-11.009
쎃쎀%	-11.0091
mww쎯rfm쎯	-11.0093
l쎯pe쎯sfi쎯uwy1쎯	-11.0093
qev쎯yfn쎯	-11.0094
》g쎯nnh쎯	-11.0094
bct쎯wgk쎯	-11.0094
ip쎯ddm쎯fghg쎯	-11.0099
,wt쎯ftj쎯	-11.0099
fcb쎯j쎯	-11.0099
dgh쎯wynb쎯	-11.01
,tk쎯	-11.01
g쎯tyna2쎯	-11.01
,bn쎯sk쎯	-11.01
fas쎯	-11.0101
ripq1쎯	-11.0104
ta쎯yy쎯gae쎯	-11.0105
lfn쎯gajf쎯	-11.0105
pu쎯tr쎯	-11.0105
iagw쎯ytt쎯	-11.0108
n쎯lw쎯	-11.0109
iex쎯egc쎯	-11.0111
o쎯wqin쎯	-11.0112
,nty1쎯	-11.0116
,k쎯aw쎯	-11.0117
ip쎯dga쎯pwv쎯	-11.0118
mqb쎯gc쎯	-11.0118
wv쎯bpf쎯	-11.012
ga쎯awx쎯	-11.012
txi쎯xyc쎯。	-11.012
bd쎯epc쎯	-11.0121
kkk쎯thgf0쎯,	-11.0121
dgtg쎯img쎯wx쎯a쎯	-11.0124
ddn쎯	-11.0127
ym쎯rfm쎯jg쎯	-11.0128
쎁쎀dq쎯,	-11.0128
ntg쎯,	-11.0131
,cd쎯lk쎯	-11.0131
r쎯sm쎯wf쎯	-11.0133
sfi쎯ykw쎯	-11.0134
▁쎂쎀쎀쎉rh쎯	-11.0134
tmdf1쎯xg쎯	-11.0136
,jjjj쎯sg쎯	-11.0137
ght쎯tl쎯	-11.0137
▁쎂쎀쎀쎇rh쎯	-11.0138
》w쎯tr쎯pp쎯g쎯。	-11.014
abf0쎯	-11.014
wqb0쎯	-11.014
xxf쎯og쎯。	-11.014
ugv쎯thg0쎯	-11.0141
mmm쎯ax쎯	-11.0143
gogn쎯ntg쎯	-11.0144
kkkk0쎯,	-11.0144
gah쎯up쎯	-11.0146
sqqd0쎯	-11.0148
wg	-11.0149
x쎯dl쎯b쎯	-11.0149
xwy쎯qiu0쎯	-11.015
fqb1쎯rh쎯(	-11.015
txe쎯	-11.015
dmjf1쎯yssd0쎯	-11.0152
bw쎯wgg0쎯,	-11.0155
,s쎯	-11.0156
kgn쎯dcg쎯	-11.0156
pwat쎯fp쎯	-11.0158
fgh쎯mt쎯	-11.0158
bm쎯tf쎯	-11.016
yygt쎯itp쎯et쎯gf쎯	-11.0163
svc쎯syp쎯	-11.0164
kkk쎯kfi쎯	-11.0164
kl쎯e쎯	-11.0165
bwf쎯rp쎯r쎯	-11.0166
qdw쎯	-11.0167
쎁쎁쎅	-11.017
qn쎯ufy쎯ige쎯ujfj쎯	-11.017
qv쎯yyq쎯	-11.0172
dx쎯udi쎯	-11.0173
fny쎯uyh쎯ww쎯gk쎯	-11.0173
xn쎯vi쎯	-11.0173
ftx쎯src쎯	-11.0175
쎁쎉쎉쎀	-11.0175
rvyo쎯th쎯gj쎯	-11.0176
e쎯uqt쎯f쎯	-11.0177
u쎯tr쎯	-11.0183
al쎯ce쎯。	-11.0183
ddh쎯uyh쎯ymhj쎯	-11.0185
puhc쎯gq쎯o쎯	-11.0186
)(	-11.0186
a쎯wt쎯k쎯	-11.0187
tfh쎯	-11.0188
uj쎯bgk쎯	-11.0188
bm쎯qc쎯r쎯	-11.019
ym쎯tld1쎯dfy쎯	-11.019
쎁쎆쎈	-11.0191
○	-11.0194
iagw쎯ujn쎯r쎯	-11.0196
gcft2쎯pgk쎯	-11.0198
▁adw쎯px쎯	-11.02
――	-11.0201
iuj쎯	-11.0201
jqr쎯gf쎯	-11.0202
,iy쎯mm쎯uqwm0쎯	-11.0202
wv쎯sgn쎯gc쎯	-11.0203
qng1쎯qgj쎯ssss쎯	-11.0204
sf쎯n쎯tv쎯km쎯wf쎯	-11.0206
kkks0쎯fnr쎯	-11.0206
cf쎯ytd쎯	-11.021
ige쎯gs쎯	-11.021
tgm쎯aj쎯、	-11.021
ymhj쎯wc쎯pv쎯nnk쎯	-11.0212
rnf쎯	-11.0212
thd쎯xln1쎯	-11.0213
,kw쎯s쎯	-11.0214
ル	-11.0214
ygu쎯tv쎯	-11.0214
nat쎯	-11.0217
hc쎯af쎯	-11.0217
atm쎯	-11.0218
e쎯ud쎯r쎯	-11.0219
fhw쎯alt쎯	-11.0224
xv쎯f쎯	-11.0229
xke쎯	-11.0229
。kj쎯qd쎯	-11.0231
fm쎯aq쎯	-11.0234
wdyy1쎯	-11.0235
s쎯hko쎯	-11.0236
v쎯je쎯fny쎯tjh쎯	-11.0237
fny쎯og쎯xxf쎯og쎯,	-11.0238
。wg쎯sf쎯	-11.0238
ukn쎯wf쎯	-11.0238
、yj쎯	-11.0239
afwu쎯apw쎯	-11.0239
iugg0쎯ime쎯	-11.0242
ud쎯txi쎯。	-11.0242
ks쎯	-11.0243
c쎯h쎯,	-11.0243
puhc쎯rge쎯	-11.0247
mb쎯jn쎯	-11.0248
。rg쎯go쎯	-11.025
fl쎯wf쎯gj쎯gk쎯	-11.025
vaf쎯wj쎯	-11.0251
es쎯yyn1쎯	-11.0251
ntg쎯wwj쎯xx쎯	-11.0252
ww쎯ih쎯	-11.0252
yssr쎯rta쎯lg쎯	-11.0254
uqd0쎯ujj쎯	-11.0255
。x쎯fp쎯	-11.0256
atd쎯ubk0쎯kkd쎯sa쎯	-11.0257
。k쎯l쎯	-11.0259
thg0쎯、	-11.026
pl쎯pn쎯	-11.026
apg쎯dgh쎯ytt쎯	-11.0263
trf쎯rytp0쎯	-11.0264
nty1쎯xyna0쎯	-11.0267
、vfhp1쎯tam쎯	-11.0268
y쎯s쎯mh쎯	-11.0269
yh쎯wqin쎯	-11.027
trf쎯hko쎯:	-11.0271
.쎅%	-11.0275
yygy쎯kq쎯	-11.0275
idr쎯thd쎯	-11.0275
r쎯uk쎯wv쎯	-11.0275
amyn0쎯dx쎯	-11.0276
fnv0쎯	-11.0277
tcy쎯uu쎯	-11.0284
ip쎯bpf쎯ftbt쎯rep쎯	-11.0285
eta쎯	-11.0285
kkk쎯wug1쎯	-11.0287
mq쎯jy쎯te쎯gmy1쎯r쎯	-11.0287
aqrn0쎯awx쎯	-11.0288
pyj쎯dskf쎯	-11.0289
ty쎯ipk쎯	-11.0289
gmap쎯jm쎯	-11.0291
uthp쎯,	-11.0292
xf쎯sq쎯r쎯	-11.0293
cqw쎯qi쎯	-11.0293
y쎯s쎯o쎯	-11.0293
lhnh쎯ad쎯	-11.0294
t쎯imkf1쎯	-11.0294
gm쎯qqqq1쎯	-11.0295
pei쎯og쎯tg쎯u쎯	-11.0296
rvk쎯nh쎯	-11.0299
e쎯hko쎯	-11.0299
ba0쎯gq쎯	-11.0301
jty쎯ysi쎯a쎯wt쎯	-11.0301
쎈%	-11.0302
wt쎯bm쎯b쎯	-11.0303
esw쎯	-11.0304
pt쎯yww쎯ftbt쎯rep쎯	-11.0306
쎉쎅%	-11.0306
ukn쎯bw쎯	-11.0306
idl쎯	-11.0307
ukn쎯dm쎯tkw쎯쎁	-11.0308
adwl쎯pwfi쎯	-11.0308
gkl쎯wf쎯ta쎯	-11.0311
se쎯dd쎯	-11.0312
pt쎯pe쎯	-11.0314
(c쎯gh쎯tuj쎯tq쎯	-11.0316
puq쎯	-11.0316
wf쎯nae쎯	-11.0316
ld쎯dmj1쎯	-11.0316
sf쎯jfd쎯	-11.0317
r쎯jb쎯usr쎯	-11.0319
by쎯oja쎯	-11.0319
g쎯jgf쎯	-11.0319
bd쎯yw쎯	-11.032
adww1쎯	-11.0324
gjq쎯ym쎯	-11.0325
ays쎯avd쎯	-11.0325
txi쎯gq쎯、	-11.0326
wk쎯wht쎯	-11.0326
r쎯hw쎯wsg0쎯	-11.0327
ym쎯wv쎯bb쎯	-11.0328
rwp쎯	-11.0328
nied쎯	-11.0331
tuxj쎯	-11.0331
k쎯yygy쎯qk쎯tq쎯:	-11.0332
rmhj쎯dn쎯r쎯	-11.0333
wye쎯uqw쎯	-11.0335
fl쎯m쎯	-11.0339
wye쎯gkim0쎯	-11.034
ywg쎯toc쎯	-11.034
r쎯nge쎯ukq쎯gh쎯	-11.0342
ghd0쎯aa쎯dn쎯uu쎯	-11.0343
me	-11.0344
ol쎯ajj쎯	-11.0345
ugm쎯、	-11.0346
uhc쎯apl쎯	-11.0348
qn쎯lfnh쎯	-11.035
bk쎯ce쎯uk쎯uyh쎯	-11.035
dm쎯jty쎯	-11.0352
fhw쎯r쎯	-11.0353
e쎯tjh쎯gf쎯	-11.0357
qh쎯ian0쎯	-11.0357
(쎁쎇	-11.0357
к	-11.0357
,ai쎯	-11.0357
ymc쎯yf쎯bpf쎯	-11.0359
qo	-11.036
aib쎯lfnh쎯:	-11.0361
rqk쎯	-11.0362
isk쎯luf쎯	-11.0363
(/)	-11.0363
ke쎯bwf쎯	-11.0363
쎄.쎂	-11.0363
sk쎯tfkd쎯r쎯	-11.0364
fwm쎯aj쎯ymc쎯yf쎯	-11.0366
r쎯nge쎯ukq쎯	-11.0367
,쎁쎈	-11.0368
aq쎯tv쎯	-11.0368
в	-11.0369
udi쎯uce쎯	-11.037
ui쎯tsh0쎯	-11.0372
,gip쎯j쎯	-11.0373
r쎯dyn쎯ya쎯	-11.0373
wgk쎯g쎯	-11.0374
pp쎯。”	-11.0375
쎂wc쎯jfd쎯	-11.0377
,lpdk0쎯	-11.0377
cf쎯tgm쎯	-11.0379
aw쎯yf쎯	-11.0382
wg쎯qfhw0쎯	-11.0383
-쎁쎂	-11.0384
tffu쎯l쎯pe쎯	-11.0385
rvk쎯um쎯xh쎯uqwm0쎯	-11.0387
r쎯dgkn쎯ipmq쎯	-11.0387
s쎯fiy쎯,	-11.0388
pp쎯jtg쎯	-11.0388
tu쎯dga쎯a쎯wt쎯	-11.0389
fu쎯dd쎯	-11.0392
▁jo쎯hhu0쎯	-11.0392
yss쎯img쎯	-11.0396
cep쎯td쎯	-11.0396
bm쎯qc쎯	-11.0398
df쎯tj쎯	-11.0399
iyc쎯jhnr쎯	-11.0399
kkkk0쎯eb쎯	-11.0399
adm쎯hhhh쎯,	-11.04
tyna2쎯。	-11.0401
dif쎯f쎯dm쎯tkw쎯	-11.0402
ipe쎯xpw쎯	-11.0404
aw쎯u쎯ipk쎯	-11.0404
wsg0쎯wf쎯	-11.0406
jh쎯ybv쎯	-11.0407
,ai쎯jty쎯	-11.0407
ynth0쎯	-11.0408
nft쎯	-11.0409
ghd0쎯tu쎯xe쎯	-11.041
gmww쎯adm쎯	-11.041
,ak쎯ftj쎯	-11.0412
alkf0쎯	-11.0412
mgu쎯wwk쎯	-11.0416
yygy쎯wx쎯uq쎯iyc쎯	-11.0417
se쎯bv쎯	-11.0418
thd쎯wy쎯	-11.0419
ipw쎯wx쎯	-11.042
q쎯ith쎯	-11.0422
l쎯pe쎯t쎯f쎯aq쎯	-11.0424
rtfj0쎯	-11.0426
lfq쎯mw쎯	-11.0429
yft쎯wnt쎯	-11.0431
nfp쎯	-11.0433
r쎯sfi쎯uwy1쎯	-11.0434
uth쎯wbj쎯	-11.0435
tv쎯km쎯wf쎯tv쎯km쎯。	-11.0436
yngk0쎯ygk쎯	-11.0436
、qqqq1쎯	-11.0437
、ugdu쎯l쎯	-11.0438
thp쎯xfn쎯	-11.0438
wxd쎯wtuf1쎯	-11.0439
lu쎯it쎯	-11.0439
vtg쎯qk쎯:	-11.0439
iugi1쎯	-11.045
lfn쎯yh쎯	-11.045
dp쎯dn쎯	-11.0451
wbj쎯lw쎯r쎯	-11.0451
khv쎯bde쎯	-11.0453
eb쎯。	-11.0453
et쎯c쎯	-11.0453
qk쎯kn쎯	-11.0455
w쎯fqu쎯	-11.0457
ipkh1쎯tl쎯gj쎯gk쎯,	-11.0457
k쎯jjjj쎯	-11.0457
tt쎯gl쎯	-11.046
hcd쎯e쎯	-11.046
fp쎯qq쎯	-11.0462
v쎯gm쎯r쎯	-11.0462
khuh쎯	-11.0462
ujfj쎯wug1쎯”、“	-11.0463
tffu쎯fny쎯og쎯	-11.0463
nir쎯	-11.0463
qnd쎯	-11.0465
xef쎯qev쎯	-11.0466
ofd쎯	-11.0468
dga쎯pwv쎯、	-11.0468
g쎯uthp쎯ugdu쎯wyv쎯	-11.047
sc쎯uwl쎯	-11.047
。쎂쎀쎀쎄rh쎯	-11.0471
aet0쎯rvyo쎯	-11.0479
xk쎯gqjo0쎯r쎯	-11.0479
a쎯wt쎯tv쎯km쎯wf쎯	-11.048
qev쎯yt쎯rg쎯	-11.0483
쎈쎀쎀쎀	-11.0483
hx쎯f쎯	-11.0483
thd쎯go쎯ii쎯	-11.0484
qgl쎯	-11.0486
kf쎯sgm쎯	-11.0487
ugdu쎯vb쎯	-11.0488
j쎯cep쎯fp쎯	-11.049
ykg쎯uda쎯	-11.0491
spw쎯	-11.0492
wq쎯wu쎯	-11.0492
yjjh1쎯jg쎯	-11.0493
dga쎯pwv쎯t쎯	-11.0494
aflf쎯	-11.0495
tx쎯g쎯wug1쎯	-11.0496
〗	-11.0497
pgc쎯qh쎯	-11.0497
qbl쎯	-11.0498
rfc쎯sy쎯lt쎯jg쎯	-11.0499
adw쎯wqu쎯	-11.0499
a쎯tkgg0쎯ytb쎯a쎯	-11.05
al쎯fw쎯	-11.05
iqn쎯igs쎯	-11.0503
sfi쎯rgw쎯	-11.0503
xxf쎯og쎯gf쎯h쎯itx쎯	-11.0504
〖	-11.0504
xuj쎯tamw0쎯	-11.0504
w쎯pe쎯	-11.0505
kt	-11.0505
wwf쎯sfi쎯	-11.0506
amy쎯ldd쎯	-11.0506
”pp쎯	-11.0509
nh쎯gc쎯	-11.051
dm쎯tkw쎯dp쎯	-11.051
tffu쎯f쎯。	-11.0511
gg쎯jtg쎯xe쎯	-11.0513
nfa쎯	-11.0514
fge쎯pt쎯	-11.0519
ggi쎯gfi쎯	-11.0522
yyq쎯wf쎯	-11.0526
tt쎯yn쎯sg쎯	-11.0526
쎅쎀쎀oy쎯	-11.053
gmww쎯umd0쎯	-11.0531
g쎯g쎯	-11.0531
yle쎯pp쎯	-11.0532
쎁쎀쎀oy쎯	-11.0533
ep쎯qiu0쎯uff쎯	-11.0535
l쎯ygk쎯	-11.0535
rdj쎯me쎯	-11.0535
rdw쎯	-11.0536
pl쎯lft쎯	-11.0538
gkl쎯suq쎯ta쎯	-11.0539
mnbm0쎯fhn쎯	-11.0541
ad쎯dbm쎯td쎯ykw쎯	-11.0542
afd0쎯aya쎯	-11.0543
os쎯iq쎯	-11.0543
rn쎯wt쎯	-11.0544
fny쎯wtf쎯	-11.0545
cwg쎯ygh쎯	-11.0545
tp쎯gj쎯uqwk쎯yqj쎯	-11.0546
pei쎯lll쎯	-11.055
wug1쎯,	-11.055
wv쎯sr쎯、	-11.0553
쎅w쎯	-11.0554
wsg0쎯yce쎯fnrt쎯	-11.0554
r쎯ud쎯qvfp1쎯	-11.0556
st쎯qiu0쎯	-11.0558
pp쎯ytey쎯	-11.0559
g쎯wsg0쎯	-11.0559
yy쎯gae쎯	-11.056
mq쎯st쎯r쎯	-11.0561
dy쎯pf쎯	-11.0561
lp쎯fuj쎯	-11.0561
pp쎯f쎯	-11.0562
vb쎯ygu쎯	-11.0562
nnw쎯gkip2쎯v쎯nae쎯	-11.0564
y쎯wtf쎯atd쎯jgm쎯。	-11.0565
wt쎯ma쎯pe쎯	-11.0567
ith쎯tv쎯	-11.0569
gjq쎯vb쎯f쎯	-11.0572
,wv쎯	-11.0574
mgn쎯	-11.0574
pqk쎯	-11.0576
wgq쎯vk쎯	-11.0577
og쎯mw쎯	-11.0579
dhi쎯	-11.0579
bm쎯thgc쎯v쎯tf쎯	-11.058
ih쎯qfhw0쎯	-11.0581
bwf쎯vi쎯	-11.0582
gk쎯yop쎯	-11.0587
r쎯iytb0쎯ca쎯	-11.0587
rh쎯xe쎯	-11.0589
oge쎯uwl쎯fiy쎯oge쎯	-11.059
xgm쎯uqt쎯	-11.0592
,wys쎯	-11.0595
rytp0쎯	-11.0595
쎁쎈쎉	-11.0595
쎁쎉쎂쎆rh쎯	-11.0595
qmq쎯sft쎯	-11.0598
ytey쎯pt쎯	-11.0599
し	-11.0601
fnr쎯hhu0쎯	-11.0602
fghg쎯rgw쎯	-11.0603
ru쎯adwr쎯	-11.0603
y쎯s쎯dga쎯pwv쎯	-11.0604
qie쎯wyk쎯nh쎯ty쎯	-11.0607
쎀dnv1쎯fqb1쎯,	-11.0607
khdc쎯	-11.0608
wug1쎯。	-11.061
(쎁쎈쎈	-11.061
,wcy2쎯	-11.0612
tv쎯km쎯wf쎯tv쎯km쎯、	-11.0612
r쎯vfhp1쎯ymc쎯	-11.0613
jtd쎯pntj쎯	-11.0615
ukqb1쎯	-11.0616
ss쎯fnrt쎯	-11.0616
lt쎯jg쎯dcw쎯djb쎯,	-11.0617
wf쎯e쎯	-11.0617
ta쎯tgh쎯	-11.0619
xf쎯tha쎯	-11.0621
dyc쎯sgc쎯	-11.0622
yaa쎯ltu쎯	-11.0623
wmw쎯	-11.0624
qsu쎯w쎯	-11.0624
adwl쎯rpws쎯	-11.0625
uqwk쎯yqj쎯、	-11.0627
r쎯ym쎯usr쎯rfc쎯sy쎯	-11.0627
쎃—	-11.063
pg쎯jg쎯	-11.063
gj쎯gk쎯wf쎯	-11.0631
pfq쎯uduk쎯,	-11.0631
fffy쎯uft쎯	-11.0636
gajf쎯whf쎯og쎯	-11.0636
,ux쎯yiu쎯	-11.064
쎆rh쎯	-11.064
ovt쎯wfhg쎯	-11.064
dxy쎯fmk쎯	-11.064
cd쎯ftg쎯nnh쎯	-11.0642
、dg쎯	-11.0642
ue쎯dm쎯	-11.0643
쎁쎈쎀쎀	-11.0643
fw쎯gv쎯	-11.0644
쎁gmww쎯,	-11.0644
j쎯g쎯yww쎯	-11.0647
tg쎯ow쎯	-11.0647
iq쎯idr쎯	-11.0647
fwm쎯saj쎯jb쎯dd쎯r쎯	-11.0652
ㄐㄧ	-11.0652
ipg쎯km쎯。	-11.0653
▁dg쎯	-11.0653
if쎯ygk쎯	-11.0653
ylf0쎯,	-11.0654
쎁쎀쎈쎀	-11.0654
ip쎯txi쎯	-11.0655
wa쎯ge쎯wt쎯	-11.0656
frc쎯	-11.0656
jtyq0쎯ipkm0쎯	-11.0657
tmfk1쎯	-11.0658
dl쎯tkgg0쎯	-11.0659
ht쎯hna쎯	-11.0659
ujf쎯uqt쎯	-11.0661
wk쎯pg쎯	-11.0663
mh쎯dr쎯	-11.0665
ipm쎯ipgh쎯	-11.0666
쎂쎀wtu쎯	-11.0667
qth쎯	-11.0667
pye쎯wqu쎯	-11.0668
vnh쎯	-11.067
pj쎯pg쎯	-11.0673
qgfj쎯	-11.0676
v쎯iq쎯	-11.0678
xmw쎯tuk쎯	-11.0678
▁bm쎯thgc쎯py쎯:	-11.0679
txe쎯ynt쎯	-11.0681
tfkp쎯wwj쎯	-11.0681
19	-11.0684
rkh쎯	-11.0687
ad쎯sg쎯h쎯	-11.0687
wxd쎯tm쎯	-11.0688
ywx쎯aft쎯	-11.069
vs쎯rfm쎯	-11.0693
ta쎯dtf쎯	-11.0693
ruv쎯udi쎯	-11.0694
gd쎯pw쎯	-11.0695
o쎯k쎯ny쎯	-11.0698
ukqb0쎯rfc쎯	-11.0699
adi쎯	-11.07
uyh쎯ywe쎯	-11.0701
r쎯ymhj쎯fnrt쎯	-11.0701
pp쎯qh쎯	-11.0702
tv쎯km쎯,	-11.0702
pgc쎯y쎯wtf쎯	-11.0702
ax쎯sft쎯	-11.0705
dy쎯ide쎯	-11.0706
ygl쎯	-11.0706
g쎯xfm쎯	-11.0708
ooo쎯oqv쎯	-11.0709
hx쎯uqw쎯	-11.0709
쎂쎁쎀	-11.0709
rj쎯qk쎯	-11.071
ycb쎯》:“	-11.0713
whm쎯pwfi쎯	-11.0713
▁ux쎯yiu쎯	-11.0714
gxgu쎯ntg쎯	-11.0714
tkh쎯tkh쎯	-11.0714
ym쎯uqt쎯r쎯	-11.0714
fq쎯pwl쎯	-11.0715
,i쎯ce쎯	-11.0716
쎇eee쎯xxf쎯og쎯gf쎯	-11.0716
xg쎯,	-11.0718
pb쎯wsg0쎯	-11.0721
ian0쎯wys쎯	-11.0721
ikh0쎯unr쎯	-11.0723
yy쎯aa쎯。	-11.0724
fhu쎯bm쎯	-11.0727
yvh쎯mmm쎯	-11.0727
wv쎯aq쎯	-11.0727
,dty쎯tq쎯	-11.0728
fny쎯pe쎯。	-11.0729
tk쎯e쎯	-11.0731
cd쎯yaf쎯ta쎯	-11.0732
ruv쎯ty쎯	-11.0732
ma쎯anb0쎯	-11.0734
▁쎂쎀쎁쎀rh쎯	-11.0736
ftbt쎯jgm쎯,	-11.0739
gd쎯ft쎯	-11.0739
dht쎯gd쎯	-11.0741
yo쎯fcl쎯	-11.0743
ran쎯	-11.0744
gf쎯쎂쎀쎀쎈rh쎯	-11.0744
f쎯aq쎯。	-11.0745
eee쎯fjh0쎯	-11.0749
k쎯yygy쎯qk쎯:	-11.0752
,g쎯fh쎯	-11.0752
k쎯gef쎯rh쎯	-11.0754
tg쎯gqx쎯	-11.0754
《usr쎯	-11.0755
ta쎯xq쎯	-11.0756
amw쎯qc쎯,	-11.0756
tg쎯u쎯ce쎯lt쎯	-11.0757
yo쎯o쎯	-11.0757
dgh쎯shy쎯	-11.0758
tx쎯g쎯rx쎯	-11.076
g쎯ck쎯	-11.0761
dgtg쎯sft쎯	-11.0762
nnh쎯》:“	-11.0763
rnb쎯rfm쎯	-11.0763
,ua쎯c쎯	-11.0766
o쎯et쎯yne쎯rj쎯waw쎯	-11.0766
ㄒ	-11.0766
tda쎯	-11.0767
pye쎯tdij쎯	-11.0767
,wyc쎯	-11.0767
tffu쎯g쎯txi쎯gq쎯	-11.0768
dd쎯eyb쎯	-11.0769
,tffy0쎯	-11.0769
쎅wc쎯jfd쎯	-11.0769
qev쎯gxgu쎯	-11.077
jff1쎯	-11.0771
gip쎯d쎯	-11.0772
▁fg쎯	-11.0773
ug	-11.0774
lk쎯pnt쎯	-11.0776
ymf쎯kfi쎯ou쎯	-11.0777
,tfq쎯	-11.0779
wk쎯udyj쎯	-11.0779
ryiy쎯	-11.0779
qev쎯un쎯b쎯	-11.078
ipk쎯tv쎯nnh쎯yn쎯、	-11.078
med쎯	-11.078
:쎀.	-11.0784
tfkp쎯xqa쎯	-11.0786
,쎂쎀쎀쎅rh쎯	-11.0786
fuj쎯lwj쎯	-11.0788
wg쎯wsg0쎯km쎯a쎯	-11.0788
ygu쎯pg쎯	-11.0789
ymf쎯gj쎯	-11.0789
um쎯w쎯	-11.0792
udj쎯mww쎯	-11.0793
i쎯on쎯r쎯	-11.0796
thgc쎯gl쎯	-11.0796
r쎯uqt쎯js쎯	-11.08
ftg쎯ygh쎯	-11.0802
qv	-11.0802
jp쎯	-11.0806
mmm쎯ai쎯dd쎯ip쎯	-11.0806
,fm쎯gn쎯	-11.0807
kynw쎯	-11.0809
sks쎯wwx쎯xx쎯gog쎯	-11.0809
qn	-11.0809
j쎯uqf쎯	-11.081
쎁uqw쎯	-11.0812
ts쎯xyy0쎯	-11.0813
ymc쎯tlf2쎯t쎯	-11.0815
ige쎯iq쎯xft쎯	-11.0815
dskf쎯yop쎯	-11.0816
쎄w쎯	-11.0816
fcl쎯lt쎯ip쎯	-11.0817
rwyg쎯bm쎯b쎯	-11.0819
ih쎯iytb0쎯ca쎯	-11.082
ta쎯、	-11.0821
o쎯hx쎯	-11.0821
puhc쎯yw쎯o쎯j쎯	-11.0822
td쎯qk쎯r쎯	-11.0824
qve쎯uqd0쎯	-11.0824
か	-11.0827
qvn2쎯fiyt쎯	-11.0828
쎃.쎇	-11.083
쎂쎆쎀	-11.0831
sbb쎯	-11.0831
l쎯e쎯uqwm0쎯u쎯	-11.0833
mt쎯tkh쎯	-11.0833
r쎯ip쎯nu쎯	-11.0833
jo쎯hhu0쎯od쎯gajf쎯	-11.0835
gmww쎯wug1쎯	-11.0837
i쎯vb쎯	-11.0838
e쎯wh쎯	-11.0838
fh쎯iyc쎯	-11.084
wg쎯rh쎯	-11.084
mf쎯tl쎯tp쎯gj쎯	-11.0841
qgu쎯je쎯	-11.0841
쎅쎀dq쎯,	-11.0845
xuq쎯	-11.0845
ul쎯o쎯	-11.0847
jn쎯se쎯	-11.0848
yid쎯cf쎯	-11.085
pg쎯jf쎯	-11.0853
n쎯apk쎯	-11.0853
fg쎯fgh쎯an쎯xn쎯	-11.0853
gu쎯ime쎯	-11.0858
r쎯tg쎯wgkb2쎯	-11.0858
wi쎯	-11.0859
wwj쎯wfhg쎯r쎯	-11.0861
yc쎯wv쎯v쎯rpl쎯	-11.0861
g쎯uf쎯	-11.0863
ggi쎯fuj쎯k쎯	-11.0863
img쎯ex쎯	-11.0863
x쎯iyj쎯vfhp1쎯ymc쎯	-11.0867
wdt쎯dn쎯	-11.087
ghd0쎯dqe쎯r쎯	-11.087
qk쎯suq쎯	-11.0871
gyg1쎯hko쎯	-11.0871
ifk쎯uqv쎯	-11.0872
ftx쎯rh쎯w쎯	-11.0872
ta쎯dw0쎯ymhj쎯	-11.0876
a쎯tv쎯	-11.0877
g쎯nnh쎯	-11.0878
bm쎯uqwm0쎯	-11.0879
イ	-11.088
tx쎯vt쎯nm쎯	-11.088
쎅쎀oy쎯	-11.0881
ii쎯fakg1쎯	-11.0881
yge쎯fiy쎯	-11.0882
e쎯qc쎯qqqq1쎯ntk쎯	-11.0882
et쎯jg쎯	-11.0882
fft쎯	-11.0883
kha쎯egc쎯fd쎯	-11.0883
uthp쎯hw쎯	-11.0884
rua쎯rgef쎯	-11.0885
uda쎯klj쎯	-11.0886
、ggi쎯fuj쎯	-11.0886
wvf쎯ert쎯	-11.0886
ip쎯wf쎯wf쎯km쎯,	-11.0888
ii쎯idr쎯	-11.0888
wv쎯tf쎯	-11.0889
rfw쎯wvm쎯	-11.089
an쎯lwj쎯tk쎯f쎯	-11.0891
txg쎯eb쎯	-11.0892
dxa쎯	-11.0892
xyna0쎯xkw쎯	-11.0893
i쎯on쎯f쎯	-11.0893
pdc쎯cm쎯	-11.0894
dd쎯yy쎯	-11.0895
lq쎯ic쎯	-11.0895
k쎯l쎯ugdu쎯sy쎯	-11.0896
k쎯kht쎯	-11.0898
쎁쎉쎉쎉	-11.0899
,쎂쎀쎀쎄rh쎯	-11.0901
ah쎯hwb쎯	-11.0902
hk쎯e쎯	-11.0904
uxt쎯bct쎯	-11.0906
iry쎯gxi쎯	-11.0908
tve쎯cw쎯	-11.0909
fd쎯ffuk쎯	-11.0909
r쎯ovt쎯rnd1쎯	-11.0912
wy쎯gkim0쎯	-11.0913
ytfp1쎯bpf쎯	-11.0914
bm쎯v쎯	-11.0914
rhf쎯mqb쎯	-11.0916
qsj쎯	-11.0917
gk쎯tl쎯rn쎯	-11.0917
ak쎯adw쎯wb쎯	-11.0918
qve쎯skf쎯	-11.0919
vvv쎯pyj쎯	-11.0921
ijo쎯iugg0쎯	-11.0923
hx쎯jf쎯	-11.0924
wfny0쎯udp쎯	-11.0925
gu쎯jf쎯	-11.0925
kkkk0쎯mdfj쎯	-11.0926
je쎯gd쎯	-11.0929
hu쎯	-11.0929
kq쎯·	-11.0931
itd쎯fcl쎯k쎯	-11.0931
,lk쎯xk쎯	-11.0932
ipg쎯yo쎯	-11.0933
vvv쎯fghg쎯	-11.0933
yww쎯ait쎯d쎯	-11.0934
,rjg0쎯wtf쎯	-11.0938
▁mh쎯gf쎯	-11.094
atgn쎯	-11.094
ux쎯wmj0쎯	-11.0941
yny0쎯、	-11.0941
k쎯aw쎯k쎯md쎯	-11.0941
◇	-11.0941
wc쎯aa쎯	-11.0942
lft쎯ta쎯	-11.0942
gu쎯oy쎯	-11.0942
쎅dnv1쎯	-11.0943
an쎯lwj쎯r쎯	-11.0944
gm쎯e쎯bk쎯a쎯	-11.0944
veg쎯veg쎯	-11.0944
wbj쎯wtl쎯	-11.0945
ym쎯rt쎯	-11.0945
lhnh쎯xe쎯	-11.0945
dgtg쎯ynt쎯	-11.0948
rx쎯uwy1쎯r쎯	-11.0948
in	-11.0951
fm쎯rcy0쎯	-11.0951
rpv쎯qvfp1쎯	-11.0952
r쎯fdm쎯s쎯	-11.0955
ytey쎯iytb0쎯aq쎯	-11.0955
qqqq1쎯ptkm0쎯	-11.0956
img쎯rnb쎯	-11.0957
rn쎯fdm쎯r쎯	-11.0959
bqt쎯	-11.096
dd쎯ooo쎯	-11.096
rnb쎯rvyl쎯	-11.0966
ts쎯,	-11.0967
wht쎯gj쎯	-11.097
fqu쎯tqdh쎯	-11.0971
gh쎯yy쎯	-11.0971
ftjo1쎯ybv쎯	-11.0971
fd쎯fm쎯	-11.0974
iit쎯icw쎯	-11.0974
,epc쎯	-11.0975
fss쎯	-11.0976
rxj쎯pg쎯r쎯	-11.0979
,kha쎯egc쎯fd쎯	-11.0979
r쎯yygy쎯wx쎯	-11.0981
cf쎯jvko쎯	-11.0983
k쎯l쎯w쎯	-11.0984
gm쎯wynb쎯	-11.0985
ngj쎯jtg쎯	-11.0986
ymhj쎯ta쎯	-11.0986
,쎂쎀쎀쎆rh쎯	-11.0986
ii쎯iyc쎯	-11.0988
sfhg쎯puhc쎯	-11.0989
lnn1쎯	-11.099
ry쎯aet0쎯	-11.0991
쎁.쎉	-11.0991
cd쎯lk쎯fp쎯	-11.0993
gh쎯fcu1쎯	-11.0994
pg쎯tm쎯	-11.0995
aq쎯w쎯n쎯ght쎯ywf쎯	-11.0996
ukn쎯uk쎯wug1쎯gf쎯	-11.0997
u쎯sc쎯	-11.0997
kg	-11.0998
wfny0쎯ltk쎯	-11.0999
ip쎯suq쎯r쎯	-11.1001
wd쎯yf쎯	-11.1003
oe쎯otf쎯	-11.1004
yc쎯wv쎯tjh쎯et쎯	-11.1007
tp쎯gj쎯rmhj쎯ya쎯	-11.1007
uk쎯gkl쎯uk쎯ta쎯	-11.1007
,ua쎯gf쎯	-11.1009
,쎂쎀쎀쎇rh쎯	-11.1012
eb쎯tmc쎯	-11.1013
fq쎯fdm쎯	-11.1014
sfk쎯	-11.1015
,kj쎯	-11.1018
xyna0쎯thdi쎯	-11.1019
,wk쎯ygh쎯	-11.102
itx쎯rdc쎯쎂	-11.1021
fl쎯wf쎯gkl쎯wf쎯ta쎯	-11.1022
ftbt쎯ip쎯、tu쎯dga쎯	-11.1024
odm쎯nyb쎯	-11.1024
쎆.쎀	-11.1025
yy쎯qf쎯、ght쎯tgm쎯	-11.1025
gr쎯ia쎯	-11.1026
aqq쎯bj쎯	-11.1027
yfd쎯qfhw0쎯	-11.1027
gef쎯qmgk0쎯	-11.1027
ld쎯ugm쎯	-11.1029
e쎯bv쎯wc쎯ngk쎯j쎯g쎯	-11.103
(wys쎯lft쎯)	-11.1031
emc쎯sc쎯	-11.1034
aqo쎯awx쎯	-11.104
uy	-11.1043
gkl쎯dga쎯pwv쎯km쎯	-11.1046
apo쎯iq쎯	-11.1046
wsg0쎯yce쎯qnp쎯	-11.1046
pww쎯tkw쎯yx쎯	-11.1051
lfn쎯ty쎯	-11.1052
쎁쎀쎄	-11.1053
pv쎯wg쎯ntg쎯	-11.1053
cel쎯nb쎯	-11.1054
ngk쎯wyc쎯	-11.1057
xgm쎯	-11.1057
waw쎯xw쎯	-11.1058
쎁/쎄	-11.1058
ym쎯kkk쎯rfm쎯r쎯	-11.1058
wc쎯ngk쎯j쎯g쎯pe쎯	-11.1059
rgw쎯kkd쎯	-11.1059
▁sg쎯nnh쎯	-11.106
iq쎯xg쎯	-11.1061
k쎯xe쎯	-11.1063
ge쎯gm쎯o쎯	-11.1064
ty쎯wygg쎯	-11.1064
thd쎯ick쎯egc쎯	-11.1069
ynvf쎯	-11.1069
hhhh쎯vi쎯gh쎯	-11.1069
vf쎯fiy쎯	-11.107
dnv1쎯ylf0쎯,	-11.1071
rn쎯tj쎯	-11.1071
nc쎯tr쎯	-11.1071
fny쎯o쎯	-11.1073
uh쎯fhg1쎯d쎯	-11.1074
fuk쎯yk쎯、	-11.1075
wtr쎯l쎯	-11.1077
gn쎯yid쎯et쎯	-11.108
wynk쎯yq쎯	-11.1083
,ux쎯gn쎯	-11.1083
u쎯og쎯v쎯nae쎯	-11.1083
gf쎯쎂쎀쎀쎆rh쎯	-11.1085
pnt쎯puhc쎯	-11.1085
:쎈	-11.1087
bm쎯thgc쎯py쎯:	-11.1087
qqqq1쎯qg쎯	-11.1089
bn쎯yi쎯j쎯	-11.109
、whf쎯og쎯	-11.1092
ugdu쎯sy쎯pe쎯	-11.1094
▁adw쎯wb쎯	-11.1096
dga쎯pwv쎯,	-11.1098
,dty쎯qk쎯	-11.1099
pwdj쎯wfk쎯	-11.1101
iyni0쎯	-11.1102
rvf쎯dgv쎯	-11.1102
sk쎯sve쎯rnd1쎯	-11.1103
。쎂쎀쎀쎂rh쎯	-11.1103
wsg0쎯txi쎯。	-11.1104
r쎯ujn쎯ln쎯	-11.1105
udi쎯v쎯	-11.1107
fcu1쎯bwt쎯	-11.1108
edjn쎯rmhj쎯	-11.1111
py쎯tu쎯	-11.1111
awv쎯uff쎯	-11.1112
bwf쎯lk쎯	-11.1112
itd쎯tld1쎯	-11.1112
tlf2쎯pvs쎯	-11.1113
wvq쎯	-11.1113
synw쎯tha쎯	-11.1113
sghg1쎯rcy0쎯	-11.1116
sft쎯ou쎯:	-11.1116
、mqq쎯xtk쎯	-11.1117
wh쎯eee쎯	-11.1117
xyy0쎯,	-11.1117
f쎯ge쎯	-11.1117
afqb2쎯ide쎯	-11.1118
。’	-11.1119
dd쎯dd쎯	-11.112
sfi쎯yn쎯	-11.1121
ovt쎯tfk쎯	-11.1126
ish쎯	-11.1126
mq쎯jy쎯qk쎯etg쎯aq쎯	-11.1126
ω	-11.1127
euk쎯ait쎯	-11.1128
nu쎯wwwk쎯	-11.1129
pgc쎯,	-11.113
big쎯	-11.113
puhc쎯rpd1쎯	-11.1132
dy쎯dr쎯ymhj쎯	-11.1133
qc쎯gxi쎯	-11.1134
gf쎯쎂쎀쎀쎇rh쎯	-11.1134
imk쎯mdfj쎯	-11.1134
r쎯vvv쎯qt쎯	-11.1134
u쎯kkk쎯dga쎯v쎯	-11.1134
ta쎯tyna2쎯	-11.1135
mmm쎯ii쎯gl쎯	-11.1135
pgn쎯pb쎯sov쎯	-11.1136
hk쎯f쎯dm쎯tkw쎯쎁	-11.1139
쎁쎈쎈	-11.1139
ooo쎯qkm쎯	-11.114
whf쎯og쎯wys쎯lft쎯	-11.1141
kvi쎯	-11.1141
oo쎯ugh쎯	-11.1141
ww쎯og쎯w쎯km쎯	-11.1142
jghx쎯	-11.1142
uu쎯khu쎯gf쎯	-11.1142
ivs쎯qc쎯wsg0쎯	-11.1143
ym쎯usr쎯aq쎯	-11.1143
쎃.쎈	-11.1143
o쎯pp쎯	-11.1144
▁pv쎯wg쎯	-11.1145
dyt쎯og쎯	-11.1148
yb쎯ny쎯	-11.1148
xef쎯nj쎯	-11.1149
쎉쎀쎀쎀	-11.115
k쎯l쎯a쎯pei쎯xa쎯pl쎯	-11.1151
ith쎯mw쎯	-11.1152
쎆w쎯,	-11.1152
쎁쎀eee쎯tg쎯,	-11.1152
wy쎯yyn1쎯	-11.1153
pu쎯bf쎯h쎯	-11.1154
wfny0쎯ivs쎯ugm쎯	-11.1154
jn쎯mqq쎯	-11.1155
mqq쎯gfi쎯	-11.1159
f쎯fnw쎯	-11.1161
oun쎯	-11.1164
wc쎯ud쎯	-11.1164
fny쎯ta쎯	-11.1164
x쎯cwg쎯。	-11.1164
lfn쎯fcl쎯	-11.1165
xq쎯fjw쎯·	-11.1166
me쎯rr쎯	-11.1167
ce쎯lt쎯t쎯	-11.1167
gqx쎯rg쎯	-11.1167
jtyl쎯hich쎯sw쎯sj쎯	-11.1168
ygh쎯rnd1쎯	-11.1168
ud쎯ng쎯	-11.1168
r쎯hka쎯ltk쎯	-11.1169
쎁쎂쎃	-11.1169
wc쎯jfd쎯th쎯,	-11.1169
gcf쎯wynb쎯d쎯	-11.117
ght쎯ywf쎯cy쎯f쎯	-11.1171
、ux쎯	-11.1172
쎆～	-11.1172
mq쎯es쎯	-11.1173
uh쎯、	-11.1175
k쎯r쎯yid쎯et쎯	-11.118
px쎯wu쎯r쎯	-11.1183
*쎁	-11.1184
(xq쎯	-11.1185
lk쎯ii쎯	-11.1186
py쎯wf쎯r쎯	-11.1188
xyna0쎯kgn쎯:	-11.1189
jg쎯r쎯	-11.119
dga쎯pwv쎯yy쎯tm쎯:	-11.1192
qlp쎯ruv쎯	-11.1193
ipks쎯	-11.1193
tg쎯itd쎯。	-11.1193
tvfh1쎯jgm쎯gk쎯tl쎯	-11.1193
rnb쎯ijl쎯	-11.1195
kht쎯tca쎯	-11.1195
wk쎯pnt쎯	-11.1195
tmg1쎯fge쎯	-11.1195
pei쎯og쎯u쎯og쎯wx쎯	-11.1195
r쎯x쎯iyj쎯	-11.1196
ym쎯imkf1쎯	-11.1197
begg쎯hh쎯	-11.1197
tv쎯lw쎯wc쎯pgc쎯	-11.1199
g쎯an쎯	-11.1203
쎁쎉쎂	-11.1204
yjse쎯	-11.1204
qqqq1쎯qve쎯	-11.1205
lkp쎯	-11.1205
mwyc1쎯fm쎯	-11.1206
bb쎯bi0쎯	-11.1206
rj쎯wjjg쎯	-11.1207
ta쎯。	-11.1208
nge쎯w쎯	-11.121
et쎯yne쎯rj쎯waw쎯	-11.1211
ㄌ	-11.1211
r쎯w쎯tg쎯	-11.1215
tjf쎯ou쎯	-11.1216
sa쎯	-11.1216
usgp1쎯pf쎯	-11.1219
pt쎯yny0쎯ukn쎯ovt쎯	-11.122
,dn쎯uu쎯gf쎯	-11.122
wal쎯	-11.1221
ftbt쎯ip쎯dga쎯pwv쎯	-11.1224
tffu쎯a쎯wt쎯	-11.1226
iie쎯goi쎯	-11.1227
k1쎯	-11.1227
wv쎯ga쎯	-11.1229
p쎯xt쎯hhu0쎯	-11.1229
wa쎯ge쎯ntg쎯	-11.123
rt쎯k쎯	-11.1233
ui쎯kthh1쎯	-11.1235
wamj쎯	-11.1237
쎀*	-11.1237
mhny0쎯fpm쎯	-11.1239
twgi쎯ys쎯	-11.1239
xq쎯쎃	-11.1241
vcb쎯jf쎯	-11.1241
i쎯tffu쎯	-11.1245
,sghg1쎯wycb쎯	-11.1245
pl쎯w쎯	-11.1246
yfj쎯pwv쎯	-11.1246
je쎯jo쎯r쎯	-11.1247
lkd쎯go쎯	-11.1247
、yf쎯tha쎯sm쎯	-11.125
if쎯、	-11.1251
qqqq1쎯gkm쎯sm쎯sq쎯	-11.1251
sg쎯udh쎯“	-11.1252
r쎯ftbt쎯yce쎯	-11.1253
vk쎯gh쎯:	-11.1253
jty쎯irh쎯	-11.1254
ovt쎯ip쎯txi쎯	-11.1254
pei쎯ss쎯	-11.1255
wt쎯kkk쎯。	-11.1255
tkw쎯wv쎯	-11.1256
w쎯o쎯	-11.1257
g쎯fg쎯	-11.1257
pf쎯ryn0쎯	-11.1258
fg쎯fgh쎯rh쎯	-11.126
,px쎯r쎯	-11.1261
ipw쎯djb쎯r쎯	-11.1264
ftbt쎯yce쎯fuk쎯yk쎯	-11.1264
je쎯ypm쎯	-11.1265
tfk쎯wtu쎯	-11.1266
k쎯atd쎯ax쎯dd쎯ip쎯	-11.1267
zzy4쎯	-11.1268
pj쎯ugdu쎯	-11.1269
g쎯lp쎯	-11.127
쎇쎂쎀	-11.1272
bm쎯teg1쎯	-11.1273
lwx쎯eck쎯	-11.1274
eudi1쎯	-11.1274
o쎯hhhh쎯sfi쎯	-11.1275
tavn쎯	-11.1275
。쎁쎉쎄쎉rh쎯	-11.1276
ynm쎯ey쎯	-11.1277
gogn쎯yssc2쎯	-11.1277
oj쎯	-11.1279
w쎯fqu쎯dif쎯f쎯쎁.	-11.1279
mf쎯ght쎯uk쎯	-11.128
bcv쎯	-11.1282
lxx쎯	-11.1283
ul쎯puhc쎯	-11.1284
ty쎯ip쎯	-11.1284
,vfhp1쎯uu쎯	-11.1285
rg쎯d쎯	-11.1285
rn쎯ta쎯	-11.1287
qnq쎯ii쎯	-11.1288
dx쎯mdf쎯	-11.129
tg쎯ujn쎯	-11.129
wxf쎯gmy1쎯	-11.129
tx쎯wty쎯nm쎯	-11.1291
쎂쎀-	-11.1291
eq쎯uk쎯	-11.1292
tk쎯lwj쎯	-11.1292
yo쎯rq쎯	-11.1292
jn쎯bb쎯tu쎯rfc쎯	-11.1294
쎂쎈쎀	-11.1296
fpx쎯nx쎯	-11.1296
▁ww쎯	-11.1297
rdj쎯ta쎯	-11.1298
,ua쎯e쎯	-11.1298
iw쎯fhn쎯	-11.1299
bg쎯pym쎯	-11.1299
ae쎯ujfj쎯	-11.13
gf쎯쎂쎀쎀쎅rh쎯	-11.1302
쎅w쎯,	-11.1303
uth쎯wycm0쎯	-11.1304
g쎯ya쎯	-11.1305
smmv0쎯	-11.1311
-쎁쎁	-11.1311
l쎯pe쎯bw쎯	-11.1314
jja쎯iq쎯	-11.1315
쎂—	-11.1317
wyw쎯	-11.1318
tp쎯gj쎯ip쎯	-11.1319
tg쎯u쎯rfc쎯sy쎯	-11.132
nt쎯qd쎯	-11.132
。vfhp1쎯gf쎯	-11.1321
rvk쎯sfi쎯	-11.1321
iyc쎯ire쎯	-11.1322
wvf쎯wg쎯	-11.1324
e쎯xg쎯jn쎯pym쎯	-11.1324
ukn쎯jg쎯	-11.1325
y쎯ick쎯atd쎯jgm쎯	-11.1325
mqc쎯tr쎯k쎯ny쎯	-11.1327
akkn0쎯	-11.1328
ige쎯fjt쎯btg쎯	-11.1331
wf쎯wf쎯ta쎯	-11.1332
lg쎯gajf쎯	-11.1332
nae쎯jtyq1쎯wf쎯	-11.1335
vk쎯ujn쎯	-11.1335
sksw쎯kjj쎯	-11.1337
jw쎯	-11.1338
sq쎯wrh2쎯	-11.1339
、xa쎯	-11.134
all쎯	-11.1341
jb쎯qq쎯r쎯	-11.1342
rt쎯rxj쎯	-11.1342
py쎯wf쎯v쎯nae쎯	-11.1342
bgu쎯	-11.1343
wv쎯a쎯	-11.1345
dgh쎯qfhw0쎯	-11.1346
lt쎯jg쎯dcw쎯djb쎯	-11.1349
gyt쎯xe쎯	-11.135
wkhh쎯fay쎯	-11.135
ad쎯f쎯。	-11.135
tak쎯bt쎯	-11.1352
▁쎇	-11.1356
fd쎯ymhj쎯fwm쎯aj쎯	-11.1358
rb1쎯py쎯	-11.136
wye쎯jvko쎯	-11.136
qqqq1쎯amw쎯qc쎯	-11.1361
dma쎯	-11.1362
gj쎯gk쎯	-11.1362
tjf쎯rnb쎯	-11.1365
bm쎯v쎯,	-11.1366
ey쎯yid쎯et쎯	-11.1368
jplh0쎯	-11.1369
sg쎯tu쎯xxf쎯og쎯	-11.1371
쎅쎅쎀	-11.1373
pp쎯hka쎯	-11.1376
ybf0쎯iwyf2쎯	-11.1377
nd쎯fghg쎯	-11.1377
fny쎯og쎯w쎯ft쎯	-11.1379
awx쎯adwe1쎯	-11.1379
jfi쎯	-11.138
ce쎯d쎯	-11.1381
aq쎯wv쎯	-11.1382
gae쎯wny0쎯	-11.1383
fdm쎯fiy쎯,	-11.1383
쎅—	-11.1383
:"	-11.1385
rt쎯xfn쎯	-11.1386
쎃wc쎯jfd쎯	-11.1387
kr쎯gc쎯	-11.1388
r쎯trf쎯gqr쎯	-11.1389
rajd쎯	-11.139
yo쎯tfp쎯	-11.1392
g쎯uj쎯	-11.1392
ipw쎯djb쎯	-11.1393
aw쎯vfhp1쎯	-11.1395
amd쎯yygy쎯qk쎯tq쎯:	-11.1396
jj쎯egc쎯	-11.1396
tcf쎯	-11.1398
yygy쎯wys쎯	-11.1399
▁rbcc쎯wqj쎯udi쎯	-11.1399
mmm쎯gh쎯	-11.14
pp쎯ujn쎯	-11.14
ftx쎯wx쎯	-11.1401
tl	-11.1404
gab쎯	-11.1404
,bn쎯yi쎯j쎯	-11.1405
lft쎯mqc쎯	-11.1405
i쎯fwm쎯mj쎯	-11.1405
wwgi쎯	-11.1406
aqq쎯jel쎯	-11.1406
▁zzy7쎯	-11.1407
dq쎯,	-11.1408
ikm쎯	-11.1409
tffu쎯tk쎯od쎯	-11.141
r쎯jb쎯dd쎯	-11.1412
ga쎯fffy쎯	-11.1413
r쎯dd쎯ih쎯	-11.1414
ta쎯bb쎯	-11.1418
wwj쎯wfhg쎯cm쎯	-11.1421
f쎯wdm쎯	-11.1422
iv쎯gk쎯w쎯	-11.1424
zzf	-11.1424
rfc쎯sy쎯gn쎯	-11.1425
nh쎯vi쎯b쎯	-11.1425
hcd쎯hw쎯	-11.1425
eyf쎯	-11.1426
tffu쎯ujfj쎯wug1쎯	-11.1426
lkd쎯nn쎯	-11.1427
fq쎯gxgu쎯	-11.1428
yny0쎯bb쎯	-11.143
ii쎯gu쎯。	-11.143
xp쎯wgk쎯ick쎯gj쎯	-11.143
w쎯tr쎯。	-11.143
udh쎯tgj쎯	-11.1431
rnb쎯kfi쎯	-11.1431
dy쎯se쎯	-11.1432
bfm쎯f쎯	-11.1433
gef쎯awx쎯	-11.1433
▁g쎯、	-11.1435
,uvo쎯	-11.1435
쎂쎃쎀	-11.1436
ny쎯tld1쎯tp쎯	-11.1438
.쎁쎀	-11.1438
tk쎯adm쎯a쎯wt쎯	-11.1442
wv쎯uyt0쎯yx쎯:	-11.1443
jqw쎯	-11.1443
qk쎯ujfj쎯	-11.1444
,bde쎯	-11.1446
v쎯nae쎯dn쎯o쎯	-11.1446
pp쎯mw쎯	-11.1446
yo쎯gjq쎯	-11.1447
。쎂쎀쎀쎉rh쎯	-11.1453
iet쎯	-11.1453
r쎯xf쎯sq쎯	-11.1453
t쎯k쎯l쎯	-11.1454
isk쎯sghg1쎯	-11.1454
쎁쎇쎆	-11.1455
ugdu쎯w쎯	-11.1455
dd쎯nae쎯	-11.1455
”thgf0쎯	-11.1456
pu쎯et쎯ntg쎯	-11.1456
dnv1쎯rh쎯	-11.1457
oqy0쎯	-11.1457
(쎁쎆	-11.1457
▁pym쎯hid쎯	-11.1457
tfq쎯rg쎯rjg0쎯wtf쎯	-11.1457
tgh쎯nh쎯	-11.1458
v쎯rnr쎯	-11.1458
rny1쎯wtf쎯	-11.146
。쎁쎉쎈쎂rh쎯	-11.146
dqe쎯	-11.146
쎁쎃쎃	-11.1461
쎁쎉쎉쎁	-11.1461
xgo쎯ytt쎯	-11.1463
uth쎯wh쎯	-11.1464
f쎯wug1쎯。	-11.1465
rrhy쎯wygg쎯	-11.1466
gkp쎯go쎯r쎯	-11.1466
sx쎯nnh쎯	-11.1467
rm	-11.1467
rfm쎯jg쎯tx쎯g쎯	-11.1467
qr쎯dyt쎯	-11.1468
fob쎯	-11.1469
kie쎯	-11.1469
ixw쎯fyn쎯	-11.147
,쎂쎀쎀쎃rh쎯	-11.1471
tq쎯kgn쎯,	-11.1474
ym쎯rfm쎯jg쎯r쎯	-11.1475
ddm쎯fghg쎯tg쎯nf쎯	-11.1475
qtgw1쎯pwtf0쎯	-11.1475
oyv쎯img쎯	-11.1476
sm쎯gj쎯	-11.1478
dyc쎯wx쎯	-11.148
puhc쎯tq쎯o쎯“	-11.148
mmm쎯xte쎯	-11.1483
rc쎯“lfnh쎯vjsj쎯”	-11.1484
kq쎯》	-11.1485
ooo쎯po쎯	-11.1485
qnq쎯et쎯	-11.1486
쎀쎀쎀gu쎯yy쎯oy쎯,	-11.1487
ym쎯wqa쎯	-11.1487
ypt쎯oy쎯,	-11.1487
쎁쎉쎉쎆	-11.1488
yvh쎯·	-11.1488
syc쎯	-11.1489
hc쎯efw쎯ugm쎯	-11.1489
trf쎯e쎯	-11.1489
쎃.쎄	-11.149
sk쎯d쎯	-11.149
if쎯,	-11.1491
gu쎯src쎯	-11.1493
ufg쎯cm쎯	-11.1493
쎁wc쎯jfd쎯	-11.1493
mga쎯cbj쎯	-11.1496
qyk쎯maf0쎯	-11.1496
bwj쎯xe쎯	-11.1497
ukn쎯hk쎯f쎯dm쎯tkw쎯	-11.1498
nty1쎯qk쎯	-11.1499
dh쎯egc쎯	-11.1501
,iy쎯tgj쎯	-11.1503
ue쎯tmd쎯j쎯	-11.1503
、irn쎯lg쎯	-11.1506
wtl쎯pfj쎯	-11.1507
itx쎯kkkk0쎯	-11.1507
.쎁쎁	-11.1508
ta쎯jf쎯uj쎯	-11.1511
r쎯x쎯apk쎯	-11.1511
ct쎯。”	-11.1513
r쎯ii쎯	-11.1514
yni1쎯qy쎯	-11.1514
kl쎯g쎯tkh쎯	-11.1514
jghy쎯wfg0쎯	-11.1515
hfc쎯	-11.1517
gf쎯쎂쎀쎁쎁rh쎯	-11.1518
nny0쎯tfn쎯	-11.1518
wu쎯r쎯	-11.1518
by쎯uqwl쎯	-11.1519
yoo쎯udjh쎯	-11.152
ue쎯ftj쎯	-11.1523
쎁쎀eee쎯bm쎯tg쎯,	-11.1523
쎄.쎈	-11.1525
tk쎯uk쎯uyh쎯	-11.1525
puvc0쎯	-11.1525
tmgt3쎯	-11.1525
wxb쎯	-11.1526
g쎯ih쎯	-11.1527
,wgc쎯ty쎯	-11.1529
cd쎯pfjm1쎯	-11.1529
uk쎯uth쎯:	-11.153
jx쎯je쎯ymhj쎯	-11.1531
y쎯apk쎯	-11.1532
,tdp쎯wgk쎯	-11.1532
uy쎯fgh쎯	-11.1533
uh쎯hko쎯	-11.1533
ip쎯qk쎯	-11.1533
ux쎯aq쎯	-11.1533
ipg쎯wx쎯	-11.1536
lds쎯gae쎯	-11.1539
qc쎯,	-11.1539
rmc쎯u쎯	-11.1539
ijl쎯cbts0쎯	-11.154
▁h쎯itx쎯	-11.154
ss쎯ssss쎯	-11.154
,yid쎯	-11.1542
hx쎯od쎯	-11.1543
kkd쎯tr쎯	-11.1544
ipw쎯tfkp쎯	-11.1544
(쎅)	-11.1544
rnb쎯rnw쎯	-11.1545
adwe1쎯bv쎯	-11.1546
rvyo쎯ny쎯	-11.155
(쎁쎀	-11.1551
pyj쎯tn쎯r쎯	-11.1552
,ad쎯uk쎯	-11.1553
ip쎯ire쎯	-11.1554
xg쎯、	-11.1555
。쎂쎀쎀쎃rh쎯	-11.1556
rep쎯yjs쎯	-11.1556
e쎯gmww쎯wh쎯	-11.1558
an쎯w쎯	-11.1558
wty쎯fgh쎯	-11.1558
fqp쎯yb쎯	-11.1558
xad쎯tfn쎯	-11.1559
ymc쎯yf쎯t쎯	-11.1559
lwg쎯ty쎯if쎯	-11.156
ff쎯ymd쎯	-11.1561
w쎯ntg쎯wx쎯	-11.1561
rg쎯gmf쎯	-11.1562
iytb0쎯ca쎯《	-11.1564
sg쎯rfm쎯	-11.1564
쎁쎀쎉	-11.1564
ai쎯jty쎯	-11.1565
fggh쎯jfj쎯	-11.1568
xh쎯et쎯	-11.157
dn쎯wqj쎯	-11.157
jf쎯iq쎯	-11.1574
c0쎯	-11.1576
gc쎯yqa쎯	-11.1577
쎁쎁eee쎯tg쎯,	-11.158
tmg1쎯sm쎯	-11.158
fcp쎯lfn쎯	-11.1581
wgkb2쎯jghm1쎯	-11.1582
io쎯amw쎯qc쎯	-11.1582
qytb0쎯wx쎯	-11.1582
ftbt쎯yce쎯、	-11.1584
wa쎯kgn쎯	-11.1586
tfq쎯fj쎯rfc쎯sy쎯	-11.1586
bk쎯wug1쎯	-11.1589
ym쎯gxi쎯rfm쎯r쎯	-11.1589
dg쎯eee쎯	-11.1591
,cd쎯lk쎯b쎯	-11.1591
duo쎯	-11.1592
dga쎯pwv쎯tg쎯bpf쎯	-11.1594
ovt쎯rnd1쎯xg쎯	-11.1595
쎈쎀rh쎯wa쎯	-11.1596
"。	-11.1597
ym쎯u쎯	-11.1597
ih쎯ooo쎯	-11.1598
o쎯hh쎯	-11.1598
x쎯qie쎯	-11.1599
yygt쎯dd쎯et쎯yne쎯	-11.1599
dga쎯rmhj쎯r쎯	-11.1601
tf쎯fhu쎯	-11.1601
uyh쎯pwt쎯	-11.1602
ymc쎯uu쎯b쎯	-11.1603
ipkh1쎯xv쎯	-11.1603
bukn쎯	-11.1604
nfc쎯dm쎯	-11.1604
ve쎯img쎯	-11.1605
ga쎯uit쎯	-11.1605
▁쎇、	-11.1606
wycb쎯rp쎯	-11.1609
fny쎯lkb쎯《	-11.1609
、jjjj쎯sg쎯	-11.161
lkd쎯rb1쎯	-11.161
。cf쎯gf쎯	-11.1613
rg쎯an쎯	-11.1614
쎂쎀wh쎯	-11.1615
whm쎯	-11.1615
qvw쎯	-11.1615
ya쎯,	-11.1618
umia쎯	-11.1619
ym쎯usr쎯	-11.162
쎅jjjj쎯	-11.162
gqje쎯thg0쎯	-11.1621
ipw쎯th쎯	-11.1624
,ga쎯nae쎯	-11.1624
rfc쎯sy쎯w쎯ft쎯	-11.1625
ym쎯hid쎯	-11.1626
wht쎯ghd0쎯	-11.1626
tfc쎯	-11.1627
tx쎯ag쎯nm쎯	-11.163
fuk쎯yk쎯gyt쎯	-11.1631
ccc쎯j쎯	-11.1631
w쎯kkkk0쎯쎂	-11.1632
“dd쎯	-11.1632
dgh쎯tdij쎯	-11.1633
쎃、	-11.1634
thd쎯qd쎯wk쎯ryn0쎯	-11.1635
y쎯nf쎯	-11.1636
u쎯kkk쎯ga쎯v쎯	-11.1638
bynw0쎯bb쎯r쎯	-11.1641
fh쎯dp쎯	-11.1641
,xxf쎯og쎯gf쎯	-11.1641
쎁쎁wh쎯	-11.1643
nhw쎯	-11.1643
yy쎯ghd0쎯	-11.1644
nh쎯adnt1쎯。	-11.1645
,bwt쎯b쎯	-11.1646
r쎯ick쎯ubk0쎯	-11.1651
go쎯jn쎯	-11.1652
ybt쎯or쎯	-11.1653
쎄.쎁	-11.1653
,txi쎯	-11.1654
jc쎯qvn2쎯	-11.1654
,j쎯g쎯pe쎯wys쎯	-11.1654
ga쎯og쎯jf쎯uj쎯	-11.1656
gjq쎯e쎯	-11.1657
tuxj쎯wtu쎯	-11.1657
qqqq1쎯dgtg쎯	-11.1658
qqqq1쎯wxf쎯	-11.1658
mf쎯wf쎯	-11.1661
wc쎯rtt쎯,	-11.1662
쎇쎀%	-11.1663
쎂쎀qq쎯	-11.1663
qnf쎯	-11.1663
wm쎯w쎯	-11.1664
uyh쎯、	-11.1665
arj쎯ae쎯	-11.1665
dgkn쎯jhf1쎯	-11.1667
),pyg쎯vfhp1쎯ith쎯	-11.1673
uq쎯ian0쎯	-11.1675
gkl쎯nnh쎯yn쎯、	-11.1676
xkw쎯tr쎯	-11.1678
yem쎯	-11.1679
wmw쎯wx쎯	-11.1679
ipk쎯tv쎯tv쎯km쎯、	-11.168
jri쎯	-11.1681
gcf쎯gf쎯	-11.1681
ulg쎯atd쎯	-11.1685
쎁쎁.	-11.1685
fyk쎯	-11.1685
)pb쎯	-11.1687
r쎯dn쎯xgm쎯	-11.1688
rf쎯qy쎯	-11.1688
qh쎯cm쎯ymc쎯yf쎯	-11.1688
tve쎯vb쎯	-11.169
ftbt쎯yce쎯gk쎯og쎯	-11.1692
wycm0쎯fakg1쎯,	-11.1692
aqg쎯aqr쎯ah쎯	-11.1694
ntg쎯xk쎯	-11.1694
dd쎯itx쎯	-11.1698
sgd쎯	-11.1699
e쎯qk쎯r쎯	-11.1699
uyh쎯yne쎯mqq쎯uh쎯	-11.1699
wdn쎯rfm쎯r쎯u쎯kkk쎯	-11.17
hhhh쎯ue쎯nnnn쎯	-11.1701
ay쎯tjf쎯	-11.1703
qnth쎯kkk쎯	-11.1703
wgd쎯	-11.1705
itx쎯ipr쎯	-11.1706
nnl쎯sgyb쎯	-11.1706
isk쎯qfhw0쎯	-11.1711
ga쎯nae쎯b쎯	-11.1711
rymn쎯alt쎯	-11.1712
buj쎯	-11.1715
ck쎯、	-11.1715
oq쎯rgw쎯	-11.1715
《ud쎯gf쎯	-11.1716
+쎂	-11.1716
ia쎯aq쎯	-11.1719
jhng쎯:	-11.172
,dt쎯egl쎯	-11.172
bmg쎯o쎯	-11.1721
uu쎯fn쎯	-11.1721
atd쎯ip쎯fge쎯fghg쎯	-11.1722
:쎆	-11.1722
dty쎯jfd쎯	-11.1722
r쎯fd쎯ymhj쎯	-11.1723
mq	-11.1723
ta쎯r쎯	-11.1723
wy쎯ny쎯	-11.1724
v쎯wyk쎯	-11.1724
。쎁쎉쎈쎅rh쎯	-11.1724
、um쎯tl쎯	-11.1724
saj쎯wyn쎯	-11.1724
g쎯fh쎯d쎯	-11.1725
rh쎯uj쎯,	-11.1725
fhv쎯fnr쎯	-11.1726
age쎯lll쎯	-11.1726
pei쎯pe쎯	-11.1728
mqq쎯xtk쎯tu쎯rfc쎯	-11.1728
wfny0쎯·	-11.1728
tgj쎯hko쎯k쎯ip쎯	-11.1731
iyw쎯jjj쎯	-11.1731
k쎯mmm쎯ymhj쎯	-11.1732
r쎯ftx쎯	-11.1733
pw쎯ny쎯	-11.1734
uk쎯imkf1쎯nnh쎯	-11.1737
lfo쎯pt쎯	-11.1737
:쎃쎀	-11.1739
k쎯ip쎯tg쎯	-11.1739
qqqq1쎯bfw쎯	-11.1739
oge쎯iad쎯r쎯	-11.174
wmj0쎯dm쎯	-11.1741
pjm쎯ujn쎯	-11.1742
wyv쎯fhl쎯	-11.1743
yd쎯maw쎯	-11.1744
ytt쎯thd쎯ick쎯egc쎯	-11.1748
sri쎯aa쎯wf쎯py쎯	-11.1749
swc쎯ia쎯	-11.175
o쎯l쎯pe쎯	-11.175
uyh쎯qh쎯	-11.1752
wsg0쎯rfm쎯	-11.1752
φ	-11.1752
r쎯gkih쎯wsg0쎯	-11.1754
쎁쎀쎃	-11.1754
,hk쎯f쎯dm쎯tkw쎯	-11.1754
iwf쎯tf쎯r쎯	-11.1755
tffu쎯qq쎯	-11.1755
svc쎯rtd쎯	-11.1756
,djd쎯	-11.1756
ftbt쎯rep쎯、fge쎯	-11.1757
cyn쎯	-11.1758
ovt쎯hhhh쎯	-11.1759
bjm쎯	-11.1759
쎈rh쎯	-11.176
c쎯ai쎯	-11.176
h쎯up쎯	-11.1761
nty1쎯vfhp1쎯	-11.1762
suq쎯mq쎯	-11.1763
fff1쎯	-11.1763
。rxj쎯	-11.1764
qaf쎯	-11.1766
udy쎯。	-11.1766
uqd0쎯、	-11.1767
sks쎯sks쎯	-11.1769
wdn쎯ugdu쎯r쎯	-11.177
ㄙ	-11.1771
wwx쎯gj쎯	-11.1773
je쎯rrr쎯	-11.1773
,쎂쎀쎀쎂rh쎯	-11.1776
쎇jjjj쎯	-11.1776
wv쎯pdhj쎯	-11.1777
hk쎯rnd1쎯	-11.1782
ald쎯	-11.1782
ige쎯tjf쎯	-11.1783
bb쎯pk쎯	-11.1784
gkp쎯pa쎯	-11.1785
um쎯et쎯	-11.1785
__	-11.1786
。쎂쎀쎁쎀rh쎯	-11.1788
fcp쎯apk쎯um쎯	-11.1788
qejy쎯rajd쎯nua쎯	-11.1788
gmm쎯	-11.1789
。wb쎯r쎯	-11.1791
sgye1쎯	-11.1791
▁iytb0쎯ca쎯	-11.1792
bn쎯d쎯	-11.1793
dnv2쎯adw쎯	-11.1793
aps쎯iwyf2쎯tq쎯k	-11.1794
euk쎯yb쎯	-11.1794
tdp쎯et쎯aib쎯lfnh쎯	-11.1795
irh쎯	-11.1796
ft쎯j쎯	-11.1797
yynw1쎯adm쎯hhhh쎯	-11.1799
vtkd1쎯y쎯	-11.1799
ul쎯rjg0쎯wtf쎯	-11.18
dgv쎯qiu0쎯	-11.18
(《	-11.18
yo쎯af쎯	-11.1801
fg쎯fgh쎯lh쎯	-11.1801
ws쎯usi0쎯vkgd쎯qi쎯	-11.1801
uqb쎯aq쎯	-11.1801
r쎯qe쎯qc쎯	-11.1802
pfjm1쎯lg쎯	-11.1805
yww쎯,	-11.1806
kkks0쎯ujf쎯	-11.1807
ygk쎯yyy쎯:	-11.181
ajdf쎯f쎯	-11.1811
yne쎯,	-11.1811
du쎯fnrt쎯	-11.1813
bde쎯rg쎯	-11.1813
khn쎯ydn쎯	-11.1813
gf쎯hx쎯	-11.1814
。쎂.	-11.1815
w쎯dd쎯wa쎯ge쎯	-11.1815
an쎯wa쎯	-11.1816
jpv쎯	-11.1816
amw쎯img쎯	-11.1816
k쎯ai쎯	-11.1817
aqw쎯	-11.1818
a쎯qyv쎯	-11.1819
yygy쎯w쎯	-11.1819
ndj쎯《	-11.1823
j쎯q쎯	-11.1823
amw쎯isgg0쎯	-11.1823
r쎯bynw0쎯bb쎯	-11.1823
cd쎯lk쎯wg쎯l쎯	-11.1823
ca	-11.1823
,wgkq0쎯adw쎯	-11.1824
v쎯nae쎯。	-11.1824
hhu0쎯qiu0쎯	-11.1825
tfqp쎯rdc쎯	-11.1826
tmdy0쎯	-11.1826
dn쎯wwv쎯	-11.1828
yri쎯	-11.1828
gmu1쎯wtf쎯wc쎯ngk쎯	-11.1829
gkp쎯go쎯b쎯	-11.1829
dmj1쎯tj쎯qk쎯	-11.1829
th쎯、	-11.1829
jcf쎯rf쎯“	-11.1831
klj쎯qk쎯:	-11.1831
,vvv쎯,ic쎯ytt쎯,	-11.1832
,y쎯rf쎯	-11.1832
ipk쎯t쎯l쎯pe쎯	-11.1832
ai쎯aq쎯	-11.1836
nnnn쎯td쎯	-11.1837
ai쎯dm쎯	-11.1838
lq쎯adwr쎯	-11.1841
uq쎯cep쎯wgj쎯tjh쎯。	-11.1842
v쎯nae쎯gc쎯	-11.1842
dga쎯pwv쎯a쎯wt쎯	-11.1844
dd쎯ip쎯sg쎯tu쎯	-11.1844
),j쎯	-11.1844
tf쎯jtg쎯	-11.1845
vaf쎯	-11.1847
쎈w쎯,	-11.1849
tey쎯itx쎯	-11.185
r쎯ym쎯ya쎯	-11.185
lc쎯a쎯	-11.1851
쎆쎅쎀	-11.1852
dmj1쎯yyy쎯,	-11.1852
fggh쎯xg쎯	-11.1853
cd쎯pl쎯	-11.1856
쎁쎀wtu쎯	-11.1856
쎁쎂쎁	-11.1856
xmw쎯ty쎯	-11.1856
—)	-11.1859
iex쎯qfhw0쎯	-11.1859
sh쎯xx쎯,	-11.1861
fnm쎯	-11.1861
isk쎯egc쎯	-11.1862
,xj쎯d쎯	-11.1864
,lk쎯h쎯	-11.1864
yhk쎯qge쎯	-11.1865
pp쎯ny쎯	-11.1866
wg쎯pl쎯	-11.1866
r쎯sh쎯ud쎯	-11.1867
um쎯og쎯tffh1쎯	-11.1868
rnp쎯ad쎯	-11.1868
mym쎯	-11.1868
u쎯rg쎯	-11.1869
ㄠ	-11.1869
djdy1쎯	-11.187
mw쎯dhb쎯pww쎯jg쎯	-11.1871
tjh쎯yx쎯	-11.1871
ggi쎯fuj쎯gh쎯	-11.1872
whf쎯og쎯rj쎯waw쎯	-11.1873
tdtj쎯	-11.1874
,dp쎯gc쎯	-11.1874
fgh쎯eee쎯	-11.1874
dty쎯nd쎯	-11.1875
ddg0쎯ntg쎯	-11.1875
▁쎂쎀쎀쎅rh쎯	-11.1876
cr쎯	-11.1876
gm쎯wtf쎯k쎯aw쎯	-11.1877
tu쎯fl쎯	-11.1877
ey쎯adw쎯px쎯	-11.1879
dnnl쎯u쎯	-11.1881
hj쎯jf쎯	-11.1881
qg쎯tmh0쎯	-11.1881
txg쎯mfk쎯	-11.1882
ymf쎯ya쎯	-11.1884
tey쎯pw쎯tey쎯gd쎯	-11.1884
쎂쎀쎀dq쎯	-11.1885
tp쎯、	-11.1886
rp쎯wny0쎯	-11.1887
wy쎯wtf쎯	-11.1888
ny쎯gj쎯uqwk쎯yqj쎯	-11.1888
qgy쎯	-11.1888
、py쎯wf쎯	-11.1888
,lh쎯kthh1쎯ith쎯	-11.1889
cqq쎯	-11.1889
fm쎯dm쎯	-11.1892
》()	-11.1893
e쎯gxgu쎯	-11.1895
xv쎯qc쎯,	-11.1896
faw쎯hh쎯	-11.1897
.....	-11.1898
ihc쎯adwr쎯	-11.1899
쎅.쎂	-11.19
gk쎯og쎯r쎯	-11.1901
dm쎯tkw쎯o쎯	-11.1901
쎁쎉쎂쎅rh쎯	-11.1902
ytf쎯sk쎯	-11.1902
fpg쎯	-11.1902
hi쎯swb쎯	-11.1902
iwy1쎯fm쎯	-11.1903
tv쎯km쎯wf쎯y쎯wtf쎯	-11.1904
ifn쎯ii쎯th쎯gj쎯	-11.1904
ylf0쎯;e쎯ss쎯f쎯	-11.1907
k쎯md쎯pw쎯ymf쎯	-11.1909
r쎯tk쎯adm쎯	-11.191
bct쎯wgk쎯tr쎯	-11.1911
epe쎯	-11.1911
fqd쎯	-11.1911
uxe쎯uk쎯	-11.1912
xcc쎯	-11.1912
쎄w쎯,	-11.1915
wug1쎯gf쎯k쎯l쎯	-11.1915
dl쎯kq쎯r쎯	-11.1917
us쎯av쎯	-11.1917
sf쎯xe쎯	-11.192
fmk쎯mty1쎯	-11.1923
rh쎯lc쎯w쎯	-11.1924
vcb쎯j쎯	-11.1924
gkl쎯y쎯yam쎯。	-11.1925
tg쎯ta쎯d쎯	-11.1927
fi쎯aib쎯ip쎯suq쎯	-11.193
am	-11.1931
epc쎯gc쎯b쎯	-11.1931
sg쎯go쎯	-11.1931
et쎯if쎯	-11.1932
vca쎯j쎯	-11.1932
saj쎯ode쎯	-11.1934
xyc쎯tdtf쎯	-11.1936
rj쎯ym쎯b쎯	-11.1937
iytb0쎯ca쎯,	-11.1937
ntg쎯klj쎯	-11.1938
qnd쎯hwb쎯	-11.1939
dga쎯pwv쎯w쎯km쎯	-11.1939
rumt쎯	-11.1939
쎂쎅쎀쎀	-11.1941
bn쎯yi쎯	-11.1942
trf쎯pg쎯r쎯	-11.1943
r쎯ny쎯	-11.1943
ymf쎯rpw쎯	-11.1946
。쎁쎉쎈쎄rh쎯	-11.1946
tk쎯naj1쎯	-11.1946
udn쎯	-11.195
p쎯sg쎯nnh쎯	-11.195
txg쎯g쎯wug1쎯	-11.1951
o쎯ad쎯dbm쎯,	-11.1953
wgit쎯	-11.1954
tfkp쎯yxj쎯	-11.1954
egc쎯fuj쎯mw쎯	-11.1954
,iy쎯mm쎯uqwm0쎯sg쎯	-11.1955
amd쎯yygy쎯qk쎯	-11.1956
aib쎯ldt쎯	-11.1957
sm쎯fcl쎯	-11.1958
wfny0쎯yn쎯	-11.1958
쎁쎈쎅	-11.1958
yy쎯tkgg0쎯	-11.1959
tv쎯km쎯、	-11.196
wc쎯bb쎯	-11.196
c쎯qc쎯gq쎯	-11.1961
、fq쎯	-11.1963
yfd쎯lfq쎯	-11.1963
。쎁쎉쎉쎂rh쎯	-11.1966
wgkq0쎯et쎯ftj쎯	-11.1966
cd쎯jvko쎯	-11.1967
ii쎯、	-11.1969
r쎯g쎯ffi쎯	-11.1972
“gg쎯	-11.1973
an	-11.1973
쎄쎀%	-11.1973
쎁wh쎯,	-11.1974
fii쎯ce쎯	-11.1974
img쎯,	-11.1974
ipg쎯kjj쎯wf쎯	-11.1977
xeg쎯vfhp1쎯r쎯	-11.1978
dm쎯tkw쎯쎈	-11.1978
wc쎯jfd쎯,yb쎯	-11.1978
fp쎯txgt쎯	-11.1979
쎄kgn쎯	-11.1981
thgc쎯sc쎯	-11.1982
tx쎯쎇	-11.1983
▁쎉	-11.1983
rmc쎯ty쎯wgkq0쎯et쎯	-11.1983
aym쎯	-11.1983
ufy쎯e쎯	-11.1985
dd쎯uqd0쎯pfjm1쎯	-11.1986
ym쎯khgm4쎯	-11.1987
eee쎯wwv쎯	-11.1988
ujfj쎯xgb쎯	-11.1988
mpg쎯	-11.1989
mqq쎯hhu0쎯	-11.1989
spn쎯	-11.199
gg쎯eee쎯	-11.1991
uq쎯lw쎯r쎯adw쎯wb쎯	-11.1992
ey쎯tk쎯tkh쎯	-11.1992
fhn쎯go쎯,	-11.1993
、l쎯bf쎯	-11.1993
,쎂쎀쎀쎈rh쎯	-11.1995
jty쎯ysi쎯atd쎯ip쎯	-11.1996
fc쎯lks쎯	-11.1998
r쎯jb쎯ym쎯	-11.2
kkkk0쎯ygk쎯	-11.2001
r쎯uthp쎯kht쎯	-11.2001
ssss쎯bgh쎯	-11.2002
ga쎯vck쎯,	-11.2003
tak쎯ym쎯	-11.2007
xpw쎯tdg1쎯	-11.2008
sfi쎯uwy1쎯,	-11.2008
iqyl쎯	-11.2009
rc쎯“lfnh쎯vjsj쎯”i	-11.2011
쎆.	-11.2011
쎁쎉an쎯xn쎯	-11.2013
sf쎯ait쎯	-11.2014
dn쎯js쎯uqd0쎯	-11.2015
pv쎯pg쎯	-11.2016
i쎯fhn쎯	-11.2022
fh쎯gcf쎯	-11.2026
】	-11.2027
jtg쎯txi쎯	-11.2027
abi쎯v쎯	-11.2027
qnm쎯	-11.2029
ibi쎯ugl쎯b쎯	-11.2031
djfd쎯oy쎯,pa쎯	-11.2031
《k쎯wxf쎯	-11.2031
xa쎯qc쎯,	-11.2032
lu쎯wqa쎯	-11.2034
ui쎯oyvk0쎯	-11.2034
dmj1쎯puhc쎯	-11.2035
,qq쎯uqw쎯	-11.2035
gm쎯e쎯km쎯a쎯	-11.2036
ftbt쎯nf쎯	-11.2036
ga쎯ny쎯	-11.2038
ud쎯bu쎯	-11.2038
쎄%	-11.2039
,rs쎯tfkp쎯	-11.2039
umq쎯qtg쎯	-11.204
usr쎯ce쎯idr쎯	-11.2041
》;	-11.2043
g쎯su쎯r쎯	-11.2047
o쎯wq쎯	-11.2049
bcc쎯	-11.2049
xgo쎯	-11.2049
dc쎯w쎯	-11.2051
tk쎯aa쎯	-11.2054
쎅dq쎯,	-11.2056
ugdu쎯wx쎯	-11.2056
wug1쎯nd쎯	-11.2057
쎁쎂eee쎯tg쎯,	-11.2061
dyt쎯dgtg쎯	-11.2061
g쎯uqw쎯ntg쎯	-11.2062
v쎯yt쎯	-11.2064
g쎯xe쎯ftbt쎯jgm쎯	-11.2065
qsu쎯alt쎯	-11.2066
e쎯lt쎯	-11.2066
cn쎯qiu0쎯	-11.2066
ny쎯nge쎯	-11.2067
qqqq1쎯qc쎯	-11.2067
aqn쎯	-11.2068
bk쎯fnrt쎯	-11.2069
(쎃	-11.2069
dga쎯pwv쎯》、《	-11.207
usr쎯ftx쎯pt쎯yne쎯	-11.207
rvyo쎯uyh쎯	-11.2071
쎁쎉쎈쎀	-11.2071
oge쎯uwy1쎯	-11.2073
yid쎯et쎯rfc쎯sy쎯	-11.2074
、jb쎯	-11.2074
iaw쎯ii쎯	-11.2074
img쎯、	-11.2076
eb쎯tl쎯wsg0쎯txi쎯	-11.2078
tdg1쎯,	-11.2078
jfd쎯gog쎯	-11.2079
thd쎯qsu쎯	-11.2079
nhj쎯ougo쎯	-11.208
scf쎯hc쎯	-11.2082
rp쎯adwe1쎯	-11.2083
iug쎯	-11.2084
fwy쎯tkw쎯	-11.2084
r쎯ue쎯tmd쎯j쎯	-11.2085
fq쎯rn쎯	-11.2085
쎆jjjj쎯	-11.2087
sf쎯ipk쎯fc쎯uk쎯	-11.2088
wsg0쎯gm쎯b쎯	-11.2088
e쎯pd쎯	-11.2088
lpk0쎯fcu0쎯iawn쎯	-11.2089
uwyc0쎯adnt1쎯	-11.209
sgn쎯jn쎯	-11.2091
sk쎯ep쎯r쎯	-11.2092
wfny0쎯an쎯	-11.2095
aga쎯ytyh쎯	-11.21
,we쎯	-11.2101
lc쎯lc쎯	-11.2101
djfd쎯oy쎯,	-11.2103
쎁쎉쎂쎃rh쎯	-11.2103
udyj쎯gqf쎯og쎯	-11.2104
ogmj0쎯	-11.2104
qsu쎯rt쎯	-11.2105
se쎯dd쎯r쎯	-11.2105
쎃쎁쎀	-11.2106
ax쎯et쎯	-11.2107
yygy쎯ip쎯anb0쎯sy쎯	-11.2109
r쎯wqu쎯us쎯	-11.2109
w쎯pp쎯	-11.2112
,c쎯wgj쎯	-11.2113
dpr쎯xh쎯	-11.2115
iyy쎯	-11.2116
ju	-11.212
emc쎯、	-11.2123
wc쎯ghd0쎯	-11.2124
imh쎯udi쎯	-11.2124
r쎯gae쎯qje쎯	-11.2124
m쎯“	-11.2126
imh쎯udi쎯ymhj쎯	-11.2126
쎆.쎇	-11.2129
e쎯bv쎯wc쎯ngk쎯(	-11.213
gx쎯egl쎯	-11.213
adiy쎯	-11.213
dx쎯isj쎯	-11.2131
waw쎯dwf쎯	-11.2131
。gae쎯pww쎯	-11.2131
fp쎯go쎯	-11.2132
lfhf쎯og쎯	-11.2133
swy1쎯	-11.2133
et쎯ny쎯	-11.2133
b쎯dd쎯jg쎯	-11.2133
awx쎯mmq쎯mdf쎯	-11.2133
wt쎯pe쎯fl쎯wf쎯	-11.2133
dn쎯al쎯f쎯	-11.2134
vtf쎯vdf쎯	-11.2135
sgc쎯ntg쎯	-11.2136
i쎯dd쎯	-11.214
sov쎯、	-11.214
i쎯b쎯	-11.2141
if쎯uff쎯	-11.2142
vfhp1쎯ymc쎯uk쎯	-11.2143
gu쎯yy쎯oy쎯。	-11.2144
qrnq쎯	-11.2147
nyu쎯jg쎯	-11.2147
쎃jjjj쎯	-11.2147
ax쎯ip쎯	-11.2148
쎅.쎁	-11.2149
tp쎯gj쎯saj쎯aa쎯	-11.215
eee쎯ypm쎯	-11.2152
ytyh쎯gmi쎯kq쎯	-11.2155
ypt쎯fq쎯	-11.2155
uuj쎯syp쎯b쎯	-11.2155
쎇.쎆	-11.2155
bd쎯fa쎯	-11.2156
ts쎯xq쎯	-11.2156
vep쎯tmc쎯	-11.2156
y쎯fggh쎯uthp쎯	-11.2156
ujf쎯wqj쎯	-11.2157
wh쎯ftbt쎯ip쎯gyt쎯	-11.2158
tfq쎯uqf쎯	-11.2158
lg쎯、	-11.2158
wg쎯l쎯wdn쎯te쎯	-11.216
qie쎯jg쎯	-11.2161
fny쎯km쎯	-11.2162
jqrj쎯	-11.2162
rtf쎯ty쎯	-11.2163
alf쎯ssss쎯	-11.2163
jgm쎯,	-11.2163
v쎯nae쎯ufg쎯dd쎯	-11.2165
fc쎯uk쎯nnh쎯yn쎯	-11.2171
www쎯qq쎯r쎯	-11.2173
le쎯enr쎯	-11.2173
tv쎯km쎯。	-11.2173
,fm쎯wycb쎯	-11.2173
nnh쎯。	-11.2174
l쎯ip쎯	-11.2176
ywk쎯	-11.2176
wn쎯ugdu쎯fqb1쎯	-11.2177
qbp쎯ruv쎯	-11.2177
쎇.쎂	-11.2177
sjs쎯	-11.2178
쎅.쎆	-11.2178
쎁쎂쎂	-11.2179
tx쎯쎆	-11.218
쎆dq쎯	-11.2181
uqf쎯go쎯	-11.2183
ux쎯itx쎯	-11.2183
wgku1쎯h쎯	-11.2184
dmh쎯ru쎯	-11.2186
ipw쎯lk쎯a쎯	-11.2189
,kw쎯j쎯	-11.2189
lh쎯kthh1쎯dd쎯ip쎯	-11.2189
tif쎯tg쎯	-11.2189
dga쎯pwv쎯sm쎯sq쎯	-11.2189
fh쎯cm쎯	-11.219
lqw쎯wrh2쎯od쎯klj쎯	-11.219
rgt쎯rgy쎯gfi쎯	-11.2194
pu쎯cwg쎯ip쎯suq쎯	-11.2194
xyna0쎯pgn쎯r쎯	-11.2194
ip쎯nu쎯,	-11.2194
tf쎯og쎯k쎯	-11.2195
dqw쎯	-11.2195
a쎯wt쎯tfq쎯fj쎯	-11.2195
qqy0쎯	-11.2196
lu쎯jh쎯	-11.2197
kkc쎯	-11.2197
ax쎯og쎯	-11.2197
rj쎯waw쎯g쎯wh쎯	-11.2198
ywx쎯yygy쎯《	-11.2198
▁ga쎯	-11.2198
oy쎯qiu0쎯	-11.2199
(adw쎯k쎯	-11.2199
w쎯tr쎯,	-11.2199
gkih쎯sm쎯	-11.22
gmww쎯l쎯	-11.22
fw쎯vv쎯	-11.22
yo쎯dn쎯b쎯	-11.2201
,ty쎯	-11.2202
vkgd쎯	-11.2203
mqq쎯uh쎯。	-11.2203
udhf쎯	-11.2203
8	-11.2205
cn쎯qwyc0쎯alfj0쎯	-11.2205
·bs쎯	-11.2206
wyq쎯、	-11.2207
g쎯yu쎯	-11.2207
jaw쎯fcl쎯	-11.2207
hhu0쎯cep쎯	-11.2212
adm쎯hhhh쎯tp쎯gj쎯	-11.2214
tg쎯rm쎯	-11.2215
,itx쎯rdc쎯	-11.2216
uth쎯wug1쎯	-11.2219
ufg쎯ytt쎯	-11.2222
ugdu쎯sy쎯txi쎯	-11.2222
gf쎯uf쎯mmm쎯aq쎯。	-11.2222
rqkq쎯	-11.2223
d쎯wb쎯	-11.2224
kkm쎯	-11.2224
dhb쎯ffi쎯	-11.2225
dhb쎯d쎯gf쎯	-11.2226
jg쎯bb쎯	-11.2228
쎉.쎅	-11.2229
veg쎯vfi쎯	-11.2229
wv쎯fc쎯sm쎯sq쎯	-11.2232
hka쎯qv쎯jf쎯adwe1쎯	-11.2233
yygy쎯ip쎯pe쎯	-11.2235
wqc쎯wqc쎯	-11.2235
snb2쎯sjtq쎯	-11.2235
jtyq0쎯klj쎯	-11.2235
gog쎯tkh쎯	-11.2236
,ww쎯hx쎯	-11.2237
usr쎯fu쎯	-11.2239
rxj쎯rpl쎯uk쎯	-11.2239
tf쎯wgkq0쎯	-11.224
bqv쎯ty쎯	-11.224
e0쎯	-11.2241
rt쎯rf쎯	-11.2242
tf쎯ght쎯sf쎯,	-11.2246
fuk쎯udyj쎯ip쎯tg쎯	-11.2247
mqj쎯mqj쎯	-11.2247
쎂.쎉	-11.2247
rj쎯waw쎯wdn쎯rfm쎯	-11.2247
f쎯rfm쎯ip쎯	-11.2248
pg쎯o쎯	-11.2248
▁쎂쎀쎁쎁rh쎯	-11.2249
dif쎯f쎯dm쎯tkw쎯쎁	-11.225
uqw쎯ovt쎯	-11.2252
lgey0쎯ou쎯	-11.2253
ud쎯txi쎯r쎯	-11.2253
pfjf0쎯qiu0쎯	-11.2254
aw쎯ynky2쎯	-11.2256
-쎄쎅	-11.2258
uu쎯adm쎯	-11.2261
fnrt쎯wgk쎯	-11.2262
i쎯m쎯gf쎯	-11.2263
xl쎯ta쎯	-11.2264
쎄wc쎯jfd쎯	-11.2264
,ua쎯gn쎯	-11.2265
afcu2쎯	-11.2266
pwn쎯	-11.2267
ynwy2쎯	-11.2267
(쎄)	-11.2267
jf쎯qkhh1쎯	-11.2269
ftbt쎯ip쎯ymc쎯ytb쎯	-11.2271
쎈—	-11.2272
r쎯x쎯maw쎯	-11.2272
ral쎯	-11.2272
tf쎯ght쎯rvy쎯if쎯	-11.2272
ytyh쎯aq쎯	-11.2273
sso쎯	-11.2274
ef쎯ugm쎯	-11.2274
wg쎯ddu0쎯	-11.2275
tffu쎯sh쎯ud쎯	-11.2276
thd쎯tq쎯	-11.2277
fii쎯go쎯r쎯	-11.2277
oja쎯tjf쎯	-11.2277
,wjg쎯d쎯	-11.2277
uqf쎯dn쎯o쎯	-11.2278
wy	-11.228
sve쎯rnd1쎯f쎯r쎯f	-11.2281
。txg쎯	-11.2283
gkl쎯ukn쎯	-11.2283
r쎯gkip2쎯ya쎯	-11.2284
wgk쎯aft쎯	-11.2284
r쎯mq쎯st쎯	-11.2285
yh쎯q쎯wu쎯	-11.2287
trf쎯xe쎯ftbt쎯jgm쎯	-11.2287
rh쎯lc쎯r쎯	-11.2287
gf쎯쎂쎀쎀쎄rh쎯	-11.2287
w쎯n쎯vtk쎯www쎯	-11.2289
isgg0쎯yhk쎯reh쎯e쎯	-11.2289
vi쎯bc쎯	-11.229
gkl쎯y쎯yam쎯、	-11.229
sq쎯tam쎯	-11.2291
qh쎯wmj0쎯	-11.2291
wc쎯ngk쎯j쎯	-11.2291
fq쎯ywx쎯j쎯	-11.2294
src쎯sft쎯	-11.2294
ide쎯luf쎯	-11.2294
,h쎯itx쎯	-11.2296
yak쎯	-11.2297
bl쎯f쎯	-11.2301
ih쎯wgj쎯	-11.2302
amw쎯pujn1쎯qc쎯	-11.2303
vfhp1쎯tam쎯jgm쎯	-11.2304
j쎯tjf쎯iawn쎯	-11.2304
”tffu쎯aps쎯iwyf2쎯	-11.2305
ftj쎯o쎯	-11.2307
n쎯sksw쎯	-11.2307
c쎯sghg1쎯	-11.2307
dd쎯k쎯gajf쎯	-11.2308
fiy쎯v쎯nae쎯	-11.2309
jjjj쎯yn쎯	-11.231
iy	-11.231
pe쎯jfd쎯	-11.231
mftj1쎯	-11.2311
puj쎯	-11.2311
bn쎯tve쎯	-11.2312
ym쎯xe쎯x쎯iyj쎯jgm쎯	-11.2313
fhw쎯w쎯	-11.2313
wyv쎯kkk쎯pv쎯wg쎯	-11.2314
wyf0쎯jg쎯	-11.2314
rdj쎯bm쎯	-11.2314
an쎯uj쎯	-11.2315
wv쎯od쎯:ltu쎯nnh쎯>	-11.2316
->	-11.2319
쎈wc쎯jfd쎯	-11.2319
wc쎯jfd쎯,kha쎯	-11.2319
g쎯sve쎯	-11.232
d쎯suq쎯	-11.2321
▁dg쎯、	-11.2322
skf쎯wfg0쎯	-11.2323
sps쎯sap쎯	-11.2325
fhw쎯pu쎯r쎯	-11.2325
jx쎯mmm쎯	-11.2327
ivs쎯ou쎯	-11.2327
sgyh쎯	-11.2329
쎇쎆쎈	-11.233
【	-11.233
ss쎯k쎯	-11.2331
ud쎯txi쎯,	-11.2331
uuk0쎯jtyq1쎯pgc쎯	-11.2331
jjjj쎯yygy쎯	-11.2335
wjm쎯qd쎯	-11.2335
ga쎯v쎯vfhp1쎯ymc쎯	-11.234
j쎯wg쎯l쎯	-11.2341
lu쎯xk쎯	-11.2341
ue쎯tmd쎯	-11.2342
▁rnd1쎯	-11.2342
c쎯hx쎯	-11.2343
,nf쎯gcft2쎯	-11.2344
쎇%	-11.2344
geq쎯jn쎯	-11.2344
dgtg쎯amd쎯	-11.2344
gog쎯pl쎯	-11.2346
fuk쎯yk쎯sm쎯sq쎯	-11.2346
,txg쎯wh쎯	-11.2347
쎄adm쎯	-11.2349
ih쎯kf쎯	-11.2349
riu쎯ii쎯	-11.2349
wxj쎯wqj쎯	-11.235
aps쎯aqt쎯“	-11.235
qk쎯,adw쎯k쎯	-11.2352
,쎁쎉쎈쎅rh쎯	-11.2352
itf쎯its쎯	-11.2353
wc쎯ngk쎯ukn쎯x쎯gj쎯	-11.2354
。iv쎯jf쎯	-11.2354
if쎯pg쎯	-11.2354
if쎯mj쎯	-11.2355
apl쎯tl쎯	-11.2358
hka쎯qv쎯k쎯	-11.2361
fwm쎯saj쎯r쎯	-11.2364
dd쎯cm쎯	-11.2369
f쎯qtyd1쎯	-11.2369
ndj쎯fnrt쎯	-11.237
쎁쎀쎇	-11.2372
ffi쎯aa쎯	-11.2374
ftbt쎯ip쎯nty1쎯af쎯	-11.2374
nae쎯fi쎯b쎯	-11.2375
쎁쎀wc쎯jfd쎯	-11.2377
dw0쎯tb쎯	-11.2377
vfhp1쎯tam쎯mq쎯st쎯	-11.2379
、fhl쎯	-11.2381
i쎯wynk쎯	-11.2381
wnh쎯jjjj쎯	-11.2382
tdp쎯gf쎯	-11.2384
쎉%	-11.2388
rgv쎯dq쎯	-11.2389
xk쎯,	-11.2391
vfb쎯tkh쎯	-11.2391
pds쎯tg쎯	-11.2391
kkk쎯tkh쎯。	-11.2391
idl쎯gef쎯	-11.2395
ipkh1쎯tl쎯gj쎯gk쎯、	-11.2396
yd쎯pyk쎯	-11.2396
hhhh쎯sfi쎯,	-11.2396
,쎂쎀쎀쎀rh쎯	-11.2398
ih쎯sfc쎯	-11.2398
r쎯rmhj쎯wt쎯	-11.24
bwf쎯e쎯	-11.2401
bc쎯iie쎯	-11.2401
kgn쎯,	-11.2402
fii쎯td쎯	-11.2403
yh쎯wb쎯	-11.2404
쎁쎂.	-11.2404
,wwf쎯ait쎯gf쎯	-11.2405
dm쎯tkw쎯쎇	-11.2405
dhc쎯dyw쎯	-11.2407
쎁kw쎯	-11.2408
。ld쎯hx쎯	-11.2408
,by쎯hh쎯	-11.2409
un쎯ny쎯	-11.2409
i쎯bm쎯	-11.241
jfdj1쎯jhny쎯	-11.2411
gcft2쎯lt쎯	-11.2411
rnb쎯tld1쎯	-11.2416
》txi쎯gq쎯	-11.2417
sj쎯rhf쎯	-11.2417
ref쎯egl쎯	-11.2417
rfc쎯jgm쎯	-11.2418
tv쎯ipk쎯suq쎯	-11.2419
iytb0쎯w쎯	-11.2422
yygt쎯uit쎯r쎯	-11.2424
ad쎯dbm쎯ftbt쎯yce쎯	-11.2425
qq쎯wug1쎯	-11.2426
쎁쎀wtu쎯tyna2쎯	-11.2426
ta쎯wtp쎯	-11.2427
(wynb쎯ntk쎯	-11.2428
dd쎯ip쎯xxf쎯og쎯	-11.2429
wrh2쎯,	-11.2431
sg쎯wt쎯	-11.2432
nnk쎯fakg1쎯mqq쎯	-11.2432
i쎯tj쎯i쎯	-11.2433
ktr쎯	-11.2434
sie쎯	-11.2435
djd쎯if쎯	-11.2438
ght쎯ick쎯pe쎯	-11.2438
spwk쎯	-11.2439
jyie쎯ktm쎯。	-11.2439
yynw1쎯u쎯kkk쎯	-11.2441
hpgh쎯	-11.2443
if쎯pn쎯	-11.2443
gf쎯쎂쎀쎀쎃rh쎯	-11.2443
ba0쎯hc쎯	-11.2443
ntl쎯	-11.2445
ymc쎯tlf2쎯;	-11.2445
rdj쎯bwt쎯	-11.2446
,쎁쎉쎉쎈rh쎯	-11.2449
kml쎯ujj쎯	-11.2449
kgk쎯kwy0쎯	-11.2449
py쎯uq쎯	-11.245
sm쎯gajf쎯	-11.245
。쎁쎉쎉쎈rh쎯	-11.2451
hk쎯f쎯쎁	-11.2452
od쎯gajf쎯r쎯	-11.2452
wy쎯thn쎯r쎯	-11.2453
wh쎯l쎯pe쎯t쎯f쎯aq쎯	-11.2453
n쎯et쎯	-11.2453
、ck쎯iyo쎯	-11.2454
iyc쎯tf쎯r쎯	-11.2454
ym쎯inr쎯	-11.2454
qev쎯bwt쎯	-11.2455
,jc쎯wycb쎯	-11.2457
,dnv2쎯	-11.2461
。쎁쎉쎉쎃rh쎯	-11.2461
ebf1쎯vv쎯	-11.2461
sm쎯lg쎯	-11.2462
x쎯cwg쎯dh쎯pgk쎯r쎯	-11.2463
l쎯apk쎯	-11.2464
ygh쎯nnh쎯。	-11.2464
。쎁쎉쎅쎈rh쎯	-11.2465
ih쎯bynw0쎯	-11.2465
g쎯vt쎯wty쎯	-11.2467
ujqn0쎯ydn쎯	-11.2468
iwg쎯yoo쎯	-11.2468
ujff쎯rh쎯	-11.2469
tyt쎯	-11.247
wdt쎯gk쎯	-11.247
fnw쎯,	-11.247
な	-11.247
awy쎯	-11.247
쎆w쎯	-11.2471
qh쎯dm쎯	-11.2471
d쎯wg쎯gfi쎯	-11.2472
fqng쎯	-11.2472
pp쎯gk쎯	-11.2473
tg쎯u쎯lt쎯	-11.2474
wxf쎯dnnl쎯gbnm0쎯	-11.2475
qnqn쎯t쎯	-11.2477
kt쎯t쎯itfk쎯trf쎯	-11.2477
dd쎯rx쎯	-11.2478
,vfb쎯	-11.2478
。xx쎯kwgj0쎯	-11.2479
yww쎯sds쎯	-11.248
uwl쎯rnb쎯	-11.2481
epc쎯gj쎯	-11.2481
g쎯rcn1쎯	-11.2482
。쎁쎉쎈쎃rh쎯	-11.2483
k쎯atd쎯bpf쎯	-11.2484
쎅°	-11.2484
lh쎯tkh쎯	-11.2484
yfn쎯tr쎯	-11.2485
vk쎯js쎯wq쎯	-11.2485
w쎯wu쎯r쎯	-11.2488
xeg쎯dn쎯uk쎯wv쎯	-11.2488
rap쎯fhn쎯	-11.2491
pp쎯ue쎯,	-11.2491
xwx쎯	-11.2493
。yynw1쎯sf쎯	-11.2493
)w쎯,	-11.2493
kn쎯“	-11.2495
tu쎯y쎯wtf쎯	-11.2496
xg쎯ntg쎯	-11.2496
r쎯pw쎯uj쎯	-11.2497
uce쎯,	-11.2498
v쎯wt쎯	-11.2498
rn쎯et쎯	-11.25
l쎯pe쎯tuk쎯tl쎯nnk쎯	-11.2501
anb0쎯sy쎯ymc쎯yf쎯	-11.2503
ftbt쎯yce쎯pe쎯	-11.2503
uwe쎯	-11.2503
―	-11.2504
쎁쎃쎄	-11.2504
ii쎯wug1쎯	-11.2505
cbd쎯rb1쎯	-11.2505
rvh쎯fpx쎯xh쎯aqkr쎯	-11.2506
yta쎯gh쎯r쎯	-11.2506
koy1쎯	-11.2507
,gmww쎯	-11.2508
um쎯og쎯k쎯ny쎯	-11.2509
r쎯td쎯ykw쎯	-11.2509
ivl쎯fge쎯ymhj쎯	-11.2511
,wgkq0쎯et쎯	-11.2512
gkih쎯ick쎯	-11.2512
,vii쎯ntk쎯	-11.2513
fcl쎯km쎯	-11.2514
▁(fg쎯)	-11.2515
rtd쎯	-11.2515
y쎯s쎯tg쎯u쎯	-11.2516
tf쎯ght쎯aq쎯fakg1쎯	-11.2516
yqa쎯,	-11.2518
qev쎯un쎯yy쎯pvs쎯。	-11.2521
▁쎇.	-11.2521
,rpv쎯jvko쎯	-11.2521
aq쎯xe쎯	-11.2522
た	-11.2523
)-	-11.2524
xyj쎯	-11.2525
vvv쎯ggg1쎯	-11.2527
wy쎯et쎯hhu0쎯	-11.2527
yi쎯s쎯	-11.2528
dn쎯km쎯。	-11.253
,쎂쎀쎀쎉rh쎯	-11.2532
。쎁쎉쎈쎈rh쎯	-11.2536
tmd쎯sft쎯	-11.2536
ん	-11.2538
gu쎯fqu쎯rnb쎯ijl쎯쎁	-11.2541
ukn쎯uk쎯ymc쎯d쎯	-11.2541
tlf2쎯wwv쎯	-11.2542
alq쎯	-11.2542
oaw쎯	-11.2542
fhn쎯wdy1쎯	-11.2543
qtj쎯hw쎯	-11.2546
sh쎯rc쎯	-11.2547
wa쎯ge쎯dd쎯wf쎯	-11.2548
。rn쎯c쎯	-11.2549
쎁쎉쎉쎃	-11.255
a쎯um쎯bu쎯	-11.255
wbj쎯fjh0쎯	-11.2551
tffu쎯l쎯	-11.2551
ymb쎯	-11.2552
jb쎯aft쎯qk쎯r쎯	-11.2554
r쎯nge쎯ukq쎯gh쎯,	-11.2555
tdp쎯sgn쎯kkd쎯	-11.2555
lll쎯tca쎯	-11.2557
itk쎯bj쎯ymhj쎯	-11.2557
qh쎯gk쎯	-11.2557
m쎯wfg0쎯	-11.2558
iy쎯toc쎯	-11.2559
lw쎯gk쎯	-11.2559
whm쎯rpws쎯	-11.256
쎂쎇쎀	-11.2561
qng1쎯dq쎯uff쎯	-11.2561
쎃쎈쎀	-11.2562
dnv1쎯tr쎯	-11.2562
tm쎯gh쎯	-11.2565
xa쎯isk쎯ytyh쎯	-11.2565
sghg1쎯iu쎯	-11.2568
alw쎯st쎯uff쎯	-11.2569
uy쎯dd쎯	-11.257
sh쎯lpk0쎯,	-11.2571
i쎯rw쎯	-11.2571
g쎯dd쎯	-11.2573
▁k쎯yygy쎯	-11.2573
x쎯iyj쎯py쎯wf쎯	-11.2574
dhb쎯yt쎯	-11.2575
▁쎂쎀쎀쎄rh쎯	-11.2576
gef쎯rh쎯ftbt쎯jgm쎯	-11.2576
bpf쎯bpf쎯ta쎯	-11.2577
ipw쎯epc쎯yygt쎯dd쎯	-11.2578
ixj쎯	-11.2578
ujn쎯o쎯	-11.2579
pgc쎯gkl쎯y쎯wtf쎯	-11.2579
sg쎯thg0쎯	-11.258
쎃쎀쎄	-11.2581
i쎯tjh쎯	-11.2581
uygh1쎯yntw1쎯	-11.2582
qh쎯l쎯ygk쎯ip쎯bpf쎯	-11.2582
dd쎯sghg1쎯iu쎯	-11.2583
pgn쎯r쎯	-11.2585
tffu쎯uqd0쎯쎁adm쎯	-11.2585
ai쎯gog쎯	-11.2586
rjt쎯	-11.2587
hh쎯uce쎯	-11.2589
%%*/	-11.259
r쎯ep쎯nge쎯	-11.259
ugdu쎯r쎯	-11.2591
pu쎯cwg쎯pgc쎯、	-11.2591
pnt쎯av쎯	-11.2593
bm쎯pe쎯	-11.2594
aqrn0쎯ugv쎯	-11.2594
pydk1쎯	-11.2595
mwyn1쎯	-11.2596
kkd쎯hw쎯	-11.2596
pwat쎯udh쎯	-11.2596
ntg쎯vb쎯	-11.2597
л	-11.2599
,쎁쎉쎈쎆rh쎯	-11.26
wht쎯udyj쎯	-11.2602
쎃쎀쎀dq쎯	-11.2603
bgm쎯	-11.2604
ujq쎯qd쎯	-11.2605
wys쎯ufy쎯tsh0쎯	-11.2605
dx쎯mmm쎯	-11.2606
cnh쎯qiu0쎯	-11.2607
go쎯b쎯	-11.2608
cff쎯f쎯	-11.2608
fm쎯jj쎯ymhj쎯	-11.2608
e쎯dh쎯pgk쎯r쎯	-11.261
a쎯um쎯nnk쎯	-11.261
gkub1쎯gku쎯	-11.261
isk쎯、	-11.2612
pgk쎯puw쎯	-11.2613
fge쎯jtyq1쎯	-11.2613
tu쎯ip쎯v쎯nae쎯cm쎯	-11.2616
bb쎯uxh쎯	-11.2618
i쎯qkqq쎯	-11.2619
,쎁쎉쎈쎄rh쎯	-11.2619
tfkp쎯dn쎯r쎯	-11.2619
utem1쎯ou쎯	-11.262
vck쎯wbj쎯gf쎯	-11.2622
dmh쎯qiu0쎯	-11.2623
ylf0쎯,vfhp1쎯tam쎯	-11.2625
k쎯tffu쎯bk쎯og쎯	-11.2625
ntg쎯udy쎯	-11.2628
vke쎯	-11.263
g쎯tem쎯r쎯	-11.2631
sh쎯cf쎯gf쎯	-11.2631
▁mqq쎯hhu0쎯	-11.2636
lk쎯ty쎯b쎯	-11.2636
tp쎯gj쎯tv쎯km쎯wf쎯	-11.2638
쎇.쎀	-11.2639
fd쎯mw쎯	-11.264
-쎂-	-11.2641
ivs쎯qc쎯	-11.2641
thd쎯drin쎯	-11.2641
rcb쎯nge쎯	-11.2642
rvy쎯og쎯	-11.2642
xa쎯awx쎯	-11.2642
iyc쎯x쎯	-11.2645
ght쎯fl쎯tv쎯km쎯	-11.2647
ikh0쎯	-11.2648
xqa쎯xt쎯	-11.2649
r쎯tmd쎯wwv쎯	-11.2649
g쎯uh쎯aa쎯	-11.265
rvh쎯wys쎯	-11.2651
aq쎯wug1쎯	-11.2651
。쎂쎀쎀쎁rh쎯	-11.2652
aft쎯syp쎯	-11.2652
f쎯gh쎯ii쎯	-11.2653
mhhm1쎯	-11.2654
dd쎯iw쎯	-11.2655
wc쎯pv쎯nnk쎯	-11.2655
trf쎯tgh쎯trf쎯ntg쎯	-11.2655
th쎯th쎯	-11.2655
▁(쎄)	-11.2656
vb쎯wqj쎯	-11.2657
xyna0쎯lkb쎯、	-11.2658
itf쎯fggh쎯uqv쎯	-11.2658
ymhj쎯fnrt쎯,	-11.266
wdn쎯te쎯dn쎯js쎯	-11.266
쎃쎀wc쎯jfd쎯	-11.2661
wvt쎯yvc쎯	-11.2662
ow쎯、	-11.2663
gl쎯yyv쎯	-11.2663
qh쎯go쎯	-11.2663
uwl쎯tdkj쎯	-11.2664
ymc쎯yf쎯gn쎯	-11.2666
dd쎯wgkq0쎯	-11.2667
dn쎯uqt쎯	-11.2667
wg쎯xxe쎯	-11.2669
wv쎯sr쎯t쎯	-11.267
dgtg쎯uyh쎯	-11.2671
gkl쎯th쎯xe쎯	-11.2672
gj쎯ywx쎯t쎯	-11.2672
mmm쎯mtd쎯	-11.2672
fakg1쎯qk쎯	-11.2672
dn쎯gae쎯	-11.2673
쎁쎀쎀쎀쎀	-11.2674
djd쎯apk쎯tjh쎯ntg쎯	-11.2674
쎆wc쎯jfd쎯	-11.2675
etg쎯f쎯	-11.2675
adw쎯wtu쎯	-11.2676
isk쎯ai쎯	-11.2678
g쎯wty쎯	-11.2679
aw쎯m쎯v쎯nae쎯	-11.2679
cep쎯tf쎯	-11.2679
pp쎯g쎯r쎯	-11.2681
thc쎯tj쎯	-11.2682
dn쎯rh쎯	-11.2683
fkuk4쎯uge쎯	-11.2684
mqb쎯qev쎯	-11.2685
puhc쎯tfqp쎯o쎯	-11.2687
gah쎯ss쎯	-11.2687
ax쎯yjjh1쎯	-11.2687
r쎯s쎯fiy쎯,	-11.2688
tg쎯tr쎯tu쎯rfc쎯	-11.2688
dgkn쎯epc쎯gc쎯	-11.2688
tfp쎯gcf쎯	-11.269
iaj쎯	-11.2691
sm쎯sa쎯a쎯tkgg0쎯	-11.2691
lfo쎯qc쎯,	-11.2692
apgy쎯	-11.2694
dga쎯pwv쎯r쎯	-11.2695
dj쎯tu쎯	-11.2696
xq쎯gki쎯	-11.2696
wygg쎯d쎯	-11.2696
svc쎯yx쎯	-11.2698
ebn0쎯eri쎯	-11.2699
v쎯ge쎯gf쎯	-11.2702
쎁쎉쎈쎈	-11.2702
xdt쎯	-11.2703
khj쎯	-11.2704
yw쎯m쎯	-11.2704
jvko쎯db쎯	-11.2704
o0쎯	-11.2704
w쎯n쎯aw쎯t쎯l쎯	-11.2705
yygy쎯wx쎯u쎯og쎯	-11.2706
r쎯tn쎯pnt쎯	-11.2707
hx쎯th쎯	-11.2707
(쎅xt쎯)	-11.2707
fp쎯ya쎯	-11.2707
fhw쎯sh쎯	-11.2708
。쎁쎉쎈쎆rh쎯	-11.2708
,k쎯aw쎯ipk쎯km쎯。	-11.2708
maf0쎯ty쎯aa쎯	-11.2709
ykhe쎯	-11.2711
쎄.쎃	-11.2712
tfq쎯rg쎯aqt쎯tj쎯	-11.2712
rny1쎯ys쎯	-11.2713
f쎯tv쎯	-11.2715
mqq쎯、	-11.2715
°C,	-11.2715
vp쎯rfq쎯	-11.2716
yt쎯tmdf1쎯ntg쎯	-11.2716
wj쎯ty쎯	-11.2718
yad쎯mhny0쎯qiu0쎯	-11.272
dubw쎯	-11.2721
cbt	-11.2722
dd쎯ipkh1쎯tv쎯wf쎯	-11.2725
yff쎯wys쎯	-11.2725
,ukn쎯rmc쎯uqwm0쎯	-11.2725
”ak쎯“	-11.2726
ygk쎯:	-11.2726
r쎯fdm쎯s쎯,	-11.2729
yqa쎯yww쎯	-11.2729
gmww쎯uk쎯wv쎯	-11.273
db쎯ukd0쎯。	-11.2731
w쎯,adw쎯k쎯pei쎯og쎯	-11.2731
rny1쎯pg쎯	-11.2733
wy쎯thn쎯,	-11.2733
dyt쎯u쎯uqwm0쎯idr쎯	-11.2733
ip쎯sy쎯wf쎯yyq쎯	-11.2734
wdn쎯te쎯w쎯ft쎯	-11.2738
bde쎯tt쎯	-11.2738
ny쎯jfd쎯	-11.2738
ip쎯suq쎯,	-11.2739
itk쎯set쎯dmn쎯	-11.274
dy쎯qq쎯	-11.2741
lrj쎯jf쎯	-11.2741
mtp쎯	-11.2742
ffhy쎯	-11.2745
》、	-11.2747
bfh0쎯	-11.2747
ssq쎯xnn0쎯	-11.2748
쎁eee쎯쎁jjjj쎯	-11.2748
itx쎯rdc쎯쎁,	-11.2749
,쎁쎉쎈쎇rh쎯	-11.2749
ipw쎯ipw쎯	-11.2749
ga쎯v쎯um쎯	-11.2749
n쎯nd쎯	-11.275
tg쎯sm쎯	-11.275
쎀~	-11.2751
。쎂쎀쎀쎀rh쎯	-11.2751
ga쎯rd쎯wbj쎯usr쎯	-11.2751
bc쎯qk쎯	-11.2753
aqt쎯tj쎯ftj쎯	-11.2753
bk쎯og쎯ip쎯bpf쎯	-11.2753
ipkh1쎯ytyh쎯ymhj쎯	-11.2755
k쎯r쎯g쎯tkh쎯	-11.2757
xxm쎯ahty쎯	-11.2757
fgh쎯wv쎯wgj쎯tjh쎯	-11.2757
、yygy쎯wx쎯	-11.2759
,ua쎯cf쎯	-11.2759
r쎯uth쎯tfqp쎯	-11.276
쎁쎉쎂쎂rh쎯	-11.2761
xl쎯ih쎯	-11.2763
gkp쎯udi쎯w쎯	-11.2763
쎆쎀%	-11.2764
ifn쎯ii쎯	-11.2764
th쎯yy쎯	-11.2764
ijl쎯gkp쎯	-11.2765
,wg쎯dm쎯	-11.2766
zzy9쎯	-11.2766
,j쎯wys쎯	-11.2766
=쎁	-11.2768
gmap쎯epc쎯	-11.277
。쎁쎉쎈쎇rh쎯	-11.277
ih쎯kkk쎯	-11.2771
dn쎯o쎯k쎯l쎯	-11.2771
u쎯og쎯qlp쎯	-11.2772
txi쎯。	-11.2772
fiyt쎯egl쎯	-11.2773
r쎯ghd0쎯dqe쎯	-11.2773
tg쎯wgkb2쎯tu쎯ip쎯	-11.2773
mta쎯yne쎯	-11.2774
4쎯	-11.2775
ajdf쎯agq쎯	-11.2775
qut쎯	-11.2776
xd쎯	-11.2776
,쎂쎀쎀쎁rh쎯	-11.2777
trf쎯uqt쎯	-11.2778
《dd쎯	-11.2778
tj쎯td쎯	-11.278
wyv쎯sft쎯	-11.278
un	-11.2782
[...]
