[UNK]	0
[PAD]	0
[CLS]	0
[SEP]	0
[MASK]	0
,	-3.89704
。	-4.21103
、	-4.32352
r쎯	-4.3257
▁	-4.64079
t쎯	-5.1203
d쎯	-5.65517
o쎯	-5.77366
j쎯	-5.84375
gn쎯	-5.85805
(	-5.87396
;	-5.9977
k쎯	-6.03379
:	-6.03925
)	-6.06992
tffu쎯	-6.11746
e쎯	-6.15662
ey쎯	-6.21925
《	-6.28542
“	-6.34459
c쎯	-6.34948
w쎯	-6.3922
dd쎯	-6.41872
h쎯	-6.4671
”	-6.47192
pp쎯	-6.60605
b쎯	-6.66216
ak쎯	-6.68999
gf쎯	-6.75406
cf쎯	-6.78936
rg쎯	-6.88812
g쎯	-6.89282
ih쎯	-6.93301
k쎯l쎯	-6.94616
f쎯	-6.97615
i쎯	-6.99195
gc쎯	-6.99678
dmj1쎯	-7.00173
egc쎯	-7.01763
》	-7.02583
ym쎯	-7.02829
-	-7.03957
ii쎯	-7.04037
·	-7.07887
mh쎯	-7.08328
wc쎯ngk쎯	-7.08345
uqf쎯	-7.0976
bb쎯	-7.09766
jf쎯	-7.10518
usr쎯	-7.11362
dg쎯	-7.11554
et쎯	-7.11758
aq쎯	-7.12291
쎃	-7.12481
gh쎯	-7.14686
ww쎯	-7.15043
쎁	-7.15145
puhc쎯	-7.15357
mmm쎯	-7.16051
.	-7.16473
e쎯bv쎯wc쎯ngk쎯	-7.16646
쎂	-7.17464
mw쎯	-7.20078
ymhj쎯	-7.20656
rn쎯	-7.20673
adw쎯	-7.22406
ta쎯	-7.25115
qq쎯	-7.26142
ntg쎯	-7.26917
whf쎯og쎯	-7.2693
gcf쎯	-7.27209
gd쎯	-7.28881
pe쎯	-7.30469
ftbt쎯yce쎯	-7.32894
/	-7.34594
a쎯wt쎯	-7.34844
fq쎯	-7.35507
go쎯	-7.36282
bm쎯	-7.36402
ggg1쎯	-7.38553
쎄	-7.38922
wf쎯	-7.39185
tg쎯	-7.40271
dn쎯	-7.40768
ua쎯	-7.40875
》、《	-7.41125
qqqq1쎯	-7.41837
bn쎯	-7.43046
fj쎯tf쎯	-7.43232
fny쎯og쎯	-7.43285
sk쎯	-7.44308
wug1쎯gf쎯	-7.4453
。”	-7.4587
()	-7.4593
"	-7.46985
if쎯	-7.47723
txi쎯xyc쎯	-7.47755
dga쎯pwv쎯	-7.47876
wtf쎯	-7.48908
,j쎯	-7.48926
qk쎯	-7.48956
rfc쎯sy쎯	-7.49113
ue쎯	-7.49137
sf쎯	-7.49292
sg쎯	-7.50701
ftj쎯	-7.51019
u쎯kkk쎯	-7.51162
,d쎯	-7.51304
yygy쎯	-7.52329
qfhw0쎯	-7.52332
sghg1쎯	-7.52457
fm쎯	-7.52989
cn쎯	-7.53203
ai쎯	-7.53704
dgtg쎯	-7.53842
c쎯ey쎯	-7.54474
ny쎯	-7.55136
g쎯wh쎯	-7.55219
쎅	-7.56679
aa쎯	-7.57701
awx쎯	-7.57942
vfhp1쎯ymc쎯	-7.5971
fg쎯	-7.60172
x쎯	-7.60217
dx쎯	-7.60258
yygy쎯wx쎯	-7.60374
uk쎯	-7.60479
thd쎯	-7.60511
a쎯tkgg0쎯	-7.61527
itx쎯	-7.61669
ip쎯	-7.61976
je쎯	-7.62371
jfd쎯	-7.62478
kht쎯	-7.62975
wb쎯	-7.63407
ip쎯suq쎯	-7.63794
쎆	-7.64199
ftjb쎯	-7.65109
l쎯	-7.65211
l쎯bf쎯	-7.65915
fd쎯	-7.66433
xte쎯	-7.66548
tfl쎯	-7.66678
lh쎯	-7.66966
ce쎯	-7.6699
vfhp1쎯tam쎯	-7.67175
ymc쎯yf쎯	-7.67201
tu쎯	-7.67876
uthp쎯	-7.68513
udi쎯	-7.68528
iq쎯	-7.68573
xt쎯	-7.6859
l쎯pe쎯	-7.69253
fp쎯	-7.69465
eb쎯tl쎯	-7.69778
ss쎯	-7.70078
amw쎯	-7.70708
sm쎯	-7.7078
wx쎯	-7.71064
xa쎯	-7.7108
”。	-7.7113
vk쎯	-7.72096
wxf쎯	-7.72592
wv쎯	-7.73696
gajf쎯	-7.73932
쎇	-7.74631
qh쎯	-7.74952
쎈	-7.74966
rrr쎯	-7.75346
tp쎯gj쎯	-7.76986
pv쎯	-7.77822
adm쎯hhhh쎯	-7.77952
),	-7.77984
gg쎯	-7.7878
dd쎯ip쎯	-7.7893
ymhj쎯fnrt쎯	-7.79088
dm쎯	-7.79223
dp쎯	-7.79363
gu쎯	-7.79546
ty쎯	-7.80075
mq쎯	-7.80267
s쎯	-7.80675
tf쎯	-7.80964
tm쎯	-7.81006
wt쎯	-7.81179
udh쎯	-7.81917
ige쎯	-7.82258
xg쎯	-7.82805
,ua쎯	-7.82979
mqq쎯	-7.83134
v쎯	-7.83221
hw쎯e쎯	-7.83713
ga쎯	-7.8372
hko쎯	-7.84212
cep쎯fp쎯	-7.84777
쎁쎀	-7.85
,c쎯	-7.85116
ux쎯	-7.85262
txi쎯	-7.85479
f쎯aq쎯	-7.86208
ghd0쎯	-7.86557
uyh쎯	-7.86618
ux쎯yiu쎯	-7.8737
tk쎯	-7.87673
yy쎯	-7.87766
wgkq0쎯et쎯	-7.8795
lk쎯	-7.88104
pl쎯	-7.88173
isk쎯	-7.88206
kf쎯	-7.88323
jjjj쎯	-7.88718
dr쎯	-7.8901
v쎯nae쎯	-7.89029
sb쎯	-7.89058
wys쎯	-7.89142
cep쎯	-7.89259
ugdu쎯	-7.89406
sh쎯	-7.89458
ymc쎯tlf2쎯	-7.89721
ck쎯	-7.8974
kkkk0쎯	-7.90436
cc쎯	-7.9068
!	-7.90914
xeg쎯xkw쎯	-7.91776
od쎯	-7.92266
wg쎯	-7.92315
yi쎯	-7.92323
vb쎯	-7.92433
tg쎯u쎯	-7.92942
k쎯ny쎯	-7.93197
tgj쎯	-7.93203
fhn쎯	-7.93319
fqb1쎯	-7.93837
wsg0쎯	-7.93854
fcu1쎯	-7.94091
gmww쎯	-7.94253
m쎯	-7.94265
dgh쎯	-7.94286
h쎯itx쎯	-7.94397
trf쎯	-7.95366
mqq쎯xtk쎯	-7.95638
ip쎯bpf쎯	-7.95756
rj쎯waw쎯	-7.95906
pyj쎯	-7.9626
wc쎯	-7.96417
rh쎯	-7.96853
ntk쎯	-7.97186
lg쎯	-7.97233
wg쎯l쎯	-7.97296
ld쎯	-7.9742
tj쎯	-7.97987
jb쎯	-7.98432
rcn1쎯	-7.98519
——	-7.98856
쎉	-7.99086
ccc쎯	-7.99545
rt쎯	-7.99833
tffu쎯。	-8.00311
nnh쎯	-8.00966
ya쎯	-8.0102
vvv쎯	-8.01274
gkp쎯	-8.01703
nnnn쎯	-8.02423
pb쎯	-8.02839
fcu0쎯	-8.03015
ith쎯	-8.03323
lt쎯	-8.03335
th쎯	-8.03925
img쎯	-8.04357
jgm쎯	-8.04361
rnb쎯	-8.04547
x쎯iyj쎯	-8.049
rmc쎯uqwm0쎯	-8.04971
xx쎯	-8.05069
ytyh쎯	-8.05086
dq쎯	-8.05853
ltu쎯	-8.05992
ujfj쎯wug1쎯	-8.06131
y쎯	-8.06161
ia쎯	-8.06388
lq쎯	-8.06669
tjh쎯	-8.06804
wt쎯o쎯	-8.06894
sk쎯c쎯	-8.0715
ovt쎯	-8.07172
fd쎯ymhj쎯	-8.07515
hhu0쎯	-8.07564
wys쎯lft쎯	-8.07721
kkk쎯thgf0쎯	-8.0793
an쎯lwj쎯	-8.07972
q쎯	-8.09045
ba0쎯	-8.09088
tu쎯rfc쎯	-8.09276
ep쎯	-8.09425
ftx쎯	-8.09539
ssss쎯	-8.10049
iv쎯	-8.10229
uy쎯	-8.10274
,o쎯	-8.11977
uj쎯	-8.11994
》:“	-8.12668
rxj쎯	-8.12955
쎁쎂	-8.12984
wgkq0쎯	-8.13171
anb0쎯sy쎯	-8.13217
tp쎯	-8.13423
oy쎯	-8.13591
qgf쎯	-8.14233
ru쎯	-8.14606
ad쎯	-8.14621
qc쎯	-8.1517
y쎯s쎯	-8.15354
vcb쎯	-8.15669
xe쎯	-8.15989
mfk쎯	-8.16433
ugdu쎯l쎯	-8.16555
dnv1쎯	-8.16684
ujfj쎯	-8.16705
gef쎯	-8.16779
kkd쎯	-8.1729
w쎯。	-8.1764
iyc쎯	-8.17691
ip쎯nu쎯	-8.17759
thg0쎯	-8.17827
)。	-8.18116
gip쎯	-8.18149
hc쎯	-8.18162
mj쎯	-8.18238
fggh쎯	-8.18259
tk쎯tkh쎯	-8.18371
ab쎯	-8.18774
ytey쎯iytb0쎯	-8.1882
uh쎯	-8.18894
dn쎯o쎯	-8.19111
qi쎯	-8.19208
gjq쎯	-8.19359
rmhj쎯	-8.19544
yu쎯	-8.19564
w쎯,	-8.19656
pn쎯	-8.20016
kgn쎯	-8.20114
rs쎯	-8.20379
k	-8.20602
tx쎯g쎯	-8.2063
ga쎯vck쎯	-8.20698
tf쎯og쎯	-8.20793
tjf쎯	-8.20817
bs쎯	-8.20916
ggi쎯fuj쎯	-8.21465
r	-8.21825
yj쎯	-8.22082
lll쎯	-8.22248
rpw쎯rmhj쎯	-8.22522
al쎯ce쎯	-8.22761
tkh쎯	-8.22858
ftbt쎯ip쎯	-8.23095
ip쎯tg쎯	-8.23112
hx쎯	-8.2351
fj쎯	-8.23553
reh쎯e쎯	-8.23835
bj쎯	-8.23971
gah쎯	-8.2416
wy쎯	-8.24214
uu쎯	-8.24271
”、“	-8.24321
an쎯	-8.24735
sfi쎯uwy1쎯	-8.24827
lkd쎯	-8.25272
cd쎯lk쎯	-8.25346
itd쎯fcl쎯	-8.25508
iytb0쎯ca쎯	-8.25786
ic쎯	-8.25915
i	-8.25916
rvyo쎯	-8.26002
tg쎯itd쎯	-8.26007
wgk쎯	-8.26138
yynw1쎯	-8.26273
”,	-8.26316
ul쎯	-8.26767
xxf쎯og쎯gf쎯	-8.27141
k쎯r쎯	-8.27156
nnk쎯	-8.27237
dw0쎯	-8.27281
wy쎯thn쎯	-8.2741
wug1쎯	-8.2746
djd쎯	-8.27713
ww쎯gk쎯	-8.27857
rp쎯	-8.27895
n쎯	-8.28094
aqt쎯	-8.28156
gy쎯	-8.2827
vfhp1쎯	-8.28366
ukn쎯	-8.2863
eee쎯	-8.29318
es쎯et쎯	-8.29623
fawk쎯	-8.29865
pg쎯	-8.29895
adwr쎯	-8.30135
jg쎯	-8.30182
dmh쎯	-8.30372
gog쎯	-8.30382
lp쎯	-8.30495
wdt쎯	-8.30585
isgg0쎯yhk쎯	-8.3066
lfo쎯	-8.30891
aw쎯	-8.30957
xeg쎯	-8.31217
txi쎯gq쎯	-8.31522
ts쎯	-8.31629
std쎯	-8.31784
gl쎯	-8.31918
pgy쎯	-8.31973
uqwm0쎯idr쎯	-8.32122
ght쎯ywf쎯	-8.32215
lft쎯	-8.32524
um쎯	-8.32856
py쎯wf쎯	-8.32878
a쎯	-8.32895
mqb쎯	-8.32904
xk쎯	-8.33035
,wjg쎯	-8.3311
wfny0쎯	-8.33355
。d쎯	-8.33385
jjjj쎯sg쎯	-8.3349
t	-8.33516
wq쎯	-8.33989
tmd쎯	-8.34126
ipw쎯	-8.34439
uf쎯	-8.34665
”r쎯	-8.34737
yid쎯	-8.35059
쎂쎀	-8.35061
jtg쎯	-8.35669
iit쎯	-8.35952
wty쎯	-8.36033
fn쎯	-8.36086
gk쎯	-8.36124
atd쎯bpf쎯	-8.36139
쎁쎅	-8.36199
ajj쎯	-8.36438
tr쎯	-8.36493
ooo쎯	-8.37076
jf쎯,	-8.37102
qn쎯rtd쎯	-8.37405
src쎯	-8.3779
ftbt쎯jgm쎯	-8.37898
yid쎯et쎯	-8.38227
uff쎯	-8.3829
q	-8.38414
vt쎯	-8.38487
ffff5쎯	-8.38614
jn쎯bb쎯	-8.38758
wa쎯	-8.38844
py쎯aq쎯	-8.39176
kq쎯	-8.39227
puv쎯	-8.39228
js쎯	-8.39919
bpf쎯	-8.40246
jf쎯uj쎯	-8.40486
fnrt쎯	-8.40563
qa쎯	-8.40843
qr쎯	-8.40954
lk쎯ty쎯	-8.41017
tq쎯	-8.41275
ujf쎯qi쎯	-8.41284
aqt쎯tj쎯	-8.41339
ugm쎯	-8.41505
sov쎯	-8.41552
sft쎯ou쎯	-8.41569
yff쎯	-8.41617
,adw쎯	-8.41634
～	-8.41722
ftbt쎯	-8.4191
hw쎯	-8.42008
xw쎯	-8.42097
ag쎯	-8.42196
sn쎯	-8.42205
ide쎯	-8.42221
idr쎯	-8.42333
a	-8.4262
lpk0쎯	-8.42632
wdn쎯te쎯	-8.42681
rg쎯,	-8.42738
a쎯og쎯	-8.42861
yx쎯	-8.42917
yqa쎯	-8.4306
qe쎯	-8.4318
aws쎯	-8.43519
jn쎯	-8.43555
st쎯	-8.43683
쎁쎈	-8.43729
bc쎯	-8.43864
epc쎯	-8.44445
ymf쎯	-8.44528
dgt1쎯	-8.44535
ick쎯ubk0쎯	-8.4467
s	-8.44699
p쎯	-8.44861
ll쎯	-8.44882
udbb쎯	-8.45008
tfn쎯	-8.45013
xq쎯	-8.45083
isgg0쎯	-8.45135
+	-8.45236
lqw쎯wrh2쎯	-8.45331
tfq쎯	-8.45397
ma쎯	-8.45668
bw쎯	-8.45741
rgw쎯	-8.45923
iw쎯	-8.46015
qiu0쎯	-8.46176
nui쎯	-8.46198
fnr쎯	-8.46323
scf쎯	-8.46442
swc쎯	-8.46489
yi쎯j쎯	-8.46524
ga쎯v쎯	-8.46689
lfq쎯	-8.46725
vbn쎯	-8.47082
thd쎯nng쎯	-8.4713
fc쎯rf쎯	-8.47241
suq쎯	-8.4749
thd쎯qd쎯	-8.47604
쎃쎀	-8.47854
jy쎯	-8.48261
ax쎯	-8.48428
yvh쎯	-8.48593
qn쎯	-8.48658
dl쎯kq쎯	-8.48703
pv쎯wg쎯	-8.48795
ihc쎯	-8.48797
bu쎯	-8.4899
dy쎯	-8.49047
og쎯tl쎯	-8.49209
yq쎯	-8.49313
px쎯	-8.49395
sve쎯	-8.49425
nd쎯	-8.49491
fhw쎯	-8.49525
ujj쎯	-8.4975
uqw쎯	-8.50141
dj쎯	-8.50214
fh쎯	-8.50243
yt쎯	-8.50613
cff쎯	-8.50637
uth쎯	-8.50676
pgc쎯	-8.51054
tv쎯km쎯wf쎯	-8.51061
ywx쎯	-8.51132
,dmj1쎯	-8.51139
im쎯e쎯	-8.51338
j	-8.51617
fqu쎯	-8.51619
q쎯wu쎯	-8.51751
oge쎯	-8.51796
adwe1쎯	-8.51922
pfi쎯	-8.52011
ae쎯	-8.52366
ygk쎯	-8.52397
쎁쎁	-8.52444
uk쎯wv쎯	-8.52662
ow쎯	-8.52878
쎁쎆	-8.53075
ff쎯	-8.53172
g	-8.53375
wfny0쎯xyc쎯	-8.53412
pyg쎯	-8.53428
gae쎯	-8.53538
,e쎯	-8.53572
xf쎯sq쎯	-8.53681
ukd0쎯jghm1쎯	-8.53722
qynm1쎯	-8.53745
wk쎯	-8.53837
bm쎯thgc쎯py쎯	-8.53847
me쎯	-8.53857
wht쎯	-8.53968
nfc쎯	-8.5419
yygt쎯	-8.54465
tu쎯ip쎯	-8.54675
gmf쎯	-8.54888
wycm0쎯fakg1쎯	-8.54961
k쎯ip쎯	-8.54967
ire쎯	-8.55014
x쎯apk쎯	-8.5503
pw쎯	-8.55153
irn쎯lg쎯	-8.55162
tjh쎯et쎯	-8.55486
nge쎯	-8.55632
rfm쎯jg쎯	-8.55678
xmw쎯	-8.55742
—	-8.55784
cnh쎯	-8.56011
ftbt쎯rep쎯	-8.56036
inr쎯	-8.56136
......	-8.5626
tffh1쎯	-8.56413
f	-8.56511
tmg1쎯	-8.56514
ujf쎯	-8.56792
fqp쎯	-8.56807
fl쎯wf쎯	-8.56983
w	-8.57291
kgd쎯	-8.57442
lfn쎯	-8.57623
pei쎯og쎯	-8.57649
mww쎯	-8.57813
ps쎯	-8.5786
amd쎯	-8.579
dd쎯gajf쎯	-8.58386
pp쎯g쎯。	-8.5851
hv쎯	-8.58551
yh쎯	-8.58554
xxg0쎯	-8.5856
fge쎯	-8.58742
dskf쎯	-8.58862
kg쎯	-8.58897
nx쎯	-8.58979
gj쎯ywx쎯	-8.59062
fcp쎯fcl쎯	-8.59115
vfb쎯	-8.59194
쎅쎀	-8.59534
ipkh1쎯	-8.59738
i쎯m쎯	-8.59849
fhv쎯	-8.60093
k쎯,	-8.6012
wt쎯kkk쎯	-8.60273
yf쎯tha쎯sm쎯	-8.60446
tel쎯	-8.60835
yny0쎯	-8.60869
ln쎯	-8.6107
xp쎯wgk쎯	-8.61224
udy쎯	-8.61255
wyv쎯	-8.61332
fk쎯	-8.61345
vo쎯	-8.61406
uqd0쎯	-8.61529
gm쎯wa쎯	-8.61554
g쎯tkh쎯	-8.61596
xl쎯	-8.61604
alw쎯	-8.61882
tld1쎯	-8.62027
yww쎯	-8.62059
yo쎯	-8.6214
rfm쎯	-8.6229
qm쎯gmu1쎯	-8.62405
y	-8.62572
ipkf0쎯	-8.62676
pu쎯	-8.62803
d	-8.63094
kkk쎯	-8.63127
og쎯	-8.63207
wqa쎯	-8.63253
sve쎯rnd1쎯	-8.63917
yvi쎯	-8.6398
thgc쎯	-8.64028
rhf쎯	-8.64145
ipk쎯	-8.64392
rhk쎯	-8.64615
rmhj쎯wt쎯	-8.64643
rb1쎯	-8.6466
rmhj쎯tfkp쎯	-8.64694
,mh쎯	-8.64885
fny쎯pe쎯	-8.65011
fje쎯	-8.65019
khu쎯	-8.65151
lu쎯	-8.65165
gm쎯	-8.65268
rc쎯	-8.6531
kthh1쎯	-8.65334
kw쎯	-8.65346
fghg쎯	-8.65368
bwt쎯	-8.65377
dga쎯pwv쎯rn쎯	-8.65437
gfi쎯	-8.65453
lwj쎯	-8.65453
vtk쎯	-8.65496
it쎯	-8.65503
mmm쎯ai쎯	-8.65522
mdf쎯	-8.6553
gyt쎯	-8.65628
ivw쎯	-8.65638
g쎯tem쎯	-8.66079
ft쎯	-8.66188
stx쎯	-8.66308
fhl쎯	-8.66387
p쎯wh쎯	-8.66422
ick쎯	-8.66543
dfy쎯	-8.66776
wh쎯	-8.66927
et쎯yne쎯	-8.66931
uq쎯	-8.66988
fv쎯	-8.67002
fj쎯ty쎯	-8.67224
tgj쎯hko쎯	-8.67348
wk쎯ryn0쎯	-8.68036
fdm쎯s쎯	-8.68071
sgh쎯	-8.68105
fwm쎯aj쎯	-8.68198
fw쎯	-8.68421
dht쎯	-8.68455
gkl쎯	-8.68456
tjt쎯	-8.68742
rpv쎯	-8.68765
wdm쎯	-8.69123
ge쎯	-8.69368
ud쎯	-8.69448
fcl쎯	-8.69676
ufy쎯	-8.69699
)、	-8.69789
yni1쎯	-8.69932
yyy쎯	-8.69935
fc쎯	-8.70319
mqq쎯uh쎯	-8.70341
dh쎯	-8.7065
gxi쎯	-8.7067
adw쎯k쎯	-8.70692
qgb쎯	-8.70884
sm쎯sa쎯	-8.70888
bnn2쎯	-8.70934
pp쎯g쎯	-8.7097
th쎯gj쎯	-8.71035
ttg쎯	-8.71046
ip쎯wf쎯	-8.71066
pgk쎯	-8.7113
wv쎯sr쎯	-8.71187
pei쎯	-8.7142
yfd쎯	-8.71491
to쎯	-8.71621
yy쎯aa쎯	-8.71692
ggi쎯	-8.71722
thd쎯fcl쎯	-8.71962
jv쎯	-8.71983
g쎯hxf쎯	-8.71991
jqr쎯	-8.71997
mtd쎯	-8.72001
fii쎯	-8.72001
xwy쎯	-8.72003
ujn쎯	-8.72053
sm쎯sq쎯	-8.72262
pu쎯gm쎯	-8.72312
wgk쎯wt쎯	-8.7232
uduk쎯	-8.72457
l쎯mw쎯	-8.72583
ce쎯lt쎯	-8.72685
w쎯km쎯	-8.72701
j쎯rxj쎯	-8.72869
,wgkq0쎯	-8.72894
cm쎯	-8.72937
wh쎯w쎯	-8.73116
wwk쎯	-8.73146
pfq쎯dn쎯	-8.73164
m쎯jf쎯	-8.73171
psu쎯	-8.73277
wxj쎯	-8.73319
uvo쎯	-8.73455
w쎯n쎯ght쎯ywf쎯	-8.73568
py쎯	-8.73683
nh쎯	-8.74067
pk쎯	-8.74126
xf쎯	-8.74262
yy쎯if쎯	-8.74443
qt쎯	-8.74484
ugl쎯	-8.74543
de쎯	-8.74543
qve쎯	-8.74554
se쎯	-8.7467
gae쎯dn쎯	-8.75038
um쎯og쎯	-8.75055
쎁쎇	-8.75229
vfhp1쎯uu쎯	-8.75263
lhnh쎯	-8.75325
mmm쎯ai쎯ith쎯	-8.75429
wyc쎯	-8.7548
dnnl쎯	-8.75506
ijl쎯	-8.75695
ruv쎯kkkk0쎯	-8.75777
r쎯g쎯tkh쎯	-8.75846
nnnn쎯x쎯	-8.75863
iytb0쎯	-8.75947
k쎯md쎯	-8.75962
hka쎯	-8.75987
e쎯ud쎯	-8.76038
tfq쎯fj쎯	-8.76108
tx쎯fg쎯	-8.7619
m	-8.76431
rjg0쎯wtf쎯	-8.76437
iex쎯	-8.76439
tjf쎯iawn쎯	-8.76481
fhq쎯	-8.76486
jn쎯jyie쎯	-8.76718
tk쎯od쎯	-8.7676
bi0쎯	-8.77021
fhu쎯	-8.77155
flf1쎯	-8.77164
wfg0쎯	-8.77186
td쎯	-8.77242
lkmi0쎯	-8.77288
bm쎯thgc쎯	-8.77379
qie쎯wyk쎯	-8.77382
pa쎯	-8.77417
uo쎯	-8.77609
쎄쎀	-8.77615
a쎯anb0쎯	-8.77691
xv쎯	-8.77701
jfc쎯	-8.77808
tt쎯	-8.77897
쎁쎄	-8.77926
adnt1쎯	-8.78028
ih쎯ip쎯	-8.78047
wvf쎯yvi쎯	-8.78109
dwiu쎯	-8.78196
iawn쎯	-8.78198
qev쎯	-8.78335
iagw쎯	-8.78341
cw쎯	-8.78355
lk쎯a쎯	-8.78377
vn쎯	-8.78469
ovt쎯rnd1쎯	-8.78532
qgj쎯	-8.78577
,wb쎯	-8.78759
ntf쎯	-8.78884
tfq쎯tg쎯	-8.78924
lh쎯kthh1쎯	-8.79064
adw쎯wb쎯	-8.79125
yn쎯	-8.7914
yygy쎯ip쎯	-8.79161
pgn쎯	-8.79214
fgh쎯	-8.79334
,cf쎯	-8.79464
yf쎯aj쎯	-8.79478
u쎯	-8.79557
쎁쎀쎀	-8.79676
yygt쎯sghg1쎯	-8.79679
yhk쎯	-8.79723
dn쎯uu쎯	-8.79786
cqy쎯	-8.79885
lw쎯	-8.79939
km쎯	-8.79999
ym쎯xe쎯	-8.80119
dga쎯pwv쎯tg쎯	-8.80135
쎁쎃	-8.80136
ri쎯	-8.80544
qg쎯	-8.80581
u쎯og쎯	-8.80698
s쎯fiy쎯	-8.80772
gny쎯	-8.80873
ye쎯	-8.81144
gmww쎯wh쎯	-8.81145
j쎯mh쎯	-8.81178
v쎯tg쎯	-8.81268
yygt쎯ytyh쎯	-8.8129
hj쎯	-8.81533
ywt쎯	-8.8167
av쎯	-8.81689
ahty쎯	-8.81775
sam쎯	-8.8186
pp쎯uj쎯	-8.81937
wc쎯kht쎯	-8.81971
pt쎯yne쎯	-8.82125
--	-8.82201
txg쎯	-8.82209
sc쎯	-8.82222
bde쎯	-8.82424
djd쎯ipkh1쎯	-8.82437
yygt쎯ai쎯ith쎯	-8.82457
yne쎯	-8.82531
ck쎯iyo쎯	-8.82615
yygt쎯ai쎯	-8.82676
qmq쎯	-8.82791
n	-8.83039
shn쎯	-8.83071
yygt쎯tfkf1쎯	-8.83135
wgi쎯	-8.8322
j쎯g쎯wh쎯	-8.83245
yb쎯	-8.83416
wb쎯wu쎯	-8.83451
qd쎯	-8.83501
i쎯ce쎯	-8.83608
aft쎯qk쎯	-8.83664
ait쎯	-8.83767
gq쎯	-8.83971
wvt쎯	-8.83987
wsg0쎯yce쎯	-8.84186
ylk2쎯	-8.84262
ywf쎯	-8.84522
rj쎯	-8.84554
gef쎯rh쎯	-8.84557
wm쎯	-8.84835
et쎯gf쎯	-8.84843
fjk쎯	-8.84861
you1쎯	-8.84943
by쎯	-8.85194
tfqp쎯	-8.85221
hk쎯	-8.85235
~	-8.85314
wqj쎯	-8.85314
sfhg쎯tr쎯	-8.85345
irr쎯ia쎯	-8.85382
tfqp쎯rcf쎯	-8.85401
tdg1쎯	-8.85403
lwx쎯	-8.85457
gmd쎯	-8.85472
ywu쎯	-8.85481
,vcb쎯	-8.85515
fcp쎯	-8.85599
xf쎯wgk쎯	-8.85744
wa쎯ge쎯	-8.85825
pt쎯	-8.85866
aet0쎯	-8.86073
xh쎯	-8.8614
x	-8.86154
wbj쎯wt쎯	-8.8617
fuk쎯yk쎯	-8.86178
jj쎯	-8.86306
sdm쎯	-8.86318
adk쎯	-8.86617
yfn쎯	-8.86681
rj쎯ym쎯	-8.86693
쎆쎀	-8.86699
ntk쎯gf쎯	-8.86724
,adw쎯k쎯	-8.86738
wsk쎯	-8.86796
yv쎯	-8.8688
thd쎯nng쎯r쎯	-8.86929
atd쎯ip쎯	-8.86938
o	-8.86977
tve쎯	-8.87023
xx쎯lu쎯	-8.87132
ygk쎯yyy쎯	-8.87273
xqa쎯	-8.87276
쎂쎅	-8.87384
up쎯	-8.87397
pym쎯	-8.87446
j쎯g쎯tkh쎯	-8.87448
apk쎯	-8.87599
gqx쎯	-8.87636
wfhg쎯	-8.87681
hhhh쎯ue쎯	-8.8778
?	-8.87782
:“	-8.87846
tak쎯	-8.88028
ey쎯adw쎯	-8.88119
ldn쎯	-8.8812
ymc쎯	-8.88295
tfk쎯	-8.88443
fcb쎯	-8.88585
qtj쎯uu쎯	-8.88586
yneg쎯	-8.88618
sgc쎯	-8.8868
r쎯“	-8.887
ghd0쎯aa쎯	-8.88706
ha쎯	-8.8871
da쎯	-8.8879
ga쎯nae쎯	-8.88837
os쎯	-8.88997
rn쎯e쎯	-8.89301
riu쎯	-8.89439
rta쎯	-8.89622
rdj쎯	-8.89664
etg쎯	-8.89776
ng쎯	-8.89871
jn쎯pym쎯	-8.90104
bu쎯wgk쎯	-8.90162
te쎯	-8.90182
lw쎯wc쎯pgc쎯	-8.90184
naj1쎯	-8.90243
wjg쎯	-8.90295
yjj0쎯	-8.90297
f쎯yy쎯	-8.90305
ia쎯alw쎯ith쎯	-8.90323
wtu쎯	-8.9035
vtkd1쎯	-8.90367
xjm쎯	-8.90482
yngk0쎯	-8.90489
pf쎯	-8.90509
uwyc0쎯	-8.90527
aps쎯	-8.90636
jgm쎯aib쎯dd쎯ip쎯	-8.90656
gcft2쎯lt쎯gf쎯	-8.907
xgu쎯	-8.90739
wyv쎯kkk쎯	-8.90853
a쎯wt쎯。	-8.91051
wu쎯	-8.91164
,wug1쎯gf쎯	-8.91169
ajt쎯	-8.91212
dgv쎯	-8.91308
q쎯l쎯	-8.91319
temk쎯	-8.91325
wbj쎯usr쎯	-8.91399
dc쎯	-8.91665
ngk쎯	-8.91684
od쎯gajf쎯	-8.91706
ou쎯	-8.91734
us쎯	-8.91752
pynn0쎯	-8.91797
mw쎯pww쎯	-8.91798
qqqq1쎯ntk쎯	-8.9189
fghy2쎯	-8.91952
eu쎯	-8.92211
uq쎯cep쎯	-8.92224
tg쎯tr쎯	-8.92278
x쎯fp쎯	-8.92279
gs쎯	-8.92404
nty1쎯	-8.92477
iaw쎯	-8.92495
sksw쎯	-8.92698
iqc쎯	-8.92737
gj쎯	-8.93077
aq쎯fakg1쎯	-8.93095
rymn쎯	-8.93224
rkk쎯wt쎯	-8.93345
n쎯ytt쎯	-8.93496
imgk쎯	-8.93744
usr쎯ub쎯	-8.93797
dn쎯al쎯	-8.9385
ad쎯dbm쎯	-8.93867
mc쎯	-8.93933
ad쎯sg쎯	-8.93961
yft쎯	-8.93979
p쎯hxf쎯	-8.93984
jf쎯wa쎯	-8.94087
kd쎯	-8.94156
tffh1쎯uthp쎯	-8.94156
fh쎯ruv쎯	-8.94169
p쎯tkh쎯	-8.94171
tj쎯gc쎯	-8.94292
cd쎯gn쎯	-8.94381
irr쎯ia쎯ith쎯	-8.94623
w쎯tr쎯	-8.94624
tg쎯gf쎯	-8.94691
jn쎯eyb쎯	-8.94698
ktn쎯	-8.94718
pw쎯uj쎯	-8.94755
쎂쎄	-8.94756
fm쎯yiu쎯	-8.94783
itk쎯	-8.94818
twt쎯	-8.94867
saj쎯aa쎯	-8.94959
▁《	-8.95028
,vk쎯	-8.95047
v쎯gm쎯	-8.95049
jty쎯	-8.9505
ce쎯qkqq쎯	-8.95068
yjs쎯tkgg0쎯	-8.95096
qr쎯kht쎯	-8.9512
ui쎯	-8.95251
tmo쎯	-8.95294
ytt쎯	-8.95336
nnw쎯	-8.9543
tkgg0쎯ycb쎯	-8.95488
ywx쎯yygy쎯	-8.95531
,uqf쎯	-8.95617
qyvl쎯	-8.95658
nnh쎯if쎯	-8.95696
mh쎯gf쎯	-8.95797
hhhh쎯	-8.95806
wgj쎯	-8.95843
yygy쎯wrh2쎯	-8.95932
wt쎯et쎯	-8.95977
gu쎯ck쎯	-8.96028
fffy쎯	-8.96227
eg쎯	-8.96257
xl쎯eqn쎯	-8.96383
bn쎯j쎯	-8.96498
pe쎯ytfp1쎯	-8.965
pu쎯ytb쎯	-8.96747
amd쎯ygk쎯	-8.96862
be쎯	-8.97165
ese쎯	-8.97345
u	-8.97472
bgh쎯	-8.97495
qnp쎯	-8.97533
tq쎯o쎯	-8.97601
synw쎯	-8.97619
yjjh1쎯	-8.9776
af쎯wgkb2쎯	-8.97852
umd0쎯	-8.98077
gmy1쎯	-8.98511
pnt쎯	-8.98589
》(	-8.98605
wycm0쎯nf쎯	-8.9864
r쎯g쎯wh쎯	-8.98988
yy쎯dm쎯	-8.99066
kha쎯	-8.9914
amd쎯l쎯	-8.99157
ght쎯	-8.99237
rwyg쎯yygt쎯	-8.99322
쎃쎂	-8.99408
ssq쎯	-8.99501
udp쎯	-8.99596
ol쎯	-8.99669
lc쎯	-8.99798
fa쎯	-8.99824
ugm쎯gxgu쎯	-8.99898
djb쎯	-8.99912
c쎯h쎯	-9.00175
jb쎯dd쎯	-9.00241
iyw쎯	-9.00274
wrh2쎯	-9.00313
fuk쎯udyj쎯	-9.00347
btg쎯	-9.00353
》,	-9.00369
myd쎯	-9.00387
ftjb쎯j쎯	-9.00416
klj쎯	-9.00539
fha쎯	-9.00552
eajd쎯	-9.0061
isk쎯fm쎯ith쎯	-9.0084
쎀	-9.00909
h쎯r쎯	-9.00917
wg쎯gfi쎯	-9.00938
uxe쎯	-9.00941
qyng쎯	-9.01017
on쎯	-9.01074
ukh쎯	-9.0108
bg쎯	-9.0114
hi쎯	-9.01172
w쎯ft쎯	-9.01185
wr쎯	-9.01225
wx쎯ip쎯	-9.01231
sf쎯tv쎯wf쎯	-9.01419
pfjm1쎯	-9.01598
vs쎯	-9.01726
쎃쎅	-9.02026
yiu쎯	-9.02147
wynk쎯	-9.02223
pei쎯sf쎯	-9.02402
qqqq1쎯gkm쎯	-9.02415
fiy쎯	-9.02486
dgkn쎯	-9.02537
jh쎯	-9.02614
if쎯tvfh1쎯	-9.02628
efcb쎯	-9.02644
qng1쎯	-9.02798
jyie쎯ktm쎯	-9.02827
u쎯tg쎯	-9.03018
fkuk4쎯	-9.03062
xyna0쎯	-9.03088
ddu0쎯	-9.03184
pgj쎯wfny0쎯	-9.03196
fge쎯fghg쎯	-9.03258
ytb쎯	-9.03295
qve쎯tf쎯	-9.03429
dp쎯gc쎯	-9.03538
lh쎯kthh1쎯ith쎯	-9.03567
tfl쎯l쎯	-9.0358
qt쎯ujff쎯	-9.03681
wwj쎯wfhg쎯	-9.03725
eb쎯	-9.03991
apk쎯qie쎯	-9.04001
tkh쎯sfhg쎯	-9.04035
ymc쎯ytb쎯	-9.04047
ide쎯fm쎯	-9.04057
yd쎯	-9.04086
tu쎯dga쎯	-9.04188
iyo쎯	-9.04434
fcl쎯tr쎯	-9.0446
uqwm0쎯qqqq1쎯	-9.0462
pye쎯	-9.04717
iu쎯	-9.04736
fnw쎯	-9.0474
i쎯on쎯	-9.04777
puhc쎯ygu쎯o쎯	-9.04828
dwt쎯	-9.04839
w쎯n쎯	-9.04972
pu쎯cwg쎯	-9.04975
ugdu쎯sy쎯	-9.05085
g쎯fhn쎯	-9.05106
wynb쎯	-9.05126
isk쎯fm쎯	-9.05159
kfi쎯	-9.0519
wfny0쎯rtol1쎯	-9.05307
wgc쎯	-9.05401
aw쎯m쎯	-9.05646
w쎯kkkk0쎯	-9.05686
eyb쎯	-9.05787
ii쎯gu쎯	-9.05881
gr쎯	-9.06035
sfi쎯	-9.06083
*	-9.06098
rxj쎯nf쎯	-9.06181
uda쎯	-9.06327
e	-9.06436
qq쎯tkh쎯	-9.06492
fpx쎯	-9.06568
oyvk0쎯	-9.06701
fku쎯	-9.06809
wg쎯dm쎯	-9.06888
▁쎂.	-9.069
pv쎯tmgt1쎯ith쎯	-9.06987
,ww쎯	-9.06989
xeg쎯dn쎯	-9.06996
kr쎯	-9.07051
gm쎯wtf쎯	-9.07199
bm쎯tg쎯gf쎯	-9.07209
쎂쎂	-9.07296
emc쎯	-9.07355
udyj쎯	-9.07363
sh쎯ud쎯	-9.07457
ufy쎯qnth쎯	-9.07562
ynt쎯	-9.07696
dty쎯	-9.07698
uqt쎯js쎯	-9.07833
puh쎯	-9.07855
kn쎯	-9.07955
ih쎯yu쎯	-9.08022
wgku1쎯	-9.08088
nae쎯	-9.081
pv쎯ufy쎯	-9.08232
bfm쎯	-9.08294
jf쎯imkf1쎯	-9.08399
ygh쎯	-9.08497
ca쎯	-9.08549
wg쎯uk쎯	-9.08582
gogj쎯	-9.08667
쎈쎀	-9.08757
dhb쎯	-9.08765
h쎯itx쎯ymhj쎯	-9.08797
>	-9.08846
ruv쎯	-9.08897
hxx쎯	-9.08921
yad쎯	-9.08951
tyna2쎯	-9.0897
dm쎯tkw쎯	-9.08973
dl쎯	-9.09006
yps쎯	-9.09065
ub쎯	-9.09153
yf쎯	-9.09198
fny쎯	-9.09209
udb쎯	-9.09263
sgi쎯	-9.09361
tf쎯ght쎯	-9.09451
ib쎯	-9.09477
tx쎯	-9.09511
ufk0쎯	-9.09575
▁wc쎯ngk쎯	-9.09642
mwyc1쎯	-9.09666
k쎯wxf쎯	-9.097
ltk쎯	-9.09734
thgf0쎯	-9.09809
bm쎯gm쎯	-9.0981
dcw쎯	-9.09849
xgb쎯	-9.09979
xyy0쎯	-9.1003
ai쎯ux쎯	-9.10059
tx쎯dg쎯	-9.10143
mp쎯	-9.10145
fcu0쎯fm쎯ith쎯	-9.10163
qmgk0쎯	-9.10202
wmj0쎯	-9.10227
cy쎯	-9.10297
ak쎯ftj쎯	-9.10346
쎄쎅	-9.10369
geq쎯	-9.10443
wtl쎯	-9.10465
sf쎯vii쎯ntk쎯gf쎯	-9.10472
sss쎯	-9.1048
pv쎯tmgt1쎯	-9.10513
,gn쎯	-9.10551
adf쎯	-9.1056
kwg쎯	-9.10635
o쎯g쎯wsg0쎯r쎯	-9.10646
ud쎯txi쎯	-9.10753
pyg쎯vfhp1쎯	-9.10754
wdn쎯	-9.10953
jyie쎯	-9.11147
td쎯ykw쎯	-9.11169
tgj쎯yd쎯	-9.11171
ntg쎯ce쎯	-9.11212
dhc쎯	-9.11233
ux쎯yiu쎯ymhj쎯	-9.113
udj쎯	-9.11302
wv쎯klj쎯	-9.11499
。wb쎯	-9.11645
pfjf0쎯	-9.11711
xuj쎯	-9.11716
sgn쎯	-9.11717
쎂쎈	-9.1173
ud쎯gf쎯	-9.11736
uo쎯cep쎯	-9.11738
epc쎯gc쎯	-9.11786
if쎯l쎯	-9.11788
sy쎯	-9.11846
kha쎯yb쎯	-9.11925
lfhf쎯	-9.11936
sfg쎯	-9.11947
jhny쎯	-9.12116
ide쎯ux쎯	-9.1221
dk쎯	-9.12357
ymd쎯	-9.12409
,sk쎯	-9.1242
jty쎯ysi쎯	-9.12432
rw쎯	-9.12477
qtj쎯	-9.1252
wyq쎯	-9.12576
yge쎯	-9.12629
qje쎯	-9.12663
bd쎯	-9.12872
apg쎯	-9.12882
jq쎯	-9.12884
ip쎯sy쎯	-9.12893
wwj쎯st쎯	-9.13073
yaa쎯cwg쎯	-9.13115
lqw쎯	-9.13124
wbj쎯	-9.13161
trf쎯qc쎯	-9.1319
rlg쎯	-9.13231
imkf1쎯	-9.1326
ia쎯alw쎯	-9.1328
www쎯	-9.13306
jcm쎯	-9.13308
ajd쎯	-9.13436
fu쎯	-9.13463
so쎯	-9.13471
pfj쎯	-9.13564
wye쎯	-9.13614
bct쎯	-9.1366
=	-9.13942
hao쎯	-9.13995
xn쎯	-9.13997
yle쎯	-9.14037
bg쎯tg쎯	-9.14109
ght쎯ick쎯	-9.14131
ddm쎯fghg쎯	-9.14142
wyna쎯	-9.14207
oi쎯	-9.14396
wygg쎯	-9.14467
ytf쎯	-9.14531
nyu쎯	-9.14533
bk쎯og쎯	-9.14587
sqt쎯	-9.14631
wgkb2쎯	-9.14804
al쎯	-9.1482
ftg쎯	-9.14834
itd쎯	-9.14874
oge쎯pyj쎯	-9.14881
dga쎯pwv쎯bpf쎯	-9.14947
tdkj쎯	-9.14975
lpk0쎯xfn쎯	-9.1508
gd쎯ivfh1쎯	-9.15126
qy쎯	-9.15208
k쎯aw쎯	-9.1526
,rn쎯c쎯	-9.15313
wffg쎯	-9.1557
lm쎯	-9.1562
gjh2쎯	-9.15716
fmk쎯	-9.15733
,ll쎯,	-9.15734
ju쎯	-9.15853
wcy2쎯	-9.15875
rvy쎯tf쎯	-9.15941
synw쎯ny쎯	-9.15947
tgh쎯	-9.16097
um쎯tl쎯	-9.16141
o쎯b쎯	-9.16182
jf쎯adwe1쎯	-9.16196
쎇쎀	-9.16259
anb0쎯	-9.16307
bqr쎯	-9.16372
ide쎯ux쎯ith쎯	-9.16491
dty쎯gk쎯	-9.16832
yss쎯	-9.16852
qev쎯un쎯	-9.16985
ffi쎯	-9.17017
쎂쎃	-9.17067
qsu쎯	-9.17144
pfqf쎯	-9.17272
khn쎯	-9.17481
jlc쎯	-9.17684
》tffu쎯	-9.17794
ytm쎯	-9.17939
ta쎯adwe1쎯	-9.17981
g쎯uqw쎯	-9.17997
isk쎯ux쎯	-9.18028
ge쎯fi쎯	-9.18162
ah쎯	-9.18182
xqc쎯	-9.18218
pu쎯cwg쎯pgc쎯	-9.18224
ahn쎯	-9.18244
uqwm0쎯ou쎯	-9.18528
abu쎯	-9.1857
gmi쎯	-9.18653
yta쎯	-9.18682
ds쎯	-9.18724
tg쎯dyn쎯	-9.18756
w쎯wu쎯	-9.18859
peg쎯	-9.18861
aqq쎯iyt0쎯	-9.18872
id쎯	-9.18885
bq쎯	-9.18888
yygy쎯je쎯	-9.18901
icf쎯	-9.18947
euk쎯	-9.18967
pei쎯n쎯	-9.19086
r쎯tgj쎯s쎯	-9.19115
ide쎯fm쎯ith쎯	-9.19228
wj쎯xvk쎯	-9.19295
wt쎯ftj쎯	-9.19354
pyg쎯vfhp1쎯ith쎯	-9.19383
sg쎯nnh쎯	-9.19427
wbj쎯vfhp1쎯	-9.19441
fyv쎯	-9.19514
k쎯atd쎯	-9.19593
waw쎯	-9.19672
hhhh쎯sfi쎯	-9.19675
igt쎯	-9.19699
bfw쎯	-9.19754
mhny0쎯	-9.19754
tuj쎯	-9.19766
sw쎯imj쎯	-9.19777
qf쎯	-9.19889
ime쎯	-9.19918
mt쎯	-9.19948
es쎯	-9.19951
jb쎯dd쎯r쎯	-9.19953
oat쎯	-9.19963
,px쎯	-9.19974
ia쎯sghg1쎯	-9.20073
ffff5쎯f쎯	-9.20095
。adw쎯	-9.20306
sgn쎯ddu0쎯	-9.20309
ge쎯dm쎯	-9.20311
ukd0쎯	-9.20353
lfof5쎯	-9.20515
,c쎯ey쎯	-9.20785
쎂쎀쎀	-9.20824
uk쎯uyh쎯	-9.20902
iwf쎯	-9.20906
쎂쎇	-9.20955
yk쎯xan쎯	-9.20997
iy쎯	-9.21094
do쎯	-9.21242
'	-9.21248
wsg0쎯txi쎯	-9.21266
xxe쎯	-9.21306
》。	-9.21415
rmc쎯	-9.21457
afl쎯	-9.2148
nkuf쎯	-9.21545
p쎯g쎯	-9.21552
pvs쎯	-9.21709
》《	-9.2176
oug쎯	-9.21778
pp쎯g쎯,	-9.21814
isk쎯ux쎯ith쎯	-9.21908
xxr쎯	-9.2193
tyg쎯	-9.21933
vi쎯	-9.22021
c	-9.22046
ftj쎯,	-9.2207
l쎯mw쎯qh쎯	-9.22075
fcu0쎯fm쎯	-9.2222
。《	-9.22402
qkhh1쎯	-9.22473
ytf쎯qq쎯	-9.22475
쎂쎁	-9.22721
v	-9.22883
gk쎯og쎯	-9.22919
rmhj쎯ya쎯	-9.22927
gah쎯ic쎯	-9.22977
lpk0쎯ruv쎯	-9.23012
pfq쎯wg쎯	-9.23105
,m쎯jf쎯	-9.23179
hka쎯ltk쎯	-9.23184
쎁.	-9.23204
jvko쎯	-9.23242
wc쎯lfq쎯	-9.23262
qtfj1쎯	-9.23266
y쎯rf쎯	-9.23273
nf쎯	-9.23463
fggh쎯uk쎯	-9.23463
yt쎯ty쎯	-9.23506
jo쎯fi쎯	-9.23546
<	-9.23573
fhc쎯	-9.23633
sghg1쎯ux쎯	-9.23695
ad쎯f쎯	-9.23755
tkgg0쎯	-9.23772
lks쎯	-9.23919
wf쎯km쎯	-9.24067
ovt쎯pb쎯	-9.24152
sghg1쎯fm쎯	-9.24179
qyv쎯jqr쎯	-9.24278
rq쎯	-9.24281
yygy쎯anb0쎯	-9.24294
yygt쎯fnrt쎯	-9.2438
rbcc쎯jyie쎯	-9.2446
ftbt쎯sft쎯	-9.24629
tgj쎯s쎯	-9.24744
nt쎯	-9.24867
l쎯pe쎯xe쎯	-9.24878
iy쎯mm쎯	-9.24911
wnh쎯	-9.25061
tf쎯o쎯	-9.2507
nd쎯n쎯	-9.25104
yjs쎯jghm1쎯	-9.25105
rr쎯	-9.25254
a쎯hw쎯	-9.25312
f쎯th쎯	-9.25385
fcp쎯tf쎯	-9.25403
vep쎯	-9.25448
gxgu쎯	-9.25461
vaf쎯wsg0쎯	-9.25462
um쎯kkk쎯	-9.25524
ijl쎯ya쎯	-9.25593
tvr쎯	-9.25677
im쎯	-9.25727
’	-9.25735
gm쎯e쎯	-9.25758
fjfh1쎯	-9.25771
ln쎯shn쎯	-9.25777
fu쎯lk쎯	-9.25855
sfc쎯	-9.25887
yssd0쎯	-9.25895
tfq쎯rg쎯	-9.25928
》j쎯	-9.26066
ec쎯	-9.26104
thp쎯	-9.26108
ym쎯gkip2쎯	-9.26126
vtkb쎯	-9.26427
etn쎯	-9.26489
xv쎯qc쎯	-9.26517
gkip2쎯ya쎯	-9.26608
mw쎯apg쎯dgh쎯	-9.26684
tuu쎯	-9.26737
ad쎯qqqq1쎯	-9.26963
ftb쎯	-9.27014
ld쎯o쎯	-9.27062
ghc쎯gyb쎯	-9.27085
yy쎯tm쎯	-9.27206
yygt쎯rtol1쎯	-9.27343
fpm쎯	-9.27358
fp쎯tkgg0쎯	-9.27361
nnw쎯gkip2쎯	-9.27392
。yynw1쎯	-9.27396
dgj쎯	-9.27526
pym쎯hid쎯	-9.27533
w쎯od쎯	-9.27571
uq쎯jqr쎯	-9.2767
쎂쎆	-9.27693
sj쎯	-9.2774
yfj쎯	-9.27804
kjj쎯	-9.27899
qm쎯	-9.27987
rt쎯sm쎯	-9.27987
hwb쎯	-9.28014
nh쎯ty쎯	-9.28058
ndj쎯	-9.28077
alt쎯	-9.28094
go쎯thd쎯	-9.2811
쎉쎀	-9.28165
iyj쎯	-9.28171
bk쎯	-9.28205
imj쎯jg쎯	-9.28253
ymc쎯e쎯	-9.28371
bt쎯	-9.28488
cd쎯	-9.28492
kkk쎯tkh쎯	-9.28532
jghm1쎯	-9.28548
qgu쎯	-9.28576
vk쎯wsk쎯	-9.28745
ay쎯	-9.28746
fjfh1쎯l쎯	-9.28808
ybb쎯	-9.28923
atd쎯ip쎯bpf쎯	-9.28979
rwyg쎯	-9.29105
oq쎯	-9.29107
sff0쎯	-9.29213
쎁쎉	-9.29236
ldd쎯	-9.2934
gip쎯j쎯	-9.29393
wdn쎯rfm쎯	-9.29398
o쎯y쎯	-9.29472
atd쎯ubk0쎯	-9.29481
gae쎯aa쎯	-9.29527
,bn쎯j쎯	-9.29539
oe쎯	-9.29594
yaa쎯	-9.29624
ybv쎯	-9.29677
g쎯fh쎯	-9.2972
dd쎯jg쎯	-9.29797
adm쎯	-9.2992
syg쎯	-9.29982
,et쎯	-9.29982
,ccc쎯	-9.29984
aig쎯	-9.30013
dyt쎯	-9.30163
fo쎯	-9.30172
jb쎯ym쎯	-9.30176
adwe1쎯uj쎯	-9.30233
cf쎯gf쎯	-9.3026
vtg쎯	-9.30291
tkw쎯	-9.30431
ago쎯	-9.30472
wb쎯r쎯	-9.30483
thd쎯mh쎯	-9.30506
qrm쎯	-9.30544
wkh쎯fj쎯	-9.30559
wa쎯gj쎯	-9.30578
uwl쎯	-9.30643
trf쎯klj쎯	-9.30721
tv쎯	-9.30791
bgu쎯sghg1쎯	-9.30805
swb쎯	-9.30846
sym쎯ytyh쎯	-9.30906
mq쎯st쎯	-9.30964
pp쎯rg쎯	-9.31013
un쎯pg쎯	-9.31034
ggi쎯wk쎯	-9.31124
jcf쎯rf쎯	-9.31128
fge쎯tr쎯qnp쎯	-9.31162
ipw쎯fkh쎯	-9.31239
alp쎯	-9.31253
gip쎯e쎯	-9.31262
imj쎯yaa쎯	-9.31266
atd쎯	-9.31293
wwf쎯	-9.31296
v쎯tf쎯	-9.31323
utd쎯ugm쎯	-9.31329
tl쎯	-9.31354
apl쎯	-9.31392
rgf쎯	-9.31393
ypm쎯	-9.31411
etj쎯	-9.31443
ytd쎯	-9.31514
쎂쎉	-9.31696
inx쎯	-9.31741
gm쎯d쎯	-9.31755
tfkp쎯	-9.31776
,dty쎯	-9.31777
gtu쎯	-9.31785
pgj쎯	-9.31827
ftg쎯yaa쎯	-9.31828
hn쎯	-9.31828
gcft2쎯	-9.31844
ip쎯tu쎯	-9.3188
dn쎯km쎯	-9.31889
dg쎯wh쎯	-9.3201
쎃쎆	-9.32074
쎇쎅	-9.32242
dn쎯ftjb쎯	-9.32297
uk쎯bw쎯	-9.32311
gma쎯	-9.32379
pyu쎯	-9.32388
aib쎯lfnh쎯	-9.32398
wx쎯a쎯	-9.32451
);	-9.32492
dtf쎯	-9.32495
nyi2쎯fghy0쎯	-9.32508
lud쎯	-9.32518
eq쎯	-9.32729
wwj쎯	-9.32825
tdkj쎯ce쎯	-9.32858
kw쎯e쎯	-9.32953
nh쎯adnt1쎯	-9.32998
gkih쎯wsg0쎯	-9.33072
thd쎯ick쎯aq쎯	-9.33083
da쎯dk쎯	-9.33157
wwx쎯	-9.33231
wbj쎯tfkp쎯	-9.33458
fgh쎯wv쎯	-9.33463
km쎯a쎯	-9.33618
wnt쎯	-9.33631
ym쎯suq쎯	-9.33697
fkhk쎯	-9.3371
mqu쎯	-9.33766
aqu1쎯	-9.3385
▁d쎯	-9.33872
khgm4쎯	-9.33887
io쎯	-9.33887
nu쎯	-9.33897
tuk쎯	-9.33902
gku쎯	-9.3393
xeg쎯wgk쎯	-9.33942
eyni쎯	-9.34129
gjq쎯lk쎯	-9.34157
mqj쎯	-9.34251
ufy쎯tlf2쎯	-9.34279
wv쎯o쎯	-9.34322
ymc쎯lfhf쎯	-9.34349
ngj쎯	-9.34584
qnth쎯	-9.34612
khu쎯gfi쎯	-9.34635
yoo쎯	-9.34656
qv쎯	-9.34826
yf쎯tha쎯	-9.34899
fcp쎯et쎯	-9.34946
ai쎯yy쎯	-9.34986
wqu쎯	-9.35043
sm쎯fnrt쎯	-9.3507
imj쎯	-9.35109
tqq쎯fcl쎯	-9.35153
쎄쎈	-9.35179
ngc쎯	-9.35231
wxm쎯	-9.35255
ieb쎯	-9.35277
▁쎁.	-9.35334
yo쎯wx쎯	-9.35356
uq쎯iyc쎯	-9.35387
pww쎯	-9.35497
k쎯l쎯aw쎯u쎯ipk쎯	-9.355
fhh쎯	-9.35541
usr쎯xfg쎯	-9.35549
b쎯qev쎯	-9.35561
mmm쎯sghg1쎯ith쎯	-9.35621
oyn쎯	-9.3564
op쎯	-9.35656
guw쎯	-9.35677
iyt0쎯	-9.35813
vtk쎯www쎯	-9.35866
itf쎯	-9.3587
dgh쎯wa쎯	-9.35906
ith쎯xe쎯	-9.35945
gogn쎯	-9.35966
쎃쎀쎀	-9.36126
ryn0쎯	-9.36209
ws쎯usi0쎯	-9.36219
apk쎯udyj쎯	-9.36238
jn쎯idr쎯	-9.36263
▁쎂、	-9.36287
nnh쎯gl쎯	-9.36341
xyna0쎯lkb쎯	-9.36534
jo쎯	-9.36686
vck쎯	-9.36701
「	-9.3671
sm쎯ud쎯	-9.36769
uqwk쎯yqj쎯	-9.36774
dt쎯egl쎯	-9.36858
kkk쎯rfm쎯	-9.3686
sghg1쎯pv쎯	-9.36883
...	-9.36911
jat쎯	-9.36924
wv쎯dmh쎯	-9.36977
vvv쎯ntg쎯	-9.37134
fkuc1쎯	-9.3722
tffy0쎯	-9.3726
wfk쎯	-9.37355
mmm쎯sghg1쎯	-9.37553
iie쎯	-9.37595
pwat쎯	-9.376
tux쎯	-9.37637
e쎯udh쎯	-9.37646
쎆쎄	-9.37724
ia쎯sghg1쎯ith쎯	-9.37738
ruv쎯epc쎯	-9.37765
w쎯r쎯	-9.37793
쎃쎇	-9.37801
쎃쎈	-9.37843
ugv쎯	-9.3793
usg쎯	-9.37966
ttd쎯	-9.38041
pl쎯gk쎯	-9.38041
mnm쎯	-9.38044
vkgd쎯qi쎯	-9.38049
aqq쎯	-9.38146
jtyl쎯hich쎯	-9.38168
wf쎯yyq쎯	-9.3824
nae쎯fi쎯	-9.38309
ipw쎯fkh쎯ymhj쎯	-9.38324
bk쎯a쎯	-9.38361
rnr쎯	-9.3841
qkd쎯	-9.38509
ssn쎯	-9.38544
oa쎯	-9.38566
my쎯	-9.38763
wnnp쎯fiy쎯	-9.38766
tdn쎯	-9.38855
qdm쎯	-9.38906
,puhc쎯	-9.38929
ifh1쎯	-9.38934
saj쎯	-9.38965
iie쎯xjm쎯ftj쎯	-9.39004
wny0쎯	-9.39007
rj쎯tak쎯	-9.39075
,qn쎯rtd쎯	-9.39078
and쎯	-9.391
wwkw1쎯	-9.39263
uag1쎯	-9.39265
quj쎯	-9.39348
gm쎯wa쎯wx쎯	-9.39414
rc쎯yid쎯	-9.39425
naw쎯	-9.39577
,bn쎯	-9.39607
tdt쎯	-9.39689
god쎯	-9.39712
xx쎯pfjm1쎯	-9.39793
fcp쎯lwg쎯	-9.39815
tr쎯gj쎯	-9.39852
rs쎯tfkp쎯	-9.39944
ip쎯wug1쎯	-9.4003
ts쎯wrh2쎯	-9.40152
qq쎯uqw쎯	-9.4017
쎅쎅	-9.40196
fd쎯aq쎯	-9.40247
」	-9.40247
ytb쎯a쎯	-9.40313
ltu쎯nnh쎯	-9.40378
dfy쎯lt쎯	-9.40435
vx쎯	-9.40454
mhkg2쎯	-9.40472
lfnh쎯	-9.40482
ymf쎯gkih쎯	-9.40487
a쎯wt쎯,	-9.40534
ygu쎯	-9.40552
nty1쎯af쎯	-9.4068
uqv쎯	-9.40716
gkih쎯	-9.40807
drt쎯	-9.40867
wys쎯k쎯	-9.40895
bgu쎯sghg1쎯ith쎯	-9.40959
au쎯	-9.40984
tb쎯	-9.41012
uce쎯	-9.41045
yygt쎯dd쎯	-9.41082
yjs쎯	-9.41098
rb1쎯tfkf1쎯	-9.41143
tve쎯qq쎯	-9.41179
dd쎯ih쎯	-9.41188
alf쎯	-9.41235
wtuf1쎯	-9.41247
,dn쎯o쎯	-9.41262
rdf1쎯	-9.4142
xyc쎯g쎯	-9.41465
afs쎯	-9.41466
di쎯	-9.41479
dtb쎯	-9.41604
pdc쎯	-9.41682
uthp쎯kht쎯	-9.41689
wqin쎯	-9.41736
tkw쎯se쎯	-9.41742
xln1쎯qt쎯lfq쎯	-9.41839
,i쎯	-9.41842
utk쎯	-9.42021
rqc쎯	-9.42021
ptkm0쎯	-9.42034
qge쎯	-9.42268
oo쎯	-9.42301
pu쎯bf쎯	-9.42306
vs쎯fn쎯	-9.42345
lft쎯bw쎯	-9.42396
ffuk쎯	-9.42401
dhb쎯d쎯	-9.42443
nla쎯	-9.42463
gqg1쎯	-9.42503
ym쎯usr쎯rfc쎯sy쎯	-9.42512
r쎯w쎯	-9.42594
ymf쎯sj쎯	-9.42795
r쎯y쎯s쎯	-9.42841
pgf1쎯	-9.42947
yw쎯o쎯	-9.42975
rj쎯bm쎯	-9.42992
ym쎯gkip2쎯wc쎯kht쎯	-9.43069
qn쎯ufy쎯	-9.43099
yssc2쎯	-9.43182
trf쎯gqr쎯	-9.4319
bm쎯kkkk0쎯	-9.43198
gkih쎯wh쎯	-9.43207
ydn쎯	-9.43277
쎆쎅	-9.433
nt쎯edm쎯	-9.43346
aqk쎯	-9.43378
ynj쎯	-9.4347
iqn쎯	-9.43471
bwf쎯	-9.43517
gcf쎯wynb쎯	-9.436
h쎯,	-9.43601
cccs3쎯	-9.43613
suq쎯lfq쎯	-9.43646
ge쎯gm쎯	-9.43707
vck쎯vfhp1쎯gf쎯	-9.43734
ipkr쎯	-9.43835
yygt쎯itp쎯	-9.43872
uygh1쎯	-9.43875
ian0쎯	-9.43938
fj쎯tf쎯b쎯	-9.4403
mf쎯	-9.44091
쎂쎀쎁쎀rh쎯	-9.44097
jhng쎯	-9.44101
x쎯maw쎯	-9.44132
ge쎯ipg쎯	-9.44142
wtf쎯wsk쎯	-9.44185
,ld쎯	-9.4419
xu쎯	-9.44221
ggw쎯	-9.44222
i쎯sk쎯	-9.44228
쎆쎀쎀	-9.44233
gd쎯gh쎯	-9.4429
edm쎯	-9.44296
쎅쎀쎀	-9.44532
rrg1쎯rbcc쎯	-9.44622
rrg1쎯	-9.44632
iugg0쎯	-9.44697
cbd쎯	-9.44818
ajdf쎯	-9.44852
▁쎂	-9.45016
aft쎯	-9.45065
mw쎯uk쎯	-9.45275
gcg쎯	-9.45296
bc쎯tj쎯	-9.45302
e쎯uqt쎯	-9.45324
ipq쎯	-9.45467
xtf쎯xwy쎯	-9.45643
eb쎯ufy쎯	-9.45653
mmq쎯	-9.45823
wuk쎯	-9.45954
gx쎯bu쎯mqq쎯	-9.45988
tgj쎯yd쎯ymhj쎯	-9.46034
vca쎯	-9.4624
g쎯av쎯	-9.46297
nny0쎯	-9.46333
fp쎯tkgg0쎯k쎯	-9.46391
jn쎯lt쎯	-9.46603
vcl쎯lt쎯	-9.46626
aib쎯	-9.46666
gd쎯qd쎯	-9.46679
jc쎯	-9.46694
쎃쎃	-9.46963
wk쎯rf쎯	-9.46968
aft쎯qk쎯r쎯	-9.47002
mm쎯	-9.47014
uuk0쎯yfn쎯	-9.47031
ybf0쎯epc쎯	-9.47115
ijo쎯	-9.47151
tu쎯rfc쎯fj쎯hi쎯	-9.47202
쎁wh쎯	-9.47249
wdn쎯rvyl쎯	-9.47258
hh쎯	-9.47298
xyc쎯yf쎯	-9.47444
yvc쎯	-9.47503
tr쎯rfm쎯	-9.47563
ovt쎯ip쎯	-9.4761
l	-9.47642
rffg쎯	-9.47682
rvyl쎯	-9.4769
ebn0쎯	-9.47714
ih쎯aq쎯	-9.47745
ght쎯tgm쎯	-9.47772
c쎯go쎯	-9.47788
dga쎯v쎯	-9.47794
쎃쎄	-9.47858
wycm0쎯	-9.47862
gae쎯qje쎯	-9.47896
▁쎃.	-9.47913
rdfh1쎯	-9.47929
ef쎯	-9.4793
fwm쎯saj쎯	-9.47966
,ld쎯hx쎯	-9.47991
hka쎯qv쎯	-9.48003
n쎯uj쎯	-9.48099
rpv쎯jvko쎯	-9.48121
ipg쎯	-9.48213
,dmj1쎯eg쎯	-9.48217
dga쎯	-9.48243
x쎯cwg쎯	-9.48258
dh쎯pgk쎯	-9.48268
xp쎯wgk쎯ntg쎯	-9.48277
v쎯ge쎯	-9.48374
jn쎯ytd쎯	-9.48513
‘	-9.48522
gkih쎯wgk쎯	-9.48599
bu쎯jel쎯	-9.48661
fcp쎯apk쎯	-9.48745
cep쎯wy쎯	-9.48811
yygy쎯pb쎯	-9.48863
,hw쎯e쎯	-9.48885
pu쎯khg쎯	-9.48935
sw쎯sj쎯	-9.49003
bm쎯tg쎯	-9.49009
wf쎯yf쎯	-9.49026
tu쎯ip쎯rfc쎯sy쎯	-9.49053
sh쎯cf쎯	-9.49128
kqy쎯	-9.49155
pyj쎯x쎯	-9.49242
tgm쎯aj쎯	-9.49293
rnn1쎯	-9.49336
xo쎯xfn쎯	-9.49343
rvk쎯	-9.49432
aw쎯e쎯	-9.49508
awf쎯	-9.49527
쎂쎀쎀쎈rh쎯	-9.4959
ym쎯k쎯	-9.49609
srm쎯	-9.49663
vfhp1쎯uu쎯b쎯	-9.49731
hc쎯efw쎯	-9.49766
i쎯m쎯r쎯	-9.49905
wy쎯kgn쎯	-9.49995
tg쎯wgkb2쎯	-9.5001
dr쎯ou쎯	-9.50025
bp쎯ps쎯ith쎯	-9.5008
ulg쎯	-9.50081
w쎯tg쎯	-9.50112
y쎯wtf쎯	-9.50117
ipkr쎯rng0쎯	-9.50203
j쎯d쎯	-9.50213
dd쎯jgm쎯	-9.50241
ipg쎯bm쎯	-9.5039
wug1쎯lfhf쎯	-9.50435
kk쎯	-9.50492
fwm쎯aib쎯	-9.50507
oge쎯kkk쎯	-9.50508
a쎯tkgg0쎯jgm쎯	-9.50629
c쎯gh쎯	-9.50662
gf쎯g쎯wsg0쎯r쎯	-9.50666
ccc쎯tq쎯	-9.50705
qg	-9.50803
khgp0쎯fhg1쎯	-9.50874
fii쎯go쎯	-9.5096
xww쎯	-9.50964
g쎯xe쎯	-9.50991
,k쎯l쎯	-9.51105
wbj쎯lw쎯	-9.51191
afd0쎯	-9.5125
egl쎯	-9.51272
vvv쎯bb쎯	-9.51277
sk쎯ce쎯	-9.51306
nua쎯	-9.51345
ubtf쎯ou쎯	-9.51348
ymc쎯uu쎯	-9.51364
ltu쎯nnh쎯qnp쎯	-9.5139
ifj쎯	-9.51457
an쎯xn쎯	-9.51587
ymf쎯ab쎯	-9.51665
o쎯“	-9.51692
whw쎯qi쎯uk쎯	-9.51706
iv쎯jf쎯	-9.51751
xwy쎯ryn0쎯	-9.51754
mmm쎯aq쎯	-9.51804
rrr쎯qc쎯	-9.51807
rt쎯sy쎯	-9.51915
ufy쎯lfhf쎯	-9.51932
kkhn쎯ftj쎯	-9.51935
aqb쎯	-9.51976
tqq쎯	-9.52011
wbj쎯og쎯	-9.52037
rj쎯waw쎯b쎯	-9.5222
hnd쎯	-9.52244
od쎯gajf쎯:	-9.52356
(),	-9.52363
쎄쎀쎀	-9.52383
,cep쎯fp쎯	-9.52413
dgkn쎯ivs쎯	-9.52474
ˋ	-9.52493
tr쎯iyc쎯	-9.52529
pp쎯uj쎯r쎯	-9.52551
bd쎯rjg0쎯	-9.52554
gkip2쎯	-9.52673
jpx쎯	-9.52674
쎂쎀쎀쎇rh쎯	-9.52705
thd쎯fcl쎯wx쎯	-9.52747
ycf쎯	-9.52752
yvcb쎯	-9.52783
ke쎯	-9.52804
atd쎯ax쎯	-9.52862
sf쎯wug1쎯gf쎯	-9.52886
ㄧ	-9.52936
▁:	-9.52967
wtf쎯tl쎯	-9.53041
▁쎃、	-9.53193
gfq쎯	-9.53224
gbnm0쎯	-9.53229
apl쎯fcl쎯	-9.53238
,mj쎯	-9.53309
xo쎯	-9.53351
tha쎯	-9.53511
rnd1쎯	-9.53552
dwf쎯	-9.53555
ywx쎯ffc쎯	-9.53584
ral쎯syp쎯	-9.53653
lk쎯xk쎯	-9.53702
ipm쎯	-9.53724
qkq쎯xjm쎯	-9.53761
qjq쎯	-9.53787
trh쎯	-9.53793
mf쎯ght쎯	-9.53794
tfp쎯	-9.53825
tgj쎯dd쎯	-9.53835
rgm쎯	-9.53835
쎂쎀쎀쎆rh쎯	-9.53871
khi쎯	-9.53887
blf쎯	-9.54057
kh	-9.54092
bw쎯wgg0쎯	-9.54119
rmc쎯ty쎯	-9.54137
aca쎯	-9.54156
fq쎯if쎯	-9.54198
ujn쎯dd쎯tjh쎯	-9.54289
lqy쎯	-9.54367
www쎯qq쎯	-9.54434
yxu쎯	-9.54481
tie쎯	-9.54484
。px쎯	-9.54635
nge쎯ukq쎯	-9.54652
wk쎯bwg쎯	-9.54666
iv쎯wa쎯	-9.54672
ax쎯tr쎯	-9.54678
dn쎯js쎯	-9.54795
we쎯	-9.54818
rf쎯	-9.5482
f쎯gh쎯	-9.54826
pu쎯tf쎯	-9.54851
yn쎯vi쎯	-9.54878
nhy쎯	-9.54888
qdm쎯yneg쎯	-9.54903
wt쎯pe쎯	-9.54964
toln0쎯	-9.55034
fcl쎯dyn쎯	-9.55065
xa쎯qc쎯	-9.55161
ftjo1쎯	-9.55169
ytn쎯	-9.55184
gm쎯fnrt쎯	-9.55236
gef쎯qynm1쎯	-9.55238
nty1쎯yo쎯	-9.55262
tx쎯lh쎯	-9.55544
ydm쎯	-9.55563
rep쎯	-9.55576
ndo쎯tjt쎯	-9.5559
nhj쎯	-9.55645
쎈쎀쎀	-9.55656
×	-9.55691
,rg쎯	-9.55778
g쎯su쎯	-9.55805
iv쎯f쎯	-9.55817
tdp쎯et쎯gf쎯	-9.55839
ynk쎯	-9.55866
bgk쎯	-9.559
yk쎯	-9.55944
gxi쎯rfm쎯	-9.56013
wn쎯	-9.56031
upy쎯	-9.56075
》yff쎯:“	-9.56171
ny쎯gj쎯	-9.56195
qvn2쎯	-9.56215
tmdf1쎯	-9.56302
ijx쎯	-9.56338
쎉쎈	-9.56372
khx쎯	-9.56378
yyq쎯	-9.56401
nm쎯	-9.56414
tdp쎯wgk쎯	-9.56493
쎄쎄	-9.56502
dmjf1쎯	-9.5651
jb쎯wffg쎯	-9.5653
ㄨ	-9.56531
fwyc2쎯	-9.56535
vq쎯	-9.56537
tsh0쎯	-9.56593
aps쎯aqt쎯	-9.56613
e쎯bv쎯wc쎯ngk쎯j쎯	-9.56656
▁쎁	-9.567
ycb쎯	-9.56786
쎂쎀쎀쎅rh쎯	-9.56861
sw쎯	-9.56867
iaqg쎯	-9.56873
gd쎯ivfh1쎯ymhj쎯	-9.5696
pu쎯et쎯	-9.56999
vcb쎯sk쎯	-9.57001
dd쎯uthp쎯	-9.57062
wgq쎯	-9.57063
ip쎯ftj쎯	-9.57076
oyv쎯	-9.57083
qgb쎯ya쎯	-9.57107
yv쎯vb쎯r쎯	-9.57159
srg쎯	-9.57183
qk쎯tq쎯	-9.57195
fny쎯et쎯	-9.57291
jy쎯cm쎯	-9.57328
bn쎯。”	-9.57386
ghd0쎯d쎯	-9.57431
ugdu쎯pww쎯	-9.57461
j쎯c쎯	-9.5747
bqr쎯uqwn0쎯	-9.57481
sfh쎯	-9.57498
o쎯y쎯,	-9.57503
yw쎯ygh쎯	-9.57519
v쎯dmh쎯	-9.57556
db쎯	-9.5759
imk쎯	-9.57644
wvf쎯	-9.57654
dga쎯pwv쎯k쎯ny쎯	-9.5771
쎂wh쎯	-9.57742
▁쎁、	-9.57749
jyie쎯pym쎯	-9.57849
tfkp쎯gajf쎯	-9.57906
pj쎯	-9.57916
kwg쎯qiu0쎯ipr쎯	-9.5794
khv쎯	-9.58024
qnr쎯	-9.58062
rpw쎯	-9.5815
쎂쎀쎀쎉rh쎯	-9.58298
ygu쎯wwj쎯	-9.58403
at쎯	-9.58409
g쎯ts쎯	-9.5841
wv쎯bb쎯	-9.58453
gb쎯	-9.58518
쎄쎂	-9.58524
alw쎯ytyh쎯	-9.58596
rwyg쎯bm쎯	-9.58603
wwf쎯ait쎯gf쎯	-9.58643
awx쎯lfq쎯	-9.58652
usr쎯r쎯	-9.58658
j쎯k쎯l쎯	-9.58664
iie쎯xjm쎯	-9.58712
hka쎯ufk0쎯	-9.58774
ftx쎯jgm쎯	-9.58825
qkm쎯	-9.58876
bynw0쎯bb쎯	-9.58953
udy쎯dyn쎯	-9.58956
iya쎯	-9.58969
iwt쎯	-9.58981
ffc쎯	-9.59041
dn쎯sg쎯	-9.59043
sw쎯cwg쎯	-9.59129
。gm쎯wtf쎯	-9.59185
cep쎯ipkh1쎯	-9.59293
lw쎯gk쎯th쎯	-9.59462
fof쎯	-9.59539
wdy1쎯	-9.59652
ke쎯nh쎯	-9.59679
c쎯“	-9.59709
f쎯fdf0쎯	-9.59746
falw쎯	-9.59776
iwf쎯lw쎯	-9.59792
pwr쎯	-9.59802
..	-9.59833
rcy0쎯	-9.59839
gw쎯	-9.5997
mpf쎯	-9.60041
fdm쎯fiy쎯	-9.60067
nty1쎯tfkp쎯	-9.60088
qaj쎯	-9.601
ul쎯wtf쎯	-9.60129
qlp쎯	-9.60146
ufy쎯wht쎯	-9.60163
at쎯fmk쎯	-9.60166
qk쎯。	-9.60172
tdaf쎯	-9.60203
tgj쎯usr쎯	-9.60219
a쎯dgt1쎯	-9.60258
yln쎯	-9.60342
xyna0쎯rmhj쎯	-9.60382
wyo쎯	-9.60451
tmd쎯wsg0쎯	-9.60491
gqje쎯	-9.60556
qq쎯wh쎯	-9.6059
fmy1쎯	-9.60597
ypeu쎯	-9.60649
r쎯v쎯nae쎯	-9.60657
eb쎯tl쎯。	-9.60721
xf쎯js쎯	-9.60726
yygt쎯ytyh쎯ymhj쎯	-9.60828
whf쎯og쎯。	-9.6083
sghg1쎯uk쎯	-9.6084
sgn쎯lfhf쎯	-9.60848
lwg쎯bm쎯	-9.60856
쎄쎆	-9.60861
,ua쎯eg쎯	-9.60948
xan쎯	-9.60965
쎅쎆	-9.61008
i쎯j쎯	-9.61018
ym쎯ya쎯	-9.61031
ovt쎯jg쎯	-9.61068
udg2쎯	-9.61104
atd쎯tu쎯dd쎯ip쎯	-9.61188
jn쎯pym쎯ck쎯	-9.61258
rrk쎯ip쎯	-9.61337
ipk쎯km쎯	-9.6137
ujqu쎯	-9.61487
em쎯	-9.61533
fnud쎯	-9.61556
nfp쎯gkip2쎯	-9.61569
ym쎯tffu쎯	-9.61588
siq쎯	-9.61763
tg쎯ta쎯	-9.61773
su쎯	-9.61824
tqv쎯pg쎯	-9.61847
d쎯xg쎯	-9.61862
dcg쎯	-9.61945
ykw쎯	-9.61969
ek쎯uqyl쎯	-9.62026
gog쎯iyt0쎯	-9.62084
dn쎯ta쎯	-9.62089
쎄쎃	-9.62143
쎃쎉	-9.62143
ce쎯idr쎯	-9.62224
vv쎯vvv쎯	-9.62272
kfa쎯	-9.62286
wfn쎯	-9.62291
y쎯jghm1쎯	-9.62315
&	-9.62364
wwv쎯	-9.62372
yuo쎯	-9.62407
wksf쎯	-9.62425
jn쎯bb쎯um쎯tl쎯	-9.6245
akgl쎯	-9.62481
xh쎯fj쎯	-9.62505
wyq쎯kkd쎯	-9.62514
tdij쎯	-9.62579
(wynb쎯	-9.62605
abi쎯	-9.62766
egm쎯	-9.62777
toln0쎯ycf쎯	-9.62788
ugh쎯	-9.62889
iqpl1쎯	-9.62921
yssr쎯	-9.62968
ynty쎯	-9.63065
bn쎯e쎯	-9.63085
e쎯bv쎯gmu1쎯wtf쎯	-9.63089
aeu쎯	-9.63126
ghd0쎯ipkh1쎯	-9.63225
fm쎯uk쎯	-9.63246
nua쎯ajdh쎯	-9.63267
wkhh쎯	-9.63279
fhv쎯fp쎯	-9.63383
mhg쎯	-9.6345
ujff쎯	-9.63503
fiyt쎯	-9.63532
f쎯rfm쎯	-9.63544
adwe1쎯fjh0쎯	-9.63588
qkq쎯	-9.63632
i쎯wcy2쎯	-9.6364
du쎯	-9.63735
goi쎯	-9.63766
gu쎯fqu쎯	-9.63827
wynn3쎯	-9.63864
waye쎯	-9.63967
rymn쎯jjjj쎯	-9.64002
m쎯fn쎯	-9.64004
tep쎯	-9.64041
,reh쎯e쎯	-9.6407
itx쎯iu쎯	-9.64127
tca쎯	-9.64161
bu쎯txi쎯	-9.6432
쎄쎇	-9.64388
khgp0쎯	-9.64465
yfn쎯ftj쎯	-9.64488
fyn쎯	-9.64495
wfny0쎯》:“	-9.64535
mfky쎯	-9.64609
----------------	-9.64622
uqwm0쎯	-9.64717
adw쎯px쎯	-9.6472
saj쎯gajf쎯	-9.64766
db쎯ukd0쎯	-9.64982
adwn0쎯	-9.6509
mqc쎯tr쎯	-9.65172
wfny0쎯lwg쎯	-9.65189
fcl쎯lt쎯	-9.65207
fpo쎯	-9.65245
grd쎯	-9.6529
rpws쎯	-9.65333
dd쎯pfjm1쎯	-9.65362
vf쎯	-9.65388
khgm4쎯ytyh쎯	-9.65493
ishg쎯	-9.65554
wys쎯dn쎯	-9.65594
nty1쎯uduk쎯	-9.65602
,sk쎯c쎯	-9.65615
ˊ	-9.65659
fke쎯	-9.6569
jb쎯usr쎯	-9.6576
cep쎯ynf쎯	-9.65763
tfkd쎯	-9.65812
lfo쎯qc쎯	-9.65836
dyw쎯	-9.65845
tlf2쎯	-9.65888
xxf쎯og쎯	-9.65895
ijx쎯wgk쎯	-9.65945
ej쎯	-9.65963
nf쎯ipg쎯	-9.66075
。mh쎯gf쎯	-9.6612
rn쎯c쎯	-9.66126
thd쎯tmd쎯	-9.66241
fcl쎯gl쎯	-9.66315
sgn쎯wgk쎯	-9.66391
nae쎯jtyq1쎯	-9.66402
enr쎯	-9.66469
uqi쎯	-9.66471
rx쎯uwy1쎯	-9.66485
uyiy0쎯	-9.6649
dmu0쎯	-9.66535
ftbt쎯yce쎯uk쎯	-9.66549
g쎯rh쎯	-9.66591
wnnp쎯	-9.66658
쎂쎀쎀쎄rh쎯	-9.66751
w쎯a쎯	-9.66756
ubtf쎯	-9.66896
ysi쎯	-9.66898
k쎯yygy쎯	-9.66926
trfh0쎯ggi쎯	-9.66951
ldd쎯pg쎯	-9.6697
fku쎯cqw쎯	-9.67017
jvk쎯	-9.67027
ytfp1쎯	-9.67032
udr쎯	-9.67072
tuj쎯ujfj쎯	-9.6708
▁쎃	-9.67152
,ww쎯dmj1쎯	-9.67215
ivfh1쎯	-9.67301
sss쎯ss쎯	-9.67325
thl쎯	-9.67386
ufg쎯	-9.67397
jjj쎯	-9.67501
ey쎯jf쎯	-9.67519
wfny0쎯vaf쎯	-9.67534
vfhp1쎯dn쎯	-9.67588
saj쎯rny1쎯	-9.67631
tey쎯pw쎯	-9.67764
rtol1쎯yt쎯	-9.67783
ipg쎯km쎯	-9.67807
anh쎯ae쎯	-9.67859
ld쎯hx쎯	-9.67951
e쎯sm쎯	-9.68038
yygy쎯ujj쎯	-9.68158
fj쎯kkkk0쎯	-9.68178
qim쎯	-9.68185
tdd쎯	-9.68214
,vbn쎯	-9.68296
,y쎯s쎯	-9.6831
dd쎯bfm쎯	-9.68338
bde쎯udh쎯	-9.6834
gh쎯,	-9.68353
쎂쎀쎀쎀	-9.68394
wcw쎯	-9.68409
wg쎯ymhj쎯	-9.68419
ldj쎯	-9.68467
sks쎯	-9.68544
,vvv쎯,	-9.68552
tg쎯,	-9.68566
ovt쎯rnd1쎯go쎯idr쎯	-9.68581
qtdn0쎯	-9.68584
쎄wh쎯	-9.68601
wk쎯buj쎯	-9.68628
le쎯	-9.6867
fdf0쎯	-9.68755
kc쎯	-9.68863
fl쎯	-9.68902
lkm쎯	-9.68946
fjh0쎯	-9.69039
ft쎯ce쎯	-9.69105
ti쎯	-9.69114
gy쎯oy쎯	-9.69132
twf쎯wgk쎯	-9.69135
gkl쎯y쎯wtf쎯	-9.69237
nudu쎯	-9.69243
l쎯qh쎯	-9.69276
afff2쎯	-9.69303
ee쎯dc쎯	-9.69312
udg2쎯it쎯	-9.69319
wbj쎯vfhp1쎯gf쎯	-9.69325
r쎯dga쎯pwv쎯	-9.69369
jtyq0쎯pg쎯	-9.69415
toc쎯	-9.69446
gyg1쎯	-9.69453
tcy쎯	-9.69457
pwy쎯	-9.69485
쎃wh쎯	-9.69494
,txg쎯	-9.69539
stt쎯ugl쎯	-9.69556
ruv쎯qejy쎯	-9.69564
ftjb쎯e쎯	-9.69713
wg쎯ith쎯	-9.69759
dgtg쎯img쎯	-9.69774
aqky1쎯	-9.69821
,yh쎯	-9.69822
gkm쎯	-9.69892
r쎯jf쎯whn쎯	-9.69904
igey쎯	-9.69958
쎆쎆	-9.7001
sgtu쎯	-9.70144
isw쎯	-9.70167
fwm쎯pg쎯	-9.702
py쎯wf쎯y쎯yq쎯	-9.70214
ad쎯gf쎯	-9.70233
xln1쎯	-9.70305
qc쎯ese쎯	-9.7033
qq쎯vaf쎯wsg0쎯	-9.70346
eck쎯	-9.70356
jm쎯	-9.70363
yygy쎯fmud쎯	-9.70386
tffu쎯f쎯	-9.70388
fwyf쎯	-9.70423
txgt쎯	-9.70445
dt쎯	-9.70449
pwd쎯bm쎯	-9.70463
쎄쎉	-9.70515
lw쎯wc쎯	-9.70573
lfo쎯dx쎯ia쎯ith쎯	-9.70586
cd쎯lk쎯a쎯wt쎯,	-9.70607
。wc쎯ngk쎯	-9.70608
,jb쎯xtu쎯xf쎯js쎯	-9.70657
c쎯dj쎯ya쎯f쎯ltu쎯o	-9.70732
gf쎯dj쎯ya쎯f쎯ltu쎯	-9.70733
vt쎯rnd1쎯o쎯uwy1쎯。	-9.70755
qtq쎯	-9.70778
.("/////	-9.7082
.",(){(	-9.7082
쎁쎀쎀쎀쎀쎈쎀쎁);});	-9.70856
utem1쎯qc쎯	-9.70863
jb쎯rg쎯	-9.70891
maw쎯	-9.70946
uep쎯	-9.70961
sai쎯	-9.70969
tfkf1쎯	-9.70979
qkk쎯	-9.71007
h	-9.71024
yff쎯w쎯	-9.7103
wbb쎯	-9.711
wtr쎯lq쎯adwr쎯	-9.71134
sksw쎯ma쎯	-9.71179
,wtf쎯	-9.71183
iyc쎯tf쎯	-9.7119
qev쎯toc쎯	-9.71257
yygy쎯tr쎯	-9.71282
lwg쎯ty쎯	-9.71319
c쎯go쎯,	-9.71343
iyv쎯	-9.71345
dh쎯pgk쎯r쎯	-9.71356
jn쎯ib쎯	-9.71378
bt쎯wqa쎯	-9.7138
cb쎯	-9.71419
vk쎯js쎯	-9.71444
wfi쎯	-9.71472
쎅쎈	-9.71489
hm쎯	-9.71521
wv쎯od쎯	-9.71534
w쎯wsg0쎯	-9.71552
wyp쎯	-9.71604
rfc쎯ce쎯	-9.7164
qnq쎯	-9.7169
smu1쎯	-9.7173
gkh0쎯	-9.71881
dy쎯bj쎯	-9.71894
egc쎯fd쎯	-9.71944
,wjg쎯j쎯	-9.72055
pfjs쎯	-9.72071
khd쎯	-9.72126
,gmf쎯	-9.72166
aup쎯	-9.72176
qtal1쎯	-9.72193
wk쎯ygh쎯	-9.72248
rwyg쎯adh쎯	-9.72291
tduh쎯	-9.72325
sg쎯tu쎯	-9.72365
fym쎯	-9.72376
am쎯	-9.72379
i쎯qten0쎯qmq쎯	-9.72419
쎅쎂	-9.7243
iy쎯tgj쎯	-9.72435
pr쎯	-9.72498
th쎯gf쎯	-9.72511
pfq쎯uduk쎯	-9.7252
y쎯yq쎯	-9.72544
《k쎯l쎯	-9.7266
ifw쎯	-9.72738
by쎯ick쎯	-9.72743
nyiy0쎯	-9.72819
pfq쎯	-9.72853
》tffu쎯。	-9.7288
fk쎯ss쎯ith쎯	-9.72967
yy쎯wgj쎯	-9.73001
un쎯	-9.73036
ab쎯hhhh쎯	-9.73152
qkqp쎯	-9.73211
dl쎯wtf쎯	-9.73283
dd쎯lpk0쎯	-9.73291
rpws쎯fpx쎯	-9.73321
쎈쎅	-9.73352
ai쎯sghg1쎯	-9.73359
쎁.쎅	-9.73379
rm쎯	-9.73412
x쎯ipkh1쎯	-9.73478
lgk쎯tmdf1쎯	-9.73573
qvfp1쎯	-9.73614
fgh쎯fg쎯	-9.73617
atg쎯	-9.7377
fuj쎯	-9.7378
wda쎯	-9.73809
dg쎯rh쎯	-9.73876
bl쎯	-9.73889
qf쎯cf쎯	-9.73917
itol쎯	-9.73923
ipe쎯	-9.73953
sghg1쎯adnt1쎯	-9.73998
sh쎯iv쎯	-9.74007
쎁쎀쎀쎀	-9.74013
xte쎯qfhw0쎯	-9.74017
ymhj쎯ght쎯ywf쎯	-9.74063
amw쎯qqqq1쎯	-9.74072
쎂쎀쎁쎁rh쎯	-9.7414
wgk쎯dn쎯	-9.74163
kj쎯	-9.74224
adn쎯	-9.74256
thn쎯	-9.74299
ud쎯iy쎯	-9.74311
xyc쎯	-9.74335
anb0쎯sy쎯pe쎯	-9.74354
lh쎯wh쎯	-9.74366
xeg쎯vfhp1쎯	-9.74369
tp쎯gj쎯nnk쎯	-9.74413
ipmq쎯	-9.7446
vb쎯r쎯	-9.74461
dga쎯pwv쎯wf쎯	-9.74467
fdm쎯	-9.7449
쎃쎁	-9.74516
c쎯rg쎯	-9.74519
uxx쎯	-9.74534
adj쎯	-9.74582
sm쎯、	-9.74613
쎁쎂쎀	-9.74668
thd쎯q쎯	-9.74705
xwy쎯wht쎯	-9.74783
jghy쎯	-9.74784
fu쎯xk쎯	-9.74807
tey쎯	-9.74821
d쎯k쎯l쎯	-9.74845
uqsg쎯	-9.74908
iagw쎯khu쎯	-9.74925
dn쎯uu쎯gf쎯	-9.74969
fi쎯	-9.74999
bp쎯ps쎯	-9.75086
yce쎯	-9.75099
ym쎯uqt쎯	-9.75106
bn쎯。	-9.75121
fcl쎯wt쎯	-9.75139
sgmj쎯	-9.75151
쎂쎀쎀쎃rh쎯	-9.75328
pg쎯wug1쎯	-9.75356
wdn쎯wx쎯	-9.75361
wsg0쎯cwg쎯	-9.75382
aynq쎯	-9.75399
gk쎯wrh2쎯	-9.75409
gj쎯wynn3쎯	-9.75476
rrhy쎯	-9.75566
sf쎯n쎯	-9.75576
lft쎯wsg0쎯	-9.75598
sh쎯gx쎯	-9.75607
w쎯lt쎯uqwm0쎯idr쎯	-9.7561
rmhj쎯kkk쎯	-9.757
,ll쎯,ic쎯ytt쎯,	-9.75731
trf쎯tgh쎯	-9.75741
rwyg쎯fj쎯	-9.75743
vgk쎯	-9.75762
uc쎯	-9.75796
ex쎯	-9.75823
vyi0쎯	-9.75851
rlg쎯khev쎯	-9.75861
fkue1쎯	-9.75881
ijlc쎯gl쎯	-9.75987
dgk쎯	-9.76063
gmww쎯tkh쎯	-9.76121
sq쎯dn쎯	-9.76126
ltu쎯thg0쎯	-9.7617
tffu쎯yy쎯dm쎯	-9.76171
fny쎯og쎯r쎯	-9.76212
dyn쎯	-9.76232
wxj쎯ftbt쎯	-9.76233
ytey쎯	-9.76237
pr쎯qnp쎯	-9.76311
bwf쎯rp쎯	-9.76333
sft쎯	-9.76341
rgf쎯up쎯	-9.76352
쎉쎉	-9.76383
ipw쎯ty쎯	-9.76423
pwt쎯	-9.76455
mu쎯	-9.76466
dd쎯pe쎯	-9.76487
bwj쎯wdm쎯	-9.76513
gh쎯fa쎯	-9.7657
ga쎯yt쎯	-9.76573
uth쎯uqw쎯	-9.76725
wfkb쎯	-9.76758
usr쎯gajf쎯	-9.76808
jce쎯	-9.76825
vit쎯	-9.76894
afd0쎯vij쎯ith쎯	-9.76901
gk쎯og쎯ujfj쎯wug1쎯	-9.7693
ssf쎯	-9.76932
dnv2쎯	-9.76937
amd쎯dcw쎯	-9.76957
jy쎯aq쎯	-9.76971
tvfh1쎯	-9.76981
ep쎯nge쎯	-9.7705
yy쎯pvs쎯	-9.7706
jh쎯adwe1쎯	-9.77093
wg쎯egc쎯	-9.77106
df쎯	-9.77109
pwdj쎯	-9.77147
,ntk쎯gf쎯mmm쎯aq쎯。	-9.77279
rxj쎯rpl쎯	-9.77301
ujfj쎯wug1쎯。	-9.7732
cel쎯	-9.77415
qnu0쎯	-9.77466
fqb1쎯gxi쎯	-9.77495
txg쎯rh쎯	-9.77509
txg쎯wh쎯	-9.77527
pe쎯hw쎯	-9.77567
ux쎯uk쎯	-9.77571
fd쎯qfhw0쎯	-9.77597
wul쎯	-9.77618
xh쎯fhn쎯	-9.77651
쎀.쎅	-9.77696
kqb쎯uxh쎯	-9.77705
awb쎯	-9.7772
tq쎯kgn쎯。	-9.77721
oyv쎯wyv쎯	-9.77783
g쎯pg쎯	-9.77841
pw쎯rnb쎯	-9.77878
gkl쎯ftbt쎯rep쎯	-9.77934
wk쎯wvf쎯	-9.77935
쎁쎅쎀	-9.77998
hw쎯wsg0쎯	-9.78047
,rcn1쎯	-9.78053
r쎯ih쎯	-9.78078
rhj쎯	-9.7809
쎂.쎀	-9.78142
k쎯uk쎯	-9.78164
iuc쎯	-9.78174
sfiu0쎯	-9.78175
tfqm1쎯	-9.78205
wgk쎯m쎯	-9.78214
,qd쎯rg쎯	-9.78242
wycm0쎯fakg1쎯r쎯	-9.78262
rgd쎯	-9.78293
qie쎯	-9.78352
pgn쎯wt쎯	-9.78355
dwg쎯	-9.78361
g쎯pe쎯	-9.78363
xtu쎯	-9.78436
qtj쎯trf쎯r쎯	-9.78477
,eg쎯	-9.78506
wmg1쎯	-9.78561
uwy1쎯	-9.78604
qgb쎯nmh쎯	-9.78611
jhk1쎯yge쎯	-9.78628
kmh쎯	-9.78647
eve쎯	-9.78749
wt쎯hka쎯	-9.7877
itx쎯fm쎯	-9.78802
gu쎯tqdh쎯	-9.7881
,yynw1쎯	-9.78834
tam쎯	-9.78881
fcn쎯	-9.78901
vii쎯ntk쎯gf쎯	-9.78906
esv쎯	-9.78926
yam쎯	-9.78951
khgm4쎯ytyh쎯ith쎯	-9.7898
lg쎯lgm쎯	-9.78986
hw쎯tlf2쎯	-9.79009
쎂쎀쎀쎀rh쎯	-9.79123
wk쎯dhb쎯	-9.79148
wys쎯lft쎯wc쎯ngk쎯	-9.79154
jhk1쎯	-9.79219
wc쎯aw쎯	-9.79313
cexo1쎯	-9.7943
》k쎯	-9.79447
drin쎯	-9.79453
ws쎯	-9.79525
쎇쎂	-9.79558
br쎯	-9.79586
dhc쎯fgi쎯	-9.79629
cd쎯ovt쎯	-9.7972
u쎯kkk쎯rfm쎯jg쎯	-9.79838
fl쎯ymf쎯	-9.7986
jaw쎯	-9.79955
wq쎯r쎯	-9.80052
gkf쎯	-9.80058
tn쎯	-9.80102
nui쎯sm쎯	-9.80196
ii쎯ylk2쎯	-9.80225
yyn1쎯ukd0쎯	-9.80274
y쎯tp쎯	-9.8031
ai쎯fm쎯	-9.80352
f쎯gfi쎯	-9.80389
,p쎯	-9.80414
k쎯uj쎯	-9.80448
fmud쎯	-9.80457
qq쎯rh쎯	-9.80464
ykg쎯	-9.8047
avi쎯	-9.80486
ta쎯ia쎯	-9.80494
쎈쎆	-9.80496
yi쎯og쎯	-9.80517
rnu쎯	-9.80571
nywf0쎯	-9.8058
tdj쎯	-9.80617
ca쎯ndj쎯	-9.80641
,kha쎯	-9.80701
ia쎯fm쎯	-9.80723
g쎯yww쎯	-9.80724
pj쎯yf쎯	-9.80738
mfk쎯lfnh쎯	-9.80783
wwf쎯ait쎯d쎯	-9.80813
ygu쎯wd쎯	-9.80835
yny0쎯f쎯u쎯	-9.80869
gc쎯b쎯	-9.80952
k쎯aw쎯ipk쎯km쎯	-9.80986
gef쎯it쎯rh쎯	-9.81061
diu1쎯	-9.81067
txi쎯xyc쎯r쎯	-9.81079
,ak쎯	-9.81095
it쎯rh쎯	-9.81097
tf쎯fcl쎯	-9.81145
dd쎯ddh쎯	-9.81166
mhr쎯	-9.81188
fg쎯xe쎯	-9.81237
a쎯w쎯	-9.81276
uqt쎯	-9.81292
epi쎯il쎯	-9.81303
k쎯l쎯aw쎯u쎯ipk쎯,	-9.81312
tfq쎯fj쎯r쎯	-9.81378
wynk쎯jg쎯	-9.81419
xn쎯wynn3쎯	-9.81529
trf쎯hko쎯	-9.81564
ubt쎯	-9.81594
tmgk2쎯	-9.81594
tq쎯kgn쎯	-9.81596
px쎯r쎯	-9.81608
yc쎯	-9.81615
x쎯iyj쎯ip쎯	-9.81618
pwu0쎯	-9.81647
nng쎯	-9.8165
tfhy쎯	-9.81682
nnl쎯	-9.81687
dqe쎯pg쎯	-9.81693
dd쎯ip쎯tg쎯	-9.81697
ahtb쎯	-9.81791
&;	-9.818
uwy1쎯tlf2쎯	-9.81813
rwyg쎯fcl쎯	-9.81823
r쎯fny쎯og쎯	-9.81888
waj쎯	-9.81905
g쎯wug1쎯	-9.81932
쎁쎉쎉쎇rh쎯	-9.82005
ew쎯	-9.82025
rfc쎯sy쎯w쎯km쎯	-9.82055
wv쎯yb쎯	-9.82062
god쎯tgj쎯	-9.82125
ygu쎯o쎯	-9.82178
lm쎯bd쎯	-9.82221
,ul쎯	-9.82246
ooo쎯lg쎯uh쎯	-9.82259
gfq쎯pe쎯	-9.82274
jtyl쎯	-9.82281
pfq쎯uduk쎯r쎯	-9.82363
쎂쎀쎀쎂rh쎯	-9.82481
fny쎯tjh쎯	-9.82583
쎂-	-9.82643
sksw쎯rt쎯	-9.82687
tri쎯	-9.82758
uqwm0쎯sg쎯	-9.82761
쎅쎄	-9.82762
gm쎯qje쎯	-9.82835
,ntk쎯	-9.82876
yu쎯je쎯	-9.82878
wvl쎯	-9.82888
iff1쎯	-9.82939
쎁쎉쎉쎆rh쎯	-9.82953
쎉쎆	-9.82972
,kgn쎯	-9.83088
r쎯dl쎯kq쎯	-9.83136
ukqb0쎯qv쎯	-9.83141
yox쎯	-9.83142
f쎯dm쎯	-9.83199
쎂.쎅	-9.83408
tfq쎯fj쎯a쎯wt쎯ftj쎯	-9.83425
lf쎯	-9.83504
cm쎯pwfi쎯	-9.83561
afd0쎯vij쎯	-9.83594
lpk0쎯qim쎯	-9.83614
:쎁	-9.83635
jb쎯xtu쎯	-9.83657
bj쎯iq쎯	-9.83701
nhj쎯rrr쎯	-9.83707
ipkh1쎯et쎯	-9.83718
j쎯g쎯pe쎯	-9.83781
,gm쎯wtf쎯	-9.83858
aps쎯iwyf2쎯	-9.84091
mq쎯bwg쎯	-9.84229
jgg1쎯	-9.84239
waw쎯yid쎯	-9.84242
mqc쎯	-9.84324
ai쎯uk쎯	-9.84354
,q쎯wu쎯	-9.84442
tk쎯f쎯	-9.84555
pta쎯	-9.84675
tf쎯ght쎯sf쎯	-9.84683
vfhp1쎯yyq쎯	-9.84696
yfn쎯nnh쎯	-9.84709
쎁쎉쎉쎉rh쎯	-9.84717
rc쎯jmd쎯	-9.84752
sghg1쎯yy쎯	-9.8477
itm쎯dd쎯tjh쎯gog쎯	-9.84821
wygg쎯pta쎯	-9.84902
v쎯ge쎯ywx쎯yygy쎯	-9.84993
dd쎯bw쎯	-9.85006
wgkl0쎯	-9.85066
iqgg쎯	-9.85084
쎅쎇	-9.85114
쎉쎅	-9.85127
lgey0쎯egl쎯	-9.85139
bp쎯	-9.85179
n쎯y쎯	-9.85197
tkgg0쎯ya쎯	-9.85228
nc쎯	-9.85308
w쎯fghg쎯	-9.85317
、k쎯l쎯	-9.85437
y쎯xyna0쎯	-9.85516
wfh1쎯	-9.85524
ipq쎯bj쎯	-9.85548
ul쎯x쎯	-9.85595
ifh0쎯	-9.85641
puv쎯k쎯	-9.85775
td쎯qk쎯	-9.85813
쎆쎈	-9.85818
v쎯tmdf1쎯	-9.85827
bwg쎯	-9.8595
fct쎯	-9.85956
xxm쎯	-9.86007
isj쎯	-9.86302
qejy쎯	-9.86319
uqf쎯pl쎯	-9.8632
fj쎯g쎯hi쎯	-9.86351
pp쎯rg쎯,	-9.86381
fg쎯tffu쎯uqd0쎯	-9.86394
xwf쎯	-9.86409
gae쎯dyn쎯	-9.86462
trf쎯ntg쎯	-9.8648
ip쎯km쎯	-9.86489
j쎯gik쎯	-9.86508
tfkp쎯dn쎯	-9.86534
nd쎯wygg쎯	-9.86587
rmn쎯	-9.86588
qtb쎯	-9.86604
hid쎯uthp쎯	-9.86614
rvy쎯	-9.86693
uqwm0쎯u쎯	-9.86734
ccc쎯qk쎯	-9.8677
xk쎯ya쎯	-9.8681
uk쎯、	-9.8683
tx쎯gg쎯	-9.8689
aw쎯ybf0쎯	-9.86908
fgu쎯	-9.86918
rnb쎯wsg0쎯	-9.86948
fakg1쎯	-9.8699
ydn쎯wy쎯	-9.86993
j쎯g쎯ffi쎯	-9.87003
lu쎯o쎯	-9.87074
쎁쎉쎉쎈rh쎯	-9.87087
jtyl쎯rpw쎯	-9.87121
khu쎯gfi쎯whw쎯qi쎯	-9.87152
pyuf쎯	-9.87191
rf쎯xfn쎯	-9.87202
pl쎯bw쎯	-9.87267
uth쎯ftjb쎯	-9.87296
vfb쎯hxf쎯	-9.87298
iwf쎯tf쎯	-9.87311
쎁쎉쎉쎅rh쎯	-9.87312
dfny0쎯	-9.87332
ua쎯eg쎯	-9.87381
dmj1쎯i쎯	-9.87411
,x쎯	-9.87468
dhd쎯	-9.8749
wg쎯sf쎯	-9.87521
ygh쎯udv쎯	-9.87528
yt쎯d쎯	-9.87568
jx쎯	-9.87602
tffu쎯xe쎯	-9.87658
xwf쎯gl쎯	-9.87658
wsg0쎯txi쎯yw쎯ygh쎯	-9.87676
tjs쎯	-9.87822
itx쎯pl쎯	-9.87893
yaf쎯	-9.87931
fnh쎯	-9.87955
si쎯pvs쎯	-9.88023
fuj쎯mw쎯	-9.88047
anu쎯thg0쎯	-9.8805
tkh쎯bb쎯	-9.8811
gku쎯ywfw쎯	-9.8814
dhb쎯wyf0쎯	-9.88206
ffff5쎯fyk쎯	-9.88215
▁쎄、	-9.8823
ux쎯yy쎯	-9.88269
rtf쎯	-9.88273
ygh쎯nnh쎯	-9.88456
ivs쎯	-9.88466
ym쎯tu쎯rfc쎯	-9.88522
uth쎯rx쎯	-9.88546
aah쎯	-9.88552
ic쎯ytt쎯	-9.88554
k쎯ax쎯	-9.88567
ltu쎯wqj쎯	-9.88572
′	-9.88583
ihi쎯ey쎯	-9.88587
gqjo0쎯	-9.88676
gah쎯kkd쎯	-9.88704
agnt쎯	-9.88708
mga쎯	-9.88725
bwt쎯b쎯	-9.8879
yned쎯	-9.8885
gjq쎯usr쎯	-9.8888
cad쎯	-9.88987
mfk쎯lp쎯	-9.88988
쎅쎃	-9.88995
gaj쎯	-9.88999
awn쎯	-9.89005
fm쎯ux쎯	-9.89008
fwm쎯st쎯	-9.89041
dg쎯dd쎯	-9.89066
-쎁	-9.89125
쎆쎂	-9.89148
y쎯s쎯ww쎯gk쎯	-9.89167
je쎯jo쎯	-9.89184
fi쎯aib쎯	-9.89241
lw쎯wc쎯pgc쎯y쎯wtf쎯	-9.89396
p	-9.894
qi쎯bw쎯	-9.89404
fas쎯fuk쎯	-9.89405
mmm쎯ii쎯	-9.8944
jel쎯	-9.89457
fnhc1쎯	-9.89468
pt쎯yny0쎯	-9.8949
pgc쎯mw쎯	-9.89516
sfi쎯uwy1쎯wx쎯	-9.89523
gl쎯pe쎯	-9.8954
amw쎯qc쎯	-9.89545
xln1쎯qt쎯	-9.89563
ip쎯fghg쎯ip쎯wug1쎯	-9.89616
쎇쎈	-9.89625
sdw쎯	-9.89634
fl쎯egl쎯	-9.89638
utem1쎯	-9.89648
lw쎯ip쎯	-9.89701
tjt쎯wgk쎯	-9.89704
gj쎯a쎯dd쎯ip쎯	-9.89734
cd쎯lk쎯af쎯wgkb2쎯	-9.89736
쎁쎉쎉쎂rh쎯	-9.89768
v쎯rpl쎯	-9.89779
dd쎯www쎯	-9.89849
lk쎯wgkr2쎯dd쎯	-9.89883
lfq쎯ss쎯	-9.89992
tw쎯	-9.90008
dn쎯xgm쎯	-9.90019
qtvb쎯	-9.9006
ra쎯	-9.90085
,wb쎯wu쎯	-9.90111
jlx쎯	-9.90116
dmj1쎯eg쎯	-9.90217
mqc쎯nudu쎯	-9.90259
vnu1쎯	-9.90328
whn쎯	-9.90352
ld쎯gxi쎯	-9.90355
ryn0쎯gj쎯	-9.90371
b쎯。	-9.90388
tei쎯	-9.90446
iqp쎯	-9.9045
yon쎯	-9.90471
sfhg쎯	-9.90504
r쎯ad쎯dbm쎯h쎯	-9.90519
,gm쎯	-9.90552
a쎯wt쎯r쎯	-9.90553
rk쎯	-9.90554
usi0쎯	-9.90615
▁쎄.	-9.90615
yff쎯sksw쎯	-9.90632
rmhj쎯pg쎯	-9.90644
qtg쎯	-9.90658
tym쎯	-9.9067
wbj쎯ujn쎯	-9.9077
tn쎯nnh쎯	-9.90787
f쎯gj쎯	-9.90799
tga쎯	-9.90847
▁(	-9.90889
yc쎯wv쎯	-9.90899
gkp쎯go쎯	-9.90909
rdc쎯	-9.90917
lpdk0쎯	-9.90961
wfh1쎯tc쎯	-9.90964
mf쎯tl쎯	-9.91008
aqrn0쎯	-9.91023
tx쎯쎂	-9.91037
un쎯tgm쎯	-9.91047
wj쎯	-9.91078
쎆쎇	-9.91078
h쎯gh쎯	-9.91122
nty1쎯o쎯	-9.91156
fm쎯yy쎯	-9.91191
kcb쎯	-9.91193
tqt쎯	-9.91275
dn쎯ybv쎯	-9.9128
rx쎯	-9.9128
tp쎯uthp쎯	-9.91305
gajh쎯	-9.91346
epw쎯	-9.91412
p쎯j쎯	-9.91416
xfn쎯	-9.91421
ymhj쎯aq쎯	-9.91421
icw쎯	-9.91512
egl쎯gj쎯	-9.91528
qn쎯wynk쎯	-9.91536
x쎯dl쎯	-9.91538
pwd쎯	-9.91595
uth쎯nm쎯	-9.91615
kt쎯	-9.91616
wxd쎯	-9.91627
ovt쎯rnd1쎯ylk2쎯	-9.91631
쎅쎉	-9.91655
fcr쎯	-9.91655
iyj쎯fm쎯	-9.91665
cbd쎯by쎯	-9.91691
tgjn0쎯	-9.91702
쎈쎈	-9.91703
ugdu쎯gmy1쎯r쎯	-9.91734
nk쎯	-9.91739
jn쎯dfy쎯	-9.91815
pv쎯rdj쎯	-9.91815
jtyl쎯imj쎯	-9.91839
ium쎯	-9.91908
xyna0쎯pgn쎯	-9.91914
lx쎯	-9.91918
dgty쎯	-9.92043
kqw쎯	-9.92066
wqu쎯xgu쎯	-9.92197
gu쎯dm쎯	-9.92226
ynk쎯fcl쎯	-9.92239
pfi쎯ftbt쎯	-9.92248
ovt쎯dcg쎯	-9.92251
fwy쎯	-9.92274
p쎯su쎯	-9.92319
pfqf쎯pl쎯	-9.92366
dm쎯tm쎯	-9.92385
〕	-9.92395
viq쎯	-9.92462
ftbt쎯dga쎯pgc쎯	-9.92479
aj쎯	-9.92497
쎆쎃	-9.92502
lk쎯rvyo쎯	-9.92516
kwyg쎯g쎯	-9.92568
d쎯hx쎯	-9.92612
gmu1쎯wtf쎯	-9.92613
쎁쎉쎉쎃rh쎯	-9.92614
itx쎯qh쎯	-9.92637
tp쎯gj쎯、	-9.92669
,gip쎯	-9.92707
,iv쎯	-9.92816
udb쎯ytyh쎯	-9.9282
itdy쎯	-9.92928
rep쎯cbj쎯	-9.93
px쎯wu쎯	-9.93016
gkm쎯wgk쎯	-9.93018
tx쎯g쎯uqw쎯	-9.93038
emc쎯wwv쎯	-9.93046
tgj쎯s쎯r쎯	-9.93081
쎂쎀쎁쎂rh쎯	-9.93084
eud쎯	-9.93085
fhn쎯go쎯	-9.9318
tu쎯、	-9.93196
g쎯tffu쎯uqd0쎯	-9.93238
rfw쎯	-9.93252
ywyg1쎯	-9.93268
rgv쎯	-9.9327
t쎯gu쎯	-9.93363
tak쎯xe쎯	-9.93364
aft쎯wt쎯	-9.93545
uqwn0쎯	-9.93565
sg쎯f쎯	-9.93601
lfq쎯aq쎯	-9.93628
bpf쎯suq쎯	-9.9367
쎅쎁	-9.93715
yc쎯iagw쎯	-9.93733
wwwk쎯	-9.93784
uejo쎯	-9.93785
ih쎯gajf쎯	-9.93832
trt쎯	-9.93838
infy쎯	-9.93843
쎂쎀쎀쎁rh쎯	-9.93936
emc쎯wwv쎯e쎯bv쎯	-9.94098
ige쎯wa쎯	-9.9412
l쎯tl쎯bpf쎯	-9.94144
lt쎯jg쎯	-9.94175
xpw쎯	-9.94183
ftjb쎯ymhj쎯	-9.9422
ge쎯dp쎯	-9.94238
sty0쎯	-9.9425
jn쎯sm쎯	-9.94272
jb쎯jh쎯	-9.94292
egc쎯w쎯n쎯ght쎯ywf쎯	-9.94328
kj쎯qd쎯	-9.94351
cm쎯www쎯	-9.94366
saj쎯hw쎯	-9.94405
itfk쎯	-9.94484
u쎯kkk쎯r쎯	-9.94484
,yi쎯	-9.9449
,ld쎯o쎯	-9.94508
dpq쎯	-9.94519
st쎯aa쎯	-9.94568
tvfh1쎯jgm쎯	-9.94586
iry쎯iq쎯	-9.94614
쎇쎇	-9.94654
i쎯wf쎯	-9.94676
ig쎯	-9.94721
bib쎯ovt쎯	-9.94735
uwa쎯	-9.94736
sm쎯rmhj쎯	-9.94812
”t쎯“	-9.94817
ys쎯	-9.94823
wyc쎯w쎯	-9.94855
ufw쎯	-9.94865
ywwg1쎯	-9.94972
vvf0쎯	-9.94972
pds쎯	-9.94998
yny0쎯ngc쎯	-9.95032
ddh쎯uyh쎯	-9.95115
ii쎯inx쎯	-9.95181
wys쎯wsg0쎯	-9.95252
syp쎯	-9.95301
o쎯pt쎯yne쎯rj쎯waw쎯	-9.95335
agnn2쎯	-9.95342
r쎯usr쎯	-9.95355
khq쎯	-9.95358
gki쎯	-9.95382
je쎯jtg쎯	-9.95508
hid쎯yx쎯	-9.9553
쎇쎃	-9.95555
w쎯n쎯qev쎯yt쎯pl쎯	-9.95592
ipkm0쎯	-9.95607
쎇쎆	-9.95614
dn쎯yi쎯	-9.95626
bg쎯jtg쎯	-9.9566
cep쎯et쎯	-9.95719
mjq쎯	-9.95737
wgkr2쎯	-9.95738
ijx쎯uxt쎯ffff5쎯	-9.95771
wt쎯og쎯	-9.95842
cd쎯lk쎯b쎯	-9.95861
rmay쎯	-9.95883
wdt쎯vb쎯	-9.9592
mty1쎯	-9.95922
,pb쎯	-9.95984
ta쎯iit쎯	-9.96046
fl쎯yyq쎯	-9.96048
rae쎯	-9.96059
qhk쎯	-9.96062
gl쎯dm쎯	-9.96093
wy쎯thn쎯wx쎯	-9.96096
sgyb쎯	-9.96126
uxe쎯jy쎯	-9.96156
wfy쎯	-9.96168
kw쎯j쎯	-9.9621
vfhp1쎯sft쎯	-9.96211
rtol1쎯	-9.96231
ntg쎯r쎯	-9.96236
hq쎯	-9.96265
쎆쎉	-9.96272
jn쎯iyc쎯	-9.96298
qdt쎯	-9.96307
쎄-	-9.96336
udyj쎯gqf쎯	-9.96407
sq쎯tfkp쎯	-9.96467
sgm쎯	-9.96498
wyv쎯et쎯	-9.965
。y쎯s쎯	-9.96516
,fq쎯	-9.96519
uft쎯	-9.96601
쎁-	-9.96663
ryl쎯ta쎯	-9.96704
r쎯《	-9.96785
ga쎯v쎯aq쎯	-9.9679
yygy쎯tr쎯wk쎯ryn0쎯	-9.96805
uqd0쎯。	-9.96828
qjn쎯	-9.96865
ktm쎯	-9.96867
san쎯	-9.96919
lgey0쎯	-9.96934
n쎯l쎯	-9.96964
uvo쎯wtf쎯	-9.96967
ylf0쎯	-9.96977
ujfj쎯fqb1쎯	-9.97015
ap쎯	-9.97051
bu쎯wgk쎯wf쎯	-9.97073
jjjj쎯ipkh1쎯	-9.97086
ym쎯umd0쎯	-9.97129
ftg쎯ty쎯	-9.97144
tgm쎯ltk쎯	-9.97147
rb1쎯uthp쎯	-9.9716
u쎯jg쎯	-9.97208
ftj쎯。	-9.97262
nyi2쎯	-9.97296
쎁쎉쎉쎀rh쎯	-9.9733
w쎯yygy쎯	-9.97392
tffu쎯qq쎯tkh쎯	-9.974
ese쎯qc쎯	-9.97418
ipkh1쎯mqb쎯	-9.97506
eb쎯tl쎯kkd쎯	-9.9753
t쎯yxxr0쎯	-9.9753
gmw쎯	-9.97538
jgm쎯aib쎯ip쎯bpf쎯	-9.9762
rxj쎯sfi쎯	-9.97762
gx쎯fcl쎯	-9.97768
dr쎯qk쎯	-9.97772
xeg쎯dn쎯r쎯	-9.97793
tk쎯adm쎯	-9.97799
uqwm0쎯ynf쎯	-9.97885
rnb쎯whn쎯	-9.97983
ad쎯nfc쎯	-9.97998
gjq쎯qk쎯o쎯	-9.98016
쎁쎉쎉쎄rh쎯	-9.98044
,gjq쎯	-9.98054
wh쎯ntg쎯	-9.98061
dmd쎯	-9.98097
gx쎯	-9.98119
쎄쎁	-9.98157
mw쎯lfhf쎯	-9.98246
fh쎯tca쎯	-9.98262
vf쎯ra쎯	-9.98302
nui쎯tf쎯	-9.98304
qh쎯tu쎯	-9.98344
nae쎯ga쎯	-9.98359
adwn0쎯gcf쎯	-9.98394
amd쎯yygy쎯	-9.98419
aak쎯	-9.98456
lc쎯swc쎯	-9.98464
iak쎯	-9.98483
yop쎯	-9.98603
tdp쎯yid쎯	-9.98631
쎁쎉쎈쎅rh쎯	-9.98633
lqj쎯	-9.98722
pe쎯ytt쎯	-9.98749
。ww쎯	-9.9878
y쎯s쎯j쎯	-9.98796
gv쎯	-9.98811
cds쎯	-9.98827
ax쎯kkk쎯	-9.98892
ynnd쎯	-9.9891
y쎯wsg0쎯	-9.98972
pntj쎯	-9.98997
atd쎯tg쎯	-9.99021
jn쎯rnb쎯	-9.99027
ab쎯ce쎯	-9.99058
mb쎯	-9.9908
qev쎯yt쎯	-9.99106
cal쎯	-9.99126
agq쎯	-9.99176
amw쎯isk쎯	-9.99182
hjj쎯	-9.9923
dd쎯wf쎯	-9.99243
nnw쎯qi쎯	-9.99245
yy쎯dm쎯r쎯	-9.99259
yw쎯ykw쎯	-9.99348
xk쎯dd쎯r쎯	-9.99386
awsk쎯	-9.99424
wcn쎯	-9.99431
cqw쎯	-9.99504
pd쎯	-9.99511
ivp쎯	-9.99515
xg쎯kht쎯	-9.99587
,mh쎯gf쎯	-9.99602
bwj쎯	-9.99615
jn쎯kkd쎯	-9.99642
,“	-9.99862
wqu쎯us쎯	-9.99863
svc쎯wynn3쎯	-9.99867
fuk쎯	-9.99881
nmh쎯	-9.99885
fny쎯jghm1쎯	-9.99897
oja쎯	-9.99913
sghg1쎯gyt쎯ah쎯	-9.99927
쎈쎂	-10.0003
ss쎯og쎯	-10.001
fny쎯og쎯tv쎯km쎯wf쎯	-10.0012
iha쎯	-10.0013
gu쎯dr쎯	-10.0013
dfe쎯	-10.0017
oth쎯	-10.0018
gmiu쎯	-10.0023
bj쎯egc쎯	-10.0025
pww쎯jqr쎯	-10.0029
qbp쎯	-10.003
p쎯jfd쎯	-10.0033
ddg0쎯	-10.0035
xy쎯xkw쎯	-10.0036
wxf쎯w쎯n쎯aw쎯t쎯l쎯	-10.0043
nj쎯	-10.0054
ugdu쎯gmy1쎯	-10.0055
sga쎯	-10.0056
jef1쎯	-10.0062
w쎯fqu쎯xgb쎯nh쎯ty쎯	-10.0066
gjq쎯qq쎯	-10.0067
lgey0쎯nf쎯	-10.0071
mqq쎯h쎯	-10.0074
es쎯bc쎯	-10.0078
jcf쎯	-10.0078
dff0쎯	-10.0081
tx쎯g쎯wh쎯	-10.0088
po쎯	-10.0088
r쎯f쎯yy쎯	-10.0088
lwg쎯	-10.0091
d쎯ux쎯yiu쎯	-10.0095
qq쎯adm쎯	-10.0099
dn쎯ftjb쎯ymhj쎯	-10.01
cf쎯qje쎯	-10.0102
”tffu쎯	-10.0107
rvyf쎯	-10.011
rs쎯ga쎯	-10.0119
tfpd쎯	-10.0127
qyt쎯	-10.0133
qev쎯un쎯yy쎯pvs쎯	-10.0133
fny쎯uyh쎯	-10.0134
ip쎯dl쎯	-10.0134
nu쎯nxf쎯	-10.0138
atj쎯	-10.0148
,ua쎯d쎯	-10.0149
쎇쎄	-10.015
ep쎯vb쎯ftj쎯	-10.015
tgm쎯	-10.0152
itf쎯uqv쎯	-10.0156
。wjg쎯	-10.0158
dmh쎯nnk쎯	-10.016
emc쎯sfiu0쎯	-10.0172
j쎯wh쎯	-10.0185
qqk쎯	-10.0187
fgi쎯	-10.0195
shi쎯	-10.0197
uxt쎯	-10.0197
epi쎯	-10.0204
o쎯y쎯r쎯	-10.0205
쎇쎉	-10.0206
ypeu쎯wxf쎯	-10.0214
sqj쎯eu쎯	-10.022
a쎯og쎯dd쎯ip쎯	-10.0221
v쎯yce쎯	-10.0223
쎁쎉쎈쎆rh쎯	-10.0227
wfd쎯	-10.0231
ua쎯i쎯	-10.0238
ijl쎯riu쎯	-10.0242
qty1쎯	-10.0244
ipg쎯kjj쎯	-10.0244
tuj쎯tq쎯	-10.0246
iqc쎯cep쎯	-10.0247
wyv쎯tr쎯	-10.0247
rnb쎯qje쎯	-10.0249
f쎯fhg1쎯	-10.025
gj쎯qev쎯	-10.0251
ym쎯dfy쎯	-10.0255
lg쎯uh쎯	-10.0256
fggh쎯okk쎯	-10.026
ur쎯	-10.0264
rd쎯nae쎯	-10.0267
wdn쎯te쎯ftbt쎯jgm쎯	-10.0269
ftl쎯	-10.0271
iy쎯ujn쎯	-10.0278
pwd쎯dhc쎯	-10.0278
tuh쎯	-10.0281
ga쎯ud쎯	-10.0283
cd쎯ftg쎯	-10.0284
mdfj쎯	-10.0285
egcn쎯	-10.0291
iry쎯	-10.0294
fq쎯xg쎯	-10.0295
eb쎯qnth쎯	-10.0295
lh쎯dd쎯	-10.0296
lxx쎯wycb쎯	-10.0296
ty쎯tfqp쎯	-10.0301
ivg쎯	-10.0305
pei쎯og쎯dd쎯ip쎯	-10.0306
,ce쎯	-10.0308
qgo쎯	-10.0312
ugdu쎯wyv쎯	-10.0313
rg쎯go쎯	-10.0314
wgk쎯ua쎯	-10.0315
mwy쎯	-10.0315
pnt쎯ya쎯	-10.0317
dnp쎯	-10.0318
i쎯khu쎯	-10.0323
gmf쎯uqw쎯	-10.0325
ahnh0쎯	-10.0332
uejv쎯	-10.0332
g쎯uk쎯	-10.0332
쎁쎉쎈쎈rh쎯	-10.0334
fk쎯ss쎯	-10.0334
r쎯ad쎯sg쎯	-10.0335
rfc쎯	-10.0337
wjm쎯	-10.0342
tj쎯gc쎯b쎯	-10.0348
-쎃	-10.0352
gm쎯o쎯	-10.0355
pvs쎯wgq쎯	-10.0359
pfq쎯ugdu쎯	-10.0361
kfg쎯	-10.0362
,rj쎯ym쎯	-10.0366
wbj쎯uu쎯	-10.0376
mw쎯dhb쎯	-10.0384
va쎯	-10.039
。hx쎯	-10.0392
dr쎯gj쎯	-10.0398
fcp쎯fcl쎯km쎯	-10.0399
jn쎯kht쎯	-10.04
쎁쎉쎈쎄rh쎯	-10.0401
cqy쎯nhj쎯	-10.0405
ufk0쎯qv쎯	-10.0407
fuf1쎯pyg쎯	-10.0408
lw쎯gj쎯	-10.041
dga쎯pwv쎯km쎯	-10.0418
ypk쎯	-10.0422
쎅wh쎯	-10.0422
()j쎯	-10.0424
lfo쎯dx쎯ia쎯	-10.0425
쎉쎇	-10.0428
wht쎯nty1쎯	-10.0434
쎈쎄	-10.0437
sri쎯	-10.0437
ta쎯ya쎯	-10.0439
lftj쎯	-10.0444
wgu쎯	-10.0446
caq쎯fcl쎯	-10.0448
vfhp1쎯e쎯	-10.0454
auqw쎯	-10.0456
)j쎯	-10.0461
ynm쎯	-10.0463
wye쎯rnd1쎯	-10.0463
vtk쎯wsg0쎯	-10.0469
iyc쎯jg쎯	-10.0476
dgt1쎯yny0쎯	-10.0476
kkhn쎯	-10.0477
kl쎯	-10.0483
uqwl쎯	-10.0484
iyw쎯wsg0쎯	-10.0487
jb쎯o쎯	-10.049
ie쎯	-10.0497
쎀쎁	-10.0499
qvfp1쎯tel쎯	-10.0511
ajdh쎯	-10.0514
,hhhh쎯ue쎯	-10.0514
k쎯l쎯tu쎯ip쎯bpf쎯	-10.0519
fqu쎯qu쎯	-10.0523
fhw쎯pu쎯	-10.0525
stt쎯	-10.0527
rhf쎯gc쎯	-10.0528
hq쎯qnq쎯	-10.0528
g쎯qk쎯	-10.0537
qe쎯qc쎯	-10.0539
。hhhh쎯ue쎯	-10.0539
iqv쎯	-10.0543
xcy쎯	-10.0545
ny쎯gj쎯ip쎯	-10.0548
ssk쎯	-10.055
yvk쎯	-10.055
e쎯hxf쎯	-10.055
usr쎯lk쎯fhc쎯	-10.0552
bbh쎯	-10.0552
pgc쎯、	-10.0556
ih쎯qt쎯	-10.0556
ydjn1쎯	-10.0562
sgy쎯	-10.0564
um쎯sfi쎯	-10.0568
qqq쎯	-10.0572
td쎯uthp쎯	-10.0578
쎆쎁	-10.0584
alw쎯bu쎯	-10.0587
a쎯wt쎯ftj쎯	-10.0589
f쎯gj쎯wug1쎯lfhf쎯	-10.059
,wc쎯ngk쎯	-10.0593
ftg쎯pwfi쎯	-10.0597
sup쎯	-10.0598
g쎯hko쎯	-10.0598
yud0쎯xl쎯	-10.0599
wfkb쎯tdp쎯	-10.0607
fqu쎯o쎯	-10.0608
hid쎯	-10.0609
r쎯dd쎯	-10.0616
faf1쎯	-10.0617
fp쎯fcu1쎯	-10.0619
et쎯kkk쎯	-10.0621
gkih쎯gj쎯	-10.0622
ux쎯yiu쎯dd쎯ip쎯	-10.0622
nh쎯vi쎯	-10.0623
ynv쎯	-10.0627
m쎯hi쎯	-10.0628
tk쎯wh쎯	-10.0629
dm쎯cf쎯	-10.063
dfi쎯	-10.0634
me쎯fggh쎯	-10.0638
uqt쎯yid쎯	-10.0638
쎈쎃	-10.0641
r쎯dd쎯gajf쎯	-10.0642
)、《	-10.0647
yn쎯nn쎯	-10.0649
wc쎯ga쎯	-10.065
ry쎯nae쎯	-10.0655
yff쎯yngk0쎯	-10.0657
twf쎯	-10.0662
raj쎯ytb쎯	-10.0664
★	-10.0667
afs쎯hxf쎯	-10.0668
gh쎯ymc쎯	-10.067
,fcb쎯	-10.0671
sgn쎯wrh2쎯	-10.0678
txgi2쎯	-10.0679
±	-10.0679
rt쎯wdm쎯	-10.068
ms쎯	-10.0681
dg쎯tffu쎯uqd0쎯	-10.0681
쎁쎉쎈쎉rh쎯	-10.0681
jyie쎯thg0쎯	-10.0681
dr쎯mj쎯	-10.0682
tjt쎯vs쎯	-10.0693
qdb쎯	-10.0702
uqt쎯uwl쎯	-10.0704
rn쎯yle쎯	-10.0704
wgk쎯ec쎯	-10.0705
ps쎯ihc쎯	-10.0709
oge쎯amd쎯	-10.0712
rh쎯hwbc쎯	-10.0715
i쎯tj쎯	-10.0717
hic쎯	-10.0727
je쎯wa쎯	-10.0734
쎃-	-10.0737
mhh쎯	-10.0737
쎁쎉쎅쎈rh쎯	-10.0742
쎁쎉쎉쎁rh쎯	-10.0743
tga쎯fh쎯	-10.0749
pp쎯ue쎯	-10.075
jvko쎯je쎯	-10.0755
mdff0쎯	-10.0758
쎁쎈쎀	-10.076
tom쎯	-10.0763
tdkj쎯dhd쎯	-10.0766
v쎯nae쎯r쎯	-10.077
wc쎯ngk쎯r쎯	-10.0772
gmww쎯rh쎯	-10.0774
jvko쎯thg0쎯	-10.0774
쎅-	-10.0777
rg쎯r쎯	-10.0778
ige쎯wxf쎯dd쎯ip쎯	-10.0785
wqbh쎯	-10.0791
dfek쎯	-10.0791
tdp쎯jg쎯	-10.0793
yn쎯ftj쎯	-10.0793
f쎯ltu쎯	-10.0794
rny1쎯	-10.0797
0	-10.0801
e쎯g쎯	-10.0805
ga쎯ymc쎯	-10.0808
fqp쎯tkgg0쎯	-10.0811
awv쎯	-10.0813
egc쎯ght쎯ywf쎯	-10.0815
fghy0쎯	-10.0816
ip쎯sy쎯ywx쎯yygy쎯	-10.0819
ll쎯bb쎯	-10.082
ad쎯ld쎯	-10.0824
puw쎯	-10.0825
al쎯yx쎯	-10.0827
xjk쎯	-10.0827
yv쎯vb쎯	-10.0828
jsd쎯oug쎯	-10.083
wtfm3쎯waj쎯	-10.0831
vii쎯ntk쎯	-10.0832
jfd쎯,	-10.0834
gkim0쎯	-10.0836
ecl쎯	-10.0842
x쎯iyj쎯ukn쎯nh쎯ty쎯	-10.0843
bb쎯,	-10.0843
xh쎯nf쎯	-10.0846
fje쎯qgu쎯	-10.0847
,aw쎯	-10.0847
▁“	-10.0848
oft쎯	-10.0849
ve쎯	-10.085
ugdu쎯sy쎯ip쎯bpf쎯	-10.085
yny0쎯f쎯u쎯ga쎯v쎯	-10.0851
wht쎯tjt쎯	-10.0853
fwm쎯mj쎯	-10.0854
udng쎯	-10.0855
ym쎯ijl쎯	-10.086
fgh쎯rh쎯	-10.0865
rnu쎯wx쎯	-10.0871
yid쎯yynw1쎯	-10.0873
dfa쎯	-10.0873
cbts0쎯	-10.0873
aqo쎯	-10.0878
dgtg쎯pe쎯yfd쎯	-10.0882
qk쎯w쎯	-10.0884
begg쎯	-10.0885
tu쎯rfc쎯dd쎯ip쎯	-10.0889
wgk쎯gj쎯	-10.089
lp쎯xxe쎯	-10.0891
nv쎯	-10.0896
naj1쎯ipkh1쎯	-10.0898
yi쎯wf쎯	-10.0902
tkh쎯od쎯	-10.0904
쎁.쎂	-10.0911
쎆-	-10.0913
ym쎯si쎯	-10.0913
r쎯tg쎯itd쎯	-10.0914
iq쎯ip쎯	-10.0918
jan쎯	-10.092
thgc쎯sg쎯	-10.092
ght쎯fl쎯	-10.0923
ojf쎯	-10.0925
▁쎄	-10.0925
ry쎯dd쎯	-10.0926
,thd쎯	-10.0926
yca쎯	-10.0927
fny쎯tu쎯	-10.0931
rh쎯ya쎯	-10.0934
auq쎯	-10.0935
oh쎯	-10.0936
gg쎯rh쎯	-10.0937
uqt쎯yx쎯	-10.0937
fjg쎯	-10.0943
ians0쎯	-10.0944
idt쎯	-10.0944
bm쎯tg쎯,	-10.0947
ykw쎯klj쎯	-10.095
wfny0쎯xyc쎯r쎯	-10.095
lft쎯xf쎯	-10.0954
ffh쎯	-10.0955
):	-10.0955
nkue0쎯	-10.0955
k쎯qh쎯	-10.0957
》t쎯《	-10.0959
itp쎯	-10.0962
jqb쎯	-10.0967
tg쎯u쎯xg쎯	-10.0973
wy쎯iwyf2쎯	-10.0974
ukn쎯wc쎯ngk쎯	-10.0979
fjgh쎯	-10.0981
iqny쎯	-10.0985
uqd0쎯ddnl쎯	-10.0986
wv쎯wc쎯ngk쎯	-10.0989
i쎯s쎯	-10.0992
쎁쎉쎈쎂rh쎯	-10.0994
”o쎯	-10.0995
1	-10.1
rqn쎯	-10.1001
rfc쎯agnn2쎯	-10.1003
tdt쎯w쎯	-10.1008
pnt쎯fffy쎯	-10.1008
xjm쎯et쎯	-10.1011
fu쎯ta쎯	-10.1012
fny쎯lkb쎯	-10.1015
fh쎯ntk쎯	-10.1018
g쎯iyc쎯	-10.1021
ce쎯jg쎯	-10.1025
tlo쎯	-10.103
ipwk0쎯	-10.1031
ain쎯	-10.1035
---	-10.1038
쎁쎉쎈쎇rh쎯	-10.1038
yo쎯gae쎯	-10.1045
djd쎯iyt0쎯	-10.1048
rs쎯qgb쎯	-10.105
ii쎯tjh쎯	-10.1051
dhq쎯	-10.1058
rxj쎯ovt쎯	-10.1059
ul쎯d쎯	-10.1059
vk쎯hx쎯	-10.1059
fgh쎯dd쎯	-10.1063
yf쎯jg쎯	-10.1069
od쎯wny0쎯	-10.1072
c쎯o쎯	-10.1076
,wkh쎯fj쎯	-10.1077
ue쎯rg쎯	-10.1077
wv쎯sgn쎯	-10.108
쎆wh쎯	-10.1086
,k쎯aw쎯ipk쎯km쎯,	-10.1087
cep쎯uthp쎯	-10.1088
tffu쎯,	-10.1088
utd쎯	-10.1098
tx쎯uy쎯	-10.11
eeq쎯	-10.1102
rep쎯sc쎯	-10.1105
wgk쎯qqqq1쎯	-10.1107
qkqy0쎯	-10.1111
xx쎯kwgj0쎯	-10.1115
ytn쎯lfn쎯	-10.1117
uxxn1쎯	-10.1117
쎂쎅쎀	-10.1118
dgj쎯tel쎯	-10.112
iyc쎯tkgg0쎯	-10.112
temq1쎯	-10.1122
tev쎯	-10.1124
nhd쎯	-10.1131
adwr쎯trf쎯	-10.1135
wfny0쎯yu쎯	-10.1137
aik쎯	-10.1143
a쎯tkgg0쎯ip쎯bpf쎯	-10.1146
by쎯hh쎯	-10.1147
xv쎯wx쎯	-10.1149
gmap쎯	-10.1152
dxy쎯	-10.1158
wgc쎯ty쎯	-10.1159
lfn쎯tqq쎯	-10.116
ians0쎯uthp쎯	-10.1161
ruv쎯tffy0쎯	-10.1167
▁nua쎯ajdh쎯	-10.1171
kt쎯ke쎯	-10.1172
g쎯gkp쎯	-10.1174
jtyl쎯hich쎯tp쎯gj쎯	-10.1177
gah쎯ic쎯ymhj쎯	-10.1177
wye쎯rta쎯	-10.1186
uck쎯qqqq1쎯	-10.1186
쎈쎉	-10.1189
rqw쎯	-10.119
쎂.	-10.1194
wyn쎯	-10.1196
yo쎯dn쎯	-10.1204
uqwm0쎯st쎯	-10.1211
dgh쎯fd쎯	-10.1212
es쎯mqc쎯	-10.122
(쎁쎉쎀	-10.1223
tmd쎯wwv쎯	-10.1228
vck쎯xtu쎯	-10.1228
wv쎯wf쎯	-10.1229
yyn1쎯	-10.1232
hwbc쎯	-10.1235
vfhp1쎯tfkp쎯	-10.1236
fj쎯bm쎯kkkk0쎯	-10.1237
f쎯qr쎯	-10.1239
pe쎯nd쎯	-10.1239
tx쎯쎁	-10.124
rvh쎯fpx쎯	-10.1241
uge쎯	-10.1243
telb쎯	-10.1245
a쎯wt쎯;	-10.1246
dr쎯ld쎯	-10.1249
tdp쎯	-10.1258
ˇ	-10.1262
iie쎯by쎯	-10.1266
ukqb0쎯pfjm1쎯	-10.1267
ipw쎯ya쎯	-10.1273
ujn쎯ykw쎯	-10.1274
qk쎯,	-10.128
dd쎯uk쎯wv쎯	-10.1288
qqc쎯	-10.1292
fcl쎯ijlc쎯	-10.1297
pl쎯aq쎯	-10.1299
rnc쎯	-10.1299
ifk쎯	-10.13
tg쎯dn쎯	-10.13
cf쎯qh쎯	-10.1303
y쎯yam쎯	-10.1307
ymhj쎯xe쎯	-10.1309
xtdh0쎯	-10.1311
bv쎯rmhj쎯	-10.1317
hxs쎯	-10.1317
ijl쎯ytyh쎯	-10.1319
쎁쎉쎈쎃rh쎯	-10.1321
tgj쎯pym쎯	-10.1325
쎃.쎅	-10.1325
uj쎯,	-10.1327
fue쎯	-10.1332
wc쎯y쎯	-10.1334
ipgh쎯ow쎯	-10.1334
ojf쎯ruv쎯	-10.1336
dn쎯wv쎯	-10.1336
qk쎯tq쎯:	-10.1338
bv쎯	-10.1339
ywe쎯on쎯	-10.1339
fhv쎯xe쎯	-10.1339
gmww쎯wmj0쎯	-10.1345
ymc쎯yf쎯jgm쎯	-10.1345
qh쎯cm쎯	-10.1345
aqt쎯tj쎯b쎯	-10.135
rkk쎯wt쎯txi쎯xyc쎯	-10.136
쎅eee쎯	-10.136
nii1쎯	-10.1362
ipkh1쎯tl쎯	-10.1369
aib쎯lfnh쎯mw쎯	-10.1373
et쎯go쎯	-10.1373
udyj쎯tg쎯	-10.1374
yta쎯gh쎯	-10.1375
wwg쎯	-10.1376
saj쎯fnw쎯	-10.1377
awnu0쎯	-10.1377
qtb쎯ldj쎯	-10.1384
m쎯su쎯	-10.1385
xyx쎯	-10.1389
》r쎯	-10.139
xvk쎯	-10.1393
gjq쎯j쎯	-10.1395
。adw쎯k쎯	-10.1404
e쎯g쎯wh쎯	-10.1404
quj쎯udi쎯	-10.1408
”j쎯	-10.1411
whf쎯	-10.1411
xm쎯	-10.1413
pw쎯ymf쎯	-10.1417
wb쎯wu쎯r쎯	-10.1417
w쎯ovt쎯	-10.142
si쎯	-10.142
ruv쎯nh쎯	-10.1422
sm쎯kkd쎯	-10.1423
fs쎯	-10.1429
ripq1쎯rufh1쎯	-10.1432
wbg0쎯	-10.1432
xat쎯	-10.1433
udy쎯ukq쎯	-10.1438
f쎯aq쎯r쎯	-10.144
mw쎯qh쎯	-10.1441
yynw1쎯sf쎯	-10.1443
i쎯it쎯	-10.1444
bm쎯go쎯r쎯	-10.1448
pyv쎯	-10.1448
쎈쎇	-10.1459
rh쎯lc쎯	-10.1464
nnnn쎯e쎯	-10.1466
uth쎯tfq쎯	-10.147
f쎯wug1쎯	-10.1472
,tfq쎯rg쎯	-10.1475
fgh쎯gg쎯	-10.1476
ftbt쎯pgc쎯	-10.1481
q쎯wu쎯r쎯	-10.1482
wxm쎯tmh0쎯	-10.1486
ad쎯uk쎯	-10.1488
dj쎯vtg쎯	-10.1489
pww쎯jg쎯	-10.1504
。ip쎯suq쎯	-10.151
pwfi쎯	-10.1511
ruv쎯rp쎯	-10.152
(-)	-10.152
k쎯mmm쎯	-10.1522
temk쎯ter1쎯	-10.1525
。“	-10.1526
v쎯fcl쎯sm쎯	-10.1529
kf쎯thg0쎯	-10.153
wyl쎯	-10.1531
jsd쎯	-10.1534
gae쎯udy쎯	-10.1535
aws쎯kf쎯	-10.1535
,gae쎯dn쎯	-10.1537
thd쎯y쎯	-10.1539
fp쎯iha쎯	-10.154
fd쎯egc쎯	-10.1541
o쎯y쎯。	-10.1541
cbq쎯	-10.1541
wynk쎯e쎯	-10.1543
oanw쎯	-10.1546
kgb쎯	-10.1549
qu쎯	-10.1549
쎉쎂	-10.1552
ijlc쎯	-10.1555
rxj쎯pg쎯	-10.1556
am쎯fmud쎯	-10.1564
fjf쎯	-10.1565
tg쎯dhb쎯	-10.1565
wge쎯	-10.1569
bm쎯b쎯	-10.1569
iwe쎯	-10.1575
qmq쎯ggw쎯	-10.1578
jn쎯pym쎯ndj쎯	-10.1581
qmq쎯qr쎯	-10.1585
vcb쎯sk쎯。	-10.1585
ln쎯xwy쎯	-10.1586
vp쎯	-10.1592
rfm쎯jg쎯tp쎯gj쎯	-10.1593
wyf0쎯	-10.1593
ahko쎯	-10.1595
쎁쎆쎀	-10.1599
qnr쎯yhk쎯	-10.1601
”(	-10.1602
dif쎯	-10.1603
v쎯je쎯	-10.1604
fqu쎯e쎯	-10.1611
whf쎯og쎯tp쎯gj쎯	-10.1612
쎀.쎁	-10.1614
쎁쎉쎈쎀rh쎯	-10.1619
mfky쎯ynt쎯	-10.1622
,f쎯th쎯	-10.1623
pu쎯lt쎯	-10.1633
ptf쎯	-10.1636
j쎯“	-10.1637
yid쎯et쎯gf쎯	-10.164
qtd쎯	-10.1642
uxh쎯	-10.1642
k쎯yygy쎯txi쎯	-10.1647
wj쎯xvk쎯b쎯	-10.1647
pyg쎯ytyh쎯	-10.1649
xx쎯wgq쎯	-10.165
awx쎯faj쎯	-10.1651
sfiq쎯	-10.1653
ukn쎯xyc쎯	-10.1656
tf쎯og쎯r쎯	-10.1666
2쎯	-10.1668
dww쎯	-10.1668
k쎯sghg1쎯atd쎯	-10.1675
rg쎯adwe1쎯	-10.1676
tld1쎯iyw쎯	-10.1686
mt쎯tuh쎯	-10.1689
x쎯iyj쎯v쎯nae쎯	-10.1689
cbd쎯imj쎯	-10.1692
d쎯wg쎯l쎯	-10.1693
쎁.쎀	-10.1694
iyc쎯fcl쎯	-10.1696
쎆eee쎯	-10.1698
ygk쎯yygy쎯	-10.17
""	-10.171
nhj쎯rrr쎯rfm쎯	-10.1711
rcp쎯	-10.1713
umd0쎯kkkk0쎯	-10.1714
anu쎯	-10.1717
mq쎯jy쎯	-10.1718
xkw쎯	-10.172
fwm쎯	-10.1722
jx쎯je쎯	-10.1725
db쎯pt쎯	-10.1726
wfg1쎯	-10.1731
nh쎯wys쎯	-10.1732
vfhp1쎯gf쎯	-10.1735
gd쎯f쎯	-10.1743
sf쎯、	-10.1744
dn쎯b쎯	-10.1744
ftbt쎯rep쎯,	-10.1744
tqdh쎯	-10.1745
ll쎯vvv쎯	-10.1748
uw쎯	-10.1751
ip쎯wug1쎯。	-10.1752
』	-10.1752
fcp쎯wt쎯	-10.1753
atd쎯jgm쎯	-10.1754
it쎯ytf쎯	-10.1755
mmm쎯egc쎯	-10.1756
mt쎯wh쎯	-10.1757
wc쎯py쎯	-10.1758
agu쎯js쎯	-10.176
sgtk0쎯	-10.1763
qvn2쎯ntg쎯	-10.1763
fhw쎯ghd0쎯	-10.1764
ujn쎯yq쎯	-10.1765
ra쎯gc쎯	-10.1765
ftx쎯w쎯	-10.1766
txi쎯xyc쎯、	-10.1766
iv쎯rh쎯	-10.1768
dr쎯bb쎯	-10.1775
rkk쎯	-10.1775
tgj쎯s쎯cd쎯ovt쎯	-10.1776
gss쎯	-10.1781
|	-10.1783
쎄eee쎯	-10.1785
。ul쎯wtf쎯	-10.1789
ukn쎯xf쎯	-10.179
py쎯lft쎯	-10.1803
d쎯ugdu쎯l쎯	-10.1804
tv쎯rta쎯	-10.1805
jhng쎯:“	-10.1806
rn쎯ntk쎯	-10.1808
itd쎯fcl쎯,	-10.1811
dmj1쎯dn쎯	-10.1814
k쎯e쎯	-10.1814
bf쎯	-10.1818
wam쎯ffi쎯	-10.1819
xk쎯wx쎯	-10.1826
quk쎯	-10.1829
xi쎯	-10.183
쎁쎉쎅쎆rh쎯	-10.1831
lv쎯	-10.1831
xkjn1쎯	-10.1836
wt쎯et쎯。	-10.1839
yb쎯bb쎯	-10.1843
pgk쎯e쎯	-10.1847
wgen1쎯	-10.1847
pnt쎯dcg쎯	-10.1847
dd쎯rnb쎯	-10.1854
hq쎯ds쎯	-10.1856
bqv쎯	-10.1857
qe쎯ya쎯	-10.1857
_	-10.1867
iv쎯ue쎯	-10.1868
xte쎯sf쎯	-10.187
rua쎯	-10.1872
il쎯	-10.1874
sgty쎯	-10.1874
tv쎯km쎯	-10.1875
\	-10.1875
wdn쎯te쎯r쎯	-10.1878
asg쎯	-10.1881
jfd쎯r쎯	-10.1883
dgkn쎯ipmq쎯	-10.1886
wc쎯pjm쎯	-10.1886
,g쎯tem쎯	-10.1887
fjt쎯	-10.1888
jtd쎯	-10.1894
it쎯ovt쎯n쎯ytt쎯	-10.1895
r쎯dty쎯gk쎯	-10.1896
e쎯:	-10.1899
dj쎯rh쎯	-10.1901
쎂eee쎯	-10.1904
oge쎯pnt쎯	-10.1904
ifn쎯ivs쎯	-10.1907
mfk쎯adwe1쎯	-10.1912
tdp쎯et쎯	-10.1912
dd쎯std쎯	-10.1913
rma쎯	-10.1915
pw쎯pl쎯	-10.1917
ntg쎯rfm쎯	-10.1917
qnq쎯wyv쎯	-10.1922
wff쎯	-10.1928
gk쎯dty쎯	-10.1929
dga쎯rmhj쎯	-10.1929
tjh쎯uwl쎯	-10.1931
ipk쎯fc쎯uk쎯	-10.1931
wfny0쎯dgkn쎯kkd쎯	-10.1933
uai쎯	-10.1942
by쎯ryn0쎯	-10.1943
cqw쎯qbp쎯	-10.1943
lq쎯cn쎯	-10.1947
ynma쎯	-10.1953
deb쎯	-10.1953
,ntk쎯gf쎯	-10.1956
쎃.	-10.1958
ltu쎯gae쎯	-10.1959
r쎯yy쎯aa쎯	-10.1962
wjg쎯j쎯	-10.1965
klj쎯jfcf쎯	-10.1965
ic쎯ygk쎯	-10.1965
jmd쎯	-10.1965
g쎯tg쎯	-10.1967
cm쎯imj쎯	-10.197
av쎯dn쎯	-10.1974
ryc쎯	-10.1975
rlg쎯ck쎯	-10.1977
fc쎯wfy쎯	-10.1979
xeg쎯dn쎯,	-10.1983
itd쎯fcl쎯。	-10.1987
sq쎯vfhp1쎯	-10.1989
imj쎯pg쎯	-10.1995
god쎯st쎯	-10.1998
kkh쎯	-10.1999
faw쎯	-10.1999
(vk쎯	-10.1999
mqi1쎯	-10.2004
#	-10.2006
pwkw쎯	-10.2012
yssc2쎯if쎯	-10.2012
fay쎯	-10.2012
k쎯l쎯aw쎯u쎯ipk쎯。	-10.2012
uq쎯rq쎯	-10.2017
tffu쎯tffu쎯	-10.2022
sad쎯	-10.2022
wfny0쎯dskf쎯	-10.2023
쎁쎉쎇쎈rh쎯	-10.2024
tdh쎯	-10.2024
rnt쎯	-10.2024
wgku1쎯yn쎯	-10.2026
mdf쎯dgtg쎯	-10.2026
l쎯n쎯ipk쎯	-10.2028
pjv쎯	-10.2035
e쎯“	-10.2037
rlf1쎯	-10.2039
uk쎯wug1쎯	-10.2039
r쎯yy쎯if쎯	-10.204
nf쎯gcft2쎯	-10.2047
쎁쎉쎈쎁rh쎯	-10.2065
▁fc쎯rf쎯	-10.2068
fg쎯fgh쎯	-10.2072
dcg쎯udi쎯	-10.2073
af쎯	-10.2076
gkp쎯e쎯	-10.2085
jb쎯hw쎯	-10.2087
egc쎯tv쎯	-10.2087
ygh쎯je쎯	-10.2088
쎁쎂쎈	-10.209
jgm쎯uqwm0쎯	-10.2091
qtj쎯trf쎯	-10.2092
pynk쎯	-10.2096
qevj쎯	-10.2103
r쎯jyie쎯ktm쎯	-10.2103
qci쎯	-10.2107
ud쎯ab쎯	-10.2108
ht쎯	-10.2108
uthp쎯tfl쎯	-10.2111
if쎯ip쎯	-10.2111
xtdp0쎯	-10.2112
raw쎯	-10.2116
wycb쎯	-10.2117
udy쎯,	-10.2119
pgf1쎯pm쎯	-10.2119
tfqp쎯et쎯	-10.2127
rv쎯	-10.2127
ftg쎯synw쎯	-10.2132
pym쎯ipmq쎯	-10.2135
usr쎯fd쎯	-10.2135
lfn쎯rq쎯	-10.2137
,hx쎯	-10.2137
waw쎯jn쎯	-10.2138
nbm쎯	-10.2139
쎁쎁eee쎯	-10.2139
kyn1쎯	-10.2143
,aqt쎯	-10.2146
py쎯wf쎯tu쎯ip쎯	-10.2153
c쎯ue쎯	-10.2157
vbn쎯r쎯	-10.2157
wgkq0쎯et쎯。	-10.2158
(쎁쎉쎁	-10.2171
yw쎯fhw쎯	-10.2173
tuk쎯nh쎯	-10.2176
ukn쎯vfhp1쎯tam쎯	-10.2178
tffu쎯pei쎯wt쎯tr쎯。	-10.2181
xten1쎯	-10.2183
쎈eee쎯	-10.2187
▁*	-10.219
vkb쎯	-10.219
tqd쎯	-10.219
gah쎯sy쎯	-10.2194
anb0쎯w쎯	-10.2195
wv쎯ybf0쎯	-10.2195
xeg쎯dn쎯。	-10.2196
txi쎯gq쎯u쎯kkk쎯	-10.2196
tol쎯	-10.2197
fgh쎯wty쎯	-10.2197
acbt0쎯	-10.2199
lwg쎯udp쎯	-10.2201
pvs쎯wrh2쎯	-10.2205
twgi쎯	-10.2205
d쎯p쎯jfd쎯	-10.2209
w쎯n쎯atd쎯bpf쎯	-10.221
ige쎯ii쎯	-10.221
ige쎯ifk쎯	-10.2211
r쎯tk쎯tkh쎯	-10.2213
gef쎯dw0쎯	-10.2214
fhu쎯tm쎯	-10.2217
g쎯kw쎯	-10.2219
fuk쎯yce쎯	-10.2224
sfi쎯fn쎯	-10.2229
rvyo쎯gkp쎯	-10.2229
gae쎯pww쎯	-10.223
aigy쎯	-10.223
ajj쎯dr쎯	-10.2232
ldd쎯pg쎯uqwm0쎯u쎯	-10.2235
madt2쎯	-10.2236
fyb1쎯	-10.2242
fj쎯hi쎯	-10.2244
tu쎯ip쎯ad쎯qqqq1쎯	-10.2248
kg쎯gm쎯	-10.2249
ajq쎯	-10.225
쎉eee쎯	-10.2256
nuk1쎯	-10.2257
usr쎯vfhp1쎯	-10.2259
gxw쎯	-10.2259
maw쎯gajf쎯	-10.226
wv쎯uyt0쎯yx쎯	-10.226
쎉쎄	-10.2266
rb1쎯》	-10.2267
dm쎯ow쎯	-10.2268
iej쎯	-10.2268
jy쎯hko쎯	-10.2271
oufg쎯	-10.2271
ymc쎯yf쎯、	-10.2272
k쎯dr쎯	-10.2273
g쎯gh쎯	-10.2274
go쎯gc쎯	-10.2275
caq쎯	-10.2279
uvh쎯	-10.228
rfq쎯	-10.2281
qb쎯	-10.2284
e쎯《	-10.2285
pwl쎯	-10.2285
epv1쎯	-10.2286
itk쎯bj쎯	-10.2286
hhhh쎯r쎯	-10.2288
apl쎯fcl쎯saj쎯aib쎯	-10.229
gfi쎯bw쎯	-10.2291
ntg쎯st쎯	-10.2292
buj쎯djg쎯	-10.2296
xxf쎯	-10.2306
ukn쎯uk쎯	-10.2307
gmi쎯iry쎯	-10.231
rnv쎯	-10.2315
“”	-10.2321
rno쎯	-10.2323
em쎯efw쎯	-10.2323
ー	-10.2324
y쎯fcl쎯	-10.2326
th쎯gj쎯kkd쎯	-10.233
h쎯e쎯	-10.2333
rrk쎯	-10.2333
vkf1쎯	-10.2336
wh쎯wsg0쎯	-10.234
uter쎯	-10.2341
dd쎯isgg0쎯yhk쎯	-10.2344
nnk쎯uk쎯	-10.2348
쎁쎉쎇쎉rh쎯	-10.2351
쎃쎀쎀쎀	-10.2351
qq쎯pe쎯	-10.2351
nyp쎯	-10.2352
쎁)	-10.2354
tv쎯km쎯wf쎯tv쎯km쎯	-10.2355
wg쎯usr쎯	-10.236
fgh쎯dg쎯	-10.2362
hka쎯tmc쎯	-10.2369
vv쎯	-10.237
sd쎯	-10.2371
r쎯j쎯	-10.2371
bs쎯qiu0쎯	-10.2372
dr쎯vck쎯	-10.238
ai쎯apfq쎯ymhj쎯	-10.238
hka쎯fghg쎯	-10.2382
ode쎯	-10.2384
ipk쎯tv쎯nnh쎯yn쎯	-10.2384
pu	-10.2389
wxf쎯ai쎯	-10.2399
nfd쎯	-10.2399
ga쎯rd쎯	-10.2399
dy쎯gu쎯	-10.2401
lkb쎯	-10.2405
igd쎯lk쎯	-10.2407
inro쎯	-10.2407
hxf쎯	-10.2407
g쎯thg0쎯	-10.2408
쎇eee쎯	-10.241
trf쎯tkh쎯	-10.2411
mf쎯pgk쎯	-10.2411
aet0쎯yygy쎯	-10.2412
lh쎯rh쎯	-10.2414
xgu쎯us쎯	-10.2415
():	-10.2416
yeu쎯	-10.2419
gc쎯dp쎯	-10.2421
bm쎯thd쎯	-10.2422
qmk쎯	-10.2422
wye쎯if쎯	-10.2423
gqx쎯ynv쎯	-10.2424
jx쎯jhny쎯	-10.2424
lk쎯jel쎯	-10.2425
qk쎯pe쎯	-10.2426
,x쎯fp쎯	-10.2426
qkq쎯umc쎯	-10.2426
vcn0쎯	-10.2426
▁u쎯kkk쎯	-10.243
eri쎯	-10.2434
쎈wh쎯	-10.2438
c쎯adw쎯	-10.2438
y쎯wtf쎯atd쎯jgm쎯	-10.2438
jn쎯xjt쎯	-10.2438
uu쎯wsg0쎯	-10.2439
ih쎯jf쎯	-10.2439
e쎯rn쎯	-10.2445
epi쎯hi쎯	-10.2447
b	-10.2448
g쎯ddu0쎯	-10.2449
awsk쎯uff쎯	-10.245
()、	-10.2451
wy쎯thn쎯rfc쎯sy쎯	-10.2453
rer쎯	-10.2454
dy쎯gu쎯iu쎯	-10.2458
ajt쎯qc쎯	-10.2459
pwd쎯qd쎯	-10.2466
kw쎯ce쎯	-10.2469
mc쎯mrg0쎯	-10.2472
a쎯wt쎯pgc쎯	-10.2474
hcd쎯	-10.2475
gkq쎯	-10.248
dgh쎯maw쎯	-10.248
쎃eee쎯	-10.2481
▁·	-10.2485
xfm쎯tavn쎯rvy쎯tf쎯	-10.2485
nnnn쎯dn쎯o쎯	-10.2486
bd쎯lw쎯	-10.2488
rmhj쎯dn쎯	-10.2493
-쎂	-10.2497
lfod1쎯	-10.2499
ugm쎯w쎯	-10.2502
suq쎯ta쎯	-10.2508
쎀.쎂	-10.2508
sg쎯kkk쎯	-10.2509
ynf쎯	-10.251
irn쎯	-10.2511
fhfk0쎯	-10.2512
vah쎯	-10.2515
qqw쎯	-10.2516
》aqt쎯	-10.2519
dgj쎯wrh2쎯	-10.2522
g쎯rn쎯	-10.2522
sg쎯tmd쎯	-10.2523
ta쎯dw0쎯	-10.2524
wcd쎯	-10.2528
wvf쎯tmd쎯	-10.2529
iwt쎯ou쎯	-10.2532
qtjh0쎯	-10.2535
g쎯wa쎯	-10.2537
txg쎯gd쎯	-10.2542
wtr쎯	-10.2542
tq쎯o쎯“	-10.2543
b쎯g쎯wh쎯	-10.2547
fq쎯bv쎯	-10.2549
qwyc0쎯	-10.2557
dyt쎯tr쎯	-10.2558
l쎯uu쎯	-10.2559
dyc쎯	-10.2573
yvi쎯tjt쎯	-10.2578
rp쎯rh쎯go쎯	-10.2579
nnu쎯	-10.2582
gkp쎯wycm0쎯	-10.2582
yuv쎯	-10.2584
xef쎯	-10.2587
,gip쎯e쎯	-10.2588
r쎯u쎯kkk쎯	-10.2593
uwa쎯uyh쎯	-10.26
tem쎯	-10.2602
riq쎯	-10.2608
ajdn쎯	-10.2608
yvh쎯wa쎯	-10.261
jtyq0쎯	-10.2615
riq쎯hka쎯	-10.2616
suf쎯	-10.2617
tdp쎯peg쎯	-10.2618
iyn0쎯	-10.2619
uo쎯ynm쎯	-10.2622
rnnw쎯pgn쎯	-10.2625
qnnk1쎯ou쎯	-10.2627
r쎯wt쎯et쎯	-10.2627
etg쎯tjh쎯	-10.263
xt쎯)	-10.2631
%	-10.2632
쎁kgn쎯	-10.2637
uqwm0쎯ipw쎯	-10.2649
쎁쎁쎀	-10.2651
iyc쎯cep쎯	-10.2652
qdt쎯tfkp쎯	-10.2652
쎇-	-10.2653
vte쎯	-10.2657
yynw1쎯suq쎯	-10.2658
je쎯dqe쎯	-10.2663
wyk쎯rg쎯eb쎯tl쎯	-10.2665
he쎯	-10.2667
kwgj0쎯	-10.2669
,lk쎯	-10.2671
쎀.쎃	-10.2671
ls쎯cw쎯	-10.2673
yb쎯ga쎯	-10.2675
jo쎯hhu0쎯	-10.2675
jf쎯uj쎯:	-10.2676
ftbt쎯rep쎯。	-10.2677
,yt쎯ty쎯	-10.2679
jlx쎯ytn쎯	-10.2682
vjs쎯	-10.2683
xng1쎯	-10.2688
tep쎯je쎯	-10.2688
ihi쎯	-10.269
l쎯ggg1쎯	-10.269
qdb쎯sm쎯	-10.2692
vfb쎯tc쎯	-10.2693
iyw쎯dfy쎯	-10.2694
vi쎯ujf쎯	-10.2694
doq쎯	-10.2698
jtyl쎯tp쎯	-10.2703
ipr쎯	-10.2708
txt쎯	-10.2709
kqb쎯	-10.2711
egc쎯xe쎯	-10.2714
ugh쎯udy쎯	-10.2716
dn쎯w쎯	-10.2719
jyie쎯wqj쎯	-10.272
qq쎯al쎯ce쎯	-10.2721
”“	-10.2722
mfky쎯ubtf쎯	-10.2728
dd쎯tffh1쎯	-10.2733
bn쎯sk쎯c쎯	-10.2734
wuf쎯	-10.2736
se쎯o쎯	-10.2737
wv쎯dmh쎯gf쎯	-10.2737
cm쎯ipkm0쎯	-10.2739
klk쎯kdj쎯	-10.274
fw쎯w쎯	-10.2742
wg쎯aq쎯	-10.2744
tu쎯ip쎯dga쎯pwv쎯	-10.2744
ddm쎯	-10.2746
cf쎯yy쎯	-10.2748
cbj쎯	-10.275
dl쎯kq쎯h쎯	-10.2751
wxf쎯w쎯	-10.2756
wj쎯rfm쎯	-10.2757
-쎈	-10.2758
sk쎯dp쎯	-10.2758
mj쎯j쎯	-10.2759
ym쎯ftg쎯	-10.276
ujf쎯qi쎯ip쎯bpf쎯	-10.2768
um쎯qyv쎯	-10.2769
xtu쎯umd0쎯	-10.277
aw쎯t쎯l쎯	-10.2771
hjj쎯fha쎯	-10.2773
▁쎅、	-10.2775
ulk1쎯	-10.2778
gjq쎯o쎯	-10.2782
gae쎯dn쎯b쎯	-10.2784
ll쎯ntg쎯	-10.2786
ta쎯pv쎯	-10.2791
w쎯gk쎯	-10.2798
sj쎯yqj쎯	-10.2799
aqg쎯aqr쎯	-10.28
bm쎯ffff5쎯	-10.28
tx쎯쎃	-10.2806
aqt쎯uqd0쎯	-10.2813
wqj쎯gxi쎯	-10.2813
isjg쎯	-10.2814
ltu쎯pvs쎯	-10.2815
iwy1쎯	-10.2816
gmww쎯uqw쎯	-10.2817
wdt쎯bm쎯	-10.2826
쎉쎃	-10.2828
pyk쎯	-10.284
ob쎯	-10.2841
v쎯fcl쎯	-10.2845
iawn쎯kkkk0쎯	-10.285
rpws쎯yfy1쎯	-10.2852
w쎯n쎯tmh0쎯	-10.286
g쎯rx쎯	-10.2861
eerq쎯	-10.2862
uo쎯ey쎯	-10.2862
fnr쎯ujf쎯	-10.2864
wgkq0쎯et쎯r쎯	-10.2865
d쎯l쎯mw쎯	-10.2867
nfc쎯uqw쎯	-10.2867
qm쎯gmu1쎯w쎯	-10.2868
,jb쎯rg쎯	-10.2873
apg쎯dgh쎯	-10.2873
tx쎯ag쎯	-10.2873
wwg쎯nnh쎯	-10.2874
rqb0쎯rmhj쎯	-10.2874
jjjj쎯adwe1쎯	-10.2876
nku쎯	-10.2877
pv쎯egc쎯	-10.2877
rbcc쎯wqj쎯udi쎯	-10.288
kjq쎯	-10.2883
gkih쎯gae쎯	-10.2887
ㄢ	-10.2888
wc쎯pv쎯	-10.2891
gajf쎯kgn쎯	-10.2897
▁y쎯s쎯	-10.2901
ii쎯js쎯	-10.2902
wgk쎯st쎯	-10.2903
▁●	-10.2903
ymc쎯pg쎯	-10.2904
쎇쎁	-10.2907
xan쎯nu쎯	-10.2908
쎉쎀쎀	-10.2908
ps쎯dht쎯	-10.2908
,lk쎯ty쎯	-10.2909
gef쎯qynm1쎯ymhj쎯	-10.2913
hhy쎯	-10.2921
lt쎯ip쎯	-10.2922
qd쎯rg쎯	-10.2925
jgf쎯	-10.2927
sfw쎯	-10.2928
쎃rh쎯	-10.2929
dg쎯xe쎯	-10.2931
r쎯a쎯wt쎯	-10.2931
-쎆	-10.2932
bk쎯og쎯rfc쎯sy쎯	-10.2936
up쎯l쎯	-10.2941
ke쎯xh쎯	-10.2942
cccg쎯	-10.2943
ldd쎯wsg0쎯	-10.2943
puh쎯yc쎯	-10.2944
rtb쎯	-10.2944
wyk쎯	-10.2946
wdn쎯ugdu쎯	-10.2948
uwy1쎯dqe쎯	-10.2948
wsg0쎯gm쎯	-10.2948
tg쎯u쎯r쎯	-10.2949
fha쎯fm쎯	-10.2959
t쎯adw쎯wb쎯	-10.2969
ygk쎯ujf쎯	-10.2973
i쎯fp쎯	-10.2982
nge쎯dgkn쎯	-10.2986
r쎯synw쎯ny쎯	-10.2992
jgm쎯aib쎯	-10.2993
qq쎯ovt쎯	-10.2993
gmu1쎯	-10.2996
gjq쎯qq쎯r쎯	-10.3
oa쎯mdo쎯	-10.3002
ytey쎯tf쎯	-10.3004
ue쎯tyg쎯	-10.3008
wh쎯sf쎯n쎯ih쎯xeg쎯,	-10.3008
쎂쎀쎀쎈	-10.301
gg쎯qqqq1쎯	-10.3012
ls쎯	-10.3025
sux쎯	-10.3025
gyiy쎯	-10.3031
fhn쎯,	-10.3035
ifn쎯	-10.3037
wvm쎯	-10.3039
tn쎯pnt쎯	-10.3039
ftjb쎯wf쎯	-10.3041
kw쎯s쎯	-10.3044
쎈쎁	-10.3045
,you1쎯	-10.3049
bgh쎯sm쎯	-10.3049
pp쎯k쎯	-10.305
ja쎯	-10.305
wc쎯ngk쎯。	-10.3052
uqsg쎯img쎯	-10.3054
ypt쎯oy쎯,tdp쎯peg쎯	-10.3056
u쎯kkk쎯。	-10.3057
tgj쎯vfhp1쎯	-10.3058
-쎄	-10.3058
ln쎯ftg쎯	-10.306
ujf쎯hid쎯	-10.3063
tyg쎯tyg쎯	-10.3078
vtk쎯qynm1쎯	-10.3079
jtyl쎯pwfi쎯	-10.3082
!”	-10.3083
jb쎯vb쎯r쎯	-10.3084
qk쎯o쎯	-10.3084
쎀쎈	-10.3086
ygu쎯ywx쎯	-10.3091
mq쎯jy쎯aq쎯	-10.3094
qh쎯l쎯	-10.3099
jhng쎯:‘	-10.3099
rv쎯ral쎯	-10.3105
쎂쎀쎁쎀	-10.3106
g쎯iyc쎯r쎯	-10.3108
aqq쎯ugdu쎯	-10.3117
tu쎯uo쎯	-10.3119
xr쎯	-10.3122
,q쎯	-10.3133
ggi쎯fuj쎯wk쎯ryn0쎯	-10.3133
it쎯vvv쎯	-10.3135
wv쎯suq쎯	-10.3137
gj쎯shn쎯	-10.3139
tld1쎯tp쎯	-10.3141
j쎯g쎯pe쎯wys쎯	-10.3141
jd쎯	-10.3142
ysj쎯	-10.3144
tgj쎯jg쎯	-10.3144
vvv쎯w쎯	-10.3145
vyv쎯	-10.3145
rkm쎯wtl쎯	-10.3146
xfm쎯	-10.3148
dty쎯buj쎯	-10.3148
fgh쎯uy쎯	-10.3151
nty1쎯fj쎯	-10.3152
ait쎯pu쎯	-10.3153
ick쎯gj쎯	-10.3169
:《	-10.3169
kl쎯g쎯	-10.3173
tu쎯rfc쎯dn쎯js쎯	-10.3173
ykge쎯	-10.3174
g쎯fc쎯	-10.3174
awnu1쎯	-10.3179
xo쎯bd쎯	-10.3181
rvn2쎯	-10.3183
a쎯anb0쎯ugdu쎯sy쎯	-10.3186
lr쎯	-10.3188
txi쎯ovt쎯	-10.3192
iytb0쎯pt쎯	-10.3193
if쎯rmhj쎯	-10.3196
itx쎯fm쎯ith쎯	-10.3197
og쎯xgm쎯	-10.3197
pei쎯fnrt쎯	-10.3197
th쎯,	-10.3198
fuf1쎯	-10.3204
●	-10.3206
bwf쎯ntk쎯	-10.3207
fny쎯aft쎯	-10.3208
mmgd쎯	-10.3208
()。	-10.321
rdj쎯gq쎯	-10.3212
pfq쎯gkih쎯	-10.3221
yfy1쎯ywx쎯	-10.3227
kkkk0쎯epw쎯	-10.3228
gh쎯r쎯	-10.323
sym쎯ytyh쎯ymhj쎯	-10.323
tqv쎯	-10.3232
)r쎯	-10.3233
bip쎯	-10.3237
teg1쎯	-10.3237
tu쎯ip쎯pe쎯	-10.3238
dfy쎯xpw쎯	-10.3241
rn쎯e쎯r쎯	-10.3241
pynn0쎯kkk쎯	-10.3242
wgkb2쎯qk쎯	-10.3244
jn쎯wy쎯	-10.3244
wycm0쎯tfq쎯	-10.3244
wtd쎯	-10.3246
rvk쎯tg쎯	-10.3248
uqf쎯adw쎯	-10.3252
yn쎯》	-10.3252
dgkn쎯epc쎯	-10.3253
wfny0쎯uxhp쎯	-10.3253
no쎯	-10.326
bk쎯ce쎯	-10.3262
tffu쎯bk쎯。	-10.3264
yygt쎯itp쎯yid쎯et쎯	-10.3265
dtf쎯wgkb2쎯	-10.3269
gk쎯tl쎯	-10.3271
hhhh쎯vi쎯	-10.3271
lkd쎯gc쎯	-10.3272
,fc쎯rf쎯	-10.3273
tmgt1쎯	-10.3274
쎅%	-10.3276
쎀쎅	-10.3277
aw	-10.3278
jn쎯ck쎯	-10.3278
gx쎯sh쎯	-10.3278
iagw쎯ujn쎯	-10.3279
qtbl쎯	-10.3279
aiit쎯	-10.328
rrr쎯oyvk0쎯	-10.3287
mhj쎯	-10.3287
。vbn쎯	-10.3287
“dg쎯	-10.3289
x쎯iyj쎯tp쎯gj쎯	-10.3289
iwgu쎯	-10.329
uji1쎯	-10.3294
suf쎯hhhh쎯	-10.3294
kkd쎯sft쎯	-10.3297
ipk쎯xeg쎯dn쎯km쎯	-10.3299
jcu쎯	-10.3302
qyi1쎯	-10.3306
wy쎯et쎯	-10.3308
iwyf0쎯	-10.3308
eb쎯tl쎯k쎯ny쎯	-10.3314
。dmj1쎯	-10.3317
ud쎯qvfp1쎯	-10.332
vtd쎯	-10.3322
cw쎯c쎯	-10.3324
fg쎯rh쎯	-10.3325
tkm쎯	-10.3326
쎁쎉쎅쎀rh쎯	-10.3327
sh쎯ud쎯r쎯	-10.333
rhyi쎯	-10.333
xh쎯fhn쎯r쎯	-10.3334
ssq쎯shn쎯	-10.3334
wt쎯tr쎯	-10.3335
qkm쎯oyn쎯	-10.3338
eqd쎯	-10.334
sc쎯dgv쎯	-10.334
i쎯td쎯	-10.3341
ta쎯fd쎯	-10.3341
uem쎯	-10.3342
ogbn쎯	-10.3343
ex쎯eyn쎯	-10.3346
ipf쎯	-10.3348
rh쎯wa쎯	-10.3348
fhb쎯	-10.3348
cyi쎯	-10.3349
uff쎯ytyh쎯	-10.3351
mgu쎯	-10.3352
tq쎯“	-10.3356
dan쎯	-10.336
cc쎯yy쎯	-10.3361
쎂쎂쎀	-10.3361
jgm쎯tg쎯	-10.3362
oa쎯dyt쎯	-10.3373
xyna0쎯dcg쎯	-10.3376
iy쎯:“	-10.3376
。iv쎯	-10.3377
ert쎯	-10.3389
wfny0쎯》	-10.339
tu쎯dga쎯adm쎯hhhh쎯	-10.3391
ukk쎯	-10.3395
uqyl쎯	-10.3397
wuh쎯	-10.3399
ih쎯gtu쎯	-10.34
。p쎯tkh쎯	-10.3402
wyb쎯	-10.3405
,dmj1쎯j쎯	-10.341
sgn쎯tlf2쎯	-10.3411
qh쎯gae쎯	-10.3411
ps쎯egc쎯	-10.3412
쎁쎉쎆쎀rh쎯	-10.3414
。ld쎯	-10.3416
v쎯jn쎯	-10.3417
w쎯n쎯wa쎯ge쎯dd쎯wf쎯	-10.3419
ugk쎯	-10.3423
qt	-10.3425
qdb쎯bwg쎯	-10.3427
yuvo0쎯	-10.3428
qyvl쎯ip쎯	-10.343
td쎯ykw쎯u쎯sc쎯	-10.3432
g쎯wdm쎯	-10.3433
h쎯syp쎯	-10.3437
tfq쎯fj쎯wys쎯wsg0쎯	-10.3438
ubk0쎯if쎯	-10.3439
lwj쎯dm쎯	-10.344
fm쎯yiu쎯ymhj쎯	-10.3443
dqq쎯	-10.3445
puv쎯adwe1쎯	-10.3447
-쎅	-10.3449
bfm쎯pl쎯	-10.345
wgkq0쎯tj쎯	-10.3453
saj쎯aib쎯	-10.3454
lfnh쎯xat쎯	-10.3464
kl쎯qh쎯	-10.3466
uf쎯qynm1쎯	-10.3467
rwb쎯	-10.3473
ayn쎯	-10.3474
)t쎯	-10.3475
tk쎯xe쎯	-10.3475
,gf쎯	-10.3476
by쎯trh쎯	-10.3476
tr쎯uqwm0쎯	-10.3477
vcb쎯uqf쎯	-10.3478
gkl쎯y쎯yam쎯	-10.3478
rqa쎯	-10.3478
bk쎯tl쎯	-10.3483
img쎯gl쎯	-10.3483
suq쎯aq쎯	-10.3486
(vcb쎯	-10.3489
sh쎯m쎯	-10.3494
f쎯u쎯	-10.3495
usr쎯aq쎯	-10.3496
sce쎯	-10.3497
ige쎯fje쎯	-10.3499
rdf1쎯fcl쎯	-10.35
xnh쎯qaj쎯	-10.3502
g쎯fnrt쎯	-10.3509
쎇쎀쎀	-10.3512
smq쎯	-10.3513
yh쎯w쎯	-10.3515
rh쎯uj쎯	-10.3516
dwiu쎯l쎯	-10.3521
nge쎯rb1쎯	-10.3524
nyi2쎯fghy0쎯:	-10.3524
ymhj쎯tv쎯	-10.3526
xw쎯cbj쎯	-10.3528
qta쎯	-10.353
ymc쎯yf쎯,	-10.3532
ditn0쎯	-10.3537
rhk쎯mww쎯	-10.3537
ww쎯dmj1쎯	-10.354
。p쎯	-10.3542
°C	-10.3543
fhg1쎯	-10.3547
oge쎯ny쎯	-10.3548
k쎯ih쎯whf쎯og쎯	-10.355
nnh쎯yn쎯	-10.3551
ige쎯itf쎯	-10.3555
ref쎯	-10.3559
ynky2쎯tj쎯b쎯	-10.3561
uyt0쎯	-10.3562
lk쎯c쎯	-10.3563
yni1쎯fqp쎯	-10.3566
dy쎯bb쎯	-10.3567
쎂)	-10.3568
쎇wh쎯	-10.3568
)w쎯。	-10.3569
fhv쎯ymhj쎯	-10.3571
fd쎯xte쎯	-10.3573
r쎯gae쎯aa쎯	-10.3577
wyq쎯ge쎯	-10.3582
x쎯iyj쎯ga쎯v쎯aq쎯	-10.3583
eb쎯tl쎯,	-10.3585
sk쎯mqb쎯	-10.3587
tfn쎯icf쎯ai쎯	-10.3587
ihg1쎯	-10.3588
r쎯xp쎯wgk쎯ntg쎯	-10.3589
uit쎯	-10.3592
fghg쎯tg쎯nf쎯jgm쎯。	-10.3592
r쎯ymc쎯yf쎯	-10.3594
cnh쎯sghg1쎯	-10.3603
(쎂)	-10.3609
lqp쎯lkb쎯	-10.3609
kwyg쎯g쎯r쎯	-10.361
g쎯fnw쎯	-10.3615
▁sg쎯	-10.3616
bm쎯go쎯	-10.362
wjh쎯	-10.3622
d쎯gf쎯	-10.3624
fhw쎯pw쎯	-10.3626
wa쎯dcg쎯	-10.3627
vynu쎯	-10.3628
wtfm3쎯	-10.3632
(.)	-10.3641
rgb쎯	-10.3645
wx쎯dgtg쎯	-10.3653
▁쎅.	-10.3655
ad쎯dbm쎯ymc쎯ytb쎯	-10.3657
,vk쎯js쎯	-10.3662
쎁쎉쎇쎇rh쎯	-10.3675
sh쎯yid쎯r쎯	-10.3676
×쎂	-10.3679
ndn쎯	-10.3681
xuj쎯ntg쎯	-10.3684
sf쎯yfd쎯	-10.3685
fny쎯og쎯ww쎯gk쎯	-10.3685
vd쎯	-10.3689
,nnnn쎯	-10.3691
um쎯pe쎯	-10.3693
pj쎯synw쎯	-10.3697
itx쎯mw쎯qh쎯	-10.37
쎉쎁	-10.3707
klj쎯w쎯	-10.3709
itm쎯uyh쎯	-10.3711
tk쎯dd쎯	-10.3714
zzj3쎯	-10.3714
tu쎯dga쎯dn쎯js쎯	-10.3716
wt쎯bm쎯	-10.3716
ma쎯xg쎯	-10.3717
ice쎯	-10.3719
,uep쎯	-10.3725
ngkg쎯	-10.3725
xeg쎯xkw쎯pu쎯ytb쎯	-10.3726
(쎁)	-10.3728
anb0쎯sy쎯ip쎯bpf쎯	-10.3729
qtgw1쎯	-10.3733
の	-10.3734
afs쎯tkh쎯	-10.3735
쎁쎀eee쎯	-10.3736
pu쎯og쎯	-10.3738
tue쎯	-10.3747
fg쎯uqw쎯	-10.375
puhc쎯tq쎯o쎯	-10.3762
q쎯r쎯	-10.3763
fj쎯wht쎯	-10.3763
rum쎯	-10.3765
쎀쎉	-10.3769
iww쎯	-10.377
pe쎯fl쎯wf쎯wf쎯km쎯,	-10.3773
tmh0쎯	-10.3776
elv쎯	-10.3778
dr쎯wbj쎯	-10.3778
rkm쎯	-10.3781
yjs쎯ipkf0쎯	-10.3782
sm쎯jn쎯	-10.3784
uuk0쎯	-10.3789
cm쎯iq쎯	-10.3792
isk쎯iyc쎯	-10.3792
auk쎯abu쎯	-10.3792
ujfj쎯wug1쎯,	-10.3795
aga쎯	-10.3798
xwy쎯tg쎯gxi쎯	-10.3806
▁yynw1쎯	-10.3808
whf쎯og쎯r쎯	-10.3809
adk쎯fggh쎯	-10.381
shy쎯	-10.3811
etj쎯uk쎯	-10.3813
aqky1쎯pwfi쎯	-10.3813
qgh쎯	-10.3815
tdx쎯	-10.3817
mmm쎯f쎯	-10.3818
。”ige쎯	-10.3822
sft쎯rfm쎯	-10.3825
pe쎯ta쎯	-10.383
wv쎯qev쎯	-10.3831
adwe1쎯uj쎯,	-10.3836
ntk쎯ntg쎯	-10.3837
kwn쎯	-10.3838
gg쎯wh쎯	-10.3838
g쎯txi쎯gq쎯	-10.3839
쎀.쎈	-10.384
yny0쎯uj쎯	-10.3841
yud0쎯	-10.3844
by쎯ii쎯	-10.3846
whw쎯qi쎯uk쎯。	-10.3852
rp쎯wa쎯	-10.3853
te	-10.3853
g쎯adm쎯	-10.3856
cn쎯go쎯sghg1쎯gog쎯	-10.3859
。ul쎯	-10.386
puf쎯	-10.3863
uu쎯khu쎯	-10.3864
nnh쎯bpf쎯	-10.3866
jhnr쎯	-10.3867
egc쎯w쎯。	-10.3868
d쎯h쎯itx쎯	-10.3868
tjh쎯iugg0쎯	-10.3869
rfc쎯sy쎯,	-10.3872
qq쎯rh쎯go쎯	-10.3873
lkmi0쎯gae쎯	-10.3875
쎆)	-10.3878
r쎯jf쎯uj쎯	-10.3881
쎁쎉쎇쎀rh쎯	-10.3881
yn쎯fa쎯	-10.3884
rb1쎯fjh0쎯	-10.3884
qk쎯:	-10.3885
p쎯su쎯r쎯	-10.3886
ga쎯v쎯r쎯	-10.3889
bc쎯tj쎯b쎯	-10.3892
uq쎯cep쎯wgj쎯tjh쎯	-10.3894
wk쎯qyvl쎯	-10.3895
toc쎯yt쎯	-10.3897
lg쎯uj쎯	-10.3898
uqwm0쎯rfm쎯	-10.3898
,adwn0쎯gcf쎯	-10.3901
tx쎯fg쎯nm쎯	-10.3908
xqi쎯	-10.3912
mqq쎯dmu0쎯	-10.3913
e쎯b쎯	-10.3914
vij쎯	-10.3916
js쎯pu쎯	-10.3918
bue쎯uthp쎯	-10.392
ii쎯tev쎯	-10.392
oqdo쎯oat쎯	-10.3926
rytp0쎯yge쎯	-10.3928
vo쎯itd쎯	-10.3929
rqw쎯ipkm0쎯	-10.393
saj쎯trf쎯	-10.3934
쎀쎆	-10.3939
g쎯nfc쎯	-10.3941
qk쎯pb쎯	-10.3941
、ym쎯	-10.3943
hl쎯	-10.3945
pgj쎯dmh쎯	-10.3946
rufh1쎯	-10.3947
ipw쎯epc쎯	-10.3953
iie쎯bwt쎯	-10.3955
wynb쎯gd쎯	-10.3956
tvt쎯	-10.3956
sqdy쎯	-10.3957
if쎯tvfh1쎯if쎯fwm쎯	-10.3959
a쎯og쎯lfq쎯aq쎯	-10.396
dn쎯uu쎯b쎯	-10.396
hao쎯rny1쎯	-10.3962
μ	-10.3966
yyv쎯	-10.3967
ybt쎯	-10.397
hko쎯fmk쎯	-10.3972
qh쎯uk쎯	-10.3973
tgv쎯bd쎯	-10.3975
rt쎯fcl쎯	-10.398
sgn쎯e쎯	-10.3982
wqin쎯r쎯	-10.3985
d쎯《	-10.3986
쎀쎃	-10.3992
ntg쎯t쎯	-10.3995
qi쎯kkd쎯	-10.3995
wht쎯vfhp1쎯	-10.3996
ey쎯adw쎯wb쎯	-10.3998
djdn2쎯	-10.4
jb쎯qq쎯	-10.4
vnn쎯	-10.4002
jb쎯vb쎯	-10.4004
yi쎯sk쎯c쎯	-10.401
ftbt쎯ip쎯rfm쎯jg쎯	-10.401
mqu쎯。	-10.4011
sh쎯yid쎯	-10.4014
xl쎯alt쎯	-10.4015
kht쎯、	-10.4017
khtd2쎯	-10.4019
pwt쎯kkkk0쎯	-10.4019
ukh쎯fmk쎯	-10.4019
itd쎯ntg쎯	-10.402
geh쎯	-10.4023
쎀쎇	-10.4025
hv쎯hg쎯	-10.4025
dfff쎯	-10.4031
wye쎯tfkd쎯	-10.4034
ymhj쎯k쎯ny쎯	-10.4036
ek쎯	-10.4043
fc쎯bw쎯	-10.4043
g쎯xt쎯	-10.4048
yi쎯yfn쎯gf쎯	-10.4049
kn쎯wdt쎯	-10.405
v쎯bm쎯	-10.4051
ymc쎯tlf2쎯、	-10.4052
mdo쎯	-10.4054
jty쎯jf쎯	-10.4055
r쎯jf쎯whn쎯,	-10.4057
fge쎯fghg쎯rg쎯	-10.4058
whw쎯	-10.4058
쎁쎉쎇쎂rh쎯	-10.4059
wxm쎯tr쎯	-10.4062
dl쎯wa쎯	-10.4063
cnh쎯tqt쎯	-10.4066
ftbt쎯yce쎯nnk쎯	-10.407
。sg쎯nnh쎯	-10.4071
w쎯vtk쎯	-10.4073
h쎯ymhj쎯	-10.4075
а	-10.4077
wqa쎯ijl쎯	-10.4077
iy쎯ty쎯	-10.4079
txgi2쎯gqf쎯	-10.4083
gae쎯,	-10.4085
ipk쎯tv쎯	-10.4086
tj쎯c쎯	-10.4088
kwyn2쎯	-10.4088
,es쎯et쎯	-10.4092
rc쎯cf쎯	-10.4096
rx쎯v쎯	-10.4096
wg쎯jjjj쎯rmhj쎯	-10.4098
xqc쎯cf쎯	-10.4098
og쎯e쎯bv쎯wc쎯ngk쎯	-10.4098
sq쎯	-10.41
ta쎯,	-10.4102
tp쎯gj쎯wsg0쎯txi쎯	-10.4104
cq쎯ytf쎯	-10.4116
jmh쎯	-10.4118
yfy1쎯	-10.4123
ya쎯wnh쎯	-10.4124
쎁쎉쎄쎅rh쎯	-10.4124
gah쎯ufy쎯	-10.4126
xmw쎯oy쎯	-10.4127
▁ip쎯suq쎯	-10.4127
dd쎯xq쎯	-10.4128
cl쎯	-10.4131
dh쎯pgk쎯,	-10.4132
quh1쎯	-10.4133
》,《	-10.4133
tmc쎯	-10.4133
쎁쎉쎅쎇rh쎯	-10.4134
if쎯fwm쎯	-10.4136
x쎯apk쎯gj쎯wynn3쎯	-10.4137
쎁쎉쎅쎉rh쎯	-10.4137
rcn1쎯rng0쎯	-10.4137
a쎯wt쎯w쎯km쎯	-10.414
igk쎯	-10.4141
“k쎯l쎯	-10.4141
spq쎯	-10.4142
▁jb쎯dd쎯	-10.4143
ih쎯xeg쎯	-10.4144
usr쎯wxf쎯	-10.4147
um쎯fnrt쎯	-10.4151
scf쎯ex쎯	-10.4155
alp쎯awx쎯	-10.4163
쎁쎉쎅쎅rh쎯	-10.4165
ai쎯apfq쎯	-10.4165
nj쎯ntg쎯	-10.4168
wsg0쎯rmhj쎯	-10.4171
udjh쎯on쎯	-10.4171
qq쎯it쎯	-10.4172
fwm쎯tvfh1쎯	-10.4174
,p쎯j쎯	-10.4175
um쎯fd쎯	-10.4176
lpdk0쎯aq쎯	-10.4176
,yi쎯j쎯	-10.4176
trf쎯klj쎯j쎯	-10.4178
,pu쎯gm쎯	-10.4186
ito쎯	-10.4192
uqv쎯wx쎯	-10.4193
ggg1쎯fje쎯	-10.4194
ad쎯qqqq1쎯wf쎯	-10.4195
wg쎯wsg0쎯	-10.4196
eaj쎯	-10.4197
fq쎯qjq쎯	-10.4199
v쎯sgfb쎯	-10.4201
dy쎯dr쎯	-10.4203
khij쎯	-10.4203
ndj쎯nge쎯	-10.4209
aqt쎯bc쎯	-10.4212
wygg쎯yny0쎯	-10.4213
uve쎯	-10.4214
psu쎯wa쎯	-10.4217
ym쎯dp쎯	-10.4218
mqq쎯dc쎯	-10.4222
kjj쎯thg0쎯	-10.4223
》vs쎯fn쎯	-10.4225
ujt쎯	-10.4225
dn쎯uu쎯r쎯	-10.4228
uth쎯yam쎯	-10.4228
smgk쎯	-10.4229
sf쎯,	-10.423
cm쎯wynn3쎯	-10.4233
l쎯by쎯	-10.4236
gu쎯pv쎯	-10.4238
rkm쎯rw쎯	-10.4239
,ld쎯dmj1쎯	-10.4239
qgq쎯	-10.4242
lhj쎯	-10.4243
쎁쎉쎇쎅rh쎯	-10.4246
쎄.쎅	-10.4247
gmd쎯fghg쎯	-10.4248
trng쎯	-10.4249
,g쎯	-10.4256
go쎯idr쎯	-10.426
ン	-10.4261
if쎯bpf쎯	-10.4263
do쎯qc쎯	-10.4263
wa쎯fwf쎯	-10.4264
lfc쎯	-10.4266
g쎯xg쎯	-10.4266
dn쎯gajf쎯	-10.4269
tu쎯ip쎯bpf쎯	-10.4269
xk쎯ymf쎯	-10.4272
m쎯g쎯	-10.4272
nnw쎯rgv쎯	-10.4273
ipkh1쎯tl쎯gj쎯gk쎯	-10.4281
bn쎯sk쎯	-10.4283
pyj쎯tn쎯	-10.4287
hjs쎯	-10.4287
dgt1쎯um쎯	-10.429
vc쎯vc쎯	-10.4293
fc쎯rip쎯	-10.4294
pu쎯wsg0쎯	-10.4294
gmd쎯maw쎯	-10.43
쎂쎀쎀쎇	-10.43
dd쎯f쎯	-10.4308
ssss쎯cn쎯	-10.4309
cn쎯dq쎯ln쎯y쎯yq쎯	-10.431
,ym쎯	-10.431
y0쎯	-10.4311
ybf0쎯	-10.4315
ssg쎯	-10.4318
l쎯ffff5쎯	-10.4324
sh쎯wy쎯	-10.4326
tg쎯fcl쎯	-10.4328
、ith쎯	-10.4329
,gm쎯o쎯	-10.4333
y쎯xt쎯	-10.4341
r쎯oge쎯pyj쎯	-10.4347
whf쎯og쎯,	-10.4348
fcln쎯	-10.435
trs쎯trtg쎯	-10.4351
tffu쎯tffu쎯。	-10.4357
rh쎯u쎯	-10.4359
g쎯wwv쎯	-10.4362
▁쎅	-10.4362
fqb1쎯wrh2쎯	-10.4363
iv쎯tfqp쎯o쎯	-10.4363
ymc쎯ytb쎯yjj0쎯wg쎯	-10.4367
gmii0쎯	-10.4367
ipkh1쎯fwm쎯	-10.4373
----	-10.4376
qh쎯,	-10.4377
yygy쎯wx쎯anb0쎯sy쎯	-10.4378
ud쎯ny쎯	-10.4379
jaj1쎯	-10.4379
wdn쎯yv쎯	-10.4382
쎃.쎀	-10.4385
ibi쎯	-10.4387
m쎯rh쎯	-10.4388
vv쎯tu쎯	-10.4391
:쎃	-10.4392
tk쎯l쎯	-10.4392
w쎯uj쎯	-10.4394
rfc쎯sy쎯、	-10.4395
ipe쎯ya쎯	-10.4396
h쎯tak쎯	-10.4398
uqb쎯	-10.4399
sgj쎯	-10.4401
iie쎯wx쎯	-10.4404
yfj쎯jgm쎯	-10.4406
g쎯pg쎯r쎯	-10.4408
l쎯ffff5쎯dm쎯tkw쎯	-10.4409
ngk쎯if쎯	-10.4416
rhc쎯	-10.4418
ymc쎯tlf2쎯,	-10.4418
iyb쎯	-10.4419
wvn쎯	-10.442
uy쎯rh쎯	-10.4422
ith쎯ymhj쎯	-10.4424
(qn쎯rtd쎯	-10.4428
pu쎯gm쎯b쎯	-10.443
ym쎯tffu쎯ip쎯suq쎯	-10.444
rtfp쎯	-10.4441
gk쎯tr쎯	-10.4442
ca쎯ma쎯	-10.4445
sbd쎯lkmi0쎯gae쎯	-10.4445
ymhj쎯n쎯	-10.4445
쎁쎉쎅쎂rh쎯	-10.4445
h쎯mqq쎯	-10.4446
uqwm0쎯egl쎯	-10.4455
nf쎯xuj쎯	-10.4456
ftx쎯rh쎯	-10.4459
rb1쎯aqky1쎯	-10.4464
gae쎯dn쎯r쎯	-10.4465
uth쎯pe쎯	-10.4466
gm쎯pu쎯	-10.4467
tmd쎯h쎯	-10.4471
nwy쎯	-10.4472
쎁쎉쎄쎈rh쎯	-10.4474
tv쎯gkl쎯nnh쎯yn쎯	-10.448
pwat쎯fha쎯	-10.4482
qbn1쎯	-10.4482
i쎯gc쎯	-10.4485
k쎯ih쎯ip쎯	-10.4486
ukd0쎯jghm1쎯,	-10.4489
ymhj쎯ght쎯	-10.4493
fny쎯adm쎯	-10.4493
a쎯tkgg0쎯rfc쎯sy쎯	-10.4494
。vk쎯	-10.4494
abe쎯	-10.4495
ai쎯yiu쎯	-10.4501
ukn쎯j쎯	-10.4501
m1쎯	-10.4503
ynnu쎯	-10.4504
fm쎯psu쎯	-10.4506
쎁.쎆	-10.4507
wgg0쎯	-10.451
xwy쎯rf쎯	-10.451
lu쎯dd쎯	-10.4515
”;	-10.4523
pdhj쎯	-10.4524
、dd쎯	-10.4524
dmj1쎯dn쎯。	-10.4525
nn쎯	-10.4528
dg쎯tkh쎯	-10.4529
kb쎯	-10.453
uoo쎯	-10.453
ux쎯psu쎯	-10.4532
x쎯gj쎯	-10.4532
,wgj쎯	-10.4532
tuj쎯wj쎯	-10.4533
avd쎯	-10.4533
ftbt쎯xan쎯	-10.4534
▁(쎂)	-10.4541
jb쎯jh쎯r쎯	-10.4542
-쎇	-10.4546
tqq쎯n쎯	-10.4548
tfq쎯fj쎯wh쎯w쎯	-10.4548
lw쎯if쎯	-10.455
×쎁	-10.4552
쎁.쎈	-10.4554
:쎁.	-10.4555
atg쎯gk쎯ta쎯	-10.456
gq	-10.4566
cm쎯ujf쎯	-10.4567
nnh쎯tdij쎯	-10.4568
2	-10.4571
sgn쎯yy쎯	-10.4571
rnr쎯ytyh쎯	-10.4575
fghg쎯tg쎯nf쎯jgm쎯	-10.4579
g쎯sg쎯	-10.458
txg쎯g쎯	-10.4581
jfj쎯	-10.4582
쎁rh쎯	-10.4583
sagg쎯	-10.4584
qdb쎯pd쎯	-10.4586
j쎯g쎯rn쎯	-10.4586
쎈-	-10.4591
u쎯tg쎯r쎯	-10.4596
쎁쎉쎇쎃rh쎯	-10.4597
wc쎯uwl쎯	-10.4599
y쎯s쎯e쎯	-10.4599
ftg쎯han쎯	-10.4605
iss쎯	-10.4605
bnn2쎯bb쎯	-10.4607
l쎯bf쎯sm쎯fnrt쎯	-10.4609
nfh1쎯	-10.461
1쎯	-10.461
ip쎯、	-10.4613
g쎯wsg0쎯wx쎯	-10.4613
uk쎯wrh2쎯	-10.4617
vijh쎯	-10.4618
thdu쎯	-10.4619
afi쎯	-10.462
cbd쎯tha쎯	-10.462
nck쎯	-10.4621
kwyg쎯	-10.4623
nb쎯	-10.4624
wdt쎯gc쎯	-10.4624
fgh쎯g쎯	-10.4625
y쎯sm쎯	-10.4625
dyi쎯	-10.4627
ou쎯isgg0쎯	-10.4627
tmo쎯fcp쎯wf쎯	-10.4628
thp쎯ta쎯	-10.463
wv쎯tp쎯	-10.4631
oge쎯tfqp쎯	-10.4633
wyp쎯hh쎯	-10.4634
rmc쎯uqwm0쎯ftj쎯	-10.4639
gqjo0쎯fghg쎯	-10.464
v쎯udp쎯	-10.4646
,gm쎯e쎯	-10.4647
rc쎯tmdf1쎯	-10.4647
쎁.쎄	-10.4649
rd쎯	-10.4651
쎁쎉쎇쎁rh쎯	-10.4653
ybf0쎯e쎯	-10.4657
tp쎯lpdk0쎯	-10.4657
ukq쎯	-10.4659
itx쎯h쎯	-10.4661
rry쎯	-10.4663
ovt쎯fgh쎯	-10.4667
and쎯dd쎯	-10.4669
nk쎯qkq쎯	-10.4672
ooo쎯mmm쎯	-10.4673
fnrt쎯rn쎯	-10.468
aww쎯	-10.4683
,trf쎯klj쎯j쎯	-10.4687
pei쎯yne쎯	-10.4688
pg쎯yq쎯	-10.4694
fl쎯wt쎯	-10.4694
xte쎯ght쎯ywf쎯	-10.4695
pe쎯lfq쎯	-10.47
tx쎯fg쎯uqw쎯	-10.4702
,ip쎯suq쎯	-10.4709
jo쎯aft쎯	-10.471
:쎄	-10.471
dpr쎯	-10.4711
i쎯gmf쎯	-10.4712
tv쎯gkl쎯nnh쎯yn쎯、	-10.4713
xox쎯	-10.4717
,dr쎯qk쎯	-10.4717
qvb쎯	-10.4718
tmg1쎯tg쎯tr쎯	-10.4718
uxl쎯	-10.4719
whf쎯og쎯pe쎯	-10.4721
thd쎯qd쎯sf쎯	-10.4727
。rg쎯	-10.4728
tp쎯gj쎯w쎯km쎯	-10.4732
쎅쎁쎂	-10.4735
o쎯y쎯s쎯	-10.4736
sg쎯tu쎯ip쎯dl쎯	-10.4736
rn쎯d쎯	-10.4738
ip쎯tu쎯gkp쎯udi쎯w쎯	-10.474
e쎯uqt쎯r쎯	-10.4742
f쎯hko쎯	-10.4745
pfq쎯dn쎯b쎯	-10.4747
ihcv쎯	-10.4747
,ipkh1쎯	-10.4747
n0쎯	-10.4748
jn쎯jyie쎯《	-10.4749
쎄)	-10.4751
set쎯	-10.4752
ige쎯jsr쎯	-10.4752
em쎯mww쎯	-10.4756
rmn쎯tpi쎯	-10.4758
fqw쎯	-10.4758
uqwv쎯	-10.4761
qev쎯yt쎯pl쎯	-10.4762
pfq쎯gkih쎯r쎯	-10.4762
egc쎯w쎯	-10.4763
//	-10.4763
mf쎯u쎯	-10.4765
쎁쎉쎅쎄rh쎯	-10.4767
reh쎯	-10.477
std쎯ivw쎯	-10.477
vvv쎯qt쎯	-10.4772
wdn쎯te쎯ywx쎯yygy쎯	-10.4773
xev쎯	-10.4776
ggg1쎯l쎯	-10.4778
imk쎯itx쎯	-10.4779
fhv쎯fha쎯	-10.4779
qtny1쎯	-10.478
fku쎯ep쎯	-10.4782
k쎯l쎯dgh쎯wa쎯	-10.4786
ry쎯	-10.4787
ipk쎯xeg쎯dn쎯km쎯、	-10.4788
iuw쎯	-10.4788
(dr쎯	-10.4789
쎁쎉쎆쎈rh쎯	-10.479
trf쎯pg쎯	-10.479
gdj쎯	-10.479
tg쎯u쎯ad쎯f쎯	-10.479
k쎯ny쎯、	-10.4793
,ccc쎯tq쎯	-10.4803
쎅쎀쎀쎀	-10.4807
fpb쎯	-10.4809
ipl쎯	-10.481
itx쎯mdfj쎯	-10.4811
tg쎯gj쎯	-10.4814
jge쎯	-10.4816
trfg쎯myd쎯	-10.4817
khgp0쎯wfny0쎯	-10.4817
rpwn1쎯	-10.4817
jn쎯fcl쎯	-10.482
pe쎯,	-10.4821
wtl쎯pd쎯	-10.4825
▁k쎯l쎯	-10.4828
bib쎯	-10.483
쎁쎉쎄쎉rh쎯	-10.483
tjf쎯avd쎯	-10.4834
rvyo쎯ep쎯	-10.4835
ffff5쎯ssss쎯	-10.4835
rbcc쎯	-10.4837
f쎯fakg1쎯	-10.4843
uq쎯cep쎯dd쎯ip쎯	-10.4847
kkd쎯、	-10.4849
egc쎯w쎯,	-10.4851
vj쎯	-10.4852
ymf쎯dga쎯	-10.4854
uj쎯r쎯	-10.4857
y쎯wtf쎯,	-10.4858
。gm쎯o쎯	-10.4858
ym쎯mmm쎯	-10.4859
dqe쎯wk쎯	-10.486
pujn1쎯	-10.4862
ssss쎯sft쎯	-10.4862
gk쎯,	-10.4864
dy쎯bj쎯ce쎯	-10.4865
。yvh쎯	-10.4866
rawk쎯sgn쎯	-10.4867
rcp쎯lkd쎯	-10.4867
쎀쎄	-10.4868
y쎯ipg쎯	-10.4869
ua쎯d쎯	-10.4869
dd쎯sov쎯	-10.487
(ak쎯	-10.487
pynn0쎯wyq쎯	-10.4873
ipg쎯dwg쎯	-10.4873
bu쎯pfjm1쎯	-10.4874
iwgj1쎯	-10.4874
r쎯m쎯jf쎯,	-10.4877
"="	-10.4878
ynky2쎯tj쎯	-10.4879
、amw쎯	-10.4884
afs쎯g쎯	-10.4884
tx쎯g쎯nm쎯	-10.4885
rwyg쎯bm쎯r쎯	-10.489
vfh쎯	-10.4892
쎁/쎂	-10.4894
mq쎯nge쎯	-10.4894
k쎯。	-10.4895
yfj쎯syp쎯	-10.4896
j1쎯	-10.4896
is쎯	-10.4896
txg쎯g쎯wh쎯	-10.4902
gh쎯lpdk0쎯	-10.4903
、ih쎯	-10.4905
udi쎯uk쎯	-10.4906
쎃쎂쎀	-10.4906
a쎯wf쎯	-10.491
v쎯fhn쎯	-10.4912
mf쎯x쎯	-10.4914
pu쎯wgq쎯	-10.4916
m쎯ip쎯	-10.4916
쎁쎉쎆쎆rh쎯	-10.4919
qt쎯bb쎯	-10.4922
khgm4쎯ytt쎯	-10.4923
iyc쎯wfny0쎯	-10.4924
,p쎯tkh쎯	-10.4926
uwyc0쎯fcb쎯	-10.4926
thp쎯wjh쎯	-10.4928
쎁쎉쎆쎉rh쎯	-10.4929
sff0쎯ss쎯	-10.493
xh쎯ty쎯	-10.493
。gm쎯	-10.493
。l쎯ffff5쎯dm쎯tkw쎯	-10.493
kqr쎯	-10.4932
fjh0쎯tr쎯	-10.4932
fku쎯ndj쎯	-10.4936
dw0쎯to쎯	-10.4938
usr쎯qgu쎯	-10.4941
f쎯h쎯	-10.4941
ghd0쎯dqe쎯	-10.4942
igd쎯	-10.4944
gw쎯gr쎯	-10.4944
쎂쎅쎆	-10.4946
xrc쎯	-10.4949
dq쎯adwr쎯	-10.495
djb쎯ya쎯	-10.4953
wa쎯ytm쎯	-10.4955
mmq쎯wug1쎯	-10.4956
fge쎯jtyq1쎯wf쎯	-10.4957
ykk쎯	-10.4958
ps쎯ihc쎯ymhj쎯	-10.4963
wv쎯aet0쎯	-10.4964
ta쎯adwe1쎯ww쎯gk쎯	-10.4965
-쎉	-10.4965
fhn쎯yq쎯	-10.4969
kkfb1쎯	-10.497
쎂쎀쎀쎆	-10.4971
h쎯xe쎯	-10.4971
▁bm쎯th쎯	-10.4974
ssu쎯	-10.4976
wat쎯	-10.4983
r쎯ad쎯dbm쎯h쎯,	-10.4984
ai쎯kht쎯	-10.4984
ll쎯ic쎯ytt쎯	-10.4985
cd쎯lk쎯a쎯wt쎯	-10.4986
xf쎯gki쎯	-10.4987
g쎯k쎯	-10.4989
opw쎯	-10.4994
fm쎯kht쎯	-10.4994
adw쎯pu쎯	-10.4995
xj쎯	-10.4998
、sb쎯	-10.5001
rvyo쎯nge쎯	-10.5001
qtfj1쎯mww쎯	-10.5007
sg	-10.5007
gmww쎯dd쎯	-10.5009
wwgj0쎯	-10.5014
ggg1쎯bb쎯	-10.5015
,j쎯g쎯rn쎯	-10.5016
쎁쎉쎅쎃rh쎯	-10.5019
fny쎯iy쎯gf쎯	-10.502
sm쎯,	-10.5021
dmq쎯	-10.5023
ov쎯	-10.5026
f쎯gae쎯	-10.5026
쎁쎉쎅쎁rh쎯	-10.5026
jghm1쎯sft쎯	-10.5026
cep쎯mq쎯	-10.5027
xtu쎯gf쎯	-10.5027
aynr쎯	-10.5028
nh쎯xjm쎯	-10.503
etn쎯gcf쎯	-10.5031
sf쎯w쎯。	-10.5032
wg쎯tmd쎯	-10.5034
wfny0쎯bd쎯	-10.5034
ln쎯shn쎯ght쎯ick쎯	-10.5035
l쎯uthp쎯	-10.5035
e쎯jf쎯	-10.5036
ggi쎯ab쎯	-10.5041
fm쎯jj쎯	-10.5041
dd쎯gf쎯	-10.5043
tey쎯gd쎯	-10.5043
쎅rh쎯	-10.5043
rawk쎯	-10.5045
fj쎯tkgg0쎯	-10.505
xyc쎯ick쎯	-10.5051
w쎯rnb쎯	-10.5053
uwb쎯	-10.5054
hak쎯	-10.5055
khgp1쎯	-10.5055
waw쎯yid쎯um쎯	-10.5055
ql쎯	-10.5056
fwf쎯	-10.5057
mhm쎯	-10.5059
qr쎯kht쎯nnk쎯	-10.506
ugk쎯shi쎯	-10.506
atgq쎯	-10.5061
kht쎯xg쎯	-10.5062
mhu쎯	-10.5065
쎁쎉쎇쎆rh쎯	-10.5067
▁-	-10.5072
rym쎯	-10.5073
tffu쎯w쎯	-10.5076
쎁쎉쎆쎅rh쎯	-10.5078
w쎯。k쎯aw쎯ipk쎯km쎯。	-10.508
lv쎯uthp쎯	-10.5087
yy쎯yyy쎯	-10.5091
usr쎯an쎯xn쎯	-10.5094
ger쎯	-10.5097
sh쎯xo쎯	-10.51
k쎯wxf쎯atd쎯ip쎯wf쎯	-10.5101
jjjj쎯pl쎯	-10.5102
dr쎯go쎯	-10.5105
fug쎯fe쎯	-10.5106
dg쎯qe쎯	-10.5107
wtp쎯	-10.5118
rnnw쎯	-10.512
rvy쎯if쎯	-10.5122
wsg0쎯tkw쎯	-10.5123
,sve쎯rnd1쎯	-10.5124
and쎯dd쎯r쎯	-10.5124
rpwi쎯	-10.5127
gmww쎯w쎯	-10.5135
skf쎯	-10.5135
bm쎯tld1쎯	-10.5135
yaop쎯	-10.5135
。psu쎯	-10.5138
rvh쎯	-10.5138
gd쎯wgkq0쎯	-10.5146
fny쎯og쎯rfc쎯sy쎯	-10.5148
xf쎯vq쎯	-10.515
,j쎯k쎯l쎯	-10.5154
tdjh1쎯	-10.5154
atdp쎯	-10.5159
gkl쎯nnk쎯ta쎯	-10.5169
oja쎯oth쎯	-10.5171
ym쎯nfc쎯	-10.5175
mb쎯ght쎯	-10.5177
lk쎯nnw쎯	-10.5178
qfhw0쎯ght쎯ywf쎯	-10.5178
j쎯q쎯l쎯	-10.5182
sm쎯ysi쎯	-10.5184
ntg쎯、	-10.5185
usr쎯rfc쎯sy쎯	-10.5188
fnrt쎯f쎯	-10.5188
es쎯et쎯b쎯	-10.519
xtf쎯	-10.5195
ga쎯ynk쎯	-10.5197
yu쎯:“	-10.5198
kv쎯	-10.5198
rgf쎯rg쎯	-10.5199
쎂.쎄	-10.52
nh쎯mqc쎯	-10.52
fjt쎯btg쎯	-10.5203
ic쎯pb쎯	-10.5206
iw쎯fhb쎯	-10.5206
wxf쎯wtd쎯	-10.5207
icd쎯	-10.521
쎁쎀쎀dq쎯	-10.521
kd쎯tjh쎯	-10.5211
et쎯wt쎯	-10.5214
(,)	-10.5217
lkc쎯	-10.5217
nnk쎯nnk쎯ta쎯	-10.5218
txi쎯xyc쎯,	-10.5219
oyvk0쎯nii1쎯ugm쎯	-10.522
rc쎯tjt쎯	-10.522
lk쎯gkip2쎯	-10.5221
xa쎯pl쎯	-10.5222
dm쎯tkw쎯쎁	-10.5223
yne쎯qh쎯	-10.5224
쎁쎉쎆쎄rh쎯	-10.5226
vpe쎯	-10.5227
um쎯wf쎯	-10.5228
l쎯e쎯	-10.5228
lh쎯mfk쎯	-10.5229
tjtl쎯gfi쎯	-10.5231
pye쎯l쎯	-10.5231
iyj쎯fm쎯ymhj쎯	-10.5238
gfq쎯hw쎯	-10.5238
jhf1쎯	-10.5239
jn쎯uh쎯	-10.5242
쎁쎃쎀	-10.5242
,etn쎯	-10.5245
tfq쎯rg쎯d쎯	-10.5246
ud쎯uft쎯	-10.525
tr쎯kkk쎯	-10.5252
vfi쎯	-10.5258
yngk0쎯ian0쎯	-10.5258
ymf쎯ty쎯	-10.5259
gkl쎯y쎯wtf쎯tv쎯km쎯	-10.5261
vnx쎯	-10.5262
jb쎯wqa쎯	-10.5264
tr	-10.5265
vkf1쎯ga쎯	-10.5265
y쎯tp쎯uk쎯uyh쎯	-10.5269
adef0쎯aynr쎯	-10.5274
쎁쎀-	-10.5275
uxh쎯bb쎯	-10.5277
ii쎯wv쎯	-10.5281
mq쎯kfi쎯	-10.5281
ige쎯usr쎯	-10.5282
lg쎯tkgg0쎯	-10.5286
see쎯	-10.5287
pu쎯jf쎯	-10.5287
wgqt쎯	-10.5287
djdl2쎯	-10.5289
g쎯uthp쎯	-10.529
r쎯mw쎯pww쎯	-10.5297
qnnk1쎯udyj쎯	-10.5297
쎀쎂	-10.53
vfb쎯wh쎯	-10.5302
qh쎯ygk쎯	-10.5306
kkkk0쎯kfi쎯	-10.5309
wc쎯jfd쎯	-10.5313
wdn쎯fha쎯	-10.5319
sym쎯	-10.5322
rhy쎯	-10.5324
es쎯wys쎯	-10.5328
쎁쎉쎄쎇rh쎯	-10.5328
wx쎯uv쎯kkk쎯	-10.5329
쎂쎀쎁쎃rh쎯	-10.5331
iann쎯	-10.5333
k쎯atd쎯ax쎯	-10.5336
bu쎯xtk쎯	-10.5336
i쎯et쎯	-10.5337
wt쎯ma쎯	-10.5338
tx쎯wty쎯	-10.5339
pn쎯yy쎯	-10.5339
dgkn쎯gc쎯	-10.534
dgkn쎯nge쎯	-10.5342
usr쎯u쎯kkk쎯	-10.5343
wfny0쎯fcl쎯	-10.5344
bu쎯dtb쎯	-10.5344
쎀.쎆	-10.5348
iyjh쎯jtyq1쎯	-10.5349
sghg1쎯kht쎯	-10.5349
s쎯gxi쎯	-10.5352
ipk쎯xeg쎯xkw쎯	-10.5354
ll쎯,	-10.5356
apk쎯og쎯	-10.5357
src쎯fnw쎯	-10.5358
ftjb쎯ce쎯	-10.5359
lsh쎯	-10.5359
ny쎯eyf쎯	-10.5361
쎂쎀쎁쎂	-10.5363
tdg1쎯wy쎯	-10.5368
쎁쎀dq쎯	-10.5369
bm쎯fnrt쎯	-10.5381
rgf쎯pe쎯	-10.5382
itm쎯	-10.5384
y쎯lw쎯	-10.5384
g쎯ffi쎯	-10.5385
о	-10.5386
rb1쎯xqa쎯	-10.5386
fgh쎯wffg쎯	-10.5389
%。	-10.5391
c쎯h쎯r쎯	-10.5391
aqg쎯aqr쎯isgg0쎯	-10.5397
irr쎯ia쎯dd쎯ip쎯	-10.5397
,gf쎯j쎯	-10.5398
jhk1쎯rb1쎯	-10.54
rke쎯	-10.5401
yw쎯	-10.5403
gkl쎯y쎯wtf쎯、	-10.5403
e쎯ud쎯uk쎯uyh쎯	-10.5404
vfhp1쎯tam쎯tr쎯	-10.5405
wxf쎯dht쎯	-10.5406
쎃)	-10.5409
we쎯qd쎯	-10.541
쎂쎀쎁쎁	-10.541
ii쎯dm쎯	-10.5411
fu쎯u쎯	-10.5413
et쎯wtp쎯	-10.5414
idr쎯gf쎯	-10.5417
”,“	-10.542
yny0쎯u쎯	-10.542
ai쎯fm쎯gog쎯	-10.5424
gu쎯ck쎯。	-10.5424
ipk쎯r쎯	-10.5424
sc쎯tjh쎯	-10.5429
xa쎯qh쎯	-10.5432
쎂쎀쎀쎉	-10.5436
pe쎯fl쎯wf쎯wf쎯km쎯	-10.5439
rfc쎯sy쎯t쎯	-10.5442
xnf쎯xq쎯	-10.5442
ral쎯syp쎯:	-10.5443
쎁eee쎯	-10.5445
dif쎯f쎯	-10.5449
x쎯》	-10.545
tfj1쎯	-10.5453
쎁쎀쎀%	-10.5455
nf쎯tey쎯	-10.5456
nwgk쎯	-10.5457
riv쎯	-10.5457
bct쎯wys쎯	-10.5457
yxl쎯	-10.5467
afw쎯	-10.5468
,rg쎯go쎯	-10.5469
〔	-10.5469
。m쎯jf쎯,	-10.547
j쎯g쎯qk쎯	-10.547
y쎯w쎯	-10.5471
px쎯j쎯	-10.5474
da쎯dk쎯,	-10.5479
thg0쎯,	-10.5479
txgi2쎯aps쎯	-10.5482
txg쎯jjjj쎯	-10.5483
,g쎯wh쎯	-10.5485
ujfj쎯wug1쎯、	-10.5486
gklp쎯	-10.5489
쎂쎄쎀	-10.549
qq쎯o쎯	-10.5491
。hx쎯qh쎯,	-10.5492
ynjh0쎯	-10.5495
쎁쎉쎇쎄rh쎯	-10.5496
h쎯dm쎯	-10.5496
▁rn쎯ntk쎯	-10.5498
,gm쎯d쎯	-10.5502
rjg0쎯wk쎯	-10.5502
쎁쎂쎀쎀	-10.5502
,j쎯g쎯tkh쎯	-10.5504
》k쎯r쎯	-10.5504
,ccc쎯qk쎯	-10.5505
qs쎯	-10.5505
。vk쎯js쎯	-10.5505
a쎯uqwm0쎯	-10.5507
pu쎯nu쎯	-10.551
thc쎯	-10.5511
gqg1쎯utd쎯w쎯	-10.5517
uk쎯,	-10.5527
bu쎯wgk쎯l쎯	-10.5528
ga쎯og쎯	-10.553
pg쎯rmhj쎯	-10.5532
og쎯wtu쎯	-10.5532
mw쎯tu쎯	-10.5535
,o쎯b쎯	-10.5536
jjj쎯wsg0쎯	-10.5537
ral쎯pgn쎯	-10.5539
ybj쎯	-10.5541
sagg쎯lks쎯	-10.5541
hk쎯f쎯	-10.5547
ii쎯u쎯	-10.5548
sk쎯wv쎯o쎯	-10.5548
ym쎯tffu쎯bpf쎯suq쎯	-10.5548
ymhj쎯fnrt쎯r쎯	-10.5549
fny쎯bk쎯	-10.555
knx쎯	-10.555
el쎯	-10.5561
gip쎯dr쎯	-10.5564
nf쎯jgm쎯	-10.5565
wg쎯yy쎯wug1쎯	-10.5566
fny쎯og쎯tg쎯u쎯	-10.5568
▁isgg0쎯yhk쎯	-10.557
쎀.쎄	-10.5571
쎁쎉쎆쎁rh쎯	-10.5573
af	-10.5575
dd쎯jg쎯r쎯	-10.5576
ukd0쎯jghm1쎯r쎯	-10.5578
ftbt쎯dga쎯	-10.558
x쎯iyj쎯uqt쎯uwl쎯	-10.5581
a쎯um쎯	-10.559
qdm쎯eaj쎯	-10.5591
sqq쎯	-10.5603
wg쎯thd쎯fcl쎯	-10.5604
h0쎯	-10.5604
nd쎯tv쎯wf쎯	-10.5605
hxx쎯qc쎯	-10.5609
nnk쎯gkl쎯nnk쎯ta쎯	-10.5611
fg쎯w쎯	-10.5614
mw쎯,	-10.5614
h쎯uk쎯	-10.5616
pt쎯yne쎯rj쎯waw쎯	-10.562
xnn0쎯	-10.5622
▁(쎃)	-10.5624
gef쎯itx쎯	-10.5625
fghg쎯tg쎯nf쎯jgm쎯,	-10.5626
pt쎯w쎯	-10.5626
ubk0쎯uqt쎯	-10.5627
gj쎯wynn3쎯,	-10.5628
l쎯pe쎯tgj쎯hko쎯	-10.5632
wk쎯ijl쎯	-10.5632
wkh쎯	-10.5634
dwf쎯fmud쎯	-10.5634
wx쎯r쎯	-10.5635
,gcft2쎯lt쎯gf쎯	-10.5638
aq쎯、	-10.5639
ija쎯dmh쎯	-10.564
rl쎯	-10.564
/쎂	-10.5642
fm쎯itx쎯	-10.5642
xnf쎯	-10.5643
trs쎯trtg쎯。	-10.5647
toc쎯yq쎯	-10.5649
ght쎯ywf쎯rn쎯d쎯f쎯	-10.5649
tffu쎯yy쎯dm쎯r쎯	-10.5651
puv쎯xe쎯k쎯ip쎯	-10.5653
prh쎯	-10.5658
tdtv쎯	-10.5659
txg쎯uqw쎯	-10.5661
。dl쎯wtf쎯	-10.5661
eb쎯tl쎯gf쎯	-10.5661
it쎯ovt쎯	-10.5661
xad쎯	-10.5662
lfof5쎯sghg1쎯sks쎯	-10.5663
tgj쎯tjt쎯	-10.5666
cwg쎯	-10.5666
ll쎯w쎯	-10.5666
qq쎯rh쎯r쎯	-10.5668
swgu쎯	-10.5669
wtf쎯ujn쎯	-10.567
r쎯s쎯fiy쎯	-10.5672
cwg쎯nh쎯	-10.5673
쎂쎄ih쎯jf쎯	-10.5674
sghg1쎯pv쎯ymhj쎯	-10.5676
v쎯rnbm쎯	-10.5676
vvv쎯bynw0쎯	-10.5676
/쎃	-10.5678
bde쎯sm쎯	-10.5681
bm쎯wtf쎯	-10.5681
и	-10.5682
ep쎯l쎯	-10.5682
syf쎯	-10.5684
쎄.	-10.5684
jjjj쎯uwl쎯	-10.5685
tx쎯dg쎯nm쎯	-10.5685
ag쎯rh쎯	-10.5688
vcag쎯	-10.5689
쎁쎉쎃쎇rh쎯	-10.5689
。rnd1쎯	-10.5694
xq쎯쎁	-10.5694
wjjg쎯nf쎯	-10.5696
xy쎯	-10.57
(쎁	-10.5701
iwf쎯lw쎯r쎯	-10.5701
vcy1쎯	-10.5703
,m쎯rh쎯	-10.5707
tg쎯u쎯qie쎯wyk쎯	-10.5711
r쎯ud쎯txi쎯	-10.5712
ugdu쎯ip쎯	-10.5712
imj쎯xwf쎯	-10.5717
uk쎯。	-10.5719
dg쎯l쎯	-10.5719
ntt쎯tf쎯	-10.5721
fwn쎯	-10.5722
rgs쎯	-10.5722
wyp쎯lg쎯fnrt쎯	-10.5723
dht쎯tb쎯	-10.5725
dga쎯pwv쎯dn쎯js쎯	-10.5725
tr쎯tkh쎯	-10.5728
jf쎯ynt쎯	-10.5732
o쎯k쎯l쎯	-10.5734
mmm쎯eyni쎯	-10.5735
sghg1쎯ux쎯uk쎯	-10.5737
go쎯yu쎯	-10.5738
ttt쎯	-10.5739
。ld쎯hx쎯,	-10.574
je쎯fje쎯	-10.5741
rqci0쎯lt쎯	-10.5741
rj쎯bm쎯b쎯	-10.5741
wxf쎯fm쎯	-10.5741
ux쎯kht쎯	-10.5742
r쎯trf쎯hko쎯	-10.5742
g쎯gd쎯	-10.5743
cq쎯	-10.5745
et쎯ii쎯	-10.5745
kkdu쎯	-10.5746
ai쎯fm쎯uk쎯	-10.5751
adnt1쎯nnh쎯	-10.5751
ijl쎯ytyh쎯ymhj쎯	-10.5756
rnx쎯	-10.5757
wtf쎯k쎯aw쎯	-10.5757
k쎯l쎯gl쎯	-10.5759
tjf쎯img쎯	-10.576
irr쎯	-10.5761
?”	-10.5761
。hhhh쎯ue쎯,	-10.5763
k쎯gxgu쎯	-10.5766
qna쎯	-10.577
rvk쎯bmg쎯	-10.5776
≥	-10.5777
gh쎯bt쎯	-10.5778
aq쎯mw쎯	-10.5778
nngt쎯	-10.5782
rpwn1쎯rnbm쎯	-10.5783
lfo쎯rrr쎯	-10.5784
ta쎯iit쎯ymhj쎯	-10.5785
sgx쎯	-10.579
r쎯wt쎯kkk쎯	-10.5791
dmj1쎯dn쎯r쎯	-10.5794
jn쎯sux쎯	-10.5795
rjq쎯	-10.5796
l쎯n쎯	-10.5803
r쎯ip쎯tg쎯	-10.5804
cm쎯hko쎯	-10.5807
twf쎯kgn쎯	-10.5808
jo쎯fi쎯nua쎯	-10.5811
gkm쎯uqwm0쎯	-10.5811
yy쎯aa쎯:	-10.5815
twgi쎯xq쎯	-10.5818
gu쎯ck쎯,	-10.5819
whf쎯gk쎯og쎯	-10.582
sg쎯w쎯	-10.5822
tonu쎯	-10.5822
geht쎯	-10.5825
rxj쎯fm쎯	-10.5826
gwy1쎯	-10.5828
tm쎯h쎯	-10.5829
쎁쎉쎄쎆rh쎯	-10.5833
oge쎯vo쎯	-10.5836
tp쎯gj쎯,	-10.5836
aw쎯u쎯ipk쎯km쎯	-10.5837
pei쎯u쎯kkk쎯	-10.5847
wt쎯kkk쎯《	-10.5848
uthp쎯ftbt쎯	-10.585
uni0쎯	-10.5853
mq쎯iq쎯	-10.5853
bd쎯ruv쎯	-10.5855
xqc쎯xxe쎯	-10.5858
ii쎯th쎯gj쎯	-10.586
dd쎯qq쎯ovt쎯	-10.5864
nnh쎯k쎯	-10.5864
nx쎯gog쎯	-10.5866
ia쎯egc쎯	-10.5868
wvt쎯adwr쎯uff쎯	-10.5868
rfc쎯if쎯	-10.5869
i쎯wjg쎯	-10.5869
oge쎯ya쎯	-10.5871
,xxr쎯	-10.5873
riu쎯ytyh쎯	-10.5875
e쎯bv쎯wc쎯ngk쎯、	-10.5875
쎀～	-10.5875
tkw쎯lx쎯	-10.5876
ghd0쎯j쎯	-10.5877
ywe쎯	-10.588
pp쎯uj쎯,	-10.5881
tr쎯og쎯tp쎯gj쎯	-10.5887
iq쎯tel쎯	-10.5889
ue쎯fj쎯	-10.5891
teg1쎯wtfm1쎯	-10.5892
,p쎯hxf쎯	-10.5898
sg쎯nnh쎯j쎯	-10.5898
us쎯thd쎯	-10.5899
qnj쎯	-10.59
sghg1쎯fm쎯uk쎯	-10.5901
uu쎯vcb쎯	-10.5907
rmhj쎯uwyc0쎯	-10.5909
wbj쎯vck쎯w쎯	-10.5909
ytyh쎯ymhj쎯	-10.5911
ack쎯	-10.5913
pdx쎯	-10.5919
ipkh1쎯mqb쎯r쎯	-10.592
rt쎯mm쎯	-10.5922
xtd쎯	-10.5928
iw쎯vfhp1쎯	-10.5928
ywwf쎯	-10.5929
y쎯qe쎯	-10.5929
wtf쎯bk쎯	-10.5929
,ul쎯wtf쎯	-10.5929
xeg쎯xkw쎯r쎯	-10.593
j쎯ugdu쎯l쎯	-10.5931
wb쎯d쎯	-10.5931
py	-10.5935
ukn쎯gj쎯	-10.5935
tt쎯qk쎯	-10.5936
pw쎯k쎯	-10.5945
ihic쎯	-10.5949
o쎯:	-10.595
쎁쎄쎀	-10.595
(wynk쎯	-10.595
fj쎯at쎯	-10.5952
lge쎯	-10.5953
pwd쎯bm쎯am쎯fmud쎯	-10.5955
mmm쎯qfhw0쎯	-10.5957
ii쎯jjj쎯	-10.596
nfif쎯	-10.5961
wt쎯b쎯	-10.5964
쎂.쎂	-10.5966
gv쎯bb쎯	-10.5966
jhf1쎯bwg쎯	-10.5967
qug2쎯	-10.5969
xxf쎯og쎯tg쎯	-10.5973
gh쎯ntk쎯	-10.5974
pei쎯n쎯nh쎯ty쎯y쎯s쎯	-10.5975
dn쎯kkk쎯	-10.5977
iq쎯jn쎯	-10.598
yvw쎯	-10.5981
gh쎯uk쎯	-10.5983
ukqb0쎯	-10.5984
utu쎯uce쎯	-10.5989
ym쎯kkk쎯rfm쎯	-10.599
qtw쎯	-10.5991
쎂kgn쎯	-10.5996
ywfw쎯	-10.5999
wyf0쎯dhb쎯	-10.6001
wbj쎯wt쎯r쎯	-10.6003
wsg0쎯mw쎯	-10.6003
awx쎯tg쎯	-10.6005
thfn쎯tc쎯	-10.6006
efc쎯	-10.6008
,rxj쎯	-10.6011
o쎯wfh1쎯tc쎯	-10.6012
tfqp쎯rt쎯	-10.6013
dyt쎯mmm쎯	-10.6015
hich쎯	-10.6016
쎉wh쎯	-10.6018
ipgg0쎯	-10.6018
wdn쎯rvyl쎯,	-10.602
g쎯cf쎯	-10.6023
rw쎯fcu1쎯	-10.6024
ovt쎯dj쎯	-10.6028
iie쎯thn쎯	-10.603
wxf쎯ux쎯	-10.603
pei쎯ax쎯	-10.603
ruv쎯kkkk0쎯:	-10.6033
ndj쎯lft쎯	-10.6036
tjt쎯jgf쎯dd쎯ip쎯	-10.6036
ipwk0쎯iyw쎯	-10.6037
쎁.쎃	-10.6037
odm쎯	-10.604
sg쎯udh쎯	-10.6043
lkd쎯nh쎯	-10.6045
ddm쎯fghg쎯dga쎯	-10.6045
쎂쎀쎀쎅	-10.6049
nc쎯ulg쎯	-10.6049
wyq쎯aa쎯	-10.6049
jgm쎯aib쎯ip쎯suq쎯	-10.6054
r쎯fdm쎯fiy쎯	-10.6055
ugdu쎯vvv쎯	-10.6055
dgt1쎯pe쎯	-10.6056
,qq쎯	-10.6057
tg쎯itd쎯r쎯	-10.6059
ihc쎯uff쎯	-10.6065
tfqp쎯iwf쎯	-10.6066
rtt쎯	-10.6067
....	-10.607
ym쎯xe쎯ftbt쎯jgm쎯	-10.607
、xt쎯	-10.6072
aq쎯,	-10.6076
t쎯v쎯nae쎯	-10.6078
qh쎯uq쎯	-10.6078
puh쎯wi쎯	-10.6081
bg쎯tg쎯uk쎯	-10.6082
tg쎯itd쎯d쎯	-10.6082
lkc쎯ckq쎯	-10.6085
ftg쎯tg쎯	-10.6087
ftbt쎯ipkf0쎯	-10.6087
쎃쎆쎀	-10.6088
c쎯rg쎯,	-10.6093
wycm0쎯tfq쎯r쎯	-10.6094
k쎯tffu쎯	-10.6094
qlh0쎯	-10.6096
jjjj쎯rb1쎯	-10.6096
swgj1쎯	-10.6097
vfhp1쎯l쎯	-10.6101
xl쎯ab쎯	-10.6101
jm쎯gc쎯	-10.6105
y쎯s쎯et쎯gf쎯	-10.6105
kha쎯yb쎯sf쎯tv쎯wf쎯	-10.6105
wtp쎯tca쎯	-10.6105
pv쎯wg쎯tg쎯u쎯	-10.6106
。m쎯jf쎯	-10.6107
ipq쎯bj쎯ymhj쎯	-10.6107
hgm쎯	-10.6108
g쎯vtk쎯	-10.6111
ipmq쎯tj쎯	-10.6118
ukn쎯rmc쎯uqwm0쎯	-10.6119
ntt쎯	-10.6122
eb쎯tl쎯r쎯	-10.6125
aq쎯ght쎯ywf쎯	-10.6129
iat1쎯	-10.6133
r쎯qk쎯pb쎯	-10.6134
oge쎯pyj쎯yygy쎯je쎯	-10.6135
,wt쎯o쎯	-10.6135
wdk쎯	-10.6139
dg쎯fgh쎯	-10.6139
rmhj쎯ax쎯	-10.614
pwtf0쎯	-10.6144
dd쎯fw쎯	-10.6144
r쎯yid쎯et쎯	-10.6147
bn쎯i쎯	-10.6147
vt쎯dx쎯	-10.6148
gu쎯tf쎯	-10.6149
쎁쎀rh쎯	-10.6151
lw쎯wc쎯pgc쎯、	-10.6154
icd쎯tep쎯	-10.6161
,j쎯rxj쎯	-10.6165
。p쎯hxf쎯	-10.617
jf쎯adwe1쎯r쎯	-10.6176
gt쎯grq쎯	-10.6179
쎄쎀쎀쎀	-10.618
tv쎯pgj쎯wfny0쎯uk쎯	-10.6182
puhc쎯rep쎯cbj쎯	-10.6184
pde쎯	-10.6189
pdx쎯tr쎯	-10.6189
wv쎯sfc쎯	-10.6191
m쎯tf쎯	-10.6192
、rrr쎯	-10.6193
wdn쎯ugdu쎯,	-10.6196
xa쎯yta쎯	-10.6197
lk쎯h쎯	-10.6198
ymc쎯d쎯	-10.6198
wynm0쎯	-10.6199
쎁쎀wh쎯	-10.6201
ibi쎯ugl쎯	-10.6201
tg쎯tr쎯ip쎯	-10.6201
iyc쎯fakg1쎯	-10.6203
nae쎯gm쎯	-10.6204
rhk쎯ve쎯	-10.6204
pn쎯km쎯	-10.6206
xj쎯d쎯	-10.6208
,j쎯g쎯pe쎯	-10.6211
tq쎯pp쎯o쎯	-10.6214
pp쎯xte쎯	-10.6214
nnh쎯if쎯pe쎯	-10.6215
mhk쎯	-10.6215
l쎯gl쎯	-10.6216
pt쎯yne쎯r쎯	-10.6218
dm쎯src쎯	-10.6219
pe쎯xte쎯	-10.6221
,dl쎯wtf쎯	-10.6222
쎄쎈쎀	-10.6222
–	-10.6224
fn쎯》	-10.6228
iyc쎯wsg0쎯	-10.6231
wgep쎯	-10.6235
iytb0쎯iyni0쎯	-10.6237
gkp쎯fcl쎯	-10.6241
vfhp1쎯ymc쎯r쎯	-10.6242
ftbt쎯yce쎯ip쎯bpf쎯	-10.6242
x쎯cwg쎯,	-10.6242
rs쎯fmk쎯	-10.6243
k쎯md쎯ipk쎯suq쎯	-10.6245
eeqy쎯	-10.6246
ujn쎯qh쎯	-10.6247
-쎀쎁	-10.6249
uxhp쎯	-10.6251
bn쎯wf쎯	-10.6252
wty쎯rh쎯	-10.6252
tffu쎯)	-10.6259
rj쎯fi쎯	-10.6259
wtc쎯	-10.6259
fwm쎯aib쎯wx쎯	-10.626
qnw쎯	-10.6262
j쎯g쎯wug1쎯	-10.6263
ggi쎯xat쎯	-10.6264
dl쎯x쎯	-10.6265
sm쎯sq쎯。	-10.6268
adm쎯hhhh쎯r쎯	-10.6269
dc쎯ype쎯	-10.627
cd쎯yaf쎯	-10.627
쎀.쎇	-10.627
rpw쎯rmhj쎯kkd쎯	-10.6272
uvo쎯bk쎯	-10.6273
twt쎯ytyh쎯	-10.6274
ymc쎯tlf2쎯r쎯	-10.6274
쎁쎀wv쎯qkhh1쎯	-10.6276
l쎯u쎯	-10.6278
mwwk쎯	-10.6278
iie쎯gxgu쎯	-10.6278
wdt쎯b쎯	-10.6283
ukqb0쎯qv쎯lt쎯	-10.6283
yi쎯e쎯	-10.6285
xh쎯wycm0쎯	-10.6288
adwr쎯·	-10.6289
ougo쎯	-10.6289
kkd쎯,	-10.6295
scf쎯ssss쎯	-10.6298
gm쎯nnnn쎯	-10.6302
y쎯wtf쎯atd쎯jgm쎯,	-10.6303
yox쎯ma쎯	-10.6303
tffu쎯tk쎯tkh쎯	-10.6304
de쎯alq쎯hhy쎯	-10.6304
jf쎯wa쎯r쎯	-10.6307
yveh쎯	-10.6309
qh쎯qyv쎯	-10.6311
kml쎯	-10.6313
wdn쎯ahty쎯	-10.6313
yga쎯	-10.6316
uda쎯naj1쎯	-10.6316
yh쎯wq쎯	-10.6316
maw쎯gajf쎯r쎯	-10.6322
x쎯apk쎯tp쎯gj쎯	-10.6324
pykw쎯	-10.6325
mw쎯r쎯	-10.6332
wv쎯qkhh1쎯	-10.6335
jn쎯du쎯	-10.6336
ajf1쎯	-10.634
gg쎯dd쎯	-10.634
wxf쎯k쎯	-10.634
r쎯g쎯uk쎯	-10.6341
gm쎯udy쎯	-10.6341
ujn쎯mqb쎯	-10.6344
qq쎯rh쎯tg쎯ajj쎯sg쎯	-10.6344
qkm쎯k쎯	-10.6353
h1쎯	-10.6355
u쎯kkk쎯,	-10.6356
sgjq쎯	-10.6357
ii쎯,	-10.6359
jn쎯begg쎯	-10.6364
쎁.쎁	-10.6365
wye쎯qd쎯	-10.6365
g쎯adwe1쎯	-10.6366
se쎯hw쎯	-10.6366
kpt쎯	-10.6369
fjhh쎯	-10.6373
g쎯su쎯,	-10.6373
kht쎯,	-10.6375
qt쎯tu쎯	-10.6381
qyvl쎯gh쎯	-10.6386
rj쎯bm쎯r쎯	-10.6387
쎁쎉쎆쎂rh쎯	-10.639
yygt쎯dd쎯pt쎯yne쎯	-10.639
rn쎯d쎯f쎯	-10.6392
yu쎯,	-10.6392
rt쎯if쎯	-10.6395
gu쎯egc쎯	-10.6396
ukn쎯x쎯gj쎯	-10.6398
sg쎯wc쎯ngk쎯	-10.6402
dg쎯uqw쎯	-10.6405
』『	-10.6405
ubtf쎯eu쎯	-10.641
pei쎯wt쎯tr쎯	-10.6412
pt쎯cm쎯	-10.6412
ph쎯	-10.6412
gfi쎯km쎯	-10.6413
vq쎯vld쎯	-10.6414
iq쎯je쎯	-10.6415
pujn1쎯qc쎯	-10.6415
x쎯xjm쎯	-10.6416
r쎯whf쎯og쎯	-10.6416
쎀.쎀	-10.6417
g쎯od쎯	-10.6418
yf쎯aj쎯tg쎯yce쎯	-10.642
dg쎯jtg쎯	-10.642
ivy쎯	-10.6421
ipm쎯tkw쎯	-10.6422
ym쎯dr쎯	-10.6422
usr쎯pei쎯sf쎯	-10.6423
ovt쎯rpw쎯	-10.6424
vep쎯ws쎯	-10.6426
xf쎯jjj쎯	-10.6427
rpv쎯yssr쎯	-10.6427
adwr쎯fjg쎯	-10.6427
쎇eee쎯cd쎯lk쎯a쎯wt쎯	-10.6428
an쎯lwj쎯h쎯	-10.6429
o쎯yygt쎯dd쎯	-10.643
qmw쎯	-10.6431
iie쎯ditn0쎯	-10.6432
tx쎯쎄	-10.6432
tlf2쎯et쎯。	-10.6432
fhn쎯wtf쎯	-10.6433
k쎯md쎯jn쎯pym쎯ck쎯	-10.6435
tmdf1쎯fmk쎯	-10.6436
tr쎯ou쎯	-10.6436
yo쎯tj쎯	-10.6441
dgj쎯wx쎯	-10.6443
,wq쎯	-10.6446
rfh0쎯	-10.6448
yw쎯sk쎯	-10.645
jf쎯r쎯	-10.6452
lh쎯tb쎯	-10.6456
yygt쎯itp쎯r쎯	-10.6458
wvp쎯	-10.6464
f쎯fhg1쎯:	-10.6464
nnk쎯ta쎯	-10.6469
bqn쎯bb쎯	-10.6471
wds쎯	-10.6479
alfj0쎯	-10.6489
(쎁쎉쎂	-10.6489
r쎯ftbt쎯ip쎯	-10.6491
fcl쎯eyni쎯	-10.6491
o쎯g쎯	-10.6495
쎁쎉쎃쎉rh쎯	-10.6495
wgk쎯uqwm0쎯	-10.6498
pj쎯rx쎯	-10.6498
mht쎯	-10.6498
ntk쎯gf쎯mmm쎯aq쎯	-10.6501
ukd0쎯jghm1쎯。	-10.6503
g0쎯	-10.6505
tr쎯wsg0쎯	-10.6507
쎅쎀dq쎯	-10.6507
hwb쎯lwx쎯	-10.6507
ftbt쎯ip쎯sov쎯	-10.651
l쎯pe쎯thd쎯qd쎯	-10.6511
uqf쎯wf쎯	-10.6513
kld쎯	-10.6514
ukn쎯wsg0쎯	-10.6514
thd쎯tf쎯	-10.6515
rwyg쎯tf쎯	-10.6515
lgm쎯	-10.6519
dn쎯al쎯r쎯	-10.6524
wg쎯usr쎯r쎯	-10.6524
srm쎯awx쎯	-10.6526
▁(쎂).	-10.6527
y쎯src쎯	-10.6527
,jb쎯xtu쎯	-10.6527
fqu쎯sk쎯	-10.6535
ftg쎯dgh쎯	-10.6535
ujf쎯tsh0쎯	-10.6543
khv쎯khp쎯	-10.6543
dga쎯pwv쎯pgc쎯	-10.6544
fggh쎯rdn쎯	-10.6546
ujfj쎯wug1쎯:	-10.6547
쎁쎂eee쎯	-10.6547
tqq쎯sfhg쎯	-10.6551
tp쎯gj쎯txi쎯xyc쎯	-10.6554
쎁쎉쎄쎀rh쎯	-10.6557
r쎯ukd0쎯jghm1쎯	-10.6559
bwf쎯wrh2쎯	-10.656
opf쎯	-10.6566
rpd1쎯	-10.6566
ccc쎯e쎯	-10.6566
ton쎯	-10.6567
쎁×	-10.6567
yi쎯d쎯	-10.6568
쎁쎀%	-10.6569
rxj쎯r쎯j쎯	-10.657
yygy쎯wx쎯khgp0쎯u쎯	-10.6571
g쎯w쎯	-10.6573
r쎯ujf쎯qi쎯	-10.6573
쎈쎀%	-10.6574
aj쎯wv쎯	-10.6575
rit쎯	-10.6576
y쎯iyc쎯	-10.6578
qgf쎯od쎯	-10.6578
apl쎯fcl쎯lt쎯	-10.6579
w쎯,adw쎯k쎯ww쎯gk쎯t	-10.6582
ubte쎯	-10.6584
og쎯lwj쎯	-10.6585
wg쎯l쎯tk쎯f쎯	-10.6585
qc쎯icf쎯	-10.6586
b쎯“	-10.6586
fuk쎯yk쎯k쎯ny쎯	-10.6589
mds쎯	-10.659
r쎯gj쎯shn쎯	-10.6592
tavn쎯yqa쎯	-10.6593
쎁쎂쎅	-10.6594
f쎯nfc쎯	-10.6598
ab쎯xq쎯	-10.6598
qf쎯qyo쎯	-10.6599
fjg쎯dq쎯	-10.66
j쎯jjjj쎯sg쎯	-10.66
adwe1쎯wxm쎯	-10.6601
bb쎯、	-10.6602
uyh쎯yne쎯	-10.6602
nty1쎯af쎯ga쎯yt쎯	-10.6603
jfd쎯dm쎯	-10.6603
ipwk0쎯yjjh1쎯	-10.6604
tffu쎯qq쎯wh쎯	-10.6604
wv쎯nnk쎯	-10.6611
jsg쎯	-10.6613
aqv1쎯	-10.6615
pfjm1쎯gk쎯	-10.6615
ad쎯sg쎯cd쎯ovt쎯	-10.6617
iq쎯xtf쎯	-10.6618
veg쎯	-10.6618
ih쎯veg쎯	-10.6618
thfn쎯su쎯	-10.662
qrm쎯sfi쎯pfjm1쎯	-10.6624
fje쎯tfpd쎯	-10.6624
it쎯jg쎯	-10.6626
cbn0쎯	-10.6627
gd쎯qd쎯rnb쎯	-10.6629
sh쎯wny0쎯	-10.6629
ld쎯bb쎯	-10.6629
ai쎯ux쎯uk쎯	-10.663
dc쎯vb쎯	-10.6635
sf쎯。	-10.6638
dg쎯xwy쎯	-10.6638
,gh쎯	-10.6639
why쎯	-10.6641
mcw쎯	-10.6641
khh쎯	-10.6643
tf쎯ght쎯tp쎯gj쎯	-10.6644
uq쎯cep쎯fcp쎯lwg쎯	-10.6646
xtu쎯tmd쎯	-10.6647
xk쎯gqjo0쎯	-10.6647
wc쎯tl쎯km쎯	-10.6651
sh쎯iv쎯gf쎯	-10.6651
trf쎯xq쎯	-10.6651
n쎯apk쎯whf쎯og쎯	-10.6653
bw쎯km쎯	-10.6654
ybo쎯qntf쎯	-10.6654
fgh쎯pb쎯	-10.6658
cf쎯xx쎯	-10.666
ffff5쎯gku쎯	-10.666
itx쎯ii쎯	-10.6661
쎂～	-10.6663
쎅～	-10.6666
wk쎯pv쎯	-10.6667
gcf쎯it쎯	-10.6668
wgk쎯wt쎯wo쎯wuf쎯	-10.6669
ifhw쎯	-10.6672
ipkh1쎯ytyh쎯	-10.6673
j쎯:	-10.6674
r쎯rfc쎯sy쎯	-10.6676
wkso0쎯	-10.6678
wgkb2쎯wyc쎯	-10.668
ynw쎯	-10.668
쎃쎅쎀	-10.6681
bm쎯ipg쎯	-10.6681
sk쎯et쎯	-10.6681
dmh쎯lfhf쎯	-10.6683
]	-10.6683
ygu쎯pj쎯	-10.6683
fjw쎯	-10.6684
uq쎯cyi쎯	-10.6684
bn쎯tq쎯	-10.6684
wg쎯an쎯lwj쎯	-10.6685
et쎯ax쎯	-10.6686
”)	-10.6688
fnhp쎯	-10.6688
a쎯og쎯lfq쎯	-10.6697
dgj쎯ya쎯	-10.6697
pg쎯adwe1쎯	-10.6699
。q쎯wu쎯	-10.6702
%,	-10.6703
vyi1쎯	-10.6703
rrr쎯fcu0쎯	-10.6704
itx쎯ud쎯	-10.6706
xvk쎯iw쎯	-10.6709
ct쎯	-10.6711
fgh쎯lh쎯	-10.6712
tlf2쎯et쎯	-10.6713
aft쎯e쎯	-10.6714
rxj쎯fi쎯	-10.6715
ghd0쎯dm쎯	-10.6715
dav쎯	-10.6717
fha쎯go쎯fha쎯	-10.6717
ggn쎯	-10.6717
sdm쎯umd0쎯	-10.6718
ip쎯wug1쎯,	-10.6718
uf쎯nf쎯wsg0쎯	-10.6718
bll쎯	-10.672
ad쎯hich쎯ftbt쎯	-10.6721
rjg0쎯	-10.6723
,qm쎯gmu1쎯	-10.6723
g1쎯	-10.6724
oqdo쎯	-10.6724
pt쎯fcp쎯	-10.6726
ipg쎯xcf쎯	-10.6727
fny쎯og쎯wx쎯	-10.6727
jb쎯rp쎯	-10.6728
sds쎯	-10.6728
ai쎯itx쎯	-10.6733
g쎯uk쎯wv쎯	-10.6738
,tuj쎯tq쎯	-10.6738
쎃쎀dq쎯	-10.6739
〉	-10.674
tuj쎯ifk쎯	-10.674
tv쎯km쎯wf쎯tv쎯km쎯,	-10.6742
,im쎯e쎯	-10.6743
ilg2쎯	-10.6744
vtdj쎯	-10.6745
yt쎯ny쎯	-10.6747
ts쎯wrh2쎯gh쎯	-10.6748
rge쎯	-10.6755
yx쎯tfq쎯	-10.6756
bk쎯og쎯ftbt쎯yce쎯	-10.6757
udjh쎯	-10.676
o쎯w쎯	-10.6763
qnqv쎯	-10.6763
,cf쎯gf쎯	-10.6764
tjtl쎯	-10.6766
쎁%	-10.6769
gmf쎯tg쎯	-10.6771
pwm쎯	-10.6772
bd쎯yad쎯	-10.6772
qqqq1쎯mqj쎯	-10.6775
rvyl쎯lt쎯	-10.6775
rpf쎯	-10.6776
usgp1쎯trfh0쎯	-10.6777
ytb0쎯fmk쎯hka쎯qv쎯	-10.6777
d쎯g쎯fhn쎯	-10.6778
puvk2쎯	-10.678
wc쎯n쎯	-10.678
tx쎯vt쎯	-10.6781
ux쎯ugdu쎯	-10.6783
wynb쎯jjjj쎯	-10.6785
nh쎯xpw쎯	-10.6787
vt쎯rh쎯	-10.6788
ga쎯lw쎯	-10.6788
y쎯s쎯c쎯	-10.6789
wx쎯、	-10.6791
、h쎯itx쎯	-10.6791
ica쎯	-10.6795
ssm쎯	-10.6795
≤	-10.6796
▁쎆、	-10.6797
,epc쎯gc쎯	-10.6799
bk쎯tq쎯	-10.6802
wwx쎯ybt쎯	-10.6803
tdtf쎯vfhp1쎯	-10.6806
yjj0쎯wg쎯,	-10.6809
l쎯bf쎯qyv쎯jqr쎯	-10.6809
rj쎯bc쎯	-10.6809
쎁쎅dq쎯	-10.681
wg쎯tkgg0쎯	-10.6813
se쎯adw쎯	-10.6813
nnh쎯gl쎯pe쎯	-10.6813
ifj쎯iyc쎯	-10.6815
wygg쎯pwdj쎯	-10.6817
h쎯b쎯	-10.6817
ogu쎯	-10.6818
rcf쎯	-10.6818
sw쎯fpx쎯	-10.6818
dgkn쎯yid쎯	-10.6824
thp쎯pv쎯	-10.6824
dd쎯lt쎯	-10.6825
fwyc2쎯wyk쎯	-10.6826
tfk쎯rh쎯	-10.6832
wnnf쎯	-10.6838
iqr쎯	-10.6838
pju쎯	-10.6839
bm쎯gm쎯d쎯	-10.684
al쎯ce쎯:	-10.684
bda쎯	-10.6843
》、《k쎯l쎯	-10.6843
if쎯》	-10.6845
itd쎯fcl쎯r쎯	-10.6846
ngk쎯cn쎯	-10.6853
ol쎯ck쎯	-10.6855
krt쎯isgg0쎯	-10.6856
▁(쎁)	-10.686
qrn쎯	-10.686
in쎯	-10.6862
wvl쎯f쎯	-10.6863
쎁쎅쎀쎀	-10.6865
fq쎯w쎯	-10.6865
dmj1쎯ccc쎯	-10.6867
tuu쎯tb쎯	-10.6868
쎁쎉쎃쎈rh쎯	-10.6872
ul쎯aqt쎯	-10.6872
oge쎯ese쎯	-10.6876
쎂.쎈	-10.6878
aitl쎯	-10.6884
uq쎯cep쎯wgj쎯tjh쎯,	-10.689
pgy쎯pgy쎯	-10.6891
py쎯wf쎯tu쎯ip쎯bpf쎯	-10.6894
tx쎯lh쎯nm쎯	-10.6897
vii쎯	-10.6899
js쎯scf쎯	-10.6899
),pb쎯	-10.69
ipf쎯yaa쎯	-10.6902
nnh쎯if쎯pe쎯fl쎯wf쎯	-10.6904
od쎯klj쎯	-10.6905
〈	-10.6905
。”《	-10.6906
rt쎯a쎯	-10.6908
,j쎯g쎯wh쎯	-10.6909
q쎯suq쎯	-10.691
쎂쎀rh쎯	-10.691
wwwk쎯tq쎯	-10.6912
uym쎯	-10.6918
sm쎯wf쎯	-10.6919
qi쎯lft쎯	-10.6919
。sg쎯	-10.6919
bc쎯wa쎯	-10.6921
w쎯ft쎯fuk쎯udyj쎯	-10.6921
dyn쎯ya쎯	-10.6925
sm쎯kkd쎯w쎯	-10.6927
qn쎯rtd쎯:	-10.6927
dmj1쎯dn쎯,	-10.693
hi쎯cbc쎯	-10.693
fje쎯bj쎯	-10.6933
rfc쎯anb0쎯	-10.6934
ii	-10.6934
ynh쎯	-10.6934
ihk쎯	-10.6935
쎁쎉쎃쎅rh쎯	-10.6936
o쎯adw쎯	-10.6937
srq쎯	-10.6937
,dr쎯	-10.6938
whf쎯og쎯。wc쎯ngk쎯	-10.6939
e쎯w쎯	-10.6944
txgi2쎯wxf쎯	-10.6944
oqdo쎯ou쎯	-10.6947
iytb0쎯fmk쎯bw쎯	-10.6947
gqr쎯ivfh1쎯mhkg2쎯	-10.6948
fhw쎯ghd0쎯r쎯	-10.6948
vb쎯,	-10.6952
gk쎯nge쎯	-10.6952
iwyf2쎯	-10.6953
gj쎯ywx쎯dga쎯pwv쎯	-10.6956
r쎯m쎯jf쎯	-10.6957
yvi쎯ahko쎯	-10.6957
flf1쎯dp쎯	-10.6957
쎁쎀쎈	-10.696
0쎯	-10.696
qnq쎯ou쎯	-10.6962
knx쎯?	-10.6962
mmgj쎯bwt쎯	-10.6962
nnh쎯pgn쎯	-10.6964
ijl쎯fnm쎯	-10.6965
awg쎯	-10.6966
nr쎯	-10.6969
rgd쎯bfw쎯	-10.6971
쎇.쎅	-10.6971
al쎯ce쎯,	-10.6972
ia쎯ide쎯	-10.6973
쎉-	-10.6976
tdkj쎯lt쎯	-10.6977
xh쎯aqkr쎯	-10.6978
wt쎯yygy쎯	-10.6978
kma쎯	-10.6979
쎁쎀쎅	-10.6982
yfj쎯syp쎯b쎯	-10.6982
udb쎯ytyh쎯ymhj쎯	-10.6986
gh쎯dm쎯	-10.6986
wh쎯ftbt쎯ip쎯gyt쎯,	-10.6987
sk쎯rf쎯xfn쎯v쎯nae쎯	-10.6988
dhv쎯	-10.699
tp쎯gj쎯r쎯	-10.699
rfc쎯sy쎯ga쎯v쎯aq쎯	-10.6991
ght쎯sc쎯	-10.6991
utd쎯ugm쎯r쎯	-10.6992
wy쎯wqbh쎯	-10.6992
xfnh쎯	-10.6993
geq쎯eyni쎯	-10.6995
gef쎯mmm쎯	-10.6996
lfon0쎯	-10.6997
wdn쎯rfm쎯r쎯eb쎯tl쎯	-10.6997
rep쎯cbj쎯“	-10.6997
:fc쎯rf쎯	-10.6998
kcy1쎯	-10.6999
gm쎯d쎯r쎯	-10.6999
wbj쎯lw쎯gf쎯	-10.7
:쎂	-10.7001
ygu쎯tfqp쎯	-10.7002
jc쎯pnt쎯	-10.7003
r쎯g쎯rn쎯	-10.7005
쎇)	-10.7007
d쎯bk쎯	-10.7007
ua쎯ty쎯	-10.7008
ge쎯uje쎯	-10.701
ujfj쎯qtj쎯	-10.7012
qajf쎯	-10.7013
hxw쎯	-10.7016
oy쎯,	-10.7016
ryl쎯	-10.7017
쎁w쎯,	-10.7018
r쎯eb쎯tl쎯	-10.702
(쎁쎈쎉	-10.702
g쎯kht쎯	-10.7023
rwv쎯ipg쎯	-10.7024
of쎯	-10.7025
rdj쎯qk쎯	-10.7026
gkl쎯nnh쎯yn쎯	-10.703
rrg1쎯fnud쎯	-10.7034
▁bm쎯thgc쎯jf쎯uj쎯:	-10.7034
nh쎯uwl쎯	-10.7035
ii쎯jn쎯uh쎯	-10.7037
pj쎯sj쎯	-10.7037
fny쎯tu쎯ip쎯suq쎯	-10.704
yne쎯,e쎯xte쎯sf쎯	-10.7045
v쎯rvyo쎯	-10.7045
vfhp1쎯ymc쎯、	-10.7046
nynn쎯	-10.705
-쎁쎈	-10.7051
w쎯dd쎯ipkh1쎯tv쎯	-10.7056
쎈)	-10.7057
f쎯gkp쎯	-10.7059
qgbn0쎯	-10.7061
yqa쎯uk쎯	-10.7062
gogj쎯tak쎯o쎯	-10.7064
ayx쎯	-10.7064
tffu쎯tf쎯og쎯	-10.7066
puv쎯xe쎯	-10.7067
aigh쎯	-10.7069
yygy쎯sg쎯	-10.7075
lp쎯lwj쎯	-10.7077
jjjj쎯ygk쎯	-10.7077
qqqq1쎯thgf0쎯	-10.7078
dwy쎯	-10.7078
ith쎯ftbt쎯yce쎯ds쎯	-10.7078
ce쎯lt쎯。	-10.708
ymc쎯yf쎯r쎯	-10.7083
ep쎯ny쎯	-10.7083
jft쎯	-10.7086
ftjb쎯sk쎯c쎯	-10.7089
。o쎯b쎯	-10.7089
,ipw쎯epc쎯	-10.7089
pyg쎯tjh쎯	-10.709
fj쎯fghg쎯	-10.7091
svc쎯	-10.7093
,i쎯wcy2쎯	-10.7094
,px쎯j쎯	-10.7094
j쎯et쎯	-10.7097
wx쎯wgk쎯tr쎯	-10.7099
puv쎯hi쎯	-10.71
yy쎯if쎯。	-10.7103
ad쎯dbm쎯h쎯	-10.7104
-쎁쎀	-10.7104
(쎁).	-10.7106
n쎯wwwk쎯	-10.7107
o쎯ad쎯dbm쎯	-10.7108
tjt쎯rmhj쎯	-10.7108
gef쎯itx쎯ith쎯	-10.711
쎅dq쎯	-10.711
dd쎯ahn쎯	-10.7115
jb쎯puv쎯	-10.7115
qwd쎯oanw쎯	-10.7116
ta쎯dp쎯	-10.7116
쎅.쎅	-10.7116
wycm0쎯pum쎯	-10.7117
eqn쎯	-10.7117
nnh쎯gl쎯anb0쎯sy쎯	-10.712
d쎯jjjj쎯sg쎯	-10.712
ybv쎯ton쎯	-10.7121
wbb쎯ylk2쎯	-10.7122
iujg0쎯	-10.7122
emc쎯ai쎯	-10.7124
pe쎯w쎯	-10.7126
vkf1쎯kqm쎯	-10.7126
j쎯g쎯uk쎯	-10.7126
l쎯n쎯x쎯iyj쎯	-10.7127
iv쎯tfqp쎯	-10.7127
,lxx쎯wycb쎯	-10.7139
tha쎯if쎯	-10.7141
gkp쎯udh쎯	-10.7141
ow쎯gs쎯	-10.7143
dgkf0쎯	-10.7146
kfi쎯uthp쎯	-10.7148
uck쎯	-10.7149
e쎯bv쎯	-10.7151
tr쎯og쎯	-10.7153
wgkb2쎯qk쎯o쎯	-10.7156
g쎯dj쎯	-10.7161
iit쎯iaj쎯	-10.7162
vi쎯》	-10.7164
pg쎯nd쎯	-10.7169
,ukn쎯	-10.7172
tjgh2쎯	-10.7176
、ggg1쎯	-10.7176
qtoy1쎯	-10.7178
dqe쎯yw쎯	-10.7179
yi쎯yfn쎯	-10.7179
yynw1쎯nnh쎯	-10.7181
g쎯hi쎯	-10.7181
qfhw0쎯wug1쎯gf쎯	-10.7182
fqb1쎯rh쎯	-10.7184
jb쎯ih쎯	-10.7189
vnu1쎯sfi쎯	-10.719
iv쎯k쎯	-10.7192
mb쎯wrh2쎯	-10.7194
,ugdu쎯l쎯	-10.7196
buk쎯	-10.7196
。wb쎯wu쎯	-10.7196
de쎯shi쎯ow쎯	-10.7198
yaa쎯hko쎯	-10.7202
jn쎯pym쎯ndj쎯《	-10.7202
abi쎯irn쎯	-10.7202
pb쎯xgu쎯	-10.7208
usg쎯tgj쎯	-10.7208
쎁w쎯	-10.7209
jf쎯adwe1쎯,	-10.7212
쎁쎉쎄쎁rh쎯	-10.7212
。gm쎯e쎯	-10.7212
uk쎯ait쎯	-10.7212
쎂.쎁	-10.7213
tgv쎯	-10.7215
fc쎯uk쎯	-10.7215
tuk쎯tl쎯	-10.7218
fkuc1쎯ddnl쎯	-10.722
nae쎯bm쎯	-10.7227
ynky2쎯	-10.7233
쎁쎉쎃쎆rh쎯	-10.7233
쎁쎅wv쎯qkhh1쎯	-10.7234
qjf쎯jn쎯ib쎯	-10.7238
xxm쎯lfod1쎯	-10.7238
,i쎯fp쎯	-10.7239
ruj쎯	-10.7242
qq쎯nfc쎯	-10.7242
wdn쎯gjh2쎯	-10.7244
pym쎯qe쎯	-10.7245
aig쎯eajd쎯	-10.7245
cd쎯cm쎯	-10.7246
쎅)	-10.7247
th쎯。	-10.7248
yyne쎯	-10.725
wc쎯www쎯	-10.725
y쎯wtf쎯、	-10.725
gqto1쎯	-10.7253
i쎯epc쎯	-10.7254
▁◎	-10.7255
j쎯ww쎯	-10.7255
,ww쎯gk쎯	-10.7259
ght쎯ick쎯uk쎯	-10.7259
쎈kgn쎯	-10.7262
trf쎯e쎯r쎯	-10.7262
,e쎯r쎯	-10.7267
gip쎯sk쎯c쎯	-10.7267
ujq쎯	-10.7268
sgmk쎯	-10.7269
pe쎯jn쎯	-10.727
cbt쎯rfh0쎯	-10.7271
sss쎯ss쎯wc쎯lfq쎯	-10.7274
gg쎯wa쎯	-10.7275
ce쎯lt쎯,	-10.7278
▁쎈	-10.7278
gmww쎯mdfj쎯	-10.7281
ral쎯xwf쎯	-10.7281
fq쎯xg쎯jn쎯	-10.7282
bwff쎯	-10.7283
t쎯py쎯wf쎯	-10.7283
ym쎯xe쎯k쎯ip쎯	-10.7284
awx쎯xyy0쎯	-10.7284
jtyq1쎯	-10.7286
hk쎯f쎯dm쎯tkw쎯	-10.7288
bdx쎯	-10.7289
rn	-10.7291
uyu쎯	-10.7292
qaj쎯ykg쎯	-10.7294
kl쎯g쎯wh쎯	-10.7296
wfhg쎯tj쎯	-10.7298
kkkk0쎯tca쎯	-10.73
,tkw쎯se쎯	-10.7301
siq쎯awx쎯	-10.7302
be쎯bj쎯	-10.7302
r쎯jb쎯wffg쎯	-10.7312
ue쎯adwe1쎯	-10.7315
い	-10.7315
q쎯ymhj쎯	-10.7316
mb쎯sfiu0쎯	-10.7317
▁q쎯wu쎯	-10.7317
mee쎯	-10.732
yoj쎯	-10.7325
iv쎯qd쎯	-10.7325
yxt쎯	-10.7325
kht쎯gn쎯	-10.7329
kcg쎯?	-10.733
u쎯og쎯wx쎯	-10.7331
rpw쎯emc쎯	-10.7331
wt쎯et쎯,	-10.7332
qit쎯	-10.7332
qmq쎯tp쎯	-10.7334
a쎯ip쎯bpf쎯	-10.7335
tp쎯gj쎯a쎯wt쎯	-10.7337
oge쎯dqe쎯	-10.7338
qq쎯fqb1쎯wx쎯	-10.7338
oge쎯gcft2쎯	-10.7338
쎁쎉쎃쎀rh쎯	-10.734
wgk쎯wt쎯py쎯	-10.734
udi쎯,	-10.7345
sve쎯sg쎯	-10.7346
ip쎯rb1쎯	-10.7346
qo쎯	-10.7347
um쎯lud쎯	-10.7347
쎂.쎃	-10.7348
sdy2쎯	-10.7348
,쎀쎀쎀	-10.735
g쎯yy쎯	-10.735
alw쎯ytyh쎯ymhj쎯	-10.7354
dmj1쎯tj쎯qk쎯。	-10.7356
hi쎯tf쎯	-10.7359
ai쎯mq쎯	-10.736
rkm쎯pd쎯	-10.7364
tffu쎯;	-10.7366
je쎯ige쎯	-10.7366
ipkh1쎯ipkh1쎯	-10.7367
tve쎯it쎯	-10.7368
wwj쎯wfhg쎯。	-10.7369
waw쎯ii쎯	-10.7369
go쎯yu쎯,	-10.737
yao쎯	-10.7371
sghg1쎯ic쎯	-10.7372
쎂쎀wv쎯qkhh1쎯	-10.7372
,vca쎯	-10.7373
wv쎯gqje쎯	-10.7373
tuj쎯ujfj쎯r쎯	-10.7374
h쎯。	-10.7377
mfc쎯	-10.7378
nj쎯nj쎯	-10.7379
wf쎯rn쎯	-10.7379
jmhn0쎯	-10.7382
pww쎯kkd쎯	-10.7384
pei쎯sm쎯	-10.7389
,vck쎯vfhp1쎯gf쎯	-10.7392
wc쎯xd쎯	-10.7393
aw쎯gef쎯lft쎯	-10.7399
-)	-10.74
α	-10.7404
ipw쎯ynt쎯	-10.7406
쎂쎁an쎯xn쎯	-10.7408
tfl쎯·	-10.7411
dn쎯o쎯b쎯	-10.7412
kfi쎯oge쎯	-10.7413
imkf1쎯nnh쎯	-10.7414
eb쎯et쎯	-10.7415
mqb쎯gf쎯	-10.7416
tv쎯xeg쎯xkw쎯uk쎯	-10.7416
ry쎯vfhp1쎯	-10.7417
bmg쎯	-10.742
i쎯yv쎯	-10.7422
fnrt쎯jy쎯	-10.7425
epqh쎯	-10.7427
yfd쎯sf쎯	-10.7427
sk쎯waw쎯	-10.7427
waj쎯jtyq0쎯	-10.7428
tet쎯	-10.7429
it쎯qt쎯	-10.743
,aqt쎯tj쎯	-10.7431
r쎯ln쎯shn쎯	-10.7432
sm쎯sa쎯ymc쎯tlf2쎯	-10.7434
so쎯bm쎯	-10.7438
tmf쎯	-10.7438
tg쎯。	-10.7439
yth쎯	-10.7439
mw쎯ibi쎯	-10.744
mmm쎯h쎯	-10.744
dm쎯qn쎯	-10.7441
uxxn1쎯uduk쎯	-10.7449
쎁-쎂	-10.745
ip쎯fghg쎯	-10.7451
fu쎯lk쎯b쎯	-10.7454
rryf쎯	-10.7456
fq쎯ovt쎯	-10.7458
rbcc쎯wqj쎯sm쎯	-10.7458
mh쎯hx쎯	-10.7459
xfg쎯	-10.746
puv쎯,	-10.7462
jy	-10.7465
rab쎯	-10.7465
k쎯l쎯w쎯n쎯dd쎯ip쎯	-10.7466
lu쎯dd쎯r쎯	-10.7467
ddh쎯	-10.7468
ih쎯gf쎯	-10.7468
edjn쎯	-10.747
v쎯ugm쎯	-10.7471
쎃kgn쎯	-10.7474
cf쎯rt쎯	-10.7475
ck쎯,	-10.7475
ith쎯tv쎯ipk쎯suq쎯	-10.7477
itx쎯rdc쎯	-10.7478
bm쎯yam쎯	-10.7479
gu쎯yy쎯	-10.748
yce쎯w쎯	-10.748
dcw쎯djb쎯r쎯	-10.748
vtg쎯qk쎯	-10.748
iyv쎯ijlc쎯	-10.7484
dga쎯pwv쎯》	-10.7486
gkl쎯ftbt쎯rep쎯,	-10.749
gmu1쎯wtf쎯wc쎯ngk쎯	-10.749
apk쎯tfkp쎯	-10.7493
vs쎯uq쎯	-10.7493
wgk쎯ec쎯ymhj쎯	-10.7493
thd쎯qd쎯tu쎯ip쎯	-10.7495
wht쎯ys쎯	-10.7496
fwf쎯wa쎯	-10.7496
dwiu쎯mmm쎯	-10.7501
qtjh0쎯bb쎯	-10.7507
god쎯yak쎯	-10.7508
stx쎯awx쎯	-10.7509
,kw쎯	-10.7512
k쎯ny쎯ih쎯ip쎯	-10.7515
kuq쎯	-10.7515
▁f쎯fhg1쎯:	-10.7516
fhw쎯ydn쎯	-10.7516
iq쎯ime쎯	-10.7518
pq쎯	-10.752
쎁/	-10.752
iqgg쎯og쎯	-10.752
bs쎯ru쎯wr쎯	-10.7522
ywe쎯ick쎯	-10.7524
y쎯rf쎯w쎯	-10.7525
쎃～	-10.7526
x쎯apk쎯gj쎯wynn3쎯,	-10.7527
mq쎯sm쎯	-10.7531
쎁쎉쎄쎂rh쎯	-10.7533
mq쎯ynnd쎯	-10.7533
pyj쎯ytd쎯	-10.7533
rvl쎯	-10.7536
ga쎯ii쎯	-10.7538
쎅wv쎯qkhh1쎯	-10.7539
qkk쎯wgk쎯qqqq1쎯	-10.7542
adjd쎯	-10.7544
gn쎯adw쎯wb쎯	-10.7544
sg쎯tu쎯tg쎯	-10.7547
whf쎯og쎯yygy쎯wx쎯	-10.7548
、ux쎯yiu쎯	-10.7552
vck쎯xtu쎯jcf쎯rf쎯	-10.7555
xyna0쎯tkgg0쎯	-10.7555
xl쎯eaf쎯	-10.7556
ydx쎯	-10.7556
mw쎯e쎯	-10.7558
^	-10.756
i쎯jqr쎯	-10.7563
j쎯g쎯pe쎯fny쎯og쎯	-10.7568
nnh쎯gl쎯bpf쎯	-10.7568
sp쎯qc쎯	-10.7572
gajh쎯gk쎯	-10.7573
pa쎯ya쎯	-10.7573
de쎯m쎯	-10.7574
tve쎯nnw쎯	-10.7574
tx쎯g쎯pe쎯	-10.7575
wycm0쎯nf쎯r쎯	-10.7576
ii쎯h쎯	-10.7576
tu쎯rfc쎯e쎯bv쎯	-10.7576
ytf쎯sk쎯ygh쎯	-10.7576
ith쎯uthp쎯	-10.7577
fwyc2쎯wrh2쎯	-10.7579
sm쎯sa쎯rmhj쎯tfkp쎯	-10.7581
sk쎯ep쎯	-10.7581
amw쎯mmm쎯	-10.7581
▁hx쎯	-10.7582
쎈eee쎯cd쎯lk쎯a쎯wt쎯	-10.7584
mw쎯ymc쎯	-10.7586
ue쎯imk쎯	-10.7588
wynb쎯rh쎯	-10.7592
wycm0쎯fakg1쎯。	-10.7593
ujf쎯ktm쎯	-10.7595
yw쎯pg쎯	-10.7596
iry쎯v쎯	-10.7598
lh쎯yy쎯	-10.76
ym쎯ige쎯	-10.7602
iie쎯rw쎯	-10.7607
r쎯yo쎯wx쎯	-10.7608
trf쎯u쎯	-10.7609
쎁、	-10.761
pu쎯hka쎯	-10.761
dr쎯ou쎯:	-10.7611
mta쎯	-10.7614
fk쎯wb쎯	-10.7614
iffg쎯	-10.7616
mw쎯f쎯	-10.7619
wy쎯thn쎯txi쎯xyc쎯	-10.762
usr쎯iw쎯	-10.7621
aje쎯	-10.7623
rqcf0쎯	-10.7625
gmap쎯gc쎯	-10.7626
ey쎯sh쎯ud쎯	-10.7628
xww쎯sam쎯	-10.7628
p쎯wug1쎯	-10.7628
ii쎯jn쎯	-10.7629
ile쎯	-10.763
yte쎯	-10.7631
,bn쎯e쎯	-10.7634
iyjh쎯jtyq1쎯kkd쎯	-10.7635
sg쎯ffff5쎯	-10.7635
g쎯th쎯	-10.7636
쎁쎇쎀	-10.7637
vtg쎯qa쎯	-10.7638
amw쎯rcy0쎯	-10.7643
xyna0쎯kgn쎯	-10.7643
쎁쎉쎄쎄rh쎯	-10.7643
ep쎯vb쎯	-10.7646
dd쎯gj쎯	-10.7646
dn쎯ddu0쎯	-10.7647
if쎯w쎯	-10.7648
srg쎯ss쎯	-10.765
isf쎯	-10.7653
ftbt쎯bk쎯a쎯	-10.7655
쎀.쎉	-10.7659
iy쎯tmdf1쎯	-10.766
mh	-10.766
kkd쎯wrh2쎯	-10.7661
yxl쎯trt쎯	-10.7664
mt쎯wsk쎯	-10.7665
x쎯qie쎯um쎯	-10.7666
dyi쎯fw쎯	-10.7667
oy쎯。	-10.7668
rmc쎯jyie쎯	-10.7668
rmhj쎯wt쎯r쎯	-10.7669
b쎯,	-10.767
yceh1쎯	-10.7671
sh쎯xx쎯	-10.7673
wg쎯nnh쎯	-10.7674
dj쎯ya쎯	-10.7675
,wgkq0쎯tj쎯	-10.7676
ynm쎯dmh쎯	-10.7676
gkl쎯y쎯wtf쎯,	-10.7679
pum쎯	-10.768
wvm쎯ls쎯	-10.768
u쎯f쎯	-10.7681
ymf쎯kfi쎯	-10.7682
oge쎯xl쎯	-10.7687
a쎯tkgg0쎯txi쎯	-10.7689
dj쎯wtu쎯	-10.769
fhn쎯hko쎯	-10.7692
r쎯ytd쎯	-10.7696
tdkj쎯ce쎯wx쎯	-10.7696
bc쎯bm쎯	-10.7697
vfhp1쎯ymc쎯,	-10.7697
wgj쎯j쎯	-10.7703
w쎯cd쎯	-10.7703
wgej1쎯	-10.7705
trw쎯ycb쎯	-10.7707
cbj쎯c쎯	-10.7707
n쎯www쎯	-10.7709
dgt1쎯、	-10.7709
gr쎯itx쎯	-10.7714
cf쎯tq쎯	-10.7714
ryj쎯	-10.7715
×쎄	-10.7716
kkk쎯thgf0쎯。	-10.7716
psu쎯·	-10.7719
、usr쎯	-10.7723
lkd쎯ytt쎯	-10.7727
xft쎯	-10.7728
wk쎯bg쎯	-10.773
qd쎯dmj1쎯	-10.7731
jf쎯whn쎯	-10.7732
ga쎯es쎯	-10.7733
hjj쎯fha쎯r쎯	-10.7734
g쎯wh쎯w쎯	-10.7734
sdm쎯xe쎯	-10.7734
jn쎯a쎯	-10.7735
:쎀쎀	-10.7736
fggh쎯uqv쎯	-10.7737
amd쎯st쎯uff쎯	-10.774
jo쎯tj쎯	-10.7741
pr쎯pt쎯	-10.7743
awx쎯shi쎯	-10.7745
dl쎯kq쎯yygy쎯wx쎯	-10.7747
fhn쎯gc쎯	-10.7748
tkh쎯。	-10.7749
cf쎯dm쎯	-10.7749
ab쎯dwg쎯	-10.7751
。’”	-10.7753
”tq쎯kgn쎯。	-10.7753
qtr쎯	-10.7755
,cep쎯ipkh1쎯	-10.7756
fffy쎯vfhp1쎯	-10.7756
puhc쎯ygu쎯o쎯“	-10.7757
-쎁쎆	-10.7757
ts쎯wgq쎯	-10.7758
l쎯bf쎯wx쎯	-10.7758
fy쎯	-10.7767
ge쎯je쎯	-10.7768
rf쎯e쎯	-10.7768
g쎯dm쎯	-10.777
gkm쎯ty쎯	-10.7771
uv쎯	-10.7775
q쎯wc쎯ngk쎯	-10.7777
rhyc1쎯	-10.7778
a쎯um쎯tp쎯gj쎯	-10.7779
ugdu쎯iyt0쎯	-10.778
ai쎯ic쎯	-10.778
rdn쎯	-10.7784
。thd쎯	-10.7784
쎁쎉쎃쎃rh쎯	-10.7786
y쎯wtf쎯。	-10.7788
yid쎯qvn2쎯	-10.779
、ba0쎯	-10.7792
ue쎯go쎯	-10.7792
rdj쎯ii쎯	-10.7792
tcy쎯w쎯	-10.7795
ipkh1쎯rh쎯	-10.7796
km쎯、	-10.7797
afd0쎯ajj쎯	-10.7798
fj쎯wx쎯	-10.7798
,f쎯gj쎯wug1쎯lfhf쎯	-10.7798
rufh1쎯qu쎯	-10.7799
fh쎯gc쎯	-10.7801
pjm쎯	-10.7801
je쎯gr쎯	-10.7801
a쎯tkgg0쎯、	-10.7802
wc쎯uq쎯	-10.7806
fct쎯ey쎯	-10.7808
f쎯eerq쎯	-10.7808
t쎯tp쎯gj쎯	-10.781
쎉kgn쎯	-10.7811
쎀°C	-10.7811
p쎯od쎯	-10.7812
ux쎯dd쎯	-10.7813
amyn0쎯ndm쎯	-10.7813
ii쎯rfm쎯	-10.7816
g쎯mhg쎯	-10.7817
axj쎯	-10.7817
,wv쎯klj쎯	-10.7821
go쎯idr쎯gf쎯	-10.7821
pv쎯lfhf쎯	-10.7821
xtk쎯	-10.7821
ijl쎯jef1쎯	-10.7825
wsg0쎯tgj쎯	-10.7827
qi쎯lfq쎯	-10.7827
wxj쎯mmm쎯ymhj쎯	-10.7828
。px쎯j쎯	-10.7828
gdk쎯	-10.7829
fp쎯tkgg0쎯k쎯,	-10.783
tdtf쎯	-10.783
vc쎯	-10.783
y쎯lw쎯r쎯	-10.7832
y쎯yfj쎯	-10.7832
▁q쎯	-10.7833
ide쎯ir쎯	-10.7834
ogm쎯	-10.7834
w쎯,k쎯aw쎯ipk쎯km쎯,	-10.7837
ijo쎯f쎯	-10.7839
awx쎯ycb쎯	-10.784
jy쎯tfl쎯qfhw0쎯	-10.7841
gkip2쎯yx쎯	-10.7846
wc쎯ngk쎯dn쎯uu쎯gf쎯	-10.7847
twik쎯	-10.7848
。ld쎯o쎯	-10.7848
m2	-10.7851
tg쎯jjjj쎯	-10.7855
uxe쎯dm쎯	-10.786
wgj쎯gf쎯	-10.7861
i쎯peg쎯	-10.7861
ny쎯vo쎯	-10.7861
mq쎯fghy2쎯	-10.7862
yjj0쎯wg쎯	-10.7863
dd쎯ip쎯ip쎯dl쎯	-10.7863
xxf쎯og쎯rg쎯	-10.7865
쎁쎉쎄쎃rh쎯	-10.787
kq쎯h쎯	-10.7871
bh쎯	-10.7872
ujn쎯ln쎯	-10.7872
iak쎯ivc쎯	-10.7872
5	-10.7872
gah쎯ic쎯dd쎯ip쎯	-10.7876
,j쎯mh쎯	-10.7877
gr쎯pgy쎯	-10.7877
ee쎯	-10.7879
′′	-10.788
rng0쎯	-10.7881
yfj쎯qev쎯	-10.7882
thc쎯hx쎯	-10.7885
trf쎯bmg쎯	-10.7886
н	-10.7887
fgf쎯	-10.7888
tnb쎯	-10.7888
tem쎯r쎯	-10.7888
sf쎯w쎯	-10.789
u쎯tg쎯b쎯	-10.7893
r쎯anb0쎯sy쎯	-10.7895
ab쎯jjjj쎯	-10.79
rtol1쎯bm쎯	-10.7901
lx쎯yf쎯	-10.7903
adm쎯hhhh쎯。	-10.7903
,dnv2쎯adw쎯j쎯	-10.7904
egi쎯	-10.7904
rcbs쎯	-10.7904
dga쎯yfy1쎯wf쎯	-10.7908
bm쎯r쎯	-10.7908
(쎃)	-10.7909
sjx쎯	-10.7909
bb쎯。	-10.7909
fhqv쎯rvyl쎯	-10.791
xe쎯klj쎯	-10.7911
tdp쎯iv쎯	-10.7912
thd쎯ick쎯ytyh쎯	-10.7912
gfi쎯fnrt쎯	-10.7913
wny0쎯tuh쎯	-10.7914
km쎯,	-10.7915
。sve쎯rnd1쎯	-10.7916
gjq쎯vb쎯r쎯	-10.7925
ry쎯xt쎯	-10.7929
gd쎯rnb쎯	-10.7931
ukh쎯pwd쎯	-10.7933
ua쎯djd쎯	-10.7933
dd쎯lpk0쎯ymhj쎯	-10.7933
qtgf2쎯	-10.7934
yq쎯tl쎯	-10.7935
rwye1쎯gkp쎯	-10.7935
vcl쎯	-10.7936
쎉)	-10.7936
dlf쎯	-10.794
ww쎯hx쎯	-10.7941
sm쎯tmd쎯	-10.7943
yiu쎯ndj쎯	-10.7944
vi쎯rmhj쎯	-10.7947
uk쎯ta쎯	-10.7948
쎂rh쎯	-10.7948
usr쎯w쎯	-10.7954
r쎯dr쎯mj쎯	-10.7955
qnth쎯ipg쎯	-10.7956
tffu쎯aps쎯iwyf2쎯	-10.7957
iu쎯aqrn0쎯	-10.7961
tqv쎯pg쎯r쎯	-10.7961
xfm쎯pwat쎯	-10.7962
gmww쎯ts쎯	-10.7962
gk쎯adm쎯	-10.7964
bpf쎯fghg쎯	-10.7967
if쎯jgm쎯	-10.7967
sghg1쎯ide쎯	-10.7973
efg0쎯	-10.7977
쎂-쎃	-10.7977
fh쎯xg쎯	-10.7979
bm쎯thgc쎯r쎯	-10.798
wtf쎯ftbt쎯	-10.7981
pym쎯jfc쎯	-10.7981
yid쎯lt쎯	-10.7985
,i쎯on쎯	-10.7987
h쎯ymhj쎯wc쎯ngk쎯	-10.7988
suh쎯	-10.7988
r쎯hhhh쎯sfi쎯	-10.799
py쎯wf쎯ip쎯	-10.7991
wfi쎯pynn1쎯	-10.7992
gqr쎯	-10.7994
qk쎯jgm쎯	-10.7995
udv쎯	-10.7996
rfc쎯sy쎯eb쎯tl쎯	-10.7997
lu쎯ym쎯	-10.7998
"、"	-10.7998
ee	-10.7999
g쎯jsd쎯	-10.8001
okk쎯	-10.8001
dj쎯dnv1쎯	-10.8005
sm쎯xeg쎯	-10.8008
dga쎯pwv쎯yy쎯tm쎯o쎯	-10.801
▁◆	-10.8011
efw쎯	-10.8012
qq쎯tyna2쎯	-10.8015
,rj쎯waw쎯	-10.8016
ige쎯bwt쎯	-10.8017
tb쎯ab쎯	-10.8017
(-	-10.8017
pp쎯。	-10.8017
dj쎯wxm쎯	-10.8021
g쎯jf쎯	-10.8023
r쎯py쎯wf쎯	-10.8024
,tq쎯o쎯	-10.8026
img쎯lll쎯	-10.8028
gn쎯adw쎯	-10.8031
▁쎆.	-10.8032
、tg쎯u쎯、qie쎯wyk쎯	-10.8035
gm쎯wa쎯wx쎯r쎯	-10.8035
pp쎯k쎯,	-10.8039
쎄쎅쎀	-10.804
ubtf쎯tfkp쎯	-10.8041
ypt쎯	-10.8042
ssss쎯rfm쎯	-10.8043
uy쎯wh쎯	-10.8043
qkm쎯mw쎯	-10.8044
mq쎯ii쎯	-10.8044
wk쎯ryn0쎯aq쎯	-10.8045
qk쎯thgf0쎯	-10.8045
dgkf0쎯yny0쎯	-10.8046
쎆.쎅	-10.8047
xyna0쎯aft쎯	-10.8048
scbk쎯	-10.8049
sdm쎯uk쎯	-10.805
vpq쎯	-10.8052
,gm쎯d쎯uqt쎯lt쎯gf쎯	-10.8055
qtyd1쎯	-10.8058
▁ad쎯sg쎯cd쎯ovt쎯	-10.8059
i쎯qy쎯	-10.8061
xh쎯v쎯	-10.8063
ktm쎯yid쎯	-10.8063
lfn쎯wx쎯	-10.8064
yygy쎯nnh쎯	-10.8064
▁『	-10.8064
dd쎯qq쎯	-10.8065
mq쎯fcu0쎯	-10.8065
r쎯wfny0쎯xyc쎯	-10.8067
sy쎯ygk쎯	-10.8067
pp쎯kht쎯	-10.8068
。wug1쎯gf쎯	-10.8069
,vfhp1쎯tam쎯	-10.8069
xyna0쎯ndj쎯	-10.807
tffu쎯bk쎯	-10.807
jb쎯usr쎯r쎯	-10.807
rgw쎯lft쎯	-10.8071
adnt1쎯ytt쎯	-10.8073
gq쎯lg쎯	-10.8074
xyy0쎯qnth쎯	-10.8078
j쎯wys쎯	-10.808
da쎯dk쎯。	-10.8081
pwfd쎯	-10.8083
oge쎯ugdu쎯	-10.8086
ith쎯ght쎯ywf쎯	-10.8087
ddi쎯	-10.8087
bfq쎯	-10.8088
yo쎯dfy쎯kkd쎯	-10.8089
▁wb쎯	-10.8091
eb쎯tl쎯、	-10.8095
bg쎯iww쎯	-10.8097
fg쎯adwe1쎯	-10.8099
tg쎯dyn쎯ggi쎯fuj쎯	-10.8099
bm쎯tmd쎯	-10.8099
wgj쎯tjh쎯	-10.81
aa쎯r쎯	-10.81
wyf0쎯tlf2쎯	-10.8103
yss쎯sgy쎯	-10.8104
uqd0쎯adm쎯	-10.8104
wc쎯xd쎯,	-10.811
fgig쎯	-10.8111
gad쎯	-10.8113
tx쎯gg쎯nm쎯	-10.8115
iry쎯ddnl쎯	-10.8117
▁hhhh쎯ue쎯	-10.8119
,gae쎯dn쎯b쎯	-10.8121
oo쎯、	-10.8121
wyn쎯fhw쎯	-10.8122
adh쎯	-10.8123
qmq쎯src쎯	-10.8123
yft쎯qq쎯	-10.8124
r쎯i쎯m쎯	-10.8127
oja쎯v쎯	-10.813
jgm쎯ww쎯	-10.8132
tfq쎯qtd쎯	-10.8133
wdt쎯bm쎯b쎯	-10.8134
a쎯anb0쎯kkk쎯	-10.8135
usgp1쎯	-10.8137
k쎯aw쎯ipk쎯km쎯,	-10.8139
ooo쎯tue쎯	-10.8139
ycb쎯gq쎯	-10.814
oug쎯bb쎯	-10.8141
tu쎯rfc쎯wbj쎯usr쎯	-10.8142
ooo쎯lg쎯	-10.8142
uth쎯ywf쎯	-10.8144
adu1쎯	-10.8144
,e쎯jf쎯	-10.8147
reh쎯e쎯g쎯fc쎯	-10.8148
pwf쎯	-10.8149
wt쎯ftj쎯:	-10.815
gg쎯fgh쎯	-10.815
uvo쎯pww쎯	-10.8151
bpx쎯	-10.8152
ukn쎯a쎯tkgg0쎯jgm쎯	-10.8157
gq쎯o쎯	-10.8157
《》	-10.8162
dj쎯wgk쎯	-10.8165
tyna2쎯ywx쎯yygy쎯	-10.8165
ftbt쎯tkgg0쎯	-10.8166
nge쎯xft쎯	-10.8169
j쎯g쎯uthp쎯	-10.8172
ftxu0쎯	-10.8174
uuj쎯syp쎯	-10.8175
[	-10.8178
hhu0쎯ru쎯	-10.8181
pfjm1쎯tb쎯	-10.8182
tp쎯gj쎯t쎯	-10.8184
r쎯dty쎯gk쎯。	-10.8185
pk쎯tfpd쎯	-10.8185
iytb0쎯fmk쎯	-10.8187
,ta쎯	-10.8189
xcy쎯rnr쎯	-10.819
uu쎯if쎯	-10.8191
a쎯og쎯aq쎯	-10.8192
vv쎯u쎯tu쎯	-10.8193
sghg1쎯wmj0쎯	-10.8194
ukn쎯xg쎯	-10.8195
wgkg0쎯	-10.8195
u쎯gf쎯	-10.8196
iv쎯wynb쎯	-10.8198
dr쎯sft쎯ou쎯	-10.8198
uqt쎯js쎯。	-10.82
cf쎯yid쎯	-10.8201
fqb1쎯wa쎯	-10.8202
lfq쎯anb0쎯	-10.8203
dd쎯m쎯	-10.8204
쎁쎉쎆쎃rh쎯	-10.8205
dd쎯gku쎯	-10.8207
er쎯	-10.8207
(쎄	-10.8212
fm쎯ps쎯ymhj쎯	-10.8215
fg쎯tffu쎯uqd0쎯。	-10.8215
gd쎯yygy쎯	-10.8215
。et쎯gf쎯	-10.8216
ukn쎯fay쎯	-10.8218
,yge쎯	-10.8219
bm쎯gm쎯b쎯	-10.8219
wxm쎯fcp쎯	-10.8219
r쎯gm쎯wa쎯wx쎯	-10.8219
bfm쎯xfn쎯	-10.822
쎁쎉쎃쎄rh쎯	-10.8224
fhn쎯ajj쎯	-10.8225
쎁쎂wh쎯	-10.8226
pp쎯gh쎯	-10.823
rcw쎯	-10.8231
yu쎯ytd쎯	-10.8234
txgt쎯dgkn쎯	-10.8234
r쎯wy쎯thn쎯	-10.8238
gae쎯rvyl쎯	-10.8242
rpws쎯imj쎯	-10.8242
pei쎯og쎯uk쎯	-10.8246
dx쎯uyh쎯	-10.8247
pyb1쎯	-10.8248
mmm쎯、	-10.8248
qgo쎯thg0쎯	-10.8253
mqq쎯xtk쎯apk쎯qie쎯	-10.8254
gq쎯ty쎯	-10.8254
oqdo쎯rnb쎯	-10.8254
,c쎯“	-10.8257
rn쎯fdm쎯	-10.8259
fcp쎯fcl쎯km쎯,	-10.826
bm쎯thgc쎯。	-10.826
qq쎯qk쎯	-10.8261
rnp쎯	-10.8263
yt쎯tmdf1쎯	-10.8266
hep쎯uj쎯	-10.8266
dga쎯pwv쎯。	-10.8267
qnqn쎯	-10.8267
adj쎯tvfh1쎯pr쎯	-10.8268
ck쎯ux쎯	-10.8268
k쎯l쎯wfny0쎯xyc쎯	-10.8268
fnr쎯qi쎯	-10.827
v쎯tg쎯d쎯	-10.8271
jjjj쎯adwe1쎯:	-10.8275
h쎯iytb0쎯	-10.8275
dm쎯lft쎯	-10.8276
mmv쎯qt쎯	-10.8276
sk쎯c쎯d쎯	-10.8281
tevc쎯	-10.8284
,vcl쎯lt쎯	-10.8285
eu쎯gkh0쎯	-10.8286
itf쎯uqv쎯,	-10.8286
ajt쎯ah쎯	-10.8289
。ige쎯	-10.8289
,hw쎯	-10.8289
trfh0쎯	-10.8292
de	-10.8292
bq쎯adnt1쎯	-10.8294
l쎯pe쎯g쎯xe쎯	-10.8296
dgtg쎯wx쎯	-10.8298
uduk쎯gf쎯	-10.8301
쎃쎀wv쎯qkhh1쎯	-10.8302
ncd쎯	-10.8304
y1쎯	-10.8304
qh쎯fpm쎯	-10.8304
ihi쎯qh쎯	-10.8307
,uq쎯cep쎯	-10.8308
tg쎯u쎯whf쎯og쎯	-10.8308
sx쎯	-10.8309
pp쎯pe쎯	-10.831
vcb쎯dn쎯。	-10.8312
sam쎯tm쎯	-10.8313
ipg쎯anb0쎯	-10.8313
,kw쎯e쎯	-10.8314
(쎁쎈	-10.8314
ii쎯k쎯	-10.8316
tf쎯,	-10.8317
ty쎯kkkk0쎯	-10.8317
▁쎆	-10.8318
lt쎯fiy쎯	-10.8322
bn쎯kn쎯	-10.8322
iyc쎯ii쎯	-10.8326
p쎯yww쎯	-10.8329
ugdu쎯cm쎯	-10.8331
isk쎯kkkk0쎯	-10.8332
usgd0쎯pg쎯b쎯	-10.8333
oqm쎯	-10.8335
yff쎯yygy쎯	-10.8335
fhn쎯b쎯	-10.8336
쎁쎉쎆쎇rh쎯	-10.8336
rmhj쎯tfkp쎯um쎯	-10.8337
tjh쎯gog쎯	-10.8337
cccf2쎯	-10.8341
).	-10.8341
tg쎯itd쎯k쎯	-10.8344
qje쎯tgh쎯	-10.8345
。gm쎯d쎯	-10.8346
rqb0쎯	-10.8349
sp쎯	-10.835
tm쎯ue쎯	-10.8351
쎅쎀%	-10.8351
tdij쎯xfm쎯	-10.8353
쎂쎀쎀쎃	-10.8357
you1쎯tq쎯	-10.836
qq쎯fqb1쎯	-10.8361
cqy쎯mww쎯	-10.8361
f쎯,	-10.8361
i쎯fuf1쎯	-10.8364
qre쎯	-10.8364
,et쎯gf쎯	-10.8368
iv쎯jv쎯	-10.8369
hv쎯quj쎯	-10.837
lkd쎯jv쎯	-10.8372
jfc쎯tg쎯	-10.8373
uqwn0쎯kkd쎯	-10.8373
thd쎯ick쎯	-10.8374
ccw쎯	-10.8374
yy쎯dm쎯,	-10.8376
ix쎯	-10.8376
sgjg쎯	-10.838
gqt	-10.838
쎂、	-10.838
,kha쎯yb쎯	-10.8383
wb쎯w쎯	-10.8383
ythp0쎯tg쎯	-10.8389
anf쎯	-10.8392
ih쎯yu쎯《	-10.8393
sfi쎯twgi쎯	-10.8395
tffu쎯tffy0쎯	-10.8395
rvyo쎯ii쎯	-10.8396
bpf쎯ta쎯	-10.8396
iux쎯	-10.8398
rnp쎯sgc쎯	-10.8399
fc쎯iyc쎯	-10.84
쎁쎆쎀쎀	-10.8401
jc쎯wycb쎯	-10.8402
qqqq1쎯uqd0쎯	-10.8403
tmo쎯fcp쎯	-10.8408
yygy쎯wsg0쎯	-10.8408
thd쎯ip쎯	-10.8409
rnp쎯ad쎯sgc쎯	-10.8411
py쎯aq쎯wug1쎯gf쎯	-10.8412
,tjh쎯et쎯	-10.8416
yfj쎯yww쎯	-10.8419
rhb쎯	-10.8419
qwy1쎯	-10.842
쎃.쎂	-10.842
vfb쎯su쎯	-10.8421
fgjg쎯	-10.8422
е	-10.8423
vo쎯fcr쎯	-10.8424
tu쎯sfhg쎯tr쎯	-10.8425
dgkn쎯fcl쎯	-10.8425
ptf쎯if쎯	-10.8431
w쎯d쎯	-10.8431
xnh쎯xwv쎯	-10.8432
mt쎯fgh쎯	-10.8433
,rh쎯	-10.8434
kdh쎯	-10.8434
fgh쎯ag쎯	-10.8435
atd쎯ip쎯wf쎯	-10.8437
i쎯nb쎯	-10.8445
rg쎯akgl쎯	-10.8446
ow쎯xxg0쎯	-10.8447
uq쎯tyg쎯	-10.8447
qyng쎯od쎯	-10.8448
lfn쎯tm쎯	-10.8449
yi쎯ce쎯	-10.8449
lfn쎯yo쎯	-10.8452
kd쎯ycb쎯	-10.8453
vvv쎯,	-10.8455
kht쎯kkkk0쎯	-10.8457
iy쎯mm쎯uqwm0쎯sg쎯	-10.8458
쎂/	-10.8459
emc쎯wwv쎯rmhj쎯	-10.846
jy쎯qc쎯	-10.846
tv쎯wf쎯	-10.8464
,iv쎯jf쎯	-10.8464
,tm쎯	-10.8466
tjt쎯iw쎯	-10.8467
jde쎯jan쎯	-10.8468
▁fg쎯、	-10.8468
쎁.쎇	-10.8469
ige쎯ssn쎯	-10.847
qynm1쎯mgn쎯	-10.8473
maf0쎯	-10.8473
ghd0쎯yq쎯	-10.8474
b쎯ytf쎯qq쎯	-10.8476
k쎯adwe1쎯	-10.8479
wvd쎯v쎯	-10.8479
ipkh1쎯wygg쎯	-10.848
cds쎯fghg쎯	-10.848
uqwk쎯yqj쎯eb쎯tl쎯	-10.8482
k쎯l쎯nnh쎯gl쎯	-10.8483
je쎯·	-10.8488
ip쎯ipkf0쎯	-10.849
io쎯ii쎯	-10.8491
qqug0쎯	-10.8492
nty1쎯rmhj쎯	-10.8493
sk쎯tfqp쎯	-10.8495
쎁쎉쎂쎇rh쎯	-10.8495
tdu쎯	-10.8496
f0쎯	-10.8497
yssr쎯rpwi쎯	-10.8498
ymhj쎯fnrt쎯x쎯iyj쎯	-10.8498
p쎯uqw쎯	-10.8498
ftbt쎯rep쎯、	-10.8498
maw쎯ahty쎯	-10.8501
udg2쎯lc쎯	-10.8505
ofd쎯oy쎯	-10.8506
dyt쎯ysi쎯	-10.8506
。bde쎯udh쎯	-10.851
jc쎯xt쎯	-10.8512
tgj쎯xeg쎯	-10.8513
∶	-10.8513
tmo쎯f쎯tjh쎯	-10.8513
og쎯y쎯	-10.8514
mmm쎯sf쎯	-10.8515
g쎯tffu쎯uqd0쎯。	-10.8515
src쎯、	-10.8517
jtr쎯	-10.8517
aus쎯	-10.8519
wgk쎯wt쎯,	-10.852
dnv2쎯adw쎯j쎯	-10.8522
w쎯n쎯bm쎯thgc쎯py쎯	-10.8526
tey쎯pw쎯wc쎯ngk쎯	-10.8526
vfhp1쎯ymc쎯t쎯	-10.8527
k쎯ny쎯,	-10.8528
lkd쎯pe쎯	-10.8528
y쎯w쎯wc쎯	-10.8528
쎄.쎀	-10.853
lks쎯sq쎯	-10.853
et쎯yne쎯r쎯	-10.853
bde쎯jf쎯	-10.8531
pyfc0쎯	-10.8531
jq쎯adwe1쎯	-10.8534
,wg쎯sf쎯	-10.8534
hk쎯wycm0쎯	-10.8536
ymf쎯rmhj쎯	-10.8538
rqym쎯	-10.8538
xry쎯	-10.8538
ajd쎯adwr쎯tu쎯	-10.8538
usr쎯sghg1쎯uff쎯	-10.8539
g쎯xeg쎯	-10.8541
tjt쎯vs쎯r쎯	-10.8541
fm쎯egc쎯	-10.8544
wdn쎯fha쎯,	-10.8545
puy쎯	-10.8546
rrr쎯ae쎯	-10.8546
쎂쎀dq쎯	-10.8549
dj쎯pe쎯	-10.855
m쎯od쎯	-10.8554
r쎯ce쎯lt쎯	-10.8555
hv쎯tu쎯	-10.8555
a쎯um쎯tf쎯ght쎯	-10.8556
aq쎯klj쎯	-10.8556
xx쎯tjh쎯jf쎯	-10.8557
tkw쎯lx쎯b쎯dh쎯pgk쎯	-10.8563
ywe쎯ubk0쎯	-10.8563
oge쎯wxf쎯	-10.8564
tk쎯thd쎯	-10.8564
v쎯gm쎯b쎯	-10.8565
itp쎯rxj쎯	-10.8567
р	-10.8571
qgj쎯nfp쎯	-10.8571
hko쎯,	-10.8572
쎁쎉쎃쎂rh쎯	-10.8572
tg쎯gqf쎯	-10.8573
vk쎯wynb쎯	-10.8574
itd쎯lt쎯	-10.8574
xe쎯a쎯tkgg0쎯jgm쎯	-10.8577
wys쎯》	-10.8577
gk쎯。	-10.8577
gkl쎯bpf쎯ta쎯	-10.8578
vfhp1쎯suq쎯	-10.8581
khu쎯gfi쎯fcp쎯fcl쎯	-10.8583
fq쎯qc쎯	-10.8584
rtol1쎯tkh쎯	-10.8584
ukn쎯ptkm0쎯	-10.8586
tmd쎯lp쎯	-10.8586
dd쎯ds쎯	-10.8586
sou1쎯	-10.8587
tep쎯fp쎯	-10.8588
by쎯ywfw쎯	-10.8588
yy쎯if쎯,	-10.8589
synw쎯siq쎯	-10.859
d쎯bk쎯dga쎯pwv쎯tg쎯	-10.859
fn쎯drin쎯ftj쎯	-10.8591
gtu쎯dq쎯mq쎯	-10.8592
gkl쎯y쎯wtf쎯。	-10.8594
ai쎯wmj0쎯	-10.8594
dm쎯ue쎯	-10.8597
sc쎯lt쎯	-10.8597
g쎯gcft2쎯	-10.8599
ntg쎯。	-10.8601
fp쎯r쎯	-10.8601
nkuy1쎯	-10.8602
w쎯st쎯	-10.8604
tffu쎯gf쎯	-10.8605
dm쎯h쎯	-10.8612
av쎯pdhj쎯	-10.8613
sve쎯rnd1쎯f쎯	-10.8614
yygy쎯bu쎯	-10.8615
cbd쎯yf쎯	-10.8615
ws쎯thn쎯	-10.8617
rdf1쎯iw쎯	-10.862
ue쎯bg쎯	-10.8622
ga쎯wbj쎯	-10.8622
kkd쎯pn쎯	-10.8627
qev쎯sr쎯	-10.863
j쎯q쎯wu쎯	-10.863
trf쎯qc쎯r쎯	-10.863
ick쎯pv쎯	-10.863
thgc쎯)	-10.8634
sh쎯wfny0쎯	-10.8634
tffu쎯pei쎯wt쎯tr쎯	-10.8635
j쎯sve쎯rnd1쎯	-10.8636
fm쎯ps쎯	-10.8637
vb쎯dc쎯	-10.8637
ugm쎯yo쎯	-10.8638
r쎯kkk쎯thgf0쎯	-10.864
pu쎯yk쎯	-10.8641
dm쎯tkw쎯쎂	-10.8642
ubk0쎯	-10.8643
dga쎯pwv쎯km쎯。	-10.8645
,p쎯wh쎯	-10.8646
v쎯nae쎯,	-10.8647
wv쎯dmh쎯d쎯	-10.8647
tyna2쎯,	-10.8648
uqwm0쎯idr쎯,	-10.8649
쎉쎀%	-10.8649
e1쎯	-10.865
쎂쎀쎀쎄	-10.865
djde0쎯	-10.8651
tfqp쎯yce쎯	-10.8651
pp쎯rn쎯	-10.8651
go쎯r쎯	-10.8654
wf쎯yyq쎯pgc쎯	-10.8655
,m쎯jf쎯bn쎯	-10.8656
r쎯ee쎯dc쎯	-10.866
kht쎯dm쎯	-10.866
tv쎯ipkh1쎯tv쎯、	-10.866
k쎯atd쎯ip쎯bpf쎯	-10.8661
gmm쎯gde쎯	-10.8661
ym쎯gf쎯	-10.8664
ngk쎯wyc쎯uk쎯	-10.8664
─	-10.8664
wgj쎯rgv쎯	-10.8666
fl쎯wf쎯wf쎯km쎯	-10.8666
tjf쎯kfi쎯	-10.8667
nh쎯aqt쎯	-10.8667
alq쎯hhy쎯	-10.8669
jhnr쎯qie쎯	-10.8673
rvk쎯um쎯	-10.8673
sfi쎯uwy1쎯r쎯	-10.8674
fwm쎯pg쎯r쎯	-10.8676
ovt쎯pb쎯wx쎯	-10.8676
utdk쎯	-10.868
f쎯src쎯	-10.8681
nudu쎯fnud쎯	-10.8682
lfhf쎯gf쎯	-10.8683
fhl쎯og쎯	-10.8683
ieb쎯mfky쎯	-10.8684
xg쎯h쎯	-10.8684
tu쎯rfc쎯v쎯nae쎯	-10.8685
th쎯th쎯ta쎯	-10.8685
cep쎯wwwk쎯	-10.8687
。”psu쎯	-10.8687
tfq쎯rg쎯wtf쎯	-10.869
ran쎯xqc쎯	-10.8693
tr쎯gj쎯ip쎯	-10.8695
(tuj쎯tq쎯	-10.8695
j쎯o쎯b쎯	-10.8695
rfc쎯sy쎯fc쎯rf쎯	-10.8696
ipr쎯itx쎯	-10.8699
jtyl쎯gj쎯	-10.8699
i쎯m쎯,	-10.87
ujfj쎯ma쎯	-10.8701
wc쎯ngk쎯j쎯g쎯pe쎯	-10.8701
,p쎯jfd쎯	-10.8704
lu쎯ym쎯r쎯	-10.8704
dd쎯oy쎯	-10.8706
쎁쎉쎃쎁rh쎯	-10.8707
tqv쎯pg쎯ntg쎯	-10.8708
vef쎯	-10.8708
tqf쎯	-10.871
wv쎯int쎯	-10.871
rs쎯qgb쎯sm쎯	-10.8712
쎂쎀%	-10.8713
wgku1쎯bfm쎯	-10.8714
oge쎯pyj쎯,	-10.8714
std쎯qfhw0쎯	-10.8716
qk쎯atd쎯	-10.8718
r쎯ym쎯tu쎯rfc쎯	-10.8719
rnw쎯lfnh쎯	-10.872
,vii쎯ntk쎯gf쎯	-10.872
sf쎯mw쎯	-10.872
xfm쎯tavn쎯	-10.8722
e쎯g쎯pg쎯	-10.8724
r쎯gj쎯ywx쎯	-10.8725
gah쎯jj쎯	-10.8727
pei쎯dl쎯	-10.8728
、wg쎯l쎯	-10.8731
ftj쎯r쎯	-10.8734
。”je쎯	-10.8735
쎂쎀an쎯xn쎯	-10.8735
pj쎯udjh쎯	-10.8736
jf쎯pw쎯	-10.8736
ty쎯uyh쎯	-10.8738
an쎯pe쎯	-10.8739
gik쎯	-10.874
dd쎯uyh쎯	-10.8741
。m쎯rh쎯	-10.8741
nty1쎯yv쎯	-10.8742
yo쎯tkh쎯	-10.8742
jb쎯ym쎯r쎯	-10.8744
dq쎯ru쎯	-10.8747
gkl쎯tn쎯nnh쎯ta쎯	-10.8747
trf쎯gqr쎯r쎯	-10.8748
sr쎯	-10.8748
tl쎯pu쎯	-10.8748
ucd쎯	-10.8749
dr쎯sg쎯	-10.8749
ip쎯tg쎯r쎯	-10.8751
aq쎯。	-10.8754
n1쎯	-10.8756
qm쎯awsk쎯	-10.8757
r쎯rn쎯e쎯	-10.876
e쎯g쎯pg쎯r쎯	-10.876
mhny0쎯qiu0쎯	-10.8764
lfo	-10.8766
g쎯m쎯	-10.8767
x쎯qyv쎯	-10.8767
gmww쎯dm쎯	-10.8768
jf쎯ufy쎯	-10.8768
qev쎯toc쎯:	-10.8769
fcp쎯fcl쎯wf쎯	-10.8772
ygk쎯if쎯	-10.8772
cw쎯ya쎯	-10.8775
fm쎯bj쎯	-10.8775
k쎯mmm쎯dd쎯ip쎯	-10.8778
;d쎯	-10.8779
bm쎯tg쎯d쎯	-10.8779
rwgk쎯	-10.8781
w쎯n쎯sw쎯pwfi쎯bpf쎯	-10.8782
,bwt쎯	-10.8783
wbj쎯tfkp쎯b쎯	-10.8784
cep쎯fp쎯b쎯	-10.8788
rwye1쎯	-10.8789
yon쎯ep쎯	-10.8792
k쎯l쎯iv쎯wa쎯	-10.8792
yjjh1쎯、	-10.8794
r쎯svc쎯wynn3쎯	-10.8794
tfk쎯jfd쎯	-10.8796
xl쎯gcft2쎯	-10.8797
,sghg1쎯	-10.8798
bm쎯uthp쎯	-10.8798
jtyl쎯qtyd1쎯	-10.8798
to쎯tb쎯	-10.8799
gjq쎯rq쎯	-10.8799
j쎯l쎯pe쎯	-10.88
it쎯uqf쎯	-10.88
wf	-10.8801
jb쎯tgj쎯s쎯r쎯	-10.8801
wbj쎯uu쎯gf쎯	-10.8803
dn쎯ybv쎯r쎯	-10.8805
fk쎯pyu쎯	-10.8805
sh쎯xf쎯wgk쎯	-10.8805
pg쎯hko쎯	-10.8807
um쎯tl쎯isgg0쎯yhk쎯	-10.8809
saj쎯aa쎯,	-10.8809
쎃%	-10.8811
wg쎯suq쎯	-10.8811
:쎅	-10.8812
tx쎯쎅	-10.8816
g쎯uth쎯	-10.8816
xk쎯dd쎯	-10.8818
k0쎯	-10.8819
d쎯g쎯wh쎯	-10.8825
쎂%	-10.8826
ypt쎯oy쎯	-10.8826
pp쎯h쎯	-10.8827
pujs쎯	-10.8829
pgm쎯	-10.883
、ii쎯	-10.8832
ic쎯wa쎯	-10.8834
ryi쎯	-10.8835
o쎯synw쎯ny쎯	-10.8835
wc쎯dmh쎯	-10.8835
쎃.쎁	-10.8837
by쎯ooo쎯	-10.8839
fm쎯cep쎯	-10.8839
kkkk0쎯dgkn쎯	-10.884
yn쎯·	-10.884
pgy쎯dgtg쎯	-10.8842
w쎯n쎯if쎯bpf쎯	-10.8842
bgk쎯yb쎯	-10.8843
qh쎯,gip쎯	-10.8844
wyv쎯yuo쎯	-10.8844
mqq쎯iytb0쎯	-10.8845
,txg쎯rh쎯	-10.8845
ymf쎯ou쎯	-10.8846
tfl쎯yce쎯	-10.8846
ndj쎯bpf쎯	-10.8847
mq쎯ijo쎯	-10.8847
ㄣ	-10.8849
hi쎯rgw쎯	-10.8853
lw쎯wc쎯ds쎯	-10.8856
djfd쎯oy쎯	-10.8857
dr쎯e쎯	-10.8858
kxe쎯	-10.8859
,vfb쎯tc쎯	-10.8862
wxj쎯mmm쎯	-10.8864
khgm4쎯bj쎯	-10.8867
h쎯yy쎯	-10.8869
。rp쎯rh쎯go쎯,	-10.8871
td쎯qk쎯kkk쎯thgf0쎯	-10.8875
tg쎯u쎯a쎯anb0쎯	-10.8876
,px쎯wu쎯	-10.8877
wc쎯ngk쎯wug1쎯gf쎯	-10.8879
pyg쎯ytyh쎯ymhj쎯	-10.8881
wtp쎯k쎯	-10.8886
bo쎯	-10.8888
쎁/쎃	-10.8888
ip쎯sy쎯uq쎯iyc쎯	-10.8889
쎅kgn쎯	-10.889
dd쎯fwm쎯saj쎯	-10.889
dny쎯	-10.8891
ftjb쎯d쎯	-10.8892
rmhj쎯yjjh1쎯	-10.8893
ebf1쎯	-10.8894
r쎯v쎯nae쎯,	-10.8894
。n쎯l쎯	-10.8895
dhb쎯d쎯r쎯	-10.8896
afwt1쎯	-10.8897
xte쎯wug1쎯gf쎯	-10.8897
nty1쎯qk쎯o쎯	-10.8897
xww쎯bw쎯	-10.8898
rmn쎯bqv쎯	-10.8898
dd쎯fny쎯ip쎯dl쎯	-10.89
y쎯lt쎯	-10.8901
dm쎯ou쎯	-10.8903
gj쎯mf쎯	-10.8903
tve쎯e쎯	-10.8909
j쎯cf쎯	-10.8909
you1쎯wt쎯“	-10.891
(쎁쎉쎃	-10.891
d쎯q쎯l쎯	-10.891
bukn쎯je쎯	-10.8912
k쎯fny쎯	-10.8916
tg쎯u쎯ymc쎯tlf2쎯	-10.8919
tu쎯pgc쎯	-10.892
fjn쎯	-10.8921
igd쎯lk쎯yjjh1쎯	-10.8923
,fh쎯gc쎯	-10.8924
yopy1쎯	-10.8925
ujfj쎯g쎯	-10.8925
wc쎯gu쎯	-10.8925
p쎯tc쎯	-10.8927
fny쎯iy쎯	-10.8929
me쎯tu쎯	-10.8929
vd쎯vyv쎯	-10.893
ndj쎯sg쎯	-10.893
scw쎯	-10.8931
ijfg0쎯	-10.8933
rnr쎯fnr쎯kkd쎯	-10.8934
iy쎯ujf쎯:	-10.8937
>>	-10.8938
gyt쎯y쎯wtf쎯	-10.8939
wv쎯klj쎯o쎯	-10.8939
;쎁	-10.8939
rmhj쎯ys쎯	-10.8943
,fm쎯	-10.8944
mmqu쎯	-10.8944
fff5쎯f쎯af쎯wgkb2쎯	-10.8944
ypm쎯ya쎯	-10.8944
r쎯wt쎯et쎯。	-10.8946
d쎯tjf쎯iawn쎯	-10.8946
qqqq1쎯mmm쎯	-10.8946
ght쎯if쎯	-10.8948
с	-10.8948
wvd쎯v쎯r쎯	-10.895
nnh쎯·	-10.8953
,jcf쎯rf쎯	-10.8954
fq쎯ywx쎯	-10.8955
khr쎯	-10.8955
sse쎯	-10.8957
rfc쎯sy쎯dga쎯pwv쎯	-10.8958
fq쎯sm쎯	-10.8958
qten0쎯	-10.8959
uwyc0쎯uai쎯	-10.8962
vca쎯e쎯	-10.8962
nty1쎯tq쎯	-10.8963
ym쎯mtd쎯	-10.8965
mmm쎯sdm쎯	-10.8965
tfk쎯dq쎯	-10.8967
yc쎯jn쎯	-10.8967
pfq쎯ugdu쎯r쎯	-10.8969
ytt쎯thd쎯ick쎯aq쎯	-10.897
g쎯wrh2쎯	-10.8971
tew쎯	-10.8972
tg쎯u쎯x쎯apk쎯	-10.8972
。쎁쎈	-10.8972
,uq쎯cep쎯wgj쎯tjh쎯	-10.8973
usr쎯kkk쎯tkh쎯	-10.8974
pynn1쎯	-10.8975
r쎯g쎯hxf쎯	-10.8975
tfk쎯dnv1쎯	-10.8976
ftbt쎯wf쎯	-10.8978
egc쎯ta쎯	-10.8978
i쎯yo쎯	-10.898
g쎯kgn쎯	-10.898
iqpl1쎯or쎯	-10.8984
fc쎯ref쎯	-10.8985
nkuf쎯gl쎯	-10.8985
,rpv쎯	-10.8985
kq쎯ou쎯	-10.8985
sgw쎯	-10.8988
、fm쎯	-10.8989
mmm쎯yfd쎯	-10.899
cf쎯adw쎯	-10.8994
gogj쎯tak쎯	-10.8996
a쎯tkgg0쎯fny쎯og쎯	-10.8999
smm쎯	-10.9
p쎯uk쎯	-10.9
ijq쎯	-10.9001
”pb쎯	-10.9002
쎃.쎃	-10.9002
▁쎂쎀쎀쎈rh쎯	-10.9003
isgg0쎯kc쎯	-10.9005
qtj쎯uu쎯r쎯	-10.9005
,kj쎯qd쎯	-10.9008
mn쎯	-10.9008
▁qh쎯gae쎯	-10.9009
usr쎯ub쎯bm쎯thgc쎯	-10.901
dn쎯uu쎯,	-10.9011
dv쎯	-10.9011
afie쎯	-10.9015
lj쎯	-10.9016
ymf쎯wtf쎯	-10.9016
itx쎯fakg1쎯	-10.9019
。kl쎯qh쎯,	-10.9021
ftbt쎯ip쎯a쎯wt쎯	-10.9023
tf쎯og쎯fl쎯wf쎯	-10.9025
rdj쎯yt쎯	-10.9028
,ryl쎯ta쎯	-10.903
dnv1쎯jfd쎯	-10.9031
vbn쎯wu쎯	-10.9033
bu쎯shn쎯	-10.9034
kftj0쎯	-10.9034
f쎯qk쎯	-10.9035
ymc쎯uu쎯r쎯	-10.9035
uh쎯d쎯	-10.9039
r쎯tf쎯o쎯	-10.9039
sh쎯lpk0쎯	-10.904
ygk쎯yyy쎯ip쎯	-10.9041
tmg1쎯lqw쎯	-10.9041
vff쎯	-10.9041
rxj쎯wyc쎯	-10.9041
ipwk0쎯qev쎯	-10.9042
rfc쎯sy쎯wbj쎯usr쎯	-10.9043
suq쎯xe쎯	-10.9043
ucw쎯a쎯	-10.9044
najg쎯	-10.905
pe쎯et쎯	-10.905
dy쎯pw쎯	-10.9053
bs쎯sve쎯tfpd쎯	-10.9053
쎁gmww쎯	-10.9055
k쎯tu쎯bpf쎯	-10.9056
yygy쎯si쎯	-10.9056
um쎯ip쎯bpf쎯	-10.9057
쎂×	-10.9057
e쎯ytf쎯qq쎯	-10.9061
dfef쎯	-10.9061
qyk쎯	-10.9062
wx쎯uv쎯	-10.9064
ade쎯	-10.9067
,p쎯su쎯	-10.9068
w쎯dd쎯	-10.907
xwf쎯rmhj쎯	-10.907
dd쎯uqd0쎯	-10.9072
ㄥ	-10.9074
rg쎯w쎯	-10.9076
w쎯tfkp쎯	-10.9078
qdy1쎯	-10.9079
ev쎯	-10.9081
,aw쎯e쎯	-10.9081
ftbt쎯yce쎯a쎯wt쎯	-10.9082
gcf쎯wynb쎯wtf쎯	-10.9082
xwv쎯xwv쎯	-10.9085
qynm1쎯h쎯	-10.9086
yn	-10.9087
ip쎯wf쎯wf쎯km쎯	-10.9088
쎀쎀	-10.9088
tg쎯wx쎯	-10.9092
d쎯adw쎯	-10.9092
apw쎯	-10.9092
『	-10.9093
ytey쎯tf쎯py쎯	-10.9094
▁.	-10.9094
m쎯ujn쎯	-10.9097
myd쎯gtu쎯	-10.9097
ivp쎯iqn쎯	-10.9098
쎅°C	-10.9098
,dqe쎯wk쎯	-10.9102
wc쎯ngk쎯,	-10.9103
jq쎯rh쎯	-10.9105
(gm쎯	-10.9105
vq쎯pynn0쎯	-10.9106
wdn쎯yv쎯r쎯	-10.9107
wycm0쎯nf쎯ih쎯xeg쎯	-10.9107
rg쎯wtf쎯	-10.9112
tve쎯vb쎯r쎯	-10.9115
rymn쎯hka쎯	-10.9119
u쎯wfhg쎯	-10.912
쎆kgn쎯	-10.9121
pgy쎯mhny0쎯	-10.9121
rpl쎯	-10.9122
jh쎯hq쎯	-10.9124
쎁쎀쎂쎄	-10.9125
fggh쎯gk쎯	-10.9125
r쎯al쎯ce쎯	-10.9127
rxj쎯bm쎯	-10.9127
amyn0쎯	-10.9128
tig쎯	-10.9129
fjh0쎯tr쎯h쎯v쎯ge쎯	-10.913
dg쎯nfc쎯	-10.913
ii쎯egc쎯	-10.913
sk쎯tfkd쎯	-10.9131
imkf1쎯fii쎯	-10.9134
ip쎯suq쎯。	-10.9135
。mh쎯	-10.9137
wgkq0쎯adw쎯	-10.9137
rx쎯ygu쎯	-10.9137
alf쎯ytt쎯	-10.9137
,wgq쎯vk쎯	-10.9138
wfl쎯	-10.9139
r쎯ad쎯dbm쎯	-10.9139
xnn0쎯shn쎯	-10.9141
ajdj1쎯	-10.9143
cyna0쎯	-10.9147
scf쎯uu쎯	-10.9149
thd쎯tf쎯lg쎯	-10.9152
ukn쎯nnk쎯	-10.9153
mw쎯wv쎯int쎯	-10.9154
iry쎯nge쎯	-10.9154
nnnn쎯x쎯dn쎯o쎯	-10.9155
po쎯pd쎯	-10.9157
jujf1쎯	-10.9159
dm쎯tkw쎯쎄	-10.9163
rer쎯iuc쎯	-10.9167
wc쎯fqb1쎯	-10.9167
sk쎯c쎯cep쎯fp쎯	-10.9168
hko쎯。	-10.9171
y쎯s쎯x쎯apk쎯	-10.9172
tmg1쎯gajf쎯	-10.9172
fwyc2쎯uk쎯wrh2쎯	-10.9173
,xf쎯wgk쎯	-10.9173
fad쎯	-10.9176
yygt쎯sghg1쎯ufg쎯	-10.9178
n쎯tg쎯	-10.9181
tol쎯alkf0쎯	-10.9181
sbd쎯lkmi0쎯gae쎯,	-10.9182
ua쎯i쎯j쎯	-10.9182
mm	-10.9184
dnv1쎯kgb쎯	-10.9188
jo쎯fi쎯kkd쎯	-10.9191
pu쎯tl쎯	-10.9191
eyni쎯ukh쎯	-10.9191
yid쎯iv쎯	-10.9192
tmo쎯ss쎯aqv1쎯dq쎯	-10.9193
epq쎯	-10.9193
tyg쎯go쎯	-10.9193
ajl쎯	-10.9195
r쎯wgkq0쎯et쎯	-10.9196
vk쎯gh쎯	-10.9196
qhk쎯dgtg쎯	-10.9197
。lpdk0쎯	-10.9197
xq쎯쎂	-10.9199
apk쎯udyj쎯dh쎯pgk쎯	-10.9199
ghg1쎯	-10.92
tx쎯fgh쎯	-10.9206
ywx쎯syp쎯	-10.9207
》)	-10.9207
w쎯k쎯aw쎯ipk쎯km쎯	-10.9209
wycm0쎯nf쎯w쎯	-10.921
rw쎯mty1쎯	-10.921
xq쎯o쎯	-10.921
aq쎯r쎯	-10.9212
afs쎯wh쎯	-10.9212
uqvd0쎯	-10.9212
yt쎯dd쎯	-10.9212
쎃/	-10.9213
qw쎯	-10.9214
▁bm쎯th쎯:	-10.9214
ffff5쎯bgh쎯adw쎯	-10.9215
syl쎯	-10.9216
sm쎯wsg0쎯	-10.9217
jgm쎯dd쎯	-10.9217
efk쎯eta쎯	-10.9218
ff쎯bpf쎯	-10.9219
fwm쎯aj쎯、	-10.9221
itd쎯inty쎯	-10.9224
wc쎯ngk쎯、	-10.9225
tn쎯nnh쎯ta쎯	-10.9225
rmhj쎯tfkp쎯og쎯	-10.9228
iwb쎯	-10.923
aguw쎯	-10.923
puhc쎯iwyf2쎯o쎯	-10.9231
r쎯pv쎯wg쎯	-10.9234
qq쎯w쎯	-10.9238
쎃.쎆	-10.9238
ooo쎯eve쎯	-10.9241
dl쎯kq쎯whtn1쎯qy쎯	-10.9241
tkh쎯,	-10.9242
p쎯ffi쎯	-10.9243
pe쎯fl쎯wf쎯wf쎯km쎯、	-10.9243
qiu0쎯·	-10.9244
mw쎯pww쎯qn쎯rtd쎯	-10.9245
iak쎯ssss쎯	-10.9245
ymhj쎯tv쎯、ymhj쎯	-10.9245
i쎯td쎯uthp쎯	-10.9246
wgnb쎯	-10.9248
v쎯tg쎯b쎯	-10.9248
bb쎯vvv쎯	-10.9249
nnnn쎯puhc쎯	-10.925
r쎯fnr쎯ujf쎯	-10.9251
yfj쎯rep쎯	-10.9253
on쎯gqje쎯	-10.9255
ywfw쎯qnj쎯	-10.9256
쎂.쎆	-10.9256
fm쎯djd쎯	-10.9258
et쎯r쎯	-10.9262
fak쎯	-10.9265
qtk쎯	-10.9265
wsg0쎯gajf쎯	-10.9266
dgtg쎯udi쎯	-10.9269
rte쎯	-10.9269
rrp쎯	-10.927
up쎯ggg1쎯	-10.9272
yy쎯aa쎯,	-10.9273
dgh쎯w쎯	-10.9277
dd쎯fny쎯	-10.9278
itd쎯khtd2쎯	-10.9279
hna쎯	-10.928
ipg쎯yfj쎯	-10.9281
fh쎯uu쎯	-10.9283
mmm쎯fhc쎯	-10.9285
rrr쎯qc쎯,	-10.9286
쎂w쎯,	-10.9286
qr쎯uthp쎯	-10.9287
dm쎯tkw쎯쎅	-10.9289
쎁—	-10.9289
wgkb2쎯fcp쎯	-10.929
tp쎯gj쎯ip쎯bpf쎯	-10.929
r쎯usr쎯gajf쎯	-10.9291
cc쎯tm쎯	-10.9291
sh쎯m쎯r쎯	-10.9293
ntx쎯	-10.9295
wdt쎯if쎯	-10.9295
,wg쎯	-10.9296
dg쎯qe쎯gae쎯	-10.9297
ty쎯wvp쎯	-10.9297
sf쎯qfhw0쎯	-10.9299
ae쎯qde쎯	-10.93
ryc쎯qie쎯	-10.9301
uub쎯	-10.9302
,adk쎯	-10.9303
www쎯tg쎯	-10.9304
mmm쎯,	-10.9305
lfo쎯ju쎯	-10.9305
nnh쎯if쎯wt쎯kkk쎯	-10.9309
ga쎯cep쎯	-10.931
udg2쎯ec쎯	-10.9311
god쎯st쎯r쎯	-10.9311
uyh쎯,	-10.9312
cf쎯rymn쎯	-10.9312
vck쎯gf쎯	-10.9316
wys쎯qfhw0쎯	-10.9316
쎁쎈쎈	-10.9316
gf쎯쎂쎀쎀쎉rh쎯	-10.9316
wqa쎯gf쎯	-10.9317
(?	-10.9319
mt쎯rh쎯	-10.932
pue쎯	-10.9321
mmv쎯	-10.9322
kw쎯fdm쎯	-10.9322
pp쎯bb쎯	-10.9322
gk쎯pu쎯	-10.9322
ccf쎯	-10.9325
itl쎯	-10.9325
▁쎂쎀쎀쎆rh쎯	-10.9327
ukn쎯hich쎯	-10.9327
dp쎯gc쎯b쎯	-10.9328
xln1쎯jhny쎯	-10.9328
bynw0쎯bb쎯wu쎯	-10.9328
ifw쎯lt쎯	-10.9328
sk쎯et쎯gf쎯	-10.9328
luf쎯	-10.9329
dx쎯riu쎯	-10.9329
um쎯yhk쎯	-10.9331
wh쎯ntg쎯wx쎯	-10.9332
dg쎯w쎯	-10.9334
rdjn쎯	-10.9335
yygy쎯wx쎯r쎯	-10.9336
glf쎯	-10.9337
ii쎯uqwm0쎯idr쎯	-10.9339
pa쎯gkp쎯	-10.9339
ipkh1쎯tl쎯tv쎯km쎯	-10.9339
akgn0쎯	-10.934
fm쎯mmm쎯	-10.934
ujff쎯ytd쎯	-10.9341
qk쎯iwyf2쎯	-10.9347
wtf쎯tl쎯。	-10.935
fq쎯qjq쎯ymhj쎯	-10.9351
。p쎯j쎯	-10.9353
kmd쎯	-10.9354
r쎯tg쎯u쎯	-10.9355
gm쎯dhb쎯	-10.9356
dfn쎯	-10.9356
c쎯fm쎯	-10.9358
fhqv쎯	-10.9359
fj쎯bc쎯	-10.9361
usr쎯tg쎯	-10.9362
od쎯、	-10.9363
ige쎯·	-10.9363
wgmy3쎯udv쎯	-10.9364
jjjj쎯rb1쎯》	-10.9365
ugm쎯gj쎯	-10.9366
+쎁	-10.9366
,w쎯wu쎯	-10.9367
gf쎯j쎯	-10.9368
sgn쎯udp쎯	-10.9369
shn쎯s쎯	-10.9372
dgv쎯elw쎯	-10.9372
tx쎯g쎯uk쎯	-10.9373
wvmj쎯	-10.9375
qmq쎯telb쎯	-10.9375
rck쎯	-10.9377
jb쎯tfq쎯fj쎯r쎯	-10.938
kkkk0쎯,	-10.9381
al쎯uqt쎯	-10.9383
fhn쎯idr쎯gf쎯	-10.9383
3	-10.9383
tif쎯	-10.9385
nfi0쎯	-10.9386
uqd0쎯”	-10.9387
pfqc1쎯	-10.9387
ftjb쎯s쎯	-10.9388
iwv쎯	-10.9388
r쎯tx쎯g쎯	-10.939
k쎯l쎯nnh쎯if쎯	-10.9392
yu쎯je쎯nnh쎯	-10.9393
gd쎯ipkf0쎯	-10.9395
wup쎯	-10.9395
dd쎯hka쎯	-10.9396
tdg1쎯adwe1쎯	-10.9397
wlk쎯	-10.9399
av쎯thg0쎯	-10.94
wf쎯ta쎯	-10.9401
。wjg쎯j쎯	-10.9402
sghg1쎯gog쎯	-10.9404
tdtf쎯tlf2쎯	-10.9404
ymkc0쎯	-10.9405
,bde쎯udh쎯	-10.9406
su쎯kkk쎯	-10.9406
sgi쎯”	-10.9407
he쎯pg쎯	-10.9407
hka쎯sy쎯	-10.9407
rnb쎯fcl쎯	-10.9407
pwav쎯	-10.9408
nge쎯ukq쎯gh쎯	-10.9408
fhu쎯fj쎯	-10.941
bqn쎯	-10.9413
uwyc0쎯ii쎯	-10.9414
쎂.쎇	-10.9415
pl쎯wv쎯aq쎯	-10.9417
,ftjb쎯	-10.9418
ip쎯fny쎯og쎯	-10.9418
udy쎯fqb1쎯	-10.9419
cy쎯f쎯	-10.9421
e쎯tve쎯qq쎯	-10.9421
,xx쎯vk쎯	-10.9422
khd쎯fha쎯	-10.9422
ny쎯k쎯	-10.9423
adw쎯uj쎯	-10.9424
ufy쎯lhnh쎯	-10.9425
r쎯xp쎯wgk쎯	-10.9427
isk쎯uthp쎯	-10.9427
bde쎯ujn쎯	-10.9428
qsu쎯gqx쎯	-10.9429
ith쎯、ymhj쎯	-10.9429
xx쎯vk쎯	-10.943
dd쎯ip쎯yygy쎯wx쎯	-10.9432
k쎯fm쎯	-10.9435
r쎯mqq쎯xtk쎯	-10.9435
han쎯	-10.9435
sh쎯wycb쎯	-10.9436
tve쎯dd쎯	-10.9437
xe쎯a쎯tkgg0쎯jgm쎯。	-10.9437
k쎯l쎯wt쎯pe쎯fl쎯wf쎯	-10.9437
adm쎯hhhh쎯,	-10.9438
aqt쎯ith쎯	-10.9438
ipkh1쎯et쎯r쎯	-10.9439
pe쎯。	-10.9439
qnth쎯)	-10.9439
eyj쎯	-10.944
bk쎯gmu1쎯	-10.944
dp쎯sfi쎯	-10.9443
qvhc1쎯	-10.9443
ajj쎯f쎯	-10.9444
ip쎯yu쎯	-10.9444
bwf쎯ntk쎯atd쎯bpf쎯	-10.9445
ua쎯im쎯e쎯	-10.9447
ssf쎯hh쎯	-10.9449
rawk쎯vfhp1쎯	-10.9449
pe쎯yfd쎯	-10.9449
ld쎯adw쎯	-10.945
et쎯f쎯	-10.9452
wa쎯gj쎯um쎯	-10.9452
dbv쎯	-10.9453
gj쎯ywx쎯gn쎯	-10.9456
tdg1쎯tyna2쎯	-10.9458
awj쎯	-10.9458
sk쎯ce쎯j쎯	-10.9459
rrr쎯isgg0쎯	-10.946
lk쎯dd쎯	-10.9462
kthh1쎯egc쎯	-10.9464
ak쎯j쎯	-10.9468
쎀.쎀쎀	-10.9473
ab쎯ith쎯	-10.9477
wsg0쎯txi쎯,	-10.9479
。cep쎯fp쎯	-10.9482
i쎯je쎯	-10.9486
wdn쎯tfq쎯	-10.9487
pei쎯ip쎯bpf쎯	-10.9487
ccc쎯kn쎯	-10.9489
쎃w쎯	-10.949
dlf쎯ufk0쎯	-10.9492
ym쎯xe쎯bk쎯tq쎯	-10.9496
e쎯ycb쎯	-10.9497
쎇kgn쎯	-10.9498
vk쎯m쎯	-10.95
dgh쎯ftx쎯r쎯	-10.9501
β	-10.9501
qtge쎯	-10.9506
rx쎯uwy1쎯,	-10.9507
uqt쎯lt쎯	-10.9509
toln0쎯oi쎯	-10.951
ugdu쎯sy쎯qnp쎯	-10.9511
xf쎯sq쎯,	-10.9513
sksw쎯rlg쎯	-10.9514
wv쎯fc쎯	-10.9515
rj쎯ue쎯	-10.9515
py쎯aq쎯nd쎯tv쎯wf쎯	-10.9517
gd쎯bb쎯	-10.9518
txi쎯xyc쎯。	-10.9518
mfk쎯rh쎯	-10.9518
yt쎯lfhf쎯	-10.952
dd쎯gcft2쎯	-10.9524
tfkd쎯rp쎯	-10.9524
jq쎯h쎯	-10.9524
v쎯dp쎯	-10.9525
yt쎯yca쎯	-10.9527
dg쎯tffu쎯uqd0쎯。	-10.9528
akgl쎯dlf쎯	-10.953
v쎯tg쎯r쎯	-10.953
udrc쎯	-10.9531
쎅쎀쎀dq쎯	-10.9531
yi쎯wqj쎯	-10.9532
egc쎯tv쎯ipkh1쎯tv쎯	-10.9535
sm쎯sq쎯,	-10.9535
xa쎯gmiu쎯	-10.9535
usr쎯sf쎯	-10.9536
vfhp1쎯uu쎯r쎯	-10.9538
gn쎯v쎯nae쎯	-10.9538
qtj쎯pe쎯	-10.9538
oyx쎯	-10.9541
itx쎯yqa쎯	-10.9541
dm쎯uk쎯	-10.9542
▁gg쎯	-10.9542
쎁쎃쎅	-10.9543
tg쎯ugv쎯	-10.9545
mww쎯rfm쎯	-10.9546
tffu쎯qq쎯adm쎯	-10.9546
、l쎯pe쎯	-10.9547
hjs쎯dm쎯	-10.9547
rg쎯ccc쎯	-10.9548
j쎯hhhh쎯ue쎯	-10.9553
uwy1쎯mj쎯	-10.9555
cm쎯rhf쎯	-10.9556
il쎯il쎯	-10.9557
。isgg0쎯yhk쎯	-10.9557
ip쎯wf쎯gj쎯gk쎯	-10.9559
,jjjj쎯sg쎯	-10.9559
iv쎯jf쎯r쎯	-10.9562
mqq쎯j쎯	-10.9566
쎁qk쎯	-10.9567
dgj쎯tt쎯nnh쎯if쎯	-10.9568
ltu쎯》	-10.9569
rrp쎯an쎯	-10.9569
,tg쎯gf쎯	-10.957
fny쎯og쎯xxf쎯og쎯	-10.9573
ifp쎯itx쎯	-10.9573
bd쎯qn쎯	-10.9574
qkql쎯	-10.9574
xfm쎯tavn쎯ait쎯pu쎯	-10.9575
ue쎯tmd쎯o쎯	-10.9575
adwe1쎯tffy0쎯	-10.9575
bm쎯wyk쎯	-10.9576
hj쎯fhg1쎯	-10.9577
yngk0쎯maw쎯	-10.9577
i쎯fdm쎯s쎯	-10.9578
ww쎯ih쎯	-10.9579
쎅.쎀	-10.9581
doq쎯sgc쎯	-10.9582
mh쎯k쎯l쎯	-10.9585
r쎯dr쎯ld쎯	-10.9586
》j쎯mh쎯	-10.9589
xeg쎯wrh2쎯	-10.9589
;《	-10.959
,y쎯s쎯ww쎯gk쎯	-10.959
tmg1쎯ihc쎯	-10.9593
gs쎯umd0쎯	-10.9595
tuj쎯wsg0쎯k쎯yygy쎯	-10.9596
dm쎯eerq쎯	-10.9597
bib쎯rep쎯	-10.9598
aqt쎯wg쎯l쎯	-10.96
qa	-10.96
mga쎯》:“	-10.9601
qmq쎯xf쎯sq쎯	-10.9601
sw쎯imj쎯ymc쎯tlf2쎯	-10.9601
vtkd1쎯bb쎯	-10.9602
tgj쎯lt쎯	-10.9603
ly쎯	-10.9605
lrj쎯	-10.9605
쎁쎀쎁	-10.9605
tx쎯uy쎯nm쎯	-10.9606
、dgtg쎯	-10.9609
fajv쎯	-10.961
dw0쎯gd쎯	-10.9611
。aft쎯e쎯《	-10.9611
sfh쎯alt쎯	-10.9613
쎃w쎯,	-10.9613
zzy3쎯	-10.9616
ymc쎯tlf2쎯。	-10.9617
pv쎯by쎯	-10.9617
sfm쎯	-10.9619
쎇쎅쎀	-10.9623
wy쎯thn쎯eb쎯tl쎯	-10.9623
thd쎯egl쎯	-10.9623
▁gm쎯wtf쎯	-10.9624
yce쎯tkh쎯	-10.9625
wg쎯qfhw0쎯	-10.9626
sksw쎯ndj쎯	-10.9626
(쎂	-10.9629
wtc쎯syp쎯	-10.9629
ス	-10.9629
rap쎯bm쎯	-10.963
ymhj쎯wc쎯pv쎯nnk쎯	-10.9632
vvv쎯tg쎯	-10.9632
snn1쎯	-10.9632
jjjj쎯jvko쎯	-10.9632
。p쎯jfd쎯	-10.9633
、jn쎯bb쎯	-10.9637
sh쎯sm쎯	-10.9638
dsh1쎯	-10.964
쎁쎀.	-10.964
쎁쎀쎂	-10.9641
-쎂쎀	-10.9641
wgmy3쎯	-10.9643
tg쎯tr쎯rfc쎯sy쎯	-10.9646
nnh쎯》	-10.9648
suj쎯	-10.9649
cep쎯tyg쎯	-10.965
tuj쎯xq쎯	-10.9654
mq쎯wwwk쎯	-10.9655
anb0쎯sy쎯kkk쎯	-10.9656
cd쎯xyna0쎯	-10.9657
ahkm1쎯	-10.9657
hka쎯fnrt쎯	-10.9661
jyie쎯ktm쎯lt쎯	-10.9663
nae쎯wf쎯	-10.9665
dga쎯pwv쎯km쎯,	-10.9667
kcg쎯	-10.9668
jn쎯dgt1쎯	-10.9669
itx쎯mgu쎯	-10.967
fny쎯pe쎯,	-10.9672
ap쎯yss쎯	-10.9672
fnr쎯iwyf2쎯	-10.9672
wn쎯fqb1쎯	-10.9675
ufy쎯sgn쎯	-10.9676
pey쎯	-10.9676
udyj쎯ryn0쎯	-10.9678
itm쎯iyt0쎯	-10.9681
ga쎯awx쎯	-10.9681
sov쎯tel쎯	-10.9682
nfc쎯,	-10.9684
fd쎯wksf쎯	-10.9685
k쎯l쎯dd쎯bfm쎯	-10.9688
6	-10.9689
um쎯og쎯qve쎯tf쎯	-10.9689
an쎯lwj쎯dd쎯hka쎯	-10.969
r쎯wug1쎯lfhf쎯	-10.9691
wg쎯yy쎯wug1쎯r쎯	-10.9692
、ytey쎯iytb0쎯	-10.9693
,wynb쎯	-10.9693
v쎯tf쎯r쎯	-10.9693
wjm쎯wqj쎯	-10.9694
gkl쎯ftbt쎯rep쎯。	-10.9696
ma쎯rr쎯	-10.9698
nty1쎯xyna0쎯	-10.97
wc쎯ngk쎯d쎯	-10.9701
ih쎯ktn쎯	-10.9703
rb1쎯》、《	-10.9704
wcy2쎯e쎯	-10.9706
tgl쎯	-10.9707
wfkb쎯tdp쎯r쎯	-10.9708
ywx쎯ygh쎯	-10.9708
う	-10.9709
》g쎯nnh쎯	-10.9711
쎁쎉쎂쎉rh쎯	-10.9712
ige쎯gj쎯	-10.9716
qev쎯yfn쎯	-10.9718
yvh쎯fje쎯	-10.9721
r쎯wwj쎯st쎯	-10.9723
yo쎯jg쎯	-10.9725
wdn쎯rfm쎯r쎯	-10.9726
ip쎯bpf쎯ftbt쎯rep쎯	-10.9727
fas쎯	-10.9728
lfn쎯gajf쎯	-10.9729
i쎯mqb쎯	-10.9729
dgh쎯wynb쎯	-10.973
pu쎯tr쎯	-10.9731
i쎯vk쎯	-10.9732
abf0쎯	-10.9739
q0쎯	-10.9739
쎆쎀쎀쎀	-10.974
mmm쎯ax쎯	-10.9745
쎁쎀쎆	-10.9745
ripq1쎯	-10.9745
tjt쎯qgb쎯	-10.9747
bd쎯epc쎯	-10.9747
tl	-10.9748
ym쎯tld1쎯dfy쎯	-10.9749
g쎯pg쎯s쎯	-10.9749
gd쎯y쎯ftbt쎯	-10.9751
bwf쎯rp쎯r쎯	-10.9758
sfi쎯ykw쎯	-10.9759
av쎯rq쎯	-10.976
》w쎯tr쎯pp쎯g쎯。	-10.9762
bm쎯tf쎯	-10.9762
jh쎯rh쎯	-10.9763
wv쎯bpf쎯	-10.9764
m쎯qk쎯	-10.9764
wqb0쎯	-10.9764
txe쎯	-10.9768
dx쎯udi쎯whf쎯og쎯	-10.9768
、yj쎯	-10.9773
sqqd0쎯	-10.9774
g쎯jjjj쎯	-10.9774
n쎯lw쎯	-10.9777
bct쎯wgk쎯	-10.9779
saq쎯xnf쎯	-10.9779
pwat쎯fp쎯	-10.978
fcb쎯j쎯	-10.978
ght쎯tl쎯	-10.9781
k쎯l쎯l쎯bf쎯	-10.9782
tmdf1쎯xg쎯	-10.9782
,gm쎯nnnn쎯	-10.9782
wg쎯ta쎯	-10.9785
lpdk0쎯aq쎯mw쎯	-10.9785
j쎯l쎯mw쎯	-10.9785
ddn쎯	-10.9786
▁쎂쎀쎀쎉rh쎯	-10.9788
쎁쎀dq쎯,	-10.9788
kkk쎯kfi쎯	-10.9788
svc쎯syp쎯	-10.979
()t쎯	-10.9791
쎁쎆쎈	-10.9792
wo쎯	-10.9792
ipk쎯suq쎯	-10.9793
ndj쎯hhhh쎯	-10.9794
rh쎯xe쎯	-10.9795
○	-10.9795
qn쎯ufy쎯ige쎯ujfj쎯	-10.9797
tuj쎯wj쎯:	-10.9801
lu쎯qq쎯	-10.9803
jtg쎯xe쎯	-10.9805
ai쎯egc쎯	-10.9805
qv쎯bc쎯	-10.9806
uj쎯bgk쎯	-10.9808
bmg쎯yge쎯	-10.9808
ftx쎯src쎯	-10.9809
mmm쎯wwk쎯	-10.9809
x쎯dl쎯b쎯	-10.9809
d쎯l쎯mw쎯qh쎯	-10.9812
nat쎯	-10.9813
pfi쎯xj쎯	-10.9813
f1쎯	-10.9816
se쎯dd쎯	-10.9816
sh쎯xf쎯wgk쎯r쎯	-10.9816
,bn쎯sk쎯	-10.9817
usr쎯xtd쎯	-10.9818
쎃쎀rh쎯	-10.9822
bm쎯kkk쎯	-10.9823
rnf쎯	-10.9823
gcft2쎯pgk쎯	-10.9823
s쎯hko쎯	-10.9825
――	-10.9826
mqb쎯gc쎯	-10.9827
。g쎯tem쎯	-10.9828
iq쎯yuo쎯	-10.983
▁쎂쎀쎀쎇rh쎯	-10.983
qng1쎯qgj쎯ssss쎯	-10.983
atm쎯	-10.9831
kkks0쎯fnr쎯	-10.9832
wty쎯dd쎯	-10.9832
trh쎯kq쎯	-10.9834
rh쎯go쎯,	-10.9835
puhc쎯gq쎯o쎯	-10.9836
rvyo쎯th쎯gj쎯	-10.9836
iuj쎯	-10.9836
dgtg쎯img쎯wx쎯a쎯	-10.9839
ル	-10.9839
hc쎯af쎯	-10.984
ygu쎯tv쎯	-10.984
xn쎯wynn3쎯qnp쎯	-10.984
k쎯jjjj쎯	-10.984
gj쎯shn쎯r쎯	-10.9841
tu쎯tu쎯ta쎯	-10.9843
oqd쎯	-10.9843
()r쎯	-10.9844
쎃dq쎯	-10.9845
xv쎯f쎯	-10.9848
kkk쎯thgf0쎯r쎯	-10.9851
yx쎯wycm0쎯	-10.9854
sg쎯sf쎯	-10.9855
klj쎯qk쎯	-10.986
wdyy1쎯	-10.9861
mb쎯jn쎯	-10.9861
wqr쎯	-10.9862
dm쎯jty쎯	-10.9863
afwu쎯apw쎯	-10.9865
xp쎯wgk쎯tgh쎯	-10.9865
dn쎯ygk쎯	-10.9865
fgh쎯vt쎯	-10.9867
xke쎯	-10.9867
쎂w쎯	-10.9868
jh쎯d쎯	-10.9869
ige쎯gs쎯	-10.9869
kl쎯e쎯	-10.9872
o쎯wqin쎯rj쎯waw쎯	-10.9873
thd쎯tmd쎯r쎯	-10.9874
j0쎯	-10.9874
es쎯yyn1쎯	-10.9876
vaf쎯wj쎯	-10.9876
r쎯tp쎯gj쎯	-10.9879
idr쎯thd쎯	-10.988
ntg쎯,	-10.9881
wb쎯j쎯	-10.9881
tg쎯idf0쎯	-10.9882
atd쎯ubk0쎯kkd쎯sa쎯	-10.9883
kkk쎯thgf0쎯,	-10.9885
trf쎯rytp0쎯	-10.9886
bm쎯gm쎯r쎯	-10.9887
ddh쎯uyh쎯ymhj쎯	-10.989
wsg0쎯ta쎯	-10.989
sft쎯ou쎯r쎯	-10.9891
an쎯lwj쎯sgi쎯	-10.9892
bm쎯qc쎯	-10.9893
tgm쎯aj쎯、	-10.9893
pp쎯th쎯	-10.9894
쎄rh쎯	-10.9896
t쎯imkf1쎯	-10.9896
xwy쎯qiu0쎯	-10.9897
rmhj쎯dn쎯r쎯	-10.9898
adww1쎯	-10.9898
g쎯jgf쎯	-10.99
amyn0쎯dx쎯	-10.9901
fnv0쎯	-10.9903
uqd0쎯,	-10.9903
mq쎯jy쎯te쎯gmy1쎯r쎯	-10.9905
ukn쎯bw쎯	-10.9905
쎈%	-10.9905
ta쎯dd쎯	-10.9906
nnh쎯,	-10.9908
ks쎯	-10.991
。”yvh쎯	-10.9912
tg쎯u쎯lk쎯a쎯	-10.9912
tcy쎯uu쎯	-10.9913
gmap쎯jm쎯	-10.9913
pw	-10.9913
cqw쎯qi쎯	-10.9916
e쎯tjh쎯gf쎯	-10.9916
rvk쎯nh쎯	-10.9919
qk쎯yngk0쎯	-10.9922
e쎯hko쎯	-10.9924
esw쎯	-10.9924
iex쎯egc쎯	-10.9925
bm쎯qc쎯r쎯	-10.9926
ba0쎯gq쎯	-10.9926
kkk쎯wug1쎯	-10.9931
pt쎯yww쎯ftbt쎯rep쎯	-10.9932
rwye1쎯rt쎯	-10.9933
wf쎯nae쎯	-10.9934
fl쎯m쎯	-10.9934
adwl쎯pwfi쎯	-10.9936
pt쎯pe쎯	-10.9936
y쎯s쎯mh쎯	-10.9939
gjq쎯ym쎯	-10.9939
t1쎯	-10.9942
bd쎯yw쎯	-10.9943
by쎯oja쎯	-10.9944
、sghg1쎯	-10.9944
fhw쎯r쎯	-10.9944
ym쎯wv쎯bb쎯	-10.9945
,ce쎯qkqq쎯	-10.9946
ntg쎯utd쎯ugm쎯	-10.9946
fcp쎯isk쎯	-10.9948
wk쎯wht쎯	-10.995
ays쎯avd쎯	-10.9951
rwp쎯	-10.9954
nied쎯	-10.9955
,kw쎯s쎯	-10.9955
r쎯uk쎯wv쎯	-10.9956
tv쎯km쎯wf쎯tv쎯km쎯。	-10.9958
k쎯yygy쎯qk쎯tq쎯:	-10.9959
fwm쎯aj쎯ymc쎯yf쎯	-10.996
pe쎯fl쎯wf쎯	-10.996
sf쎯jfd쎯	-10.9961
w쎯ny쎯	-10.9963
puq쎯	-10.9963
wye쎯gkim0쎯	-10.9965
mf쎯x쎯dd쎯ip쎯	-10.9965
ywg쎯toc쎯	-10.9965
o쎯whf쎯og쎯	-10.9966
r쎯nge쎯ukq쎯gh쎯	-10.9967
ol쎯ajj쎯	-10.9967
g쎯g쎯	-10.9969
쎉.	-10.997
wbj쎯lw쎯r쎯	-10.997
nge쎯ab쎯	-10.9971
uhc쎯apl쎯	-10.9973
qn쎯lfnh쎯	-10.9976
ai쎯mmm쎯	-10.9979
qh쎯ian0쎯	-10.998
ywx쎯》	-10.9981
isk쎯luf쎯	-10.9981
к	-10.9982
suq쎯wfk쎯	-10.9982
ipk쎯ght쎯	-10.9983
xg쎯,	-10.9987
o쎯k쎯ny쎯	-10.9987
ukn쎯jtyl쎯	-10.9988
ke쎯bwf쎯	-10.9989
cf쎯tgm쎯	-10.9991
в	-10.9993
wv쎯dn쎯	-10.9993
o쎯wqin쎯	-10.9994
aw쎯u쎯ipk쎯	-10.9994
,fqu쎯	-10.9994
xwv쎯	-10.9994
pp쎯jtg쎯	-10.9997
j쎯rxj쎯d쎯	-10.9997
tg쎯u쎯dgt1쎯pe쎯	-10.9998
ux쎯dm쎯	-10.9998
vvv쎯y쎯qe쎯	-11
xtdh0쎯cw쎯	-11.0001
wsg0쎯wf쎯	-11.0003
ui쎯tsh0쎯	-11.0003
udi쎯uce쎯	-11.0004
nnk쎯、	-11.0006
hka쎯l쎯	-11.0007
uu쎯wsg0쎯fnr쎯	-11.0009
ll쎯,ic쎯ytt쎯,	-11.0009
。p쎯wh쎯	-11.0012
rvk쎯um쎯xh쎯uqwm0쎯	-11.0012
v쎯nae쎯fwm쎯aj쎯	-11.0013
al쎯ce쎯。	-11.0014
쎀)	-11.0014
wgk쎯g쎯	-11.0015
kkkk0쎯eb쎯	-11.0018
ipg쎯km쎯,	-11.0019
dp쎯dn쎯	-11.0019
wgq쎯vk쎯	-11.002
ugdu쎯vb쎯	-11.002
f쎯rvyl쎯	-11.0022
trf쎯hko쎯:	-11.0026
w쎯pe쎯	-11.0027
cep쎯td쎯	-11.0027
df쎯tj쎯	-11.0028
nft쎯	-11.0028
ipe쎯xpw쎯	-11.003
)(	-11.0031
(/)	-11.0032
ynth0쎯	-11.0033
ijo쎯ya쎯	-11.0035
jh쎯ybv쎯	-11.0036
alkf0쎯	-11.0038
thd쎯wy쎯	-11.0038
”,j쎯	-11.004
tfkf1쎯yr쎯	-11.0041
lhnh쎯ad쎯	-11.0042
nfp쎯	-11.0042
se쎯bv쎯	-11.0043
ipw쎯wx쎯	-11.0043
ak	-11.0044
u쎯kkk쎯od쎯gajf쎯:	-11.0044
mgu쎯wwk쎯	-11.0044
ymc쎯yf쎯bpf쎯	-11.0051
rtfj0쎯	-11.0051
쎁쎈쎅	-11.0051
gf쎯쎂쎀쎁쎀rh쎯	-11.0054
,ggi쎯fuj쎯	-11.0055
rqk쎯	-11.0056
if쎯,	-11.0056
xg쎯ts쎯	-11.0057
yft쎯wnt쎯	-11.0057
q쎯ith쎯	-11.0059
fhw쎯alt쎯	-11.0059
uth쎯wbj쎯	-11.0059
yngk0쎯ygk쎯	-11.0059
ymhj쎯fnrt쎯h쎯	-11.0061
gf쎯쎁쎈	-11.0061
쎄～	-11.0062
thp쎯xfn쎯	-11.0063
wxd쎯wtuf1쎯	-11.0064
vtg쎯qk쎯:	-11.0065
oge쎯fhl쎯	-11.0068
mqu쎯jf쎯	-11.0068
qnd쎯	-11.0076
l쎯pe쎯sfi쎯uwy1쎯	-11.0076
lfn쎯yh쎯	-11.0077
gah쎯up쎯	-11.0077
쎉쎅%	-11.0078
ftbt쎯ip쎯gyt쎯	-11.0079
rfc쎯sy쎯r쎯	-11.008
iq쎯icf쎯	-11.008
ofd쎯	-11.0082
yyq쎯wf쎯	-11.0086
w쎯fqu쎯nh쎯ty쎯	-11.0086
v쎯je쎯fny쎯tjh쎯	-11.0087
nir쎯	-11.0088
khuh쎯	-11.009
xef쎯qev쎯	-11.0092
hx쎯f쎯	-11.0092
usr쎯g쎯wa쎯	-11.0092
lt쎯jg쎯dcw쎯djb쎯,	-11.0094
ipk쎯tv쎯nnh쎯yn쎯、	-11.0095
、eb쎯tl쎯	-11.0095
l쎯ygk쎯	-11.0096
sc쎯uwl쎯	-11.0096
tu쎯ta쎯	-11.0097
khv쎯bde쎯	-11.0099
mqu쎯,	-11.0099
km쎯。	-11.01
gkih쎯yjj0쎯	-11.01
rfc쎯sy쎯ga쎯v쎯	-11.0102
。x쎯fp쎯	-11.0103
lu쎯vb쎯	-11.0103
ujfj쎯wug1쎯”、“	-11.0104
lk쎯ty쎯k쎯l쎯aw쎯u쎯	-11.011
thd쎯go쎯ii쎯	-11.011
awx쎯ur쎯	-11.0112
qgl쎯	-11.0113
pgc쎯qh쎯	-11.0115
、ymhj쎯	-11.0115
yygt쎯itp쎯et쎯gf쎯	-11.0116
nh쎯gc쎯	-11.0117
fp쎯qq쎯	-11.0118
ykg쎯uda쎯	-11.0118
spw쎯	-11.0118
mgn쎯	-11.0118
cqy쎯oge쎯	-11.0119
aflf쎯	-11.012
〗	-11.0122
,wv쎯	-11.0124
iy쎯mm쎯ge쎯	-11.0126
gg쎯jtg쎯xe쎯	-11.0127
al쎯fw쎯	-11.0127
qk쎯kn쎯	-11.0127
iqn쎯igs쎯	-11.0128
wsg0쎯yce쎯fnrt쎯	-11.013
〖	-11.013
xuj쎯tamw0쎯	-11.013
amy쎯ldd쎯	-11.0132
sfhg쎯sri쎯	-11.0132
aib쎯lfnh쎯:	-11.0132
wwf쎯sfi쎯	-11.0133
rrqc쎯	-11.0136
xdmd1쎯ql쎯	-11.0136
-쎁쎅	-11.0137
lwj쎯r쎯	-11.0137
ftbt쎯ip쎯dn쎯js쎯	-11.0139
yjjh1쎯jg쎯	-11.0141
sfi쎯rgw쎯	-11.0141
adw쎯wqu쎯	-11.0143
fqb1쎯rh쎯(	-11.0143
fge쎯pt쎯	-11.0144
ggi쎯gfi쎯	-11.0147
uthp쎯,	-11.0149
,xxf쎯og쎯gf쎯	-11.0149
yle쎯pp쎯	-11.0151
tx쎯g쎯wug1쎯	-11.0152
wq쎯wu쎯	-11.0154
j쎯g쎯yww쎯	-11.0155
a쎯wt쎯tv쎯km쎯wf쎯	-11.0155
aqt쎯l쎯pe쎯	-11.0156
pl쎯lft쎯	-11.0157
rdj쎯me쎯	-11.016
ep쎯qiu0쎯uff쎯	-11.0161
rdw쎯	-11.0161
gj쎯gk쎯wf쎯	-11.0162
e쎯ud쎯r쎯	-11.0162
。kj쎯qd쎯	-11.0163
r쎯jb쎯usr쎯	-11.0166
fm쎯yiu쎯dd쎯ip쎯	-11.0166
cwg쎯ygh쎯	-11.0167
os쎯iq쎯	-11.0167
b쎯《	-11.0169
og쎯mw쎯	-11.017
gk쎯yop쎯	-11.017
쎁쎁쎅	-11.0171
,ak쎯ftj쎯	-11.0171
tp쎯lpdk0쎯。	-11.0173
:쎁쎀	-11.0174
o쎯쎁	-11.0174
ub쎯qk쎯	-11.0176
gmww쎯umd0쎯	-11.0177
pei쎯lll쎯	-11.018
,ai쎯jty쎯	-11.018
tkh쎯sfhg쎯ii쎯tev쎯	-11.018
。je쎯	-11.0183
tv쎯km쎯wf쎯tv쎯km쎯、	-11.0183
쎇eee쎯xxf쎯og쎯gf쎯	-11.0185
dy쎯pf쎯	-11.0186
wt쎯ma쎯pe쎯	-11.0187
pp쎯ytey쎯	-11.0187
uk쎯lftj쎯	-11.0187
lp쎯fuj쎯	-11.0187
qbl쎯	-11.0189
yw쎯td쎯	-11.0194
,tk쎯	-11.0197
gjq쎯vb쎯	-11.0199
gu쎯tffu쎯	-11.0201
쎃쎀%	-11.0202
rn쎯wt쎯	-11.0205
dhi쎯	-11.0206
▁bm쎯thgc쎯py쎯:	-11.0206
dy쎯ide쎯	-11.0207
rnb쎯rfm쎯	-11.0208
bwf쎯vi쎯	-11.021
eta쎯	-11.021
wc쎯ngk쎯reh쎯e쎯	-11.021
r쎯ud쎯qvfp1쎯	-11.0211
wmw쎯	-11.0212
dyc쎯sgc쎯	-11.0213
rp쎯dj쎯	-11.0215
oge쎯uwl쎯fiy쎯oge쎯	-11.0215
iq쎯idr쎯	-11.0216
k쎯aw쎯k쎯md쎯	-11.0216
rytp0쎯	-11.0217
pei쎯og쎯tg쎯u쎯	-11.0218
d쎯p쎯wh쎯	-11.0221
。wt쎯o쎯	-11.0222
し	-11.0227
ytey쎯pt쎯	-11.0228
usr쎯lh쎯pl쎯	-11.0228
wk쎯pg쎯	-11.0228
ip쎯dga쎯pwv쎯	-11.0231
ta쎯tgh쎯	-11.0231
ipkh1쎯tl쎯gj쎯gk쎯,	-11.0231
쎀°	-11.0232
py쎯wf쎯lft쎯wsg0쎯	-11.0233
쎁gmww쎯,	-11.0237
a쎯wt쎯k쎯	-11.0237
▁dg쎯	-11.0237
st쎯qiu0쎯	-11.0237
fnr쎯hhu0쎯	-11.0238
ukqb1쎯	-11.0239
jtd쎯pntj쎯	-11.0241
fghg쎯rgw쎯	-11.0243
。wv쎯dmh쎯gf쎯	-11.0243
khdc쎯	-11.0243
r쎯sfi쎯uwy1쎯	-11.0245
qsu쎯w쎯	-11.0245
xf쎯tha쎯	-11.0247
yaa쎯ltu쎯	-11.0247
if쎯ygk쎯	-11.0247
adwl쎯rpws쎯	-11.0248
ovt쎯wfhg쎯	-11.0248
sfi쎯sg쎯	-11.0249
ue쎯dm쎯	-11.0251
gn쎯tp쎯gj쎯	-11.0256
tfh쎯	-11.0257
lqw쎯wrh2쎯ga쎯v쎯	-11.0258
▁ux쎯yiu쎯	-11.0258
m쎯jf쎯bn쎯	-11.0261
mh쎯dr쎯	-11.0261
yr쎯ywc쎯	-11.0262
wi쎯	-11.0264
ap	-11.0265
dxy쎯fmk쎯	-11.0266
쎁쎉쎂쎈rh쎯	-11.0267
▁쎂쎀쎁쎀rh쎯	-11.0268
pp쎯。”	-11.0269
fw쎯gv쎯	-11.027
gd쎯pw쎯	-11.0272
ige쎯rvyo쎯	-11.0273
ss쎯fnrt쎯	-11.0274
kgn쎯dcg쎯	-11.0275
frc쎯	-11.0276
ㄐㄧ	-11.0278
txi쎯gq쎯、	-11.0279
fwm쎯saj쎯jb쎯dd쎯r쎯	-11.028
idl쎯	-11.0282
jtyq0쎯ipkm0쎯	-11.0283
pye쎯wqu쎯	-11.0286
pj쎯pg쎯	-11.0287
ht쎯hna쎯	-11.0287
pg쎯jg쎯	-11.0287
qev쎯un쎯b쎯	-11.0291
ipm쎯ipgh쎯	-11.0292
jtg쎯adwe1쎯	-11.0293
vnh쎯	-11.0295
sm쎯sq쎯nty1쎯af쎯	-11.0295
gmww쎯adm쎯	-11.0296
qmq쎯sft쎯	-11.0296
쎁쎁쎂	-11.0298
jo쎯hhu0쎯od쎯gajf쎯	-11.0298
wug1쎯。	-11.0298
ta쎯dtf쎯	-11.0298
vcb쎯o쎯	-11.0299
tfk쎯oy쎯	-11.0299
d쎯suq쎯ip쎯tg쎯	-11.0301
txi쎯xyc쎯k쎯	-11.0301
,ux쎯	-11.0302
xmw쎯tuk쎯	-11.0304
tfkp쎯wwj쎯	-11.0306
-쎁쎂	-11.0306
v쎯iq쎯	-11.0309
tkh쎯tkh쎯	-11.0309
gl쎯bpf쎯	-11.031
rkh쎯	-11.0312
yvh쎯mmm쎯	-11.0314
s쎯fiy쎯,	-11.0314
wxd쎯tm쎯	-11.0314
ygl쎯	-11.0315
xyna0쎯tv쎯	-11.0316
uyh쎯ywe쎯	-11.0318
dg쎯mgu쎯	-11.0318
iq쎯xft쎯	-11.0318
hx쎯qh쎯	-11.0318
。rg쎯go쎯	-11.0319
)tffu쎯	-11.0321
ian0쎯wys쎯	-11.0321
adi쎯	-11.0324
ywx쎯aft쎯	-11.0324
ukqb0쎯rfc쎯	-11.0325
fp쎯iya쎯	-11.0326
쎁쎀쎀oy쎯	-11.0327
d쎯mw쎯r쎯	-11.0327
kt	-11.0328
ax쎯sft쎯	-11.0334
ooo쎯oqv쎯	-11.0335
o쎯hx쎯	-11.0335
pb쎯wsg0쎯	-11.0336
쎃、	-11.0337
nnw쎯gkip2쎯v쎯nae쎯	-11.0337
whm쎯pwfi쎯	-11.0339
r쎯ym쎯usr쎯rfc쎯sy쎯	-11.0342
fq쎯pwl쎯	-11.0342
tmfk1쎯	-11.0348
,gip쎯j쎯	-11.0348
et쎯c쎯	-11.0348
,dty쎯tq쎯	-11.0349
,cd쎯gn쎯	-11.0349
k쎯ny쎯。	-11.0351
,nty1쎯	-11.0356
ruv쎯ty쎯	-11.0357
pp쎯qh쎯	-11.0358
tmg1쎯oy쎯	-11.0359
thgc쎯gl쎯	-11.036
,cd쎯lk쎯	-11.036
wbb쎯wyf0쎯	-11.0362
mq쎯st쎯r쎯	-11.0363
g쎯ck쎯	-11.0365
vs쎯rfm쎯	-11.0367
lkd쎯l쎯	-11.0368
dd쎯dd쎯	-11.0368
gd쎯ft쎯	-11.037
yo쎯fcl쎯	-11.037
dht쎯gd쎯	-11.0371
um쎯w쎯	-11.0372
(쎁쎅	-11.0375
tg쎯u쎯ce쎯lt쎯	-11.0376
iytb0쎯ca쎯k쎯	-11.0376
gh쎯go쎯	-11.0376
o쎯et쎯yne쎯rj쎯waw쎯	-11.0378
k쎯yygy쎯qk쎯:	-11.0379
yygy쎯wx쎯uk쎯	-11.038
ght쎯ywf쎯cy쎯f쎯	-11.038
dm쎯tkw쎯쎃	-11.0383
sk쎯tfkd쎯r쎯	-11.0383
dgh쎯shy쎯	-11.0384
gkl쎯nnh쎯yn쎯、	-11.039
pfq쎯uduk쎯,	-11.039
dgtg쎯sft쎯	-11.0391
ㄒ	-11.0392
ran쎯	-11.0392
qgb쎯qje쎯	-11.0393
gf쎯쎂쎀쎀쎈rh쎯	-11.0394
dd쎯eyb쎯	-11.0396
jff1쎯	-11.0397
med쎯	-11.0398
lk쎯pnt쎯	-11.0399
,wcy2쎯	-11.0399
waj쎯egl쎯	-11.0399
ygu쎯pg쎯	-11.0399
tffu쎯g쎯txi쎯gq쎯	-11.04
mqu쎯r쎯	-11.04
wv쎯sr쎯、	-11.0401
gxgu쎯ntg쎯	-11.0401
uqwk쎯yqj쎯、	-11.0402
wk쎯udyj쎯	-11.0403
g쎯nnh쎯	-11.0403
tx쎯g쎯rx쎯	-11.0404
tg쎯gqx쎯	-11.0404
ymf쎯kfi쎯ou쎯	-11.0404
ryiy쎯	-11.0405
yww쎯ait쎯gf쎯	-11.0405
fj쎯nae쎯	-11.0405
o쎯pp쎯	-11.0408
ymf쎯gj쎯	-11.0416
yc쎯wv쎯v쎯rpl쎯	-11.043
jp쎯	-11.043
uk쎯uk쎯ta쎯	-11.043
fh쎯iyc쎯	-11.043
am쎯fmud쎯。	-11.0431
rnn1쎯pu쎯	-11.0431
쎁쎀쎈쎀	-11.0432
kynw쎯	-11.0434
r쎯hw쎯wsg0쎯	-11.0434
sks쎯wwx쎯xx쎯gog쎯	-11.0435
sbb쎯	-11.0437
tfkp쎯xqa쎯	-11.0438
,ua쎯uqf쎯	-11.0441
k쎯gef쎯rh쎯	-11.0441
an쎯lwj쎯tk쎯f쎯	-11.0443
qh쎯ge쎯	-11.0444
-쎁쎁	-11.0445
bm쎯v쎯	-11.0446
pgc쎯y쎯wtf쎯	-11.0449
ruv쎯udi쎯	-11.045
か	-11.0452
j쎯cep쎯fp쎯	-11.0453
hx쎯jf쎯	-11.0456
,k쎯aw쎯	-11.0459
g쎯uf쎯	-11.0461
쎅wc쎯jfd쎯	-11.0463
um쎯tl쎯k쎯ny쎯	-11.0463
gmww쎯wug1쎯	-11.0464
puhc쎯yw쎯o쎯j쎯	-11.0466
ugm쎯、	-11.0468
wvf쎯ert쎯	-11.0468
l쎯e쎯uqwm0쎯u쎯	-11.0469
lhnh쎯xe쎯	-11.047
쎂쎀쎀oy쎯	-11.0472
udj쎯mww쎯	-11.0473
,bn쎯sk쎯c쎯	-11.0475
khgp0쎯yop쎯	-11.0476
”pp쎯	-11.0476
wv쎯tf쎯	-11.0478
i쎯vb쎯	-11.0479
img쎯ex쎯	-11.0481
awx쎯qyng쎯	-11.0482
jn쎯se쎯	-11.0482
qth쎯	-11.0482
nfa쎯	-11.0484
pg쎯jf쎯	-11.0484
qk쎯suq쎯	-11.0486
gu쎯ime쎯	-11.0487
쎈.쎅	-11.0489
dga쎯pwv쎯yy쎯tm쎯	-11.0489
ii쎯fakg1쎯	-11.0489
uthp쎯hw쎯	-11.0489
fg쎯fgh쎯an쎯xn쎯	-11.0496
r쎯uqt쎯js쎯	-11.0498
r쎯g쎯pe쎯	-11.0499
j쎯x쎯	-11.0499
ux쎯wmj0쎯	-11.0501
fcl쎯lt쎯ip쎯	-11.0501
pp쎯f쎯	-11.0503
ii쎯idr쎯	-11.0504
bm쎯uqwm0쎯	-11.0505
イ	-11.0506
ifk쎯uqv쎯	-11.0507
qsj쎯	-11.0507
yge쎯fiy쎯	-11.0508
ftx쎯rh쎯w쎯	-11.0508
e쎯qc쎯qqqq1쎯ntk쎯	-11.0513
g쎯wsg0쎯	-11.0513
rfw쎯wvm쎯	-11.0514
gu쎯jf쎯	-11.0515
yid쎯cf쎯	-11.0515
,ua쎯c쎯	-11.0517
,xw쎯	-11.0518
fq쎯fdm쎯	-11.0519
lq쎯ic쎯	-11.0519
,wk쎯ygh쎯	-11.0519
you1쎯e쎯	-11.052
wfny0쎯udp쎯	-11.0521
wv쎯aq쎯	-11.0524
kg	-11.0529
,dty쎯qk쎯	-11.053
iry쎯gxi쎯	-11.0531
ah쎯hwb쎯	-11.0534
▁jn쎯idr쎯	-11.0537
ym쎯ntg쎯ce쎯	-11.0537
ytfp1쎯bpf쎯	-11.054
。tfq쎯rg쎯	-11.0541
xyna0쎯xkw쎯	-11.0541
vvv쎯pyj쎯	-11.0544
me	-11.0545
qve쎯skf쎯	-11.0546
fcu1쎯hc쎯	-11.0547
tve쎯cw쎯	-11.0548
tp쎯gj쎯uqwk쎯yqj쎯	-11.0548
ijo쎯iugg0쎯	-11.0549
rwyg쎯bm쎯b쎯	-11.055
、ux쎯	-11.055
r쎯vb쎯	-11.0551
kkkk0쎯mdfj쎯	-11.0553
wgk쎯if쎯	-11.0554
dmj1쎯yyy쎯	-11.0557
atgn쎯	-11.0563
fd쎯ffuk쎯	-11.0563
dgtg쎯ynt쎯	-11.0563
,ux쎯yiu쎯	-11.0565
gkl쎯egc쎯ta쎯	-11.0565
ts쎯,	-11.0566
◇	-11.0567
ii쎯iyc쎯	-11.0568
wys쎯wgk쎯	-11.0568
wbj쎯wtl쎯	-11.0569
vvv쎯fghg쎯	-11.0569
wdt쎯dn쎯	-11.0569
쎅쎀dq쎯,	-11.057
sk쎯sve쎯rnd1쎯	-11.0571
aet0쎯rvyo쎯	-11.0571
nnh쎯》:“	-11.0573
ym쎯rt쎯	-11.0573
img쎯rnb쎯	-11.0573
ylf0쎯。	-11.0575
wc쎯aa쎯	-11.0575
rpv쎯qvfp1쎯	-11.0577
;qm쎯gmu1쎯	-11.0578
gh쎯yy쎯	-11.0578
uy	-11.0581
ul쎯o쎯	-11.0584
,wyc쎯	-11.0585
ytey쎯iytb0쎯aq쎯	-11.0586
ta쎯dw0쎯ymhj쎯	-11.0587
gkl쎯suq쎯ta쎯	-11.0589
,tffy0쎯	-11.059
쎂쎀쎀쎁	-11.0593
thd쎯ick쎯egc쎯	-11.0594
fqu쎯tqdh쎯	-11.0597
wty쎯qe쎯	-11.0598
ak쎯adw쎯wb쎯	-11.0599
gm쎯wynb쎯	-11.06
x쎯iyj쎯vfhp1쎯ymc쎯	-11.06
wht쎯gj쎯	-11.0604
fss쎯	-11.0604
ip쎯wf쎯wf쎯km쎯,	-11.0605
a쎯tkgg0쎯ymc쎯yf쎯	-11.0605
wg쎯rh쎯	-11.0607
txi쎯xyc쎯wys쎯dn쎯	-11.061
sfhg쎯puhc쎯	-11.0611
qqqq1쎯ptkm0쎯	-11.0612
쎃—	-11.0612
dga쎯pwv쎯t쎯	-11.0614
lnn1쎯	-11.0617
rhf쎯mqb쎯	-11.0618
yu쎯if쎯	-11.0619
ghd0쎯dqe쎯r쎯	-11.0623
ry쎯aet0쎯	-11.0624
pg쎯tm쎯	-11.0626
wd쎯yf쎯	-11.0629
yne쎯gajf쎯	-11.0632
c쎯ux쎯	-11.0633
lw쎯wc쎯sov쎯	-11.0635
,쎂쎀쎀쎄rh쎯	-11.0636
,ukn쎯vfhp1쎯tam쎯	-11.0637
ujf쎯uqt쎯	-11.0637
eb쎯tmc쎯	-11.0638
thg0쎯、	-11.0639
▁fg쎯	-11.0641
cf쎯jvko쎯	-11.0642
xyna0쎯thdi쎯	-11.0644
,wys쎯	-11.0645
iit쎯icw쎯	-11.0645
dga쎯pwv쎯,	-11.0646
sfk쎯	-11.0646
hx쎯nnh쎯	-11.065
i쎯on쎯f쎯	-11.065
gr쎯ia쎯	-11.0651
fd쎯fm쎯	-11.0653
rgw쎯kkd쎯	-11.0653
d쎯wynb쎯	-11.0656
,kj쎯	-11.0657
aq쎯w쎯n쎯ght쎯ywf쎯	-11.0657
쎅.	-11.0659
▁mh쎯gf쎯	-11.066
aqq쎯bj쎯	-11.066
xgm쎯	-11.0663
u쎯sc쎯	-11.0663
ce쎯lt쎯r쎯	-11.0665
tu쎯ip쎯r쎯	-11.0666
rn쎯fdm쎯r쎯	-11.0668
r쎯qt쎯bb쎯	-11.0668
afqb2쎯ide쎯	-11.0669
ym쎯kkk쎯rfm쎯r쎯	-11.0669
gef쎯qmgk0쎯	-11.067
aqo쎯awx쎯	-11.0671
ge쎯gm쎯o쎯	-11.0671
mqu쎯eee쎯	-11.0671
apo쎯iq쎯	-11.0671
xyna0쎯kgn쎯:	-11.0671
lfn쎯ty쎯	-11.0674
tgj쎯wht쎯	-11.0676
wdn쎯rfm쎯eb쎯tl쎯	-11.0677
amw쎯qc쎯,	-11.0679
lh쎯fgh쎯	-11.0681
▁sg쎯nnh쎯	-11.0681
쎁～	-11.0686
waw쎯xw쎯	-11.0686
rn쎯tj쎯	-11.0687
ytt쎯thd쎯ick쎯egc쎯	-11.0687
ty쎯wygg쎯	-11.0688
iq쎯xg쎯	-11.0688
trf쎯ta쎯	-11.0689
wc쎯wv쎯	-11.0689
emc쎯sc쎯	-11.0691
r쎯qe쎯ya쎯	-11.0692
ynvf쎯	-11.0693
r쎯an쎯lwj쎯	-11.0697
qdw쎯	-11.0699
oun쎯	-11.0699
xf쎯sq쎯r쎯	-11.0701
r쎯ai쎯sghg1쎯	-11.0702
fm쎯aq쎯	-11.0703
ish쎯	-11.0704
vf쎯fiy쎯	-11.0705
wynk쎯yq쎯	-11.0706
ln쎯kht쎯	-11.0707
mmm쎯ai쎯dd쎯ip쎯	-11.0708
uh쎯fhg1쎯d쎯	-11.0709
wtr쎯l쎯	-11.0711
qqqq1쎯qg쎯	-11.0712
bm쎯thgc쎯py쎯:	-11.0712
in	-11.0714
eb쎯。	-11.0715
,hk쎯f쎯	-11.0715
big쎯	-11.0717
ith쎯mw쎯	-11.0719
,kg쎯	-11.072
r쎯trf쎯qc쎯	-11.0721
uce쎯adf쎯	-11.0722
k쎯sghg1쎯	-11.0724
pwdj쎯wfk쎯	-11.0725
:쎀.	-11.0727
w쎯o쎯	-11.0728
rc쎯jmd쎯b쎯	-11.0728
rvf쎯dgv쎯	-11.0728
mmm쎯ii쎯gl쎯	-11.0729
iyni0쎯	-11.0729
ny쎯tld1쎯tp쎯	-11.0731
cr쎯	-11.0731
a쎯tkgg0쎯ytb쎯a쎯	-11.0731
ta쎯tyna2쎯	-11.0732
bwf쎯lk쎯	-11.0734
amd쎯fghy0쎯	-11.0735
yygy쎯kq쎯	-11.0735
synw쎯tha쎯	-11.0737
qc쎯gxi쎯	-11.0737
、qqqq1쎯	-11.0738
awv쎯uff쎯	-11.0738
e쎯wh쎯	-11.0738
wvq쎯	-11.074
vv쎯bu쎯	-11.0742
j쎯ld쎯o쎯	-11.0744
r쎯iytb0쎯ca쎯	-11.0744
tk쎯e쎯	-11.0744
sfi쎯yn쎯	-11.0745
edjn쎯rmhj쎯	-11.0747
fny쎯o쎯	-11.0748
xxf쎯og쎯gf쎯h쎯itx쎯	-11.0751
mq쎯jy쎯qk쎯etg쎯aq쎯	-11.0751
ugv쎯thg0쎯	-11.0752
gf쎯쎂쎀쎀쎆rh쎯	-11.0753
ω	-11.0753
19	-11.0754
f쎯wug1쎯。	-11.0754
▁ww쎯	-11.0755
。쎂쎀쎀쎆rh쎯	-11.0757
sghg1쎯rcy0쎯	-11.0757
fm쎯rcy0쎯	-11.0757
ukn쎯dm쎯tkw쎯	-11.0761
puhc쎯rpd1쎯	-11.0763
(c쎯gh쎯tuj쎯tq쎯	-11.0765
sksw쎯yngk0쎯	-11.0766
ym쎯usr쎯aq쎯	-11.0767
ooo쎯qkm쎯	-11.0768
ukn쎯wf쎯	-11.0769
vb쎯ygu쎯。	-11.077
ivs쎯qc쎯wsg0쎯	-11.077
dyt쎯og쎯	-11.077
ipkh1쎯xv쎯	-11.0771
,쎂쎀쎀쎆rh쎯	-11.0772
k쎯l쎯a쎯pei쎯xa쎯pl쎯	-11.0772
yygy쎯wx쎯uq쎯iyc쎯	-11.0772
wg쎯lt쎯	-11.0773
dy쎯dr쎯ymhj쎯	-11.0773
gs쎯,	-11.0773
ww쎯og쎯w쎯km쎯	-11.0775
oj쎯	-11.0775
xef쎯nj쎯	-11.0776
k쎯kht쎯	-11.0779
wxf쎯gmy1쎯	-11.0779
pgn쎯pb쎯sov쎯	-11.0781
。’	-11.0782
(wys쎯lft쎯)	-11.0782
gh쎯iytb0쎯	-11.0783
wc쎯ud쎯	-11.0785
dm쎯tkw쎯쎆	-11.0787
f쎯fnw쎯	-11.0787
f쎯ge쎯	-11.0787
lfn쎯fcl쎯	-11.0788
oo쎯ugh쎯	-11.0788
lpk0쎯fa쎯	-11.0791
wfny0쎯ivs쎯ugm쎯	-11.0793
udi쎯v쎯	-11.0794
mq쎯es쎯	-11.0795
uh쎯hko쎯	-11.0796
me쎯rr쎯	-11.0796
kkkk0쎯drt쎯	-11.0796
cep쎯fp쎯cf쎯	-11.0797
yo쎯o쎯	-11.0797
fcu1쎯bwt쎯	-11.0797
fny쎯ta쎯	-11.0797
fny쎯pe쎯。	-11.0799
y쎯s쎯qn쎯rtd쎯	-11.0802
rc쎯“lfnh쎯vjsj쎯”	-11.0803
jty쎯irh쎯	-11.0803
tgv쎯bd쎯“	-11.0806
ep쎯r쎯	-11.0809
bn쎯yi쎯j쎯	-11.081
wwj쎯wfhg쎯r쎯	-11.0811
iugg0쎯ime쎯	-11.0811
jtyl쎯hich쎯sw쎯sj쎯	-11.0812
쎄.쎂	-11.0813
tt쎯yn쎯sg쎯	-11.0813
xq쎯fjw쎯·	-11.0814
kht쎯tca쎯	-11.0816
wk쎯pnt쎯	-11.0817
ipks쎯	-11.0819
ipw쎯djb쎯r쎯	-11.0819
쎃.쎇	-11.0819
qlp쎯ruv쎯	-11.0819
,wt쎯ftj쎯	-11.082
qqqq1쎯qve쎯	-11.082
tmg1쎯fge쎯	-11.082
yfd쎯qfhw0쎯	-11.0821
sa쎯	-11.0822
begg쎯hh쎯	-11.0822
,i쎯ce쎯	-11.0823
쎁쎇쎆	-11.0828
pj쎯ugdu쎯	-11.0828
ymc쎯tlf2쎯t쎯	-11.0829
mwyc1쎯fm쎯	-11.0829
gf쎯쎂쎀쎀쎇rh쎯	-11.0829
yjse쎯	-11.083
yb쎯ny쎯	-11.0832
bb쎯bi0쎯	-11.0834
tjf쎯ae쎯	-11.0834
ㄌ	-11.0837
wv쎯ga쎯	-11.0838
v쎯nae쎯hka쎯ltk쎯	-11.0839
gqx쎯rg쎯	-11.0841
,쎁쎈	-11.0842
u쎯tr쎯	-11.0844
,u쎯kkk쎯	-11.0844
ld쎯ugm쎯	-11.0844
vcb쎯jf쎯	-11.0845
usgp1쎯pf쎯	-11.0845
pt쎯yny0쎯ukn쎯ovt쎯	-11.0845
an	-11.0847
wal쎯	-11.0848
if쎯、	-11.085
bw쎯wgg0쎯,	-11.0851
r쎯ymhj쎯fnrt쎯	-11.0852
lkp쎯	-11.0852
iie쎯goi쎯	-11.0853
g쎯lp쎯	-11.0854
dq쎯,	-11.0854
tjf쎯ou쎯	-11.0855
p쎯xt쎯hhu0쎯	-11.0855
《usr쎯	-11.0857
tg쎯ow쎯	-11.0861
ui쎯kthh1쎯	-11.0861
ynm쎯ey쎯	-11.0862
wamj쎯	-11.0863
twgi쎯ys쎯	-11.0864
mhny0쎯fpm쎯	-11.0865
trf쎯·	-11.0865
lkd쎯go쎯	-11.0865
t쎯rfc쎯sy쎯	-11.0865
gcf쎯wynb쎯,	-11.0866
쎆w쎯,	-11.0867
v쎯nae쎯。	-11.0868
vk쎯gh쎯:	-11.0869
k쎯r쎯yid쎯et쎯	-11.087
g쎯an쎯	-11.0871
yfj쎯pwv쎯	-11.0872
tkw쎯wv쎯	-11.0873
qsu쎯pd쎯	-11.0874
qqqq1쎯gkm쎯sm쎯sq쎯	-11.0876
uu쎯khu쎯gf쎯	-11.0877
sk쎯wt쎯o쎯	-11.0877
pf쎯ryn0쎯	-11.0877
ovt쎯tfk쎯	-11.0882
pgc쎯,	-11.0884
fa쎯wsg0쎯	-11.0885
쎃uqw쎯	-11.0886
wkhh쎯fay쎯	-11.089
gip쎯s쎯	-11.0892
wo쎯wuf쎯	-11.0894
▁pv쎯wg쎯	-11.0895
eudi1쎯	-11.0895
zzy4쎯	-11.0899
lwx쎯eck쎯	-11.09
tavn쎯	-11.09
wty쎯kht쎯pl쎯	-11.09
bm쎯teg1쎯	-11.0902
uy쎯fgh쎯	-11.0903
ip쎯pe쎯	-11.0903
gogn쎯yssc2쎯	-11.0903
v쎯gm쎯r쎯	-11.0903
wvf쎯wg쎯	-11.0904
bg쎯pym쎯	-11.0906
hu쎯	-11.0906
bcv쎯	-11.0907
qnq쎯ii쎯	-11.0911
tx쎯wty쎯nm쎯	-11.0914
qyv쎯	-11.0914
tg쎯ujn쎯	-11.0914
lw쎯y쎯wtf쎯	-11.0915
w쎯fqu쎯dif쎯f쎯쎁.	-11.0916
eq쎯uk쎯	-11.0916
ae쎯ujfj쎯	-11.0917
쎅w쎯	-11.0917
lxx쎯	-11.0918
쎅쎀oy쎯	-11.0918
rwb쎯fiyt쎯	-11.0919
ukn쎯uk쎯wug1쎯gf쎯	-11.092
fpx쎯nx쎯	-11.0923
gogn쎯ntg쎯	-11.0923
jn쎯bb쎯tu쎯rfc쎯	-11.0924
ftbt쎯ip쎯dga쎯pwv쎯	-11.0925
bn쎯ce쎯	-11.0929
yo쎯rq쎯	-11.0929
ycb쎯》:“	-11.093
,s쎯	-11.093
쎁쎉쎉쎉	-11.0933
wyw쎯	-11.0936
pei쎯og쎯u쎯og쎯wx쎯	-11.0937
ty쎯ip쎯	-11.0937
smmv0쎯	-11.0939
"。	-11.0939
jja쎯iq쎯	-11.0941
kvi쎯	-11.0944
all쎯	-11.0945
fgh쎯wtu쎯	-11.0945
fqb1쎯。	-11.0946
tvfh1쎯jgm쎯gk쎯tl쎯	-11.0947
rvk쎯sfi쎯	-11.0947
nt쎯qd쎯	-11.0947
wt쎯kkk쎯。	-11.0948
dnv1쎯w쎯	-11.0949
bgu쎯	-11.0949
r쎯ovt쎯rnd1쎯	-11.095
iyc쎯ire쎯	-11.0953
j쎯uqf쎯	-11.0954
쎁쎀쎄	-11.0954
,sghg1쎯wycb쎯	-11.0955
oge쎯cep쎯	-11.0955
gw쎯khgm4쎯	-11.0956
dr쎯o쎯	-11.0957
r쎯yygy쎯wx쎯	-11.0958
k쎯l쎯ugdu쎯sy쎯	-11.0958
iagw쎯ytt쎯	-11.0958
pei쎯ss쎯	-11.0959
.쎅%	-11.0961
lg쎯gajf쎯	-11.0962
sksw쎯kjj쎯	-11.0963
rajd쎯	-11.0964
o쎯sg쎯	-11.0964
mf쎯ght쎯uk쎯	-11.0965
pl쎯w쎯	-11.0965
vk쎯ujn쎯	-11.0967
sq쎯wrh2쎯	-11.0967
jw쎯	-11.0969
쎁/쎄	-11.097
gcf쎯wynb쎯d쎯	-11.0972
쎂쎁쎀	-11.0972
▁rbcc쎯wqj쎯udi쎯	-11.0973
wug1쎯,	-11.0977
ta쎯bb쎯	-11.0977
tak쎯bt쎯	-11.0979
uqd0쎯ujj쎯	-11.0979
ru쎯adwr쎯	-11.0979
et쎯yne쎯rj쎯waw쎯	-11.0981
an쎯lwj쎯r쎯	-11.0982
ftbt쎯jgm쎯,	-11.0983
dgh쎯qfhw0쎯	-11.0983
dma쎯	-11.0984
,vfhp1쎯uu쎯	-11.0987
ga쎯fffy쎯	-11.0988
wye쎯jvko쎯	-11.0991
xg쎯、	-11.0991
:"	-11.0992
xyy0쎯,	-11.0992
tjf쎯rnb쎯	-11.0992
nae쎯jtyq1쎯wf쎯	-11.0992
、ggi쎯fuj쎯	-11.0993
jplh0쎯	-11.0994
r쎯ii쎯	-11.0995
쎁.쎉	-11.0996
aw쎯vfhp1쎯	-11.0998
tx쎯g쎯qk쎯	-11.0999
whf쎯og쎯wys쎯lft쎯	-11.0999
i쎯on쎯wbj쎯usr쎯	-11.0999
ybf0쎯iwyf2쎯	-11.1002
(쎁쎈쎈	-11.1006
tffu쎯f쎯。	-11.1008
jfi쎯	-11.1009
rt쎯rxj쎯	-11.1009
e쎯bv쎯wc쎯ngk쎯,	-11.1009
pqk쎯	-11.101
k쎯atd쎯ax쎯dd쎯ip쎯	-11.101
쎅—	-11.1012
rt쎯xfn쎯	-11.1012
i쎯fwm쎯mj쎯	-11.1013
isk쎯sghg1쎯	-11.1014
xyna0쎯ty쎯	-11.1014
je쎯jo쎯r쎯	-11.1014
cd쎯pfjm1쎯	-11.1016
lkd쎯nn쎯	-11.1019
gab쎯	-11.102
▁adw쎯px쎯	-11.102
aq쎯wv쎯	-11.1023
kr쎯gc쎯	-11.1024
lft쎯mqc쎯	-11.1024
fhu쎯bm쎯	-11.1025
ixw쎯fyn쎯	-11.1026
pp쎯hka쎯	-11.1027
▁h쎯itx쎯	-11.1029
o쎯hhhh쎯sfi쎯	-11.1029
apg쎯dgh쎯ytt쎯	-11.103
▁zzy7쎯	-11.103
rvyo쎯hko쎯	-11.103
ga쎯vck쎯,	-11.1031
dg쎯eee쎯	-11.1033
iet쎯	-11.1033
ikm쎯	-11.1034
w쎯ntg쎯wx쎯	-11.1034
puhc쎯tq쎯o쎯“	-11.1035
wwj쎯wfhg쎯cm쎯	-11.1036
wwgi쎯	-11.1036
쎇쎂쎀	-11.1037
aqq쎯jel쎯	-11.1039
sg쎯tu쎯xxf쎯og쎯	-11.1039
y쎯wtf쎯atd쎯jgm쎯。	-11.1039
wc쎯rtt쎯	-11.1039
k쎯ai쎯	-11.1043
r쎯lt쎯jg쎯	-11.1044
iv쎯gk쎯w쎯	-11.1049
sft쎯ou쎯:	-11.105
、yf쎯tha쎯sm쎯	-11.105
,쎂쎀쎀쎅rh쎯	-11.1051
eyf쎯	-11.1052
r쎯dd쎯ih쎯	-11.1052
gj쎯ntg쎯	-11.1053
f쎯aq쎯。	-11.1053
gip쎯d쎯	-11.1053
qk쎯ujfj쎯	-11.1054
tgh쎯nh쎯	-11.1054
bfm쎯f쎯	-11.1056
ftx쎯wx쎯	-11.1056
xp쎯wgk쎯ick쎯gj쎯	-11.1057
dy쎯se쎯	-11.1058
yo쎯gjq쎯	-11.106
rnb쎯kfi쎯	-11.106
r쎯xf쎯sq쎯	-11.106
wycb쎯rp쎯	-11.1065
mt쎯tkh쎯	-11.1065
ad쎯f쎯。	-11.1065
uh쎯、	-11.1067
nge쎯w쎯	-11.1069
dqe쎯	-11.1069
gf쎯쎂쎀쎀쎅rh쎯	-11.1069
dnv1쎯rh쎯	-11.107
pnt쎯wys쎯	-11.107
gyt쎯xe쎯	-11.1071
ce쎯d쎯	-11.1072
ige쎯fjt쎯btg쎯	-11.1074
쎅w쎯,	-11.1075
mw쎯ny쎯	-11.1075
tg쎯u쎯rfc쎯sy쎯	-11.1078
。쎂쎀쎀쎂rh쎯	-11.1079
r쎯fp쎯tkgg0쎯	-11.1079
n쎯ght쎯	-11.1082
ai쎯jty쎯	-11.1083
iugi1쎯	-11.1083
oqy0쎯	-11.1083
fd쎯ymhj쎯fwm쎯aj쎯	-11.1084
v쎯rnr쎯	-11.1086
”thgf0쎯	-11.1086
/쎁	-11.1088
gef쎯awx쎯	-11.1088
r쎯hhhh쎯r쎯	-11.1088
gu쎯src쎯	-11.109
r쎯ftbt쎯yce쎯	-11.1091
rrhy쎯wygg쎯	-11.1091
gm쎯qqqq1쎯	-11.1094
fob쎯	-11.1094
sx쎯nnh쎯	-11.1095
,bn쎯yi쎯j쎯	-11.1096
kie쎯	-11.1098
sm쎯gj쎯	-11.1099
oyv쎯img쎯	-11.1101
ftbt쎯yce쎯fuk쎯yk쎯	-11.1102
ym쎯rfm쎯jg쎯r쎯	-11.1102
xgo쎯ytt쎯	-11.1103
yy쎯qf쎯	-11.1105
uth쎯wh쎯	-11.1106
ukn쎯jg쎯	-11.1107
g쎯uj쎯	-11.1108
ooo쎯po쎯	-11.1108
vb쎯ygu쎯	-11.1109
jj쎯egc쎯	-11.1109
ygu쎯o쎯“	-11.111
rnb쎯rnw쎯	-11.1111
qr쎯dyt쎯	-11.1113
°	-11.1113
u쎯og쎯v쎯nae쎯	-11.1114
ugdu쎯kfi쎯	-11.1116
mga쎯cbj쎯	-11.1116
rtf쎯sgmj쎯	-11.1118
r쎯x쎯cwg쎯	-11.1119
tffu쎯ujfj쎯wug1쎯	-11.112
pgk쎯wynk쎯	-11.1121
dyc쎯wx쎯	-11.1121
hcd쎯hw쎯	-11.1122
ct쎯。”	-11.1126
rb1쎯py쎯	-11.1127
fp	-11.113
ikh0쎯unr쎯	-11.113
td쎯qk쎯ya쎯	-11.1131
o쎯pt쎯yne쎯	-11.1131
lwg쎯ty쎯if쎯	-11.1131
ym쎯usr쎯	-11.1132
dmjf1쎯yssd0쎯	-11.1132
sg쎯rfm쎯	-11.1133
ge쎯gm쎯bm쎯	-11.1135
cbts0쎯lqw쎯	-11.1136
yni1쎯qy쎯	-11.1137
dxa쎯	-11.1138
rffg쎯thgf0쎯	-11.1138
jghy쎯wfg0쎯	-11.1138
iytb0쎯jtyq1쎯	-11.114
wynb쎯rg쎯	-11.1142
aw쎯yf쎯	-11.1143
by쎯uqwl쎯	-11.1145
,lk쎯xk쎯	-11.1145
yoo쎯udjh쎯	-11.1145
syc쎯	-11.1146
pp쎯uthp쎯	-11.1147
hfc쎯	-11.1148
▁g쎯、	-11.1151
puvc0쎯	-11.1151
tmgt3쎯	-11.1151
k쎯wxf쎯w쎯n쎯aw쎯t쎯l	-11.1152
wxb쎯	-11.1152
ye쎯eb쎯	-11.1154
jf쎯iq쎯	-11.1155
nh쎯vi쎯b쎯	-11.1155
kkd쎯tr쎯	-11.1156
k쎯jb쎯	-11.1158
gc쎯yqa쎯	-11.1158
rep쎯yjs쎯	-11.1159
rfm쎯f쎯	-11.1161
an쎯w쎯	-11.1162
쎂uqw쎯	-11.1162
lds쎯gae쎯	-11.1164
쎄w쎯	-11.1168
rmc쎯u쎯	-11.1169
xuq쎯	-11.1169
y쎯apk쎯	-11.1171
tda쎯	-11.1172
adwe1쎯bv쎯	-11.1172
qo	-11.1172
,uvo쎯	-11.1173
yy쎯aa쎯。	-11.1174
at쎯yfn쎯	-11.1174
ipg쎯wx쎯	-11.1175
uyh쎯、	-11.1175
rvyo쎯ny쎯	-11.1176
px쎯wu쎯r쎯	-11.1178
uk쎯uth쎯:	-11.1182
c0쎯	-11.1188
(쎅)	-11.1191
dn쎯js쎯uqd0쎯	-11.1193
fggh쎯jfj쎯	-11.1194
dn쎯wqj쎯	-11.1194
rvyo쎯jg쎯	-11.1196
rg쎯dm쎯	-11.1196
rp쎯mt쎯rh쎯	-11.1196
xh쎯et쎯	-11.1198
ff쎯ymd쎯	-11.1201
duo쎯	-11.1204
td쎯qk쎯r쎯	-11.1204
wgkb2쎯jghm1쎯	-11.1206
qytb0쎯wx쎯	-11.1208
fcp쎯lfn쎯	-11.1209
ym쎯u쎯	-11.1209
hx쎯od쎯	-11.121
ss쎯ssss쎯	-11.1212
rg쎯an쎯	-11.1213
yww쎯,	-11.1219
nhw쎯	-11.122
bukn쎯	-11.1221
dga쎯pwv쎯tg쎯bpf쎯	-11.1221
x쎯qie쎯	-11.1221
,fm쎯gn쎯	-11.1222
쎁쎈쎀쎀	-11.1222
ve쎯img쎯	-11.1222
▁쎇、	-11.1222
sk쎯d쎯	-11.1223
、dg쎯	-11.1223
qqqq1쎯wxf쎯	-11.1224
쎂쎀쎁쎃	-11.1225
tyna2쎯。	-11.1225
uyh쎯pwt쎯	-11.1225
ta쎯xq쎯	-11.1227
dd쎯afi쎯	-11.1227
tf쎯fhu쎯	-11.1228
gu쎯yy쎯oy쎯	-11.1228
fqp쎯yb쎯	-11.1228
l쎯bf쎯sfi쎯uwy1쎯	-11.1229
쎁쎂쎃	-11.1229
gj쎯gk쎯	-11.123
)pb쎯	-11.1231
ym쎯hid쎯	-11.1235
ipk쎯xeg쎯nnh쎯yn쎯	-11.1236
ipk쎯tv쎯tv쎯km쎯、	-11.1237
itd쎯fcl쎯k쎯	-11.1237
tcf쎯	-11.1239
o쎯pfi쎯xj쎯	-11.1239
bk쎯wug1쎯	-11.1239
,txi쎯	-11.1243
umia쎯	-11.1245
,dt쎯egl쎯	-11.1245
sgn쎯ou쎯	-11.1247
ud쎯txi쎯。	-11.1248
qvw쎯	-11.1248
gqje쎯thg0쎯	-11.1251
wht쎯ghd0쎯	-11.1251
tx쎯ag쎯nm쎯	-11.1251
jx쎯je쎯ymhj쎯	-11.1252
쎆.쎀	-11.1252
fh쎯dp쎯	-11.1253
tffu쎯tk쎯od쎯	-11.1254
tmg1쎯sm쎯	-11.1256
yy쎯ghd0쎯	-11.1257
、xa쎯	-11.1259
go쎯jn쎯	-11.1261
ccc쎯j쎯	-11.1262
jc쎯qvn2쎯	-11.1262
ymc쎯uu쎯b쎯	-11.1262
dgh쎯tdij쎯	-11.1263
fl쎯wf쎯gkl쎯wf쎯ta쎯	-11.1263
쎂쎀-	-11.1263
klj쎯qk쎯:	-11.1265
sk쎯pww쎯xmw쎯	-11.1267
lkd쎯rb1쎯	-11.1268
jg쎯r쎯	-11.1269
wm쎯w쎯	-11.1271
pl쎯pn쎯	-11.1273
yygy쎯w쎯	-11.1273
▁adw쎯wb쎯	-11.1274
qev쎯gxgu쎯	-11.1275
,dn쎯uu쎯gf쎯	-11.1276
l쎯pe쎯bw쎯	-11.1277
r쎯ujn쎯ln쎯	-11.1278
ybt쎯or쎯	-11.1278
jn쎯mqq쎯	-11.1278
g쎯ya쎯	-11.1279
dmj1쎯yyy쎯,	-11.1279
wc쎯jfd쎯,	-11.128
xkw쎯tr쎯	-11.1281
ca	-11.1281
mf쎯wf쎯	-11.1284
쎃.쎈	-11.1284
qnf쎯	-11.1285
dd쎯itx쎯	-11.1286
tfq쎯rg쎯rjg0쎯wtf쎯	-11.1288
nfc쎯dm쎯	-11.129
,쎂쎀쎀쎃rh쎯	-11.1292
dgkn쎯jhf1쎯	-11.1293
fuk쎯yk쎯gyt쎯	-11.1294
iwf쎯tf쎯r쎯	-11.1295
qqqq1쎯dgtg쎯	-11.1296
arj쎯ae쎯	-11.1297
i쎯on쎯r쎯	-11.1299
+쎂	-11.1299
yem쎯	-11.1304
jri쎯	-11.1304
faw쎯hh쎯	-11.1305
e쎯gmww쎯wh쎯	-11.1306
thd쎯xln1쎯	-11.1309
bmg쎯o쎯	-11.131
ugdu쎯w쎯	-11.131
쎁쎈쎆	-11.1312
ith쎯uk쎯xe쎯	-11.1312
ay쎯tjf쎯	-11.1313
rf쎯qy쎯	-11.1315
bn쎯ytf쎯	-11.1317
fft쎯	-11.1318
ma쎯anb0쎯	-11.1318
,djd쎯	-11.1322
k쎯ip쎯tg쎯	-11.1323
,g쎯fh쎯	-11.1324
yc쎯jn쎯kkd쎯	-11.1324
wmw쎯wx쎯	-11.1327
쎃wc쎯jfd쎯	-11.133
mqq쎯gfi쎯	-11.133
aqg쎯aqr쎯ah쎯	-11.133
e쎯bv쎯wc쎯ngk쎯j쎯g쎯	-11.1331
age쎯lll쎯	-11.1332
hk쎯e쎯	-11.1333
gog쎯rvyo쎯gkp쎯	-11.1333
itx쎯ipr쎯	-11.1334
dnv2쎯adw쎯	-11.1336
wgkq0쎯wgkb2쎯	-11.1337
fc쎯uk쎯nnh쎯yn쎯	-11.1338
r쎯ftx쎯	-11.1338
fny쎯og쎯xxf쎯og쎯,	-11.1343
,ua쎯e쎯	-11.1343
ux쎯tvr쎯	-11.1343
qnth쎯kkk쎯	-11.1345
fdm쎯fiy쎯,	-11.1345
dty쎯jfd쎯	-11.1346
pyj쎯tn쎯r쎯	-11.1347
ukn쎯hk쎯f쎯dm쎯tkw쎯	-11.1347
dh쎯egc쎯	-11.1349
saj쎯wyn쎯	-11.135
r쎯bynw0쎯bb쎯	-11.1351
fhv쎯fnr쎯	-11.1352
쎁쎈쎇	-11.1354
y쎯s쎯o쎯	-11.1354
ll쎯bynw0쎯	-11.1355
ii쎯、	-11.1356
uyh쎯yne쎯mqq쎯uh쎯	-11.1357
dd쎯ej쎯	-11.136
rymn쎯alt쎯	-11.1361
wsg0쎯rfm쎯	-11.1361
rh쎯uj쎯,	-11.1362
pei쎯pe쎯	-11.1363
《ud쎯gf쎯	-11.1363
h쎯up쎯	-11.1364
pw쎯ny쎯	-11.1366
wyv쎯fhl쎯	-11.1366
qqqq1쎯bfw쎯	-11.1366
쎈쎀rh쎯wa쎯	-11.1367
v쎯wyk쎯	-11.1367
쎁쎃쎃	-11.1369
nty1쎯vfhp1쎯	-11.1369
yd쎯maw쎯	-11.137
wmj0쎯dm쎯	-11.1371
yvh쎯·	-11.1372
shn쎯qje쎯	-11.1376
w쎯fqu쎯	-11.1377
jb쎯qq쎯r쎯	-11.1377
φ	-11.1377
wy쎯ny쎯	-11.1378
hk쎯rnd1쎯	-11.1379
cyn쎯	-11.1381
svc쎯rtd쎯	-11.1381
buj쎯	-11.1381
bjm쎯	-11.1384
gf쎯쎂쎀쎁쎁rh쎯	-11.1386
wwx쎯gj쎯	-11.1386
oge쎯iad쎯r쎯	-11.1387
。k쎯l쎯	-11.1387
kkks0쎯ujf쎯	-11.1388
.쎁쎂	-11.139
sks쎯sks쎯	-11.139
oq쎯rgw쎯	-11.139
ovt쎯ip쎯txi쎯	-11.1391
쎁wh쎯,	-11.1391
yssr쎯rta쎯lg쎯	-11.1391
qaf쎯	-11.1392
,bde쎯	-11.1393
▁쎇	-11.1395
ald쎯	-11.1395
bb쎯pk쎯	-11.1396
fff1쎯	-11.1397
ㄙ	-11.1397
jhng쎯:	-11.14
irh쎯	-11.1401
,yt쎯	-11.1402
vfb쎯jfd쎯	-11.1403
、fq쎯	-11.1404
nh쎯adnt1쎯。	-11.1405
qnq쎯et쎯	-11.1407
ftbt쎯rep쎯、fge쎯	-11.141
tdp쎯et쎯aib쎯lfnh쎯	-11.1411
fcp쎯apk쎯um쎯	-11.1412
__	-11.1412
xn쎯vi쎯	-11.1414
ddu0쎯yny0쎯	-11.1416
xxf쎯og쎯,	-11.1417
gkp쎯pa쎯	-11.1417
gmm쎯	-11.1418
tp쎯gj쎯ip쎯	-11.1418
yo쎯af쎯	-11.1418
euk쎯yb쎯	-11.1421
i쎯on쎯rj쎯ym쎯	-11.1424
jty쎯ysi쎯a쎯wt쎯	-11.1426
(쎁쎇	-11.1427
tfqp쎯rdc쎯	-11.1428
gk쎯tl쎯rn쎯	-11.1429
ipg쎯km쎯。	-11.143
ftbt쎯yce쎯gk쎯og쎯	-11.143
aqk쎯og쎯	-11.1432
mq	-11.1433
uq쎯cep쎯wgj쎯tjh쎯。	-11.1433
ws쎯usi0쎯vkgd쎯qi쎯	-11.1435
vtkd1쎯y쎯	-11.1436
swc쎯ia쎯	-11.1436
pfjm1쎯lg쎯	-11.1436
쎂쎀쎁쎄rh쎯	-11.1437
,ux쎯gn쎯	-11.1438
khn쎯ydn쎯	-11.1438
hhu0쎯qiu0쎯	-11.1439
tf쎯jtg쎯	-11.1443
mqq쎯xtk쎯tu쎯rfc쎯	-11.1444
dgv쎯qiu0쎯	-11.1445
yy쎯tkgg0쎯	-11.1446
je쎯rrr쎯	-11.1447
wg쎯dm쎯r쎯	-11.1447
yri쎯	-11.1448
,px쎯r쎯	-11.1449
▁쎂쎀쎀쎅rh쎯	-11.145
kgn쎯:	-11.145
tmdy0쎯	-11.145
gf쎯hx쎯	-11.1451
ga쎯nae쎯b쎯	-11.1451
wv쎯pdhj쎯	-11.1451
ajdf쎯f쎯	-11.1451
。쎂쎀쎀쎃rh쎯	-11.1452
amw쎯isgg0쎯	-11.1452
vaf쎯	-11.1454
aqw쎯	-11.1454
dn쎯wwv쎯	-11.1455
ghd0쎯tu쎯xe쎯	-11.1456
쎁쎉쎉쎆	-11.1457
kgb쎯,	-11.1459
ii쎯gu쎯。	-11.146
gu쎯oy쎯	-11.1462
쎅쎅쎀	-11.1463
쎁쎂쎁	-11.1463
qq쎯uk쎯	-11.1463
st쎯nnk쎯	-11.1467
k쎯mmm쎯ymhj쎯	-11.1469
tfc쎯	-11.1469
wycm0쎯fakg1쎯,	-11.1469
ia쎯aq쎯	-11.147
:쎃쎀	-11.147
쎆rh쎯	-11.1471
e쎯qk쎯r쎯	-11.1473
qejy쎯rajd쎯nua쎯	-11.1476
fgh쎯eee쎯	-11.1479
yny0쎯、	-11.1479
tey쎯itx쎯	-11.1479
wdn쎯ugdu쎯r쎯	-11.1479
du쎯fnrt쎯	-11.1479
whm쎯	-11.1481
u쎯rg쎯	-11.1481
amd쎯yygy쎯qk쎯tq쎯:	-11.1482
,bwt쎯b쎯	-11.1482
rh쎯lc쎯w쎯	-11.1483
iytb0쎯ca쎯《	-11.1484
ddg0쎯ntg쎯	-11.1485
lc쎯a쎯	-11.1485
mym쎯	-11.1488
hj쎯jf쎯	-11.1488
fm쎯wmj0쎯	-11.149
yhk쎯qge쎯	-11.1491
ㄠ	-11.1495
atd쎯ip쎯fge쎯fghg쎯	-11.1496
r쎯ym쎯ya쎯	-11.1497
fnm쎯	-11.1497
dx쎯udi쎯	-11.1497
lq쎯adwr쎯	-11.1497
wg쎯pl쎯	-11.1497
tdtj쎯	-11.1498
sk쎯tfkd쎯ntg쎯	-11.1499
cqq쎯	-11.1499
dty쎯nd쎯	-11.1499
쎂쎀wh쎯	-11.1501
vcb쎯j쎯	-11.1505
ai쎯dm쎯	-11.1506
wf쎯e쎯	-11.1506
qg쎯tmh0쎯	-11.1507
dnnl쎯u쎯	-11.1509
ey쎯adw쎯px쎯	-11.151
ymf쎯ya쎯	-11.1511
uk쎯gkl쎯uk쎯ta쎯	-11.1512
sh쎯xx쎯,	-11.1514
tjh쎯yx쎯	-11.1515
t쎯k쎯l쎯	-11.1515
xmw쎯ty쎯	-11.1516
,wgkq0쎯adw쎯	-11.1518
쎁uqw쎯	-11.1519
g쎯ih쎯	-11.152
cf쎯ytd쎯	-11.152
쎂쎆쎀	-11.152
rxj쎯pg쎯r쎯	-11.1521
hi쎯swb쎯	-11.1521
uqb쎯aq쎯	-11.1522
iyw쎯jjj쎯	-11.1522
rj쎯ym쎯b쎯	-11.1523
ytf쎯sk쎯	-11.1524
,dp쎯gc쎯	-11.1525
쎄kgn쎯	-11.1525
epe쎯	-11.1525
qn	-11.1528
th쎯、	-11.1529
sg쎯go쎯	-11.1529
ym쎯ahty쎯	-11.1529
ux쎯aq쎯	-11.1531
fggh쎯xg쎯	-11.1531
쎁쎀쎉	-11.1532
rp쎯wny0쎯	-11.1535
xcc쎯	-11.1536
쎂쎀쎀dq쎯	-11.1536
bct쎯wgk쎯tr쎯	-11.1537
e쎯lt쎯	-11.1539
ndj쎯《	-11.1539
amw쎯img쎯	-11.154
ihc쎯adwr쎯	-11.154
,tfq쎯	-11.154
,lh쎯kthh1쎯ith쎯	-11.154
kf쎯sgm쎯	-11.1541
et쎯jg쎯	-11.1542
fqd쎯	-11.1543
,sghg1쎯gn쎯	-11.1543
r쎯tg쎯wgkb2쎯	-11.1545
ce쎯lt쎯t쎯	-11.1546
,lpdk0쎯	-11.1547
us쎯av쎯	-11.1547
fmk쎯mty1쎯	-11.1549
an쎯wa쎯	-11.1549
ipk쎯ukn쎯fc쎯	-11.1549
ny쎯gj쎯uqwk쎯yqj쎯	-11.1549
。cf쎯gf쎯	-11.155
w쎯tq쎯	-11.155
qgfj쎯	-11.155
k쎯xe쎯	-11.1557
,yid쎯	-11.1558
tg쎯ta쎯d쎯	-11.156
ujfj쎯xgb쎯	-11.156
saj쎯ode쎯	-11.156
xyc쎯tdtf쎯	-11.1561
imk쎯mdfj쎯	-11.1561
e쎯gxgu쎯	-11.1562
wy쎯wtf쎯	-11.1563
rumt쎯	-11.1565
,xj쎯d쎯	-11.1565
yygt쎯dd쎯et쎯yne쎯	-11.1568
aym쎯	-11.1568
ug	-11.1569
ymf쎯rpw쎯	-11.1572
uxe쎯rg쎯	-11.1573
iex쎯qfhw0쎯	-11.1574
iy	-11.1577
sf쎯xe쎯	-11.1577
wgit쎯	-11.1578
gcf쎯gf쎯	-11.1579
쎁쎂쎂	-11.1581
umq쎯qtg쎯	-11.1582
쎄.쎈	-11.1583
txg쎯mfk쎯	-11.1583
jpv쎯	-11.1584
sm쎯fcl쎯	-11.1585
c쎯qc쎯gq쎯	-11.1586
uyh쎯qh쎯	-11.1587
p쎯sg쎯nnh쎯	-11.1589
yfd쎯lfq쎯	-11.159
epc쎯gc쎯b쎯	-11.1591
wc쎯bb쎯	-11.1591
tq쎯kgn쎯,	-11.1591
ck쎯、	-11.1591
wfny0쎯yn쎯	-11.1593
gkl쎯y쎯yam쎯。	-11.1594
cd쎯jvko쎯	-11.1595
mpg쎯	-11.1596
wt쎯bm쎯b쎯	-11.1596
py쎯tu쎯	-11.1596
쎂쎀쎀쎂	-11.1598
rny1쎯wtf쎯	-11.1598
yygy쎯wys쎯	-11.1598
uxe쎯uk쎯	-11.1598
ipg쎯kjj쎯wf쎯	-11.16
。쎂쎀쎀쎅rh쎯	-11.16
i쎯b쎯	-11.1601
ymhj쎯ta쎯	-11.1601
xeg쎯vfhp1쎯r쎯	-11.1603
、py쎯wf쎯	-11.1606
r쎯gkih쎯wsg0쎯	-11.1607
rg쎯d쎯	-11.1608
r쎯x쎯iyj쎯	-11.161
xgo쎯	-11.1612
fh쎯gcf쎯	-11.1612
thgc쎯sc쎯	-11.1612
g쎯tyna2쎯	-11.1614
,epc쎯	-11.1616
ftbt쎯nf쎯	-11.1618
xyna0쎯pgn쎯r쎯	-11.1618
vca쎯j쎯	-11.162
zzf	-11.1621
dmj1쎯puhc쎯	-11.1623
sov쎯、	-11.1624
kkkk0쎯ygk쎯	-11.1626
쎄%	-11.1627
),pyg쎯vfhp1쎯ith쎯	-11.1627
i쎯fhn쎯	-11.1627
kgn쎯xg쎯	-11.163
fc쎯lks쎯	-11.163
,lk쎯h쎯	-11.163
tak쎯ym쎯	-11.1633
iqyl쎯	-11.1635
ugdu쎯wx쎯	-11.1635
xpw쎯tdg1쎯	-11.1635
gg쎯eee쎯	-11.1637
xv쎯qc쎯,	-11.1638
ssss쎯bgh쎯	-11.1639
gkp쎯go쎯r쎯	-11.164
bn쎯yi쎯	-11.1642
th쎯gkl쎯th쎯ta쎯	-11.1644
ud쎯bu쎯	-11.1644
gkp쎯go쎯b쎯	-11.1644
tu쎯,	-11.1648
r쎯rfm쎯jg쎯	-11.1648
dd쎯uqd0쎯pfjm1쎯	-11.1648
ukn쎯yne쎯ovt쎯	-11.165
qnm쎯	-11.1651
o쎯wq쎯	-11.1652
】	-11.1652
,iy쎯mm쎯uqwm0쎯	-11.1654
pv쎯pg쎯	-11.1655
dc쎯w쎯	-11.1655
wsg0쎯gm쎯b쎯	-11.1656
abi쎯v쎯	-11.1656
ih쎯qfhw0쎯	-11.1656
▁iytb0쎯ca쎯	-11.1657
r쎯jb쎯ym쎯	-11.1657
dd쎯fny쎯yygy쎯wx쎯	-11.1657
,tdp쎯wgk쎯	-11.1658
,vvv쎯,ic쎯ytt쎯,	-11.1659
rfc쎯sy쎯w쎯ft쎯	-11.166
r쎯ue쎯tmd쎯j쎯	-11.1661
.....	-11.1661
dyt쎯dgtg쎯	-11.1664
bk쎯fnrt쎯	-11.1665
bn쎯d쎯	-11.1666
usr쎯ce쎯idr쎯	-11.1666
쎅dq쎯,	-11.1666
sf쎯ait쎯	-11.1667
ny쎯nge쎯	-11.1668
ui쎯oyvk0쎯	-11.1669
xgm쎯uqt쎯	-11.1669
《k쎯wxf쎯	-11.167
o쎯g쎯wsg0쎯	-11.167
▁ga쎯	-11.167
r쎯wqu쎯us쎯	-11.1671
fg쎯fgh쎯lh쎯	-11.1673
g쎯uqw쎯ntg쎯	-11.1674
jtg쎯txi쎯	-11.1674
,j쎯g쎯pe쎯wys쎯	-11.1678
v쎯nae쎯gc쎯	-11.1679
v쎯yt쎯	-11.1683
pp쎯ny쎯	-11.1685
쎂쎃쎀	-11.1687
ftbt쎯yce쎯、	-11.1687
qqqq1쎯qc쎯	-11.1687
wgkq0쎯et쎯ftj쎯	-11.1688
r쎯w쎯tg쎯	-11.169
bqt쎯	-11.169
qsu쎯alt쎯	-11.1692
ifn쎯ii쎯th쎯gj쎯	-11.1693
r쎯jb쎯dd쎯	-11.1694
isk쎯qfhw0쎯	-11.1696
m쎯“	-11.1696
r쎯hka쎯ltk쎯	-11.1696
imh쎯udi쎯	-11.1696
aga쎯ytyh쎯	-11.1697
o쎯ad쎯dbm쎯,	-11.1697
,ai쎯	-11.1697
wn쎯fqb1쎯,	-11.1699
wg쎯xte쎯	-11.17
scf쎯hc쎯	-11.1701
xq쎯쎃	-11.1701
ip쎯txi쎯	-11.1701
wc쎯ghd0쎯	-11.1704
rp쎯adwe1쎯	-11.1704
wc쎯jfd쎯,yb쎯	-11.1704
td쎯egc쎯	-11.1704
thd쎯qsu쎯	-11.1705
rvyo쎯uyh쎯	-11.1706
sfi쎯uwy1쎯,	-11.1707
nhj쎯ougo쎯	-11.1707
e쎯pd쎯	-11.1707
fwy쎯tkw쎯	-11.1711
(쎃	-11.1712
spn쎯	-11.1712
lpk0쎯fcu0쎯iawn쎯	-11.1714
wfny0쎯an쎯	-11.1716
itx쎯kkkk0쎯	-11.1717
ax쎯et쎯	-11.1717
vfhp1쎯rmhj쎯	-11.1717
iug쎯	-11.1719
tk쎯lwj쎯	-11.1719
ld쎯dmj1쎯	-11.1722
쎁쎀쎃	-11.1725
lc쎯lc쎯	-11.1726
ogmj0쎯	-11.173
qsu쎯rt쎯	-11.1731
iyy쎯	-11.1734
qgy쎯	-11.1734
r쎯gj쎯wynn3쎯	-11.1735
tx쎯쎇	-11.1736
*쎁	-11.1737
dpr쎯xh쎯	-11.174
“dd쎯	-11.174
yygy쎯ip쎯anb0쎯sy쎯	-11.174
aqrn0쎯awx쎯	-11.1741
ywx쎯yygy쎯《	-11.1742
sf쎯ipk쎯fc쎯uk쎯	-11.1742
jty쎯ysi쎯atd쎯ip쎯	-11.1742
sgc쎯ntg쎯	-11.1743
aqn쎯	-11.1743
,wgc쎯ty쎯	-11.1744
l쎯ip쎯	-11.1744
udyj쎯gqf쎯og쎯	-11.1746
rg쎯gmf쎯	-11.1747
쎁쎉쎀	-11.1748
yss쎯img쎯	-11.1748
g쎯yu쎯	-11.175
yid쎯et쎯rfc쎯sy쎯	-11.175
u쎯kkk쎯ga쎯v쎯	-11.1751
fp쎯go쎯	-11.1752
gx쎯egl쎯	-11.1755
fffy쎯uft쎯	-11.1755
r쎯gae쎯qje쎯	-11.1756
adiy쎯	-11.1756
ige쎯iq쎯xft쎯	-11.1756
waw쎯dwf쎯	-11.1756
gjq쎯e쎯	-11.1757
vtf쎯vdf쎯	-11.1761
wa쎯ge쎯wt쎯	-11.1763
cn쎯qiu0쎯	-11.1763
swy1쎯	-11.1765
rfc쎯sy쎯gn쎯	-11.1765
wye쎯uqw쎯	-11.1765
ey쎯tk쎯tkh쎯	-11.1766
i쎯bm쎯	-11.1769
,iy쎯tgj쎯	-11.1769
ymc쎯yf쎯t쎯	-11.177
awx쎯mmq쎯mdf쎯	-11.177
k쎯gajf쎯	-11.1771
qrnq쎯	-11.1772
ux쎯itx쎯	-11.1773
gmww쎯ftj쎯	-11.1775
le쎯enr쎯	-11.1775
kha쎯egc쎯fd쎯	-11.1775
b쎯dd쎯jg쎯	-11.1775
·bs쎯	-11.1778
bd쎯fa쎯	-11.178
eee쎯ypm쎯	-11.178
。rxj쎯	-11.1782
vep쎯tmc쎯	-11.1782
et쎯ny쎯	-11.1783
dga쎯pwv쎯w쎯km쎯	-11.1783
ypt쎯fq쎯	-11.1783
w쎯pp쎯	-11.1784
uuj쎯syp쎯b쎯	-11.1786
y쎯fggh쎯uthp쎯	-11.1787
alf쎯ssss쎯	-11.1787
fii쎯ce쎯	-11.1787
dx쎯isj쎯	-11.1788
a쎯tv쎯	-11.1788
dl쎯kq쎯r쎯	-11.1789
fny쎯km쎯	-11.1789
lh쎯efc쎯	-11.179
qc쎯,	-11.1792
py쎯wf쎯tk쎯lwj쎯	-11.1792
쎁쎁wh쎯	-11.1794
,쎂쎀쎀쎇rh쎯	-11.1795
ts쎯xq쎯	-11.1796
,쎂쎀쎀쎂rh쎯	-11.1797
tdg1쎯,	-11.1798
x쎯iyj쎯py쎯wf쎯	-11.1798
쎃.쎄	-11.1799
rtf쎯ty쎯	-11.1799
ywk쎯	-11.18
isk쎯egc쎯	-11.1801
wc쎯ngk쎯ukn쎯x쎯gj쎯	-11.1801
g쎯dd쎯	-11.1802
gf쎯ux쎯yiu쎯	-11.1802
qbp쎯ruv쎯	-11.1803
imh쎯udi쎯ymhj쎯	-11.1804
,c쎯wgj쎯	-11.1804
tif쎯tg쎯	-11.1807
쎁쎉쎂쎅rh쎯	-11.1807
sgn쎯jn쎯	-11.1807
rmhj쎯tlf2쎯	-11.1807
oy쎯qiu0쎯	-11.1808
jcf쎯rf쎯c쎯	-11.1808
wgku1쎯fnrt쎯	-11.1808
iq	-11.181
wu쎯r쎯	-11.1812
j쎯g쎯sg쎯	-11.1812
gmww쎯l쎯	-11.1813
fh쎯cm쎯	-11.1814
°C,rh쎯bt쎯ii쎯jg쎯쎁	-11.1814
bw쎯ta쎯	-11.1815
wsg0쎯txi쎯。	-11.1815
udy쎯。	-11.1815
wug1쎯nd쎯	-11.1815
fgh쎯mt쎯	-11.1816
쎄w쎯,	-11.1816
a쎯wt쎯tfq쎯fj쎯	-11.1816
r쎯trf쎯gqr쎯	-11.1817
xa쎯qc쎯,	-11.1818
fnrt쎯wgk쎯	-11.1821
wg쎯tq쎯	-11.1821
qqy0쎯	-11.1821
jg쎯bb쎯	-11.1822
ax쎯og쎯	-11.1822
▁쎂쎀쎁쎁rh쎯	-11.1822
fw쎯vv쎯	-11.1823
vkgd쎯	-11.1824
tfkp쎯yxj쎯	-11.1825
dqw쎯	-11.1826
c쎯sghg1쎯	-11.1826
nyu쎯jg쎯	-11.1826
hhu0쎯cep쎯	-11.1826
▁쎉	-11.1827
udhf쎯	-11.1828
kkc쎯	-11.1828
8	-11.183
cn쎯qwyc0쎯alfj0쎯	-11.1831
jx쎯mmm쎯	-11.1831
fcu1쎯an쎯	-11.1831
쎉쎀쎀쎀	-11.1832
jaw쎯fcl쎯	-11.1833
쎅°	-11.1833
atd쎯ubk0쎯txi쎯	-11.1835
lqw쎯wrh2쎯od쎯klj쎯	-11.1836
snb2쎯sjtq쎯	-11.1837
uqf쎯go쎯	-11.1837
iaw쎯ii쎯	-11.1837
dga쎯pwv쎯》、《	-11.1837
gf쎯uf쎯mmm쎯aq쎯。	-11.1838
gkih쎯sm쎯	-11.1838
》()	-11.1838
▁rnd1쎯	-11.1839
xl쎯ta쎯	-11.1839
kkm쎯	-11.184
dnv1쎯fqb1쎯	-11.184
gog쎯tkh쎯	-11.1845
uth쎯wug1쎯	-11.1845
,rjg0쎯wtf쎯	-11.1846
rxj쎯rpl쎯uk쎯	-11.1848
hhhh쎯vi쎯gh쎯	-11.1848
rqkq쎯	-11.1849
ige쎯tjf쎯	-11.1849
dga쎯rmhj쎯r쎯	-11.185
dhb쎯ffi쎯	-11.185
k쎯l쎯r쎯	-11.1852
dhb쎯d쎯gf쎯	-11.1853
ip쎯nu쎯,	-11.1854
usr쎯fu쎯	-11.1854
、mqq쎯xtk쎯	-11.1854
rt쎯rf쎯	-11.1854
veg쎯vfi쎯	-11.1855
dd쎯k쎯gajf쎯	-11.1855
:쎈	-11.1857
ad쎯dbm쎯td쎯ykw쎯	-11.1858
sjs쎯	-11.1858
wqc쎯wqc쎯	-11.186
tf쎯wgkq0쎯	-11.186
thd쎯qd쎯wk쎯ryn0쎯	-11.186
jtyq0쎯klj쎯	-11.1862
adm쎯hhhh쎯tp쎯gj쎯	-11.1862
ufy쎯e쎯	-11.1863
eee쎯wwv쎯	-11.1864
ith쎯tv쎯	-11.1866
ya쎯,	-11.1866
tfq쎯uqf쎯	-11.1868
,fm쎯wycb쎯	-11.187
aq쎯tv쎯	-11.1871
jjjj쎯yn쎯	-11.1873
bqv쎯ty쎯	-11.1877
atg쎯gk쎯	-11.1878
ta쎯。	-11.1878
ga쎯ny쎯	-11.1878
e0쎯	-11.188
yo쎯dn쎯b쎯	-11.1881
pfjf0쎯qiu0쎯	-11.1881
(adw쎯k쎯	-11.1882
apl쎯tl쎯	-11.1883
i쎯m쎯gf쎯	-11.1883
g쎯uthp쎯ugdu쎯wyv쎯	-11.1885
lgey0쎯ou쎯	-11.1885
쎄쎀%	-11.189
jf쎯qkhh1쎯	-11.1891
uu쎯adm쎯	-11.1892
afcu2쎯	-11.1892
r쎯g쎯ffi쎯	-11.1892
ynwy2쎯	-11.1893
gkl쎯ymhj쎯ta쎯	-11.1895
qie쎯jg쎯	-11.1895
rj쎯waw쎯wdn쎯rfm쎯	-11.1896
、irn쎯lg쎯	-11.1898
ral쎯	-11.1898
puj쎯	-11.1898
ym쎯rfm쎯jg쎯	-11.1899
쎁쎉an쎯xn쎯	-11.19
.쎁쎁	-11.19
yd쎯pyk쎯	-11.1901
whf쎯og쎯rj쎯waw쎯	-11.1901
aw쎯ynky2쎯	-11.1902
쎇쎀%	-11.1902
“gg쎯	-11.1903
dnv1쎯gu쎯yy쎯oy쎯,	-11.1903
oja쎯tjf쎯	-11.1903
yak쎯	-11.1904
se쎯dd쎯r쎯	-11.1906
mqj쎯mqj쎯	-11.1906
。쎁쎉쎈쎅rh쎯	-11.1906
sso쎯	-11.1906
g쎯fh쎯d쎯	-11.1908
rnb쎯ijl쎯	-11.1913
gf쎯쎂쎀쎀쎄rh쎯	-11.1913
fhw쎯w쎯	-11.1914
ey쎯yid쎯et쎯	-11.1914
ih쎯wgj쎯	-11.1916
vi쎯bc쎯	-11.1916
(쎄)	-11.1916
쎇%	-11.1918
ipw쎯lk쎯a쎯	-11.1918
sq쎯tam쎯	-11.1919
ftbt쎯ip쎯、tu쎯dga쎯	-11.1921
qh쎯wmj0쎯	-11.1922
pe쎯jfd쎯	-11.1923
uuk0쎯jtyq1쎯pgc쎯	-11.1923
ip쎯suq쎯r쎯	-11.1923
n쎯sksw쎯	-11.1924
,ww쎯hx쎯	-11.1924
wbj쎯fjh0쎯	-11.1925
,쎄	-11.1927
wg쎯ddu0쎯	-11.1932
sk쎯ep쎯r쎯	-11.1934
tffu쎯fny쎯og쎯	-11.1934
bl쎯f쎯	-11.1936
mftj1쎯	-11.1936
if쎯。	-11.1936
),j쎯	-11.1937
ulg쎯atd쎯	-11.1937
▁dg쎯、	-11.194
kq쎯》	-11.1941
yqa쎯,	-11.1943
uqw쎯ovt쎯	-11.1944
wv쎯od쎯:ltu쎯nnh쎯>	-11.1946
fnw쎯,	-11.1947
bm쎯v쎯,	-11.1947
gcft2쎯lt쎯	-11.1947
skf쎯wfg0쎯	-11.1947
rdj쎯bm쎯	-11.1948
pu쎯cwg쎯ip쎯suq쎯	-11.1949
ftbt쎯rep쎯,fge쎯	-11.195
sps쎯sap쎯	-11.195
ih쎯kf쎯	-11.1952
mmm쎯xte쎯	-11.1953
ivs쎯ou쎯	-11.1954
pwn쎯	-11.1955
【	-11.1956
sgyh쎯	-11.1956
->	-11.1956
geq쎯jn쎯	-11.1959
ai쎯aq쎯	-11.1959
wyf0쎯jg쎯	-11.196
src쎯sft쎯	-11.1963
trf쎯xe쎯ftbt쎯jgm쎯	-11.1963
gkl쎯y쎯yam쎯、	-11.1964
dgtg쎯amd쎯	-11.1964
,ua쎯gn쎯	-11.1965
wt쎯pe쎯fl쎯wf쎯	-11.1966
wty쎯fgh쎯	-11.1967
gjq쎯vb쎯f쎯	-11.1969
쎆dq쎯	-11.197
rc쎯“lfnh쎯vjsj쎯”i	-11.197
if쎯mj쎯	-11.1972
ud쎯txi쎯,	-11.1973
if쎯pg쎯	-11.1973
sq쎯ln쎯	-11.1973
wxj쎯wqj쎯	-11.1974
,ga쎯nae쎯	-11.1977
itf쎯its쎯	-11.1978
fyk쎯	-11.1979
、ugdu쎯l쎯	-11.1979
dskf쎯yop쎯	-11.198
xk쎯gqjo0쎯r쎯	-11.1981
r쎯fd쎯ymhj쎯	-11.1983
。txg쎯	-11.1983
eee쎯fjh0쎯	-11.1984
쎂wc쎯jfd쎯	-11.1985
c쎯h쎯。	-11.1985
wdn쎯rfm쎯r쎯u쎯kkk쎯	-11.1987
dd쎯cm쎯	-11.1988
ndj쎯fnrt쎯	-11.1993
dw0쎯tb쎯	-11.1993
ghd0쎯fwm쎯	-11.1994
qvn2쎯fiyt쎯	-11.1994
,by쎯hh쎯	-11.1995
ugdu쎯sy쎯txi쎯	-11.1996
쎇쎆쎈	-11.1996
,쎁쎉쎉쎈rh쎯	-11.1998
。쎁쎉쎈쎄rh쎯	-11.1999
g쎯sve쎯	-11.1999
、l쎯bf쎯	-11.2001
wyv쎯kkk쎯pv쎯wg쎯	-11.2001
wt	-11.2002
dmh쎯ru쎯	-11.2002
wnh쎯jjjj쎯	-11.2002
”tffu쎯aps쎯iwyf2쎯	-11.2006
ga쎯og쎯jf쎯uj쎯	-11.2007
(쎁쎀	-11.2007
yxl쎯trt쎯og쎯	-11.2009
ffi쎯aa쎯	-11.201
쎁쎈쎄	-11.201
dmj1쎯tj쎯qk쎯	-11.2014
。쎁쎉쎄쎉rh쎯	-11.2015
gf쎯쎂쎀쎀쎃rh쎯	-11.2015
ef쎯ugm쎯	-11.2015
qfhw0쎯ipk쎯tv쎯	-11.2016
,ua쎯gf쎯	-11.2016
rgv쎯dq쎯	-11.2016
an쎯uj쎯	-11.2016
pnt쎯av쎯	-11.2018
e쎯uqt쎯f쎯	-11.2018
hcd쎯e쎯	-11.2018
쎁쎀쎇	-11.2018
ngk쎯wyc쎯	-11.2019
idl쎯gef쎯	-11.202
qev쎯un쎯yy쎯pvs쎯。	-11.2021
pei쎯n쎯w쎯fqu쎯xgb쎯	-11.2022
wt쎯mq쎯	-11.2024
bc쎯iie쎯	-11.2024
。gae쎯pww쎯	-11.2027
ad쎯dbm쎯ftbt쎯yce쎯	-11.2028
dhc쎯dyw쎯	-11.2029
g쎯rcn1쎯	-11.2029
f쎯qtyd1쎯	-11.203
쎉%	-11.203
rfc쎯jgm쎯	-11.2032
,nf쎯gcft2쎯	-11.2033
n쎯et쎯	-11.2034
un쎯ny쎯	-11.2034
(wynb쎯ntk쎯	-11.2034
쎁kw쎯	-11.2036
jfdj1쎯jhny쎯	-11.2037
쎂쎀qq쎯	-11.2037
ktr쎯	-11.204
sj쎯rhf쎯	-11.204
fii쎯td쎯	-11.2041
d쎯p쎯	-11.2043
ref쎯egl쎯	-11.2043
ii쎯wug1쎯	-11.2043
rh쎯lc쎯r쎯	-11.2045
tx쎯vt쎯nm쎯	-11.2046
jgm쎯,	-11.2046
ym쎯xe쎯x쎯iyj쎯jgm쎯	-11.2047
rj쎯waw쎯g쎯wh쎯	-11.2048
aqrn0쎯ugv쎯	-11.205
▁쎂쎀쎀쎄rh쎯	-11.205
pds쎯tg쎯	-11.2051
tp쎯、	-11.2052
yh쎯q쎯wu쎯	-11.2053
sm쎯gajf쎯	-11.2054
lh쎯kthh1쎯dd쎯ip쎯	-11.2054
hpgh쎯	-11.2055
mf쎯tl쎯tp쎯gj쎯	-11.2055
,kw쎯j쎯	-11.2056
i쎯wynk쎯	-11.2056
쎆.쎇	-11.2057
if쎯pn쎯	-11.206
vfhp1쎯tam쎯mq쎯st쎯	-11.206
ih쎯sfc쎯	-11.2061
sie쎯	-11.2061
xg쎯ntg쎯	-11.2061
(《	-11.2061
spwk쎯	-11.2062
쎁쎈쎉	-11.2062
wg쎯wsg0쎯km쎯a쎯	-11.2064
k쎯l쎯w쎯	-11.2066
y쎯s쎯tg쎯u쎯	-11.2067
uqt쎯lt쎯gf쎯	-11.207
dx쎯mdf쎯	-11.2071
rdj쎯bwt쎯	-11.2071
tf쎯ght쎯rvy쎯if쎯	-11.2073
r쎯pfi쎯xj쎯	-11.2074
sg쎯wt쎯	-11.2074
kgk쎯kwy0쎯	-11.2075
ba0쎯hc쎯	-11.2077
。쎂.	-11.2077
fm쎯dm쎯	-11.208
r쎯ip쎯nu쎯	-11.2081
uwl쎯rnb쎯	-11.2081
ym쎯inr쎯	-11.2081
tp쎯gj쎯。	-11.2082
djd쎯if쎯	-11.2083
ym쎯gxi쎯rfm쎯r쎯	-11.2085
tyt쎯	-11.2086
ebf1쎯vv쎯	-11.2086
r쎯fdm쎯s쎯	-11.2086
py쎯uq쎯	-11.2087
nae쎯fi쎯b쎯	-11.2087
ipkh1쎯tl쎯gj쎯gk쎯、	-11.2091
hka쎯qv쎯jf쎯adwe1쎯	-11.2091
iwg쎯yoo쎯	-11.2094
i쎯tj쎯i쎯	-11.2095
な	-11.2096
,txg쎯wh쎯	-11.2097
tx쎯쎆	-11.2098
fqng쎯	-11.2098
sm쎯lg쎯	-11.2098
▁쎇.	-11.2098
ftbt쎯ip쎯nty1쎯af쎯	-11.21
qev쎯bwt쎯	-11.21
wxf쎯dnnl쎯gbnm0쎯	-11.21
v쎯wt쎯	-11.2101
pdc쎯cm쎯	-11.2101
쎆쎅쎀	-11.2102
ym쎯uqt쎯r쎯	-11.2102
)-	-11.2102
i쎯ey쎯	-11.2103
kt쎯t쎯itfk쎯trf쎯	-11.2103
쎈w쎯,	-11.2103
yygt쎯uit쎯r쎯	-11.2104
ip쎯suq쎯,	-11.2105
wdn쎯te쎯uqd0쎯	-11.2105
fpg쎯	-11.2107
ip쎯fge쎯fghg쎯	-11.2108
qh쎯dm쎯	-11.2108
epc쎯gj쎯	-11.2109
wgd쎯	-11.211
ftbt쎯ip쎯ymc쎯ytb쎯	-11.2112
lg쎯、	-11.2113
ntl쎯	-11.2114
쎂쎈쎀	-11.2116
c쎯h쎯,	-11.2116
f쎯rfm쎯ip쎯	-11.2116
yh쎯wqin쎯	-11.2117
ukn쎯uk쎯ymc쎯d쎯	-11.2117
yfn쎯tr쎯	-11.2118
um쎯et쎯	-11.2121
wdt쎯gk쎯	-11.2122
tg쎯u쎯lt쎯	-11.2122
qq쎯wug1쎯	-11.2123
dd쎯ip쎯sg쎯tu쎯	-11.2125
r쎯x쎯maw쎯	-11.2125
m쎯wfg0쎯	-11.2125
awy쎯	-11.2126
l쎯pe쎯tuk쎯tl쎯nnk쎯	-11.2126
x쎯cwg쎯dh쎯pgk쎯r쎯	-11.2127
,we쎯	-11.2127
amw쎯pujn1쎯qc쎯	-11.2129
cbd쎯rb1쎯	-11.2129
―	-11.213
fny쎯uyh쎯ww쎯gk쎯	-11.2131
,iy쎯mm쎯uqwm0쎯sg쎯	-11.2131
rvh쎯fpx쎯xh쎯aqkr쎯	-11.2131
r쎯ga쎯v쎯	-11.2132
l쎯apk쎯	-11.2132
fcl쎯km쎯	-11.2133
koy1쎯	-11.2133
txe쎯ynt쎯	-11.2136
gkih쎯ick쎯	-11.2138
itd쎯tld1쎯	-11.2138
▁(fg쎯)	-11.2139
fg쎯fgh쎯rh쎯	-11.2141
yne쎯,	-11.2141
c쎯hx쎯	-11.2142
dn쎯al쎯f쎯	-11.2143
rtd쎯	-11.2144
ivl쎯fge쎯ymhj쎯	-11.2144
e쎯pei쎯yne쎯	-11.2145
wjm쎯qd쎯	-11.2146
rnb쎯tld1쎯	-11.2148
fhw쎯pu쎯r쎯	-11.2149
た	-11.2149
r쎯gkip2쎯ya쎯	-11.2149
、whf쎯og쎯	-11.215
。xx쎯kwgj0쎯	-11.2154
ga쎯v쎯vfhp1쎯ymc쎯	-11.2155
dnv1쎯fqb1쎯。	-11.2156
tmd쎯sft쎯	-11.216
。iv쎯jf쎯	-11.2162
(쎁쎆	-11.2162
iyc쎯tf쎯r쎯	-11.2163
ん	-11.2163
kn쎯“	-11.2166
lfhf쎯og쎯	-11.2167
udbb쎯,	-11.2167
tlf2쎯wwv쎯	-11.2167
lw쎯gk쎯	-11.2168
sf쎯n쎯tv쎯km쎯wf쎯	-11.2168
vvv쎯ggg1쎯	-11.2169
▁jo쎯hhu0쎯	-11.2169
r쎯nge쎯ukq쎯gh쎯,	-11.2174
qh쎯l쎯ygk쎯ip쎯bpf쎯	-11.2174
。wb쎯r쎯	-11.2174
uce쎯,	-11.2175
lll쎯tca쎯	-11.2175
ax쎯ip쎯	-11.2176
ymb쎯	-11.2177
yy쎯gae쎯	-11.2177
bn쎯tve쎯	-11.2178
tt쎯gl쎯	-11.2179
xwx쎯	-11.218
dnv1쎯tr쎯	-11.218
dnv1쎯ylf0쎯	-11.218
sve쎯rnd1쎯f쎯r쎯f	-11.218
xyj쎯	-11.2182
sghg1쎯iu쎯	-11.2182
iy쎯toc쎯	-11.2185
whm쎯rpws쎯	-11.2185
qng1쎯dq쎯uff쎯	-11.2186
qh쎯gk쎯	-11.2187
쎂쎅쎀쎀	-11.2188
alq쎯	-11.2188
oaw쎯	-11.2188
rnp쎯ad쎯	-11.2189
,wjg쎯d쎯	-11.2191
dnv1쎯wtu쎯	-11.2191
k쎯tffu쎯bk쎯og쎯	-11.2192
tm쎯gh쎯	-11.2194
alw쎯st쎯uff쎯	-11.2194
xa쎯isk쎯ytyh쎯	-11.2195
iyc쎯x쎯	-11.2195
kkd쎯hw쎯	-11.2196
,vfb쎯	-11.2197
pp쎯ue쎯,	-11.2197
gkl쎯y쎯xyna0쎯	-11.2198
bynw0쎯bb쎯r쎯	-11.2198
rmc쎯ty쎯wgkq0쎯et쎯	-11.2199
aps쎯iwyf2쎯tq쎯k	-11.2199
isgg0쎯yhk쎯reh쎯e쎯	-11.2201
,dnv2쎯	-11.2203
-쎄쎅	-11.2203
dd쎯wgkq0쎯	-11.2204
i쎯tjh쎯	-11.2204
riu쎯ii쎯	-11.2206
uygh1쎯yntw1쎯	-11.2207
iyc쎯jhnr쎯	-11.2208
rjt쎯	-11.2208
ipw쎯epc쎯yygt쎯dd쎯	-11.2209
dd쎯sghg1쎯iu쎯	-11.2213
dhb쎯yt쎯	-11.2214
ugdu쎯sy쎯pe쎯	-11.2215
uqf쎯dn쎯o쎯	-11.2216
%%*/	-11.2216
(쎁쎉쎄	-11.2216
ifn쎯ii쎯	-11.2216
。쎂쎀쎀쎄rh쎯	-11.2216
ixj쎯	-11.2218
pwat쎯udh쎯	-11.2218
ta쎯r쎯	-11.2219
hh쎯uce쎯	-11.222
gk쎯og쎯r쎯	-11.222
pydk1쎯	-11.2221
rn쎯et쎯	-11.2221
mwyn1쎯	-11.2221
xk쎯,	-11.2222
л	-11.2223
adw쎯wtu쎯	-11.2225
wht쎯udyj쎯	-11.2226
tfq쎯rg쎯puhc쎯	-11.2229
ujq쎯qd쎯	-11.223
wys쎯ufy쎯tsh0쎯	-11.2232
r쎯ygk쎯yyy쎯	-11.2233
gkub1쎯gku쎯	-11.2236
dga쎯pwv쎯、	-11.2237
。쎁쎉쎉쎂rh쎯	-11.2238
um쎯og쎯k쎯ny쎯	-11.2238
ai쎯gog쎯	-11.2238
uqd0쎯、	-11.2239
=쎁	-11.2239
。wg쎯sf쎯	-11.224
r쎯s쎯fiy쎯,	-11.2242
、vfhp1쎯tam쎯	-11.2242
itk쎯bj쎯ymhj쎯	-11.2242
pgk쎯puw쎯	-11.2242
rf	-11.2244
trf쎯tgh쎯trf쎯ntg쎯	-11.2245
jb쎯aft쎯qk쎯r쎯	-11.2246
trf쎯pg쎯r쎯	-11.2246
utem1쎯ou쎯	-11.2247
fge쎯jtyq1쎯	-11.2249
쎄.쎁	-11.2251
vke쎯	-11.2251
fm쎯jj쎯ymhj쎯	-11.2254
쎃쎀쎄	-11.2254
rny1쎯ys쎯	-11.2257
bb쎯uxh쎯	-11.2257
쎅.쎂	-11.2258
qk쎯,adw쎯k쎯	-11.2259
ga쎯vck쎯b쎯	-11.2259
g쎯wty쎯	-11.2259
g쎯uh쎯aa쎯	-11.226
▁mqq쎯hhu0쎯	-11.226
f쎯。	-11.226
fd쎯mw쎯	-11.2262
쎁쎉쎂쎆rh쎯	-11.2262
fuj쎯lwj쎯	-11.2262
thd쎯drin쎯	-11.2262
。쎁쎉쎉쎈rh쎯	-11.2263
ivs쎯qc쎯	-11.2263
usr쎯ftx쎯pt쎯yne쎯	-11.2265
uda쎯klj쎯	-11.2267
rcb쎯nge쎯	-11.2267
tg쎯itd쎯。	-11.2267
rvy쎯og쎯	-11.2267
ntg쎯vb쎯	-11.2268
쎈—	-11.2269
hx쎯th쎯	-11.227
sm쎯sa쎯a쎯tkgg0쎯	-11.2271
r쎯tmd쎯wwv쎯	-11.2271
emc쎯、	-11.2273
py쎯wf쎯r쎯	-11.2273
xqa쎯xt쎯	-11.2273
dd쎯rx쎯	-11.2273
xxm쎯ahty쎯	-11.2274
쎆w쎯	-11.2275
l쎯pe쎯t쎯f쎯aq쎯	-11.2276
rvh쎯wys쎯	-11.2277
qh쎯go쎯	-11.2277
uxt쎯bct쎯	-11.2277
ntg쎯udy쎯	-11.2277
th쎯th쎯	-11.2277
▁(쎄)	-11.2278
aft쎯syp쎯	-11.2278
mhhm1쎯	-11.228
iaj쎯	-11.228
fakg1쎯qk쎯	-11.2281
wsg0쎯yce쎯qnp쎯	-11.2281
ikh0쎯	-11.2282
쎂쎀wtu쎯	-11.2283
am	-11.2284
쎃쎀쎀dq쎯	-11.2284
uwe쎯	-11.2286
,k쎯aw쎯ipk쎯km쎯。	-11.2286
v쎯nae쎯dn쎯o쎯	-11.2286
x쎯cwg쎯。	-11.2288
wvt쎯yvc쎯	-11.2288
bwj쎯xe쎯	-11.2288
cnh쎯qiu0쎯	-11.2289
uwl쎯tdkj쎯	-11.2289
cff쎯f쎯	-11.2291
gl쎯yyv쎯	-11.2291
isf쎯ypm쎯	-11.2292
e쎯dif쎯f쎯	-11.2292
tffu쎯l쎯pe쎯	-11.2292
ny쎯jfd쎯	-11.2292
쎀*	-11.2293
lu쎯it쎯	-11.2294
i쎯qkqq쎯	-11.2294
。쎂쎀쎀쎇rh쎯	-11.2297
etg쎯f쎯	-11.2299
wyq쎯、	-11.23
djd쎯apk쎯tjh쎯ntg쎯	-11.2301
gkl쎯th쎯xe쎯	-11.2302
gah쎯ss쎯	-11.2302
w쎯,adw쎯k쎯pei쎯og쎯	-11.2303
wrh2쎯,	-11.2304
fhn쎯go쎯,	-11.2304
uq쎯lwj쎯	-11.2305
쎂.쎉	-11.2306
。쎂쎀쎀쎈rh쎯	-11.2306
ght쎯fl쎯tv쎯km쎯	-11.2306
apgy쎯	-11.2308
ybv쎯xan쎯	-11.2309
pe쎯k쎯	-11.2309
itf쎯fggh쎯uqv쎯	-11.2311
dgkn쎯epc쎯gc쎯	-11.2312
ymhj쎯fnrt쎯,	-11.2314
i쎯rw쎯	-11.2315
cep쎯tf쎯	-11.2316
gh쎯fcu1쎯	-11.2317
ad쎯sg쎯h쎯	-11.2318
wdn쎯te쎯dn쎯js쎯	-11.2318
ax쎯yjjh1쎯	-11.2319
qgu쎯je쎯	-11.2319
xq쎯gki쎯	-11.232
qq쎯uqw쎯cd쎯lk쎯	-11.232
puhc쎯tfqp쎯o쎯	-11.232
wgku1쎯h쎯	-11.232
gn쎯yid쎯et쎯	-11.2321
khj쎯	-11.2322
xdt쎯	-11.2322
tfkp쎯dn쎯r쎯	-11.2322
iytb0쎯ca쎯,	-11.2323
ta쎯、	-11.2323
svc쎯yx쎯	-11.2325
tg쎯sm쎯	-11.2326
yww쎯ait쎯d쎯	-11.2327
fp쎯ya쎯	-11.2327
dmh쎯qiu0쎯	-11.2328
d쎯wg쎯gfi쎯	-11.2328
jvko쎯db쎯	-11.233
,vii쎯ntk쎯	-11.233
dj쎯tu쎯	-11.2332
uq쎯ian0쎯	-11.2332
(쎅xt쎯)	-11.2333
maf0쎯ty쎯aa쎯	-11.2335
ykhe쎯	-11.2336
vb쎯wqj쎯	-11.2337
vp쎯rfq쎯	-11.2337
jqw쎯	-11.2338
쎈rh쎯	-11.2338
r쎯ep쎯nge쎯	-11.2339
dgtg쎯uyh쎯	-11.234
wj쎯ty쎯	-11.2342
dubw쎯	-11.2346
w쎯tr쎯。	-11.2346
yad쎯mhny0쎯qiu0쎯	-11.2346
cbt	-11.2347
쎁쎀wtu쎯	-11.2348
yt쎯tmdf1쎯ntg쎯	-11.2348
mtp쎯	-11.2349
dn쎯gae쎯	-11.2352
”ak쎯“	-11.2353
dy쎯qq쎯	-11.2353
,jc쎯wycb쎯	-11.2355
tfp쎯gcf쎯	-11.2356
rua쎯rgef쎯	-11.2356
dl쎯kq쎯whtn1쎯qy쎯,	-11.2356
tf쎯og쎯k쎯	-11.2357
iytb0쎯w쎯	-11.2358
tg쎯tr쎯tu쎯rfc쎯	-11.2359
yqa쎯yww쎯	-11.236
dyt쎯u쎯uqwm0쎯idr쎯	-11.236
lrj쎯jf쎯	-11.2363
og쎯tl쎯。	-11.2363
bde쎯tt쎯	-11.2364
ftbt쎯km쎯	-11.2365
itk쎯set쎯dmn쎯	-11.2366
vck쎯wbj쎯gf쎯	-11.2367
ih쎯bynw0쎯	-11.2367
ffhy쎯	-11.237
tffu쎯qq쎯	-11.2372
yygy쎯wx쎯u쎯og쎯	-11.2372
bfh0쎯	-11.2373
d쎯suq쎯tg쎯	-11.2373
ssq쎯xnn0쎯	-11.2373
lfq쎯mw쎯	-11.2374
isk쎯ai쎯	-11.2377
yynw1쎯wc쎯ngk쎯	-11.2379
tg쎯wgkb2쎯tu쎯ip쎯	-11.2379
n쎯nd쎯	-11.238
yff쎯wys쎯	-11.238
rj쎯qk쎯	-11.2381
vcb쎯dn쎯	-11.2382
w쎯n쎯aw쎯t쎯l쎯	-11.2383
쎈쎀쎀쎀	-11.2384
。rn쎯c쎯	-11.2384
img쎯、	-11.2384
ijl쎯gkp쎯	-11.2387
f쎯gh쎯ii쎯	-11.2388
xq쎯fjw쎯	-11.2392
zzy9쎯	-11.2392
n쎯tey쎯	-11.2392
wg	-11.2394
wygg쎯d쎯	-11.2395
쎅쎀쎀oy쎯	-11.2395
ih쎯kkk쎯	-11.2398
jfd쎯gog쎯	-11.2398
ytd쎯ndj쎯	-11.2398
ygk쎯:	-11.2398
mta쎯yne쎯	-11.2398
fiyt쎯egl쎯	-11.2398
r쎯uth쎯tfqp쎯	-11.2398
gmap쎯epc쎯	-11.2399
qut쎯	-11.2401
c쎯tyg쎯	-11.2401
,gmww쎯	-11.2402
pww쎯tkw쎯yx쎯	-11.2402
e쎯xg쎯jn쎯pym쎯	-11.2402
trf쎯uqt쎯	-11.2402
uth쎯wycm0쎯	-11.2402
ajdf쎯agq쎯	-11.2402
tj쎯td쎯	-11.2403
yxt쎯ghd0쎯	-11.2403
r쎯vvv쎯qt쎯	-11.2404
wyv쎯sft쎯	-11.2404
xq쎯pg쎯	-11.2405
ipk쎯tv쎯tv쎯km쎯	-11.2407
sgye1쎯	-11.2407
ga쎯nku쎯	-11.2408
fny쎯og쎯ddm쎯fghg쎯	-11.241
u쎯og쎯qlp쎯	-11.241
agnn2쎯dq쎯lt쎯	-11.2416
bi0쎯k쎯mmm쎯	-11.2417
r쎯dyn쎯ya쎯	-11.2418
yi쎯s쎯	-11.2418
uud0쎯	-11.2418
bpf쎯mw쎯	-11.2418
sh쎯ruv쎯	-11.2419
xa쎯awx쎯	-11.2419
tk쎯aa쎯	-11.242
》txi쎯gq쎯	-11.242
bcc쎯	-11.242
yiu쎯ftjb쎯	-11.2423
isk쎯wwk쎯	-11.2423
쎃쎁쎀	-11.2424
sh쎯lpk0쎯,	-11.2427
yta쎯gh쎯r쎯	-11.2427
kynw쎯kgkw쎯	-11.2428
isgg0쎯oge쎯	-11.2431
nnk쎯fakg1쎯mqq쎯	-11.2431
fq쎯rn쎯	-11.2432
ip쎯sy쎯wf쎯yyq쎯	-11.2432
wx쎯ec쎯	-11.2433
ip쎯ddm쎯fghg쎯	-11.2435
ltd쎯lg쎯	-11.2436
vfhp1쎯tam쎯jgm쎯	-11.2437
wqa쎯dfy쎯	-11.2437
jn쎯pww쎯	-11.2438
fd쎯,	-11.2439
vfi쎯vfi쎯	-11.2439
▁쎁쎀	-11.244
qie쎯wyk쎯nh쎯ty쎯	-11.2441
vt쎯ia쎯	-11.2441
wn쎯fqb1쎯。	-11.2442
gah쎯aqky1쎯	-11.2442
jq쎯wf쎯	-11.2444
kjj쎯sksw쎯	-11.2444
ghc쎯gyb쎯qmq쎯	-11.2445
w쎯wu쎯r쎯	-11.2446
rad쎯	-11.2447
go쎯,	-11.2448
/쎄	-11.2449
쎅.쎆	-11.2449
vep쎯bm쎯	-11.2449
ih쎯iytb0쎯ca쎯	-11.2453
▁dmu0쎯	-11.2454
fhb쎯kfi쎯	-11.2454
。쎁쎉쎅쎈rh쎯	-11.2454
pyj쎯dskf쎯	-11.2455
dd쎯nae쎯	-11.2456
bm쎯pe쎯	-11.2456
fm쎯ga쎯dd쎯ip쎯	-11.2456
wfny0쎯·	-11.2458
pt쎯lg쎯	-11.2458
a쎯wrh2쎯	-11.2461
ngkm0쎯	-11.2463
gd쎯xg쎯	-11.2464
amd쎯cel쎯	-11.2465
yw쎯m쎯	-11.2465
r쎯tk쎯adm쎯	-11.2467
agd1쎯	-11.2467
t쎯py쎯wf쎯wk쎯buj쎯	-11.2467
쎁쎃쎄	-11.2468
xl쎯ih쎯	-11.2469
,h쎯itx쎯	-11.247
n쎯apk쎯	-11.2473
lk쎯ty쎯b쎯	-11.2473
dy쎯pye쎯	-11.2473
kkk쎯tkh쎯。	-11.2475
ipkh1쎯ytyh쎯ymhj쎯	-11.2475
,tq쎯	-11.2475
@	-11.2476
rc쎯qnk쎯	-11.2476
ymf쎯yaa쎯	-11.2478
wg쎯nnk쎯	-11.248
ia쎯mmm쎯	-11.248
e쎯bv쎯wc쎯ngk쎯(	-11.248
쎅쎀°C	-11.2481
awd쎯awyc0쎯	-11.2481
iq쎯aps쎯	-11.2481
vfhp1쎯ymc쎯uk쎯	-11.2481
gae쎯wsg0쎯	-11.2482
ab쎯,	-11.2482
god쎯st쎯rpv쎯jvko쎯	-11.2484
xww쎯tm쎯	-11.2484
tv쎯lw쎯wc쎯pgc쎯	-11.2484
4	-11.2484
uxe쎯iq쎯	-11.2485
jqr쎯gf쎯	-11.2485
fcp쎯tha쎯	-11.2485
dx쎯mmm쎯	-11.2486
gd쎯wsg0쎯	-11.2487
ywwf쎯gf쎯	-11.2487
fu쎯dd쎯	-11.2488
dwt쎯rgf쎯qynm1쎯	-11.249
bwf쎯e쎯	-11.249
-쎂-	-11.2491
쎆%	-11.2494
쎁쎉쎁쎂rh쎯	-11.2494
▁sve쎯rnd1쎯	-11.2495
fh쎯rtol1쎯	-11.2495
bm쎯qkm쎯	-11.2495
dgh쎯ftx쎯	-11.2498
쎇.쎆	-11.2499
r쎯ghd0쎯dqe쎯	-11.2499
yygy쎯ip쎯wbj쎯wt쎯	-11.2499
fg쎯k쎯	-11.2499
aq쎯xe쎯	-11.2501
ymc쎯yf쎯gj쎯wynn3쎯	-11.2502
bk쎯og쎯ip쎯bpf쎯	-11.2503
ft쎯j쎯	-11.2503
rs쎯dhc쎯	-11.2504
、jb쎯	-11.2504
itx쎯rdc쎯쎁,	-11.2504
hame쎯	-11.2505
ujn쎯o쎯	-11.2508
cd쎯lk쎯wg쎯l쎯	-11.2508
,쎂쎀쎀쎀rh쎯	-11.2509
gef쎯rh쎯ftbt쎯jgm쎯	-11.2509
cd쎯lk쎯fp쎯	-11.251
▁wt쎯o쎯	-11.2511
swx쎯	-11.2511
whtn1쎯	-11.2511
쎀~	-11.2512
qsg쎯	-11.2513
》、	-11.2513
oy쎯uff쎯	-11.2514
ygh쎯nnh쎯。	-11.2515
khp쎯	-11.2515
ga쎯fqb1쎯	-11.2517
,ua쎯cf쎯	-11.2517
ann쎯	-11.2519
qm쎯gmu1쎯wg쎯egc쎯	-11.2519
r쎯tn쎯pnt쎯	-11.2519
cd쎯mqb쎯	-11.252
usr쎯sft쎯ou쎯	-11.252
tfj0쎯	-11.252
wdt쎯r쎯	-11.252
xeg쎯dn쎯uk쎯wv쎯	-11.2522
fad쎯tq쎯	-11.2525
rvl쎯iq쎯	-11.2525
wy쎯thn쎯,	-11.2528
i쎯nt쎯	-11.253
g쎯fh쎯ww쎯gk쎯	-11.253
dgtg쎯ypk쎯	-11.2531
ymc쎯tlf2쎯tfq쎯fj쎯	-11.2531
gf쎯g쎯wsg0쎯	-11.2533
。쎁쎉쎈쎂rh쎯	-11.2533
jyt쎯	-11.2537
wc쎯pv쎯nnk쎯	-11.2538
dyt쎯u쎯	-11.2539
r쎯qtj쎯trf쎯	-11.254
fjh0쎯wgku1쎯	-11.254
aum쎯	-11.2541
apk쎯fcp쎯	-11.2541
쎆～	-11.2542
rn쎯gcft2쎯	-11.2543
u쎯kkk쎯dga쎯v쎯	-11.2544
wsg0쎯rkk쎯	-11.2544
r쎯pw쎯uj쎯	-11.2545
ygh쎯rnd1쎯	-11.2545
,rs쎯tfkp쎯	-11.2547
un	-11.2548
g쎯tem쎯o쎯	-11.255
rr쎯cccg쎯	-11.255
,쎂쎀쎀쎈rh쎯	-11.2551
tffy0쎯jm쎯	-11.2552
쎁쎇쎅	-11.2552
ss쎯gh쎯	-11.2552
쎃쎃쎃	-11.2553
ue쎯tmd쎯j쎯	-11.2555
geq쎯dyn쎯	-11.2556
jyie쎯ktm쎯。	-11.2557
rcn1쎯px쎯	-11.2558
jh쎯nnnn쎯	-11.2559
xeg쎯wv쎯	-11.256
、jjjj쎯sg쎯	-11.256
j쎯wg쎯l쎯	-11.2561
yaa쎯jghm1쎯	-11.2561
puhc쎯rge쎯	-11.2561
xyna0쎯rdj쎯	-11.2562
sgq쎯	-11.2562
gyt쎯ta쎯	-11.2563
xk쎯lt쎯	-11.2564
pu쎯et쎯ntg쎯	-11.2569
hx쎯uqw쎯	-11.2571
wv쎯sr쎯t쎯	-11.2571
vcb쎯wgkq0쎯	-11.2572
r쎯ywe쎯ick쎯	-11.2572
쎂qk쎯	-11.2574
r쎯dgkn쎯ipmq쎯	-11.2574
ylk2쎯dhb쎯	-11.2575
odm쎯nyb쎯	-11.2576
r쎯ny쎯	-11.2576
itx쎯iyo쎯	-11.2578
uu쎯aa쎯	-11.2578
rkm쎯fgi쎯	-11.2579
v쎯ujf쎯	-11.2579
쎅/	-11.258
。ld쎯hx쎯	-11.2581
yygy쎯ftbt쎯	-11.2582
▁fi쎯wgq쎯	-11.2583
,wwf쎯ait쎯gf쎯	-11.2583
mqq쎯uh쎯。	-11.2583
、cn쎯	-11.2584
qg쎯,	-11.259
ud쎯txi쎯r쎯	-11.259
rge쎯rkh쎯	-11.259
duo쎯ruj쎯	-11.2591
dg쎯dj쎯	-11.2592
euk쎯ait쎯	-11.2592
ym쎯qiu0쎯fw쎯	-11.2593
rt쎯k쎯	-11.2593
i쎯iagw쎯	-11.2594
wdn쎯te쎯w쎯ft쎯	-11.2594
saj쎯src쎯	-11.2594
ukk쎯ugh쎯	-11.2594
ruf쎯	-11.2596
nc쎯tr쎯	-11.2596
udn쎯	-11.2598
go쎯b쎯	-11.26
iv쎯wt쎯	-11.2601
av쎯pu쎯	-11.2602
iqr쎯pgy쎯	-11.2602
ugku쎯	-11.2603
pp쎯g쎯r쎯	-11.2605
elv쎯fghg쎯	-11.2605
wf쎯nae쎯k쎯ny쎯	-11.2607
xw쎯wq쎯	-11.2607
xn쎯vi쎯thg0쎯	-11.2607
ym쎯dd쎯	-11.2607
rjfg1쎯	-11.2608
fhv쎯fnr쎯ihc쎯	-11.261
tmd쎯ym쎯	-11.261
lfo쎯qc쎯,	-11.2611
st쎯ufk0쎯	-11.2612
fiy쎯bk쎯	-11.2613
qal쎯	-11.2613
djdy1쎯	-11.2613
punr쎯	-11.2614
dty쎯qk쎯	-11.2614
suq쎯mw쎯	-11.2614
d쎯suq쎯	-11.2614
ii쎯uwy1쎯	-11.2615
rua쎯ujf쎯	-11.2615
e쎯egl쎯gf쎯	-11.2616
iywu쎯	-11.2616
ps쎯geq쎯	-11.2617
wf쎯qnp쎯	-11.2619
y쎯s쎯u쎯kkk쎯e쎯	-11.262
ya	-11.262
ftj쎯o쎯	-11.262
pu쎯bf쎯h쎯	-11.2621
om쎯	-11.2621
pu쎯cwg쎯pgc쎯、	-11.2622
wh쎯klj쎯	-11.2624
die쎯	-11.2624
ylf0쎯,vfhp1쎯tam쎯	-11.2624
yf쎯tg쎯	-11.2625
lh쎯tkh쎯	-11.2627
lh쎯jtg쎯xe쎯	-11.263
。쎂쎀쎀쎁rh쎯	-11.263
쎁쎇쎈	-11.2634
yygy쎯ip쎯wt쎯kkk쎯	-11.2635
tqdh쎯bj쎯	-11.2637
▁iv쎯	-11.2637
wam쎯	-11.2637
쎇jjjj쎯	-11.2638
tk쎯uk쎯uyh쎯	-11.2639
쎅.쎁	-11.264
,쎁쎉쎉쎆rh쎯	-11.264
ixw쎯fyn쎯ymhj쎯	-11.2641
ow쎯、	-11.2642
cn쎯dq쎯	-11.2643
,gcf쎯	-11.2645
www쎯qq쎯r쎯	-11.2645
,ad쎯uk쎯	-11.2646
mqq쎯hhu0쎯	-11.2646
tx쎯fgh쎯nm쎯	-11.2647
쎁쎉쎂쎀rh쎯	-11.2647
dgv쎯itx쎯	-11.2648
tuj쎯jqr쎯	-11.2649
cc쎯rt쎯	-11.2649
tp쎯gj쎯tv쎯km쎯wf쎯	-11.265
,ty쎯	-11.2651
pgn쎯r쎯	-11.2651
iwe쎯syg쎯	-11.2653
,ux쎯wycb쎯	-11.2653
jqr쎯ip쎯	-11.2655
efy쎯	-11.2655
pp쎯k쎯。	-11.2656
,쎁쎉쎈쎆rh쎯	-11.2656
ghd0쎯aa쎯dn쎯uu쎯	-11.2657
pyj쎯wm쎯	-11.2657
v쎯ge쎯gf쎯	-11.2657
int쎯nii1쎯qh쎯tu쎯	-11.2657
yc쎯wv쎯tjh쎯et쎯	-11.2658
sdm쎯id쎯	-11.2664
i쎯g쎯	-11.2664
ovt쎯rh쎯	-11.2666
rg쎯ftj쎯	-11.2667
wtr쎯ygk쎯	-11.2667
gh쎯tfj1쎯	-11.2668
pg쎯o쎯	-11.2668
gd쎯,	-11.2668
,ic쎯ytt쎯,	-11.267
i쎯wyp쎯	-11.2671
gmy1쎯ia쎯	-11.2671
ul쎯puhc쎯	-11.2672
ngj쎯jtg쎯	-11.2673
tffh1쎯udi쎯	-11.2676
dm쎯,	-11.2677
aqg쎯aqr쎯oyvk0쎯	-11.2677
yo쎯rfm쎯	-11.2679
yygt쎯jn쎯	-11.2679
ㄏ	-11.268
ty쎯kfi쎯	-11.2681
xeg쎯ufy쎯	-11.2682
yiu쎯jgm쎯	-11.2682
쎇w쎯,	-11.2683
tu쎯gkl쎯tu쎯ta쎯	-11.2683
uy쎯dd쎯	-11.2684
cad쎯uk쎯	-11.2684
쎅gu쎯yy쎯wc쎯jfd쎯,	-11.2687
mq쎯eerq쎯	-11.2687
djdn0쎯nywf0쎯	-11.2689
uk쎯wwv쎯	-11.269
drt쎯ss쎯	-11.2691
;e쎯	-11.2692
쎁eee쎯쎁jjjj쎯	-11.2693
ujfj쎯yngk0쎯	-11.2693
tx쎯fgh쎯g쎯nm쎯	-11.2694
ntk쎯gf쎯fmy1쎯aq쎯。	-11.2694
dd쎯iw쎯	-11.2694
dn쎯jhny쎯	-11.2694
:쎆	-11.2695
tp쎯gj쎯th쎯	-11.2696
jyy1쎯	-11.2696
uji1쎯fm쎯	-11.2697
qqqq1쎯amw쎯qc쎯	-11.2699
pwf쎯mqb쎯	-11.2699
mtr쎯	-11.2699
c쎯qh쎯r쎯	-11.2699
lhnh쎯udy쎯eri쎯	-11.27
ts쎯xyy0쎯	-11.2701
ip쎯dl쎯,	-11.2701
,qq쎯uqw쎯	-11.2702
akkn0쎯	-11.2703
쎁쎉쎂쎂rh쎯	-11.2704
ukj쎯	-11.2704
yw쎯o쎯,	-11.2705
pye쎯tdij쎯	-11.2705
rbcc쎯jyie쎯jgm쎯	-11.2705
sgye1쎯isgg0쎯	-11.2707
qfhw0쎯ia쎯	-11.2707
mqq쎯、	-11.2708
!!	-11.2708
tuu쎯rcy0쎯	-11.2708
fcp쎯fcl쎯km쎯。	-11.2709
ab쎯hko쎯	-11.2709
mq쎯jaw쎯	-11.2711
쎉//쎂쎀쎀쎀//쎂쎀쎀쎃	-11.2711
dr쎯gajf쎯	-11.2712
▁zzy3쎯	-11.2713
쎂—	-11.2714
riq쎯tfqp쎯	-11.2716
m쎯jf쎯gip쎯	-11.2717
,wwf쎯ait쎯d쎯	-11.2719
tpi쎯	-11.2719
т	-11.272
gds쎯	-11.272
ufy쎯iam쎯	-11.2722
yynw1쎯kkk쎯tkh쎯	-11.2723
khgp0쎯u쎯	-11.2724
wx쎯,	-11.2725
x쎯apk쎯r쎯	-11.2725
fny쎯og쎯w쎯ft쎯	-11.2725
(xq쎯	-11.2727
쎁qg쎯	-11.2728
쎉.쎅	-11.2729
xq쎯e쎯	-11.273
pe쎯sf쎯	-11.2731
nny0쎯tfn쎯	-11.2731
e쎯쎁	-11.2731
j쎯tjh쎯et쎯	-11.2732
쎃쎂.	-11.2732
wgk쎯gj쎯r쎯	-11.2734
nfc쎯r쎯	-11.2735
,쎁쎉쎈쎄rh쎯	-11.2737
e쎯uwl쎯	-11.2737
bde쎯rg쎯	-11.2741
fnrt쎯h쎯	-11.2741
gog쎯tu쎯	-11.2742
》;	-11.2743
txg쎯eee쎯	-11.2743
egcn쎯rffg쎯	-11.2744
dd쎯svc쎯	-11.2744
bgm쎯	-11.2745
fhl쎯sgc쎯	-11.2745
ga쎯kkkk0쎯	-11.2745
je쎯gd쎯	-11.2746
rn쎯lpdk0쎯	-11.2746
sq쎯dn쎯r쎯	-11.2748
k쎯ajj쎯ax쎯	-11.2749
dnnl쎯an쎯	-11.275
gmww쎯lp쎯	-11.2754
kdgt2쎯	-11.2755
r쎯l쎯pe쎯	-11.2759
lh쎯dm쎯	-11.276
tf쎯ght쎯aq쎯	-11.276
id쎯umd0쎯	-11.2761
dm쎯tkw쎯쎈	-11.2761
ftg쎯ygh쎯	-11.2762
reh쎯e쎯g쎯rx쎯	-11.2762
,fm쎯jty쎯	-11.2763
ta쎯jf쎯uj쎯	-11.2763
wys쎯mb쎯	-11.2763
wc쎯tfkf1쎯	-11.2764
pym쎯o쎯	-11.2765
sri쎯aa쎯wf쎯py쎯	-11.2765
rqa쎯rymn쎯	-11.2767
쎁쎅wh쎯	-11.2769
fg쎯hka쎯	-11.277
dm쎯tkw쎯쎇	-11.2771
rvy쎯ght쎯	-11.2772
db쎯ukd0쎯。	-11.2774
gf쎯쎂쎀쎀쎂rh쎯	-11.2774
mw쎯dhb쎯pww쎯jg쎯	-11.2776
infy쎯imgk쎯	-11.2777
gn쎯pu쎯khg쎯	-11.2777
fgh쎯wv쎯wgj쎯tjh쎯。	-11.2777
sfi쎯sgn쎯	-11.2779
nnl쎯sgyb쎯	-11.278
fp쎯txgt쎯	-11.2781
ynt쎯gl쎯	-11.2781
aft쎯e쎯《	-11.2781
쎁쎅rh쎯	-11.2781
쎁쎀/쎁쎀쎀	-11.2782
k쎯ny쎯y쎯wtf쎯	-11.2783
ue쎯qtd쎯	-11.2783
wc쎯jfd쎯,vii쎯ntk쎯	-11.2785
kgn쎯,	-11.2786
、ai쎯	-11.2786
ym쎯oge쎯ya쎯	-11.2786
dty쎯xte쎯	-11.2786
uq쎯lw쎯r쎯adw쎯wb쎯	-11.2787
cc쎯ynky2쎯	-11.2789
l쎯bf쎯ymhj쎯fnrt쎯	-11.279
uqd0쎯ip쎯qqqq1쎯	-11.279
lwi쎯	-11.2792
nf쎯tm쎯	-11.2793
trf쎯hko쎯,	-11.2794
。쎁쎉쎉쎃rh쎯	-11.2795
qya쎯	-11.2795
gkih쎯ifk쎯	-11.2795
,쎂쎀쎀쎁rh쎯	-11.2795
tjgh2쎯tfqp쎯	-11.2795
쎇쎀rh쎯wa쎯	-11.2796
ip쎯ire쎯	-11.2796
rkk쎯xww쎯	-11.2797
sgn쎯tlf2쎯b쎯	-11.2797
i쎯d쎯	-11.2797
쎂쎇쎀	-11.2797
gk쎯og쎯uk쎯	-11.2799
jghx쎯	-11.28
g쎯sty0쎯	-11.28
ft쎯wxf쎯	-11.28
ygu쎯o쎯wdn쎯te쎯	-11.2802
i쎯fcl쎯	-11.2804
f쎯wdm쎯	-11.2805
wdn쎯hko쎯	-11.2805
ト	-11.2806
▁쎂쎀쎀쎃rh쎯	-11.2808
hqd쎯	-11.2809
adnt1쎯kkk쎯	-11.2811
oqv쎯	-11.2811
쎈쎅쎀	-11.2811
쎇.쎂	-11.2811
—)	-11.2812
,ige쎯	-11.2814
kht쎯h쎯	-11.2814
쎁쎅dq쎯,	-11.2815
ipg쎯yo쎯	-11.2816
oe쎯otf쎯	-11.2816
。쎁쎉쎈쎃rh쎯	-11.2817
fg쎯tffu쎯uqd0쎯,	-11.2817
g쎯wmj0쎯	-11.2817
nkuv0쎯	-11.2817
iwy1쎯fm쎯	-11.2819
tgh쎯eb쎯	-11.282
ip쎯qk쎯	-11.282
rn쎯ta쎯	-11.2821
쎇—	-11.2822
god쎯tgj쎯r쎯	-11.2823
kq쎯·	-11.2823
rdfj0쎯	-11.2823
”()	-11.2824
,쎁쎉쎈쎈rh쎯	-11.2825
}	-11.2825
fp쎯iha쎯kkd쎯	-11.2826
umc쎯	-11.2827
wa쎯kgn쎯	-11.2828
tp쎯gj쎯rmhj쎯ya쎯	-11.2828
tk쎯adm쎯a쎯wt쎯	-11.2829
dd쎯dn쎯	-11.283
sff0쎯awx쎯	-11.283
ag쎯wh쎯	-11.2831
tmd쎯ny쎯	-11.2832
opw쎯hko쎯	-11.2838
sq쎯ltu쎯	-11.2838
fg쎯an쎯	-11.2838
ugdu쎯r쎯	-11.2839
,lt쎯fiy쎯	-11.2839
agf쎯	-11.284
gd쎯rgf쎯	-11.2842
。vfhp1쎯gf쎯	-11.2845
tffu쎯yft쎯qq쎯	-11.2845
tlo쎯ygk쎯	-11.2847
sg쎯nnh쎯c쎯	-11.2847
txgi2쎯wxf쎯r쎯	-11.2848
,rwyg쎯fcl쎯	-11.2848
r쎯g쎯adm쎯	-11.285
tv쎯ipk쎯suq쎯	-11.2851
,gjq쎯j쎯	-11.2852
cel쎯nb쎯	-11.2852
ajdl쎯	-11.2852
rbm쎯	-11.2853
ol쎯ck쎯ymhj쎯	-11.2854
tt쎯yn쎯	-11.2854
tfl쎯ygk쎯	-11.2855
ux쎯gu쎯	-11.2856
fny쎯lkb쎯《	-11.2857
gef쎯shi쎯	-11.2857
dn쎯uu쎯。	-11.2858
qqy0쎯qgf쎯	-11.2858
リ	-11.2858
xxf쎯og쎯gf쎯k쎯l쎯	-11.2858
et쎯yny0쎯	-11.2858
/.	-11.2859
pt쎯yne쎯umd0쎯	-11.2862
jaw쎯lt쎯	-11.2862
vy쎯	-11.2863
ga쎯uit쎯	-11.2863
fqb1쎯jmh쎯	-11.2864
ue쎯umd0쎯	-11.2864
pp쎯ugdu쎯	-11.2864
qyn	-11.2865
qgjf3쎯	-11.2866
xn쎯tv쎯nnh쎯yn쎯	-11.2866
et쎯ou쎯	-11.2866
쎁쎀dnv1쎯	-11.2867
isk쎯、	-11.2869
apk쎯ta쎯	-11.287
fg쎯rh쎯(	-11.2871
.쎀쎇	-11.2871
t쎯eb쎯tl쎯	-11.2871
ufg쎯dd쎯	-11.2873
pt쎯um쎯	-11.2874
쎃-쎄	-11.2875
ihc쎯ta쎯	-11.2875
fkuk4쎯iw쎯	-11.2877
gjq쎯qk쎯	-11.2878
lfo쎯pt쎯	-11.2878
inr쎯ifh1쎯	-11.2879
mgt쎯	-11.2881
td쎯qk쎯whf쎯og쎯	-11.2883
iii	-11.2883
g쎯tem쎯r쎯	-11.2883
lt쎯jg쎯dcw쎯djb쎯	-11.2885
rbi쎯fiyt쎯	-11.2886
ia쎯ux쎯	-11.2886
tlf2쎯pvs쎯	-11.2886
sm쎯swb쎯	-11.2888
yod쎯	-11.2888
anb0쎯sy쎯ymc쎯yf쎯	-11.2889
alkf0쎯bb쎯	-11.2889
(ip쎯qk쎯:)o쎯	-11.2889
bq쎯nd쎯	-11.289
gyg1쎯hko쎯	-11.289
쎅쎀rh쎯	-11.2891
qkm쎯jfd쎯	-11.2893
nu쎯wwwk쎯	-11.2893
ijt쎯	-11.2893
y쎯ou쎯	-11.2894
sfi쎯uwy1쎯。	-11.2895
yc쎯iagw쎯b쎯	-11.2896
uwyc0쎯adnt1쎯	-11.2896
gh쎯b쎯	-11.2897
rg쎯yy쎯	-11.2898
uq쎯dc쎯	-11.2898
wty쎯g쎯	-11.2899
qqb쎯ah쎯tjh쎯	-11.29
tffu쎯www쎯qq쎯	-11.29
ait쎯rg쎯	-11.2901
쎃쎈쎀	-11.2903
od쎯gajf쎯r쎯	-11.2903
oc쎯	-11.2903
dnnl쎯tf쎯	-11.2904
tg쎯yce쎯	-11.2904
쎁쎁쎁	-11.2905
ce쎯wgkq0쎯	-11.2906
qm쎯rjg0쎯	-11.2907
qtfq0쎯	-11.2908
ty쎯wgg0쎯	-11.291
。쎁쎉쎉쎇rh쎯	-11.291
synw쎯uwy1쎯	-11.2911
r쎯tgj쎯hko쎯	-11.2911
gog쎯pl쎯	-11.2911
n쎯gk쎯	-11.2912
[...]
