[UNK]	0
[PAD]	0
[CLS]	0
[SEP]	0
[MASK]	0
,	-3.59949
r쎯	-3.99497
。	-4.05753
、	-4.09452
▁	-4.56107
t쎯	-5.01712
d쎯	-5.4525
o쎯	-5.57106
j쎯	-5.67016
k쎯	-5.76092
gn쎯	-5.76804
:	-5.81191
(	-5.8146
;	-5.9241
tffu쎯	-5.95259
e쎯	-5.9551
)	-6.05557
w쎯	-6.09809
《	-6.13792
dd쎯	-6.16603
ey쎯	-6.19737
h쎯	-6.22095
“	-6.23593
c쎯	-6.27097
b쎯	-6.36076
pp쎯	-6.4
g쎯	-6.41903
”	-6.45014
gf쎯	-6.51098
i쎯	-6.55991
cf쎯	-6.66283
ak쎯	-6.68313
egc쎯	-6.69397
rg쎯	-6.69849
ii쎯	-6.72433
k쎯l쎯	-6.74105
f쎯	-6.76814
mmm쎯	-6.78554
》	-6.78868
ym쎯	-6.79024
ymhj쎯	-6.79905
dg쎯	-6.80997
ih쎯	-6.81182
dmj1쎯	-6.83391
쎂	-6.85126
wc쎯ngk쎯	-6.85321
aq쎯	-6.85746
bb쎯	-6.87069
jf쎯	-6.87326
gc쎯	-6.87858
usr쎯	-6.88589
et쎯	-6.8943
쎁	-6.915
·	-6.93795
ntg쎯	-6.93881
쎃	-6.95033
gh쎯	-6.97158
ta쎯	-6.97258
uqf쎯	-6.97333
puhc쎯	-6.97556
pe쎯	-6.99075
rn쎯	-7.00336
-	-7.01139
qq쎯	-7.03159
gcf쎯	-7.03448
mh쎯	-7.03453
mw쎯	-7.04355
.	-7.04602
gd쎯	-7.07826
whf쎯og쎯	-7.07856
a쎯wt쎯	-7.08275
adw쎯	-7.10764
sk쎯	-7.11937
qfhw0쎯	-7.13245
bm쎯	-7.13263
e쎯bv쎯wc쎯ngk쎯	-7.1498
ww쎯	-7.15181
qk쎯	-7.16242
fq쎯	-7.16391
dn쎯	-7.16728
ftbt쎯yce쎯	-7.18673
wf쎯	-7.1868
/	-7.18932
tg쎯	-7.19186
qqqq1쎯	-7.19712
ua쎯	-7.19847
rfc쎯sy쎯	-7.20566
쎄	-7.20952
go쎯	-7.21449
sf쎯	-7.2243
ggg1쎯	-7.23426
yygy쎯	-7.23973
fm쎯	-7.24799
if쎯	-7.24864
fny쎯og쎯	-7.2491
sghg1쎯	-7.25126
uk쎯	-7.25206
u쎯kkk쎯	-7.28231
wug1쎯gf쎯	-7.28377
쎅	-7.28903
fd쎯	-7.29171
l쎯	-7.29179
kht쎯	-7.29354
ip쎯	-7.29642
sg쎯	-7.30567
ftj쎯	-7.3072
ue쎯	-7.30901
bn쎯	-7.3112
itx쎯	-7.31733
txi쎯xyc쎯	-7.33393
ai쎯	-7.33411
fj쎯tf쎯	-7.34018
fg쎯	-7.35052
wx쎯	-7.36095
dgtg쎯	-7.36481
xte쎯	-7.36679
,j쎯	-7.36708
dga쎯pwv쎯	-7.37528
dd쎯ip쎯	-7.37712
eb쎯tl쎯	-7.38312
tp쎯gj쎯	-7.3833
awx쎯	-7.38851
()	-7.38936
wv쎯	-7.39334
tfl쎯	-7.39891
wtf쎯	-7.39899
》、《	-7.4024
ny쎯	-7.40808
g쎯wh쎯	-7.41997
a쎯tkgg0쎯	-7.42282
ftjb쎯	-7.42699
rh쎯	-7.43202
dx쎯	-7.43334
thd쎯	-7.43773
tu쎯	-7.43793
l쎯bf쎯	-7.43985
jfd쎯	-7.44175
wsg0쎯	-7.44207
ip쎯suq쎯	-7.44791
wb쎯	-7.4486
,d쎯	-7.4545
"	-7.45777
sm쎯	-7.45835
cn쎯	-7.46221
jjjj쎯	-7.46522
aa쎯	-7.46698
l쎯pe쎯	-7.46913
x쎯	-7.47185
tf쎯	-7.47763
lh쎯	-7.48488
ymc쎯yf쎯	-7.48676
udi쎯	-7.48797
쎆	-7.49699
。”	-7.49752
yygy쎯wx쎯	-7.4978
gg쎯	-7.50275
ce쎯	-7.50374
fp쎯	-7.50782
uthp쎯	-7.50794
rrr쎯	-7.5121
v쎯nae쎯	-7.51687
gu쎯	-7.52113
qh쎯	-7.54102
vfhp1쎯ymc쎯	-7.54501
je쎯	-7.54525
gajf쎯	-7.55953
wxf쎯	-7.56312
쎈	-7.56668
iq쎯	-7.58475
dm쎯	-7.58872
uyh쎯	-7.59012
kkkk0쎯	-7.59087
쎇	-7.59204
udh쎯	-7.59265
ss쎯	-7.59417
pl쎯	-7.59836
isk쎯	-7.60013
ty쎯	-7.60192
쎁쎀	-7.60668
pv쎯	-7.60805
c쎯ey쎯	-7.61336
adm쎯hhhh쎯	-7.61602
k쎯ny쎯	-7.62019
hw쎯e쎯	-7.62785
amw쎯	-7.63008
dp쎯	-7.63026
ux쎯	-7.63426
mq쎯	-7.63626
ige쎯	-7.63779
s쎯	-7.63857
txi쎯	-7.64424
ytyh쎯	-7.64605
,ua쎯	-7.6485
xa쎯	-7.65053
ga쎯	-7.65953
tm쎯	-7.66284
tk쎯	-7.66626
v쎯	-7.66764
vfhp1쎯tam쎯	-7.67416
fqb1쎯	-7.67873
m쎯	-7.67924
xt쎯	-7.67959
cep쎯	-7.68075
ip쎯bpf쎯	-7.68275
gmww쎯	-7.69005
ck쎯	-7.69104
wg쎯l쎯	-7.69261
dr쎯	-7.69517
trf쎯	-7.69639
xeg쎯xkw쎯	-7.69758
vk쎯	-7.69762
ux쎯yiu쎯	-7.69929
ghd0쎯	-7.69953
rj쎯waw쎯	-7.70071
ugdu쎯	-7.70124
tg쎯u쎯	-7.70776
xg쎯	-7.70802
dgh쎯	-7.71411
tgj쎯	-7.71834
dnv1쎯	-7.71926
mqq쎯	-7.72102
i	-7.72216
wg쎯	-7.72509
,c쎯	-7.72602
jb쎯	-7.72762
rt쎯	-7.73056
),	-7.73065
yi쎯	-7.73407
kf쎯	-7.74965
nnh쎯	-7.74991
ymhj쎯fnrt쎯	-7.75443
ia쎯	-7.75529
x쎯iyj쎯	-7.75608
”。	-7.75745
f쎯aq쎯	-7.76238
hko쎯	-7.76628
lt쎯	-7.76855
wt쎯	-7.77633
th쎯	-7.77746
wys쎯	-7.78157
jgm쎯	-7.78269
쎉	-7.78289
w쎯,	-7.79103
od쎯	-7.79165
yy쎯	-7.79937
wgkq0쎯et쎯	-7.79998
ya쎯	-7.8017
dq쎯	-7.80483
tj쎯	-7.805
fhn쎯	-7.81077
ith쎯	-7.81198
gkp쎯	-7.81675
cep쎯fp쎯	-7.81796
tu쎯rfc쎯	-7.81976
fcu1쎯	-7.82274
mqq쎯xtk쎯	-7.82316
rcn1쎯	-7.8243
ymc쎯tlf2쎯	-7.8263
wc쎯	-7.82687
vb쎯	-7.82734
sh쎯	-7.82801
a쎯	-7.82976
cc쎯	-7.83085
lk쎯	-7.83238
nnk쎯	-7.83346
pyj쎯	-7.83744
y쎯	-7.84105
rvyo쎯	-7.84113
ntk쎯	-7.84166
ovt쎯	-7.84341
nnnn쎯	-7.84429
a	-7.8462
rmhj쎯	-7.84653
img쎯	-7.84694
rnb쎯	-7.8474
k	-7.85615
xe쎯	-7.85741
fd쎯ymhj쎯	-7.85893
sb쎯	-7.85988
an쎯lwj쎯	-7.861
lg쎯	-7.86132
y쎯s쎯	-7.87027
sk쎯c쎯	-7.87211
adwr쎯	-7.87888
h쎯itx쎯	-7.88424
ccc쎯	-7.88433
pb쎯	-7.88687
kkd쎯	-7.88796
tkh쎯	-7.88873
aqt쎯	-7.89897
q쎯	-7.90011
tjh쎯	-7.90102
ftx쎯	-7.90198
fcu0쎯	-7.90266
oy쎯	-7.90401
ugdu쎯l쎯	-7.9101
tx쎯g쎯	-7.91384
wys쎯lft쎯	-7.91624
lq쎯	-7.91755
ftbt쎯ip쎯	-7.91785
hhu0쎯	-7.9203
vvv쎯	-7.92429
iyc쎯	-7.93254
ggi쎯fuj쎯	-7.9347
anb0쎯sy쎯	-7.94018
tp쎯	-7.94269
yynw1쎯	-7.95316
uy쎯	-7.95536
wy쎯thn쎯	-7.95716
jg쎯	-7.95733
ld쎯	-7.96037
ltu쎯	-7.96597
vfhp1쎯	-7.96954
qc쎯	-7.96981
rmc쎯uqwm0쎯	-7.9705
!	-7.97382
rxj쎯	-7.9756
xx쎯	-7.97594
hc쎯	-7.97845
t	-7.9786
ip쎯nu쎯	-7.98094
thg0쎯	-7.98232
ssss쎯	-7.99571
wgkq0쎯	-7.99852
ip쎯tg쎯	-7.9989
쎁쎂	-7.99919
ep쎯	-8.00043
tjf쎯	-8.00133
w쎯。	-8.00193
fggh쎯	-8.00286
an쎯	-8.00522
ujfj쎯wug1쎯	-8.00694
kgn쎯	-8.01624
yu쎯	-8.02254
ukn쎯	-8.025
qgf쎯	-8.02536
bj쎯	-8.0398
ujfj쎯	-8.04123
uu쎯	-8.04171
qi쎯	-8.04213
,o쎯	-8.04236
——	-8.04246
gef쎯	-8.04282
wug1쎯	-8.04311
reh쎯e쎯	-8.04412
ugm쎯	-8.0475
rpw쎯rmhj쎯	-8.04878
uh쎯	-8.04991
gip쎯	-8.05386
mfk쎯	-8.05424
》:“	-8.05544
tk쎯tkh쎯	-8.05665
uj쎯	-8.05722
ba0쎯	-8.0587
tg쎯itd쎯	-8.06152
rp쎯	-8.06409
kkk쎯thgf0쎯	-8.06663
gk쎯	-8.06803
std쎯	-8.06854
xxf쎯og쎯gf쎯	-8.06885
ru쎯	-8.07115
wgk쎯	-8.07208
al쎯ce쎯	-8.07428
dn쎯o쎯	-8.07432
s	-8.07586
wt쎯o쎯	-8.07735
ic쎯	-8.07916
tmd쎯	-8.0812
hx쎯	-8.08287
ad쎯	-8.08305
ga쎯vck쎯	-8.08684
adwe1쎯	-8.08798
bs쎯	-8.09146
lll쎯	-8.09307
aw쎯	-8.09353
itd쎯fcl쎯	-8.09392
jjjj쎯sg쎯	-8.09793
wfny0쎯	-8.09896
tffu쎯。	-8.10002
vcb쎯	-8.10053
q	-8.10165
tf쎯og쎯	-8.10359
py쎯wf쎯	-8.10443
fj쎯	-8.11577
iv쎯	-8.11614
tr쎯	-8.12788
gog쎯	-8.12931
es쎯et쎯	-8.12965
qiu0쎯	-8.13173
n쎯	-8.13279
gjq쎯	-8.13343
ga쎯v쎯	-8.13592
fnrt쎯	-8.13638
ftbt쎯	-8.1381
쎂쎀	-8.13822
sfi쎯uwy1쎯	-8.13833
gah쎯	-8.13924
wq쎯	-8.13946
gl쎯	-8.14097
pn쎯	-8.14345
yff쎯	-8.14619
lkd쎯	-8.14669
pg쎯	-8.14891
ab쎯	-8.1528
a쎯og쎯	-8.15303
ght쎯ywf쎯	-8.1547
gy쎯	-8.15716
j	-8.15798
lft쎯	-8.15799
udbb쎯	-8.15826
ytey쎯iytb0쎯	-8.1594
fc쎯rf쎯	-8.15994
cd쎯lk쎯	-8.16192
xq쎯	-8.16259
ipw쎯	-8.16397
ul쎯	-8.16469
f	-8.16643
txi쎯gq쎯	-8.1673
vt쎯	-8.16801
nfc쎯	-8.16805
atd쎯bpf쎯	-8.16869
mj쎯	-8.16888
r	-8.16947
pgy쎯	-8.17013
dgt1쎯	-8.17277
ww쎯gk쎯	-8.17283
xeg쎯	-8.17422
djd쎯	-8.17484
jn쎯	-8.17553
rs쎯	-8.17704
ujj쎯	-8.17902
lfo쎯	-8.18326
k쎯r쎯	-8.184
wdt쎯	-8.18498
ftbt쎯jgm쎯	-8.18662
lqw쎯wrh2쎯	-8.18891
ide쎯	-8.18957
쎃쎀	-8.19037
p쎯	-8.19277
ygk쎯	-8.19302
kq쎯	-8.19329
wy쎯	-8.19406
”r쎯	-8.19431
ag쎯	-8.19459
wty쎯	-8.19488
xk쎯	-8.19491
yj쎯	-8.1952
um쎯	-8.1965
lpk0쎯	-8.19722
yx쎯	-8.20005
fawk쎯	-8.20059
쎁쎅	-8.20249
iytb0쎯ca쎯	-8.20393
y	-8.20443
aqt쎯tj쎯	-8.20564
suq쎯	-8.20767
sft쎯ou쎯	-8.20906
og쎯	-8.21178
ooo쎯	-8.21241
ujf쎯qi쎯	-8.21369
puv쎯	-8.21438
rfm쎯jg쎯	-8.21469
xf쎯sq쎯	-8.21747
mqb쎯	-8.21774
jtg쎯	-8.21774
wt쎯kkk쎯	-8.22276
sov쎯	-8.22409
jf쎯uj쎯	-8.22624
d	-8.22768
bw쎯	-8.22981
dmh쎯	-8.23431
n	-8.23466
tfn쎯	-8.23606
yid쎯et쎯	-8.237
wa쎯	-8.23825
。d쎯	-8.23882
iit쎯	-8.24196
yne쎯	-8.24222
lfq쎯	-8.24236
w	-8.24313
”,	-8.24634
tu쎯ip쎯	-8.24856
”、“	-8.24884
uqwm0쎯idr쎯	-8.25111
wdn쎯te쎯	-8.2519
uqw쎯	-8.25249
ajj쎯	-8.25336
yygt쎯	-8.25421
g	-8.25459
ts쎯	-8.25558
idr쎯	-8.25738
dw0쎯	-8.25813
jn쎯bb쎯	-8.25815
uf쎯	-8.2588
py쎯aq쎯	-8.25983
gae쎯	-8.26363
bpf쎯	-8.26487
)。	-8.26745
yi쎯j쎯	-8.2735
pgc쎯	-8.27454
scf쎯	-8.27514
,wjg쎯	-8.27842
uth쎯	-8.28319
fnr쎯	-8.2833
ffff5쎯	-8.28365
px쎯	-8.28415
isgg0쎯yhk쎯	-8.28429
eee쎯	-8.28528
k쎯ip쎯	-8.28594
gm쎯wa쎯	-8.28694
yny0쎯	-8.2882
lp쎯	-8.28892
fn쎯	-8.28911
uff쎯	-8.28993
vbn쎯	-8.29076
udy쎯	-8.29104
ma쎯	-8.29213
dj쎯	-8.29432
m	-8.29575
쎁쎁	-8.29782
ax쎯	-8.29867
rfm쎯	-8.29976
yid쎯	-8.30087
nge쎯	-8.30153
xw쎯	-8.30246
src쎯	-8.30514
ipkh1쎯	-8.30604
ymf쎯	-8.30755
epc쎯	-8.30865
fqp쎯	-8.31334
qe쎯	-8.31345
pv쎯wg쎯	-8.31359
og쎯tl쎯	-8.31404
fqu쎯	-8.31557
uk쎯wv쎯	-8.31626
ick쎯ubk0쎯	-8.31916
qa쎯	-8.32188
wyv쎯	-8.32301
ae쎯	-8.32372
thgc쎯	-8.32633
hw쎯	-8.32754
qr쎯	-8.32881
tel쎯	-8.32923
aws쎯	-8.33035
쎁쎈	-8.33417
uqd0쎯	-8.33426
thd쎯nng쎯	-8.3392
lk쎯ty쎯	-8.34106
rg쎯,	-8.34181
,adw쎯	-8.34287
yq쎯	-8.34467
kkk쎯	-8.34469
ihc쎯	-8.34783
tq쎯	-8.34828
wh쎯	-8.34853
fl쎯wf쎯	-8.34892
qynm1쎯	-8.34947
tv쎯km쎯wf쎯	-8.35153
yqa쎯	-8.35786
tffh1쎯	-8.35969
qn쎯rtd쎯	-8.36058
mww쎯	-8.36171
q쎯wu쎯	-8.36172
cnh쎯	-8.36293
thd쎯qd쎯	-8.36572
rhf쎯	-8.3674
tmg1쎯	-8.36877
쎁쎆	-8.36896
tld1쎯	-8.37143
nd쎯	-8.37521
yvh쎯	-8.37655
lfn쎯	-8.37673
fny쎯pe쎯	-8.37677
jf쎯,	-8.37683
wv쎯sr쎯	-8.37688
yt쎯	-8.37709
ire쎯	-8.37772
x쎯apk쎯	-8.37914
dl쎯kq쎯	-8.37919
sve쎯	-8.38075
js쎯	-8.38199
isgg0쎯	-8.38255
rgw쎯	-8.38408
gmf쎯	-8.38434
oge쎯	-8.39035
ff쎯	-8.3907
fh쎯	-8.39612
fhv쎯	-8.39706
쎅쎀	-8.39753
kthh1쎯	-8.3979
bc쎯	-8.40428
u	-8.40481
fhw쎯	-8.40511
gyt쎯	-8.40717
yyy쎯	-8.40782
～	-8.40929
gj쎯ywx쎯	-8.41068
pfi쎯	-8.41072
qn쎯	-8.41215
wk쎯ryn0쎯	-8.41461
쎄쎀	-8.41651
wk쎯	-8.42083
ujn쎯	-8.42152
iw쎯	-8.42289
tx쎯fg쎯	-8.42591
yy쎯if쎯	-8.42895
ick쎯	-8.43
l쎯mw쎯	-8.43178
rmhj쎯wt쎯	-8.43294
ps쎯	-8.43425
st쎯	-8.43478
wgk쎯wt쎯	-8.43549
bu쎯	-8.43643
tjt쎯	-8.43735
jy쎯	-8.43926
ujf쎯	-8.4395
yh쎯	-8.44146
xxg0쎯	-8.44156
rhk쎯	-8.44221
ywx쎯	-8.44271
rc쎯	-8.44431
i쎯m쎯	-8.44506
rmhj쎯tfkp쎯	-8.44573
dd쎯gajf쎯	-8.44948
ll쎯	-8.45028
,e쎯	-8.45054
ow쎯	-8.45155
irn쎯lg쎯	-8.45289
kgd쎯	-8.45519
xp쎯wgk쎯	-8.45695
hv쎯	-8.45728
ipk쎯	-8.46049
pei쎯og쎯	-8.46069
wqa쎯	-8.46376
im쎯e쎯	-8.46431
yo쎯	-8.46488
fcp쎯fcl쎯	-8.46618
sn쎯	-8.46675
amd쎯	-8.4684
th쎯gj쎯	-8.46979
lwj쎯	-8.47098
mmm쎯ai쎯	-8.47175
mqq쎯uh쎯	-8.47251
xl쎯	-8.47386
swc쎯	-8.47518
nui쎯	-8.47525
gkl쎯	-8.47927
fge쎯	-8.47981
gm쎯	-8.48227
fwm쎯aj쎯	-8.48315
g쎯tkh쎯	-8.48437
rj쎯ym쎯	-8.48557
fghg쎯	-8.4865
sm쎯sq쎯	-8.48655
gfi쎯	-8.48688
et쎯yne쎯	-8.49234
wbj쎯usr쎯	-8.49247
,dmj1쎯	-8.49369
......	-8.49509
rb1쎯	-8.49587
hka쎯	-8.49664
tfqp쎯	-8.49721
ud쎯	-8.49819
qm쎯gmu1쎯	-8.49836
wdm쎯	-8.49867
pw쎯	-8.50007
ipkf0쎯	-8.50108
w쎯km쎯	-8.50279
vfb쎯	-8.50357
k쎯md쎯	-8.50592
ft쎯	-8.50639
fhl쎯	-8.50779
adw쎯k쎯	-8.5087
uq쎯	-8.50891
pp쎯g쎯。	-8.51194
me쎯	-8.51339
tfq쎯	-8.51436
tgj쎯hko쎯	-8.51485
lu쎯	-8.51692
qie쎯wyk쎯	-8.51816
pyg쎯	-8.51831
tfq쎯fj쎯	-8.51938
tjf쎯iawn쎯	-8.51984
fcl쎯	-8.5206
wfny0쎯xyc쎯	-8.52079
uvo쎯	-8.52281
dy쎯	-8.52434
u쎯	-8.52454
pu쎯	-8.52588
se쎯	-8.52746
wht쎯	-8.52803
lk쎯a쎯	-8.52865
lkmi0쎯	-8.53125
yf쎯aj쎯	-8.53486
cff쎯	-8.53526
kw쎯	-8.53573
ukd0쎯jghm1쎯	-8.53627
+	-8.53659
ttg쎯	-8.53723
ijl쎯	-8.5377
pfq쎯dn쎯	-8.54003
nh쎯	-8.54006
nx쎯	-8.54157
fje쎯	-8.5442
vtk쎯	-8.54465
yf쎯tha쎯sm쎯	-8.54467
mw쎯pww쎯	-8.54835
sfhg쎯tr쎯	-8.54855
쎀	-8.5487
bm쎯thgc쎯py쎯	-8.54884
inr쎯	-8.54885
ih쎯ip쎯	-8.54895
wycm0쎯fakg1쎯	-8.54911
jn쎯jyie쎯	-8.54921
ruv쎯kkkk0쎯	-8.54957
bm쎯thgc쎯	-8.54967
iex쎯	-8.55074
rpv쎯	-8.55129
alw쎯	-8.55168
ge쎯	-8.55294
yygy쎯ip쎯	-8.55362
mdf쎯	-8.55399
쎁쎉	-8.55516
km쎯	-8.55685
ip쎯wf쎯	-8.5587
xmw쎯	-8.55967
wfhg쎯	-8.56141
pei쎯	-8.56295
stx쎯	-8.56516
yhk쎯	-8.5668
쎂쎅	-8.56829
qev쎯	-8.56839
ym쎯xe쎯	-8.56841
mtd쎯	-8.569
x	-8.57041
yww쎯	-8.57109
fdm쎯s쎯	-8.57174
g쎯tem쎯	-8.57177
fuk쎯yk쎯	-8.57358
dskf쎯	-8.57421
pp쎯g쎯	-8.57642
td쎯	-8.57773
lw쎯	-8.58138
w쎯ft쎯	-8.58143
aft쎯qk쎯	-8.58437
uq쎯cep쎯	-8.58443
adw쎯wb쎯	-8.58487
tve쎯	-8.58522
tjh쎯et쎯	-8.58605
jqr쎯	-8.58636
wh쎯w쎯	-8.58686
sm쎯sa쎯	-8.58702
kg쎯	-8.58937
rxj쎯nf쎯	-8.59053
yy쎯aa쎯	-8.59264
it쎯	-8.59308
ce쎯lt쎯	-8.59352
a쎯anb0쎯	-8.59411
yni1쎯	-8.59452
pk쎯	-8.59479
—	-8.59544
ftbt쎯rep쎯	-8.5959
naj1쎯	-8.59715
atd쎯ip쎯	-8.59803
pa쎯	-8.59831
py쎯	-8.59897
s쎯fiy쎯	-8.6001
fk쎯	-8.60134
dfy쎯	-8.60141
ggi쎯	-8.60462
fgh쎯	-8.6067
m쎯jf쎯	-8.60719
sc쎯	-8.60813
u쎯og쎯	-8.60845
pu쎯gm쎯	-8.60905
iytb0쎯	-8.61073
bwt쎯	-8.61157
fw쎯	-8.61192
uo쎯	-8.61226
쎁쎇	-8.61467
lhnh쎯	-8.61509
lh쎯kthh1쎯	-8.61568
dga쎯pwv쎯rn쎯	-8.61681
ln쎯	-8.61807
pt쎯yne쎯	-8.61823
wwk쎯	-8.61859
ufy쎯	-8.61945
adnt1쎯	-8.62035
dwiu쎯	-8.62234
ymc쎯	-8.62254
yygt쎯ai쎯	-8.62344
vo쎯	-8.62496
쎆쎀	-8.62561
e쎯ud쎯	-8.62595
psu쎯	-8.62658
sve쎯rnd1쎯	-8.62715
mmm쎯ai쎯ith쎯	-8.62912
thd쎯fcl쎯	-8.62986
yjjh1쎯	-8.63195
wyv쎯kkk쎯	-8.63256
w쎯kkkk0쎯	-8.63259
dnnl쎯	-8.63325
dgkn쎯	-8.63477
쎁쎀쎀	-8.63489
p쎯wh쎯	-8.63566
j쎯rxj쎯	-8.63598
fc쎯	-8.63736
dn쎯uu쎯	-8.63785
xf쎯wgk쎯	-8.63916
e	-8.64026
rjg0쎯wtf쎯	-8.64369
,mh쎯	-8.64397
tfk쎯	-8.64537
wqj쎯	-8.64661
uduk쎯	-8.64674
xwy쎯	-8.64789
apk쎯	-8.64791
,wgkq0쎯	-8.64822
wvf쎯yvi쎯	-8.64845
bnn2쎯	-8.64987
iawn쎯	-8.65078
w쎯n쎯	-8.65507
yvi쎯	-8.65657
fcp쎯	-8.65685
gj쎯	-8.65723
djd쎯ipkh1쎯	-8.65733
r쎯g쎯tkh쎯	-8.65768
q쎯l쎯	-8.65848
by쎯	-8.65911
rymn쎯	-8.66017
ytt쎯	-8.66167
qd쎯	-8.66213
k쎯,	-8.66362
wfg0쎯	-8.66522
g쎯hxf쎯	-8.66563
ri쎯	-8.66597
ovt쎯rnd1쎯	-8.66607
jyie쎯ktm쎯	-8.6663
nae쎯	-8.66664
qt쎯	-8.66703
dh쎯	-8.66737
to쎯	-8.66747
mqu쎯	-8.66979
tt쎯	-8.67095
xf쎯	-8.67217
쎁쎃	-8.67515
qgb쎯	-8.6763
ou쎯	-8.67752
khu쎯	-8.67788
sgc쎯	-8.67846
fj쎯ty쎯	-8.68035
av쎯	-8.68053
ck쎯iyo쎯	-8.68183
yfd쎯	-8.68223
qgj쎯	-8.68225
fii쎯	-8.68262
dht쎯	-8.68295
n쎯ytt쎯	-8.68311
tk쎯od쎯	-8.68358
nnnn쎯x쎯	-8.68403
xh쎯	-8.68472
gae쎯dn쎯	-8.68472
xl쎯eqn쎯	-8.68489
xv쎯	-8.68644
,wb쎯	-8.68679
um쎯og쎯	-8.68775
쎁쎄	-8.68899
ivw쎯	-8.689
wc쎯kht쎯	-8.68985
qg쎯	-8.68988
yngk0쎯	-8.68992
:“	-8.6912
)、	-8.69224
cqy쎯	-8.69422
ih쎯yu쎯	-8.69571
hhhh쎯	-8.69605
jv쎯	-8.69642
vfhp1쎯uu쎯	-8.69645
tdg1쎯	-8.69726
dga쎯pwv쎯tg쎯	-8.69805
wa쎯ge쎯	-8.69863
ylk2쎯	-8.70008
yygy쎯wrh2쎯	-8.70308
wxj쎯	-8.70356
od쎯gajf쎯	-8.70369
jj쎯	-8.70587
imgk쎯	-8.7067
thd쎯nng쎯r쎯	-8.7068
ugl쎯	-8.70728
sksw쎯	-8.708
umd0쎯	-8.70909
pgn쎯	-8.71047
bde쎯	-8.71123
w쎯n쎯ght쎯ywf쎯	-8.71291
o	-8.71323
ad쎯dbm쎯	-8.71329
kfi쎯	-8.71402
gmww쎯wh쎯	-8.71495
jfc쎯	-8.71557
,adw쎯k쎯	-8.71563
fv쎯	-8.71566
yb쎯	-8.7168
shn쎯	-8.71692
pgk쎯	-8.71771
v쎯gm쎯	-8.71855
fhu쎯	-8.71856
v	-8.71869
ye쎯	-8.71913
쎂쎄	-8.71955
ghd0쎯aa쎯	-8.72186
,ll쎯,	-8.72192
jn쎯pym쎯	-8.72231
tg쎯tr쎯	-8.72297
qve쎯	-8.72337
dp쎯gc쎯	-8.72374
gxi쎯	-8.72424
cw쎯	-8.72439
wx쎯ip쎯	-8.72476
sgh쎯	-8.72489
yygt쎯sghg1쎯	-8.72551
tyna2쎯	-8.72593
ywx쎯yygy쎯	-8.72701
flf1쎯	-8.72796
hk쎯	-8.72805
aet0쎯	-8.7293
dm쎯tkw쎯	-8.72935
ywf쎯	-8.73233
qmq쎯	-8.73277
wb쎯wu쎯	-8.73342
wbj쎯wt쎯	-8.73375
ahty쎯	-8.73594
ait쎯	-8.73702
tak쎯	-8.73903
uq쎯iyc쎯	-8.73996
xqa쎯	-8.74083
wjg쎯	-8.74178
kha쎯	-8.74374
gef쎯rh쎯	-8.74484
et쎯gf쎯	-8.74609
af쎯wgkb2쎯	-8.74717
saj쎯aa쎯	-8.74754
iagw쎯	-8.74877
ad쎯sg쎯	-8.74894
tfq쎯tg쎯	-8.74955
riu쎯	-8.7507
j쎯g쎯wh쎯	-8.75108
txg쎯	-8.7513
temk쎯	-8.75163
ia쎯alw쎯	-8.75217
cm쎯	-8.75234
tmo쎯	-8.7524
nty1쎯	-8.75244
ruv쎯	-8.75298
aq쎯fakg1쎯	-8.75323
ght쎯	-8.75339
de쎯	-8.75762
ymc쎯ytb쎯	-8.7595
j쎯mh쎯	-8.75963
xx쎯lu쎯	-8.76081
fhq쎯	-8.76198
ywt쎯	-8.76236
fa쎯	-8.76298
usr쎯ub쎯	-8.76298
irr쎯ia쎯	-8.76571
fcl쎯tr쎯	-8.76655
tx쎯dg쎯	-8.76811
yy쎯dm쎯	-8.76909
yn쎯	-8.7697
fjk쎯	-8.77223
trf쎯qc쎯	-8.77352
--	-8.77389
yjs쎯tkgg0쎯	-8.77393
rn쎯e쎯	-8.7745
wrh2쎯	-8.77482
sdm쎯	-8.7749
쎃쎂	-8.7767
rkk쎯wt쎯	-8.7768
wyc쎯	-8.77731
hj쎯	-8.77789
pf쎯	-8.7783
pnt쎯	-8.78307
gqx쎯	-8.78425
up쎯	-8.7844
bi0쎯	-8.7861
pe쎯ytfp1쎯	-8.78621
ntg쎯ce쎯	-8.78662
wsg0쎯yce쎯	-8.78759
v쎯tg쎯	-8.78788
sg쎯nnh쎯	-8.78838
pynn0쎯	-8.78906
tj쎯gc쎯	-8.79278
vn쎯	-8.79305
,cf쎯	-8.79403
fghy2쎯	-8.79439
eu쎯	-8.79461
hhhh쎯ue쎯	-8.79471
sam쎯	-8.79504
gny쎯	-8.79565
wtu쎯	-8.79715
qtj쎯uu쎯	-8.79845
you1쎯	-8.79854
tkgg0쎯ycb쎯	-8.7995
pu쎯ytb쎯	-8.80016
pym쎯	-8.80028
yygt쎯ai쎯ith쎯	-8.80124
fuk쎯udyj쎯	-8.80382
qr쎯kht쎯	-8.80512
w쎯tr쎯	-8.80512
xgu쎯	-8.80534
gs쎯	-8.80576
amd쎯ygk쎯	-8.80589
td쎯ykw쎯	-8.80631
yygt쎯ytyh쎯	-8.80747
djb쎯	-8.80797
wynb쎯	-8.8086
rdj쎯	-8.8091
gu쎯ck쎯	-8.81149
wynk쎯	-8.81219
쎈쎀	-8.81228
synw쎯	-8.81328
bu쎯wgk쎯	-8.81379
dn쎯al쎯	-8.8139
xyna0쎯	-8.81545
wg쎯dm쎯	-8.81634
wgj쎯	-8.8168
oyvk0쎯	-8.81802
yneg쎯	-8.81812
ght쎯ick쎯	-8.81846
sf쎯tv쎯wf쎯	-8.81861
rta쎯	-8.82059
ntf쎯	-8.82063
i쎯on쎯	-8.82064
vtkd1쎯	-8.82112
um쎯tl쎯	-8.82241
pw쎯uj쎯	-8.82324
ga쎯nae쎯	-8.82383
sh쎯ud쎯	-8.82391
lwx쎯	-8.82503
tg쎯gf쎯	-8.82513
wgi쎯	-8.82646
gq쎯	-8.82663
ddu0쎯	-8.82697
a쎯wt쎯。	-8.82698
yygy쎯je쎯	-8.82759
wm쎯	-8.82967
te쎯	-8.82982
,wug1쎯gf쎯	-8.83067
bg쎯tg쎯	-8.83098
pfjm1쎯	-8.83167
fcb쎯	-8.83327
qnp쎯	-8.83386
os쎯	-8.83393
ia쎯alw쎯ith쎯	-8.83546
kd쎯	-8.83694
uqwm0쎯ou쎯	-8.83846
ha쎯	-8.83897
i쎯ce쎯	-8.83926
rwyg쎯yygt쎯	-8.83995
pt쎯	-8.84081
wt쎯et쎯	-8.84161
tu쎯dga쎯	-8.84368
l	-8.84416
yv쎯	-8.84461
kha쎯yb쎯	-8.84477
yiu쎯	-8.84639
fm쎯yiu쎯	-8.84852
~	-8.84874
yft쎯	-8.84897
fiy쎯	-8.84953
isk쎯fm쎯	-8.85002
cd쎯gn쎯	-8.8512
ntk쎯gf쎯	-8.85404
x쎯fp쎯	-8.85406
us쎯	-8.85567
rj쎯	-8.85626
eajd쎯	-8.85883
ugdu쎯sy쎯	-8.86059
c	-8.86104
,vcb쎯	-8.86166
wycm0쎯nf쎯	-8.86202
▁wc쎯ngk쎯	-8.86437
fge쎯fghg쎯	-8.86448
tf쎯ght쎯	-8.86463
thgf0쎯	-8.86488
qyvl쎯	-8.86533
mwyc1쎯	-8.86574
ktn쎯	-8.86579
ukh쎯	-8.8665
qqqq1쎯ntk쎯	-8.86752
p쎯hxf쎯	-8.86757
ese쎯	-8.86837
jty쎯	-8.86965
tfqp쎯rcf쎯	-8.8706
쎂쎂	-8.87123
iyw쎯	-8.87168
fffy쎯	-8.87269
쎂쎀쎀	-8.87278
uwyc0쎯	-8.87389
qqqq1쎯gkm쎯	-8.87399
f쎯yy쎯	-8.87449
쎃쎅	-8.87495
pgj쎯wfny0쎯	-8.87589
r쎯g쎯wh쎯	-8.87605
j쎯g쎯tkh쎯	-8.87615
ln쎯shn쎯	-8.87701
wt쎯ftj쎯	-8.87705
yjj0쎯	-8.87784
g쎯uqw쎯	-8.8781
lw쎯wc쎯pgc쎯	-8.87839
fggh쎯uk쎯	-8.8794
pv쎯tmgt1쎯	-8.87955
h쎯r쎯	-8.88106
wsk쎯	-8.88108
irr쎯ia쎯ith쎯	-8.88216
pei쎯sf쎯	-8.88332
amd쎯l쎯	-8.88354
ygk쎯yyy쎯	-8.88431
ajt쎯	-8.88449
yygt쎯tfkf1쎯	-8.88466
c쎯h쎯	-8.88474
jh쎯	-8.88487
fha쎯	-8.88489
qng1쎯	-8.88497
ide쎯fm쎯	-8.88518
etg쎯	-8.88622
if쎯tvfh1쎯	-8.88744
yfn쎯	-8.88747
bk쎯	-8.88805
ygh쎯	-8.88807
fh쎯ruv쎯	-8.88885
tv쎯	-8.88911
udp쎯	-8.88958
jn쎯eyb쎯	-8.88964
wf쎯yyq쎯	-8.88999
tfl쎯l쎯	-8.89025
wwj쎯wfhg쎯	-8.8924
wvt쎯	-8.89282
mt쎯	-8.89283
tkh쎯sfhg쎯	-8.89489
apk쎯qie쎯	-8.89507
dc쎯	-8.89543
jyie쎯	-8.89548
qq쎯tkh쎯	-8.89577
udyj쎯	-8.89613
ddm쎯fghg쎯	-8.89652
nnh쎯if쎯	-8.89663
ng쎯	-8.89747
iqc쎯	-8.90028
eb쎯	-8.90037
wu쎯	-8.90047
hi쎯	-8.9011
wr쎯	-8.9016
ey쎯adw쎯	-8.90204
klj쎯	-8.90277
ldn쎯	-8.90311
bm쎯gm쎯	-8.90428
pp쎯uj쎯	-8.90432
gmd쎯	-8.90499
jgm쎯aib쎯dd쎯ip쎯	-8.90815
xjm쎯	-8.90832
ii쎯gu쎯	-8.90847
adk쎯	-8.90998
bg쎯	-8.91033
oge쎯pyj쎯	-8.91035
qy쎯	-8.91201
gogj쎯	-8.91409
aps쎯	-8.91456
fnw쎯	-8.91496
wg쎯gfi쎯	-8.91758
》tffu쎯	-8.91798
wbj쎯	-8.91808
qve쎯tf쎯	-8.91852
ywu쎯	-8.91908
ynt쎯	-8.92163
u쎯tg쎯	-8.92291
jf쎯wa쎯	-8.9234
mc쎯	-8.92511
dcw쎯	-8.92512
쎇쎀	-8.9254
lfhf쎯	-8.92591
쎂쎃	-8.92658
ngk쎯	-8.92696
ytb쎯	-8.92717
da쎯	-8.92839
dty쎯gk쎯	-8.92853
r쎯“	-8.92904
ce쎯qkqq쎯	-8.93088
efcb쎯	-8.93088
ip쎯sy쎯	-8.93101
iyo쎯	-8.93386
sgi쎯	-8.93895
be쎯	-8.94064
p쎯tkh쎯	-8.94146
sgn쎯	-8.94174
lks쎯	-8.94183
puhc쎯ygu쎯o쎯	-8.94201
gm쎯e쎯	-8.94229
myd쎯	-8.94406
rmhj쎯ya쎯	-8.9444
pv쎯ufy쎯	-8.94515
쎂쎈	-8.94518
twt쎯	-8.9469
uda쎯	-8.94709
tffh1쎯uthp쎯	-8.94878
,uqf쎯	-8.94895
y쎯rf쎯	-8.9493
ds쎯	-8.94942
ugm쎯gxgu쎯	-8.95008
ufy쎯qnth쎯	-8.95096
nnw쎯	-8.95104
pu쎯cwg쎯	-8.95286
yd쎯	-8.95306
ssq쎯	-8.95417
iaw쎯	-8.9545
w쎯wu쎯	-8.95486
》(	-8.95569
,vk쎯	-8.95669
,sk쎯	-8.95693
isk쎯fm쎯ith쎯	-8.96002
jb쎯dd쎯	-8.96059
gcft2쎯lt쎯gf쎯	-8.96066
bgh쎯	-8.96081
wf쎯km쎯	-8.96151
hxx쎯	-8.96218
ftjb쎯j쎯	-8.96373
wfny0쎯rtol1쎯	-8.96414
jhny쎯	-8.96504
ide쎯ux쎯	-8.96719
fny쎯	-8.96793
dgv쎯	-8.96803
ib쎯	-8.96819
ui쎯	-8.96963
쎉쎀	-8.97079
yjs쎯jghm1쎯	-8.97157
qyng쎯	-8.97199
mh쎯gf쎯	-8.97224
?	-8.97607
ol쎯	-8.97678
itk쎯	-8.97783
oug쎯	-8.97797
yf쎯	-8.98053
eyb쎯	-8.98172
쎄쎅	-8.9823
yaa쎯cwg쎯	-8.98368
쎂쎁	-8.98415
ai쎯ux쎯	-8.98481
aw쎯m쎯	-8.98498
gmy1쎯	-8.98569
bm쎯tg쎯gf쎯	-8.98656
wgkb2쎯	-8.9871
쎂쎆	-8.98764
qmgk0쎯	-8.98794
bn쎯j쎯	-8.98865
ftg쎯	-8.98893
tgj쎯s쎯	-8.98901
wgc쎯	-8.9894
wyq쎯	-8.99041
dn쎯km쎯	-8.99054
jf쎯imkf1쎯	-8.99105
dl쎯	-8.99132
yy쎯tm쎯	-8.99172
bk쎯og쎯	-8.99296
dyt쎯	-8.99302
xyy0쎯	-8.99558
fcp쎯tf쎯	-8.99587
p쎯g쎯	-8.99651
wtl쎯	-8.99689
》,	-8.99707
ftbt쎯sft쎯	-8.99795
nty1쎯af쎯	-8.99868
▁《	-8.99889
tg쎯dyn쎯	-8.99953
uqt쎯js쎯	-9.00377
alt쎯	-9.00382
anb0쎯	-9.00426
atd쎯	-9.00663
dwt쎯	-9.00676
gk쎯og쎯	-9.00806
jty쎯ysi쎯	-9.00889
xeg쎯dn쎯	-9.00991
rvy쎯tf쎯	-9.01015
uo쎯cep쎯	-9.01041
udb쎯	-9.01071
uxe쎯	-9.01074
pfj쎯	-9.0124
nyu쎯	-9.01364
ip쎯tu쎯	-9.01396
dhb쎯	-9.0147
jf쎯adwe1쎯	-9.01479
tq쎯o쎯	-9.0151
iu쎯	-9.01552
yps쎯	-9.01569
isk쎯ux쎯	-9.0158
gd쎯ivfh1쎯	-9.01613
wcy2쎯	-9.01647
on쎯	-9.01894
adm쎯	-9.01929
ajd쎯	-9.02148
ts쎯wrh2쎯	-9.02187
sfi쎯	-9.02302
cy쎯	-9.02309
qt쎯ujff쎯	-9.02341
ymd쎯	-9.02389
geq쎯	-9.02409
wv쎯o쎯	-9.02492
if쎯l쎯	-9.02658
kn쎯	-9.02739
nyi2쎯fghy0쎯	-9.02793
jghm1쎯	-9.02829
nkuf쎯	-9.02899
lqw쎯	-9.02904
ytf쎯qq쎯	-9.02914
ad쎯f쎯	-9.02921
tx쎯	-9.02987
h쎯itx쎯ymhj쎯	-9.0301
vs쎯	-9.0301
ud쎯gf쎯	-9.03037
ca쎯	-9.03057
tdkj쎯	-9.03082
k쎯atd쎯	-9.03283
wg쎯uk쎯	-9.03601
fpx쎯	-9.03628
xqc쎯	-9.03649
kkk쎯rfm쎯	-9.03715
eg쎯	-9.03748
lpk0쎯xfn쎯	-9.04018
fjfh1쎯	-9.04102
sghg1쎯fm쎯	-9.04389
sw쎯imj쎯	-9.04416
adf쎯	-9.04545
bfm쎯	-9.04582
ge쎯dm쎯	-9.04592
pvs쎯	-9.04617
uk쎯uyh쎯	-9.04646
fmk쎯	-9.04662
lh쎯kthh1쎯ith쎯	-9.04699
iy쎯	-9.04741
qtj쎯	-9.0482
ffi쎯	-9.05057
pp쎯g쎯,	-9.05104
synw쎯ny쎯	-9.05178
wc쎯lfq쎯	-9.0528
hao쎯	-9.05344
rlg쎯	-9.05381
fu쎯	-9.05579
yss쎯	-9.05618
dty쎯	-9.05684
ud쎯txi쎯	-9.05749
wv쎯dmh쎯	-9.05781
wffg쎯	-9.05785
al쎯	-9.05791
ux쎯yiu쎯ymhj쎯	-9.05809
ght쎯tgm쎯	-9.05809
fkuk4쎯	-9.05821
atd쎯ubk0쎯	-9.05851
,ww쎯	-9.05861
k쎯aw쎯	-9.05883
uqwm0쎯qqqq1쎯	-9.0595
xn쎯	-9.06038
。yynw1쎯	-9.06161
qgu쎯	-9.0624
lud쎯	-9.06323
pye쎯	-9.06339
gkip2쎯	-9.06373
lft쎯bw쎯	-9.06483
k쎯wxf쎯	-9.06495
jb쎯dd쎯r쎯	-9.06555
yw쎯ygh쎯	-9.06574
wj쎯xvk쎯	-9.06601
kwg쎯	-9.06628
wye쎯	-9.068
wmj0쎯	-9.06822
wgku1쎯	-9.06881
a쎯hw쎯	-9.06897
pyg쎯vfhp1쎯	-9.07098
tgj쎯yd쎯	-9.07229
nf쎯	-9.07288
。wb쎯	-9.07417
g쎯fhn쎯	-9.07427
lc쎯	-9.07474
btg쎯	-9.07496
ta쎯adwe1쎯	-9.0755
gm쎯wtf쎯	-9.07566
wsg0쎯txi쎯	-9.07653
ggi쎯wk쎯	-9.07739
rw쎯	-9.08054
tl쎯	-9.08181
sy쎯	-9.08228
ge쎯fi쎯	-9.08294
ybv쎯	-9.08365
apg쎯	-9.08399
aib쎯lfnh쎯	-9.08414
wkh쎯fj쎯	-9.08461
g쎯fh쎯	-9.08535
gcft2쎯	-9.08557
fku쎯	-9.08558
xuj쎯	-9.08571
yad쎯	-9.08674
fcu0쎯fm쎯	-9.08819
dtf쎯	-9.08823
ymc쎯e쎯	-9.08887
utd쎯ugm쎯	-9.09135
l쎯pe쎯xe쎯	-9.0927
wv쎯klj쎯	-9.09334
ytd쎯	-9.09338
gr쎯	-9.09359
wwj쎯	-9.09372
kkk쎯tkh쎯	-9.09404
qkhh1쎯	-9.09476
iwf쎯	-9.09525
nnw쎯gkip2쎯	-9.09565
ith쎯xe쎯	-9.09603
udj쎯	-9.09643
pfq쎯wg쎯	-9.09648
qyv쎯jqr쎯	-9.09696
xv쎯qc쎯	-9.09715
ub쎯	-9.09748
l쎯mw쎯qh쎯	-9.09776
쎂쎇	-9.09819
pv쎯tmgt1쎯ith쎯	-9.09884
im쎯	-9.09927
sghg1쎯ux쎯	-9.09948
tfq쎯rg쎯	-9.0998
igt쎯	-9.09984
km쎯a쎯	-9.10066
ndj쎯	-9.10075
emc쎯	-9.1011
lpk0쎯ruv쎯	-9.10178
sss쎯	-9.10197
un쎯pg쎯	-9.10211
gjh2쎯	-9.10259
sf쎯vii쎯ntk쎯gf쎯	-9.10325
pym쎯hid쎯	-9.10358
hhhh쎯sfi쎯	-9.10392
pfjf0쎯	-9.1059
gae쎯aa쎯	-9.10607
wwj쎯st쎯	-9.10628
ffff5쎯f쎯	-9.10666
。adw쎯	-9.10758
ec쎯	-9.10789
ufk0쎯	-9.10809
。《	-9.10844
tyg쎯	-9.10948
mq쎯st쎯	-9.11012
wygg쎯	-9.1104
dk쎯	-9.11048
ide쎯ux쎯ith쎯	-9.11195
dg쎯wh쎯	-9.11225
wbj쎯vfhp1쎯	-9.11227
ijl쎯ya쎯	-9.11231
afl쎯	-9.11233
fjfh1쎯l쎯	-9.11318
sgn쎯ddu0쎯	-9.11345
peg쎯	-9.11349
jo쎯fi쎯	-9.11378
wx쎯a쎯	-9.11488
qje쎯	-9.11633
yaa쎯	-9.11685
mhny0쎯	-9.11708
uqwk쎯yqj쎯	-9.11811
wdn쎯	-9.11858
iy쎯mm쎯	-9.11874
ltk쎯	-9.11891
puh쎯	-9.11896
lm쎯	-9.11943
fcu0쎯fm쎯ith쎯	-9.12074
qn쎯ufy쎯	-9.12133
aqq쎯iyt0쎯	-9.12147
eyni쎯	-9.1221
bct쎯	-9.12344
rt쎯sm쎯	-9.12385
jtyl쎯hich쎯	-9.12576
tr쎯gj쎯	-9.1289
dt쎯egl쎯	-9.13069
yt쎯ty쎯	-9.13119
mp쎯	-9.13257
gah쎯ic쎯	-9.13336
jq쎯	-9.13382
icf쎯	-9.13395
,i쎯	-9.13432
id쎯	-9.13473
o쎯b쎯	-9.13576
tkw쎯se쎯	-9.13611
qsu쎯	-9.13627
itd쎯	-9.13706
,px쎯	-9.1371
kr쎯	-9.13821
r쎯tgj쎯s쎯	-9.13836
ovt쎯ip쎯	-9.13899
xgb쎯	-9.13905
쎅쎀쎀	-9.13908
gxgu쎯	-9.13958
fp쎯tkgg0쎯	-9.14009
thd쎯mh쎯	-9.14027
qev쎯un쎯	-9.1403
>	-9.14095
sfc쎯	-9.14126
xxe쎯	-9.14131
lfof5쎯	-9.14234
yjs쎯	-9.1426
,ccc쎯	-9.14266
ytb쎯a쎯	-9.14402
pgj쎯	-9.14405
epc쎯gc쎯	-9.14515
jlc쎯	-9.14556
waw쎯	-9.14578
tf쎯o쎯	-9.14615
ide쎯fm쎯ith쎯	-9.14832
wuk쎯	-9.14921
ia쎯sghg1쎯	-9.14948
ftg쎯yaa쎯	-9.15047
rbcc쎯jyie쎯	-9.15164
fpm쎯	-9.1518
wa쎯gj쎯	-9.15207
fcp쎯lwg쎯	-9.15259
쎃쎀쎀	-9.15413
ytf쎯	-9.15435
trf쎯klj쎯	-9.15438
yygt쎯fnrt쎯	-9.15455
yygt쎯dd쎯	-9.15554
nh쎯ty쎯	-9.15563
ak쎯ftj쎯	-9.1563
▁쎂.	-9.15702
nd쎯n쎯	-9.15734
ipk쎯km쎯	-9.15775
vi쎯	-9.15781
tkgg0쎯	-9.15865
hka쎯ltk쎯	-9.15875
thp쎯	-9.15899
fhc쎯	-9.15914
ipw쎯fkh쎯	-9.15962
r쎯v쎯nae쎯	-9.16049
fu쎯lk쎯	-9.16049
o쎯g쎯wsg0쎯r쎯	-9.16069
a쎯wt쎯,	-9.16152
h	-9.16355
pu쎯cwg쎯pgc쎯	-9.16406
gkih쎯	-9.16408
ju쎯	-9.16421
sqt쎯	-9.16445
》。	-9.16551
,gn쎯	-9.16611
fyv쎯	-9.16615
pei쎯n쎯	-9.1666
bqr쎯	-9.16707
ahn쎯	-9.16728
mmm쎯sghg1쎯	-9.16744
yle쎯	-9.16818
fhv쎯fp쎯	-9.16872
ugv쎯	-9.16898
dga쎯v쎯	-9.16903
*	-9.16939
gku쎯	-9.17068
rc쎯yid쎯	-9.17114
o쎯y쎯	-9.17142
rq쎯	-9.17246
bgu쎯sghg1쎯	-9.17381
oo쎯	-9.17402
uce쎯	-9.17534
=	-9.17741
vtkb쎯	-9.17744
um쎯kkk쎯	-9.17799
vk쎯wsk쎯	-9.17855
wnh쎯	-9.17906
yta쎯	-9.18
ymc쎯lfhf쎯	-9.18008
aig쎯	-9.18036
w쎯r쎯	-9.18048
wwx쎯	-9.18073
쎃쎆	-9.18078
ld쎯o쎯	-9.18226
xxr쎯	-9.1829
f쎯th쎯	-9.18345
dgj쎯	-9.18446
ovt쎯pb쎯	-9.18491
ago쎯	-9.18543
fo쎯	-9.18579
sfg쎯	-9.18579
gmi쎯	-9.18586
mmq쎯	-9.18603
imkf1쎯	-9.18608
qnth쎯	-9.18767
,m쎯jf쎯	-9.18779
yk쎯xan쎯	-9.18845
pfqf쎯	-9.18853
tuj쎯	-9.18894
pyg쎯vfhp1쎯ith쎯	-9.18894
dhc쎯	-9.19023
iyj쎯	-9.19077
fcp쎯et쎯	-9.19205
bd쎯	-9.19236
qtfj1쎯	-9.19313
vtk쎯www쎯	-9.19428
쎁.	-9.19538
ah쎯	-9.19542
n쎯uj쎯	-9.19586
uwl쎯	-9.19604
wdn쎯rfm쎯	-9.19765
adwe1쎯uj쎯	-9.19783
쎁쎀eee쎯	-9.19879
fgh쎯wv쎯	-9.19924
www쎯	-9.19978
v쎯ge쎯	-9.19978
wyna쎯	-9.2005
ptkm0쎯	-9.20109
da쎯dk쎯	-9.20169
imj쎯jg쎯	-9.20233
fkuc1쎯	-9.20268
jb쎯ym쎯	-9.20485
sm쎯ud쎯	-9.20489
wt쎯pe쎯	-9.20665
dga쎯pwv쎯bpf쎯	-9.20695
bfw쎯	-9.20722
go쎯thd쎯	-9.20753
gkih쎯wh쎯	-9.20773
yfj쎯	-9.20815
yygt쎯rtol1쎯	-9.20815
trf쎯hko쎯	-9.20838
fwm쎯aib쎯	-9.20856
,rn쎯c쎯	-9.20881
gkip2쎯ya쎯	-9.20995
gcf쎯wynb쎯	-9.21007
jn쎯lt쎯	-9.21035
nt쎯	-9.21177
apl쎯fcl쎯	-9.21309
tr쎯iyc쎯	-9.21475
pu쎯bf쎯	-9.21532
yge쎯	-9.21601
uq쎯jqr쎯	-9.21786
tgh쎯	-9.21888
cep쎯wy쎯	-9.21898
ufy쎯lfhf쎯	-9.21901
yygt쎯itp쎯	-9.22028
do쎯	-9.22083
oe쎯	-9.2225
sym쎯ytyh쎯	-9.22276
apk쎯udyj쎯	-9.22375
yy쎯wgj쎯	-9.22659
ebn0쎯	-9.22705
jvko쎯	-9.22706
khn쎯	-9.22787
vaf쎯wsg0쎯	-9.22807
w쎯od쎯	-9.22815
》j쎯	-9.22911
yv쎯vb쎯r쎯	-9.22997
jcm쎯	-9.23109
so쎯	-9.23182
fwm쎯saj쎯	-9.23191
dd쎯ih쎯	-9.23307
isk쎯ux쎯ith쎯	-9.23318
oat쎯	-9.23395
쎂쎉	-9.23448
khgm4쎯	-9.23463
ip쎯wug1쎯	-9.23472
quj쎯	-9.23488
abu쎯	-9.23493
oi쎯	-9.23597
pww쎯	-9.237
mm쎯	-9.23758
es쎯	-9.23864
tuk쎯	-9.2394
tb쎯	-9.23965
gae쎯qje쎯	-9.23996
oyn쎯	-9.24076
sghg1쎯pv쎯	-9.24189
xyna0쎯lkb쎯	-9.24191
pu쎯khg쎯	-9.24212
ugh쎯	-9.243
b	-9.243
wxm쎯	-9.24325
ytm쎯	-9.24594
ftjo1쎯	-9.24639
b쎯qev쎯	-9.24656
hka쎯qv쎯	-9.24708
dgh쎯wa쎯	-9.24759
yygy쎯anb0쎯	-9.24874
yssd0쎯	-9.24905
pp쎯rg쎯	-9.24925
,gmf쎯	-9.24932
wb쎯r쎯	-9.24941
,bn쎯	-9.24955
fuj쎯	-9.24957
bt쎯	-9.24981
ifh1쎯	-9.25037
xx쎯pfjm1쎯	-9.25096
pl쎯gk쎯	-9.25173
xeg쎯wgk쎯	-9.25231
rrr쎯qc쎯	-9.25238
hwb쎯	-9.25372
euk쎯	-9.25382
wbj쎯tfkp쎯	-9.25392
gip쎯e쎯	-9.25437
sj쎯	-9.25503
etj쎯	-9.25541
io쎯	-9.25762
쎄쎈	-9.25838
ukd0쎯	-9.25846
ypm쎯	-9.25927
ad쎯qqqq1쎯	-9.25927
dn쎯ftjb쎯	-9.25943
》《	-9.25955
jn쎯idr쎯	-9.25999
ime쎯	-9.26027
ym쎯gkip2쎯	-9.26048
iyt0쎯	-9.26061
ge쎯gm쎯	-9.26093
uk쎯bw쎯	-9.2611
k쎯l쎯aw쎯u쎯ipk쎯	-9.26127
,c쎯ey쎯	-9.26135
wn쎯	-9.26141
qf쎯	-9.26299
ryn0쎯	-9.2636
dn쎯js쎯	-9.26367
imj쎯yaa쎯	-9.2639
rj쎯bm쎯	-9.26485
mw쎯apg쎯dgh쎯	-9.26496
,k쎯l쎯	-9.26549
ymf쎯sj쎯	-9.26597
쎃쎈	-9.26644
iie쎯xjm쎯ftj쎯	-9.2668
tdkj쎯ce쎯	-9.26703
cd쎯	-9.26756
tuu쎯	-9.26887
nt쎯edm쎯	-9.26987
xu쎯	-9.27182
od쎯gajf쎯:	-9.27276
dd쎯jg쎯	-9.27431
sff0쎯	-9.27449
bq쎯	-9.27461
naw쎯	-9.27493
rr쎯	-9.27518
wug1쎯lfhf쎯	-9.27586
itf쎯	-9.27587
tfkp쎯	-9.27596
rnr쎯	-9.27616
iagw쎯khu쎯	-9.27679
ai쎯yy쎯	-9.27686
tffy0쎯	-9.27687
bm쎯kkkk0쎯	-9.27808
syg쎯	-9.279
rgf쎯	-9.27944
xyc쎯yf쎯	-9.28011
rmc쎯	-9.28028
ym쎯suq쎯	-9.28046
qkq쎯xjm쎯	-9.28096
swb쎯	-9.28106
wgq쎯	-9.28242
'	-9.28269
fmy1쎯	-9.2828
rb1쎯tfkf1쎯	-9.28387
fge쎯tr쎯qnp쎯	-9.28581
khu쎯gfi쎯	-9.28616
suq쎯lfq쎯	-9.28716
ldd쎯	-9.28719
jcf쎯rf쎯	-9.28743
nnh쎯gl쎯	-9.28791
쎂쎀쎀쎈rh쎯	-9.28936
ipg쎯bm쎯	-9.28983
pyu쎯	-9.29165
bu쎯txi쎯	-9.29204
쎆쎀쎀	-9.29228
bk쎯a쎯	-9.29229
usr쎯xfg쎯	-9.29243
rj쎯tak쎯	-9.29304
mmm쎯aq쎯	-9.29337
ajdf쎯	-9.29372
tg쎯,	-9.29412
i쎯m쎯r쎯	-9.29438
vep쎯	-9.29497
vkgd쎯qi쎯	-9.29554
ftj쎯,	-9.29642
gm쎯d쎯	-9.29676
,dty쎯	-9.29679
tdt쎯	-9.29701
쎇쎅	-9.29778
쎁wh쎯	-9.29889
rrk쎯ip쎯	-9.29944
vs쎯fn쎯	-9.29984
tx쎯lh쎯	-9.3011
udy쎯dyn쎯	-9.30152
<	-9.30196
,bn쎯j쎯	-9.302
vtg쎯	-9.30202
ufy쎯tlf2쎯	-9.30216
my쎯	-9.30305
ws쎯usi0쎯	-9.3047
tsh0쎯	-9.30496
qkd쎯	-9.30544
f쎯rfm쎯	-9.30552
tkw쎯	-9.30642
mw쎯uk쎯	-9.30653
rs쎯tfkp쎯	-9.30669
aps쎯aqt쎯	-9.30739
ih쎯aq쎯	-9.30888
imj쎯	-9.3107
쎂쎀쎀쎀	-9.31118
thd쎯ick쎯aq쎯	-9.31122
ral쎯syp쎯	-9.31166
dfy쎯lt쎯	-9.31186
iugg0쎯	-9.31189
v쎯tf쎯	-9.31206
。wc쎯ngk쎯	-9.31251
aqu1쎯	-9.31319
yw쎯o쎯	-9.31356
쎅eee쎯	-9.31444
rwyg쎯	-9.31496
rvyl쎯	-9.31581
oq쎯	-9.31615
wqin쎯	-9.31686
ghc쎯gyb쎯	-9.31855
wtf쎯wsk쎯	-9.31875
eq쎯	-9.31887
ygu쎯	-9.31917
yf쎯tha쎯	-9.31952
wwf쎯	-9.31957
wny0쎯	-9.31965
hn쎯	-9.31973
inx쎯	-9.32043
wfk쎯	-9.32055
dmjf1쎯	-9.32064
gyg1쎯	-9.32078
xxf쎯og쎯	-9.32138
wf쎯yf쎯	-9.3226
jo쎯	-9.32267
gip쎯j쎯	-9.32393
xyc쎯g쎯	-9.324
kjj쎯	-9.32433
aqq쎯	-9.32478
,et쎯	-9.32506
mqj쎯	-9.32522
etn쎯	-9.32573
fkhk쎯	-9.32634
ltu쎯nnh쎯	-9.32668
rmhj쎯kkk쎯	-9.32735
vck쎯	-9.32742
rpv쎯jvko쎯	-9.32856
tmdf1쎯	-9.32864
ybb쎯	-9.33003
bc쎯tj쎯	-9.33046
qm쎯	-9.33078
atd쎯ip쎯bpf쎯	-9.33104
gx쎯bu쎯mqq쎯	-9.33115
tdn쎯	-9.33125
e쎯uqt쎯	-9.33166
ek쎯uqyl쎯	-9.33186
nge쎯ukq쎯	-9.3319
wk쎯rf쎯	-9.33199
iqn쎯	-9.33275
쎂쎀쎀쎆rh쎯	-9.33277
fku쎯cqw쎯	-9.33392
tqq쎯fcl쎯	-9.33414
fhh쎯	-9.33498
www쎯qq쎯	-9.33584
ieb쎯	-9.33667
kw쎯e쎯	-9.33696
eb쎯ufy쎯	-9.33879
fwm쎯pg쎯	-9.33935
gtu쎯	-9.34004
);	-9.34033
lfnh쎯	-9.34033
...	-9.34043
nf쎯ipg쎯	-9.34065
qrm쎯	-9.34067
pwd쎯bm쎯	-9.34123
tvr쎯	-9.34144
ym쎯k쎯	-9.34183
cf쎯gf쎯	-9.34227
wwkw1쎯	-9.34233
rrg1쎯rbcc쎯	-9.3427
쎃쎇	-9.34323
ijo쎯	-9.34413
pfjs쎯	-9.34431
qc쎯ese쎯	-9.3445
bd쎯rjg0쎯	-9.346
alp쎯	-9.34653
xo쎯	-9.34708
wqu쎯	-9.34722
쎂쎀쎁쎀rh쎯	-9.34782
wg쎯sf쎯	-9.34789
ujn쎯dd쎯tjh쎯	-9.34794
ftb쎯	-9.34806
qk쎯tq쎯	-9.34816
gkih쎯wsg0쎯	-9.34835
we쎯	-9.34851
nua쎯	-9.34875
wyq쎯kkd쎯	-9.34896
’	-9.34901
fjh0쎯	-9.35049
lpdk0쎯	-9.35065
wdn쎯rvyl쎯	-9.35107
xln1쎯qt쎯lfq쎯	-9.35162
yfn쎯ftj쎯	-9.35189
fii쎯go쎯	-9.35222
sghg1쎯uk쎯	-9.35283
wnnp쎯fiy쎯	-9.35292
cbd쎯	-9.35437
,rg쎯	-9.3549
mhkg2쎯	-9.3555
wys쎯k쎯	-9.35563
tkgg0쎯ya쎯	-9.35591
i쎯sk쎯	-9.35594
ruv쎯epc쎯	-9.35651
ifj쎯	-9.3569
tqv쎯pg쎯	-9.35697
dh쎯pgk쎯	-9.35712
vck쎯vfhp1쎯gf쎯	-9.35775
kh	-9.35834
sk쎯ce쎯	-9.35877
r쎯y쎯s쎯	-9.35931
nh쎯adnt1쎯	-9.35931
nm쎯	-9.35933
ay쎯	-9.35942
lw쎯wc쎯	-9.36009
vcb쎯sk쎯	-9.36049
wy쎯kgn쎯	-9.36287
k쎯yygy쎯	-9.36295
afd0쎯	-9.36314
trf쎯gqr쎯	-9.36328
xwy쎯ryn0쎯	-9.36397
atd쎯ax쎯	-9.36401
쎃쎃	-9.36449
sw쎯cwg쎯	-9.36452
di쎯	-9.36598
and쎯	-9.36609
fj쎯tf쎯b쎯	-9.36643
nu쎯	-9.36778
,hw쎯e쎯	-9.36802
ipg쎯	-9.36866
gma쎯	-9.36923
p	-9.36951
쎅쎅	-9.36973
ssn쎯	-9.37148
x쎯cwg쎯	-9.37156
dnv1쎯fqb1쎯	-9.37177
ll쎯,	-9.37212
sm쎯fnrt쎯	-9.37216
fwyc2쎯	-9.37271
nhy쎯	-9.37336
wk쎯ygh쎯	-9.37393
tu쎯rfc쎯fj쎯hi쎯	-9.37403
vcl쎯lt쎯	-9.37586
쎈eee쎯	-9.37594
apl쎯	-9.3763
sksw쎯ma쎯	-9.37634
aft쎯qk쎯r쎯	-9.37681
qg	-9.37725
ipw쎯fkh쎯ymhj쎯	-9.37739
gogn쎯	-9.37748
qv쎯	-9.37844
ymf쎯gkih쎯	-9.37862
tr쎯rfm쎯	-9.37906
pyj쎯x쎯	-9.38029
쎂쎀쎀쎅rh쎯	-9.3805
amd쎯yygy쎯	-9.38053
쎄쎀쎀	-9.3807
ytfp1쎯	-9.38078
kkhn쎯ftj쎯	-9.38102
wtf쎯tl쎯	-9.38209
..	-9.38276
tve쎯qq쎯	-9.38351
쎁쎂eee쎯	-9.38384
bwj쎯wdm쎯	-9.38465
qq쎯wh쎯	-9.38578
iie쎯	-9.38585
dgkn쎯ivs쎯	-9.38588
jhng쎯	-9.38695
,puhc쎯	-9.38696
rfc쎯ce쎯	-9.38711
dn쎯uu쎯gf쎯	-9.38712
gxi쎯rfm쎯	-9.38841
dga쎯	-9.38859
yssc2쎯	-9.38881
ydn쎯	-9.38928
gjq쎯lk쎯	-9.38942
ia쎯sghg1쎯ith쎯	-9.38945
ip쎯ftj쎯	-9.38967
jn쎯ytd쎯	-9.3899
ngj쎯	-9.3902
aft쎯	-9.39181
tgj쎯dd쎯	-9.39212
v쎯dmh쎯	-9.39266
yy쎯pvs쎯	-9.39358
c쎯go쎯	-9.39363
쎂쎀쎀쎇rh쎯	-9.39381
ysi쎯	-9.39445
usg쎯	-9.39494
uthp쎯kht쎯	-9.39607
yvcb쎯	-9.39616
rdfh1쎯	-9.39621
e쎯udh쎯	-9.39651
fd쎯aq쎯	-9.39701
uqwm0쎯	-9.39702
fm쎯uk쎯	-9.39779
drt쎯	-9.39825
nae쎯fi쎯	-9.39835
쎃쎄	-9.39835
ipkr쎯	-9.39837
ghd0쎯ipkh1쎯	-9.39914
bwf쎯	-9.39954
gm쎯wa쎯wx쎯	-9.39963
ngc쎯	-9.39966
y쎯xyna0쎯	-9.39992
wv쎯od쎯	-9.40066
hh쎯	-9.40112
tdp쎯wgk쎯	-9.40148
aft쎯wt쎯	-9.4018
oge쎯kkk쎯	-9.40332
adw쎯px쎯	-9.40357
ab쎯hhhh쎯	-9.40382
god쎯	-9.40405
bw쎯wgg0쎯	-9.40406
cep쎯ipkh1쎯	-9.40422
trf쎯tgh쎯	-9.40456
wycm0쎯	-9.40544
an쎯xn쎯	-9.40793
,ll쎯,ic쎯ytt쎯,	-9.40794
oa쎯	-9.40829
쎈쎀쎀	-9.40918
,y쎯s쎯	-9.40955
gj쎯wynn3쎯	-9.40973
mmm쎯sghg1쎯ith쎯	-9.41032
쎆쎄	-9.41034
yoo쎯	-9.41057
lfo쎯qc쎯	-9.41096
。gm쎯wtf쎯	-9.41137
j쎯d쎯	-9.4114
ggw쎯	-9.41184
fcp쎯apk쎯	-9.412
rdf1쎯	-9.41357
,ld쎯hx쎯	-9.41425
wksf쎯	-9.41505
yo쎯wx쎯	-9.41557
pdc쎯	-9.4164
wk쎯buj쎯	-9.41681
qq쎯uqw쎯	-9.41694
jb쎯wffg쎯	-9.41728
ffuk쎯	-9.41783
alf쎯	-9.41786
쎆쎅	-9.41843
ccc쎯tq쎯	-9.41852
lwg쎯ty쎯	-9.41858
ubtf쎯ou쎯	-9.41877
vvv쎯ntg쎯	-9.42042
dr쎯ou쎯	-9.42086
쎃쎁	-9.42098
tfp쎯	-9.42102
ipm쎯	-9.4217
gk쎯wrh2쎯	-9.42197
rffg쎯	-9.42197
fp쎯tkgg0쎯k쎯	-9.42465
qdm쎯yneg쎯	-9.42501
i쎯j쎯	-9.42631
tie쎯	-9.42649
aw쎯e쎯	-9.42666
mf쎯	-9.42715
mnm쎯	-9.42796
iv쎯f쎯	-9.4281
a쎯tkgg0쎯jgm쎯	-9.4294
gd쎯gh쎯	-9.42987
(wynb쎯	-9.43068
f쎯gh쎯	-9.43145
gog쎯iyt0쎯	-9.43184
tux쎯	-9.43281
ttd쎯	-9.43298
ef쎯	-9.43311
」	-9.43379
lk쎯xk쎯	-9.43394
wnt쎯	-9.43417
ybf0쎯epc쎯	-9.43422
xtf쎯xwy쎯	-9.43556
쎁쎁eee쎯	-9.43564
g쎯rh쎯	-9.43598
,dn쎯o쎯	-9.4367
ygu쎯wwj쎯	-9.43687
vfhp1쎯uu쎯b쎯	-9.43743
ian0쎯	-9.43783
pu쎯et쎯	-9.43794
ycf쎯	-9.43804
tdaf쎯	-9.43806
edm쎯	-9.4387
fl쎯	-9.43876
j쎯k쎯l쎯	-9.44014
fwm쎯st쎯	-9.4411
쎁쎉쎉쎀rh쎯	-9.44398
gd쎯qd쎯	-9.44427
쎄쎂	-9.44433
,qn쎯rtd쎯	-9.44477
쎁쎉쎉쎆rh쎯	-9.44502
쎁쎉쎉쎈rh쎯	-9.44614
xwy쎯wht쎯	-9.44679
ge쎯ipg쎯	-9.44694
쎂쎀쎀쎀rh쎯	-9.44749
tdp쎯et쎯gf쎯	-9.44755
쎆eee쎯	-9.44779
ipg쎯km쎯	-9.44783
▁d쎯	-9.44795
uygh1쎯	-9.44816
uag1쎯	-9.44825
pwat쎯	-9.4489
《k쎯l쎯	-9.44929
qdm쎯	-9.44932
ymf쎯ab쎯	-9.44965
aca쎯	-9.44973
ulg쎯	-9.45136
guw쎯	-9.45162
dd쎯uthp쎯	-9.45203
qkq쎯	-9.4529
wynk쎯jg쎯	-9.45298
tgm쎯aj쎯	-9.45305
g쎯av쎯	-9.4537
op쎯	-9.45375
tg쎯ta쎯	-9.45391
tey쎯pw쎯	-9.45418
fgh쎯fg쎯	-9.4549
fny쎯et쎯	-9.45528
bgu쎯sghg1쎯ith쎯	-9.45529
sh쎯cf쎯	-9.4561
▁쎂、	-9.45689
g쎯xe쎯	-9.4571
,dmj1쎯eg쎯	-9.45717
rpw쎯	-9.45734
wk쎯bwg쎯	-9.45823
du쎯	-9.45869
쎁쎉쎉쎅rh쎯	-9.45882
uqv쎯	-9.45894
▁쎁.	-9.45895
cccs3쎯	-9.45922
tgj쎯yd쎯ymhj쎯	-9.45969
am쎯	-9.45975
ax쎯tr쎯	-9.45992
쎂wh쎯	-9.45996
ux쎯uk쎯	-9.46015
itx쎯iu쎯	-9.46044
c쎯gh쎯	-9.46084
vx쎯	-9.46085
afs쎯	-9.46109
wtuf1쎯	-9.46141
rqc쎯	-9.46156
qkm쎯	-9.46167
uuk0쎯yfn쎯	-9.46214
ny쎯gj쎯	-9.46258
wv쎯bb쎯	-9.46287
ytyh쎯ymhj쎯	-9.4632
gcg쎯	-9.46459
tca쎯	-9.46482
sw쎯sj쎯	-9.46483
「	-9.46518
saj쎯	-9.46608
jat쎯	-9.46669
rj쎯waw쎯b쎯	-9.46688
쎂쎀쎀쎄rh쎯	-9.46731
egc쎯fd쎯	-9.46768
qq쎯rh쎯	-9.46849
ugdu쎯pww쎯	-9.46862
hc쎯efw쎯	-9.46926
쎂쎀쎀쎉rh쎯	-9.46993
ipq쎯	-9.47001
ym쎯tffu쎯	-9.47046
aib쎯	-9.47049
ke쎯	-9.47087
tfkd쎯	-9.47147
su쎯	-9.47193
fcl쎯gl쎯	-9.47247
xa쎯qc쎯	-9.47248
wc쎯aw쎯	-9.47271
khgp0쎯fhg1쎯	-9.47365
jtyq0쎯pg쎯	-9.47382
nla쎯	-9.47421
qge쎯	-9.47463
fny쎯og쎯r쎯	-9.47616
pgf1쎯	-9.47655
gu쎯fqu쎯	-9.47663
lqy쎯	-9.4779
쎁쎉쎉쎇rh쎯	-9.47795
mfk쎯lp쎯	-9.47805
y쎯wtf쎯	-9.47818
xo쎯xfn쎯	-9.47849
xh쎯fj쎯	-9.47863
bm쎯tg쎯	-9.47864
qgb쎯ya쎯	-9.47871
igey쎯	-9.47929
nty1쎯yo쎯	-9.4795
dhb쎯d쎯	-9.48079
vca쎯	-9.48155
eb쎯tl쎯。	-9.48181
。px쎯	-9.48212
ai쎯fm쎯	-9.48216
wbj쎯og쎯	-9.48225
jc쎯	-9.48299
fuj쎯mw쎯	-9.48368
iv쎯jf쎯	-9.48435
xww쎯	-9.48468
rcy0쎯	-9.48577
fcl쎯lt쎯	-9.48629
thl쎯	-9.48658
awx쎯lfq쎯	-9.48701
nny0쎯	-9.48754
,ld쎯	-9.48992
nfp쎯gkip2쎯	-9.49018
xp쎯wgk쎯ntg쎯	-9.49103
쎂eee쎯	-9.49115
gqje쎯	-9.49248
dn쎯sg쎯	-9.49265
pg쎯wug1쎯	-9.49382
gkih쎯wgk쎯	-9.49445
쎃쎉	-9.49467
ipkr쎯rng0쎯	-9.49468
r쎯w쎯	-9.49653
khgp0쎯	-9.49674
pp쎯uj쎯r쎯	-9.49738
o쎯“	-9.49775
yssr쎯	-9.49794
ftbt쎯yce쎯uk쎯	-9.4987
nty1쎯uduk쎯	-9.49902
bgk쎯	-9.49906
rt쎯sy쎯	-9.49937
쎉쎈	-9.49954
ufk0쎯qv쎯	-9.50035
e쎯bv쎯wc쎯ngk쎯j쎯	-9.50085
bn쎯e쎯	-9.50114
gbnm0쎯	-9.50153
nudu쎯	-9.5016
lw쎯gk쎯th쎯	-9.50239
maw쎯	-9.50241
x쎯maw쎯	-9.50299
yygy쎯ujj쎯	-9.5031
ylf0쎯	-9.50315
aqk쎯	-9.50386
qvn2쎯	-9.50422
fl쎯ymf쎯	-9.5043
waye쎯	-9.50433
srm쎯	-9.50435
tfkp쎯gajf쎯	-9.50452
cd쎯ovt쎯	-9.50529
egl쎯	-9.50562
ipw쎯ty쎯	-9.50592
tg쎯wgkb2쎯	-9.50639
ytey쎯	-9.50667
ijlc쎯gl쎯	-9.50736
rpws쎯	-9.50814
rrg1쎯	-9.50889
sft쎯	-9.5096
,sk쎯c쎯	-9.50965
siq쎯	-9.50999
rymn쎯jjjj쎯	-9.51039
쎁쎉쎉쎉rh쎯	-9.51046
au쎯	-9.51086
h쎯,	-9.51102
쎃eee쎯	-9.51124
dn쎯ta쎯	-9.51151
kc쎯	-9.51174
gb쎯	-9.51198
쎁쎉쎈쎅rh쎯	-9.51207
tffu쎯f쎯	-9.5125
aqrn0쎯	-9.51346
dgtg쎯img쎯	-9.51362
ndo쎯tjt쎯	-9.51368
쎉eee쎯	-9.51375
yyq쎯	-9.514
kk쎯	-9.51429
db쎯ukd0쎯	-9.51445
dtb쎯	-9.51492
lwg쎯bm쎯	-9.51526
iv쎯wa쎯	-9.51548
qk쎯。	-9.51597
utk쎯	-9.51635
r쎯dga쎯pwv쎯	-9.51639
gfq쎯	-9.517
rx쎯uwy1쎯	-9.51794
wtr쎯lq쎯adwr쎯	-9.51812
aqb쎯	-9.51842
ujqu쎯	-9.51919
쎄쎃	-9.51949
iie쎯xjm쎯	-9.52012
yn쎯vi쎯	-9.52068
sai쎯	-9.52102
wg쎯ymhj쎯	-9.52122
c쎯go쎯,	-9.52215
sf쎯n쎯	-9.52223
d쎯k쎯l쎯	-9.52242
▁쎃.	-9.52255
ftx쎯jgm쎯	-9.52276
upy쎯	-9.52318
ke쎯nh쎯	-9.52399
gqg1쎯	-9.52424
rlg쎯khev쎯	-9.52471
gef쎯qynm1쎯	-9.52487
cep쎯ynf쎯	-9.52668
ih쎯jf쎯	-9.52692
ym쎯gkip2쎯wc쎯kht쎯	-9.52693
c쎯“	-9.52717
thd쎯fcl쎯wx쎯	-9.52771
pj쎯	-9.52817
,reh쎯e쎯	-9.52974
gy쎯oy쎯	-9.52975
yxu쎯	-9.52992
ltu쎯nnh쎯qnp쎯	-9.53003
pfq쎯uduk쎯	-9.53082
ypeu쎯	-9.53129
yygy쎯pb쎯	-9.53265
ynj쎯	-9.53331
rnn1쎯	-9.53356
qgb쎯nmh쎯	-9.53395
쎁쎉쎉쎂rh쎯	-9.53416
、k쎯l쎯	-9.5351
쎁쎉쎈쎆rh쎯	-9.53512
jn쎯bb쎯um쎯tl쎯	-9.53564
qh쎯tu쎯	-9.53581
imk쎯	-9.53647
g쎯ts쎯	-9.53731
nd쎯wygg쎯	-9.5384
wg쎯egc쎯	-9.53882
,cep쎯fp쎯	-9.53907
쎁쎉쎉쎃rh쎯	-9.53964
ydn쎯wy쎯	-9.53979
tqq쎯	-9.5401
ai쎯sghg1쎯	-9.54046
쎄쎆	-9.54056
vvv쎯bb쎯	-9.5406
toln0쎯	-9.54063
fcl쎯dyn쎯	-9.54074
쎁쎀쎀쎀	-9.54179
adwn0쎯	-9.54275
fdm쎯fiy쎯	-9.54285
ym쎯usr쎯rfc쎯sy쎯	-9.54309
rmc쎯ty쎯	-9.54371
rgd쎯	-9.54401
ycb쎯	-9.54451
tu쎯ip쎯rfc쎯sy쎯	-9.54469
쎁쎉쎈쎉rh쎯	-9.54497
tmd쎯wsg0쎯	-9.54498
egm쎯	-9.54549
쎁쎉쎉쎁rh쎯	-9.54574
gh쎯,	-9.54636
fnud쎯	-9.54665
gkl쎯y쎯wtf쎯	-9.54707
(),	-9.54736
akgl쎯	-9.54741
anh쎯ae쎯	-9.54752
wdy1쎯	-9.54816
uqt쎯	-9.54919
bp쎯ps쎯ith쎯	-9.55038
,qd쎯rg쎯	-9.55058
f쎯fdf0쎯	-9.55073
gfq쎯pe쎯	-9.55253
uwy1쎯	-9.55254
jm쎯	-9.55259
toln0쎯ycf쎯	-9.55298
dd쎯jgm쎯	-9.55302
vfhp1쎯dn쎯	-9.55424
rmhj쎯pg쎯	-9.55432
쎁쎉쎈쎄rh쎯	-9.55433
tdij쎯	-9.55544
fq쎯if쎯	-9.55616
kqy쎯	-9.55652
hnd쎯	-9.55672
kfa쎯	-9.55699
falw쎯	-9.55709
mfky쎯	-9.55715
fiyt쎯	-9.55727
쎄쎄	-9.55742
쎁eee쎯	-9.55743
thn쎯	-9.5577
ivfh1쎯	-9.55784
ftjb쎯e쎯	-9.55793
iwf쎯lw쎯	-9.558
at쎯	-9.55807
tlf2쎯	-9.55858
mhg쎯	-9.55892
m쎯fn쎯	-9.55909
uyiy0쎯	-9.55949
ghd0쎯d쎯	-9.55956
쎁쎉쎈쎈rh쎯	-9.55963
qjq쎯	-9.56048
bv쎯	-9.56051
nua쎯ajdh쎯	-9.56084
trh쎯	-9.5611
:쎁	-9.56124
sksw쎯rt쎯	-9.56131
ymc쎯uu쎯	-9.56181
w쎯wsg0쎯	-9.56197
qtdn0쎯	-9.562
stt쎯ugl쎯	-9.56201
tha쎯	-9.56279
mf쎯ght쎯	-9.56315
쎃wh쎯	-9.56362
fqb1쎯gxi쎯	-9.56374
t쎯yxxr0쎯	-9.5641
ywx쎯ffc쎯	-9.56514
,mj쎯	-9.56527
ufy쎯wht쎯	-9.56549
enr쎯	-9.56569
rfc쎯sy쎯w쎯km쎯	-9.56572
grd쎯	-9.5666
fg쎯xe쎯	-9.56685
tfq쎯fj쎯r쎯	-9.56693
adwe1쎯fjh0쎯	-9.56697
epi쎯il쎯	-9.56712
ishg쎯	-9.56739
bn쎯。”	-9.56887
jghy쎯	-9.56889
qtj쎯trf쎯r쎯	-9.56923
e쎯bv쎯gmu1쎯wtf쎯	-9.56933
sss쎯ss쎯	-9.5695
f쎯gj쎯	-9.57076
쎂쎀쎀쎃rh쎯	-9.57157
fhn쎯go쎯	-9.57205
sf쎯wug1쎯gf쎯	-9.57253
rgm쎯	-9.57253
xh쎯fhn쎯	-9.57284
▁쎂	-9.57332
,yh쎯	-9.57335
le쎯	-9.57363
yvc쎯	-9.57365
xyc쎯	-9.57382
dd쎯pfjm1쎯	-9.57448
bqr쎯uqwn0쎯	-9.57459
wsg0쎯cwg쎯	-9.57515
xln1쎯	-9.57523
rpws쎯fpx쎯	-9.57629
esv쎯	-9.57654
rf쎯	-9.57699
tq쎯kgn쎯	-9.57735
yln쎯	-9.5775
o쎯y쎯,	-9.57775
bp쎯ps쎯	-9.57803
쎄eee쎯	-9.57844
rvk쎯	-9.5792
i쎯wcy2쎯	-9.57954
e쎯sm쎯	-9.57986
iya쎯	-9.58002
vf쎯	-9.58074
쎁쎉쎈쎇rh쎯	-9.58148
je쎯jo쎯	-9.58218
쎁쎉쎉쎄rh쎯	-9.58228
srg쎯	-9.583
ldd쎯pg쎯	-9.58317
bu쎯jel쎯	-9.58461
qev쎯toc쎯	-9.5857
g쎯su쎯	-9.58652
wynn3쎯	-9.58666
ywe쎯on쎯	-9.5871
nty1쎯tfkp쎯	-9.58742
fqu쎯qu쎯	-9.58755
‘	-9.58811
tey쎯	-9.58848
dd쎯pe쎯	-9.58941
dg쎯rh쎯	-9.58964
sgn쎯lfhf쎯	-9.58976
yk쎯	-9.59076
쎂쎀쎀쎂rh쎯	-9.59208
at쎯fmk쎯	-9.59239
dwf쎯	-9.59259
mqc쎯tr쎯	-9.59346
diu1쎯	-9.59479
dmu0쎯	-9.59491
,yynw1쎯	-9.59502
nhj쎯	-9.59504
,p쎯	-9.59521
twf쎯wgk쎯	-9.59534
awf쎯	-9.59586
xf쎯js쎯	-9.59655
alw쎯ytyh쎯	-9.59719
jy쎯cm쎯	-9.59732
gf쎯g쎯wsg0쎯r쎯	-9.59734
jn쎯ib쎯	-9.59753
dcg쎯	-9.59754
jyie쎯pym쎯	-9.59848
wfny0쎯lwg쎯	-9.5985
utem1쎯qc쎯	-9.5985
y쎯jghm1쎯	-9.59878
wnnp쎯	-9.59896
txg쎯rh쎯	-9.59904
쎁쎅쎀	-9.59937
ytn쎯	-9.60057
jjj쎯	-9.60102
ic쎯ytt쎯	-9.60188
jb쎯usr쎯	-9.60322
xan쎯	-9.60364
ipe쎯	-9.60373
kwg쎯qiu0쎯ipr쎯	-9.60374
pwy쎯	-9.60403
sq쎯dn쎯	-9.60408
tduh쎯	-9.6041
ykw쎯	-9.60413
rtol1쎯yt쎯	-9.6042
g쎯pg쎯	-9.60443
by쎯ick쎯	-9.60482
pr쎯qnp쎯	-9.60507
wg쎯ith쎯	-9.60514
jn쎯pym쎯ck쎯	-9.60533
lw쎯ip쎯	-9.60557
khu쎯gfi쎯whw쎯qi쎯	-9.60627
iqpl1쎯	-9.60689
yygy쎯tr쎯	-9.6075
ey쎯jf쎯	-9.6078
j쎯g쎯pe쎯	-9.608
,kha쎯	-9.60916
udg2쎯	-9.60918
tuj쎯ujfj쎯	-9.60948
쎁쎂쎀	-9.61037
whf쎯og쎯。	-9.61079
쎂.쎀	-9.61146
sfh쎯	-9.61153
쎄쎇	-9.61161
afff2쎯	-9.61195
쎁.쎅	-9.61238
udg2쎯it쎯	-9.61277
dga쎯pwv쎯k쎯ny쎯	-9.61311
rnd1쎯	-9.61394
pwr쎯	-9.61427
pu쎯tf쎯	-9.6144
쎅쎂	-9.61561
fj쎯kkkk0쎯	-9.61569
ee쎯dc쎯	-9.61616
ijx쎯wgk쎯	-9.61649
qkk쎯	-9.61658
쎅쎆	-9.61743
vgk쎯	-9.61819
wyo쎯	-9.61825
ul쎯wtf쎯	-9.61847
qf쎯cf쎯	-9.61857
rxj쎯rpl쎯	-9.61868
tep쎯	-9.61964
tcy쎯	-9.61996
sgn쎯wgk쎯	-9.62
a쎯dgt1쎯	-9.6211
jtyl쎯	-9.62133
g쎯pe쎯	-9.6217
,ua쎯eg쎯	-9.62176
bynw0쎯bb쎯	-9.62216
ˋ	-9.62298
ldj쎯	-9.62368
rwyg쎯fj쎯	-9.62416
j쎯c쎯	-9.62436
mpf쎯	-9.62463
jce쎯	-9.62473
wvf쎯	-9.62491
jpx쎯	-9.62514
ipmq쎯	-9.62563
쎄wh쎯	-9.6258
khv쎯	-9.62606
ovt쎯jg쎯	-9.62606
usr쎯r쎯	-9.62631
ym쎯ya쎯	-9.62678
abi쎯	-9.62691
,ww쎯dmj1쎯	-9.62713
,wtf쎯	-9.62719
ㄧ	-9.6274
▁쎃、	-9.62762
,gm쎯wtf쎯	-9.62775
ijx쎯	-9.62801
ynty쎯	-9.62802
wgk쎯dn쎯	-9.62813
em쎯	-9.62861
qlp쎯	-9.6289
yuo쎯	-9.62921
iwt쎯	-9.6297
k쎯uk쎯	-9.62973
wk쎯wvf쎯	-9.62983
ud쎯iy쎯	-9.63108
ga쎯yt쎯	-9.6313
ydm쎯	-9.63138
khgm4쎯ytyh쎯	-9.63205
dr쎯gj쎯	-9.63223
tgj쎯usr쎯	-9.63233
sm쎯、	-9.63298
fny쎯lkb쎯	-9.6334
rep쎯	-9.6339
khd쎯	-9.63421
dd쎯bfm쎯	-9.63502
sfiu0쎯	-9.63517
fi쎯aib쎯	-9.63538
rwyg쎯bm쎯	-9.6355
cf쎯qje쎯	-9.63572
ygu쎯o쎯	-9.63581
blf쎯	-9.63604
w쎯tg쎯	-9.63627
tdp쎯yid쎯	-9.6364
ffc쎯	-9.63678
sgtu쎯	-9.63708
wwf쎯ait쎯gf쎯	-9.63728
khi쎯	-9.63822
tdp쎯jg쎯	-9.63856
aps쎯iwyf2쎯	-9.63867
td쎯qk쎯	-9.63914
wbj쎯lw쎯	-9.63933
jvk쎯	-9.64009
dn쎯ybv쎯	-9.64079
dn쎯yi쎯	-9.64166
wbj쎯vfhp1쎯gf쎯	-9.64229
qq쎯adm쎯	-9.64286
sm쎯rmhj쎯	-9.64286
,gm쎯	-9.64289
fny쎯uyh쎯	-9.64308
wt쎯hka쎯	-9.64328
qaj쎯	-9.64394
쎂.쎅	-9.64405
jy쎯aq쎯	-9.64505
txg쎯wh쎯	-9.64521
ld쎯gxi쎯	-9.64548
xyna0쎯rmhj쎯	-9.64571
dqe쎯pg쎯	-9.64658
,vvv쎯,	-9.6466
et쎯kkk쎯	-9.64691
dga쎯pwv쎯wf쎯	-9.64696
-쎁	-9.64795
kj쎯	-9.64797
쎆쎆	-9.64832
sg쎯tu쎯	-9.64855
gw쎯	-9.64894
tgjn0쎯	-9.6496
r쎯dl쎯kq쎯	-9.65002
i쎯qten0쎯qmq쎯	-9.65069
bt쎯wqa쎯	-9.65147
x쎯iyj쎯ip쎯	-9.65188
gm쎯fnrt쎯	-9.65233
ym쎯uqt쎯	-9.65305
fke쎯	-9.65465
saj쎯gajf쎯	-9.65543
tf쎯ght쎯sf쎯	-9.65555
wwv쎯	-9.65563
cqw쎯qbp쎯	-9.65587
pr쎯	-9.65618
ynk쎯	-9.65631
vk쎯js쎯	-9.65716
sh쎯iv쎯	-9.6574
lt쎯jg쎯	-9.65749
fdm쎯	-9.65813
y쎯tp쎯	-9.65892
ntg쎯r쎯	-9.65899
yny0쎯f쎯u쎯	-9.65904
lft쎯wsg0쎯	-9.6596
》yff쎯:“	-9.65977
kwyg쎯g쎯	-9.66017
gd쎯ivfh1쎯ymhj쎯	-9.66039
iyc쎯tf쎯	-9.66064
amd쎯dcw쎯	-9.66068
st쎯aa쎯	-9.6615
tn쎯	-9.66177
khx쎯	-9.6619
yygy쎯fmud쎯	-9.66204
ssf쎯	-9.66206
dm쎯tm쎯	-9.66263
ai쎯uk쎯	-9.66324
ltu쎯thg0쎯	-9.66329
ㄨ	-9.66336
vq쎯	-9.66407
sw쎯	-9.66453
gmu1쎯wtf쎯	-9.66465
ce쎯idr쎯	-9.66472
yyn1쎯ukd0쎯	-9.66508
th쎯gf쎯	-9.66572
rep쎯cbj쎯	-9.66573
yce쎯	-9.6658
,txg쎯	-9.66599
fof쎯	-9.66613
iaqg쎯	-9.66665
c쎯rg쎯	-9.66758
wbb쎯	-9.66836
hq쎯qnq쎯	-9.6684
oyv쎯	-9.66843
qnr쎯	-9.66879
awb쎯	-9.66883
y쎯yq쎯	-9.67002
ujff쎯	-9.67058
gae쎯dyn쎯	-9.67061
atd쎯tu쎯dd쎯ip쎯	-9.67088
y쎯yam쎯	-9.67105
pw쎯rnb쎯	-9.67181
쎅쎈	-9.67277
▁쎁、	-9.67282
ruv쎯qejy쎯	-9.67288
쎂쎀쎀쎁rh쎯	-9.67313
r쎯ih쎯	-9.67318
mf쎯tl쎯	-9.67373
udyj쎯gqf쎯	-9.67389
tgj쎯s쎯r쎯	-9.67477
aynq쎯	-9.67526
sty0쎯	-9.67706
r쎯fny쎯og쎯	-9.67709
fdf0쎯	-9.67714
qq쎯vaf쎯wsg0쎯	-9.67727
w쎯yygy쎯	-9.67765
qk쎯,	-9.67843
gmww쎯tkh쎯	-9.67875
tx쎯gg쎯	-9.67892
isw쎯	-9.67894
,ul쎯	-9.67944
pu쎯lt쎯	-9.67965
wdn쎯wx쎯	-9.67975
pfq쎯uduk쎯r쎯	-9.68013
쎄쎉	-9.68107
dh쎯pgk쎯r쎯	-9.68172
sks쎯	-9.68174
dt쎯	-9.68292
dyw쎯	-9.68315
ihi쎯ey쎯	-9.68345
thd쎯tmd쎯	-9.68348
lm쎯bd쎯	-9.68372
fj쎯g쎯hi쎯	-9.68417
。mh쎯gf쎯	-9.68508
rwyg쎯fcl쎯	-9.68523
whw쎯qi쎯uk쎯	-9.68541
it쎯rh쎯	-9.68712
yff쎯w쎯	-9.68747
bpf쎯suq쎯	-9.68795
gl쎯pe쎯	-9.68832
uqwm0쎯st쎯	-9.68834
mfk쎯lfnh쎯	-9.68847
hka쎯ufk0쎯	-9.68874
tvfh1쎯	-9.68882
gkm쎯	-9.68945
jhk1쎯	-9.68955
쎂쎀쎁쎁rh쎯	-9.6914
,q쎯wu쎯	-9.69144
》k쎯	-9.69145
db쎯	-9.69155
x쎯ipkh1쎯	-9.6923
nnl쎯	-9.6925
dy쎯bj쎯	-9.69288
fwyf쎯	-9.69351
,vbn쎯	-9.69412
yygt쎯ytyh쎯ymhj쎯	-9.69513
pfq쎯	-9.69532
bl쎯	-9.69577
w쎯fghg쎯	-9.69637
ep쎯nge쎯	-9.6968
toc쎯	-9.69693
rrhy쎯	-9.69755
gu쎯tqdh쎯	-9.69758
wgkl0쎯	-9.6976
tmgk2쎯	-9.69773
▁쎁	-9.69848
jb쎯rg쎯	-9.7007
ld쎯hx쎯	-9.70099
ip쎯dl쎯	-9.70115
ymhj쎯ght쎯ywf쎯	-9.70138
rnu쎯	-9.7016
u쎯kkk쎯rfm쎯jg쎯	-9.70166
쎅쎄	-9.70181
qvfp1쎯	-9.70184
dl쎯wtf쎯	-9.70192
wv쎯qkhh1쎯	-9.70228
saj쎯rny1쎯	-9.70282
usr쎯gajf쎯	-9.70324
ej쎯	-9.70343
py쎯wf쎯y쎯yq쎯	-9.70351
nc쎯	-9.70353
xn쎯wynn3쎯	-9.70358
ccc쎯qk쎯	-9.70379
tffu쎯yy쎯dm쎯	-9.70387
a쎯wt쎯ftj쎯	-9.70403
smu1쎯	-9.70485
thgc쎯sg쎯	-9.70555
×	-9.70564
》tffu쎯。	-9.70573
xeg쎯vfhp1쎯	-9.70573
aqky1쎯	-9.70581
mhr쎯	-9.70864
uwa쎯	-9.70899
uqf쎯pl쎯	-9.70966
aj쎯	-9.70979
iuc쎯	-9.71084
fg쎯tffu쎯uqd0쎯	-9.71092
yi쎯og쎯	-9.71133
pgn쎯wt쎯	-9.71148
uep쎯	-9.71188
qim쎯	-9.71268
wxj쎯ftbt쎯	-9.71362
ygh쎯nnh쎯	-9.71368
wys쎯dn쎯	-9.71369
drin쎯	-9.71395
bwf쎯rp쎯	-9.71406
dr쎯qk쎯	-9.7141
쎁쎉쎈쎂rh쎯	-9.71471
,wjg쎯j쎯	-9.71473
n쎯y쎯	-9.71487
dd쎯ip쎯tg쎯	-9.71494
ftjb쎯ymhj쎯	-9.71506
l쎯qh쎯	-9.71529
&	-9.7154
-쎂	-9.71588
trfh0쎯ggi쎯	-9.71616
hw쎯wsg0쎯	-9.71707
wye쎯rnd1쎯	-9.71742
ypeu쎯wxf쎯	-9.7181
uqwm0쎯u쎯	-9.71894
fd쎯qfhw0쎯	-9.71913
dfny0쎯	-9.72026
pwdj쎯	-9.72049
yc쎯	-9.72058
ujn쎯ykw쎯	-9.72061
ipq쎯bj쎯	-9.72064
dg쎯tffu쎯uqd0쎯	-9.72161
d쎯xg쎯	-9.72161
vv쎯vvv쎯	-9.72175
wfn쎯	-9.72178
g쎯wug1쎯	-9.72215
wfny0쎯》:“	-9.72278
itx쎯rdc쎯	-9.7228
y쎯wsg0쎯	-9.72309
wgk쎯m쎯	-9.72334
ige쎯wa쎯	-9.72344
dn쎯xgm쎯	-9.72382
pgc쎯mw쎯	-9.72391
vb쎯r쎯	-9.72434
fm쎯ux쎯	-9.72452
gkh0쎯	-9.72494
gm쎯qje쎯	-9.72556
aeu쎯	-9.7264
ii쎯ylk2쎯	-9.72885
ymhj쎯xe쎯	-9.72944
tfhy쎯	-9.72963
wkhh쎯	-9.72967
fi쎯	-9.72971
uxe쎯jy쎯	-9.73034
jb쎯jh쎯	-9.73048
gah쎯kkd쎯	-9.7308
nae쎯jtyq1쎯	-9.73184
p쎯su쎯	-9.73225
wfny0쎯vaf쎯	-9.73245
쎈쎅	-9.73326
r쎯jf쎯whn쎯	-9.73335
ta쎯ia쎯	-9.73493
fakg1쎯	-9.73584
vit쎯	-9.73644
goi쎯	-9.7374
xte쎯qfhw0쎯	-9.73786
a쎯wt쎯r쎯	-9.73823
ul쎯x쎯	-9.73888
lgk쎯tmdf1쎯	-9.73889
tfkf1쎯	-9.739
쎂-	-9.73935
waj쎯	-9.73936
v쎯ge쎯ywx쎯yygy쎯	-9.73973
쎀.쎅	-9.7403
lh쎯wh쎯	-9.74061
wyp쎯	-9.74131
ab쎯ce쎯	-9.74202
lkm쎯	-9.74208
ws쎯	-9.74319
xyna0쎯pgn쎯	-9.74369
fyn쎯	-9.74411
uqsg쎯	-9.74421
----------------	-9.74427
pe쎯hw쎯	-9.74511
jyie쎯thg0쎯	-9.74543
ti쎯	-9.74579
fcn쎯	-9.74614
n쎯l쎯	-9.74652
yy쎯dm쎯r쎯	-9.74718
fkue1쎯	-9.74728
pj쎯yf쎯	-9.74734
xy쎯xkw쎯	-9.74736
amw쎯qqqq1쎯	-9.74785
nywf0쎯	-9.74831
ywyg1쎯	-9.74893
rmn쎯	-9.74903
▁:	-9.7491
udr쎯	-9.74956
wxf쎯w쎯n쎯aw쎯t쎯l쎯	-9.75028
txgt쎯	-9.75031
qie쎯	-9.75076
dhc쎯fgi쎯	-9.75077
쎉쎉	-9.75078
fpo쎯	-9.75132
w쎯gk쎯	-9.75195
쎄-	-9.75197
rf쎯xfn쎯	-9.75273
tq쎯kgn쎯。	-9.7529
bde쎯udh쎯	-9.75297
ad쎯gf쎯	-9.7532
xwf쎯gl쎯	-9.75325
bp쎯	-9.75341
pfqf쎯pl쎯	-9.75395
vfhp1쎯yyq쎯	-9.7543
ˊ	-9.75464
tu쎯、	-9.75474
uwy1쎯tlf2쎯	-9.75491
tkh쎯bb쎯	-9.75495
dyn쎯	-9.75665
rb1쎯uthp쎯	-9.75732
wq쎯r쎯	-9.75781
raj쎯ytb쎯	-9.75798
rfc쎯agnn2쎯	-9.75944
yv쎯vb쎯	-9.75972
it쎯ytf쎯	-9.75974
nhj쎯rrr쎯	-9.76016
iy쎯tgj쎯	-9.7602
쎆쎈	-9.76044
lft쎯xf쎯	-9.76117
uth쎯uqw쎯	-9.76161
gc쎯b쎯	-9.76175
jh쎯adwe1쎯	-9.76193
tf쎯fcl쎯	-9.7621
sghg1쎯yy쎯	-9.76216
uk쎯、	-9.76267
pwt쎯	-9.76307
yc쎯wv쎯	-9.76352
jb쎯xtu쎯	-9.76353
쎁쎉쎅쎆rh쎯	-9.76456
iy쎯ujn쎯	-9.76479
wk쎯dhb쎯	-9.76529
sghg1쎯adnt1쎯	-9.76575
tp쎯gj쎯、	-9.76577
ex쎯	-9.76668
tffu쎯xe쎯	-9.7668
uqi쎯	-9.7674
ifw쎯	-9.76752
xtu쎯	-9.76831
w쎯a쎯	-9.76866
ubtf쎯	-9.76921
sh쎯gx쎯	-9.76925
sghg1쎯gyt쎯ah쎯	-9.76948
쎅쎇	-9.77064
wul쎯	-9.7716
dd쎯wf쎯	-9.77169
rhj쎯	-9.77191
itx쎯fm쎯	-9.77256
pl쎯aq쎯	-9.77258
f쎯gfi쎯	-9.77307
wfh1쎯tc쎯	-9.77463
lfo쎯dx쎯ia쎯ith쎯	-9.77504
rwyg쎯adh쎯	-9.77507
dd쎯ddh쎯	-9.77522
gj쎯qev쎯	-9.77568
vii쎯ntk쎯gf쎯	-9.77578
x쎯dl쎯	-9.77599
v쎯rpl쎯	-9.7762
dd쎯lpk0쎯	-9.77644
txi쎯xyc쎯r쎯	-9.77647
lk쎯wgkr2쎯dd쎯	-9.77654
rm쎯	-9.77669
hw쎯tlf2쎯	-9.77825
wgk쎯gj쎯	-9.77879
san쎯	-9.77894
fny쎯tjh쎯	-9.77962
pt쎯yny0쎯	-9.7804
wqu쎯us쎯	-9.78103
쎁쎉쎈쎃rh쎯	-9.78108
mw쎯lfhf쎯	-9.78134
。y쎯s쎯	-9.78143
nnk쎯nnk쎯ta쎯	-9.78145
쎁쎉쎅쎈rh쎯	-9.78156
u쎯kkk쎯r쎯	-9.78183
jel쎯	-9.78192
wcw쎯	-9.78196
▁쎃	-9.78199
ubt쎯	-9.78232
tdd쎯	-9.78323
qnq쎯	-9.78327
j쎯gik쎯	-9.78353
wv쎯yb쎯	-9.7839
ovt쎯rnd1쎯go쎯idr쎯	-9.78392
dnv2쎯	-9.78397
w쎯lt쎯uqwm0쎯idr쎯	-9.78413
vnu1쎯	-9.78423
ft쎯ce쎯	-9.78429
yaf쎯	-9.78471
amw쎯qc쎯	-9.785
i쎯wf쎯	-9.78521
yn쎯ftj쎯	-9.78547
ukqb0쎯qv쎯	-9.78561
ymc쎯yf쎯、	-9.78577
fl쎯yyq쎯	-9.78579
adj쎯	-9.78683
q쎯wu쎯r쎯	-9.78691
uc쎯	-9.78699
lpk0쎯qim쎯	-9.78803
trf쎯ntg쎯	-9.78866
쎈쎈	-9.78921
ovt쎯dcg쎯	-9.78992
rn쎯c쎯	-9.79048
thd쎯q쎯	-9.79049
adn쎯	-9.7907
wye쎯rta쎯	-9.79073
pfi쎯ftbt쎯	-9.79086
gk쎯og쎯ujfj쎯wug1쎯	-9.79129
fmud쎯	-9.79173
mdfj쎯	-9.79191
anu쎯thg0쎯	-9.79213
g쎯yww쎯	-9.79213
ufg쎯	-9.79233
wxd쎯	-9.793
wfkb쎯tdp쎯	-9.79323
jn쎯dfy쎯	-9.79324
gkl쎯ftbt쎯rep쎯	-9.79366
rtol1쎯	-9.79374
dmj1쎯eg쎯	-9.79652
xk쎯ya쎯	-9.79655
쎁-	-9.79661
itf쎯uqv쎯	-9.79679
fu쎯xk쎯	-9.79683
cd쎯ftg쎯	-9.79691
rxj쎯sfi쎯	-9.79717
jn쎯kkd쎯	-9.79737
afd0쎯vij쎯	-9.79745
lg쎯lgm쎯	-9.7978
tp쎯gj쎯nnk쎯	-9.79908
pw쎯ymf쎯	-9.79914
gl쎯dm쎯	-9.79957
vck쎯xtu쎯	-9.8
wycm0쎯fakg1쎯r쎯	-9.80016
dff0쎯	-9.80042
f쎯fhg1쎯	-9.80134
rgf쎯up쎯	-9.80192
nyiy0쎯	-9.80197
eck쎯	-9.8022
wygg쎯pta쎯	-9.8023
ooo쎯lg쎯uh쎯	-9.80249
wyk쎯rg쎯eb쎯tl쎯	-9.80285
g쎯qk쎯	-9.80353
qev쎯yt쎯	-9.80369
wwwk쎯	-9.80369
hid쎯yx쎯	-9.80425
ium쎯	-9.80427
,jb쎯xtu쎯xf쎯js쎯	-9.80462
c쎯dj쎯ya쎯f쎯ltu쎯o	-9.80536
gf쎯dj쎯ya쎯f쎯ltu쎯	-9.80536
vt쎯rnd1쎯o쎯uwy1쎯。	-9.80557
ygh쎯udv쎯	-9.80612
qtq쎯	-9.80614
.("/////	-9.80624
.",(){(	-9.80624
쎁쎀쎀쎀쎀쎈쎀쎁);});	-9.8066
dmj1쎯i쎯	-9.80697
dr쎯ld쎯	-9.80721
mu쎯	-9.80734
cb쎯	-9.80736
쎉쎆	-9.80746
jo쎯aft쎯	-9.80758
iff1쎯	-9.808
쎇쎂	-9.80807
ty쎯tfqp쎯	-9.80818
yc쎯iagw쎯	-9.80851
p쎯j쎯	-9.80889
iyv쎯	-9.80925
awn쎯	-9.80931
쎁쎉쎇쎀rh쎯	-9.80998
egl쎯gj쎯	-9.81085
jtyl쎯imj쎯	-9.81156
l쎯tl쎯bpf쎯	-9.81211
rc쎯jmd쎯	-9.81218
fas쎯fuk쎯	-9.81242
쎈쎆	-9.81259
wfi쎯	-9.81268
dgk쎯	-9.81301
sfhg쎯	-9.81302
jhk1쎯yge쎯	-9.81328
fcl쎯wt쎯	-9.81341
god쎯tgj쎯	-9.81424
yam쎯	-9.81447
hm쎯	-9.81456
un쎯	-9.81457
td쎯uthp쎯	-9.81465
lfq쎯ss쎯	-9.81467
g쎯tffu쎯uqd0쎯	-9.81495
px쎯r쎯	-9.81498
gef쎯it쎯rh쎯	-9.81634
sgmj쎯	-9.81654
si쎯pvs쎯	-9.81658
vyi0쎯	-9.81693
ffff5쎯fyk쎯	-9.81704
쎄쎁	-9.81713
gm쎯pu쎯	-9.81715
”tffu쎯	-9.81749
ryl쎯ta쎯	-9.81759
qe쎯qc쎯	-9.81775
cd쎯lk쎯af쎯wgkb2쎯	-9.81783
jaw쎯	-9.81805
bm쎯tg쎯,	-9.81806
uqwm0쎯ynf쎯	-9.81836
lk쎯rvyo쎯	-9.8187
wbj쎯ujn쎯	-9.81894
ua쎯eg쎯	-9.81947
qtal1쎯	-9.81999
eve쎯	-9.82001
k쎯l쎯aw쎯u쎯ipk쎯,	-9.82065
uth쎯nm쎯	-9.82091
fgu쎯	-9.82106
aup쎯	-9.82129
쎀쎁	-9.82137
쎁쎉쎇쎆rh쎯	-9.8214
lgey0쎯egl쎯	-9.82143
mq쎯bwg쎯	-9.82145
rt쎯wdm쎯	-9.82163
yfn쎯nnh쎯	-9.82271
sgn쎯wrh2쎯	-9.82285
tuj쎯tq쎯	-9.82459
f쎯dm쎯	-9.82523
ipg쎯kjj쎯	-9.82539
ew쎯	-9.82567
vbn쎯r쎯	-9.8259
,eg쎯	-9.82646
fk쎯ss쎯ith쎯	-9.82654
fct쎯	-9.82658
ry쎯dd쎯	-9.82672
cm쎯pwfi쎯	-9.82761
me쎯fggh쎯	-9.82824
fwm쎯tvfh1쎯	-9.82869
쎁쎉쎈쎀rh쎯	-9.82881
dg쎯dd쎯	-9.82917
uvo쎯wtf쎯	-9.82925
쎉쎅	-9.82931
bj쎯iq쎯	-9.82934
mty1쎯	-9.83002
qkqp쎯	-9.83017
ca쎯ndj쎯	-9.83022
,yi쎯	-9.83082
wys쎯lft쎯wc쎯ngk쎯	-9.83091
dpq쎯	-9.8315
uxx쎯	-9.83169
yn쎯fa쎯	-9.83175
fym쎯	-9.83185
oyv쎯wyv쎯	-9.83195
tn쎯nnh쎯	-9.83315
bn쎯。	-9.83401
。ip쎯suq쎯	-9.83418
k쎯uj쎯	-9.83457
atg쎯	-9.8347
qev쎯un쎯yy쎯pvs쎯	-9.83546
xm쎯	-9.83596
쎃rh쎯	-9.83618
tk쎯f쎯	-9.8362
fh쎯tca쎯	-9.83622
nnw쎯qi쎯	-9.83623
,rcn1쎯	-9.83631
wda쎯	-9.83635
iyj쎯fm쎯	-9.83706
itol쎯	-9.83735
sgm쎯	-9.8374
qq쎯pe쎯	-9.83879
tk쎯adm쎯	-9.839
atd쎯jgm쎯	-9.83926
kqb쎯uxh쎯	-9.83939
。wjg쎯	-9.84
itm쎯dd쎯tjh쎯gog쎯	-9.84005
쎁쎉쎇쎈rh쎯	-9.84156
g쎯iyc쎯r쎯	-9.84174
fu쎯ta쎯	-9.84202
mmm쎯ii쎯	-9.84253
cbd쎯by쎯	-9.84271
ia쎯fm쎯	-9.84287
w쎯fqu쎯xgb쎯nh쎯ty쎯	-9.84316
yon쎯	-9.84417
ygu쎯wd쎯	-9.84439
wfny0쎯yu쎯	-9.84443
rtf쎯	-9.84536
pgc쎯、	-9.84555
nui쎯sm쎯	-9.84565
f쎯wug1쎯	-9.84617
jef1쎯	-9.84625
suq쎯ta쎯	-9.84643
aw쎯ybf0쎯	-9.84675
rhf쎯gc쎯	-9.84699
r쎯u쎯kkk쎯	-9.84764
svc쎯wynn3쎯	-9.84851
tg쎯u쎯xg쎯	-9.84869
bwt쎯b쎯	-9.8487
jjjj쎯ipkh1쎯	-9.84889
wwf쎯ait쎯d쎯	-9.84922
ipkh1쎯et쎯	-9.84951
wmg1쎯	-9.84978
yu쎯je쎯	-9.85075
dwg쎯	-9.85138
gx쎯	-9.85138
,gip쎯	-9.85144
r쎯usr쎯	-9.85354
rnb쎯wsg0쎯	-9.85416
dd쎯uk쎯wv쎯	-9.85519
a쎯w쎯	-9.85643
wgk쎯ua쎯	-9.85675
uqwm0쎯sg쎯	-9.85732
쎅쎃	-9.85809
yud0쎯xl쎯	-9.85845
tdp쎯peg쎯	-9.85874
fuf1쎯pyg쎯	-9.85911
tv쎯km쎯	-9.85942
tj쎯gc쎯b쎯	-9.85945
mga쎯	-9.85964
un쎯tgm쎯	-9.85977
br쎯	-9.86048
ymhj쎯aq쎯	-9.86135
쎅wh쎯	-9.8615
쎅쎉	-9.86183
df쎯	-9.86221
,x쎯	-9.86311
sri쎯	-9.8633
dga쎯rmhj쎯	-9.86351
tfkp쎯dn쎯	-9.86354
anb0쎯sy쎯pe쎯	-9.86362
°C	-9.8644
gh쎯fa쎯	-9.86445
gqjo0쎯	-9.86468
wv쎯wc쎯ngk쎯	-9.8656
wfkb쎯	-9.86573
。hx쎯	-9.86579
afd0쎯vij쎯ith쎯	-9.86585
tjt쎯vs쎯	-9.866
nk쎯	-9.86617
쎁쎉쎇쎅rh쎯	-9.86689
g쎯gkp쎯	-9.86742
jtyl쎯rpw쎯	-9.86762
pl쎯bw쎯	-9.86779
ynk쎯fcl쎯	-9.86924
쎅쎁	-9.86936
tdj쎯	-9.86991
pd쎯	-9.87031
,ntk쎯gf쎯mmm쎯aq쎯。	-9.87065
iwf쎯tf쎯	-9.87144
u쎯jg쎯	-9.87158
dhb쎯wyf0쎯	-9.87213
kj쎯qd쎯	-9.87219
쎁쎉쎄쎉rh쎯	-9.87234
쎆쎂	-9.87242
쎁쎉쎆쎄rh쎯	-9.87254
qnu0쎯	-9.87272
cd쎯lk쎯b쎯	-9.87273
txgi2쎯	-9.87325
cel쎯	-9.87336
ftbt쎯rep쎯,	-9.87368
utem1쎯	-9.87381
wh쎯ntg쎯	-9.87381
gmww쎯wmj0쎯	-9.87423
god쎯st쎯	-9.87478
쎁쎉쎆쎃rh쎯	-9.87504
yw쎯fhw쎯	-9.87525
kt쎯	-9.87578
쎁쎉쎆쎈rh쎯	-9.8759
fl쎯egl쎯	-9.87601
ym쎯umd0쎯	-9.87681
lf쎯	-9.87696
qk쎯tq쎯:	-9.8772
nng쎯	-9.87746
uqd0쎯。	-9.87859
kgb쎯	-9.87893
k쎯aw쎯ipk쎯km쎯	-9.87896
v쎯nae쎯r쎯	-9.87898
mw쎯dhb쎯	-9.87903
▁u쎯kkk쎯	-9.8806
iqgg쎯	-9.88067
tfqm1쎯	-9.88078
khgm4쎯ytyh쎯ith쎯	-9.88109
쎅-	-9.88232
d쎯hx쎯	-9.8826
ux쎯yy쎯	-9.88311
lx쎯	-9.8836
,wc쎯ngk쎯	-9.88368
itx쎯pl쎯	-9.8838
itdy쎯	-9.88427
y쎯s쎯ww쎯gk쎯	-9.88447
waw쎯yid쎯	-9.88493
puv쎯k쎯	-9.88507
r쎯tg쎯itd쎯	-9.88549
gqx쎯ynv쎯	-9.88557
bj쎯egc쎯	-9.88569
,ntk쎯	-9.88574
avi쎯	-9.88597
xxm쎯	-9.88607
,ce쎯	-9.88611
kmh쎯	-9.88616
ry쎯nae쎯	-9.88639
gk쎯tl쎯	-9.88666
i쎯khu쎯	-9.88672
,ak쎯	-9.88696
wfh1쎯	-9.88701
gx쎯fcl쎯	-9.88705
cqy쎯nhj쎯	-9.88801
ym쎯tu쎯rfc쎯	-9.8881
icw쎯	-9.88812
쎁쎉쎅쎇rh쎯	-9.88853
yt쎯d쎯	-9.88906
sqj쎯eu쎯	-9.88985
tam쎯	-9.89014
)j쎯	-9.89087
je쎯wa쎯	-9.89096
wyv쎯et쎯	-9.89145
cexo1쎯	-9.89237
qn쎯wynk쎯	-9.89273
쎆wh쎯	-9.8928
쎃-	-9.8929
wqu쎯xgu쎯	-9.89311
xfn쎯	-9.89325
itfk쎯	-9.89341
uejo쎯	-9.89369
dnp쎯	-9.89377
p쎯jfd쎯	-9.89423
쎇쎈	-9.8945
jx쎯	-9.89488
tjs쎯	-9.89514
wgkr2쎯	-9.89519
uth쎯ftjb쎯	-9.89585
tgj쎯jg쎯	-9.89648
ifh0쎯	-9.89693
fwy쎯	-9.89799
pnt쎯ya쎯	-9.89828
sh쎯m쎯	-9.89829
gu쎯yy쎯oy쎯	-9.89853
iry쎯iq쎯	-9.89886
wyv쎯tr쎯	-9.89985
gkf쎯	-9.89998
sq쎯tfkp쎯	-9.90012
hq쎯	-9.90022
wy쎯thn쎯wx쎯	-9.90097
쎆-	-9.90239
tqdh쎯	-9.9024
qejy쎯	-9.90243
,thd쎯	-9.90253
ta쎯iit쎯	-9.90316
mqq쎯h쎯	-9.90318
tfq쎯fj쎯a쎯wt쎯ftj쎯	-9.90331
ykg쎯	-9.90359
cbts0쎯	-9.9038
qi쎯bw쎯	-9.904
oh쎯	-9.90406
lg쎯uh쎯	-9.90407
ge쎯dp쎯	-9.90409
xk쎯dd쎯r쎯	-9.90487
dd쎯bw쎯	-9.90502
gg쎯rh쎯	-9.90533
qtvb쎯	-9.90606
ujfj쎯wug1쎯。	-9.90611
yyn1쎯	-9.90663
lc쎯swc쎯	-9.90672
e쎯g쎯	-9.90693
saj쎯hw쎯	-9.90697
쎆쎇	-9.90705
wj쎯xvk쎯b쎯	-9.90707
j쎯g쎯ffi쎯	-9.90709
px쎯wu쎯	-9.90714
gajh쎯	-9.90719
ltu쎯wqj쎯	-9.90748
l쎯n쎯ipk쎯	-9.90782
fm쎯yy쎯	-9.90856
cad쎯	-9.90867
′	-9.90935
fj쎯hi쎯	-9.90957
ajdh쎯	-9.91052
gku쎯ywfw쎯	-9.91074
ktm쎯	-9.91079
h쎯gh쎯	-9.9109
쎆쎃	-9.91173
쎁쎉쎇쎉rh쎯	-9.91209
fje쎯qgu쎯	-9.91213
gjq쎯usr쎯	-9.91215
rvy쎯	-9.91316
ga쎯rd쎯	-9.91318
ipkh1쎯tl쎯	-9.91321
wye쎯if쎯	-9.91374
,aqt쎯	-9.91453
rnb쎯whn쎯	-9.91497
pwu0쎯	-9.91501
&;	-9.9158
ahtb쎯	-9.91594
mt쎯wh쎯	-9.91604
jlx쎯	-9.9161
ujfj쎯fqb1쎯	-9.9165
mjq쎯	-9.91651
wgk쎯qqqq1쎯	-9.91683
tk쎯wh쎯	-9.91685
wc쎯jfd쎯	-9.91697
tga쎯	-9.91749
rdc쎯	-9.91778
sdw쎯	-9.91791
tgj쎯pym쎯	-9.91826
fj쎯tkgg0쎯	-9.91885
qtd쎯	-9.91936
yff쎯sksw쎯	-9.91937
hjj쎯	-9.91967
isj쎯	-9.92027
gkp쎯go쎯	-9.92073
ss쎯og쎯	-9.92077
쎁쎉쎈쎁rh쎯	-9.92088
itx쎯qh쎯	-9.92101
tg쎯dhb쎯	-9.92125
ftbt쎯dga쎯pgc쎯	-9.92134
tkh쎯od쎯	-9.92136
tx쎯쎂	-9.92154
uth쎯rx쎯	-9.92184
。ul쎯wtf쎯	-9.92228
쎇쎆	-9.92233
ta쎯ya쎯	-9.9225
ywwf쎯	-9.92282
tx쎯uy쎯	-9.92287
rx쎯	-9.9234
udb쎯ytyh쎯	-9.92359
agnt쎯	-9.92374
qt	-9.92441
wc쎯fqb1쎯	-9.92453
hid쎯uthp쎯	-9.92488
mb쎯	-9.92527
tri쎯	-9.92554
2쎯	-9.92584
ryn0쎯gj쎯	-9.92591
oth쎯	-9.92732
jn쎯sm쎯	-9.92737
rg쎯go쎯	-9.92797
lxx쎯wycb쎯	-9.92815
,fq쎯	-9.92817
es쎯bc쎯	-9.92819
yny0쎯ngc쎯	-9.92846
wvl쎯	-9.9285
aet0쎯yygy쎯	-9.92851
yox쎯	-9.92938
ivp쎯	-9.9296
nyi2쎯	-9.92974
qtg쎯	-9.92982
fq쎯xg쎯	-9.93015
sga쎯	-9.93024
wc쎯ga쎯	-9.9309
fnhc1쎯	-9.93119
dd쎯www쎯	-9.93261
쎁쎉쎆쎉rh쎯	-9.93289
g쎯ddu0쎯	-9.93339
khq쎯	-9.9335
jb쎯hw쎯	-9.93353
rb1쎯》	-9.93393
yn쎯nn쎯	-9.93402
tdt쎯w쎯	-9.93416
wsg0쎯txi쎯yw쎯ygh쎯	-9.93419
ga쎯v쎯aq쎯	-9.93467
qjn쎯	-9.93534
ip쎯fghg쎯ip쎯wug1쎯	-9.93547
et쎯go쎯	-9.93557
vfhp1쎯sft쎯	-9.93561
tqt쎯	-9.93572
eud쎯	-9.93586
bib쎯ovt쎯	-9.93605
tjt쎯wgk쎯	-9.93648
bk쎯ce쎯	-9.9371
epw쎯	-9.93726
fnh쎯	-9.93732
g쎯iyc쎯	-9.93799
gjq쎯qk쎯o쎯	-9.93806
ih쎯gajf쎯	-9.93841
tgm쎯ltk쎯	-9.93898
cm쎯www쎯	-9.93931
。ww쎯	-9.93934
쎂쎀쎁쎂rh쎯	-9.93983
rmay쎯	-9.94023
mqc쎯	-9.94024
xjk쎯	-9.94028
,hhhh쎯ue쎯	-9.94032
,ld쎯o쎯	-9.94066
py쎯wf쎯tu쎯ip쎯	-9.94086
aqt쎯uqd0쎯	-9.94099
쎆쎉	-9.94138
cd쎯lk쎯a쎯wt쎯,	-9.94146
ad쎯ld쎯	-9.94158
fh쎯ntk쎯	-9.94188
wdt쎯vb쎯	-9.94189
ym쎯xe쎯ftbt쎯jgm쎯	-9.94198
ifn쎯ivs쎯	-9.94202
usi0쎯	-9.94208
쎁쎉쎆쎂rh쎯	-9.94219
ivs쎯	-9.94223
av쎯dn쎯	-9.94299
tym쎯	-9.943
ce쎯jg쎯	-9.9434
wv쎯uyt0쎯yx쎯	-9.94426
rp쎯rh쎯go쎯	-9.94433
r쎯ad쎯sg쎯	-9.94476
ux쎯yiu쎯dd쎯ip쎯	-9.94531
jgg1쎯	-9.94563
nty1쎯o쎯	-9.94586
hid쎯	-9.94609
nyi2쎯fghy0쎯:	-9.94626
w쎯n쎯tmh0쎯	-9.94635
pta쎯	-9.94649
bu쎯wgk쎯wf쎯	-9.94685
xln1쎯qt쎯	-9.94712
kl쎯qh쎯	-9.94755
lu쎯o쎯	-9.94815
rk쎯	-9.94819
twf쎯	-9.94821
,wb쎯wu쎯	-9.94824
sgyb쎯	-9.94884
fggh쎯okk쎯	-9.94893
jvko쎯thg0쎯	-9.94898
qd쎯rg쎯	-9.94913
yop쎯	-9.94936
qtj쎯trf쎯	-9.94939
iak쎯	-9.94949
쎈쎂	-9.95005
쎁쎉쎆쎆rh쎯	-9.95049
fcr쎯	-9.95064
emc쎯wwv쎯	-9.9508
uft쎯	-9.95085
jf쎯uj쎯:	-9.95185
dm쎯cf쎯	-9.9523
。hhhh쎯ue쎯	-9.95232
tdkj쎯dhd쎯	-9.95262
mw쎯tu쎯	-9.95273
,kgn쎯	-9.95359
mmm쎯egc쎯	-9.95417
qtb쎯	-9.9545
ykw쎯klj쎯	-9.95477
kl쎯	-9.95494
ipwk0쎯	-9.95509
ftg쎯ty쎯	-9.95559
ddh쎯uyh쎯	-9.9557
ddg0쎯	-9.95587
v쎯tmdf1쎯	-9.95644
whn쎯	-9.95721
ln쎯xwy쎯	-9.95734
쎁쎉쎆쎅rh쎯	-9.95768
vfhp1쎯gf쎯	-9.95769
va쎯	-9.95797
v쎯je쎯	-9.9583
qdb쎯	-9.95896
쎁쎉쎇쎂rh쎯	-9.95932
k쎯ax쎯	-9.95983
gki쎯	-9.96014
pwd쎯dhc쎯	-9.96019
ujn쎯yq쎯	-9.96028
nu쎯nxf쎯	-9.96045
bwg쎯	-9.96087
adwn0쎯gcf쎯	-9.96089
lfq쎯aq쎯	-9.96094
ugdu쎯gmy1쎯r쎯	-9.96122
kw쎯j쎯	-9.96151
yw쎯ykw쎯	-9.96172
wj쎯	-9.96224
pe쎯ytt쎯	-9.96249
afs쎯hxf쎯	-9.9628
thd쎯y쎯	-9.96296
쎇-	-9.96324
gu쎯dm쎯	-9.96387
pvs쎯wgq쎯	-9.9643
lw쎯wc쎯pgc쎯y쎯wtf쎯	-9.96434
epi쎯hi쎯	-9.96445
usr쎯lk쎯fhc쎯	-9.96445
pww쎯jqr쎯	-9.96456
wbj쎯uu쎯	-9.96474
pp쎯rg쎯,	-9.96477
xwf쎯	-9.96491
kl쎯g쎯	-9.96529
ip쎯km쎯	-9.96549
gae쎯udy쎯	-9.96562
aak쎯	-9.96564
jn쎯iyc쎯	-9.96565
nnnn쎯e쎯	-9.96571
ugdu쎯gmy1쎯	-9.96587
sk쎯dp쎯	-9.96669
ywwg1쎯	-9.96679
fgh쎯gg쎯	-9.96692
ym쎯dfy쎯	-9.96745
oanw쎯	-9.96815
qhk쎯	-9.96829
쎉쎇	-9.96863
syp쎯	-9.96956
yfj쎯jgm쎯	-9.97004
”o쎯	-9.97054
agnn2쎯	-9.9708
trt쎯	-9.97094
pyuf쎯	-9.971
vfb쎯hxf쎯	-9.97103
al쎯yx쎯	-9.97118
fk쎯ss쎯	-9.97156
dhd쎯	-9.97175
m쎯su쎯	-9.97181
wyc쎯w쎯	-9.97183
gkm쎯wgk쎯	-9.97206
jsd쎯oug쎯	-9.97221
udy쎯ukq쎯	-9.97284
yned쎯	-9.97297
x쎯iyj쎯v쎯nae쎯	-9.97307
nh쎯wys쎯	-9.9734
rny1쎯	-9.97352
wc쎯rtt쎯	-9.97457
fgh쎯rh쎯	-9.97474
lgey0쎯	-9.97543
쎁.쎂	-9.97561
a쎯wt쎯;	-9.9757
qbp쎯	-9.97577
i쎯tj쎯	-9.97604
rh쎯wa쎯	-9.97612
mdff0쎯	-9.97613
쎇쎇	-9.97635
xv쎯wx쎯	-9.97649
qm쎯gmu1쎯w쎯	-9.97667
rn쎯ntk쎯	-9.97676
,iv쎯	-9.97719
iyw쎯wsg0쎯	-9.97731
jn쎯rnb쎯	-9.97767
xwy쎯tg쎯gxi쎯	-9.97782
go쎯idr쎯	-9.97812
▁쎄、	-9.97851
fg쎯fgh쎯	-9.97864
bfm쎯pl쎯	-9.9788
rnnw쎯	-9.97889
iha쎯	-9.97903
ga쎯ymc쎯	-9.97926
gv쎯	-9.97932
tx쎯g쎯wh쎯	-9.98008
gj쎯a쎯dd쎯ip쎯	-9.98076
je쎯jtg쎯	-9.98088
xeg쎯dn쎯r쎯	-9.98125
ys쎯	-9.98132
vfhp1쎯e쎯	-9.98145
sfi쎯uwy1쎯wx쎯	-9.98184
umd0쎯kkkk0쎯	-9.98262
adwr쎯trf쎯	-9.98301
gkih쎯gj쎯	-9.98317
쎇eee쎯	-9.98378
gu쎯dr쎯	-9.98439
dr쎯mj쎯	-9.98443
aah쎯	-9.98464
tvfh1쎯jgm쎯	-9.98484
ynv쎯	-9.98499
,gjq쎯	-9.98584
r쎯《	-9.98627
sfi쎯fn쎯	-9.98642
ii쎯inx쎯	-9.98668
tak쎯xe쎯	-9.98694
ax쎯kkk쎯	-9.98706
,mh쎯gf쎯	-9.98709
kkhn쎯	-9.98716
gaj쎯	-9.98718
wys쎯wsg0쎯	-9.98726
쎁쎈쎀	-9.98732
xpw쎯	-9.98736
egc쎯w쎯n쎯ght쎯ywf쎯	-9.98813
ugh쎯udy쎯	-9.98847
wynk쎯e쎯	-9.98869
hka쎯fghg쎯	-9.98871
po쎯	-9.9889
wxf쎯ai쎯	-9.98891
j쎯wh쎯	-9.98917
g쎯tg쎯	-9.98941
ght쎯fl쎯	-9.98959
d쎯wg쎯l쎯	-9.98991
ra쎯	-9.9901
ad쎯nfc쎯	-9.99028
쎇쎃	-9.99037
uqt쎯yx쎯	-9.991
cep쎯et쎯	-9.99114
g쎯fc쎯	-9.99175
ga쎯ud쎯	-9.99207
rh쎯ya쎯	-9.99272
hwbc쎯	-9.99288
qq쎯rh쎯go쎯	-9.99306
dmd쎯	-9.99313
rh쎯lc쎯	-9.99337
tw쎯	-9.9935
sg쎯kkk쎯	-9.99387
gah쎯ufy쎯	-9.99388
tf쎯og쎯r쎯	-9.99409
iqv쎯	-9.99453
fghy0쎯	-9.99504
pwd쎯	-9.99522
t쎯gu쎯	-9.99538
wjm쎯	-9.99598
lp쎯xxe쎯	-9.99608
gajf쎯kgn쎯	-9.9973
uck쎯qqqq1쎯	-9.99731
dfe쎯	-9.99732
txi쎯gq쎯u쎯kkk쎯	-9.99735
qdb쎯bwg쎯	-9.9976
fgh쎯wty쎯	-9.99788
ls쎯cw쎯	-9.99831
ny쎯gj쎯ip쎯	-9.99857
uqwn0쎯	-9.9988
쎃.쎅	-9.99899
mqc쎯nudu쎯	-9.99967
c쎯ue쎯	-9.99983
rfc쎯	-9.99986
xjm쎯et쎯	-10.0002
fny쎯jghm1쎯	-10.0004
ufw쎯	-10.0005
ipgh쎯ow쎯	-10.0008
。adw쎯k쎯	-10.0016
쎁쎉쎇쎄rh쎯	-10.0018
nty1쎯fj쎯	-10.0021
rnc쎯	-10.0027
iqp쎯	-10.0028
yi쎯wf쎯	-10.0029
qu쎯	-10.0029
acbt0쎯	-10.0033
atd쎯tg쎯	-10.0036
tei쎯	-10.0038
i쎯fp쎯	-10.0041
ripq1쎯rufh1쎯	-10.0044
stt쎯	-10.0046
uth쎯tfq쎯	-10.0046
w쎯n쎯qev쎯yt쎯pl쎯	-10.0046
um쎯sfi쎯	-10.0049
vv쎯	-10.0049
ynnd쎯	-10.005
wc쎯ngk쎯r쎯	-10.0053
qk쎯w쎯	-10.0056
mq쎯jy쎯	-10.0056
qh쎯gae쎯	-10.0057
uxh쎯	-10.0059
rn쎯d쎯	-10.006
lfo쎯dx쎯ia쎯	-10.0061
gjq쎯qq쎯	-10.0061
tx쎯g쎯uqw쎯	-10.0069
:쎂	-10.007
ynma쎯	-10.0075
쎁쎉쎇쎇rh쎯	-10.0078
lh쎯rh쎯	-10.0079
dxy쎯	-10.008
oy쎯,	-10.0085
h쎯ymhj쎯	-10.0086
wgc쎯ty쎯	-10.0087
dn쎯wv쎯	-10.009
wfny0쎯dskf쎯	-10.0091
▁쎄.	-10.0091
d쎯ux쎯yiu쎯	-10.0101
ms쎯	-10.0107
tp쎯uthp쎯	-10.0108
쎇쎄	-10.0108
-쎃	-10.011
tg쎯fcl쎯	-10.0111
vk쎯hx쎯	-10.0112
fd쎯egc쎯	-10.0118
kf쎯thg0쎯	-10.0122
dj쎯rh쎯	-10.0124
fcp쎯wt쎯	-10.0125
uge쎯	-10.0126
gae쎯pww쎯	-10.0126
ii쎯tjh쎯	-10.0126
g쎯gcft2쎯	-10.0128
ftj쎯。	-10.0129
kcb쎯	-10.0134
ovt쎯rnd1쎯ylk2쎯	-10.0138
eb쎯tl쎯kkd쎯	-10.0141
ftx쎯rh쎯	-10.0142
db쎯pt쎯	-10.0147
tom쎯	-10.0148
nhj쎯rrr쎯rfm쎯	-10.0148
ipkh1쎯mqb쎯	-10.0151
r쎯ad쎯dbm쎯h쎯	-10.0153
pv쎯rdj쎯	-10.0165
xkw쎯	-10.0175
dgty쎯	-10.0183
』	-10.0184
wv쎯sgn쎯	-10.0185
kqw쎯	-10.0197
egcn쎯	-10.0198
,aw쎯	-10.02
cep쎯uthp쎯	-10.021
quj쎯udi쎯	-10.0211
ddm쎯	-10.0213
pfq쎯gkih쎯	-10.0215
sg쎯f쎯	-10.0217
dg쎯fgh쎯	-10.0218
rnu쎯wx쎯	-10.0218
〕	-10.022
ap쎯	-10.0221
ijx쎯uxt쎯ffff5쎯	-10.0222
tev쎯	-10.0228
iyc쎯tkgg0쎯	-10.0229
emc쎯sfiu0쎯	-10.0238
rgv쎯	-10.0242
dgt1쎯yny0쎯	-10.0249
viq쎯	-10.0252
pgk쎯e쎯	-10.0255
cal쎯	-10.0259
dmh쎯nnk쎯	-10.0261
qyt쎯	-10.0264
e쎯《	-10.0265
th쎯gj쎯kkd쎯	-10.0266
xg쎯kht쎯	-10.027
fgh쎯dg쎯	-10.027
vfhp1쎯tfkp쎯	-10.0271
fuk쎯	-10.0274
cf쎯qh쎯	-10.0275
pfq쎯ugdu쎯	-10.0278
pds쎯	-10.0281
bwf쎯ntk쎯	-10.0283
wt쎯et쎯。	-10.0286
,pb쎯	-10.0289
쎀.쎁	-10.0289
ukn쎯xyc쎯	-10.0293
amw쎯isk쎯	-10.0293
jb쎯o쎯	-10.0295
hq쎯ds쎯	-10.0297
lh쎯dd쎯	-10.0303
rfw쎯	-10.0304
쎂.	-10.0306
wy쎯et쎯	-10.0312
jvko쎯je쎯	-10.0312
ep쎯vb쎯ftj쎯	-10.0318
um쎯qyv쎯	-10.0322
lgey0쎯nf쎯	-10.0324
fj쎯wht쎯	-10.0324
af쎯	-10.0327
ukk쎯	-10.0329
ul쎯d쎯	-10.0331
fp쎯fcu1쎯	-10.0333
rvyf쎯	-10.0341
qvfp1쎯tel쎯	-10.0351
pe쎯nd쎯	-10.0353
쎁쎉쎆쎀rh쎯	-10.0354
vvf0쎯	-10.0358
dn쎯b쎯	-10.0363
infy쎯	-10.0365
nh쎯vi쎯	-10.0373
fny쎯tu쎯	-10.0375
쎁쎉쎅쎄rh쎯	-10.0381
aqt쎯tj쎯b쎯	-10.0387
tffu쎯qq쎯tkh쎯	-10.0389
egc쎯ght쎯ywf쎯	-10.0391
wdn쎯ugdu쎯	-10.0396
jcf쎯	-10.0397
deb쎯	-10.0404
dm쎯tkw쎯쎂	-10.0407
sc쎯dgv쎯	-10.0409
쎁쎉쎇쎃rh쎯	-10.0409
wfd쎯	-10.0412
o쎯pt쎯yne쎯rj쎯waw쎯	-10.0413
wv쎯wf쎯	-10.0414
qmq쎯qr쎯	-10.0415
,ua쎯d쎯	-10.0416
ym쎯ijl쎯	-10.0419
dgj쎯tel쎯	-10.042
uxt쎯	-10.0426
iqc쎯cep쎯	-10.0427
rfq쎯	-10.0429
wtfm3쎯waj쎯	-10.0431
ue쎯rg쎯	-10.0438
rep쎯sc쎯	-10.0439
ynm쎯	-10.044
nnh쎯tdij쎯	-10.0442
lw쎯gj쎯	-10.0444
dl쎯kq쎯h쎯	-10.0445
ians0쎯uthp쎯	-10.0449
pei쎯og쎯dd쎯ip쎯	-10.045
vi쎯ujf쎯	-10.045
쎁쎉쎅쎅rh쎯	-10.0451
ip쎯wug1쎯。	-10.0454
bb쎯,	-10.0456
쎇쎉	-10.0456
v쎯fcl쎯sm쎯	-10.0459
temq1쎯	-10.0459
o쎯y쎯r쎯	-10.0459
”t쎯“	-10.0459
wht쎯nty1쎯	-10.0461
epi쎯	-10.0468
ig쎯	-10.0469
iie쎯by쎯	-10.0471
uejv쎯	-10.0473
gmf쎯uqw쎯	-10.0475
tuh쎯	-10.0481
yff쎯yngk0쎯	-10.0485
wy쎯iwyf2쎯	-10.0487
fny쎯og쎯tv쎯km쎯wf쎯	-10.0494
caq쎯fcl쎯	-10.0497
gae쎯dn쎯b쎯	-10.0503
,tfq쎯rg쎯	-10.0503
jgm쎯aib쎯ip쎯bpf쎯	-10.0507
tgm쎯	-10.0508
쎂쎅쎀	-10.0508
rs쎯qgb쎯	-10.0512
i쎯s쎯	-10.0514
jn쎯kht쎯	-10.0517
djd쎯iyt0쎯	-10.0522
fqu쎯o쎯	-10.0525
ym쎯si쎯	-10.0529
lwg쎯	-10.0532
jfd쎯,	-10.0532
쎁쎆쎀	-10.0533
ipkm0쎯	-10.0535
qe쎯ya쎯	-10.0537
w쎯ovt쎯	-10.0538
qqk쎯	-10.0539
vtk쎯wsg0쎯	-10.0543
쎁rh쎯	-10.0547
xh쎯nf쎯	-10.0551
qnq쎯wyv쎯	-10.0552
fqp쎯tkgg0쎯	-10.0554
ige쎯jsr쎯	-10.0554
쎀쎀	-10.0555
xgu쎯us쎯	-10.0556
쎂쎀쎁쎁	-10.0569
쎈쎇	-10.057
ige쎯ii쎯	-10.057
,g쎯tem쎯	-10.0571
wt쎯og쎯	-10.0573
bg쎯jtg쎯	-10.0576
od쎯wny0쎯	-10.058
pu쎯og쎯	-10.0581
)、《	-10.0582
rae쎯	-10.0583
pntj쎯	-10.0588
amd쎯fghy0쎯	-10.0591
ur쎯	-10.0596
fhg1쎯	-10.0603
jy쎯hko쎯	-10.0604
쎈wh쎯	-10.061
pp쎯ue쎯	-10.0615
nj쎯	-10.0616
qdt쎯	-10.0617
uqt쎯yid쎯	-10.0618
xtdh0쎯	-10.0619
wfy쎯	-10.062
bm쎯thd쎯	-10.0621
ybf0쎯e쎯	-10.0622
nj쎯ntg쎯	-10.0622
gm쎯o쎯	-10.0626
fhw쎯pu쎯	-10.0628
qh쎯cm쎯	-10.0629
nii1쎯	-10.0629
yid쎯yynw1쎯	-10.0631
()j쎯	-10.0631
dr쎯vck쎯	-10.0633
rn쎯yle쎯	-10.0643
dd쎯tffh1쎯	-10.0649
cqw쎯	-10.0653
pu	-10.0654
r쎯yy쎯if쎯	-10.0655
fhw쎯ghd0쎯	-10.0655
shi쎯	-10.0656
ipk쎯fc쎯uk쎯	-10.0656
uk쎯wug1쎯	-10.0658
wwg쎯	-10.0659
begg쎯	-10.066
yygy쎯tr쎯wk쎯ryn0쎯	-10.0661
e쎯hxf쎯	-10.0662
iyc쎯jg쎯	-10.0664
,ym쎯	-10.0668
nnnn쎯dn쎯o쎯	-10.0671
iv쎯rh쎯	-10.0671
o쎯y쎯。	-10.068
▁nua쎯ajdh쎯	-10.0681
ese쎯qc쎯	-10.0685
g쎯adm쎯	-10.0689
wdn쎯te쎯ftbt쎯jgm쎯	-10.0689
if쎯ip쎯	-10.0691
rlg쎯ck쎯	-10.0692
ip쎯sy쎯ywx쎯yygy쎯	-10.0695
dfek쎯	-10.0697
te	-10.0703
h쎯xe쎯	-10.0706
쎀.쎀	-10.0709
nnk쎯ta쎯	-10.0713
bv쎯rmhj쎯	-10.0715
ssk쎯	-10.0715
jfd쎯r쎯	-10.0716
wgen1쎯	-10.0726
r쎯dd쎯gajf쎯	-10.0726
ltu쎯pvs쎯	-10.0728
▁(	-10.0728
nnh쎯yn쎯	-10.0729
gmww쎯rh쎯	-10.0734
rqn쎯	-10.0742
bm쎯b쎯	-10.0742
aws쎯kf쎯	-10.0743
gkim0쎯	-10.0745
,fcb쎯	-10.0746
telb쎯	-10.0748
wb쎯wu쎯r쎯	-10.075
쎉쎄	-10.0752
▁sg쎯	-10.0752
gmw쎯	-10.0755
bk쎯tq쎯	-10.0755
lt쎯ip쎯	-10.076
rd쎯nae쎯	-10.0766
rnb쎯qje쎯	-10.0774
jjjj쎯adwe1쎯:	-10.0776
am쎯fmud쎯	-10.0779
qgo쎯	-10.078
lftj쎯	-10.0782
r쎯f쎯yy쎯	-10.0782
sm쎯kkd쎯	-10.0791
ukn쎯wc쎯ngk쎯	-10.0799
kfg쎯	-10.0799
xxf쎯og쎯rg쎯	-10.08
vf쎯ra쎯	-10.08
pnt쎯fffy쎯	-10.0807
ftg쎯pwfi쎯	-10.0814
whf쎯	-10.0816
nf쎯gcft2쎯	-10.0817
f쎯aq쎯r쎯	-10.0817
gkp쎯wycm0쎯	-10.0817
ydjn1쎯	-10.0817
wgk쎯st쎯	-10.0818
nui쎯tf쎯	-10.0819
쎈쎄	-10.0822
fwm쎯	-10.0822
sq쎯vfhp1쎯	-10.0826
yta쎯gh쎯	-10.0841
jqb쎯	-10.0846
pyg쎯ytyh쎯	-10.0846
egc쎯tv쎯	-10.0849
r쎯yy쎯aa쎯	-10.0852
lqj쎯	-10.0853
wyl쎯	-10.0856
nhd쎯	-10.0856
eb쎯qnth쎯	-10.0857
hka쎯tmc쎯	-10.0858
rg쎯adwe1쎯	-10.0859
쎈쎉	-10.0862
쎇쎀쎀	-10.0867
trs쎯trtg쎯	-10.0868
cds쎯	-10.0872
usr쎯vfhp1쎯	-10.0877
atj쎯	-10.0878
ygh쎯je쎯	-10.0879
qgh쎯	-10.0882
nmh쎯	-10.0889
tu쎯ip쎯ad쎯qqqq1쎯	-10.0894
yynw1쎯suq쎯	-10.0897
tfq쎯fj쎯wh쎯w쎯	-10.0901
b쎯。	-10.091
tg쎯dn쎯	-10.091
tv쎯gkl쎯nnh쎯yn쎯	-10.0912
uqsg쎯img쎯	-10.0918
tld1쎯iyw쎯	-10.0918
tffu쎯tffu쎯	-10.092
dn쎯ftjb쎯ymhj쎯	-10.092
m쎯hi쎯	-10.092
wcn쎯	-10.0921
tmh0쎯	-10.0921
mdf쎯dgtg쎯	-10.0922
ud쎯ab쎯	-10.0923
rh쎯hwbc쎯	-10.0925
k쎯mmm쎯	-10.0927
():	-10.0928
fnrt쎯rn쎯	-10.0931
쎁쎉쎅쎂rh쎯	-10.0934
uwy1쎯dqe쎯	-10.0935
y쎯s쎯j쎯	-10.0936
apg쎯dgh쎯	-10.0936
mqi1쎯	-10.0937
teg1쎯	-10.0943
,yt쎯ty쎯	-10.0943
,f쎯th쎯	-10.0943
k쎯l쎯tu쎯ip쎯bpf쎯	-10.0945
tga쎯fh쎯	-10.0945
bwj쎯	-10.0945
rmhj쎯dn쎯	-10.0947
awsk쎯	-10.0955
anu쎯	-10.0957
fg쎯rh쎯	-10.0958
r쎯dd쎯	-10.0962
qty1쎯	-10.0968
쎆쎁	-10.0969
ll쎯bb쎯	-10.0969
dga쎯pwv쎯km쎯	-10.0972
auqw쎯	-10.0972
agq쎯	-10.0976
awv쎯	-10.0979
nae쎯ga쎯	-10.0984
ymc쎯yf쎯jgm쎯	-10.0999
ua쎯i쎯	-10.1
uj쎯,	-10.1
kw쎯ce쎯	-10.1002
,you1쎯	-10.1003
ra쎯gc쎯	-10.1003
gmiu쎯	-10.1008
cbq쎯	-10.1009
wgk쎯ec쎯	-10.1012
wgu쎯	-10.1014
etg쎯tjh쎯	-10.1023
wam쎯ffi쎯	-10.1031
uqt쎯uwl쎯	-10.1033
r쎯a쎯wt쎯	-10.1034
jtyq0쎯	-10.1035
wc쎯pjm쎯	-10.1038
a쎯og쎯dd쎯ip쎯	-10.1042
jn쎯pym쎯ndj쎯	-10.1044
utd쎯	-10.105
gyiy쎯	-10.1055
wfny0쎯xyc쎯r쎯	-10.1059
imj쎯pg쎯	-10.106
vp쎯	-10.1066
mt쎯tuh쎯	-10.1066
bf쎯	-10.1069
rs쎯ga쎯	-10.1069
uo쎯ynm쎯	-10.1069
eerq쎯	-10.107
riq쎯hka쎯	-10.1074
pv쎯egc쎯	-10.1076
쎁쎉쎅쎀rh쎯	-10.1079
ps쎯ihc쎯	-10.108
nnw쎯rgv쎯	-10.1083
k쎯e쎯	-10.1086
wycb쎯	-10.1088
a쎯tkgg0쎯ip쎯bpf쎯	-10.109
pvs쎯wrh2쎯	-10.1091
oge쎯amd쎯	-10.1091
qq쎯al쎯ce쎯	-10.1093
xkjn1쎯	-10.1096
yvi쎯tjt쎯	-10.1096
oja쎯	-10.1098
쎁쎉쎅쎉rh쎯	-10.11
g쎯uk쎯	-10.11
r쎯wt쎯et쎯	-10.1102
쎈-	-10.1102
”j쎯	-10.1105
nfc쎯uqw쎯	-10.1105
ngk쎯if쎯	-10.1106
쎁쎂쎈	-10.1106
yssc2쎯if쎯	-10.1106
,rj쎯ym쎯	-10.1108
tfpd쎯	-10.111
itd쎯fcl쎯,	-10.1111
pym쎯ipmq쎯	-10.1112
ie쎯	-10.1121
c쎯o쎯	-10.1121
쎉쎃	-10.1126
,lk쎯	-10.1131
k쎯qh쎯	-10.1132
iyw쎯dfy쎯	-10.1135
ai쎯fm쎯gog쎯	-10.1136
gjq쎯qq쎯r쎯	-10.1138
q쎯r쎯	-10.1139
fwm쎯mj쎯	-10.1141
쎂쎀쎀쎈	-10.1142
bm쎯ffff5쎯	-10.1142
gh쎯lpdk0쎯	-10.1146
k쎯sghg1쎯atd쎯	-10.1155
jgf쎯	-10.1161
py	-10.1164
klj쎯jfcf쎯	-10.1168
fgi쎯	-10.1169
ukqb0쎯pfjm1쎯	-10.1172
ovt쎯fgh쎯	-10.1173
r쎯eb쎯tl쎯	-10.1181
vo쎯itd쎯	-10.1183
wc쎯pv쎯	-10.1188
wc쎯jfd쎯,	-10.1188
tx쎯쎁	-10.119
xk쎯wx쎯	-10.1193
et쎯wtp쎯	-10.1195
qmq쎯ggw쎯	-10.1195
qtb쎯ldj쎯	-10.12
v쎯yce쎯	-10.1202
fny쎯aft쎯	-10.1203
g쎯hko쎯	-10.1208
rg쎯r쎯	-10.1211
yb쎯bb쎯	-10.1217
asg쎯	-10.1217
xx쎯wgq쎯	-10.1218
,k쎯aw쎯ipk쎯km쎯,	-10.1218
쎂쎀쎁쎃rh쎯	-10.1227
tdp쎯	-10.1227
ijl쎯riu쎯	-10.1229
ntg쎯rfm쎯	-10.1233
jx쎯jhny쎯	-10.1234
。ul쎯	-10.1236
udng쎯	-10.1238
쎈쎃	-10.1239
vcn0쎯	-10.1244
。“	-10.1248
ftl쎯	-10.1251
k쎯yygy쎯txi쎯	-10.1255
gh쎯ymc쎯	-10.1255
쎁쎉쎇쎁rh쎯	-10.1257
,lk쎯ty쎯	-10.1257
g쎯fnrt쎯	-10.1259
ugdu쎯sy쎯ip쎯bpf쎯	-10.126
oge쎯pnt쎯	-10.1261
ians0쎯	-10.1269
emc쎯wwv쎯e쎯bv쎯	-10.1277
wh쎯wsg0쎯	-10.1288
iq쎯ip쎯	-10.1288
ivg쎯	-10.1291
uw쎯	-10.1295
jtyl쎯hich쎯tp쎯gj쎯	-10.1304
tgv쎯bd쎯	-10.1305
mwy쎯	-10.1308
ruv쎯kkkk0쎯:	-10.1308
gmww쎯uqw쎯	-10.1309
rnnw쎯pgn쎯	-10.131
sf쎯、	-10.1313
wyn쎯	-10.1316
xyx쎯	-10.1317
iry쎯	-10.1317
tep쎯je쎯	-10.133
dj쎯vtg쎯	-10.1333
sd쎯	-10.1338
fhu쎯tm쎯	-10.1339
h쎯e쎯	-10.1339
js쎯pu쎯	-10.1344
fgh쎯uy쎯	-10.135
fhv쎯xe쎯	-10.1355
ukn쎯x쎯gj쎯	-10.136
》r쎯	-10.1366
dfi쎯	-10.1369
ahnh0쎯	-10.1369
wfny0쎯》	-10.1372
rkk쎯wt쎯txi쎯xyc쎯	-10.1372
ugk쎯	-10.1373
hhhh쎯r쎯	-10.1373
tfj1쎯	-10.1374
qqc쎯	-10.1376
쎃쎀쎀쎀	-10.1379
dhq쎯	-10.1385
rh쎯uj쎯	-10.1388
vcb쎯sk쎯。	-10.1389
xeg쎯xkw쎯pu쎯ytb쎯	-10.1391
d쎯p쎯jfd쎯	-10.1393
td쎯ykw쎯u쎯sc쎯	-10.1398
쎃.	-10.1398
egc쎯xe쎯	-10.14
wtr쎯	-10.14
nnk쎯gkl쎯nnk쎯ta쎯	-10.14
aw	-10.1405
b쎯g쎯wh쎯	-10.1406
ipw쎯ya쎯	-10.1407
wsg0쎯gm쎯	-10.1407
ypk쎯	-10.1408
gef쎯dw0쎯	-10.1409
wjg쎯j쎯	-10.1409
pnt쎯dcg쎯	-10.141
x쎯iyj쎯ukn쎯nh쎯ty쎯	-10.1417
pwfi쎯	-10.1418
쎉쎂	-10.1418
std쎯ivw쎯	-10.1421
tffu쎯bk쎯。	-10.1423
ugdu쎯wyv쎯	-10.1425
kt쎯ke쎯	-10.1428
pynk쎯	-10.1429
yi쎯sk쎯c쎯	-10.1435
ijl쎯ytyh쎯	-10.1435
쎀쎅	-10.1436
r쎯jf쎯uj쎯	-10.1437
fhn쎯yq쎯	-10.1439
fqu쎯e쎯	-10.144
yca쎯	-10.1444
tjh쎯uwl쎯	-10.1449
uqwl쎯	-10.1455
lwg쎯udp쎯	-10.1456
itd쎯fcl쎯。	-10.1457
puv쎯adwe1쎯	-10.1462
j쎯“	-10.1467
temk쎯ter1쎯	-10.1468
ygk쎯yygy쎯	-10.147
ipk쎯tv쎯	-10.1471
wycm0쎯tfq쎯	-10.1471
il쎯	-10.1473
whf쎯og쎯r쎯	-10.1482
sgn쎯tlf2쎯	-10.1483
lkb쎯	-10.1487
,wkh쎯fj쎯	-10.1493
tn쎯nnh쎯ta쎯	-10.1502
udy쎯,	-10.1512
g쎯gh쎯	-10.1512
쎁쎉쎅쎃rh쎯	-10.1513
uqwm0쎯ipw쎯	-10.152
yf쎯jg쎯	-10.1521
tffu쎯pei쎯wt쎯tr쎯。	-10.1524
hk쎯f쎯	-10.1525
xcy쎯	-10.1526
쎉쎀쎀	-10.153
bc쎯tj쎯b쎯	-10.1531
ruv쎯nh쎯	-10.1533
ad쎯uk쎯	-10.1537
wfny0쎯dgkn쎯kkd쎯	-10.1538
lu쎯dd쎯	-10.1538
by쎯hh쎯	-10.1539
ftbt쎯pgc쎯	-10.154
kkkk0쎯epw쎯	-10.1541
qh쎯l쎯	-10.1542
gd쎯f쎯	-10.1543
。p쎯	-10.1543
sad쎯	-10.1545
rxj쎯pg쎯	-10.1547
txi쎯xyc쎯、	-10.1548
wdn쎯ahty쎯	-10.1548
if쎯fwm쎯	-10.1548
es쎯mqc쎯	-10.1549
sfiq쎯	-10.1551
puhc쎯tq쎯o쎯	-10.1553
ih쎯qt쎯	-10.1554
sk쎯mqb쎯	-10.1555
sgy쎯	-10.1555
tv쎯rta쎯	-10.1558
bbh쎯	-10.1558
쎂쎀쎀쎆	-10.1558
ftbt쎯rep쎯。	-10.156
uqd0쎯ddnl쎯	-10.156
iyc쎯fcl쎯	-10.156
g쎯wdm쎯	-10.1561
dd쎯std쎯	-10.1564
pyv쎯	-10.1566
alw쎯bu쎯	-10.1569
qqw쎯	-10.1569
ojf쎯	-10.1569
sup쎯	-10.1576
rfm쎯jg쎯tp쎯gj쎯	-10.1576
qk쎯:	-10.1576
xef쎯	-10.1577
tg쎯u쎯r쎯	-10.1582
qqq쎯	-10.1586
buj쎯djg쎯	-10.159
wc쎯y쎯	-10.1595
faf1쎯	-10.16
g쎯rx쎯	-10.1601
qk쎯o쎯	-10.1604
ntg쎯t쎯	-10.1605
wvf쎯tmd쎯	-10.1611
jn쎯xjt쎯	-10.1611
:쎃	-10.1612
tx쎯ag쎯	-10.1614
udyj쎯tg쎯	-10.1617
afi쎯	-10.1621
쎁kgn쎯	-10.1622
ain쎯	-10.1627
ii쎯tev쎯	-10.1627
kwyg쎯	-10.1629
djdn2쎯	-10.1633
gh쎯ntk쎯	-10.1634
dy쎯gu쎯	-10.1634
bk쎯tl쎯	-10.1635
dif쎯	-10.1635
ojf쎯ruv쎯	-10.1636
yvk쎯	-10.1646
ugm쎯w쎯	-10.1646
★	-10.1648
mc쎯mrg0쎯	-10.1648
nk쎯qkq쎯	-10.1651
trf쎯tkh쎯	-10.1651
nv쎯	-10.1654
gah쎯ic쎯ymhj쎯	-10.1656
±	-10.166
dif쎯f쎯	-10.166
hic쎯	-10.1662
wfg1쎯	-10.1667
gc쎯dp쎯	-10.167
jtyl쎯pwfi쎯	-10.1677
wxm쎯tmh0쎯	-10.1677
awx쎯faj쎯	-10.168
awsk쎯uff쎯	-10.1681
쎁쎉쎆쎁rh쎯	-10.1683
ukn쎯uk쎯	-10.1683
f쎯gj쎯wug1쎯lfhf쎯	-10.1688
e쎯g쎯wh쎯	-10.1689
d쎯l쎯mw쎯	-10.1693
lfn쎯rq쎯	-10.1696
mfk쎯adwe1쎯	-10.1697
dw0쎯to쎯	-10.1698
yo쎯dn쎯	-10.17
e쎯:	-10.1703
f쎯ltu쎯	-10.1707
쎁.쎀	-10.1709
1	-10.1711
uk쎯,	-10.1717
a쎯um쎯	-10.1722
ajt쎯qc쎯	-10.1722
mhh쎯	-10.1724
ajq쎯	-10.1727
itp쎯	-10.1729
ijlc쎯	-10.1731
jyie쎯wqj쎯	-10.1731
jgm쎯tg쎯	-10.1733
。sg쎯nnh쎯	-10.1733
쎀쎂	-10.1734
doq쎯	-10.1735
tg쎯jjjj쎯	-10.1736
pg쎯yq쎯	-10.174
lw쎯if쎯	-10.175
x쎯gj쎯	-10.1755
---	-10.1759
ige쎯wxf쎯dd쎯ip쎯	-10.1762
kkfb1쎯	-10.1769
ugk쎯shi쎯	-10.1771
wqbh쎯	-10.1771
j쎯g쎯rn쎯	-10.1774
,vfhp1쎯tam쎯	-10.1776
k쎯l쎯aw쎯u쎯ipk쎯。	-10.1776
uthp쎯tfl쎯	-10.1776
쎅rh쎯	-10.1777
kkh쎯	-10.1783
0	-10.1784
dfa쎯	-10.1788
dr쎯bb쎯	-10.1789
mfky쎯ynt쎯	-10.1793
rma쎯	-10.1795
gk쎯tr쎯	-10.1802
txg쎯g쎯	-10.1805
》t쎯《	-10.1805
yynw1쎯sf쎯	-10.1805
dgkn쎯ipmq쎯	-10.1806
ith쎯ymhj쎯	-10.1809
yny0쎯f쎯u쎯ga쎯v쎯	-10.1812
xeg쎯dn쎯。	-10.1812
dnv1쎯gu쎯yy쎯oy쎯,	-10.1813
wv쎯sfc쎯	-10.1815
dm쎯ow쎯	-10.1818
puw쎯	-10.1819
dr쎯wbj쎯	-10.1819
ecl쎯	-10.1822
yuvo0쎯	-10.1825
qnr쎯yhk쎯	-10.1827
:《	-10.1829
oft쎯	-10.183
tg쎯u쎯ad쎯f쎯	-10.1831
wht쎯tjt쎯	-10.1832
uji1쎯	-10.1837
》aqt쎯	-10.1838
d쎯《	-10.1839
):	-10.1841
uqyl쎯	-10.1841
iyc쎯cep쎯	-10.1844
r쎯dty쎯gk쎯	-10.1845
gmi쎯iry쎯	-10.1852
uu쎯wsg0쎯	-10.1854
rlf1쎯	-10.1855
fjt쎯btg쎯	-10.1855
、ym쎯	-10.186
dgtg쎯pe쎯yfd쎯	-10.1862
dgt1쎯um쎯	-10.1867
,ntk쎯gf쎯	-10.1868
rpws쎯yfy1쎯	-10.1872
tu쎯rfc쎯dd쎯ip쎯	-10.1873
aqo쎯	-10.1876
mmq쎯wug1쎯	-10.1877
naj1쎯ipkh1쎯	-10.1881
agu쎯js쎯	-10.1882
lkmi0쎯gae쎯	-10.1883
쎀쎇	-10.1886
gkp쎯e쎯	-10.1889
bs쎯qiu0쎯	-10.1891
g쎯pg쎯r쎯	-10.1893
uqf쎯adw쎯	-10.1893
py쎯lft쎯	-10.1895
auq쎯	-10.1903
jan쎯	-10.1905
wdn쎯te쎯r쎯	-10.1906
쎁)	-10.1908
qkq쎯umc쎯	-10.1909
idt쎯	-10.191
it쎯vvv쎯	-10.191
(쎁쎉쎁	-10.191
suq쎯aq쎯	-10.1911
rpw쎯emc쎯	-10.1919
wwg쎯nnh쎯	-10.1922
img쎯gl쎯	-10.1923
쎀쎃	-10.1923
vii쎯ntk쎯	-10.1924
whf쎯og쎯,	-10.1926
rp쎯wa쎯	-10.1927
dgh쎯fd쎯	-10.1928
쎅쎀쎀쎀	-10.193
dgj쎯wrh2쎯	-10.1934
r쎯ymc쎯yf쎯	-10.1935
nkue0쎯	-10.1935
tk쎯dd쎯	-10.1935
ffh쎯	-10.1935
tfk쎯rh쎯	-10.1937
iw쎯fhb쎯	-10.1939
。gm쎯	-10.194
쎂쎀쎀쎇	-10.1946
nuk1쎯	-10.1952
rqci0쎯lt쎯	-10.1953
iwe쎯	-10.1955
adwe1쎯uj쎯,	-10.1956
rnt쎯	-10.1956
fjgh쎯	-10.196
wc쎯py쎯	-10.1963
tlo쎯	-10.1964
fha쎯fm쎯	-10.1966
txg쎯g쎯wh쎯	-10.1967
iqny쎯	-10.1968
pw쎯pl쎯	-10.1969
sg	-10.1972
aqg쎯aqr쎯	-10.1975
▁y쎯s쎯	-10.1991
tx쎯fg쎯nm쎯	-10.1997
pjv쎯	-10.1997
ygu쎯ywx쎯	-10.1998
sm쎯jn쎯	-10.1998
yo쎯gae쎯	-10.2002
gkq쎯	-10.2005
ou쎯isgg0쎯	-10.2008
aib쎯lfnh쎯mw쎯	-10.2009
wgku1쎯yn쎯	-10.2009
bm쎯go쎯r쎯	-10.2014
cccg쎯	-10.2015
xten1쎯	-10.2016
rxj쎯ovt쎯	-10.2034
gah쎯sy쎯	-10.2035
wdt쎯bm쎯	-10.2038
fgh쎯dd쎯	-10.204
wgq쎯vk쎯	-10.2041
lpdk0쎯aq쎯	-10.2043
d쎯ugdu쎯l쎯	-10.2043
yny0쎯uj쎯	-10.2047
▁yynw1쎯	-10.2051
qq쎯ovt쎯	-10.2059
wgkb2쎯qk쎯	-10.2062
ldd쎯pg쎯uqwm0쎯u쎯	-10.2068
▁fc쎯rf쎯	-10.2069
by쎯ryn0쎯	-10.207
eqd쎯	-10.207
fcp쎯fcl쎯km쎯	-10.2071
wvm쎯	-10.2075
yfy1쎯ywx쎯	-10.2084
eeq쎯	-10.2085
g쎯kw쎯	-10.2085
th쎯th쎯ta쎯	-10.2086
hk쎯f쎯dm쎯tkw쎯	-10.2089
xh쎯fhn쎯r쎯	-10.209
sg쎯tu쎯ip쎯dl쎯	-10.2091
qkqy0쎯	-10.2092
ytn쎯lfn쎯	-10.2097
uxxn1쎯	-10.2099
쎂쎀쎁쎀	-10.2103
g쎯wa쎯	-10.2104
pww쎯jg쎯	-10.2108
oufg쎯	-10.211
suf쎯hhhh쎯	-10.2112
fjg쎯	-10.2112
(쎁쎉쎀	-10.2118
ukn쎯xf쎯	-10.2119
dd쎯isgg0쎯yhk쎯	-10.2122
uq쎯rq쎯	-10.2124
qq쎯tyna2쎯	-10.2125
aik쎯	-10.2128
sgn쎯e쎯	-10.213
lfn쎯tqq쎯	-10.2131
g1쎯	-10.2137
gmap쎯	-10.2145
xx쎯kwgj0쎯	-10.2148
ruv쎯tffy0쎯	-10.2149
ww쎯dmj1쎯	-10.215
fj쎯bm쎯kkkk0쎯	-10.215
rvyo쎯nge쎯	-10.2153
,nnnn쎯	-10.2159
tq쎯o쎯“	-10.216
ftx쎯w쎯	-10.2162
jx쎯je쎯	-10.2162
mfky쎯ubtf쎯	-10.2166
rqw쎯	-10.2172
tgj쎯vfhp1쎯	-10.2173
xqc쎯cf쎯	-10.2175
apk쎯og쎯	-10.2179
,q쎯	-10.2179
ic쎯ygk쎯	-10.2188
rrr쎯oyvk0쎯	-10.2195
iwy1쎯	-10.2196
je쎯dqe쎯	-10.2201
\	-10.2207
jmd쎯	-10.2221
rvh쎯fpx쎯	-10.2221
ip쎯fghg쎯	-10.2223
f쎯qr쎯	-10.2223
yvh쎯wa쎯	-10.2224
fq쎯bv쎯	-10.2225
thp쎯wjh쎯	-10.2231
anb0쎯w쎯	-10.2235
yw쎯sk쎯	-10.2236
tmd쎯wwv쎯	-10.2236
tqd쎯	-10.2237
yfj쎯syp쎯	-10.224
ˇ	-10.2242
qyvl쎯ip쎯	-10.2243
쎀쎈	-10.2243
r쎯jyie쎯ktm쎯	-10.2249
iv쎯ue쎯	-10.2255
dnv1쎯gu쎯yy쎯oy쎯	-10.2257
ve쎯	-10.2258
sgtk0쎯	-10.2259
ifk쎯	-10.2261
wxf쎯w쎯	-10.2266
gk쎯dty쎯	-10.2277
he쎯	-10.2281
dgkn쎯epc쎯	-10.2291
l쎯ffff5쎯dm쎯tkw쎯	-10.2298
hxs쎯	-10.2299
ntg쎯st쎯	-10.2299
ex쎯eyn쎯	-10.23
yh쎯w쎯	-10.2301
fcl쎯ijlc쎯	-10.2302
itd쎯ntg쎯	-10.2303
f쎯hko쎯	-10.2304
ftjb쎯wf쎯	-10.2304
sh쎯lpk0쎯	-10.2304
mw쎯qh쎯	-10.2306
dd쎯rnb쎯	-10.231
uk쎯。	-10.231
xtdp0쎯	-10.2311
”(	-10.2311
쎅%	-10.2312
tv쎯km쎯wf쎯tv쎯km쎯	-10.2315
ode쎯	-10.2316
ipr쎯	-10.2316
q쎯wc쎯ngk쎯	-10.2316
쎂쎀쎀쎃	-10.2318
uai쎯	-10.2322
d쎯bk쎯	-10.2322
jo쎯hhu0쎯	-10.2325
w쎯n쎯atd쎯bpf쎯	-10.2325
cf쎯yy쎯	-10.2325
um쎯fnrt쎯	-10.2327
ue쎯tmd쎯o쎯	-10.233
txg쎯jjjj쎯	-10.2331
쎁쎉쎃쎉rh쎯	-10.2332
,gae쎯dn쎯	-10.2339
fue쎯	-10.234
jfd쎯dm쎯	-10.2344
쎀.쎃	-10.2347
fhfk0쎯	-10.235
fjf쎯	-10.235
qk쎯pe쎯	-10.2354
pgf1쎯pm쎯	-10.2357
awnu0쎯	-10.2358
lkd쎯gc쎯	-10.2359
saj쎯fnw쎯	-10.236
qb쎯	-10.2361
ymhj쎯tv쎯	-10.2362
waw쎯yid쎯um쎯	-10.2364
hcd쎯	-10.2368
xf쎯gki쎯	-10.2372
xvk쎯	-10.2373
whf쎯og쎯tp쎯gj쎯	-10.2373
xeg쎯dn쎯,	-10.238
qq쎯rh쎯r쎯	-10.2382
aqq쎯ugdu쎯	-10.2384
adk쎯fggh쎯	-10.2384
si쎯	-10.239
qqqq1쎯uqd0쎯	-10.239
wff쎯	-10.2393
fs쎯	-10.2396
fjh0쎯tr쎯	-10.2402
eb쎯tl쎯k쎯ny쎯	-10.2406
xnf쎯xq쎯	-10.2407
wbg0쎯	-10.2413
fuk쎯yce쎯	-10.2415
wxm쎯tr쎯	-10.2415
tdp쎯et쎯	-10.2416
쎁쎁쎀	-10.2421
iwt쎯ou쎯	-10.2422
jd쎯	-10.2425
og쎯xgm쎯	-10.2425
ip쎯、	-10.2427
xat쎯	-10.2427
,hx쎯	-10.243
ditn0쎯	-10.2434
bn쎯sk쎯c쎯	-10.2442
tp쎯lpdk0쎯	-10.2445
tld1쎯tp쎯	-10.2448
i쎯td쎯	-10.2452
쎅wv쎯qkhh1쎯	-10.2453
g쎯rn쎯	-10.2455
ga쎯v쎯r쎯	-10.2456
sk쎯waw쎯	-10.2457
(-)	-10.2459
▁쎄	-10.2461
gxw쎯	-10.2462
iagw쎯ujn쎯	-10.2463
gjq쎯j쎯	-10.2465
쎀.쎂	-10.2472
fhb쎯	-10.2473
vv쎯tu쎯	-10.2481
uter쎯	-10.2483
fp쎯iha쎯	-10.2483
r쎯ftbt쎯ip쎯	-10.2483
og쎯e쎯bv쎯wc쎯ngk쎯	-10.2484
tyg쎯tyg쎯	-10.2486
madt2쎯	-10.2488
wuh쎯	-10.2491
ruv쎯rp쎯	-10.2491
lg쎯uj쎯	-10.2492
tfq쎯rg쎯d쎯	-10.2493
,x쎯fp쎯	-10.2495
ige쎯ifk쎯	-10.2498
c쎯adw쎯	-10.2505
tqv쎯	-10.2506
rkm쎯	-10.2506
rdj쎯gq쎯	-10.2511
l쎯by쎯	-10.2511
yud0쎯	-10.2512
ukn쎯dm쎯tkw쎯	-10.2513
xi쎯	-10.2518
lg쎯tkgg0쎯	-10.2521
dty쎯buj쎯	-10.2521
쎀쎆	-10.2522
쎁쎉쎄쎅rh쎯	-10.2526
fc쎯rip쎯	-10.2528
ht쎯	-10.2529
itk쎯bj쎯	-10.253
oge쎯ny쎯	-10.253
dgh쎯maw쎯	-10.253
ywfw쎯	-10.2531
lfnh쎯xat쎯	-10.2533
fuf1쎯	-10.2537
ick쎯gj쎯	-10.2537
%	-10.2544
쎁쎉쎄쎀rh쎯	-10.255
1쎯	-10.2551
i쎯gc쎯	-10.2551
dy쎯gu쎯iu쎯	-10.2565
jgm쎯aib쎯	-10.2566
wge쎯	-10.2568
ih쎯xeg쎯	-10.2569
g쎯thg0쎯	-10.2569
i쎯it쎯	-10.2572
waw쎯jn쎯	-10.2575
suf쎯	-10.2575
fnr쎯ujf쎯	-10.2588
wyf0쎯	-10.2589
ulk1쎯	-10.2594
ahko쎯	-10.2597
""	-10.2598
ftbt쎯xan쎯	-10.2599
▁“	-10.2605
txt쎯	-10.2608
wv쎯tp쎯	-10.2609
and쎯dd쎯	-10.261
dn쎯uu쎯r쎯	-10.261
gss쎯	-10.2613
jsd쎯	-10.2618
쎂쎀쎀쎉	-10.2621
eri쎯	-10.2622
e쎯“	-10.2625
ll쎯vvv쎯	-10.2632
gfi쎯bw쎯	-10.264
qnnk1쎯ou쎯	-10.2641
oa쎯mdo쎯	-10.2643
y쎯wtf쎯,	-10.2649
dww쎯	-10.2652
。sg쎯	-10.2652
tdh쎯	-10.2654
ih쎯gtu쎯	-10.2658
r쎯tk쎯tkh쎯	-10.266
쎂쎀쎁쎄rh쎯	-10.266
wbj쎯vck쎯w쎯	-10.2661
kqb쎯	-10.2662
lqp쎯lkb쎯	-10.2662
dwiu쎯l쎯	-10.2664
iwyf2쎯	-10.267
cbd쎯imj쎯	-10.2673
uo쎯ey쎯	-10.2678
cc쎯yy쎯	-10.2679
,ipkh1쎯	-10.2683
쎄.쎅	-10.2684
ym쎯dp쎯	-10.2684
sh쎯wy쎯	-10.2687
rua쎯	-10.2688
qvn2쎯ntg쎯	-10.2689
igd쎯lk쎯	-10.2693
rcp쎯	-10.2694
irr쎯	-10.2696
ynf쎯	-10.2699
sft쎯rfm쎯	-10.2699
쎂)	-10.2699
vvv쎯w쎯	-10.27
gkl쎯nnk쎯ta쎯	-10.2702
gg쎯qqqq1쎯	-10.2702
ige쎯itf쎯	-10.2704
sh쎯wny0쎯	-10.2705
wgkq0쎯et쎯。	-10.2715
smgk쎯	-10.2716
gae쎯,	-10.272
faw쎯	-10.2724
y쎯wtf쎯atd쎯jgm쎯	-10.2728
ptf쎯	-10.2732
r쎯oge쎯pyj쎯	-10.2733
uk쎯ta쎯	-10.2742
aiit쎯	-10.2745
wj쎯rfm쎯	-10.2746
(vk쎯	-10.2756
ta쎯,	-10.2756
tgj쎯s쎯cd쎯ovt쎯	-10.2759
yni1쎯fqp쎯	-10.2762
rqb0쎯rmhj쎯	-10.2763
|	-10.2765
jhng쎯:“	-10.2765
mgu쎯	-10.2766
isjg쎯	-10.2767
wg쎯yy쎯wug1쎯	-10.2774
hxf쎯	-10.2776
uwa쎯uyh쎯	-10.2778
wg쎯l쎯tk쎯f쎯	-10.2779
trf쎯qc쎯r쎯	-10.278
wv쎯dmh쎯gf쎯	-10.2781
v쎯bm쎯	-10.2786
d쎯gf쎯	-10.2786
sfw쎯	-10.2787
ryc쎯	-10.2788
uy쎯rh쎯	-10.2791
jhnr쎯	-10.2792
gj쎯wynn3쎯,	-10.2793
up쎯l쎯	-10.2801
rkm쎯rw쎯	-10.2803
lv쎯	-10.2803
ke쎯xh쎯	-10.2804
wjjg쎯nf쎯	-10.2806
u쎯kkk쎯。	-10.2811
bc쎯bm쎯	-10.2819
mh쎯hx쎯	-10.2821
mq쎯jy쎯aq쎯	-10.2823
qyi1쎯	-10.2824
rkk쎯	-10.283
ii쎯js쎯	-10.2831
nge쎯rb1쎯	-10.2832
쎀쎉	-10.2833
quk쎯	-10.2834
klj쎯w쎯	-10.2837
bqv쎯	-10.2842
uf쎯qynm1쎯	-10.2842
rvyo쎯gkp쎯	-10.2844
uqwm0쎯rfm쎯	-10.2846
lk쎯jel쎯	-10.2847
bu쎯pfjm1쎯	-10.2847
_	-10.2847
)w쎯。	-10.2848
wdn쎯fha쎯	-10.2849
pe쎯ta쎯	-10.2854
dnv1쎯kgb쎯	-10.2857
sgty쎯	-10.2858
klk쎯kdj쎯	-10.2862
kjq쎯	-10.2863
wc쎯jfd쎯。	-10.2864
go쎯gc쎯	-10.2865
y쎯ipg쎯	-10.2865
it쎯ovt쎯n쎯ytt쎯	-10.2866
fjt쎯	-10.2868
ftbt쎯ip쎯a쎯wt쎯	-10.2869
xte쎯sf쎯	-10.2871
jtd쎯	-10.2881
hjj쎯fha쎯	-10.2881
ta쎯pv쎯	-10.2886
tmgt1쎯	-10.2887
cm쎯ipkm0쎯	-10.2889
sghg1쎯ux쎯uk쎯	-10.2891
쎂쎂쎀	-10.2893
bn쎯i쎯	-10.2894
dn쎯w쎯	-10.2899
dan쎯	-10.2899
bd쎯lw쎯	-10.2905
wg쎯wsg0쎯	-10.2906
saj쎯trf쎯	-10.2908
yn쎯》	-10.2908
rnv쎯	-10.2911
,gip쎯e쎯	-10.2911
rfh0쎯	-10.2915
nb쎯	-10.2915
dg쎯qe쎯	-10.2918
iej쎯	-10.2919
rt쎯if쎯	-10.2921
lq쎯cn쎯	-10.2921
vyv쎯	-10.2924
cm쎯wynn3쎯	-10.2929
fny쎯og쎯tg쎯u쎯	-10.2934
0쎯	-10.2938
dd쎯lt쎯	-10.2938
cm쎯imj쎯	-10.2941
v쎯fcl쎯	-10.2943
ltu쎯gae쎯	-10.2944
tdij쎯xfm쎯	-10.295
sg쎯tmd쎯	-10.2951
iwgu쎯	-10.2952
jgm쎯uqwm0쎯	-10.2956
fc쎯wfy쎯	-10.2964
쎁쎉쎆쎇rh쎯	-10.297
uu쎯khu쎯	-10.297
tg쎯itd쎯r쎯	-10.2972
dmj1쎯dn쎯	-10.2976
。dl쎯wtf쎯	-10.2981
wc쎯ngk쎯。	-10.2981
usr쎯xtd쎯	-10.2982
a쎯anb0쎯ugdu쎯sy쎯	-10.2984
tu쎯ip쎯dga쎯pwv쎯	-10.2984
#	-10.2987
fj쎯fghg쎯	-10.2991
xo쎯bd쎯	-10.2992
ipk쎯tv쎯nnh쎯yn쎯	-10.2993
pwkw쎯	-10.2993
ogbn쎯	-10.2994
쎁쎉쎅쎁rh쎯	-10.2995
fay쎯	-10.2996
v쎯jn쎯	-10.2999
fgh쎯lh쎯	-10.3001
tg쎯gj쎯	-10.3001
itm쎯uyh쎯	-10.3003
쎁쎉쎃쎆rh쎯	-10.3006
qta쎯	-10.3006
rv쎯	-10.3008
fghg쎯tg쎯nf쎯jgm쎯。	-10.3015
y쎯fcl쎯	-10.3016
vep쎯ws쎯	-10.3019
ek쎯	-10.302
aqky1쎯pwfi쎯	-10.3024
usr쎯fd쎯	-10.3029
ia쎯egc쎯	-10.3029
wg쎯jjjj쎯rmhj쎯	-10.3033
inro쎯	-10.3039
kht쎯xg쎯	-10.3039
tk쎯xe쎯	-10.3041
fny쎯og쎯ww쎯gk쎯	-10.3042
khtd2쎯	-10.3043
wdt쎯gc쎯	-10.3046
o쎯yygt쎯dd쎯	-10.3046
nnh쎯·	-10.3047
tfn쎯icf쎯ai쎯	-10.3047
//	-10.3048
-쎄	-10.305
hv쎯hg쎯	-10.3054
g쎯od쎯	-10.3055
uwyc0쎯fcb쎯	-10.3059
tu쎯uo쎯	-10.3059
dcg쎯udi쎯	-10.306
iawn쎯kkkk0쎯	-10.3061
。vbn쎯	-10.3062
ngkg쎯	-10.3067
ntg쎯、	-10.3068
rufh1쎯	-10.3069
a쎯wf쎯	-10.307
maw쎯gajf쎯	-10.307
pfq쎯gkih쎯r쎯	-10.3072
eb쎯tl쎯,	-10.3074
rytp0쎯yge쎯	-10.3078
ukh쎯fmk쎯	-10.308
k쎯ih쎯whf쎯og쎯	-10.3082
qevj쎯	-10.3084
ym쎯ftg쎯	-10.3084
ps쎯dht쎯	-10.3084
,ta쎯	-10.3085
쎂쎀쎀쎅	-10.3086
tfqp쎯et쎯	-10.3089
uth쎯pe쎯	-10.3089
qci쎯	-10.3091
yid쎯et쎯gf쎯	-10.3096
apl쎯fcl쎯lt쎯	-10.3097
utu쎯uce쎯	-10.3098
ipf쎯	-10.3099
yygt쎯itp쎯yid쎯et쎯	-10.3099
rno쎯	-10.3101
nwy쎯	-10.3101
wt쎯tr쎯	-10.3102
raw쎯	-10.3105
쎈쎁	-10.3107
:쎄	-10.3107
ftg쎯synw쎯	-10.3114
iat1쎯	-10.3118
lk쎯nnw쎯	-10.312
kyn1쎯	-10.3123
j쎯g쎯pe쎯wys쎯	-10.3125
tuk쎯nh쎯	-10.3131
ujn쎯mqb쎯	-10.3131
。gm쎯o쎯	-10.3133
tmo쎯fcp쎯wf쎯	-10.3135
gkih쎯gae쎯	-10.3138
adw쎯pu쎯	-10.314
fgh쎯g쎯	-10.3146
tol쎯	-10.3147
lkd쎯:“	-10.315
af	-10.315
r쎯wt쎯kkk쎯	-10.3155
ipk쎯r쎯	-10.3155
rb1쎯fjh0쎯	-10.3155
twgi쎯	-10.3157
xfm쎯tavn쎯rvy쎯tf쎯	-10.3159
k쎯ny쎯、	-10.3161
쎇wh쎯	-10.3162
xw쎯cbj쎯	-10.3162
sf쎯,	-10.3165
。dmj1쎯	-10.3166
hl쎯	-10.3168
dqe쎯wk쎯	-10.3168
yfj쎯syp쎯b쎯	-10.3168
wv쎯ybf0쎯	-10.3173
tuk쎯tl쎯	-10.3174
tffu쎯)	-10.3175
vynu쎯	-10.3176
uyt0쎯	-10.3177
ipe쎯ya쎯	-10.3179
jn쎯fcl쎯	-10.3181
kwyg쎯g쎯r쎯	-10.3181
mqu쎯。	-10.3182
vkb쎯	-10.3183
iyc쎯wfny0쎯	-10.3188
ytey쎯tf쎯	-10.3195
ftbt쎯bk쎯a쎯	-10.3198
,yi쎯j쎯	-10.32
jn쎯wy쎯	-10.32
g쎯fnw쎯	-10.32
▁*	-10.3203
riq쎯	-10.3204
wtl쎯pd쎯	-10.3209
dj쎯wtu쎯	-10.321
aigy쎯	-10.321
iwyf0쎯	-10.3211
ajj쎯dr쎯	-10.3212
gtu쎯dq쎯mq쎯	-10.3212
ipw쎯epc쎯	-10.3214
cbj쎯	-10.3215
wynb쎯gd쎯	-10.3218
imk쎯itx쎯	-10.322
fyb1쎯	-10.3223
if쎯rmhj쎯	-10.3228
wgkq0쎯et쎯r쎯	-10.323
uff쎯ytyh쎯	-10.323
쎁쎉쎄쎈rh쎯	-10.3234
xfm쎯	-10.3234
djfd쎯oy쎯	-10.3235
gg쎯wh쎯	-10.3235
kg쎯gm쎯	-10.3235
쎇쎁	-10.3239
쎁쎉쎄쎁rh쎯	-10.3244
pujn1쎯qc쎯	-10.3245
xan쎯nu쎯	-10.3247
atg쎯gk쎯ta쎯	-10.3247
mhj쎯	-10.3248
dd쎯xq쎯	-10.3251
wqin쎯r쎯	-10.3252
fc쎯bw쎯	-10.3252
jb쎯vb쎯r쎯	-10.3253
dl쎯wa쎯	-10.3255
ssq쎯shn쎯	-10.3257
mqq쎯dc쎯	-10.3257
epv1쎯	-10.3265
ud쎯qvfp1쎯	-10.3266
se쎯o쎯	-10.327
pwl쎯	-10.3272
ai쎯apfq쎯ymhj쎯	-10.3273
apl쎯fcl쎯saj쎯aib쎯	-10.3277
sf쎯w쎯。	-10.3278
쎁쎀wv쎯qkhh1쎯	-10.3279
caq쎯	-10.3283
uvh쎯	-10.3285
h쎯dm쎯	-10.3286
ge쎯uje쎯	-10.3288
“dg쎯	-10.3288
xq쎯쎁	-10.3289
do쎯qc쎯	-10.329
ob쎯	-10.329
xxf쎯	-10.3291
wy쎯thn쎯rfc쎯sy쎯	-10.3293
▁k쎯l쎯	-10.3293
wdn쎯yv쎯	-10.3293
nnh쎯k쎯	-10.3294
ubk0쎯uqt쎯	-10.3295
opw쎯	-10.3295
uq쎯cep쎯dd쎯ip쎯	-10.3296
em쎯efw쎯	-10.3299
uit쎯	-10.3299
d쎯g쎯fhn쎯	-10.3299
nn쎯	-10.3301
cnh쎯sghg1쎯	-10.3302
hak쎯	-10.3304
ー	-10.3304
nbm쎯	-10.3308
rh쎯u쎯	-10.3308
ujt쎯	-10.331
tu쎯tu쎯ta쎯	-10.3313
fhv쎯ymhj쎯	-10.3314
i쎯gmf쎯	-10.3317
vkf1쎯	-10.3317
rv쎯ral쎯	-10.3318
pyj쎯tn쎯	-10.332
g쎯txi쎯gq쎯	-10.332
ige쎯fje쎯	-10.3321
쎂쎀쎁쎂	-10.3322
dm쎯tkw쎯쎁	-10.3323
tmc쎯	-10.3328
쎁쎉쎄쎂rh쎯	-10.3329
nyp쎯	-10.333
zzj3쎯	-10.3334
tve쎯dd쎯	-10.3336
tq쎯“	-10.334
rrk쎯	-10.3343
uda쎯naj1쎯	-10.3344
whw쎯	-10.3345
cnh쎯tqt쎯	-10.3345
yeu쎯	-10.3346
tx쎯쎃	-10.3347
“”	-10.3349
ipg쎯dwg쎯	-10.3349
pfq쎯dn쎯b쎯	-10.3357
nge쎯dgkn쎯	-10.3357
sux쎯	-10.3362
、ith쎯	-10.3363
bk쎯og쎯rfc쎯sy쎯	-10.3364
ll쎯ic쎯ytt쎯	-10.3365
,trf쎯klj쎯j쎯	-10.3372
xt쎯)	-10.3372
rdf1쎯fcl쎯	-10.3373
wht쎯vfhp1쎯	-10.3373
nnk쎯uk쎯	-10.3374
r쎯synw쎯ny쎯	-10.3376
ta쎯adwe1쎯ww쎯gk쎯	-10.338
ca쎯ma쎯	-10.3382
쎁.쎈	-10.3383
kw쎯s쎯	-10.3384
dqq쎯	-10.3384
rmhj쎯ax쎯	-10.3386
iytb0쎯pt쎯	-10.3387
mf쎯pgk쎯	-10.339
ov쎯	-10.339
ujf쎯qi쎯ip쎯bpf쎯	-10.3392
qmk쎯	-10.3392
sh쎯wycb쎯	-10.3393
pwat쎯fha쎯	-10.3393
jjjj쎯adwe1쎯	-10.3395
kfi쎯oge쎯	-10.3396
rufh1쎯qu쎯	-10.3397
p쎯su쎯r쎯	-10.3397
ykge쎯	-10.3399
』『	-10.3399
a쎯wt쎯pgc쎯	-10.34
etj쎯uk쎯	-10.3401
xk쎯ymf쎯	-10.3401
awx쎯tg쎯	-10.3403
wfny0쎯uxhp쎯	-10.3405
dm쎯tkw쎯쎃	-10.3405
wuf쎯	-10.3406
al쎯uqt쎯	-10.3408
dd쎯ip쎯ip쎯dl쎯	-10.341
tp쎯gj쎯wsg0쎯txi쎯	-10.3411
rqa쎯	-10.3412
nfd쎯	-10.3414
pynn0쎯kkk쎯	-10.3414
gjq쎯o쎯	-10.3417
쎂rh쎯	-10.3422
mq쎯nge쎯	-10.3422
j쎯ugdu쎯l쎯	-10.3424
xmw쎯oy쎯	-10.3426
k쎯dr쎯	-10.3432
god쎯yak쎯	-10.3432
dg쎯xe쎯	-10.3436
rer쎯	-10.3437
lu쎯ym쎯	-10.3444
uxh쎯bb쎯	-10.3445
pwd쎯qd쎯	-10.3447
vd쎯	-10.345
hao쎯rny1쎯	-10.3451
dm쎯tkw쎯xq쎯	-10.3458
f쎯u쎯	-10.3461
,gm쎯e쎯	-10.3462
tr쎯kkk쎯	-10.3464
djdl2쎯	-10.3466
ooo쎯mmm쎯	-10.3471
wbj쎯lw쎯gf쎯	-10.3473
irn쎯	-10.3476
ice쎯	-10.3478
lfod1쎯	-10.3478
lwj쎯dm쎯	-10.3482
vah쎯	-10.3483
rtt쎯	-10.3485
dtf쎯wgkb2쎯	-10.3486
ihg1쎯	-10.3489
wys쎯》	-10.3492
ggg1쎯fje쎯	-10.3495
oge쎯tfqp쎯	-10.3497
x쎯apk쎯gj쎯wynn3쎯	-10.3501
ip쎯pe쎯	-10.3501
x쎯cwg쎯,	-10.3504
wg쎯usr쎯r쎯	-10.3505
oa쎯dyt쎯	-10.3506
wqj쎯gxi쎯	-10.351
l쎯uu쎯	-10.3513
egc쎯w쎯。	-10.3513
wcd쎯	-10.3515
qwyc0쎯	-10.3515
ipk쎯xeg쎯dn쎯km쎯	-10.3519
qtjh0쎯	-10.352
wg쎯usr쎯	-10.3521
sr쎯	-10.3521
rj쎯bm쎯b쎯	-10.3523
kkd쎯sft쎯	-10.3525
fd쎯xte쎯	-10.3526
wsg0쎯mw쎯	-10.3527
ujf쎯hid쎯	-10.3533
apk쎯tfkp쎯	-10.3533
ja쎯	-10.3534
a쎯wt쎯w쎯km쎯	-10.3537
dyt쎯tr쎯	-10.3542
txg쎯gd쎯	-10.3543
dg쎯l쎯	-10.3547
ym쎯nfc쎯	-10.3548
-쎈	-10.355
”“	-10.355
tu쎯dga쎯adm쎯hhhh쎯	-10.3552
dyc쎯	-10.3553
쎁쎉쎄쎄rh쎯	-10.3557
da쎯dk쎯,	-10.3558
쎁쎉쎄쎆rh쎯	-10.3559
“k쎯l쎯	-10.3562
r쎯gae쎯aa쎯	-10.3562
y쎯s쎯et쎯gf쎯	-10.3564
jo쎯fi쎯nua쎯	-10.3565
yuv쎯	-10.3565
nnu쎯	-10.3566
iuw쎯	-10.3568
ai쎯ux쎯uk쎯	-10.3572
rfc쎯sy쎯、	-10.3573
ta쎯dw0쎯	-10.358
ajdn쎯	-10.3583
egc쎯w쎯	-10.3584
egc쎯w쎯,	-10.3586
vtk쎯qynm1쎯	-10.3597
tuj쎯wj쎯	-10.3601
iyn0쎯	-10.3602
rvk쎯tg쎯	-10.3604
wtf쎯bk쎯	-10.3605
wkh쎯	-10.3605
vcag쎯	-10.3605
dn쎯uu쎯b쎯	-10.3607
mj쎯j쎯	-10.3607
dr쎯go쎯	-10.3608
쎆)	-10.3609
tue쎯	-10.361
dy쎯bb쎯	-10.3611
w쎯vtk쎯	-10.3611
fhl쎯og쎯	-10.3615
r쎯m쎯jf쎯,	-10.3615
toc쎯yt쎯	-10.3616
ai쎯apfq쎯	-10.3618
jtyl쎯tp쎯	-10.3619
ukn쎯nnk쎯	-10.3624
de쎯shi쎯ow쎯	-10.3631
e쎯rn쎯	-10.3632
qdt쎯tfkp쎯	-10.3632
y쎯s쎯e쎯	-10.3635
wyq쎯ge쎯	-10.3636
ynky2쎯tj쎯	-10.3637
dif쎯f쎯dm쎯tkw쎯	-10.3639
qq쎯w쎯	-10.364
쎁쎀쎀%	-10.3643
usr쎯iw쎯	-10.3644
rn쎯e쎯r쎯	-10.3645
vte쎯	-10.3646
-쎆	-10.3647
kwgj0쎯	-10.3649
。ld쎯	-10.365
ln쎯ftg쎯	-10.3651
l쎯ggg1쎯	-10.3653
fny쎯iy쎯gf쎯	-10.3653
rnr쎯ytyh쎯	-10.3656
bpf쎯ta쎯	-10.3661
jlx쎯ytn쎯	-10.3663
isk쎯iyc쎯	-10.3663
xng1쎯	-10.3668
,jb쎯rg쎯	-10.3671
%,	-10.3672
qdb쎯sm쎯	-10.3676
fghg쎯tg쎯nf쎯jgm쎯	-10.3678
kb쎯	-10.3679
yb쎯ga쎯	-10.3681
gg쎯fgh쎯	-10.3682
dy쎯bj쎯ce쎯	-10.3684
t쎯adw쎯wb쎯	-10.3685
lk쎯gkip2쎯	-10.3685
ymhj쎯ght쎯	-10.3687
x쎯iyj쎯tp쎯gj쎯	-10.369
.쎁쎂	-10.369
wg쎯aq쎯	-10.3693
ps쎯egc쎯	-10.3696
rn쎯d쎯f쎯	-10.3698
ihi쎯	-10.3701
fhn쎯,	-10.3704
vjs쎯	-10.3705
usr쎯aq쎯	-10.3708
gh쎯r쎯	-10.3709
djb쎯ya쎯	-10.3712
k쎯md쎯ipk쎯suq쎯	-10.3712
yx쎯tfq쎯	-10.3713
ai쎯yiu쎯	-10.3714
bgh쎯sm쎯	-10.3714
쎁.쎆	-10.3716
wgg0쎯	-10.3717
txgi2쎯gqf쎯	-10.3718
kkkk0쎯kfi쎯	-10.3718
sghg1쎯fm쎯uk쎯	-10.372
ql쎯	-10.3722
쎁쎉쎃쎈rh쎯	-10.3725
()、	-10.3726
▁쎅、	-10.373
ll쎯ntg쎯	-10.3731
×쎂	-10.3735
fw쎯w쎯	-10.3743
yi쎯yfn쎯gf쎯	-10.3744
vnn쎯	-10.3746
aw쎯t쎯l쎯	-10.3746
mmm쎯f쎯	-10.3747
wk쎯qyvl쎯	-10.3747
jmh쎯	-10.375
xtu쎯umd0쎯	-10.375
gm쎯nnnn쎯	-10.3754
vfb쎯tc쎯	-10.3756
gkl쎯suq쎯ta쎯	-10.3765
xuj쎯ntg쎯	-10.3768
ukn쎯rmc쎯uqwm0쎯	-10.3771
wa쎯dcg쎯	-10.3772
ybf0쎯	-10.3772
wye쎯tfkd쎯	-10.3772
pp쎯kht쎯	-10.3772
,pu쎯gm쎯	-10.3773
sj쎯yqj쎯	-10.3779
mdo쎯	-10.3783
fhw쎯pw쎯	-10.3783
cq쎯ytf쎯	-10.3783
fq쎯qjq쎯	-10.3788
tffu쎯bk쎯	-10.3789
gef쎯qynm1쎯ymhj쎯	-10.379
cm쎯iq쎯	-10.3796
,vk쎯js쎯	-10.3807
wsg0쎯tkw쎯	-10.3811
yy쎯yyy쎯	-10.3811
》g쎯nnh쎯	-10.3817
j쎯g쎯qk쎯	-10.3817
hhhh쎯vi쎯	-10.382
h쎯mqq쎯	-10.3823
sf쎯yfd쎯	-10.3824
pwt쎯kkkk0쎯	-10.3824
wtfm3쎯	-10.383
쎁쎉쎃쎇rh쎯	-10.3834
fcu1쎯an쎯	-10.3834
tu쎯rfc쎯dn쎯js쎯	-10.3835
r쎯ud쎯txi쎯	-10.3836
iie쎯wx쎯	-10.3842
tem쎯	-10.3844
rbcc쎯wqj쎯udi쎯	-10.3851
)t쎯	-10.3851
wn쎯fqb1쎯	-10.3852
,dl쎯wtf쎯	-10.3854
pyk쎯	-10.3854
fgh쎯wtu쎯	-10.3854
nku쎯	-10.3857
tp쎯gj쎯a쎯wt쎯	-10.3861
k쎯l쎯dgh쎯wa쎯	-10.3861
jb쎯vb쎯	-10.3863
dg쎯tkh쎯	-10.3863
tg쎯itd쎯k쎯	-10.3864
xyc쎯ick쎯	-10.3865
psu쎯wa쎯	-10.3867
ㄢ	-10.3869
iie쎯thn쎯	-10.3869
sy쎯ygk쎯	-10.3869
。iv쎯	-10.387
aw쎯u쎯ipk쎯km쎯	-10.3874
by쎯ii쎯	-10.3875
pe쎯fl쎯wf쎯wf쎯km쎯,	-10.3875
bm쎯go쎯	-10.3877
tyna2쎯,	-10.3879
xl쎯alt쎯	-10.3885
bn쎯sk쎯	-10.3886
ymc쎯pg쎯	-10.3887
tdtf쎯	-10.3888
h쎯tak쎯	-10.3889
▁●	-10.3892
ovt쎯rpw쎯	-10.3894
hhy쎯	-10.3901
。rg쎯	-10.3904
dn쎯gajf쎯	-10.3908
rbcc쎯	-10.3909
bk쎯gmu1쎯	-10.3911
rtb쎯	-10.3914
(쎂)	-10.3915
wx쎯r쎯	-10.3915
puh쎯yc쎯	-10.3923
!”	-10.3925
sgj쎯	-10.3925
r쎯s쎯fiy쎯	-10.3927
ldd쎯wsg0쎯	-10.3927
rvyo쎯ep쎯	-10.3933
xqi쎯	-10.3937
xnn0쎯	-10.3939
kkkk0쎯tca쎯	-10.3941
ipl쎯	-10.3941
dwf쎯fmud쎯	-10.3943
▁ip쎯suq쎯	-10.3947
쎀.쎈	-10.3949
,ip쎯suq쎯	-10.3951
dd쎯sov쎯	-10.3953
ygk쎯ujf쎯	-10.3958
auk쎯abu쎯	-10.3959
iie쎯bwt쎯	-10.3959
wtf쎯ftbt쎯	-10.3963
wyk쎯	-10.3966
hjs쎯	-10.3969
。p쎯tkh쎯	-10.397
ymc쎯tlf2쎯、	-10.3974
pei쎯u쎯kkk쎯	-10.3977
gmu1쎯	-10.3977
bu쎯dtb쎯	-10.3978
n0쎯	-10.3979
,adwn0쎯gcf쎯	-10.3982
ls쎯	-10.3983
ue쎯tyg쎯	-10.3984
,j쎯k쎯l쎯	-10.3985
uk쎯uk쎯ta쎯	-10.3986
iy쎯:“	-10.3988
yjj0쎯wg쎯	-10.3991
e쎯uqt쎯r쎯	-10.3992
m쎯rh쎯	-10.3994
nnh쎯bpf쎯	-10.4002
kn쎯wdt쎯	-10.4002
ukn쎯vfhp1쎯tam쎯	-10.4007
wc쎯dmh쎯	-10.4008
쎂.쎄	-10.4011
쎄.	-10.4011
kkd쎯、	-10.4012
ymhj쎯k쎯ny쎯	-10.4013
gkl쎯y쎯yam쎯	-10.4019
ifn쎯	-10.4019
rgb쎯	-10.402
khij쎯	-10.4022
/쎂	-10.4025
r쎯mw쎯pww쎯	-10.4028
mq쎯kfi쎯	-10.4036
ukd0쎯jghm1쎯,	-10.404
fm쎯itx쎯	-10.404
y쎯lw쎯	-10.4041
tey쎯gd쎯	-10.4043
pe쎯xte쎯	-10.4045
x쎯iyj쎯uqt쎯uwl쎯	-10.4048
ntk쎯ntg쎯	-10.4048
f쎯h쎯	-10.4052
l쎯uthp쎯	-10.4057
wv쎯suq쎯	-10.4057
▁rn쎯ntk쎯	-10.4057
j쎯jjjj쎯sg쎯	-10.4058
cd쎯lk쎯a쎯wt쎯	-10.4059
wgj쎯tjh쎯	-10.4059
mqq쎯dmu0쎯	-10.4061
rge쎯	-10.4062
쎁쎉쎄쎇rh쎯	-10.4064
y쎯wtf쎯、	-10.4064
:fc쎯rf쎯	-10.4066
th쎯,	-10.4071
itx쎯mw쎯qh쎯	-10.4071
iy쎯ty쎯	-10.4071
fgh쎯wffg쎯	-10.4074
ait쎯pu쎯	-10.4076
jhng쎯:‘	-10.4079
txgi2쎯aps쎯	-10.408
쎃.쎀	-10.4081
uq쎯lwj쎯	-10.4082
。rnd1쎯	-10.4082
uth쎯yam쎯	-10.4083
y쎯tp쎯uk쎯uyh쎯	-10.4086
ynnu쎯	-10.4091
sh쎯ud쎯r쎯	-10.4094
sym쎯ytyh쎯ymhj쎯	-10.4099
pei쎯yne쎯	-10.4102
〔	-10.4105
ibi쎯ugl쎯	-10.4107
qkm쎯oyn쎯	-10.4107
wfny0쎯bd쎯	-10.4108
tt쎯gl쎯	-10.4109
usr쎯qgu쎯	-10.4109
wx쎯、	-10.4109
l쎯pe쎯thd쎯qd쎯	-10.411
ftbt쎯yce쎯nnk쎯	-10.4114
ggi쎯fuj쎯wk쎯ryn0쎯	-10.4115
uqb쎯	-10.4117
rkm쎯wtl쎯	-10.412
ysj쎯	-10.4126
qq쎯it쎯	-10.4127
,쎀쎀쎀	-10.413
ftg쎯han쎯	-10.4133
tjf쎯avd쎯	-10.4135
dd쎯jg쎯r쎯	-10.4135
ya쎯wnh쎯	-10.4141
wygg쎯yny0쎯	-10.4141
qc쎯icf쎯	-10.4143
qtyd1쎯	-10.4144
,dmj1쎯j쎯	-10.4145
wh쎯sf쎯n쎯ih쎯xeg쎯,	-10.4145
ssss쎯cn쎯	-10.4145
mb쎯ght쎯	-10.4146
itx쎯fm쎯ith쎯	-10.4148
dgt1쎯pe쎯	-10.4151
txi쎯ovt쎯	-10.4155
ukqb0쎯qv쎯lt쎯	-10.4159
mmm쎯eyni쎯	-10.4159
awnu1쎯	-10.416
it쎯ovt쎯	-10.4162
rvn2쎯	-10.4163
》vs쎯fn쎯	-10.4169
rw쎯mty1쎯	-10.417
rx쎯v쎯	-10.4171
tmd쎯h쎯	-10.4173
cm쎯ujf쎯	-10.4173
tdx쎯	-10.4174
pei쎯fnrt쎯	-10.4176
”;	-10.4177
ythp0쎯tg쎯	-10.4178
ny쎯vo쎯	-10.4178
●	-10.4179
jb쎯puv쎯	-10.4181
y쎯wtf쎯atd쎯jgm쎯,	-10.4181
g쎯uthp쎯	-10.4183
eb쎯tl쎯r쎯	-10.4184
tjh쎯iugg0쎯	-10.4185
gkl쎯nnh쎯yn쎯	-10.4185
pu쎯wsg0쎯	-10.4186
adwr쎯·	-10.4187
tu쎯ip쎯pe쎯	-10.4189
mmgd쎯	-10.4189
wn쎯fqb1쎯,	-10.4191
tn쎯pnt쎯	-10.4193
whf쎯og쎯pe쎯	-10.4194
qgbn0쎯	-10.4197
xrc쎯	-10.4198
cw쎯c쎯	-10.4204
usr쎯u쎯kkk쎯	-10.4205
pdhj쎯	-10.4205
tr쎯og쎯	-10.4206
iw쎯vfhp1쎯	-10.4206
,fc쎯rf쎯	-10.4213
dfy쎯xpw쎯	-10.4213
xte쎯ght쎯ywf쎯	-10.4213
,ul쎯wtf쎯	-10.4213
w쎯n쎯wa쎯ge쎯dd쎯wf쎯	-10.4221
qkm쎯k쎯	-10.4222
xf쎯jjj쎯	-10.4223
tffu쎯tf쎯og쎯	-10.4224
ndj쎯nge쎯	-10.4227
쎁쎉쎄쎃rh쎯	-10.4229
rjg0쎯	-10.423
fhw쎯ydn쎯	-10.4231
wtd쎯	-10.4233
rt쎯fcl쎯	-10.4236
o쎯y쎯s쎯	-10.4237
h쎯uk쎯	-10.4237
qbn1쎯	-10.4242
jb쎯wqa쎯	-10.4243
wt쎯ftj쎯:	-10.4244
u쎯gf쎯	-10.4245
쎅쎀dq쎯	-10.4245
qgf쎯od쎯	-10.4249
ukn쎯w쎯kkkk0쎯	-10.4251
pgj쎯dmh쎯	-10.4253
wt쎯bm쎯	-10.4253
um쎯fd쎯	-10.4254
fm쎯yiu쎯ymhj쎯	-10.4255
r쎯xp쎯wgk쎯ntg쎯	-10.4256
yne쎯qh쎯	-10.4257
khgp0쎯wfny0쎯	-10.426
:쎁.	-10.4261
qtbl쎯	-10.4263
쎄)	-10.4263
bip쎯	-10.4264
rnx쎯	-10.4265
쎂쎀쎀쎄	-10.4266
y쎯sm쎯	-10.4271
ylf0쎯,	-10.4272
e쎯dif쎯f쎯	-10.4272
thd쎯xln1쎯	-10.4278
jb쎯rp쎯	-10.4282
jcu쎯	-10.4283
pujn1쎯	-10.4283
k쎯atd쎯ax쎯	-10.4288
▁·	-10.4288
itd쎯khtd2쎯	-10.429
t쎯v쎯nae쎯	-10.4291
if쎯bpf쎯	-10.4292
mw쎯r쎯	-10.4294
vtd쎯	-10.4296
qtw쎯	-10.4297
쎁.쎄	-10.4298
쎁쎃쎀	-10.4299
rb1쎯aqky1쎯	-10.4299
ymc쎯yf쎯,	-10.4301
fge쎯fghg쎯rg쎯	-10.4307
rhyi쎯	-10.4311
tkm쎯	-10.4316
fnrt쎯h쎯	-10.4316
ypt쎯oy쎯,tdp쎯peg쎯	-10.4317
gx쎯sh쎯	-10.4318
ynky2쎯tj쎯b쎯	-10.432
uem쎯	-10.4322
gh쎯dm쎯	-10.4323
,es쎯et쎯	-10.4324
ul쎯aqt쎯	-10.4326
it쎯jg쎯	-10.4326
gk쎯,	-10.4327
sce쎯	-10.4328
f0쎯	-10.4329
lh쎯mfk쎯	-10.433
d쎯h쎯itx쎯	-10.4331
wg쎯qfhw0쎯	-10.4332
nfh1쎯	-10.4334
tp쎯gj쎯t쎯	-10.4341
cyi쎯	-10.4345
ta쎯fd쎯	-10.4351
usr쎯rfc쎯sy쎯	-10.4352
tr쎯wsg0쎯	-10.4355
vcb쎯uqf쎯	-10.4358
wtp쎯tca쎯	-10.4358
tkw쎯lx쎯	-10.4358
usr쎯wxf쎯	-10.4364
scf쎯ex쎯	-10.4365
vnu1쎯sfi쎯	-10.4366
dy쎯dr쎯	-10.4367
lkc쎯ckq쎯	-10.4373
(vcb쎯	-10.4375
no쎯	-10.4375
ii쎯th쎯gj쎯	-10.4376
gj쎯shn쎯	-10.438
tp쎯gj쎯w쎯km쎯	-10.4385
alp쎯awx쎯	-10.4385
ert쎯	-10.4385
tfq쎯fj쎯wys쎯wsg0쎯	-10.4387
dd쎯fny쎯ip쎯dl쎯	-10.4387
k쎯ih쎯ip쎯	-10.4389
f쎯fakg1쎯	-10.439
wyb쎯	-10.4393
쎀쎄	-10.4395
dga쎯pwv쎯pgc쎯	-10.4396
set쎯	-10.4398
qi쎯kkd쎯	-10.4403
×쎁	-10.4404
ggg1쎯l쎯	-10.4407
ep쎯l쎯	-10.4407
kjj쎯thg0쎯	-10.4411
h쎯syp쎯	-10.4413
ipkh1쎯tl쎯gj쎯gk쎯	-10.4416
ubk0쎯if쎯	-10.4417
iww쎯	-10.4417
。”ige쎯	-10.4423
wyp쎯lg쎯fnrt쎯	-10.4426
qev쎯yt쎯pl쎯	-10.4426
saj쎯aib쎯	-10.4427
rhk쎯mww쎯	-10.4429
tg쎯tr쎯ip쎯	-10.4439
uqv쎯wx쎯	-10.4441
txg쎯uqw쎯	-10.4444
r쎯g쎯uk쎯	-10.4444
m쎯ip쎯	-10.4445
uwb쎯	-10.4446
if쎯tvfh1쎯if쎯fwm쎯	-10.4449
jn쎯ck쎯	-10.445
,gm쎯o쎯	-10.4451
ip쎯qk쎯	-10.4455
trf쎯pg쎯	-10.4456
,m쎯rh쎯	-10.4457
by쎯trh쎯	-10.4458
rwb쎯	-10.4458
v쎯fhn쎯	-10.4462
wt쎯ma쎯	-10.4462
ayn쎯	-10.4466
tr쎯uqwm0쎯	-10.4466
wdn쎯rvyl쎯,	-10.4466
。yvh쎯	-10.4467
qdb쎯pd쎯	-10.4469
ght쎯ick쎯uk쎯	-10.4472
。vk쎯	-10.4477
xa쎯pl쎯	-10.4479
xnh쎯qaj쎯	-10.4483
pe쎯lfq쎯	-10.4485
iq쎯tel쎯	-10.4492
fggh쎯gk쎯	-10.4494
gkl쎯tn쎯nnh쎯ta쎯	-10.4494
ymhj쎯n쎯	-10.4494
xl쎯eaf쎯	-10.4495
xj쎯	-10.4496
yygt쎯itp쎯r쎯	-10.4497
vfhp1쎯tam쎯tr쎯	-10.4503
ito쎯	-10.451
fqb1쎯wrh2쎯	-10.4512
eb쎯tl쎯gf쎯	-10.4513
wgkq0쎯tj쎯	-10.4514
fny쎯og쎯rfc쎯sy쎯	-10.4515
lk쎯c쎯	-10.4515
shy쎯	-10.4518
dga쎯pwv쎯》	-10.4518
ugdu쎯cm쎯	-10.4519
jc쎯pnt쎯	-10.4526
y0쎯	-10.4526
,uep쎯	-10.4526
()。	-10.4526
qdm쎯eaj쎯	-10.4527
》k쎯r쎯	-10.4528
wycm0쎯tfq쎯r쎯	-10.4529
-쎅	-10.4529
an쎯lwj쎯h쎯	-10.4529
x쎯iyj쎯ga쎯v쎯aq쎯	-10.453
(,)	-10.453
쎀-	-10.453
ref쎯	-10.4531
smq쎯	-10.4532
tx쎯dg쎯nm쎯	-10.4532
yvi쎯ahko쎯	-10.4535
xyna0쎯dcg쎯	-10.4537
iak쎯ssss쎯	-10.4538
dga쎯pwv쎯dn쎯js쎯	-10.4539
,p쎯j쎯	-10.4542
oge쎯wxf쎯	-10.4543
dyt쎯mmm쎯	-10.4546
sh쎯yid쎯r쎯	-10.4547
iq쎯jn쎯	-10.4548
pt쎯yne쎯r쎯	-10.455
tjf쎯img쎯	-10.4553
bw쎯ta쎯	-10.4555
fl쎯wf쎯wf쎯km쎯	-10.4556
thg0쎯,	-10.4559
itx쎯mdfj쎯	-10.4562
tu쎯dga쎯dn쎯js쎯	-10.4565
anb0쎯sy쎯ip쎯bpf쎯	-10.4572
gmd쎯fghg쎯	-10.4574
vkf1쎯ga쎯	-10.4578
lkc쎯	-10.458
iss쎯	-10.4581
vk쎯wynb쎯	-10.4582
ukn쎯j쎯	-10.4583
yw쎯	-10.4584
쎇.쎅	-10.4587
tr쎯tkh쎯	-10.4589
fku쎯ep쎯	-10.4592
qk쎯pb쎯	-10.4592
c쎯h쎯r쎯	-10.4594
igk쎯	-10.4596
f1쎯	-10.4599
sym쎯	-10.46
l쎯ffff5쎯	-10.4602
avd쎯	-10.4605
wjh쎯	-10.4612
》、《k쎯l쎯	-10.4613
쎁쎂쎀쎀	-10.4615
(.)	-10.4618
gkp쎯fcl쎯	-10.4619
pnt쎯av쎯	-10.4625
uxl쎯	-10.463
ugdu쎯vb쎯	-10.463
wxf쎯wtd쎯	-10.4632
rnb쎯thn쎯	-10.4632
ym쎯kkk쎯rfm쎯	-10.4632
thfn쎯su쎯	-10.4635
qh쎯ygk쎯	-10.4637
trf쎯klj쎯j쎯	-10.4638
ryl쎯	-10.4641
fcu1쎯hc쎯	-10.4641
(dr쎯	-10.465
xr쎯	-10.4652
fm쎯jj쎯	-10.4653
pe쎯fl쎯wf쎯	-10.4655
de쎯alq쎯hhy쎯	-10.4656
ifj쎯iyc쎯	-10.4658
wtf쎯k쎯aw쎯	-10.4659
pye쎯l쎯	-10.4661
ad쎯dbm쎯ymc쎯ytb쎯	-10.4662
sg쎯udh쎯	-10.4667
▁쎅.	-10.4673
yn	-10.4674
fk	-10.4675
쎁쎀dq쎯	-10.4677
og쎯lwj쎯	-10.4677
pj쎯synw쎯	-10.4678
dpr쎯	-10.4679
쎂.쎂	-10.468
rvk쎯bmg쎯	-10.4681
쎃)	-10.4681
afs쎯g쎯	-10.4685
fny쎯adm쎯	-10.4686
fnrt쎯f쎯	-10.4688
hxw쎯	-10.4691
vnx쎯	-10.4692
ylf0쎯,adw쎯k쎯	-10.4696
ymc쎯tlf2쎯,	-10.4697
rmhj쎯uwyc0쎯	-10.4697
sm쎯,	-10.4697
(쎁)	-10.4698
lr쎯	-10.47
afs쎯tkh쎯	-10.47
ma쎯xg쎯	-10.47
쎄쎀쎀쎀	-10.4701
fpb쎯	-10.4701
um쎯pe쎯	-10.4701
ndn쎯	-10.4706
tx쎯fg쎯uqw쎯	-10.4707
yaop쎯	-10.4708
fny쎯og쎯wx쎯	-10.4711
gkl쎯y쎯wtf쎯、	-10.4712
pp쎯k쎯	-10.4713
の	-10.4714
fhqv쎯rvyl쎯	-10.4715
,sve쎯rnd1쎯	-10.4715
....	-10.4718
qtgw1쎯	-10.4722
lv쎯uthp쎯	-10.4722
wx쎯dgtg쎯	-10.4723
gu쎯ck쎯。	-10.4727
fwyc2쎯wyk쎯	-10.4728
bdx쎯	-10.4729
yf쎯aj쎯tg쎯yce쎯	-10.4732
atgq쎯	-10.4734
wxf쎯ux쎯	-10.4737
yygy쎯wx쎯anb0쎯sy쎯	-10.4741
fha쎯go쎯fha쎯	-10.4742
wx쎯uv쎯kkk쎯	-10.4743
xe쎯klj쎯	-10.4744
。q쎯wu쎯	-10.4748
rum쎯	-10.475
cbd쎯tha쎯	-10.475
wgk쎯wt쎯wo쎯wuf쎯	-10.475
khgp1쎯	-10.4751
y1쎯	-10.4751
itd쎯lt쎯	-10.4752
y쎯qe쎯	-10.4754
쎄rh쎯	-10.4758
rrr쎯fcu0쎯	-10.4759
lu쎯dd쎯r쎯	-10.4761
yjs쎯ipkf0쎯	-10.4762
elv쎯	-10.4765
dgkn쎯nge쎯	-10.4767
ipkh1쎯fwm쎯	-10.4767
r쎯rfc쎯sy쎯	-10.4767
(tuj쎯tq쎯	-10.4769
uuk0쎯	-10.4771
ipkh1쎯tv쎯	-10.4774
iv쎯tfqp쎯o쎯	-10.4777
jb쎯qq쎯	-10.4778
aga쎯	-10.4779
ey쎯adw쎯wb쎯	-10.4782
pyj쎯ytd쎯	-10.4783
maw쎯ahty쎯	-10.4785
ymf쎯ty쎯	-10.4786
go쎯yu쎯	-10.4788
쎉쎁	-10.4788
sg쎯wc쎯ngk쎯	-10.4788
k쎯fny쎯	-10.4789
wc쎯uwl쎯	-10.479
gu쎯ck쎯,	-10.4799
awx쎯shi쎯	-10.48
reh쎯	-10.4802
wwx쎯ybt쎯	-10.4804
쎂쎅쎆	-10.481
wwgj0쎯	-10.4813
et쎯wt쎯	-10.4813
tv쎯gkl쎯nnh쎯yn쎯、	-10.4813
ftbt쎯dga쎯	-10.4814
,qq쎯	-10.4814
쎁쎀-	-10.4815
쎁.쎃	-10.4816
ral쎯syp쎯:	-10.4816
qq쎯fqb1쎯wx쎯	-10.4819
ujfj쎯wug1쎯,	-10.4821
aynr쎯	-10.4821
ts쎯wrh2쎯gh쎯	-10.4821
mhu쎯	-10.4823
pym쎯qe쎯	-10.4823
vvv쎯,	-10.4825
g쎯xt쎯	-10.4829
kwn쎯	-10.4831
dmj1쎯dn쎯。	-10.4831
ggi쎯ab쎯	-10.4832
n쎯apk쎯whf쎯og쎯	-10.4833
dd쎯fw쎯	-10.4833
bm쎯tmd쎯	-10.4834
ssss쎯sft쎯	-10.4835
,rh쎯	-10.4836
cn쎯go쎯sghg1쎯gog쎯	-10.4839
tfqp쎯rt쎯	-10.4842
wdn쎯te쎯ywx쎯yygy쎯	-10.4848
nx쎯gog쎯	-10.485
fg쎯uqw쎯	-10.485
a쎯og쎯lfq쎯aq쎯	-10.4855
쎈eee쎯cd쎯lk쎯a쎯wt쎯	-10.4857
m1쎯	-10.4862
tjgh2쎯	-10.4862
puf쎯	-10.4863
i쎯qy쎯	-10.4864
ipkh1쎯mqb쎯r쎯	-10.4864
dh쎯pgk쎯,	-10.4869
g쎯nfc쎯	-10.487
wv쎯qev쎯	-10.4871
ftbt쎯ip쎯sov쎯	-10.4872
gqjo0쎯fghg쎯	-10.4874
nae쎯gm쎯	-10.4875
e쎯jf쎯	-10.4881
,vcl쎯lt쎯	-10.4882
qfhw0쎯ght쎯ywf쎯	-10.4886
fn쎯》	-10.4886
j1쎯	-10.4887
tv쎯xeg쎯xkw쎯uk쎯	-10.4889
rfc쎯sy쎯t쎯	-10.489
ftbt쎯ip쎯rfm쎯jg쎯	-10.4891
ym쎯mmm쎯	-10.4893
fgh쎯ag쎯	-10.4894
j쎯g쎯wug1쎯	-10.4895
uq쎯cep쎯wgj쎯tjh쎯	-10.4898
bue쎯uthp쎯	-10.49
》,《	-10.49
r쎯jf쎯whn쎯,	-10.4901
rhc쎯	-10.4901
xfm쎯pwat쎯	-10.4902
。psu쎯	-10.4903
j쎯q쎯wu쎯	-10.4904
vij쎯	-10.4905
oqdo쎯oat쎯	-10.4909
rqw쎯ipkm0쎯	-10.491
jf쎯adwe1쎯r쎯	-10.491
tvt쎯	-10.4915
xyna0쎯aft쎯	-10.4915
。l쎯ffff5쎯dm쎯tkw쎯	-10.4916
ygu쎯pj쎯	-10.4916
oge쎯xl쎯	-10.4917
rnw쎯lfnh쎯	-10.4918
쎅～	-10.4921
mmm쎯fhc쎯	-10.4921
wc쎯fqb1쎯ue쎯	-10.4925
wwwk쎯tq쎯	-10.493
tj쎯c쎯	-10.4935
ajt쎯ah쎯	-10.4936
qaj쎯ykg쎯	-10.4937
sqdy쎯	-10.4937
dd쎯qq쎯ovt쎯	-10.4939
쎃쎂쎀	-10.494
jb쎯jh쎯r쎯	-10.4944
g쎯th쎯	-10.4944
ntk쎯gf쎯mmm쎯aq쎯	-10.4945
μ	-10.4946
pp쎯bb쎯	-10.4948
er쎯	-10.4948
쎁.쎁	-10.4951
쎂쎀쎀쎁	-10.4952
jghm1쎯sft쎯	-10.4953
ybt쎯	-10.4953
sgx쎯	-10.4953
g쎯gd쎯	-10.4954
yyv쎯	-10.4954
aigh쎯	-10.4958
jty쎯jf쎯	-10.4958
hko쎯fmk쎯	-10.4959
sq쎯	-10.4959
iie쎯rw쎯	-10.4961
lhj쎯	-10.4964
mf쎯u쎯	-10.4967
mw쎯e쎯	-10.4967
,i쎯on쎯	-10.4969
sf쎯w쎯	-10.4972
wxf쎯fm쎯	-10.4973
tx쎯wty쎯	-10.4976
and쎯dd쎯r쎯	-10.4977
yy쎯aa쎯:	-10.4978
we쎯qd쎯	-10.498
dyi쎯	-10.4981
vfb쎯wh쎯	-10.4985
jjjj쎯pl쎯	-10.4988
ga쎯og쎯	-10.4989
jfj쎯	-10.4991
u쎯tg쎯r쎯	-10.4991
쎇eee쎯cd쎯lk쎯a쎯wt쎯	-10.4991
wqa쎯ijl쎯	-10.4995
b쎯“	-10.4998
▁jb쎯dd쎯	-10.5
쎀～	-10.5001
geh쎯	-10.5004
oyvk0쎯nii1쎯ugm쎯	-10.5005
gh쎯bt쎯	-10.5008
ym쎯tffu쎯ip쎯suq쎯	-10.501
xy쎯	-10.501
gu쎯egc쎯	-10.5011
dfff쎯	-10.5011
▁-	-10.5015
쎁쎅쎀쎀	-10.5015
tr	-10.5016
nf쎯jgm쎯	-10.5019
,sghg1쎯	-10.502
▁bm쎯th쎯	-10.5023
oge쎯gcft2쎯	-10.5023
vt쎯rh쎯	-10.5024
gae쎯dn쎯r쎯	-10.5027
,wq쎯	-10.5029
yo쎯tkh쎯	-10.5031
dq쎯adwr쎯	-10.5032
tu쎯ip쎯bpf쎯	-10.5036
pu쎯wgq쎯	-10.5037
fgh쎯pb쎯	-10.5041
ujq쎯	-10.5041
iwf쎯lw쎯r쎯	-10.5042
qh쎯uk쎯	-10.5046
k쎯tffu쎯	-10.5048
pg쎯adwe1쎯	-10.5049
udjh쎯	-10.505
aw쎯gef쎯lft쎯	-10.5051
쎁쎉쎃쎅rh쎯	-10.5054
l쎯e쎯	-10.5054
iann쎯	-10.5056
thfn쎯tc쎯	-10.5057
а	-10.5057
wg쎯tmd쎯	-10.5057
bm쎯tld1쎯	-10.5058
ag쎯rh쎯	-10.5059
rc쎯cf쎯	-10.5066
xyna0쎯ndj쎯	-10.5068
kwyn2쎯	-10.5069
dhv쎯	-10.5069
um쎯wf쎯	-10.507
pe쎯,	-10.507
ipwk0쎯iyw쎯	-10.5071
sm쎯sq쎯。	-10.5074
aq쎯mw쎯	-10.5076
o쎯ad쎯dbm쎯	-10.5078
fwm쎯aib쎯wx쎯	-10.5078
쎁쎀wh쎯	-10.5078
。hx쎯qh쎯,	-10.5079
o쎯k쎯l쎯	-10.5079
amyn0쎯ndm쎯	-10.5079
,ld쎯dmj1쎯	-10.508
rpwi쎯	-10.5085
sh쎯yid쎯	-10.5085
kht쎯、	-10.5086
sm쎯wf쎯	-10.5087
ai쎯kht쎯	-10.5089
fwn쎯	-10.509
qna쎯	-10.5092
ad쎯qqqq1쎯wf쎯	-10.5094
vq쎯vld쎯	-10.5096
wg쎯an쎯lwj쎯	-10.5097
l쎯gl쎯	-10.5098
lge쎯	-10.51
yo쎯tj쎯	-10.5106
yfy1쎯	-10.5107
y쎯iyc쎯	-10.5107
gfq쎯hw쎯	-10.511
,rg쎯go쎯	-10.5112
rcn1쎯rng0쎯	-10.5113
puv쎯xe쎯k쎯ip쎯	-10.5118
whf쎯gk쎯og쎯	-10.512
dgtg쎯wx쎯	-10.512
iq쎯ime쎯	-10.5122
cl쎯	-10.5123
spq쎯	-10.5123
dc쎯vb쎯	-10.5123
i쎯et쎯	-10.5124
,o쎯b쎯	-10.5126
sdm쎯xe쎯	-10.5126
quh1쎯	-10.5126
ymc쎯ytb쎯yjj0쎯wg쎯	-10.5126
fm쎯kht쎯	-10.5127
pgc쎯y쎯wtf쎯	-10.513
j0쎯	-10.5132
etn쎯gcf쎯	-10.5132
qt쎯bb쎯	-10.5134
쎀.쎄	-10.5135
kd쎯tjh쎯	-10.5142
gm쎯udy쎯	-10.5143
mh	-10.5143
ypt쎯oy쎯	-10.5146
udjh쎯on쎯	-10.5151
ovt쎯dj쎯	-10.5154
wfhg쎯tj쎯	-10.5156
r쎯yo쎯wx쎯	-10.5161
y쎯w쎯	-10.5162
xxf쎯og쎯tg쎯	-10.5163
sm쎯ysi쎯	-10.5163
r쎯whf쎯og쎯	-10.5163
nh쎯xjm쎯	-10.5168
uj쎯r쎯	-10.5169
l쎯bf쎯wx쎯	-10.5172
ce쎯lt쎯,	-10.5174
aqt쎯bc쎯	-10.5174
klj쎯qk쎯	-10.5176
、rrr쎯	-10.5178
ygu쎯tfqp쎯	-10.518
v쎯sgfb쎯	-10.5182
bda쎯	-10.5184
wdn쎯yv쎯r쎯	-10.5185
jf쎯whn쎯	-10.5185
wynb쎯rh쎯	-10.5185
uve쎯	-10.5186
sh쎯wfny0쎯	-10.5187
vijh쎯	-10.5187
eaj쎯	-10.519
tx쎯g쎯nm쎯	-10.519
xh쎯wycm0쎯	-10.5191
dyn쎯ya쎯	-10.5192
bct쎯wys쎯	-10.5194
tavn쎯yqa쎯	-10.5197
w쎯dd쎯	-10.5199
dd쎯uyh쎯	-10.5201
t쎯py쎯wf쎯	-10.5201
쎁쎉쎀	-10.5203
ton쎯	-10.5203
gkl쎯egc쎯ta쎯	-10.5206
dnv1쎯wtu쎯	-10.5208
pu쎯nu쎯	-10.5211
wh쎯ntg쎯wx쎯	-10.5215
jn쎯jyie쎯《	-10.5215
ftbt쎯ipkf0쎯	-10.5222
r쎯ukd0쎯jghm1쎯	-10.5224
쎉-	-10.5225
dnv1쎯w쎯	-10.5226
pn쎯yy쎯	-10.523
ghd0쎯j쎯	-10.523
qkm쎯mw쎯	-10.523
tmd쎯ym쎯	-10.5232
is쎯	-10.5232
vvv쎯bynw0쎯	-10.5233
trng쎯	-10.5234
gu쎯pv쎯	-10.5234
g쎯wsg0쎯wx쎯	-10.5236
y쎯wtf쎯。	-10.5238
qq쎯o쎯	-10.5241
ン	-10.5241
sbd쎯lkmi0쎯gae쎯	-10.5243
wa쎯fwf쎯	-10.5243
lfc쎯	-10.5244
qgq쎯	-10.5246
ddm쎯fghg쎯dga쎯	-10.5247
e쎯b쎯	-10.5249
dhb쎯d쎯r쎯	-10.5249
tjtl쎯gfi쎯	-10.5249
----	-10.5249
쎁쎈쎅	-10.525
쎀.쎆	-10.5258
ymhj쎯fnrt쎯r쎯	-10.5259
wnnf쎯	-10.526
dmj1쎯dn쎯r쎯	-10.5262
wvp쎯	-10.5262
rpwn1쎯rnbm쎯	-10.5264
rwyg쎯bm쎯r쎯	-10.5269
al쎯ce쎯:	-10.5273
vc쎯vc쎯	-10.5274
idr쎯gf쎯	-10.5275
cd쎯xyna0쎯	-10.5276
sk쎯et쎯	-10.5277
itd쎯fcl쎯r쎯	-10.5279
sgjq쎯	-10.5281
iyv쎯ijlc쎯	-10.5286
gmd쎯maw쎯	-10.5287
gq	-10.5288
wc쎯xd쎯	-10.5288
cn쎯dq쎯ln쎯y쎯yq쎯	-10.529
wk쎯ijl쎯	-10.529
ssg쎯	-10.5291
ua쎯d쎯	-10.5294
bg쎯tg쎯uk쎯	-10.5296
gh쎯uk쎯	-10.531
g쎯wwv쎯	-10.5311
,ccc쎯tq쎯	-10.5313
lk쎯h쎯	-10.5314
og쎯wtu쎯	-10.5315
pt쎯w쎯	-10.5315
kq쎯h쎯	-10.5315
yny0쎯u쎯	-10.5316
aq쎯、	-10.5318
ykk쎯	-10.5319
gef쎯itx쎯	-10.5319
et쎯ii쎯	-10.5323
,wgj쎯	-10.5324
gh쎯go쎯	-10.5326
ith쎯ftbt쎯yce쎯ds쎯	-10.5326
yy쎯qf쎯	-10.5328
ym쎯ige쎯	-10.5328
y쎯xt쎯	-10.533
fcln쎯	-10.5331
qjf쎯jn쎯ib쎯	-10.5339
khu쎯gfi쎯fcp쎯fcl쎯	-10.5343
쎁쎄쎀	-10.5344
ggn쎯	-10.5344
gmii0쎯	-10.5348
ftjb쎯ce쎯	-10.5348
hx쎯qh쎯	-10.5349
g쎯jjjj쎯	-10.5351
,j쎯g쎯pe쎯	-10.5354
、amw쎯	-10.5354
jaj1쎯	-10.536
,ai쎯	-10.536
qgj쎯nfp쎯	-10.5361
g쎯xg쎯	-10.5362
,j쎯g쎯rn쎯	-10.5366
dd쎯ahn쎯	-10.5367
ibi쎯	-10.5368
iak쎯ivc쎯	-10.537
ud쎯ny쎯	-10.5371
eu쎯gkh0쎯	-10.5374
s쎯gxi쎯	-10.5375
gm쎯dhb쎯	-10.5375
xtu쎯gf쎯	-10.5377
ftg쎯dgh쎯	-10.5377
k쎯aw쎯ipk쎯km쎯,	-10.5379
,dr쎯qk쎯	-10.5381
tffu쎯tffu쎯。	-10.5382
wvn쎯	-10.5383
w쎯uj쎯	-10.5386
fcl쎯eyni쎯	-10.5386
tk쎯l쎯	-10.5387
iv쎯qd쎯	-10.5391
r쎯yid쎯et쎯	-10.5396
(qn쎯rtd쎯	-10.5396
cf쎯tq쎯	-10.5396
쎅dq쎯	-10.5397
tfk쎯dq쎯	-10.5397
sk쎯wv쎯o쎯	-10.5398
pw	-10.5399
ukd0쎯jghm1쎯r쎯	-10.5403
fjg쎯dq쎯	-10.5404
oge쎯ese쎯	-10.5405
ndj쎯bpf쎯	-10.5407
icd쎯	-10.5412
qnq쎯ou쎯	-10.5412
f쎯gkp쎯	-10.5414
lh쎯fgh쎯	-10.5416
e쎯ud쎯uk쎯uyh쎯	-10.5417
iyb쎯	-10.5418
rtfp쎯	-10.542
lgm쎯	-10.5422
ige쎯usr쎯	-10.5422
l쎯bf쎯sm쎯fnrt쎯	-10.5428
,tuj쎯tq쎯	-10.5434
uqwm0쎯egl쎯	-10.5437
wty쎯rh쎯	-10.544
,gcft2쎯lt쎯gf쎯	-10.5442
o쎯sg쎯	-10.5443
tfqp쎯yce쎯	-10.5445
gmww쎯dd쎯	-10.5447
pw쎯k쎯	-10.5448
abe쎯	-10.5451
m쎯g쎯	-10.5452
。m쎯jf쎯	-10.5455
fq쎯ovt쎯	-10.5456
dn쎯al쎯r쎯	-10.5456
fm쎯psu쎯	-10.5457
rjq쎯	-10.5459
tqv쎯pg쎯ntg쎯	-10.5461
xfm쎯tavn쎯	-10.5465
、ih쎯	-10.5467
ynjh0쎯	-10.5467
xfnh쎯	-10.5471
ip쎯tg쎯r쎯	-10.5473
ux쎯psu쎯	-10.5473
ngk쎯wyc쎯	-10.5479
nf쎯xuj쎯	-10.5479
ln쎯kht쎯	-10.5481
uoo쎯	-10.5483
yygy쎯bu쎯	-10.5483
r쎯ip쎯tg쎯	-10.5484
ge쎯je쎯	-10.5487
쎁쎉쎂쎉rh쎯	-10.5487
km쎯,	-10.5488
xa쎯qh쎯	-10.5488
j쎯x쎯	-10.5489
xwy쎯rf쎯	-10.5491
tdg1쎯wy쎯	-10.5493
gkl쎯ftbt쎯rep쎯,	-10.5497
k쎯l쎯gl쎯	-10.5499
ybv쎯ton쎯	-10.5502
it쎯uqf쎯	-10.5505
쎀dnv1쎯fqb1쎯,	-10.5506
dm쎯h쎯	-10.5507
lfon0쎯	-10.5518
wg쎯xte쎯	-10.5518
쎂쎄쎀	-10.5518
jtyq1쎯	-10.5518
dd쎯f쎯	-10.5518
pu쎯gm쎯b쎯	-10.5519
sagg쎯lks쎯	-10.5519
sg쎯w쎯	-10.5519
jn쎯du쎯	-10.5521
ucw쎯a쎯	-10.5524
rmc쎯uqwm0쎯ftj쎯	-10.5527
wg쎯thd쎯fcl쎯	-10.5529
e1쎯	-10.5529
aq쎯ght쎯ywf쎯	-10.5531
dd쎯qq쎯	-10.5534
tqq쎯n쎯	-10.5536
jhf1쎯bwg쎯	-10.5538
adnt1쎯nnh쎯	-10.5538
▁(쎂)	-10.5539
sghg1쎯kht쎯	-10.5539
pt쎯fcp쎯	-10.5543
kfi쎯uthp쎯	-10.5543
aww쎯	-10.5545
ggi쎯xat쎯	-10.5547
ukn쎯xg쎯	-10.555
tffu쎯yy쎯dm쎯r쎯	-10.5554
sgn쎯yy쎯	-10.5556
je쎯fje쎯	-10.5556
wsg0쎯tgj쎯	-10.5557
bm쎯r쎯	-10.5558
v쎯udp쎯	-10.5559
ywe쎯	-10.5561
n쎯lw쎯	-10.5564
dn쎯kkk쎯	-10.5564
sagg쎯	-10.5565
v쎯nae쎯hka쎯ltk쎯	-10.5568
j쎯g쎯uk쎯	-10.5573
tgv쎯bd쎯“	-10.5576
2	-10.5577
bqn쎯bb쎯	-10.5578
,ipw쎯epc쎯	-10.5578
wyq쎯aa쎯	-10.5583
dg쎯jtg쎯	-10.5587
,p쎯tkh쎯	-10.5588
itx쎯ud쎯	-10.5589
wvd쎯v쎯r쎯	-10.559
uk쎯wrh2쎯	-10.5591
fqb1쎯rh쎯	-10.5591
yox쎯ma쎯	-10.5592
uqd0쎯”	-10.5593
thdu쎯	-10.5598
trf쎯xq쎯	-10.5603
bnn2쎯bb쎯	-10.5604
ipgg0쎯	-10.5607
r쎯ad쎯dbm쎯h쎯,	-10.5607
w쎯adw쎯k쎯	-10.5608
ll쎯w쎯	-10.561
g쎯ffi쎯	-10.5611
wc쎯www쎯	-10.5612
toc쎯yq쎯	-10.5612
wyp쎯hh쎯	-10.5614
。thd쎯	-10.5615
thp쎯ta쎯	-10.5615
yyne쎯	-10.5617
wv쎯nnk쎯	-10.5621
nck쎯	-10.5622
rc쎯tmdf1쎯	-10.5626
,ukn쎯	-10.5631
-쎇	-10.5633
쎁/쎂	-10.5641
rry쎯	-10.5641
dd쎯gf쎯	-10.5647
nf쎯tey쎯	-10.5649
(쎁).	-10.5651
쎃쎆쎀	-10.5652
ukq쎯	-10.5653
uu쎯vcb쎯	-10.5658
(ak쎯	-10.5664
nty1쎯af쎯ga쎯yt쎯	-10.5666
,gm쎯d쎯	-10.5669
ght쎯ywf쎯rn쎯d쎯f쎯	-10.5671
adw쎯uj쎯	-10.5673
kkkk0쎯dgkn쎯	-10.5676
쎂.쎁	-10.5677
cwg쎯nh쎯	-10.5677
tjf쎯kfi쎯	-10.5679
fghg쎯tg쎯nf쎯jgm쎯,	-10.5679
em쎯mww쎯	-10.568
쎁쎉쎃쎃rh쎯	-10.568
쎆rh쎯	-10.568
j쎯q쎯l쎯	-10.568
。o쎯b쎯	-10.5681
fl쎯wt쎯	-10.5685
rxj쎯fi쎯	-10.5688
xox쎯	-10.5694
쎈)	-10.5694
lpk0쎯fa쎯	-10.5697
jge쎯	-10.5701
a쎯tkgg0쎯txi쎯	-10.5701
쎂쎀쎀쎂	-10.5707
fqw쎯	-10.571
ip쎯tu쎯gkp쎯udi쎯w쎯	-10.5711
ght쎯fl쎯tv쎯km쎯	-10.5713
yt쎯tmdf1쎯	-10.5714
tmg1쎯tg쎯tr쎯	-10.5715
、h쎯itx쎯	-10.5715
qvb쎯	-10.5716
,ccc쎯qk쎯	-10.5719
jy	-10.5719
itf쎯uqv쎯,	-10.5719
tyna2쎯。	-10.572
rep쎯cbj쎯“	-10.5722
qug2쎯	-10.5724
fhv쎯fha쎯	-10.5725
쎁w쎯,	-10.5725
-쎉	-10.5726
v쎯rnbm쎯	-10.5732
vvv쎯qt쎯	-10.5736
uqwv쎯	-10.5738
rmn쎯tpi쎯	-10.5738
tm쎯h쎯	-10.5741
ffff5쎯ssss쎯	-10.5747
rtol1쎯bm쎯	-10.5747
ai쎯fm쎯uk쎯	-10.5749
usgp1쎯trfh0쎯	-10.5749
▁jn쎯idr쎯	-10.5752
"="	-10.5753
ap	-10.5754
maw쎯gajf쎯r쎯	-10.5758
teg1쎯wtfm1쎯	-10.5759
a쎯tkgg0쎯rfc쎯sy쎯	-10.576
r쎯gj쎯shn쎯	-10.576
x쎯g쎯u쎯og쎯w쎯ovt쎯	-10.5761
qtny1쎯	-10.5765
gdj쎯	-10.5765
jf쎯wa쎯r쎯	-10.5769
ihcv쎯	-10.5769
c쎯hx쎯	-10.577
nd쎯tv쎯wf쎯	-10.5772
xev쎯	-10.5773
tp쎯gj쎯,	-10.5774
pp쎯th쎯	-10.5776
g쎯dj쎯	-10.5777
wdt쎯bm쎯b쎯	-10.5781
fj쎯at쎯	-10.5781
,j쎯rxj쎯	-10.5782
bib쎯	-10.5783
trfg쎯myd쎯	-10.5786
sh쎯iv쎯gf쎯	-10.5789
qn	-10.5789
fcp쎯fcl쎯km쎯,	-10.579
mf쎯x쎯	-10.5793
,etn쎯	-10.5794
tx쎯vt쎯	-10.5796
tp쎯gj쎯txi쎯xyc쎯	-10.5796
rpwn1쎯	-10.5798
ack쎯	-10.5799
qn쎯rtd쎯:	-10.5801
r쎯i쎯m쎯	-10.5804
mb쎯wrh2쎯	-10.5807
qtfj1쎯mww쎯	-10.5809
tr쎯og쎯tp쎯gj쎯	-10.581
ige쎯·	-10.5813
ry쎯	-10.5814
itx쎯h쎯	-10.5817
쎇)	-10.5818
ipk쎯xeg쎯dn쎯km쎯、	-10.5818
mmm쎯qfhw0쎯	-10.5819
qlh0쎯	-10.582
ymf쎯dga쎯	-10.5821
mwwk쎯	-10.5825
tfl쎯·	-10.5827
rxj쎯r쎯j쎯	-10.5827
bm쎯fnrt쎯	-10.5831
pfi쎯xj쎯	-10.5832
r쎯trf쎯hko쎯	-10.5834
。vk쎯js쎯	-10.5834
pynn0쎯wyq쎯	-10.5837
y쎯ick쎯	-10.5838
ubte쎯	-10.584
wx쎯wgk쎯tr쎯	-10.584
ny쎯eyf쎯	-10.5844
rawk쎯sgn쎯	-10.5847
xqc쎯xxe쎯	-10.5847
afd0쎯ajj쎯	-10.5848
rcp쎯lkd쎯	-10.585
iwgj1쎯	-10.5854
tg쎯u쎯whf쎯og쎯	-10.5854
thd쎯tf쎯	-10.5856
쎇rh쎯	-10.5856
yopy1쎯	-10.5858
o쎯w쎯	-10.586
mw쎯,	-10.5862
udi쎯uk쎯	-10.5864
usr쎯pei쎯sf쎯	-10.5864
jjjj쎯uwl쎯	-10.5866
g쎯jsd쎯	-10.587
tg쎯itd쎯d쎯	-10.5874
igd쎯	-10.5876
vfh쎯	-10.5879
r쎯ad쎯dbm쎯	-10.5882
wygg쎯pwdj쎯	-10.5884
ps쎯ihc쎯ymhj쎯	-10.5885
j쎯g쎯pe쎯fny쎯og쎯	-10.5885
m쎯tf쎯	-10.5886
ymc쎯tlf2쎯r쎯	-10.589
tq쎯pp쎯o쎯	-10.5893
,p쎯hxf쎯	-10.5899
xh쎯ty쎯	-10.59
khgm4쎯ytt쎯	-10.5905
쎁/	-10.5909
twgi쎯xq쎯	-10.5911
,dr쎯	-10.5911
bd쎯yad쎯	-10.5912
kqr쎯	-10.5914
bb쎯wc쎯ngk쎯	-10.5916
wbj쎯wt쎯r쎯	-10.5918
。gm쎯e쎯	-10.5919
wg쎯nnh쎯	-10.5921
ad쎯dbm쎯h쎯	-10.5921
fku쎯ndj쎯	-10.5923
gw쎯gr쎯	-10.5924
ap쎯yss쎯	-10.5925
。”《	-10.5925
wk쎯bg쎯	-10.5926
h1쎯	-10.5927
aft쎯e쎯	-10.5927
ukqb0쎯	-10.5928
wf쎯yyq쎯pgc쎯	-10.5928
jjjj쎯,	-10.593
ujfj쎯ma쎯	-10.593
vj쎯	-10.5931
gj쎯gk쎯	-10.5936
wa쎯ytm쎯	-10.5937
rfc쎯sy쎯,	-10.5938
gt쎯grq쎯	-10.5938
fge쎯jtyq1쎯wf쎯	-10.5938
e쎯bv쎯wc쎯ngk쎯、	-10.5939
ln쎯shn쎯ght쎯ick쎯	-10.594
rs쎯fmk쎯	-10.5941
ymf쎯kfi쎯	-10.5943
ep쎯vb쎯	-10.5943
yygy쎯wx쎯r쎯	-10.5944
xl쎯ab쎯	-10.5944
g쎯sg쎯	-10.5947
ii쎯k쎯	-10.5948
wv쎯aet0쎯	-10.5951
f쎯gae쎯	-10.5952
iyc쎯fakg1쎯	-10.5953
h0쎯	-10.5955
u쎯kkk쎯od쎯gajf쎯:	-10.5956
,qm쎯gmu1쎯	-10.5956
wat쎯	-10.5956
ggg1쎯bb쎯	-10.5959
mq쎯iq쎯	-10.596
yu쎯:“	-10.596
ssu쎯	-10.5961
w쎯rnb쎯	-10.5963
ux쎯kht쎯	-10.5965
tg쎯gqf쎯	-10.5966
sff0쎯ss쎯	-10.5968
pn쎯km쎯	-10.597
g0쎯	-10.5972
sghg1쎯wmj0쎯	-10.5979
xj쎯d쎯	-10.598
ujfj쎯wug1쎯、	-10.5984
k쎯wxf쎯atd쎯ip쎯wf쎯	-10.5985
dmq쎯	-10.5988
ujn쎯qh쎯	-10.5988
ph쎯	-10.5991
pv쎯wg쎯tg쎯u쎯	-10.5991
qh쎯,	-10.5993
kpt쎯	-10.5993
rfc쎯sy쎯eb쎯tl쎯	-10.5994
rj쎯bc쎯	-10.5994
ijl쎯fnm쎯	-10.5996
es쎯et쎯b쎯	-10.5996
iytb0쎯iyni0쎯	-10.5997
riv쎯	-10.5997
ow쎯gs쎯	-10.5999
ugdu쎯kfi쎯	-10.6
ukn쎯gj쎯	-10.6001
usr쎯an쎯xn쎯	-10.6002
wb쎯w쎯	-10.6003
,fm쎯	-10.6006
rt쎯mm쎯	-10.6012
qnw쎯	-10.6016
iv쎯k쎯	-10.6016
dnv1쎯ylf0쎯	-10.6018
nnh쎯gl쎯pe쎯	-10.602
vs쎯uq쎯	-10.602
el쎯	-10.6023
dn쎯ygk쎯	-10.6023
cep쎯mq쎯	-10.6024
v쎯ugm쎯	-10.6024
tv쎯ipkh1쎯tv쎯、	-10.6028
irr쎯ia쎯dd쎯ip쎯	-10.6032
tf쎯ght쎯tp쎯gj쎯	-10.6034
rawk쎯	-10.6035
쎃dq쎯	-10.6038
mh쎯k쎯l쎯	-10.6039
쎂쎆jjjj쎯	-10.6039
mhm쎯	-10.604
wsg0쎯ta쎯	-10.6042
pwtf0쎯	-10.6043
tg쎯u쎯qie쎯wyk쎯	-10.6047
ct쎯	-10.6049
fc쎯uk쎯	-10.6052
fwf쎯	-10.6054
o쎯wqin쎯	-10.6055
uq쎯cyi쎯	-10.6057
ubtf쎯tfkp쎯	-10.6059
쎁쎀쎀dq쎯	-10.606
ndj쎯lft쎯	-10.606
xyna0쎯tv쎯	-10.6061
tp쎯gj쎯r쎯	-10.6062
w쎯。k쎯aw쎯ipk쎯km쎯。	-10.6066
wvm쎯ls쎯	-10.607
r쎯ujf쎯qi쎯	-10.607
jn쎯begg쎯	-10.6071
쎁쎂쎅	-10.6072
rym쎯	-10.6074
puv쎯hi쎯	-10.6075
lh쎯tb쎯	-10.6076
px쎯j쎯	-10.6077
▁q쎯wu쎯	-10.608
ymf쎯ou쎯	-10.6081
。m쎯jf쎯,	-10.6081
g쎯wrh2쎯	-10.6081
쎁쎉쎃쎄rh쎯	-10.6082
wt쎯kkk쎯《	-10.6082
wgkb2쎯wyc쎯	-10.6083
fug쎯fe쎯	-10.6086
l쎯pe쎯tgj쎯hko쎯	-10.6086
sh쎯xo쎯	-10.6087
e쎯bv쎯	-10.6088
dn쎯o쎯b쎯	-10.6094
dj쎯wxm쎯	-10.6095
fggh쎯rdn쎯	-10.6095
sg쎯tu쎯tg쎯	-10.6096
iyj쎯fm쎯ymhj쎯	-10.6103
wtp쎯	-10.6103
쎅.쎅	-10.6103
y쎯s쎯c쎯	-10.6105
ukn쎯jtyl쎯	-10.6105
”,“	-10.6107
dcw쎯djb쎯r쎯	-10.6108
r쎯hhhh쎯sfi쎯	-10.6108
wh쎯ftbt쎯ip쎯gyt쎯,	-10.611
ipk쎯xeg쎯xkw쎯	-10.611
nc쎯ulg쎯	-10.6111
rt쎯a쎯	-10.6111
swgu쎯	-10.6114
ger쎯	-10.6117
rvh쎯	-10.6119
ghd0쎯dqe쎯	-10.612
쎀.쎇	-10.6123
iie쎯ditn0쎯	-10.6125
xk쎯dd쎯	-10.6125
ngk쎯cn쎯	-10.6126
(쎁	-10.6128
,wv쎯klj쎯	-10.6131
tdjh1쎯	-10.6135
cq쎯	-10.6138
xf쎯vq쎯	-10.614
skf쎯	-10.6142
atdp쎯	-10.6142
qnj쎯	-10.6147
r쎯qk쎯pb쎯	-10.6149
oja쎯oth쎯	-10.615
jb쎯ih쎯	-10.6151
tx쎯g쎯pe쎯	-10.6153
tb쎯ab쎯	-10.6153
efc쎯	-10.6154
qt쎯tu쎯	-10.6157
gd쎯wgkq0쎯	-10.6159
wc쎯uq쎯	-10.616
pyb1쎯	-10.6162
vcy1쎯	-10.6164
n쎯wwwk쎯	-10.6165
x쎯apk쎯tp쎯gj쎯	-10.6166
srm쎯awx쎯	-10.6166
yfd쎯sf쎯	-10.6167
쎄쎈쎀	-10.6168
yygt쎯dd쎯pt쎯yne쎯	-10.6168
tffu쎯w쎯	-10.6169
,j쎯g쎯tkh쎯	-10.617
ip쎯wug1쎯,	-10.617
ga쎯ynk쎯	-10.6172
쎅)	-10.6175
rg쎯akgl쎯	-10.6179
nh쎯mqc쎯	-10.618
rgf쎯rg쎯	-10.618
x쎯》	-10.618
쎂kgn쎯	-10.6182
yw쎯pg쎯	-10.6185
쎉wh쎯	-10.6188
f쎯fhg1쎯:	-10.619
,cep쎯ipkh1쎯	-10.6192
xtf쎯	-10.6192
ymc쎯yf쎯r쎯	-10.6193
ic쎯pb쎯	-10.6194
,gf쎯j쎯	-10.6195
l쎯pe쎯g쎯xe쎯	-10.6195
rvy쎯if쎯	-10.6196
mw쎯ibi쎯	-10.6198
xa쎯yta쎯	-10.6199
gjq쎯vb쎯r쎯	-10.6202
jn쎯uh쎯	-10.6202
ud쎯uft쎯	-10.6204
vpe쎯	-10.6204
kv쎯	-10.6205
rc쎯tjt쎯	-10.6206
xcy쎯rnr쎯	-10.6208
d쎯l쎯mw쎯qh쎯	-10.6208
jhf1쎯	-10.621
gkl쎯y쎯wtf쎯tv쎯km쎯	-10.6216
。hhhh쎯ue쎯,	-10.622
pt쎯yne쎯rj쎯waw쎯	-10.6225
pe쎯fl쎯wf쎯wf쎯km쎯	-10.6227
y쎯lt쎯	-10.623
wsg0쎯rmhj쎯	-10.6233
puv쎯xe쎯	-10.6233
dm쎯jty쎯	-10.6234
bm쎯ipg쎯	-10.6236
cbt쎯rfh0쎯	-10.6238
alfj0쎯	-10.6241
yngk0쎯ian0쎯	-10.6242
vfi쎯	-10.6244
ip쎯fny쎯og쎯	-10.6245
wgk쎯wt쎯,	-10.6245
rd쎯	-10.6247
uck쎯	-10.6249
,ux쎯	-10.6252
uvo쎯bk쎯	-10.6252
qnth쎯ipg쎯	-10.6254
adef0쎯aynr쎯	-10.6254
ghg1쎯	-10.6256
y쎯rf쎯w쎯	-10.6256
,kha쎯yb쎯	-10.6261
tg쎯u쎯ymc쎯tlf2쎯	-10.6264
see쎯	-10.6265
wgqt쎯	-10.6268
ipkh1쎯ipkh1쎯	-10.6273
qnnk1쎯udyj쎯	-10.6276
wv쎯dmh쎯d쎯	-10.6281
bm쎯kkk쎯	-10.6282
pei쎯og쎯uk쎯	-10.6283
pq쎯	-10.6284
y쎯w쎯wc쎯	-10.6285
wdn쎯gjh2쎯	-10.6287
pu쎯jf쎯	-10.6289
wo쎯	-10.629
wc쎯tl쎯km쎯	-10.6295
ii쎯dm쎯	-10.6298
uym쎯	-10.6299
sg쎯ffff5쎯	-10.63
pym쎯jfc쎯	-10.6301
pei쎯wt쎯tr쎯	-10.6304
yy쎯if쎯,	-10.6304
,wt쎯o쎯	-10.6304
,gh쎯	-10.6305
ywe쎯ubk0쎯	-10.6306
pt쎯cm쎯	-10.6307
쎅쎁쎂	-10.6307
쎁쎀rh쎯	-10.6308
es쎯wys쎯	-10.6308
jty쎯ysi쎯x쎯cwg쎯	-10.6309
gkl쎯y쎯xyna0쎯	-10.6312
uduk쎯gf쎯	-10.6312
oja쎯v쎯	-10.6312
rhy쎯	-10.6314
yne쎯gajf쎯	-10.6315
gmww쎯w쎯	-10.6316
uvo쎯pww쎯	-10.6316
bu쎯xtk쎯	-10.6318
pj쎯udjh쎯	-10.6321
rtf쎯sgmj쎯	-10.6324
dm쎯src쎯	-10.6329
iyjh쎯jtyq1쎯	-10.633
、sb쎯	-10.6331
cep쎯fp쎯b쎯	-10.6334
wfny0쎯fcl쎯	-10.6335
src쎯fnw쎯	-10.6337
쎁쎉쎃쎀rh쎯	-10.6341
쎂.쎃	-10.6343
kld쎯	-10.6344
gfi쎯km쎯	-10.6344
aqv1쎯	-10.6344
、ux쎯yiu쎯	-10.6349
bmg쎯	-10.6349
vbn쎯wu쎯	-10.635
ww쎯hx쎯	-10.6351
rb1쎯xqa쎯	-10.6351
p쎯uk쎯	-10.6351
dgkn쎯gc쎯	-10.6352
sk쎯tfkd쎯	-10.6352
cwg쎯	-10.6356
lsh쎯	-10.6357
xtk쎯	-10.6359
ujfj쎯wug1쎯:	-10.636
쎂.쎈	-10.6364
dm쎯tkw쎯쎄	-10.6364
xk쎯gqjo0쎯	-10.6366
о	-10.6366
wg쎯ta쎯	-10.6368
wxf쎯dht쎯	-10.6369
ym쎯dr쎯	-10.6369
v쎯dp쎯	-10.6372
쎀°	-10.6372
pp쎯uj쎯,	-10.6373
ga쎯ii쎯	-10.6375
jjjj쎯rb1쎯	-10.6376
rgf쎯pe쎯	-10.6376
aqg쎯aqr쎯isgg0쎯	-10.6376
gu쎯yy쎯wc쎯jfd쎯。	-10.6377
쎂～	-10.638
itm쎯	-10.6381
jhk1쎯rb1쎯	-10.6387
sgmk쎯	-10.639
yy쎯if쎯。	-10.639
rke쎯	-10.6393
twt쎯ytyh쎯	-10.6394
sf쎯。	-10.6395
ngk쎯wyc쎯uk쎯	-10.6395
ym쎯tld1쎯dfy쎯	-10.64
쎂쎄ih쎯jf쎯	-10.6407
if쎯w쎯	-10.6407
wt쎯et쎯,	-10.6408
쎁쎉쎂쎈rh쎯	-10.6411
:쎅	-10.6422
▁쎅	-10.6426
wg쎯tq쎯	-10.6433
ynh쎯	-10.6435
uth쎯ywf쎯	-10.6436
iv쎯wynb쎯	-10.6436
tve쎯vb쎯r쎯	-10.644
t쎯tp쎯gj쎯	-10.6443
ipkh1쎯rh쎯	-10.6444
tu쎯ta쎯	-10.6444
fh쎯gc쎯	-10.6446
ym쎯tffu쎯bpf쎯suq쎯	-10.645
ubtf쎯eu쎯	-10.6454
ii쎯wv쎯	-10.6456
thc쎯	-10.6458
afw쎯	-10.6458
g쎯cf쎯	-10.6459
am쎯fmud쎯。	-10.6465
mn쎯	-10.6465
nwgk쎯	-10.6466
dgkf0쎯	-10.6467
dqe쎯yw쎯	-10.6468
sc쎯tjh쎯	-10.6468
bde쎯sm쎯	-10.6469
synw쎯siq쎯	-10.647
gklp쎯	-10.6472
쎈kgn쎯	-10.6474
fl쎯wf쎯gj쎯gk쎯	-10.6475
fu쎯u쎯	-10.6476
jjj쎯wsg0쎯	-10.6479
ue쎯imk쎯	-10.648
,epc쎯gc쎯	-10.648
ugdu쎯ip쎯	-10.648
쎉)	-10.6483
khv쎯khp쎯	-10.6483
ai쎯itx쎯	-10.6483
rjg0쎯wk쎯	-10.6484
,xxr쎯	-10.6485
tjt쎯rmhj쎯	-10.6488
hgm쎯	-10.6489
gqg1쎯utd쎯w쎯	-10.649
wb쎯d쎯	-10.6493
qs쎯	-10.6493
dgkn쎯yid쎯	-10.6493
a쎯uqwm0쎯	-10.6497
txgt쎯dgkn쎯	-10.6499
bm쎯wtf쎯	-10.6503
bq쎯adnt1쎯	-10.6505
kkd쎯,	-10.6507
pg쎯rmhj쎯	-10.6511
쎀°C	-10.6512
bu쎯wgk쎯l쎯	-10.6512
oge쎯dqe쎯	-10.652
。p쎯hxf쎯	-10.6522
fhn쎯gc쎯	-10.6523
dd쎯fny쎯yygy쎯wx쎯	-10.6524
qq쎯rh쎯tg쎯ajj쎯sg쎯	-10.6524
hi쎯tf쎯	-10.6524
ii	-10.6526
fhw쎯ghd0쎯r쎯	-10.6528
ymc쎯d쎯	-10.653
▁isgg0쎯yhk쎯	-10.6532
vv쎯u쎯tu쎯	-10.6532
fje쎯bj쎯	-10.6533
xvk쎯iw쎯	-10.6533
ta쎯dp쎯	-10.6533
bn쎯kn쎯	-10.6537
knx쎯	-10.654
wxf쎯k쎯	-10.6542
ral쎯pgn쎯	-10.6545
nh쎯uwl쎯	-10.6545
puhc쎯rep쎯cbj쎯	-10.6546
ybj쎯	-10.6547
fny쎯bk쎯	-10.6549
tkh쎯,	-10.6551
ftbt쎯yce쎯ip쎯bpf쎯	-10.6554
l쎯u쎯	-10.6554
tg쎯。	-10.6557
y쎯s쎯x쎯apk쎯	-10.656
i쎯jqr쎯	-10.6563
,tkw쎯se쎯	-10.6565
ypt쎯oy쎯,	-10.6566
sghg1쎯pv쎯ymhj쎯	-10.6567
qyvl쎯gh쎯	-10.6571
bm쎯yam쎯	-10.6574
gip쎯dr쎯	-10.6575
ffff5쎯gku쎯	-10.6576
utd쎯ugm쎯r쎯	-10.6579
pwd쎯bm쎯am쎯fmud쎯	-10.6581
ylf0쎯。	-10.6581
ii쎯u쎯	-10.6583
ijl쎯ytyh쎯ymhj쎯	-10.6588
o쎯adw쎯	-10.659
r쎯v쎯nae쎯,	-10.659
mw쎯ymc쎯	-10.6592
▁(쎃)	-10.6594
rn쎯wt쎯	-10.6598
fnrt쎯jy쎯	-10.66
ktm쎯yid쎯	-10.6608
,kw쎯	-10.6608
ai쎯wmj0쎯	-10.661
qrn쎯	-10.6612
qr쎯kht쎯nnk쎯	-10.6614
nnh쎯if쎯pe쎯	-10.6617
syf쎯	-10.6618
rhc쎯qf쎯gae쎯	-10.6619
ija쎯dmh쎯	-10.662
aq쎯klj쎯	-10.6621
ivp쎯iqn쎯	-10.6624
,uq쎯cep쎯	-10.6625
xyna0쎯kgn쎯	-10.6625
wt쎯b쎯	-10.6625
uyh쎯yne쎯	-10.6626
xnf쎯	-10.6627
sg쎯nnh쎯j쎯	-10.6632
tv쎯pgj쎯wfny0쎯uk쎯	-10.6633
tqq쎯sfhg쎯	-10.6636
rl쎯	-10.6636
an쎯pe쎯	-10.6637
bn쎯wf쎯	-10.6638
r쎯fdm쎯fiy쎯	-10.6643
sqq쎯	-10.6643
lfof5쎯sghg1쎯sks쎯	-10.6643
if쎯》	-10.6644
xad쎯	-10.6645
pa쎯gkp쎯	-10.6656
tgj쎯tjt쎯	-10.6657
bde쎯jf쎯	-10.6658
tmd쎯lp쎯	-10.6659
rh쎯go쎯,	-10.6659
/쎃	-10.666
и	-10.6662
v쎯nae쎯fwm쎯aj쎯	-10.6662
lfn쎯yo쎯	-10.6663
tdtv쎯	-10.6664
pww쎯kkd쎯	-10.6665
uqt쎯js쎯。	-10.6665
rh쎯xe쎯	-10.6665
tuu쎯tb쎯	-10.6665
an쎯lwj쎯tk쎯f쎯	-10.6668
dg쎯xwy쎯	-10.6669
x쎯apk쎯gj쎯wynn3쎯,	-10.667
gm쎯e쎯km쎯a쎯	-10.6671
xeg쎯xkw쎯r쎯	-10.6673
r쎯g쎯rn쎯	-10.6674
wtf쎯ujn쎯	-10.6677
ta쎯xq쎯	-10.6677
vfhp1쎯l쎯	-10.668
y쎯s쎯dr쎯ou쎯	-10.6681
rgs쎯	-10.6682
ip쎯rb1쎯	-10.6687
,ugdu쎯l쎯	-10.6688
gk쎯yop쎯	-10.6688
gyt쎯y쎯wtf쎯	-10.6691
ith쎯ght쎯ywf쎯	-10.6691
lw쎯wc쎯pgc쎯、	-10.6691
lu쎯vb쎯	-10.6691
。ld쎯hx쎯,	-10.6692
you1쎯tq쎯	-10.6698
ta쎯iit쎯ymhj쎯	-10.6698
imj쎯xwf쎯	-10.6701
km쎯、	-10.6702
ntt쎯tf쎯	-10.6702
jf쎯ynt쎯	-10.6703
tkh쎯。	-10.6706
fkuc1쎯ddnl쎯	-10.6707
bll쎯	-10.6708
r쎯tf쎯o쎯	-10.6709
k쎯gxgu쎯	-10.671
”)	-10.6711
yxl쎯	-10.6711
,j쎯g쎯wh쎯	-10.6714
lfo쎯rrr쎯	-10.6714
dht쎯tb쎯	-10.6716
av쎯thg0쎯	-10.6717
?”	-10.6721
oge쎯fhl쎯	-10.6722
o쎯:	-10.6722
kkdu쎯	-10.6727
whf쎯og쎯。wc쎯ngk쎯	-10.6728
tg쎯ugv쎯	-10.6728
tuj쎯ujfj쎯r쎯	-10.6729
ttt쎯	-10.6729
ght쎯sc쎯	-10.6731
gf쎯hx쎯	-10.6731
jft쎯	-10.6732
rvyo쎯ii쎯	-10.6733
쎃～	-10.6733
sp쎯qc쎯	-10.6735
ab쎯xq쎯	-10.6743
bm쎯gm쎯d쎯	-10.6745
emc쎯wwv쎯rmhj쎯	-10.6746
td쎯qk쎯ya쎯	-10.6746
y쎯apk쎯	-10.6747
j쎯:	-10.6747
prh쎯	-10.6748
,aqt쎯tj쎯	-10.675
uxe쎯dm쎯	-10.6751
gkp쎯udh쎯	-10.6755
wbj쎯tfkp쎯b쎯	-10.6755
%。	-10.6757
yjjh1쎯、	-10.6757
≥	-10.6758
ebf1쎯	-10.676
txgi2쎯wxf쎯	-10.676
、ytey쎯iytb0쎯	-10.6761
nngt쎯	-10.6762
gmww쎯mdfj쎯	-10.6763
twf쎯kgn쎯	-10.6764
jn쎯sux쎯	-10.677
edjn쎯	-10.6776
scf쎯uu쎯	-10.6778
qi쎯lfq쎯	-10.6785
qynm1쎯mgn쎯	-10.6786
gkm쎯uqwm0쎯	-10.6789
ux쎯ugdu쎯	-10.6793
uqf쎯wf쎯	-10.6795
m쎯qk쎯	-10.6796
쎃쎅쎀	-10.6799
oge쎯vo쎯	-10.6801
、eb쎯tl쎯	-10.6801
wxm쎯fcp쎯	-10.6803
yi쎯e쎯	-10.6804
tonu쎯	-10.6804
geht쎯	-10.6806
gwy1쎯	-10.6807
mqu쎯r쎯	-10.6808
dyi쎯fw쎯	-10.6809
wy	-10.681
yi쎯ce쎯	-10.6815
rrp쎯an쎯	-10.6819
g쎯wh쎯w쎯	-10.6823
▁q쎯	-10.6831
uthp쎯ftbt쎯	-10.6831
dlf쎯ufk0쎯	-10.6831
vfhp1쎯ymc쎯r쎯	-10.6833
uni0쎯	-10.6834
yce쎯w쎯	-10.6834
ugdu쎯vvv쎯	-10.6834
faw쎯hh쎯	-10.6837
nnh쎯gl쎯anb0쎯sy쎯	-10.6839
ukn쎯wsg0쎯	-10.684
yynw1쎯nnh쎯	-10.684
mq쎯fcu0쎯	-10.6842
,g쎯wh쎯	-10.6845
thp쎯pv쎯	-10.6845
bd쎯ruv쎯	-10.6846
wvt쎯adwr쎯uff쎯	-10.6849
oge쎯ya쎯	-10.685
ey쎯sh쎯ud쎯	-10.685
rfc쎯if쎯	-10.6851
,hk쎯f쎯	-10.6853
pgy쎯pgy쎯	-10.6853
ad쎯sg쎯cd쎯ovt쎯	-10.6858
e쎯w쎯	-10.6862
ipw쎯ynt쎯	-10.6862
rn	-10.6863
gmww쎯dm쎯	-10.6866
xl쎯gcft2쎯	-10.6867
dnv2쎯adw쎯j쎯	-10.6867
tyna2쎯ywx쎯yygy쎯	-10.6869
itx쎯ii쎯	-10.687
lx쎯yf쎯	-10.687
fg쎯w쎯	-10.6872
fqu쎯sk쎯	-10.6872
ce쎯lt쎯。	-10.6873
fhn쎯wtf쎯	-10.6876
cm쎯hko쎯	-10.6878
(쎁쎉쎂	-10.6879
。sve쎯rnd1쎯	-10.688
ue쎯fj쎯	-10.688
bm쎯gm쎯r쎯	-10.6881
,i쎯wcy2쎯	-10.6883
l쎯n쎯	-10.6884
rxj쎯fm쎯	-10.6884
ujfj쎯qtj쎯	-10.6886
tx쎯쎄	-10.6886
gkm쎯ty쎯	-10.6887
tx쎯lh쎯nm쎯	-10.6888
us쎯thd쎯	-10.6889
d쎯suq쎯ip쎯tg쎯	-10.689
xe쎯a쎯tkgg0쎯jgm쎯	-10.689
쎁쎆쎀쎀	-10.6892
쎆.쎅	-10.6893
ol쎯ck쎯	-10.6895
ii쎯jjj쎯	-10.6899
tjt쎯jgf쎯dd쎯ip쎯	-10.69
pdx쎯	-10.69
iy쎯tmdf1쎯	-10.6902
xtd쎯	-10.6905
ipkh1쎯ytyh쎯	-10.6905
hxx쎯qc쎯	-10.691
lkd쎯jv쎯	-10.6913
gv쎯bb쎯	-10.6913
rrr쎯ae쎯	-10.6913
qiu0쎯·	-10.6914
(wynk쎯	-10.6919
,hk쎯f쎯dm쎯tkw쎯	-10.6921
wwf쎯sfi쎯	-10.6922
riu쎯ytyh쎯	-10.6922
rvk쎯um쎯	-10.6929
ihic쎯	-10.6932
pei쎯ax쎯	-10.6936
jtg쎯xe쎯	-10.6936
g쎯k쎯	-10.6937
wg쎯tkgg0쎯	-10.6938
쎁쎇쎀	-10.6939
pa쎯ya쎯	-10.694
rrg1쎯fnud쎯	-10.6942
mqb쎯gf쎯	-10.6943
rwv쎯ipg쎯	-10.6944
k쎯ny쎯ih쎯ip쎯	-10.6946
쎁w쎯	-10.6948
ipq쎯bj쎯ymhj쎯	-10.6949
nfif쎯	-10.6949
kht쎯,	-10.6949
fgh쎯vt쎯	-10.695
yvw쎯	-10.6952
、usr쎯	-10.6952
vfhp1쎯ymc쎯、	-10.6952
oqdo쎯ou쎯	-10.6957
amyn0쎯	-10.6957
g쎯w쎯	-10.6964
、jn쎯bb쎯	-10.6966
iu쎯aqrn0쎯	-10.6968
nae쎯bm쎯	-10.697
wv쎯klj쎯o쎯	-10.6971
adm쎯hhhh쎯r쎯	-10.6972
jgm쎯aib쎯ip쎯suq쎯	-10.6973
yaa쎯hko쎯	-10.6973
,ww쎯gk쎯	-10.6974
oy쎯。	-10.6975
tt쎯qk쎯	-10.6976
wyf0쎯dhb쎯	-10.6979
awx쎯ur쎯	-10.698
wbb쎯wyf0쎯	-10.6983
i쎯wjg쎯	-10.6988
efg0쎯	-10.6995
fq쎯ywx쎯	-10.6997
ipwk0쎯qev쎯	-10.6998
(쎁쎈쎉	-10.7
hich쎯	-10.7001
vt쎯dx쎯	-10.7003
wdt쎯b쎯	-10.7003
fgf쎯	-10.7003
qmw쎯	-10.7006
쎁쎅wv쎯qkhh1쎯	-10.7009
rmc쎯jyie쎯	-10.7011
pe쎯。	-10.7013
tffu쎯tk쎯tkh쎯	-10.7015
쎂쎀wv쎯qkhh1쎯	-10.7015
a쎯tkgg0쎯、	-10.7015
rw쎯fcu1쎯	-10.7016
,gae쎯dn쎯b쎯	-10.7017
xxm쎯lfod1쎯	-10.7019
xef쎯dhb쎯	-10.7019
fct쎯ey쎯	-10.702
so쎯bm쎯	-10.7021
o쎯wfh1쎯tc쎯	-10.7023
odm쎯	-10.7029
ugdu쎯iyt0쎯	-10.703
lkd쎯nh쎯	-10.703
txi쎯y쎯wtf쎯	-10.7031
et쎯f쎯	-10.7033
qfhw0쎯wug1쎯gf쎯	-10.7034
fj쎯nae쎯	-10.7035
rdj쎯qk쎯	-10.7038
waw쎯ii쎯	-10.7039
ijl쎯jef1쎯	-10.7039
k0쎯	-10.7042
isk쎯kkkk0쎯	-10.7043
bw쎯km쎯	-10.7043
h쎯b쎯	-10.7044
xry쎯	-10.7044
vb쎯,	-10.7046
rxj쎯wyc쎯	-10.7047
yh쎯wq쎯	-10.7049
ihc쎯uff쎯	-10.705
。n쎯l쎯	-10.7051
se쎯adw쎯	-10.7053
gqr쎯	-10.7054
쎁×	-10.7054
wtc쎯	-10.7056
iwb쎯	-10.706
tfqp쎯iwf쎯	-10.7061
puh쎯wi쎯	-10.7062
od쎯klj쎯	-10.7066
wc쎯xd쎯,	-10.7067
ftg쎯tg쎯	-10.7071
ukn쎯fay쎯	-10.7071
tve쎯it쎯	-10.7072
iffg쎯	-10.7072
fu쎯lk쎯b쎯	-10.7072
mhk쎯	-10.7074
yynw1쎯wc쎯ngk쎯	-10.7075
mww쎯rfm쎯	-10.7077
yn쎯·	-10.7079
oge쎯pyj쎯,	-10.7079
쎁쎀%	-10.708
▁『	-10.7083
swgj1쎯	-10.7085
rnr쎯fnr쎯kkd쎯	-10.7086
r쎯anb0쎯sy쎯	-10.7087
th쎯gkl쎯th쎯ta쎯	-10.7087
ipmq쎯tj쎯	-10.7088
pp쎯f쎯	-10.7089
tffu쎯qq쎯wh쎯	-10.709
ll쎯,ic쎯ytt쎯,	-10.7091
kl쎯g쎯wh쎯	-10.7091
rap쎯bm쎯	-10.7092
ntt쎯	-10.7092
wys쎯wgk쎯	-10.7093
wdk쎯	-10.7095
rpf쎯	-10.7096
wdn쎯ugdu쎯,	-10.7097
ccc쎯e쎯	-10.7097
c쎯fm쎯	-10.7107
.쎁쎀	-10.711
oge쎯pyj쎯yygy쎯je쎯	-10.711
fnrt쎯wgk쎯	-10.7113
rnb쎯ijl쎯쎁	-10.7114
。gm쎯d쎯	-10.7116
g쎯vtk쎯	-10.7117
gkl쎯y쎯wtf쎯,	-10.7118
쎁쎀쎅	-10.7119
lw쎯wc쎯ds쎯	-10.7119
gg쎯dd쎯	-10.7121
vi쎯》	-10.7121
ld쎯adw쎯	-10.7122
쎁.쎇	-10.7123
trf쎯gqr쎯r쎯	-10.7125
fhn쎯hko쎯	-10.7125
,rxj쎯	-10.7128
g쎯kht쎯	-10.7128
oo쎯、	-10.7129
tl쎯pu쎯	-10.7133
wdn쎯te쎯uqd0쎯	-10.7134
c쎯rg쎯,	-10.7135
ddu0쎯yny0쎯	-10.7135
-쎀쎁	-10.7136
rpw쎯rmhj쎯kkd쎯	-10.7137
r쎯dr쎯mj쎯	-10.7138
fnhp쎯	-10.7138
dgt1쎯、	-10.7141
icd쎯tep쎯	-10.7142
gu쎯oy쎯	-10.7142
dx쎯udi쎯whf쎯og쎯	-10.7146
efw쎯	-10.7147
fuk쎯yk쎯k쎯ny쎯	-10.7148
、fm쎯	-10.7154
wv쎯sgn쎯gc쎯	-10.7155
gcf쎯wynb쎯,	-10.7159
ytb0쎯fmk쎯hka쎯qv쎯	-10.7159
ijo쎯ya쎯	-10.716
r쎯vb쎯	-10.7163
r쎯svc쎯wynn3쎯	-10.7165
gu쎯tf쎯	-10.7166
rg쎯wtf쎯	-10.7167
d쎯wynb쎯	-10.7168
qyng쎯od쎯	-10.7169
wny0쎯tuh쎯	-10.7169
pdx쎯tr쎯	-10.717
al쎯ce쎯,	-10.7171
pde쎯	-10.7171
qk쎯jgm쎯	-10.7172
a쎯og쎯lfq쎯	-10.7172
fwf쎯wa쎯	-10.7174
쎈쎀%	-10.7174
rhk쎯ve쎯	-10.7179
fa쎯wsg0쎯	-10.7179
jf쎯r쎯	-10.718
wynm0쎯	-10.718
mw쎯ny쎯	-10.7185
yi쎯d쎯	-10.7186
lrj쎯	-10.7186
쎃.쎂	-10.7187
ipg쎯yo쎯	-10.7187
o쎯g쎯	-10.7192
qh쎯uq쎯	-10.7201
suq쎯wfk쎯	-10.7202
,hw쎯	-10.7203
–	-10.7204
iq쎯icf쎯	-10.7204
rnp쎯sgc쎯	-10.7204
uyh쎯yne쎯mqq쎯uh쎯	-10.7209
gef쎯itx쎯ith쎯	-10.721
gajf쎯whf쎯og쎯	-10.721
saj쎯aa쎯,	-10.7211
gogj쎯tak쎯o쎯	-10.7212
yne쎯,e쎯xte쎯sf쎯	-10.7213
i쎯yo쎯	-10.7213
vb쎯ygu쎯	-10.7214
쎁쎀.	-10.7214
awx쎯ycb쎯	-10.7215
wgep쎯	-10.7216
hk쎯f쎯dm쎯tkw쎯쎁	-10.7224
r쎯m쎯jf쎯	-10.7224
wgj쎯rgv쎯	-10.7225
eeqy쎯	-10.7227
jm쎯gc쎯	-10.7231
uxhp쎯	-10.7231
se쎯hw쎯	-10.7232
ftj쎯r쎯	-10.7233
gae쎯rvyl쎯	-10.7236
ry쎯vfhp1쎯	-10.7243
qgb쎯qje쎯	-10.7243
c쎯w쎯o쎯sg쎯	-10.7243
dl쎯tkgg0쎯	-10.7246
r쎯an쎯lwj쎯	-10.7246
dc쎯ype쎯	-10.725
,aw쎯e쎯	-10.7251
j쎯g쎯uthp쎯	-10.7254
쎁쎉쎃쎂rh쎯	-10.7256
iie쎯gxgu쎯	-10.7258
iyc쎯wsg0쎯	-10.7263
fwyc2쎯wrh2쎯	-10.7265
scf쎯ssss쎯	-10.7266
ougo쎯	-10.727
dmj1쎯dn쎯,	-10.7274
eb쎯tl쎯、	-10.7278
qh쎯qyv쎯	-10.7278
、xt쎯	-10.7281
r쎯tx쎯g쎯	-10.7282
jb쎯tgj쎯s쎯r쎯	-10.7282
xh쎯v쎯	-10.7284
k쎯l쎯nnh쎯gl쎯	-10.7285
kml쎯	-10.7285
yveh쎯	-10.7286
yiu쎯ndj쎯	-10.7287
adu1쎯	-10.7291
jyie쎯ktm쎯lt쎯	-10.7292
tffu쎯aps쎯iwyf2쎯	-10.7293
ab쎯dwg쎯	-10.7295
k쎯ny쎯y쎯wtf쎯	-10.7299
nge쎯xft쎯	-10.7299
pykw쎯	-10.7301
thd쎯qd쎯sf쎯	-10.7302
tve쎯nnw쎯	-10.7304
tg쎯idf0쎯	-10.7304
dj쎯ya쎯	-10.7307
,cf쎯gf쎯	-10.731
ujfj쎯g쎯	-10.731
me	-10.731
xx쎯vk쎯	-10.7312
cd쎯yaf쎯	-10.7312
txi쎯xyc쎯,	-10.7314
ajf1쎯	-10.7317
iyc쎯jhnr쎯	-10.7319
쎂쎁an쎯xn쎯	-10.7319
yga쎯	-10.7321
lk쎯dd쎯	-10.7323
tu쎯y쎯wtf쎯	-10.7324
rj쎯fi쎯	-10.7324
bpf쎯fghg쎯	-10.7327
pr쎯pt쎯	-10.7327
egc쎯ta쎯	-10.733
wbj쎯uu쎯gf쎯	-10.7334
×쎄	-10.734
ntg쎯。	-10.734
ryj쎯	-10.7341
dgj쎯ya쎯	-10.7343
dl쎯x쎯	-10.7343
wye쎯qd쎯	-10.7347
ynm쎯dmh쎯	-10.7349
쎁쎀쎈	-10.7351
itd쎯inty쎯	-10.7352
fjhh쎯	-10.7354
ftbt쎯rep쎯、	-10.7354
th쎯ta쎯	-10.7354
r쎯dgkn쎯ipmq쎯	-10.7354
쎅쎀쎀dq쎯	-10.7356
),pb쎯	-10.736
adwr쎯fjg쎯	-10.736
ftxu0쎯	-10.7361
xx쎯pfjm1쎯k쎯	-10.7365
tjh쎯gog쎯	-10.7368
r쎯tg쎯u쎯	-10.737
vfhp1쎯suq쎯	-10.7372
mq쎯ynnd쎯	-10.7372
wgk쎯uqwm0쎯	-10.7376
sm쎯tmd쎯	-10.7376
jq쎯adwe1쎯	-10.738
yu쎯,	-10.7384
opf쎯	-10.7385
iq쎯je쎯	-10.7386
gip쎯sk쎯c쎯	-10.7386
dd쎯gku쎯	-10.7387
tr쎯ou쎯	-10.7389
xww쎯sam쎯	-10.7393
yid쎯qvn2쎯	-10.7393
wv쎯fc쎯	-10.7393
x쎯xjm쎯	-10.7396
rnd1쎯yu쎯	-10.7397
ty쎯kkkk0쎯	-10.7399
ivy쎯	-10.7399
pei쎯dl쎯	-10.7401
wc쎯ngk쎯d쎯	-10.7402
k쎯md쎯jn쎯pym쎯ck쎯	-10.7402
kkd쎯pn쎯	-10.7402
ipm쎯tkw쎯	-10.7403
ee쎯	-10.7404
v쎯tg쎯r쎯	-10.7406
e쎯tjh쎯gf쎯	-10.7407
qyv쎯	-10.7407
rpv쎯yssr쎯	-10.741
dgj쎯wx쎯	-10.741
mht쎯	-10.7411
tmdf1쎯fmk쎯	-10.7411
bm쎯v쎯	-10.7416
th쎯。	-10.7419
k쎯xe쎯	-10.7419
,im쎯e쎯	-10.7419
kkd쎯wrh2쎯	-10.742
tlf2쎯et쎯。	-10.7422
mt쎯wsk쎯	-10.7424
,uq쎯cep쎯wgj쎯tjh쎯	-10.7425
trw쎯ycb쎯	-10.7425
vfhp1쎯ymc쎯,	-10.7425
,dnv2쎯adw쎯j쎯	-10.7426
bb쎯、	-10.7427
udbb쎯,	-10.7427
rfc쎯sy쎯ga쎯v쎯aq쎯	-10.7429
hko쎯,	-10.7429
rn쎯rn쎯ta쎯	-10.743
wg쎯dm쎯r쎯	-10.7431
g쎯uk쎯wv쎯	-10.7433
in쎯	-10.7434
nfc쎯,	-10.7435
dgh쎯wynb쎯	-10.7436
ai쎯ic쎯	-10.7436
wf쎯ta쎯	-10.7437
hka쎯l쎯	-10.744
yle쎯pp쎯	-10.7442
yu쎯je쎯nnh쎯	-10.7443
uqw쎯wf쎯yyq쎯	-10.7448
ftjb쎯sk쎯c쎯	-10.7451
fp	-10.7452
tuj쎯wj쎯:	-10.7453
jn쎯a쎯	-10.7455
,ic쎯ytt쎯,	-10.7456
dnv1쎯fqb1쎯。	-10.7457
g쎯adwe1쎯	-10.7458
amw쎯rcy0쎯	-10.7461
trs쎯trtg쎯。	-10.7462
a쎯wt쎯k쎯	-10.7462
wds쎯	-10.7465
pfjm1쎯gk쎯	-10.7471
,jb쎯xtu쎯	-10.7472
e쎯lt쎯	-10.7472
fq쎯w쎯	-10.7473
wynb쎯jjjj쎯	-10.7476
쎂쎀rh쎯	-10.7477
je쎯gr쎯	-10.7477
oge쎯ugdu쎯	-10.7479
td쎯egc쎯	-10.748
pj쎯rx쎯	-10.7482
ip쎯fge쎯fghg쎯	-10.7482
qk쎯yngk0쎯	-10.7484
j쎯wys쎯	-10.7485
hwb쎯lwx쎯	-10.7489
쎁쎉쎅	-10.7491
tcy쎯w쎯	-10.7496
jf쎯adwe1쎯,	-10.7497
u쎯og쎯wx쎯	-10.7498
▁(쎂).	-10.7498
yy쎯aa쎯,	-10.75
dd쎯ip쎯yygy쎯wx쎯	-10.7501
rwyg쎯tf쎯	-10.7501
,vca쎯	-10.7504
py쎯wf쎯tu쎯ip쎯bpf쎯	-10.7505
,xf쎯wgk쎯	-10.7505
-쎁쎀	-10.7506
j쎯l쎯mw쎯	-10.7513
sk쎯c쎯d쎯	-10.7517
g쎯su쎯,	-10.7518
ith쎯uk쎯xe쎯	-10.7519
js쎯scf쎯	-10.7519
쎁uqw쎯	-10.7521
fy쎯	-10.7522
i쎯on쎯rj쎯ym쎯	-10.7524
ukd0쎯jghm1쎯。	-10.7526
usr쎯g쎯wa쎯	-10.7529
a쎯og쎯aq쎯	-10.753
a쎯um쎯tp쎯gj쎯	-10.7532
km쎯。	-10.7533
aqt쎯wg쎯l쎯	-10.7533
i쎯fuf1쎯	-10.7537
ssyx쎯	-10.7537
eqn쎯	-10.7537
u쎯kkk쎯,	-10.7539
sg쎯tu쎯xxf쎯og쎯	-10.754
uq쎯cep쎯fcp쎯lwg쎯	-10.7541
bwf쎯wrh2쎯	-10.7541
。lpdk0쎯	-10.7542
nnk쎯、	-10.7542
、ii쎯	-10.7543
imkf1쎯nnh쎯	-10.7544
vca쎯e쎯	-10.7545
wf쎯wf쎯km쎯	-10.7545
ipk쎯ukn쎯fc쎯	-10.7546
tffu쎯pei쎯wt쎯tr쎯	-10.7547
fhn쎯ajj쎯	-10.7549
h쎯iytb0쎯	-10.755
,ggi쎯fuj쎯	-10.7552
rit쎯	-10.7553
쎁쎅dq쎯	-10.7553
rdj쎯ii쎯	-10.7555
in	-10.7555
ih쎯gf쎯	-10.7555
ab쎯jjjj쎯	-10.7556
w쎯,adw쎯k쎯ww쎯gk쎯t	-10.7557
dg쎯uqw쎯	-10.7559
ujf쎯ktm쎯	-10.7559
j쎯ww쎯	-10.7559
qq쎯qk쎯	-10.756
≤	-10.7563
kha쎯yb쎯sf쎯tv쎯wf쎯	-10.7564
-)	-10.7566
rpd1쎯	-10.7568
ukn쎯uk쎯wug1쎯gf쎯	-10.7569
aj쎯wv쎯	-10.7569
dmj1쎯ccc쎯	-10.7571
yygy쎯wx쎯khgp0쎯u쎯	-10.7572
ujf쎯tsh0쎯	-10.7572
f쎯nfc쎯	-10.7573
mq쎯fghy2쎯	-10.7573
ipwk0쎯yjjh1쎯	-10.7576
。”psu쎯	-10.7577
ige쎯ssn쎯	-10.7577
qf쎯qyo쎯	-10.7578
mds쎯	-10.7579
○	-10.7583
adwe1쎯wxm쎯	-10.7583
pe쎯et쎯	-10.7583
mqu쎯jf쎯	-10.7584
atd쎯ip쎯wf쎯	-10.7584
fggh쎯uqv쎯	-10.7586
jsg쎯	-10.7587
dga쎯pwv쎯km쎯,	-10.7589
쎀)	-10.7592
ih쎯veg쎯	-10.7594
,px쎯j쎯	-10.7595
w쎯ft쎯fuk쎯udyj쎯	-10.7596
jcf쎯rf쎯“	-10.7597
fje쎯tfpd쎯	-10.7597
iq쎯xtf쎯	-10.7599
aet0쎯rvyo쎯	-10.7601
uqt쎯lt쎯	-10.7604
qrm쎯sfi쎯pfjm1쎯	-10.7604
pp쎯xte쎯	-10.7605
wg	-10.7606
cbn0쎯	-10.7606
iqpl1쎯or쎯	-10.7606
iuj쎯	-10.7607
gj쎯shn쎯r쎯	-10.7608
tv쎯wf쎯	-10.7609
쎃쎀dq쎯	-10.7611
veg쎯	-10.7611
fp쎯r쎯	-10.7613
why쎯	-10.7616
gd쎯qd쎯rnb쎯	-10.7617
cf쎯adw쎯	-10.7618
r쎯al쎯ce쎯	-10.7618
r쎯ny쎯	-10.7623
,lxx쎯wycb쎯	-10.7624
쎈rh쎯	-10.7626
ld쎯bb쎯	-10.7626
dga쎯pwv쎯t쎯	-10.7628
mh쎯dr쎯	-10.7629
u쎯f쎯	-10.763
mcw쎯	-10.763
et쎯ax쎯	-10.763
je쎯ige쎯	-10.7631
xtu쎯tmd쎯	-10.7632
khh쎯	-10.7632
ybo쎯qntf쎯	-10.7635
dd쎯fny쎯	-10.7638
yxl쎯trt쎯	-10.7638
ip쎯suq쎯。	-10.7639
lfn쎯wx쎯	-10.764
bk쎯og쎯ftbt쎯yce쎯	-10.7643
dnv1쎯pb쎯	-10.7644
yq쎯tl쎯	-10.7647
y쎯lw쎯r쎯	-10.7647
쎀.쎉	-10.7648
wdn쎯rfm쎯r쎯eb쎯tl쎯	-10.765
tx쎯쎅	-10.765
lfo쎯ju쎯	-10.765
l쎯bf쎯qyv쎯jqr쎯	-10.7652
d쎯p쎯	-10.7654
wk쎯pv쎯	-10.7655
,c쎯“	-10.7657
gr쎯pgy쎯	-10.7658
uxxn1쎯uduk쎯	-10.7658
tx쎯gg쎯nm쎯	-10.7663
]	-10.7663
fjw쎯	-10.7664
dmh쎯lfhf쎯	-10.7665
、tg쎯u쎯、qie쎯wyk쎯	-10.7666
▁(쎁)	-10.7667
cf쎯xx쎯	-10.7667
gj쎯ywx쎯dga쎯pwv쎯	-10.7667
q쎯ymhj쎯	-10.7668
ynw쎯	-10.7668
fm쎯egc쎯	-10.7669
ifhw쎯	-10.7671
wy쎯wtf쎯	-10.7673
o쎯whf쎯og쎯	-10.7678
trf쎯ta쎯	-10.7678
sghg1쎯ide쎯	-10.7678
:쎁쎀	-10.7678
gcf쎯it쎯	-10.768
jy쎯qc쎯	-10.7681
vtdj쎯	-10.7682
go쎯r쎯	-10.7683
vyi1쎯	-10.7683
mmm쎯、	-10.7683
gajh쎯gk쎯	-10.7684
d쎯jjjj쎯sg쎯	-10.769
gj쎯ywx쎯gn쎯	-10.769
rnp쎯	-10.7691
vfhp1쎯ymc쎯t쎯	-10.7691
jcf쎯rf쎯c쎯	-10.7694
쎁%	-10.7694
v쎯nae쎯,	-10.7695
rj쎯bm쎯r쎯	-10.7697
。isgg0쎯yhk쎯	-10.7697
yft쎯qq쎯	-10.7697
ad쎯hich쎯ftbt쎯	-10.7697
wwj쎯wfhg쎯。	-10.7698
uf쎯nf쎯wsg0쎯	-10.7698
ywe쎯ick쎯	-10.7699
bh쎯	-10.77
qtj쎯uu쎯r쎯	-10.7702
tlf2쎯et쎯	-10.7705
yi쎯wqj쎯	-10.7705
ipg쎯xcf쎯	-10.7708
sds쎯	-10.7717
wc쎯n쎯	-10.772
〉	-10.772
toln0쎯oi쎯	-10.7721
tuj쎯ifk쎯	-10.7721
ilg2쎯	-10.7725
bpx쎯	-10.7725
ith쎯tv쎯ipk쎯suq쎯	-10.7725
lkd쎯ytt쎯	-10.7726
yt쎯ny쎯	-10.7726
▁jo쎯hhu0쎯	-10.773
bn쎯tq쎯	-10.773
da쎯dk쎯。	-10.7734
dr쎯o쎯	-10.7737
ghd0쎯dm쎯	-10.7738
ymhj쎯fnrt쎯h쎯	-10.774
qnqv쎯	-10.7741
oqdo쎯	-10.7741
qh쎯fpm쎯	-10.7743
tet쎯	-10.7743
img쎯lll쎯	-10.7743
lu쎯ym쎯r쎯	-10.7743
tfl쎯yce쎯	-10.7744
쎁쎉쎃쎁rh쎯	-10.7747
wgkb2쎯fcp쎯	-10.7748
ga쎯lw쎯	-10.775
yygy쎯nnh쎯	-10.7751
udi쎯uce쎯	-10.7752
pei쎯n쎯nh쎯ty쎯y쎯s쎯	-10.7752
pwm쎯	-10.7753
qq쎯nfc쎯	-10.7755
rvyl쎯lt쎯	-10.7755
tx쎯g쎯uk쎯	-10.7756
trf쎯bmg쎯	-10.7757
qqqq1쎯mqj쎯	-10.7758
gu쎯yy쎯	-10.7758
dg쎯qe쎯gae쎯	-10.7759
puvk2쎯	-10.776
,wg쎯	-10.7761
qtj쎯hw쎯	-10.7761
ith쎯、ymhj쎯	-10.7761
ftbt쎯yce쎯a쎯wt쎯	-10.7763
yc쎯wv쎯v쎯rpl쎯	-10.7765
nnh쎯gl쎯bpf쎯	-10.7765
sri쎯ym쎯	-10.7766
nh쎯xpw쎯	-10.7769
khr쎯	-10.7769
쎆쎀쎀쎀	-10.777
▁쎆、	-10.7773
tjtl쎯	-10.7773
vii쎯	-10.7775
tffu쎯u쎯kkk쎯	-10.7777
。wb쎯wu쎯	-10.7777
kd쎯ycb쎯	-10.7777
dr쎯sg쎯	-10.7778
jo쎯dhb쎯	-10.778
a쎯ip쎯bpf쎯	-10.7782
iry쎯nge쎯	-10.7782
mqu쎯,	-10.7783
gmf쎯tg쎯	-10.7784
wg쎯l쎯ntg쎯	-10.7786
ica쎯	-10.7786
jy쎯tfl쎯qfhw0쎯	-10.7786
abi쎯irn쎯	-10.7787
gk쎯nge쎯	-10.7788
tdtf쎯vfhp1쎯	-10.7789
,j쎯mh쎯	-10.779
puv쎯,	-10.779
wcy2쎯e쎯	-10.7791
iytb0쎯fmk쎯bw쎯	-10.7793
wh쎯tf쎯ght쎯sf쎯,	-10.7794
mt쎯fgh쎯	-10.7794
쎁쎂wh쎯	-10.7795
usr쎯w쎯	-10.7795
sw쎯fpx쎯	-10.7799
wb쎯j쎯	-10.78
ssm쎯	-10.78
fh쎯xg쎯	-10.7802
ogu쎯	-10.7802
m2	-10.7805
qi쎯lft쎯	-10.7805
rcf쎯	-10.7809
sc쎯lt쎯	-10.7809
pju쎯	-10.781
gdk쎯	-10.7812
gmww쎯ts쎯	-10.7812
쎃kgn쎯	-10.7813
▁bm쎯thgc쎯jf쎯uj쎯:	-10.7813
de	-10.7819
r쎯ce쎯lt쎯	-10.782
wycm0쎯nf쎯r쎯	-10.7821
bu쎯shn쎯	-10.7823
udb쎯ytyh쎯ymhj쎯	-10.7825
쎂wc쎯jfd쎯	-10.7828
krt쎯isgg0쎯	-10.7833
ntg쎯utd쎯ugm쎯	-10.7834
yo쎯dfy쎯kkd쎯	-10.7835
,vck쎯vfhp1쎯gf쎯	-10.7835
y쎯yfj쎯	-10.7836
wc쎯jfd쎯th쎯,	-10.7836
쎁쎀wtu쎯	-10.7837
。rg쎯go쎯	-10.7837
r쎯ai쎯sghg1쎯	-10.7838
、l쎯pe쎯	-10.7838
tv쎯km쎯wf쎯tv쎯km쎯,	-10.7839
tjt쎯qgb쎯	-10.7841
wvl쎯f쎯	-10.7842
wkso0쎯	-10.7846
gkl쎯ukn쎯x쎯gj쎯	-10.7848
rwgk쎯	-10.7853
tfk쎯dnv1쎯	-10.7858
j쎯cf쎯	-10.7858
qm쎯awsk쎯	-10.7858
amd쎯st쎯uff쎯	-10.7859
qr쎯uthp쎯	-10.786
e쎯pei쎯yne쎯	-10.7861
쎁쎈쎆	-10.7862
aitl쎯	-10.7866
,ad쎯uk쎯	-10.7866
rxj쎯bm쎯	-10.7866
ipg쎯anb0쎯	-10.7868
q쎯suq쎯	-10.7871
xeg쎯ta쎯	-10.7871
j쎯et쎯	-10.7872
p쎯uqw쎯	-10.7876
gk쎯。	-10.7878
쎁wc쎯jfd쎯	-10.7879
.쎁쎁	-10.788
ipf쎯yaa쎯	-10.788
ub쎯qk쎯	-10.788
쎃쎀rh쎯	-10.7885
〈	-10.7886
et쎯yne쎯r쎯	-10.7887
n1쎯	-10.789
ijq쎯	-10.7892
-쎂쎀	-10.7893
qtgf2쎯	-10.7893
dj쎯dnv1쎯	-10.7893
rgd쎯bfw쎯	-10.7894
uqwk쎯yqj쎯eb쎯tl쎯	-10.7897
sm쎯wsg0쎯	-10.79
sm쎯kkd쎯w쎯	-10.7902
iqr쎯	-10.7903
tg쎯u쎯lk쎯a쎯	-10.7904
iugg0쎯ime쎯	-10.7904
bc쎯wa쎯	-10.7906
tdg1쎯tyna2쎯	-10.7907
amd쎯yygy쎯qk쎯	-10.7907
hi쎯cbc쎯	-10.7908
wc쎯ngk쎯reh쎯e쎯	-10.791
dd쎯gj쎯	-10.7911
fc쎯iyc쎯	-10.7912
rfc쎯anb0쎯	-10.7915
uuj쎯syp쎯	-10.7916
l쎯n쎯x쎯iyj쎯	-10.7917
-쎁쎈	-10.7917
doq쎯sgc쎯	-10.7917
g쎯jgf쎯	-10.792
srq쎯	-10.7921
vfb쎯su쎯	-10.7921
rg쎯bg쎯	-10.7924
fk쎯pyu쎯	-10.7927
pe쎯w쎯	-10.7927
geq쎯eyni쎯	-10.7928
gah쎯ic쎯dd쎯ip쎯	-10.7928
xxf쎯og쎯,	-10.7928
fc쎯uk쎯nnh쎯yn쎯	-10.7931
tfq쎯qtd쎯	-10.7934
tu쎯pgc쎯	-10.7935
▁hx쎯	-10.7935
kma쎯	-10.7937
쎃uqw쎯	-10.7937
w쎯n쎯if쎯bpf쎯	-10.7938
sk쎯rf쎯xfn쎯v쎯nae쎯	-10.7939
ia쎯ide쎯	-10.7941
g쎯hi쎯	-10.7941
knx쎯?	-10.7941
mmgj쎯bwt쎯	-10.7942
gq쎯lg쎯	-10.7943
ihk쎯	-10.7943
ii쎯jn쎯	-10.7944
flf1쎯dp쎯	-10.7944
sss쎯ss쎯wc쎯lfq쎯	-10.7944
dga쎯yfy1쎯wf쎯	-10.7945
a쎯anb0쎯kkk쎯	-10.7947
gu쎯yy쎯wc쎯jfd쎯	-10.7947
kthh1쎯egc쎯	-10.795
).	-10.795
by쎯ywfw쎯	-10.7951
nnh쎯pgn쎯	-10.7952
gef쎯mmm쎯	-10.7954
st쎯nnk쎯	-10.7958
xh쎯aqkr쎯	-10.7959
fgjg쎯	-10.7966
wt쎯yygy쎯	-10.7966
▁hhhh쎯ue쎯	-10.797
r쎯pfi쎯xj쎯	-10.797
wy쎯wqbh쎯	-10.7973
r쎯ln쎯shn쎯	-10.7978
yny0쎯、	-10.7981
w쎯ny쎯	-10.7986
tdkj쎯lt쎯	-10.7987
awg쎯	-10.7989
rte쎯	-10.799
쎃wc쎯jfd쎯	-10.799
ndj쎯sg쎯	-10.799
ad쎯dbm쎯td쎯ykw쎯	-10.7991
g쎯jf쎯	-10.7992
dyc쎯sgc쎯	-10.7995
qajf쎯	-10.7996
kht쎯gn쎯	-10.7998
f쎯src쎯	-10.7999
g쎯xeg쎯	-10.8001
xg쎯ts쎯	-10.8002
ii쎯jn쎯uh쎯	-10.8002
r쎯mqq쎯xtk쎯	-10.8007
gn쎯v쎯nae쎯	-10.8008
kgn쎯xg쎯	-10.8009
isk쎯luf쎯	-10.8014
xe쎯a쎯tkgg0쎯jgm쎯。	-10.8015
pj쎯sj쎯	-10.8017
of쎯	-10.8019
rymn쎯hka쎯	-10.8021
go쎯yu쎯,	-10.8023
sm쎯sa쎯ymc쎯tlf2쎯	-10.8023
쎁쎉쎂쎆rh쎯	-10.8024
쎁쎉쎉쎈	-10.8027
r쎯py쎯wf쎯	-10.8029
ccc쎯kn쎯	-10.803
nynn쎯	-10.8031
vb쎯dc쎯	-10.8031
bib쎯rep쎯	-10.8033
쎂w쎯,	-10.8033
。et쎯gf쎯	-10.8036
쎄wc쎯jfd쎯	-10.8037
、sghg1쎯	-10.8039
jgm쎯dd쎯	-10.804
s쎯hko쎯	-10.8041
pu쎯bf쎯h쎯	-10.8041
쎄.쎀	-10.8041
qgo쎯thg0쎯	-10.8042
bb쎯。	-10.8043
쎁쎉쎆	-10.8043
et쎯r쎯	-10.8043
gm쎯wa쎯wx쎯r쎯	-10.8044
ga쎯cep쎯	-10.8045
dm쎯tkw쎯o쎯	-10.8046
nty1쎯xyna0쎯	-10.8047
k쎯fm쎯	-10.8047
ux쎯wmj0쎯	-10.8052
ep쎯ny쎯	-10.8053
c쎯ux쎯	-10.8058
kcy1쎯	-10.8059
rwye1쎯gkp쎯	-10.8059
dwy쎯	-10.806
svc쎯	-10.806
rnp쎯ad쎯sgc쎯	-10.8063
sdm쎯umd0쎯	-10.8064
jh쎯rh쎯	-10.8065
,fqu쎯	-10.8066
lp쎯lwj쎯	-10.8066
r쎯wwj쎯st쎯	-10.8069
rmhj쎯tfkp쎯um쎯	-10.8071
yff쎯yygy쎯	-10.8074
쎂쎀an쎯xn쎯	-10.8075
qqqq1쎯thgf0쎯	-10.8076
io쎯ii쎯	-10.8076
jhnr쎯qie쎯	-10.8077
kht쎯dm쎯	-10.8078
쎁-쎂	-10.8083
rtol1쎯tkh쎯	-10.8084
gqr쎯ivfh1쎯mhkg2쎯	-10.8085
,f쎯gj쎯wug1쎯lfhf쎯	-10.8087
dga쎯pwv쎯yy쎯tm쎯	-10.8087
ua쎯ty쎯	-10.8087
yqa쎯uk쎯	-10.8091
yygy쎯sg쎯	-10.8091
ayx쎯	-10.8092
v쎯rvyo쎯	-10.8094
쎄쎅쎀	-10.8094
j쎯g쎯sg쎯	-10.8096
qwd쎯oanw쎯	-10.8096
wycm0쎯pum쎯	-10.8097
ygu쎯o쎯“	-10.8101
ce쎯lt쎯r쎯	-10.8101
r쎯xp쎯wgk쎯	-10.8101
iujg0쎯	-10.8102
wbb쎯ylk2쎯	-10.8103
vkf1쎯kqm쎯	-10.8107
dmj1쎯tj쎯qk쎯。	-10.8107
nty1쎯qk쎯o쎯	-10.8108
emc쎯ai쎯	-10.811
pyg쎯tjh쎯	-10.8111
esw쎯	-10.8112
wv쎯gqje쎯	-10.8113
lnn1쎯	-10.8115
r쎯qe쎯ya쎯	-10.8116
tha쎯if쎯	-10.8122
iv쎯tfqp쎯	-10.8123
wv쎯int쎯	-10.8125
qj쎯	-10.8125
sh쎯xx쎯	-10.8127
k쎯ny쎯,	-10.8128
aw쎯yf쎯	-10.8131
jjjj쎯ygk쎯	-10.8133
qev쎯un쎯b쎯	-10.8137
jn쎯pym쎯ndj쎯《	-10.8139
sk쎯yle쎯	-10.8139
dm쎯tkw쎯쎅	-10.814
ujn쎯ln쎯	-10.814
gh쎯iytb0쎯	-10.814
wqa쎯gf쎯	-10.8141
iit쎯iaj쎯	-10.8143
rfc쎯sy쎯r쎯	-10.8143
j쎯o쎯b쎯	-10.8145
mmm쎯h쎯	-10.8146
。ld쎯o쎯	-10.8149
dd쎯dd쎯	-10.815
ugm쎯、	-10.8151
tjt쎯iw쎯	-10.8151
puhc쎯ygu쎯o쎯“	-10.8155
gfi쎯fnrt쎯	-10.8155
.쎀쎀wc쎯jfd쎯	-10.8158
쎃쎀wv쎯qkhh1쎯	-10.8158
qtoy1쎯	-10.8158
tx쎯fgh쎯	-10.816
쎅wc쎯jfd쎯	-10.8164
pg쎯nd쎯	-10.8164
cds쎯fghg쎯	-10.8165
qje쎯tgh쎯	-10.8167
gq쎯ty쎯	-10.8167
;쎁	-10.8168
qten0쎯	-10.8169
uy쎯fgh쎯	-10.817
siq쎯awx쎯	-10.8173
aig쎯eajd쎯	-10.8173
t쎯rfc쎯sy쎯	-10.8176
dav쎯	-10.8176
iytb0쎯ca쎯k쎯	-10.8181
wgkb2쎯qk쎯o쎯	-10.8181
awx쎯xyy0쎯	-10.8183
,bn쎯e쎯	-10.8183
uk쎯ait쎯	-10.8186
dwiu쎯mmm쎯	-10.8186
usg쎯tgj쎯	-10.8191
r쎯wug1쎯lfhf쎯	-10.8191
hv쎯tu쎯	-10.8191
。’”	-10.8191
g쎯yy쎯	-10.8193
qk쎯thgf0쎯	-10.8195
ght쎯tv쎯	-10.8198
wdt쎯dn쎯	-10.8201
ruj쎯	-10.8202
cd쎯cm쎯	-10.8202
dm쎯ue쎯	-10.8203
tgv쎯	-10.8203
쎉쎀%	-10.8205
aqt쎯l쎯pe쎯	-10.8207
ynm쎯ey쎯	-10.8208
ux쎯dm쎯	-10.8209
ga쎯wbj쎯	-10.8209
i쎯epc쎯	-10.8211
buk쎯	-10.8211
pei쎯sm쎯	-10.8212
alw쎯ytyh쎯ymhj쎯	-10.8213
qmq쎯src쎯	-10.8214
trf쎯e쎯r쎯	-10.8214
xg쎯h쎯	-10.8215
isgg0쎯kc쎯	-10.8215
wgj쎯j쎯	-10.8216
itx쎯fakg1쎯	-10.8216
쎂uqw쎯	-10.8218
ftbt쎯yce쎯、	-10.8218
luf쎯	-10.822
sghg1쎯ic쎯	-10.8221
pb쎯xgu쎯	-10.8223
,jcf쎯rf쎯	-10.8224
qmq쎯tp쎯	-10.8225
uqd0쎯adm쎯	-10.8225
nnh쎯if쎯pe쎯fl쎯wf쎯	-10.8225
fq쎯fdm쎯	-10.8228
uqd0쎯,	-10.8229
yi쎯yfn쎯	-10.8229
ym쎯xe쎯k쎯ip쎯	-10.823
ynky2쎯	-10.823
,i쎯fp쎯	-10.8232
,rj쎯waw쎯	-10.8233
-쎁쎆	-10.8234
gqto1쎯	-10.8234
tqf쎯	-10.8234
wxf쎯gmy1쎯	-10.8235
whf쎯og쎯yygy쎯wx쎯	-10.8237
▁◎	-10.8237
rc쎯jmd쎯b쎯	-10.8239
y쎯src쎯	-10.824
mm	-10.824
sk쎯et쎯gf쎯	-10.8241
fq쎯xg쎯jn쎯	-10.8248
sm쎯sq쎯,	-10.8252
dnv2쎯adw쎯	-10.8252
hjj쎯fha쎯r쎯	-10.8253
vck쎯xtu쎯jcf쎯rf쎯	-10.8254
be쎯bj쎯	-10.8255
gkl쎯ymhj쎯ta쎯	-10.8256
b쎯《	-10.8257
jgm쎯ww쎯	-10.8259
ywfw쎯qnj쎯	-10.8259
,wg쎯sf쎯	-10.8259
rawk쎯vfhp1쎯	-10.8261
tfkp쎯xqa쎯	-10.8261
sm쎯sa쎯rmhj쎯tfkp쎯	-10.8262
qsu쎯pd쎯	-10.8262
bwff쎯	-10.8264
rj쎯ym쎯b쎯	-10.8264
gn쎯adw쎯	-10.827
sfh쎯alt쎯	-10.827
ijfg0쎯	-10.827
gm쎯d쎯r쎯	-10.8271
eudi1쎯	-10.8271
thgc쎯)	-10.8271
k쎯sghg1쎯	-10.8274
mmm쎯sdm쎯	-10.8275
sfi쎯uwy1쎯r쎯	-10.8275
r쎯dga쎯v쎯	-10.8277
vcl쎯	-10.8277
d쎯adw쎯	-10.8278
ral쎯xwf쎯	-10.8278
ymc쎯uu쎯r쎯	-10.828
waj쎯egl쎯	-10.8284
。ige쎯	-10.8285
、wg쎯l쎯	-10.8285
tkw쎯lx쎯b쎯dh쎯pgk쎯	-10.8285
y쎯s쎯qn쎯rtd쎯	-10.829
쎁쎈쎄	-10.829
yjj0쎯wg쎯,	-10.8291
pe쎯jn쎯	-10.8292
xyna0쎯ty쎯	-10.8292
pwfd쎯	-10.8293
い	-10.8296
쎃.쎃	-10.8296
kftj0쎯	-10.8297
ght쎯tl쎯	-10.8299
um쎯ip쎯bpf쎯	-10.8301
yoj쎯	-10.8301
uyu쎯	-10.8302
ul쎯qq쎯uqw쎯	-10.8302
pgy쎯dgtg쎯	-10.8304
ue쎯adwe1쎯	-10.8308
kcg쎯?	-10.8309
um쎯lud쎯	-10.8309
yxt쎯	-10.8311
adj쎯tvfh1쎯pr쎯	-10.8311
mee쎯	-10.8312
wgj쎯gf쎯	-10.8315
jqw쎯	-10.8317
w쎯d쎯	-10.8317
kkkk0쎯eb쎯	-10.8319
▁f쎯fhg1쎯:	-10.832
쎀wtu쎯w쎯	-10.8322
쎀gu쎯yy쎯oy쎯,	-10.8323
qit쎯	-10.8324
aqk쎯og쎯	-10.8326
tfkd쎯rp쎯	-10.8329
rj쎯qk쎯	-10.8329
sdy2쎯	-10.8329
ugm쎯yo쎯	-10.8329
wgk쎯wt쎯py쎯	-10.833
gg쎯wa쎯	-10.833
tffu쎯;	-10.8331
jf쎯pw쎯	-10.8332
itd쎯fcl쎯k쎯	-10.8332
mb쎯sfiu0쎯	-10.8332
wgmy3쎯	-10.8336
쎂쎀wtu쎯	-10.8336
쎀.쎀쎀	-10.8339
rkm쎯pd쎯	-10.8339
ogm쎯	-10.8339
j쎯ld쎯o쎯	-10.8341
쎂.쎇	-10.8344
r쎯fdm쎯s쎯	-10.8346
dd쎯uqd0쎯	-10.8348
dm쎯qn쎯	-10.8348
wy쎯thn쎯txi쎯xyc쎯	-10.8352
yao쎯	-10.8352
l쎯bf쎯sfi쎯uwy1쎯	-10.8353
gn쎯adw쎯wb쎯	-10.8355
nnnn쎯x쎯dn쎯o쎯	-10.8357
adwe1쎯tffy0쎯	-10.8357
。px쎯j쎯	-10.8358
nj쎯nj쎯	-10.836
wgk쎯ec쎯ymhj쎯	-10.8361
jmhn0쎯	-10.8363
r쎯jb쎯wffg쎯	-10.8366
hka쎯fnrt쎯	-10.8367
gk쎯pu쎯	-10.8367
rdjn쎯	-10.8368
mfc쎯	-10.8368
sf쎯mw쎯	-10.8369
fm쎯wmj0쎯	-10.837
。tfq쎯rg쎯	-10.8372
qh쎯,gip쎯	-10.8373
ukn쎯yne쎯ovt쎯	-10.8374
tmf쎯	-10.8374
jfc쎯tg쎯	-10.8374
ai쎯mq쎯	-10.8376
yfj쎯rep쎯	-10.8378
pw쎯rrr쎯	-10.8383
,kw쎯e쎯	-10.8383
tg쎯u쎯ce쎯lt쎯	-10.8384
,ryl쎯ta쎯	-10.8384
α	-10.8385
go쎯idr쎯gf쎯	-10.8387
sksw쎯kjj쎯	-10.8389
qo쎯	-10.8393
ifw쎯lt쎯	-10.8393
ajd쎯adwr쎯tu쎯	-10.8395
pp쎯qh쎯	-10.8397
dyt쎯og쎯	-10.8397
eb쎯et쎯	-10.84
,e쎯jf쎯	-10.8402
r쎯gm쎯wa쎯wx쎯	-10.8406
it쎯qt쎯	-10.8407
ybv쎯xan쎯	-10.8408
vc쎯	-10.8408
《》	-10.8408
epqh쎯	-10.8408
waj쎯jtyq0쎯	-10.8408
n쎯apk쎯	-10.8408
aa쎯r쎯	-10.8409
fq쎯sm쎯	-10.841
afie쎯	-10.8411
tfkf1쎯yr쎯	-10.8412
i쎯yv쎯	-10.8414
wk쎯wht쎯	-10.8414
pp쎯uthp쎯	-10.8416
qtr쎯	-10.8418
gj쎯mf쎯	-10.8419
mq쎯sm쎯	-10.8423
saq쎯xnf쎯	-10.8424
vtg쎯qk쎯	-10.8424
k쎯adwe1쎯	-10.8425
ddh쎯	-10.8428
jo쎯fi쎯kkd쎯	-10.8428
쎂%	-10.8429
쎈.쎅	-10.843
xfg쎯	-10.843
uv쎯	-10.843
wf쎯rn쎯	-10.8433
god쎯st쎯r쎯	-10.8435
tmo쎯fcp쎯	-10.8436
rryf쎯	-10.8436
rmhj쎯yjjh1쎯	-10.8437
rbcc쎯wqj쎯sm쎯	-10.8438
ih쎯ooo쎯	-10.8441
wh쎯eee쎯	-10.8441
yid쎯iv쎯	-10.8443
,gm쎯nnnn쎯	-10.8445
,wgkq0쎯tj쎯	-10.8446
iqgg쎯og쎯	-10.8448
ygk쎯yyy쎯ip쎯	-10.8448
stx쎯awx쎯	-10.8448
r쎯ujn쎯ln쎯	-10.8449
yth쎯	-10.8449
lfn쎯gkip2쎯	-10.845
rab쎯	-10.8451
,bn쎯sk쎯c쎯	-10.8451
k쎯l쎯w쎯n쎯dd쎯ip쎯	-10.8456
tem쎯r쎯	-10.8457
。bde쎯udh쎯	-10.8457
m쎯tf쎯og쎯	-10.8458
ep쎯r쎯	-10.8462
ny쎯k쎯	-10.8463
rmhj쎯wt쎯r쎯	-10.8464
ip쎯sy쎯uq쎯iyc쎯	-10.8465
r쎯wt쎯et쎯。	-10.8467
av쎯pdhj쎯	-10.847
(쎁쎈	-10.847
uqt쎯lt쎯gf쎯	-10.8473
wht쎯ys쎯	-10.8475
xeg쎯xeg쎯ta쎯	-10.8476
ta쎯。	-10.8478
adwl쎯rpws쎯	-10.848
cf쎯rt쎯	-10.8481
tgj쎯wht쎯	-10.8484
bukn쎯je쎯	-10.8486
,bwt쎯	-10.8491
kuq쎯	-10.8496
nr쎯	-10.8496
”tq쎯kgn쎯。	-10.8497
qtjh0쎯bb쎯	-10.8501
l쎯ygk쎯	-10.8503
쎂.쎆	-10.8507
um쎯tl쎯k쎯ny쎯	-10.8507
jb쎯usr쎯r쎯	-10.8513
nty1쎯tq쎯	-10.8515
i쎯mqb쎯	-10.8517
rmn쎯bqv쎯	-10.8517
fhn쎯b쎯	-10.8519
bgu쎯	-10.8521
qkk쎯wgk쎯qqqq1쎯	-10.8522
쎅쎀%	-10.8523
ytey쎯pt쎯	-10.8524
tgj쎯xeg쎯	-10.8524
rvl쎯	-10.8525
jh쎯d쎯	-10.8525
sve쎯sg쎯	-10.8525
lh쎯yy쎯	-10.8528
cw쎯ya쎯	-10.8528
dr쎯e쎯	-10.8531
uk쎯y쎯wtf쎯	-10.8532
g쎯mhg쎯	-10.8534
sf쎯qfhw0쎯	-10.8534
ck쎯,	-10.8534
xyna0쎯tkgg0쎯	-10.8535
wgku1쎯fnrt쎯	-10.854
uwyc0쎯ii쎯	-10.854
쎃.쎁	-10.854
^	-10.8541
bw쎯wgg0쎯,	-10.8541
,e쎯r쎯	-10.8542
wycm0쎯nf쎯w쎯	-10.8547
adjd쎯	-10.8547
ip쎯txi쎯	-10.8548
”pp쎯	-10.8549
tfk쎯oy쎯	-10.8549
tu쎯sfhg쎯tr쎯	-10.8549
ae쎯qde쎯	-10.8549
wy쎯yyn1쎯	-10.8549
de쎯m쎯	-10.8551
:쎀쎀	-10.8552
mmm쎯sf쎯	-10.8553
。wug1쎯gf쎯	-10.8554
gkl쎯y쎯wtf쎯。	-10.8554
jn쎯ib쎯od쎯gajf쎯	-10.8554
rdn쎯	-10.8556
tdkj쎯ce쎯wx쎯	-10.8556
fny쎯og쎯ip쎯nu쎯	-10.8556
suh쎯	-10.8557
쎉.	-10.856
pfq쎯ugdu쎯r쎯	-10.8561
ydx쎯	-10.8562
p쎯od쎯	-10.8563
iry쎯v쎯	-10.8564
e쎯g쎯pg쎯	-10.8564
trf쎯u쎯	-10.8566
쎅.쎀	-10.8566
,tq쎯o쎯	-10.8566
k쎯l쎯wfny0쎯xyc쎯	-10.8573
ytf쎯sk쎯ygh쎯	-10.8573
udi쎯,	-10.8573
yt쎯yca쎯	-10.8576
ith쎯uthp쎯	-10.8577
dqe쎯	-10.8579
m쎯jf쎯bn쎯	-10.858
u쎯tg쎯b쎯	-10.858
쎀ylf0쎯,	-10.8581
puhc쎯tq쎯o쎯“	-10.8582
,dqe쎯wk쎯	-10.8583
,ukn쎯vfhp1쎯tam쎯	-10.8585
mgu쎯wwk쎯	-10.8586
bs쎯ru쎯wr쎯	-10.8587
jo쎯tj쎯	-10.8587
▁k쎯yygy쎯	-10.8588
rx쎯uwy1쎯,	-10.8589
tif쎯	-10.859
gmap쎯gc쎯	-10.8592
ukqb0쎯rfc쎯	-10.8594
aje쎯	-10.86
sksw쎯yngk0쎯	-10.86
ooo쎯eve쎯	-10.8601
ghd0쎯aa쎯dn쎯uu쎯	-10.8602
amw쎯mmm쎯	-10.8602
sghg1쎯gog쎯	-10.8602
cep쎯wwwk쎯	-10.8602
pu쎯hka쎯	-10.8602
fk쎯wb쎯	-10.8604
rqcf0쎯	-10.8605
rfm쎯jg쎯tx쎯g쎯	-10.8608
ak쎯j쎯	-10.8609
dd쎯ip쎯ip쎯dl쎯,	-10.861
yy쎯qf쎯ght쎯tgm쎯	-10.861
gs쎯,	-10.8611
。g쎯tem쎯	-10.8612
쎃adm쎯	-10.8613
dga쎯pwv쎯a쎯wt쎯	-10.8614
dn쎯ddu0쎯	-10.8614
iyjh쎯jtyq1쎯kkd쎯	-10.8615
pum쎯	-10.8615
cbj쎯c쎯	-10.8616
ww쎯ih쎯	-10.8616
srg쎯ss쎯	-10.8617
p쎯wug1쎯	-10.8619
vtg쎯qa쎯	-10.862
yte쎯	-10.8621
,tm쎯	-10.8624
(쎁쎉쎃	-10.8624
nudu쎯fnud쎯	-10.8625
쎈쎀rh쎯wa쎯	-10.8627
qynm1쎯h쎯	-10.8631
fp쎯txgt쎯	-10.8634
ym쎯xe쎯bk쎯tq쎯	-10.8636
ip쎯wf쎯wf쎯km쎯	-10.8642
x쎯qie쎯um쎯	-10.8645
rtfj0쎯	-10.8645
ukn쎯a쎯tkgg0쎯jgm쎯	-10.8647
abf0쎯	-10.8648
kw쎯fdm쎯	-10.8651
yceh1쎯	-10.8651
ile쎯	-10.8654
bm쎯thgc쎯r쎯	-10.866
shn쎯s쎯	-10.8661
me쎯tu쎯	-10.8662
w쎯cd쎯	-10.8663
mta쎯	-10.8663
mt쎯rh쎯	-10.8664
dm쎯tkw쎯dp쎯	-10.8668
fm쎯cep쎯	-10.8668
°	-10.8668
m쎯ujn쎯	-10.867
rrp쎯	-10.8673
xft쎯	-10.8674
r쎯ym쎯tu쎯rfc쎯	-10.8676
vq쎯pynn0쎯	-10.8677
wxj쎯mmm쎯	-10.8677
sh쎯yneg쎯	-10.8678
wxj쎯mmm쎯ymhj쎯	-10.8681
dl쎯kq쎯yygy쎯wx쎯	-10.8683
rb1쎯》、《	-10.8683
cy쎯f쎯	-10.8683
wgej1쎯	-10.8686
wtc쎯syp쎯	-10.8686
iq쎯xft쎯	-10.8688
ih쎯ktn쎯	-10.869
gkip2쎯yx쎯	-10.869
쎂쎀쎀dq쎯	-10.8691
mw쎯f쎯	-10.8691
lhnh쎯ad쎯	-10.8692
qwy1쎯	-10.8692
gqx쎯rg쎯	-10.8692
ux쎯dd쎯	-10.8693
n쎯www쎯	-10.8694
mw쎯pww쎯qn쎯rtd쎯	-10.8694
cd쎯yaf쎯ta쎯	-10.8695
psu쎯·	-10.8697
tg쎯wx쎯	-10.8697
。쎂쎀쎀쎆rh쎯	-10.8698
▁qh쎯gae쎯	-10.8699
쎅oy쎯	-10.8699
iry쎯gxi쎯	-10.8701
쎃.쎆	-10.8702
big쎯	-10.8703
w쎯,k쎯aw쎯ipk쎯km쎯,	-10.8703
ijo쎯f쎯	-10.8704
k쎯l쎯nnh쎯if쎯	-10.8704
lft쎯mqc쎯	-10.8708
gr쎯itx쎯	-10.8709
。wv쎯dmh쎯gf쎯	-10.8709
apw쎯	-10.8711
j쎯g쎯pe쎯c쎯	-10.8717
qq쎯fqb1쎯	-10.8718
pnt쎯wys쎯	-10.8721
tg쎯dyn쎯ggi쎯fuj쎯	-10.8722
f쎯rvyl쎯	-10.8727
ga쎯es쎯	-10.8727
r쎯wy쎯thn쎯	-10.8733
,itx쎯rdc쎯	-10.8734
r쎯ytd쎯	-10.8735
ygk쎯:	-10.8735
쎀쎀쎀쎀	-10.8735
jgm쎯,	-10.8736
rf쎯e쎯	-10.8737
tx쎯g쎯qk쎯	-10.8738
mb쎯jn쎯	-10.8739
yr쎯ywc쎯	-10.8739
xq쎯o쎯	-10.8741
fffy쎯vfhp1쎯	-10.8741
쎄w쎯	-10.8741
wa쎯ge쎯wt쎯	-10.8741
reh쎯e쎯g쎯fc쎯	-10.8741
gkl쎯ftbt쎯rep쎯。	-10.8743
fj쎯wx쎯	-10.8743
f쎯qk쎯	-10.8744
vd쎯vyv쎯	-10.8744
u쎯wfhg쎯	-10.8745
,ftjb쎯	-10.8745
vk쎯gh쎯	-10.8747
uqd0쎯ujj쎯	-10.8747
whw쎯qi쎯uk쎯。	-10.8748
qq쎯uk쎯	-10.8748
쎁쎀쎂쎄	-10.8749
r쎯rn쎯e쎯	-10.875
,p쎯su쎯	-10.8751
thd쎯ick쎯ytyh쎯	-10.8752
wsg0쎯wf쎯	-10.8754
wgkq0쎯wgkb2쎯	-10.8754
(쎃)	-10.8755
pp쎯tq쎯	-10.8755
dga쎯pwv쎯。	-10.8756
쎂-쎃	-10.8757
rhyc1쎯	-10.876
pp쎯k쎯,	-10.8761
ypt쎯	-10.8762
、ba0쎯	-10.8768
(-	-10.8769
pjm쎯	-10.8772
bde쎯rg쎯	-10.8772
pu쎯tl쎯	-10.8775
g쎯vt쎯vt쎯	-10.8775
py쎯wf쎯ip쎯	-10.8775
ywx쎯syp쎯	-10.8776
ip쎯ddm쎯fghg쎯	-10.8777
qd쎯dmj1쎯	-10.8778
wdt쎯if쎯	-10.8779
cbts0쎯lqw쎯	-10.878
。mh쎯	-10.8782
tfk쎯jfd쎯	-10.8783
isf쎯	-10.8785
uwy1쎯mj쎯	-10.8785
fny쎯pe쎯,	-10.8786
iy쎯mm쎯uqwm0쎯sg쎯	-10.8787
og쎯mw쎯	-10.879
nnh쎯,	-10.879
ll쎯bynw0쎯	-10.879
i쎯fdm쎯s쎯	-10.8791
、irn쎯lg쎯	-10.8794
ifp쎯itx쎯	-10.8794
ipk쎯ght쎯	-10.8796
쎁gmww쎯	-10.8797
kg	-10.8798
ovt쎯wfhg쎯	-10.8799
wc쎯ngk쎯wug1쎯gf쎯	-10.88
ugm쎯gj쎯	-10.8801
dd쎯lpk0쎯ymhj쎯	-10.8802
f쎯eerq쎯	-10.8802
、um쎯tl쎯	-10.8804
ue쎯tmd쎯j쎯	-10.8806
dr쎯ou쎯:	-10.8806
pv쎯lfhf쎯	-10.8809
yc쎯khu쎯	-10.881
gkl쎯uk쎯ta쎯	-10.881
fwm쎯pg쎯r쎯	-10.8811
ide쎯ir쎯	-10.8815
wdn쎯rfm쎯r쎯	-10.8816
。쎂쎀쎀쎈rh쎯	-10.8816
g쎯uf쎯	-10.8817
xwv쎯	-10.8817
ih쎯yu쎯《	-10.8819
if쎯jgm쎯	-10.882
wycb쎯rp쎯	-10.8821
pl쎯tqf쎯	-10.8822
qv쎯bc쎯	-10.8822
iytb0쎯fmk쎯	-10.8823
。wt쎯o쎯	-10.8825
fajv쎯	-10.8825
sk쎯ep쎯	-10.8826
axj쎯	-10.8827
,p쎯wh쎯	-10.8829
twik쎯	-10.8829
k쎯l쎯dd쎯bfm쎯	-10.8829
bg쎯pym쎯	-10.8831
v쎯tg쎯d쎯	-10.8832
egi쎯	-10.8832
cf쎯dm쎯	-10.8833
yy쎯dm쎯,	-10.8834
pu쎯et쎯ntg쎯	-10.8834
dg쎯mgu쎯	-10.8838
ue쎯go쎯	-10.8839
ige쎯rvyo쎯	-10.8842
bn쎯ce쎯	-10.8843
qev쎯toc쎯:	-10.8844
i쎯peg쎯	-10.8845
rg쎯ccc쎯	-10.8846
ymc쎯yf쎯t쎯	-10.8851
r쎯wfny0쎯xyc쎯	-10.8854
5	-10.8854
gkih쎯yjj0쎯	-10.8858
,vfb쎯	-10.886
tcy쎯uu쎯	-10.8862
g쎯pg쎯s쎯	-10.8862
tnb쎯	-10.8864
sjx쎯	-10.8865
yfj쎯qev쎯	-10.8866
thc쎯hx쎯	-10.8866
н	-10.8867
wycm0쎯fakg1쎯。	-10.8867
r쎯ywe쎯ick쎯	-10.8867
rng0쎯	-10.8867
ddm쎯fghg쎯tg쎯nf쎯	-10.8868
ii쎯rfm쎯	-10.8869
qdy1쎯	-10.887
tv쎯km쎯、	-10.8873
w쎯tq쎯	-10.8877
fqb1쎯,pei쎯n쎯	-10.8878
adm쎯hhhh쎯。	-10.888
jty쎯ysi쎯a쎯wt쎯	-10.8882
ddi쎯	-10.8883
alq쎯hhy쎯	-10.8884
rcbs쎯	-10.8885
r쎯dr쎯ld쎯	-10.8885
dgv쎯elw쎯	-10.8887
yid쎯lt쎯	-10.8891
ip쎯ipkf0쎯	-10.8893
(adw쎯k쎯	-10.8894
udv쎯	-10.8898
rg쎯d쎯	-10.8898
dgtg쎯udi쎯	-10.8899
g쎯lp쎯	-10.8901
gkl쎯dga쎯pwv쎯km쎯	-10.8902
sksw쎯rlg쎯	-10.8903
gd쎯pw쎯	-10.8904
ip쎯bpf쎯bpf쎯ta쎯	-10.8905
gyt쎯ta쎯	-10.8906
tffu쎯qq쎯adm쎯	-10.8907
gq쎯o쎯	-10.891
tu쎯rfc쎯wbj쎯usr쎯	-10.891
ry쎯xt쎯	-10.891
,rpv쎯	-10.8914
ukh쎯pwd쎯	-10.8914
,vii쎯ntk쎯gf쎯	-10.8915
ts쎯wgq쎯	-10.8916
g쎯dm쎯	-10.8916
rg쎯ld쎯	-10.8916
nge쎯ab쎯	-10.8918
src쎯、	-10.8918
xl쎯ta쎯	-10.8918
dlf쎯	-10.892
sgn쎯udp쎯	-10.892
쎂쎀%	-10.892
r쎯ga쎯v쎯	-10.8921
fh쎯uu쎯	-10.8921
》)	-10.8923
쎅쎀쎀oy쎯	-10.8923
(xq쎯	-10.8927
rfc쎯sy쎯ga쎯v쎯	-10.8928
tk쎯e쎯	-10.8928
uq쎯cep쎯wgj쎯tjh쎯,	-10.8928
쎂dq쎯	-10.8929
vvv쎯y쎯qe쎯	-10.8931
r쎯g쎯pe쎯	-10.8931
yy쎯qf쎯,	-10.8931
itf쎯fggh쎯uqv쎯	-10.8931
쎁/쎃	-10.8931
tg	-10.8931
tmfk1쎯	-10.8933
sk쎯pww쎯xmw쎯	-10.8935
sfhg쎯sri쎯	-10.8936
vi쎯rmhj쎯	-10.8936
py쎯wf쎯r쎯	-10.8938
gk쎯adm쎯	-10.8938
wjm쎯wqj쎯	-10.8939
uy쎯wh쎯	-10.8939
ooo쎯lg쎯	-10.894
。m쎯rh쎯	-10.894
dmj1쎯yyy쎯	-10.8943
▁.	-10.8943
▁쎈	-10.8947
lu쎯vb쎯r쎯	-10.8948
ukn쎯ptkm0쎯	-10.8948
h쎯ymhj쎯wc쎯ngk쎯	-10.895
bqn쎯	-10.8953
tqv쎯pg쎯r쎯	-10.8953
gkl쎯wf쎯ta쎯	-10.8955
etg쎯f쎯	-10.8958
fffy쎯uft쎯	-10.8962
h쎯an쎯xn쎯	-10.8964
thd쎯qd쎯tu쎯ip쎯	-10.8964
dga쎯pwv쎯yy쎯tm쎯o쎯	-10.8965
tol쎯alkf0쎯	-10.8965
xf쎯sq쎯,	-10.8971
wfi쎯pynn1쎯	-10.8972
fp쎯tkgg0쎯k쎯,	-10.8976
gd쎯rnb쎯	-10.8976
쎁쎉쎂	-10.8977
sgye1쎯	-10.8978
kkk쎯thgf0쎯。	-10.8981
fjh0쎯tr쎯h쎯v쎯ge쎯	-10.8982
wc쎯rtt쎯,	-10.8982
o쎯쎁	-10.8982
bm쎯thgc쎯。	-10.8982
okk쎯	-10.8982
r쎯g쎯ffi쎯	-10.8983
"、"	-10.8985
fny쎯wtf쎯	-10.8987
▁adw쎯px쎯	-10.8988
pfjm1쎯tb쎯	-10.8988
ga쎯v쎯、	-10.8988
ige쎯bwt쎯	-10.8989
txg쎯eb쎯	-10.8989
,yge쎯	-10.8992
▁◆	-10.8993
r쎯kkk쎯thgf0쎯	-10.8994
t1쎯	-10.8997
rgw쎯lft쎯	-10.8998
,cd쎯gn쎯	-10.9
,gm쎯d쎯uqt쎯lt쎯gf쎯	-10.9002
ua쎯djd쎯	-10.9003
alw쎯xwy쎯fct쎯	-10.9004
tdp쎯iv쎯	-10.9005
tf쎯,	-10.9007
tfq쎯fj쎯ii쎯gu쎯	-10.9008
fm쎯dm쎯	-10.9008
。”je쎯	-10.9009
gad쎯	-10.9009
aqt쎯ith쎯	-10.9011
o쎯synw쎯ny쎯	-10.9013
▁sg쎯nnh쎯	-10.9018
je쎯·	-10.9019
쎁쎀wc쎯jfd쎯	-10.902
,m쎯jf쎯bn쎯	-10.9021
dmj1쎯tj쎯qk쎯	-10.9022
。je쎯	-10.9023
adnt1쎯ytt쎯	-10.9025
r쎯pv쎯wg쎯	-10.9025
v쎯gm쎯b쎯	-10.9026
tx쎯uy쎯nm쎯	-10.9027
dgkf0쎯yny0쎯	-10.9028
scbk쎯	-10.9029
tj쎯qk쎯	-10.9029
ny쎯nge쎯	-10.9029
k쎯ny쎯。	-10.903
rm	-10.9033
fuj쎯lwj쎯	-10.9033
akgl쎯dlf쎯	-10.9034
、ws쎯usi0쎯	-10.9034
ii쎯uwy1쎯	-10.9035
wtf쎯tl쎯。	-10.9035
rnb쎯rfm쎯	-10.9035
al쎯ce쎯。	-10.9036
ssss쎯rfm쎯	-10.9036
an쎯lwj쎯dd쎯hka쎯	-10.9037
vpq쎯	-10.9038
(쎂	-10.9038
bm쎯gm쎯b쎯	-10.904
uqwm0쎯idr쎯,	-10.9041
tdg1쎯adwe1쎯	-10.9041
pe쎯fl쎯wf쎯wf쎯km쎯、	-10.9042
gn쎯tp쎯gj쎯	-10.9043
r쎯g쎯hxf쎯	-10.9044
sdm쎯uk쎯	-10.9047
dl쎯kq쎯whtn1쎯qy쎯	-10.9047
rfc쎯sy쎯dga쎯pwv쎯	-10.9048
tg쎯u쎯dgt1쎯pe쎯	-10.9051
sk쎯wt쎯o쎯	-10.9056
xyy0쎯qnth쎯	-10.9057
▁ad쎯sg쎯cd쎯ovt쎯	-10.9058
mq쎯ii쎯	-10.9059
wye쎯gkim0쎯	-10.9059
fg쎯adwe1쎯	-10.9062
fq쎯ywx쎯j쎯	-10.9062
▁쎆.	-10.9065
r쎯dty쎯gk쎯。	-10.907
tfk쎯wtu쎯	-10.9075
′′	-10.9075
,tjh쎯et쎯	-10.9076
wgkq0쎯adw쎯	-10.9077
bg쎯iww쎯	-10.9077
thg0쎯、	-10.908
쎁～	-10.9082
hhu0쎯ru쎯	-10.9083
yss쎯sgy쎯	-10.9084
wyf0쎯tlf2쎯	-10.9084
kgn쎯dcg쎯	-10.9084
tu쎯dga쎯a쎯wt쎯	-10.9084
r쎯jb쎯usr쎯	-10.9087
mqq쎯xtk쎯apk쎯qie쎯	-10.909
fgig쎯	-10.9092
rvk쎯nh쎯	-10.9093
aq쎯。	-10.9094
,px쎯wu쎯	-10.9095
qqqq1쎯amw쎯qc쎯	-10.9095
usr쎯lh쎯pl쎯	-10.9096
bfq쎯	-10.9097
sm쎯xeg쎯	-10.9097
iry쎯ddnl쎯	-10.9097
wty쎯qe쎯	-10.9098
dd쎯nae쎯	-10.91
ugm쎯rrp쎯	-10.9101
dx쎯uyh쎯	-10.9102
wyn쎯fhw쎯	-10.9103
tr쎯gj쎯ip쎯	-10.9105
jjjj쎯rb1쎯》	-10.9105
ycb쎯gq쎯	-10.9107
kkks0쎯ujf쎯	-10.9107
trf쎯·	-10.9108
ujff쎯ytd쎯	-10.9109
qq쎯uqw쎯cd쎯lk쎯	-10.9109
▁wb쎯	-10.911
tu쎯ip쎯r쎯	-10.9111
ck쎯ux쎯	-10.9111
rh쎯lc쎯w쎯	-10.9113
,dnv2쎯adw쎯	-10.9114
ipg쎯km쎯,	-10.9116
gu쎯jf쎯	-10.9117
ywwf쎯gf쎯	-10.9117
ajj쎯f쎯	-10.9117
jb쎯ym쎯r쎯	-10.9119
gip쎯s쎯	-10.912
adh쎯	-10.9121
j쎯hhhh쎯ue쎯	-10.9121
ooo쎯tue쎯	-10.9121
usgp1쎯	-10.9121
cc쎯tgj쎯	-10.9122
std쎯qfhw0쎯	-10.9123
aflf쎯	-10.9124
qev쎯yt쎯rg쎯	-10.9125
uth쎯wbj쎯	-10.9127
wf쎯gkl쎯wf쎯ta쎯	-10.9128
ujfj쎯wug1쎯”	-10.9128
、ggg1쎯	-10.9128
dn쎯uu쎯,	-10.9129
dd쎯ej쎯	-10.9132
fm쎯ps쎯ymhj쎯	-10.9133
ui쎯tsh0쎯	-10.9134
j쎯sve쎯rnd1쎯	-10.9134
j쎯l쎯pe쎯	-10.9135
쎀쎀쎀	-10.9136
k쎯l쎯ugdu쎯sy쎯	-10.9136
fqb1쎯wa쎯	-10.9137
쎅쎀oy쎯	-10.9138
d쎯p쎯wh쎯	-10.914
쎇쎅쎀	-10.9141
wc쎯ngk쎯、	-10.9142
dr쎯sft쎯ou쎯	-10.9144
ii쎯h쎯	-10.915
t쎯py쎯wf쎯wk쎯buj쎯	-10.9151
,yt쎯	-10.9152
gjq쎯e쎯	-10.9153
ii쎯egc쎯	-10.9153
wv쎯uyt0쎯yx쎯:	-10.9154
uu쎯if쎯	-10.9155
dj쎯wgk쎯	-10.9155
[	-10.9158
pj쎯ugdu쎯	-10.9158
pk쎯tfpd쎯	-10.9163
wsg0쎯txi쎯,	-10.9164
rg쎯ftj쎯	-10.9165
rpws쎯imj쎯	-10.9168
pv쎯by쎯	-10.917
oug쎯bb쎯	-10.9171
cqy쎯mww쎯	-10.9171
wgkg0쎯	-10.9175
wup쎯	-10.9176
uk쎯uth쎯:	-10.9176
usgd0쎯pg쎯b쎯	-10.9176
k쎯l쎯wt쎯pe쎯fl쎯wf쎯	-10.9178
tu쎯rfc쎯v쎯nae쎯	-10.918
ym쎯uqt쎯r쎯	-10.9181
tf	-10.9182
rrqc쎯	-10.9184
pwf쎯	-10.9184
rwb쎯fiyt쎯	-10.9186
v쎯tf쎯r쎯	-10.9188
tfkp쎯yxj쎯	-10.9189
yu쎯ytd쎯	-10.9191
qnqn쎯	-10.9191
pp쎯h쎯	-10.9192
thp쎯xfn쎯	-10.9192
ftjb쎯d쎯	-10.9192
lfq쎯anb0쎯	-10.9193
j쎯rxj쎯d쎯	-10.9193
dx쎯mdf쎯	-10.9194
ftbt쎯tkgg0쎯	-10.9198
tg쎯u쎯、	-10.9198
d쎯g쎯wh쎯	-10.9198
iyc쎯ii쎯	-10.9199
bfm쎯xfn쎯	-10.9199
qg쎯,	-10.9205
tve쎯e쎯	-10.9206
whtn1쎯	-10.9207
rcw쎯	-10.9207
rfc쎯sy쎯fc쎯rf쎯	-10.9208
a쎯tkgg0쎯fny쎯og쎯	-10.9209
ght쎯ywf쎯cy쎯f쎯	-10.9211
lk쎯ii쎯	-10.9212
mq쎯st쎯r쎯	-10.9213
pp쎯rn쎯	-10.9213
fcp쎯fcl쎯wf쎯	-10.9214
dm쎯eerq쎯	-10.9216
thd쎯ick쎯	-10.9216
hx쎯jf쎯	-10.9218
y쎯s쎯mw쎯pww쎯	-10.922
쎄～	-10.922
bmg쎯yge쎯	-10.9221
쎅.	-10.9221
oqdo쎯rnb쎯	-10.9222
쎉kgn쎯	-10.9222
,et쎯gf쎯	-10.9223
쎂쎀쎀oy쎯	-10.9229
fj쎯bc쎯	-10.9231
lwj쎯r쎯	-10.9234
,txg쎯rh쎯	-10.9236
tm쎯ue쎯	-10.9237
xte쎯wug1쎯gf쎯	-10.9237
tjt쎯vs쎯r쎯	-10.924
pg쎯hko쎯	-10.9244
dq쎯,	-10.9245
dd쎯ooo쎯	-10.9246
쎁쎈쎇	-10.9246
mqq쎯j쎯	-10.9246
cf쎯jvko쎯	-10.9247
hep쎯uj쎯	-10.9247
ix쎯	-10.9248
rpl쎯	-10.925
eee쎯쎁쎂jjjj쎯	-10.9252
lw쎯y쎯wtf쎯	-10.9253
k쎯ai쎯	-10.9254
i쎯fwm쎯mj쎯	-10.9255
r쎯hhhh쎯r쎯	-10.9256
mmv쎯qt쎯	-10.9256
dv쎯	-10.9257
kht쎯kkkk0쎯	-10.9259
hka쎯qv쎯jf쎯adwe1쎯	-10.9262
k쎯gajf쎯	-10.9263
ufy쎯lhnh쎯	-10.9264
ty쎯ipk쎯,	-10.9266
pl쎯pn쎯	-10.9268
svc쎯ywx쎯	-10.9269
ipkh1쎯et쎯r쎯	-10.9269
uywu2쎯	-10.9275
qmq쎯xf쎯sq쎯	-10.9275
tevc쎯	-10.9275
ia쎯ymhj쎯	-10.9276
trfh0쎯	-10.9276
쎂w쎯	-10.9277
wsg0쎯gm쎯b쎯	-10.9281
dd쎯ipkh1쎯tv쎯wf쎯	-10.9281
쎁쎉쎂쎇rh쎯	-10.9285
ihi쎯qh쎯	-10.9286
dm쎯lft쎯	-10.9287
idr쎯thd쎯	-10.9288
you1쎯e쎯	-10.9288
yw쎯td쎯	-10.9289
he쎯pg쎯	-10.9291
qq쎯su쎯	-10.9291
tfq쎯rg쎯wtf쎯	-10.9295
ncd쎯	-10.9295
cf쎯yid쎯	-10.9296
。cep쎯fp쎯	-10.9298
sam쎯tm쎯	-10.9298
vcb쎯dn쎯。	-10.9299
gd쎯yygy쎯	-10.93
쎁adm쎯	-10.93
p쎯yww쎯	-10.9304
wdn쎯fha쎯,	-10.9304
fg쎯tffu쎯uqd0쎯。	-10.9305
qh쎯ge쎯	-10.9306
dd쎯m쎯	-10.9306
쎀*	-10.9306
fnr쎯qi쎯	-10.9309
n쎯et쎯	-10.9311
ee	-10.9313
v쎯nae쎯dn쎯o쎯	-10.9314
쎂쎀dq쎯	-10.9314
oqm쎯	-10.9316
fn쎯drin쎯ftj쎯	-10.9316
sx쎯	-10.9318
ujn쎯o쎯	-10.9322
ipk쎯suq쎯	-10.9322
rqb0쎯	-10.9322
ytn쎯tvfh1쎯	-10.9322
cccf2쎯	-10.9322
g쎯uthp쎯ugdu쎯wyv쎯	-10.9323
sp쎯	-10.9324
o쎯wqin쎯rj쎯waw쎯	-10.9325
,nty1쎯	-10.9329
bj쎯ymhj쎯	-10.9329
m쎯od쎯	-10.933
py쎯aq쎯wug1쎯gf쎯	-10.9331
qk쎯ip쎯tg쎯	-10.9331
xdmd1쎯ql쎯	-10.9331
k쎯mmm쎯dd쎯ip쎯	-10.9332
쎀ypt쎯oy쎯	-10.9333
,wynb쎯	-10.9334
쎂쎀wtu쎯tyna2쎯	-10.9334
a쎯tkgg0쎯ymc쎯yf쎯	-10.9336
wvf쎯wg쎯	-10.9338
lkd쎯pe쎯	-10.9339
atg쎯gk쎯	-10.9341
aib쎯lfnh쎯:	-10.9341
qre쎯	-10.9343
ccw쎯	-10.9346
dga쎯pwv쎯km쎯。	-10.9349
iv쎯jv쎯	-10.935
쎈%	-10.9351
b쎯ytf쎯qq쎯	-10.9351
bd쎯qn쎯	-10.9351
g쎯uth쎯	-10.9352
sgw쎯	-10.9352
hv쎯quj쎯	-10.9353
nty1쎯rmhj쎯	-10.9354
lw쎯wc쎯sov쎯	-10.9354
ymc쎯yf쎯gn쎯	-10.9355
。rn쎯c쎯	-10.9358
gk	-10.9359
sgjg쎯	-10.936
▁rbcc쎯wqj쎯udi쎯	-10.936
k쎯l쎯iv쎯wa쎯	-10.936
lfn쎯tm쎯	-10.9362
iex쎯egc쎯	-10.9364
r쎯uqt쎯js쎯	-10.9364
쎁쎉쎉쎅	-10.9367
、ugdu쎯l쎯	-10.9368
,iv쎯jf쎯	-10.9373
tdj쎯ssss쎯	-10.9373
xq쎯쎂	-10.9375
sfi쎯twgi쎯	-10.9376
uqwn0쎯kkd쎯	-10.9377
dd쎯ip쎯xxf쎯og쎯	-10.9378
anf쎯	-10.9383
쎂/	-10.9385
qmq쎯telb쎯	-10.9385
rnb쎯rnw쎯	-10.9385
、qqqq1쎯	-10.9387
lqw쎯wrh2쎯ga쎯v쎯	-10.9389
ptf쎯if쎯	-10.939
lkd쎯l쎯	-10.9392
r쎯x쎯cwg쎯	-10.9393
epc쎯gc쎯b쎯	-10.9395
cep쎯fp쎯cf쎯	-10.9397
aus쎯	-10.9397
yfj쎯yww쎯	-10.9398
tf쎯og쎯fl쎯wf쎯	-10.9398
dgkn쎯fcl쎯	-10.9399
pp쎯gh쎯	-10.9399
rhb쎯	-10.94
,u쎯kkk쎯	-10.9401
tffu쎯tffy0쎯	-10.9402
е	-10.9403
d0쎯	-10.9404
wvd쎯v쎯	-10.9405
kht쎯h쎯	-10.9408
yvh쎯fje쎯	-10.9408
lkd쎯nn쎯	-10.9409
(쎄	-10.941
tey쎯pw쎯wc쎯ngk쎯	-10.941
ndj쎯hhhh쎯	-10.9411
,adk쎯	-10.9411
twgi쎯ys쎯	-10.9411
whf쎯og쎯wys쎯lft쎯	-10.9413
xnh쎯xwv쎯	-10.9413
ght쎯if쎯	-10.9416
ipw쎯wx쎯	-10.9416
bm쎯tg쎯d쎯	-10.9417
hk쎯e쎯	-10.9422
kdh쎯	-10.9422
。p쎯j쎯	-10.9423
pgn쎯pb쎯sov쎯	-10.9423
yx쎯wycm0쎯	-10.9424
gkp쎯go쎯r쎯	-10.9424
ow쎯xxg0쎯	-10.9425
쎃w쎯,	-10.9428
ith쎯mw쎯	-10.9429
uq쎯tyg쎯	-10.9429
,ce쎯qkqq쎯	-10.9431
,bde쎯udh쎯	-10.9432
atgn쎯	-10.9434
lk쎯a쎯、	-10.9434
e쎯uwl쎯	-10.9434
tg쎯u쎯x쎯apk쎯	-10.9435
wgk쎯if쎯	-10.9435
wsg0쎯gajf쎯	-10.9437
dga쎯pwv쎯yy쎯tm쎯:	-10.9437
vvv쎯tg쎯	-10.9438
쎁—	-10.9442
i쎯nb쎯	-10.9443
rn쎯fdm쎯	-10.9444
uk쎯gkl쎯uk쎯ta쎯	-10.9444
r쎯gj쎯ywx쎯	-10.9446
jde쎯jan쎯	-10.9448
mmm쎯ymhj쎯	-10.945
ghd0쎯yq쎯	-10.9451
ipkh1쎯wygg쎯	-10.9456
maf0쎯	-10.9456
ujfj쎯xgb쎯	-10.9456
ftbt쎯ip쎯gyt쎯	-10.9456
쎁、	-10.9458
r쎯ee쎯dc쎯	-10.9461
cf쎯tgm쎯	-10.9462
wh쎯ftbt쎯ip쎯gyt쎯	-10.9465
쎁쎉쎂쎅rh쎯	-10.9466
by쎯oja쎯	-10.9466
ymhj쎯fnrt쎯x쎯iyj쎯	-10.9467
w쎯n쎯bm쎯thgc쎯py쎯	-10.9467
qnq쎯et쎯	-10.9468
txi쎯xyc쎯k쎯	-10.9468
k쎯atd쎯ip쎯bpf쎯	-10.9469
。wjg쎯j쎯	-10.9471
ymf쎯rmhj쎯	-10.9471
ssg쎯thn쎯	-10.9472
qqug0쎯	-10.9472
tt쎯yn쎯sg쎯	-10.9476
wh쎯thd쎯qd쎯sf쎯	-10.9477
qya쎯	-10.9477
▁fg쎯、	-10.9477
yssr쎯rpwi쎯	-10.9477
3쎯	-10.9477
yygy쎯wsg0쎯	-10.9478
lll쎯tca쎯	-10.9478
uk쎯lftj쎯	-10.9479
tdu쎯	-10.9485
lu쎯wqa쎯	-10.9485
udg2쎯lc쎯	-10.9486
tg쎯u쎯a쎯anb0쎯	-10.9486
。wg쎯sf쎯	-10.9487
ofd쎯oy쎯	-10.9487
,sghg1쎯gn쎯	-10.9488
nt쎯s쎯	-10.9488
thd쎯qd쎯wk쎯ryn0쎯	-10.9488
uu쎯wsg0쎯fnr쎯	-10.9488
og쎯y쎯	-10.9488
vck쎯gf쎯	-10.949
lt쎯fiy쎯	-10.9493
tmo쎯f쎯tjh쎯	-10.9493
∶	-10.9494
jc쎯xt쎯	-10.9494
lfhf쎯gf쎯	-10.9496
thd쎯ip쎯	-10.9499
py쎯wf쎯lft쎯wsg0쎯	-10.9499
vfi쎯vfi쎯	-10.9499
ge쎯gm쎯bm쎯	-10.9499
puy쎯	-10.9503
xp쎯wgk쎯tgh쎯	-10.9503
lks쎯sq쎯	-10.9504
qqqq1쎯mmm쎯	-10.9506
sk쎯tfkd쎯ntg쎯	-10.9507
wgk쎯g쎯	-10.9508
ip쎯dga쎯pwv쎯	-10.9508
jtr쎯	-10.951
쎅kgn쎯	-10.951
。쎂쎀쎀쎅rh쎯	-10.9512
pyfc0쎯	-10.9514
rfc쎯jgm쎯	-10.9515
yni1쎯qy쎯	-10.9517
usr쎯sghg1쎯uff쎯	-10.9519
t쎯eb쎯tl쎯	-10.9519
rqym쎯	-10.952
hk쎯wycm0쎯	-10.952
to쎯tb쎯	-10.9521
cep쎯td쎯	-10.9521
ud쎯ng쎯	-10.9525
fgh쎯wtu쎯rh쎯	-10.9527
kynw쎯kgkw쎯	-10.9527
nnh쎯》	-10.9529
nty1쎯vfhp1쎯	-10.9531
dyt쎯ysi쎯	-10.9532
e쎯ytf쎯qq쎯	-10.9534
tu쎯km쎯	-10.9535
xx쎯tjh쎯jf쎯	-10.9536
itx쎯mgu쎯	-10.9536
쎁쎃쎅	-10.9537
lj쎯	-10.9538
r쎯rfm쎯jg쎯	-10.9539
)tffu쎯	-10.9539
bwf쎯lk쎯	-10.9539
vo쎯fcr쎯	-10.9541
ugv쎯thg0쎯	-10.9541
d쎯bk쎯dga쎯pwv쎯tg쎯	-10.9544
。kl쎯qh쎯,	-10.9546
itp쎯rxj쎯	-10.9549
rp쎯dj쎯	-10.9549
pe쎯yfd쎯	-10.955
р	-10.9551
sks쎯sks쎯	-10.9552
tjf쎯ae쎯	-10.9556
yygy쎯wx쎯uk쎯	-10.9556
pei쎯lll쎯	-10.9556
o쎯pfi쎯xj쎯	-10.9556
pp쎯pe쎯	-10.9558
um쎯tl쎯isgg0쎯yhk쎯	-10.956
ul쎯tfq쎯rg쎯	-10.9564
qk쎯atd쎯	-10.9564
▁sfi쎯uwy1쎯	-10.9565
。x쎯fp쎯	-10.9565
fny쎯lkb쎯《	-10.9567
sou1쎯	-10.9568
쎅°C	-10.9569
(?	-10.957
fm쎯ps쎯	-10.957
aft쎯e쎯《	-10.957
gu쎯ime쎯	-10.957
,tg쎯gf쎯	-10.9571
th	-10.9572
dfn쎯	-10.9572
tep쎯fp쎯	-10.9574
wg쎯dm쎯v쎯nae쎯	-10.9575
mfk쎯rh쎯	-10.9576
w쎯fqu쎯	-10.9578
td쎯qk쎯kkk쎯thgf0쎯	-10.9578
e쎯uqt쎯f쎯	-10.9578
dnv1쎯rh쎯	-10.9581
d쎯tjf쎯iawn쎯	-10.9582
f쎯wug1쎯。	-10.9582
nkuy1쎯	-10.9583
dj쎯pe쎯	-10.9584
xk쎯gqjo0쎯r쎯	-10.9586
fm쎯bj쎯	-10.959
iux쎯	-10.9591
e쎯g쎯pg쎯r쎯	-10.9593
qev쎯sr쎯	-10.9595
yngk0쎯maw쎯	-10.9595
,kj쎯qd쎯	-10.9595
ws쎯thn쎯	-10.9596
sm쎯jm쎯	-10.9599
ynvf쎯	-10.9599
aq쎯tv쎯	-10.9601
rdf1쎯iw쎯	-10.9602
sft쎯ou쎯r쎯	-10.9604
tmg1쎯oy쎯	-10.9605
。쎂쎀쎀쎇rh쎯	-10.9605
suq쎯xe쎯	-10.9606
ftbt쎯km쎯	-10.9609
qv쎯yyq쎯	-10.961
ug	-10.961
ovt쎯pb쎯wx쎯	-10.9612
tve쎯vb쎯	-10.9612
gcft2쎯lt쎯	-10.9613
쎁쎀쎂	-10.9615
ue쎯bg쎯	-10.9618
w쎯st쎯	-10.9618
;qm쎯gmu1쎯	-10.962
ygu쎯tv쎯	-10.9626
gip쎯sk쎯	-10.9627
pu쎯yk쎯	-10.963
ii쎯fakg1쎯	-10.963
gd쎯y쎯ftbt쎯	-10.9631
、ux쎯	-10.9631
djde0쎯	-10.9632
fny쎯tu쎯ip쎯suq쎯	-10.9632
▁쎂쎀쎀쎈rh쎯	-10.9635
mhny0쎯qiu0쎯	-10.9635
g쎯kgn쎯	-10.9636
ftbt쎯ip쎯gn쎯	-10.9637
yynw1쎯adm쎯hhhh쎯	-10.9637
g쎯ya쎯	-10.9637
fcp쎯isk쎯	-10.9639
gmm쎯gde쎯	-10.9641
ftx쎯rh쎯w쎯	-10.9642
dd쎯ds쎯	-10.9644
─	-10.9645
fd쎯ud쎯	-10.9648
w쎯tr쎯。	-10.9649
”pb쎯	-10.965
。쎁쎉쎄쎉rh쎯	-10.9651
a쎯um쎯tf쎯ght쎯	-10.9653
tp쎯gj쎯ip쎯bpf쎯	-10.9654
wt쎯bm쎯b쎯	-10.9655
eee쎯fjh0쎯	-10.9655
,bn쎯sk쎯	-10.9656
n쎯ght쎯	-10.9656
ish쎯	-10.9659
ghd0쎯fwm쎯	-10.966
utdk쎯	-10.9661
qa	-10.9664
ieb쎯mfky쎯	-10.9664
ick쎯pv쎯	-10.9664
ipr쎯itx쎯	-10.9664
rfm쎯f쎯	-10.9665
egc쎯tv쎯ipkh1쎯tv쎯	-10.9665
。ryl쎯ta쎯	-10.9667
nh쎯aqt쎯	-10.9667
ny쎯tld1쎯tp쎯	-10.9671
mw쎯dhb쎯pww쎯jg쎯	-10.9671
fwm쎯aj쎯、	-10.9671
ywx쎯》	-10.9672
ran쎯xqc쎯	-10.9674
sh쎯m쎯r쎯	-10.9676
iq	-10.9676
d쎯suq쎯tg쎯	-10.9679
gkl쎯bpf쎯ta쎯	-10.9679
vb쎯ygu쎯。	-10.968
o쎯pt쎯yne쎯	-10.9681
hko쎯。	-10.9682
wgku1쎯bfm쎯	-10.9682
rs쎯qgb쎯sm쎯	-10.9683
ubk0쎯	-10.9684
쎃w쎯	-10.9687
,wt쎯ftj쎯	-10.9687
gm쎯qqqq1쎯	-10.9688
xn쎯wynn3쎯qnp쎯	-10.969
,vfb쎯tc쎯	-10.9692
g쎯fh쎯ww쎯gk쎯	-10.9693
d쎯mw쎯r쎯	-10.9694
fp쎯iya쎯	-10.9695
iugi1쎯	-10.9696
r쎯gj쎯wynn3쎯	-10.9698
、py쎯wf쎯	-10.9699
rxj쎯nf쎯km쎯	-10.97
ukn쎯uqwm0쎯u쎯	-10.9701
y쎯s쎯tg쎯u쎯	-10.9701
fq쎯qc쎯	-10.9701
wg쎯lt쎯	-10.9704
,p쎯jfd쎯	-10.9706
쎁쎁쎂	-10.9707
gah쎯jj쎯	-10.9709
uce쎯adf쎯	-10.9709
uyh쎯,	-10.971
x쎯qyv쎯	-10.9714
c쎯h쎯,	-10.9717
hhhh쎯r쎯j쎯	-10.9718
nty1쎯yv쎯	-10.9718
fm쎯mmm쎯	-10.9718
tv쎯km쎯,	-10.9719
vfhp1쎯uu쎯r쎯	-10.9723
tda쎯	-10.9724
mq쎯ijo쎯	-10.9725
r쎯fp쎯tkgg0쎯	-10.9728
xn쎯tv쎯nnh쎯yn쎯	-10.9731
jtyl쎯gj쎯	-10.9731
쎈wc쎯jfd쎯	-10.9732
r쎯gk쎯nge쎯	-10.9733
쎈쎀쎀쎀	-10.9733
,xw쎯	-10.9734
rrr쎯qc쎯,	-10.9736
c쎯h쎯。	-10.9737
,lpdk0쎯	-10.9738
gjq쎯vb쎯f쎯	-10.9739
,bde쎯	-10.9742
tg쎯rm쎯	-10.9743
ucd쎯	-10.9744
gf쎯g쎯wsg0쎯	-10.9747
eee쎯쎅jjjj쎯	-10.9747
trh쎯kq쎯	-10.9748
쎆kgn쎯	-10.975
쎂쎀쎁	-10.975
ta쎯tgh쎯	-10.9751
dm쎯tkw쎯쎆	-10.9751
tk쎯thd쎯	-10.9752
fq쎯tfn쎯	-10.9753
yww쎯ait쎯gf쎯	-10.9755
,kg쎯	-10.9759
rny1쎯pg쎯	-10.9759
w쎯n쎯sw쎯pwfi쎯bpf쎯	-10.976
wg쎯suq쎯	-10.9761
、dgtg쎯	-10.9762
vef쎯	-10.9763
rwye1쎯	-10.9763
yon쎯ep쎯	-10.9765
tfkp쎯dn쎯r쎯	-10.9765
tew쎯	-10.9766
dq쎯ru쎯	-10.9768
i쎯td쎯uthp쎯	-10.9769
jf쎯ufy쎯	-10.9772
sh쎯ruv쎯	-10.9773
vfhp1쎯rmhj쎯	-10.9774
y쎯ick쎯atd쎯jgm쎯	-10.9774
gjq쎯rq쎯	-10.9774
iy	-10.9774
nnh쎯if쎯wt쎯kkk쎯	-10.9777
jtyl쎯qtyd1쎯	-10.9778
rn쎯gcft2쎯	-10.9779
ym쎯gf쎯	-10.978
ikh0쎯unr쎯	-10.978
sk쎯ce쎯j쎯	-10.9783
eb쎯tmc쎯	-10.9785
av쎯rq쎯	-10.9787
ymf쎯wtf쎯	-10.9787
ym쎯imkf1쎯	-10.9788
ty쎯uyh쎯	-10.979
xn쎯tv쎯	-10.9792
pj쎯pg쎯	-10.9792
scw쎯	-10.9793
sg쎯udh쎯“	-10.9795
fqu쎯tqdh쎯	-10.9796
xxm쎯ahty쎯	-10.9798
pyg쎯ytyh쎯ymhj쎯	-10.98
wy쎯thn쎯eb쎯tl쎯	-10.9804
kkkk0쎯drt쎯	-10.9804
pujs쎯	-10.9805
dd쎯oy쎯	-10.9805
쎂×	-10.9806
fge쎯fghg쎯,	-10.9808
ic쎯wa쎯	-10.9808
pgm쎯	-10.9809
lwg쎯ty쎯if쎯	-10.9809
hi쎯rgw쎯	-10.981
tffu쎯uqd0쎯쎁adm쎯	-10.981
gik쎯	-10.9811
tx쎯쎆	-10.9812
,jjjj쎯sg쎯	-10.9814
wlk쎯	-10.9814
w쎯fqu쎯nh쎯ty쎯	-10.9817
ygk쎯if쎯	-10.9818
쎂쎅dq쎯	-10.9818
djfd쎯oy쎯,pa쎯	-10.9819
fnr쎯iwyf2쎯	-10.9819
wv쎯dn쎯	-10.9819
gip쎯ce쎯	-10.9819
kkk쎯thgf0쎯r쎯	-10.982
k쎯jb쎯	-10.9822
쎃%	-10.9822
fny쎯og쎯xxf쎯og쎯,	-10.9823
lu쎯ih쎯	-10.9823
yqa쎯,	-10.9823
lkp쎯	-10.9825
ryi쎯	-10.9825
bgk쎯yb쎯	-10.9826
by쎯ooo쎯	-10.9826
bm쎯uthp쎯	-10.9829
jn쎯mqq쎯	-10.9829
ㄣ	-10.9829
ipe쎯deb쎯	-10.983
r쎯usr쎯gajf쎯	-10.9831
wyv쎯yuo쎯	-10.9832
mga쎯cbj쎯	-10.9833
h쎯yy쎯	-10.9833
cbts0쎯tfn쎯	-10.9833
r쎯lt쎯jg쎯	-10.9835
mqq쎯iytb0쎯	-10.9838
itx쎯rdc쎯쎂	-10.9838
xeg쎯dn쎯km쎯	-10.9838
eee쎯쎂쎃jjjj쎯	-10.9838
ujn쎯ln쎯j쎯	-10.9839
wqa쎯dfy쎯	-10.9842
yh쎯q쎯wu쎯	-10.9843
wtp쎯k쎯	-10.9845
》j쎯mh쎯	-10.9846
mmm쎯yfd쎯	-10.9846
awx쎯qyng쎯	-10.9846
k쎯wxf쎯n쎯ytt쎯	-10.9848
wdn쎯rfm쎯eb쎯tl쎯	-10.9848
ev쎯	-10.9849
d쎯q쎯l쎯	-10.9851
ymc쎯tlf2쎯t쎯	-10.9851
jc쎯wycb쎯	-10.9852
bn쎯ytf쎯	-10.9853
,fh쎯gc쎯	-10.9856
;d쎯	-10.9856
ntk쎯sfhg쎯tr쎯	-10.9856
,w쎯wu쎯	-10.9857
sve쎯rnd1쎯f쎯	-10.9861
xxf쎯og쎯。	-10.9863
ftbt쎯wf쎯	-10.9863
r쎯fnr쎯ujf쎯	-10.9868
sfi쎯rgw쎯	-10.9868
fg쎯fgh쎯rh쎯	-10.9874
dp쎯sfi쎯	-10.9875
pgc쎯,	-10.9876
ukn쎯uk쎯ymc쎯d쎯	-10.9878
g쎯m쎯	-10.9879
dyt쎯u쎯	-10.9881
xww쎯bw쎯	-10.9881
dm쎯ou쎯	-10.9882
hhu0쎯cep쎯	-10.9882
kxe쎯	-10.9883
e쎯tve쎯qq쎯	-10.9883
r쎯ep쎯nge쎯	-10.9887
wv쎯klj쎯j쎯	-10.9887
쎄.쎂	-10.9889
you1쎯wt쎯“	-10.989
ipk쎯tv쎯tv쎯km쎯	-10.9894
afwt1쎯	-10.9895
tp쎯lpdk0쎯。	-10.9896
dny쎯	-10.9899
yxl쎯trt쎯og쎯	-10.99
igd쎯lk쎯yjjh1쎯	-10.9901
fh쎯dp쎯	-10.9902
mf쎯x쎯dd쎯ip쎯	-10.9902
dg쎯nfc쎯	-10.9903
,tdp쎯wgk쎯	-10.9903
+쎁	-10.9904
g쎯tffu쎯uqd0쎯。	-10.9905
wc쎯jfd쎯,kha쎯	-10.9905
wk쎯udyj쎯	-10.9909
rmhj쎯ys쎯	-10.9909
fny쎯iy쎯	-10.9909
sse쎯	-10.9909
、ymhj쎯	-10.9911
p쎯tc쎯	-10.9912
쎂쎀-	-10.9914
gw쎯khgm4쎯	-10.9917
dn쎯ybv쎯r쎯	-10.9919
fjn쎯	-10.992
wc쎯gu쎯	-10.992
iy쎯ujf쎯:	-10.9921
rvyo쎯jg쎯	-10.9924
r쎯g쎯uk쎯wv쎯	-10.9925
gkl쎯ukn쎯	-10.9926
xv쎯qc쎯,	-10.9926
(gm쎯	-10.9927
mmm쎯ss쎯	-10.9928
с	-10.9928
r쎯yygy쎯wx쎯	-10.9929
ym쎯mtd쎯	-10.9929
khgm4쎯bj쎯	-10.993
>>	-10.9933
ftjb쎯s쎯	-10.9936
쎃/	-10.9937
ytt쎯thd쎯ick쎯aq쎯	-10.9941
,sghg1쎯wycb쎯	-10.9942
uwyc0쎯uai쎯	-10.9942
uh쎯d쎯	-10.9943
ftbt쎯rep쎯,fge쎯	-10.9945
mmqu쎯	-10.9946
ymc쎯tlf2쎯。	-10.9946
cqy쎯oge쎯	-10.9947
sh쎯xf쎯wgk쎯	-10.995
fny쎯pe쎯。	-10.9951
amw쎯pujn1쎯qc쎯	-10.9951
ye쎯eb쎯	-10.9951
sbd쎯lkmi0쎯gae쎯,	-10.9953
usr쎯kkk쎯tkh쎯	-10.9953
v쎯tg쎯b쎯	-10.9954
eyf쎯	-10.9955
ta쎯、	-10.9955
hka쎯ufk0쎯k쎯	-10.9955
pynn1쎯	-10.9956
smm쎯	-10.9956
khgp0쎯yop쎯	-10.9956
dp쎯gc쎯b쎯	-10.996
wt쎯yngk0쎯	-10.996
yc쎯jn쎯	-10.9961
hx쎯nnh쎯	-10.9964
qtk쎯	-10.9964
u쎯sc쎯	-10.9964
。rp쎯rh쎯go쎯,	-10.9965
itx쎯ipr쎯	-10.9965
fc쎯ref쎯	-10.9966
rfc쎯sy쎯wbj쎯usr쎯	-10.9966
r쎯ip쎯nu쎯	-10.9967
nkuf쎯gl쎯	-10.9969
kq쎯ou쎯	-10.997
tp쎯gj쎯saj쎯aa쎯	-10.9972
fm쎯yiu쎯dd쎯ip쎯	-10.9976
g쎯xfm쎯	-10.9977
rnn1쎯pu쎯	-10.9977
bo쎯	-10.9979
dd쎯afi쎯	-10.998
gogj쎯tak쎯	-10.9981
ytyh쎯gmi쎯kq쎯	-10.9981
r쎯nge쎯ukq쎯	-10.9981
dga쎯pwv쎯,	-10.9981
gl쎯bpf쎯	-10.9981
txi쎯xyc쎯wys쎯dn쎯	-10.9983
usr쎯ub쎯bm쎯thgc쎯	-10.9985
쎁쎁쎅	-10.9985
ta쎯dd쎯	-10.9985
,ak쎯ftj쎯	-10.9989
at쎯yfn쎯	-10.999
,s쎯	-10.9991
ypm쎯ya쎯	-10.9993
jn쎯dgt1쎯	-10.9994
thd쎯tmd쎯r쎯	-10.9996
k쎯tu쎯bpf쎯	-10.9997
kml쎯ujj쎯	-10.9998
,g쎯fh쎯	-10.9998
wg쎯yy쎯wug1쎯r쎯	-10.9999
.쎅%	-11.0002
dskf쎯trf쎯	-11.0003
vcb쎯wgkq0쎯	-11.0004
sk쎯c쎯cep쎯fp쎯	-11.0004
rdj쎯yt쎯	-11.0007
k쎯l쎯l쎯bf쎯	-11.0013
,kw쎯s쎯	-11.0013
fge쎯jtyq1쎯	-11.0014
dd쎯fwm쎯saj쎯	-11.0015
r쎯hw쎯wsg0쎯	-11.0016
ty쎯ipk쎯	-11.0018
쎆w쎯,	-11.0019
。p쎯wh쎯	-11.002
vff쎯	-11.0022
k1쎯	-11.0022
dd쎯hka쎯	-11.0023
umia쎯	-11.0025
tmg1쎯lqw쎯	-11.0026
bynw0쎯bb쎯wu쎯	-11.0029
najg쎯	-11.003
nnnn쎯puhc쎯	-11.0032
dy쎯pw쎯	-11.0032
dg쎯tffu쎯uqd0쎯。	-11.0033
bs쎯sve쎯tfpd쎯	-11.0033
wug1쎯。	-11.0035
oge쎯cep쎯	-11.0036
w쎯k쎯aw쎯ipk쎯km쎯	-11.0037
yygy쎯si쎯	-11.0038
ukn쎯bw쎯	-11.0039
w쎯tfkp쎯	-11.0039
iv쎯jf쎯r쎯	-11.004
eee쎯쎂쎂jjjj쎯	-11.004
atd쎯ubk0쎯txi쎯	-11.0041
dfef쎯	-11.0042
ge쎯gm쎯o쎯	-11.0046
qyk쎯	-11.0047
pp쎯wt쎯	-11.0048
q쎯wu쎯uqf쎯	-11.0048
xfm쎯tavn쎯ait쎯pu쎯	-11.0049
pue쎯	-11.0051
ㄥ	-11.0054
-쎁쎅	-11.0055
po쎯pd쎯	-11.0055
、、、	-11.0056
ipk쎯xeg쎯nnh쎯yn쎯	-11.0059
ade쎯	-11.0061
xwv쎯xwv쎯	-11.0062
gqt	-11.0062
wt쎯mq쎯	-11.0063
wx쎯uv쎯	-11.0063
aw쎯wv쎯	-11.0064
ua쎯i쎯j쎯	-11.0067
r쎯iytb0쎯ca쎯	-11.0067
xwf쎯rmhj쎯	-11.0069
pf쎯ryn0쎯	-11.0069
mqu쎯eee쎯	-11.0072
oun쎯	-11.0075
imkf1쎯fii쎯	-11.0076
wfl쎯	-11.0076
ytey쎯tf쎯py쎯	-11.0076
myd쎯gtu쎯	-11.0078
dnv1쎯jfd쎯	-11.008
vcb쎯o쎯	-11.0084
rgw쎯kkd쎯	-11.0084
afs쎯wh쎯	-11.0085
cbd쎯yf쎯	-11.0085
ith쎯tv쎯	-11.0086
jh쎯hq쎯	-11.0088
gf쎯쎂쎀쎀쎉rh쎯	-11.0089
umq쎯qtg쎯	-11.009
wys쎯qfhw0쎯	-11.0093
rvy쎯nf쎯	-11.0094
jq쎯rh쎯	-11.0095
、vfhp1쎯tam쎯	-11.01
k쎯gef쎯rh쎯	-11.01
gcf쎯wynb쎯wtf쎯	-11.01
r쎯vcl쎯lt쎯	-11.0102
fm쎯aq쎯	-11.0107
pgn쎯r쎯	-11.0109
쎁쎀쎆	-11.0109
ip쎯dl쎯,	-11.0111
rvyo쎯hko쎯	-11.0112
tig쎯	-11.0112
쎁쎅쎀dq쎯	-11.0112
gc쎯yqa쎯	-11.0114
eee쎯쎂쎁jjjj쎯	-11.0114
jtg쎯adwe1쎯	-11.0114
je쎯gd쎯	-11.0116
u쎯kkk쎯ga쎯v쎯	-11.0116
ndj쎯《	-11.0118
pgy쎯mhny0쎯	-11.0119
mw쎯wv쎯int쎯	-11.012
rx쎯ygu쎯	-11.0121
xnn0쎯shn쎯	-11.0122
rua쎯ujf쎯	-11.0122
py쎯wf쎯v쎯nae쎯	-11.0123
ajdj1쎯	-11.0124
yynw1쎯kkk쎯tkh쎯	-11.0125
ipg쎯km쎯。	-11.0126
ytd쎯ndj쎯	-11.0127
cyna0쎯	-11.0127
q0쎯	-11.0129
r쎯dn쎯xgm쎯	-11.013
od쎯klj쎯:	-11.0131
”,j쎯	-11.0131
i쎯m쎯,	-11.0132
、tjf쎯iawn쎯	-11.0133
fad쎯	-11.0133
r쎯trf쎯qc쎯	-11.0133
cd쎯mqb쎯	-11.0133
thd쎯tf쎯lg쎯	-11.0134
ga쎯vck쎯b쎯	-11.0134
eee쎯쎁쎇jjjj쎯	-11.0135
yygt쎯sghg1쎯ufg쎯	-11.0139
jujf1쎯	-11.014
ym쎯ntg쎯ce쎯	-11.0141
。쎂쎀쎀쎄rh쎯	-11.0143
i쎯wynk쎯	-11.0147
tmg1쎯gajf쎯	-11.0148
쎇rh쎯)	-11.0151
fwyc2쎯uk쎯wrh2쎯	-11.0153
쎆.쎀	-11.0153
wc쎯ghd0쎯	-11.0154
od쎯、	-11.0156
ixj쎯ii쎯	-11.0156
。쎂쎀쎀쎉rh쎯	-11.0157
uxe쎯rg쎯	-11.0157
r쎯tp쎯gj쎯	-11.016
ae쎯txi쎯	-11.016
,k쎯aw쎯	-11.016
『	-11.0161
p쎯ffi쎯	-11.0164
쎉eee쎯gcf쎯	-11.0168
rer쎯iuc쎯	-11.0169
fq쎯qjq쎯ymhj쎯	-11.017
rmhj쎯tfkp쎯og쎯	-11.017
jx쎯mmm쎯	-11.017
sk쎯d쎯	-11.0171
kgn쎯:	-11.0172
tmo쎯ss쎯aqv1쎯dq쎯	-11.0173
wf	-11.0174
ajl쎯	-11.0174
sh쎯xf쎯wgk쎯r쎯	-11.0174
ue쎯qtd쎯	-11.0175
gogn쎯ntg쎯	-11.0176
epq쎯	-11.0176
qhk쎯dgtg쎯	-11.0176
eyni쎯ukh쎯	-11.0178
dxa쎯	-11.0178
bb쎯vvv쎯	-11.0178
r쎯uk쎯wv쎯	-11.0178
tyg쎯go쎯	-11.0178
oqd쎯	-11.0179
alf쎯ytt쎯	-11.018
▁쎂쎀쎀쎆rh쎯	-11.0181
apk쎯udyj쎯dh쎯pgk쎯	-11.0182
syl쎯	-11.0188
eee쎯쎂쎄jjjj쎯	-11.0188
r쎯x쎯iyj쎯	-11.019
,cd쎯lk쎯	-11.0191
hk쎯rnd1쎯	-11.0191
rp쎯rh쎯	-11.0191
uqvd0쎯	-11.0193
▁gm쎯wtf쎯	-11.0195
ffff5쎯bgh쎯adw쎯	-11.0195
dx쎯riu쎯	-11.0197
s쎯fiy쎯,	-11.0197
efk쎯eta쎯	-11.0198
ff쎯bpf쎯	-11.0199
c쎯ai쎯	-11.0202
tlf2쎯pvs쎯	-11.0203
lwx쎯eck쎯	-11.0203
hh쎯uce쎯	-11.0206
dgh쎯w쎯	-11.0209
ii쎯uqwm0쎯idr쎯	-11.021
un	-11.021
aguw쎯	-11.0212
txe쎯ynt쎯	-11.0212
nge쎯ukq쎯gh쎯	-11.0217
gu쎯yy쎯wc쎯jfd쎯,	-11.0218
cc쎯tm쎯	-11.0218
pg쎯o쎯	-11.0218
up쎯ggg1쎯	-11.0221
yu쎯if쎯	-11.0223
쎄rh쎯)	-11.0223
bwf쎯ntk쎯atd쎯bpf쎯	-11.0224
쎁쎈쎉	-11.0225
on쎯gqje쎯	-11.0226
,ux쎯gn쎯	-11.0227
o쎯l쎯pe쎯	-11.0229
r쎯ygk쎯yyy쎯	-11.0229
n쎯tg쎯	-11.0232
egc쎯tv쎯nnh쎯yn쎯	-11.0233
rua쎯rgef쎯	-11.0235
i쎯yud0쎯	-11.0238
wqr쎯	-11.0242
r쎯qt쎯bb쎯	-11.0243
gf쎯쎂쎀쎁쎀rh쎯	-11.0244
wynb쎯rg쎯	-11.0245
tv쎯km쎯wf쎯y쎯wtf쎯	-11.0248
yc쎯jn쎯kkd쎯	-11.0248
mqb쎯qev쎯	-11.0253
,y쎯s쎯ww쎯gk쎯	-11.0254
jb쎯ta쎯	-11.0255
lu쎯qq쎯	-11.0256
wgnb쎯	-11.0256
fhn쎯wdy1쎯	-11.0258
pgk쎯wynk쎯	-11.0259
fm쎯djd쎯	-11.0261
dx쎯mmm쎯	-11.0261
yt쎯dd쎯	-11.0261
iytb0쎯ca쎯《	-11.0262
ipg쎯yfj쎯	-11.0263
ccf쎯	-11.0264
hna쎯	-11.0264
。’	-11.0268
,쎂쎀쎀쎄rh쎯	-11.0268
ntx쎯	-11.0269
pei쎯pe쎯	-11.0274
glf쎯	-11.0274
xeg쎯gkl쎯nnh쎯yn쎯	-11.0277
www쎯tg쎯	-11.0278
ryc쎯qie쎯	-11.0281
ty쎯wvp쎯	-11.0282
f쎯aq쎯。	-11.0285
lfo	-11.0288
uub쎯	-11.0288
gah쎯up쎯	-11.0288
ptkm0쎯pg쎯	-11.0288
dm쎯uk쎯	-11.0289
dgtg쎯ynt쎯	-11.0289
ip쎯wf쎯gj쎯gk쎯	-11.0289
gd쎯ipkf0쎯	-11.029
udg2쎯ec쎯	-11.0292
()r쎯	-11.0295
o쎯g쎯wsg0쎯	-11.0296
yyq쎯wf쎯	-11.0296
usr쎯sf쎯	-11.0298
쎃.쎇	-11.03
ftbt쎯tv쎯	-11.0301
jty쎯i	-11.0302
xln1쎯jhny쎯	-11.0302
g쎯wsg0쎯	-11.0302
lh쎯efc쎯	-11.0303
gn쎯yid쎯et쎯	-11.0304
yy쎯tkgg0쎯	-11.0304
rffg쎯thgf0쎯	-11.0304
cf쎯rymn쎯	-11.0304
쎁쎀dq쎯,	-11.0306
:쎈	-11.0308
mmv쎯	-11.0308
nty1쎯qk쎯	-11.031
um쎯yhk쎯	-11.0311
fak쎯	-11.0311
usgp1쎯pf쎯	-11.0316
ukn쎯hich쎯	-11.0317
img쎯,	-11.0317
fgh쎯mt쎯	-11.0318
kq쎯》	-11.0318
kmd쎯	-11.032
ux쎯tvr쎯	-11.032
akgn0쎯	-11.0321
ntg쎯udy쎯	-11.0322
°C,	-11.0322
쎁쎀쎀oy쎯	-11.0323
w쎯kkkk0쎯쎁	-11.0326
kkkk0쎯,	-11.0328
itl쎯	-11.0328
v쎯nae쎯。	-11.0329
ru쎯adwr쎯	-11.0329
fcb쎯j쎯	-11.0329
xf쎯sq쎯r쎯	-11.033
fhn쎯idr쎯gf쎯	-11.033
trf쎯hko쎯:	-11.0333
eee쎯쎂쎇jjjj쎯	-11.0333
wcy2쎯wcy2쎯	-11.0335
fhqv쎯	-11.0335
yfn쎯tr쎯	-11.0338
tu쎯fl쎯	-11.034
,ux쎯yiu쎯	-11.034
wgmy3쎯udv쎯	-11.0344
▁bm쎯th쎯:	-11.0346
puhc쎯iwyf2쎯o쎯	-11.0346
rmhj쎯dn쎯r쎯	-11.0348
uyh쎯、	-11.0349
je쎯jo쎯r쎯	-11.0351
p쎯j쎯g쎯wh쎯	-11.0351
쎁쎈쎀쎀	-11.0353
。p쎯jfd쎯	-11.0354
r쎯ymhj쎯fnrt쎯	-11.0355
()t쎯	-11.0355
wvmj쎯	-11.0356
rg쎯dm쎯	-11.0356
쎅w쎯,	-11.0358
쎁쎈쎈	-11.036
ud쎯txi쎯。	-11.0362
tmg1쎯fge쎯	-11.0362
)(	-11.0364
pei쎯ip쎯bpf쎯	-11.0365
rck쎯	-11.0365
pfqc1쎯	-11.0366
uxe쎯iq쎯	-11.0367
qsu쎯gqx쎯	-11.0367
nfi0쎯	-11.0367
,ua쎯uqf쎯	-11.0368
hcd쎯e쎯	-11.037
3	-11.037
wf쎯e쎯	-11.037
jb쎯xk쎯	-11.0371
ymhj쎯wc쎯pv쎯nnk쎯	-11.0373
wycm0쎯nf쎯ih쎯xeg쎯	-11.0373
tgj쎯lt쎯	-11.0373
fhu쎯fj쎯	-11.0373
-쎁쎂	-11.0374
쎃쎀%	-11.0379
oat쎯ga쎯	-11.0379
:쎉	-11.038
ai쎯egc쎯	-11.038
hka쎯sy쎯	-11.0383
r쎯ym쎯usr쎯rfc쎯sy쎯	-11.0384
tdtf쎯tlf2쎯	-11.0385
ymkc0쎯	-11.0386
tx쎯wty쎯nm쎯	-11.0387
ga쎯fffy쎯	-11.0388
ak	-11.0388
puj쎯	-11.0388
dy쎯ide쎯	-11.0391
pwav쎯	-11.0391
쎁rh쎯)	-11.0392
wc쎯ngk쎯c쎯	-11.0394
gmww쎯ftj쎯	-11.0395
ax쎯et쎯	-11.0395
pl쎯wv쎯aq쎯	-11.0396
ujf쎯uqt쎯	-11.0397
qk쎯iwyf2쎯	-11.0397
ntg쎯klj쎯	-11.0399
eee쎯쎁쎄jjjj쎯	-11.0401
pu쎯khg쎯x쎯cwg쎯	-11.0401
khd쎯fha쎯	-11.0405
fuk쎯yk쎯、	-11.0406
tffu쎯gf쎯	-11.0407
eee쎯쎁쎉jjjj쎯	-11.0408
wk쎯ryn0쎯aq쎯	-11.041
wa쎯gj쎯um쎯	-11.0412
rnb쎯fcl쎯	-11.0414
nge쎯jy쎯	-11.0415
dgj쎯tt쎯nnh쎯if쎯	-11.0416
rnnw쎯pgn쎯r쎯	-11.0417
ugdu쎯sy쎯qnp쎯	-11.0417
bde쎯ujn쎯	-11.0418
vcb쎯jf쎯	-11.0419
,xx쎯vk쎯	-11.0419
r쎯qe쎯qc쎯	-11.0421
su쎯kkk쎯	-11.0421
qw쎯	-11.0423
qnth쎯)	-11.0423
synw쎯tha쎯	-11.0423
qvhc1쎯	-11.0424
ymhj쎯tv쎯、ymhj쎯	-11.0424
eyj쎯	-11.0424
▁adw쎯wb쎯	-11.0425
han쎯	-11.0425
쎂쎆쎀	-11.0427
tfqp쎯rdc쎯	-11.0427
isk쎯uthp쎯	-11.0429
ssf쎯hh쎯	-11.043
ukn쎯a쎯wf쎯	-11.0431
쎃rh쎯)	-11.0433
:쎀.	-11.0433
tp쎯gj쎯uqwk쎯yqj쎯	-11.0434
udy쎯fqb1쎯	-11.0436
a쎯wt쎯uk쎯uyh쎯	-11.0437
wdn쎯tfq쎯	-11.0437
usr쎯tg쎯	-11.0437
wo쎯wuf쎯	-11.0438
kgb쎯,	-11.0439
pye쎯tdij쎯	-11.0439
eee쎯쎆jjjj쎯	-11.0439
dbv쎯	-11.044
itx쎯yqa쎯	-11.044
rrr쎯isgg0쎯	-11.0442
쎁쎉쎉쎄	-11.0442
mmm쎯ax쎯	-11.0444
dgh쎯ftx쎯	-11.0444
,dt쎯egl쎯	-11.0444
gcf쎯gf쎯	-11.0447
jty쎯irh쎯	-11.0449
i쎯tffu쎯	-11.0449
rwye1쎯rt쎯	-11.0449
sgi쎯”	-11.045
v쎯gm쎯r쎯	-11.0452
쎃.쎈	-11.0452
tffy0쎯jm쎯	-11.0453
zzy7쎯	-11.0453
쎁쎉쎉쎇	-11.0454
eee쎯쎁쎁jjjj쎯	-11.0454
ip쎯yu쎯	-11.0455
쎅rh쎯)	-11.0455
rp쎯mt쎯rh쎯	-11.0457
iq쎯yuo쎯	-11.0458
qsu쎯alt쎯	-11.0459
tffu쎯fny쎯og쎯	-11.046
wc쎯wv쎯	-11.0462
rmc쎯u쎯	-11.0462
ab쎯ith쎯	-11.0463
yt쎯lfhf쎯	-11.0464
ipkh1쎯tl쎯gj쎯gk쎯,	-11.0464
ua쎯im쎯e쎯	-11.0465
gjq쎯vb쎯	-11.0473
awj쎯	-11.0473
k쎯kht쎯	-11.0475
kkk쎯thgf0쎯,	-11.0476
iwv쎯	-11.0478
wsg0쎯r쎯	-11.0481
tffu쎯al쎯ce쎯	-11.0481
β	-11.0482
sk쎯tfqp쎯	-11.0484
ce쎯lt쎯t쎯	-11.0484
ip쎯bpf쎯ftbt쎯rep쎯	-11.0485
ga쎯awx쎯	-11.0485
e쎯ycb쎯	-11.0486
sw쎯imj쎯ymc쎯tlf2쎯	-11.0487
ipk쎯tv쎯nnh쎯yn쎯、	-11.0488
tx쎯ag쎯nm쎯	-11.0489
al쎯yx쎯:	-11.0489
qtge쎯	-11.0491
py쎯aq쎯nd쎯tv쎯wf쎯	-11.0491
e쎯qk쎯r쎯	-11.0493
jb쎯tfq쎯fj쎯r쎯	-11.0497
rj쎯ue쎯	-11.0497
mga쎯》:“	-11.0499
y쎯wtf쎯atd쎯jgm쎯。	-11.0499
cm쎯rhf쎯	-11.0499
xtdh0쎯cw쎯	-11.0501
ga쎯og쎯jf쎯uj쎯	-11.0501
pds쎯tg쎯	-11.0502
쎁쎂.	-11.0503
iy쎯mm쎯ge쎯	-11.0504
/쎁	-11.0506
wwj쎯wfhg쎯r쎯	-11.0506
rg쎯gmf쎯	-11.0507
an쎯lwj쎯sgi쎯	-11.0509
udrc쎯	-11.051
py쎯wf쎯tk쎯lwj쎯	-11.051
xa쎯gmiu쎯	-11.0513
ad쎯f쎯。	-11.0514
vtkd1쎯bb쎯	-11.0515
ty쎯ip쎯	-11.0517
jq쎯h쎯	-11.0517
yygy쎯wx쎯uq쎯iyc쎯	-11.0519
hj쎯fhg1쎯	-11.0521
《usr쎯	-11.0521
qgu쎯je쎯	-11.0521
a쎯wt쎯tv쎯km쎯wf쎯	-11.0528
sfm쎯	-11.0528
tffu쎯f쎯。	-11.0528
gd쎯bb쎯	-11.053
ltu쎯》	-11.0531
hjs쎯dm쎯	-11.0531
uq쎯ian0쎯th쎯	-11.0532
wyq쎯、	-11.0532
i쎯vk쎯	-11.0533
oyx쎯	-11.0533
fqb1쎯。	-11.0534
il쎯il쎯	-11.0534
qtj쎯pe쎯	-11.0534
shn쎯qje쎯	-11.0534
。aft쎯e쎯《	-11.0537
tg쎯tr쎯rfc쎯sy쎯	-11.0537
ufg쎯cm쎯	-11.054
tmg1쎯ihc쎯	-11.0541
쎁.쎉	-11.0542
dd쎯gcft2쎯	-11.0544
ai쎯mmm쎯	-11.0545
쎁쎀쎁	-11.0546
dgh쎯ftx쎯r쎯	-11.055
lhnh쎯udy쎯eri쎯	-11.0552
ip쎯wf쎯wf쎯km쎯,	-11.0552
fqp쎯qie쎯	-11.0552
ue쎯gq쎯	-11.0555
qkql쎯	-11.0555
i쎯je쎯	-11.0557
wf쎯h쎯	-11.0557
vk쎯m쎯	-11.0557
tve쎯dd쎯r쎯	-11.056
bm쎯wyk쎯	-11.0562
gog쎯rvyo쎯gkp쎯	-11.0563
e쎯egl쎯gf쎯	-11.0565
ks쎯	-11.0565
l쎯pe쎯sfi쎯uwy1쎯	-11.0566
tuj쎯wsg0쎯k쎯yygy쎯	-11.0567
xeg쎯wrh2쎯	-11.0567
um쎯og쎯qve쎯tf쎯	-11.0568
dn쎯wwv쎯	-11.0569
wty쎯dd쎯	-11.0569
ufy쎯sgn쎯	-11.0569
쎁쎆쎈	-11.057
sm쎯gj쎯	-11.057
hhu0쎯qiu0쎯	-11.0575
cw쎯jghm1쎯	-11.0579
gs쎯umd0쎯	-11.0579
xxf쎯og쎯gf쎯h쎯itx쎯	-11.058
,wcy2쎯	-11.058
wfn쎯dd쎯	-11.058
,쎂쎀쎀쎆rh쎯	-11.0582
iytb0쎯jtyq1쎯	-11.0582
ly쎯	-11.0583
c쎯sghg1쎯	-11.0585
r쎯yw쎯sk쎯	-11.0586
▁쎆	-11.0586
ga쎯uit쎯	-11.0587
oge쎯iad쎯	-11.0588
vv쎯bu쎯	-11.0589
sg쎯sf쎯	-11.059
td쎯qk쎯r쎯	-11.0592
i쎯on쎯wbj쎯usr쎯	-11.0592
sfi쎯sg쎯	-11.0592
tffu쎯a쎯wt쎯	-11.0594
dw0쎯gd쎯	-11.0595
wty쎯kht쎯pl쎯	-11.0596
fhv쎯fnr쎯	-11.0598
tu쎯ip쎯v쎯nae쎯cm쎯	-11.0599
ip쎯sy쎯wf쎯yyq쎯	-11.0603
pqk쎯	-11.0603
gj쎯ntg쎯	-11.0605
snn1쎯	-11.0606
yy쎯qf쎯、ght쎯tgm쎯	-11.0607
,쎁쎉쎈쎅rh쎯	-11.0607
sdm쎯id쎯	-11.0609
ス	-11.061
thd쎯egl쎯	-11.061
tv쎯km쎯wf쎯tv쎯km쎯、	-11.0611
cep쎯tyg쎯	-11.0616
um쎯et쎯	-11.0618
pu쎯khg쎯k쎯	-11.0618
zzy3쎯	-11.0618
eee쎯쎉jjjj쎯	-11.0619
dsh1쎯	-11.062
쎁쎉쎉쎆	-11.0621
tffu쎯l쎯pe쎯	-11.0622
dnv1쎯gu쎯oy쎯	-11.0623
tk쎯aa쎯	-11.0625
쎂rh쎯)	-11.0625
ym쎯rfm쎯jg쎯	-11.0626
rmhj쎯tlf2쎯	-11.0627
aq쎯wug1쎯	-11.0627
bty쎯	-11.0628
sksw쎯ndj쎯	-11.0628
pe쎯jfd쎯	-11.0632
gqje쎯thg0쎯	-11.0635
tu쎯gkl쎯tu쎯ta쎯	-11.0636
ahkm1쎯	-11.0638
r쎯ovt쎯rnd1쎯	-11.0638
xf쎯og쎯	-11.064
mq쎯wwwk쎯	-11.064
tuj쎯xq쎯	-11.0641
sps쎯sap쎯	-11.0643
rg쎯w쎯	-11.0644
ym쎯ahty쎯	-11.0645
sh쎯sm쎯	-11.0647
kcg쎯	-11.065
wkhh쎯fay쎯	-11.0651
suj쎯	-11.0651
jjjj쎯jvko쎯	-11.0653
쎈w쎯,	-11.0658
쎇eee쎯xxf쎯og쎯gf쎯	-11.0659
dn쎯wqj쎯	-11.066
udyj쎯ryn0쎯	-11.066
。쎁쎉쎉쎂rh쎯	-11.0661
itm쎯iyt0쎯	-11.0661
j쎯cep쎯fp쎯	-11.0661
lfq쎯mw쎯	-11.0661
jg쎯r쎯	-11.0663
av쎯pu쎯	-11.0665
쎅w쎯	-11.0666
mftj1쎯	-11.0666
fd쎯wksf쎯	-11.0666
pei쎯og쎯tg쎯u쎯	-11.0667
sgn쎯ou쎯	-11.0667
g쎯nnh쎯	-11.0667
dn쎯uqt쎯	-11.0669
6	-11.0669
ylf0쎯;e쎯ss쎯f쎯	-11.067
uuj쎯syp쎯b쎯	-11.067
spwk쎯	-11.0671
mmm쎯wwk쎯	-11.0671
,cd쎯lk쎯b쎯	-11.0674
sh쎯rc쎯	-11.0674
fqb1쎯rh쎯(	-11.0676
anb0쎯sy쎯kkk쎯	-11.0677
gu쎯tffu쎯	-11.0677
r쎯su쎯bb쎯	-11.0678
ywx쎯ygh쎯	-11.0678
g쎯tyna2쎯	-11.0679
sov쎯tel쎯	-11.0679
r쎯sm쎯wf쎯	-11.068
nae쎯wf쎯	-11.0682
iagw쎯ujn쎯r쎯	-11.0682
ma쎯rr쎯	-11.0683
yo쎯jg쎯	-11.0687
vfb쎯jfd쎯	-11.0689
fff5쎯f쎯af쎯wgkb2쎯	-11.0689
う	-11.0689
wb쎯gip쎯	-11.0692
g쎯tfk쎯	-11.0692
ta쎯yy쎯gae쎯	-11.0694
rfm쎯wk쎯	-11.0694
lpdk0쎯aq쎯mw쎯	-11.0694
an쎯lwj쎯r쎯	-11.0696
dgtg쎯img쎯wx쎯a쎯	-11.0697
rrhy쎯wygg쎯	-11.0697
gj쎯ywx쎯t쎯	-11.0698
qth쎯	-11.0699
,wgq쎯vk쎯	-11.0699
qev쎯yfn쎯	-11.0701
pey쎯	-11.0702
》w쎯tr쎯pp쎯g쎯。	-11.0704
ukn쎯wf쎯	-11.0704
wv쎯od쎯:ltu쎯nnh쎯>	-11.0704
wug1쎯,	-11.0706
,ua쎯c쎯	-11.0706
ipkh1쎯xv쎯	-11.0707
fas쎯	-11.0708
rh쎯uj쎯,	-11.071
bd쎯epc쎯	-11.071
hk쎯f쎯쎁	-11.071
wt쎯kkk쎯。	-11.071
ige쎯gj쎯	-11.0711
lt쎯ya쎯	-11.0712
o쎯ad쎯dbm쎯,	-11.0712
aqg쎯aqr쎯ah쎯	-11.0714
eee쎯쎈jjjj쎯	-11.0715
r쎯wgkq0쎯et쎯	-11.0715
vfhp1쎯dn쎯rg쎯	-11.0715
wv쎯bpf쎯	-11.0715
bct쎯wgk쎯	-11.0716
eee쎯쎂jjjj쎯	-11.0717
bm쎯qc쎯r쎯	-11.0718
fiy쎯bk쎯	-11.0719
h쎯jmd쎯	-11.072
lfn쎯gajf쎯	-11.072
r쎯hka쎯ltk쎯	-11.072
tgl쎯	-11.072
iagw쎯ytt쎯	-11.072
lu쎯xk쎯	-11.0721
x쎯dl쎯b쎯	-11.0722
pu쎯tr쎯	-11.0723
쎀rh쎯)	-11.0727
w쎯uqw쎯	-11.0728
:쎆	-11.0728
쎁qk쎯	-11.0729
fdm쎯fiy쎯,	-11.073
hc쎯af쎯	-11.0733
eee쎯쎃jjjj쎯	-11.0735
rg쎯puhc쎯	-11.0735
xwy쎯qiu0쎯	-11.0736
tk쎯yy쎯dm쎯	-11.0737
sfi쎯ykw쎯	-11.074
쎃—	-11.0741
pp쎯ujn쎯	-11.0741
,iy쎯mm쎯uqwm0쎯	-11.0741
쎂쎁쎀	-11.0742
ddh쎯uyh쎯ymhj쎯	-11.0746
▁쎂쎀쎀쎇rh쎯	-11.0746
r쎯fwm쎯pg쎯	-11.0748
rvyo쎯th쎯gj쎯	-11.0748
쎁쎉쎉쎀	-11.0751
ixw쎯fyn쎯	-11.0751
wqb0쎯	-11.0752
pwat쎯fp쎯	-11.0752
gg쎯jtg쎯xe쎯	-11.0753
sqqd0쎯	-11.0754
h쎯v쎯ge쎯	-11.0755
tmdf1쎯xg쎯	-11.0755
。kj쎯qd쎯	-11.0755
dmjf1쎯yssd0쎯	-11.0756
e쎯ud쎯r쎯	-11.0757
쎈rh쎯)	-11.0757
gip쎯d쎯	-11.0758
kkk쎯kfi쎯	-11.0758
faw쎯gcf쎯	-11.0763
rfc쎯sy쎯km쎯	-11.0763
amw쎯qc쎯,	-11.0767
wud쎯	-11.0767
fcl쎯lt쎯ip쎯	-11.0767
jqr쎯gf쎯	-11.0767
yygt쎯itp쎯et쎯gf쎯	-11.0769
bwf쎯rp쎯r쎯	-11.077
svc쎯syp쎯	-11.077
쎉rh쎯)	-11.0771
puhc쎯gq쎯o쎯	-11.0772
쎉쎅%	-11.0772
et쎯c쎯	-11.0774
mqb쎯gc쎯	-11.0775
쎂쎀wc쎯jfd쎯	-11.0775
qn쎯ufy쎯ige쎯ujfj쎯	-11.0776
、gkl쎯	-11.0778
;《	-11.0779
fny쎯uyh쎯ww쎯gk쎯	-11.0781
bpf쎯bpf쎯ta쎯	-11.0782
uj쎯bgk쎯	-11.0783
xn쎯vi쎯	-11.0783
ddn쎯	-11.0786
ftx쎯src쎯	-11.0786
tgm쎯aj쎯、	-11.0789
txe쎯	-11.079
eee쎯쎄jjjj쎯	-11.0791
,쎂쎀쎀쎅rh쎯	-11.0792
tv쎯ipk쎯suq쎯	-11.0792
cf쎯ytd쎯	-11.0793
ld쎯dmj1쎯	-11.0793
。”yvh쎯	-11.0794
,tk쎯	-11.0797
bm쎯qkm쎯	-11.0798
rgt쎯rgy쎯gfi쎯	-11.0799
,ai쎯jty쎯	-11.0799
gcft2쎯pgk쎯	-11.0799
a쎯tv쎯	-11.08
dy쎯pye쎯	-11.0802
lgey0쎯ou쎯	-11.0802
쎅dnv1쎯	-11.0803
udh쎯tgj쎯	-11.0803
rnf쎯	-11.0804
sf쎯n쎯tv쎯km쎯wf쎯	-11.0804
pfjf0쎯qiu0쎯	-11.0805
l쎯tdij쎯	-11.0806
――	-11.0807
qng1쎯qgj쎯ssss쎯	-11.081
쎆～	-11.081
kkks0쎯fnr쎯	-11.0812
쎇kgn쎯	-11.0814
ル	-11.082
mqq쎯hko쎯	-11.082
쎀쎀쎀gu쎯yy쎯oy쎯,	-11.082
lu쎯it쎯	-11.0821
wv쎯sr쎯、	-11.0822
쎁쎉쎈	-11.0822
eta쎯	-11.0823
nat쎯	-11.0823
qnd쎯hwb쎯	-11.0824
쎂qk쎯	-11.0825
tfh쎯	-11.0825
ige쎯gs쎯	-11.0825
yygy쎯kq쎯	-11.0828
rn쎯ta쎯	-11.0829
qdw쎯	-11.083
wfkb쎯tdp쎯r쎯	-11.0831
▁ux쎯yiu쎯	-11.0832
fhw쎯alt쎯	-11.0834
u쎯tr쎯	-11.0835
sk쎯tfkd쎯r쎯	-11.0836
ruv쎯udh쎯	-11.0837
dh	-11.0837
pp쎯。”	-11.0837
v쎯je쎯fny쎯tjh쎯	-11.0837
bm쎯tf쎯	-11.0838
xke쎯	-11.0838
ts쎯,	-11.0841
wdyy1쎯	-11.0841
nyu쎯tp쎯	-11.0842
쎁쎉an쎯xn쎯	-11.0843
agnn2쎯vit쎯	-11.0843
gfi쎯gae쎯	-11.0845
aqrn0쎯awx쎯	-11.0845
afwu쎯apw쎯	-11.0845
xv쎯f쎯	-11.0847
쎆eee쎯lk쎯ty쎯	-11.0847
o쎯hh쎯	-11.0848
hi쎯swb쎯	-11.0849
ccc쎯j쎯	-11.085
c쎯tyg쎯	-11.0851
、mqq쎯xtk쎯	-11.0854
,kj쎯	-11.0854
,ua쎯gf쎯	-11.0854
gu쎯fqu쎯ylf0쎯u쎯	-11.0854
go쎯jn쎯	-11.0855
dgtg쎯amd쎯	-11.0856
vaf쎯wj쎯	-11.0856
yssr쎯rta쎯lg쎯	-11.0856
,tfq쎯	-11.0857
,fm쎯wycb쎯	-11.0857
ftbt쎯ip쎯dn쎯js쎯	-11.0858
es쎯yyn1쎯	-11.0858
ntg쎯wwj쎯xx쎯	-11.0858
eee쎯쎇jjjj쎯	-11.0859
snb2쎯sjtq쎯	-11.0859
쎁쎀쎀qq쎯	-11.086
fgh쎯qq쎯rh쎯	-11.086
,wyc쎯	-11.086
。쎁쎉쎈쎂rh쎯	-11.0861
、qie쎯wyk쎯	-11.0862
sf쎯xe쎯	-11.0862
dx쎯udi쎯	-11.0863
atd쎯ubk0쎯kkd쎯sa쎯	-11.0863
ga쎯rd쎯wbj쎯usr쎯	-11.0863
atm쎯	-11.0863
irh쎯	-11.0865
ripq1쎯	-11.0866
i쎯tp쎯	-11.0869
c쎯qh쎯	-11.0869
fwm쎯aj쎯ymc쎯yf쎯	-11.0872
쎅쎀dq쎯,	-11.0873
trf쎯rytp0쎯	-11.0874
yh쎯wqin쎯	-11.0878
r쎯tg쎯wgkb2쎯	-11.0878
img쎯ae쎯	-11.0883
fnv0쎯	-11.0883
amyn0쎯dx쎯	-11.0883
r쎯nge쎯ukq쎯gh쎯	-11.0886
whf쎯og쎯oge쎯pyj쎯	-11.0887
“gg쎯	-11.0888
txg쎯g쎯wug1쎯	-11.0888
hx쎯rg쎯	-11.0889
p쎯jf쎯	-11.0891
gmap쎯jm쎯	-11.0892
tg쎯u쎯t쎯qie쎯wyk쎯	-11.0895
wf쎯nae쎯	-11.0895
k쎯wj쎯	-11.0897
cqw쎯qi쎯	-11.0898
apg쎯dgh쎯ytt쎯	-11.09
eb쎯。	-11.09
,uvo쎯	-11.09
uh쎯、	-11.0901
jn쎯bb쎯tu쎯rfc쎯	-11.0902
yww쎯sds쎯	-11.0902
fg쎯fgh쎯lh쎯	-11.0903
ba0쎯gq쎯	-11.0904
t쎯imkf1쎯	-11.0905
fny쎯og쎯xxf쎯og쎯	-11.091
gmww쎯adm쎯	-11.0911
pt쎯yww쎯ftbt쎯rep쎯	-11.0911
gcf쎯wynb쎯。	-11.0913
r쎯xf쎯js쎯	-11.0913
adwl쎯pwfi쎯	-11.0914
yce쎯tkh쎯	-11.0916
v쎯rnr쎯	-11.0917
k쎯aw쎯k쎯md쎯	-11.0917
wye쎯uqw쎯	-11.0919
pl쎯lft쎯	-11.0924
r쎯gkip2쎯ya쎯	-11.0925
,fm쎯gn쎯	-11.0925
r쎯x쎯apk쎯	-11.0926
puq쎯	-11.0926
adww1쎯	-11.0926
bd쎯yw쎯	-11.0927
idl쎯	-11.0927
a쎯tkgg0쎯ytb쎯a쎯	-11.0929
vk쎯gh쎯:	-11.0929
dg쎯dj쎯	-11.093
tv쎯km쎯wf쎯tv쎯km쎯。	-11.093
e쎯hko쎯	-11.0931
ays쎯avd쎯	-11.0931
rwp쎯	-11.0935
mq쎯jy쎯te쎯gmy1쎯r쎯	-11.0935
nied쎯	-11.0937
tuxj쎯	-11.0937
,lk쎯xk쎯	-11.0938
iyc쎯tf쎯r쎯	-11.0939
쎁쎀eee쎯tg쎯,	-11.094
e쎯bv쎯wc쎯ngk쎯(	-11.094
ght쎯ick쎯tv쎯km쎯	-11.0942
geq쎯jn쎯	-11.0944
(c쎯gh쎯tuj쎯tq쎯	-11.0945
yfd쎯qfhw0쎯	-11.0945
ywg쎯toc쎯	-11.0946
ukn쎯ovt쎯	-11.0947
qnd쎯	-11.0948
ip쎯suq쎯、	-11.0948
r쎯ud쎯qvfp1쎯	-11.0948
쎁쎀쎄	-11.0949
y쎯s쎯mh쎯	-11.095
bk쎯ce쎯uk쎯uyh쎯	-11.095
ym쎯wv쎯bb쎯	-11.0951
쎂쎀쎁쎃	-11.0951
k쎯yygy쎯qk쎯tq쎯:	-11.0952
uhc쎯apl쎯	-11.0954
ol쎯ajj쎯	-11.0955
tnp쎯wynb쎯	-11.0957
qiu0쎯adwr쎯	-11.0957
yss쎯img쎯	-11.096
、x쎯iyj쎯	-11.096
kl쎯e쎯	-11.096
fp쎯qq쎯	-11.0961
d쎯suq쎯	-11.0961
r쎯ftbt쎯yce쎯	-11.0962
yo쎯o쎯	-11.0962
tq쎯kt쎯	-11.0962
к	-11.0962
rmhj쎯r쎯	-11.0964
쎅/	-11.0964
r쎯dyn쎯ya쎯	-11.0965
gf쎯쎂쎀쎀쎈rh쎯	-11.0965
ue쎯tmd쎯	-11.0966
(/)	-11.0966
pt쎯pe쎯	-11.0966
r쎯wqu쎯us쎯	-11.0967
qh쎯ian0쎯	-11.0967
kkk쎯wug1쎯	-11.0967
wbj쎯lw쎯r쎯	-11.0968
dga쎯pwv쎯、	-11.0968
ymc쎯yf쎯bpf쎯	-11.0969
qn쎯lfnh쎯	-11.0969
ke쎯bwf쎯	-11.0969
aq쎯w쎯n쎯ght쎯ywf쎯	-11.097
,gip쎯j쎯	-11.097
dn쎯rh쎯	-11.0972
в	-11.0973
st쎯qiu0쎯	-11.0973
,쎂쎀쎀쎃rh쎯	-11.0973
eee쎯쎁쎃jjjj쎯	-11.0975
쎃.쎄	-11.0975
qo	-11.0976
y쎯s쎯dga쎯pwv쎯	-11.0976
g쎯fh쎯d쎯	-11.0977
쎁쎂쎃	-11.0978
wc쎯ngk쎯j쎯	-11.098
gcft2쎯lt쎯gf쎯o쎯	-11.0982
rqk쎯	-11.0987
ia쎯aq쎯	-11.0987
df쎯tj쎯	-11.0987
쎁쎁wh쎯	-11.0988
▁ww쎯	-11.0989
rvk쎯um쎯xh쎯uqwm0쎯	-11.0993
aw쎯u쎯ipk쎯	-11.0993
r쎯vfhp1쎯ymc쎯	-11.0997
ud쎯txi쎯,	-11.0997
tx쎯g쎯wug1쎯	-11.0999
jf쎯qkhh1쎯	-11.0999
ovt쎯tfk쎯	-11.1006
,쎁쎉쎉쎆rh쎯	-11.1007
ds쎯、	-11.1007
ipe쎯xpw쎯	-11.101
sm쎯tsh0쎯	-11.1011
tfq쎯rg쎯aqt쎯tj쎯	-11.1012
pyj쎯dskf쎯	-11.1013
ynth0쎯	-11.1014
o쎯nf쎯tm쎯	-11.1014
fl쎯m쎯	-11.1015
dd쎯thd쎯qd쎯	-11.1015
g쎯fg쎯	-11.1015
fu쎯dd쎯	-11.1016
ghd0쎯tu쎯xe쎯	-11.1017
alkf0쎯	-11.1017
jh쎯ybv쎯	-11.1017
:"	-11.1018
ujfj쎯wug1쎯”、“	-11.102
ugdu쎯sy쎯pe쎯	-11.102
sf쎯jfd쎯	-11.1021
q쎯ith쎯	-11.1023
eaf쎯	-11.1024
dq쎯eb쎯	-11.1024
qbl쎯	-11.1027
hx쎯f쎯	-11.1028
se쎯bv쎯	-11.1028
쎁쎀쎈쎀	-11.1029
nft쎯	-11.103
dg쎯w쎯	-11.1033
qtdn0쎯vk쎯	-11.1035
k쎯l쎯a쎯pei쎯xa쎯pl쎯	-11.1036
yft쎯wnt쎯	-11.1038
uxh쎯uxh쎯	-11.1039
gjq쎯ym쎯	-11.104
pp쎯jtg쎯	-11.1041
쎆wc쎯jfd쎯	-11.1042
rfc쎯sy쎯lt쎯jg쎯	-11.1044
uy	-11.1044
wxd쎯wtuf1쎯	-11.1044
▁gg쎯	-11.1046
puhc쎯l쎯pe쎯	-11.105
vtg쎯qk쎯:	-11.105
yngk0쎯ygk쎯	-11.1051
쎄.쎈	-11.1051
▁쎂쎀쎀쎉rh쎯	-11.1053
jb쎯rg쎯g쎯	-11.1053
w쎯dd쎯wa쎯ge쎯	-11.1054
khv쎯bde쎯	-11.1056
os쎯iq쎯	-11.1056
mmm쎯xte쎯	-11.1057
wv쎯tf쎯	-11.1057
bm쎯thgc쎯v쎯tf쎯	-11.1058
hndm쎯	-11.1058
fny쎯pe쎯、	-11.106
thd쎯wy쎯	-11.106
wa쎯ge쎯ntg쎯	-11.1061
wsg0쎯yce쎯fnrt쎯	-11.1062
yy쎯gae쎯	-11.1066
《ud쎯gf쎯	-11.1066
lfn쎯yh쎯	-11.1067
fjh0쎯wgku1쎯	-11.1068
nir쎯	-11.1069
▁fg쎯	-11.107
khuh쎯	-11.107
xef쎯qev쎯	-11.1074
sc쎯uwl쎯	-11.1076
qc쎯gxi쎯	-11.1077
nfp쎯	-11.1078
tl	-11.1084
gmww쎯umd0쎯	-11.1084
x쎯iyj쎯jgm쎯	-11.1088
tve쎯xk쎯	-11.1089
elv쎯fghg쎯	-11.109
thd쎯go쎯ii쎯	-11.109
r쎯pu쎯bf쎯	-11.1093
,iy쎯tgj쎯	-11.1093
,wys쎯	-11.1093
pgc쎯qh쎯	-11.1094
fn쎯drin쎯	-11.1095
spw쎯	-11.1095
aw쎯ynky2쎯	-11.1097
kf쎯sgm쎯	-11.1097
,tffy0쎯	-11.1098
ykg쎯uda쎯	-11.1098
,쎁쎉쎉쎈rh쎯	-11.11
ygu쎯xx쎯	-11.1101
bm쎯v쎯,	-11.1102
〗	-11.1103
ym쎯sfi쎯uwy1쎯	-11.1103
tk쎯naj1쎯	-11.1103
yjjh1쎯jg쎯	-11.1103
al쎯fw쎯	-11.1106
yy쎯aa쎯。	-11.1106
py쎯ta쎯	-11.1107
adw쎯wqu쎯	-11.1107
idl쎯gef쎯	-11.1108
iqn쎯igs쎯	-11.1109
bb쎯uxh쎯	-11.1109
qgl쎯	-11.111
〖	-11.111
xuj쎯tamw0쎯	-11.1111
r쎯sh쎯ud쎯	-11.1111
opw쎯hko쎯	-11.1112
bm쎯qc쎯	-11.1112
amy쎯ldd쎯	-11.1112
k쎯yygy쎯qk쎯	-11.1114
wq쎯wu쎯	-11.1114
gf쎯j쎯	-11.1115
k쎯mmm쎯ymhj쎯	-11.1117
x쎯iyj쎯vfhp1쎯ymc쎯	-11.1118
ofd쎯	-11.1118
dp쎯dn쎯	-11.1118
fge쎯pt쎯	-11.1121
쎇.쎂	-11.1124
tk쎯lwj쎯	-11.1124
쎃쎀wtu쎯	-11.1126
xpw쎯pgn쎯	-11.1126
rx쎯uwy1쎯r쎯	-11.1126
nfa쎯	-11.1129
tkh쎯sfhg쎯ii쎯tev쎯	-11.1132
whf쎯og쎯、	-11.1133
쎂쎈쎀	-11.1133
ggi쎯gfi쎯	-11.1134
aqn쎯	-11.1135
thd쎯ick쎯egc쎯	-11.1135
gk쎯og쎯r쎯	-11.1138
mmm쎯kht쎯	-11.114
gj쎯gk쎯wf쎯	-11.114
ep쎯qiu0쎯uff쎯	-11.114
ypt쎯dq쎯	-11.114
rdw쎯	-11.1142
dnv1쎯ylf0쎯,	-11.1142
rdj쎯me쎯	-11.1143
ty쎯xyna0쎯	-11.1143
ce쎯d쎯	-11.1144
qk쎯kn쎯	-11.1144
puhc쎯rge쎯	-11.1145
。쎁쎉쎈쎄rh쎯	-11.1146
nnw쎯gkip2쎯v쎯nae쎯	-11.1147
mnbm0쎯fhn쎯	-11.1147
afd0쎯aya쎯	-11.1147
。쎁쎉쎉쎃rh쎯	-11.1151
cwg쎯ygh쎯	-11.1152
j쎯q쎯	-11.1154
쎁쎉쎁	-11.1155
nh쎯gc쎯	-11.1158
ih쎯qfhw0쎯	-11.116
(쎁쎈쎈	-11.1164
txi쎯gq쎯、	-11.1164
쎁쎇쎆	-11.1165
。쎁쎉쎈쎅rh쎯	-11.1165
。쎁쎉쎉쎈rh쎯	-11.1165
lp쎯fuj쎯	-11.1166
udj쎯mww쎯	-11.1168
qve쎯uqd0쎯	-11.117
dy쎯pf쎯	-11.117
,i쎯ce쎯	-11.1171
,yid쎯	-11.1176
wt쎯ma쎯pe쎯	-11.1178
nnk쎯dm쎯	-11.1179
쎂쎃쎀	-11.118
,쎁쎉쎉쎅rh쎯	-11.118
qie쎯wyk쎯nh쎯ty쎯	-11.1181
r쎯x쎯maw쎯	-11.1182
ipk쎯vfhp1쎯	-11.1182
dgh쎯qfhw0쎯	-11.1184
uqf쎯wycm0쎯	-11.1184
se쎯dd쎯	-11.1185
gog쎯tkh쎯	-11.1186
,dn쎯uu쎯gf쎯	-11.1186
bwf쎯vi쎯	-11.1186
xyna0쎯pgn쎯r쎯	-11.1186
jf쎯wtf쎯	-11.1188
tp쎯gj쎯rmhj쎯ya쎯	-11.1188
mt쎯tkh쎯	-11.119
xyc쎯tdtf쎯	-11.1191
pp쎯ytey쎯	-11.1193
qmq쎯sft쎯	-11.1194
。쎂쎀쎀쎂rh쎯	-11.1195
쎁쎃쎆	-11.1195
쎅.쎂	-11.1195
you1쎯sk쎯	-11.1196
oge쎯uwl쎯fiy쎯oge쎯	-11.1196
tv쎯km쎯。	-11.1196
、yj쎯	-11.1198
xgm쎯uqt쎯	-11.1198
,wg쎯dm쎯	-11.1198
w쎯tr쎯,	-11.1198
ue쎯jy쎯	-11.1201
rytp0쎯	-11.1201
쎁쎅wc쎯jfd쎯	-11.1201
lh쎯dm쎯	-11.1201
tffy0쎯sm쎯	-11.1202
i쎯on쎯r쎯	-11.1204
i쎯vb쎯	-11.1204
pg쎯jg쎯	-11.1206
fghg쎯rgw쎯	-11.1207
し	-11.1208
19	-11.1208
jj쎯egc쎯	-11.1209
lt쎯jg쎯dcw쎯djb쎯,	-11.1214
dhi쎯	-11.1214
y쎯s쎯o쎯	-11.1215
khdc쎯	-11.1215
tdg1쎯,	-11.1216
쎁쎁.	-11.1217
tg쎯ow쎯	-11.1218
(fcu1쎯	-11.1218
xwy쎯dskf쎯	-11.1218
k쎯atd쎯bpf쎯	-11.1219
rny1쎯wtf쎯	-11.122
tvfh1쎯、if쎯fwm쎯	-11.122
vu쎯	-11.1221
jtd쎯pntj쎯	-11.1221
ukqb1쎯	-11.1222
,vfhp1쎯uu쎯	-11.1222
rmn쎯hko쎯	-11.1224
fnr쎯hhu0쎯	-11.1225
《kq쎯yn쎯·	-11.1225
bc쎯qk쎯	-11.1227
xf쎯tha쎯	-11.1227
tx쎯g쎯rx쎯	-11.1227
tfq쎯fj쎯rfc쎯sy쎯	-11.1228
de쎯shi쎯	-11.1229
udy쎯。	-11.1232
iwg쎯yoo쎯	-11.1234
,쎁쎉쎉쎇rh쎯	-11.1235
yaa쎯ltu쎯	-11.1236
fwm쎯saj쎯jb쎯dd쎯r쎯	-11.1242
。쎂쎀쎀쎃rh쎯	-11.1243
xmw쎯tuk쎯	-11.1244
쎂쎅쎀dq쎯	-11.1246
fw쎯gv쎯	-11.1246
dxy쎯fmk쎯	-11.1247
、xa쎯	-11.1248
cd쎯ftg쎯nnh쎯	-11.125
,쎁쎉쎉쎂rh쎯	-11.1253
wk쎯pg쎯	-11.1253
tv쎯wf쎯gkl쎯y쎯wtf쎯	-11.1253
,ua쎯e쎯	-11.1253
r쎯trf쎯gqr쎯	-11.1254
lft쎯bw쎯,	-11.1257
gm쎯o쎯k쎯l쎯	-11.1257
ㄐㄧ	-11.1258
frc쎯	-11.1261
ht쎯hna쎯	-11.1261
pye쎯wqu쎯	-11.1261
uqwv쎯dyn쎯	-11.1262
jtyq0쎯ipkm0쎯	-11.1263
w쎯wu쎯r쎯	-11.1263
v쎯iq쎯	-11.1263
uqw쎯rh쎯	-11.1266
o쎯et쎯yne쎯rj쎯waw쎯	-11.1269
awx쎯adwe1쎯	-11.127
ih쎯iytb0쎯ca쎯	-11.1271
ue쎯dm쎯	-11.1271
ipm쎯ipgh쎯	-11.1272
u쎯kkk쎯dga쎯v쎯	-11.1272
,,,,	-11.1273
쎆rh쎯)	-11.1273
et쎯jg쎯	-11.1275
ipkh1쎯tl쎯tv쎯km쎯	-11.1275
▁dg쎯	-11.1277
wmw쎯	-11.1278
쎀쎀ylf0쎯,	-11.1278
r쎯ick쎯ubk0쎯	-11.128
ian0쎯wys쎯	-11.128
qgfj쎯	-11.1281
qsu쎯w쎯	-11.1281
nnh쎯》:“	-11.1284
gf쎯쎂쎀쎀쎆rh쎯	-11.1285
wv쎯aq쎯	-11.1285
vnh쎯	-11.1285
tv쎯ipkh1쎯tv쎯	-11.1286
ukn쎯dm쎯tkw쎯쎁	-11.1286
pfq쎯uduk쎯,	-11.1287
rn쎯aft쎯	-11.1288
ww	-11.1289
rkh쎯	-11.1292
ycb쎯》:“	-11.1293
fhu쎯bm쎯	-11.1293
ym쎯gxi쎯rfm쎯r쎯	-11.1293
tfkp쎯wwj쎯	-11.1294
puhc쎯yw쎯o쎯j쎯	-11.1294
fn	-11.1298
r쎯w쎯tg쎯	-11.1298
ss쎯fnrt쎯	-11.1298
wxd쎯tm쎯	-11.1299
ta쎯dtf쎯	-11.13
a쎯um쎯nnk쎯	-11.13
u쎯og쎯v쎯nae쎯	-11.1301
vs쎯rfm쎯	-11.1301
iq쎯idr쎯	-11.1301
dgk쎯dh쎯	-11.1302
j쎯uqf쎯	-11.1302
ywx쎯aft쎯	-11.1302
,dty쎯tq쎯	-11.1303
ad쎯sg쎯h쎯	-11.1303
wf쎯gkl쎯gj쎯gk쎯ta쎯	-11.1304
%c쎯h쎯	-11.1305
ghd0쎯dqe쎯r쎯	-11.1305
y쎯rs쎯	-11.1308
eee쎯쎂쎉jjjj쎯	-11.1312
g쎯g쎯	-11.1313
tg쎯itd쎯。	-11.1313
adi쎯	-11.1313
ax쎯sft쎯	-11.1316
gyg1쎯hko쎯	-11.1316
쎇쎂쎀	-11.1317
fuk쎯yk쎯gyt쎯	-11.1317
쎁gmww쎯,	-11.1317
ooo쎯oqv쎯	-11.1317
yid쎯cf쎯	-11.1318
쎁쎃쎃	-11.1318
whm쎯pwfi쎯	-11.1319
uduk쎯yv쎯	-11.132
fq쎯pwl쎯	-11.132
mmm쎯ai쎯dd쎯ip쎯	-11.1324
x쎯cwg쎯。	-11.1324
ul쎯o쎯	-11.1324
img쎯、	-11.1326
ruv쎯udi쎯	-11.1327
ygl쎯	-11.1327
쎁쎉쎂쎄rh쎯	-11.133
ige쎯fjt쎯btg쎯	-11.133
tffu쎯g쎯txi쎯gq쎯	-11.1331
gxgu쎯ntg쎯	-11.1332
sm쎯lg쎯	-11.1332
gd쎯ft쎯	-11.1334
g쎯ck쎯	-11.1337
mgn쎯	-11.1339
fi쎯aib쎯ntg쎯	-11.1342
sm쎯sa쎯a쎯og쎯	-11.1344
쎅쎅쎀	-11.1345
drin쎯ujn쎯	-11.1345
yo쎯fcl쎯	-11.1348
tg쎯gqx쎯	-11.1352
ma쎯anb0쎯	-11.1354
yvh쎯mmm쎯	-11.1354
dga쎯pwv쎯ga쎯v쎯	-11.1356
ixj쎯	-11.1356
t쎯k쎯l쎯	-11.1357
dht쎯gd쎯	-11.1357
w쎯pe쎯	-11.1358
dmj1쎯nnnn쎯	-11.1358
ran쎯	-11.136
lft쎯ta쎯	-11.1361
ytey쎯iytb0쎯aq쎯	-11.1363
wg쎯l쎯wdn쎯te쎯	-11.1363
khgp0쎯u쎯	-11.1364
ruv쎯ty쎯	-11.1365
uwe쎯	-11.1365
dgh쎯shy쎯	-11.1366
pnt쎯puhc쎯	-11.137
fhw쎯r쎯	-11.1371
rfc쎯sy쎯gn쎯	-11.1372
ㄒ	-11.1372
ian0쎯bct쎯	-11.1374
uqwk쎯yqj쎯、	-11.1374
dgtg쎯sft쎯	-11.1375
jff1쎯	-11.1376
(쎁쎅	-11.1378
ctdj쎯	-11.1379
k쎯yygy쎯qk쎯:	-11.138
uyh쎯ywe쎯	-11.1381
hx쎯uqw쎯	-11.1381
r쎯sfi쎯uwy1쎯	-11.1383
ymf쎯kfi쎯ou쎯	-11.1384
,xj쎯d쎯	-11.1385
ryiy쎯	-11.1386
,kha쎯egc쎯fd쎯	-11.1387
rh쎯(wc쎯fqb1쎯	-11.1388
dga쎯rmhj쎯r쎯	-11.139
wg쎯wsg0쎯km쎯a쎯	-11.1393
lk쎯pnt쎯	-11.1395
쎀oy쎯,	-11.1395
uqf쎯c쎯	-11.1395
mq	-11.1397
w쎯;	-11.1397
vvv쎯pyj쎯	-11.1399
pb쎯wsg0쎯	-11.1399
ts쎯xyy0쎯	-11.1401
ygu쎯pg쎯	-11.1401
ymf쎯gj쎯	-11.1402
med쎯	-11.1404
itf쎯its쎯	-11.1404
ii쎯jg쎯	-11.1404
ftg쎯ygh쎯	-11.1409
쎂—	-11.141
if쎯ygk쎯	-11.1412
fd쎯ffuk쎯	-11.1412
kynw쎯	-11.1415
sks쎯wwx쎯xx쎯gog쎯	-11.1415
jp쎯	-11.1415
qv	-11.1418
r쎯jb쎯dd쎯	-11.1418
쎆w쎯	-11.1419
gmww쎯wug1쎯	-11.1419
,쎁쎉쎈쎆rh쎯	-11.1419
쎁쎉쎉쎉	-11.142
txi쎯。	-11.142
dd쎯eyb쎯	-11.1421
dskf쎯yop쎯	-11.1421
tv쎯lw쎯wc쎯pgc쎯	-11.1421
fny쎯og쎯w쎯ft쎯	-11.1422
fg쎯fgh쎯an쎯xn쎯	-11.1422
pg쎯jf쎯	-11.1425
thgc쎯gl쎯	-11.1425
j쎯g쎯yww쎯	-11.1425
if쎯、	-11.1426
),j쎯	-11.1426
쎄w쎯,	-11.143
img쎯ex쎯	-11.143
ujv쎯	-11.143
か	-11.1433
od쎯r쎯	-11.1434
l쎯e쎯uqwm0쎯u쎯	-11.1434
gf쎯쎂쎀쎀쎇rh쎯	-11.1435
jn쎯se쎯	-11.1435
qvn2쎯fiyt쎯	-11.1435
、fq쎯	-11.1436
,쎁쎉쎈쎄rh쎯	-11.1438
(wys쎯lft쎯)	-11.1438
rwyg쎯bm쎯b쎯	-11.1439
ym쎯kkk쎯rfm쎯r쎯	-11.1439
kd쎯tfl쎯	-11.144
yygt쎯dd쎯et쎯yne쎯	-11.1441
o쎯k쎯ny쎯	-11.1441
uqd0쎯、	-11.1442
ynj	-11.1442
rn쎯fdm쎯r쎯	-11.1442
qq쎯gu쎯yy쎯oy쎯	-11.1443
nh쎯vi쎯b쎯	-11.1444
g쎯xe쎯ftbt쎯jgm쎯	-11.1444
k쎯jjjj쎯	-11.1446
ffi쎯aa쎯	-11.1446
eb쎯tl쎯og쎯	-11.1449
veg쎯vfi쎯	-11.1449
mf쎯tl쎯tp쎯gj쎯	-11.1449
ta쎯dw0쎯ymhj쎯	-11.145
wg쎯rh쎯	-11.1451
ey쎯adw쎯px쎯	-11.1454
xuq쎯	-11.1454
wu쎯r쎯	-11.1454
gh쎯fcu1쎯	-11.1456
qgu쎯ugdu쎯	-11.1458
xg쎯,	-11.146
xq쎯fjw쎯	-11.1463
,px쎯r쎯	-11.1463
img쎯rnb쎯	-11.1463
fq쎯gxgu쎯	-11.1466
,쎂쎀쎀쎇rh쎯	-11.1472
tx쎯vt쎯nm쎯	-11.1473
mmm쎯gh쎯	-11.1473
。쎁쎉쎈쎈rh쎯	-11.1474
ifk쎯uqv쎯	-11.1475
gm쎯e쎯bk쎯a쎯	-11.1475
rhf쎯mqb쎯	-11.1476
gu쎯fqu쎯rnb쎯ijl쎯쎁	-11.1476
uthp쎯hw쎯	-11.1476
》;	-11.1477
。쎁쎉쎉쎇rh쎯	-11.1477
、ggi쎯fuj쎯	-11.1478
j쎯an쎯lwj쎯h쎯	-11.1478
lq쎯adwr쎯	-11.148
,쎂쎀쎀쎀rh쎯	-11.148
qk쎯suq쎯	-11.1482
awd쎯awyc0쎯	-11.1482
tve쎯cw쎯	-11.1484
gr쎯ia쎯	-11.1485
イ	-11.1486
yge쎯fiy쎯	-11.1487
wvf쎯ert쎯	-11.1487
쎁쎇쎅	-11.1487
uda쎯klj쎯	-11.1488
e쎯qc쎯qqqq1쎯ntk쎯	-11.1488
o쎯hx쎯	-11.1489
”thgf0쎯	-11.1489
hk쎯f쎯dm쎯tkw쎯쎂	-11.1489
ii쎯idr쎯	-11.149
bm쎯uqwm0쎯	-11.149
-쎁쎁	-11.149
。쎁쎉쎉쎅rh쎯	-11.1491
ytt쎯thd쎯ick쎯egc쎯	-11.1491
dl쎯jf쎯	-11.1492
:mw쎯lfhf쎯	-11.1494
fh쎯iyc쎯	-11.1494
pgk쎯fghg쎯	-11.1495
jjjj쎯yn쎯	-11.1495
rfw쎯wvm쎯	-11.1496
rfw쎯rf쎯	-11.1496
xyna0쎯xkw쎯	-11.15
ud쎯txi쎯r쎯	-11.15
du쎯fnrt쎯	-11.1502
fft쎯	-11.1505
ggi쎯fuj쎯k쎯	-11.1505
,쎁쎉쎉쎃rh쎯	-11.1505
▁mh쎯gf쎯	-11.1506
sm쎯sq쎯nty1쎯af쎯	-11.1506
lq쎯ic쎯	-11.1509
i쎯on쎯f쎯	-11.1509
wi쎯	-11.1509
ah쎯hwb쎯	-11.1509
et쎯yne쎯rj쎯waw쎯	-11.151
uq쎯gx쎯	-11.1511
,rpv쎯jvko쎯	-11.1511
db쎯ukd0쎯。	-11.1514
yd쎯pyk쎯	-11.1514
ul쎯rjg0쎯wtf쎯	-11.1515
dnv1쎯dl쎯	-11.1516
sbb쎯	-11.1516
fd쎯fm쎯	-11.1518
tkh쎯tkh쎯	-11.1519
ftjo1쎯ybv쎯	-11.1523
qve쎯skf쎯	-11.1525
ntg쎯xk쎯	-11.1525
fl쎯wf쎯gkl쎯wf쎯ta쎯	-11.1526
m쎯wfg0쎯	-11.1527
gk쎯tl쎯rn쎯	-11.1532
wf쎯wf쎯ta쎯	-11.1534
ak쎯adw쎯wb쎯	-11.1535
ytfp1쎯bpf쎯	-11.1535
uqf쎯dn쎯o쎯	-11.1535
。wb쎯r쎯	-11.1536
fm쎯rcy0쎯	-11.1536
um쎯w쎯	-11.1537
yygy쎯wys쎯	-11.1537
gef쎯qmgk0쎯	-11.1537
qqqq1쎯ptkm0쎯	-11.1537
、ck쎯iyo쎯	-11.1539
ytd쎯jghm1쎯	-11.1539
yww쎯ait쎯d쎯	-11.1539
,wgkq0쎯adw쎯	-11.154
▁rnd1쎯	-11.154
uf쎯rh쎯	-11.1543
ey쎯yid쎯et쎯	-11.1544
et쎯yny0쎯	-11.1545
kq쎯·	-11.1545
uxt쎯bct쎯	-11.1545
bs쎯ru쎯	-11.1546
wbj쎯wtl쎯	-11.1547
쎂adm쎯	-11.1547
udyj쎯gqf쎯og쎯	-11.1547
◇	-11.1548
wfny0쎯udp쎯	-11.1549
쎁쎉쎈쎈	-11.155
ii쎯iyc쎯	-11.155
gm쎯wynb쎯	-11.155
veg쎯veg쎯	-11.1551
kkkk0쎯mdfj쎯	-11.1551
eb쎯tl쎯sm쎯sq쎯	-11.1553
“wg쎯l쎯	-11.1554
wys쎯mb쎯	-11.1554
wy쎯gkim0쎯	-11.1555
hu쎯	-11.1555
rpv쎯qvfp1쎯	-11.1557
pdc쎯cm쎯	-11.1558
쎅—	-11.1559
bqt쎯	-11.1559
qejy쎯rajd쎯nua쎯	-11.156
ax쎯og쎯	-11.156
peg쎯iw쎯	-11.1566
ijo쎯iugg0쎯	-11.1566
wht쎯gj쎯	-11.1569
쎆.쎇	-11.1569
txi쎯xyc쎯。	-11.157
adw쎯y쎯s쎯	-11.157
dy쎯dr쎯ymhj쎯	-11.1572
ynma쎯gu쎯	-11.1572
쎁쎀eee쎯bm쎯tg쎯,	-11.1573
lfhf쎯og쎯	-11.1574
r쎯xf쎯sq쎯	-11.1574
ian0쎯xyna0쎯	-11.1575
“dd쎯	-11.1576
ymhj쎯ta쎯	-11.1576
bn쎯yi쎯	-11.1576
gu쎯yy쎯oy쎯。	-11.1577
,epc쎯	-11.1579
gh쎯yy쎯	-11.1581
wfny0쎯ltk쎯	-11.1582
wc쎯ngk쎯dn쎯uu쎯gf쎯	-11.1583
sm쎯tffu쎯	-11.1584
i쎯ywx쎯	-11.1585
ld쎯ugm쎯	-11.1585
ftbt쎯ip쎯、tu쎯dga쎯	-11.1585
iit쎯icw쎯	-11.1586
rnb쎯rvyl쎯	-11.1588
wc쎯aa쎯	-11.1588
tk쎯adm쎯a쎯wt쎯	-11.159
ngj쎯jtg쎯	-11.159
lfn쎯ty쎯	-11.1593
bn쎯yi쎯j쎯	-11.1593
sfhg쎯puhc쎯	-11.1594
rxj쎯pg쎯r쎯	-11.1597
:쎃쎀	-11.1597
쎉.쎅	-11.1598
rae쎯h쎯	-11.1599
jq쎯wf쎯	-11.16
tffu쎯trf쎯hko쎯	-11.1601
vvv쎯fghg쎯	-11.1601
,쎂쎀쎀쎂rh쎯	-11.1602
fss쎯	-11.1602
uthp쎯,	-11.1604
oe쎯otf쎯	-11.1607
wd쎯yf쎯	-11.1609
ry쎯aet0쎯	-11.1609
쎁oy쎯	-11.161
fny쎯o쎯	-11.161
ow쎯dyw쎯	-11.161
y쎯wtf쎯tv쎯km쎯	-11.1611
ykhe쎯	-11.1611
isk쎯sghg1쎯	-11.1611
px쎯wu쎯r쎯	-11.1612
xyy0쎯,	-11.1612
쎁쎀쎃	-11.1614
yc쎯wv쎯tjh쎯et쎯	-11.1616
pg쎯tm쎯	-11.1621
gl쎯nae쎯	-11.1623
pe쎯k쎯	-11.1624
xyna0쎯thdi쎯	-11.1624
rvy쎯og쎯	-11.1625
yff쎯wys쎯	-11.1626
tjh쎯tuk쎯	-11.1626
wsg0쎯yce쎯qnp쎯	-11.1628
apo쎯iq쎯	-11.1629
쎅eee쎯,	-11.1629
odm쎯nyb쎯	-11.1631
aqo쎯awx쎯	-11.1631
tgj쎯gajf쎯	-11.1632
tp쎯、	-11.1634
emc쎯sc쎯	-11.1637
cd쎯lk쎯fp쎯	-11.1638
aqq쎯bj쎯	-11.1639
u쎯kkk쎯od쎯gajf쎯	-11.1641
trf쎯hko쎯j쎯	-11.1642
isk쎯egc쎯	-11.1642
wx쎯egc쎯	-11.1645
sfk쎯	-11.1646
tp쎯gj쎯ip쎯	-11.1646
yygt쎯jn쎯	-11.1648
ym쎯rt쎯	-11.1648
쎆%	-11.1648
w쎯o쎯	-11.165
gf쎯쎂쎀쎀쎅rh쎯	-11.165
iq쎯xg쎯	-11.165
쎁/쎄	-11.1651
l쎯pe쎯bw쎯	-11.1651
waw쎯xw쎯	-11.1653
ym쎯usr쎯aq쎯	-11.1653
awx쎯pfqf쎯	-11.1653
xg쎯ntg쎯	-11.1654
ta쎯jf쎯uj쎯	-11.1656
tve쎯ym쎯	-11.1657
pww쎯tkw쎯yx쎯	-11.1657
lpk0쎯ta쎯	-11.1658
rg쎯wa쎯	-11.1658
cel쎯nb쎯	-11.166
y쎯ou쎯	-11.166
w쎯kkkk0쎯쎂	-11.166
《k쎯wxf쎯	-11.1662
gcf쎯wynb쎯d쎯	-11.1663
쎉쎀쎀쎀	-11.1663
oge쎯iad쎯r쎯	-11.1664
xeg쎯vfhp1쎯r쎯	-11.1665
e쎯wh쎯	-11.1666
ga쎯nae쎯b쎯	-11.1666
isk쎯qfhw0쎯	-11.1666
nc쎯tr쎯	-11.1667
dmj1쎯yyy쎯,	-11.1668
yny0쎯gajf쎯	-11.1668
vf쎯fiy쎯	-11.1668
rn쎯tj쎯	-11.1668
mmm쎯ii쎯gl쎯	-11.167
ty쎯wygg쎯	-11.167
lu쎯ta쎯	-11.167
bynw0쎯bb쎯r쎯	-11.1671
쎇w쎯	-11.1672
。쎂쎀쎀쎀rh쎯	-11.1673
sov쎯、	-11.1674
,y쎯rf쎯	-11.1675
hhhh쎯vi쎯gh쎯	-11.1675
▁쎂쎀쎁쎀rh쎯	-11.1677
b쎯dd쎯jg쎯	-11.1678
dg쎯fgh쎯rh쎯	-11.1678
uh쎯fhg1쎯d쎯	-11.168
apl쎯tl쎯	-11.1681
itd쎯tld1쎯	-11.1683
gah쎯aqky1쎯	-11.1683
xgm쎯	-11.1684
mwyc1쎯fm쎯	-11.1685
ul쎯puhc쎯	-11.1685
▁bm쎯thgc쎯py쎯:	-11.1686
mt쎯rh쎯go쎯	-11.169
rb1쎯py쎯	-11.1692
k쎯r쎯yid쎯et쎯	-11.1692
tfqm1쎯iwyf2쎯	-11.1693
wtr쎯l쎯	-11.1696
,dty쎯qk쎯	-11.1696
xe쎯uqwm0쎯rfm쎯	-11.1696
oo쎯ugh쎯	-11.1697
udi쎯v쎯	-11.1697
쎆.	-11.1699
pei쎯og쎯w쎯kkkk0쎯	-11.1702
。txg쎯	-11.1702
,ux쎯wycb쎯	-11.1707
tvfh1쎯jgm쎯gk쎯tl쎯	-11.1707
rvf쎯dgv쎯	-11.1707
pwdj쎯wfk쎯	-11.1709
wgmy3쎯tl쎯	-11.171
ide쎯aq쎯	-11.1711
fcu1쎯bwt쎯	-11.1711
g쎯ih쎯	-11.1715
wdn쎯rfm쎯r쎯u쎯kkk쎯	-11.1715
uk쎯imkf1쎯nnh쎯	-11.1715
iyni0쎯	-11.1715
rqa쎯rymn쎯	-11.1717
rnb쎯ijl쎯	-11.1718
awv쎯uff쎯	-11.1719
sghg1쎯rcy0쎯	-11.1719
whf쎯og쎯rj쎯waw쎯	-11.1719
edjn쎯rmhj쎯	-11.1719
ym쎯wqa쎯	-11.1721
kha쎯egc쎯fd쎯	-11.1721
쎁쎂쎂	-11.1722
쎂쎇쎀	-11.1724
dd쎯yy쎯	-11.1724
qqqq1쎯qg쎯	-11.1724
xq쎯fjw쎯·	-11.1724
yid쎯rytp0쎯	-11.1725
puhc쎯rpd1쎯	-11.1725
kt	-11.1726
mq쎯jy쎯qk쎯etg쎯aq쎯	-11.1726
,ukn쎯rmc쎯uqwm0쎯	-11.1727
sfi쎯yn쎯	-11.1728
쎇.쎆	-11.1729
pp쎯hka쎯	-11.1731
wvq쎯	-11.1731
wsg0쎯txi쎯。	-11.1733
euk쎯ait쎯	-11.1733
쎈～	-11.1733
an쎯wa쎯	-11.1733
ω	-11.1734
gd쎯uyh쎯	-11.1735
xef쎯nj쎯	-11.1736
o쎯py쎯wf쎯	-11.1736
tfq쎯rg쎯rjg0쎯wtf쎯	-11.1736
nu쎯wwwk쎯	-11.1737
afqb2쎯ide쎯	-11.1737
、yf쎯tha쎯sm쎯	-11.1739
pn쎯gcf쎯	-11.1739
uu쎯khu쎯gf쎯	-11.174
imk쎯mdfj쎯	-11.174
fny쎯ta쎯	-11.174
g쎯uh쎯aa쎯	-11.1741
、yygt쎯sghg1쎯	-11.1741
bm쎯teg1쎯	-11.1742
ww쎯og쎯w쎯km쎯	-11.1745
쎇쎆쎈	-11.1745
r쎯vvv쎯qt쎯	-11.1747
cbd쎯tlf2쎯	-11.1748
qr쎯dyt쎯	-11.1748
f쎯ge쎯	-11.1749
ivs쎯qc쎯wsg0쎯	-11.1749
tqv쎯hi쎯	-11.175
dd쎯ip쎯sg쎯tu쎯	-11.175
ovt쎯ip쎯txi쎯	-11.1753
mf쎯ght쎯uk쎯	-11.1755
·bs쎯	-11.1756
jtyl쎯hich쎯sw쎯sj쎯	-11.1756
wynk쎯yq쎯	-11.1756
rc쎯qnk쎯	-11.1757
w쎯fqu쎯dif쎯f쎯쎀.	-11.1757
kvi쎯	-11.1758
pv쎯wg쎯ntg쎯	-11.1758
fnw쎯,	-11.1758
wdn쎯te쎯dn쎯js쎯	-11.1758
쎅.쎁	-11.1759
tx쎯fgh쎯nm쎯	-11.1759
f쎯fnw쎯	-11.1759
yygy쎯ip쎯bpf쎯	-11.1759
adm쎯hhhh쎯,	-11.176
,wk쎯ygh쎯	-11.1761
jghx쎯	-11.1761
ooo쎯qkm쎯	-11.1762
yb쎯ny쎯	-11.1765
lkd쎯go쎯	-11.1766
bm쎯thgc쎯py쎯:	-11.1767
wc쎯uu쎯	-11.1769
쎁쎀쎉	-11.177
py쎯tu쎯	-11.1771
:쎁쎂	-11.1772
mq쎯es쎯	-11.1773
me쎯rr쎯	-11.1774
tmg1쎯wbj쎯	-11.1775
ygh쎯rnd1쎯	-11.1777
,쎁쎉쎈쎈rh쎯	-11.1777
lfn쎯fcl쎯	-11.1779
thd쎯drin쎯	-11.178
wfny0쎯ivs쎯ugm쎯	-11.178
wc쎯ud쎯	-11.178
oy쎯,pa쎯	-11.1784
mqq쎯gfi쎯	-11.1785
r쎯g쎯adm쎯	-11.1786
e쎯gmww쎯wh쎯	-11.1787
ftbt쎯ip쎯dga쎯pwv쎯	-11.1789
쎃쎂.	-11.179
g쎯uj쎯	-11.1791
sa쎯	-11.1791
k쎯atd쎯ax쎯dd쎯ip쎯	-11.1791
,gmww쎯	-11.1791
k쎯l쎯w쎯	-11.1793
pei쎯og쎯u쎯og쎯wx쎯	-11.1793
dnv1쎯uu쎯yy쎯oy쎯	-11.1794
b쎯g쎯rx쎯	-11.1796
dgj쎯tel쎯pww쎯jg쎯:	-11.1797
。쎁쎉쎉쎄rh쎯	-11.1797
。쎁쎉쎉쎆rh쎯	-11.1798
ipks쎯	-11.1799
thd쎯ipmq쎯	-11.18
qc쎯,	-11.1801
qlp쎯ruv쎯	-11.1801
,pa쎯	-11.1801
gh쎯b쎯	-11.1802
begg쎯hh쎯	-11.1803
udbb쎯。	-11.1804
ftbt쎯yce쎯fuk쎯yk쎯	-11.1805
sgn쎯c쎯	-11.1805
jtg쎯txi쎯	-11.1808
wk쎯pnt쎯	-11.1808
fhl쎯sgc쎯	-11.181
yjse쎯	-11.1811
,rs쎯tfkp쎯	-11.1811
adwr쎯dq쎯	-11.1812
rj쎯wjjg쎯	-11.1813
n쎯gk쎯	-11.1816
ㄌ	-11.1817
xyna0쎯kgn쎯:	-11.1818
tjf쎯ou쎯	-11.1818
ftjb쎯i쎯	-11.1819
bk쎯og쎯rfc쎯ce쎯	-11.1823
yssc2쎯sy쎯	-11.1825
qh쎯qn쎯	-11.1825
쎅.쎄	-11.1825
pt쎯yny0쎯ukn쎯ovt쎯	-11.1826
,ua쎯gn쎯	-11.1827
qqqq1쎯qve쎯	-11.1829
djfd쎯oy쎯。	-11.183
tffu쎯sh쎯ud쎯	-11.1831
ta쎯tyna2쎯	-11.1831
qsj쎯	-11.1833
iie쎯goi쎯	-11.1833
qh쎯lwj쎯	-11.1833
wal쎯	-11.1834
bb쎯bi0쎯	-11.1835
p쎯xt쎯hhu0쎯	-11.1836
kht쎯tca쎯	-11.1836
lhnh쎯xe쎯	-11.1838
tf쎯og쎯k쎯	-11.1839
,bn쎯yi쎯j쎯	-11.1841
wv쎯ga쎯	-11.1842
쎁쎉쎈쎆	-11.1842
wamj쎯	-11.1843
mhny0쎯fpm쎯	-11.1843
ui쎯kthh1쎯	-11.1843
an	-11.1843
ujqn0쎯	-11.1843
bn쎯d쎯	-11.1845
(쎁쎇	-11.1846
qqqq1쎯gkm쎯sm쎯sq쎯	-11.1847
je쎯ypm쎯	-11.185
jb쎯qq쎯r쎯	-11.1851
yfj쎯pwv쎯	-11.1852
xv쎯wx쎯yx쎯	-11.1853
.....	-11.1855
쎅dq쎯,	-11.1858
rnb쎯kfi쎯	-11.1859
wc쎯ngk쎯ukn쎯x쎯gj쎯	-11.1859
aft쎯tq쎯	-11.1859
fhn쎯go쎯,	-11.186
dd쎯k쎯gajf쎯	-11.186
ipw쎯djb쎯r쎯	-11.1861
、pv쎯wg쎯	-11.1862
,쎁쎉쎈쎇rh쎯	-11.1862
쎅.쎆	-11.1862
sft쎯ou쎯:	-11.1865
w쎯fqu쎯dif쎯f쎯쎁.	-11.1866
w쎯pp쎯	-11.1866
rdj쎯ta쎯	-11.1867
ruv쎯fyk쎯	-11.1868
zzy4쎯	-11.187
iw쎯fhn쎯	-11.1871
*쎁	-11.1873
r쎯fd쎯ymhj쎯	-11.1874
rajd쎯	-11.1875
c쎯dy쎯mqq쎯	-11.1876
쎂.쎉	-11.1878
wk쎯ygh쎯b쎯	-11.188
zzf	-11.188
tavn쎯	-11.188
l쎯pe쎯t쎯f쎯aq쎯	-11.1881
rte쎯tfp쎯	-11.1881
gogn쎯yssc2쎯	-11.1882
f쎯wdm쎯	-11.1885
dh쎯egc쎯	-11.1886
ss쎯og쎯nnk쎯	-11.1887
wgkq0쎯w쎯	-11.1887
pei쎯ss쎯	-11.1888
bcv쎯	-11.1888
uhc쎯	-11.1889
uq쎯cep쎯wgj쎯rgv쎯	-11.189
、jb쎯	-11.1891
p쎯yi쎯j쎯	-11.1893
tg쎯u쎯rfc쎯sy쎯	-11.1893
、yygy쎯wx쎯	-11.1893
yo쎯rq쎯	-11.1894
qnq쎯ii쎯	-11.1894
v쎯nae쎯gc쎯	-11.1896
ww쎯og쎯	-11.1897
uth쎯wycm0쎯	-11.1897
aqn쎯thg0쎯	-11.1898
jc쎯udw쎯	-11.1899
atd쎯ip쎯fge쎯fghg쎯	-11.1899
e쎯xg쎯jn쎯pym쎯	-11.19
fpx쎯nx쎯	-11.1901
쎁쎂eee쎯tg쎯,	-11.1904
tduh쎯maw쎯	-11.1904
tg쎯ujn쎯	-11.1904
ukn쎯jg쎯	-11.1905
g쎯an쎯	-11.1906
eq쎯uk쎯	-11.1907
tkw쎯wv쎯	-11.191
dm쎯tkw쎯쎈	-11.1911
lg쎯gajf쎯	-11.1912
fm쎯fje쎯ivw쎯	-11.1912
쎈쎆쎃	-11.1913
wh쎯l쎯pe쎯t쎯f쎯aq쎯	-11.1913
ux쎯aq쎯	-11.1915
y쎯ou쎯:	-11.1918
쎉쎀rh쎯wa쎯	-11.1919
tffu쎯tk쎯od쎯	-11.192
jja쎯iq쎯	-11.1921
lxx쎯	-11.1922
,j쎯g쎯pe쎯wys쎯	-11.1923
ae쎯ujfj쎯	-11.1926
rvk쎯sfi쎯	-11.1927
yww쎯,	-11.1927
akkn0쎯	-11.1928
iyc쎯ire쎯	-11.1929
mqc쎯tr쎯k쎯ny쎯	-11.193
nt쎯qd쎯	-11.193
eb쎯tl쎯gj쎯wynn3쎯	-11.1931
gf쎯쎁쎈	-11.1933
cd쎯ftg쎯。	-11.1934
。vfhp1쎯gf쎯	-11.1935
nae쎯jtyq1쎯wf쎯	-11.1937
igmh1쎯	-11.1939
wty쎯fgh쎯	-11.194
vk쎯ujn쎯	-11.1942
amd쎯trf쎯qiu0쎯	-11.1943
wtf쎯wgkb2쎯	-11.1943
fd쎯ymhj쎯fwm쎯aj쎯	-11.1944
qgu쎯dhq쎯	-11.1946
rwyg쎯gj쎯	-11.1946
g쎯yid쎯whw쎯wg쎯	-11.1946
wyw쎯	-11.1948
쎇쎀%	-11.1948
쎃쎀wtu쎯tyna2쎯	-11.1949
sgn쎯ujf쎯	-11.1949
fii쎯go쎯r쎯	-11.1949
g쎯dd쎯	-11.195
▁pv쎯wg쎯	-11.1954
ipw쎯th쎯	-11.1957
qyt쎯lkmi0쎯gae쎯	-11.1957
wug1쎯gf쎯k쎯l쎯	-11.1958
sq쎯wrh2쎯	-11.196
tak쎯bt쎯	-11.1962
jf쎯uj쎯mw쎯	-11.1962
lt쎯jg쎯dcw쎯djb쎯	-11.1963
wye쎯jvko쎯	-11.1965
gmy1쎯ia쎯	-11.1967
oj쎯	-11.197
smmv0쎯	-11.1971
wn쎯fqb1쎯。	-11.1973
쎁쎀w쎯	-11.1973
ftbt쎯yce쎯gk쎯og쎯	-11.1974
ym쎯rfm쎯jg쎯r쎯	-11.1975
jplh0쎯	-11.1975
all쎯	-11.1976
kr쎯gc쎯	-11.1976
ip쎯rb1쎯》	-11.1978
,쎂쎀쎀쎈rh쎯	-11.1979
ujn쎯yq쎯。	-11.198
,ai쎯gn쎯	-11.1981
te쎯gmy1쎯	-11.1982
ybf0쎯iwyf2쎯	-11.1983
usgd0쎯ad쎯	-11.1984
yvh쎯·	-11.1985
dma쎯	-11.1986
o쎯hhhh쎯sfi쎯	-11.1987
vca쎯j쎯	-11.1988
i쎯fcl쎯	-11.1988
r쎯ftx쎯	-11.1989
jfi쎯	-11.1989
iq쎯aps쎯	-11.1989
ip쎯nu쎯,	-11.1992
。쎂쎀쎀쎁rh쎯	-11.1994
wv쎯a쎯	-11.1994
nd쎯fghg쎯	-11.1995
쎁쎁eee쎯tg쎯,	-11.1995
aq쎯wv쎯	-11.1996
rt쎯xfn쎯	-11.1997
yo쎯tfp쎯	-11.2
wwj쎯wfhg쎯cm쎯	-11.2006
ipw쎯djb쎯	-11.2006
쎄.쎁	-11.2007
jghy쎯wfg0쎯	-11.2007
yygt쎯yq쎯	-11.2008
rc쎯“lfnh쎯vjsj쎯”	-11.2009
tjf쎯rnb쎯	-11.201
amd쎯yygy쎯qk쎯tq쎯:	-11.2012
aqq쎯jel쎯	-11.2012
。cf쎯gf쎯	-11.2012
rpws쎯bwg쎯	-11.2015
gab쎯	-11.2015
쎀oy쎯,rh쎯gu쎯fqu쎯	-11.2015
wwgi쎯	-11.2018
tdp쎯k쎯	-11.202
aw쎯vfhp1쎯	-11.202
r쎯gae쎯qje쎯	-11.2021
ga쎯a쎯	-11.2021
gae쎯wny0쎯	-11.2022
,쎁쎉쎉쎄rh쎯	-11.2022
hcd쎯hw쎯	-11.2022
d쎯dr쎯	-11.2023
dyc쎯wx쎯	-11.2023
jx쎯je쎯ymhj쎯	-11.2023
uq쎯lwj쎯th쎯	-11.2027
r쎯dd쎯ih쎯	-11.2027
tt쎯kd쎯xyna0쎯kgn쎯	-11.2027
ukn쎯hk쎯f쎯dm쎯tkw쎯	-11.2028
iv쎯gk쎯w쎯	-11.203
r쎯jb쎯ym쎯	-11.2031
ct쎯。”	-11.2035
rt쎯rxj쎯	-11.2035
쎂dnv1쎯	-11.2036
ajj쎯sg쎯	-11.2037
r쎯gef쎯hgo쎯	-11.2037
xp쎯wgk쎯ick쎯gj쎯	-11.2037
kgn쎯)	-11.2038
kq쎯ip쎯	-11.2039
ftx쎯wx쎯	-11.2042
yx쎯ym쎯	-11.2042
dy쎯se쎯	-11.2043
r쎯wdn쎯rvyl쎯	-11.2044
쎇.쎀	-11.2046
yo쎯gjq쎯	-11.2046
쎇쎀rh쎯wa쎯	-11.205
whf쎯og쎯t쎯	-11.2051
r쎯mq쎯st쎯	-11.2052
ud	-11.2052
、ipk쎯xeg쎯nnh쎯yn쎯	-11.2055
ikm쎯	-11.2055
bfm쎯f쎯	-11.2056
dm쎯tkw쎯쎇	-11.2056
쎁쎉쎉	-11.206
u1쎯	-11.2061
oqy0쎯	-11.2063
gef쎯awx쎯	-11.2064
,쎁쎉쎉쎉rh쎯	-11.2064
▁zzy7쎯	-11.2065
:쎇	-11.2065
r쎯tgj쎯dd쎯	-11.2066
xkw쎯tr쎯	-11.207
sx쎯nnh쎯	-11.207
tffu쎯ujfj쎯wug1쎯	-11.207
hc쎯efw쎯ugm쎯	-11.2072
qk쎯ujfj쎯	-11.2074
kl쎯g쎯tkh쎯	-11.2075
egc쎯fuj쎯mw쎯	-11.2076
kie쎯	-11.2077
dn쎯js쎯uqd0쎯	-11.2078
fob쎯	-11.2078
pyj쎯tn쎯r쎯	-11.2081
hx쎯od쎯	-11.2081
qnth쎯kkk쎯	-11.2081
쎀wc쎯jfd쎯,kha쎯yb쎯	-11.2082
fyk쎯	-11.2082
qtgw1쎯pwtf0쎯	-11.2082
《dd쎯	-11.2083
oyv쎯img쎯	-11.2083
qev쎯gxgu쎯	-11.2085
xg쎯、	-11.2085
iex쎯qfhw0쎯	-11.2088
hfc쎯	-11.2091
qfhw0쎯ia쎯	-11.2092
uth쎯wh쎯	-11.2092
yny0쎯bb쎯	-11.2093
yy쎯ghd0쎯	-11.2098
sov쎯ym쎯	-11.2099
tffu쎯yjs쎯tkgg0쎯	-11.2099
ss쎯ssss쎯	-11.2099
ooo쎯po쎯	-11.2099
syc쎯	-11.21
쎁쎀wtu쎯tyna2쎯	-11.2101
bwj쎯xe쎯	-11.2102
gg쎯dj쎯	-11.2102
qyk쎯maf0쎯	-11.2102
hqd쎯	-11.2103
gu쎯src쎯	-11.2103
ai쎯jty쎯	-11.2103
wv쎯bb쎯jg쎯	-11.2105
ert쎯le쎯	-11.2108
쎁쎀쎀wtu쎯	-11.2108
dn쎯o쎯k쎯l쎯	-11.211
,rjg0쎯wtf쎯	-11.211
tcf쎯	-11.2111
ce쎯lt쎯xk쎯	-11.2111
wtl쎯pfj쎯	-11.2111
,xxf쎯og쎯gf쎯	-11.2112
쎁쎉쎉쎁	-11.2112
(쎅)	-11.2113
,wgc쎯ty쎯	-11.2113
jw쎯	-11.2114
nny0쎯tfn쎯	-11.2117
uh쎯hko쎯	-11.2118
g쎯su쎯r쎯	-11.2118
▁g쎯、	-11.2118
tffu쎯qq쎯	-11.2119
tk쎯uk쎯uyh쎯	-11.212
ip쎯suq쎯r쎯	-11.2121
ibi쎯ugl쎯b쎯	-11.2125
by쎯uqwl쎯	-11.2125
yoo쎯udjh쎯	-11.2126
w쎯ntg쎯wx쎯	-11.2127
,k쎯aw쎯ipk쎯km쎯。	-11.2129
tx쎯dg쎯yy쎯	-11.213
dga쎯pwv쎯》、《	-11.213
puvc0쎯	-11.2132
tmgt3쎯	-11.2132
wxb쎯	-11.2133
,쎂쎀쎀쎁rh쎯	-11.2133
adwe1쎯bv쎯	-11.2133
iwf쎯w쎯	-11.2134
+쎂	-11.2134
쎁kw쎯	-11.2135
iv	-11.2135
ipg쎯wx쎯	-11.2136
rt쎯k쎯	-11.2142
cd쎯pfjm1쎯	-11.2144
쎁쎉쎈쎅	-11.2144
ta쎯bb쎯	-11.2144
lds쎯gae쎯	-11.2144
rep쎯yjs쎯	-11.2145
gf쎯쎂쎀쎁쎁rh쎯	-11.2145
ijl쎯cbts0쎯	-11.2146
jyt쎯	-11.2147
hi쎯tf쎯tffh1쎯	-11.2147
dga쎯pwv쎯r쎯	-11.2147
》()	-11.2149
hhhh쎯ue쎯nnnn쎯	-11.2151
kkd쎯tr쎯	-11.2151
tw쎯pvs쎯	-11.2152
,lh쎯kthh1쎯ith쎯	-11.2152
tgh쎯nh쎯	-11.2152
nh쎯ty쎯y쎯s쎯c쎯	-11.2152
c0쎯	-11.2152
,ga쎯nae쎯	-11.2153
uyh쎯qh쎯	-11.2153
geq쎯dyn쎯	-11.2154
ff쎯ymd쎯	-11.2154
r쎯tk쎯adm쎯	-11.2155
jtyl쎯pym쎯	-11.2155
ipw쎯tfkp쎯	-11.2155
쎁쎀dnv1쎯	-11.2155
uce쎯,	-11.2158
fqp쎯yb쎯	-11.2159
jf쎯iq쎯	-11.216
r쎯pw쎯uj쎯	-11.2162
dl쎯kq쎯r쎯	-11.2163
wa쎯kgn쎯	-11.2164
xad쎯tfn쎯	-11.2165
tqdh쎯bj쎯	-11.2165
쎯	-11.2168
ftbt쎯rep쎯、fge쎯	-11.2168
bwf쎯gkp쎯	-11.2169
gyt쎯xe쎯	-11.217
쎂쎀qq쎯	-11.2171
bmg쎯o쎯	-11.2173
mq쎯eerq쎯	-11.2174
nge쎯w쎯	-11.2175
io쎯amw쎯qc쎯	-11.2175
fggh쎯jfj쎯	-11.2175
pp쎯mw쎯	-11.2175
ugdu쎯w쎯	-11.2176
mfk쎯gc쎯	-11.2177
gkl쎯y쎯yam쎯。	-11.2182
쎈—	-11.2182
itx쎯kkkk0쎯	-11.2185
ai쎯aq쎯	-11.2185
쎂쎀쎀쎃.쎀	-11.2185
dga쎯pwv쎯tg쎯bpf쎯	-11.2186
wvp쎯ltk쎯	-11.2187
fcp쎯lfn쎯	-11.2187
afp쎯	-11.2187
쎄쎀%	-11.2188
qytb0쎯wx쎯	-11.2188
rymn쎯alt쎯	-11.2189
xh쎯et쎯	-11.219
wgkb2쎯jghm1쎯	-11.219
dd쎯lt쎯v쎯nae쎯	-11.219
xgo쎯ytt쎯	-11.2192
vfhp1쎯ymc쎯uk쎯	-11.2197
wfny0쎯fhw쎯	-11.2197
iet쎯	-11.2197
ait쎯kf쎯	-11.2197
uyh쎯pwt쎯	-11.2199
fkuk4쎯uge쎯	-11.2199
aps쎯aqt쎯“	-11.2199
ftbt쎯jgm쎯,	-11.2201
gh쎯ty쎯	-11.2202
kgn쎯,	-11.2203
bpf쎯gkl쎯bpf쎯ta쎯	-11.2205
r쎯gkih쎯wsg0쎯	-11.2205
ovt쎯rnd1쎯xg쎯	-11.2206
qf쎯cf쎯ntg쎯	-11.2206
jfd쎯gog쎯	-11.2206
,we쎯	-11.2207
qwyc0쎯fnr쎯	-11.2209
ue쎯ftj쎯	-11.221
x쎯qie쎯	-11.2211
wht쎯ghd0쎯	-11.2212
ve쎯img쎯	-11.2212
g쎯udbb쎯	-11.2212
mqq쎯xtk쎯tu쎯rfc쎯	-11.2213
쎂쎅쎀쎀	-11.2213
:-	-11.2216
rvyo쎯ny쎯	-11.2216
쎆쎅쎀	-11.2217
adw쎯wt쎯kkk쎯	-11.2217
rg쎯an쎯	-11.2217
tmg1쎯sm쎯	-11.2218
tx쎯쎇	-11.2218
ip쎯ire쎯	-11.2218
uqb쎯aq쎯	-11.2221
ay쎯tjf쎯	-11.2222
whm쎯	-11.2223
ss쎯f쎯	-11.2223
ymc쎯uu쎯b쎯	-11.2224
reh쎯e쎯g쎯rx쎯	-11.2224
▁쎇、	-11.2225
lkd쎯rb1쎯	-11.2226
rfc쎯sy쎯w쎯ft쎯	-11.2226
qvw쎯	-11.2226
vcb쎯j쎯	-11.2227
bukn쎯	-11.2228
ii쎯gu쎯。	-11.2231
),pyg쎯vfhp1쎯ith쎯	-11.2232
eb쎯tl쎯wsg0쎯txi쎯	-11.2233
duo쎯	-11.2237
pl쎯w쎯	-11.2238
aq쎯xe쎯	-11.2239
um쎯og쎯tffh1쎯	-11.224
nh쎯adnt1쎯。	-11.2241
dgh쎯tdij쎯	-11.2242
bk쎯wug1쎯	-11.2243
ym쎯gxi쎯rfm쎯	-11.2243
。쎂쎀쎁쎀rh쎯	-11.2243
ym쎯hid쎯	-11.2244
gf쎯g쎯tmd쎯	-11.2244
sgc쎯ntg쎯	-11.2246
iytb0쎯qi쎯	-11.2248
쎀yne쎯,	-11.2249
nhw쎯	-11.2251
tf쎯fhu쎯	-11.2252
bm쎯tg쎯f쎯	-11.2252
qfhw0쎯ai쎯	-11.2254
itx쎯rdc쎯쎁,	-11.2256
ym쎯u쎯	-11.2257
ybt쎯or쎯	-11.2259
tu쎯xnn0쎯	-11.2259
쎁쎂쎁	-11.226
drin쎯yneg쎯	-11.2261
vtkd1쎯y쎯	-11.2262
lfo쎯pujn1쎯qc쎯	-11.2263
쎂쎀wh쎯	-11.2263
쎂쎀쎀qq쎯	-11.2263
tuxj쎯wtu쎯	-11.2263
。쎁쎉쎅쎈rh쎯	-11.2265
쎁쎉쎈쎇	-11.2266
r쎯td쎯ykw쎯	-11.2266
。쎁쎉쎈쎆rh쎯	-11.2268
ft쎯j쎯	-11.227
arj쎯ae쎯	-11.2271
mf쎯wf쎯	-11.2272
(쎁쎉쎄	-11.2276
itd쎯fcl쎯pgc쎯	-11.2276
tfc쎯	-11.2277
쎈쎅쎀	-11.228
uq쎯ian0쎯	-11.2282
bu쎯ype쎯wf쎯	-11.2283
ipk쎯tv쎯tv쎯km쎯、	-11.2283
jc쎯qvn2쎯	-11.2285
yq쎯qng1쎯	-11.2286
wmw쎯wx쎯	-11.2287
▁쎂쎀쎀쎅rh쎯	-11.2288
qh쎯cm쎯ymc쎯yf쎯	-11.229
dgkn쎯jhf1쎯	-11.229
qnf쎯	-11.229
r쎯qie쎯wyk쎯	-11.2294
rmhj쎯fcl쎯	-11.2295
,bwt쎯b쎯	-11.2295
rf쎯qy쎯	-11.2295
wfny0쎯·	-11.2296
。쎁쎉쎉쎉rh쎯	-11.2297
an쎯w쎯	-11.2299
udnb0쎯	-11.23
jri쎯	-11.23
tgj쎯hko쎯k쎯ip쎯	-11.2301
nnh쎯。	-11.2301
wy쎯wynn3쎯	-11.2301
쎃qk쎯	-11.2301
g쎯uyh쎯	-11.2302
yem쎯	-11.2303
tf쎯jtg쎯	-11.2304
ny쎯gj쎯uqwk쎯yqj쎯	-11.2305
sk쎯sve쎯rnd1쎯	-11.2305
wyv쎯fhl쎯	-11.2306
쎄.쎃	-11.2306
,sghg1쎯gcf쎯	-11.2307
tv쎯tv쎯km쎯	-11.231
wm쎯w쎯	-11.2311
▁h쎯itx쎯	-11.2311
,vvv쎯,ic쎯ytt쎯,	-11.2312
ux쎯itx쎯	-11.2313
wty쎯g쎯	-11.2313
y쎯nf쎯	-11.2314
rxj쎯rpl쎯uk쎯	-11.2314
。rxj쎯	-11.2316
r쎯uthp쎯kht쎯	-11.2316
jhng쎯:	-11.2316
kn쎯“	-11.2317
gmww쎯uk쎯wv쎯	-11.2318
dm쎯tkw쎯:	-11.232
。쎂.	-11.232
oq쎯rgw쎯	-11.232
buj쎯	-11.2321
gm쎯qje쎯。	-11.2321
。wg쎯nnh쎯	-11.2322
aps쎯iwyf2쎯tq쎯k	-11.2324
v쎯wyk쎯	-11.2327
,dp쎯gc쎯	-11.2327
j쎯tjf쎯iawn쎯	-11.2327
pw쎯ny쎯	-11.2329
saj쎯wyn쎯	-11.233
ws쎯usi0쎯vkgd쎯qi쎯	-11.233
쎁쎃쎄	-11.2332
k쎯l쎯gm쎯wa쎯	-11.2333
jcf쎯pu쎯	-11.2334
wy쎯ny쎯	-11.2335
dty쎯jfd쎯	-11.2335
wa쎯ge쎯wt쎯kkk쎯	-11.2336
uu쎯fn쎯	-11.2337
ovt쎯hhhh쎯	-11.234
iwf쎯tf쎯r쎯	-11.234
yt	-11.2341
fh쎯gcf쎯	-11.2341
ylf0쎯,vfhp1쎯tam쎯	-11.2342
r쎯bynw0쎯bb쎯	-11.2343
bb쎯pk쎯	-11.2344
age쎯lll쎯	-11.2344
sg쎯rfm쎯	-11.2344
,c쎯wgj쎯	-11.2347
쎁쎀쎀쎀쎀	-11.2348
lfo쎯pt쎯	-11.2348
ype쎯	-11.2348
pfjm1쎯lg쎯	-11.2348
fff1쎯	-11.2349
dgv쎯qiu0쎯	-11.2351
nfc쎯dm쎯	-11.2351
wgk쎯gj쎯r쎯	-11.2353
gmm쎯	-11.2353
fu쎯wfhg쎯	-11.2353
pjm쎯ujn쎯	-11.2353
쎃djfd쎯oy쎯	-11.2354
fku쎯cqw쎯r쎯	-11.2354
qve쎯isk쎯	-11.2354
r쎯y쎯	-11.2354
▁ga쎯	-11.2354
yd쎯maw쎯	-11.2354
sri쎯aa쎯wf쎯py쎯	-11.2356
swc쎯ia쎯	-11.2356
fpg쎯	-11.2357
qqqq1쎯bfw쎯	-11.2357
φ	-11.2358
vaf쎯	-11.2361
wmj0쎯dm쎯	-11.2361
svc쎯rtd쎯	-11.2362
qqqq1쎯dgtg쎯	-11.2362
▁iytb0쎯ca쎯	-11.2363
ddg0쎯ntg쎯	-11.2363
p쎯sg쎯nnh쎯	-11.2366
ywx쎯yygy쎯《	-11.2367
h쎯v쎯ge쎯ywx쎯yygy쎯	-11.2368
cyn쎯	-11.2369
bjm쎯	-11.2369
qaf쎯	-11.2369
dd쎯itx쎯	-11.237
ytyh쎯aq쎯	-11.2371
wdn쎯ugdu쎯r쎯	-11.2374
ugdu쎯sy쎯txi쎯	-11.2375
sgd쎯	-11.2376
쎁wh쎯,	-11.2377
fi쎯aib쎯ip쎯suq쎯	-11.2377
ajdf쎯f쎯	-11.2377
ㄙ	-11.2378
fj쎯fghg쎯,	-11.2378
temq1쎯bw쎯	-11.2378
k쎯yygy쎯qk쎯tq쎯	-11.2379
ivl쎯fge쎯	-11.2379
klj쎯qk쎯:	-11.238
쎉wc쎯jfd쎯	-11.2381
lc쎯a쎯	-11.2384
tkh쎯sfhg쎯og쎯	-11.2386
wv쎯pdhj쎯	-11.2387
wgk쎯aft쎯	-11.2389
wwx쎯gj쎯	-11.2391
r쎯gm쎯qje쎯	-11.2392
__	-11.2392
tdp쎯et쎯aib쎯lfnh쎯	-11.2392
、dmjf1쎯	-11.2393
h쎯up쎯	-11.2395
fcp쎯apk쎯um쎯	-11.2395
쎄쎀rh쎯	-11.2396
ulg쎯atd쎯	-11.2399
gkp쎯go쎯b쎯	-11.2399
wgd쎯	-11.2399
nnnn쎯td쎯	-11.2399
,wjg쎯d쎯	-11.24
trf쎯pg쎯r쎯	-11.2401
,lp쎯xxe쎯	-11.2401
euk쎯yb쎯	-11.2401
ab쎯,	-11.2402
.쎅djfd쎯oy쎯	-11.2402
。쎁쎉쎈쎇rh쎯	-11.2402
suq쎯mq쎯	-11.2403
gm쎯wtf쎯k쎯aw쎯	-11.2405
trf쎯e쎯	-11.2406
yta쎯gh쎯r쎯	-11.2408
qqqq1쎯wxf쎯	-11.2409
amw쎯isgg0쎯	-11.2409
yo쎯af쎯	-11.241
yygy쎯ip쎯pe쎯	-11.241
hj쎯jf쎯	-11.2412
,h쎯itx쎯	-11.2417
(《	-11.2417
gkp쎯pa쎯	-11.2417
wsg0쎯rfm쎯	-11.2418
。쎁쎉쎈쎃rh쎯	-11.2418
ow쎯、	-11.2419
。tg쎯gf쎯	-11.2419
iyw쎯jjj쎯	-11.242
ald쎯	-11.2422
khn쎯ydn쎯	-11.2422
www쎯qq쎯r쎯	-11.2423
khq쎯uthp쎯	-11.2423
cd쎯pl쎯	-11.2424
dmj1쎯puhc쎯	-11.2425
aqw쎯	-11.2425
am	-11.2426
je쎯rrr쎯	-11.2428
u쎯rg쎯	-11.2429
쎁쎉쎈쎄	-11.243
f쎯aq쎯,	-11.2431
a쎯qyv쎯	-11.2431
k쎯md쎯pw쎯ymf쎯	-11.2433
jty쎯ysi쎯atd쎯ip쎯	-11.2433
tmdy0쎯	-11.2434
ih쎯yvi쎯	-11.2435
ipkh1쎯tl쎯gj쎯gk쎯、	-11.2436
xd쎯	-11.2436
epc쎯wtl쎯	-11.2436
ipk쎯t쎯l쎯pe쎯	-11.2437
쎃쎈쎀	-11.2438
ftbt쎯yce쎯pe쎯	-11.244
qk쎯gq쎯	-11.244
bn쎯tve쎯	-11.244
e쎯gxgu쎯	-11.244
-쎂-	-11.2442
ntg쎯vb쎯	-11.2442
yri쎯	-11.2442
amw쎯img쎯	-11.2444
iytb0쎯ca쎯,	-11.2445
(쎃	-11.2446
▁쎇	-11.2447
쎅쎀°C	-11.2448
ldd쎯wx쎯	-11.2448
、l쎯bf쎯	-11.2452
쎇～	-11.2454
qq쎯wug1쎯	-11.2456
tey쎯itx쎯	-11.2459
,lk쎯h쎯	-11.246
ck쎯aa쎯sm쎯	-11.246
ygk쎯yyy쎯:	-11.2461
wycm0쎯fakg1쎯,	-11.2462
yhk쎯qge쎯	-11.2462
rnb쎯tld1쎯	-11.2462
atd쎯bpf쎯、	-11.2463
gkl쎯y쎯yam쎯、	-11.2464
쎁쎀쎇	-11.2464
jpv쎯	-11.2464
fggh쎯xg쎯	-11.2465
mym쎯	-11.2466
mqq쎯n쎯	-11.247
pu쎯d쎯	-11.247
,xx쎯	-11.247
fnm쎯	-11.2472
ige쎯tjf쎯	-11.2473
tt쎯yn쎯	-11.2473
。wt쎯kkk쎯	-11.2475
xmw쎯ty쎯	-11.2475
ㄠ	-11.2475
rnp쎯ad쎯	-11.2476
djdy1쎯	-11.2476
tdtj쎯	-11.2477
ck쎯、	-11.2478
tey쎯pw쎯tey쎯gd쎯	-11.2478
txg쎯mfk쎯	-11.2479
nae쎯fi쎯b쎯	-11.2481
tjh쎯yx쎯	-11.2482
dty쎯nd쎯	-11.2485
쎄kgn쎯	-11.2487
fii쎯ce쎯	-11.2488
qg쎯tmh0쎯	-11.2489
yaa쎯yjjh1쎯	-11.2489
ym쎯usr쎯	-11.2492
et쎯if쎯	-11.2493
wc쎯jfd쎯,yb쎯	-11.2494
ipw쎯lk쎯a쎯	-11.2494
r쎯ym쎯ya쎯	-11.2495
fm쎯mdfj쎯	-11.2495
f쎯rfm쎯ip쎯	-11.2495
t쎯l쎯pe쎯	-11.2495
tffu쎯eb쎯tl쎯	-11.2496
k쎯uqf쎯	-11.2497
yygy쎯ip쎯anb0쎯sy쎯	-11.2498
ige쎯iq쎯xft쎯	-11.2499
,iy쎯mm쎯uqwm0쎯sg쎯	-11.25
l쎯pe쎯r쎯	-11.25
qgy쎯	-11.2501
(쎁쎆	-11.2503
dga쎯pwv쎯w쎯km쎯	-11.2503
rp쎯wny0쎯	-11.2503
ytf쎯sk쎯	-11.2504
rj쎯waw쎯g쎯wh쎯	-11.2504
amw쎯ffff5쎯	-11.2505
tffu쎯og쎯tl쎯	-11.2505
ymf쎯ya쎯	-11.2506
kkk쎯。	-11.2506
(쎁쎀	-11.2507
dnnl쎯u쎯	-11.2508
thd쎯y쎯dga쎯v쎯	-11.2509
ifn쎯ii쎯th쎯gj쎯	-11.2509
쎄%	-11.2509
r쎯f쎯wug1쎯	-11.2509
rg쎯yem쎯	-11.2511
.,.	-11.2512
ymc쎯tlf2쎯;	-11.2513
gf쎯쎂쎀쎀쎄rh쎯	-11.2515
ey쎯tk쎯tkh쎯	-11.2517
dn쎯km쎯。	-11.2517
rvy쎯ftbt쎯	-11.2518
pp쎯ny쎯	-11.2518
sm쎯sa쎯、	-11.2518
udh쎯lt쎯	-11.2518
bct쎯wgk쎯tr쎯	-11.2519
iwy1쎯fm쎯	-11.252
[...]
