[UNK]	0
[PAD]	0
[CLS]	0
[SEP]	0
[MASK]	0
,	-3.52046
r쎯	-3.84103
。	-4.0239
、	-4.07881
▁	-4.55131
t쎯	-5.031
d쎯	-5.40214
o쎯	-5.44369
j쎯	-5.5789
k쎯	-5.64746
:	-5.67202
(	-5.77784
gn쎯	-5.79754
w쎯	-5.82784
e쎯	-5.83388
dd쎯	-5.87361
tffu쎯	-5.88238
;	-5.94224
g쎯	-6.04526
b쎯	-6.07802
)	-6.07865
《	-6.10494
h쎯	-6.12096
pp쎯	-6.23572
i쎯	-6.24509
c쎯	-6.24648
“	-6.24667
ey쎯	-6.25334
gf쎯	-6.30178
ymhj쎯	-6.3945
ii쎯	-6.4186
”	-6.52783
aq쎯	-6.54283
쎁	-6.5501
mmm쎯	-6.55407
ym쎯	-6.5614
f쎯	-6.56213
rg쎯	-6.57017
k쎯l쎯	-6.60261
egc쎯	-6.61627
cf쎯	-6.61879
쎂	-6.62767
bb쎯	-6.63068
et쎯	-6.63994
ih쎯	-6.65525
pe쎯	-6.6609
ntg쎯	-6.66918
ta쎯	-6.68124
dg쎯	-6.68648
》	-6.69226
ak쎯	-6.71775
qq쎯	-6.72072
쎃	-6.7278
usr쎯	-6.7308
rh쎯	-6.73274
gh쎯	-6.75338
dmj1쎯	-6.76388
gd쎯	-6.76711
jf쎯	-6.77136
wc쎯ngk쎯	-6.7815
gc쎯	-6.78841
puhc쎯	-6.79899
bm쎯	-6.80976
qk쎯	-6.81682
tg쎯	-6.83751
rn쎯	-6.84627
uqf쎯	-6.86088
·	-6.88733
-	-6.89631
ip쎯	-6.90138
gcf쎯	-6.90788
mw쎯	-6.91065
uk쎯	-6.91517
wf쎯	-6.91792
a	-6.94448
sghg1쎯	-6.94646
qfhw0쎯	-6.96211
yygy쎯	-6.96895
dn쎯	-6.97688
.	-6.98818
wv쎯	-6.9917
ai쎯	-6.99695
fq쎯	-7.00082
fm쎯	-7.00267
rfc쎯sy쎯	-7.00513
sk쎯	-7.00778
jjjj쎯	-7.02109
whf쎯og쎯	-7.02594
sg쎯	-7.02953
mh쎯	-7.03603
쎄	-7.03695
go쎯	-7.04164
/	-7.04941
tp쎯gj쎯	-7.05049
wx쎯	-7.05553
i	-7.05792
sf쎯	-7.0612
ftbt쎯yce쎯	-7.06622
qqqq1쎯	-7.06977
adw쎯	-7.07005
ny쎯	-7.07354
dga쎯pwv쎯	-7.08076
fg쎯	-7.08552
쎅	-7.08653
kht쎯	-7.08976
if쎯	-7.09073
qh쎯	-7.09112
itx쎯	-7.1065
ww쎯	-7.10704
sm쎯	-7.11689
l쎯	-7.1182
dgtg쎯	-7.12304
tf쎯	-7.12716
ue쎯	-7.13117
wsg0쎯	-7.13406
awx쎯	-7.13673
u쎯kkk쎯	-7.13817
a쎯wt쎯	-7.14336
dm쎯	-7.1626
ggg1쎯	-7.16519
jfd쎯	-7.16688
fd쎯	-7.18407
ua쎯	-7.19564
dd쎯ip쎯	-7.20144
eb쎯tl쎯	-7.20162
uthp쎯	-7.20819
l쎯pe쎯	-7.21503
ftj쎯	-7.21824
fny쎯og쎯	-7.2205
e쎯bv쎯wc쎯ngk쎯	-7.22434
pv쎯	-7.2333
uyh쎯	-7.24022
ty쎯	-7.24179
쎆	-7.24825
xg쎯	-7.24919
udi쎯	-7.25176
txi쎯xyc쎯	-7.25741
xte쎯	-7.25827
tfl쎯	-7.25927
g쎯wh쎯	-7.26208
lt쎯	-7.26366
iq쎯	-7.2677
bn쎯	-7.27357
ss쎯	-7.27775
thd쎯	-7.27785
쎁쎀	-7.28334
ftjb쎯	-7.28826
tu쎯	-7.29066
gmww쎯	-7.29127
gg쎯	-7.29264
lh쎯	-7.29585
wtf쎯	-7.30366
cn쎯	-7.30436
wug1쎯gf쎯	-7.30752
aa쎯	-7.30787
ux쎯	-7.31415
je쎯	-7.31823
쎈	-7.31833
ce쎯	-7.32369
yygy쎯wx쎯	-7.32711
isk쎯	-7.32865
gu쎯	-7.32887
rrr쎯	-7.32931
fp쎯	-7.33217
gajf쎯	-7.33685
q	-7.34444
kkkk0쎯	-7.34705
l쎯bf쎯	-7.34748
dnv1쎯	-7.34837
ige쎯	-7.3505
v쎯	-7.35566
,j쎯	-7.35814
v쎯nae쎯	-7.35881
y	-7.36606
dx쎯	-7.36649
쎇	-7.36664
()	-7.36814
a쎯tkgg0쎯	-7.36855
wb쎯	-7.36894
ia쎯	-7.36986
vfhp1쎯ymc쎯	-7.37059
jb쎯	-7.37331
x쎯	-7.38348
udh쎯	-7.38364
rt쎯	-7.38882
mq쎯	-7.39188
ip쎯suq쎯	-7.39395
pl쎯	-7.39425
yy쎯	-7.3954
wg쎯	-7.4008
ugdu쎯	-7.40129
x쎯iyj쎯	-7.40152
k쎯ny쎯	-7.4043
j	-7.40888
t	-7.4154
th쎯	-7.41589
ga쎯	-7.41626
dq쎯	-7.41943
amw쎯	-7.42075
tgj쎯	-7.42235
ymc쎯yf쎯	-7.42328
》、《	-7.42472
nnh쎯	-7.43335
hko쎯	-7.43462
ya쎯	-7.44055
qiu0쎯	-7.44217
wxf쎯	-7.44538
tm쎯	-7.4484
wt쎯	-7.44881
k	-7.44901
fj쎯tf쎯	-7.4494
adwr쎯	-7.44978
r	-7.45067
a쎯	-7.45345
lg쎯	-7.45595
w	-7.46559
jgm쎯	-7.46913
wug1쎯	-7.47369
d	-7.47833
wg쎯l쎯	-7.47915
cep쎯	-7.47937
trf쎯	-7.47974
nnk쎯	-7.48356
ytyh쎯	-7.48754
,ua쎯	-7.4904
,d쎯	-7.49512
rnb쎯	-7.49525
wys쎯	-7.49628
g	-7.49653
ck쎯	-7.4978
dgh쎯	-7.49788
ghd0쎯	-7.50464
img쎯	-7.51428
txi쎯	-7.5155
tk쎯	-7.51904
"	-7.51906
u	-7.51913
tg쎯u쎯	-7.5224
mqq쎯	-7.52699
w쎯,	-7.53387
wc쎯	-7.53478
y쎯	-7.53588
sh쎯	-7.53786
m쎯	-7.54144
xa쎯	-7.54196
s	-7.55941
dp쎯	-7.56135
adm쎯hhhh쎯	-7.56483
pg쎯	-7.56751
rmhj쎯	-7.57096
oy쎯	-7.57108
fqb1쎯	-7.57413
vk쎯	-7.57931
dr쎯	-7.57982
od쎯	-7.58245
tj쎯	-7.58252
s쎯	-7.58808
쎂쎀	-7.59089
。”	-7.59409
xt쎯	-7.5965
an쎯	-7.59774
jg쎯	-7.59826
vfhp1쎯tam쎯	-7.59883
kkd쎯	-7.59906
ip쎯bpf쎯	-7.60361
n	-7.60558
thg0쎯	-7.60655
kf쎯	-7.60734
xeg쎯xkw쎯	-7.61017
fhn쎯	-7.61722
rvyo쎯	-7.61799
쎉	-7.626
ugm쎯	-7.63214
cc쎯	-7.63349
ovt쎯	-7.63603
mqq쎯xtk쎯	-7.63787
vb쎯	-7.63913
rj쎯waw쎯	-7.64083
tp쎯	-7.64095
yi쎯	-7.6438
ftx쎯	-7.64441
an쎯lwj쎯	-7.64682
lk쎯	-7.65139
xe쎯	-7.655
fcu1쎯	-7.65728
hw쎯e쎯	-7.65786
tjh쎯	-7.66095
iyc쎯	-7.66163
kgn쎯	-7.66835
nnnn쎯	-7.6695
tu쎯rfc쎯	-7.67019
f쎯aq쎯	-7.67134
nfc쎯	-7.67234
jn쎯	-7.67283
qc쎯	-7.67972
ggi쎯fuj쎯	-7.68436
c쎯ey쎯	-7.68988
xq쎯	-7.69228
ith쎯	-7.69643
wh쎯	-7.69775
sk쎯c쎯	-7.70005
ux쎯yiu쎯	-7.70237
ymhj쎯fnrt쎯	-7.70476
ukn쎯	-7.70482
wy쎯thn쎯	-7.712
tkh쎯	-7.71239
eee쎯	-7.71322
py쎯wf쎯	-7.71332
pyj쎯	-7.71613
ymc쎯tlf2쎯	-7.72684
tr쎯	-7.72902
wgkq0쎯et쎯	-7.73067
pb쎯	-7.73243
p쎯	-7.73401
쎁쎂	-7.73623
,c쎯	-7.74009
gk쎯	-7.74016
),	-7.74202
wgkq0쎯	-7.74329
gkp쎯	-7.74337
n쎯	-7.74348
ltu쎯	-7.74664
yu쎯	-7.74768
adwe1쎯	-7.74796
ru쎯	-7.74957
vvv쎯	-7.75067
uh쎯	-7.75439
rp쎯	-7.75724
bj쎯	-7.75847
tx쎯g쎯	-7.76195
cep쎯fp쎯	-7.76245
y쎯s쎯	-7.76426
rxj쎯	-7.76587
anb0쎯sy쎯	-7.76675
ep쎯	-7.76817
쎃쎀	-7.76997
uj쎯	-7.77338
q쎯	-7.77435
lq쎯	-7.78134
w쎯。	-7.78999
uth쎯	-7.80025
vfhp1쎯	-7.80031
m	-7.80313
um쎯	-7.80362
uu쎯	-7.80533
ssss쎯	-7.80858
ftbt쎯ip쎯	-7.80892
al쎯ce쎯	-7.81318
ntk쎯	-7.81531
sb쎯	-7.81695
wgk쎯	-7.81921
hc쎯	-7.81956
ugdu쎯l쎯	-7.8214
ts쎯	-7.82182
ftbt쎯	-7.82443
hx쎯	-7.82883
”。	-7.83048
fcu0쎯	-7.83772
aqt쎯	-7.83782
ygk쎯	-7.84037
fj쎯	-7.84088
쎁쎅	-7.84202
ipw쎯	-7.84208
lp쎯	-7.84687
dj쎯	-7.8508
rcn1쎯	-7.85111
tjf쎯	-7.85123
ccc쎯	-7.85221
fnrt쎯	-7.85576
jtg쎯	-7.85789
ad쎯	-7.85936
pn쎯	-7.8614
ga쎯v쎯	-7.86144
xx쎯	-7.86254
uy쎯	-7.86425
v	-7.86506
h쎯itx쎯	-7.8655
x	-7.8673
gkl쎯	-7.87021
nge쎯	-7.87585
qi쎯	-7.87636
ujfj쎯	-7.87706
f	-7.87734
tmd쎯	-7.87743
gl쎯	-7.87906
sfi쎯uwy1쎯	-7.88576
hhu0쎯	-7.88831
ab쎯	-7.88836
mfk쎯	-7.88895
wt쎯kkk쎯	-7.88967
fcl쎯	-7.88993
gae쎯	-7.89895
ooo쎯	-7.90048
iv쎯	-7.90184
fd쎯ymhj쎯	-7.90193
fggh쎯	-7.90198
gef쎯	-7.90322
og쎯	-7.90381
wty쎯	-7.90381
bpf쎯	-7.90695
yynw1쎯	-7.91342
wfny0쎯	-7.915
gog쎯	-7.91516
쎁쎆	-7.91788
dgt1쎯	-7.92069
gah쎯	-7.92566
uf쎯	-7.92756
yne쎯	-7.92907
ip쎯tg쎯	-7.9306
tq쎯	-7.93132
yx쎯	-7.93151
lkd쎯	-7.93295
udy쎯	-7.93556
kkk쎯	-7.93617
puv쎯	-7.93655
qgf쎯	-7.93794
ip쎯nu쎯	-7.94225
uqw쎯	-7.94533
vcb쎯	-7.94537
kkk쎯thgf0쎯	-7.94737
yo쎯	-7.9475
ld쎯	-7.94997
xw쎯	-7.95173
suq쎯	-7.95308
wys쎯lft쎯	-7.95626
》:“	-7.95645
쎁쎉	-7.95777
xk쎯	-7.9582
e	-7.9584
ymf쎯	-7.9598
hw쎯	-7.96317
hka쎯	-7.97156
yff쎯	-7.97285
mqb쎯	-7.97471
vt쎯	-7.97763
gip쎯	-7.97862
bc쎯	-7.97943
sov쎯	-7.98272
src쎯	-7.98291
ajj쎯	-7.98336
tg쎯itd쎯	-7.98549
iytb0쎯ca쎯	-7.9862
a쎯og쎯	-7.98638
ag쎯	-7.98673
rfm쎯	-7.98788
udbb쎯	-7.98926
pgy쎯	-7.98956
lll쎯	-7.99274
ic쎯	-7.9939
ujfj쎯wug1쎯	-7.99541
tld1쎯	-7.99883
uq쎯	-7.99883
!	-8.00141
idr쎯	-8.00145
wa쎯	-8.00432
yid쎯et쎯	-8.00665
pv쎯wg쎯	-8.00706
lfq쎯	-8.00795
ax쎯	-8.00811
reh쎯e쎯	-8.00817
epc쎯	-8.01
rfm쎯jg쎯	-8.01187
xf쎯sq쎯	-8.01532
pu쎯	-8.01615
dmh쎯	-8.01975
wq쎯	-8.02242
rmc쎯uqwm0쎯	-8.02421
wt쎯o쎯	-8.02893
cd쎯lk쎯	-8.02983
st쎯	-8.03072
lpk0쎯	-8.03109
gy쎯	-8.03149
ide쎯	-8.03243
xeg쎯	-8.03262
uqd0쎯	-8.03376
ftbt쎯jgm쎯	-8.03536
ma쎯	-8.03765
tf쎯og쎯	-8.03805
std쎯	-8.03844
wy쎯	-8.0386
nd쎯	-8.04013
aw쎯	-8.04082
kq쎯	-8.04208
tk쎯tkh쎯	-8.04215
c	-8.04236
fhw쎯	-8.04322
tfqp쎯	-8.04547
o	-8.04597
ba0쎯	-8.04758
gjq쎯	-8.04897
atd쎯bpf쎯	-8.04993
wdt쎯	-8.05018
jjjj쎯sg쎯	-8.05139
sft쎯ou쎯	-8.05177
쎁쎈	-8.05248
쎅쎀	-8.05644
ul쎯	-8.05747
ffff5쎯	-8.06027
fqp쎯	-8.06082
aqt쎯tj쎯	-8.06149
yny0쎯	-8.06326
xxf쎯og쎯gf쎯	-8.06425
쎁쎁	-8.06429
ujj쎯	-8.06655
lfn쎯	-8.06664
djd쎯	-8.06944
rs쎯	-8.06948
fn쎯	-8.07447
fnr쎯	-8.07568
gj쎯	-8.07682
yid쎯	-8.0791
js쎯	-8.07945
cnh쎯	-8.07981
tfq쎯	-8.08061
ruv쎯	-8.08108
yt쎯	-8.08475
lft쎯	-8.0861
iw쎯	-8.08674
tu쎯ip쎯	-8.09291
pgc쎯	-8.09413
ufy쎯	-8.09657
ujf쎯	-8.09731
rpw쎯rmhj쎯	-8.09751
ga쎯vck쎯	-8.09838
se쎯	-8.09879
h	-8.10001
bu쎯	-8.10104
scf쎯	-8.10108
ge쎯	-8.10148
mj쎯	-8.10396
ght쎯ywf쎯	-8.10468
dn쎯o쎯	-8.10666
ihc쎯	-8.1074
ujn쎯	-8.10783
bs쎯	-8.1086
txi쎯gq쎯	-8.11272
ps쎯	-8.11283
k쎯r쎯	-8.11678
k쎯ip쎯	-8.12112
dgkn쎯	-8.1225
uff쎯	-8.12469
u쎯	-8.12806
——	-8.12848
,o쎯	-8.12869
ww쎯gk쎯	-8.13013
itd쎯fcl쎯	-8.13018
dw0쎯	-8.13037
wht쎯	-8.1335
gm쎯wa쎯	-8.13614
fhl쎯	-8.13862
gfi쎯	-8.14182
td쎯	-8.14253
iit쎯	-8.14397
sm쎯sq쎯	-8.14436
wyv쎯	-8.14474
lk쎯ty쎯	-8.14475
”r쎯	-8.14572
yqa쎯	-8.14637
ujf쎯qi쎯	-8.14762
yj쎯	-8.14834
wdn쎯te쎯	-8.14994
isgg0쎯	-8.15084
oge쎯	-8.15094
ud쎯	-8.15185
ft쎯	-8.15208
xxg0쎯	-8.15548
jn쎯bb쎯	-8.15671
uqwm0쎯idr쎯	-8.15794
rhf쎯	-8.1592
ytey쎯iytb0쎯	-8.16211
km쎯	-8.16482
—	-8.16625
tmg1쎯	-8.16724
l	-8.16759
ipkh1쎯	-8.16896
wk쎯	-8.17772
lwj쎯	-8.178
쎄쎀	-8.17919
thd쎯qd쎯	-8.1813
fghg쎯	-8.18209
yy쎯if쎯	-8.18294
fh쎯	-8.18404
fawk쎯	-8.18453
～	-8.1848
jf쎯uj쎯	-8.18795
bw쎯	-8.18884
fc쎯rf쎯	-8.19127
x쎯apk쎯	-8.19135
tffu쎯。	-8.19473
쎁쎃	-8.19714
fny쎯pe쎯	-8.19995
qe쎯	-8.20118
dy쎯	-8.20136
qn쎯	-8.20174
og쎯tl쎯	-8.20272
wv쎯sr쎯	-8.20304
dm쎯tkw쎯	-8.20455
gm쎯	-8.20685
lqw쎯wrh2쎯	-8.20803
isgg0쎯yhk쎯	-8.20862
ick쎯	-8.2091
pa쎯	-8.20936
ae쎯	-8.21101
lfo쎯	-8.21355
wqa쎯	-8.21392
ijl쎯	-8.21476
qie쎯wyk쎯	-8.21533
mww쎯	-8.21533
쎀	-8.21555
ick쎯ubk0쎯	-8.21684
rc쎯	-8.21768
yq쎯	-8.21916
ywx쎯	-8.21981
ow쎯	-8.22037
nh쎯	-8.22113
by쎯	-8.22645
gj쎯ywx쎯	-8.23309
tx쎯fg쎯	-8.23321
hhhh쎯	-8.23325
yyy쎯	-8.23391
,wjg쎯	-8.23416
쎁쎄	-8.23455
ipk쎯	-8.2356
tfn쎯	-8.23823
tfk쎯	-8.23834
swc쎯	-8.23848
l쎯mw쎯	-8.23874
jy쎯	-8.24277
qnp쎯	-8.24424
rmhj쎯wt쎯	-8.24446
”,	-8.24446
es쎯et쎯	-8.24499
yygt쎯	-8.24709
pgn쎯	-8.24953
rb1쎯	-8.24977
py쎯aq쎯	-8.25022
fqu쎯	-8.25113
dl쎯kq쎯	-8.25322
fhv쎯	-8.25503
yb쎯	-8.25619
gyt쎯	-8.25647
tel쎯	-8.2584
ds쎯	-8.25953
tffh1쎯	-8.25955
pw쎯	-8.25959
ire쎯	-8.26133
px쎯	-8.26182
pfi쎯	-8.26296
쎂쎅	-8.26493
yygy쎯ip쎯	-8.26686
wtu쎯	-8.26835
xp쎯wgk쎯	-8.26898
tjt쎯	-8.26975
yvh쎯	-8.2756
bm쎯thgc쎯	-8.27721
dfy쎯	-8.27775
tv쎯km쎯wf쎯	-8.27855
lk쎯a쎯	-8.27962
hv쎯	-8.28027
。d쎯	-8.28113
pei쎯og쎯	-8.28608
sve쎯	-8.28687
uk쎯wv쎯	-8.28733
qa쎯	-8.28749
tv쎯	-8.29272
xl쎯	-8.29305
ggi쎯	-8.29475
xf쎯	-8.29572
iytb0쎯	-8.2983
rg쎯,	-8.30075
rymn쎯	-8.30252
im쎯e쎯	-8.30432
thgc쎯	-8.30648
yww쎯	-8.30685
umd0쎯	-8.30765
fgh쎯	-8.31273
qn쎯rtd쎯	-8.3136
)。	-8.31439
pyg쎯	-8.31543
ait쎯	-8.3196
i쎯m쎯	-8.32109
ll쎯	-8.32282
jty쎯	-8.324
fuk쎯yk쎯	-8.32414
aws쎯	-8.32619
nui쎯	-8.32974
qev쎯	-8.33064
쎆쎀	-8.33102
av쎯	-8.33193
yngk0쎯	-8.33375
sm쎯sa쎯	-8.33533
qr쎯	-8.33545
,adw쎯	-8.33575
uvo쎯	-8.33642
”、“	-8.33654
w쎯km쎯	-8.33825
aft쎯qk쎯	-8.34038
thd쎯nng쎯	-8.34086
wdm쎯	-8.34211
쎈쎀	-8.34213
nx쎯	-8.34266
jqr쎯	-8.34346
xyna0쎯	-8.34678
fc쎯	-8.3468
vbn쎯	-8.34784
rgw쎯	-8.34847
ff쎯	-8.34947
yi쎯j쎯	-8.35128
yni1쎯	-8.35154
yh쎯	-8.35201
tdg1쎯	-8.35264
kthh1쎯	-8.35491
u쎯og쎯	-8.35677
nae쎯	-8.36016
ipkf0쎯	-8.36091
fl쎯wf쎯	-8.36339
fk쎯	-8.36444
fcp쎯	-8.36451
apk쎯	-8.36465
xmw쎯	-8.36545
sgc쎯	-8.36697
lw쎯	-8.36701
tgj쎯hko쎯	-8.3672
fii쎯	-8.37005
쎁쎂eee쎯	-8.37062
nf쎯	-8.37244
wqj쎯	-8.37294
쎁쎀쎀	-8.37562
yhk쎯	-8.3798
wgk쎯wt쎯	-8.38079
sfhg쎯tr쎯	-8.381
gq쎯	-8.38127
fge쎯	-8.38251
sc쎯	-8.38276
amd쎯	-8.3841
it쎯	-8.38527
dn쎯uu쎯	-8.38609
dh쎯	-8.38777
bk쎯	-8.38891
ih쎯ip쎯	-8.39028
w쎯kkkk0쎯	-8.39054
irn쎯lg쎯	-8.39084
,e쎯	-8.39106
쎇eee쎯	-8.39191
me쎯	-8.39229
gmf쎯	-8.39314
,adw쎯k쎯	-8.39501
inr쎯	-8.3961
vtk쎯	-8.39641
wa쎯ge쎯	-8.39751
tfq쎯fj쎯	-8.39757
mqu쎯	-8.39774
wbj쎯usr쎯	-8.4001
tve쎯	-8.40063
tjf쎯iawn쎯	-8.40164
lu쎯	-8.40223
udyj쎯	-8.40302
qynm1쎯	-8.40392
vfb쎯	-8.40548
dnnl쎯	-8.4064
fwm쎯aj쎯	-8.40721
kw쎯	-8.4089
fhu쎯	-8.41009
pei쎯	-8.41246
쎁쎀eee쎯	-8.41421
gqx쎯	-8.41525
jf쎯,	-8.41848
sn쎯	-8.4185
wx쎯ip쎯	-8.419
tt쎯	-8.41906
fu쎯	-8.41927
cff쎯	-8.41954
rhk쎯	-8.42018
bde쎯	-8.42063
dskf쎯	-8.421
mdf쎯	-8.42246
fny쎯	-8.4233
qd쎯	-8.42618
tyna2쎯	-8.42662
쎉eee쎯	-8.4267
kgd쎯	-8.43039
tjh쎯et쎯	-8.43212
cm쎯	-8.43451
ytt쎯	-8.43481
al쎯	-8.43714
yjjh1쎯	-8.43719
pk쎯	-8.43734
gxi쎯	-8.43838
rxj쎯nf쎯	-8.43864
ght쎯	-8.43902
ce쎯lt쎯	-8.43912
naj1쎯	-8.44223
g쎯tem쎯	-8.4442
fje쎯	-8.44486
wk쎯ryn0쎯	-8.44584
쎈eee쎯	-8.44651
ymc쎯	-8.44781
pnt쎯	-8.44794
rmhj쎯tfkp쎯	-8.44891
fa쎯	-8.44911
saj쎯aa쎯	-8.44918
qg쎯	-8.45047
sksw쎯	-8.45082
k쎯md쎯	-8.45086
xf쎯wgk쎯	-8.45251
pt쎯yne쎯	-8.45335
kfi쎯	-8.45455
b	-8.45456
wvf쎯yvi쎯	-8.45501
iex쎯	-8.45545
py쎯	-8.45561
쎁쎇	-8.45576
adw쎯k쎯	-8.45946
wyv쎯kkk쎯	-8.46011
bwt쎯	-8.4649
sve쎯rnd1쎯	-8.4655
쎂쎀쎀	-8.46593
fdm쎯s쎯	-8.46843
wrh2쎯	-8.47013
ywf쎯	-8.47038
qgb쎯	-8.47097
g쎯tkh쎯	-8.47134
adnt1쎯	-8.47146
khu쎯	-8.47398
lhnh쎯	-8.47512
wycm0쎯fakg1쎯	-8.47513
ip쎯wf쎯	-8.48079
w쎯ft쎯	-8.48129
hk쎯	-8.48264
bg쎯tg쎯	-8.48321
adm쎯	-8.48571
uo쎯	-8.48641
up쎯	-8.48899
bm쎯thgc쎯py쎯	-8.4892
fcp쎯fcl쎯	-8.49004
mmm쎯ai쎯	-8.4908
adw쎯wb쎯	-8.49104
vo쎯	-8.49368
th쎯gj쎯	-8.49404
+	-8.49642
q쎯wu쎯	-8.49875
fw쎯	-8.49979
lkmi0쎯	-8.50103
dd쎯gajf쎯	-8.50138
mtd쎯	-8.50253
mqq쎯uh쎯	-8.50334
rdj쎯	-8.50347
쎆eee쎯	-8.50501
p쎯wh쎯	-8.50504
nty1쎯	-8.50554
qve쎯	-8.50632
pym쎯	-8.50634
e쎯ud쎯	-8.50647
yfd쎯	-8.50818
us쎯	-8.50921
wgj쎯	-8.50972
jj쎯	-8.50995
gs쎯	-8.51057
jn쎯jyie쎯	-8.51252
dwiu쎯	-8.51267
alw쎯	-8.513
td쎯ykw쎯	-8.51484
txg쎯	-8.51493
rj쎯ym쎯	-8.51634
um쎯og쎯	-8.51647
yvi쎯	-8.51672
w쎯n쎯	-8.51703
bnn2쎯	-8.51743
yy쎯aa쎯	-8.51946
uq쎯cep쎯	-8.52219
ruv쎯kkkk0쎯	-8.52222
qm쎯gmu1쎯	-8.52328
flf1쎯	-8.52835
xwy쎯	-8.53438
wfny0쎯xyc쎯	-8.53485
thgf0쎯	-8.53516
vfhp1쎯uu쎯	-8.53598
xqa쎯	-8.5368
ad쎯sg쎯	-8.53893
ttg쎯	-8.53899
et쎯gf쎯	-8.53921
xh쎯	-8.53993
rpv쎯	-8.54177
et쎯yne쎯	-8.54219
atd쎯ip쎯	-8.54226
psu쎯	-8.54323
ddu0쎯	-8.54406
m쎯jf쎯	-8.54477
tg쎯tr쎯	-8.54611
mw쎯pww쎯	-8.54614
yn쎯	-8.5462
os쎯	-8.5486
shn쎯	-8.55035
kg쎯	-8.55052
cqy쎯	-8.55389
dht쎯	-8.55405
:“	-8.55453
eu쎯	-8.55718
쎅eee쎯	-8.55725
qt쎯	-8.55748
ln쎯	-8.55821
yf쎯tha쎯sm쎯	-8.5584
ck쎯iyo쎯	-8.55919
qgj쎯	-8.55994
jn쎯pym쎯	-8.56414
pfq쎯dn쎯	-8.56449
yy쎯dm쎯	-8.56505
yiu쎯	-8.56578
jv쎯	-8.56607
rj쎯	-8.56729
ri쎯	-8.56799
wg쎯dm쎯	-8.56904
yf쎯aj쎯	-8.56905
ou쎯	-8.57363
iawn쎯	-8.57389
tx쎯dg쎯	-8.57582
fnw쎯	-8.57591
tu쎯dga쎯	-8.57615
a쎯anb0쎯	-8.57632
gu쎯yy쎯wc쎯jfd쎯	-8.57664
wwk쎯	-8.57853
ynt쎯	-8.58029
쎄eee쎯	-8.58038
s쎯fiy쎯	-8.58083
pgk쎯	-8.58106
xyy0쎯	-8.58343
ygh쎯	-8.58437
쎃eee쎯	-8.58623
rw쎯	-8.58822
w쎯tr쎯	-8.58842
wfhg쎯	-8.58863
iu쎯	-8.5895
wxj쎯	-8.58976
ylk2쎯	-8.59075
xv쎯	-8.59091
tmo쎯	-8.59154
pp쎯g쎯。	-8.59269
,dmj1쎯	-8.59288
ih쎯yu쎯	-8.5954
eb쎯	-8.59584
i쎯on쎯	-8.59594
pp쎯g쎯	-8.59635
iy쎯	-8.59691
puh쎯	-8.59786
aet0쎯	-8.59824
trf쎯qc쎯	-8.599
pf쎯	-8.59935
dc쎯	-8.60193
ovt쎯rnd1쎯	-8.60229
n쎯ytt쎯	-8.60412
nnw쎯	-8.6047
bg쎯	-8.60573
ip쎯sy쎯	-8.60628
tk쎯od쎯	-8.60691
gu쎯yy쎯oy쎯	-8.60817
tl쎯	-8.6082
sh쎯ud쎯	-8.6082
stx쎯	-8.60878
imgk쎯	-8.60891
ym쎯xe쎯	-8.61005
to쎯	-8.61154
p	-8.61239
......	-8.61251
ywx쎯yygy쎯	-8.6128
lc쎯	-8.61315
nnnn쎯x쎯	-8.61547
qsu쎯	-8.61564
cd쎯gn쎯	-8.61813
riu쎯	-8.61819
wh쎯w쎯	-8.61903
rta쎯	-8.62079
k쎯,	-8.62164
nyu쎯	-8.62309
iagw쎯	-8.62392
od쎯gajf쎯	-8.62449
wm쎯	-8.62522
sgn쎯	-8.62586
cw쎯	-8.62608
g쎯hxf쎯	-8.62611
tf쎯ght쎯	-8.62701
ght쎯ick쎯	-8.62705
be쎯	-8.63223
q쎯l쎯	-8.63247
hj쎯	-8.63255
qyvl쎯	-8.63403
tx쎯	-8.63445
ga쎯nae쎯	-8.63678
v쎯tg쎯	-8.63798
쎂쎀쎁쎀rh쎯	-8.63839
ntg쎯ce쎯	-8.63886
djb쎯	-8.63983
gae쎯dn쎯	-8.64027
thd쎯nng쎯r쎯	-8.64112
irr쎯ia쎯	-8.64127
gmww쎯wh쎯	-8.64168
qmq쎯	-8.64269
kha쎯	-8.64299
pu쎯gm쎯	-8.64357
pt쎯	-8.64481
c쎯h쎯	-8.645
wyc쎯	-8.64573
ywt쎯	-8.64643
ii쎯gu쎯	-8.64685
rjg0쎯wtf쎯	-8.64751
wmj0쎯	-8.64778
,wgkq0쎯	-8.64815
tak쎯	-8.6492
ad쎯dbm쎯	-8.64945
ad쎯f쎯	-8.65063
af쎯wgkb2쎯	-8.65237
ngk쎯	-8.65272
ylf0쎯	-8.65328
qtj쎯uu쎯	-8.6577
jyie쎯ktm쎯	-8.65821
wbj쎯wt쎯	-8.65834
eajd쎯	-8.65858
dp쎯gc쎯	-8.66007
tg쎯gf쎯	-8.66014
bk쎯og쎯	-8.66209
udp쎯	-8.66213
쎂쎄	-8.66311
ntf쎯	-8.66336
fiy쎯	-8.66594
xgu쎯	-8.6702
lh쎯kthh1쎯	-8.67029
ahty쎯	-8.67097
gk쎯og쎯	-8.67278
r쎯g쎯tkh쎯	-8.67284
ese쎯	-8.67322
klj쎯	-8.67327
yjs쎯tkgg0쎯	-8.67391
wtl쎯	-8.67422
,wb쎯	-8.67506
,ll쎯,	-8.67574
v쎯ge쎯	-8.67611
tg쎯,	-8.67629
ymc쎯ytb쎯	-8.67633
cd쎯	-8.67667
sgh쎯	-8.67995
lwx쎯	-8.68168
khgm4쎯	-8.68229
j쎯mh쎯	-8.68293
ugl쎯	-8.68339
kd쎯	-8.68376
v쎯gm쎯	-8.68386
wb쎯wu쎯	-8.68407
yjj0쎯	-8.68461
ndj쎯	-8.68474
gmy1쎯	-8.6852
uduk쎯	-8.68611
ukd0쎯jghm1쎯	-8.68641
jfc쎯	-8.6869
ftbt쎯rep쎯	-8.6869
fffy쎯	-8.68707
ftg쎯	-8.68857
atd쎯	-8.68875
synw쎯	-8.68972
pfjm1쎯	-8.69019
bi0쎯	-8.6907
fv쎯	-8.69107
sg쎯nnh쎯	-8.69122
ng쎯	-8.69153
yd쎯	-8.69252
ln쎯shn쎯	-8.69357
dn쎯al쎯	-8.6938
ygk쎯yyy쎯	-8.69537
sfi쎯	-8.69613
yfn쎯	-8.69734
쎁쎁eee쎯	-8.69745
thd쎯fcl쎯	-8.69788
rn쎯e쎯	-8.69895
fuk쎯udyj쎯	-8.69933
,mh쎯	-8.69939
yygy쎯wrh2쎯	-8.70014
j쎯rxj쎯	-8.70021
dga쎯pwv쎯tg쎯	-8.70089
yneg쎯	-8.7023
dl쎯	-8.70357
nm쎯	-8.70396
gny쎯	-8.70407
uwyc0쎯	-8.70427
쎃쎂	-8.70675
wt쎯ftj쎯	-8.70888
xl쎯eqn쎯	-8.70927
gef쎯rh쎯	-8.71034
dnv1쎯fqb1쎯	-8.71094
ugdu쎯sy쎯	-8.71128
djfd쎯oy쎯	-8.71183
wfg0쎯	-8.71199
uq쎯iyc쎯	-8.71229
tfqp쎯rcf쎯	-8.71296
쎂쎀쎀쎉rh쎯	-8.71375
ud쎯txi쎯	-8.71392
fcb쎯	-8.71516
iyw쎯	-8.71607
wsg0쎯yce쎯	-8.71663
x쎯cwg쎯	-8.71794
mt쎯	-8.71866
jb쎯dd쎯	-8.71946
mq쎯st쎯	-8.72005
ukh쎯	-8.7204
pu쎯cwg쎯	-8.72052
쎂쎈	-8.72094
oyvk0쎯	-8.72102
kwg쎯	-8.72126
dty쎯	-8.72188
alt쎯	-8.72208
gu쎯ck쎯	-8.72325
fcl쎯tr쎯	-8.72358
vn쎯	-8.72522
aq쎯fakg1쎯	-8.72536
rkk쎯wt쎯	-8.72767
ivw쎯	-8.72825
쎇쎀	-8.72964
qy쎯	-8.73111
tkgg0쎯	-8.73165
a쎯wt쎯。	-8.73187
sam쎯	-8.73264
etg쎯	-8.73359
fjk쎯	-8.73371
--	-8.73576
de쎯	-8.73644
wu쎯	-8.73702
dhb쎯	-8.73762
wycm0쎯nf쎯	-8.73816
wwj쎯	-8.73868
mmm쎯ai쎯ith쎯	-8.7391
gcft2쎯	-8.73952
djd쎯ipkh1쎯	-8.7397
fha쎯	-8.73973
wvt쎯	-8.74005
qgu쎯	-8.74054
jhny쎯	-8.74058
pynn0쎯	-8.74094
te쎯	-8.74099
gogj쎯	-8.74147
adk쎯	-8.74231
pu쎯ytb쎯	-8.74435
sdm쎯	-8.74583
wynb쎯	-8.74677
yygt쎯ai쎯	-8.74786
쎂쎂	-8.74843
peg쎯	-8.75031
w쎯wu쎯	-8.75123
dmjf1쎯	-8.75147
fj쎯ty쎯	-8.75159
iaw쎯	-8.756
iwf쎯	-8.75678
gku쎯	-8.75711
hi쎯	-8.75802
yv쎯	-8.75859
lks쎯	-8.75903
ye쎯	-8.75995
yygt쎯sghg1쎯	-8.76068
lqw쎯	-8.761
um쎯tl쎯	-8.76126
temk쎯	-8.76147
on쎯	-8.76187
bfw쎯	-8.76223
dga쎯pwv쎯rn쎯	-8.76255
hhhh쎯sfi쎯	-8.76327
wsk쎯	-8.76404
쎁eee쎯	-8.76438
g쎯fh쎯	-8.76546
r쎯g쎯wh쎯	-8.76549
)、	-8.76594
ugh쎯	-8.76657
da쎯	-8.76719
yygt쎯ytyh쎯	-8.76759
qve쎯tf쎯	-8.76795
fghy2쎯	-8.76799
lfhf쎯	-8.76844
kh	-8.77089
j쎯g쎯wh쎯	-8.77256
jty쎯ysi쎯	-8.77346
emc쎯	-8.77426
vi쎯	-8.7747
dyt쎯	-8.77551
ddm쎯fghg쎯	-8.77607
geq쎯	-8.77752
jq쎯	-8.77792
wt쎯et쎯	-8.77886
jyie쎯	-8.77941
y쎯rf쎯	-8.77967
jh쎯	-8.78054
wycm0쎯	-8.78116
ghd0쎯aa쎯	-8.78127
ytd쎯	-8.78145
fge쎯fghg쎯	-8.78223
qmgk0쎯	-8.78377
iyo쎯	-8.7844
hhhh쎯ue쎯	-8.78447
xqc쎯	-8.78566
pp쎯uj쎯	-8.78567
》tffu쎯	-8.78574
wg쎯gfi쎯	-8.78574
sy쎯	-8.7882
lfof5쎯	-8.78831
amd쎯l쎯	-8.78876
qr쎯kht쎯	-8.78897
fuj쎯	-8.79058
xn쎯	-8.79222
쎂쎀쎀쎄rh쎯	-8.79421
oat쎯	-8.80076
wyq쎯	-8.80147
쎃쎀쎀	-8.80185
gcf쎯wynb쎯	-8.80409
tkh쎯sfhg쎯	-8.80417
ght쎯tgm쎯	-8.80501
if쎯tvfh1쎯	-8.80548
wffg쎯	-8.80584
ia쎯alw쎯	-8.80641
uo쎯cep쎯	-8.80712
wc쎯kht쎯	-8.80752
su쎯	-8.80817
쎃쎅	-8.80976
x쎯fp쎯	-8.81169
쎄쎅	-8.81178
atd쎯ubk0쎯	-8.81268
wynk쎯	-8.81268
쎂쎃	-8.81323
bct쎯	-8.81388
uk쎯uyh쎯	-8.81408
iy쎯mm쎯	-8.8144
you1쎯	-8.81696
wcy2쎯	-8.81714
wygg쎯	-8.81769
yft쎯	-8.81855
i쎯ce쎯	-8.81929
amd쎯ygk쎯	-8.81929
wbj쎯	-8.8198
bt쎯	-8.81981
jghm1쎯	-8.81992
ryn0쎯	-8.82
dgv쎯	-8.82034
k쎯wxf쎯	-8.82058
yaa쎯	-8.82131
ide쎯fm쎯	-8.82146
myd쎯	-8.82303
wdn쎯	-8.82411
aw쎯m쎯	-8.82631
itk쎯	-8.82758
f쎯yy쎯	-8.82874
sf쎯tv쎯wf쎯	-8.82969
yf쎯	-8.8306
cbd쎯	-8.83124
kr쎯	-8.83195
tey쎯	-8.83453
tj쎯gc쎯	-8.83534
wf쎯yyq쎯	-8.83681
qqqq1쎯ntk쎯	-8.83733
xxe쎯	-8.83737
ldn쎯	-8.8375
wsg0쎯txi쎯	-8.83949
qng1쎯	-8.84032
tyg쎯	-8.84171
oug쎯	-8.84485
efcb쎯	-8.84507
bfm쎯	-8.84617
usr쎯ub쎯	-8.84766
w쎯n쎯ght쎯ywf쎯	-8.84815
pfjf0쎯	-8.84835
g쎯uqw쎯	-8.85101
ffi쎯	-8.85111
fggh쎯uk쎯	-8.85122
mh쎯gf쎯	-8.85319
pw쎯uj쎯	-8.85399
pv쎯ufy쎯	-8.85694
ytb쎯	-8.85733
ktn쎯	-8.85735
wb쎯r쎯	-8.8583
anb0쎯	-8.85865
wjg쎯	-8.85975
nkuf쎯	-8.85998
bgh쎯	-8.86007
pww쎯	-8.86022
dn쎯uu쎯gf쎯	-8.86043
,sk쎯	-8.8615
fhq쎯	-8.8616
xjm쎯	-8.86175
ptkm0쎯	-8.86277
yygt쎯ai쎯ith쎯	-8.86346
쎂쎀쎀쎃rh쎯	-8.86358
,cf쎯	-8.86432
xgb쎯	-8.86482
tg쎯dyn쎯	-8.86528
▁wc쎯ngk쎯	-8.86637
dcw쎯	-8.86741
btg쎯	-8.87016
hh쎯	-8.87043
tfq쎯tg쎯	-8.87056
wgi쎯	-8.87139
waw쎯	-8.87154
xx쎯lu쎯	-8.87323
pgj쎯wfny0쎯	-8.87372
nnh쎯if쎯	-8.87486
ldd쎯	-8.87493
tlf2쎯	-8.87761
eyb쎯	-8.87781
ip쎯tu쎯	-8.8781
fwm쎯saj쎯	-8.87851
ajt쎯	-8.87893
tgj쎯s쎯	-8.87941
gkih쎯	-8.87948
nh쎯ty쎯	-8.87951
fm쎯yiu쎯	-8.87961
fkuk4쎯	-8.88015
jb쎯ym쎯	-8.88047
~	-8.88115
isk쎯fm쎯	-8.8813
ftbt쎯sft쎯	-8.88251
쎁쎉쎉쎈rh쎯	-8.88254
쎂쎀쎀쎀rh쎯	-8.88259
yygy쎯je쎯	-8.88309
rs쎯tfkp쎯	-8.88328
ytyh쎯ymhj쎯	-8.88331
dga쎯v쎯	-8.88357
kkk쎯tkh쎯	-8.88503
uqt쎯js쎯	-8.88647
wgku1쎯	-8.88678
yss쎯	-8.88776
uxe쎯	-8.88842
abu쎯	-8.88946
fh쎯ruv쎯	-8.89074
j쎯g쎯tkh쎯	-8.89138
uda쎯	-8.89159
쎂쎆	-8.89215
qqqq1쎯gkm쎯	-8.8926
。《	-8.89412
,vcb쎯	-8.89441
ta쎯adwe1쎯	-8.89468
w쎯r쎯	-8.89489
쎅쎀쎀	-8.89656
tfl쎯l쎯	-8.89727
gkip2쎯	-8.89788
ntk쎯gf쎯	-8.89872
afl쎯	-8.8988
rq쎯	-8.89894
rwyg쎯yygt쎯	-8.89998
uqwm0쎯ou쎯	-8.90004
ha쎯	-8.90022
oo쎯	-8.90046
bm쎯tg쎯gf쎯	-8.90059
mwyc1쎯	-8.90181
쎂쎀쎀쎆rh쎯	-8.90204
iqc쎯	-8.90273
wgq쎯	-8.90274
fmk쎯	-8.90281
쎂쎀쎀쎂rh쎯	-8.90328
ltk쎯	-8.90381
쎂쎀쎀쎁rh쎯	-8.90468
nt쎯	-8.90527
nge쎯ukq쎯	-8.90856
sw쎯imj쎯	-8.90879
xuj쎯	-8.90963
ugm쎯gxgu쎯	-8.90985
gmd쎯	-8.91001
bm쎯gm쎯	-8.91152
ol쎯	-8.91269
wgkb2쎯	-8.91286
vs쎯	-8.91299
tq쎯o쎯	-8.91307
r쎯“	-8.91342
tkgg0쎯ycb쎯	-8.91397
pye쎯	-8.91441
wf쎯km쎯	-8.91563
tkw쎯se쎯	-8.91609
dn쎯km쎯	-8.91797
etj쎯	-8.91817
puhc쎯ygu쎯o쎯	-8.91867
oge쎯pyj쎯	-8.92002
jf쎯wa쎯	-8.92086
pei쎯sf쎯	-8.92089
qq쎯uqw쎯	-8.92105
yce쎯	-8.92117
ts쎯wrh2쎯	-8.92139
yjs쎯	-8.9225
vtkd1쎯	-8.92266
ce쎯qkqq쎯	-8.9228
pe쎯ytfp1쎯	-8.92296
쎂쎁	-8.92364
jn쎯eyb쎯	-8.92412
쎉쎀	-8.92443
wc쎯lfq쎯	-8.92475
wyo쎯	-8.92628
aqky1쎯	-8.92641
fku쎯	-8.92661
-쎁	-8.9275
qtj쎯	-8.92834
gae쎯aa쎯	-8.92862
hxx쎯	-8.9294
itd쎯	-8.92949
yy쎯tm쎯	-8.93075
xv쎯qc쎯	-8.93075
ycf쎯	-8.93081
h쎯r쎯	-8.93251
sm쎯ud쎯	-8.9342
,wug1쎯gf쎯	-8.93444
fpx쎯	-8.93453
dty쎯gk쎯	-8.93477
bu쎯wgk쎯	-8.93554
wye쎯	-8.93597
yygt쎯tfkf1쎯	-8.93607
쎂쎀쎀쎇rh쎯	-8.93681
ago쎯	-8.93928
jf쎯adwe1쎯	-8.94125
qje쎯	-8.94221
쎂쎀쎁쎁rh쎯	-8.94239
rx쎯uwy1쎯	-8.94259
synw쎯ny쎯	-8.94474
yy쎯wgj쎯	-8.94515
rvy쎯tf쎯	-8.94611
adf쎯	-8.94622
kha쎯yb쎯	-8.9472
aps쎯	-8.94746
rwyg쎯	-8.94862
ia쎯alw쎯ith쎯	-8.94959
uce쎯	-8.94986
ai쎯ux쎯	-8.95072
es쎯	-8.95117
dk쎯	-8.95127
ufy쎯qnth쎯	-8.95144
ybv쎯	-8.95168
dwt쎯	-8.95262
fyv쎯	-8.95275
tfkp쎯	-8.95284
u쎯tg쎯	-8.9532
pfj쎯	-8.95326
ymd쎯	-8.95355
dt쎯egl쎯	-8.95362
rgf쎯	-8.9538
쎂쎀쎀쎈rh쎯	-8.95392
jvko쎯	-8.95457
hao쎯	-8.95479
ey쎯adw쎯	-8.95521
ec쎯	-8.95572
쎂eee쎯	-8.95685
lw쎯wc쎯pgc쎯	-8.95787
fkhk쎯	-8.95843
ywu쎯	-8.95843
pym쎯hid쎯	-8.95899
a쎯wt쎯,	-8.96131
rmc쎯	-8.96194
wr쎯	-8.96301
ui쎯	-8.96317
ith쎯xe쎯	-8.96499
lft쎯bw쎯	-8.96595
eg쎯	-8.96713
wxm쎯	-8.96732
sfc쎯	-8.96735
ib쎯	-8.96746
fwm쎯pg쎯	-8.96767
twt쎯	-8.969
cy쎯	-8.96907
bn쎯j쎯	-8.96908
apg쎯	-8.9694
udj쎯	-8.96983
qq쎯tkh쎯	-8.97046
sgn쎯ddu0쎯	-8.97066
》(	-8.9711
mc쎯	-8.97325
gjh2쎯	-8.97415
apk쎯qie쎯	-8.97432
sghg1쎯fm쎯	-8.9751
syg쎯	-8.97527
ftjb쎯j쎯	-8.97626
yaa쎯cwg쎯	-8.97924
ufk0쎯	-8.97959
wwj쎯wfhg쎯	-8.97972
oi쎯	-8.9817
쎂쎀쎀쎀	-8.98233
ge쎯dm쎯	-8.98324
쎁쎉쎉쎇rh쎯	-8.98334
xeg쎯dn쎯	-8.98393
if쎯l쎯	-8.98574
ih쎯jf쎯	-8.9863
pgj쎯	-8.98644
bm쎯tg쎯,	-8.98706
ggi쎯wk쎯	-8.98769
pvs쎯	-8.98884
thp쎯	-8.9895
wdn쎯rfm쎯	-8.98979
쎁쎉쎉쎉rh쎯	-8.99019
imkf1쎯	-8.99057
qkhh1쎯	-8.99156
irr쎯ia쎯ith쎯	-8.99297
。yynw1쎯	-8.99337
,vk쎯	-8.99409
tmdf1쎯	-8.99479
tgh쎯	-8.99481
×	-8.99573
jb쎯dd쎯r쎯	-8.99691
ebn0쎯	-8.99692
www쎯	-8.99724
p쎯hxf쎯	-8.99786
gxgu쎯	-8.99805
pv쎯tmgt1쎯	-9.00035
v쎯tf쎯	-9.00179
jo쎯	-9.00183
an쎯xn쎯	-9.00195
yw쎯ygh쎯	-9.00219
uqwk쎯yqj쎯	-9.00237
l쎯mw쎯qh쎯	-9.00259
lm쎯	-9.00282
nyi2쎯fghy0쎯	-9.00294
kn쎯	-9.00316
qq쎯rh쎯	-9.00375
쎁쎉쎉쎆rh쎯	-9.00414
p쎯tkh쎯	-9.00482
r쎯v쎯nae쎯	-9.00499
fcp쎯tf쎯	-9.0059
qf쎯	-9.0065
?	-9.00738
fl쎯	-9.00776
bwf쎯	-9.00822
gcft2쎯lt쎯gf쎯	-9.00864
qkm쎯	-9.00914
ifh1쎯	-9.00943
rlg쎯	-9.01019
rvyl쎯	-9.01144
tfq쎯rg쎯	-9.01207
qtfj1쎯	-9.01269
fo쎯	-9.01406
imk쎯	-9.01665
。wb쎯	-9.01807
a쎯hw쎯	-9.01814
qt쎯ujff쎯	-9.01828
yjs쎯jghm1쎯	-9.01856
tuu쎯	-9.01883
dtf쎯	-9.0193
tffh1쎯uthp쎯	-9.01965
tfp쎯	-9.0197
vep쎯	-9.02091
rmhj쎯ya쎯	-9.02166
bqr쎯	-9.0222
sqt쎯	-9.0222
sgi쎯	-9.02313
쎃쎆	-9.02371
,i쎯	-9.02379
wtf쎯tl쎯	-9.02483
nty1쎯af쎯	-9.02661
sk쎯ce쎯	-9.02729
pu쎯bf쎯	-9.02756
jf쎯imkf1쎯	-9.02796
tdkj쎯	-9.02811
pfq쎯wg쎯	-9.0285
jgm쎯aib쎯dd쎯ip쎯	-9.02908
mm쎯	-9.02954
yfj쎯	-9.02978
쎂쎀쎀쎅rh쎯	-9.03007
ca쎯	-9.03272
ud쎯gf쎯	-9.03289
lpk0쎯xfn쎯	-9.03445
do쎯	-9.03524
pp쎯g쎯,	-9.03526
ysi쎯	-9.03605
k쎯aw쎯	-9.03678
qyng쎯	-9.03682
bm쎯tg쎯	-9.03817
gkip2쎯ya쎯	-9.0382
ymc쎯e쎯	-9.03895
k쎯atd쎯	-9.03965
uwl쎯	-9.04112
yad쎯	-9.04127
uqt쎯	-9.04135
쎁쎉쎉쎅rh쎯	-9.04206
eyni쎯	-9.04326
pei쎯n쎯	-9.04348
ian0쎯	-9.04351
ytf쎯	-9.04467
ajdf쎯	-9.04485
iyt0쎯	-9.04603
lud쎯	-9.04725
sj쎯	-9.0473
ak쎯ftj쎯	-9.04764
dhc쎯	-9.04911
=	-9.0492
fp쎯tkgg0쎯	-9.04941
lh쎯kthh1쎯ith쎯	-9.04957
wqin쎯	-9.05005
wgc쎯	-9.05031
》,	-9.05056
f쎯rfm쎯	-9.05181
nnh쎯gl쎯	-9.05223
wj쎯xvk쎯	-9.05282
ypm쎯	-9.05378
,uqf쎯	-9.05495
gm쎯e쎯	-9.05538
wkh쎯fj쎯	-9.05572
ytb쎯a쎯	-9.05591
isk쎯ux쎯	-9.05602
god쎯	-9.05616
aqq쎯	-9.05696
wv쎯klj쎯	-9.05701
drt쎯	-9.05718
*	-9.05769
rrr쎯qc쎯	-9.05854
ssq쎯	-9.05859
wbj쎯tfkp쎯	-9.05914
쎂쎇	-9.05926
mp쎯	-9.05933
rpw쎯	-9.05938
gtu쎯	-9.05979
sghg1쎯ux쎯	-9.06018
quj쎯	-9.0605
w쎯od쎯	-9.06087
mhkg2쎯	-9.06107
uqwm0쎯	-9.06216
vkgd쎯qi쎯	-9.0626
tsh0쎯	-9.06266
aig쎯	-9.06286
,px쎯	-9.06334
ukd0쎯	-9.06342
xu쎯	-9.06345
▁《	-9.06374
qyv쎯jqr쎯	-9.06506
tuj쎯	-9.0654
aqq쎯iyt0쎯	-9.06773
inx쎯	-9.06796
ffff5쎯f쎯	-9.06801
kkk쎯rfm쎯	-9.0688
pwat쎯	-9.06883
gm쎯wtf쎯	-9.06889
isk쎯fm쎯ith쎯	-9.06916
쎁쎉쎉쎃rh쎯	-9.07181
p쎯g쎯	-9.07208
gd쎯ivfh1쎯	-9.07242
yv쎯vb쎯r쎯	-9.07288
bd쎯	-9.07297
euk쎯	-9.07371
igt쎯	-9.07518
wv쎯o쎯	-9.07567
yssd0쎯	-9.07611
wug1쎯lfhf쎯	-9.07614
iv쎯jf쎯	-9.07631
gxi쎯rfm쎯	-9.07644
qm쎯	-9.07673
jo쎯fi쎯	-9.07763
xyna0쎯lkb쎯	-9.07815
aft쎯	-9.07987
wg쎯uk쎯	-9.08051
pu쎯khg쎯	-9.08183
ijl쎯ya쎯	-9.08204
wfny0쎯rtol1쎯	-9.08221
op쎯	-9.08242
fcu0쎯fm쎯	-9.08333
o쎯b쎯	-9.08371
gm쎯d쎯	-9.08379
yw쎯o쎯	-9.08478
my쎯	-9.08562
yps쎯	-9.08699
wqu쎯	-9.08719
iyj쎯	-9.0881
naw쎯	-9.08887
ge쎯gm쎯	-9.08923
rtf쎯	-9.08955
imj쎯	-9.09017
>	-9.09045
im쎯	-9.09091
utd쎯ugm쎯	-9.09147
쎁쎉쎉쎂rh쎯	-9.09179
yt쎯ty쎯	-9.09195
e쎯uqt쎯	-9.09359
id쎯	-9.09367
ugv쎯	-9.09383
fjfh1쎯	-9.09393
ajd쎯	-9.09453
bq쎯	-9.09556
l쎯pe쎯xe쎯	-9.09634
aps쎯aqt쎯	-9.09638
fkuc1쎯	-9.09717
ffuk쎯	-9.09729
f쎯th쎯	-9.09918
ygu쎯	-9.09941
쎁wh쎯	-9.09959
qnth쎯	-9.09966
ub쎯	-9.09972
jcf쎯rf쎯	-9.09989
lfnh쎯	-9.09992
gae쎯qje쎯	-9.10074
:쎁	-9.10166
hka쎯ltk쎯	-9.10285
ide쎯ux쎯	-9.10315
uq쎯jqr쎯	-9.10375
kjj쎯	-9.10378
ipk쎯km쎯	-9.10564
ipg쎯	-9.10679
,ww쎯	-9.10783
tr쎯gj쎯	-9.10931
km쎯a쎯	-9.10946
ju쎯	-9.10971
쎃쎃	-9.11003
afd0쎯	-9.11123
aib쎯lfnh쎯	-9.11185
mf쎯	-9.11224
fpm쎯	-9.11365
jlc쎯	-9.11405
io쎯	-9.11455
tuk쎯	-9.11557
。adw쎯	-9.11608
,k쎯l쎯	-9.11634
쎁쎉쎈쎄rh쎯	-9.11726
tffy0쎯	-9.11743
sft쎯	-9.11783
쎄쎈	-9.11882
jtyl쎯hich쎯	-9.11913
ux쎯yiu쎯ymhj쎯	-9.11933
uyiy0쎯	-9.1205
ytey쎯	-9.1207
tdp쎯	-9.12087
qn	-9.1209
n쎯uj쎯	-9.12109
xxr쎯	-9.12255
ijo쎯	-9.1242
mhny0쎯	-9.12502
and쎯	-9.12609
egl쎯	-9.12626
lpk0쎯ruv쎯	-9.12634
dga쎯	-9.12686
wx쎯a쎯	-9.12724
fwm쎯aib쎯	-9.12817
usg쎯	-9.12829
iqn쎯	-9.12846
c쎯go쎯	-9.12941
udb쎯	-9.12978
wk쎯bwg쎯	-9.12993
rnr쎯	-9.13002
qkd쎯	-9.1309
tgj쎯yd쎯	-9.1309
wwv쎯	-9.13132
fgh쎯wv쎯	-9.13153
gr쎯	-9.13228
fdm쎯fiy쎯	-9.1328
ge쎯fi쎯	-9.13304
h쎯itx쎯ymhj쎯	-9.13357
jn쎯lt쎯	-9.13363
tdp쎯wgk쎯	-9.13436
aj쎯	-9.13451
쎁쎉쎉쎄rh쎯	-9.13526
ftjo1쎯	-9.13538
hka쎯qv쎯	-9.13569
vck쎯	-9.13664
pyj쎯x쎯	-9.13721
trf쎯tgh쎯	-9.13727
suq쎯lfq쎯	-9.13728
yle쎯	-9.13809
pu쎯cwg쎯pgc쎯	-9.1404
쎄쎀쎀	-9.14148
。wc쎯ngk쎯	-9.14155
o쎯y쎯	-9.14236
gmi쎯	-9.14353
yo쎯wx쎯	-9.14395
fhc쎯	-9.14453
rr쎯	-9.14467
qrm쎯	-9.14476
ifj쎯	-9.14552
at쎯	-9.14598
wwx쎯	-9.14623
vcl쎯lt쎯	-9.14636
pyg쎯vfhp1쎯	-9.14747
so쎯	-9.14884
apl쎯fcl쎯	-9.15075
ynk쎯	-9.15133
wt쎯pe쎯	-9.1519
rc쎯yid쎯	-9.15206
,dty쎯	-9.15232
lwg쎯bm쎯	-9.15268
,ccc쎯	-9.15402
iagw쎯khu쎯	-9.15435
lpdk0쎯	-9.15527
epc쎯gc쎯	-9.15609
2쎯	-9.15651
swb쎯	-9.15883
sf쎯vii쎯ntk쎯gf쎯	-9.1591
af쎯	-9.1592
wwj쎯st쎯	-9.15948
tfkd쎯	-9.16012
yygt쎯fnrt쎯	-9.16088
uqwm0쎯qqqq1쎯	-9.16184
da쎯dk쎯	-9.16229
ftg쎯yaa쎯	-9.16233
wv쎯dmh쎯	-9.1634
wnh쎯	-9.1635
jc쎯	-9.16369
iugg0쎯	-9.16416
ovt쎯ip쎯	-9.16459
fjfh1쎯l쎯	-9.16471
rbcc쎯jyie쎯	-9.16514
sff0쎯	-9.16539
yge쎯	-9.1656
bgk쎯	-9.16654
maw쎯	-9.16662
ws쎯usi0쎯	-9.16697
wbj쎯vfhp1쎯	-9.16826
yc쎯	-9.16877
we쎯	-9.16976
dgj쎯	-9.17047
dhb쎯d쎯	-9.17062
ip쎯dl쎯	-9.17103
tep쎯	-9.17199
apl쎯	-9.17235
adw쎯px쎯	-9.17369
tkw쎯	-9.17454
wuk쎯	-9.17484
wa쎯gj쎯	-9.1749
fhn쎯go쎯	-9.1762
um쎯kkk쎯	-9.17666
ytf쎯qq쎯	-9.17677
nh쎯adnt1쎯	-9.17692
enr쎯	-9.17823
mmq쎯	-9.17856
rt쎯sm쎯	-9.17951
r쎯tgj쎯s쎯	-9.17999
ymc쎯uu쎯	-9.18113
ia쎯sghg1쎯	-9.1817
yygt쎯itp쎯	-9.1818
rnd1쎯	-9.18241
un쎯pg쎯	-9.18242
쎆쎀쎀	-9.18244
쎂쎀쎁쎂rh쎯	-9.18254
,bn쎯	-9.1827
fhv쎯fp쎯	-9.18276
쎁쎉쎈쎅rh쎯	-9.18278
hid쎯	-9.18302
yyq쎯	-9.18343
tdaf쎯	-9.18366
g쎯su쎯	-9.18704
alf쎯	-9.18706
oq쎯	-9.18714
fjh0쎯	-9.18797
쎃쎈	-9.18889
jb쎯wffg쎯	-9.18944
qn쎯ufy쎯	-9.18975
lw쎯ip쎯	-9.19029
wk쎯rf쎯	-9.19083
tf쎯o쎯	-9.19121
xxf쎯og쎯	-9.19174
tdn쎯	-9.19212
》。	-9.19257
apk쎯udyj쎯	-9.19263
xtu쎯	-9.19264
gogn쎯	-9.19311
qq쎯wh쎯	-9.19324
gyg1쎯	-9.19425
ynty쎯	-9.19427
sss쎯	-9.19564
bde쎯udh쎯	-9.19574
》j쎯	-9.19588
wv쎯qkhh1쎯	-9.19624
jn쎯idr쎯	-9.19677
khgp0쎯	-9.19684
oy쎯,	-9.19689
ivfh1쎯	-9.19693
du쎯	-9.19701
fmy1쎯	-9.19742
nua쎯	-9.19816
쎈쎀쎀	-9.19944
쎃쎁	-9.20028
saj쎯	-9.20115
nd쎯n쎯	-9.20127
dd쎯ih쎯	-9.2016
trf쎯klj쎯	-9.2016
adwe1쎯uj쎯	-9.20215
ah쎯	-9.20237
fu쎯lk쎯	-9.20308
g쎯ts쎯	-9.20369
r쎯dga쎯pwv쎯	-9.2037
bd쎯rjg0쎯	-9.20482
g쎯fhn쎯	-9.20487
qv쎯	-9.20511
ovt쎯pb쎯	-9.20592
ieb쎯	-9.20634
bw쎯wgg0쎯	-9.20661
yygt쎯dd쎯	-9.20661
ipw쎯fkh쎯	-9.20686
www쎯qq쎯	-9.20785
쎁쎉쎈쎈rh쎯	-9.20831
pfq쎯	-9.20875
mmm쎯aq쎯	-9.20892
wk쎯ygh쎯	-9.20958
kw쎯e쎯	-9.21063
nnw쎯gkip2쎯	-9.21088
rrk쎯ip쎯	-9.21136
ke쎯	-9.21161
wwf쎯	-9.21166
vtk쎯www쎯	-9.21213
fd쎯aq쎯	-9.21219
pd쎯	-9.21318
pv쎯tmgt1쎯ith쎯	-9.21321
lk쎯xk쎯	-9.21323
y쎯yq쎯	-9.21329
wyp쎯	-9.21408
kc쎯	-9.21408
wdn쎯rvyl쎯	-9.21481
pfqf쎯	-9.21499
yfn쎯ftj쎯	-9.2152
mdfj쎯	-9.21544
gu쎯fqu쎯	-9.21665
egc쎯fd쎯	-9.21677
imj쎯yaa쎯	-9.21694
go쎯thd쎯	-9.2176
gip쎯e쎯	-9.21795
wc쎯jfd쎯	-9.21816
lwg쎯ty쎯	-9.21822
wyna쎯	-9.2186
udg2쎯	-9.21893
sfg쎯	-9.21969
oh쎯	-9.22002
▁쎂.	-9.221
igey쎯	-9.22122
wc쎯aw쎯	-9.22217
udy쎯dyn쎯	-9.22259
icf쎯	-9.22287
ymf쎯sj쎯	-9.22291
xo쎯	-9.22381
dn쎯xgm쎯	-9.2246
ide쎯ux쎯ith쎯	-9.22511
wn쎯	-9.2253
tux쎯	-9.22545
yxu쎯	-9.22651
itf쎯	-9.22662
ym쎯k쎯	-9.22752
fcp쎯lwg쎯	-9.22765
ahn쎯	-9.22773
xyc쎯yf쎯	-9.22833
dg쎯wh쎯	-9.22864
tx쎯lh쎯	-9.229
쎂쎉	-9.22911
vaf쎯wsg0쎯	-9.23014
ef쎯	-9.23072
’	-9.23114
yk쎯xan쎯	-9.23124
gkl쎯y쎯wtf쎯	-9.23141
yssc2쎯	-9.23225
db쎯ukd0쎯	-9.23262
gqje쎯	-9.23338
쎁쎉쎉쎀rh쎯	-9.23386
fiyt쎯	-9.23407
gkih쎯wh쎯	-9.23495
thd쎯mh쎯	-9.23567
tr쎯rfm쎯	-9.23661
ytm쎯	-9.23747
쎁쎀쎀쎀	-9.23851
쎃쎄	-9.23913
tr쎯iyc쎯	-9.24041
tha쎯	-9.24058
tg쎯ta쎯	-9.24135
ylf0쎯,	-9.24258
eq쎯	-9.24267
wf쎯yf쎯	-9.24302
tqq쎯fcl쎯	-9.2438
yta쎯	-9.24536
dwf쎯	-9.2458
aca쎯	-9.24609
xyc쎯	-9.24645
(wynb쎯	-9.24674
xyc쎯g쎯	-9.24857
ipm쎯	-9.24858
y쎯yam쎯	-9.24937
쎁쎉쎈	-9.24954
qg	-9.2506
fcu0쎯fm쎯ith쎯	-9.25151
dh쎯pgk쎯r쎯	-9.25242
tg쎯wgkb2쎯	-9.2529
xln1쎯	-9.25356
ymc쎯lfhf쎯	-9.25365
,gn쎯	-9.25383
ytfp1쎯	-9.25399
qh쎯tu쎯	-9.25403
wnnp쎯	-9.25432
k쎯yygy쎯	-9.25491
ym쎯gkip2쎯	-9.25552
ime쎯	-9.25674
tdt쎯	-9.25675
mfky쎯	-9.25735
cep쎯wy쎯	-9.25742
nny0쎯	-9.25807
쎁쎉쎈쎆rh쎯	-9.25869
ide쎯fm쎯ith쎯	-9.25906
vck쎯vfhp1쎯gf쎯	-9.25927
dyn쎯	-9.25946
,y쎯s쎯	-9.25983
qev쎯un쎯	-9.25986
kfa쎯	-9.2607
uqv쎯	-9.26237
tqv쎯pg쎯	-9.26339
wwkw1쎯	-9.26346
tdkj쎯ce쎯	-9.26353
쎁쎉쎈쎇rh쎯	-9.26393
tdij쎯	-9.26405
ip쎯ftj쎯	-9.26477
xm쎯	-9.26548
tgj쎯dd쎯	-9.26579
iv쎯f쎯	-9.2666
qk쎯。	-9.26812
sksw쎯ma쎯	-9.26851
o쎯g쎯wsg0쎯r쎯	-9.26868
khn쎯	-9.26902
ad쎯qqqq1쎯	-9.2694
fg쎯fgh쎯	-9.26956
쎇쎅	-9.2696
sg	-9.26984
alp쎯	-9.27179
vca쎯	-9.27285
vs쎯fn쎯	-9.27316
ym쎯ya쎯	-9.27326
gm쎯wa쎯wx쎯	-9.27331
vx쎯	-9.27335
nhy쎯	-9.27356
yvcb쎯	-9.27369
hka쎯ufk0쎯	-9.27384
pfq쎯uduk쎯	-9.27455
fg쎯tffu쎯uqd0쎯	-9.27491
nt쎯edm쎯	-9.27518
ld쎯o쎯	-9.27535
tvr쎯	-9.27588
jhng쎯	-9.27672
mhg쎯	-9.27678
ee쎯dc쎯	-9.27694
,m쎯jf쎯	-9.27717
pr쎯	-9.2773
jce쎯	-9.27857
oe쎯	-9.27897
jb쎯usr쎯	-9.27948
tvfh1쎯	-9.2799
od쎯gajf쎯:	-9.28217
thn쎯	-9.28292
mmm쎯sghg1쎯	-9.28293
gah쎯ic쎯	-9.28301
yoo쎯	-9.28389
iv쎯wa쎯	-9.28453
dh쎯pgk쎯	-9.28484
ay쎯	-9.28506
td쎯qk쎯	-9.28506
cf쎯gf쎯	-9.28527
sw쎯	-9.28545
wksf쎯	-9.28547
falw쎯	-9.28563
sym쎯ytyh쎯	-9.28593
bc쎯tj쎯	-9.28598
wny0쎯	-9.28656
pp쎯rg쎯	-9.28672
쎆쎄	-9.28762
pfjs쎯	-9.28833
yf쎯tha쎯	-9.28841
fii쎯go쎯	-9.28877
sri쎯	-9.28878
aft쎯qk쎯r쎯	-9.28881
ip쎯wug1쎯	-9.28922
wg쎯sf쎯	-9.28973
gip쎯j쎯	-9.29076
gbnm0쎯	-9.29078
kk쎯	-9.29237
bynw0쎯bb쎯	-9.29315
uthp쎯kht쎯	-9.29379
iyv쎯	-9.29447
wtf쎯wsk쎯	-9.29479
vtkb쎯	-9.29533
bv쎯	-9.29548
nu쎯	-9.29552
dn쎯js쎯	-9.29628
rpv쎯jvko쎯	-9.29662
vk쎯wsk쎯	-9.29673
gj쎯wynn3쎯	-9.29704
bgu쎯sghg1쎯	-9.29709
0쎯	-9.29755
tve쎯qq쎯	-9.2979
yygy쎯anb0쎯	-9.29855
ftj쎯,	-9.29916
rj쎯tak쎯	-9.29932
v쎯dmh쎯	-9.30012
pyg쎯vfhp1쎯ith쎯	-9.30029
fge쎯tr쎯qnp쎯	-9.30077
jn쎯ytd쎯	-9.30112
jcm쎯	-9.30131
fwm쎯st쎯	-9.30151
upy쎯	-9.30152
wv쎯bb쎯	-9.3016
nyiy0쎯	-9.30294
y쎯jghm1쎯	-9.30304
ybf0쎯epc쎯	-9.30355
ykw쎯	-9.30372
iyc쎯tf쎯	-9.3046
ttd쎯	-9.30583
yuo쎯	-9.30644
dmu0쎯	-9.30682
tqq쎯	-9.30701
oa쎯	-9.30725
aft쎯wt쎯	-9.30761
tcy쎯	-9.30793
ccc쎯tq쎯	-9.3086
ydn쎯	-9.30891
sh쎯cf쎯	-9.30925
쎁쎉쎈쎉rh쎯	-9.30926
o쎯“	-9.30962
쎁쎉쎈쎂rh쎯	-9.30972
di쎯	-9.31038
dgh쎯wa쎯	-9.3108
,et쎯	-9.31082
ral쎯syp쎯	-9.31113
fhh쎯	-9.31114
qie쎯	-9.31162
tduh쎯	-9.31198
,gmf쎯	-9.31204
goi쎯	-9.31213
dga쎯rmhj쎯	-9.31274
fcp쎯et쎯	-9.3135
oyn쎯	-9.31445
vf쎯	-9.31456
tb쎯	-9.31459
'	-9.3146
mw쎯uk쎯	-9.31462
hw쎯wsg0쎯	-9.31471
쎁.	-9.31518
쎁쎉쎉쎁rh쎯	-9.31551
ufk0쎯qv쎯	-9.31573
,hw쎯e쎯	-9.31612
siq쎯	-9.31759
ipg쎯km쎯	-9.31782
rcy0쎯	-9.3179
쎃쎇	-9.31817
c쎯gh쎯	-9.31967
i쎯m쎯r쎯	-9.32008
pgf1쎯	-9.32022
imj쎯jg쎯	-9.3209
wk쎯wvf쎯	-9.3223
cep쎯ipkh1쎯	-9.32252
e쎯udh쎯	-9.32312
gkih쎯wsg0쎯	-9.32367
hn쎯	-9.32419
wfh1쎯tc쎯	-9.32483
thd쎯ick쎯aq쎯	-9.32485
fgh쎯fg쎯	-9.32514
pj쎯	-9.32558
fi쎯aib쎯	-9.32579
ukn쎯dm쎯tkw쎯	-9.32629
yygt쎯rtol1쎯	-9.32645
g쎯av쎯	-9.32677
rmhj쎯pg쎯	-9.32681
mqj쎯	-9.32738
b쎯qev쎯	-9.32835
jy쎯cm쎯	-9.32896
쎆쎅	-9.32919
pu쎯et쎯	-9.3296
xeg쎯wgk쎯	-9.33013
gqg1쎯	-9.33082
ssn쎯	-9.33103
tdp쎯yid쎯	-9.33176
rffg쎯	-9.33316
wnnp쎯fiy쎯	-9.33377
,rn쎯c쎯	-9.33402
tuj쎯ujfj쎯	-9.3341
ajdh쎯	-9.33416
tf	-9.33465
trf쎯gqr쎯	-9.33574
tgm쎯aj쎯	-9.33646
r쎯fny쎯og쎯	-9.33669
ny쎯gj쎯	-9.33674
ufy쎯lfhf쎯	-9.33701
dn쎯ta쎯	-9.33841
uygh1쎯	-9.33854
g쎯rh쎯	-9.33882
trf쎯hko쎯	-9.33978
x쎯maw쎯	-9.34004
》《	-9.34045
au쎯	-9.34146
rj쎯bm쎯	-9.34193
db쎯	-9.34216
,c쎯ey쎯	-9.34249
rmhj쎯kkk쎯	-9.34253
sfiu0쎯	-9.34402
hwb쎯	-9.34412
wk쎯buj쎯	-9.34442
tgjn0쎯	-9.34509
xa쎯qc쎯	-9.34566
wc쎯jfd쎯,	-9.34568
isk쎯ux쎯ith쎯	-9.3475
xyna0쎯pgn쎯	-9.34781
xww쎯	-9.34783
le쎯	-9.3494
qk쎯tq쎯	-9.34941
wbj쎯lw쎯	-9.35004
lw쎯wc쎯	-9.35045
e쎯sm쎯	-9.3506
tkgg0쎯ya쎯	-9.35064
rnu쎯	-9.35091
ghc쎯gyb쎯	-9.35128
ryl쎯ta쎯	-9.3517
...	-9.35293
dfy쎯lt쎯	-9.35348
wfk쎯	-9.35414
ym쎯suq쎯	-9.35504
g쎯tffu쎯uqd0쎯	-9.35506
tffu쎯f쎯	-9.35516
ym쎯tffu쎯	-9.35525
bm쎯kkkk0쎯	-9.35595
g쎯pg쎯	-9.35794
khu쎯gfi쎯	-9.35859
pyu쎯	-9.35935
,puhc쎯	-9.36
qkq쎯xjm쎯	-9.36047
lt쎯jg쎯	-9.36057
sghg1쎯pv쎯	-9.36146
yvc쎯	-9.36183
bu쎯txi쎯	-9.36254
°	-9.36295
cccs3쎯	-9.36371
pwd쎯bm쎯	-9.36371
lfo쎯qc쎯	-9.36407
qdm쎯	-9.36409
sg쎯tu쎯	-9.36472
ipkr쎯	-9.36507
usr쎯r쎯	-9.36533
c쎯go쎯,	-9.36534
akgl쎯	-9.36591
qvn2쎯	-9.36649
xx쎯pfjm1쎯	-9.36659
jcf쎯	-9.36678
dr쎯ou쎯	-9.36682
pl쎯gk쎯	-9.36709
wycb쎯	-9.36713
nf쎯ipg쎯	-9.36761
ai쎯fm쎯	-9.36825
uk쎯bw쎯	-9.36827
,bn쎯j쎯	-9.36841
tfhy쎯	-9.36868
dga쎯pwv쎯bpf쎯	-9.36951
xwy쎯ryn0쎯	-9.36972
nae쎯fi쎯	-9.37031
、k쎯l쎯	-9.37077
gkh0쎯	-9.37082
wyq쎯kkd쎯	-9.37085
gd쎯qd쎯	-9.37109
,rg쎯	-9.37117
bk쎯a쎯	-9.37129
ufy쎯tlf2쎯	-9.3724
aqu1쎯	-9.37296
tdp쎯jg쎯	-9.37386
1쎯	-9.37436
xo쎯xfn쎯	-9.37465
rdfh1쎯	-9.37612
vcb쎯sk쎯	-9.37617
..	-9.37635
rb1쎯tfkf1쎯	-9.37668
qkq쎯	-9.37701
쎁-	-9.37769
ll쎯,	-9.37822
쎁쎉쎈쎃rh쎯	-9.37935
dg쎯rh쎯	-9.37941
ngj쎯	-9.37952
yssr쎯	-9.37954
ftb쎯	-9.37977
dn쎯ftjb쎯	-9.38028
ujn쎯yq쎯	-9.38056
eb쎯ufy쎯	-9.381
ym쎯uqt쎯	-9.38108
txgi2쎯	-9.38221
fp쎯tkgg0쎯k쎯	-9.38246
aqrn0쎯	-9.38253
mw쎯apg쎯dgh쎯	-9.38284
쎅쎅	-9.38348
qge쎯	-9.38364
cel쎯	-9.38365
fuj쎯mw쎯	-9.38488
iie쎯xjm쎯ftj쎯	-9.38492
vtg쎯	-9.38609
uqi쎯	-9.38696
dgkn쎯ivs쎯	-9.38759
wv쎯od쎯	-9.38902
usr쎯gajf쎯	-9.38927
sghg1쎯uk쎯	-9.39062
r쎯y쎯s쎯	-9.39134
ifw쎯	-9.3916
ydn쎯wy쎯	-9.3921
mqc쎯	-9.39309
。px쎯	-9.39322
ymf쎯gkih쎯	-9.39468
fwyc2쎯	-9.39604
xtf쎯xwy쎯	-9.39619
jtyl쎯	-9.39651
wdy1쎯	-9.39664
usr쎯xfg쎯	-9.39687
vq쎯	-9.39809
ai쎯yy쎯	-9.39881
px쎯wu쎯	-9.39933
am쎯	-9.39945
tu쎯rfc쎯fj쎯hi쎯	-9.39959
vfhp1쎯dn쎯	-9.40025
y쎯xyna0쎯	-9.40058
cd쎯ftg쎯	-9.40081
khd쎯	-9.40105
pdc쎯	-9.40109
);	-9.40148
nhj쎯	-9.40198
g쎯xe쎯	-9.40263
fnud쎯	-9.40422
yygy쎯pb쎯	-9.40447
rpws쎯	-9.40498
xf쎯js쎯	-9.4051
mnm쎯	-9.40585
iwt쎯	-9.40655
mf쎯ght쎯	-9.40661
fcn쎯	-9.40746
,p쎯	-9.40758
un쎯	-9.40801
ipg쎯bm쎯	-9.40849
lftj쎯	-9.40852
esv쎯	-9.4087
dr쎯gj쎯	-9.40935
ujn쎯dd쎯tjh쎯	-9.40959
atd쎯ax쎯	-9.41145
tca쎯	-9.41222
f쎯gh쎯	-9.41252
txg쎯rh쎯	-9.41336
fgu쎯	-9.41352
rdf1쎯	-9.41369
utk쎯	-9.41406
je쎯jo쎯	-9.41412
ujqu쎯	-9.41548
ge쎯ipg쎯	-9.41731
h쎯,	-9.4174
gh쎯,	-9.41873
쎄쎂	-9.41943
<	-9.4198
tfkf1쎯	-9.41989
aib쎯	-9.42011
fi쎯	-9.4206
쎂.쎀	-9.42101
fny쎯og쎯r쎯	-9.42224
ngc쎯	-9.4224
i쎯sk쎯	-9.42293
tn쎯	-9.42304
ypeu쎯	-9.4232
tfqm1쎯	-9.42332
rtol1쎯	-9.42336
ab쎯hhhh쎯	-9.42383
(쎁	-9.42444
j쎯d쎯	-9.4246
dn쎯sg쎯	-9.42475
pwdj쎯	-9.42478
mw쎯lfhf쎯	-9.42537
dcg쎯	-9.42537
abi쎯	-9.4258
gm쎯qje쎯	-9.42591
ubtf쎯	-9.42616
awsk쎯	-9.42675
,sk쎯c쎯	-9.42815
f쎯gj쎯	-9.42827
hq쎯	-9.4292
ijlc쎯gl쎯	-9.42947
ijx쎯	-9.42982
nnl쎯	-9.43055
ybb쎯	-9.4307
dd쎯jg쎯	-9.43086
tf쎯ght쎯sf쎯	-9.43092
gx쎯bu쎯mqq쎯	-9.43104
hid쎯yx쎯	-9.43213
wy쎯kgn쎯	-9.43273
dyw쎯	-9.43285
iie쎯	-9.43295
ovt쎯jg쎯	-9.43402
waye쎯	-9.43426
egm쎯	-9.43502
wnt쎯	-9.43568
ggw쎯	-9.43571
wgk쎯gj쎯	-9.43617
쎁쎉쎀	-9.43644
y쎯wtf쎯	-9.43705
tfq쎯fj쎯r쎯	-9.43815
pw쎯rnb쎯	-9.43838
rrg1쎯rbcc쎯	-9.43877
vvv쎯ntg쎯	-9.43908
gma쎯	-9.43916
yygy쎯ujj쎯	-9.44074
ih쎯aq쎯	-9.44101
f쎯fdf0쎯	-9.44135
ishg쎯	-9.44142
gfq쎯	-9.44194
ntg쎯r쎯	-9.44227
uwa쎯	-9.44336
toln0쎯	-9.44408
gcg쎯	-9.44441
rgd쎯	-9.44486
쎁.쎅	-9.44515
bl쎯	-9.44652
etn쎯	-9.44662
쎅-	-9.44703
。gm쎯wtf쎯	-9.44704
dn쎯ybv쎯	-9.44716
i쎯j쎯	-9.44723
cd쎯ovt쎯	-9.44835
nd쎯wygg쎯	-9.44897
dg쎯tffu쎯uqd0쎯	-9.44897
atd쎯ip쎯bpf쎯	-9.44899
dqe쎯pg쎯	-9.44902
ic쎯ytt쎯	-9.4493
sq쎯dn쎯	-9.44977
ek쎯uqyl쎯	-9.4498
w쎯tg쎯	-9.45051
fl쎯ymf쎯	-9.45058
wbj쎯og쎯	-9.45061
rt쎯sy쎯	-9.45093
tdp쎯et쎯gf쎯	-9.45239
ipmq쎯	-9.45252
hc쎯efw쎯	-9.45296
ym쎯usr쎯rfc쎯sy쎯	-9.45329
rfc쎯ce쎯	-9.45351
txg쎯wh쎯	-9.45367
nk쎯	-9.4539
xh쎯fj쎯	-9.45435
yk쎯	-9.45489
jm쎯	-9.45502
ufg쎯	-9.45564
dhb쎯wyf0쎯	-9.45607
rmn쎯	-9.45627
fku쎯cqw쎯	-9.45641
rfc쎯	-9.45643
ujff쎯	-9.45737
fdf0쎯	-9.4575
sm쎯fnrt쎯	-9.45769
dgtg쎯img쎯	-9.45777
afs쎯	-9.45987
쎉쎈	-9.46016
p쎯su쎯	-9.46049
qnq쎯	-9.46056
ffc쎯	-9.46128
uqwm0쎯st쎯	-9.46133
fg쎯xe쎯	-9.46236
i쎯wcy2쎯	-9.46258
nty1쎯yo쎯	-9.4644
▁쎁.	-9.46499
j쎯k쎯l쎯	-9.46514
drin쎯	-9.46514
tie쎯	-9.46526
wys쎯k쎯	-9.46633
fcp쎯apk쎯	-9.46644
l쎯tl쎯bpf쎯	-9.46645
gx쎯	-9.46653
wvf쎯	-9.46694
pu쎯lt쎯	-9.46713
tfkp쎯dn쎯	-9.46858
qc쎯ese쎯	-9.46899
ynv쎯	-9.46915
mf쎯tl쎯	-9.46926
xln1쎯qt쎯lfq쎯	-9.46948
qk쎯,	-9.46956
,dn쎯o쎯	-9.46994
,kha쎯	-9.47099
ulg쎯	-9.47124
uwy1쎯	-9.47128
《k쎯l쎯	-9.4713
eb쎯tl쎯。	-9.47231
tq쎯kgn쎯	-9.47252
rep쎯	-9.4727
fcl쎯gl쎯	-9.47273
ruv쎯epc쎯	-9.47392
,dmj1쎯eg쎯	-9.47436
awx쎯lfq쎯	-9.4751
fj쎯tf쎯b쎯	-9.47559
qdm쎯yneg쎯	-9.47596
xwy쎯wht쎯	-9.47625
ygu쎯wwj쎯	-9.47635
sks쎯	-9.47772
t쎯yxxr0쎯	-9.47976
ipwk0쎯	-9.48029
rn쎯c쎯	-9.48109
thl쎯	-9.48184
f쎯wug1쎯	-9.48229
sw쎯cwg쎯	-9.48241
k쎯l쎯aw쎯u쎯ipk쎯	-9.4828
쎃쎉	-9.48303
iwf쎯lw쎯	-9.48373
amd쎯yygy쎯	-9.48459
a쎯tkgg0쎯jgm쎯	-9.48464
rvk쎯	-9.48493
xh쎯fhn쎯	-9.48596
dnv2쎯	-9.48599
sfh쎯	-9.48628
fm쎯ux쎯	-9.48651
yw쎯	-9.48657
ti쎯	-9.4868
ax쎯tr쎯	-9.48708
edm쎯	-9.48802
kkhn쎯ftj쎯	-9.48811
gk쎯wrh2쎯	-9.48819
gd쎯gh쎯	-9.48987
ltu쎯nnh쎯	-9.49025
gkm쎯	-9.49029
rymn쎯jjjj쎯	-9.49089
stt쎯ugl쎯	-9.49209
wynn3쎯	-9.49222
쎄쎆	-9.49344
hnd쎯	-9.49449
jyie쎯pym쎯	-9.49464
wg쎯ymhj쎯	-9.49476
ipw쎯fkh쎯ymhj쎯	-9.49516
쎄쎄	-9.49524
ywe쎯on쎯	-9.496
kj쎯qd쎯	-9.49703
rqc쎯	-9.4974
xeg쎯vfhp1쎯	-9.49756
rf쎯	-9.49788
쎂wh쎯	-9.49821
xtdh0쎯	-9.49902
cf쎯qje쎯	-9.49924
ai쎯sghg1쎯	-9.49964
sw쎯sj쎯	-9.49978
ex쎯	-9.49996
f쎯gfi쎯	-9.50041
ia쎯sghg1쎯ith쎯	-9.50078
wc쎯rtt쎯	-9.50119
w쎯fghg쎯	-9.50152
amw쎯qc쎯	-9.50202
gmu1쎯wtf쎯	-9.50245
ipw쎯ty쎯	-9.50258
bwj쎯wdm쎯	-9.50259
p쎯jfd쎯	-9.50325
,yh쎯	-9.50393
ej쎯	-9.50467
uw쎯	-9.50491
sai쎯	-9.50532
rrg1쎯	-9.50573
qgb쎯ya쎯	-9.50664
j쎯g쎯pe쎯	-9.50729
fny쎯et쎯	-9.50779
▁쎂、	-9.50837
nfp쎯gkip2쎯	-9.50854
gjq쎯lk쎯	-9.50978
쎄쎃	-9.51115
fof쎯	-9.51125
mfk쎯lp쎯	-9.51146
aqk쎯	-9.51186
uag1쎯	-9.51243
yy쎯pvs쎯	-9.51337
vgk쎯	-9.51405
rj쎯waw쎯b쎯	-9.5145
cad쎯	-9.51512
uqwm0쎯u쎯	-9.51575
waj쎯	-9.51581
fm쎯uk쎯	-9.51589
bj쎯ymhj쎯	-9.51602
rx쎯	-9.5168
ymf쎯ab쎯	-9.51707
aw쎯e쎯	-9.51711
bwf쎯rp쎯	-9.51766
ghd0쎯ipkh1쎯	-9.51789
pfqf쎯pl쎯	-9.51937
mmm쎯sghg1쎯ith쎯	-9.51981
hk쎯f쎯	-9.51986
,ux쎯	-9.51988
wuf쎯	-9.52036
jb쎯rg쎯	-9.52101
oge쎯kkk쎯	-9.52187
fny쎯uyh쎯	-9.52233
kqy쎯	-9.52373
khu쎯gfi쎯whw쎯qi쎯	-9.52408
ymc쎯yf쎯、	-9.52422
itx쎯iu쎯	-9.52438
,yynw1쎯	-9.52509
ipkr쎯rng0쎯	-9.52545
pp쎯uj쎯r쎯	-9.52546
,ll쎯,ic쎯ytt쎯,	-9.52549
kwyg쎯g쎯	-9.52552
tgj쎯s쎯r쎯	-9.52684
rnu쎯wx쎯	-9.52733
fdm쎯	-9.52754
st쎯aa쎯	-9.52829
쎆쎆	-9.52883
begg쎯	-9.53076
gb쎯	-9.53114
pujn1쎯qc쎯	-9.532
쎁쎅쎀	-9.53253
iya쎯	-9.53329
tmd쎯wsg0쎯	-9.53342
fyn쎯	-9.53376
쎀쎀	-9.53421
aup쎯	-9.53509
,ld쎯hx쎯	-9.53548
itx쎯rdc쎯	-9.53626
ubtf쎯ou쎯	-9.53653
,gm쎯	-9.53712
sm쎯、	-9.53762
dfny0쎯	-9.53776
nc쎯	-9.53858
nla쎯	-9.53861
sgn쎯lfhf쎯	-9.5404
jtyq0쎯pg쎯	-9.54125
hk쎯f쎯dm쎯tkw쎯	-9.54158
iqpl1쎯	-9.54172
xjk쎯	-9.54177
fj쎯g쎯hi쎯	-9.54186
xn쎯wynn3쎯	-9.54272
dd쎯pfjm1쎯	-9.5431
hq쎯qnq쎯	-9.54367
srg쎯	-9.54385
쎁쎉쎅쎈rh쎯	-9.54637
nua쎯ajdh쎯	-9.5467
khi쎯	-9.54709
,qn쎯rtd쎯	-9.54717
alw쎯ytyh쎯	-9.54776
w쎯wsg0쎯	-9.54822
utem1쎯qc쎯	-9.54834
-쎂	-9.54857
쎄wh쎯	-9.54866
vit쎯	-9.54867
hich쎯	-9.54914
oth쎯	-9.54935
gog쎯iyt0쎯	-9.54943
「	-9.54995
kj쎯	-9.55031
iwf쎯tf쎯	-9.55047
ifk쎯	-9.55071
,reh쎯e쎯	-9.55102
ld쎯hx쎯	-9.55123
」	-9.55165
,wtf쎯	-9.55264
mb쎯	-9.553
wtr쎯lq쎯adwr쎯	-9.55302
vfhp1쎯uu쎯b쎯	-9.55332
rwyg쎯fcl쎯	-9.55352
amd쎯fghy0쎯	-9.55439
adn쎯	-9.55482
ssf쎯	-9.55542
gkp쎯go쎯	-9.55562
yn쎯vi쎯	-9.55565
ce쎯idr쎯	-9.55641
sty0쎯	-9.55663
cep쎯ynf쎯	-9.55704
txgt쎯	-9.55708
pu쎯tf쎯	-9.55776
d쎯k쎯l쎯	-9.55798
쎄-	-9.55824
qe쎯qc쎯	-9.55842
sss쎯ss쎯	-9.5593
em쎯	-9.56004
qlp쎯	-9.56007
rgm쎯	-9.56065
dtb쎯	-9.5608
쎂-	-9.56086
diu1쎯	-9.56087
,ww쎯dmj1쎯	-9.56217
at쎯fmk쎯	-9.56266
iie쎯xjm쎯	-9.5628
쎂.쎅	-9.56281
ftbt쎯yce쎯uk쎯	-9.5629
lw쎯gk쎯th쎯	-9.56309
thd쎯fcl쎯wx쎯	-9.5631
thd쎯tmd쎯	-9.56572
e쎯bv쎯gmu1쎯wtf쎯	-9.56599
ypt쎯oy쎯	-9.566
ihi쎯ey쎯	-9.56614
bgu쎯sghg1쎯ith쎯	-9.56698
ycb쎯	-9.56705
dl쎯wtf쎯	-9.56787
suq쎯ta쎯	-9.56831
jlx쎯	-9.56833
sfhg쎯	-9.5687
yc쎯wv쎯	-9.56954
,txg쎯	-9.56959
guw쎯	-9.56978
ud쎯iy쎯	-9.57041
wfy쎯	-9.57064
wg쎯egc쎯	-9.57067
tgj쎯yd쎯ymhj쎯	-9.57102
fhg1쎯	-9.57114
wynk쎯jg쎯	-9.57127
by쎯ick쎯	-9.5715
ux쎯uk쎯	-9.57189
ep쎯nge쎯	-9.57219
dm쎯tm쎯	-9.57224
bp쎯	-9.5729
gmww쎯tkh쎯	-9.573
wj쎯	-9.57313
trf쎯ntg쎯	-9.57316
tey쎯pw쎯	-9.57388
,wc쎯ngk쎯	-9.57481
ymhj쎯ght쎯ywf쎯	-9.57493
,ld쎯	-9.57493
e쎯bv쎯wc쎯ngk쎯j쎯	-9.57535
(),	-9.57552
qtdn0쎯	-9.57583
khv쎯	-9.576
pgc쎯mw쎯	-9.57634
mpf쎯	-9.57653
fnrt쎯rn쎯	-9.57655
bn쎯e쎯	-9.57682
dd쎯uthp쎯	-9.57696
쎀쎁	-9.57709
sksw쎯rt쎯	-9.57711
iwy1쎯	-9.57722
adwn0쎯	-9.57724
blf쎯	-9.57904
wtuf1쎯	-9.57928
vk쎯js쎯	-9.57972
,ul쎯	-9.57986
wwf쎯ait쎯gf쎯	-9.58021
uuk0쎯yfn쎯	-9.58028
。y쎯s쎯	-9.58029
whf쎯og쎯。	-9.58202
,cep쎯fp쎯	-9.58234
trt쎯	-9.58295
qf쎯cf쎯	-9.58326
y쎯s쎯ww쎯gk쎯	-9.5835
nudu쎯	-9.58369
trh쎯	-9.58381
ytn쎯	-9.58462
jat쎯	-9.58537
tuj쎯tq쎯	-9.58576
쎉쎉	-9.5859
ms쎯	-9.58626
pg쎯wug1쎯	-9.58626
rnn1쎯	-9.58648
ugdu쎯pww쎯	-9.587
ipq쎯	-9.58806
쎉쎇	-9.58914
wygg쎯pta쎯	-9.58917
qim쎯	-9.59016
qgb쎯nmh쎯	-9.59053
쎁쎂쎀	-9.59087
khgp0쎯fhg1쎯	-9.59156
j쎯c쎯	-9.59295
oanw쎯	-9.59328
쎃wh쎯	-9.5935
ul쎯wtf쎯	-9.59422
wbj쎯vfhp1쎯gf쎯	-9.59429
nnh쎯yn쎯	-9.59477
qjq쎯	-9.59495
ghd0쎯d쎯	-9.59579
쎅쎆	-9.59589
lqy쎯	-9.59618
iff1쎯	-9.59696
ftjb쎯e쎯	-9.59702
ve쎯	-9.59729
ipr쎯	-9.59818
ldj쎯	-9.59825
qq쎯pe쎯	-9.60098
uk쎯、	-9.60194
epw쎯	-9.60266
ujf쎯hid쎯	-9.60269
a쎯wt쎯ftj쎯	-9.60364
jn쎯ib쎯	-9.60375
ipk쎯tv쎯nnh쎯yn쎯	-9.60404
bt쎯wqa쎯	-9.60422
gfq쎯pe쎯	-9.60458
mw쎯dhb쎯	-9.60468
쎄쎇	-9.60532
yff쎯w쎯	-9.60545
u쎯kkk쎯r쎯	-9.60559
ek쎯	-9.60563
qq쎯rh쎯go쎯	-9.60574
qtj쎯trf쎯r쎯	-9.60578
vyi0쎯	-9.60715
tqd쎯	-9.60772
fakg1쎯	-9.60783
qnr쎯	-9.60793
isw쎯	-9.60812
adwe1쎯fjh0쎯	-9.60817
cbd쎯by쎯	-9.60853
xan쎯	-9.60862
rpws쎯fpx쎯	-9.60937
x쎯iyj쎯ip쎯	-9.60977
g쎯yww쎯	-9.61009
ym쎯gkip2쎯wc쎯kht쎯	-9.61018
yuvo0쎯	-9.61077
ys쎯	-9.61111
v쎯nae쎯r쎯	-9.61114
gy쎯oy쎯	-9.61141
vb쎯r쎯	-9.61172
qkk쎯	-9.61207
fcl쎯lt쎯	-9.61209
w쎯yygy쎯	-9.61212
쎂쎀쎁쎃rh쎯	-9.61239
gkih쎯wgk쎯	-9.61269
tym쎯	-9.61297
av쎯dn쎯	-9.61304
jjj쎯	-9.61307
▁d쎯	-9.61307
lx쎯	-9.61312
anu쎯thg0쎯	-9.6132
lft쎯wsg0쎯	-9.61362
xyna0쎯rmhj쎯	-9.61397
afff2쎯	-9.61407
mga쎯	-9.61449
쎁쎉쎈쎀rh쎯	-9.61455
wdn쎯fha쎯	-9.61613
uxt쎯	-9.61667
nty1쎯uduk쎯	-9.61686
si쎯pvs쎯	-9.61738
n쎯l쎯	-9.61751
rh쎯uj쎯	-9.61803
jef1쎯	-9.61855
iuc쎯	-9.61894
l쎯qh쎯	-9.61903
yaf쎯	-9.61915
fhb쎯	-9.61925
caq쎯	-9.61937
ga쎯yt쎯	-9.61995
srm쎯	-9.62215
r쎯w쎯	-9.62269
tfkp쎯gajf쎯	-9.62302
쎁쎉쎇쎈rh쎯	-9.62319
epi쎯il쎯	-9.62338
uqsg쎯	-9.6238
c쎯“	-9.62833
tu쎯ip쎯rfc쎯sy쎯	-9.62917
쎉쎀쎀	-9.62922
twf쎯wgk쎯	-9.62952
쎁쎉쎈쎁rh쎯	-9.63075
ygh쎯nnh쎯	-9.63084
mfk쎯lfnh쎯	-9.63112
dr쎯ld쎯	-9.6312
ndo쎯tjt쎯	-9.63154
fqu쎯qu쎯	-9.63181
gqjo0쎯	-9.63201
gkl쎯y쎯yam쎯	-9.63288
xk쎯ya쎯	-9.63294
ukk쎯	-9.63312
gw쎯	-9.63353
fq쎯if쎯	-9.63365
cbts0쎯	-9.63368
gc쎯b쎯	-9.63372
vfhp1쎯gf쎯	-9.63443
sf쎯n쎯	-9.63445
qaj쎯	-9.63501
쎄쎉	-9.63521
uejo쎯	-9.63535
kgb쎯	-9.63668
aqb쎯	-9.63673
ijx쎯wgk쎯	-9.63711
wys쎯dn쎯	-9.63716
ty쎯tfqp쎯	-9.63733
rwyg쎯fj쎯	-9.63807
gajh쎯	-9.63894
wwwk쎯	-9.63908
wgkr2쎯	-9.63915
ifn쎯ivs쎯	-9.63935
ftx쎯jgm쎯	-9.63968
uxe쎯jy쎯	-9.64056
x쎯ipkh1쎯	-9.64074
mu쎯	-9.64086
tgj쎯jg쎯	-9.64088
pds쎯	-9.64146
▁쎃.	-9.64159
쎈쎅	-9.64206
e쎯g쎯	-9.64221
ke쎯nh쎯	-9.64225
ltu쎯nnh쎯qnp쎯	-9.64268
p쎯j쎯	-9.64304
vii쎯ntk쎯gf쎯	-9.64322
xp쎯wgk쎯ntg쎯	-9.64338
rlg쎯khev쎯	-9.64405
gef쎯qynm1쎯	-9.64435
fh쎯tca쎯	-9.64457
pwd쎯	-9.64458
gl쎯pe쎯	-9.64468
xfn쎯	-9.64628
rhj쎯	-9.64637
udg2쎯it쎯	-9.64723
ldd쎯pg쎯	-9.64748
nae쎯jtyq1쎯	-9.6475
rt쎯wdm쎯	-9.64772
iy쎯tgj쎯	-9.64842
kl쎯	-9.64879
yc쎯iagw쎯	-9.6493
dpq쎯	-9.64964
k쎯uj쎯	-9.65026
tjt쎯wgk쎯	-9.65032
iy쎯ujn쎯	-9.6507
tx쎯gg쎯	-9.65075
dd쎯pe쎯	-9.65087
쎅쎈	-9.65119
。p쎯	-9.65163
rrhy쎯	-9.6524
ynj쎯	-9.65263
uqt쎯yx쎯	-9.65328
a쎯dgt1쎯	-9.65333
jn쎯bb쎯um쎯tl쎯	-9.65372
g0쎯	-9.65447
wfny0쎯lwg쎯	-9.65497
o쎯y쎯,	-9.65514
r쎯ad쎯sg쎯	-9.65516
tx쎯쎁	-9.65539
rkm쎯	-9.65732
r쎯dl쎯kq쎯	-9.65734
ght쎯fl쎯	-9.65735
wwg쎯	-9.65755
wfny0쎯yu쎯	-9.65755
,gm쎯wtf쎯	-9.65787
sf쎯wug1쎯gf쎯	-9.65842
:쎂	-9.65888
fcl쎯dyn쎯	-9.65916
toc쎯	-9.65929
wqu쎯us쎯	-9.65958
ym쎯tu쎯rfc쎯	-9.65971
rh쎯wa쎯	-9.65978
wyv쎯et쎯	-9.65995
px쎯r쎯	-9.6604
r쎯u쎯kkk쎯	-9.66068
》k쎯	-9.66082
hw쎯tlf2쎯	-9.66083
wul쎯	-9.66102
vvv쎯bb쎯	-9.66142
,aqt쎯	-9.66142
jo쎯aft쎯	-9.6616
bp쎯ps쎯ith쎯	-9.66223
rmc쎯ty쎯	-9.66244
fu쎯xk쎯	-9.6625
yygy쎯tr쎯	-9.6632
rtol1쎯yt쎯	-9.66344
쎀.쎅	-9.66415
쎅쎂	-9.66426
jgg1쎯	-9.66519
anh쎯ae쎯	-9.66535
wkhh쎯	-9.66553
,qd쎯rg쎯	-9.66612
rxj쎯rpl쎯	-9.66681
rf쎯xfn쎯	-9.66712
am쎯fmud쎯	-9.66729
쎀°C	-9.66738
egcn쎯	-9.66759
wfkb쎯tdp쎯	-9.66786
lw쎯if쎯	-9.66815
dga쎯pwv쎯km쎯	-9.6682
wgk쎯dn쎯	-9.66827
rep쎯cbj쎯	-9.66862
쎃-	-9.66865
qq쎯vaf쎯wsg0쎯	-9.66867
iaqg쎯	-9.66929
dt쎯	-9.66929
jvk쎯	-9.67045
gae쎯dyn쎯	-9.67063
toln0쎯ycf쎯	-9.67084
nyi2쎯	-9.67088
dif쎯f쎯dm쎯tkw쎯	-9.67118
g쎯adm쎯	-9.67131
wbb쎯	-9.67188
khx쎯	-9.67193
wqj쎯gxi쎯	-9.67312
uqf쎯pl쎯	-9.67317
r쎯ih쎯	-9.67341
khgm4쎯ytyh쎯	-9.67393
ltu쎯thg0쎯	-9.67437
pyuf쎯	-9.67482
sh쎯m쎯	-9.67575
w쎯gk쎯	-9.67589
▁쎁、	-9.67609
dd쎯jgm쎯	-9.67788
m쎯fn쎯	-9.67814
awb쎯	-9.67883
쎁쎉쎇쎉rh쎯	-9.67922
rvy쎯	-9.67928
fnhc1쎯	-9.67958
yynw1쎯sf쎯	-9.68125
pgc쎯、	-9.68145
ufy쎯wht쎯	-9.68202
ca쎯ndj쎯	-9.68244
fqb1쎯gxi쎯	-9.68246
icw쎯	-9.68264
pfq쎯uduk쎯r쎯	-9.68265
ywx쎯ffc쎯	-9.68337
pwr쎯	-9.68349
sm쎯rmhj쎯	-9.68459
grd쎯	-9.68473
x쎯gj쎯	-9.68497
cb쎯	-9.68526
aps쎯iwyf2쎯	-9.68531
쎀-	-9.68546
cqw쎯qbp쎯	-9.6856
yon쎯	-9.68572
qdt쎯	-9.68612
pwy쎯	-9.68613
jghy쎯	-9.68653
fny쎯lkb쎯	-9.68706
tmgk2쎯	-9.68726
fas쎯fuk쎯	-9.6876
jpx쎯	-9.68771
ii쎯tjh쎯	-9.68803
tn쎯nnh쎯	-9.68902
i쎯fp쎯	-9.68983
,mj쎯	-9.68989
쎇쎂	-9.68999
bn쎯。”	-9.69012
jy쎯aq쎯	-9.69055
jaw쎯	-9.69117
bqr쎯uqwn0쎯	-9.69227
ul쎯x쎯	-9.69238
oyv쎯	-9.69257
jel쎯	-9.69265
agnn2쎯	-9.69378
oyv쎯wyv쎯	-9.69387
tqdh쎯	-9.69399
k쎯uk쎯	-9.69423
uji1쎯	-9.69451
awf쎯	-9.69487
pl쎯aq쎯	-9.69488
쎃rh쎯	-9.69555
a쎯wt쎯r쎯	-9.69587
wsg0쎯cwg쎯	-9.69611
yln쎯	-9.69674
aynq쎯	-9.69733
dgk쎯	-9.69755
hhhh쎯r쎯	-9.69768
ukqb0쎯qv쎯	-9.69805
rfc쎯sy쎯w쎯km쎯	-9.69812
쎁쎉쎄쎉rh쎯	-9.69829
bmg쎯	-9.69863
ta쎯ia쎯	-9.69919
ygu쎯o쎯	-9.69953
nhj쎯rrr쎯	-9.70087
cd쎯lk쎯b쎯	-9.7015
bu쎯jel쎯	-9.70192
yi쎯og쎯	-9.70216
iqp쎯	-9.70224
bp쎯ps쎯	-9.70231
tk쎯wh쎯	-9.70259
쎁쎉쎅쎆rh쎯	-9.70345
uejv쎯	-9.70374
dga쎯pwv쎯k쎯ny쎯	-9.70389
qev쎯toc쎯	-9.70453
fke쎯	-9.7046
xy쎯xkw쎯	-9.70522
vp쎯	-9.70561
me쎯fggh쎯	-9.7058
uft쎯	-9.70601
afi쎯	-9.70631
nty1쎯tfkp쎯	-9.70646
dmj1쎯i쎯	-9.70653
,thd쎯	-9.70657
tffu쎯xe쎯	-9.70664
r쎯dty쎯gk쎯	-9.70727
mhr쎯	-9.70734
et쎯kkk쎯	-9.70739
qtj쎯trf쎯	-9.7074
yta쎯gh쎯	-9.70768
n쎯y쎯	-9.70792
yny0쎯f쎯u쎯	-9.70799
ntg쎯rfm쎯	-9.7087
yu쎯je쎯	-9.70931
udyj쎯gqf쎯	-9.7096
‘	-9.70979
jn쎯kkd쎯	-9.71015
qejy쎯	-9.71045
lgey0쎯	-9.71048
yud0쎯xl쎯	-9.71048
쎅쎄	-9.71125
mqc쎯tr쎯	-9.71184
qvfp1쎯	-9.71214
it쎯ytf쎯	-9.71302
wc쎯ga쎯	-9.71327
lpk0쎯qim쎯	-9.71383
xxm쎯	-9.71418
쎇쎈	-9.71434
vck쎯xtu쎯	-9.71513
v쎯ge쎯ywx쎯yygy쎯	-9.71538
yned쎯	-9.71549
pt쎯yny0쎯	-9.71564
fny쎯tjh쎯	-9.71581
th쎯gf쎯	-9.71718
r쎯f쎯yy쎯	-9.71732
fhw쎯pu쎯	-9.718
iagw쎯ujn쎯	-9.71878
utem1쎯	-9.7193
쎂.	-9.71956
sfi쎯fn쎯	-9.7198
yv쎯vb쎯	-9.72041
pr쎯qnp쎯	-9.72075
jn쎯pym쎯ck쎯	-9.72081
▁쎂	-9.72132
kwg쎯qiu0쎯ipr쎯	-9.72163
fmud쎯	-9.72229
▁쎁	-9.72246
wg쎯ith쎯	-9.72292
pg쎯yq쎯	-9.72302
iwyf2쎯	-9.72392
fwyf쎯	-9.72396
쎀.쎀	-9.72411
,fq쎯	-9.72446
dd쎯bfm쎯	-9.72499
mty1쎯	-9.7251
ymhj쎯aq쎯	-9.72544
bk쎯tl쎯	-9.72599
vfhp1쎯yyq쎯	-9.72605
eud쎯	-9.72662
amd쎯dcw쎯	-9.72682
h쎯ymhj쎯	-9.72701
ey쎯jf쎯	-9.72733
bc쎯tj쎯b쎯	-9.72767
kkhn쎯	-9.72799
fku쎯ep쎯	-9.7283
bwt쎯b쎯	-9.72892
svc쎯wynn3쎯	-9.72896
wfn쎯	-9.72909
yy쎯dm쎯r쎯	-9.72926
pwu0쎯	-9.72928
eck쎯	-9.7309
rwyg쎯bm쎯	-9.7318
ydm쎯	-9.73184
rkk쎯	-9.7326
,ua쎯eg쎯	-9.73319
ccc쎯qk쎯	-9.73336
ipe쎯	-9.73358
ipgh쎯ow쎯	-9.73455
쎁쎉쎆쎃rh쎯	-9.73458
fj쎯kkkk0쎯	-9.73471
tk쎯adm쎯	-9.73559
ad쎯gf쎯	-9.73566
쎅rh쎯	-9.73646
jtyq0쎯	-9.73652
fd쎯qfhw0쎯	-9.73733
ul쎯d쎯	-9.73733
xr쎯	-9.73775
jn쎯rnb쎯	-9.73786
sgn쎯wgk쎯	-9.73834
ywyg1쎯	-9.73866
xte쎯qfhw0쎯	-9.73891
hka쎯fghg쎯	-9.74021
whw쎯qi쎯uk쎯	-9.74057
gf쎯g쎯wsg0쎯r쎯	-9.74069
it쎯rh쎯	-9.74069
yn쎯fa쎯	-9.74076
ˋ	-9.74083
al쎯uqt쎯	-9.7411
trfh0쎯ggi쎯	-9.7411
god쎯tgj쎯	-9.74119
g쎯pe쎯	-9.74142
ipkh1쎯tl쎯gj쎯gk쎯	-9.74159
wxj쎯ftbt쎯	-9.7416
쎆쎈	-9.74231
wtf쎯ftbt쎯	-9.74275
ws쎯	-9.74295
ktm쎯	-9.74328
tga쎯	-9.74362
wfny0쎯》:“	-9.74365
ta쎯,	-9.74389
wgkl0쎯	-9.74439
nyi2쎯fghy0쎯:	-9.74452
쎅쎃	-9.74512
ㄧ	-9.74526
pnt쎯ya쎯	-9.74575
▁쎃、	-9.74579
wj쎯xvk쎯b쎯	-9.74649
tp쎯gj쎯、	-9.74666
pu	-9.74677
qq쎯adm쎯	-9.74688
y쎯tp쎯	-9.74774
jh쎯adwe1쎯	-9.74819
ab쎯ce쎯	-9.74886
tv쎯km쎯wf쎯tv쎯km쎯	-9.74894
nh쎯vi쎯	-9.74911
al쎯yx쎯	-9.74964
ft쎯ce쎯	-9.7497
r쎯usr쎯	-9.74981
nii1쎯	-9.75011
wmg1쎯	-9.75043
temq1쎯	-9.75046
rm쎯	-9.75085
pwfi쎯	-9.75129
af	-9.75129
qev쎯un쎯yy쎯pvs쎯	-9.75146
nf쎯gcft2쎯	-9.75198
yfj쎯jgm쎯	-9.7527
qev쎯yt쎯	-9.75278
aeu쎯	-9.75289
emc쎯wwv쎯	-9.75336
y쎯wtf쎯atd쎯jgm쎯	-9.75365
egl쎯gj쎯	-9.75392
sgtk0쎯	-9.75398
wg	-9.75414
dn쎯wv쎯	-9.75415
atd쎯tu쎯dd쎯ip쎯	-9.75438
rnb쎯whn쎯	-9.75463
wvl쎯	-9.75469
tgj쎯usr쎯	-9.75511
qyt쎯	-9.75536
ynnu쎯	-9.75565
um쎯sfi쎯	-9.75618
fgh쎯gg쎯	-9.75695
g쎯iyc쎯r쎯	-9.75718
yop쎯	-9.75718
,vbn쎯	-9.75719
ivs쎯	-9.75727
sgtu쎯	-9.75743
bpf쎯suq쎯	-9.75788
uth쎯nm쎯	-9.75801
eve쎯	-9.75812
v쎯rpl쎯	-9.75823
lft쎯xf쎯	-9.75868
epi쎯	-9.75887
qqk쎯	-9.75944
ai쎯uk쎯	-9.76017
vnu1쎯	-9.76085
lfq쎯ss쎯	-9.76096
dn쎯yi쎯	-9.7611
aah쎯	-9.76142
ruv쎯qejy쎯	-9.7615
wgk쎯m쎯	-9.76154
wt쎯hka쎯	-9.76178
syp쎯	-9.76178
wwf쎯ait쎯d쎯	-9.76217
qhk쎯	-9.76221
,vvv쎯,	-9.7631
y쎯wsg0쎯	-9.76323
ie쎯	-9.76373
wfny0쎯vaf쎯	-9.7638
ld쎯gxi쎯	-9.76392
sgm쎯	-9.76424
bwg쎯	-9.76446
ipkm0쎯	-9.76452
pj쎯yf쎯	-9.76473
tv쎯km쎯	-9.76518
jf쎯uj쎯:	-9.76542
ymhj쎯xe쎯	-9.76581
rp쎯rh쎯go쎯	-9.76646
,q쎯wu쎯	-9.76682
wfkb쎯	-9.76721
i쎯qten0쎯qmq쎯	-9.76841
uqd0쎯。	-9.7685
ry쎯nae쎯	-9.76853
lm쎯bd쎯	-9.76901
ykge쎯	-9.76923
vv쎯vvv쎯	-9.76933
쎁쎉쎆쎄rh쎯	-9.76933
fct쎯	-9.76953
fnh쎯	-9.76966
)j쎯	-9.76986
hm쎯	-9.7705
df쎯	-9.77107
gm쎯fnrt쎯	-9.77197
adj쎯	-9.77219
dr쎯mj쎯	-9.77264
。hx쎯	-9.77276
d쎯hx쎯	-9.77365
pfi쎯ftbt쎯	-9.7737
쎉쎆	-9.77374
saj쎯gajf쎯	-9.7738
tqt쎯	-9.77389
wye쎯rta쎯	-9.7741
gd쎯ivfh1쎯ymhj쎯	-9.77413
djdn2쎯	-9.77491
。mh쎯gf쎯	-9.77537
wy	-9.77693
lw쎯gj쎯	-9.77701
whf쎯	-9.77718
》yff쎯:“	-9.77759
ap쎯	-9.7784
aqt쎯uqd0쎯	-9.77844
sh쎯iv쎯	-9.77878
sgn쎯wrh2쎯	-9.77882
vii쎯ntk쎯	-9.77917
yygy쎯fmud쎯	-9.77992
tei쎯	-9.78004
i쎯wf쎯	-9.78031
pfi쎯xj쎯	-9.78048
wq쎯r쎯	-9.78059
ㄨ	-9.78121
rn쎯yle쎯	-9.78188
ih쎯gajf쎯	-9.78203
hwbc쎯	-9.78204
jjjj쎯,	-9.7826
fcl쎯wt쎯	-9.7826
yyn1쎯ukd0쎯	-9.78269
,hhhh쎯ue쎯	-9.78282
dm쎯tkw쎯쎁	-9.78356
cf쎯qh쎯	-9.78385
tw쎯	-9.784
wdn쎯ugdu쎯	-9.78406
vv쎯	-9.78425
tkh쎯od쎯	-9.78458
sgyb쎯	-9.7854
dff0쎯	-9.78567
쎉쎅	-9.78575
gkl쎯ftbt쎯rep쎯	-9.78577
qbp쎯	-9.78631
nywf0쎯	-9.78706
wdn쎯wx쎯	-9.78739
wjm쎯	-9.78808
qu쎯	-9.78809
쎇쎆	-9.78835
ry쎯dd쎯	-9.78898
xpw쎯	-9.78939
fl쎯egl쎯	-9.78942
mw쎯tu쎯	-9.78953
udr쎯	-9.78968
amw쎯qqqq1쎯	-9.78987
》tffu쎯。	-9.79029
rh쎯lc쎯	-9.79053
jb쎯jh쎯	-9.79058
dga쎯pwv쎯wf쎯	-9.79087
wynk쎯e쎯	-9.791
qnu0쎯	-9.79119
th쎯gj쎯kkd쎯	-9.79206
tev쎯	-9.79216
xwf쎯	-9.79224
j쎯gik쎯	-9.7923
raj쎯ytb쎯	-9.79309
dnp쎯	-9.79344
wk쎯dhb쎯	-9.7935
fu쎯ta쎯	-9.7939
rnnw쎯pgn쎯	-9.79392
bm쎯b쎯	-9.79411
u쎯kkk쎯rfm쎯jg쎯	-9.79513
ubt쎯	-9.79554
-쎃	-9.79583
쎈쎈	-9.79589
ud쎯qvfp1쎯	-9.79592
ddm쎯	-9.79618
uvo쎯wtf쎯	-9.79641
dfi쎯	-9.79682
xtdp0쎯	-9.79695
c쎯rg쎯	-9.79696
itx쎯fm쎯	-9.79734
wc쎯pv쎯	-9.79786
uqb쎯	-9.79788
uwy1쎯tlf2쎯	-9.79808
xx쎯wgq쎯	-9.79962
quk쎯	-9.79983
yyn1쎯	-9.80138
ovt쎯dcg쎯	-9.80186
fj쎯wht쎯	-9.80204
쎆wh쎯	-9.80304
yw쎯ykw쎯	-9.80338
pwt쎯	-9.80422
lk쎯wgkr2쎯dd쎯	-9.80451
jmd쎯	-9.80457
jjjj쎯ipkh1쎯	-9.80473
tx쎯fgh쎯	-9.80526
bf쎯	-9.80545
shy쎯	-9.80572
pe쎯hw쎯	-9.8072
hq쎯ds쎯	-9.80738
jhk1쎯	-9.80795
avi쎯	-9.80804
ukn쎯w쎯kkkk0쎯	-9.80896
dwg쎯	-9.80937
lh쎯rh쎯	-9.80942
uit쎯	-9.80949
xkw쎯	-9.81034
%	-9.81069
yygt쎯ytyh쎯ymhj쎯	-9.81112
tq쎯kgn쎯。	-9.81217
nnk쎯nnk쎯ta쎯	-9.81269
r쎯《	-9.81336
dy쎯bj쎯	-9.81341
wda쎯	-9.81453
gu쎯tqdh쎯	-9.81491
rhf쎯gc쎯	-9.81497
itf쎯uqv쎯	-9.81516
。ip쎯suq쎯	-9.81598
rxj쎯sfi쎯	-9.81602
kl쎯qh쎯	-9.81626
hxs쎯	-9.81789
fgh쎯rh쎯	-9.81794
tu쎯、	-9.81814
wgq쎯vk쎯	-9.81877
va쎯	-9.81931
.쎁쎂	-9.81942
gm쎯pu쎯	-9.81942
eerq쎯	-9.81987
r쎯tg쎯itd쎯	-9.8207
qtvb쎯	-9.82071
saj쎯rny1쎯	-9.82079
u쎯jg쎯	-9.821
dnv1쎯w쎯	-9.82116
쎁쎉쎆쎂rh쎯	-9.82163
atg쎯gk쎯ta쎯	-9.82175
thgc쎯sg쎯	-9.82222
dmd쎯	-9.8225
smu1쎯	-9.82272
oft쎯	-9.82277
py쎯wf쎯y쎯yq쎯	-9.82278
w쎯a쎯	-9.82329
,wjg쎯j쎯	-9.82349
ftbt쎯pgc쎯	-9.82388
dr쎯qk쎯	-9.82416
dnv1쎯gu쎯yy쎯oy쎯	-9.82419
kt쎯	-9.82473
dd쎯ip쎯tg쎯	-9.82483
xef쎯	-9.82491
pw쎯ymf쎯	-9.825
fj쎯hi쎯	-9.82542
qn쎯wynk쎯	-9.82608
ftjb쎯ymhj쎯	-9.82613
gj쎯gk쎯	-9.82679
rnt쎯	-9.82682
wcw쎯	-9.82696
nfc쎯uqw쎯	-9.82755
lkmi0쎯gae쎯	-9.82793
mq쎯bwg쎯	-9.82797
thd쎯q쎯	-9.82917
whn쎯	-9.82922
fgh쎯g쎯	-9.8295
wn쎯fqb1쎯	-9.8295
et쎯go쎯	-9.82951
ooo쎯lg쎯uh쎯	-9.83019
쎈쎆	-9.83024
iqgg쎯	-9.83046
udng쎯	-9.83083
wfd쎯	-9.83169
wys쎯wsg0쎯	-9.83192
ditn0쎯	-9.83233
qtb쎯	-9.83236
ig쎯	-9.83237
q쎯wu쎯r쎯	-9.83254
&	-9.83336
bj쎯egc쎯	-9.83341
uep쎯	-9.83421
pgn쎯wt쎯	-9.83434
rqn쎯	-9.83453
fny쎯aft쎯	-9.83464
wye쎯rnd1쎯	-9.83514
qt	-9.83517
iak쎯	-9.83566
uqwm0쎯sg쎯	-9.83593
ypeu쎯wxf쎯	-9.83625
l쎯uthp쎯	-9.83641
wyk쎯	-9.83715
bwj쎯	-9.83779
tffu쎯yy쎯dm쎯	-9.83812
ujn쎯ykw쎯	-9.83849
”tffu쎯	-9.83902
-쎄	-9.8392
wv쎯dmh쎯gf쎯	-9.83962
,gip쎯	-9.84008
san쎯	-9.8402
uth쎯uqw쎯	-9.84021
wv쎯wf쎯	-9.84072
쎁rh쎯	-9.84111
ipq쎯bj쎯	-9.84121
ige쎯wa쎯	-9.842
gae쎯,	-9.84234
po쎯	-9.84254
rc쎯jmd쎯	-9.84272
f0쎯	-9.84281
,ntk쎯	-9.843
g쎯wsg0쎯	-9.84306
ii쎯ylk2쎯	-9.84322
utd쎯	-9.84336
쎅%	-9.84364
쎉쎄	-9.84439
wc쎯fqb1쎯	-9.84467
ijlc쎯	-9.84476
xxf쎯og쎯rg쎯	-9.84507
ad쎯ld쎯	-9.84537
ls쎯	-9.84565
kkh쎯	-9.84588
dd쎯wf쎯	-9.84635
r쎯wt쎯et쎯	-9.84647
。adw쎯k쎯	-9.84656
sc쎯dgv쎯	-9.84661
afd0쎯vij쎯	-9.84676
쎁쎉쎆쎅rh쎯	-9.84703
yb쎯bb쎯	-9.84711
g쎯wug1쎯	-9.84719
thd쎯y쎯	-9.84724
gjq쎯qk쎯o쎯	-9.84732
kw쎯j쎯	-9.848
wtfm3쎯waj쎯	-9.84828
rnnw쎯	-9.84939
dd쎯bw쎯	-9.84989
txi쎯xyc쎯r쎯	-9.84995
d쎯xg쎯	-9.85008
gah쎯kkd쎯	-9.85023
wbj쎯ujn쎯	-9.85096
uqwn0쎯	-9.851
ge쎯dp쎯	-9.85145
lh쎯wh쎯	-9.85185
rgf쎯up쎯	-9.85193
wgk쎯ua쎯	-9.85218
wjh쎯	-9.85238
qkqp쎯	-9.85255
vbn쎯r쎯	-9.85258
ii쎯inx쎯	-9.85288
ffh쎯	-9.85295
,yi쎯	-9.85333
r쎯jyie쎯ktm쎯	-9.85365
g쎯qk쎯	-9.85375
tqv쎯	-9.85457
ddg0쎯	-9.85458
sgj쎯	-9.85526
khq쎯	-9.8555
ium쎯	-9.85582
rmhj쎯dn쎯	-9.85656
lgk쎯tmdf1쎯	-9.85675
puv쎯k쎯	-9.8568
uqwl쎯	-9.85799
dd쎯uk쎯wv쎯	-9.85899
i쎯tj쎯	-9.85908
wvm쎯	-9.8593
쎄쎁	-9.85946
ngk쎯if쎯	-9.85991
fym쎯	-9.86005
ubk0쎯	-9.8605
wgc쎯ty쎯	-9.86052
qdb쎯	-9.86064
lp쎯xxe쎯	-9.86083
l쎯n쎯ipk쎯	-9.86083
jtyl쎯imj쎯	-9.86112
qk쎯:	-9.86113
lkm쎯	-9.86133
adwr쎯trf쎯	-9.86164
----------------	-9.86208
jyie쎯thg0쎯	-9.86353
쎉.	-9.86381
쎅wh쎯	-9.86429
km쎯,	-9.86475
쎆쎂	-9.86481
r쎯jf쎯whn쎯	-9.86489
fkue1쎯	-9.86516
쎆rh쎯	-9.86598
쎅쎇	-9.86611
rjg0쎯	-9.86624
쎁쎈쎀	-9.86686
sux쎯	-9.86715
,ym쎯	-9.86758
dhc쎯fgi쎯	-9.86865
wxf쎯w쎯n쎯aw쎯t쎯l쎯	-9.86908
fpo쎯	-9.86937
gk쎯og쎯ujfj쎯wug1쎯	-9.86967
atd쎯jgm쎯	-9.86982
pe쎯fl쎯wf쎯wf쎯km쎯	-9.87008
pww쎯jqr쎯	-9.87086
xwf쎯gl쎯	-9.87113
dg쎯dd쎯	-9.87125
sg쎯kkk쎯	-9.87199
mq쎯jy쎯	-9.8721
쎈-	-9.87224
ˊ	-9.87249
vvf0쎯	-9.87259
gmiu쎯	-9.8726
jn쎯dfy쎯	-9.87364
k쎯l쎯aw쎯u쎯ipk쎯,	-9.87436
si쎯	-9.87437
sad쎯	-9.87491
tf쎯fcl쎯	-9.87543
쎂쎀쎀쎈	-9.87577
쎆쎇	-9.87583
uc쎯	-9.8759
gh쎯ymc쎯	-9.87618
tkh쎯bb쎯	-9.87627
r쎯eb쎯tl쎯	-9.87713
gae쎯pww쎯	-9.87718
fh쎯ntk쎯	-9.87726
rfc쎯agnn2쎯	-9.87737
wyc쎯w쎯	-9.87813
,rcn1쎯	-9.8784
rfq쎯	-9.87901
ftl쎯	-9.87925
rb1쎯uthp쎯	-9.87926
wfh1쎯	-9.87928
ifn쎯	-9.87939
wyl쎯	-9.87949
qk쎯tq쎯:	-9.87974
dfa쎯	-9.87992
쎃.쎅	-9.88163
ga쎯v쎯aq쎯	-9.88257
y0쎯	-9.88281
yca쎯	-9.88296
ap	-9.88304
tgj쎯pym쎯	-9.88333
f쎯fhg1쎯	-9.88378
ra쎯	-9.88386
tam쎯	-9.88418
ygu쎯wd쎯	-9.8847
쎇-	-9.88519
쎇쎃	-9.88521
yam쎯	-9.88525
sghg1쎯adnt1쎯	-9.88555
ahnh0쎯	-9.88598
mqq쎯h쎯	-9.88625
jb쎯xtu쎯	-9.88649
qk쎯w쎯	-9.88674
lfo쎯dx쎯ia쎯ith쎯	-9.88684
sh쎯gx쎯	-9.88691
sghg1쎯gyt쎯ah쎯	-9.88735
sghg1쎯yy쎯	-9.88816
ivp쎯	-9.88819
mmm쎯ii쎯	-9.88873
fje쎯qgu쎯	-9.88916
bn쎯。	-9.88972
iyj쎯fm쎯	-9.88983
▁(	-9.89034
iyc쎯fcl쎯	-9.89059
tol쎯	-9.8906
”o쎯	-9.89073
j쎯g쎯ffi쎯	-9.89173
ipkh1쎯et쎯	-9.89253
쎂쎀쎁쎀	-9.89283
,ak쎯	-9.89295
rwyg쎯adh쎯	-9.89297
gj쎯qev쎯	-9.893
god쎯st쎯	-9.89301
wt쎯et쎯。	-9.89308
awn쎯	-9.89354
dd쎯ddh쎯	-9.89357
uxx쎯	-9.89385
sq쎯	-9.89461
쎆쎃	-9.89493
쎃쎀쎀쎀	-9.89497
x쎯dl쎯	-9.89525
ige쎯ii쎯	-9.89557
°C	-9.89565
쎆-	-9.89578
wy쎯iwyf2쎯	-9.89593
rmay쎯	-9.89613
hjj쎯	-9.89613
jtyl쎯rpw쎯	-9.89651
dd쎯lpk0쎯	-9.89735
ga쎯ymc쎯	-9.89737
,gjq쎯	-9.89748
쎇쎀쎀	-9.89752
rxj쎯pg쎯	-9.89756
anb0쎯sy쎯pe쎯	-9.89806
nnw쎯qi쎯	-9.89827
xyx쎯	-9.89844
lfq쎯aq쎯	-9.89874
,x쎯	-9.89929
ss쎯og쎯	-9.89944
cqy쎯nhj쎯	-9.89969
uge쎯	-9.90028
tdkj쎯dhd쎯	-9.90073
sdw쎯	-9.90108
h쎯gh쎯	-9.90161
ovt쎯rnd1쎯go쎯idr쎯	-9.90165
w쎯lt쎯uqwm0쎯idr쎯	-9.90176
br쎯	-9.90224
쎈rh쎯	-9.90281
fq쎯xg쎯	-9.90433
fl쎯yyq쎯	-9.90455
yn쎯ftj쎯	-9.90459
xxf쎯	-9.90513
itx쎯pl쎯	-9.90543
a쎯w쎯	-9.90554
n1쎯	-9.90566
tx쎯g쎯wh쎯	-9.90635
nui쎯sm쎯	-9.90638
,ce쎯	-9.90689
e쎯《	-9.90708
fny쎯tu쎯	-9.90722
wv쎯yb쎯	-9.90746
wycm0쎯fakg1쎯r쎯	-9.90777
lg쎯lgm쎯	-9.9078
ta쎯iit쎯	-9.90862
ykg쎯	-9.90879
』『	-9.90911
ipkh1쎯tl쎯	-9.90913
fj쎯tkgg0쎯	-9.90922
wbj쎯uu쎯	-9.90933
쎈쎂	-9.90935
infy쎯	-9.90936
pntj쎯	-9.91058
sft쎯rfm쎯	-9.91072
wxd쎯	-9.91078
ltu쎯wqj쎯	-9.91112
cccg쎯	-9.91212
tdp쎯et쎯	-9.91286
ip쎯pe쎯	-9.91295
tom쎯	-9.9132
tp쎯gj쎯nnk쎯	-9.91323
쎀쎂	-9.91332
。ul쎯	-9.91341
dg쎯fgh쎯	-9.91383
uwy1쎯dqe쎯	-9.9144
▁쎃	-9.91472
ain쎯	-9.91506
udb쎯ytyh쎯	-9.91611
atg쎯	-9.91705
rge쎯	-9.91707
ftbt쎯rep쎯,	-9.91716
telb쎯	-9.91765
ia쎯fm쎯	-9.91783
wyk쎯rg쎯eb쎯tl쎯	-9.91811
gq	-9.91834
tdd쎯	-9.91842
。sg쎯	-9.91873
wgku1쎯yn쎯	-9.91911
ifh0쎯	-9.91922
gl쎯dm쎯	-9.91932
ujn쎯mqb쎯	-9.91939
qkq쎯umc쎯	-9.92055
rdc쎯	-9.92071
kt쎯ke쎯	-9.92105
iha쎯	-9.92113
xg쎯kht쎯	-9.92221
,kha쎯yb쎯	-9.92241
,jb쎯xtu쎯xf쎯js쎯	-9.92249
f1쎯	-9.92267
c쎯dj쎯ya쎯f쎯ltu쎯o	-9.92323
gf쎯dj쎯ya쎯f쎯ltu쎯	-9.92323
vt쎯rnd1쎯o쎯uwy1쎯。	-9.92344
ynma쎯	-9.92363
쎄rh쎯	-9.92403
.("/////	-9.92411
.",(){(	-9.92411
suf쎯	-9.92433
쎁쎀쎀쎀쎀쎈쎀쎁);});	-9.92447
dmj1쎯eg쎯	-9.92461
teg1쎯	-9.92506
bm쎯go쎯	-9.92547
cwg쎯	-9.92574
agnt쎯	-9.92605
ugk쎯	-9.9264
g쎯fc쎯	-9.92657
ihi쎯	-9.92679
wys쎯lft쎯wc쎯ngk쎯	-9.92818
qtq쎯	-9.92833
쎁쎉쎇쎀rh쎯	-9.92894
wyf0쎯	-9.92907
ax쎯kkk쎯	-9.92922
nui쎯tf쎯	-9.92937
fhw쎯ghd0쎯	-9.92943
faf1쎯	-9.92961
▁u쎯kkk쎯	-9.92969
tx쎯쎂	-9.93087
jhk1쎯yge쎯	-9.93118
dnv1쎯kgb쎯	-9.9313
mdff0쎯	-9.93136
tjs쎯	-9.93138
gef쎯it쎯rh쎯	-9.93156
wfi쎯	-9.93187
k쎯aw쎯ipk쎯km쎯	-9.93253
ygh쎯udv쎯	-9.93289
qtd쎯	-9.93359
sga쎯	-9.93359
td쎯uthp쎯	-9.93448
sgmj쎯	-9.93484
ffff5쎯fyk쎯	-9.93491
kfg쎯	-9.93506
qq쎯tyna2쎯	-9.93508
v쎯dp쎯	-9.93514
cd쎯lk쎯af쎯wgkb2쎯	-9.9353
ftj쎯。	-9.93572
sk쎯tfkd쎯	-9.93592
uqwm0쎯ynf쎯	-9.93618
g쎯iyc쎯	-9.93633
쎁쎉쎇쎆rh쎯	-9.93673
lk쎯rvyo쎯	-9.93718
pw	-9.93765
epi쎯hi쎯	-9.93784
qtal1쎯	-9.93786
kf쎯thg0쎯	-9.93873
lgey0쎯egl쎯	-9.93934
쎅쎉	-9.93954
쎁.쎂	-9.9397
gu쎯dm쎯	-9.93973
itfk쎯	-9.93985
쎂rh쎯	-9.94041
fk쎯ss쎯ith쎯	-9.94054
nty1쎯o쎯	-9.94087
ud쎯ab쎯	-9.94097
tv쎯gkl쎯nnh쎯yn쎯	-9.94098
gk쎯tl쎯	-9.94127
qk쎯o쎯	-9.94147
pp쎯k쎯	-9.94158
pp쎯ue쎯	-9.94174
yfn쎯nnh쎯	-9.94187
go쎯idr쎯	-9.94292
jn쎯fcl쎯	-9.94294
bj쎯iq쎯	-9.94298
。wjg쎯	-9.94356
,eg쎯	-9.94359
viq쎯	-9.94359
irn쎯	-9.94413
mt쎯tuh쎯	-9.94429
g쎯ddu0쎯	-9.94468
、ym쎯	-9.94519
cm쎯pwfi쎯	-9.94568
fgh쎯wty쎯	-9.94578
ua쎯eg쎯	-9.94602
v쎯je쎯	-9.94616
ovt쎯fgh쎯	-9.94645
b쎯g쎯wh쎯	-9.94651
fwm쎯tvfh1쎯	-9.94656
▁sg쎯	-9.9467
wvp쎯	-9.94727
tep쎯je쎯	-9.94734
tmd쎯wwv쎯	-9.94746
ugk쎯shi쎯	-9.94747
fk쎯ss쎯	-9.9475
deb쎯	-9.94752
bbh쎯	-9.94763
lgey0쎯nf쎯	-9.94771
。hhhh쎯ue쎯	-9.94788
dqq쎯	-9.94804
rny1쎯	-9.94809
gkm쎯wgk쎯	-9.94819
tdtf쎯	-9.94822
a쎯um쎯	-9.9485
nnw쎯rgv쎯	-9.94897
wgk쎯qqqq1쎯	-9.94898
wtp쎯	-9.94977
wy쎯thn쎯wx쎯	-9.94988
f쎯dm쎯	-9.94996
mmm쎯egc쎯	-9.95005
fg쎯rh쎯	-9.95027
twgi쎯	-9.95054
qta쎯	-9.95118
xnn0쎯	-9.95158
qi쎯bw쎯	-9.95163
ip쎯wf쎯wf쎯km쎯	-9.95172
vfhp1쎯tfkp쎯	-9.95278
fwm쎯	-9.95359
yox쎯	-9.95401
kcb쎯	-9.95414
uxxn1쎯	-9.95446
bu쎯wgk쎯wf쎯	-9.95475
쎆쎉	-9.95478
j쎯g쎯qk쎯	-9.95498
iie쎯wx쎯	-9.95512
쎀쎇	-9.95513
wc쎯jfd쎯。	-9.95544
itol쎯	-9.95594
쎉-	-9.95601
ip쎯fghg쎯ip쎯wug1쎯	-9.95623
rk쎯	-9.95669
rb1쎯fjh0쎯	-9.95707
kqb쎯uxh쎯	-9.95727
mt쎯wh쎯	-9.95743
od쎯wny0쎯	-9.95744
qh쎯cm쎯	-9.95751
stt쎯	-9.95772
itm쎯dd쎯tjh쎯gog쎯	-9.95794
usr쎯lk쎯fhc쎯	-9.95825
ud	-9.95829
adw쎯pu쎯	-9.95835
쎇쎇	-9.95871
rlg쎯ck쎯	-9.95876
,ld쎯o쎯	-9.95938
agq쎯	-9.95958
yjj0쎯wg쎯	-9.95972
xqi쎯	-9.96066
gg쎯rh쎯	-9.96069
iqv쎯	-9.9607
nge쎯ukq쎯gh쎯	-9.96082
wv쎯uyt0쎯yx쎯	-9.96098
w쎯fqu쎯xgb쎯nh쎯ty쎯	-9.961
rjq쎯	-9.96157
쎇쎄	-9.96192
tk쎯f쎯	-9.96203
dfe쎯	-9.96265
w쎯ovt쎯	-9.96304
pjv쎯	-9.96313
,tfq쎯rg쎯	-9.96336
wv쎯wc쎯ngk쎯	-9.96343
쎅쎁	-9.96373
ymhj쎯tv쎯	-9.96378
aet0쎯yygy쎯	-9.96434
nnnn쎯e쎯	-9.96448
aw쎯ybf0쎯	-9.96474
xeg쎯dn쎯r쎯	-9.96515
pfq쎯ugdu쎯	-9.96545
ym쎯ijl쎯	-9.96567
fgh쎯uy쎯	-9.96569
ew쎯	-9.9658
xgu쎯us쎯	-9.96582
pl쎯bw쎯	-9.96586
rgv쎯	-9.96601
ith쎯ymhj쎯	-9.96687
db쎯pt쎯	-9.96734
wgen1쎯	-9.96798
fp쎯fcu1쎯	-9.96808
ujfj쎯wug1쎯。	-9.96812
gik쎯	-9.96909
tj쎯gc쎯b쎯	-9.9691
ipg쎯kjj쎯	-9.96919
bb쎯,	-9.96961
ta쎯ya쎯	-9.97018
vyv쎯	-9.97069
쎁쎉쎆쎀rh쎯	-9.97079
tk쎯xe쎯	-9.97085
쎀쎉	-9.97092
▁:	-9.971
tg쎯u쎯xg쎯	-9.97128
pta쎯	-9.97135
fggh쎯okk쎯	-9.97154
mqi1쎯	-9.97167
쎂쎀쎀쎆	-9.97189
쎁.쎀	-9.97254
쎇rh쎯	-9.97259
xk쎯dd쎯r쎯	-9.97264
gae쎯dn쎯b쎯	-9.97297
iry쎯	-9.97308
쎅쎀쎀쎀	-9.97314
jx쎯	-9.97316
tp쎯lpdk0쎯	-9.97405
쎁쎉쎅쎅rh쎯	-9.97417
wvf쎯tmd쎯	-9.97538
쎀쎈	-9.97556
,ai쎯	-9.97578
rn쎯d쎯	-9.97586
dqe쎯wk쎯	-9.97622
wxf쎯ai쎯	-9.97688
kqw쎯	-9.97693
fuf1쎯pyg쎯	-9.97706
afd0쎯vij쎯ith쎯	-9.97715
ip쎯、	-9.97715
y쎯ipg쎯	-9.9773
ajq쎯	-9.97745
un쎯tgm쎯	-9.97764
tdp쎯peg쎯	-9.97773
tjt쎯vs쎯	-9.97842
lwg쎯	-9.97888
yyv쎯	-9.97908
yw쎯sk쎯	-9.97945
nj쎯ntg쎯	-9.98015
e쎯hxf쎯	-9.98091
,g쎯tem쎯	-9.98096
gki쎯	-9.98125
sm쎯jn쎯	-9.98154
v쎯tmdf1쎯	-9.98159
jo쎯hhu0쎯	-9.98213
yt쎯d쎯	-9.98234
쎁쎉쎇쎅rh쎯	-9.98238
fnr쎯ujf쎯	-9.98272
usi0쎯	-9.98314
▁y쎯s쎯	-9.98365
쎂쎀an쎯xn쎯	-9.98402
gmw쎯	-9.98433
uck쎯qqqq1쎯	-9.98459
yn쎯》	-9.98522
ct쎯	-9.98569
gh쎯fa쎯	-9.98571
uq쎯rq쎯	-9.98651
g쎯gkp쎯	-9.98673
쎁쎆쎀	-9.98743
,ntk쎯gf쎯mmm쎯aq쎯。	-9.98753
ynk쎯fcl쎯	-9.98763
nb쎯	-9.98779
nnk쎯gkl쎯nnk쎯ta쎯	-9.98857
i쎯khu쎯	-9.98874
tdj쎯	-9.98879
xten1쎯	-9.98895
lu쎯dd쎯	-9.98934
yid쎯yynw1쎯	-9.98956
ym쎯si쎯	-9.98967
hcd쎯	-9.98977
gmww쎯wmj0쎯	-9.99057
,sghg1쎯	-9.9911
wwg쎯nnh쎯	-9.99115
쎁쎉쎆쎈rh쎯	-9.99128
쎀dnv1쎯fqb1쎯,	-9.99165
khgm4쎯ytyh쎯ith쎯	-9.99204
ngkg쎯	-9.99268
k쎯ax쎯	-9.99314
pe쎯ytt쎯	-9.99314
yw쎯fhw쎯	-9.99358
by쎯hh쎯	-9.99374
wc쎯pjm쎯	-9.99381
g1쎯	-9.994
ya쎯wnh쎯	-9.99404
n0쎯	-9.99407
qty1쎯	-9.99411
if쎯ip쎯	-9.99429
쎁쎉쎅쎀rh쎯	-9.99513
km쎯。	-9.99609
ux쎯yiu쎯dd쎯ip쎯	-9.99615
nng쎯	-9.99627
。ul쎯wtf쎯	-9.9963
ghd0쎯dqe쎯	-9.99667
ny쎯gj쎯ip쎯	-9.997
nbm쎯	-9.99713
쎀.쎁	-9.99722
x쎯iyj쎯v쎯nae쎯	-9.99742
,iv쎯	-9.99744
wy쎯et쎯	-9.99754
pynk쎯	-9.99761
ad쎯nfc쎯	-9.99813
lf쎯	-9.99826
rh쎯ya쎯	-9.99832
wh쎯ntg쎯	-9.99867
dhd쎯	-9.99872
rnb쎯wsg0쎯	-9.99921
wg쎯yy쎯wug1쎯	-9.99938
r쎯yy쎯if쎯	-9.99939
fny쎯og쎯ww쎯gk쎯	-9.99951
ypk쎯	-9.99958
vynu쎯	-10
ruv쎯fyk쎯	-10.0001
uyt0쎯	-10.0004
iww쎯	-10.0006
k쎯qh쎯	-10.0009
ym쎯umd0쎯	-10.0015
iqny쎯	-10.0017
wyn쎯	-10.0026
r쎯a쎯wt쎯	-10.0027
tlo쎯	-10.0029
rnb쎯qje쎯	-10.0031
waw쎯yid쎯	-10.0033
itdy쎯	-10.0034
gqx쎯ynv쎯	-10.0035
g쎯txi쎯gq쎯	-10.0042
whf쎯og쎯,	-10.0044
dj쎯rh쎯	-10.0045
ue쎯rg쎯	-10.0047
쎁쎉쎅쎇rh쎯	-10.0049
gm쎯nnnn쎯	-10.0055
wgkb2쎯qk쎯	-10.0056
tx쎯uy쎯	-10.0056
eqd쎯	-10.0057
gx쎯fcl쎯	-10.0059
wbg0쎯	-10.006
sgn쎯tlf2쎯	-10.0063
wc쎯uwl쎯	-10.0063
jn쎯iyc쎯	-10.0068
tuh쎯	-10.0069
wqu쎯xgu쎯	-10.0072
:쎃	-10.0075
쎁쎉쎆	-10.0076
sqj쎯eu쎯	-10.0077
dw0쎯to쎯	-10.0081
sk쎯dp쎯	-10.0081
qtbl쎯	-10.0082
aak쎯	-10.0086
xf쎯gki쎯	-10.009
jtyl쎯pwfi쎯	-10.0094
ipkh1쎯mqb쎯	-10.0095
faw쎯	-10.0096
ip쎯wf쎯gj쎯gk쎯	-10.0098
kmh쎯	-10.0099
cexo1쎯	-10.0102
ygk쎯yygy쎯	-10.0106
wg쎯nnh쎯	-10.0111
i쎯it쎯	-10.0112
wsg0쎯txi쎯yw쎯ygh쎯	-10.0115
bk쎯ce쎯	-10.0116
wtfm3쎯	-10.0118
rlf1쎯	-10.0118
w쎯n쎯tmh0쎯	-10.0123
je쎯wa쎯	-10.0128
apl쎯fcl쎯lt쎯	-10.0132
쎀쎅	-10.0143
,lk쎯	-10.0149
tfq쎯fj쎯a쎯wt쎯ftj쎯	-10.015
ux쎯yy쎯	-10.0151
iry쎯iq쎯	-10.0154
wv쎯tp쎯	-10.0155
lg쎯uh쎯	-10.0157
tvt쎯	-10.0158
fwy쎯	-10.016
′	-10.0162
//	-10.0172
uth쎯ftjb쎯	-10.0173
iyn0쎯	-10.018
gkf쎯	-10.0182
wyv쎯tr쎯	-10.0184
sq쎯tfkp쎯	-10.019
pww쎯jg쎯	-10.019
gh쎯lpdk0쎯	-10.0194
ufw쎯	-10.0194
hic쎯	-10.0195
wye쎯if쎯	-10.02
ym쎯xe쎯ftbt쎯jgm쎯	-10.02
rb1쎯》	-10.0203
ntg쎯t쎯	-10.0205
kl쎯g쎯	-10.0216
〕	-10.0217
rbcc쎯	-10.0226
uthp쎯tfl쎯	-10.0228
uk쎯。	-10.0231
acbt0쎯	-10.0234
lc쎯swc쎯	-10.0237
pe쎯fl쎯wf쎯	-10.0238
。ww쎯	-10.0239
kwyg쎯	-10.0239
xi쎯	-10.0241
cds쎯	-10.0243
iy	-10.0246
caq쎯fcl쎯	-10.0247
anu쎯	-10.0248
cep쎯uthp쎯	-10.0251
saj쎯hw쎯	-10.0252
쎁쎉쎅쎂rh쎯	-10.0257
udy쎯,	-10.0259
tg쎯dhb쎯	-10.0269
egc쎯ght쎯ywf쎯	-10.0269
ukn쎯vfhp1쎯tam쎯	-10.0273
smgk쎯	-10.028
ipk쎯tv쎯	-10.0282
pwd쎯dhc쎯	-10.0283
fcl쎯ijlc쎯	-10.0285
dgj쎯tel쎯	-10.0286
gku쎯ywfw쎯	-10.0286
asg쎯	-10.0295
jb쎯hw쎯	-10.03
ke쎯xh쎯	-10.0309
jn쎯sm쎯	-10.0315
ga쎯rd쎯	-10.0322
lfn쎯rq쎯	-10.033
gjq쎯usr쎯	-10.0331
nhd쎯	-10.0334
gyiy쎯	-10.0334
ige쎯jsr쎯	-10.0335
&;	-10.0336
ahtb쎯	-10.0338
rcp쎯	-10.0341
yo쎯dn쎯	-10.035
yff쎯sksw쎯	-10.0353
mjq쎯	-10.0353
ugdu쎯gmy1쎯	-10.0354
ujfj쎯fqb1쎯	-10.0355
▁nua쎯ajdh쎯	-10.036
ic쎯ygk쎯	-10.0361
fgh쎯dg쎯	-10.0364
cqw쎯	-10.0365
efc쎯	-10.0365
dxy쎯	-10.0367
dg쎯qe쎯	-10.0373
gv쎯	-10.0375
oja쎯	-10.0381
xt쎯)	-10.0385
wgk쎯st쎯	-10.0385
y쎯s쎯j쎯	-10.0387
uxh쎯	-10.039
bk쎯tq쎯	-10.0391
itx쎯qh쎯	-10.0394
,wb쎯wu쎯	-10.0395
,fcb쎯	-10.0401
fm쎯yy쎯	-10.0402
uth쎯rx쎯	-10.0402
ftbt쎯dga쎯pgc쎯	-10.0403
qb쎯	-10.0404
wsg0쎯gm쎯	-10.0407
d쎯bk쎯	-10.0408
xx쎯kwgj0쎯	-10.0411
isj쎯	-10.0413
ybf0쎯e쎯	-10.0414
ywwf쎯	-10.042
uqsg쎯img쎯	-10.0429
ybf0쎯	-10.0432
lt쎯ip쎯	-10.0437
atd쎯tg쎯	-10.044
쎂쎀쎀쎇	-10.044
rnc쎯	-10.0441
ayx쎯	-10.0442
uj쎯,	-10.0444
kw쎯s쎯	-10.0447
rpd1쎯	-10.0447
,aw쎯	-10.045
hid쎯uthp쎯	-10.0451
qci쎯	-10.0452
tri쎯	-10.0454
fgi쎯	-10.0456
yny0쎯ngc쎯	-10.0459
dm쎯cf쎯	-10.0461
es쎯bc쎯	-10.0466
sh쎯lpk0쎯	-10.0469
nnh쎯·	-10.0469
쎁쎂쎈	-10.0471
bgh쎯sm쎯	-10.0472
ryn0쎯gj쎯	-10.0474
dgty쎯	-10.0478
rer쎯	-10.0479
uqt쎯lt쎯gf쎯	-10.048
gh쎯r쎯	-10.0481
dn쎯b쎯	-10.0482
o쎯y쎯。	-10.0482
iwe쎯	-10.0487
tq쎯“	-10.0489
쎀gu쎯yy쎯oy쎯,	-10.049
쎁쎉쎆쎉rh쎯	-10.049
aik쎯	-10.0491
uk쎯ta쎯	-10.0493
dm쎯tkw쎯xq쎯	-10.0496
쎈wh쎯	-10.0496
jfd쎯,	-10.0497
rkk쎯wt쎯txi쎯xyc쎯	-10.0499
bg쎯jtg쎯	-10.0502
rn쎯ntk쎯	-10.0504
y1쎯	-10.0504
py쎯lft쎯	-10.0509
()j쎯	-10.051
fuk쎯	-10.051
쎁쎉쎅쎉rh쎯	-10.0512
():	-10.0512
qgo쎯	-10.0513
yn쎯nn쎯	-10.0519
yff쎯yngk0쎯	-10.052
wo쎯	-10.0521
rh쎯hwbc쎯	-10.0532
d쎯wg쎯l쎯	-10.0534
qm쎯gmu1쎯w쎯	-10.0534
d쎯《	-10.0535
dd쎯www쎯	-10.0536
vfb쎯tc쎯	-10.0537
bib쎯ovt쎯	-10.0539
vfhp1쎯sft쎯	-10.0544
tfj1쎯	-10.055
r쎯dd쎯gajf쎯	-10.0553
e쎯“	-10.0555
f쎯aq쎯r쎯	-10.0556
wt쎯tr쎯	-10.0556
ojf쎯	-10.0561
tdt쎯w쎯	-10.0563
ruv쎯kkkk0쎯:	-10.0566
ukn쎯x쎯gj쎯	-10.0567
tgm쎯ltk쎯	-10.0573
wdn쎯yv쎯	-10.0574
cm쎯www쎯	-10.0575
kfi쎯oge쎯	-10.0575
tn쎯nnh쎯ta쎯	-10.0583
vep쎯ws쎯	-10.0583
dgh쎯maw쎯	-10.0593
d쎯ux쎯yiu쎯	-10.0598
lxx쎯wycb쎯	-10.0601
dhq쎯	-10.0601
qh쎯gae쎯	-10.0603
wdt쎯vb쎯	-10.0608
qjn쎯	-10.0612
qtg쎯	-10.0614
jfd쎯r쎯	-10.0616
ym쎯nfc쎯	-10.0616
ra쎯gc쎯	-10.0621
rg쎯go쎯	-10.0623
yn	-10.0624
nx쎯gog쎯	-10.0626
py쎯wf쎯tu쎯ip쎯	-10.0626
khij쎯	-10.0627
r쎯trf쎯hko쎯	-10.0627
ce쎯jg쎯	-10.063
jo쎯dhb쎯	-10.063
lv쎯	-10.0636
쎁쎈쎉	-10.0637
cbq쎯	-10.0642
yi쎯wf쎯	-10.0645
cal쎯	-10.0647
fcr쎯	-10.0648
jvko쎯thg0쎯	-10.0649
rs쎯qgb쎯	-10.0651
a쎯wt쎯;	-10.0652
xln1쎯qt쎯	-10.0654
itd쎯ntg쎯	-10.0657
etg쎯tjh쎯	-10.066
nae쎯ga쎯	-10.0663
egc쎯w쎯n쎯ght쎯ywf쎯	-10.0664
iyc쎯jg쎯	-10.0666
쎁쎉쎆쎆rh쎯	-10.0669
pp쎯rg쎯,	-10.0673
qd쎯rg쎯	-10.0678
egc쎯tv쎯	-10.0686
,pb쎯	-10.069
xfm쎯	-10.0692
tjh쎯uwl쎯	-10.0693
wc쎯ngk쎯r쎯	-10.0693
il쎯	-10.0694
alw쎯bu쎯	-10.0695
sg쎯wc쎯ngk쎯	-10.0696
,mh쎯gf쎯	-10.0699
쎁쎉쎅	-10.0703
vcn0쎯	-10.0704
oge쎯ny쎯	-10.0708
쎇쎉	-10.0713
ugdu쎯gmy1쎯r쎯	-10.0719
dr쎯vck쎯	-10.0723
lu쎯o쎯	-10.0724
xo쎯bd쎯	-10.0726
,ta쎯	-10.0726
py	-10.0727
ht쎯	-10.0727
ykw쎯klj쎯	-10.0728
emc쎯wwv쎯e쎯bv쎯	-10.0731
oufg쎯	-10.0734
twf쎯	-10.0736
uff쎯ytyh쎯	-10.0739
og쎯e쎯bv쎯wc쎯ngk쎯	-10.0739
lfn쎯tqq쎯	-10.0742
jn쎯kht쎯	-10.0743
ftg쎯ty쎯	-10.0744
:《	-10.0745
쎁쎉쎇쎂rh쎯	-10.075
vt쎯rh쎯	-10.0751
ebf1쎯	-10.0752
qtyd1쎯	-10.0754
j쎯g쎯rn쎯	-10.0754
fuf1쎯	-10.0755
ln쎯xwy쎯	-10.0755
,f쎯th쎯	-10.0756
nu쎯nxf쎯	-10.076
lw쎯wc쎯pgc쎯y쎯wtf쎯	-10.076
쎁쎉쎅쎄rh쎯	-10.0761
d쎯g쎯fhn쎯	-10.0761
txi쎯gq쎯u쎯kkk쎯	-10.077
gkq쎯	-10.0773
khtd2쎯	-10.0774
uqd0쎯ddnl쎯	-10.0775
g쎯hko쎯	-10.0775
gae쎯udy쎯	-10.0788
qq쎯al쎯ce쎯	-10.0792
fd쎯egc쎯	-10.0795
uuk0쎯	-10.0799
tf쎯og쎯r쎯	-10.0803
wycm0쎯tfq쎯	-10.0804
pei쎯og쎯w쎯kkkk0쎯	-10.0804
afs쎯hxf쎯	-10.0807
qvfp1쎯tel쎯	-10.0809
쎁쎉쎅쎃rh쎯	-10.0812
j쎯g쎯pe쎯wys쎯	-10.0813
gk쎯dty쎯	-10.0816
f쎯qr쎯	-10.082
pvs쎯wgq쎯	-10.0823
adwn0쎯gcf쎯	-10.0826
djdl2쎯	-10.0827
jqb쎯	-10.0829
so쎯bm쎯	-10.0833
ym쎯dfy쎯	-10.0833
dnv1쎯gu쎯yy쎯oy쎯,	-10.0842
ukn쎯xf쎯	-10.0846
ywwg1쎯	-10.0847
dg쎯l쎯	-10.0847
쎀.쎂	-10.0847
sup쎯	-10.0849
fj쎯fghg쎯	-10.0854
qh쎯l쎯	-10.0855
쎂쎅쎀	-10.0857
v쎯yce쎯	-10.0858
쎀쎃	-10.0859
q쎯r쎯	-10.0863
ipf쎯	-10.0865
nnh쎯k쎯	-10.0866
wc쎯py쎯	-10.0869
쎀쎆	-10.0876
gj쎯a쎯dd쎯ip쎯	-10.0886
sgjq쎯	-10.0888
,fm쎯	-10.0888
jhnr쎯	-10.0888
vfb쎯hxf쎯	-10.0889
ndn쎯	-10.0891
ia쎯ymhj쎯	-10.0894
r쎯wt쎯kkk쎯	-10.0899
fgh쎯dd쎯	-10.0899
jsd쎯oug쎯	-10.0901
udjh쎯	-10.0903
xv쎯wx쎯	-10.0904
whf쎯og쎯r쎯	-10.0906
wb쎯wu쎯r쎯	-10.0907
udy쎯ukq쎯	-10.0908
,itx쎯rdc쎯	-10.0909
bm쎯ffff5쎯	-10.0912
m쎯su쎯	-10.0916
f쎯gkp쎯	-10.0927
쎈쎇	-10.0928
ip쎯km쎯	-10.0929
vfhp1쎯e쎯	-10.0931
쎅wc쎯jfd쎯	-10.0936
gkp쎯wycm0쎯	-10.094
iyw쎯wsg0쎯	-10.095
nh쎯wys쎯	-10.095
tg쎯fcl쎯	-10.0954
xwy쎯tg쎯gxi쎯	-10.0957
▁쎄、	-10.0957
bs쎯qiu0쎯	-10.0963
r쎯ymc쎯yf쎯	-10.0965
wynb쎯gd쎯	-10.0965
ddh쎯uyh쎯	-10.0965
bfm쎯pl쎯	-10.0974
iwyf0쎯	-10.0978
lpdk0쎯aq쎯	-10.0989
ga쎯ud쎯	-10.0989
』	-10.0998
bu쎯pfjm1쎯	-10.1001
je쎯jtg쎯	-10.1001
umd0쎯kkkk0쎯	-10.1014
쎁쎉쎆쎁rh쎯	-10.1018
gkih쎯gj쎯	-10.1018
qq쎯w쎯	-10.1019
l쎯by쎯	-10.1019
pyj쎯tn쎯	-10.1019
nuk1쎯	-10.1019
dy쎯gu쎯	-10.1021
gmww쎯rh쎯	-10.1022
sm쎯wf쎯	-10.1028
ugh쎯udy쎯	-10.1029
gu쎯dr쎯	-10.1031
dif쎯f쎯	-10.1031
bn쎯i쎯	-10.1033
tvfh1쎯jgm쎯	-10.1034
fgh쎯lh쎯	-10.1035
ex쎯eyn쎯	-10.1036
iw쎯fhb쎯	-10.1037
qgh쎯	-10.1038
tfq쎯rg쎯d쎯	-10.1042
tak쎯xe쎯	-10.1055
mw쎯qh쎯	-10.1055
pv쎯egc쎯	-10.1056
ps쎯ihc쎯	-10.1056
gaj쎯	-10.1062
apk쎯og쎯	-10.1062
wff쎯	-10.1062
h쎯xe쎯	-10.1068
itk쎯bj쎯	-10.1069
lqj쎯	-10.107
v쎯jn쎯	-10.1071
qd쎯dmj1쎯	-10.1072
xtf쎯	-10.1079
jtd쎯	-10.1081
he쎯	-10.1089
yte쎯	-10.1091
sfi쎯uwy1쎯wx쎯	-10.1092
ssyx쎯	-10.11
te	-10.1101
ssk쎯	-10.1103
eri쎯	-10.1106
eb쎯tl쎯,	-10.1113
쎈쎉	-10.1116
irr쎯	-10.1116
wcn쎯	-10.1118
ip쎯sy쎯ywx쎯yygy쎯	-10.1119
-쎆	-10.1124
쎁쎃쎀	-10.1125
egc쎯xe쎯	-10.1127
dq쎯,	-10.1129
fghy0쎯	-10.1129
pu쎯og쎯	-10.113
gah쎯ufy쎯	-10.1131
bqv쎯	-10.1134
tx쎯g쎯uqw쎯	-10.1138
t쎯gu쎯	-10.114
cep쎯et쎯	-10.114
ta쎯。	-10.1144
k쎯e쎯	-10.1145
qdb쎯bwg쎯	-10.1155
tgv쎯bd쎯	-10.1158
ls쎯cw쎯	-10.1163
if쎯fwm쎯	-10.1167
xjm쎯et쎯	-10.1172
쎁쎉쎇쎄rh쎯	-10.1172
쎂쎀쎀쎉	-10.1173
vtk쎯wsg0쎯	-10.1173
mqc쎯nudu쎯	-10.1175
tgm쎯	-10.1178
vi쎯ujf쎯	-10.1178
gajf쎯kgn쎯	-10.1179
ja쎯	-10.1179
fny쎯jghm1쎯	-10.1189
nty1쎯fj쎯	-10.1191
sf쎯、	-10.1192
gjq쎯j쎯	-10.1196
vk쎯hx쎯	-10.1197
c쎯ue쎯	-10.1199
pgk쎯e쎯	-10.1202
amw쎯isk쎯	-10.1205
ou쎯isgg0쎯	-10.1209
쎁쎉쎃쎈rh쎯	-10.1214
wxf쎯w쎯	-10.1215
qe쎯ya쎯	-10.1219
aqt쎯tj쎯b쎯	-10.1219
uth쎯tfq쎯	-10.122
ripq1쎯rufh1쎯	-10.122
oy쎯。	-10.1221
rqa쎯	-10.1223
jd쎯	-10.1223
ip쎯fghg쎯	-10.1225
,you1쎯	-10.1229
nhj쎯rrr쎯rfm쎯	-10.123
ynnd쎯	-10.123
。“	-10.1232
ftbt쎯rep쎯。	-10.1233
쎁쎀dq쎯	-10.1234
tmh0쎯	-10.1236
qtgw1쎯	-10.1237
tfpd쎯	-10.1237
ai쎯yiu쎯	-10.1237
쎁쎉쎇쎇rh쎯	-10.124
lwg쎯udp쎯	-10.124
j쎯wh쎯	-10.1242
rae쎯	-10.1246
nwy쎯	-10.1253
ukn쎯rmc쎯uqwm0쎯	-10.1255
dfek쎯	-10.1262
buj쎯djg쎯	-10.1263
w쎯n쎯qev쎯yt쎯pl쎯	-10.1264
쎁쎉쎄쎅rh쎯	-10.1265
wfny0쎯》	-10.1267
iq쎯ip쎯	-10.127
wge쎯	-10.127
ipk쎯r쎯	-10.1273
cbn0쎯	-10.1273
▁쎄.	-10.1275
wfny0쎯dskf쎯	-10.1275
ip쎯ddm쎯fghg쎯	-10.1277
dgj쎯wrh2쎯	-10.1277
itd쎯fcl쎯,	-10.1281
fue쎯	-10.1282
tp쎯uthp쎯	-10.1284
wn쎯fqb1쎯,	-10.1284
쎁쎀쎀%	-10.1285
tld1쎯tp쎯	-10.1292
,k쎯aw쎯ipk쎯km쎯,	-10.1293
wdn쎯te쎯r쎯	-10.1295
uy쎯rh쎯	-10.1298
u쎯tg쎯r쎯	-10.1299
tyg쎯tyg쎯	-10.13
umc쎯	-10.1301
fny쎯og쎯tv쎯km쎯wf쎯	-10.1302
fny쎯og쎯wx쎯	-10.1305
fcp쎯wt쎯	-10.1306
,ua쎯d쎯	-10.1306
fm쎯jj쎯	-10.1309
aib쎯lfnh쎯mw쎯	-10.1311
dd쎯tffh1쎯	-10.1312
ntg쎯st쎯	-10.1315
):	-10.1316
lfo쎯dx쎯ia쎯	-10.1316
ovt쎯rnd1쎯ylk2쎯	-10.1316
g쎯gcft2쎯	-10.1319
es쎯mqc쎯	-10.132
xa쎯pl쎯	-10.1323
ians0쎯	-10.1325
sgx쎯	-10.1332
dgt1쎯yny0쎯	-10.1334
txg쎯gd쎯	-10.1337
fpb쎯	-10.1339
)、《	-10.1341
i쎯qy쎯	-10.1341
k쎯mmm쎯	-10.1345
tdg1쎯wy쎯	-10.1351
nnnn쎯dn쎯o쎯	-10.1358
pv쎯rdj쎯	-10.1359
eb쎯tl쎯kkd쎯	-10.1364
xvk쎯	-10.1366
wv쎯sgn쎯	-10.1367
,nnnn쎯	-10.1374
uai쎯	-10.138
rx쎯v쎯	-10.1381
fhu쎯tm쎯	-10.1381
qq쎯rh쎯r쎯	-10.1383
h쎯e쎯	-10.1383
quj쎯udi쎯	-10.1383
lfod1쎯	-10.1388
tu쎯ta쎯	-10.1389
vtd쎯	-10.1389
j쎯“	-10.1393
r쎯yy쎯aa쎯	-10.1393
wsg0쎯tkw쎯	-10.1397
aqo쎯	-10.1398
ijx쎯uxt쎯ffff5쎯	-10.1401
up쎯l쎯	-10.1411
jb쎯o쎯	-10.1412
dd쎯std쎯	-10.1417
emc쎯sfiu0쎯	-10.1419
r쎯ftbt쎯ip쎯	-10.1419
g쎯tg쎯	-10.1419
iyc쎯tkgg0쎯	-10.1419
e쎯:	-10.142
ukn쎯xyc쎯	-10.1422
wh쎯wsg0쎯	-10.1423
lkc쎯	-10.1432
sfiq쎯	-10.1433
쎂쎀쎁쎁	-10.1433
ymc쎯yf쎯jgm쎯	-10.1434
ftx쎯rh쎯	-10.1446
fnrt쎯h쎯	-10.1447
sh쎯xf쎯wgk쎯	-10.1447
ntg쎯、	-10.1455
pfq쎯gkih쎯	-10.1457
dr쎯go쎯	-10.1457
ipk쎯xeg쎯dn쎯km쎯	-10.1459
gjq쎯qq쎯	-10.1459
dmh쎯nnk쎯	-10.1463
xnf쎯xq쎯	-10.1464
쎅dq쎯	-10.1469
jvko쎯je쎯	-10.147
dif쎯	-10.147
o쎯y쎯r쎯	-10.1473
if쎯w쎯	-10.1475
xcy쎯	-10.1478
ftbt쎯bk쎯a쎯	-10.1483
r쎯ad쎯dbm쎯h쎯	-10.1486
it쎯vvv쎯	-10.1489
qqq쎯	-10.149
pei쎯og쎯dd쎯ip쎯	-10.1492
rfw쎯	-10.1493
oge쎯pnt쎯	-10.1494
ep쎯vb쎯ftj쎯	-10.1497
o쎯pt쎯yne쎯rj쎯waw쎯	-10.1499
dl쎯kq쎯h쎯	-10.15
um쎯qyv쎯	-10.1505
vvv쎯w쎯	-10.1505
bwf쎯ntk쎯	-10.1506
nk쎯qkq쎯	-10.1506
dfy쎯xpw쎯	-10.1507
wgu쎯	-10.1515
xkjn1쎯	-10.1518
ihcv쎯	-10.152
c쎯adw쎯	-10.1527
txgi2쎯wxf쎯	-10.1531
쎅쎀dq쎯	-10.1531
sg쎯f쎯	-10.1534
rvyf쎯	-10.1537
cd쎯lk쎯a쎯wt쎯,	-10.1537
ygu쎯ywx쎯	-10.1539
”t쎯“	-10.1539
i쎯s쎯	-10.154
tmgt1쎯	-10.1541
qq쎯su쎯	-10.1543
kg쎯gm쎯	-10.1544
o쎯k쎯l쎯	-10.1545
aw	-10.1545
wtd쎯	-10.1546
qyvl쎯ip쎯	-10.155
fhn쎯yq쎯	-10.1554
tffu쎯qq쎯tkh쎯	-10.1556
a쎯tkgg0쎯ip쎯bpf쎯	-10.1556
lg쎯tkgg0쎯	-10.1557
rum쎯	-10.1563
pe쎯nd쎯	-10.1565
f쎯ltu쎯	-10.1566
ymhj쎯k쎯ny쎯	-10.1567
쎁쎉쎇쎃rh쎯	-10.1568
sbd쎯lkmi0쎯gae쎯	-10.1572
yvh쎯wa쎯	-10.1574
reh쎯	-10.1576
iann쎯	-10.1577
쎉쎂	-10.1579
vkb쎯	-10.158
,kgn쎯	-10.158
qmq쎯qr쎯	-10.1583
lh쎯dd쎯	-10.1593
쎉쎃	-10.1595
rrr쎯oyvk0쎯	-10.1596
ijl쎯riu쎯	-10.1599
rma쎯	-10.1599
gj쎯wynn3쎯,	-10.16
wtr쎯	-10.1602
fhv쎯xe쎯	-10.1605
gef쎯dw0쎯	-10.1609
qt쎯bb쎯	-10.161
iqc쎯cep쎯	-10.1611
tk쎯dd쎯	-10.1611
iej쎯	-10.1612
hgm쎯	-10.1612
。sg쎯nnh쎯	-10.1613
nnh쎯tdij쎯	-10.1613
lkb쎯	-10.1616
rep쎯sc쎯	-10.1619
da쎯dk쎯,	-10.1628
ians0쎯uthp쎯	-10.1629
jgm쎯aib쎯ip쎯bpf쎯	-10.1632
v쎯fcl쎯sm쎯	-10.1637
wc쎯ngk쎯reh쎯e쎯	-10.1641
wht쎯nty1쎯	-10.1644
rpw쎯emc쎯	-10.1644
ynm쎯	-10.1645
qk쎯pe쎯	-10.1645
lrj쎯	-10.1649
wfny0쎯xyc쎯r쎯	-10.165
rpws쎯yfy1쎯	-10.1651
iie쎯by쎯	-10.1652
sg쎯tu쎯ip쎯dl쎯	-10.166
gmi쎯iry쎯	-10.1663
ur쎯	-10.1665
h0쎯	-10.1673
m1쎯	-10.1674
v쎯fhn쎯	-10.1675
gmf쎯uqw쎯	-10.1675
h쎯dm쎯	-10.1676
fqu쎯o쎯	-10.1677
kkfb1쎯	-10.1679
fd쎯xte쎯	-10.168
nj쎯	-10.1684
ipk쎯xeg쎯nnh쎯yn쎯	-10.1687
pwkw쎯	-10.1689
nae쎯gm쎯	-10.169
bpf쎯ta쎯	-10.1694
ua쎯i쎯	-10.1695
wgk쎯ec쎯	-10.1698
쎂쎀쎀쎃	-10.1701
djd쎯iyt0쎯	-10.1702
lq쎯cn쎯	-10.1704
maw쎯gajf쎯	-10.1704
lk쎯h쎯	-10.1704
dn쎯w쎯	-10.1705
raw쎯	-10.1707
kkd쎯、	-10.1709
fwf쎯	-10.171
kb쎯	-10.1716
rvyo쎯gkp쎯	-10.1717
r쎯s쎯fiy쎯	-10.1723
whtn1쎯	-10.1726
xh쎯nf쎯	-10.1736
fqp쎯tkgg0쎯	-10.174
w쎯n쎯atd쎯bpf쎯	-10.1745
qnq쎯wyv쎯	-10.1746
ym쎯kkk쎯rfm쎯	-10.1748
o쎯ad쎯dbm쎯	-10.1749
ywfw쎯	-10.1749
,hx쎯	-10.1752
qna쎯	-10.1753
awv쎯	-10.1763
kg	-10.1764
uqt쎯yid쎯	-10.1765
ip쎯wug1쎯。	-10.1769
doq쎯	-10.1771
dgkn쎯epc쎯	-10.1775
rdj쎯gq쎯	-10.178
rg쎯adwe1쎯	-10.1782
jy쎯hko쎯	-10.1783
fjh0쎯tr쎯	-10.1784
wx쎯r쎯	-10.1785
nr쎯	-10.179
rg쎯r쎯	-10.1794
wt쎯og쎯	-10.1797
wc쎯dmh쎯	-10.1802
sf쎯,	-10.1806
aigy쎯	-10.1808
vij쎯	-10.1808
madt2쎯	-10.181
wc쎯ngk쎯。	-10.1812
xq쎯쎁	-10.1813
wfg1쎯	-10.1815
qyvl쎯gh쎯	-10.1816
bm쎯thd쎯	-10.1817
fn쎯》	-10.1818
itd쎯fcl쎯。	-10.1818
tffu쎯bk쎯。	-10.1821
yygt쎯itp쎯yid쎯et쎯	-10.1821
ql쎯	-10.1823
klj쎯jfcf쎯	-10.1826
,wkh쎯fj쎯	-10.1834
qkqy0쎯	-10.1839
yygy쎯tr쎯wk쎯ryn0쎯	-10.1839
oqdo쎯	-10.1847
rd쎯	-10.1851
shi쎯	-10.1853
k쎯l쎯aw쎯u쎯ipk쎯。	-10.1855
ugdu쎯vb쎯	-10.1856
iss쎯	-10.1857
쎆쎁	-10.1858
쎈쎄	-10.186
wdn쎯te쎯ftbt쎯jgm쎯	-10.1863
iw쎯vfhp1쎯	-10.1865
ese쎯qc쎯	-10.1866
qtny1쎯	-10.1867
wys쎯》	-10.1867
ode쎯	-10.1868
bv쎯rmhj쎯	-10.1875
kv쎯	-10.1876
xh쎯fhn쎯r쎯	-10.1878
。gm쎯	-10.1881
mn쎯	-10.189
lg쎯uj쎯	-10.189
,ntk쎯gf쎯	-10.1891
쎁쎉쎄쎈rh쎯	-10.1891
iv쎯rh쎯	-10.1892
,yt쎯ty쎯	-10.1893
ukn쎯wc쎯ngk쎯	-10.1895
uk쎯wug1쎯	-10.1896
xy쎯	-10.1902
ltu쎯pvs쎯	-10.1903
trf쎯pg쎯	-10.1906
jtyl쎯hich쎯tp쎯gj쎯	-10.1913
fha쎯go쎯fha쎯	-10.1913
bpx쎯	-10.1915
j쎯g쎯uk쎯	-10.1916
”j쎯	-10.1919
쎁쎁쎀	-10.192
aws쎯kf쎯	-10.1921
tfq쎯fj쎯wh쎯w쎯	-10.1922
tn쎯pnt쎯	-10.1923
ypt쎯oy쎯,	-10.1925
gkim0쎯	-10.1926
jb쎯qq쎯	-10.1933
sk쎯mqb쎯	-10.1934
(쎁쎉쎀	-10.1935
aiit쎯	-10.1936
dm쎯tkw쎯쎂	-10.1936
pnt쎯fffy쎯	-10.1936
dyn쎯ya쎯	-10.1937
gqjo0쎯fghg쎯	-10.1944
tu쎯ip쎯ad쎯qqqq1쎯	-10.1946
rd쎯nae쎯	-10.1946
쎁쎉쎅쎁rh쎯	-10.1951
gk	-10.1954
▁yynw1쎯	-10.1955
tduh쎯maw쎯	-10.1957
wh쎯sf쎯n쎯ih쎯xeg쎯,	-10.1959
sh쎯wny0쎯	-10.1962
jjjj쎯adwe1쎯:	-10.1963
jfj쎯	-10.1964
tr	-10.1967
adwe1쎯uj쎯,	-10.1973
》r쎯	-10.1978
vf쎯ra쎯	-10.1978
sm쎯kkd쎯	-10.198
sf쎯w쎯。	-10.1985
fh쎯gc쎯	-10.1987
pyv쎯	-10.1987
,q쎯	-10.1989
og쎯xgm쎯	-10.199
jgm쎯aib쎯	-10.1991
ygh쎯je쎯	-10.1993
ftg쎯pwfi쎯	-10.1994
%,	-10.1995
apg쎯dgh쎯	-10.1996
ydjn1쎯	-10.1996
jan쎯	-10.1996
wi쎯	-10.1997
/쎂	-10.2008
uym쎯	-10.2009
tdh쎯	-10.201
mdf쎯dgtg쎯	-10.2012
ayn쎯	-10.2012
iqpl1쎯or쎯	-10.2015
sq쎯vfhp1쎯	-10.2018
fj쎯bm쎯kkkk0쎯	-10.202
xat쎯	-10.2021
g쎯wa쎯	-10.2026
nkue0쎯	-10.2029
:쎄	-10.2032
pyg쎯ytyh쎯	-10.2036
hka쎯tmc쎯	-10.2038
eb쎯qnth쎯	-10.204
wdt쎯bm쎯	-10.2041
uqyl쎯	-10.2043
ugdu쎯sy쎯ip쎯bpf쎯	-10.2043
opw쎯	-10.2044
a쎯og쎯dd쎯ip쎯	-10.2051
rry쎯	-10.2053
쎃.쎀	-10.2064
tp쎯gj쎯a쎯wt쎯	-10.2066
sd쎯	-10.2069
ssq쎯shn쎯	-10.207
sym쎯	-10.2072
dgt1쎯um쎯	-10.2082
dn쎯ftjb쎯ymhj쎯	-10.2083
tg쎯dn쎯	-10.2083
trs쎯trtg쎯	-10.2084
xtk쎯	-10.2085
usr쎯vfhp1쎯	-10.2088
tffu쎯pei쎯wt쎯tr쎯。	-10.2092
dnv1쎯ylf0쎯	-10.2095
ta쎯adwe1쎯ww쎯gk쎯	-10.2095
rnv쎯	-10.2097
m쎯hi쎯	-10.2097
hxf쎯	-10.2101
jgm쎯tg쎯	-10.2104
mdo쎯	-10.2104
xk쎯gqjo0쎯	-10.2104
tld1쎯iyw쎯	-10.2105
qh쎯ygk쎯	-10.2106
쎀쎄	-10.2108
yynw1쎯suq쎯	-10.211
fjt쎯btg쎯	-10.2115
fs쎯	-10.212
gjq쎯qq쎯r쎯	-10.2121
dhv쎯	-10.2121
mq쎯jy쎯aq쎯	-10.2123
fjw쎯	-10.2125
tga쎯fh쎯	-10.2125
bda쎯	-10.2127
k쎯l쎯tu쎯ip쎯bpf쎯	-10.2129
nmh쎯	-10.2131
mmgd쎯	-10.2132
i쎯gc쎯	-10.2132
nge쎯dgkn쎯	-10.2139
atj쎯	-10.2139
aqg쎯aqr쎯	-10.2147
,dl쎯wtf쎯	-10.2147
tv쎯wf쎯	-10.215
jn쎯pym쎯ndj쎯	-10.2154
pt쎯yne쎯r쎯	-10.2157
k쎯ny쎯、	-10.2157
쎂쎀쎀쎅	-10.2159
ynf쎯	-10.2161
kw쎯ce쎯	-10.2163
,rj쎯ym쎯	-10.2165
vk쎯wynb쎯	-10.2167
lkd쎯:“	-10.2167
awx쎯tg쎯	-10.2168
ll쎯bb쎯	-10.2168
l쎯e쎯	-10.217
g쎯rn쎯	-10.2171
r쎯jf쎯uj쎯	-10.2171
e쎯g쎯wh쎯	-10.2172
gm쎯o쎯	-10.2174
ftbt쎯xan쎯	-10.2176
x쎯cwg쎯,	-10.2179
k쎯fny쎯	-10.218
sg쎯tmd쎯	-10.2182
tx쎯ag쎯	-10.219
쎁kgn쎯	-10.2191
trng쎯	-10.2192
j쎯l쎯mw쎯	-10.2194
de	-10.2197
qdm쎯eaj쎯	-10.2205
▁jb쎯dd쎯	-10.2206
yfy1쎯	-10.2208
wam쎯ffi쎯	-10.2209
qyv쎯	-10.221
dlf쎯	-10.2212
k쎯ih쎯ip쎯	-10.2213
oo쎯、	-10.2215
yi쎯sk쎯c쎯	-10.2216
auqw쎯	-10.2216
klk쎯kdj쎯	-10.2218
쎀.쎃	-10.222
wbj쎯lw쎯gf쎯	-10.2221
uqt쎯uwl쎯	-10.223
dtf쎯wgkb2쎯	-10.2234
imj쎯pg쎯	-10.2234
g쎯gh쎯	-10.2235
e쎯dif쎯f쎯	-10.2239
gae쎯dn쎯r쎯	-10.2241
idt쎯	-10.2243
wat쎯	-10.2243
tg쎯u쎯r쎯	-10.2244
uo쎯ynm쎯	-10.2248
gkp쎯e쎯	-10.2249
m2	-10.225
riq쎯hka쎯	-10.2254
,uq쎯cep쎯wgj쎯tjh쎯	-10.2254
rs쎯ga쎯	-10.2258
tffu쎯tffu쎯	-10.2258
dm쎯ow쎯	-10.2258
aga쎯	-10.2264
pvs쎯wrh2쎯	-10.2267
ukn쎯uk쎯	-10.2267
쎁쎈쎇	-10.2267
qrn쎯	-10.227
hxw쎯	-10.2277
---	-10.2279
an쎯lwj쎯h쎯	-10.2279
oge쎯amd쎯	-10.2279
yvi쎯tjt쎯	-10.2281
쎀～	-10.2281
k쎯sghg1쎯atd쎯	-10.2283
yssc2쎯if쎯	-10.2287
쎂쎂쎀	-10.2293
pym쎯ipmq쎯	-10.2293
m쎯rh쎯	-10.2296
gah쎯ic쎯ymhj쎯	-10.2298
ub쎯qk쎯	-10.2299
ujt쎯	-10.23
,lk쎯ty쎯	-10.2302
pwl쎯	-10.2303
pq쎯	-10.2309
g쎯pg쎯r쎯	-10.2315
iyw쎯dfy쎯	-10.2315
hjs쎯	-10.2317
lu쎯ym쎯	-10.2318
saj쎯fnw쎯	-10.2318
tu쎯ip쎯dga쎯pwv쎯	-10.2318
쎇쎁	-10.2319
fhv쎯ymhj쎯	-10.2321
uk쎯,	-10.2321
ai쎯fm쎯gog쎯	-10.2327
lfnh쎯xat쎯	-10.2335
fwm쎯mj쎯	-10.2337
ugm쎯w쎯	-10.2339
rrk쎯	-10.234
fqu쎯e쎯	-10.2343
avd쎯	-10.2344
vcb쎯sk쎯。	-10.2348
wxm쎯tr쎯	-10.2349
fjf쎯	-10.235
whf쎯og쎯tp쎯gj쎯	-10.235
ugdu쎯iyt0쎯	-10.2351
ukqb0쎯pfjm1쎯	-10.2351
tg쎯gj쎯	-10.2352
tjtl쎯gfi쎯	-10.2353
tg쎯jjjj쎯	-10.2357
gu쎯oy쎯	-10.2364
ue쎯tmd쎯j쎯	-10.2367
elv쎯	-10.2368
.쎁쎀	-10.2373
qmq쎯ggw쎯	-10.2374
tqf쎯	-10.2376
qtb쎯ldj쎯	-10.2378
et쎯wtp쎯	-10.2378
vo쎯itd쎯	-10.2382
qiu0쎯·	-10.2384
k쎯yygy쎯txi쎯	-10.239
ftbt쎯yce쎯nnk쎯	-10.2392
god쎯yak쎯	-10.2393
wdt쎯if쎯	-10.2399
ul쎯aqt쎯	-10.2399
쎁쎉쎇쎁rh쎯	-10.24
fay쎯	-10.2402
,wg쎯	-10.2412
xk쎯wx쎯	-10.2412
ynky2쎯tj쎯b쎯	-10.2412
jx쎯jhny쎯	-10.2413
wwwk쎯tq쎯	-10.2413
cyi쎯	-10.2415
oge쎯ya쎯	-10.2418
ltu쎯gae쎯	-10.2422
c쎯o쎯	-10.2426
ovt쎯rpw쎯	-10.2428
쎁쎉쎃쎄rh쎯	-10.2435
wkh쎯	-10.2442
쎁쎉쎃쎇rh쎯	-10.2442
ito쎯	-10.2445
oa쎯mdo쎯	-10.2445
쎈쎃	-10.2447
trf쎯qc쎯r쎯	-10.2452
rawk쎯	-10.2453
wgg0쎯	-10.2458
wbj쎯vck쎯w쎯	-10.2468
mwy쎯	-10.2469
gmww쎯uqw쎯	-10.2473
ivg쎯	-10.2477
쎁)	-10.2477
ygk쎯ujf쎯	-10.248
jgm쎯uqwm0쎯	-10.2483
qyi1쎯	-10.2484
d쎯l쎯mw쎯	-10.2491
gmap쎯	-10.2492
mhj쎯	-10.2493
gg쎯fgh쎯	-10.2494
tkw쎯lx쎯	-10.2501
d쎯p쎯jfd쎯	-10.2502
b쎯“	-10.2505
y쎯apk쎯	-10.2513
dj쎯vtg쎯	-10.2513
쎄.쎅	-10.2517
gkih쎯gae쎯	-10.2522
r쎯rfc쎯sy쎯	-10.2526
qkm쎯k쎯	-10.2527
js쎯pu쎯	-10.2527
wj쎯rfm쎯	-10.2527
ypt쎯	-10.2527
ngk쎯wyc쎯	-10.2531
jgf쎯	-10.2534
tyna2쎯,	-10.2535
ln쎯ftg쎯	-10.2535
wtc쎯	-10.2538
d쎯ugdu쎯l쎯	-10.254
km쎯、	-10.254
gk쎯,	-10.2541
txg쎯g쎯	-10.2541
xj쎯d쎯	-10.2542
fn	-10.2543
jjjj쎯rb1쎯	-10.2545
”(	-10.2548
vvv쎯qt쎯	-10.2549
n쎯ght쎯	-10.2552
gdj쎯	-10.2554
ftjb쎯wf쎯	-10.2558
쎁쎈쎈	-10.2559
ga쎯v쎯r쎯	-10.256
uq쎯cep쎯wgj쎯tjh쎯	-10.2562
x쎯iyj쎯ukn쎯nh쎯ty쎯	-10.2567
uqwv쎯	-10.2567
iy쎯mm쎯uqwm0쎯sg쎯	-10.2569
xeg쎯xkw쎯pu쎯ytb쎯	-10.2572
j0쎯	-10.2573
ps쎯egc쎯	-10.2574
iux쎯	-10.2575
ipk쎯fc쎯uk쎯	-10.2575
ad쎯uk쎯	-10.2576
ftj쎯r쎯	-10.2576
td쎯ykw쎯u쎯sc쎯	-10.2576
vjs쎯	-10.2577
puv쎯adwe1쎯	-10.2577
uqf쎯adw쎯	-10.2578
쎁쎉쎄쎆rh쎯	-10.258
、ith쎯	-10.2582
g쎯fnrt쎯	-10.2585
cd쎯lk쎯a쎯wt쎯	-10.2586
pnt쎯dcg쎯	-10.2586
wg쎯usr쎯	-10.259
wjg쎯j쎯	-10.2591
fjt쎯	-10.2593
j쎯q쎯l쎯	-10.2595
std쎯ivw쎯	-10.2596
qqc쎯	-10.2597
ps쎯dht쎯	-10.2599
。”《	-10.26
gkl쎯y쎯wtf쎯、	-10.2602
de쎯shi쎯ow쎯	-10.2603
-쎅	-10.2603
ry쎯	-10.2606
ipw쎯ya쎯	-10.2607
▁rn쎯ntk쎯	-10.261
fjg쎯	-10.2612
(쎁쎉쎁	-10.2613
y쎯lw쎯	-10.2613
tg쎯。	-10.2619
whw쎯	-10.2624
ijl쎯ytyh쎯	-10.2626
tfk쎯rh쎯	-10.2634
ipg쎯dwg쎯	-10.2639
쎂쎀쎁	-10.2646
temk쎯ter1쎯	-10.2647
쎁.쎈	-10.2647
ugdu쎯wyv쎯	-10.2655
쎂)	-10.2656
puhc쎯tq쎯o쎯	-10.2665
tuk쎯tl쎯	-10.2665
ice쎯	-10.2666
쎃.	-10.2666
wb쎯d쎯	-10.2667
khgp0쎯wfny0쎯	-10.2669
g쎯wsg0쎯wx쎯	-10.2674
puhc쎯iwyf2쎯o쎯	-10.2676
r쎯tk쎯tkh쎯	-10.2678
sk쎯waw쎯	-10.2679
yf쎯jg쎯	-10.2679
tjh쎯gog쎯	-10.268
》aqt쎯	-10.2683
go쎯r쎯	-10.2684
ih쎯xeg쎯	-10.2688
nnk쎯ta쎯	-10.2689
ruv쎯nh쎯	-10.269
ssg쎯	-10.2694
×쎂	-10.2694
g쎯rx쎯	-10.2697
jn쎯wy쎯	-10.27
쎅)	-10.2701
fqb1쎯rh쎯	-10.2708
iwgu쎯	-10.2709
wtf쎯bk쎯	-10.2709
uqwm0쎯ipw쎯	-10.2709
aynr쎯	-10.271
i쎯td쎯	-10.2711
kkkk0쎯epw쎯	-10.2714
ym쎯dp쎯	-10.2715
wfny0쎯dgkn쎯kkd쎯	-10.2717
eb쎯tl쎯r쎯	-10.2718
wdn쎯ahty쎯	-10.2726
txi쎯xyc쎯、	-10.2731
sfw쎯	-10.2732
xqc쎯cf쎯	-10.2736
,x쎯fp쎯	-10.274
qqw쎯	-10.274
txg쎯jjjj쎯	-10.274
tv쎯rta쎯	-10.2741
쎇wh쎯	-10.2743
ton쎯	-10.2745
m쎯ip쎯	-10.2747
g쎯wdm쎯	-10.275
iak쎯ssss쎯	-10.2751
mqq쎯hhu0쎯	-10.2752
》t쎯《	-10.276
c쎯w쎯o쎯sg쎯	-10.2761
쎁쎉쎄쎇rh쎯	-10.2763
vfhp1쎯l쎯	-10.2764
g쎯uk쎯	-10.2765
ih쎯qt쎯	-10.2767
usr쎯wxf쎯	-10.2767
ulk1쎯	-10.277
sgy쎯	-10.2771
fggh쎯gk쎯	-10.2772
nnu쎯	-10.2776
sw쎯pwfi쎯	-10.278
sgty쎯	-10.2781
xyc쎯ick쎯	-10.2783
nfh1쎯	-10.2789
wht쎯vfhp1쎯	-10.2792
jn쎯xjt쎯	-10.2792
xrc쎯	-10.2793
o쎯k쎯ny쎯	-10.2794
udyj쎯tg쎯	-10.2798
mq쎯kfi쎯	-10.28
dr쎯bb쎯	-10.28
wx쎯、	-10.2801
kqb쎯	-10.2807
qtjh0쎯	-10.2811
d쎯gf쎯	-10.2812
kfi쎯uthp쎯	-10.2813
rqb0쎯rmhj쎯	-10.2815
ojf쎯ruv쎯	-10.2815
wc쎯y쎯	-10.2816
ukqb0쎯qv쎯lt쎯	-10.2818
(-)	-10.2819
nty1쎯xyna0쎯	-10.282
wvn쎯	-10.2822
쎁쎉쎃쎅rh쎯	-10.2826
★	-10.2826
쎁쎈쎆	-10.2826
mc쎯mrg0쎯	-10.2827
y쎯nf쎯	-10.2832
gh쎯ntk쎯	-10.2832
nyp쎯	-10.2835
±	-10.2838
tq쎯o쎯“	-10.285
ii쎯tev쎯	-10.2853
wxm쎯tmh0쎯	-10.2856
trf쎯tkh쎯	-10.2856
awx쎯faj쎯	-10.2859
쎇eee쎯cd쎯lk쎯a쎯wt쎯	-10.286
,gae쎯dn쎯	-10.2861
“k쎯l쎯	-10.2863
awsk쎯uff쎯	-10.2864
rua쎯	-10.2864
xfnh쎯	-10.2865
mhu쎯	-10.2866
am쎯fmud쎯。	-10.2869
ige쎯wxf쎯dd쎯ip쎯	-10.2869
gc쎯dp쎯	-10.2869
gh쎯go쎯	-10.2872
rfm쎯jg쎯tp쎯gj쎯	-10.2874
e쎯rn쎯	-10.2875
vvv쎯bynw0쎯	-10.2875
gkl쎯nnh쎯yn쎯	-10.288
nv쎯	-10.2885
pwt쎯kkkk0쎯	-10.2885
yyne쎯	-10.2888
ymf쎯kfi쎯	-10.289
cnh쎯tqt쎯	-10.2892
쎁adm쎯	-10.2892
ssu쎯	-10.2893
gd쎯f쎯	-10.2896
ajt쎯qc쎯	-10.2897
mfk쎯adwe1쎯	-10.2898
wgj쎯rgv쎯	-10.2901
k쎯l쎯iv쎯wa쎯	-10.2903
tg쎯u쎯ad쎯f쎯	-10.2906
kjj쎯thg0쎯	-10.2907
fhn쎯,	-10.291
쎂.쎁	-10.291
wgkq0쎯et쎯r쎯	-10.2911
xeg쎯dn쎯。	-10.2916
jyie쎯wqj쎯	-10.2918
vkf1쎯	-10.2919
mhh쎯	-10.2921
,ipkh1쎯	-10.2928
ryj쎯	-10.293
wk쎯qyvl쎯	-10.2934
qevj쎯	-10.2938
rwb쎯	-10.2938
wqbh쎯	-10.294
ajdn쎯	-10.2941
sve쎯sg쎯	-10.2946
wa쎯ge쎯wt쎯	-10.2949
mfky쎯ynt쎯	-10.2952
uter쎯	-10.2953
yy쎯aa쎯:	-10.2955
wv쎯dmh쎯d쎯	-10.2963
eqn쎯	-10.2969
mh	-10.2971
jf쎯whn쎯	-10.2973
rytp0쎯yge쎯	-10.2974
i쎯yv쎯	-10.2976
。yvh쎯	-10.2979
ihg1쎯	-10.2983
yvk쎯	-10.2983
。rnd1쎯	-10.2983
itp쎯	-10.2984
,tkw쎯se쎯	-10.2985
yny0쎯f쎯u쎯ga쎯v쎯	-10.2987
0	-10.2991
aq쎯klj쎯	-10.2995
wv쎯sfc쎯	-10.2998
xtu쎯gf쎯	-10.3
xx쎯vk쎯	-10.3
bn쎯sk쎯c쎯	-10.3003
qnr쎯yhk쎯	-10.3004
ecl쎯	-10.3005
rnr쎯ytyh쎯	-10.3005
pyk쎯	-10.3012
dr쎯wbj쎯	-10.3013
gk쎯tr쎯	-10.3013
eb쎯tl쎯k쎯ny쎯	-10.3017
iyc쎯cep쎯	-10.3017
ta쎯xq쎯	-10.302
wht쎯tjt쎯	-10.3022
jb쎯puv쎯	-10.3025
uoo쎯	-10.3027
j쎯g쎯pe쎯fny쎯og쎯	-10.3028
igd쎯	-10.3029
rv쎯	-10.303
ip쎯qk쎯	-10.3034
,i쎯on쎯	-10.3035
쎈쎁	-10.3038
r쎯fdm쎯fiy쎯	-10.3038
uvh쎯	-10.304
dgtg쎯pe쎯yfd쎯	-10.3042
uu쎯wsg0쎯	-10.3044
najg쎯	-10.3044
쎁쎀-	-10.3045
gfi쎯bw쎯	-10.3046
tu쎯ip쎯bpf쎯	-10.3047
puw쎯	-10.3047
.쎁쎁	-10.305
pp쎯kht쎯	-10.3054
쎂쎀쎀쎄	-10.3056
adwr쎯·	-10.3057
pt쎯fcp쎯	-10.3058
agu쎯js쎯	-10.306
mmq쎯wug1쎯	-10.3062
naj1쎯ipkh1쎯	-10.3062
1	-10.3062
dg쎯xe쎯	-10.3069
“dg쎯	-10.3072
wty쎯rh쎯	-10.3081
▁fc쎯rf쎯	-10.3089
----	-10.309
tda쎯	-10.3092
dgt1쎯pe쎯	-10.3094
l쎯uu쎯	-10.3095
r쎯whf쎯og쎯	-10.3096
ih쎯gtu쎯	-10.3096
go쎯gc쎯	-10.3098
,gip쎯e쎯	-10.3102
tx쎯fg쎯nm쎯	-10.3108
ipl쎯	-10.3108
wa쎯dcg쎯	-10.3109
dgkn쎯ipmq쎯	-10.3111
fcp쎯fcl쎯km쎯	-10.3111
wdt쎯gc쎯	-10.3116
gu쎯yy쎯oy쎯。	-10.3117
bm쎯r쎯	-10.3118
dgh쎯fd쎯	-10.3121
gkl쎯bpf쎯ta쎯	-10.3122
pw쎯pl쎯	-10.3124
rp쎯wa쎯	-10.3127
l쎯ffff5쎯dm쎯tkw쎯	-10.3129
fgh쎯vt쎯	-10.3131
rqci0쎯lt쎯	-10.3132
ip쎯fge쎯fghg쎯	-10.3132
、rrr쎯	-10.3132
,gm쎯e쎯	-10.3132
tdx쎯	-10.3133
auq쎯	-10.3134
wgj쎯tjh쎯	-10.3136
q쎯wc쎯ngk쎯	-10.3136
fjgh쎯	-10.3139
suq쎯aq쎯	-10.3142
쎁쎉쎃쎆rh쎯	-10.3145
tu쎯rfc쎯dd쎯ip쎯	-10.3146
txg쎯g쎯wh쎯	-10.3146
pu쎯gm쎯b쎯	-10.3147
bm쎯go쎯r쎯	-10.3147
tx쎯쎃	-10.3148
th쎯th쎯ta쎯	-10.3149
ydx쎯	-10.315
rtfp쎯	-10.3154
tg쎯itd쎯r쎯	-10.3156
bn쎯yi쎯j쎯	-10.3158
k쎯atd쎯ax쎯	-10.3158
fha쎯fm쎯	-10.3164
yfj쎯syp쎯b쎯	-10.3174
yud0쎯	-10.3175
img쎯gl쎯	-10.3179
、amw쎯	-10.318
sh쎯wycb쎯	-10.3181
lfn쎯wx쎯	-10.3184
r쎯dr쎯mj쎯	-10.3186
rmhj쎯ax쎯	-10.3192
bw쎯ta쎯	-10.3193
axj쎯	-10.3194
xeg쎯dn쎯,	-10.3196
()、	-10.3197
xvk쎯iw쎯	-10.32
k1쎯	-10.3203
b쎯《	-10.3205
fyb1쎯	-10.3213
,m쎯rh쎯	-10.3216
iuw쎯	-10.3217
gah쎯sy쎯	-10.322
by쎯ryn0쎯	-10.3224
f쎯gj쎯wug1쎯lfhf쎯	-10.3224
rtf쎯sgmj쎯	-10.3225
fgh쎯wtu쎯	-10.323
yo쎯gae쎯	-10.323
rfc쎯sy쎯、	-10.3231
yfy1쎯ywx쎯	-10.3231
wyb쎯	-10.3232
rufh1쎯	-10.3233
o쎯yygt쎯dd쎯	-10.3234
rxj쎯ovt쎯	-10.3236
yny0쎯uj쎯	-10.3238
wqin쎯r쎯	-10.324
ts쎯wrh2쎯gh쎯	-10.3245
ldd쎯pg쎯uqwm0쎯u쎯	-10.3245
。vbn쎯	-10.3246
dqe쎯	-10.3247
qk쎯iwyf2쎯	-10.3251
ypt쎯oy쎯,tdp쎯peg쎯	-10.3252
qk쎯pb쎯	-10.3253
gj쎯ip쎯	-10.3253
쎃쎂쎀	-10.3261
wg쎯l쎯tk쎯f쎯	-10.3263
idr쎯gf쎯	-10.3268
eeq쎯	-10.3268
wdn쎯hko쎯	-10.3273
ytn쎯lfn쎯	-10.3275
yw쎯pg쎯	-10.3279
。vk쎯	-10.3279
el쎯	-10.3286
vtk쎯qynm1쎯	-10.3287
qqqq1쎯uqd0쎯	-10.3289
bip쎯	-10.3289
wqb0쎯	-10.329
tmc쎯	-10.329
suf쎯hhhh쎯	-10.3295
qq쎯ovt쎯	-10.3296
vnn쎯	-10.33
xyna0쎯tv쎯	-10.33
tv쎯nnh쎯yn쎯	-10.3309
k쎯l쎯dd쎯bfm쎯	-10.3313
ftbt쎯dga쎯	-10.3315
wcd쎯	-10.3315
tuj쎯wj쎯	-10.3322
y쎯wtf쎯,	-10.3326
f쎯hko쎯	-10.3329
ww쎯dmj1쎯	-10.333
iyc쎯wfny0쎯	-10.333
ftg쎯han쎯	-10.3335
xfm쎯tavn쎯	-10.3337
ruv쎯tffy0쎯	-10.3338
yb쎯ga쎯	-10.334
mfky쎯ubtf쎯	-10.3342
rqw쎯	-10.3342
yfj쎯syp쎯	-10.3343
mht쎯	-10.3346
ia쎯egc쎯	-10.3347
vb쎯ygu쎯	-10.335
gkl쎯tn쎯nnh쎯ta쎯	-10.3351
uwb쎯	-10.3352
g쎯kw쎯	-10.3353
dd쎯rnb쎯	-10.3354
rvyo쎯nge쎯	-10.3355
jjjj쎯adwe1쎯	-10.3357
dgkn쎯nge쎯	-10.3357
jx쎯je쎯	-10.3358
쎁쎉쎃쎃rh쎯	-10.3363
j쎯hhhh쎯ue쎯	-10.3363
y쎯s쎯e쎯	-10.3364
sgn쎯e쎯	-10.3365
dd쎯isgg0쎯yhk쎯	-10.3365
atg쎯gk쎯	-10.3367
zzy3쎯	-10.337
tr쎯kkk쎯	-10.3376
v쎯bm쎯	-10.3379
je쎯dqe쎯	-10.3379
khu쎯gfi쎯fcp쎯fcl쎯	-10.338
lu쎯ym쎯r쎯	-10.3383
uem쎯	-10.3384
f쎯u쎯	-10.3384
\	-10.3386
rnf쎯	-10.3389
dga쎯pwv쎯a쎯wt쎯	-10.3391
fhn쎯hko쎯	-10.3397
wgmy3쎯	-10.3399
rvh쎯fpx쎯	-10.3399
thp쎯wjh쎯	-10.34
dmj1쎯dn쎯	-10.3403
kn쎯wdt쎯	-10.3404
y쎯ick쎯	-10.3405
fq쎯bv쎯	-10.3409
쎁.쎆	-10.3414
rv쎯ral쎯	-10.3417
hx쎯qh쎯	-10.3421
ˇ	-10.3421
nfif쎯	-10.3421
fq쎯tfn쎯	-10.3421
jhnr쎯qie쎯	-10.3423
ywe쎯	-10.343
tgj쎯vfhp1쎯	-10.343
bm쎯v쎯	-10.3431
aet0쎯rvyo쎯	-10.3433
vkf1쎯ga쎯	-10.3441
toc쎯yq쎯	-10.3442
fny쎯iy쎯gf쎯	-10.3442
trf쎯klj쎯j쎯	-10.3443
tve쎯dd쎯	-10.3443
dyc쎯	-10.3446
bib쎯rep쎯	-10.3446
ythp0쎯tg쎯	-10.3447
egc쎯w쎯。	-10.3447
dn쎯uu쎯r쎯	-10.3451
yf쎯aj쎯tg쎯yce쎯	-10.3453
dd쎯qq쎯ovt쎯	-10.3464
쎁쎉쎃쎉rh쎯	-10.3469
fu쎯u쎯	-10.3469
iv쎯ue쎯	-10.3469
dd쎯ip쎯ip쎯dl쎯	-10.3469
쎀.쎈	-10.347
ru쎯sgh쎯	-10.3473
。gm쎯o쎯	-10.3475
ue쎯tmd쎯o쎯	-10.3476
thd쎯xln1쎯	-10.3488
ob쎯	-10.3489
gg쎯wh쎯	-10.349
,pu쎯gm쎯	-10.3492
ww쎯hx쎯	-10.3497
,j쎯k쎯l쎯	-10.3503
qwyc0쎯	-10.3504
rwv쎯ipg쎯	-10.3506
udrc쎯	-10.3517
um쎯fnrt쎯	-10.3521
wg쎯aq쎯	-10.3521
jghx쎯	-10.3521
wycm0쎯nf쎯gh쎯	-10.3522
ftx쎯w쎯	-10.3525
fhfk0쎯	-10.3528
tk쎯l쎯	-10.3536
pgf1쎯pm쎯	-10.3536
tem쎯	-10.3536
awnu0쎯	-10.3537
jfd쎯dm쎯	-10.3537
ag쎯rh쎯	-10.354
nf쎯xuj쎯	-10.3542
waw쎯yid쎯um쎯	-10.3543
v쎯ugm쎯	-10.3544
puj쎯	-10.3547
xa쎯qh쎯	-10.3553
pu쎯wsg0쎯	-10.3557
hao쎯rny1쎯	-10.3558
:fc쎯rf쎯	-10.356
y쎯sm쎯	-10.3563
jm쎯gc쎯	-10.3566
kgn쎯:	-10.3567
adk쎯fggh쎯	-10.3568
dan쎯	-10.3568
anb0쎯w쎯	-10.357
aqq쎯ugdu쎯	-10.3571
itx쎯mdfj쎯	-10.3572
,ul쎯wtf쎯	-10.3572
-쎈	-10.3574
wgkb2쎯qk쎯o쎯	-10.3574
,yi쎯j쎯	-10.3578
o쎯synw쎯ny쎯	-10.3582
ipkh1쎯mqb쎯r쎯	-10.3583
wg쎯ta쎯	-10.3584
ymhj쎯ght쎯	-10.3585
쎅wv쎯qkhh1쎯	-10.3585
tffu쎯bk쎯	-10.3589
,sve쎯rnd1쎯	-10.359
mw쎯ymc쎯	-10.3593
fuk쎯yce쎯	-10.3595
》k쎯r쎯	-10.3595
jn쎯uh쎯	-10.3596
iwt쎯ou쎯	-10.3602
ylf0쎯。	-10.3603
g쎯thg0쎯	-10.3608
nat쎯	-10.3608
fny쎯og쎯tg쎯u쎯	-10.3609
cf쎯yy쎯	-10.3613
egc쎯w쎯,	-10.3613
pww쎯kkd쎯	-10.3617
tu쎯rfc쎯dn쎯js쎯	-10.3619
lkd쎯gc쎯	-10.362
dd쎯sov쎯	-10.3625
fp쎯iha쎯	-10.3626
ly쎯	-10.363
m쎯g쎯	-10.3634
r쎯oge쎯pyj쎯	-10.3634
tq쎯pp쎯o쎯	-10.3638
pp쎯f쎯	-10.3643
ip쎯fny쎯og쎯	-10.3643
e쎯pei쎯yne쎯	-10.3644
wwgj0쎯	-10.3645
jghm1쎯sft쎯	-10.3649
isf쎯	-10.3649
lkc쎯ckq쎯	-10.3653
hjj쎯fha쎯	-10.3657
jn쎯du쎯	-10.3657
jc쎯pnt쎯	-10.3658
kkd쎯sft쎯	-10.366
vv쎯tu쎯	-10.3662
wc쎯xd쎯	-10.3663
쎁쎉쎄쎀rh쎯	-10.3663
er쎯	-10.3665
usr쎯fd쎯	-10.3666
fl쎯wf쎯wf쎯km쎯	-10.3676
tfk쎯oy쎯	-10.3676
yh쎯w쎯	-10.3676
sm쎯sq쎯。	-10.368
rke쎯	-10.3681
ruv쎯rp쎯	-10.3681
ige쎯ifk쎯	-10.3686
쎁쎈쎅	-10.3687
gxw쎯	-10.3687
qgfj쎯	-10.3687
adwr쎯fjg쎯	-10.3687
쎁쎀쎀dq쎯	-10.3693
dty쎯buj쎯	-10.3701
tg	-10.3701
fc쎯rip쎯	-10.3703
dgj쎯wx쎯	-10.3704
。psu쎯	-10.3705
jmh쎯	-10.3705
gu쎯ck쎯,	-10.3709
wf쎯ta쎯	-10.3709
ick쎯gj쎯	-10.3713
jyie쎯ktm쎯lt쎯	-10.3714
zzy7쎯	-10.3718
h1쎯	-10.3719
wuh쎯	-10.3719
gu쎯yy쎯wc쎯jfd쎯。	-10.3725
uxhp쎯	-10.3726
swgj1쎯	-10.3727
쎂쎀쎁쎄rh쎯	-10.3732
(.)	-10.3733
fcl쎯eyni쎯	-10.3735
qvn2쎯ntg쎯	-10.3736
waw쎯jn쎯	-10.374
jft쎯	-10.3745
dy쎯gu쎯iu쎯	-10.3745
riv쎯	-10.3745
ftbt쎯ip쎯a쎯wt쎯	-10.375
mf쎯x쎯	-10.3753
dnv1쎯wtu쎯	-10.3753
:쎅	-10.3755
tr쎯og쎯	-10.3756
""	-10.3757
bm쎯tmd쎯	-10.3759
(ip쎯qk쎯:)	-10.3763
fgh쎯ag쎯	-10.3768
fghg쎯tg쎯nf쎯jgm쎯。	-10.3771
쎃wc쎯jfd쎯	-10.3771
trfg쎯myd쎯	-10.378
wygg쎯yny0쎯	-10.3781
vfi쎯	-10.3781
ll쎯vvv쎯	-10.3782
쎂wc쎯jfd쎯	-10.3783
rgb쎯	-10.3787
ai쎯fm쎯uk쎯	-10.3788
sr쎯	-10.38
qmw쎯	-10.3801
r쎯synw쎯ny쎯	-10.3804
see쎯	-10.3812
cbj쎯	-10.382
qnnk1쎯ou쎯	-10.382
tu쎯ip쎯gn쎯	-10.3823
sghg1쎯ux쎯uk쎯	-10.3825
fq쎯qjq쎯	-10.3831
h쎯b쎯	-10.3834
oge쎯xl쎯	-10.3836
txt쎯	-10.3839
r쎯ud쎯txi쎯	-10.3839
lqp쎯lkb쎯	-10.3841
alfj0쎯	-10.3842
swgu쎯	-10.3842
(tuj쎯tq쎯	-10.3843
sh쎯wfny0쎯	-10.3846
gu쎯ck쎯。	-10.3847
uo쎯ey쎯	-10.385
dwiu쎯l쎯	-10.3851
g쎯sg쎯	-10.3856
nc쎯ulg쎯	-10.3859
ud쎯ny쎯	-10.386
usr쎯rfc쎯sy쎯	-10.3865
igd쎯lk쎯	-10.3866
쎅w쎯	-10.3869
nnk쎯、	-10.3869
(쎁)	-10.3875
kwyg쎯g쎯r쎯	-10.3876
fje쎯bj쎯	-10.3878
qje쎯tgh쎯	-10.3878
vpe쎯	-10.3882
gss쎯	-10.3884
sh쎯wy쎯	-10.3888
▁“	-10.3895
ty쎯ipk쎯	-10.3897
(dr쎯	-10.3898
cc쎯yy쎯	-10.3899
wc쎯fqb1쎯ue쎯	-10.3899
ger쎯	-10.39
kpt쎯	-10.3901
ii쎯k쎯	-10.3901
ahko쎯	-10.3901
yuv쎯	-10.3903
tv쎯gkl쎯nnh쎯yn쎯、	-10.3905
k쎯tffu쎯	-10.3907
rn쎯d쎯f쎯	-10.3908
fh쎯uu쎯	-10.3908
。iv쎯	-10.3909
ige쎯usr쎯	-10.3909
pfq쎯dn쎯b쎯	-10.391
ige쎯itf쎯	-10.391
jsd쎯	-10.3911
aw쎯t쎯l쎯	-10.3911
trf쎯hko쎯:	-10.3914
hka쎯l쎯	-10.3915
dww쎯	-10.3915
dpr쎯	-10.3916
dwf쎯fmud쎯	-10.3919
쎄쎀쎀쎀	-10.392
bqn쎯bb쎯	-10.3923
mqq쎯dmu0쎯	-10.3924
ln쎯kht쎯	-10.3924
a쎯anb0쎯ugdu쎯sy쎯	-10.3925
pp쎯th쎯	-10.3928
tgj쎯s쎯cd쎯ovt쎯	-10.3931
g쎯nfc쎯	-10.3932
jhng쎯:“	-10.3933
rn쎯e쎯r쎯	-10.3934
|	-10.3943
。ld쎯	-10.3943
isjg쎯	-10.3946
uwa쎯uyh쎯	-10.3946
gg쎯qqqq1쎯	-10.3948
yni1쎯fqp쎯	-10.395
aft쎯e쎯《	-10.395
mq쎯iq쎯	-10.3951
j쎯ugdu쎯l쎯	-10.3952
bc쎯bm쎯	-10.3954
r쎯gj쎯shn쎯	-10.3956
scf쎯ex쎯	-10.3956
쎂쎄쎀	-10.3958
쎁쎀wv쎯qkhh1쎯	-10.3959
ght쎯if쎯	-10.3961
rkm쎯rw쎯	-10.3962
wg쎯wsg0쎯	-10.3966
rap쎯bm쎯	-10.3966
fk	-10.3972
sh쎯ud쎯r쎯	-10.3972
cbd쎯imj쎯	-10.3974
rtt쎯	-10.3974
mgu쎯	-10.3978
itd쎯lt쎯	-10.3981
(vk쎯	-10.3981
ryc쎯	-10.3982
ol쎯ck쎯	-10.3983
wjjg쎯nf쎯	-10.3985
▁k쎯l쎯	-10.3986
ght쎯fl쎯tv쎯km쎯	-10.3986
ywfw쎯qnj쎯	-10.3989
and쎯dd쎯	-10.3995
bk쎯og쎯rfc쎯sy쎯	-10.3998
nge쎯rb1쎯	-10.3999
th쎯,	-10.4
rh쎯u쎯	-10.4006
r쎯m쎯jf쎯,	-10.4007
rtb쎯	-10.4011
ukn쎯xg쎯	-10.4013
》、《k쎯l쎯	-10.4016
itf쎯uqv쎯,	-10.402
、usr쎯	-10.402
_	-10.4026
mh쎯hx쎯	-10.4028
lk쎯jel쎯	-10.403
uf쎯qynm1쎯	-10.4033
》g쎯nnh쎯	-10.4034
p쎯su쎯r쎯	-10.4036
rt쎯mm쎯	-10.4037
uth쎯yam쎯	-10.4038
rg쎯akgl쎯	-10.4038
kjq쎯	-10.4044
uq쎯cyi쎯	-10.4046
ptf쎯	-10.4047
it쎯ovt쎯n쎯ytt쎯	-10.405
sff0쎯ss쎯	-10.4052
ukd0쎯jghm1쎯,	-10.4057
dd쎯xq쎯	-10.406
eaj쎯	-10.4061
txg쎯uqw쎯	-10.4064
sm쎯,	-10.4064
wf쎯wf쎯km쎯	-10.4064
mqu쎯。	-10.4065
xte쎯sf쎯	-10.4065
e쎯uqt쎯r쎯	-10.4067
kd쎯tjh쎯	-10.407
cm쎯ipkm0쎯	-10.4072
mw쎯e쎯	-10.4073
jb쎯wqa쎯	-10.4074
,j쎯g쎯pe쎯	-10.4076
xe쎯a쎯tkgg0쎯jgm쎯	-10.4079
qnth쎯ipg쎯	-10.4084
ii쎯js쎯	-10.4085
wgkq0쎯et쎯。	-10.4088
rym쎯	-10.4088
klj쎯w쎯	-10.4088
bd쎯lw쎯	-10.4089
rfh0쎯	-10.4091
)w쎯。	-10.4091
saj쎯trf쎯	-10.4091
ygu쎯pj쎯	-10.4093
ert쎯	-10.4095
ftg쎯dgh쎯	-10.4096
,kw쎯	-10.4099
“”	-10.4104
thdu쎯	-10.4104
j쎯x쎯	-10.4107
ref쎯	-10.4108
usr쎯aq쎯	-10.4111
lh쎯fgh쎯	-10.4111
tjf쎯kfi쎯	-10.4112
ii쎯wv쎯	-10.4112
wwx쎯ybt쎯	-10.4113
ige쎯fje쎯	-10.4114
쎁쎉쎆쎇rh쎯	-10.4119
cm쎯wynn3쎯	-10.4121
쎆w쎯	-10.4126
oge쎯ese쎯	-10.4126
쎉쎁	-10.4128
fhqv쎯	-10.4129
tdij쎯xfm쎯	-10.4129
mw쎯r쎯	-10.4135
cm쎯imj쎯	-10.4139
iq	-10.4139
rt쎯if쎯	-10.4143
mb쎯ght쎯	-10.4143
fc쎯wfy쎯	-10.4144
v쎯fcl쎯	-10.4145
rw쎯fcu1쎯	-10.415
u쎯gf쎯	-10.4152
uu쎯khu쎯	-10.4156
iwb쎯	-10.4163
qnqv쎯	-10.4163
y쎯wtf쎯、	-10.4165
j1쎯	-10.4165
usr쎯xtd쎯	-10.4165
#	-10.4166
y쎯fcl쎯	-10.4169
pnt쎯av쎯	-10.4172
aq쎯mw쎯	-10.4172
ogbn쎯	-10.4172
pfq쎯gkih쎯r쎯	-10.4173
aq쎯ght쎯ywf쎯	-10.4174
fge쎯fghg쎯rg쎯	-10.4177
uqv쎯wx쎯	-10.4177
tp쎯gj쎯t쎯	-10.4179
itm쎯uyh쎯	-10.4179
iugg0쎯ime쎯	-10.4181
rvk쎯bmg쎯	-10.4182
kcy1쎯	-10.4185
,es쎯et쎯	-10.4192
rdjn쎯	-10.4193
ipwk0쎯iyw쎯	-10.4195
tg쎯u쎯、	-10.4195
sm쎯ysi쎯	-10.4196
쎂.쎄	-10.4197
wf쎯yf쎯jgm쎯	-10.4199
vj쎯	-10.4201
xj쎯	-10.4202
ta쎯pv쎯	-10.4203
ev쎯	-10.4203
aqky1쎯pwfi쎯	-10.4204
de쎯alq쎯hhy쎯	-10.4204
。p쎯tkh쎯	-10.4204
dga쎯pwv쎯pgc쎯	-10.4206
fcu1쎯hc쎯	-10.4208
-)	-10.421
nynn쎯	-10.4212
wg쎯jjjj쎯rmhj쎯	-10.4212
bn쎯sk쎯	-10.4213
j쎯:	-10.4213
쎁쎉쎃쎀rh쎯	-10.4214
tmd쎯ym쎯	-10.4214
bh쎯	-10.4214
dd쎯jg쎯r쎯	-10.4215
rhyi쎯	-10.4215
ttt쎯	-10.4217
inro쎯	-10.4217
sc쎯tjh쎯	-10.4217
eyf쎯	-10.422
▁*	-10.4221
tu쎯uo쎯	-10.4224
tp쎯gj쎯wsg0쎯txi쎯	-10.4225
fc쎯bw쎯	-10.4225
tfn쎯icf쎯ai쎯	-10.4226
u쎯kkk쎯。	-10.4229
hv쎯hg쎯	-10.4231
r쎯ukd0쎯jghm1쎯	-10.4233
,ip쎯suq쎯	-10.4233
iawn쎯kkkk0쎯	-10.4235
쎁쎅쎀쎀	-10.4237
uwyc0쎯fcb쎯	-10.424
sg쎯udh쎯	-10.4242
j쎯wys쎯	-10.4242
k쎯ih쎯whf쎯og쎯	-10.4243
쎂쎅쎆	-10.4244
iy쎯:“	-10.4246
rj쎯bc쎯	-10.4247
bn쎯tq쎯	-10.4248
×쎁	-10.425
。dl쎯wtf쎯	-10.4253
ipw쎯ynt쎯	-10.4253
rhy쎯	-10.4254
tt쎯qk쎯	-10.4254
ukh쎯fmk쎯	-10.4257
es쎯wys쎯	-10.4259
wy쎯thn쎯rfc쎯sy쎯	-10.4261
wy쎯gkim0쎯	-10.4262
mb쎯wrh2쎯	-10.4262
rvyo쎯ii쎯	-10.4262
e쎯ud쎯uk쎯uyh쎯	-10.4263
dcg쎯udi쎯	-10.4263
kq쎯h쎯	-10.4264
dj쎯wtu쎯	-10.4267
go	-10.4269
dwy쎯	-10.4269
rvh쎯	-10.4273
ll쎯w쎯	-10.4273
wv쎯nnk쎯	-10.4275
wgk쎯wt쎯ud쎯txi쎯	-10.4275
utu쎯uce쎯	-10.4276
fwyc2쎯wyk쎯	-10.4277
fny쎯og쎯rfc쎯sy쎯	-10.4278
pe쎯ta쎯	-10.4279
bm쎯fnrt쎯	-10.4279
kht쎯xg쎯	-10.4281
rno쎯	-10.4284
,hk쎯f쎯dm쎯tkw쎯	-10.4288
a쎯wf쎯	-10.4288
uq쎯cep쎯dd쎯ip쎯	-10.4289
tkm쎯	-10.4291
sj쎯yqj쎯	-10.4296
iat1쎯	-10.4296
ftg쎯synw쎯	-10.4296
kyn1쎯	-10.4301
t쎯v쎯nae쎯	-10.4304
g쎯dj쎯	-10.4304
。rg쎯	-10.4305
쎁쎅dq쎯	-10.4306
kha쎯egc쎯fd쎯	-10.4306
,vk쎯js쎯	-10.4309
tmo쎯fcp쎯wf쎯	-10.431
tuk쎯nh쎯	-10.4312
amd쎯yygy쎯qk쎯	-10.432
lk쎯nnw쎯	-10.4322
▁쎄	-10.4323
g쎯gd쎯	-10.4326
xfm쎯tavn쎯rvy쎯tf쎯	-10.4326
uth쎯pe쎯	-10.4327
j쎯g쎯sg쎯	-10.4327
ym쎯ftg쎯	-10.4328
jb쎯vb쎯r쎯	-10.4328
lgm쎯	-10.4329
sh쎯xx쎯	-10.433
ga쎯v쎯、	-10.4336
xw쎯cbj쎯	-10.4342
qjf쎯jn쎯ib쎯	-10.4344
uqwm0쎯rfm쎯	-10.4347
nn쎯	-10.4356
ipe쎯ya쎯	-10.4358
pn쎯yy쎯	-10.436
”“	-10.4361
wv쎯ybf0쎯	-10.4362
x쎯iyj쎯tp쎯gj쎯	-10.437
g쎯fnw쎯	-10.4374
ytey쎯tf쎯	-10.4377
:쎉	-10.4381
dq쎯adwr쎯	-10.4382
akgn0쎯	-10.4383
ajj쎯dr쎯	-10.4383
쎁쎉쎄쎁rh쎯	-10.4384
tfqp쎯et쎯	-10.4385
g쎯od쎯	-10.4385
l쎯n쎯	-10.4388
gtu쎯dq쎯mq쎯	-10.4389
gfi쎯fnrt쎯	-10.4389
dd쎯lt쎯	-10.4391
wtl쎯pd쎯	-10.4394
imk쎯itx쎯	-10.4395
tu쎯dga쎯adm쎯hhhh쎯	-10.4395
qc쎯icf쎯	-10.4396
,ukn쎯	-10.4402
쎁쎂쎀쎀	-10.4402
xan쎯nu쎯	-10.4408
t쎯tp쎯gj쎯	-10.4412
pei쎯yne쎯	-10.4414
if쎯rmhj쎯	-10.4427
ubk0쎯uqt쎯	-10.4428
쎁쎀rh쎯	-10.4428
wycm0쎯tfq쎯r쎯	-10.443
apl쎯fcl쎯saj쎯aib쎯	-10.4436
t쎯py쎯wf쎯	-10.4437
dl쎯wa쎯	-10.4441
wt쎯bm쎯	-10.4446
gmww쎯dd쎯	-10.445
epv1쎯	-10.445
쎂쎀쎁쎂	-10.4451
mqq쎯dc쎯	-10.4451
egc쎯w쎯	-10.4452
쎈.쎀	-10.4454
tyna2쎯。	-10.4454
ai쎯ux쎯uk쎯	-10.4454
ai쎯apfq쎯ymhj쎯	-10.4455
r쎯gae쎯aa쎯	-10.4455
rhc쎯	-10.4455
rhb쎯	-10.4456
쎁쎉쎄쎂rh쎯	-10.4458
쎆)	-10.446
ge쎯uje쎯	-10.4461
wxf쎯ux쎯	-10.4464
psu쎯wa쎯	-10.4467
do쎯qc쎯	-10.4469
sqq쎯	-10.4469
tu쎯tu쎯ta쎯	-10.4471
hl쎯	-10.4473
ujfj쎯wug1쎯,	-10.4477
em쎯efw쎯	-10.4477
r쎯ujn쎯ln쎯	-10.4477
i쎯gmf쎯	-10.4479
dmj1쎯yyy쎯	-10.4482
ー	-10.4483
ujf쎯qi쎯ip쎯bpf쎯	-10.4484
riq쎯	-10.4485
xyna0쎯dcg쎯	-10.4486
,dr쎯qk쎯	-10.4487
rnb쎯ijl쎯쎁	-10.4491
dgkf0쎯	-10.4494
vnu1쎯sfi쎯	-10.4494
lh쎯tb쎯	-10.4497
qkm쎯mw쎯	-10.4497
ad쎯dbm쎯h쎯	-10.4503
th쎯。	-10.4507
쎁/	-10.4507
ugdu쎯cm쎯	-10.4508
dd쎯f쎯	-10.4511
)t쎯	-10.4512
zzj3쎯	-10.4512
qbn1쎯	-10.4513
、sghg1쎯	-10.4515
cnh쎯sghg1쎯	-10.4519
:쎁.	-10.4519
wc쎯uq쎯	-10.452
vs쎯uq쎯	-10.4521
vd쎯	-10.4521
k쎯fm쎯	-10.4523
hak쎯	-10.4523
sghg1쎯fm쎯uk쎯	-10.4524
uda쎯naj1쎯	-10.4526
쎁.쎄	-10.4528
、ii쎯	-10.4529
r쎯dga쎯v쎯	-10.453
usr쎯u쎯kkk쎯	-10.4532
ith쎯、ymhj쎯	-10.4532
qmk쎯	-10.4535
ktm쎯yid쎯	-10.4537
쎀.쎄	-10.4541
rj쎯bm쎯b쎯	-10.4542
is쎯	-10.4542
,ccc쎯tq쎯	-10.4543
pyj쎯ytd쎯	-10.4543
ll쎯ic쎯ytt쎯	-10.4545
fq쎯ywx쎯	-10.4548
wsg0쎯tgj쎯	-10.4549
xeg쎯ta쎯	-10.4549
igk쎯	-10.4551
yeu쎯	-10.4553
jqw쎯	-10.4556
ca쎯ma쎯	-10.4559
vijh쎯	-10.4561
jo쎯fi쎯nua쎯	-10.4565
mqu쎯r쎯	-10.4566
wt쎯ma쎯	-10.4567
、tg쎯u쎯、qie쎯wyk쎯	-10.4567
mf쎯pgk쎯	-10.4568
mj쎯j쎯	-10.4569
pwat쎯fha쎯	-10.4572
sk쎯tfqp쎯	-10.4573
iytb0쎯pt쎯	-10.4573
qs쎯	-10.4573
a쎯wt쎯pgc쎯	-10.4573
rdf1쎯fcl쎯	-10.4573
、ih쎯	-10.4573
qgq쎯	-10.4575
ukd0쎯jghm1쎯r쎯	-10.4577
awx쎯ycb쎯	-10.4578
rufh1쎯qu쎯	-10.4579
,trf쎯klj쎯j쎯	-10.4579
isk쎯iyc쎯	-10.4582
xk쎯ymf쎯	-10.4584
afie쎯	-10.4586
wfny0쎯uxhp쎯	-10.4586
puf쎯	-10.4591
xte쎯ght쎯ywf쎯	-10.4594
qnqn쎯	-10.4597
pynn0쎯kkk쎯	-10.4598
rnx쎯	-10.4602
yynw1쎯nnh쎯	-10.4603
dn쎯uu쎯b쎯	-10.4603
w쎯dd쎯	-10.4603
yft쎯qq쎯	-10.4606
uk쎯uk쎯ta쎯	-10.4611
gkl쎯y쎯wtf쎯,	-10.4613
xmw쎯oy쎯	-10.4616
、h쎯itx쎯	-10.4617
,gcft2쎯lt쎯gf쎯	-10.4617
etj쎯uk쎯	-10.462
wsg0쎯mw쎯	-10.4622
wg쎯usr쎯r쎯	-10.4626
ipw쎯epc쎯	-10.4626
oge쎯tfqp쎯	-10.4627
ce쎯lt쎯。	-10.4629
pwd쎯qd쎯	-10.4631
uxh쎯bb쎯	-10.4631
wxf쎯fm쎯	-10.4634
fqb1쎯。	-10.4636
n쎯wwwk쎯	-10.4637
y쎯s쎯et쎯gf쎯	-10.4637
ftbt쎯tv쎯	-10.4638
x쎯g쎯u쎯og쎯w쎯ovt쎯	-10.4639
e쎯jf쎯	-10.464
mq쎯nge쎯	-10.4642
rn쎯fdm쎯	-10.4644
wfn쎯dd쎯	-10.4646
nck쎯	-10.4648
aq쎯、	-10.4648
oa쎯dyt쎯	-10.4651
scf쎯uu쎯	-10.4652
쎁w쎯,	-10.4653
ii쎯th쎯gj쎯	-10.4654
nnk쎯uk쎯	-10.4654
ukn쎯nnk쎯	-10.4655
ntg쎯xk쎯	-10.4655
rpf쎯	-10.4657
ov쎯	-10.4659
o쎯y쎯s쎯	-10.4659
nfd쎯	-10.4661
maw쎯gajf쎯r쎯	-10.4664
r쎯xp쎯wgk쎯ntg쎯	-10.4664
vah쎯	-10.4665
ijl쎯fnm쎯	-10.4667
ggg1쎯fje쎯	-10.4668
tffu쎯)	-10.4671
dyt쎯tr쎯	-10.4675
ey쎯adw쎯wb쎯	-10.4679
ujq쎯	-10.4679
cep쎯fp쎯b쎯	-10.4682
쎁쎉쎄쎄rh쎯	-10.4687
wt쎯kkk쎯《	-10.4688
se쎯o쎯	-10.4688
rdj쎯ii쎯	-10.4688
-쎇	-10.469
쎀.쎆	-10.4697
lwj쎯dm쎯	-10.4706
py쎯tu쎯	-10.4707
gjq쎯o쎯	-10.4708
jb쎯rp쎯	-10.4708
f쎯h쎯	-10.4711
a쎯wt쎯w쎯km쎯	-10.4712
rg쎯wtf쎯	-10.4713
bde쎯rg쎯	-10.4713
ooo쎯mmm쎯	-10.4713
trs쎯trtg쎯。	-10.4714
apk쎯tfkp쎯	-10.4715
nngt쎯	-10.4717
v쎯udp쎯	-10.4721
k쎯dr쎯	-10.4721
tx쎯wty쎯	-10.4721
쎀wtu쎯w쎯	-10.4724
쎂.쎂	-10.4727
iq쎯ime쎯	-10.473
fy쎯	-10.4733
svc쎯	-10.4739
rfc쎯sy쎯t쎯	-10.4739
jf쎯adwe1쎯r쎯	-10.4742
gqr쎯ivfh1쎯mhkg2쎯	-10.4746
쎀쎀쎀gu쎯yy쎯oy쎯,	-10.475
쎃)	-10.475
tet쎯	-10.4752
w쎯adw쎯k쎯	-10.4754
wyq쎯ge쎯	-10.4756
ymhj쎯fnrt쎯r쎯	-10.4757
rxj쎯fi쎯	-10.4759
!”	-10.4763
ccc쎯e쎯	-10.4768
pp쎯xte쎯	-10.477
ybj쎯	-10.4772
jb쎯ih쎯	-10.4773
bd쎯qn쎯	-10.4777
fny쎯og쎯xxf쎯og쎯	-10.4781
vcag쎯	-10.4782
l쎯ggg1쎯	-10.4783
▁쎅、	-10.4785
fcln쎯	-10.4789
fnhy쎯	-10.4791
ai쎯apfq쎯	-10.4792
etn쎯gcf쎯	-10.4793
ggi쎯ab쎯	-10.4793
。dmj1쎯	-10.4799
sk쎯ep쎯	-10.4802
rvk쎯tg쎯	-10.4803
,dr쎯	-10.4803
toc쎯yt쎯	-10.4803
jtyl쎯tp쎯	-10.4804
〔	-10.4808
x쎯apk쎯gj쎯wynn3쎯	-10.4809
ih쎯ooo쎯	-10.4809
》vs쎯fn쎯	-10.4811
qdt쎯tfkp쎯	-10.4814
ukn쎯fay쎯	-10.482
kwgj0쎯	-10.4828
,wq쎯	-10.4831
dy쎯bb쎯	-10.4832
vte쎯	-10.4835
usr쎯iw쎯	-10.484
jlx쎯ytn쎯	-10.4842
xxf쎯og쎯tg쎯	-10.4844
ynky2쎯tj쎯	-10.4845
xng1쎯	-10.4847
fhl쎯og쎯	-10.4848
tr쎯tkh쎯	-10.4849
wf	-10.4849
dlf쎯ufk0쎯	-10.485
cm쎯hko쎯	-10.4852
lnn1쎯	-10.4852
c쎯h쎯r쎯	-10.4854
yygy쎯bu쎯	-10.4854
wgkq0쎯adw쎯	-10.4857
ith쎯ght쎯ywf쎯	-10.4861
qdb쎯sm쎯	-10.4861
dy쎯bj쎯ce쎯	-10.4862
mm	-10.4863
hxx쎯qc쎯	-10.4864
ymc쎯yf쎯,	-10.4866
r쎯mw쎯pww쎯	-10.4869
w쎯vtk쎯	-10.487
kkd쎯wrh2쎯	-10.4872
ru쎯adwr쎯	-10.4873
xnf쎯	-10.4874
wgqt쎯	-10.4874
ce쎯lt쎯,	-10.4874
lu쎯qq쎯	-10.4875
geh쎯	-10.4877
,aw쎯e쎯	-10.4881
yopy1쎯	-10.4881
gkl쎯nnk쎯ta쎯	-10.4882
,hk쎯f쎯	-10.4885
k쎯md쎯ipk쎯suq쎯	-10.4885
ta쎯dw0쎯	-10.4887
t쎯adw쎯wb쎯	-10.4887
jtg쎯xe쎯	-10.4889
kkkk0쎯kfi쎯	-10.489
w쎯uj쎯	-10.4892
tue쎯	-10.4894
txgi2쎯gqf쎯	-10.4897
akkn0쎯	-10.4898
wgk쎯wt쎯,	-10.4898
r쎯g쎯uk쎯	-10.49
ymc쎯tlf2쎯、	-10.4901
yx쎯tfq쎯	-10.4901
tl쎯pu쎯	-10.4902
djb쎯ya쎯	-10.4906
iyv쎯ijlc쎯	-10.4906
rpwn1쎯	-10.4914
gip쎯sk쎯c쎯	-10.4914
lk쎯gkip2쎯	-10.4915
gk쎯yop쎯	-10.492
nf쎯jgm쎯	-10.4922
yi쎯yfn쎯gf쎯	-10.4924
rwye1쎯	-10.4928
kml쎯	-10.4929
jtyq1쎯	-10.4929
gef쎯qynm1쎯ymhj쎯	-10.4933
ipk쎯xeg쎯xkw쎯	-10.4935
hhhh쎯vi쎯	-10.4935
xtu쎯umd0쎯	-10.4935
qajf쎯	-10.4935
jty쎯i	-10.4937
,쎀쎀쎀	-10.4941
gmww쎯w쎯	-10.4942
tg쎯itd쎯k쎯	-10.4943
f쎯wdm쎯	-10.4945
gkl쎯suq쎯ta쎯	-10.4949
,fc쎯rf쎯	-10.4949
,jb쎯rg쎯	-10.4951
wye쎯tfkd쎯	-10.4953
fw쎯w쎯	-10.4955
r쎯hhhh쎯r쎯	-10.4958
xuj쎯ntg쎯	-10.4959
ngk쎯cn쎯	-10.4959
cq쎯ytf쎯	-10.4963
ll쎯ntg쎯	-10.4965
쎁쎄쎀	-10.4966
thg0쎯,	-10.4966
gv쎯bb쎯	-10.4968
tg쎯u쎯ce쎯lt쎯	-10.498
()。	-10.4982
cm쎯iq쎯	-10.4983
쎁/쎂	-10.4983
wdn쎯rvyl쎯,	-10.4984
fhw쎯pw쎯	-10.4986
sdm쎯umd0쎯	-10.4994
쎇.쎅	-10.4998
oge쎯ugdu쎯	-10.4999
th쎯ta쎯	-10.5006
”pp쎯	-10.5006
thfn쎯tc쎯	-10.5008
-쎂쎀	-10.5008
ip쎯rb1쎯	-10.5009
iy쎯tmdf1쎯	-10.5009
iq쎯icf쎯	-10.5011
d쎯h쎯itx쎯	-10.5015
xad쎯	-10.5018
dd쎯fny쎯	-10.5019
dd쎯fw쎯	-10.5022
sf쎯yfd쎯	-10.5022
twt쎯ytyh쎯	-10.5024
rbcc쎯wqj쎯udi쎯	-10.5027
kqr쎯	-10.5028
ip쎯tg쎯r쎯	-10.5029
pe쎯。	-10.5031
nku쎯	-10.5033
afwt1쎯	-10.5034
mmm쎯f쎯	-10.5034
yy쎯if쎯。	-10.5035
go쎯yu쎯	-10.5035
tjtl쎯	-10.5039
”;	-10.5039
dg쎯tkh쎯	-10.5041
mw쎯dhb쎯pww쎯jg쎯	-10.5042
▁hhhh쎯ue쎯	-10.5043
d쎯p쎯	-10.5045
it쎯ovt쎯	-10.5047
ㄢ	-10.5047
qk쎯thgf0쎯	-10.5047
iie쎯thn쎯	-10.5048
k쎯l쎯dgh쎯wa쎯	-10.505
fcu1쎯an쎯	-10.5054
h쎯tak쎯	-10.5056
tt쎯gl쎯	-10.5056
yy쎯yyy쎯	-10.5057
qn쎯rtd쎯:	-10.5059
pp쎯qh쎯	-10.506
yvi쎯ahko쎯	-10.5061
(쎂)	-10.5061
y쎯lt쎯	-10.5063
쎃쎀dq쎯	-10.5065
xl쎯alt쎯	-10.5068
▁●	-10.5071
yygt쎯itp쎯r쎯	-10.5073
dd쎯ip쎯yygy쎯wx쎯	-10.5075
qh쎯uq쎯	-10.5076
,ccc쎯qk쎯	-10.5078
wfhg쎯tj쎯	-10.5079
hhy쎯	-10.5079
bk쎯gmu1쎯	-10.5079
dl쎯x쎯	-10.5079
ymc쎯pg쎯	-10.5081
qyt쎯gae쎯	-10.5081
pe쎯fl쎯wf쎯wf쎯km쎯,	-10.5082
et쎯f쎯	-10.5086
aw쎯u쎯ipk쎯km쎯	-10.5088
쎈eee쎯cd쎯lk쎯a쎯wt쎯	-10.5089
rg쎯bg쎯	-10.5091
nwgk쎯	-10.5092
쎂쎆jjjj쎯	-10.5098
wtf쎯k쎯aw쎯	-10.5102
ga쎯wbj쎯	-10.5102
▁ip쎯suq쎯	-10.5103
,adwn0쎯gcf쎯	-10.5103
jb쎯vb쎯	-10.5104
puh쎯yc쎯	-10.5104
wgj쎯gf쎯	-10.5108
dga쎯pwv쎯》	-10.5115
,tuj쎯tq쎯	-10.5117
ijo쎯ya쎯	-10.5119
mmm쎯eyni쎯	-10.5119
by쎯ii쎯	-10.5119
wgk쎯wt쎯wo쎯wuf쎯	-10.5121
ldd쎯wsg0쎯	-10.5122
ym쎯tffu쎯ip쎯suq쎯	-10.5122
ndj쎯lft쎯	-10.5122
쎁.쎃	-10.5123
,dmj1쎯j쎯	-10.5124
kkkk0쎯tca쎯	-10.5124
wk쎯wht쎯	-10.5124
dm쎯tkw쎯쎃	-10.5132
jy	-10.5132
iie쎯bwt쎯	-10.5135
aft쎯e쎯	-10.5136
x쎯》	-10.5136
쎂쎀쎀쎂	-10.5136
auk쎯abu쎯	-10.5138
rvyo쎯ep쎯	-10.514
h쎯mqq쎯	-10.5147
쎅.쎀	-10.5148
mhk쎯	-10.5151
kgn쎯dcg쎯	-10.5153
bu쎯dtb쎯	-10.5154
eee쎯쎈jjjj쎯	-10.5154
bdx쎯	-10.5154
sym쎯ytyh쎯ymhj쎯	-10.5156
gmu1쎯	-10.5156
dl쎯kq쎯whtn1쎯qy쎯	-10.5159
pei쎯u쎯kkk쎯	-10.5162
kkd쎯,	-10.5162
ygk쎯:	-10.5166
vii쎯	-10.5166
jgm쎯ww쎯	-10.5168
sy쎯ygk쎯	-10.5169
sgmk쎯	-10.5169
j쎯jjjj쎯sg쎯	-10.5173
쎁쎉쎃쎁rh쎯	-10.5175
ue쎯tyg쎯	-10.5176
dh쎯pgk쎯,	-10.5178
▁k쎯yygy쎯	-10.5181
rnw쎯lfnh쎯	-10.5182
dm쎯h쎯	-10.5184
mw쎯ibi쎯	-10.5185
wdt쎯bm쎯b쎯	-10.5187
bde쎯sm쎯	-10.5187
iv쎯qd쎯	-10.5191
ajf1쎯	-10.5197
ymhj쎯n쎯	-10.5199
ipw쎯djb쎯	-10.52
vvv쎯,	-10.5202
쎁쎉쎃쎂rh쎯	-10.5203
x쎯iyj쎯uqt쎯uwl쎯	-10.5215
ai쎯wycb쎯	-10.5219
y쎯tp쎯uk쎯uyh쎯	-10.5224
tmg1쎯tg쎯tr쎯	-10.5224
jaj1쎯	-10.5229
kl쎯e쎯	-10.5231
mqb쎯gf쎯	-10.5231
r쎯hhhh쎯sfi쎯	-10.5235
i쎯wjg쎯	-10.5236
tfqp쎯rt쎯	-10.5236
쎁쎇쎀	-10.5237
dn쎯gajf쎯	-10.5238
nnh쎯bpf쎯	-10.5239
iv	-10.5239
pe쎯xte쎯	-10.5244
ukn쎯ovt쎯	-10.5245
uq쎯lwj쎯	-10.5247
itx쎯mw쎯qh쎯	-10.5248
ggi쎯fuj쎯wk쎯ryn0쎯	-10.5251
jhng쎯:‘	-10.5258
txgi2쎯aps쎯	-10.5261
xgm쎯	-10.5264
tey쎯gd쎯	-10.5264
wh쎯thd쎯qd쎯sf쎯	-10.5267
xeg쎯dn쎯uk쎯wv쎯	-10.5267
y쎯wtf쎯。	-10.5269
rn쎯rn쎯ta쎯	-10.5272
fgh쎯wffg쎯	-10.5273
ait쎯pu쎯	-10.5273
(vcb쎯	-10.5274
iy쎯ty쎯	-10.5275
▁쎅.	-10.5276
ntk쎯ntg쎯	-10.5282
qkm쎯oyn쎯	-10.5284
cm쎯ujf쎯	-10.5284
ld쎯adw쎯	-10.5284
ibi쎯ugl쎯	-10.5285
pgj쎯dmh쎯	-10.5285
fm쎯itx쎯	-10.5286
rkm쎯wtl쎯	-10.5291
wfny0쎯bd쎯	-10.5292
rhk쎯mww쎯	-10.5292
ipkh1쎯tv쎯	-10.5293
tjf쎯avd쎯	-10.5295
qq쎯it쎯	-10.5299
y쎯wtf쎯atd쎯jgm쎯,	-10.5302
,p쎯tkh쎯	-10.5308
wv쎯suq쎯	-10.5308
riu쎯ytyh쎯	-10.531
xev쎯	-10.5312
rep쎯cbj쎯“	-10.5313
ip쎯txi쎯	-10.5313
itx쎯fm쎯ith쎯	-10.5314
mhm쎯	-10.5315
ysj쎯	-10.5315
l쎯gl쎯	-10.5316
tfl쎯·	-10.5316
ny쎯vo쎯	-10.5319
tu쎯ip쎯pe쎯	-10.5319
。q쎯wu쎯	-10.532
tmd쎯h쎯	-10.5321
ynm쎯dmh쎯	-10.5323
iyb쎯	-10.5323
dmj1쎯dn쎯r쎯	-10.5326
usr쎯qgu쎯	-10.533
qgu쎯je쎯	-10.5336
awnu1쎯	-10.5338
rvn2쎯	-10.5342
g쎯adwe1쎯	-10.5344
b쎯dd쎯jg쎯	-10.5344
ssss쎯cn쎯	-10.5349
rw쎯mty1쎯	-10.5352
●	-10.5356
oge쎯iad쎯	-10.5358
lfn쎯yo쎯	-10.5359
쎁쎉쎄쎃rh쎯	-10.536
r쎯yo쎯wx쎯	-10.536
pwv쎯	-10.5362
aj쎯wv쎯	-10.5363
r쎯pfi쎯xj쎯	-10.5365
pa쎯ya쎯	-10.5365
tjh쎯iugg0쎯	-10.5369
txi쎯ovt쎯	-10.5369
pei쎯fnrt쎯	-10.5369
l쎯pe쎯thd쎯qd쎯	-10.5371
tu쎯dga쎯dn쎯js쎯	-10.5372
fgh쎯pb쎯	-10.5373
tffu쎯tf쎯og쎯	-10.5373
tg쎯tr쎯ip쎯	-10.5374
f쎯fakg1쎯	-10.5374
fnrt쎯f쎯	-10.5375
qgbn0쎯	-10.5376
cep쎯td쎯	-10.5378
,vca쎯	-10.538
ixj쎯	-10.538
。”ige쎯	-10.538
pdhj쎯	-10.5381
gm쎯udy쎯	-10.5381
ghg1쎯	-10.5386
swy1쎯	-10.5394
eb쎯tl쎯、	-10.5395
쎄.	-10.5397
fm쎯yiu쎯ymhj쎯	-10.5399
r쎯ytd쎯	-10.54
w쎯n쎯wa쎯ge쎯dd쎯wf쎯	-10.54
cw쎯c쎯	-10.5401
alq쎯hhy쎯	-10.5401
ndj쎯nge쎯	-10.5401
쎁쎉쎂쎉rh쎯	-10.5403
wsg0쎯ta쎯	-10.5406
fhn쎯gc쎯	-10.5407
lfon0쎯	-10.5407
xf쎯jjj쎯	-10.5408
。thd쎯	-10.5411
fhw쎯ydn쎯	-10.5411
lw쎯wc쎯pgc쎯、	-10.5412
jc쎯wycb쎯	-10.5413
dmj1쎯dn쎯。	-10.5413
ipgg0쎯	-10.5417
쎁.쎁	-10.542
qr쎯uthp쎯	-10.5422
k0쎯	-10.5425
ip쎯suq쎯。	-10.5425
qgf쎯od쎯	-10.5426
rt쎯fcl쎯	-10.5428
yygy쎯wx쎯anb0쎯sy쎯	-10.5431
wt쎯ftj쎯:	-10.5431
it쎯jg쎯	-10.5432
yh쎯wq쎯	-10.5436
쎂.쎈	-10.5439
,vfhp1쎯tam쎯	-10.5446
py쎯wf쎯v쎯nae쎯	-10.5446
gx쎯sh쎯	-10.5447
yne쎯qh쎯	-10.5448
쎀.쎀쎀	-10.545
vcb쎯uqf쎯	-10.5452
wgkb2쎯fcp쎯	-10.5453
ght쎯ywf쎯rn쎯d쎯f쎯	-10.5453
wynm0쎯	-10.5454
pg쎯rmhj쎯	-10.5455
,p쎯j쎯	-10.5461
jcu쎯	-10.5461
ga쎯ii쎯	-10.5462
lu쎯xk쎯	-10.5462
wgk쎯uqwm0쎯	-10.5466
pujn1쎯	-10.5467
wh쎯eee쎯	-10.5468
tg쎯gqf쎯	-10.5468
um쎯fd쎯	-10.5472
itd쎯khtd2쎯	-10.5474
dga쎯pwv쎯dn쎯js쎯	-10.5474
rb1쎯aqky1쎯	-10.5476
g쎯uthp쎯	-10.5476
a쎯tkgg0쎯txi쎯	-10.5476
rdn쎯	-10.5487
쎂쎀wtu쎯	-10.5489
vi쎯》	-10.5494
ack쎯	-10.5496
sagg쎯	-10.5503
,gm쎯o쎯	-10.5506
fnhp쎯	-10.5509
tfq쎯fj쎯wys쎯wsg0쎯	-10.5511
whf쎯og쎯pe쎯	-10.5512
dd쎯fny쎯ip쎯dl쎯	-10.5512
qtw쎯	-10.5518
ukqb0쎯	-10.5522
gf쎯g쎯wsg0쎯	-10.5523
bb쎯、	-10.5527
lt쎯jg쎯dcw쎯djb쎯	-10.5528
,m쎯jf쎯bn쎯	-10.5529
pj쎯udjh쎯	-10.553
ntg쎯。	-10.553
tp쎯gj쎯w쎯km쎯	-10.5534
wtp쎯tca쎯	-10.5538
wdn쎯naj1쎯	-10.5538
lh쎯mfk쎯	-10.5545
%。	-10.5547
qev쎯yt쎯pl쎯	-10.5551
uj쎯r쎯	-10.5554
、jn쎯bb쎯	-10.5555
y쎯rf쎯w쎯	-10.5555
,o쎯b쎯	-10.5556
alp쎯awx쎯	-10.5557
gh쎯dm쎯	-10.5558
쎀.쎇	-10.5558
ukn쎯wsg0쎯	-10.556
dy쎯dr쎯	-10.5569
gajf쎯whf쎯og쎯	-10.5573
lt쎯fiy쎯	-10.5573
fas쎯	-10.5574
rcp쎯lkd쎯	-10.5574
tr쎯wsg0쎯	-10.5574
sce쎯	-10.5574
dd쎯gj쎯	-10.5575
wxm쎯fcp쎯	-10.5579
bu쎯wgk쎯l쎯	-10.558
ubk0쎯if쎯	-10.5583
h쎯syp쎯	-10.5587
ep쎯l쎯	-10.5589
qvhc1쎯	-10.559
fghg쎯tg쎯nf쎯jgm쎯	-10.559
tx쎯dg쎯nm쎯	-10.5597
wg쎯qfhw0쎯	-10.5597
vb쎯ygu쎯。	-10.5601
wyp쎯lg쎯fnrt쎯	-10.5601
if쎯bpf쎯	-10.5602
wvm쎯ls쎯	-10.5604
ddn쎯	-10.5604
wx쎯dgtg쎯	-10.5609
qi쎯kkd쎯	-10.5615
tu쎯pgc쎯	-10.5617
ndj쎯bpf쎯	-10.5622
g쎯jjjj쎯	-10.5624
ggg1쎯l쎯	-10.5625
if쎯tvfh1쎯if쎯fwm쎯	-10.5626
r쎯xp쎯wgk쎯	-10.563
saj쎯aib쎯	-10.563
wgkq0쎯tj쎯	-10.5631
ap쎯yss쎯	-10.5631
ta쎯fd쎯	-10.5634
utd쎯ugm쎯r쎯	-10.5634
gfi쎯gae쎯	-10.5638
fm쎯cep쎯	-10.5639
by쎯trh쎯	-10.5641
skf쎯	-10.5642
gj쎯shn쎯	-10.5643
qtr쎯	-10.5646
ym쎯mmm쎯	-10.5648
sh쎯yid쎯r쎯	-10.5648
qdb쎯pd쎯	-10.5649
ym쎯rfm쎯jg쎯	-10.5652
anb0쎯sy쎯ip쎯bpf쎯	-10.5654
r쎯ujf쎯qi쎯	-10.5659
mh쎯k쎯l쎯	-10.5659
xnh쎯qaj쎯	-10.5662
ylf0쎯,adw쎯k쎯	-10.5662
itd쎯fcl쎯r쎯	-10.5664
dcw쎯djb쎯r쎯	-10.5667
tjf쎯img쎯	-10.5671
,uep쎯	-10.5674
iyc쎯fakg1쎯	-10.5674
xl쎯eaf쎯	-10.5674
tr쎯uqwm0쎯	-10.5677
pe쎯lfq쎯	-10.568
ipk쎯tv쎯tv쎯km쎯	-10.568
y쎯qe쎯	-10.5682
gq쎯ty쎯	-10.5685
nd쎯tv쎯wf쎯	-10.5686
fl쎯wt쎯	-10.5687
dg쎯jtg쎯	-10.5688
tm쎯h쎯	-10.5688
gdk쎯	-10.5691
ii쎯u쎯	-10.5693
iq쎯tel쎯	-10.5696
vfhp1쎯tam쎯tr쎯	-10.5696
쎃쎅쎀	-10.5698
og쎯lwj쎯	-10.57
dyt쎯mmm쎯	-10.57
rte쎯	-10.5701
,qm쎯gmu1쎯	-10.5703
qwyc0쎯fnr쎯	-10.5703
fqb1쎯wrh2쎯	-10.5704
r쎯tx쎯g쎯	-10.5704
ggn쎯	-10.5704
ssg쎯thn쎯	-10.5706
쎁쎀wh쎯	-10.5707
rwyg쎯bm쎯r쎯	-10.5707
x쎯iyj쎯ga쎯v쎯aq쎯	-10.5713
pye쎯tdij쎯	-10.5714
lk쎯c쎯	-10.5714
dn쎯al쎯r쎯	-10.5716
gkm쎯uqwm0쎯	-10.5717
khuh쎯	-10.5718
쎅.쎅	-10.5718
ymc쎯tlf2쎯,	-10.572
xfg쎯	-10.5721
/쎃	-10.5721
ral쎯pgn쎯	-10.5722
rgf쎯pe쎯	-10.5723
set쎯	-10.5724
sk쎯wt쎯o쎯	-10.5724
pu쎯jf쎯	-10.5725
lw쎯wc쎯ds쎯	-10.5727
gk쎯pu쎯	-10.5731
r쎯g쎯rn쎯	-10.5738
tv쎯xeg쎯xkw쎯uk쎯	-10.5738
dnv1쎯fqb1쎯。	-10.5745
oge쎯wxf쎯	-10.5746
iv쎯wynb쎯	-10.5752
tt쎯yn쎯sg쎯	-10.5755
(,)	-10.5755
big쎯	-10.5756
....	-10.5756
gmd쎯fghg쎯	-10.5758
pyfc0쎯	-10.576
vb쎯,	-10.5762
jjj쎯wsg0쎯	-10.5763
。o쎯b쎯	-10.5763
afs쎯g쎯	-10.5767
l쎯ffff5쎯	-10.577
h쎯uk쎯	-10.5772
xry쎯	-10.5773
j쎯q쎯wu쎯	-10.5773
uyu쎯	-10.5775
fcp쎯fcl쎯km쎯,	-10.5778
smq쎯	-10.5778
nt쎯s쎯	-10.578
mq쎯ijo쎯	-10.5782
tu쎯dga쎯a쎯wt쎯	-10.5785
eb쎯tl쎯gf쎯	-10.5785
iytb0쎯ca쎯k쎯	-10.579
wvd쎯v쎯r쎯	-10.579
xa쎯yta쎯	-10.5791
rwye1쎯rt쎯	-10.5791
ipe쎯deb쎯	-10.5792
tkh쎯,	-10.5794
dgt1쎯、	-10.5794
iq쎯jn쎯	-10.5795
,j쎯g쎯rn쎯	-10.5796
yid쎯et쎯gf쎯	-10.5797
you1쎯tq쎯	-10.5797
,uq쎯cep쎯	-10.58
rb1쎯》、《	-10.5806
wxf쎯wtd쎯	-10.5809
dsh1쎯	-10.5811
thfn쎯su쎯	-10.5814
toln0쎯oi쎯	-10.5815
tx쎯fg쎯uqw쎯	-10.5815
tlf2쎯et쎯	-10.5816
rnb쎯thn쎯	-10.5816
yxl쎯	-10.5817
dav쎯	-10.5818
g쎯jsd쎯	-10.5819
쎃쎆쎀	-10.5822
tgv쎯bd쎯“	-10.5823
mta쎯	-10.583
ryl쎯	-10.5831
gkp쎯fcl쎯	-10.5831
ifj쎯iyc쎯	-10.5833
》,《	-10.5833
e쎯b쎯	-10.5835
gf쎯쎂쎀쎁쎀rh쎯	-10.5837
ad쎯dbm쎯ymc쎯ytb쎯	-10.5838
,wv쎯klj쎯	-10.5841
쎂쎀쎀쎁	-10.5841
aqv1쎯	-10.5842
dd쎯uyh쎯	-10.5844
uxl쎯	-10.5845
j쎯g쎯wug1쎯	-10.5849
r쎯jf쎯whn쎯,	-10.5855
pye쎯l쎯	-10.5857
tffu쎯yy쎯dm쎯r쎯	-10.5857
oge쎯fhl쎯	-10.5858
pj쎯synw쎯	-10.5858
bde쎯jf쎯	-10.586
tjt쎯rmhj쎯	-10.5862
rrr쎯fcu0쎯	-10.5864
saq쎯xnf쎯	-10.5867
bs쎯ru쎯wr쎯	-10.5869
ukd0쎯jghm1쎯。	-10.5873
yny0쎯、	-10.5875
ral쎯syp쎯:	-10.5876
fny쎯adm쎯	-10.5879
afs쎯tkh쎯	-10.5882
uvo쎯bk쎯	-10.5883
rvy쎯if쎯	-10.5884
rgs쎯	-10.5886
yaop쎯	-10.5887
ugdu쎯kfi쎯	-10.5889
,bn쎯sk쎯	-10.5889
の	-10.5893
ym쎯dr쎯	-10.5894
qfhw0쎯ght쎯ywf쎯	-10.5898
r쎯yid쎯et쎯	-10.5899
dl쎯tkgg0쎯	-10.59
쎀ylf0쎯,	-10.5903
쎅～	-10.5903
uf쎯rh쎯	-10.5907
wx쎯uv쎯kkk쎯	-10.5907
adjd쎯	-10.5907
wt쎯et쎯,	-10.5908
x쎯qyv쎯	-10.5911
,wgj쎯	-10.5911
-쎀쎁	-10.5912
lv쎯uthp쎯	-10.5912
atgq쎯	-10.5912
ma쎯xg쎯	-10.5913
ntk쎯gf쎯mmm쎯aq쎯	-10.5918
rmc쎯jyie쎯	-10.5921
fhqv쎯rvyl쎯	-10.5922
no쎯	-10.5926
rmhj쎯uwyc0쎯	-10.5927
khgp1쎯	-10.5929
alw쎯aq쎯	-10.593
oge쎯pyj쎯,	-10.5932
,vcl쎯lt쎯	-10.5932
?”	-10.5933
sve쎯rnd1쎯f쎯	-10.5933
,ld쎯dmj1쎯	-10.5934
atdp쎯	-10.5935
cbd쎯tha쎯	-10.5936
vnx쎯	-10.5941
yjs쎯ipkf0쎯	-10.5942
maw쎯ahty쎯	-10.5949
xe쎯klj쎯	-10.5949
mmm쎯qfhw0쎯	-10.595
and쎯dd쎯r쎯	-10.5952
a쎯pei쎯	-10.5952
um쎯pe쎯	-10.5955
pgc쎯y쎯wtf쎯	-10.5957
ipkh1쎯fwm쎯	-10.5961
dr쎯e쎯	-10.5961
:쎁쎀	-10.5962
jb쎯jh쎯r쎯	-10.5965
iv쎯tfqp쎯o쎯	-10.5965
r쎯v쎯nae쎯,	-10.5969
uck쎯	-10.5969
awx쎯shi쎯	-10.5974
et쎯yne쎯r쎯	-10.5975
tfq쎯rg쎯wtf쎯	-10.5975
▁-	-10.5982
et쎯ii쎯	-10.5983
thgc쎯)	-10.5989
ue쎯imk쎯	-10.599
fqd쎯	-10.5995
pym쎯qe쎯	-10.5996
쎉wh쎯	-10.6
jh쎯rh쎯	-10.6002
kht쎯、	-10.6003
ymf쎯ty쎯	-10.6003
qq쎯fqb1쎯wx쎯	-10.6003
sf쎯。	-10.6003
lu쎯dd쎯r쎯	-10.6007
tdtv쎯	-10.6008
n쎯apk쎯whf쎯og쎯	-10.6009
。쎂쎀쎀쎆rh쎯	-10.601
he쎯pg쎯	-10.6012
yy쎯qf쎯	-10.6013
fg쎯uqw쎯	-10.6015
r쎯qk쎯pb쎯	-10.6017
cn쎯go쎯sghg1쎯gog쎯	-10.6018
iwgj1쎯	-10.6022
kwn쎯	-10.6023
ght쎯ick쎯uk쎯	-10.6024
ssss쎯sft쎯	-10.6027
ai쎯kht쎯	-10.6028
wdn쎯te쎯ywx쎯yygy쎯	-10.6028
。”psu쎯	-10.603
a쎯og쎯lfq쎯aq쎯	-10.6031
po쎯pd쎯	-10.6031
gu쎯egc쎯	-10.6033
ghd0쎯j쎯	-10.6033
쎅쎁쎂	-10.6035
eee쎯쎁쎂jjjj쎯	-10.6039
we쎯qd쎯	-10.6044
ftbt쎯ip쎯sov쎯	-10.6044
cf쎯yid쎯	-10.6044
tjgh2쎯	-10.6045
r쎯ip쎯tg쎯	-10.6051
fny쎯bk쎯	-10.6052
bgu쎯	-10.6055
uy쎯fgh쎯	-10.606
ftbt쎯ip쎯rfm쎯jg쎯	-10.6063
쎀쎀쎀쎀	-10.6065
ymc쎯ytb쎯yjj0쎯wg쎯	-10.6066
oqdo쎯oat쎯	-10.6066
tv쎯km쎯,	-10.6067
쎀oy쎯,rh쎯gu쎯fqu쎯	-10.6068
wg쎯tmd쎯	-10.6071
ukn쎯j쎯	-10.6071
puhc쎯rep쎯cbj쎯	-10.6072
xfm쎯pwat쎯	-10.6072
e쎯w쎯	-10.6074
m쎯jf쎯bn쎯	-10.6074
쎁쎀쎅	-10.6077
bue쎯uthp쎯	-10.6079
r쎯wwj쎯st쎯	-10.6081
xox쎯	-10.6084
jn쎯jyie쎯《	-10.6088
ougo쎯	-10.6088
▁bm쎯th쎯	-10.6088
rqw쎯ipkm0쎯	-10.6089
rpws쎯imj쎯	-10.6091
쎁쎂쎅	-10.6093
ovt쎯dj쎯	-10.6096
°C,	-10.6099
mmm쎯fhc쎯	-10.6099
xk쎯dd쎯	-10.61
gr쎯itx쎯	-10.6101
、fm쎯	-10.6101
ftjb쎯ce쎯	-10.6103
rn쎯gcft2쎯	-10.6109
쎂쎀rh쎯	-10.6113
tj쎯c쎯	-10.6114
sqdy쎯	-10.6115
ajt쎯ah쎯	-10.6115
qaj쎯ykg쎯	-10.6115
쎀*	-10.6119
▁·	-10.612
jf쎯wa쎯r쎯	-10.6122
tg쎯u쎯whf쎯og쎯	-10.6122
,j쎯g쎯wh쎯	-10.6122
ftxu0쎯	-10.6123
%c쎯h쎯	-10.6123
wv쎯qev쎯	-10.6124
μ	-10.6125
(쎁쎉쎂	-10.6125
iyw쎯jjj쎯	-10.6127
gk쎯。	-10.613
et쎯wt쎯	-10.6131
fm쎯egc쎯	-10.6131
pg쎯hko쎯	-10.6132
in	-10.6133
aigh쎯	-10.6137
rxj쎯fm쎯	-10.6141
ybt쎯	-10.6143
wyq쎯aa쎯	-10.6144
iie쎯rw쎯	-10.6144
tx쎯쎄	-10.6144
g쎯cf쎯	-10.6144
hko쎯fmk쎯	-10.6145
u쎯f쎯	-10.615
wqa쎯ijl쎯	-10.6152
xyna0쎯aft쎯	-10.6152
jty쎯jf쎯	-10.6153
ftbt쎯yce쎯ip쎯bpf쎯	-10.6153
lhj쎯	-10.6154
bqt쎯	-10.6155
pg쎯adwe1쎯	-10.6155
mf쎯u쎯	-10.6155
pyj쎯dskf쎯	-10.6159
vfb쎯wh쎯	-10.6161
yjjh1쎯、	-10.6162
쎁쎀쎈	-10.6163
ck쎯ux쎯	-10.6164
ua쎯d쎯	-10.6169
,gm쎯d쎯	-10.6172
k쎯l쎯ugdu쎯sy쎯	-10.6173
e쎯lt쎯	-10.6175
qh쎯fpm쎯	-10.6176
dhb쎯d쎯r쎯	-10.6178
x쎯apk쎯tp쎯gj쎯	-10.6178
쎄)	-10.6178
amyn0쎯	-10.6182
oyvk0쎯nii1쎯ugm쎯	-10.6184
ad쎯qqqq1쎯wf쎯	-10.6187
dfff쎯	-10.6189
。m쎯jf쎯	-10.6196
jjjj쎯pl쎯	-10.6196
bij쎯	-10.6197
g쎯xt쎯	-10.6198
h쎯iytb0쎯	-10.6198
a쎯wt쎯k쎯	-10.6201
tx쎯g쎯nm쎯	-10.6202
gh쎯bt쎯	-10.6205
oge쎯gcft2쎯	-10.6212
xyna0쎯ndj쎯	-10.6214
yo쎯tkh쎯	-10.6216
ph쎯	-10.6217
。hx쎯qh쎯,	-10.622
bm쎯tld1쎯	-10.6222
pu쎯wgq쎯	-10.6224
wynb쎯rh쎯	-10.6228
▁q쎯	-10.6228
쎂.쎃	-10.6229
aw쎯gef쎯lft쎯	-10.623
fq쎯ovt쎯	-10.6231
쎂kgn쎯	-10.6234
tp쎯gj쎯txi쎯xyc쎯	-10.6234
dyi쎯	-10.6235
qv	-10.6237
а	-10.6237
쎂w쎯,	-10.6238
puv쎯xe쎯k쎯ip쎯	-10.6239
ftbt쎯tkgg0쎯	-10.6239
xxf쎯og쎯,	-10.6242
yo쎯tj쎯	-10.6246
kwyn2쎯	-10.6248
me	-10.6248
wg쎯an쎯lwj쎯	-10.6248
rpl쎯	-10.6251
edjn쎯	-10.6251
uqd0쎯”	-10.6255
ga쎯og쎯	-10.6256
amyn0쎯ndm쎯	-10.6257
fghg쎯tg쎯nf쎯jgm쎯,	-10.6258
pe쎯et쎯	-10.6259
,rg쎯go쎯	-10.6259
fwm쎯aib쎯wx쎯	-10.6262
rpwi쎯	-10.6263
ip쎯wug1쎯,	-10.6264
wdn쎯yv쎯r쎯	-10.6265
tgv쎯	-10.6266
pykw쎯	-10.6266
rg쎯ccc쎯	-10.6268
fwn쎯	-10.6272
jf쎯r쎯	-10.6272
tv쎯km쎯、	-10.6274
vq쎯vld쎯	-10.6275
pjm쎯	-10.6277
wnnf쎯	-10.6279
a쎯tkgg0쎯fny쎯og쎯	-10.6282
ipm쎯tkw쎯	-10.6282
rc쎯cf쎯	-10.6284
lge쎯	-10.6291
rcn1쎯rng0쎯	-10.6292
gfq쎯hw쎯	-10.6293
y쎯iyc쎯	-10.6294
yveh쎯	-10.6298
fm쎯kht쎯	-10.6298
thd쎯ick쎯	-10.6299
k쎯l쎯nnh쎯gl쎯	-10.63
spq쎯	-10.6306
rhc쎯qf쎯gae쎯	-10.6307
quh1쎯	-10.6309
sdm쎯xe쎯	-10.6314
ytt쎯thd쎯ick쎯egc쎯	-10.6317
쎇w쎯	-10.6318
쎆.쎅	-10.632
ith쎯ftbt쎯yce쎯ds쎯	-10.6321
(ak쎯	-10.6325
v쎯sgfb쎯	-10.6326
▁jn쎯idr쎯	-10.6329
dc쎯vb쎯	-10.633
udjh쎯on쎯	-10.6331
dx쎯udi쎯	-10.6334
kgn쎯xg쎯	-10.6335
efg0쎯	-10.6337
wxf쎯k쎯	-10.634
fjhh쎯	-10.634
vcb쎯wgkq0쎯	-10.6346
ty쎯kkkk0쎯	-10.6348
wb쎯j쎯	-10.635
thc쎯	-10.6352
-쎁쎀	-10.6352
yygy쎯wx쎯r쎯	-10.6352
nh쎯xjm쎯	-10.6353
esw쎯	-10.6354
ygu쎯tfqp쎯	-10.6356
gkl쎯y쎯wtf쎯。	-10.6359
iwf쎯lw쎯r쎯	-10.6361
-쎉	-10.6362
tfqp쎯iwf쎯	-10.6364
cl쎯	-10.6366
fhn쎯b쎯	-10.6368
o쎯sg쎯	-10.6368
sh쎯yid쎯	-10.637
c쎯hx쎯	-10.6375
tavn쎯yqa쎯	-10.6376
xh쎯wycm0쎯	-10.6376
uve쎯	-10.6377
rh쎯go쎯,	-10.6377
。vk쎯js쎯	-10.6378
um쎯wf쎯	-10.6379
tdj쎯ssss쎯	-10.6383
aqt쎯bc쎯	-10.6383
tuj쎯wj쎯:	-10.6384
tp쎯gj쎯,	-10.6385
gkl쎯egc쎯ta쎯	-10.6387
klj쎯qk쎯	-10.6389
l쎯bf쎯wx쎯	-10.639
at쎯yfn쎯	-10.6395
uqd0쎯adm쎯	-10.6395
ruj쎯	-10.6395
pu쎯nu쎯	-10.6396
pu쎯bf쎯h쎯	-10.6399
wh쎯ntg쎯wx쎯	-10.6401
qh쎯uk쎯	-10.6405
qten0쎯	-10.6408
gh쎯iytb0쎯	-10.641
bct쎯wys쎯	-10.6411
e쎯bv쎯wc쎯ngk쎯、	-10.6413
dgtg쎯wx쎯	-10.6417
ン	-10.642
eta쎯	-10.6421
ftbt쎯ipkf0쎯	-10.6421
wa쎯fwf쎯	-10.6424
tg쎯u쎯qie쎯wyk쎯	-10.6425
wsg0쎯rmhj쎯	-10.6429
a쎯tkgg0쎯rfc쎯sy쎯	-10.643
tfl쎯yce쎯	-10.6433
쎁～	-10.6433
je쎯fje쎯	-10.6437
fad쎯	-10.6439
lfc쎯	-10.644
al쎯ce쎯:	-10.6443
rpwn1쎯rnbm쎯	-10.6443
y쎯xt쎯	-10.6445
gmd쎯maw쎯	-10.6446
vc쎯vc쎯	-10.6452
。tfq쎯rg쎯	-10.6453
v쎯nae쎯hka쎯ltk쎯	-10.6454
icd쎯tep쎯	-10.6457
〉	-10.646
jty쎯irh쎯	-10.646
uwe쎯	-10.6461
eee쎯쎂쎇jjjj쎯	-10.6463
qq쎯uk쎯	-10.6465
tqv쎯pg쎯ntg쎯	-10.6465
cn쎯dq쎯ln쎯y쎯yq쎯	-10.6469
ykk쎯	-10.6469
thd쎯qd쎯sf쎯	-10.6469
cd쎯xyna0쎯	-10.647
tffu쎯tffu쎯。	-10.6472
tv쎯ipkh1쎯tv쎯、	-10.6473
nft쎯	-10.6475
i쎯et쎯	-10.6479
lcc쎯	-10.6479
tg쎯ugv쎯	-10.6479
wk쎯ijl쎯	-10.648
mqu쎯jf쎯	-10.6482
gu쎯pv쎯	-10.6483
g쎯th쎯	-10.6483
쎁쎈쎄	-10.649
gm쎯dhb쎯	-10.6492
쎂쎀dq쎯	-10.6492
쎀)	-10.6492
trf쎯hko쎯j쎯	-10.6495
nfp쎯	-10.65
gkl쎯ftbt쎯rep쎯,	-10.65
yny0쎯u쎯	-10.6506
r쎯ad쎯dbm쎯h쎯,	-10.6506
sghg1쎯kht쎯	-10.6509
cq쎯	-10.6509
쎁wc쎯jfd쎯	-10.6511
ge쎯je쎯	-10.6513
fp쎯tkgg0쎯k쎯,	-10.6513
tdp쎯iv쎯	-10.6514
j쎯o쎯b쎯	-10.6515
og쎯wtu쎯	-10.6525
gmii0쎯	-10.6527
。wug1쎯gf쎯	-10.6527
uqwm0쎯egl쎯	-10.6533
qqqq1쎯mqj쎯	-10.6536
bg쎯tg쎯uk쎯	-10.6536
。l쎯ffff5쎯dm쎯tkw쎯	-10.6538
l쎯pe쎯tgj쎯hko쎯	-10.6539
ux쎯psu쎯	-10.6539
qgj쎯nfp쎯	-10.6541
ibi쎯	-10.6548
iak쎯ivc쎯	-10.6548
쎁%	-10.6552
eu쎯gkh0쎯	-10.6554
wdn쎯te쎯uqd0쎯	-10.6555
sk쎯et쎯	-10.6555
opf쎯	-10.6558
dd쎯ahn쎯	-10.6562
px쎯j쎯	-10.6563
fc쎯uk쎯nnh쎯yn쎯	-10.6563
s쎯gxi쎯	-10.6565
pp쎯bb쎯	-10.6568
gef쎯itx쎯	-10.6577
eee쎯쎂쎃jjjj쎯	-10.6579
bty쎯	-10.6579
qq쎯qk쎯	-10.6579
〈	-10.6583
k쎯l쎯gl쎯	-10.6583
sfk쎯	-10.6587
fjg쎯dq쎯	-10.6587
yr쎯ywc쎯	-10.6587
alkf0쎯	-10.6589
sk쎯wv쎯o쎯	-10.6592
k쎯yygy쎯qk쎯:	-10.6594
nnh쎯gl쎯pe쎯	-10.6594
vck쎯xtu쎯jcf쎯rf쎯	-10.6597
fge쎯fghg쎯,	-10.6599
dm쎯tkw쎯o쎯	-10.6602
qnq쎯ou쎯	-10.6604
sp쎯	-10.6609
l쎯bf쎯sm쎯fnrt쎯	-10.661
pw쎯k쎯	-10.661
tfk쎯dq쎯	-10.6612
abe쎯	-10.6616
twik쎯	-10.6619
;쎁	-10.6621
tfqp쎯yce쎯	-10.6624
amw쎯mmm쎯	-10.6624
xtd쎯	-10.6626
(qn쎯rtd쎯	-10.663
ak	-10.6631
g쎯wwv쎯	-10.6632
a쎯tkgg0쎯、	-10.6636
odm쎯	-10.6636
tif쎯	-10.6637
gf쎯hx쎯	-10.6638
ym쎯ige쎯	-10.6638
puv쎯xe쎯	-10.6639
ght쎯tv쎯	-10.664
icd쎯	-10.6642
ymc쎯tlf2쎯r쎯	-10.6643
ynjh0쎯	-10.6646
gw쎯khgm4쎯	-10.6651
pa쎯gkp쎯	-10.6652
pj쎯rx쎯	-10.6653
fm쎯psu쎯	-10.6654
lkd쎯l쎯	-10.6656
쎇)	-10.6656
gh쎯uk쎯	-10.6656
adnt1쎯nnh쎯	-10.6658
n쎯lw쎯	-10.6664
ile쎯	-10.6664
tmfk1쎯	-10.6665
r쎯fp쎯tkgg0쎯	-10.6667
qtfj1쎯mww쎯	-10.6667
xwy쎯rf쎯	-10.6671
ymc쎯yf쎯r쎯	-10.6671
qqqq1쎯mmm쎯	-10.6674
itm쎯	-10.668
ybv쎯ton쎯	-10.6682
ral쎯xwf쎯	-10.6682
rhyc1쎯	-10.6684
v쎯nae쎯fwm쎯aj쎯	-10.6684
rfc쎯sy쎯eb쎯tl쎯	-10.6686
ywx쎯syp쎯	-10.6687
g쎯xg쎯	-10.6688
jcf쎯rf쎯“	-10.6689
tx쎯vt쎯	-10.6693
sagg쎯lks쎯	-10.6697
eee쎯쎅jjjj쎯	-10.6701
cf쎯tq쎯	-10.6702
ucw쎯a쎯	-10.6702
,p쎯hxf쎯	-10.6708
awx쎯qyng쎯	-10.6712
wg쎯xte쎯	-10.6714
ggi쎯xat쎯	-10.6715
ssm쎯	-10.6715
쎆.쎀	-10.6715
jhf1쎯bwg쎯	-10.6716
▁(쎂)	-10.6719
rwgk쎯	-10.6719
쎉.쎀	-10.6721
eee쎯쎂쎁jjjj쎯	-10.6722
wg쎯thd쎯fcl쎯	-10.6725
it쎯uqf쎯	-10.6726
rmc쎯uqwm0쎯ftj쎯	-10.6728
tqq쎯n쎯	-10.673
ugm쎯、	-10.6731
ybo쎯	-10.6732
쎉eee쎯gcf쎯	-10.6733
rny1쎯wtf쎯	-10.6739
inr쎯jghx쎯	-10.674
bb쎯。	-10.674
ukn쎯gj쎯	-10.6741
쎅oy쎯	-10.6743
iq쎯xft쎯	-10.6745
y쎯w쎯	-10.675
e1쎯	-10.6752
sgn쎯yy쎯	-10.6754
2	-10.6756
ee쎯	-10.6757
bb쎯wc쎯ngk쎯	-10.6758
gk쎯adm쎯	-10.6764
ith쎯uk쎯xe쎯	-10.6766
pp쎯tq쎯	-10.6767
pt쎯w쎯	-10.677
yox쎯ma쎯	-10.6773
쎄쎈쎀	-10.6773
tr쎯gj쎯ip쎯	-10.6774
nxf쎯	-10.6776
쎆쎀쎀쎀	-10.6782
ey쎯sh쎯ud쎯	-10.6783
mw쎯f쎯	-10.6783
tve쎯nnw쎯	-10.6787
wkso0쎯	-10.6788
쎂～	-10.6792
、ux쎯yiu쎯	-10.6792
gj쎯ywx쎯gn쎯	-10.6793
wyp쎯hh쎯	-10.6794
ukq쎯	-10.6794
vo쎯fcr쎯	-10.6796
itx쎯ud쎯	-10.6797
thp쎯ta쎯	-10.68
wc쎯www쎯	-10.6803
uk쎯wrh2쎯	-10.6804
fgh쎯mt쎯	-10.6805
g쎯ffi쎯	-10.6806
쎄wc쎯jfd쎯	-10.6806
x쎯cwg쎯dh쎯pgk쎯	-10.6808
sm쎯tmd쎯	-10.6808
rc쎯tmdf1쎯	-10.6812
ujfj쎯wug1쎯、	-10.6814
pyg쎯tjh쎯	-10.6816
f쎯fhg1쎯:	-10.6819
vef쎯	-10.6826
dn쎯kkk쎯	-10.6826
bnn2쎯bb쎯	-10.6826
(쎁).	-10.6833
。m쎯rh쎯	-10.6835
rnn1쎯pu쎯	-10.6837
nf쎯tey쎯	-10.6838
trf쎯xq쎯	-10.6842
nty1쎯af쎯ga쎯yt쎯	-10.6843
irr쎯ia쎯dd쎯ip쎯	-10.6845
pv쎯wg쎯tg쎯u쎯	-10.6846
。wjg쎯j쎯	-10.6848
wwj쎯wfhg쎯。	-10.6849
em쎯mww쎯	-10.6849
eee쎯쎂쎂jjjj쎯	-10.6851
eee쎯쎂쎉jjjj쎯	-10.6854
▁(쎂).	-10.6858
ul쎯qq쎯uqw쎯	-10.6861
pwm쎯	-10.6861
xq쎯쎂	-10.6867
uu쎯vcb쎯	-10.6868
ftbt쎯rep쎯、	-10.6871
。g쎯tem쎯	-10.6871
cwg쎯nh쎯	-10.6872
awx쎯adwe1쎯	-10.6874
m쎯tf쎯	-10.6884
,xxr쎯	-10.6884
qq쎯o쎯	-10.6885
ip쎯tu쎯gkp쎯udi쎯w쎯	-10.6886
qug2쎯	-10.6886
▁adw쎯px쎯	-10.6886
m쎯od쎯	-10.6887
dd쎯ooo쎯	-10.6888
lpk0쎯fa쎯	-10.6888
.쎅djfd쎯oy쎯	-10.689
fqw쎯	-10.6891
kkkk0쎯dgkn쎯	-10.6893
rvl쎯	-10.6894
rtol1쎯bm쎯	-10.6898
yt쎯tmdf1쎯	-10.6898
dga쎯yfy1쎯wf쎯	-10.6901
uqt쎯js쎯。	-10.6903
v쎯rnbm쎯	-10.6908
fhv쎯fha쎯	-10.6909
iq쎯je쎯	-10.6909
gf쎯쎂쎀쎀쎉rh쎯	-10.691
eee쎯쎁쎉jjjj쎯	-10.691
,etn쎯	-10.6913
ae쎯txi쎯	-10.6914
da쎯dk쎯。	-10.6916
rmn쎯tpi쎯	-10.6918
r쎯i쎯m쎯	-10.6921
wgkq0쎯wgkb2쎯	-10.6921
,i쎯wcy2쎯	-10.6922
dnv1쎯pb쎯	-10.6925
sk쎯c쎯d쎯	-10.6926
ww쎯ih쎯	-10.6927
usgp1쎯trfh0쎯	-10.6928
ffff5쎯ssss쎯	-10.6929
,cep쎯ipkh1쎯	-10.6929
"="	-10.6931
vfb쎯jfd쎯	-10.6933
,tm쎯	-10.6938
teg1쎯wtfm1쎯	-10.6938
▁쎂쎀쎀쎈rh쎯	-10.6938
wb쎯w쎯	-10.6942
iytb0쎯fmk쎯bw쎯	-10.6943
jge쎯	-10.6949
qlh0쎯	-10.6949
tr쎯og쎯tp쎯gj쎯	-10.695
qev쎯toc쎯:	-10.6954
sf쎯n쎯ih쎯xeg쎯	-10.6954
wycm0쎯nf쎯r쎯	-10.6964
pynn0쎯wyq쎯	-10.6964
aww쎯	-10.6964
fj쎯at쎯	-10.6966
ps쎯ihc쎯ymhj쎯	-10.6966
lfn쎯gkip2쎯	-10.6967
bib쎯	-10.697
gjq쎯ym쎯	-10.697
sh쎯iv쎯gf쎯	-10.6971
tf쎯ght쎯tp쎯gj쎯	-10.6971
rj쎯fi쎯	-10.6973
dnv1쎯dl쎯	-10.6974
gd쎯yygy쎯	-10.6974
sm쎯fcl쎯	-10.6979
av쎯pdhj쎯	-10.6982
rxj쎯r쎯j쎯	-10.6984
tg쎯itd쎯d쎯	-10.6984
,ipw쎯epc쎯	-10.6991
qvb쎯	-10.6992
khgm4쎯bj쎯	-10.6992
je쎯jo쎯r쎯	-10.6993
swg쎯	-10.6999
ymf쎯dga쎯	-10.7002
mcw쎯	-10.7003
o쎯wqin쎯	-10.7004
fj쎯bc쎯	-10.7005
쎁쎉쎉	-10.7005
fffy쎯uft쎯	-10.7006
wbj쎯wt쎯r쎯	-10.7006
iyni0쎯	-10.7009
ubte쎯	-10.7017
rmhj쎯tlf2쎯	-10.7018
wx쎯wgk쎯tr쎯	-10.702
mwwk쎯	-10.702
sg쎯tu쎯tg쎯	-10.7026
쎈)	-10.7028
g쎯xfm쎯	-10.7029
ytf쎯sk쎯ygh쎯	-10.7029
rawk쎯sgn쎯	-10.703
afd0쎯ajj쎯	-10.703
xqc쎯xxe쎯	-10.7031
,j쎯rxj쎯	-10.7031
ny쎯eyf쎯	-10.7031
yh쎯wqin쎯	-10.7033
ux쎯itx쎯	-10.7035
adw쎯uj쎯	-10.7037
。쎂쎀쎀쎈rh쎯	-10.704
ih쎯ktn쎯	-10.7041
in쎯	-10.7042
d쎯suq쎯ip쎯tg쎯	-10.7043
ftbt쎯nf쎯	-10.7043
qnq쎯et쎯	-10.7046
pt쎯yne쎯rj쎯waw쎯	-10.705
uq쎯cep쎯yy쎯wgj쎯	-10.7053
ipk쎯xeg쎯dn쎯km쎯、	-10.7056
tv쎯pgj쎯wfny0쎯uk쎯	-10.7061
dyt쎯og쎯	-10.7065
vfhp1쎯suq쎯	-10.7066
wygg쎯pwdj쎯	-10.7067
jjjj쎯uwl쎯	-10.7068
wa쎯ge쎯ntg쎯	-10.7069
mt쎯rh쎯	-10.707
쎇eee쎯xxf쎯og쎯gf쎯	-10.7071
ty쎯wgg0쎯	-10.7073
ifw쎯lt쎯	-10.708
eee쎯쎂쎄jjjj쎯	-10.708
bn쎯wf쎯	-10.7083
vfh쎯	-10.7083
yu쎯:“	-10.7087
r쎯vb쎯	-10.7088
쎁.쎇	-10.7088
usr쎯pei쎯sf쎯	-10.7089
bd쎯yad쎯	-10.7092
khgm4쎯ytt쎯	-10.7092
qfhw0쎯wug1쎯gf쎯	-10.7093
twgi쎯xq쎯	-10.7096
),pb쎯	-10.7101
pwv쎯tg쎯nf쎯jgm쎯	-10.7102
xh쎯ty쎯	-10.7103
gw쎯gr쎯	-10.7104
qk쎯yngk0쎯	-10.7104
iyc쎯wsg0쎯	-10.7106
eee쎯쎆jjjj쎯	-10.7106
。gm쎯e쎯	-10.7107
fku쎯ndj쎯	-10.7108
whf쎯gk쎯og쎯	-10.7108
r쎯ad쎯dbm쎯	-10.7108
ige쎯·	-10.7111
wk쎯bg쎯	-10.7111
wa쎯ytm쎯	-10.7114
wf쎯yyq쎯pgc쎯	-10.7114
fge쎯jtyq1쎯wf쎯	-10.7115
gt쎯grq쎯	-10.7117
thd쎯tf쎯	-10.7117
d쎯l쎯mw쎯qh쎯	-10.7118
xyj쎯	-10.7119
쎈wc쎯jfd쎯	-10.7121
ln쎯shn쎯ght쎯ick쎯	-10.7122
ujf쎯tsh0쎯	-10.7123
쎃dq쎯	-10.7125
rs쎯fmk쎯	-10.7125
ujfj쎯ma쎯	-10.713
hx쎯jf쎯	-10.7131
xl쎯ab쎯	-10.7132
yid쎯qvn2쎯	-10.7134
w쎯n쎯if쎯bpf쎯	-10.7134
▁et쎯if쎯	-10.7135
kthh1쎯egc쎯	-10.7136
쎁쎉쎂쎇rh쎯	-10.7137
gajh쎯gk쎯	-10.714
쎈쎀rh쎯wa쎯	-10.7142
,gf쎯j쎯	-10.7145
ujn쎯qh쎯	-10.7145
ep쎯vb쎯	-10.7146
ug	-10.7146
u쎯kkk쎯od쎯gajf쎯:	-10.7147
wv쎯aet0쎯	-10.7148
xww쎯sam쎯	-10.7149
g쎯hi쎯	-10.7152
,j쎯g쎯tkh쎯	-10.7154
ux쎯kht쎯	-10.7156
jn쎯begg쎯	-10.7157
dd쎯gf쎯	-10.7158
i쎯yud0쎯	-10.7158
쎃.쎂	-10.7159
ue쎯qtd쎯	-10.716
w쎯。k쎯aw쎯ipk쎯km쎯。	-10.7161
k쎯wxf쎯atd쎯ip쎯wf쎯	-10.7163
gef쎯hgo쎯	-10.7167
udi쎯uk쎯	-10.7168
fk쎯wb쎯	-10.7169
,wt쎯o쎯	-10.717
es쎯et쎯b쎯	-10.7171
쎁쎆쎀쎀	-10.7173
sg쎯w쎯	-10.7176
iytb0쎯iyni0쎯	-10.7177
h쎯jmd쎯	-10.7181
”,“	-10.7183
k쎯yygy쎯qk쎯tq쎯:	-10.7184
gs쎯,	-10.7184
je쎯ige쎯	-10.7185
o쎯pfi쎯xj쎯	-10.7186
gae쎯rvyl쎯	-10.7187
itx쎯h쎯	-10.7187
ow쎯gs쎯	-10.719
why쎯	-10.7191
djfd쎯oy쎯。	-10.7194
wdt쎯b쎯	-10.7194
。m쎯jf쎯,	-10.7198
sghg1쎯wmj0쎯	-10.72
pp쎯h쎯	-10.7204
py쎯wf쎯tk쎯lwj쎯	-10.7206
y쎯s쎯c쎯	-10.7207
whf쎯og쎯。wc쎯ngk쎯	-10.7209
usr쎯an쎯xn쎯	-10.7209
aitl쎯	-10.7212
dm쎯jty쎯	-10.7212
kha쎯yb쎯sf쎯tv쎯wf쎯	-10.7214
pdc쎯cm쎯	-10.7215
ukn쎯jtyl쎯	-10.7219
if쎯》	-10.7221
pwtf0쎯	-10.7222
dm쎯src쎯	-10.7222
adm쎯hhhh쎯r쎯	-10.7223
iugi1쎯	-10.7225
g쎯dm쎯	-10.7228
、sb쎯	-10.7232
pn쎯km쎯	-10.7238
쎈kgn쎯	-10.7242
pwdj쎯wfk쎯	-10.7243
buk쎯	-10.7244
sh쎯xo쎯	-10.7249
tpi쎯	-10.725
lr쎯	-10.7252
ggg1쎯bb쎯	-10.7253
쎃w쎯,	-10.7253
ubtf쎯tfkp쎯	-10.7255
f쎯rvyl쎯	-10.7256
o쎯adw쎯	-10.7258
,ad쎯uk쎯	-10.7259
fc쎯uk쎯	-10.7261
usgp1쎯	-10.7261
wfl쎯	-10.7261
wgkb2쎯wyc쎯	-10.7262
puv쎯hi쎯	-10.7262
iyj쎯fm쎯ymhj쎯	-10.7263
dmq쎯	-10.7265
fug쎯fe쎯	-10.7265
ymf쎯ou쎯	-10.7267
yygt쎯uit쎯	-10.7269
ta쎯dp쎯	-10.7273
j쎯l쎯pe쎯	-10.7274
n쎯apk쎯	-10.7276
fggh쎯rdn쎯	-10.7276
,gae쎯dn쎯b쎯	-10.7279
(쎄)	-10.7279
nied쎯	-10.7282
dj쎯wxm쎯	-10.7283
mq쎯jy쎯te쎯gmy1쎯	-10.7285
kkkk0쎯eb쎯	-10.7286
dgh쎯ftx쎯r쎯	-10.7289
쎈쎀%	-10.7292
eee쎯쎉jjjj쎯	-10.7292
dn쎯ygk쎯	-10.7292
tqv쎯pg쎯r쎯	-10.7295
yi쎯e쎯	-10.7296
wwj쎯wfhg쎯r쎯	-10.73
yfd쎯sf쎯	-10.73
av쎯thg0쎯	-10.7302
iie쎯ditn0쎯	-10.7303
。p쎯hxf쎯	-10.7304
wh쎯ftbt쎯ip쎯gyt쎯,	-10.7305
adu1쎯	-10.7306
dd쎯qq쎯	-10.7306
e쎯bv쎯	-10.7306
rh쎯xe쎯	-10.7312
tdjh1쎯	-10.7313
gd쎯wgkq0쎯	-10.7315
,wg쎯sf쎯	-10.7317
qh쎯,gip쎯	-10.7319
oja쎯oth쎯	-10.7319
sf쎯w쎯	-10.732
쎁쎅rh쎯	-10.732
f쎯gae쎯	-10.732
l쎯ygk쎯	-10.7322
tg쎯u쎯ymc쎯tlf2쎯	-10.7324
jf쎯adwe1쎯,	-10.7324
mee쎯	-10.7327
sksw쎯rlg쎯	-10.7327
y쎯yfj쎯	-10.7329
l쎯pe쎯g쎯xe쎯	-10.733
yn쎯·	-10.733
iv쎯k쎯	-10.7331
o쎯pt쎯yne쎯	-10.7332
x쎯xn쎯	-10.7334
tx쎯g쎯pe쎯	-10.7335
eee쎯쎁쎇jjjj쎯	-10.7338
cbd쎯yf쎯	-10.7338
o쎯whf쎯og쎯	-10.7338
ic쎯pb쎯	-10.734
pyb1쎯	-10.7341
xf쎯vq쎯	-10.7342
vcy1쎯	-10.7342
、ytey쎯iytb0쎯	-10.7348
쎀.쎉	-10.7348
srm쎯awx쎯	-10.7349
qt쎯tu쎯	-10.7349
ud쎯uft쎯	-10.735
。ld쎯hx쎯,	-10.735
xg쎯h쎯	-10.7354
mmv쎯	-10.7356
uqf쎯wf쎯	-10.7358
▁『	-10.7359
쎄.쎀	-10.7361
ga쎯ynk쎯	-10.7361
nh쎯mqc쎯	-10.7366
(쎁쎅	-10.7366
gjq쎯vb쎯r쎯	-10.7367
fnr쎯iwyf2쎯	-10.7369
,c쎯“	-10.7374
k쎯gef쎯rh쎯	-10.7375
rgf쎯rg쎯	-10.7378
wk쎯pg쎯	-10.7383
▁쎂쎀쎀쎆rh쎯	-10.7384
tfkf1쎯yr쎯	-10.7385
xcy쎯rnr쎯	-10.7387
pp쎯gh쎯	-10.7388
fu쎯wfhg쎯	-10.7388
rymn쎯hka쎯	-10.7389
p쎯yi쎯j쎯	-10.739
tp쎯gj쎯r쎯	-10.7391
rc쎯tjt쎯	-10.7391
jy쎯qc쎯	-10.7395
쎯	-10.7396
ymc쎯yf쎯gn쎯	-10.7397
jhf1쎯	-10.7398
(쎁쎈쎉	-10.7401
bn쎯kn쎯	-10.7401
xnh쎯	-10.7401
qi쎯lfq쎯	-10.7402
eee쎯쎁쎁jjjj쎯	-10.7405
fhwm0쎯	-10.7405
dj쎯dnv1쎯	-10.7406
yngk0쎯ian0쎯	-10.7408
wdn쎯gjh2쎯	-10.7413
pei쎯wt쎯tr쎯	-10.7413
dn쎯o쎯b쎯	-10.7415
go쎯jn쎯	-10.7415
cbt쎯rfh0쎯	-10.7417
qnw쎯	-10.7417
dfn쎯	-10.7421
mw쎯pww쎯qn쎯rtd쎯	-10.7423
k쎯ny쎯ih쎯ip쎯	-10.7424
cd쎯yaf쎯	-10.7425
ipkh1쎯ipkh1쎯	-10.7426
쎃쎀wtu쎯	-10.7428
adef0쎯aynr쎯	-10.7433
。gm쎯d쎯	-10.7435
bm쎯ipg쎯	-10.7436
w쎯rnb쎯	-10.744
qtgf2쎯	-10.7441
ght쎯tl쎯	-10.7442
ncd쎯	-10.7443
쎉쎀%	-10.7449
쎂.쎆	-10.7449
g쎯wrh2쎯	-10.7451
xyna0쎯ty쎯	-10.7451
gfi쎯km쎯	-10.7453
buj쎯	-10.7456
qnnk1쎯udyj쎯	-10.7458
ih쎯yu쎯《	-10.7466
y쎯w쎯wc쎯	-10.7466
mh쎯dr쎯	-10.7466
ymc쎯d쎯	-10.7471
fl쎯wf쎯gj쎯gk쎯	-10.7471
wc쎯tl쎯km쎯	-10.7473
mt쎯fgh쎯	-10.7476
sf	-10.7477
dmj1쎯dn쎯,	-10.7478
▁q쎯wu쎯	-10.748
kgn쎯)	-10.7481
cep쎯mq쎯	-10.7482
gkl쎯y쎯xyna0쎯	-10.7485
pym쎯jfc쎯	-10.7485
ywe쎯ubk0쎯	-10.7486
vbn쎯wu쎯	-10.7487
oja쎯v쎯	-10.749
ujn쎯o쎯	-10.7492
gmf쎯tg쎯	-10.7494
pt쎯cm쎯	-10.7494
ugm쎯gj쎯	-10.7496
bu쎯xtk쎯	-10.7496
tk쎯thd쎯	-10.7498
gkl쎯y쎯wtf쎯tv쎯km쎯	-10.7499
쎃～	-10.7499
uvo쎯pww쎯	-10.7501
iyjh쎯jtyq1쎯	-10.7508
al쎯yx쎯:	-10.7509
pj쎯pg쎯	-10.7513
yne쎯gajf쎯	-10.752
bm쎯kkk쎯	-10.7522
src쎯fnw쎯	-10.7524
tve쎯vb쎯r쎯	-10.7526
ym쎯tffu쎯bpf쎯suq쎯	-10.7528
r쎯tf쎯o쎯	-10.7528
uduk쎯gf쎯	-10.7528
bk쎯og쎯ftbt쎯yce쎯	-10.7529
쎁쎉쎂쎈rh쎯	-10.7533
。hhhh쎯ue쎯,	-10.7537
pei쎯og쎯uk쎯	-10.7538
agf쎯	-10.7539
rb1쎯xqa쎯	-10.7541
tb쎯ab쎯	-10.7541
sg쎯ffff5쎯	-10.7541
ynky2쎯	-10.7542
yid쎯lt쎯	-10.7543
qwy1쎯	-10.7544
an	-10.7545
wfny0쎯fcl쎯	-10.7546
fajv쎯	-10.7547
aqg쎯aqr쎯isgg0쎯	-10.7547
о	-10.7548
ftbt쎯yce쎯a쎯wt쎯	-10.7551
jhk1쎯rb1쎯	-10.7552
。wg쎯sf쎯	-10.7558
쎄쎀wtu쎯	-10.756
kld쎯	-10.7561
gogj쎯tak쎯o쎯	-10.7562
ym쎯tld1쎯dfy쎯	-10.7564
wxf쎯dht쎯	-10.7565
luf쎯	-10.7565
my	-10.7566
qq쎯fqb1쎯	-10.7567
sk쎯et쎯gf쎯	-10.7569
go쎯yu쎯,	-10.7571
rt쎯a쎯	-10.7572
sfh쎯alt쎯	-10.7574
쎂쎄ih쎯jf쎯	-10.7579
ujfj쎯wug1쎯:	-10.758
lsh쎯	-10.758
ngk쎯wyc쎯uk쎯	-10.7586
jty쎯ysi쎯x쎯cwg쎯	-10.7592
qsj쎯	-10.7594
pei쎯n쎯nh쎯ty쎯y쎯s쎯	-10.7595
。쎂쎀쎀쎇rh쎯	-10.7597
wgnb쎯	-10.7602
쎄쎅쎀	-10.7602
yygt쎯dd쎯pt쎯yne쎯	-10.7607
pp쎯ujn쎯	-10.7607
yu쎯je쎯nnh쎯	-10.7608
pfqc1쎯	-10.7608
cf쎯rt쎯	-10.761
ubtf쎯eu쎯	-10.761
dgkn쎯gc쎯	-10.7613
쎁쎉쎉쎉	-10.7613
rer쎯iuc쎯	-10.762
pgy쎯dgtg쎯	-10.7624
fhn쎯wtf쎯	-10.7629
。쎂쎀쎀쎅rh쎯	-10.7631
ix쎯	-10.7631
yu쎯if쎯	-10.7633
(쎁쎉쎃	-10.7634
synw쎯siq쎯	-10.7636
gqg1쎯utd쎯w쎯	-10.7637
lu쎯ih쎯	-10.7637
uth쎯ywf쎯	-10.7638
itl쎯	-10.7638
fgh쎯wv쎯wgj쎯tjh쎯	-10.7639
쎂쎀-	-10.7641
rx쎯uwy1쎯dn쎯uu쎯	-10.7642
sg쎯tu쎯xxf쎯og쎯	-10.7642
scbk쎯	-10.7643
iry쎯gqjo0쎯	-10.7645
fhw쎯ghd0쎯r쎯	-10.7647
qnj쎯	-10.7652
x쎯apk쎯gj쎯wynn3쎯,	-10.7653
tuu쎯tb쎯	-10.7654
gklp쎯	-10.7656
qdw쎯	-10.7659
pp쎯wt쎯	-10.766
hhhh쎯ue쎯nnnn쎯	-10.766
bm쎯gm쎯d쎯	-10.766
khv쎯khp쎯	-10.7662
qq쎯rh쎯tg쎯ajj쎯sg쎯	-10.7665
god쎯st쎯r쎯	-10.7666
ii	-10.7667
rjg0쎯wk쎯	-10.7667
,epc쎯gc쎯	-10.7667
ii쎯dm쎯	-10.7668
sgyh쎯	-10.767
wgku1쎯fnrt쎯	-10.7673
txgt쎯dgkn쎯	-10.7674
dqe쎯yw쎯	-10.7678
eee쎯쎃jjjj쎯	-10.768
fp쎯r쎯	-10.7682
。n쎯l쎯	-10.7683
dgkn쎯yid쎯	-10.7684
ynh쎯	-10.7685
eee쎯쎁쎄jjjj쎯	-10.7686
bq쎯adnt1쎯	-10.7687
tevc쎯	-10.7688
ai쎯itx쎯	-10.7689
hi쎯tf쎯	-10.7691
ajdl쎯	-10.7691
dd쎯m쎯	-10.7692
gf쎯쎂쎀쎁쎁rh쎯	-10.7692
k쎯l쎯wt쎯pe쎯fl쎯wf쎯	-10.7693
rgd쎯bfw쎯	-10.7696
ftjb쎯sk쎯c쎯	-10.7698
a쎯uqwm0쎯	-10.7698
bm쎯wtf쎯	-10.7701
yxxr0쎯	-10.7703
쎂.쎇	-10.7705
dd쎯fny쎯yygy쎯wx쎯	-10.7706
txi쎯y쎯wtf쎯	-10.7709
yfj쎯qev쎯	-10.7709
kq쎯·	-10.7711
vv쎯u쎯tu쎯	-10.7711
uv쎯	-10.7712
yygy쎯wx쎯khgp0쎯u쎯	-10.7714
kml쎯ujj쎯	-10.7715
oge쎯dqe쎯	-10.7717
sghg1쎯pv쎯ymhj쎯	-10.7717
ipkh1쎯rh쎯	-10.7718
쎃.쎃	-10.7718
sg쎯nnh쎯j쎯	-10.7719
uk쎯y쎯wtf쎯	-10.7719
fff1쎯	-10.7722
cy쎯f쎯	-10.7725
ta쎯iit쎯ymhj쎯	-10.7725
j쎯ld쎯o쎯	-10.7726
bqn쎯	-10.7729
nh쎯uwl쎯	-10.7732
rj쎯ym쎯b쎯	-10.7735
y쎯src쎯	-10.7735
pwd쎯bm쎯am쎯fmud쎯	-10.7735
ian0쎯wys쎯	-10.7736
ijo쎯f쎯	-10.7736
ijfg0쎯	-10.7736
gip쎯dr쎯	-10.7738
cd쎯yaf쎯ta쎯	-10.774
gn쎯tp쎯gj쎯	-10.7743
sfhg쎯sri쎯	-10.7744
hx쎯rg쎯	-10.7745
sgn쎯udp쎯	-10.7746
knx쎯	-10.7748
jgm쎯aib쎯ip쎯suq쎯	-10.7749
tuxj쎯	-10.7752
rqk쎯	-10.7754
fqu쎯sk쎯	-10.7756
rn쎯wt쎯	-10.776
bm쎯yam쎯	-10.7761
ugdu쎯ip쎯	-10.7763
ffff5쎯gku쎯	-10.7763
afw쎯	-10.7765
ijl쎯ytyh쎯ymhj쎯	-10.7766
ax쎯sft쎯	-10.7767
쎂adm쎯	-10.7771
wgkm3쎯	-10.7772
gmm쎯gde쎯	-10.7773
▁(쎃)	-10.7773
qtj쎯hw쎯	-10.7774
5	-10.7775
bm쎯gm쎯r쎯	-10.778
▁쎂쎀쎀쎇rh쎯	-10.7782
i쎯jqr쎯	-10.7785
k쎯aw쎯ipk쎯km쎯,	-10.7789
gm쎯e쎯km쎯a쎯	-10.7792
abi쎯irn쎯	-10.7793
ikm쎯	-10.7793
aje쎯	-10.7793
wg쎯lt쎯	-10.7794
wt쎯b쎯	-10.7795
s쎯hko쎯	-10.7795
fnrt쎯jy쎯	-10.7795
eee쎯쎇jjjj쎯	-10.7798
ija쎯dmh쎯	-10.7798
tu쎯y쎯wtf쎯	-10.7801
aqt쎯l쎯pe쎯	-10.7801
ivp쎯iqn쎯	-10.7802
쎁쎅wv쎯qkhh1쎯	-10.7802
trf쎯bmg쎯	-10.7806
u쎯tr쎯	-10.7808
yi쎯ce쎯	-10.781
syf쎯	-10.7814
kf쎯sgm쎯	-10.7814
k쎯l쎯w쎯n쎯	-10.7815
dht쎯tb쎯	-10.7816
pds쎯tg쎯	-10.7817
snb2쎯sjtq쎯	-10.7817
p쎯uk쎯	-10.7818
ux쎯ugdu쎯	-10.7818
tqq쎯sfhg쎯	-10.7819
ai쎯wmj0쎯	-10.782
sov쎯ym쎯	-10.7821
lfof5쎯sghg1쎯sks쎯	-10.7822
qr쎯kht쎯nnk쎯	-10.7824
an쎯lwj쎯tk쎯f쎯	-10.7833
gkip2쎯yx쎯	-10.7833
쎂쎀wv쎯qkhh1쎯	-10.7837
aq쎯tv쎯	-10.7837
gyt쎯y쎯wtf쎯	-10.7838
l쎯u쎯	-10.7839
c쎯rg쎯,	-10.7839
tuj쎯ujfj쎯r쎯	-10.784
rgef쎯	-10.7842
tol쎯alkf0쎯	-10.7842
nnh쎯if쎯pe쎯	-10.7844
и	-10.7844
xyna0쎯kgn쎯	-10.7847
mq쎯fghy2쎯	-10.785
uyh쎯yne쎯	-10.785
fuk쎯yk쎯k쎯ny쎯	-10.7851
쎁×	-10.7851
,px쎯j쎯	-10.7851
thd쎯ip쎯	-10.7854
atd쎯ip쎯wf쎯	-10.7855
tgj쎯tjt쎯	-10.7857
gah쎯up쎯	-10.7859
xyna0쎯tkgg0쎯	-10.786
dg쎯xwy쎯	-10.7865
tmd쎯lp쎯	-10.7868
tffu쎯tk쎯tkh쎯	-10.7873
wv쎯uyt0쎯yx쎯:	-10.7876
”)	-10.7876
imj쎯xwf쎯	-10.788
y쎯s쎯x쎯apk쎯	-10.7882
ntt쎯tf쎯	-10.7884
yynw1쎯wc쎯ngk쎯	-10.7885
y쎯s쎯dr쎯ou쎯	-10.7885
fkuc1쎯ddnl쎯	-10.7886
rtol1쎯tkh쎯	-10.7886
wc쎯jfd쎯th쎯,	-10.7886
lhnh쎯ad쎯	-10.7889
쎁쎂wh쎯	-10.7892
bg쎯pym쎯	-10.7895
td쎯qk쎯ya쎯	-10.7895
wtf쎯ujn쎯	-10.7902
bll쎯	-10.7903
kkdu쎯	-10.7905
nty1쎯rmhj쎯	-10.7907
lfo쎯rrr쎯	-10.7909
jf쎯ynt쎯	-10.791
rp쎯mt쎯rh쎯	-10.7911
tfk쎯dnv1쎯	-10.7912
yjj0쎯wg쎯,	-10.7913
ght쎯sc쎯	-10.7914
sp쎯qc쎯	-10.7915
tgl쎯	-10.7917
uxe쎯dm쎯	-10.7917
oat쎯rvyo쎯	-10.7917
trf쎯gqr쎯r쎯	-10.7918
isk쎯kkkk0쎯	-10.7921
fny쎯lkb쎯《	-10.7921
emc쎯wwv쎯rmhj쎯	-10.7925
dd쎯fwm쎯saj쎯	-10.7928
m쎯qk쎯	-10.7929
rfc쎯sy쎯dga쎯pwv쎯	-10.793
vc쎯	-10.7934
an쎯pe쎯	-10.7935
≥	-10.7936
wvf쎯wg쎯	-10.7937
tyna2쎯ywx쎯yygy쎯	-10.794
nge쎯ab쎯	-10.7945
yao쎯	-10.7947
쎅°C	-10.7948
twf쎯kgn쎯	-10.7948
m0쎯	-10.7955
jn쎯sux쎯	-10.7956
dx쎯mdf쎯	-10.7957
bpf쎯gkl쎯bpf쎯ta쎯	-10.7958
nge쎯jy쎯	-10.7958
dq쎯·	-10.796
ab쎯xq쎯	-10.7962
qynm1쎯mgn쎯	-10.7962
gkp쎯udh쎯	-10.7962
rl쎯	-10.7963
geq쎯jn쎯	-10.7967
gmww쎯mdfj쎯	-10.797
og쎯mw쎯	-10.797
yngk0쎯maw쎯	-10.7971
쎁쎀%	-10.7971
tx쎯lh쎯nm쎯	-10.7972
▁isgg0쎯yhk쎯	-10.7973
uthp쎯ftbt쎯	-10.7975
geht쎯	-10.7975
tve쎯it쎯	-10.7976
sss쎯ss쎯wc쎯lfq쎯	-10.7979
wbj쎯tfkp쎯b쎯	-10.7982
tonu쎯	-10.7982
쎆wc쎯jfd쎯	-10.7985
gwy1쎯	-10.7985
fqb1쎯,pei쎯n쎯	-10.7987
oge쎯vo쎯	-10.7987
dyi쎯fw쎯	-10.7989
awg쎯	-10.799
fkuk4쎯iw쎯	-10.799
ugdu쎯vvv쎯	-10.7991
k쎯gxgu쎯	-10.7991
eee쎯쎁쎃jjjj쎯	-10.7992
r쎯gm쎯wa쎯wx쎯	-10.7994
scw쎯	-10.7995
apw쎯	-10.7998
k쎯ny쎯y쎯wtf쎯	-10.7999
r쎯g쎯uk쎯wv쎯	-10.7999
thp쎯pv쎯	-10.8001
aqt쎯wg쎯l쎯	-10.8002
a쎯ip쎯bpf쎯	-10.8002
ddi쎯	-10.8002
tv쎯ipk쎯suq쎯	-10.8002
pu쎯hka쎯	-10.8003
rrp쎯an쎯	-10.8004
ld	-10.8011
uni0쎯	-10.8012
dnv2쎯adw쎯	-10.8013
i쎯yo쎯	-10.8015
faw쎯hh쎯	-10.8018
쎁쎀wtu쎯	-10.8019
gf쎯쎂쎀쎀쎈rh쎯	-10.802
aqw쎯	-10.802
nx쎯adwr쎯	-10.802
ts쎯wgq쎯	-10.8023
egc쎯ta쎯	-10.8024
gu쎯fqu쎯ylf0쎯u쎯	-10.8027
wvt쎯adwr쎯uff쎯	-10.8027
han쎯	-10.8028
lkmi0쎯qwy1쎯	-10.8028
fjh0쎯tr쎯h쎯v쎯ge쎯	-10.803
nnh쎯gl쎯anb0쎯sy쎯	-10.8031
bd쎯ruv쎯	-10.8034
d쎯jjjj쎯sg쎯	-10.8035
xv쎯qc쎯,	-10.8035
ii쎯jjj쎯	-10.804
dm쎯tkw쎯쎄	-10.804
ad쎯sg쎯cd쎯ovt쎯	-10.804
mq쎯fcu0쎯	-10.8043
xl쎯gcft2쎯	-10.8045
yvh쎯mmm쎯	-10.8048
pgy쎯pgy쎯	-10.8048
rfc쎯if쎯	-10.8048
lx쎯yf쎯	-10.8049
ipkh1쎯ytyh쎯	-10.8052
fgh쎯wtu쎯rh쎯	-10.8057
wgkg0쎯	-10.8061
tv쎯km쎯。	-10.8062
fu쎯lk쎯b쎯	-10.8063
lu쎯vb쎯	-10.8063
vt쎯dx쎯	-10.8063
쎃쎀rh쎯	-10.8067
jp쎯	-10.8071
ujfj쎯qtj쎯	-10.8074
oaw쎯	-10.8075
trh쎯kq쎯	-10.8076
g쎯kht쎯	-10.8078
iu쎯aqrn0쎯	-10.8079
gkm쎯ty쎯	-10.8079
y쎯s쎯tg쎯u쎯	-10.8079
jcf쎯rf쎯c쎯	-10.8079
tjt쎯jgf쎯dd쎯ip쎯	-10.808
okk쎯	-10.8082
tdu쎯	-10.8083
gmww쎯dm쎯	-10.8083
geq쎯eyni쎯	-10.8093
pei쎯ax쎯	-10.8094
prh쎯	-10.8094
cv쎯adf쎯	-10.8094
wdn쎯ugdu쎯,	-10.8095
ipq쎯bj쎯ymhj쎯	-10.8101
lkd쎯jv쎯	-10.8103
wwf쎯sfi쎯	-10.8103
cyna0쎯	-10.8108
dnv2쎯adw쎯j쎯	-10.8109
pdx쎯	-10.811
aws쎯jghx쎯	-10.8114
iqgg쎯og쎯	-10.8114
rvk쎯um쎯	-10.8115
tl	-10.8116
쎁쎉쎂	-10.8117
rrg1쎯fnud쎯	-10.8118
o쎯wfh1쎯tc쎯	-10.8119
awx쎯ur쎯	-10.812
ihic쎯	-10.812
iaj쎯	-10.8122
qya쎯	-10.8122
ue쎯fj쎯	-10.8124
rrr쎯ae쎯	-10.8125
wy쎯thn쎯txi쎯xyc쎯	-10.8125
쎉)	-10.8125
th쎯gkl쎯th쎯ta쎯	-10.8126
ish쎯	-10.8128
kkd쎯pn쎯	-10.8129
xuq쎯	-10.813
xpw쎯pgn쎯	-10.813
yvw쎯	-10.8131
(wynk쎯	-10.8133
js쎯scf쎯	-10.8133
wv쎯klj쎯o쎯	-10.8141
oqdo쎯ou쎯	-10.8141
rj쎯qk쎯	-10.8141
wg쎯tq쎯	-10.8143
txe쎯	-10.8143
ypm쎯ya쎯	-10.8143
wg쎯tkgg0쎯	-10.8144
fff5쎯f쎯af쎯wgkb2쎯	-10.8148
쎃kgn쎯	-10.815
wv쎯gqje쎯	-10.815
ipk쎯ght쎯	-10.8151
xmw쎯tuk쎯	-10.8153
쎃.쎆	-10.8157
waw쎯ii쎯	-10.8158
yaa쎯hko쎯	-10.8159
wbb쎯wyf0쎯	-10.816
w쎯ny쎯	-10.8162
▁bm쎯th쎯:	-10.8162
wgk쎯wt쎯py쎯	-10.8164
uthp쎯iq쎯	-10.8166
l쎯pe쎯bw쎯	-10.8166
xef쎯dhb쎯	-10.8167
eee쎯쎂jjjj쎯	-10.817
yceh1쎯	-10.817
tp쎯gj쎯ip쎯bpf쎯	-10.8172
tffu쎯qq쎯wh쎯	-10.8173
dd쎯ip쎯xxf쎯og쎯	-10.8176
wyf0쎯dhb쎯	-10.8179
fh쎯iyc쎯	-10.8181
yi쎯d쎯	-10.8181
pwfd쎯	-10.8183
sghg1쎯ide쎯	-10.8184
fct쎯ey쎯	-10.8184
rtfj0쎯	-10.8185
ipwk0쎯qev쎯	-10.8186
×쎄	-10.8191
rvy	-10.8193
쎁쎉쎉쎈	-10.8194
xxm쎯lfod1쎯	-10.8198
aus쎯	-10.8205
mww쎯rfm쎯	-10.8208
ntg쎯vb쎯	-10.8209
nae쎯bm쎯	-10.8213
ipmq쎯tj쎯	-10.822
ijl쎯jef1쎯	-10.8221
3쎯	-10.8222
tqdh쎯bj쎯	-10.8223
lkd쎯nh쎯	-10.8224
yce쎯w쎯	-10.8225
us쎯thd쎯	-10.8229
쎂uqw쎯	-10.8234
abf0쎯	-10.8234
fj쎯nae쎯	-10.8236
rxj쎯wyc쎯	-10.8236
wbj쎯uu쎯gf쎯	-10.8236
itx쎯ii쎯	-10.8237
,e쎯jf쎯	-10.8238
ihim0쎯	-10.8238
puh쎯wi쎯	-10.8243
ddu0쎯yny0쎯	-10.8243
쎁쎈쎃	-10.8247
ihc쎯uff쎯	-10.8247
쎁쎄쎀쎀	-10.8247
utdk쎯	-10.8248
ith쎯mw쎯	-10.8249
iffg쎯	-10.8251
쎁-쎂	-10.8251
cccf2쎯	-10.8252
ijq쎯	-10.8253
ipg쎯km쎯,	-10.8253
yny0쎯gajf쎯	-10.8254
jjjj쎯rb1쎯》	-10.8258
nfa쎯	-10.826
kl쎯g쎯wh쎯	-10.8262
ytey쎯tf쎯py쎯	-10.8263
v쎯tg쎯d쎯	-10.8264
rnr쎯fnr쎯kkd쎯	-10.8265
uqw쎯wf쎯yyq쎯	-10.8267
od쎯klj쎯	-10.8268
wc쎯xd쎯,	-10.8271
ll쎯,ic쎯ytt쎯,	-10.8274
d쎯wynb쎯	-10.8274
ntt쎯	-10.8276
jn쎯ck쎯	-10.8276
쎁qk쎯	-10.8277
fku쎯cqw쎯r쎯	-10.8286
pujs쎯	-10.8287
se쎯adw쎯	-10.8288
oge쎯pyj쎯yygy쎯je쎯	-10.8289
w쎯tq쎯	-10.829
a쎯og쎯lfq쎯	-10.829
wys쎯wgk쎯	-10.8292
ujv쎯	-10.8292
w쎯dd쎯wa쎯ge쎯	-10.8293
gxi쎯e쎯	-10.8294
wdk쎯	-10.8298
dh	-10.83
dp쎯sfi쎯	-10.8301
ght쎯ywf쎯trf쎯	-10.8301
fq쎯fdm쎯	-10.8305
rnp쎯sgc쎯	-10.8309
ftg쎯tg쎯	-10.8309
쎁uqw쎯	-10.8309
h쎯v쎯ge쎯	-10.8312
ipg쎯yo쎯	-10.8315
jjjj쎯ygk쎯	-10.8316
cf쎯adw쎯	-10.8318
fnrt쎯wgk쎯	-10.832
r쎯dgkn쎯ipmq쎯	-10.8322
lft쎯ta쎯	-10.8324
gef쎯itx쎯ith쎯	-10.8324
khh쎯	-10.8326
r쎯g쎯ffi쎯	-10.8326
rhk쎯ve쎯	-10.8328
g쎯wh쎯w쎯	-10.8329
gf쎯쎂쎀쎀쎇rh쎯	-10.833
ytb0쎯fmk쎯hka쎯qv쎯	-10.8331
wv쎯sgn쎯gc쎯	-10.8335
efw쎯	-10.8336
ny쎯tld1쎯tp쎯	-10.8338
afqb2쎯ide쎯	-10.834
rpw쎯rmhj쎯kkd쎯	-10.8342
fgf쎯	-10.8342
wny0쎯tuh쎯	-10.8346
lkd쎯ytt쎯	-10.8349
gf쎯쎂쎀쎀쎆rh쎯	-10.8349
pdx쎯tr쎯	-10.835
qyng쎯od쎯	-10.835
dx쎯udi쎯whf쎯og쎯	-10.835
uywu2쎯	-10.8352
uqwk쎯yqj쎯eb쎯tl쎯	-10.8353
fwf쎯wa쎯	-10.8354
pde쎯	-10.8358
d0쎯	-10.8359
tf쎯jtg쎯	-10.8362
eee쎯쎄jjjj쎯	-10.8367
쎁쎀쎄	-10.8373
txe쎯ynt쎯	-10.8376
yff쎯wys쎯	-10.8382
–	-10.8383
tx쎯g쎯uk쎯	-10.8384
j쎯g쎯yww쎯	-10.8386
uyh쎯yne쎯mqq쎯uh쎯	-10.8386
dg쎯uqw쎯	-10.8386
suq쎯wfk쎯	-10.8386
fa쎯wsg0쎯	-10.839
yne쎯,e쎯xte쎯sf쎯	-10.8391
r쎯svc쎯wynn3쎯	-10.8392
tfqm1쎯iwyf2쎯	-10.8393
sgjg쎯	-10.8401
j쎯g쎯uthp쎯	-10.8403
c쎯fm쎯	-10.8403
wgep쎯	-10.8404
eeqy쎯	-10.8406
g쎯vtk쎯	-10.8406
aqt쎯ith쎯	-10.8408
쎁쎇쎈	-10.8408
wdn쎯rfm쎯r쎯eb쎯tl쎯	-10.841
gu쎯tf쎯	-10.8412
ipks쎯	-10.8418
sm쎯tsh0쎯	-10.842
tve쎯e쎯	-10.842
dc쎯ype쎯	-10.8427
qgb쎯qje쎯	-10.8428
ry쎯vfhp1쎯	-10.843
iyc쎯jhnr쎯	-10.8431
ipe쎯djb쎯	-10.8437
iie쎯gxgu쎯	-10.8437
qq쎯nfc쎯	-10.8438
jb쎯tgj쎯s쎯r쎯	-10.8443
fwyc2쎯wrh2쎯	-10.8446
ue쎯tmd쎯	-10.8451
xgo쎯ytt쎯	-10.8455
se쎯hw쎯	-10.8457
qk쎯jgm쎯	-10.846
scf쎯ssss쎯	-10.846
쎉w쎯	-10.8462
vcl쎯	-10.8466
qh쎯qyv쎯	-10.8466
trf쎯u쎯	-10.8466
,cf쎯gf쎯	-10.8468
xeg쎯xeg쎯ta쎯	-10.8472
tg쎯idf0쎯	-10.8472
nyu쎯tp쎯	-10.8473
rdj쎯qk쎯	-10.8476
r쎯ai쎯sghg1쎯	-10.8476
nge쎯xft쎯	-10.8477
rwye1쎯gkp쎯	-10.8477
um쎯tl쎯k쎯ny쎯	-10.8478
pr쎯pt쎯	-10.848
ajl쎯	-10.8481
ymhj쎯fnrt쎯h쎯	-10.8481
ab쎯dwg쎯	-10.8481
rj쎯bm쎯r쎯	-10.8483
쎂쎁an쎯xn쎯	-10.8484
mw쎯ny쎯	-10.8484
,lxx쎯wycb쎯	-10.8487
fp	-10.8492
(gm쎯	-10.8494
xh쎯v쎯	-10.8494
ipkh1쎯et쎯r쎯	-10.8496
tffu쎯u쎯kkk쎯	-10.8497
ofd쎯oy쎯	-10.8498
쎃.쎁	-10.85
dd쎯nae쎯	-10.8501
rqcf0쎯	-10.8504
,쎂쎀쎀쎅rh쎯	-10.8505
fny쎯tu쎯ip쎯suq쎯	-10.8506
e쎯tjh쎯gf쎯	-10.8507
tu쎯sfhg쎯tr쎯	-10.8508
ptkm0쎯pg쎯	-10.8509
,,,,	-10.8511
rnd1쎯yu쎯	-10.8513
쎈쎀쎀쎀	-10.8517
yle쎯pp쎯	-10.8526
itd쎯inty쎯	-10.8529
,jb쎯xtu쎯	-10.853
wye쎯qd쎯	-10.8531
dgj쎯ya쎯	-10.8531
gah쎯ic쎯dd쎯ip쎯	-10.8533
wv	-10.8534
dj쎯ya쎯	-10.8535
tr쎯ou쎯	-10.8536
,dnv2쎯adw쎯j쎯	-10.8536
pu쎯et쎯ntg쎯	-10.8539
xx쎯pfjm1쎯k쎯	-10.8542
maf0쎯	-10.8545
▁:쎉쎇쎈쎇	-10.8548
x쎯xjm쎯	-10.855
mq쎯ynnd쎯	-10.8552
ukn쎯a쎯tkgg0쎯jgm쎯	-10.8554
uq쎯cep쎯wgj쎯rgv쎯	-10.8556
et쎯c쎯	-10.8561
uqw쎯rh쎯	-10.8561
쎀mfk쎯rh쎯	-10.8562
iytb0쎯fmk쎯	-10.8563
gqr쎯	-10.8568
。ld쎯o쎯	-10.8569
g쎯uk쎯wv쎯	-10.857
jq쎯adwe1쎯	-10.8572
dr쎯o쎯	-10.8574
pei쎯dl쎯	-10.8574
ctdj쎯	-10.8576
ii쎯egc쎯	-10.8581
k쎯md쎯jn쎯pym쎯ck쎯	-10.8581
ivy쎯	-10.8583
쎅쎀쎀dq쎯	-10.8585
jtyl쎯gj쎯	-10.8587
k쎯l쎯nnh쎯if쎯	-10.8587
xe쎯a쎯tkgg0쎯jgm쎯。	-10.8588
rpv쎯yssr쎯	-10.8588
tmdf1쎯fmk쎯	-10.8588
jh쎯hq쎯	-10.8591
tffu쎯aps쎯iwyf2쎯	-10.8595
dd쎯gku쎯	-10.8599
g쎯vt쎯vt쎯	-10.8599
aib쎯lfnh쎯:	-10.8601
qiu0쎯adwr쎯	-10.8602
trw쎯ycb쎯	-10.8604
mt쎯wsk쎯	-10.8604
ytt쎯thd쎯ick쎯aq쎯	-10.8604
fgey쎯	-10.8606
。px쎯j쎯	-10.8607
wv쎯fc쎯	-10.8609
rn	-10.8612
irh쎯	-10.8613
jjjj쎯jvko쎯	-10.8614
jn쎯a쎯	-10.8614
,f쎯gj쎯wug1쎯lfhf쎯	-10.8619
gj쎯shn쎯r쎯	-10.8619
ddm쎯fghg쎯dga쎯	-10.8625
쎁쎀쎆	-10.8627
yiu쎯ndj쎯	-10.8628
dgh쎯wynb쎯	-10.8628
yga쎯	-10.8629
wh쎯tf쎯ght쎯sf쎯,	-10.8633
ga쎯a쎯	-10.8634
쎃uqw쎯	-10.8634
t1쎯	-10.8637
r쎯g쎯pe쎯	-10.8638
whf쎯og쎯rj쎯waw쎯	-10.8642
gf쎯쎂쎀쎀쎅rh쎯	-10.8643
ai쎯ic쎯	-10.8647
amw쎯rcy0쎯	-10.8654
sh쎯yneg쎯	-10.866
tlf2쎯et쎯。	-10.866
uq쎯cep쎯fcp쎯lwg쎯	-10.8661
,dnv2쎯adw쎯	-10.8662
usr쎯g쎯wa쎯	-10.8665
shn쎯qje쎯	-10.8666
syc쎯	-10.8667
je쎯gr쎯	-10.8669
hwb쎯lwx쎯	-10.867
iwy1쎯fm쎯	-10.8679
dd쎯ip쎯ip쎯dl쎯,	-10.868
yt쎯dd쎯	-10.8681
pfjm1쎯gk쎯	-10.8681
qi쎯lft쎯	-10.8684
gd쎯rnb쎯	-10.8691
w쎯ft쎯fuk쎯udyj쎯	-10.8691
yygy쎯nnh쎯	-10.8691
fg쎯w쎯	-10.8693
u쎯og쎯wx쎯	-10.8697
wds쎯	-10.8703
ujfj쎯g쎯	-10.8704
(c쎯gh쎯tuj쎯tq쎯	-10.8704
≤	-10.8706
wtf쎯wgkb2쎯	-10.8706
a쎯og쎯aq쎯	-10.8708
w쎯,adw쎯k쎯ww쎯gk쎯t	-10.8708
ryi쎯	-10.8708
td쎯egc쎯	-10.8711
adww1쎯	-10.8712
ukn쎯uk쎯wug1쎯gf쎯	-10.8713
rwyg쎯tf쎯	-10.8714
ujqn0쎯ydn쎯	-10.8714
wfny0쎯·	-10.8716
thd쎯ick쎯ytyh쎯	-10.8716
i쎯on쎯rj쎯ym쎯	-10.8717
),pyg쎯vfhp1쎯ith쎯	-10.8718
ga쎯fffy쎯	-10.872
i쎯fuf1쎯	-10.8722
bwf쎯wrh2쎯	-10.8726
ywe쎯ick쎯	-10.8726
py쎯wf쎯tu쎯ip쎯bpf쎯	-10.8726
ujf쎯ktm쎯	-10.8728
ige쎯ssn쎯	-10.873
gcf쎯it쎯	-10.8732
qj쎯	-10.8732
ih쎯veg쎯	-10.8736
a쎯um쎯tp쎯gj쎯	-10.874
akgl쎯dlf쎯	-10.8745
wt쎯bm쎯b쎯	-10.8746
udyj쎯gqf쎯og쎯	-10.8748
vck쎯gf쎯	-10.8749
et쎯ax쎯	-10.875
tcy쎯w쎯	-10.8751
l쎯bf쎯sfi쎯uwy1쎯	-10.8752
tx쎯쎅	-10.8752
tffu쎯pei쎯wt쎯tr쎯	-10.8753
zzy4쎯	-10.8753
qf쎯qyo쎯	-10.8754
bwf쎯lk쎯	-10.8754
fp쎯txgt쎯	-10.8755
gef쎯qmgk0쎯	-10.8758
ccc쎯j쎯	-10.8759
iuj쎯	-10.8759
ipwk0쎯yjjh1쎯	-10.876
《》	-10.8761
○	-10.8761
:쎀쎀	-10.8764
쎁쎁쎂	-10.8765
tv쎯km쎯wf쎯tv쎯km쎯,	-10.8765
py쎯ta쎯	-10.8766
if쎯uff쎯	-10.877
fje쎯tfpd쎯	-10.8771
doq쎯sgc쎯	-10.8773
dmj1쎯ccc쎯	-10.8773
fhn쎯ajj쎯	-10.8774
adwe1쎯wxm쎯	-10.8775
a쎯tkgg0쎯ymc쎯yf쎯	-10.8776
m쎯jel쎯	-10.878
pfjf0쎯qiu0쎯	-10.878
imkf1쎯nnh쎯	-10.878
u쎯tg쎯b쎯	-10.8782
qrm쎯sfi쎯pfjm1쎯	-10.8783
iq쎯xtf쎯	-10.8785
gd쎯qd쎯rnb쎯	-10.879
rit쎯	-10.8791
。wv쎯dmh쎯gf쎯	-10.8792
mds쎯	-10.8796
vca쎯e쎯	-10.8797
lw쎯gk쎯	-10.8797
uqt쎯lt쎯	-10.8798
qwd쎯	-10.88
yxl쎯trt쎯	-10.8805
uu쎯yy쎯oy쎯	-10.8806
tffu쎯trf쎯hko쎯	-10.881
fq쎯xg쎯jn쎯	-10.8811
ybo쎯qntf쎯	-10.8814
xtu쎯tmd쎯	-10.8817
,bn쎯e쎯	-10.882
”pb쎯	-10.882
hna쎯	-10.8822
tavn쎯	-10.8823
ab쎯jjjj쎯	-10.8823
.쎀쎀wc쎯jfd쎯	-10.8825
sri쎯ym쎯	-10.8825
wynk쎯yq쎯	-10.8827
ygu쎯pg쎯	-10.883
ymf쎯yaa쎯	-10.883
veg쎯	-10.883
lfo쎯ju쎯	-10.8831
ad쎯hich쎯ftbt쎯	-10.8831
pww쎯jg쎯:	-10.8832
tx쎯gg쎯nm쎯	-10.8834
▁쎆、	-10.8836
rfc쎯sy쎯ga쎯v쎯aq쎯	-10.8836
gr쎯pgy쎯	-10.8837
uxxn1쎯uduk쎯	-10.8838
l쎯bf쎯qyv쎯jqr쎯	-10.8839
쎁qg쎯	-10.884
lk쎯dd쎯	-10.884
]	-10.8842
gj쎯ywx쎯dga쎯pwv쎯	-10.8842
igmh1쎯	-10.8851
bukn쎯	-10.8852
dmh쎯lfhf쎯	-10.8852
wsg0쎯gm쎯b쎯	-10.8854
kht쎯dm쎯	-10.8857
ld쎯bb쎯	-10.8858
wcy2쎯e쎯	-10.886
vyi1쎯	-10.8862
cbts0쎯tfn쎯	-10.8862
dyc쎯sgc쎯	-10.8863
lkd쎯nn쎯	-10.8864
。lpdk0쎯	-10.8864
tkh쎯tkh쎯	-10.8864
tg쎯u쎯lk쎯a쎯	-10.8867
vtdj쎯	-10.8867
“gg쎯	-10.8868
ooo쎯tue쎯	-10.8869
▁(쎁)	-10.887
ntg쎯utd쎯ugm쎯	-10.887
cf쎯xx쎯	-10.8871
wk쎯pv쎯	-10.8872
uf쎯nf쎯wsg0쎯	-10.8877
yq쎯tl쎯	-10.8878
ynw쎯	-10.8878
qq쎯uqw쎯cd쎯lk쎯	-10.8879
gu쎯yy쎯tfk쎯oy쎯	-10.888
ipg쎯xcf쎯	-10.8886
n쎯et쎯	-10.8887
dmjf1쎯yssd0쎯	-10.8888
wg쎯l쎯ntg쎯	-10.8889
sps쎯sap쎯	-10.8892
。rg쎯go쎯	-10.8894
fggh쎯uqv쎯	-10.8895
rb1쎯py쎯	-10.8901
tuj쎯ifk쎯	-10.8902
ilg2쎯	-10.8904
f쎯nfc쎯	-10.8907
dg쎯qe쎯gae쎯	-10.891
yc쎯wv쎯v쎯rpl쎯	-10.891
▁qh쎯gae쎯	-10.8912
yi쎯wqj쎯	-10.8913
쎈.쎅	-10.8915
trf쎯e쎯r쎯	-10.8915
bu쎯shn쎯	-10.8919
sds쎯	-10.8928
rvyl쎯lt쎯	-10.8932
dga쎯pwv쎯yy쎯tm쎯	-10.8932
aw쎯wbj쎯	-10.8935
udi쎯uce쎯	-10.8936
xt쎯fny쎯lkb쎯	-10.8936
puhc쎯ygu쎯o쎯“	-10.8936
gmww쎯ts쎯	-10.8938
pe쎯fl쎯wf쎯gj쎯gk쎯	-10.8939
puvk2쎯	-10.8939
ym쎯xe쎯k쎯ip쎯	-10.8943
rmc쎯u쎯	-10.8944
nh쎯xpw쎯	-10.8947
rnp쎯	-10.8948
ipkh1쎯wygg쎯	-10.8949
ifhw쎯	-10.895
w쎯fqu쎯	-10.8953
jsg쎯	-10.8953
kd쎯ycb쎯	-10.8954
wynb쎯jjjj쎯	-10.8954
fnv0쎯	-10.8956
img쎯lll쎯	-10.8959
lgey0쎯ou쎯	-10.896
yt쎯ny쎯	-10.8961
ccc쎯kn쎯	-10.8961
wc쎯n쎯	-10.8962
wy쎯wtf쎯	-10.8964
iry쎯nge쎯	-10.8964
um	-10.8965
jy쎯tfl쎯qfhw0쎯	-10.8965
ga쎯lw쎯	-10.8966
nnnn쎯x쎯dn쎯o쎯	-10.897
ym쎯wv쎯bb쎯	-10.8973
gn쎯v쎯nae쎯	-10.8975
y쎯lw쎯r쎯	-10.8975
sw쎯fpx쎯	-10.898
ks쎯	-10.8985
pju쎯	-10.8987
vjsj쎯	-10.8987
-쎁쎆	-10.899
lpdk0쎯aq쎯mw쎯	-10.899
suh쎯	-10.8991
pu쎯yk쎯	-10.8992
xte쎯wug1쎯gf쎯	-10.8993
p쎯ffi쎯	-10.8993
nnh쎯pgn쎯	-10.8993
▁bm쎯thgc쎯jf쎯uj쎯:	-10.8993
tdtf쎯vfhp1쎯	-10.8995
,p쎯jfd쎯	-10.8999
iex쎯egc쎯	-10.9001
ica쎯	-10.9003
ghd0쎯dm쎯	-10.9005
itd쎯fcl쎯k쎯	-10.9008
b쎯ytf쎯qq쎯	-10.9009
dd쎯ipkh1쎯tv쎯wf쎯	-10.9011
krt쎯isgg0쎯	-10.9012
udb쎯ytyh쎯ymhj쎯	-10.9012
yo쎯dfy쎯kkd쎯	-10.9014
ith쎯tv쎯	-10.9015
uq쎯lwj쎯th쎯	-10.9019
gkl쎯ukn쎯x쎯gj쎯	-10.902
쎂%	-10.9024
tdnj쎯	-10.9024
gu쎯yy쎯	-10.9024
tjt쎯qgb쎯	-10.9025
sc쎯lt쎯	-10.9028
ipr쎯itx쎯	-10.9029
q쎯suq쎯	-10.903
4쎯	-10.903
isk쎯luf쎯	-10.9031
rfc쎯anb0쎯	-10.9033
aflf쎯	-10.9034
wvl쎯f쎯	-10.9035
ue쎯jy쎯	-10.9036
qw쎯	-10.9037
amd쎯st쎯uff쎯	-10.9038
qm쎯awsk쎯	-10.9038
r쎯qe쎯ya쎯	-10.904
쎃쎀wv쎯qkhh1쎯	-10.9041
t쎯py쎯wf쎯wk쎯buj쎯	-10.9045
ogu쎯	-10.9051
쎁쎉쎉쎆	-10.9054
쎅쎀wtu쎯	-10.9056
ipg쎯anb0쎯	-10.9056
sk쎯rf쎯xfn쎯v쎯nae쎯	-10.9056
gef쎯mmm쎯	-10.9057
w쎯ntg쎯wx쎯	-10.9059
ipf쎯yaa쎯	-10.9059
trf쎯ta쎯	-10.906
tkw쎯lx쎯b쎯dh쎯pgk쎯	-10.906
rqym쎯	-10.9061
ndj쎯sg쎯	-10.9066
fh쎯xg쎯	-10.9067
thd쎯qd쎯wk쎯ryn0쎯	-10.9068
ajj쎯sg쎯	-10.9068
sm쎯sa쎯ymc쎯tlf2쎯	-10.9071
yy쎯qf쎯,	-10.9071
wg쎯suq쎯	-10.9072
fcp쎯isk쎯	-10.9072
l쎯n쎯x쎯iyj쎯	-10.9074
aq쎯wug1쎯	-10.9076
dr쎯sg쎯	-10.9076
hi쎯cbc쎯	-10.9082
tdg1쎯tyna2쎯	-10.9085
flf1쎯dp쎯	-10.9086
ad쎯dbm쎯td쎯ykw쎯	-10.9087
fc쎯iyc쎯	-10.909
uyh쎯ywe쎯	-10.909
qmq쎯tp쎯	-10.9096
gyt쎯ta쎯	-10.9097
rxj쎯bm쎯	-10.9097
epq쎯	-10.9098
uuj쎯syp쎯	-10.9099
yff쎯yygy쎯	-10.91
g쎯jgf쎯	-10.9101
fk쎯pyu쎯	-10.9101
raj쎯	-10.9103
sm쎯kkd쎯w쎯	-10.9108
bc쎯wa쎯	-10.9109
vfb쎯su쎯	-10.9109
dga쎯pwv쎯km쎯,	-10.911
fgh쎯qq쎯rh쎯	-10.9113
tfq쎯qtd쎯	-10.9114
ax쎯et쎯	-10.9116
mmgj쎯bwt쎯	-10.9118
srq쎯	-10.9118
a쎯anb0쎯kkk쎯	-10.9118
dq쎯ru쎯	-10.9119
gkl쎯ftbt쎯rep쎯。	-10.9121
y쎯s쎯mw쎯pww쎯	-10.9121
knx쎯?	-10.9121
h쎯an쎯xn쎯	-10.9127
reh쎯e쎯g쎯fc쎯	-10.9129
pgc쎯qh쎯	-10.9131
。”yvh쎯	-10.9132
khd쎯fha쎯	-10.9132
wt쎯yygy쎯	-10.9133
ukqb1쎯	-10.9133
ia쎯ide쎯	-10.9133
waw쎯qie쎯	-10.9134
쎁쎉쎂쎆rh쎯	-10.9135
yth쎯	-10.9135
gq쎯lg쎯	-10.9137
xh쎯aqkr쎯	-10.9137
iawn쎯itm쎯	-10.9138
ige쎯rvyo쎯	-10.9138
gd쎯ipkf0쎯	-10.914
u1쎯	-10.914
fgjg쎯	-10.9143
ujn쎯ln쎯	-10.9146
쎁쎆쎈	-10.9146
ihk쎯	-10.915
ii쎯jn쎯	-10.9155
wt쎯mq쎯	-10.9155
pgy쎯mhny0쎯	-10.9155
f쎯src쎯	-10.9157
ccf쎯	-10.916
tdtj쎯	-10.916
je쎯gd쎯	-10.9162
q쎯ymhj쎯	-10.9162
jfc쎯tg쎯	-10.9164
pwav쎯	-10.9164
tmg1쎯ihc쎯	-10.9166
ae쎯ujfj쎯	-10.9166
pwn쎯	-10.9168
wy쎯wqbh쎯	-10.9169
cqy쎯oge쎯	-10.9171
kma쎯	-10.9171
sgi쎯”	-10.9172
fq쎯qc쎯	-10.9173
,bn쎯sk쎯c쎯	-10.9175
qgo쎯thg0쎯	-10.9178
\\	-10.9178
tdkj쎯lt쎯	-10.9181
ii쎯jn쎯uh쎯	-10.9183
쎁쎉쎉쎇	-10.9184
bw쎯km쎯	-10.9185
fh1쎯	-10.9186
by쎯ywfw쎯	-10.9188
。’”	-10.9193
st쎯nnk쎯	-10.9196
pj쎯sj쎯	-10.9196
lp쎯lwj쎯	-10.9196
rdw쎯	-10.9202
m쎯tf쎯og쎯	-10.9204
sg쎯rfm쎯	-10.9204
hjj쎯fha쎯r쎯	-10.9204
nnnn쎯puhc쎯	-10.9205
rfm쎯wk쎯	-10.9205
kkk쎯wug1쎯	-10.9206
dmj1쎯tj쎯qk쎯。	-10.9212
ygu쎯o쎯“	-10.9216
tha쎯if쎯	-10.9216
yygy쎯wys쎯	-10.9216
sghg1쎯ic쎯	-10.9218
sm쎯sa쎯rmhj쎯tfkp쎯	-10.922
쎁gmww쎯,	-10.9221
:‘	-10.9227
vb쎯dc쎯	-10.9229
p쎯uqw쎯	-10.9233
qev쎯un쎯b쎯	-10.9234
쎂-쎃	-10.9237
rmhj쎯tfkp쎯um쎯	-10.9237
ugdu쎯sy쎯qnp쎯	-10.9239
sk쎯yle쎯	-10.9239
rnp쎯ad쎯sgc쎯	-10.924
je쎯·	-10.9243
aqq쎯bj쎯	-10.9246
itf쎯ye쎯	-10.9246
dm쎯tkw쎯쎅	-10.9248
ep쎯ny쎯	-10.9249
rxj쎯nf쎯gh쎯	-10.9249
qqqq1쎯thgf0쎯	-10.9253
wn쎯fqb1쎯。	-10.9255
mmm쎯sf쎯	-10.9267
g쎯xeg쎯	-10.9268
xg쎯ts쎯	-10.9269
aw쎯yf쎯	-10.9272
io쎯ii쎯	-10.9275
jn쎯pym쎯ndj쎯《	-10.9276
qwd쎯oanw쎯	-10.9276
wycm0쎯pum쎯	-10.9277
yqa쎯uk쎯	-10.9277
yygy쎯kq쎯	-10.9278
smmv0쎯	-10.928
쎅.쎂	-10.928
iujg0쎯	-10.9281
wbb쎯ylk2쎯	-10.9282
v쎯rvyo쎯	-10.9282
rcf쎯	-10.9285
vkf1쎯kqm쎯	-10.9285
jty쎯ysi쎯a쎯wt쎯	-10.9287
sm쎯wsg0쎯	-10.9289
afb쎯ujfb0쎯	-10.9289
b0쎯	-10.929
dwiu쎯mmm쎯	-10.9291
alw쎯ytyh쎯ymhj쎯	-10.9293
c쎯ux쎯	-10.9295
awx쎯xyy0쎯	-10.9298
oat쎯ga쎯	-10.9303
ga쎯cep쎯	-10.9303
nty1쎯qk쎯o쎯	-10.9305
wv쎯int쎯	-10.9306
nnh쎯》	-10.9307
iv쎯tfqp쎯	-10.9309
ym쎯qiu0쎯fw쎯	-10.9311
qmq쎯src쎯	-10.9311
thhh쎯	-10.9315
emc쎯ai쎯	-10.932
aig쎯eajd쎯	-10.9322
쎇쎅쎀	-10.9324
iit쎯iaj쎯	-10.9324
wt쎯yngk0쎯	-10.9325
tjt쎯iw쎯	-10.9333
쎁쎃쎅	-10.9334
d쎯suq쎯	-10.9336
qtoy1쎯	-10.9337
fkuk4쎯uge쎯	-10.9343
tjt쎯vs쎯r쎯	-10.9343
pb쎯xgu쎯	-10.9344
iqr쎯	-10.9345
qgjf3쎯	-10.9346
cds쎯fghg쎯	-10.9346
tu쎯tv쎯	-10.9346
tve쎯ym쎯r쎯	-10.9348
whf쎯og쎯yygy쎯wx쎯	-10.9348
uxt쎯bct쎯	-10.9353
pg쎯nd쎯	-10.9356
siq쎯awx쎯	-10.9359
xn쎯vi쎯	-10.9362
fad쎯tq쎯	-10.9365
hv쎯tu쎯	-10.9368
ua쎯ty쎯	-10.9369
fft쎯	-10.937
ukn쎯wf쎯	-10.9371
wqa쎯gf쎯	-10.9371
of쎯	-10.9372
oqd쎯	-10.9376
ymhj쎯wc쎯pv쎯nnk쎯	-10.9377
ynm쎯ey쎯	-10.9384
rytp0쎯	-10.9385
쎀oy쎯,	-10.9386
usg쎯tgj쎯	-10.9388
isgg0쎯kc쎯	-10.9389
쎁쎇쎆	-10.9393
itx쎯fakg1쎯	-10.9394
jn쎯dgt1쎯	-10.9394
sh쎯sm쎯	-10.9399
,ic쎯ytt쎯,	-10.94
yi쎯yfn쎯	-10.9402
sf쎯qfhw0쎯	-10.9402
kw쎯fdm쎯	-10.9402
lfn쎯tm쎯	-10.9404
fg쎯fgh쎯rh쎯	-10.9404
std쎯qfhw0쎯	-10.9404
dm쎯ue쎯	-10.9408
cd쎯cm쎯	-10.9408
uk쎯ait쎯	-10.9411
ux쎯wmj0쎯	-10.9412
gqto1쎯	-10.9413
▁◎	-10.9416
qsu쎯pd쎯	-10.9417
tve쎯dd쎯r쎯	-10.9419
ylf0쎯;e쎯ss쎯f쎯	-10.9421
mmm쎯sdm쎯	-10.9422
rc쎯jmd쎯b쎯	-10.9423
nnh쎯if쎯pe쎯fl쎯wf쎯	-10.9425
wxf쎯gmy1쎯	-10.9426
▁fi쎯wgq쎯	-10.943
rawk쎯vfhp1쎯	-10.9431
yygy쎯sg쎯	-10.9432
gkl쎯ymhj쎯ta쎯	-10.9433
gg쎯wa쎯	-10.9434
pei쎯sm쎯	-10.9436
tfkp쎯xqa쎯	-10.9438
wf쎯wf쎯ta쎯	-10.944
ral쎯	-10.9441
ntg쎯klj쎯	-10.9442
eudk쎯	-10.9444
un쎯pfjm1쎯	-10.9444
wdt쎯dn쎯	-10.9445
bwff쎯	-10.9446
tem쎯r쎯	-10.9449
be쎯bj쎯	-10.9449
eudi1쎯	-10.945
j쎯rxj쎯d쎯	-10.9452
쎀쎀ylf0쎯,	-10.9456
epc쎯cqw쎯qbp쎯	-10.946
i쎯epc쎯	-10.9461
um쎯ip쎯bpf쎯	-10.9464
waj쎯egl쎯	-10.9465
gyt쎯ip쎯nu쎯	-10.9468
nnh쎯gl쎯bpf쎯	-10.9469
ukj쎯	-10.9471
ugm쎯yo쎯	-10.9473
い	-10.9474
kftj0쎯	-10.9475
nfi0쎯	-10.9475
um쎯lud쎯	-10.9476
yoj쎯	-10.9477
jf쎯uj쎯mw쎯	-10.9478
thd쎯dn쎯uu쎯c쎯go쎯	-10.9481
dm쎯tkw쎯dp쎯	-10.9485
kcg쎯?	-10.9489
thd쎯drin쎯	-10.9489
adj쎯tvfh1쎯pr쎯	-10.949
r쎯g쎯uth쎯	-10.9491
쎁쎁쎅	-10.9497
pfq쎯tlf2쎯	-10.9498
isf쎯ypm쎯	-10.9502
sdy2쎯	-10.9507
,wgkq0쎯tj쎯	-10.9507
▁f쎯fhg1쎯:	-10.9507
vu쎯	-10.9508
aqk쎯og쎯	-10.951
rkm쎯pd쎯	-10.9511
eaf쎯	-10.9511
ymhj쎯fnrt쎯x쎯iyj쎯	-10.9512
bwj쎯xe쎯	-10.9513
tfkd쎯rp쎯	-10.9515
ytey쎯pt쎯	-10.9517
wgj쎯j쎯	-10.9521
wgk쎯ec쎯ymhj쎯	-10.9522
쎇wc쎯jfd쎯	-10.9526
쎅쎀쎀oy쎯	-10.9529
쎂쎈쎀	-10.9531
mb쎯sfiu0쎯	-10.9533
쎃.쎈	-10.9533
gk쎯nge쎯	-10.9534
wc쎯ngk쎯wug1쎯gf쎯	-10.9537
qynm1쎯h쎯	-10.9537
nj쎯nj쎯	-10.9539
wc쎯jfd쎯,kha쎯	-10.9541
jmhn0쎯	-10.9541
qqy0쎯	-10.9542
ytyh쎯aq쎯	-10.9544
sksw쎯kjj쎯	-10.9548
adwe1쎯tffy0쎯	-10.9549
ukn쎯yne쎯ovt쎯	-10.955
쎁쎀쎂쎄	-10.9552
whf쎯og쎯wys쎯lft쎯	-10.9553
qit쎯	-10.9556
ogm쎯	-10.9557
jf쎯pw쎯	-10.9557
yfj쎯rep쎯	-10.9558
rmhj쎯yjjh1쎯	-10.956
gn쎯adw쎯wb쎯	-10.9561
wv쎯od쎯:ltu쎯nnh쎯>	-10.9561
α	-10.9563
sbb쎯	-10.9567
arj쎯	-10.9569
dm쎯qn쎯	-10.9572
fm쎯bj쎯	-10.9572
ajd쎯adwr쎯tu쎯	-10.9573
uk쎯gkl쎯uk쎯ta쎯	-10.9574
qqqq1쎯qve쎯	-10.9575
ue쎯adwe1쎯	-10.9575
rua쎯ujf쎯	-10.9575
tmf쎯	-10.9576
mfc쎯	-10.9579
쎂×	-10.9579
epqh쎯	-10.9583
djde0쎯	-10.9585
xw쎯w쎯	-10.9585
ip쎯sy쎯uq쎯iyc쎯	-10.9587
ybv쎯xan쎯	-10.9588
go쎯idr쎯gf쎯	-10.9588
waj쎯jtyq0쎯	-10.9588
it쎯qt쎯	-10.9589
hndm쎯	-10.9592
sgn쎯ou쎯	-10.9593
쎂쎀쎀oy쎯	-10.9594
ai쎯mq쎯	-10.9596
yid쎯iv쎯	-10.9597
pw쎯rrr쎯	-10.9599
ghd0쎯aa쎯dn쎯uu쎯	-10.9601
yxt쎯	-10.9602
yy쎯gae쎯	-10.9602
gj쎯mf쎯	-10.9602
jo쎯fi쎯kkd쎯	-10.9602
lh쎯yy쎯	-10.9603
qtjh0쎯bb쎯	-10.9603
y쎯s쎯qn쎯rtd쎯	-10.9604
stx쎯awx쎯	-10.9606
dhi쎯	-10.9606
eb쎯et쎯	-10.9608
vtg쎯qk쎯	-10.961
rbcc쎯wqj쎯sm쎯	-10.961
쎀djfd쎯oy쎯,	-10.9613
ith쎯tv쎯ipk쎯suq쎯	-10.9614
bm쎯uqwm0쎯	-10.9614
rryf쎯	-10.9615
”tq쎯kgn쎯。	-10.9616
xn쎯sw쎯	-10.9618
ym쎯xe쎯bk쎯tq쎯	-10.962
sf쎯mw쎯	-10.9623
le쎯enr쎯	-10.9625
;qm쎯gmu1쎯	-10.9627
synw쎯tha쎯	-10.9627
쎄.쎂	-10.9627
tmo쎯fcp쎯	-10.9632
ddh쎯	-10.9633
쎁쎈쎀쎀	-10.9638
suj쎯	-10.964
쎉kgn쎯	-10.9641
uuk0쎯jtyq1쎯pgc쎯	-10.9642
sm쎯xeg쎯	-10.9654
dd쎯uqd0쎯	-10.9656
wht쎯ys쎯	-10.9658
adwl쎯rpws쎯	-10.966
bukn쎯je쎯	-10.9668
awj쎯	-10.9671
pfq쎯ugdu쎯r쎯	-10.9677
쎁쎀wc쎯jfd쎯	-10.968
yygy쎯ip쎯pe쎯	-10.9682
pe쎯jn쎯	-10.9694
tgj쎯wht쎯	-10.9695
rmn쎯bqv쎯	-10.9696
cd쎯lk쎯b쎯uji1쎯	-10.9697
ba0쎯gq쎯	-10.9699
qkk쎯wgk쎯qqqq1쎯	-10.9699
rab쎯	-10.9701
(adw쎯k쎯	-10.9702
oqdo쎯rnb쎯	-10.9707
ae쎯qde쎯	-10.9716
puhc쎯tq쎯o쎯“	-10.9718
yy쎯qf쎯ght쎯tgm쎯	-10.9719
^	-10.9719
jo쎯tj쎯	-10.9724
k쎯l쎯wfny0쎯xyc쎯	-10.9724
de쎯m쎯	-10.9726
cw쎯ya쎯	-10.9729
wy쎯yyn1쎯	-10.9734
uy쎯wh쎯	-10.9735
gqx쎯rg쎯	-10.9745
sksw쎯yngk0쎯	-10.9745
dqe쎯uu쎯	-10.9745
fny쎯og쎯ip쎯nu쎯	-10.9745
tgj쎯xeg쎯	-10.9747
kuq쎯	-10.9748
tdkj쎯ce쎯wx쎯	-10.975
nty1쎯tq쎯	-10.9752
dbv쎯	-10.9753
i쎯mqb쎯	-10.9754
k쎯l쎯w쎯n쎯dd쎯ip쎯	-10.9754
fq쎯sm쎯	-10.9756
yt쎯yca쎯	-10.9758
jn쎯ib쎯od쎯gajf쎯	-10.9759
iry쎯v쎯	-10.9759
jh쎯d쎯	-10.9761
tv쎯wf쎯gkl쎯y쎯wtf쎯	-10.9763
쎁eee쎯bm쎯tg쎯	-10.9765
mgu쎯wwk쎯	-10.9765
g쎯fh쎯ww쎯gk쎯	-10.9765
uwyc0쎯ii쎯	-10.9768
shn쎯s쎯	-10.9769
srg쎯ss쎯	-10.977
gmap쎯gc쎯	-10.9772
vtg쎯qa쎯	-10.9773
ukqb0쎯rfc쎯	-10.9774
me쎯tu쎯	-10.9775
쎁쎇쎅	-10.9776
rfm쎯jg쎯tx쎯g쎯	-10.978
fm쎯wmj0쎯	-10.9781
tu쎯rfc쎯wbj쎯usr쎯	-10.9783
ooo쎯eve쎯	-10.9783
fd쎯ud쎯	-10.9785
mq쎯sm쎯	-10.9787
i쎯qaj쎯	-10.9787
g쎯mhg쎯	-10.9791
dgv쎯qiu0쎯	-10.9792
iyjh쎯jtyq1쎯kkd쎯	-10.9795
p쎯od쎯	-10.9795
cbj쎯c쎯	-10.9797
pwf쎯mqb쎯	-10.9798
hka쎯fnrt쎯	-10.9799
nudu쎯fnud쎯	-10.9804
wmw쎯	-10.9807
efk쎯eta쎯	-10.9808
ywx쎯》	-10.9811
ygk쎯yyy쎯ip쎯	-10.9815
td쎯qk쎯kkk쎯thgf0쎯	-10.9816
ip쎯bpf쎯ftbt쎯rep쎯	-10.9817
mtr쎯	-10.9824
x쎯qie쎯um쎯	-10.9825
sghg1쎯gog쎯	-10.9827
jff1쎯	-10.9827
vq쎯pynn0쎯	-10.9828
nir쎯	-10.9829
-쎁쎅	-10.9829
ta쎯tgh쎯	-10.9833
e쎯g쎯pg쎯	-10.9835
y쎯hid쎯	-10.9836
fq쎯ywx쎯j쎯	-10.9837
ith쎯uthp쎯	-10.9837
dn쎯ddu0쎯	-10.9837
rfc쎯sy쎯ga쎯v쎯	-10.9841
pum쎯	-10.9842
tfk쎯jfd쎯	-10.9844
iy쎯mm쎯ge쎯	-10.9844
wxj쎯mmm쎯	-10.9846
a쎯tv쎯	-10.9846
(wys쎯lft쎯)	-10.9848
fc쎯rnb쎯tp쎯	-10.9849
,k쎯aw쎯ipk쎯km쎯。	-10.985
쎈%	-10.985
gkp쎯udi쎯w쎯	-10.9853
dl쎯kq쎯yygy쎯wx쎯	-10.9854
w쎯,k쎯aw쎯ipk쎯km쎯,	-10.9861
m쎯jf쎯gip쎯	-10.9862
wgej1쎯	-10.9864
wxj쎯mmm쎯ymhj쎯	-10.9865
wtc쎯syp쎯	-10.9866
n쎯www쎯	-10.9879
aft쎯tq쎯	-10.9879
sg쎯udh쎯“	-10.9881
xf쎯synw쎯	-10.9887
iry쎯gxi쎯	-10.9887
xft쎯	-10.9892
ipkh1쎯xv쎯	-10.9894
lft쎯mqc쎯	-10.9896
yc쎯jn쎯kkd쎯	-10.9898
rf쎯e쎯	-10.9899
(쎃)	-10.99
lu쎯vb쎯r쎯	-10.9902
gjq쎯e쎯	-10.9902
ovt쎯wfhg쎯	-10.9908
j쎯g쎯pe쎯c쎯	-10.9908
쎃adm쎯	-10.9908
fgh쎯g쎯rh쎯	-10.991
oft쎯ol쎯	-10.9911
쎂쎀쎀dq쎯	-10.9911
ol쎯ajj쎯	-10.9913
hpgh쎯	-10.9913
쎃.쎇	-10.9918
vd쎯vyv쎯	-10.992
m쎯ujn쎯	-10.992
ftbt쎯ip쎯gn쎯	-10.992
dgtg쎯do쎯	-10.9921
cep쎯wwwk쎯	-10.9922
tg쎯dyn쎯ggi쎯fuj쎯	-10.9922
쎅.쎆	-10.9926
,sghg1쎯gn쎯	-10.9926
lwx쎯eck쎯	-10.9926
wycm0쎯nf쎯w쎯	-10.9926
ufg쎯gqjo0쎯	-10.9927
qgu쎯ugdu쎯	-10.9931
mb쎯jn쎯	-10.9931
age쎯lll쎯	-10.9932
fffy쎯vfhp1쎯	-10.9935
rfw쎯wvm쎯	-10.9937
u쎯wfhg쎯	-10.9939
rrp쎯	-10.9939
>>	-10.9943
bn쎯ce쎯	-10.9949
gq쎯o쎯	-10.995
ga쎯es쎯	-10.9953
pu쎯tl쎯	-10.9954
gf쎯쎂쎀쎀쎄rh쎯	-10.9954
adwl쎯	-10.9955
ua쎯aqt쎯	-10.9957
gm쎯adnt1쎯	-10.9957
iwg쎯yoo쎯	-10.9958
cbts0쎯lqw쎯	-10.9961
bm쎯gm쎯b쎯	-10.9961
g쎯pg쎯s쎯	-10.9961
,gm쎯d쎯uqt쎯lt쎯gf쎯	-10.9963
itf쎯fggh쎯uqv쎯	-10.9965
wtp쎯k쎯	-10.9967
uwy1쎯mj쎯	-10.9967
sk쎯ce쎯j쎯	-10.9969
pnt쎯wys쎯	-10.997
o0쎯	-10.997
dd쎯lpk0쎯ymhj쎯	-10.9971
f쎯eerq쎯	-10.9972
wwx쎯gj쎯	-10.9973
ifp쎯itx쎯	-10.9977
w쎯cd쎯	-10.9985
ip쎯bpf쎯bpf쎯ta쎯	-10.9987
oy	-10.9988
ujqn0쎯	-10.9992
yc쎯khu쎯	-10.9993
hk쎯f쎯dm쎯tkw쎯쎁	-10.9994
xeg쎯dn쎯km쎯	-10.9996
ide쎯ir쎯	-10.9996
pe쎯yfd쎯	-10.9996
,ux쎯gn쎯	-10.9997
ll쎯bynw0쎯	-10.9997
cf쎯ytd쎯	-10.9999
iss쎯cnh쎯	-11.0001
egi쎯	-11.0004
dr쎯ou쎯:	-11.0006
쎂쎀%	-11.0009
o쎯nf쎯tm쎯	-11.0011
a쎯wt쎯ijl쎯ya쎯	-11.0011
xx쎯gog쎯	-11.0012
wycb쎯rp쎯	-11.0013
쎅쎀%	-11.0013
rgw쎯lft쎯	-11.0015
ige쎯gs쎯	-11.0016
pv쎯lfhf쎯	-11.0017
j쎯sve쎯rnd1쎯	-11.0019
mt쎯rh쎯go쎯	-11.0019
ddm쎯fghg쎯tg쎯nf쎯	-11.002
qv쎯bc쎯	-11.002
dg쎯mgu쎯	-11.002
tve쎯vb쎯	-11.0021
tv쎯km쎯wf쎯y쎯wtf쎯	-11.0022
gog쎯rvyo쎯gkp쎯	-11.0023
k쎯l쎯l쎯bf쎯	-11.0025
fg쎯adwe1쎯	-11.0026
ux쎯dm쎯	-11.0029
kru쎯	-11.003
p쎯wug1쎯	-11.0032
trf쎯·	-11.0032
쎁eee쎯쎁jjjj쎯	-11.0033
saf0쎯	-11.0033
qe	-11.0033
tfq쎯fj쎯ii쎯gu쎯	-11.0034
psu쎯·	-11.0036
쎄%	-11.0036
i쎯fdm쎯s쎯	-11.0037
rg쎯ld쎯	-11.0037
dubw쎯	-11.0039
gkih쎯yjj0쎯	-11.0042
d쎯p쎯wh쎯	-11.0046
rng0쎯	-11.0046
thc쎯hx쎯	-11.0046
н	-11.0048
qdy1쎯	-11.0048
tcy쎯uu쎯	-11.005
tnb쎯	-11.0051
if쎯jgm쎯	-11.0055
v쎯gm쎯b쎯	-11.0056
쎂eee쎯bm쎯tg쎯	-11.0057
쎅.쎁	-11.0057
dgtg쎯udi쎯	-11.0058
tu쎯km쎯	-11.0061
rcbs쎯	-11.0064
gj쎯gk쎯wf쎯	-11.0064
gkl쎯dga쎯pwv쎯km쎯	-11.0064
gip쎯s쎯	-11.0064
i쎯peg쎯	-11.0065
dgv쎯elw쎯	-11.0065
fj쎯wx쎯	-11.0067
。”je쎯	-11.0069
fgh쎯dg쎯rh쎯	-11.007
pl쎯tqf쎯	-11.0072
vk쎯gh쎯	-11.0073
oge쎯yv쎯	-11.0074
gk쎯tl쎯rn쎯	-11.0077
ry쎯xt쎯	-11.0082
etg쎯f쎯	-11.0083
sjx쎯	-11.0084
sk쎯pym쎯	-11.0088
vvv쎯y쎯qe쎯	-11.0091
ythp0쎯	-11.0093
tx쎯g쎯qk쎯	-11.0097
ukh쎯pwd쎯	-11.0098
tfk쎯wtu쎯	-11.0098
tffu쎯qq쎯adm쎯	-11.0101
tu쎯rfc쎯v쎯nae쎯	-11.0101
h쎯ymhj쎯wc쎯ngk쎯	-11.0102
udv쎯	-11.0105
쎄.쎈	-11.0108
,fm쎯gn쎯	-11.0113
g쎯gcft2쎯vb쎯ygu쎯	-11.0113
sk쎯pww쎯xmw쎯	-11.0119
ta쎯tyna2쎯ih쎯yu쎯	-11.012
x쎯qie쎯	-11.0121
wjm쎯wqj쎯	-11.0121
tffu쎯mw쎯pww쎯	-11.0123
pfjm1쎯tb쎯	-11.0124
쎀°	-11.0124
dty쎯xte쎯	-11.0126
ue쎯go쎯	-11.0128
xwv쎯	-11.013
gyt쎯xe쎯	-11.0138
ga쎯vck쎯b쎯	-11.0138
py쎯wf쎯ip쎯	-11.0139
dga쎯pwv쎯yy쎯tm쎯o쎯	-11.014
tg쎯wx쎯	-11.0141
ii쎯rfm쎯	-11.0141
qev쎯yt쎯rg쎯	-11.0145
ooo쎯lg쎯	-11.0146
ndj쎯《	-11.0147
gkl쎯wf쎯ta쎯	-11.0149
wfi쎯pynn1쎯	-11.0151
ukn쎯ptkm0쎯	-11.0151
쎄～	-11.0153
vi쎯rmhj쎯	-11.0154
gf쎯쎂쎀쎀쎃rh쎯	-11.0155
uqwn0쎯kkd쎯	-11.0156
tg쎯u쎯dgt1쎯pe쎯	-11.0159
쎅djfd쎯oy쎯	-11.0161
wa쎯ge쎯dd쎯wf쎯	-11.0161
쎅쎀oy쎯	-11.0162
gd쎯pw쎯	-11.0163
"、"	-11.0167
lk쎯ii쎯	-11.0167
txg쎯eb쎯	-11.0167
▁쎆.	-11.0167
xl쎯ta쎯	-11.0169
▁◆	-11.0171
v쎯nae쎯dn쎯o쎯	-11.0173
sgye1쎯	-11.0174
쎂dq쎯	-11.0176
yem쎯	-11.0176
ght쎯ywf쎯cy쎯f쎯	-11.0177
puhc쎯rge쎯	-11.0179
쎁/쎃	-11.018
alw쎯xwy쎯fct쎯	-11.0182
khdc쎯	-11.0183
q쎯wu쎯uqf쎯	-11.0183
tm쎯ue쎯	-11.0184
wvd쎯v쎯	-11.0188
hhu0쎯ru쎯	-11.0191
fny쎯wtf쎯	-11.0193
rvy쎯og쎯	-11.0193
ige쎯bwt쎯	-11.0195
sdm쎯uk쎯	-11.0198
vpq쎯	-11.0203
bm쎯tg쎯d쎯	-11.0203
bm쎯thgc쎯v쎯tf쎯	-11.0204
tx쎯uy쎯nm쎯	-11.0207
ujf쎯uqt쎯	-11.0209
sksw쎯ndj쎯	-11.0209
dgkf0쎯yny0쎯	-11.021
fuj쎯lwj쎯	-11.0212
adiy쎯	-11.0212
an쎯lwj쎯dd쎯hka쎯	-11.0212
ym쎯mtd쎯	-11.0215
r쎯ywe쎯ick쎯	-11.0218
r쎯gk쎯nge쎯	-11.0223
xyy0쎯qnth쎯	-11.0224
tdg1쎯adwe1쎯	-11.0225
hhhh쎯r쎯j쎯	-11.0229
g쎯uh쎯aa쎯	-11.0231
pp쎯bf쎯	-11.0231
lqw쎯wrh2쎯ga쎯v쎯	-11.0236
ssss쎯rfm쎯	-11.0237
gqt	-11.0238
▁ad쎯sg쎯cd쎯ovt쎯	-11.0238
wye쎯gkim0쎯	-11.0238
qqqq1쎯amw쎯qc쎯	-11.0239
oug쎯bb쎯	-11.024
ii쎯uwy1쎯	-11.0243
gu쎯fqu쎯rnb쎯ijl쎯쎁	-11.0244
ny쎯nge쎯	-11.0246
rmhj쎯fcl쎯	-11.0246
n쎯gk쎯	-11.0252
bg쎯iww쎯	-11.0257
dmj1쎯tj쎯qk쎯	-11.0257
je쎯ypm쎯	-11.0259
쎃%	-11.0262
yss쎯sgy쎯	-11.0263
.....	-11.0264
쎁쎉쎉쎅	-11.0266
adnt1쎯ytt쎯	-11.0266
epc쎯gc쎯b쎯	-11.0267
cqy쎯mww쎯	-11.0267
wyf0쎯tlf2쎯	-11.0267
ebn0쎯eri쎯	-11.0269
fgig쎯	-11.0269
ugm쎯rrp쎯	-11.0273
you1쎯e쎯	-11.0273
usr쎯lh쎯pl쎯	-11.0276
iry쎯ddnl쎯	-11.0276
apl쎯tl쎯	-11.0276
ycb쎯gq쎯	-11.0277
rnb쎯rfm쎯	-11.028
쎉쎅%	-11.0281
hqd쎯	-11.0282
ntk쎯gf쎯fmy1쎯aq쎯	-11.0282
gad쎯	-11.0282
rvk쎯nh쎯	-11.0285
kkks0쎯ujf쎯	-11.0285
pei쎯trt쎯	-11.0286
ywwf쎯gf쎯	-11.0286
쎂쎆쎀	-11.0288
ujff쎯ytd쎯	-11.0288
kq쎯》	-11.0291
v쎯rnr쎯	-11.0291
sk쎯sve쎯rnd1쎯	-11.0291
ef쎯oo쎯	-11.0294
ghd0쎯tu쎯xe쎯	-11.0295
wty쎯qe쎯	-11.0296
e쎯g쎯pg쎯r쎯	-11.0297
dr쎯sft쎯ou쎯	-11.0298
ishg쎯isj쎯	-11.0299
punr쎯	-11.03
pl쎯pn쎯	-11.0301
mqq쎯xtk쎯apk쎯qie쎯	-11.0301
ald쎯	-11.0305
ua쎯djd쎯	-11.0306
k쎯mmm쎯dd쎯ip쎯	-11.0308
ui쎯tsh0쎯	-11.0314
rajd쎯	-11.0318
udh쎯lt쎯	-11.0318
uu쎯if쎯	-11.0318
ajj쎯f쎯	-11.0318
wyn쎯fhw쎯	-11.032
aps쎯iwyf2쎯tq쎯k	-11.032
wgit쎯	-11.0321
duo쎯	-11.0323
rfc쎯sy쎯fc쎯rf쎯	-11.0324
uth쎯wbj쎯	-11.0325
wo쎯wuf쎯	-11.0325
sk쎯c쎯cep쎯fp쎯	-11.0332
fm쎯ps쎯ymhj쎯	-11.0332
itd쎯tld1쎯	-11.0336
fqb1쎯wa쎯	-11.0336
ujfj쎯wug1쎯”	-11.0336
[	-11.0337
dyt쎯ysi쎯	-11.0337
pk쎯tfpd쎯	-11.0342
pj쎯ugdu쎯	-11.0345
usgd0쎯pg쎯b쎯	-11.0346
쎇%	-11.0346
egc쎯tv쎯ipkh1쎯tv쎯	-11.0347
bfq쎯	-11.035
dx쎯uyh쎯	-11.0351
yu쎯ytd쎯	-11.0352
vcb쎯dn쎯。	-11.0353
fcp쎯fcl쎯wf쎯	-11.0353
thd쎯qd쎯tu쎯ip쎯	-11.0354
uk쎯uth쎯:	-11.0355
bpf쎯bpf쎯ta쎯	-11.0358
e쎯uqt쎯f쎯	-11.0358
yuw쎯	-11.0359
rcw쎯	-11.036
ip쎯ipkf0쎯	-11.0361
쎁.쎉	-11.0362
lw쎯y쎯wtf쎯	-11.0364
cc쎯tgj쎯	-11.0364
tfkp쎯yxj쎯	-11.0365
fhb쎯kfi쎯	-11.0365
cep쎯fp쎯cf쎯	-11.0366
rwb쎯fiyt쎯	-11.0366
thp쎯xfn쎯	-11.0372
gu쎯jf쎯	-11.0372
ge쎯gm쎯bm쎯	-11.0373
dd쎯ej쎯	-11.0374
lfq쎯anb0쎯	-11.0374
쎁쎇쎉	-11.0376
rrqc쎯	-11.0377
rh쎯lc쎯w쎯	-11.0379
bfm쎯xfn쎯	-11.038
dj쎯wgk쎯	-11.0384
kqm쎯	-11.0385
쎁—	-11.0387
fnhp쎯if쎯	-11.0388
쎆.쎇	-11.0391
lxx쎯	-11.0391
dm쎯eerq쎯	-11.0395
adh쎯	-11.0395
bmg쎯yge쎯	-11.0398
ta쎯wtp쎯	-11.0399
te쎯gmy1쎯	-11.04
i쎯fwm쎯mj쎯	-11.0408
cf쎯jvko쎯	-11.0412
pv쎯by쎯	-11.0412
rqb0쎯	-11.0421
hep쎯uj쎯	-11.0423
tg쎯u쎯x쎯apk쎯	-11.0423
kht쎯kkkk0쎯	-11.0425
yer쎯	-11.0426
nnl쎯oqd쎯	-11.0427
gip쎯ce쎯	-11.0429
qmq쎯xf쎯sq쎯	-11.0429
xa쎯sov쎯ssq쎯	-11.0431
wh쎯ftbt쎯ip쎯gyt쎯	-11.0433
(g쎯)	-11.0433
mmv쎯qt쎯	-11.0435
ssss쎯bgh쎯	-11.0437
e쎯ytf쎯qq쎯	-11.0439
ai쎯x쎯쎁	-11.0439
pwf쎯	-11.0441
ipk쎯ukn쎯fc쎯	-11.0442
gcf쎯wynb쎯wtf쎯	-11.0445
gog쎯tkh쎯	-11.0451
ftjb쎯s쎯	-11.0452
쎇쎀rh쎯wa쎯	-11.0454
ufy쎯lhnh쎯	-11.0456
tffy0쎯sm쎯	-11.0457
쎉쎀rh쎯wa쎯	-11.0457
wsg0쎯gajf쎯	-11.0458
svc쎯ywx쎯	-11.0459
trfh0쎯	-11.046
hka쎯qv쎯jf쎯adwe1쎯	-11.0461
ihi쎯qh쎯	-11.0465
lw쎯wc쎯sov쎯	-11.0466
o쎯wqin쎯rj쎯waw쎯	-11.047
wup쎯	-11.0471
er쎯rpw쎯	-11.0471
fnr쎯qi쎯	-11.0472
yw쎯td쎯	-11.0473
wf쎯gkl쎯wf쎯ta쎯	-11.048
g쎯uthp쎯ugdu쎯wyv쎯	-11.0481
idr쎯thd쎯	-11.0489
tey쎯pw쎯wc쎯ngk쎯	-11.0494
fn쎯drin쎯ftj쎯	-11.0496
yvh쎯fje쎯	-11.0497
fgh쎯eee쎯	-11.0498
rg쎯ftj쎯	-11.0498
qejy쎯rajd쎯	-11.0498
sam쎯tm쎯	-11.0499
djfd쎯oy쎯,pa쎯	-11.05
쎁쎀쎀oy쎯	-11.05
qc쎯gxi쎯	-11.0502
ytn쎯tvfh1쎯	-11.0502
ip쎯suq쎯gm쎯e쎯	-11.0503
wud쎯	-11.0504
rp쎯dj쎯	-11.0504
oqm쎯	-11.0504
ahtg쎯	-11.0505
py쎯aq쎯wug1쎯gf쎯	-11.0508
xdmd1쎯ql쎯	-11.051
gogj쎯tak쎯	-11.0511
▁fg쎯、	-11.0513
ipk쎯suq쎯	-11.0514
tyt쎯	-11.0515
gg쎯eee쎯	-11.0516
qre쎯	-11.0522
se쎯bv쎯	-11.0529
dm쎯lft쎯	-11.0529
hv쎯quj쎯	-11.053
qh쎯ge쎯	-11.053
dgv쎯itx쎯	-11.0531
rs쎯dhc쎯	-11.0532
쎉%	-11.0534
쎂쎀wtu쎯tyna2쎯	-11.0537
▁rbcc쎯wqj쎯udi쎯	-11.054
iv쎯jv쎯	-11.0544
.쎅%	-11.0544
p쎯yww쎯	-11.0545
gip쎯sk쎯	-11.0546
ccw쎯	-11.0549
tgh쎯nh쎯	-11.0551
sfi쎯twgi쎯	-11.0556
ptf쎯if쎯	-11.0558
gf쎯쎂쎀쎁쎂rh쎯	-11.056
′′	-11.056
dga쎯pwv쎯yy쎯tm쎯:	-11.0561
suq쎯wtf쎯ftbt쎯	-11.0562
rnb쎯rnw쎯	-11.0564
qmq쎯telb쎯	-11.0565
sqk쎯snn0쎯	-11.0572
uo쎯sj쎯	-11.0573
nnh쎯if쎯wt쎯kkk쎯	-11.0574
wy쎯thn쎯eb쎯tl쎯	-11.0579
ee	-11.058
mf쎯x쎯dd쎯ip쎯	-11.058
yy쎯qf쎯、ght쎯tgm쎯	-11.058
dv쎯	-11.0582
yfj쎯yww쎯	-11.0582
е	-11.0585
쎁쎉쎂쎅rh쎯	-11.0586
쎃.쎄	-11.0586
쎀쎀wtu쎯w쎯,	-11.0587
twgi쎯ys쎯	-11.0589
sk쎯tfkd쎯ntg쎯	-11.0591
tffy0쎯et쎯	-11.0592
xnh쎯xwv쎯	-11.0592
alw쎯laa쎯	-11.0593
k쎯atd쎯ip쎯bpf쎯	-11.0594
rfc쎯jgm쎯	-11.0596
ge쎯gm쎯o쎯	-11.0596
v쎯iq쎯	-11.0598
pgn쎯pb쎯sov쎯	-11.0598
ow쎯xxg0쎯	-11.0601
sx쎯	-11.0602
et쎯wtp쎯:	-11.0604
wff쎯yvcb쎯	-11.0605
dgkn쎯fcl쎯	-11.0606
yx쎯wycm0쎯	-11.061
fq쎯pwl쎯	-11.0613
lu쎯wqa쎯	-11.0613
atgn쎯	-11.0613
kdh쎯	-11.0614
wgk쎯if쎯	-11.0615
wc쎯aa쎯	-11.0615
uq쎯tyg쎯	-11.0622
tj쎯qk쎯	-11.0626
jde쎯jan쎯	-11.0627
jn쎯mqq쎯	-11.063
lkd쎯pe쎯	-11.0634
cf쎯tgm쎯	-11.0634
jb쎯tfq쎯fj쎯r쎯	-11.0635
wbj쎯fjh0쎯	-11.0636
sjs쎯	-11.0638
tffu쎯tffy0쎯	-11.064
e쎯uwl쎯	-11.0643
ujfj쎯xgb쎯	-11.0644
by쎯oja쎯	-11.0645
ndj쎯hhhh쎯	-11.0651
qqug0쎯	-11.0651
ghd0쎯yq쎯	-11.0653
w쎯n쎯bm쎯thgc쎯py쎯	-11.0654
d쎯bk쎯dga쎯pwv쎯tg쎯	-11.0655
yssr쎯rpwi쎯	-11.0656
k쎯mmm쎯ymhj쎯	-11.0657
lll쎯tca쎯	-11.0661
i쎯nb쎯	-11.0664
。rp쎯rh쎯go쎯,	-11.0664
lks쎯sq쎯	-11.0669
udg2쎯lc쎯	-11.0671
∶	-11.0672
tmo쎯f쎯tjh쎯	-11.0672
uu쎯wsg0쎯fnr쎯	-11.0672
py쎯wf쎯lft쎯wsg0쎯	-11.0674
hk쎯wycm0쎯	-11.0675
vfi쎯vfi쎯	-11.0676
yce쎯tkh쎯	-11.0677
(쎁쎈쎈	-11.0678
ul쎯tfq쎯rg쎯	-11.0681
jc쎯xt쎯	-11.0681
anf쎯	-11.0684
fm쎯yiu쎯dd쎯ip쎯	-11.0687
hw쎯e쎯g쎯pg쎯	-11.0688
xp쎯wgk쎯tgh쎯	-11.0691
dp쎯gc쎯b쎯	-11.0692
ga쎯nku쎯	-11.0697
usr쎯sghg1쎯uff쎯	-11.0698
。kl쎯qh쎯,	-11.0699
쎄rh쎯)	-11.07
uk쎯lftj쎯	-11.0701
to쎯tb쎯	-11.0704
kynw쎯kgkw쎯	-11.0706
yni1쎯qy쎯	-11.0706
ipw쎯wx쎯	-11.0708
°C,rh쎯bt쎯ii쎯jg쎯쎁	-11.071
tp쎯gj쎯saj쎯aa쎯	-11.0711
lfq쎯mw쎯	-11.0712
yssd1쎯	-11.0712
xx쎯tjh쎯jf쎯	-11.0714
쎇rh쎯)	-11.0716
lhnh쎯xe쎯	-11.0717
hhu0쎯thg0쎯	-11.0719
ud쎯ng쎯	-11.0719
puy쎯	-11.0722
쎂쎅dq쎯	-11.0723
hfc쎯	-11.0725
eee쎯fjh0쎯	-11.0725
hcd쎯e쎯	-11.0725
itp쎯rxj쎯	-11.0728
peg쎯w쎯	-11.0729
itx쎯mgu쎯	-11.073
ugv쎯thg0쎯	-11.073
р	-11.0731
sks쎯sks쎯	-11.0732
tg쎯u쎯a쎯anb0쎯	-11.0733
i쎯td쎯uthp쎯	-11.0739
gu쎯ime쎯	-11.074
tjf쎯ae쎯	-11.0741
um쎯tl쎯isgg0쎯yhk쎯	-11.0742
nty1쎯vfhp1쎯	-11.0745
pei쎯lll쎯	-11.0746
sou1쎯	-11.0746
gajf쎯kgn쎯:	-11.0747
lfhf쎯gf쎯	-11.0749
l쎯pe쎯sfi쎯uwy1쎯	-11.0759
nkuy1쎯	-11.0762
ymf쎯rmhj쎯	-11.0762
gcft2쎯pgk쎯	-11.0763
rm	-11.0764
v쎯tg쎯b쎯	-11.0764
bpf쎯fghg쎯	-11.0764
fkuk4쎯yd쎯	-11.0765
gu쎯src쎯	-11.0765
tep쎯fp쎯	-11.0766
dg쎯gog쎯	-11.077
l쎯pe쎯t쎯f쎯aq쎯	-11.0772
dga쎯pwv쎯wf쎯gj쎯g	-11.0772
(?	-11.0773
fgh쎯fg쎯rh쎯	-11.0775
wg쎯dm쎯v쎯nae쎯	-11.0775
qev쎯sr쎯	-11.0776
ws쎯thn쎯	-11.0776
og쎯y쎯	-11.0778
qk쎯atd쎯	-11.078
ynvf쎯	-11.078
rdf1쎯iw쎯	-11.0782
쎅.쎄	-11.0783
eywy쎯	-11.0789
e쎯tve쎯qq쎯	-11.079
ohj쎯	-11.079
▁쎁쎉쎇	-11.0791
xg쎯tkgg0쎯	-11.0791
qv쎯yyq쎯	-11.0792
sm쎯jm쎯	-11.0794
sgag쎯	-11.0794
ykhe쎯	-11.0799
쎁rh쎯)	-11.0799
wqa쎯dfy쎯	-11.08
ovt쎯pb쎯wx쎯	-11.0804
gd쎯y쎯ftbt쎯	-11.0804
ujt쎯ytyh쎯	-11.0805
av쎯bwt쎯	-11.0808
ii쎯fakg1쎯	-11.0813
tkh쎯sfhg쎯gy쎯oy쎯	-11.0814
idl쎯fggh쎯	-11.0817
xx쎯cf쎯jvko쎯	-11.0818
vx쎯adwr쎯	-11.0823
─	-11.0824
jtr쎯	-11.0825
ieb쎯mfky쎯	-11.0827
ghd0쎯fwm쎯	-11.0827
c0쎯	-11.0827
d쎯mw쎯r쎯	-11.0828
di쎯oyvk0쎯	-11.0829
》j쎯mh쎯	-11.0833
,sghg1쎯wycb쎯	-11.0834
fm쎯ps쎯	-11.0835
ygk쎯if쎯	-11.0835
ue쎯bg쎯	-11.0835
ftx쎯rh쎯w쎯	-11.0836
klj쎯qk쎯:	-11.0839
《rg쎯ic쎯nnh쎯·	-11.084
a쎯um쎯tf쎯ght쎯	-11.0842
aqrn0쎯ugv쎯	-11.0842
ftbt쎯rep쎯,fge쎯	-11.0843
pei쎯ss쎯	-11.0844
gcft2쎯lt쎯	-11.0844
(쎁쎉쎄	-11.0845
ukn쎯bw쎯	-11.0845
쎂rh쎯)	-11.0849
qfhw0쎯ipk쎯tv쎯	-11.0849
o쎯nng쎯wtf쎯	-11.085
dmh쎯ru쎯	-11.0851
ran쎯xqc쎯	-11.0851
vvv쎯tg쎯	-11.0852
sgw쎯	-11.0853
mmm쎯yfd쎯	-11.0856
xdt쎯	-11.0858
ftbt쎯km쎯	-11.0859
ftbt쎯ip쎯dn쎯js쎯	-11.0862
wgku1쎯bfm쎯	-11.0865
nh쎯aqt쎯	-11.0866
d쎯suq쎯tg쎯	-11.0867
fp쎯iya쎯	-11.0867
rs쎯qgb쎯sm쎯	-11.0868
idl쎯	-11.0868
xn쎯wynn3쎯qnp쎯	-11.0868
adw쎯y쎯s쎯	-11.087
mhny0쎯qiu0쎯	-11.087
tvfh1쎯、if쎯fwm쎯	-11.0879
ftbt쎯ip쎯gyt쎯	-11.0879
ick쎯pv쎯	-11.0881
suq쎯xe쎯	-11.0883
gah쎯jj쎯	-11.0889
gl쎯bpf쎯	-11.0889
ukn쎯uqwm0쎯u쎯	-11.089
쎁쎉an쎯xn쎯	-11.0891
uce쎯adf쎯	-11.0892
wvf쎯ert쎯	-11.0892
nty1쎯yv쎯	-11.0894
tx쎯쎆	-11.0896
tmg1쎯oy쎯	-11.0899
쎉rh쎯)	-11.09
xn쎯tv쎯nnh쎯yn쎯	-11.0902
gl쎯nae쎯	-11.0902
dd쎯afi쎯	-11.0905
xxm쎯ahty쎯	-11.0913
gjq쎯vb쎯f쎯	-11.0921
rfc쎯sy쎯wbj쎯usr쎯	-11.0923
lkd쎯rb1쎯	-11.0924
gm쎯qqqq1쎯	-11.0924
nt쎯tlf2쎯	-11.0926
tg쎯rm쎯	-11.0927
sh쎯ruv쎯	-11.0927
ygu쎯tv쎯	-11.0929
yww쎯ait쎯gf쎯	-11.0934
w쎯n쎯sw쎯pwfi쎯bpf쎯	-11.0938
qtfq0쎯	-11.0941
ucd쎯	-11.0941
rny1쎯pg쎯	-11.0942
yon쎯ep쎯	-11.0944
rfm쎯f쎯	-11.0949
rjq쎯fi쎯	-11.095
pu쎯khg쎯x쎯cwg쎯	-11.095
tj쎯gd쎯qtj쎯djb쎯	-11.0951
lwg쎯ty쎯if쎯	-11.0952
y쎯ick쎯atd쎯jgm쎯	-11.0953
k쎯wxf쎯n쎯ytt쎯	-11.0954
ntk쎯sfhg쎯tr쎯	-11.0954
jtyl쎯qtyd1쎯	-11.0958
ikh0쎯unr쎯	-11.0959
v쎯jn쎯sm쎯	-11.0961
pyg쎯ytyh쎯ymhj쎯	-11.0961
tfh쎯	-11.0963
eb쎯tmc쎯	-11.0964
《k쎯wxf쎯w쎯n쎯aw쎯t쎯	-11.0965
rg쎯gmf쎯	-11.0966
gjq쎯rq쎯	-11.0967
b쎯g쎯rx쎯	-11.0967
w쎯fqu쎯nh쎯ty쎯	-11.0968
aq쎯w쎯n쎯ght쎯ywf쎯	-11.0973
tmdy0쎯	-11.0974
fqu쎯tqdh쎯	-11.0976
av쎯rq쎯	-11.0976
쎁쎀쎀qq쎯	-11.0977
ynt쎯vi쎯	-11.098
dm쎯tkw쎯쎆	-11.0981
k쎯aw쎯k쎯md쎯	-11.0984
rxj쎯nf쎯km쎯	-11.0985
wyv쎯yuo쎯	-11.0986
uh쎯hko쎯	-11.0987
tew쎯	-11.0988
vfhp1쎯rmhj쎯	-11.0991
pgm쎯	-11.0991
sfi쎯rgw쎯	-11.0995
ige쎯fjt쎯btg쎯	-11.1003
lkp쎯	-11.1004
%%*/	-11.1004
hi쎯rgw쎯	-11.1005
쎀쎀qq쎯dnv1쎯fqb1쎯	-11.1006
y쎯s쎯u쎯kkk쎯e쎯	-11.1006
ㄣ	-11.1008
qi쎯fhb쎯	-11.1009
kkkk0쎯drt쎯	-11.1009
ujn쎯ln쎯j쎯	-11.1009
쎁쎉쎉쎂	-11.101
xww쎯bw쎯	-11.101
ymf쎯wtf쎯	-11.101
mga쎯cbj쎯	-11.1011
usr쎯kkk쎯tkh쎯	-11.1012
ic쎯wa쎯	-11.1013
tt쎯kd쎯xyna0쎯kgn쎯	-11.1018
wh쎯l쎯pe쎯t쎯f쎯aq쎯	-11.1021
ym쎯imkf1쎯	-11.1022
by쎯ooo쎯	-11.1023
bgk쎯yb쎯	-11.1032
jf쎯ufy쎯	-11.1033
pb쎯twf쎯	-11.1035
tf쎯og쎯fl쎯wf쎯	-11.1036
yh쎯q쎯wu쎯	-11.1036
ynwy1쎯	-11.1038
tif쎯tg쎯	-11.1038
yynw1쎯adm쎯hhhh쎯	-11.1041
tx쎯fgh쎯fg쎯	-11.1044
쎅rh쎯)	-11.1051
쎇.쎀	-11.1051
bn쎯ytf쎯	-11.1051
you1쎯wt쎯“	-11.1053
mqq쎯iytb0쎯	-11.1054
쎈쎀쎂.쎃	-11.1056
ukn쎯uk쎯ymc쎯d쎯	-11.1057
fjn쎯	-11.1057
ulgj쎯	-11.1058
ipkh1쎯tl쎯tv쎯km쎯	-11.1063
jb쎯rg쎯g쎯	-11.1065
bynw0쎯bb쎯wu쎯	-11.107
dyt쎯u쎯	-11.107
쎄.쎃	-11.1073
p쎯tc쎯	-11.1074
pu쎯khg쎯k쎯	-11.1074
wlk쎯	-11.1077
igd쎯lk쎯yjjh1쎯	-11.108
yxl쎯trt쎯og쎯	-11.1081
iy쎯ujf쎯:	-11.1082
ikh0쎯	-11.1083
ua쎯i쎯j쎯	-11.1086
hhu0쎯cep쎯	-11.1088
fg쎯fgh쎯lh쎯	-11.109
od쎯klj쎯:	-11.109
gkl쎯uk쎯ta쎯	-11.1091
rmhj쎯ys쎯	-11.1093
dm쎯ou쎯	-11.1096
jc쎯udw쎯	-11.1102
쎂쎅쎀쎀	-11.1102
kq쎯ou쎯	-11.1103
fny쎯iy쎯	-11.1103
wk쎯udyj쎯	-11.1104
gf쎯쎂쎀쎀쎂rh쎯	-11.1106
aw쎯wv쎯	-11.1108
с	-11.111
tu쎯fl쎯	-11.111
fh쎯dp쎯	-11.1115
wdn쎯rfm쎯eb쎯tl쎯	-11.1122
uwyc0쎯uai쎯	-11.1122
amw쎯pujn1쎯qc쎯	-11.1122
mtp쎯	-11.1123
ymf쎯rpw쎯	-11.1124
ftbt쎯wf쎯	-11.1128
ftbt쎯tl쎯	-11.1128
nkuf쎯gl쎯	-11.1128
egcn쎯rffg쎯	-11.1131
amy쎯	-11.1131
pynn1쎯	-11.1134
khgp0쎯yop쎯	-11.1136
rvyo쎯jg쎯	-11.1138
qtj쎯uqwm0쎯	-11.1145
wgk쎯kjj쎯	-11.1146
fc쎯ref쎯	-11.1146
쎁쎅쎀dq쎯	-11.1146
xn쎯tv쎯	-11.1148
ytyh쎯gmi쎯kq쎯	-11.115
txi쎯xyc쎯wys쎯dn쎯	-11.1151
rdfj0쎯	-11.1154
smm쎯	-11.1154
kxe쎯	-11.1154
쎃rh쎯)	-11.1155
itx쎯ipr쎯	-11.1156
sse쎯	-11.1157
mmqu쎯	-11.1163
ye쎯eb쎯	-11.1166
jb쎯xk쎯	-11.1167
쎈rh쎯)	-11.1168
usr쎯ub쎯bm쎯thgc쎯	-11.117
ndj쎯fnrt쎯	-11.1172
web쎯	-11.1172
w쎯k쎯aw쎯ipk쎯km쎯	-11.1186
fhu쎯bm쎯	-11.1191
wc쎯gu쎯	-11.1191
tmg1쎯lqw쎯	-11.1195
aga쎯ytyh쎯	-11.1196
fge쎯jtyq1쎯	-11.1199
yc쎯jn쎯	-11.1201
dskf쎯trf쎯	-11.1202
jx쎯mmm쎯	-11.1203
udnb0쎯	-11.1206
umia쎯	-11.1209
yxt쎯ghd0쎯	-11.121
rdj쎯yt쎯	-11.121
imkf1쎯fii쎯	-11.1211
bs쎯sve쎯tfpd쎯	-11.1212
k쎯tu쎯bpf쎯	-11.1213
tmdq1쎯	-11.1217
dfef쎯	-11.1218
vff쎯	-11.1219
usgp1쎯yq쎯	-11.1221
ytf쎯sk쎯	-11.1222
atd쎯ubk0쎯txi쎯	-11.1223
u쎯sc쎯	-11.1224
awy쎯	-11.1226
xwf쎯rmhj쎯	-11.1226
mpg쎯	-11.1228
xfm쎯tavn쎯ait쎯pu쎯	-11.1228
ait쎯kf쎯	-11.1229
ta쎯lkmi0쎯gae쎯	-11.123
w쎯tfkp쎯	-11.1231
u쎯kkk쎯ga쎯v쎯	-11.1231
yygy쎯si쎯	-11.1231
dd쎯maw쎯	-11.1233
rny1쎯ys쎯	-11.1233
ㄥ	-11.1233
itf쎯uqv쎯av쎯	-11.1235
xwv쎯xwv쎯	-11.1241
itx쎯rdc쎯쎂	-11.1241
qyk쎯	-11.1243
dy쎯pw쎯	-11.1245
gjh2쎯ytyh쎯	-11.1246
쎁쎉쎈쎉	-11.1251
bfh0쎯	-11.1251
pf쎯ryn0쎯	-11.1251
hx쎯nnh쎯	-11.1253
myd쎯gtu쎯	-11.1256
▁jo쎯hhu0쎯	-11.1257
afs쎯wh쎯	-11.1257
rvk쎯sfi쎯	-11.1258
gef쎯awx쎯	-11.1259
oun쎯	-11.1266
oge쎯cep쎯	-11.1267
umq쎯qtg쎯	-11.1268
wx쎯uv쎯	-11.1272
ynwy2쎯	-11.1275
fiy쎯pu쎯	-11.1278
rvy쎯nf쎯	-11.1279
jq쎯rh쎯	-11.1285
dny쎯	-11.1289
mqu쎯eee쎯	-11.1291
쎆eee쎯lk쎯ty쎯	-11.1291
qk쎯ip쎯tg쎯	-11.1291
rgw쎯kkd쎯	-11.1292
tfq쎯fj쎯rfc쎯sy쎯	-11.1292
쎀쎀kgb쎯	-11.1294
『	-11.1295
thd쎯tf쎯lg쎯	-11.1295
rqkq쎯	-11.1296
mw쎯wv쎯int쎯	-11.1296
쎁쎉쎉쎄	-11.1298
gc쎯yqa쎯	-11.1298
dhc쎯dyw쎯	-11.1299
wv쎯klj쎯j쎯	-11.1301
jtg쎯txi쎯	-11.1302
ajdj1쎯	-11.1303
xnn0쎯shn쎯	-11.1303
tig쎯	-11.1304
qnm쎯	-11.1305
rx쎯ygu쎯	-11.1306
yb쎯ws쎯	-11.1307
ade쎯	-11.1308
yygt쎯sghg1쎯ufg쎯	-11.1308
tv쎯tv쎯km쎯	-11.1309
cd쎯mqb쎯	-11.1314
fq쎯qjq쎯ymhj쎯	-11.1318
yyq쎯wf쎯	-11.1318
jujf1쎯	-11.1318
bwf쎯ntk쎯atd쎯bpf쎯	-11.1318
gogn쎯ntg쎯	-11.132
dmd쎯sgc쎯	-11.1323
dmh쎯qgj쎯	-11.1323
ua쎯im쎯e쎯	-11.1325
sve쎯rnd1쎯f쎯r쎯f	-11.1325
ym쎯ntg쎯ce쎯	-11.1327
ff쎯bpf쎯	-11.1327
fwyc2쎯uk쎯wrh2쎯	-11.1332
쎂.쎉	-11.1334
rvyo쎯hko쎯	-11.1339
xe쎯c쎯h쎯	-11.134
ipgh쎯	-11.1342
pue쎯	-11.1345
dx쎯riu쎯	-11.1346
ixj쎯ii쎯	-11.1346
cf쎯rymn쎯	-11.1349
jtg쎯adwe1쎯	-11.135
tmo쎯ss쎯aqv1쎯dq쎯	-11.1351
eyni쎯ukh쎯	-11.1357
qhk쎯dgtg쎯	-11.1361
hk쎯rnd1쎯	-11.1366
uqf쎯dn쎯o쎯	-11.1366
syl쎯	-11.1367
ukn쎯hich쎯	-11.1369
apk쎯udyj쎯dh쎯pgk쎯	-11.137
uqvd0쎯	-11.1371
sso쎯	-11.1371
yynw1쎯kkk쎯tkh쎯	-11.1372
uxe쎯iq쎯	-11.1372
ffff5쎯bgh쎯adw쎯	-11.1374
nhe쎯	-11.1375
hh쎯uce쎯	-11.1376
rmhj쎯tfkp쎯og쎯	-11.1378
pn	-11.1378
nku	-11.1378
,ai쎯jty쎯	-11.1379
쎁쎁wh쎯	-11.1383
쎆rh쎯)	-11.1383
g쎯dd쎯rx쎯	-11.1385
um쎯yhk쎯	-11.1386
wg쎯n쎯	-11.1386
ymhj쎯tv쎯、ymhj쎯	-11.1387
tlf2쎯pvs쎯	-11.1389
tmg1쎯gajf쎯	-11.1389
xeg쎯gkl쎯nnh쎯yn쎯	-11.139
쎀rh쎯)	-11.1391
i쎯wynk쎯	-11.1392
uxe쎯rg쎯	-11.1395
fhn쎯idr쎯	-11.1396
tyg쎯go쎯	-11.14
tv쎯ipkh1쎯tv쎯	-11.1403
wynb쎯rg쎯	-11.1405
pww쎯xmw쎯	-11.1405
on쎯gqje쎯	-11.1406
up쎯ggg1쎯	-11.1409
rua쎯rgef쎯	-11.1414
wc쎯ghd0쎯	-11.1414
aguw쎯	-11.1417
pei쎯ip쎯bpf쎯	-11.1418
nty1쎯qk쎯	-11.1426
▁et쎯if쎯et쎯jg쎯	-11.1428
qsu쎯gqx쎯	-11.1428
u쎯kkk쎯tgj쎯jg쎯:	-11.1428
tp쎯gj쎯uqwk쎯yqj쎯	-11.1432
aqgn쎯	-11.1433
itx쎯yqa쎯	-11.1433
:쎀.	-11.1434
dgtg쎯ynt쎯	-11.1436
pgk쎯wynk쎯	-11.1438
wf쎯gkl쎯gj쎯gk쎯ta쎯	-11.1438
ipg쎯yfj쎯	-11.1438
mqb쎯qev쎯	-11.1441
alf쎯ytt쎯	-11.1442
쎁eee쎯wtf쎯	-11.1443
fhn쎯wdy1쎯	-11.1445
쎀쎀쎀qq쎯gu쎯yy쎯oy쎯	-11.1445
쎂쎀wc쎯jfd쎯	-11.1446
cc쎯tm쎯	-11.1449
wj쎯ty쎯	-11.145
ifw쎯ny쎯	-11.1451
쎆.쎂	-11.1454
쎁쎇쎇	-11.1458
sw쎯imj쎯ymc쎯tlf2쎯	-11.146
ajdf쎯f쎯	-11.1461
ryc쎯qie쎯	-11.1461
glf쎯	-11.1466
egc쎯tv쎯nnh쎯yn쎯	-11.1468
ty쎯wvp쎯	-11.1469
gqf쎯n쎯	-11.1469
rnv쎯wx쎯	-11.147
pwd쎯fhn쎯	-11.1473
쎅.쎈	-11.1475
ytey쎯pt쎯tux쎯bt쎯	-11.1477
udg2쎯ec쎯	-11.1479
wqr쎯	-11.148
cd쎯ovt쎯:	-11.148
lt쎯qv쎯	-11.1481
dxa쎯	-11.1483
bm쎯qc쎯r쎯	-11.1484
xln1쎯jhny쎯	-11.1485
rmhj쎯dmj1쎯dn쎯	-11.1486
rffg쎯thgf0쎯	-11.1487
wwgi쎯	-11.1488
uub쎯	-11.1494
usgp1쎯pf쎯	-11.1495
whm쎯	-11.1496
kmd쎯	-11.1497
lh쎯efc쎯	-11.1497
p쎯j쎯g쎯wh쎯	-11.1499
jq쎯wf쎯	-11.1502
ntx쎯	-11.1504
wa쎯gj쎯um쎯	-11.1505
iqr쎯pgy쎯	-11.1508
khgp0쎯u쎯	-11.151
fhu쎯fj쎯	-11.1511
i쎯nq쎯	-11.1512
u쎯og쎯v쎯nae쎯	-11.1513
yy쎯tkgg0쎯	-11.1513
ux쎯tvr쎯	-11.1513
fhn쎯idr쎯gf쎯	-11.152
www쎯tg쎯	-11.1521
pei쎯pe쎯	-11.1521
khu쎯qkqq쎯	-11.1523
wgmy3쎯udv쎯	-11.1523
wcy2쎯wcy2쎯	-11.1529
qk쎯vi쎯	-11.1529
쎁쎉쎉쎃	-11.153
wycm0쎯nf쎯ih쎯xeg쎯	-11.1535
wvmj쎯	-11.1537
ih쎯fnw쎯	-11.1537
ymc쎯yf쎯bpf쎯	-11.154
fm쎯djd쎯	-11.1543
yfn쎯tr쎯	-11.1544
3	-11.1548
yygy쎯wx쎯uq쎯iyc쎯	-11.1549
tmg1쎯fge쎯	-11.1555
쎁쎅wc쎯jfd쎯	-11.1556
m쎯ick쎯	-11.1557
wnh쎯jjjj쎯	-11.1557
tu쎯gkl쎯tu쎯ta쎯	-11.1561
ymkc0쎯	-11.1564
쎉.쎅	-11.1568
tdtf쎯tlf2쎯	-11.1568
pl쎯wv쎯aq쎯	-11.1569
wb쎯gip쎯	-11.1569
rrr쎯isgg0쎯	-11.1569
yni1쎯qi쎯	-11.157
utem1쎯qc쎯:	-11.1576
hka쎯sy쎯	-11.158
gjq쎯vb쎯	-11.158
tx쎯wty쎯nm쎯	-11.1585
ytd쎯ndj쎯	-11.1589
쎀ypt쎯tak쎯	-11.1591
lfo쎯pt쎯	-11.1593
dgj쎯tt쎯nnh쎯if쎯	-11.1595
xwx쎯	-11.1595
rnb쎯rvyl쎯	-11.1596
gu쎯fqu쎯rnb쎯ijl쎯	-11.1597
gu쎯fjg쎯	-11.1598
msj쎯	-11.1599
dy쎯ide쎯	-11.1602
qk쎯kn쎯	-11.1602
wdn쎯tfq쎯	-11.1608
e쎯qk쎯r쎯	-11.1609
usgd	-11.1609
ssf쎯hh쎯	-11.1611
tfqp쎯rdc쎯	-11.1611
bde쎯ujn쎯	-11.1615
wg쎯l쎯wdn쎯te쎯	-11.1617
wdn쎯te쎯dn쎯js쎯	-11.1617
bs쎯ru쎯	-11.1619
cm쎯rhf쎯	-11.1619
amd쎯yygy쎯qk쎯tq쎯:	-11.1621
qnth쎯)	-11.1621
lu쎯it쎯	-11.1622
wc쎯lw쎯	-11.1626
쎁쎀eee쎯tg쎯,	-11.1627
tg쎯tr쎯rfc쎯sy쎯	-11.163
uwl쎯rnb쎯	-11.1631
nnnn쎯cep쎯fp쎯	-11.1632
i0쎯	-11.1632
tffy0쎯jm쎯	-11.1632
a쎯wt쎯uk쎯uyh쎯	-11.1635
yssc2쎯ulg쎯	-11.1638
e쎯ycb쎯	-11.1639
a쎯wt쎯tv쎯km쎯wf쎯	-11.1639
yt쎯lfhf쎯	-11.164
ul쎯puhc쎯	-11.1641
eyj쎯	-11.1641
fwm쎯aj쎯ymc쎯yf쎯	-11.1643
쎁쎉쎉쎀	-11.1644
dnv1쎯gu쎯oy쎯	-11.1648
qsu쎯alt쎯	-11.1649
쎇.쎂	-11.1651
iq쎯yuo쎯	-11.1655
rnb쎯fcl쎯	-11.1657
β	-11.166
wsg0쎯yce쎯fnrt쎯	-11.1662
py쎯aq쎯nd쎯tv쎯wf쎯	-11.1671
mga쎯》:“	-11.1671
udy쎯fqb1쎯	-11.1675
yygt쎯rtol1쎯jn쎯c	-11.1675
e쎯pd쎯	-11.1676
ip쎯rb1쎯》	-11.168
rck쎯	-11.1681
쎄.쎁	-11.1681
ga쎯og쎯jf쎯uj쎯	-11.1681
qtge쎯	-11.1681
u쎯kkk쎯dga쎯v쎯	-11.1685
ab쎯ith쎯	-11.1687
an쎯lwj쎯sgi쎯	-11.169
fakg1쎯qk쎯	-11.1693
tx쎯ag쎯nm쎯	-11.1694
xa쎯gmiu쎯	-11.1695
lfo	-11.1699
hj쎯fhg1쎯	-11.1703
mhhm1쎯	-11.1704
cd쎯pfjm1쎯	-11.1705
vk쎯m쎯	-11.1707
fm쎯fje쎯ivw쎯	-11.1712
ltu쎯nnh쎯pgc쎯	-11.1713
il쎯il쎯	-11.1713
vtkd1쎯bb쎯	-11.1716
hjs쎯dm쎯	-11.172
rj쎯ue쎯	-11.1722
ufg쎯cm쎯	-11.1723
xyc쎯tq쎯	-11.1724
yygt쎯itp쎯et쎯gf쎯	-11.1727
lhnh쎯udy쎯eri쎯	-11.1731
쎃eee쎯wtf쎯	-11.1732
qkql쎯	-11.1734
rad쎯	-11.1737
bm쎯wyk쎯	-11.1738
e쎯egl쎯gf쎯	-11.1745
tuj쎯wsg0쎯k쎯yygy쎯	-11.1745
um쎯og쎯qve쎯tf쎯	-11.1746
mym쎯	-11.175
fqp쎯qie쎯	-11.1755
cw쎯jghm1쎯	-11.1756
vs쎯fn쎯》	-11.1759
,fm쎯wycb쎯	-11.176
rdj쎯ta쎯	-11.1761
qtj쎯pe쎯	-11.1763
쎃쎀%	-11.1763
oyx쎯	-11.1764
iytb0쎯jtyq1쎯	-11.1764
xeg쎯wrh2쎯	-11.1765
ufy쎯sgn쎯	-11.1766
qth쎯	-11.1767
anb0쎯sy쎯kkk쎯	-11.1771
pei쎯og쎯tg쎯u쎯	-11.1771
vv쎯bu쎯	-11.1772
sdm쎯id쎯	-11.1773
gs쎯umd0쎯	-11.1773
wty쎯kht쎯pl쎯	-11.1776
tu쎯ip쎯v쎯nae쎯cm쎯	-11.1777
sov쎯tel쎯	-11.1778
ukn쎯a쎯wf쎯	-11.178
ga쎯uit쎯	-11.1783
snn1쎯	-11.1784
i쎯on쎯wbj쎯usr쎯	-11.1785
uq쎯ian0쎯th쎯	-11.1786
su쎯kkk쎯	-11.1787
ス	-11.1788
ip쎯sy쎯wf쎯yyq쎯	-11.1789
dn쎯wwv쎯	-11.179
tg쎯u쎯t쎯qie쎯wyk쎯	-11.1791
w1쎯	-11.1795
fl쎯m쎯	-11.1795
ue쎯gq쎯	-11.1795
fd쎯wksf쎯	-11.1796
hhu0쎯qiu0쎯	-11.1798
fhv쎯fnr쎯	-11.1798
ymf쎯dga쎯km쎯	-11.18
gh쎯tfj1쎯	-11.1801
cep쎯tyg쎯	-11.1803
sfi쎯sg쎯	-11.1805
x쎯dl쎯b쎯	-11.1806
thd쎯wy쎯	-11.181
rh쎯(wc쎯fqb1쎯	-11.1812
thd쎯egl쎯	-11.1814
ahkm1쎯	-11.1817
dgtg쎯img쎯wx쎯a쎯	-11.1824
gqje쎯thg0쎯	-11.1824
kcg쎯	-11.1827
mq쎯wwwk쎯	-11.1827
wkhh쎯fay쎯	-11.1831
udyj쎯ryn0쎯	-11.1832
tuj쎯xq쎯	-11.1837
dg쎯tffu쎯al쎯	-11.1837
itm쎯iyt0쎯	-11.1839
uuj쎯syp쎯b쎯	-11.1844
mftj1쎯	-11.1844
dr쎯u쎯	-11.1845
xf쎯og쎯	-11.1846
oe쎯ufg쎯	-11.1846
wq쎯wu쎯	-11.1847
spwk쎯	-11.1848
6	-11.1848
yo쎯jg쎯	-11.185
xxf쎯og쎯gf쎯h쎯itx쎯	-11.1854
qk쎯o쎯“	-11.1856
r쎯su쎯bb쎯	-11.1857
쎇.쎆	-11.1857
sm쎯gj쎯	-11.1858
xtdh0쎯cw쎯	-11.1862
dn쎯wqj쎯	-11.1862
xk쎯rmhj쎯	-11.1864
ma쎯rr쎯	-11.1864
ddh쎯uyh쎯ymhj쎯	-11.1867
lkmi0쎯syg쎯gae쎯	-11.1868
う	-11.1868
《ic쎯nnh쎯·	-11.1868
dfa쎯eud쎯	-11.1874
fnm쎯	-11.1876
ts쎯wgq쎯》	-11.1877
rrhy쎯wygg쎯	-11.1877
fiy쎯bk쎯	-11.188
》w쎯tr쎯pp쎯g쎯。	-11.1881
ywx쎯ygh쎯	-11.1881
ym쎯ahty쎯	-11.1884
qev쎯yfn쎯	-11.1888
rumt쎯	-11.1888
sh쎯rc쎯	-11.1889
쎄.쎇	-11.189
쎁쎉쎈쎈	-11.1891
khp쎯	-11.1891
19	-11.1892
aqg쎯aqr쎯ah쎯	-11.1893
fcl쎯lt쎯ip쎯	-11.1893
dn쎯uqt쎯	-11.1893
tmds1쎯	-11.1893
xjt쎯	-11.1894
cbt	-11.1895
nae쎯wf쎯	-11.1895
av쎯pu쎯	-11.1895
ovt쎯tfk쎯	-11.1897
mmm쎯wwk쎯	-11.1898
ta쎯yy쎯gae쎯	-11.1898
bd쎯epc쎯	-11.19
hc쎯af쎯	-11.1902
oy쎯,pa쎯	-11.1912
fpg쎯	-11.1915
edy0쎯	-11.1917
tfq쎯rg쎯aqt쎯tj쎯	-11.1921
yfd쎯qfhw0쎯	-11.1923
bct쎯wgk쎯	-11.1923
sfi쎯ykw쎯	-11.1925
lfn쎯gajf쎯	-11.1929
hi쎯swb쎯	-11.193
dj쎯xk쎯	-11.1931
ejt쎯	-11.1931
puhc쎯gq쎯o쎯	-11.1931
rvyo쎯th쎯gj쎯	-11.1932
sqqd0쎯	-11.1933
yss쎯img쎯	-11.1935
gg쎯jtg쎯xe쎯	-11.1936
ige쎯gj쎯	-11.1936
kkk쎯kfi쎯	-11.194
pwat쎯fp쎯	-11.1941
wf쎯nae쎯	-11.1941
tmdf1쎯xg쎯	-11.1942
ada쎯	-11.1948
ixw쎯fyn쎯	-11.1948
vfhp1쎯dn쎯rg쎯	-11.1948
svc쎯syp쎯	-11.195
qn쎯ufy쎯ige쎯ujfj쎯	-11.1953
faw쎯gcf쎯	-11.1954
fny쎯uyh쎯ww쎯gk쎯	-11.1962
uj쎯bgk쎯	-11.1962
tffu쎯uqd0쎯쎁adm쎯	-11.1965
,iy쎯mm쎯uqwm0쎯	-11.1968
rgt쎯rgy쎯gfi쎯	-11.1969
die쎯	-11.1971
eb쎯tl쎯sm쎯sq쎯	-11.1971
jn쎯bb쎯tu쎯rfc쎯	-11.1972
dg쎯fgh쎯rh쎯	-11.1973
ovt쎯rnd1쎯xg쎯	-11.1976
쎄.쎆	-11.1979
pu쎯tr쎯	-11.1983
pww쎯tkw쎯	-11.1983
sf쎯n쎯tv쎯km쎯wf쎯	-11.1985
――	-11.1986
qtfj1쎯img쎯	-11.1989
qng1쎯qgj쎯ssss쎯	-11.1989
dy쎯pye쎯	-11.1989
dty쎯pk쎯fge쎯tr쎯	-11.199
py쎯wf쎯uqt쎯uwl쎯	-11.199
kkks0쎯fnr쎯	-11.1991
fgh쎯gg쎯rh쎯	-11.1994
ftx쎯src쎯	-11.1997
ル	-11.1998
mmm쎯ai쎯dd쎯ip쎯	-11.1999
qnd쎯hwb쎯	-11.2001
thd쎯bg쎯	-11.2007
wdn쎯rfm쎯r쎯u쎯kkk쎯	-11.2008
egx쎯	-11.201
fwm쎯saj쎯jb쎯dd쎯r쎯	-11.201
fhw쎯alt쎯	-11.2011
v쎯je쎯fny쎯tjh쎯	-11.2012
쎁쎉쎈쎆	-11.2013
ga쎯rd쎯wbj쎯usr쎯	-11.2015
fgh쎯uy쎯rh쎯	-11.2015
wdyy1쎯	-11.202
tk쎯yy쎯dm쎯	-11.2023
agnn2쎯vit쎯	-11.2024
afwu쎯apw쎯	-11.2024
dgtg쎯amd쎯	-11.2028
bm쎯qkm쎯	-11.2029
xke쎯	-11.2031
aqrn0쎯awx쎯	-11.2032
vaf쎯wj쎯	-11.2035
yssr쎯rta쎯lg쎯	-11.2035
ntg쎯wwj쎯xx쎯	-11.2037
ujfj쎯wug1쎯”、“	-11.2037
es쎯yyn1쎯	-11.2038
pqk쎯	-11.2038
tve쎯xk쎯	-11.204
gmap쎯jm쎯	-11.2042
atd쎯ubk0쎯kkd쎯sa쎯	-11.2042
ue쎯gq쎯eri쎯	-11.205
wam쎯	-11.2051
ripq1쎯	-11.2052
gm쎯o쎯k쎯l쎯	-11.2054
pt쎯yww쎯ftbt쎯rep쎯	-11.2054
trf쎯rytp0쎯	-11.206
rjt쎯	-11.2061
amyn0쎯dx쎯	-11.2062
img쎯ae쎯	-11.2063
qhk쎯dga쎯	-11.2064
vk쎯gh쎯:	-11.2065
ul쎯rjg0쎯wtf쎯	-11.207
txg쎯g쎯wug1쎯	-11.2075
쎆.쎈	-11.2077
gmww쎯adm쎯	-11.2077
cqw쎯qi쎯	-11.2078
yww쎯sds쎯	-11.2082
xwy쎯qiu0쎯	-11.2084
adw쎯wb쎯ntg쎯ce쎯	-11.2084
iagw쎯ytt쎯	-11.2084
pt쎯pe쎯	-11.2093
ruv쎯udh쎯	-11.2093
adwl쎯pwfi쎯	-11.2094
쎀×쎁	-11.2095
l쎯tdij쎯	-11.2098
sgtk1쎯	-11.2099
///	-11.2099
yni1쎯ngj쎯	-11.2103
pah쎯	-11.2107
ays쎯avd쎯	-11.211
pl쎯lft쎯	-11.2112
q쎯ith쎯	-11.2112
wye쎯uqw쎯	-11.2112
rwp쎯	-11.2114
yngk0쎯ygk쎯	-11.2118
bd쎯yw쎯	-11.2119
igey쎯ai쎯	-11.2121
tp쎯gj쎯rmhj쎯ya쎯	-11.2121
쎃eee쎯bm쎯tg쎯	-11.2122
ywg쎯toc쎯	-11.2125
k쎯l쎯a쎯pei쎯xa쎯pl쎯	-11.2126
xjh쎯	-11.2127
bk쎯ce쎯uk쎯uyh쎯	-11.213
쎃djfd쎯oy쎯	-11.213
uhc쎯apl쎯	-11.2132
pa쎯imkt쎯	-11.2136
cbd쎯rb1쎯	-11.2136
tnp쎯wynb쎯	-11.2136
ght쎯ick쎯tv쎯km쎯	-11.2137
gog쎯dy쎯	-11.2141
к	-11.2142
puq쎯	-11.2145
(/)	-11.2146
whf쎯og쎯oge쎯pyj쎯	-11.2147
xe쎯uqwm0쎯rfm쎯	-11.215
os쎯iq쎯	-11.2151
ke쎯bwf쎯	-11.2151
в	-11.2154
qbl쎯	-11.2154
rn쎯aft쎯	-11.2155
tq쎯kt쎯	-11.2161
qn쎯lfnh쎯	-11.2162
df쎯tj쎯	-11.2163
jf쎯qkhh1쎯	-11.2165
쎆%	-11.2166
》(쎁쎉	-11.2166
qh쎯ian0쎯	-11.2168
udj쎯mww쎯	-11.217
rvk쎯um쎯xh쎯uqwm0쎯	-11.2172
aw쎯u쎯ipk쎯	-11.2176
ty쎯xyna0쎯	-11.2181
ipe쎯xpw쎯	-11.2189
fny쎯og쎯w쎯ft쎯	-11.2191
ynth0쎯	-11.2192
lgey2쎯	-11.2197
jh쎯ybv쎯	-11.2199
muv쎯	-11.2204
qo	-11.2205
whf쎯og쎯pp쎯g쎯	-11.2209
쎂쎅쎀dq쎯	-11.2213
qtdn0쎯vk쎯	-11.2214
uxh쎯uxh쎯	-11.2216
djdy1쎯	-11.2217
yft쎯wnt쎯	-11.2218
wxd쎯wtuf1쎯	-11.2223
yjjh1쎯jg쎯	-11.2228
ujn쎯fn쎯	-11.2231
gmww쎯umd0쎯	-11.2231
xyna0쎯pj쎯	-11.2232
dq쎯eb쎯	-11.2234
vtg쎯qk쎯:	-11.2235
i쎯on쎯f쎯	-11.2236
wa쎯kgn쎯	-11.2237
ayna0쎯	-11.2242
sc쎯uwl쎯	-11.2253
xef쎯qev쎯	-11.2256
쎆쎀rh쎯wa쎯	-11.226
쎇쎆쎈	-11.2261
lfn쎯yh쎯	-11.2264
fiy쎯v쎯nae쎯	-11.2265
ykg쎯uda쎯	-11.2269
thd쎯go쎯ii쎯	-11.2269
aqj쎯	-11.227
aw쎯ynky2쎯	-11.2271
elv쎯fghg쎯	-11.2271
o쎯et쎯yne쎯rj쎯waw쎯	-11.2273
ga쎯v쎯um쎯	-11.2274
al쎯fw쎯	-11.2274
fg쎯rh쎯(쎁	-11.2276
fn쎯drin쎯	-11.2276
sm쎯sa쎯a쎯og쎯	-11.2276
adw쎯wqu쎯	-11.2278
qve쎯uqd0쎯	-11.2278
rfc쎯sy쎯km쎯	-11.2278
nnw쎯gkip2쎯v쎯nae쎯	-11.2279
〗	-11.2281
bb쎯uxh쎯	-11.2283
you1쎯sk쎯	-11.2283
img쎯ex쎯	-11.2284
fgh쎯wty쎯rh쎯	-11.2284
”yo쎯tkh쎯	-11.2286
iqn쎯igs쎯	-11.2287
khv쎯bde쎯	-11.2287
ygu쎯xx쎯	-11.2288
idl쎯gef쎯	-11.2288
〖	-11.2289
xuj쎯tamw0쎯	-11.2289
cwg쎯ygh쎯	-11.229
amy쎯ldd쎯	-11.2292
tk쎯naj1쎯	-11.2296
opw쎯hko쎯	-11.2298
afd0쎯aya쎯	-11.23
fjh0쎯wgku1쎯	-11.2301
fge쎯pt쎯	-11.2306
쎉쎀쎀쎁:쎂쎀쎀쎀	-11.2308
kha쎯wynb쎯	-11.231
쎄.쎄	-11.2315
ep쎯qiu0쎯uff쎯	-11.2319
wt쎯ma쎯pe쎯	-11.2319
쎁쎉쎈쎅	-11.2321
tfq쎯rg쎯rjg0쎯wtf쎯	-11.2321
rdj쎯me쎯	-11.2325
mnbm0쎯fhn쎯	-11.2325
mwyc1쎯fm쎯	-11.2326
khd쎯l쎯	-11.2327
spw쎯	-11.2331
tk쎯lwj쎯	-11.2331
jqrj쎯	-11.2333
,dty쎯tq쎯	-11.2336
ypt쎯dq쎯	-11.2338
ggi쎯gfi쎯	-11.2341
ud쎯gf쎯qgb쎯v쎯	-11.2346
gae쎯hhhh쎯	-11.2349
ld쎯ugm쎯	-11.2351
qie쎯wyk쎯nh쎯ty쎯	-11.2352
qmq쎯sft쎯	-11.2355
uqf쎯wycm0쎯	-11.2359
wfny0쎯udp쎯	-11.2359
lp쎯fuj쎯	-11.2361
dy쎯pf쎯	-11.2364
ve쎯img쎯	-11.2368
xyc쎯tdtf쎯	-11.2371
rfc쎯sy쎯lt쎯jg쎯	-11.2371
ftxu0쎯gxi쎯	-11.2374
oge쎯uwl쎯fiy쎯oge쎯	-11.2375
ugdu쎯fl쎯	-11.2376
jtd쎯pntj쎯	-11.2378
apg쎯dgh쎯ytt쎯	-11.2378
gxgu쎯ntg쎯	-11.2379
xgm쎯uqt쎯	-11.2379
an쎯lwj쎯h쎯jb쎯	-11.2383
rwyg쎯bm쎯b쎯	-11.2383
drin쎯ujn쎯	-11.2386
し	-11.2386
mf쎯tl쎯tp쎯gj쎯	-11.2389
sgtk0쎯hpgh쎯	-11.2389
ccyj1쎯	-11.2392
ipk쎯vfhp1쎯	-11.2393
yf쎯tg쎯	-11.2393
bwf쎯vi쎯	-11.2399
쎀w쎯,adw쎯k쎯	-11.24
《kq쎯yn쎯·	-11.24
cd쎯ftg쎯nnh쎯	-11.2401
de쎯shi쎯	-11.2403
fghg쎯rgw쎯	-11.2403
xwy쎯dskf쎯	-11.2406
xf쎯tha쎯	-11.2407
fhl쎯、kfi쎯oge쎯	-11.2408
ovt쎯ip쎯txi쎯	-11.2415
rmn쎯hko쎯	-11.2415
ukn쎯hk쎯f쎯dm쎯tkw쎯	-11.2419
tx쎯g쎯rx쎯	-11.2422
yaa쎯ltu쎯	-11.2424
fw쎯gv쎯	-11.2425
dxy쎯fmk쎯	-11.2425
kge쎯ebn0쎯	-11.2426
fnr쎯hhu0쎯	-11.2427
a쎯um쎯nnk쎯	-11.2428
gyg1쎯hko쎯	-11.2432
pye쎯wqu쎯	-11.2433
ht쎯hna쎯	-11.2435
쎁쎉쎂쎄rh쎯	-11.2436
ㄐㄧ	-11.2437
vo쎯txgt쎯ya쎯	-11.2438
tv쎯lw쎯wc쎯pgc쎯	-11.2438
fuk쎯yk쎯gyt쎯	-11.2439
mt쎯tkh쎯	-11.244
uqwv쎯dyn쎯	-11.244
쎉—	-11.2441
jtyq0쎯ipkm0쎯	-11.2442
itdy쎯qiu0쎯	-11.2443
st쎯qiu0쎯	-11.2451
ipm쎯ipgh쎯	-11.2452
qr쎯dyt쎯	-11.2452
ycb쎯》:“	-11.2453
puhc쎯yw쎯o쎯j쎯	-11.2454
qgl쎯	-11.2457
dgk쎯dh쎯	-11.2464
ukn쎯u쎯wfhg쎯	-11.2465
ta쎯dw0쎯ymhj쎯	-11.2469
pwfq1쎯	-11.2471
rkh쎯	-11.2471
ta쎯dtf쎯	-11.2473
frc쎯	-11.2473
fq쎯gxgu쎯	-11.2474
wtr쎯ygk쎯	-11.2476
qev쎯ukj쎯	-11.2478
wxd쎯tm쎯	-11.248
qvn2쎯fiyt쎯	-11.2484
tfkp쎯wwj쎯	-11.2485
ooo쎯oqv쎯	-11.2488
쎉쎀쎀쎀	-11.2491
et쎯yne쎯rj쎯waw쎯	-11.2492
ynj	-11.2495
vs쎯rfm쎯	-11.2495
°Crh쎯bt쎯ii쎯jg쎯	-11.2496
whm쎯pwfi쎯	-11.2498
uduk쎯yv쎯	-11.2498
fg쎯fgh쎯an쎯xn쎯	-11.2501
jyq쎯	-11.2503
usr쎯k쎯l쎯dn쎯uu쎯	-11.2504
y쎯rs쎯	-11.2506
tve쎯cw쎯	-11.2508
eb쎯tl쎯wsg0쎯txi쎯	-11.2509
ipkh1쎯mqb쎯ugm쎯	-11.2511
a쎯tkgg0쎯ytb쎯a쎯	-11.2514
vnh쎯	-11.2518
tr쎯gj쎯txi쎯	-11.2524
tfno0쎯	-11.2525
nawe쎯	-11.2527
rap쎯	-11.253
bm쎯tg쎯rh쎯eee쎯	-11.2533
ftx	-11.2536
adi쎯	-11.2536
쎇eee쎯bm쎯tg쎯	-11.2536
dgh쎯shy쎯	-11.2537
ㄒ	-11.2551
iuj쎯ytyh쎯	-11.2553
ywx쎯aft쎯	-11.2554
thgc쎯gl쎯	-11.2556
ian0쎯bct쎯	-11.2562
ymf쎯kfi쎯ou쎯	-11.2564
mq쎯es쎯	-11.2565
ige쎯iq쎯xft쎯	-11.2565
ma쎯anb0쎯	-11.2565
dgtg쎯sft쎯	-11.2566
tx쎯fgh쎯dg쎯	-11.2566
ryiy쎯	-11.2566
fi쎯aib쎯ntg쎯	-11.257
wg쎯wsg0쎯km쎯a쎯	-11.2571
yom쎯	-11.2574
쎅.쎇	-11.2578
r쎯cep쎯td쎯》(	-11.2578
ts쎯xyy0쎯	-11.258
l쎯e쎯uqwm0쎯u쎯	-11.2581
itf쎯its쎯	-11.2582
yo쎯fcl쎯	-11.2585
gm쎯e쎯bk쎯a쎯	-11.2585
g쎯xe쎯ftbt쎯jgm쎯	-11.2591
sks쎯wwx쎯xx쎯gog쎯	-11.2594
a쎯ycb쎯	-11.2594
ipkh1쎯ybv쎯	-11.2594
e쎯qc쎯qqqq1쎯ntk쎯	-11.2595
kynw쎯	-11.2597
tffu쎯g쎯txi쎯gq쎯	-11.2597
ftg쎯ygh쎯	-11.2598
,mb쎯ght쎯xyna0쎯	-11.26
yfn쎯hhu0쎯kkd쎯	-11.2602
dskf쎯yop쎯	-11.2603
med쎯	-11.2604
nwyc3쎯	-11.2605
lk쎯pnt쎯	-11.261
か	-11.2611
ymf쎯gj쎯	-11.2618
jn쎯se쎯	-11.2619
dga쎯wht쎯	-11.262
td쎯qk쎯whf쎯og쎯	-11.2623
tk쎯adm쎯a쎯wt쎯	-11.2625
keg쎯	-11.2626
veg쎯vfi쎯	-11.2628
쎆.쎆	-11.2628
k쎯yygy쎯qk쎯	-11.2629
fd쎯ffuk쎯	-11.263
ip쎯suq쎯hk쎯f쎯	-11.2631
ftjo1쎯ybv쎯	-11.2634
nh쎯vi쎯b쎯	-11.2634
xv쎯wx쎯yx쎯	-11.2636
ffi쎯aa쎯	-11.2638
dcw쎯ann쎯	-11.2638
jn쎯jyie쎯ab쎯	-11.2645
kd쎯tfl쎯	-11.2647
qie쎯tyg쎯	-11.2649
xyna0쎯xkw쎯	-11.2656
xq쎯fjw쎯	-11.2658
fl쎯wf쎯gkl쎯wf쎯ta쎯	-11.2659
ifk쎯uqv쎯	-11.2659
gr쎯ia쎯	-11.266
awd쎯awyc0쎯	-11.2661
イ	-11.2665
yge쎯fiy쎯	-11.2666
uda쎯klj쎯	-11.2672
tx쎯vt쎯nm쎯	-11.2673
rfw쎯rf쎯	-11.2675
oo쎯ugh쎯	-11.2675
hu쎯	-11.2678
rhf쎯mqb쎯	-11.2679
uq쎯gx쎯	-11.2679
ah쎯hwb쎯	-11.2685
pgk쎯fghg쎯	-11.2691
yyq쎯km쎯	-11.2691
rj쎯waw쎯wdn쎯rfm쎯	-11.2694
m쎯wfg0쎯	-11.2695
puhc쎯rpd1쎯	-11.2697
k쎯r쎯yid쎯et쎯	-11.2698
ipwk0쎯gf쎯ii쎯	-11.2702
yd쎯pyk쎯	-11.2703
rae쎯h쎯	-11.2705
iit쎯icw쎯	-11.2706
qve쎯skf쎯	-11.2708
lw쎯ip쎯gj쎯wynn3쎯	-11.2709
bu쎯ype쎯wf쎯	-11.271
qqqq1쎯ptkm0쎯	-11.2711
wys쎯mb쎯	-11.2713
q0쎯	-11.2715
lq쎯ic쎯	-11.2716
fgh쎯ag쎯rh쎯	-11.2717
hx쎯uqw쎯	-11.2718
yww쎯ait쎯d쎯	-11.2718
k쎯xe쎯bk쎯tq쎯	-11.272
bk쎯og쎯rfc쎯ce쎯	-11.272
u쎯og쎯lfq쎯	-11.2721
쎆.쎃	-11.2724
ylf0쎯,vfhp1쎯tam쎯	-11.2726
◇	-11.2726
ytd쎯jghm1쎯	-11.2729
veg쎯veg쎯	-11.2729
whm쎯rpws쎯	-11.2729
nty1쎯af쎯yy쎯pvs쎯	-11.2734
awx쎯pfqf쎯	-11.2734
rpv쎯qvfp1쎯	-11.2735
wbj쎯wtl쎯	-11.2739
oi쎯qkm쎯	-11.2742
gm쎯wynb쎯	-11.2744
fm쎯rcy0쎯	-11.2745
ynma쎯gu쎯	-11.2745
ian0쎯xyna0쎯	-11.2747
fjh0쎯tr쎯v쎯ge쎯	-11.2747
ijo쎯iugg0쎯	-11.2749
nu쎯ntg쎯	-11.275
ynt쎯adf쎯	-11.2751
kkkk0쎯mdfj쎯	-11.2751
qejy쎯rajd쎯nua쎯	-11.2751
wht쎯gj쎯	-11.2753
ngj쎯jtg쎯	-11.2755
mmm쎯ii쎯gl쎯	-11.2757
dy쎯dr쎯ymhj쎯	-11.2759
쎂쎀쎀쎃.쎀	-11.276
peg쎯iw쎯	-11.2762
fgh쎯wtu쎯tyna2쎯	-11.2764
쎁/쎄	-11.2765
ftbt쎯ip쎯、tu쎯dga쎯	-11.2771
waw쎯xw쎯	-11.2775
ry쎯aet0쎯	-11.2776
wfny0쎯ltk쎯	-11.2777
쎇.쎁	-11.2778
wd쎯yf쎯	-11.2781
oe쎯otf쎯	-11.2785
쎁쎁eee쎯tg쎯,	-11.2786
yc쎯wv쎯tjh쎯et쎯	-11.279
xxg0쎯xmf쎯	-11.2792
uyi0쎯	-11.2793
ow쎯dyw쎯	-11.2795
wgk쎯if쎯sc쎯uwl쎯	-11.2796
wsg0쎯yce쎯qnp쎯	-11.2796
sfhg쎯puhc쎯	-11.2799
g쎯、fg쎯	-11.2801
aqo쎯awx쎯	-11.2803
xyna0쎯thdi쎯	-11.2803
apo쎯iq쎯	-11.2807
lkmi0쎯syg쎯	-11.2809
odm쎯nyb쎯	-11.2809
vvv쎯fghg쎯	-11.281
ytfp1쎯bpf쎯	-11.2811
tkh쎯sfhg쎯ii쎯tev쎯	-11.2817
-쎁쎀-	-11.2819
tnn1쎯	-11.2819
tjh쎯tuk쎯	-11.282
ym쎯usr쎯aq쎯	-11.2824
쎃.쎉	-11.2831
emc쎯sc쎯	-11.2833
pww쎯tkw쎯yx쎯	-11.2833
cel쎯nb쎯	-11.2841
du쎯fnrt쎯	-11.2845
fm쎯mdfj쎯	-11.2848
gkih쎯ifk쎯	-11.2848
ukn쎯xyna0쎯lkb쎯	-11.2849
hhhh쎯vi쎯gh쎯	-11.2856
vf쎯fiy쎯	-11.2858
uh쎯fhg1쎯d쎯	-11.2858
nc쎯tr쎯	-11.286
rx쎯jg쎯	-11.2864
xa쎯shi쎯	-11.2866
u쎯kkk쎯od쎯gajf쎯	-11.2866
qtdn0쎯dy쎯	-11.287
ty쎯wygg쎯	-11.287
wgmy3쎯tl쎯	-11.2871
wtr쎯l쎯	-11.2872
yygt쎯jn쎯	-11.2873
rqa쎯rymn쎯	-11.2874
rnb쎯kfi쎯	-11.2878
gah쎯aqky1쎯	-11.288
tvfh1쎯jgm쎯gk쎯tl쎯	-11.2885
rvf쎯dgv쎯	-11.2886
uk쎯imkf1쎯nnh쎯	-11.2891
edjn쎯rmhj쎯	-11.2892
쎆.쎁	-11.2893
xq쎯fjw쎯·	-11.2894
wfny0쎯ivs쎯ugm쎯	-11.2898
mq쎯jy쎯qk쎯etg쎯aq쎯	-11.2898
ifj쎯ytyh쎯	-11.2899
awv쎯uff쎯	-11.29
euk쎯ait쎯	-11.2905
dnv1쎯uu쎯yy쎯oy쎯	-11.2905
yid쎯rytp0쎯	-11.2907
y쎯ou쎯	-11.2911
k쎯atd쎯ax쎯dd쎯ip쎯	-11.2912
ω	-11.2912
쎁쎉쎉쎁	-11.2912
쎅.쎃	-11.2914
egc쎯fuj쎯mw쎯	-11.2914
mfk쎯fjh0쎯	-11.2915
nu쎯wwwk쎯	-11.2916
xef쎯nj쎯	-11.2916
jc쎯qvn2쎯	-11.2917
fcu1쎯bwt쎯	-11.2921
ww쎯og쎯w쎯km쎯	-11.2922
imk쎯mdfj쎯	-11.2924
uu쎯khu쎯gf쎯	-11.2924
jtyl쎯hich쎯sw쎯sj쎯	-11.2925
fl쎯wf쎯gkl쎯y쎯yam쎯	-11.2925
ivs쎯qc쎯wsg0쎯	-11.2927
itx쎯rdc쎯쎁,	-11.2927
sfi쎯yn쎯	-11.2928
sghg1쎯rcy0쎯	-11.2929
tqv쎯hi쎯	-11.2931
wvq쎯	-11.2932
쎆쎀wtu쎯	-11.2933
gm쎯wtf쎯k쎯aw쎯	-11.2934
rc쎯qnk쎯	-11.2935
fhl쎯sgc쎯	-11.2936
pyg쎯hnd쎯	-11.2936
tgj쎯hko쎯k쎯ip쎯	-11.2938
cbd쎯tlf2쎯	-11.2939
bm쎯teg1쎯	-11.2939
쎀쎀쎀kgb쎯	-11.294
me쎯rr쎯	-11.2943
lfn쎯fcl쎯	-11.2947
gj쎯ywx쎯gn쎯pu쎯kh	-11.2948
dhb쎯yt쎯	-11.2949
w쎯fqu쎯dif쎯f쎯쎀.	-11.295
tqvh쎯	-11.2961
sqj쎯	-11.2964
쎈쎆쎃	-11.2964
tmg1쎯wbj쎯	-11.2964
ygh쎯rnd1쎯	-11.2968
pei쎯og쎯u쎯og쎯wx쎯	-11.2969
w쎯tr쎯pp쎯g쎯	-11.2969
at쎯ud쎯	-11.2972
c쎯dy쎯mqq쎯	-11.2976
dgj쎯tel쎯pww쎯jg쎯:	-11.2976
dd쎯k쎯gajf쎯	-11.2979
qlp쎯ruv쎯	-11.2981
begg쎯hh쎯	-11.2985
wt쎯kkk쎯nae쎯	-11.2986
yjse쎯	-11.2989
쎂쎀쎀wtu쎯	-11.2992
rj쎯wjjg쎯	-11.2993
qqqq1쎯gkm쎯sm쎯sq쎯	-11.2994
wk쎯pnt쎯	-11.2994
e쎯xg쎯jn쎯pym쎯	-11.2996
ㄌ	-11.2996
tux쎯wwf쎯	-11.2998
xyna0쎯kgn쎯:	-11.3001
kvi쎯	-11.3001
rgm쎯bj쎯	-11.3002
thd쎯ipmq쎯	-11.3003
쎁쎀쎀쎀쎀	-11.3005
pt쎯yny0쎯ukn쎯ovt쎯	-11.3005
kht쎯tca쎯	-11.3007
yssc2쎯sy쎯	-11.3008
ooo쎯qkm쎯	-11.3008
tjf쎯ou쎯	-11.3009
p쎯xt쎯hhu0쎯	-11.3012
rte쎯tfp쎯	-11.3012
iie쎯goi쎯	-11.3013
yynw1쎯sf쎯ntk쎯gf쎯	-11.3018
wamj쎯	-11.3022
aig쎯thg0쎯	-11.3023
mhny0쎯fpm쎯	-11.3024
ui쎯kthh1쎯	-11.3025
ny쎯em쎯	-11.3026
ryn0쎯efw쎯	-11.3028
fpx쎯nx쎯	-11.3033
yfj쎯pwv쎯	-11.3033
sfg쎯keq쎯	-11.3045
wg쎯sf쎯lpdk0쎯	-11.3045
mf쎯ght쎯uk쎯	-11.3047
zzf	-11.3058
w쎯fqu쎯dif쎯f쎯쎁.	-11.3059
ftbt쎯rep쎯、fge쎯	-11.306
wyv쎯fhl쎯	-11.3064
aqn쎯thg0쎯	-11.3066
ss쎯og쎯nnk쎯	-11.3066
dn쎯uu쎯gf쎯쎂쎀쎀쎃rh쎯	-11.3066
bcv쎯	-11.3067
gmf쎯gm쎯	-11.3068
hc쎯efw쎯ugm쎯	-11.3069
yqj쎯	-11.3072
gogn쎯yssc2쎯	-11.3072
쎆.쎄	-11.3074
fd쎯ymhj쎯fwm쎯aj쎯	-11.3074
uqb쎯aq쎯	-11.3078
yo쎯rq쎯	-11.3079
wal쎯	-11.3083
ec쎯itdy쎯	-11.3084
y쎯wtf쎯tu쎯km쎯	-11.3085
tuj쎯wgj쎯	-11.3085
eb쎯tl쎯gj쎯wynn3쎯	-11.3087
tkw쎯wv쎯	-11.3087
gj쎯gk쎯ta쎯	-11.3089
ce쎯lt쎯xk쎯	-11.3093
jja쎯iq쎯	-11.3096
bqt쎯fd쎯	-11.3096
쎈.쎁	-11.3097
mqc쎯tr쎯k쎯ny쎯	-11.3098
jcf쎯pu쎯	-11.3099
nae쎯jtyq1쎯wf쎯	-11.3104
y쎯ou쎯:	-11.3106
uth쎯wycm0쎯	-11.3108
atd쎯ip쎯fge쎯fghg쎯	-11.3109
ght쎯if쎯dd쎯ip쎯	-11.3117
nt쎯qd쎯	-11.3117
uvh쎯mww쎯	-11.3118
ws쎯usi0쎯vkgd쎯qi쎯	-11.3118
tx쎯fgh쎯nm쎯	-11.3118
wg쎯sf쎯aw쎯e쎯	-11.3121
amd쎯trf쎯qiu0쎯	-11.3122
qgu쎯dhq쎯	-11.3123
쎀yne쎯,	-11.3125
g쎯yid쎯whw쎯wg쎯	-11.3125
pg쎯wwj쎯	-11.3128
qyt쎯lkmi0쎯gae쎯	-11.3131
tak쎯bt쎯	-11.3133
eq쎯uk쎯	-11.3134
쎉eee쎯cd쎯lk쎯a쎯wt쎯	-11.314
rwyg쎯gj쎯	-11.3143
쎁쎃wh쎯	-11.3145
wye쎯jvko쎯	-11.3146
sgn쎯ujf쎯	-11.3147
gae쎯wny0쎯	-11.3148
uk쎯wv쎯xeg쎯dn쎯	-11.3149
usgd0쎯ad쎯	-11.3152
jplh0쎯	-11.3154
sq쎯wrh2쎯	-11.3156
쎁쎀쎀wtu쎯	-11.3159
쎀qq쎯dnv1쎯	-11.316
jx쎯je쎯ymhj쎯	-11.3162
ybf0쎯iwyf2쎯	-11.3162
쎃쎀wtu쎯tyna2쎯	-11.3163
wwj쎯wfhg쎯cm쎯	-11.3165
nd쎯fghg쎯	-11.3172
anu쎯thg0쎯xeg쎯	-11.3173
wh쎯sf쎯n쎯xeg쎯	-11.3174
yo쎯tfp쎯	-11.3176
iq쎯aps쎯	-11.3176
jn쎯qev쎯	-11.3179
jfi쎯	-11.318
jghy쎯wfg0쎯	-11.3185
rt쎯xfn쎯	-11.3189
nny0쎯tfn쎯	-11.3191
reh쎯e쎯g쎯rx쎯	-11.3193
aqq쎯jel쎯	-11.3193
rpws쎯bwg쎯	-11.3195
yygt쎯yq쎯	-11.3199
쎇.쎈	-11.32
txi쎯xxf쎯og쎯	-11.3202
dyc쎯wx쎯	-11.3203
iv쎯gk쎯w쎯	-11.3209
khks쎯	-11.3212
hcd쎯hw쎯	-11.3214
xp쎯wgk쎯ick쎯gj쎯	-11.3218
oawu1쎯	-11.3218
qnth쎯kkk쎯	-11.3224
fie쎯	-11.3228
yygt쎯dd쎯et쎯yne쎯	-11.3228
tghn쎯	-11.3229
ddg0쎯ntg쎯	-11.3229
oqy0쎯	-11.3241
sx쎯nnh쎯	-11.3241
fob쎯	-11.3245
fyk쎯	-11.3247
、wx쎯a쎯、	-11.3248
kl쎯g쎯tkh쎯	-11.325
ct쎯。”	-11.3253
pyfk0쎯	-11.3254
dy쎯se쎯	-11.3254
쎁쎂eee쎯lk쎯ty쎯	-11.3258
hhu0쎯anu쎯thg0쎯:	-11.326
qtgw1쎯pwtf0쎯	-11.3261
쎁쎀wtu쎯tyna2쎯	-11.3261
ff쎯ymd쎯	-11.3261
oyv쎯img쎯	-11.3262
xkw쎯tr쎯	-11.3263
ooo쎯po쎯	-11.3263
y쎯wtf쎯tv쎯km쎯	-11.3273
kie쎯	-11.3273
jty쎯ysi쎯atd쎯ip쎯	-11.3277
fuk쎯yk쎯sm쎯sq쎯	-11.3278
ijl쎯cbts0쎯	-11.3279
qyk쎯maf0쎯	-11.3281
rep쎯yjs쎯	-11.3289
쎂쎀쎀쎂.쎀	-11.3291
wtl쎯pfj쎯	-11.3295
by쎯uqwl쎯	-11.3295
sfg쎯geh쎯	-11.3296
tx쎯쎇	-11.33
ry	-11.3304
yoo쎯udjh쎯	-11.3305
iwy1쎯pv쎯	-11.3306
rc쎯“lfnh쎯vjsj쎯”	-11.3309
ibi쎯ugl쎯b쎯	-11.3309
puvc0쎯	-11.331
tmgt3쎯	-11.331
wxb쎯	-11.331
qtg	-11.3313
gef쎯rh쎯ftbt쎯jgm쎯	-11.3313
tk쎯uk쎯uyh쎯	-11.3315
쎅쎀쎀xk쎯	-11.3317
wjjg쎯	-11.3318
lds쎯gae쎯	-11.3321
qev쎯gxgu쎯	-11.3323
hi쎯tf쎯tffh1쎯	-11.3325
mfh0쎯	-11.3325
xad쎯tfn쎯	-11.3329
wc쎯ngk쎯ukn쎯x쎯gj쎯	-11.3329
mq쎯eerq쎯	-11.333
tw쎯pvs쎯	-11.3332
gah쎯wgu쎯	-11.3335
klg1쎯	-11.3336
geq쎯dyn쎯	-11.3337
jtyl쎯pym쎯	-11.3339
ipw쎯tfkp쎯	-11.3343
um쎯og쎯tffh1쎯	-11.3346
yo쎯gjq쎯	-11.3347
io쎯amw쎯qc쎯	-11.3349
tdp쎯et쎯aib쎯lfnh쎯	-11.3349
쎈.쎄	-11.3353
fggh쎯jfj쎯	-11.3354
lfhf쎯og쎯	-11.3354
du쎯tel쎯	-11.3355
wc쎯jfd쎯,yb쎯	-11.3358
adwe1쎯bv쎯	-11.3359
쎁쎉쎉쎈.쎀	-11.3361
fqp쎯yb쎯	-11.3363
fcp쎯lfn쎯	-11.3364
ert쎯le쎯	-11.3365
qytb0쎯wx쎯	-11.3365
쎀wc쎯jfd쎯,kha쎯yb쎯	-11.3369
wvp쎯ltk쎯	-11.3369
dd쎯lt쎯v쎯nae쎯	-11.3371
ipg쎯wx쎯	-11.3371
bwf쎯gkp쎯	-11.3372
쎀쎀oy쎯r쎯	-11.3372
wgkb2쎯jghm1쎯	-11.3374
qn쎯yjse쎯	-11.3374
uyh쎯pwt쎯	-11.3378
rymn쎯alt쎯	-11.338
-쎂-	-11.3384
xf쎯pu쎯	-11.3391
rn쎯gkl쎯rn쎯ta쎯	-11.3394
gmy1쎯ia쎯	-11.3395
ay쎯tjf쎯	-11.34
gf쎯g쎯tmd쎯	-11.3404
쎀쎀qq쎯w쎯,	-11.3405
qf쎯cf쎯ntg쎯	-11.3416
wv쎯bb쎯jg쎯	-11.3422
fq쎯xg쎯mqq쎯hhu0쎯	-11.3425
qh쎯cm쎯ymc쎯yf쎯	-11.3425
pwd쎯v쎯	-11.343
lfo쎯pujn1쎯qc쎯	-11.343
ybt쎯or쎯	-11.3438
,sghg1쎯gcf쎯	-11.3438
dgh쎯tdij쎯	-11.3442
drin쎯yneg쎯	-11.3444
tuxj쎯wtu쎯	-11.3444
vtkd1쎯y쎯	-11.3445
wg쎯uqwm0쎯bb쎯	-11.3445
arj쎯ae쎯	-11.3449
lft쎯tv쎯	-11.3449
dgkn쎯jhf1쎯	-11.3452
qvw쎯	-11.3452
gim쎯	-11.3452
v쎯nae쎯ufg쎯dd쎯	-11.3452
tu쎯xnn0쎯	-11.3454
dga쎯pwv쎯tg쎯bpf쎯	-11.3454
qie쎯jg쎯	-11.3458
saj쎯wyn쎯	-11.346
ulg쎯atd쎯	-11.3465
uq쎯ian0쎯	-11.3468
yq쎯qng1쎯	-11.3473
wmw쎯wx쎯	-11.3473
rfc쎯sy쎯w쎯ft쎯	-11.3475
yd쎯maw쎯	-11.3475
ny쎯gj쎯uqwk쎯yqj쎯	-11.3477
rf쎯qy쎯	-11.3477
y쎯s쎯qm쎯gmu1쎯	-11.3478
itd쎯fcl쎯pgc쎯	-11.3483
wy쎯wynn3쎯	-11.3485
쎄쎀%	-11.3487
tdj쎯ick쎯	-11.3488
vaf쎯	-11.3489
rxj쎯rpl쎯uk쎯	-11.3489
,vvv쎯,ic쎯ytt쎯,	-11.3491
v쎯wyk쎯	-11.3493
wsg0쎯rmhj쎯nty1쎯a	-11.3494
▁ovt쎯:	-11.3496
cep쎯ynf쎯vi쎯	-11.3496
temq1쎯bw쎯	-11.3502
쎃쎀쎀oy쎯	-11.3505
qaf쎯	-11.3509
xt쎯pe쎯lwj쎯	-11.3513
uf쎯tca쎯	-11.3517
dn쎯uu쎯gf쎯쎂쎀쎀쎅rh쎯	-11.3521
pjm쎯ujn쎯	-11.3522
fi쎯aib쎯ip쎯suq쎯	-11.3533
sri쎯aa쎯wf쎯py쎯	-11.3534
wgk쎯aft쎯	-11.3536
φ	-11.3536
egl쎯ftbt쎯	-11.3539
svc쎯rtd쎯	-11.3541
ghd0쎯th쎯xe쎯	-11.3541
ipw쎯epc쎯yygt쎯dd쎯	-11.3541
ivl쎯fge쎯	-11.3544
wk쎯qgu쎯	-11.3544
thd쎯y쎯dga쎯v쎯	-11.3545
nnnn쎯v쎯nae쎯dn쎯o쎯	-11.355
dn쎯uu쎯gf쎯쎂쎀쎀쎆rh쎯	-11.3552
bjm쎯	-11.3555
isgg0쎯yhk쎯reh쎯e쎯	-11.3556
ㄙ	-11.3556
gmm쎯	-11.3558
uji1쎯ai쎯	-11.356
yygy쎯ip쎯anb0쎯sy쎯	-11.3568
cf쎯xx쎯ya쎯	-11.357
__	-11.3571
a쎯qyv쎯	-11.3573
wv쎯pdhj쎯	-11.3573
k쎯yygy쎯qk쎯tq쎯	-11.3573
ypt쎯oy쎯tdp쎯peg쎯	-11.3576
oq쎯rgw쎯	-11.3576
tp쎯tv쎯wf쎯	-11.3577
쎃쎀wc쎯jfd쎯	-11.3578
wt쎯kkk쎯e쎯《	-11.3579
fcp쎯apk쎯um쎯	-11.3579
,c쎯wgj쎯	-11.3581
euk쎯yb쎯	-11.3584
cyn쎯	-11.3588
ecl쎯tjh쎯	-11.359
khn쎯ydn쎯	-11.3601
ipk쎯t쎯l쎯pe쎯	-11.3605
aqkf1쎯	-11.3605
venu쎯	-11.3612
khq쎯uthp쎯	-11.3613
k쎯md쎯pw쎯ymf쎯	-11.3613
p쎯sg쎯nnh쎯	-11.3614
yo쎯af쎯	-11.3614
tfq쎯rg쎯aps쎯aqt쎯	-11.3616
epc쎯wtl쎯	-11.3616
쎁쎀/쎁쎀쎀	-11.3617
yhk쎯qge쎯	-11.3626
ck쎯aa쎯sm쎯	-11.3644
쎇쎀%	-11.3645
rp쎯wny0쎯	-11.3647
pgy쎯cqy쎯	-11.3653
ㄠ	-11.3654
tey쎯pw쎯tey쎯gd쎯	-11.3657
rnp쎯ad쎯	-11.3658
fhwe쎯	-11.3659
ujl쎯	-11.366
sf쎯ipk쎯fc쎯uk쎯	-11.3662
symh쎯	-11.3664
.쎀쎀ylf0쎯	-11.3665
qg쎯tmh0쎯	-11.3669
ajdr쎯	-11.3669
rt쎯rf쎯	-11.3678
wc쎯jfd쎯kha쎯yb쎯	-11.3679
.,.	-11.3683
ifn쎯ii쎯th쎯gj쎯	-11.3683
txg쎯mfk쎯	-11.3684
yaa쎯yjjh1쎯	-11.3684
eb쎯tl쎯gu쎯ck쎯	-11.3684
dty쎯nd쎯	-11.3686
gjq쎯dd쎯r쎯	-11.3692
vs쎯fn쎯py쎯	-11.3692
rfm쎯jg쎯wk쎯ygh쎯	-11.3693
bct쎯wgk쎯tr쎯	-11.3697
×쎅	-11.3697
vk쎯js쎯wq쎯	-11.3698
rg쎯yem쎯	-11.37
yln쎯yln쎯	-11.3703
fmk쎯mty1쎯	-11.3706
un	-11.3706
rvy쎯ftbt쎯	-11.3709
tg쎯itd쎯yy쎯aa쎯	-11.3715
wycm0쎯tfq쎯ii쎯gu쎯	-11.3718
saj쎯ode쎯	-11.372
maw쎯aib쎯	-11.3721
us쎯av쎯	-11.3728
dnnl쎯u쎯	-11.373
lh쎯jtg쎯xe쎯	-11.3731
yfd쎯lfq쎯	-11.3733
ide쎯luf쎯	-11.3736
aib쎯ldt쎯	-11.3739
ul쎯aqt쎯tj쎯	-11.3742
c쎯qc쎯gq쎯	-11.3746
rc쎯“lfnh쎯vjsj쎯”i	-11.3751
dd쎯uqd0쎯pfjm1쎯	-11.3754
ftbt쎯ip쎯nty1쎯af쎯	-11.3756
cd쎯jvko쎯	-11.3758
쎅쎀rh쎯wa쎯	-11.3758
ipg쎯kjj쎯wf쎯	-11.3759
ck쎯bwj쎯	-11.376
by쎯aib쎯	-11.3761
rmc쎯ty쎯wgkq0쎯et쎯	-11.3762
ipgg1쎯ivs쎯	-11.3765
fc쎯lks쎯	-11.3769
dy쎯se쎯udr쎯	-11.377
thgc쎯sc쎯	-11.3771
wfny0쎯yn쎯	-11.3774
uq쎯lw쎯r쎯adw쎯wb쎯	-11.3776
ija쎯	-11.378
pye쎯tfq쎯	-11.3782
aqt쎯ddm쎯fghg쎯ip쎯	-11.3788
gm쎯wtf쎯k쎯l쎯	-11.3789
ef쎯ugm쎯	-11.3791
fuk쎯udyj쎯ip쎯tg쎯	-11.3793
iqyl쎯	-11.3793
쎁쎉쎂쎃rh쎯	-11.3794
begg쎯rymn쎯	-11.3797
wc쎯ngk쎯tg쎯u쎯r쎯	-11.3799
xpw쎯tdg1쎯	-11.3803
쎀쎀qq쎯qk쎯	-11.3803
ykk쎯bj쎯	-11.3803
vi쎯wqj쎯	-11.3803
쎄.쎉	-11.3803
ip쎯wf쎯gkl쎯wf쎯ta쎯	-11.3806
usr쎯ftx쎯pt쎯yne쎯	-11.381
mmm쎯efcb쎯gh쎯	-11.3811
】	-11.3812
ui쎯oyvk0쎯	-11.3819
cep쎯ytd쎯jf쎯uj쎯	-11.3825
abi쎯v쎯	-11.3826
tf쎯ght쎯aq쎯fakg1쎯	-11.3826
hw쎯e쎯dh쎯pgk쎯r쎯	-11.3832
dpr쎯xh쎯	-11.3839
sgnn1쎯	-11.384
gajh쎯if쎯	-11.3844
ais쎯icf쎯	-11.3845
ypt쎯fq쎯	-11.3849
dx쎯isj쎯	-11.385
쎁쎉쎈쎇	-11.3851
쎈.쎂	-11.3854
쎂쎀쎀쎁.쎀	-11.3863
iug쎯	-11.3864
nhj쎯ougo쎯	-11.3865
gf쎯uf쎯mmm쎯aq쎯。	-11.3866
suq쎯fhg1쎯	-11.3868
wc쎯nyi2쎯	-11.3868
fwy쎯tkw쎯	-11.3869
oge쎯uwy1쎯	-11.3872
lpk0쎯fcu0쎯iawn쎯	-11.3873
¥	-11.3876
fiyt쎯ref쎯	-11.3881
uwyc0쎯adnt1쎯	-11.3884
idg1쎯	-11.3887
ogmj0쎯	-11.3889
y쎯fggh쎯uthp쎯	-11.3891
dn쎯uu쎯gf쎯쎂쎀쎀쎂rh쎯	-11.3894
▁ymf쎯ou쎯:	-11.3895
whtn1쎯qy쎯r쎯	-11.3898
xgb쎯uqv쎯	-11.3898
imh쎯udi쎯	-11.3904
wvd쎯dmh쎯	-11.3909
wygg쎯bpf쎯	-11.3912
imh쎯udi쎯ymhj쎯	-11.3914
gx쎯egl쎯	-11.3915
waw쎯dwf쎯	-11.3917
awx쎯mmq쎯mdf쎯	-11.3918
hi쎯wat쎯	-11.3919
vtf쎯vdf쎯	-11.392
pfqf쎯ny쎯ugm쎯	-11.3921
jq쎯rb1쎯	-11.3926
lc쎯lc쎯	-11.3928
qrnq쎯	-11.3931
.쎀쎀fqb1쎯	-11.3934
쎁쎉쎈쎄	-11.3934
nnh쎯fl쎯	-11.3936
r쎯dd쎯lt쎯fc쎯rf쎯	-11.3941
bd쎯fa쎯	-11.3942
vep쎯tmc쎯	-11.3942
rnbm쎯	-11.3944
dx쎯mdf쎯egc쎯	-11.3945
uq쎯qaj쎯	-11.3948
c1쎯	-11.3955
wn쎯ugdu쎯fqb1쎯	-11.3957
eb쎯tl쎯pfi쎯xj쎯	-11.3958
alf쎯ssss쎯	-11.3959
ll쎯y쎯qe쎯	-11.3964
i쎯nq쎯vcl쎯lt쎯	-11.3964
qbp쎯ruv쎯	-11.3973
lu쎯jh쎯	-11.3976
ifw쎯tet쎯	-11.3978
jcf쎯pg쎯	-11.3983
ivk쎯icf쎯	-11.3983
y쎯s쎯bk쎯gmu1쎯	-11.3985
fw쎯vv쎯	-11.3985
eee쎯ypm쎯	-11.3986
wv쎯fc쎯sm쎯sq쎯	-11.3986
dqw쎯	-11.3987
udhf쎯	-11.3987
fl쎯um쎯	-11.3989
8	-11.399
cn쎯qwyc0쎯alfj0쎯	-11.399
hk쎯f쎯dm쎯tkw쎯쎂	-11.3991
kkc쎯	-11.3995
aqgd쎯	-11.4002
jaw쎯fcl쎯	-11.4003
afp쎯mmm쎯	-11.4013
bqv쎯ty쎯	-11.4018
mhkg2쎯rp쎯	-11.4019
wqc쎯wqc쎯	-11.4019
dn쎯uu쎯gf쎯쎂쎀쎀쎄rh쎯	-11.402
oja쎯tjf쎯	-11.4022
jtyq0쎯klj쎯	-11.4026
dhb쎯ffi쎯	-11.4028
e0쎯	-11.403
mqj쎯mqj쎯	-11.4031
tt쎯yn쎯	-11.4031
fay쎯udjh쎯	-11.4034
ufg쎯ytt쎯	-11.4037
sec쎯bu쎯	-11.4037
ad쎯dbm쎯gj쎯ywx쎯	-11.4043
al쎯ditn0쎯	-11.4044
yynw1쎯ugm쎯gxgu쎯	-11.4047
(wynb쎯ntk쎯	-11.4047
tg쎯wgkb2쎯tu쎯ip쎯	-11.4048
tf쎯ght쎯rvy쎯if쎯	-11.405
afcu2쎯	-11.4051
uqd0쎯ujj쎯	-11.4052
qyn	-11.406
sq쎯tam쎯	-11.4069
il쎯id쎯	-11.4069
trf쎯xe쎯ftbt쎯jgm쎯	-11.4069
wxm쎯tr쎯v쎯gc쎯	-11.407
ym쎯xe쎯x쎯iyj쎯jgm쎯	-11.4072
wxj쎯wqj쎯	-11.4073
src쎯sft쎯	-11.4079
w쎯n쎯vtk쎯www쎯	-11.4079
b1쎯	-11.4083
int쎯nii1쎯	-11.4085
vi쎯bc쎯	-11.409
lqw쎯wrh2쎯od쎯klj쎯	-11.4091
udg2쎯gkip2쎯	-11.4093
ddh쎯uyh쎯dd쎯ip쎯	-11.4096
fny쎯km쎯	-11.4096
rymn쎯ukk쎯	-11.4102
”tffu쎯aps쎯iwyf2쎯	-11.4103
ivs쎯ou쎯	-11.4103
쎉wc쎯jfd쎯	-11.4104
wyf0쎯jg쎯	-11.4105
skf쎯wfg0쎯	-11.4105
sbd쎯lkmi0쎯	-11.4106
cd쎯yyq쎯	-11.4112
kht쎯uq쎯ian0쎯th쎯	-11.4114
【	-11.4115
kjj쎯sksw쎯	-11.4117
ih쎯bynw0쎯	-11.4118
쎃-쎄	-11.4125
wjm쎯qd쎯	-11.4127
wt쎯yle쎯ygk쎯	-11.413
tdnj쎯sj쎯	-11.4133
fq쎯wc쎯pd쎯	-11.4142
fnk쎯fdlb쎯	-11.4145
usr쎯yvh쎯nnh쎯·	-11.4147
xfm쎯cep쎯	-11.4147
dh쎯pgk쎯qq쎯ese쎯	-11.4153
ebf1쎯vv쎯	-11.4166
fwm쎯ujj쎯	-11.4173
bw쎯bw쎯km쎯	-11.4176
dw0쎯tb쎯	-11.4176
xv쎯gku쎯	-11.418
lud쎯khu쎯	-11.418
n쎯y쎯ipk쎯	-11.4183
rgv쎯dq쎯	-11.4185
fqb1쎯rh쎯(쎁	-11.4189
bc쎯iie쎯	-11.4189
jfdj1쎯jhny쎯	-11.4196
wg쎯l쎯bu쎯wk쎯	-11.42
ref쎯egl쎯	-11.4201
djd쎯tr쎯rfm쎯	-11.4203
tyna2쎯,adw쎯k쎯	-11.4209
wgk쎯ua쎯dmj1쎯dn쎯	-11.421
ivl쎯fge쎯ymhj쎯	-11.4217
nnk쎯fakg1쎯mqq쎯	-11.422
g쎯vt쎯wty쎯	-11.4223
sj쎯rhf쎯	-11.4224
ire쎯khgp1쎯	-11.4226
mt쎯fgh쎯rh쎯	-11.4227
ige쎯iyct쎯	-11.4231
kgk쎯kwy0쎯	-11.4234
i쎯qkqq쎯	-11.4236
tkh쎯sfhg쎯og쎯	-11.4237
sie쎯	-11.4239
ijt쎯	-11.4246
쎉eee쎯tg쎯,	-11.425
ick쎯wgen1쎯	-11.4252
dgh쎯yop쎯	-11.4253
iitg쎯	-11.4253
쎃-쎅	-11.4254
な	-11.4255
fqng쎯	-11.4257
▁(fg쎯)	-11.4258
qgb쎯ya쎯nx쎯sghg1쎯	-11.4258
wxf쎯dnnl쎯gbnm0쎯	-11.426
kt쎯t쎯itfk쎯trf쎯	-11.4262
qh쎯l쎯ygk쎯ip쎯bpf쎯	-11.4265
,fm쎯jty쎯	-11.4265
rdj쎯bwt쎯	-11.4266
pu쎯lt쎯dcw쎯djb쎯	-11.4272
rap쎯fhn쎯	-11.4276
▁쎇.	-11.4277
klj쎯gcft2쎯	-11.4277
tg쎯gf쎯itx쎯rdc쎯	-11.4278
l쎯pe쎯tuk쎯tl쎯nnk쎯	-11.4283
trf쎯tgh쎯trf쎯ntg쎯	-11.4283
jn쎯idr쎯tdp쎯sgn쎯	-11.4284
pei쎯tu쎯bpf쎯	-11.4286
―	-11.4289
rvh쎯fpx쎯xh쎯aqkr쎯	-11.429
koy1쎯	-11.4292
wc쎯jfd쎯,vii쎯ntk쎯	-11.4297
v쎯ge쎯gf쎯《	-11.4307
た	-11.4308
jn쎯idr쎯jn쎯dfy쎯	-11.4309
x쎯fp쎯qq쎯rh쎯r쎯	-11.4313
db쎯qk쎯ln쎯yq쎯	-11.4315
wy쎯et쎯hhu0쎯	-11.4318
fk쎯ss쎯dd쎯ip쎯	-11.4319
gkih쎯ick쎯	-11.4319
imkt쎯	-11.432
ん	-11.4322
쎉쎀쎀쎁rfm쎯jg쎯	-11.4324
k쎯tffu쎯bk쎯og쎯	-11.4328
bpf쎯bpf쎯fghg쎯	-11.4329
x쎯apk쎯aib쎯lfnh쎯	-11.4332
fc쎯rf쎯gh쎯,	-11.4333
iss쎯iww쎯	-11.4333
iy쎯toc쎯	-11.4336
tlf2쎯wwv쎯	-11.4337
pwv쎯ujq쎯	-11.4339
tmd쎯sft쎯	-11.4341
qng1쎯dq쎯uff쎯	-11.4346
xa쎯isk쎯ytyh쎯	-11.4348
djd쎯my쎯	-11.435
alw쎯st쎯uff쎯	-11.4353
u쎯og쎯qlp쎯	-11.4355
ymb쎯	-11.4357
kld쎯kwn쎯	-11.4358
qev쎯bwt쎯	-11.4363
uygh1쎯yntw1쎯	-11.4367
jc쎯tfkd쎯	-11.4371
dn쎯uu쎯gf쎯쎂쎀쎀쎁rh쎯	-11.4371
ob쎯oug쎯	-11.4373
a쎯um쎯bu쎯	-11.4374
mwyn1쎯	-11.438
pydk1쎯	-11.438
쎉쎀쎀/쎁쎈쎀쎀	-11.4381
tfq쎯fj쎯r쎯tg쎯u쎯	-11.4382
л	-11.4384
ujq쎯qd쎯	-11.4388
wys쎯ufy쎯tsh0쎯	-11.439
ec쎯ou쎯	-11.4394
gkub1쎯gku쎯	-11.4395
pgk쎯puw쎯	-11.4398
utem1쎯ou쎯	-11.4403
vck쎯wbj쎯gf쎯	-11.4407
쎇쎀쎀쎀	-11.4407
dskf쎯xnn0쎯	-11.4409
쎈.쎈	-11.4413
rcb쎯nge쎯	-11.4416
puhc쎯tfqp쎯o쎯	-11.4421
tuj쎯dl쎯	-11.4421
fm쎯ga쎯dd쎯ip쎯	-11.4424
aw쎯m쎯vcl쎯lt쎯	-11.4426
djd쎯apk쎯tjh쎯ntg쎯	-11.4428
vke쎯	-11.4428
ivs쎯qc쎯	-11.4433
》udbb쎯fg쎯	-11.4433
nu쎯jghm1쎯	-11.4437
bgm쎯	-11.444
aft쎯syp쎯	-11.4442
rvh쎯wys쎯	-11.4443
ntk쎯r쎯sfhg쎯tr쎯	-11.4444
쎁쎉쎂쎂rh쎯	-11.4444
wc쎯uq쎯lg쎯	-11.4445
쎅쎀쎀dnv1쎯fqb1쎯	-11.445
쎈.쎆	-11.445
wvt쎯yvc쎯	-11.445
ya쎯wnh쎯sf쎯	-11.4453
uwl쎯tdkj쎯	-11.4453
쎁쎉쎂쎀rh쎯	-11.4455
gkl쎯th쎯xe쎯	-11.4456
쎅쎀°C	-11.4459
kt쎯kn쎯	-11.4467
thc쎯tj쎯	-11.447
dyt쎯u쎯uqwm0쎯idr쎯	-11.4472
rvyo쎯qev쎯gxgu쎯	-11.4475
gl쎯yyv쎯	-11.4476
tfkp쎯temk쎯	-11.4478
ugvv쎯	-11.4481
svc쎯yx쎯	-11.4482
jyiy쎯	-11.4485
yw쎯m쎯	-11.4487
xq쎯gki쎯	-11.4488
maf0쎯ty쎯aa쎯	-11.4491
(쎅xt쎯)	-11.4492
jvko쎯db쎯	-11.4495
atd쎯tl쎯	-11.4496
vp쎯rfq쎯	-11.4498
쎇.쎃	-11.4499
yt쎯tmdf1쎯ntg쎯	-11.45
gcg쎯gmy1쎯	-11.4502
vs쎯fn쎯h쎯v쎯ge쎯	-11.4502
t쎯xyx쎯qwyc0쎯fnr쎯	-11.4504
yad쎯mhny0쎯qiu0쎯	-11.4505
”ak쎯“	-11.4509
lrj쎯jf쎯	-11.4511
a쎯ip쎯fge쎯fghg쎯	-11.4511
mw쎯pww쎯dh쎯pgk쎯	-11.4513
ajdf쎯agq쎯	-11.452
jce쎯eyf쎯	-11.452
쎄쎀×	-11.4524
itk쎯set쎯dmn쎯	-11.4525
쎈eee쎯tg쎯,	-11.4526
gj쎯a쎯ip쎯bpf쎯	-11.4527
ymc쎯yf쎯gj쎯wynn3쎯	-11.4527
ssq쎯xnn0쎯	-11.4529
ffhy쎯	-11.4529
ghc쎯gyb쎯qmq쎯	-11.4531
gyc쎯gyb쎯	-11.4531
tx쎯fgh쎯g쎯nm쎯	-11.4535
ipkh1쎯ytyh쎯ymhj쎯	-11.4538
nt쎯fdm쎯	-11.4539
gmap쎯epc쎯	-11.4544
zzy9쎯	-11.4551
mta쎯yne쎯	-11.4553
rnwy1쎯	-11.4559
qut쎯	-11.4562
fiyt쎯egl쎯	-11.4563
uud0쎯	-11.4575
agnn2쎯dq쎯lt쎯	-11.4575
bi0쎯k쎯mmm쎯	-11.4579
ny쎯eyf쎯ugm쎯	-11.4582
wyv쎯sft쎯	-11.4584
ixw쎯fyn쎯ymhj쎯	-11.4588
bwt쎯iff1쎯	-11.4589
ltd쎯lg쎯	-11.4589
쎇.쎇	-11.4593
mq쎯jaw쎯	-11.4594
yq쎯tl쎯ftbt쎯yce쎯	-11.4595
▁wv쎯bb쎯jg쎯:	-11.4602
gkl쎯aq쎯ta쎯	-11.4607
god쎯st쎯rpv쎯jvko쎯	-11.461
sh쎯gx쎯wt쎯et쎯	-11.4612
aqg쎯aqr쎯oyvk0쎯	-11.4614
ahtb쎯gogn쎯	-11.4616
rtol1쎯yt쎯kkd쎯	-11.4616
amd쎯cel쎯	-11.462
ngkm0쎯	-11.4622
쎂쎀쎀쎆.쎀	-11.4624
agd1쎯	-11.4627
kaqy쎯kfg쎯	-11.4628
@	-11.4635
쎅°	-11.4636
,tdp쎯yid쎯ugh쎯o쎯	-11.4637
ann쎯	-11.4638
4	-11.4644
l쎯pe쎯fny쎯tjh쎯	-11.4645
dwt쎯rgf쎯qynm1쎯	-11.4649
om쎯oufg쎯	-11.4651
gog쎯fcp쎯wf쎯	-11.4652
jcf쎯ldd쎯	-11.4652
쎉.쎉	-11.4655
u쎯kkk쎯fqp쎯qie쎯	-11.4662
iak쎯wwg쎯	-11.4662
hame쎯	-11.4663
qm쎯gmu1쎯wg쎯egc쎯	-11.4664
(amd쎯ygk쎯:	-11.4668
fh쎯rtol1쎯	-11.4669
tfj0쎯	-11.467
쎀쎀wtu쎯qk쎯	-11.4673
rvl쎯iq쎯	-11.4679
og쎯tl쎯aib쎯lfnh쎯	-11.4683
rvy쎯ght쎯	-11.4686
lft쎯tv쎯nnh쎯yn쎯	-11.4688
ax쎯gj쎯	-11.4689
ukk쎯ugh쎯	-11.4702
yaa쎯jghm1쎯	-11.4704
fcp쎯tha쎯	-11.4706
mff0쎯	-11.4709
rr쎯cccg쎯	-11.4715
ime쎯fv쎯	-11.4724
vvv쎯ipg쎯km쎯	-11.4727
rkm쎯fgi쎯	-11.4729
ylk2쎯dhb쎯	-11.4733
쎅.쎉	-11.4734
tuu쎯rcy0쎯	-11.4735
dn쎯uu쎯gf쎯쎂쎀쎀쎉rh쎯	-11.4735
rh쎯u쎯wfhg쎯	-11.4739
iyc쎯ii쎯xg쎯	-11.4744
쎆쎀%	-11.4744
by쎯ooo쎯ffuk쎯	-11.475
rge쎯rkh쎯	-11.4751
duo쎯ruj쎯	-11.4751
txg쎯ylf0쎯	-11.4756
a쎯wt쎯;qm쎯gmu1쎯	-11.476
xn쎯vi쎯thg0쎯	-11.4763
wf쎯nae쎯k쎯ny쎯	-11.4766
rjfg1쎯	-11.4768
fhv쎯fnr쎯ihc쎯	-11.4769
dn쎯uu쎯gf쎯쎂쎀쎀쎈rh쎯	-11.4771
wvm쎯tld1쎯	-11.4773
gcf쎯wynb쎯nnnn쎯e쎯	-11.4775
kft쎯kmd쎯	-11.4777
sve쎯udy쎯aca쎯	-11.4787
nm쎯w쎯dd쎯wa쎯ge쎯	-11.4788
oge쎯med쎯	-11.4788
int쎯nii1쎯qh쎯tu쎯	-11.4788
yygy쎯wx쎯yqa쎯axj쎯	-11.479
쎂쎀쎀쎀.쎀	-11.4792
fct쎯qiu0쎯	-11.4794
efy쎯	-11.4795
qtj쎯wbj쎯	-11.48
thg	-11.4801
tp쎯gj쎯wsg0쎯rmhj쎯	-11.4806
rh쎯(wc쎯fqb1쎯쎁	-11.4809
iwe쎯syg쎯	-11.4814
tuj쎯jqr쎯	-11.4819
bm쎯tg쎯,ic쎯ytt쎯,	-11.482
lwi쎯	-11.4821
sfiu0쎯tl쎯	-11.483
쎇.쎄	-11.4833
v쎯ge쎯wt쎯kkk쎯。	-11.4835
jcf쎯dgj쎯	-11.4836
gab쎯ck쎯	-11.4836
쎁쎉쎉쎇.쎀	-11.4838
ㄏ	-11.4839
dgk쎯bj쎯	-11.484
wycm0쎯nf쎯gyt쎯bb쎯	-11.4841
쎀쎀qq쎯ylf0쎯	-11.4841
쎁쎉쎁쎂rh쎯	-11.4843
sgye1쎯isgg0쎯	-11.4846
djdn0쎯nywf0쎯	-11.4848
jn쎯pym쎯ab쎯hhhh쎯	-11.4848
ymhj쎯w쎯dd쎯ipkh1쎯	-11.4853
adwl쎯sj쎯	-11.4853
jyy1쎯	-11.4854
riq쎯tfqp쎯	-11.4856
wyn쎯wxj쎯	-11.4857
dcw쎯wfn쎯	-11.4858
쎀dnv1쎯ugdu쎯fqb1쎯	-11.4858
쎉.쎈	-11.4863
쎉//쎂쎀쎀쎀//쎂쎀쎀쎃	-11.4868
쎀쎀dnv1쎯fqb1쎯。	-11.487
fcn쎯eup쎯	-11.4873
gm쎯e쎯ftbt쎯bk쎯a쎯	-11.4877
rdj쎯qk쎯tx쎯	-11.4877
ukn쎯fc쎯nnh쎯yn쎯	-11.4879
쎂쎀쎀쎇.쎀	-11.4879
ufy쎯iam쎯	-11.488
т	-11.4882
k쎯ajj쎯ax쎯	-11.4882
a쎯wf쎯y쎯yam쎯	-11.4886
u쎯kkk쎯t쎯eb쎯tl쎯	-11.4889
w쎯fqu쎯dif쎯f쎯	-11.4897
iq쎯caq쎯od쎯gajf쎯	-11.4897
weh쎯	-11.4913
kdgt2쎯	-11.4914
。wg쎯sf쎯lpdk0쎯쎁	-11.4915
wys쎯lft쎯yta쎯gh쎯	-11.4923
sfi쎯sgn쎯	-11.4927
ige쎯yvi쎯ahko쎯	-11.4928
ト	-11.4965
}	-11.4985
リ	-11.5017
{	-11.5115
•	-11.5132
ㄤ	-11.5135
・	-11.5252
と	-11.5254
9	-11.5274
ラ	-11.5347
き	-11.5456
ㄕ	-11.5501
ア	-11.5532
ㄉ	-11.5745
ク	-11.5893
ま	-11.6019
ㄟ	-11.6125
7	-11.6211
ㄚ	-11.6308
$	-11.6497
□	-11.6519
り	-11.6818
ㄑ	-11.6848
z	-11.6969
ㄓ	-11.6999
ㄩ	-11.7048
み	-11.7106
ㄛ	-11.7149
る	-11.7358
ㄍ	-11.746
ㄅ	-11.7463
ッ	-11.7634
ㄊ	-11.7748
こ	-11.783
ㄇ	-11.8017
さ	-11.8021
м	-11.8059
く	-11.8122
に	-11.8136
☆	-11.828
ㄝ	-11.8319
ド	-11.8766
ら	-11.8777
д	-11.8962
γ	-11.9242
シ	-11.9277
ㄔ	-11.9303
は	-11.9373
あ	-11.9477
レ	-11.9532
δ	-11.9611
σ	-11.9642
■	-11.979
お	-11.9908
て	-12.0155
タ	-12.0159
`	-12.0188
ロ	-12.0243
が	-12.0319
マ	-12.0358
у	-12.0475
ち	-12.0573
ジ	-12.0643
г	-12.0678
フ	-12.0882
й	-12.0892
ㄡ	-12.1156
ا	-12.1188
ㄜ	-12.1361
ㄗ	-12.1422
も	-12.145
п	-12.1668
カ	-12.1789
つ	-12.2195
б	-12.2242
ㄞ	-12.2252
テ	-12.2308
す	-12.265
ィ	-12.2731
じ	-12.2867
ㄈ	-12.2994
を	-12.3044
や	-12.3145
△	-12.3252
ч	-12.3565
∼	-12.3635
я	-12.3642
で	-12.3712
λ	-12.3742
コ	-12.388
ㄆ	-12.3887
だ	-12.4045
キ	-12.4057
れ	-12.4132
エ	-12.4169
◎	-12.4195
オ	-12.4301
デ	-12.4365
π	-12.4371
え	-12.4531
バ	-12.4622
け	-12.4629
ل	-12.4827
ウ	-12.4833
サ	-12.4961
ㄎ	-12.5221
ρ	-12.5248
っ	-12.5262
ミ	-12.5297
わ	-12.5318
ナ	-12.5339
グ	-12.5353
T	-12.5544
ニ	-12.5551
M	-12.5609
ひ	-12.5645
ム	-12.571
よ	-12.5739
‧	-12.5747
ь	-12.5865
プ	-12.5908
ㄘ	-12.5983
ャ	-12.5998
※	-12.6028
モ	-12.6036
ε	-12.6043
ガ	-12.6088
ф	-12.6164
ブ	-12.6202
ㄖ	-12.6218
‰	-12.6256
́	-12.6294
ゆ	-12.6325
ょ	-12.6372
⊙	-12.6513
ろ	-12.6536
≈	-12.6632
メ	-12.6704
ュ	-12.6736
ο	-12.6841
チ	-12.689
ダ	-12.7481
ビ	-12.8098
ㄐ	-12.8107
θ	-12.8135
х	-12.8248
ズ	-12.8313
め	-12.837
ェ	-12.8806
ㄋ	-12.8946
з	-12.9131
せ	-12.9149
ы	-12.9234
ي	-12.9273
◆	-12.9282
τ	-12.9378
م	-12.9441
そ	-13.0096
ر	-13.0187
ハ	-13.0198
ョ	-13.051
ν	-13.0605
パ	-13.0629
ど	-13.0664
ず	-13.0712
η	-13.0773
ι	-13.0784
ノ	-13.0931
ネ	-13.0955
ς	-13.1079
ば	-13.1166
이	-13.156
ن	-13.1563
§	-13.1629
و	-13.1842
®	-13.1949
セ	-13.21
ァ	-13.2379
ゅ	-13.2436
ワ	-13.2537
κ	-13.2566
ц	-13.2965
ほ	-13.3145
ツ	-13.3284
ب	-13.3362
ふ	-13.3456
ш	-13.368
〞	-13.3744
د	-13.3826
ケ	-13.3924
ゃ	-13.3958
ゴ	-13.3974
ね	-13.3991
÷	-13.4058
ψ	-13.4075
ぎ	-13.4486
む	-13.4806
ボ	-13.4824
ヴ	-13.4842
	-13.4988
ザ	-13.5044
ソ	-13.5344
đ	-13.5363
ж	-13.5421
ぐ	-13.5556
ぶ	-13.5615
√	-13.5994
ة	-13.6015
ヒ	-13.6076
ご	-13.6138
ヤ	-13.6367
ベ	-13.6367
ㄦ	-13.6516
▲	-13.6777
س	-13.691
า	-13.6954
ピ	-13.6955
ギ	-13.7135
̇	-13.725
━	-13.725
ォ	-13.7483
ポ	-13.7722
∈	-13.7771
ع	-13.7868
ɡ	-13.7893
ร	-13.7967
э	-13.8066
び	-13.8142
υ	-13.8192
げ	-13.832
〜	-13.8686
ح	-13.8739
ざ	-13.874
へ	-13.8874
ユ	-13.9205
ю	-13.9524
∞	-13.9576
べ	-13.9664
ゲ	-13.9752
ت	-13.9783
¢	-13.9932
도	-13.9991
∠	-14.0023
대	-14.0053
〝	-14.0114
น	-14.0177
[...]
