[UNK]	0
[PAD]	0
[CLS]	0
[SEP]	0
[MASK]	0
pszhhpzn쎯	-3.79852
,	-4.54174
.	-4.64549
、	-4.97337
szhhhshpn쎯	-5.2511
phspnszh1쎯	-5.25875
sz	-5.35933
nnpnzzzh쎯	-5.45289
hpshsh쎯	-5.681
hhshszhhhsh쎯	-5.71783
npzn0쎯	-5.74448
nnzhpzpppn쎯	-5.74932
hppzhh쎯	-5.76171
szhhshnh쎯	-5.76477
hshpzzhphpn쎯	-5.80653
phnphnhshhzn쎯	-5.83675
nhszhszszh쎯	-5.90906
nhnphszhzzs쎯	-5.9774
szhszhszh0쎯	-5.98279
phspnnnhs쎯	-6.00916
hpn1쎯	-6.04336
szhs쎯	-6.04656
zzhznhsh쎯	-6.08611
nhnphhspnpphs쎯	-6.10585
(	-6.11507
zhhhhszzn쎯	-6.13556
hssznphhs쎯	-6.15154
hszh0쎯	-6.16393
hpszsshhh쎯	-6.20085
hhz1쎯	-6.21298
szhhhzn2쎯	-6.21837
phhszssz1쎯	-6.25029
zpnpszhhh쎯	-6.25639
phnphnnnzszhzh쎯	-6.26994
pznszh1쎯	-6.28706
znpzhhsnzzn쎯	-6.30313
hshzsz쎯	-6.30529
znpznnhzhz쎯	-6.31626
zzsnnzhhpz쎯	-6.34012
psphshh1쎯	-6.34325
nsnphhsh쎯	-6.35129
;	-6.35344
szhs쎯szhhshnh쎯	-6.35531
pshspnh0쎯	-6.35984
)	-6.36524
pnzn0쎯zhszh1쎯	-6.36702
pn2쎯	-6.36864
:	-6.38005
phshhshhzn쎯	-6.45393
hpzznp쎯	-6.46527
《	-6.47886
phhsh1쎯	-6.48374
szhhhsshhhzn0쎯	-6.49445
szhhhshspnhszs	-6.49451
nphzpnzphphpn쎯	-6.49482
phspnszhphsh쎯	-6.5103
shh쎯	-6.51111
phszhhhsh쎯	-6.51633
pzzn3쎯	-6.52046
phspnszhs쎯	-6.52467
pzznzpn쎯	-6.5264
hznhshsz쎯	-6.53617
zz2쎯	-6.54773
hpsn0쎯	-6.54964
szhhhszhhhsh0쎯	-6.5656
hsshhhpnhsh쎯	-6.56652
pnhszh쎯	-6.56699
hznnzzn쎯	-6.57971
phshpzpp쎯	-6.58074
nhpn0쎯	-6.58167
zpznn쎯	-6.58168
hspnnhpnpn쎯	-6.58315
zhphsshzpn쎯	-6.58916
szhhhzn0쎯	-6.59373
hspnpz2쎯	-6.59581
pphszh쎯	-6.6075
nnnphzznnh쎯	-6.61923
szhshshpznszh0쎯	-6.6232
nphhshhpn쎯	-6.63368
nnnhshzn쎯	-6.64124
nphpszhhhnzzn쎯	-6.64216
zzhszhhh0쎯	-6.64432
pshhsh0쎯	-6.64854
shnpn쎯	-6.65107
zzpn0쎯	-6.65119
nnpzpnszpn쎯	-6.65129
hpszhhhps0쎯	-6.65493
nhszs쎯	-6.66917
szszs0쎯	-6.67478
phspnzph쎯	-6.67791
pzhhs0쎯	-6.67836
hspnh0쎯	-6.68412
psnhhhshhspn쎯	-6.69278
hpn1쎯nnpnzzzh쎯	-6.69686
hspnhzn0쎯	-6.69861
hshshphpn쎯	-6.70721
nhnphp쎯	-6.71147
snpnzszhszs쎯	-6.71228
nphpzhhsz쎯	-6.71582
nhphsshzn쎯	-6.72435
pnhhsnph0쎯	-6.72484
hshpszhh쎯	-6.72864
phhhzhsszhhhhpn쎯	-6.72898
nnznnhpn쎯	-6.73363
hspnszhhh4쎯	-6.74196
pznpzn0쎯	-6.74317
ppsszhhhhzn쎯	-6.75104
nhpspnpzszn쎯	-6.75563
hszsshzph쎯	-6.75621
hszhszhshsz쎯	-6.7653
znhzn0쎯	-6.78086
“	-6.78752
hsshhhpnpzhh1쎯	-6.79531
”	-6.79576
hppszhhzpn쎯	-6.79995
nnzhshpn0쎯	-6.80858
nhnpszpzszh쎯	-6.8168
hsh2쎯	-6.82253
hsh2쎯psphshh1쎯	-6.82825
pshhzn1쎯	-6.82936
pphsszpn쎯	-6.8323
npszhnznn쎯	-6.83798
snpnzszhpz쎯	-6.84317
szpn1쎯	-6.85127
h	-6.8536
hpnz0쎯	-6.85405
hzhszhhhshpn쎯	-6.85593
hznpznn0쎯	-6.85639
hszhhznp쎯	-6.86327
nnnhznpsz0쎯	-6.87135
nnnnhzpphzzh쎯	-6.87634
hzhhszn쎯hspnn쎯	-6.87838
ppzhpphs쎯	-6.88069
nphzpnhpn0쎯	-6.8815
phspnpzzpn쎯	-6.89101
zhppszhszshn쎯	-6.89541
p	-6.90302
zzhpzzn쎯	-6.90367
ppshhz쎯	-6.90552
hzhhzszhh쎯	-6.91534
hhpsszhsh쎯	-6.91716
pszhhh0쎯	-6.91732
nhhsh쎯hszsshzph쎯	-6.92383
phzn쎯	-6.93046
szs1쎯	-6.93597
hsn쎯	-6.93799
shszhnnnn쎯	-6.9452
hshpszhhzzs쎯	-6.94569
hhzn0쎯ssnph쎯	-6.9518
szhhz2쎯	-6.9594
szhhpzhh2쎯	-6.95996
nzpzzn쎯	-6.96147
pnzp쎯	-6.96227
hnphspn쎯	-6.9624
zzh0쎯	-6.96405
pzzshz쎯	-6.96641
szhhhhpn1쎯	-6.97225
hsshhhszhpn쎯	-6.97361
hszhzhhz0쎯	-6.97474
hhpsppp0쎯	-6.97742
hszpzh쎯	-6.97905
zzhhshszh0쎯	-6.97959
hsshhhpn0쎯	-6.98382
zzhnhznpz쎯	-6.98823
psnhnph쎯	-6.99148
snnpnnphzn쎯	-6.99602
hzhnhnphzph쎯	-6.99784
hszhhpnnszhszh쎯	-7.00862
nhszhzpnhpzn쎯	-7.01159
hpszss쎯	-7.01242
pshz1쎯	-7.01305
hspnhhspn3쎯	-7.01782
psszhhspn쎯	-7.02574
h쎯	-7.0289
hssnzszhszh쎯	-7.02917
zpn3쎯	-7.02995
nphzpnhhshpzhh쎯	-7.03445
psnhhhszh쎯	-7.04155
szhsh2쎯	-7.04504
nnnhhshpzhh쎯	-7.04898
pnhhsh쎯	-7.05511
pnhhzn쎯	-7.0588
nnshshnhpzpn쎯	-7.0596
pzpzhshzpphhs쎯	-7.062
·	-7.06275
nnnnhpnps쎯	-7.06322
pznnhpnnnnnn쎯	-7.06807
pznszh0쎯	-7.06992
hshshpnzhz0쎯	-7.07266
hhshpzpn1쎯	-7.07401
ppshsszsshhnznn쎯	-7.07448
nphszs쎯	-7.08242
szhhnhszhzpnppp쎯	-7.08654
shhspshz쎯	-7.09135
hshhpzznp쎯	-7.09278
hzzpn0쎯	-7.09466
hhshszpz쎯	-7.09679
hspnpznszh쎯	-7.09839
pnshsh쎯ssnph쎯	-7.10127
szh0쎯	-7.10182
nnnhppszhhzpn쎯	-7.10424
phshszhnzzn쎯	-7.10486
nnnhszhz0쎯	-7.10679
hhshhznnpnn쎯	-7.10928
hsshhhpnpphs쎯	-7.11066
-	-7.11585
nhpnpn0쎯	-7.1183
nhpn2쎯	-7.12393
hszhz1쎯	-7.12404
쎃	-7.12697
nphzpnnnhs쎯	-7.12935
szhshpnps0쎯	-7.12941
nhnphszhhnznn쎯	-7.12963
hphhpnz쎯	-7.13111
zzhnzhpszhss쎯	-7.14185
shhspzphpnn쎯	-7.1429
hhshzn3쎯	-7.14454
nhpnnhszpn쎯	-7.14906
hhpn0쎯	-7.15016
snzszhh쎯	-7.15057
쎂	-7.1516
psnhnph쎯hhz1쎯	-7.15166
nnnphsszh쎯	-7.15313
pzpn2쎯	-7.15518
szhszh1쎯	-7.15521
npszhhhs쎯	-7.16458
szhhhsh1쎯	-7.16694
nsnhhshpzhh쎯	-7.17588
hsshz0쎯	-7.18098
zzhhhznp0쎯	-7.19908
hsshszhshpn쎯	-7.20013
pnhzhhzpn쎯	-7.20279
nznn쎯	-7.20387
ssnph쎯	-7.20514
shhs	-7.20642
hhhshspnhszs93쎯	-7.21005
phhshs쎯	-7.2154
쎁	-7.2217
szpnpn0쎯	-7.22207
hsshhhnphhpn쎯	-7.22231
nnnhsszhpznn쎯	-7.22762
ppzhh쎯zzszhhzpn쎯	-7.23069
hhpz1쎯	-7.23192
zhzhzn0쎯	-7.23209
nphhhsszhhh0쎯	-7.2337
hpszh1쎯	-7.23893
pshzn1쎯	-7.24683
pzhhzszn쎯pznzp쎯	-7.24803
nhnphszhh쎯	-7.24817
nzpzhshszh쎯	-7.24856
pznpn쎯	-7.25257
hpszhhhps0쎯nnzpz	-7.25868
,szhhhshpn쎯	-7.26356
nnnnnzhszhshpn쎯	-7.26834
nhpsnszhhs쎯	-7.26985
n	-7.2738
hhshhpsn쎯	-7.27502
szhhhspn3쎯	-7.27594
nzhzhs쎯	-7.27974
hzhzhphsszh쎯	-7.28
hhpsnzn쎯	-7.28537
hspnpzzn2쎯	-7.29018
zhpzszh쎯	-7.29224
hspnhspn쎯	-7.29274
쎄	-7.30194
pnhznhpszpn쎯	-7.30267
hznhsh쎯	-7.30935
》	-7.31028
zhzszhszhshn쎯	-7.31138
nhpnzsszshn쎯	-7.31304
nnpsnhhhsh쎯	-7.31357
hhznzp쎯	-7.31676
hhh쎯	-7.31982
hhshpzhh1쎯	-7.32065
/	-7.32787
phhsh1쎯nhnphp쎯	-7.3324
zphzzh0쎯	-7.33488
nnzzph쎯	-7.33754
nnnznszh쎯	-7.34448
nnzpnpnszh쎯	-7.34762
szhszpn3쎯	-7.34851
snphpz쎯	-7.35164
hspnshhsszhhhpn쎯	-7.35507
shszhhznp쎯	-7.35748
nhpn2쎯pshz1쎯	-7.35822
nhpnnzzn쎯	-7.36171
shhshshpszhh쎯	-7.3618
hzhpznnnnn쎯	-7.36183
nhhsh쎯	-7.36322
nnnszhsh0쎯	-7.36433
nphzpn쎯	-7.37013
hszhshzs쎯	-7.37082
hshnhnphszhhpz쎯	-7.37363
hhsh1쎯	-7.3764
szhhhshpnhpszpn쎯	-7.37731
zzp쎯	-7.38271
pshsshpn쎯	-7.38582
phspnszhh쎯	-7.39351
hshpzhhsnhzn쎯	-7.39862
nzhszhszh쎯	-7.40029
nzpzzn쎯nzhs쎯	-7.40169
zpszh0쎯	-7.40313
nhpnpnphpn쎯	-7.40548
hszpnpn쎯	-7.40788
hspnhzp0쎯	-7.40954
zhzphpn0쎯	-7.41149
hpnnzzn쎯	-7.41548
phspnszhpn1쎯	-7.41724
hpssnzszs쎯	-7.41813
npnsns쎯	-7.42022
szhhnhszhzpn0쎯	-7.4208
pnnpnzzn쎯	-7.42592
nphpszhhh쎯	-7.42641
hhps2쎯	-7.42674
pnnpnzhpzn쎯	-7.42835
nhpsnszpz쎯	-7.43075
nhnphshszh쎯	-7.4333
zhzhz0쎯	-7.4381
pszhh0쎯	-7.4384
szhzph쎯	-7.44081
szpzh0쎯	-7.44372
nnhpn쎯	-7.44456
pnpn1쎯	-7.4446
hshzp2쎯	-7.44869
hhhshspnhszs247쎯	-7.45261
hshsh0쎯	-7.45588
phspnsz쎯	-7.45617
shhhz쎯	-7.45912
zp1쎯	-7.45952
nnnhszpzhh쎯	-7.46207
hhpnszpz쎯	-7.46249
pznszhsh0쎯	-7.46378
szhh3쎯	-7.47091
쎅	-7.47885
phnphnhshpzn0쎯	-7.4796
nhpsnhsh쎯pnhhzn쎯	-7.48082
hzhsnzn쎯	-7.4852
szhhh2쎯	-7.48531
phshpznzzn쎯	-7.48775
szsshhsszhhhh쎯	-7.48817
zzhszhpn0쎯	-7.48888
hphszhnznnznp쎯	-7.48963
pznsn쎯	-7.49017
pnzn0쎯	-7.49178
hzhhszn쎯	-7.4943
nnnszhhszssh쎯	-7.49434
znhpnppp쎯zpszh0쎯	-7.50382
pn3쎯	-7.50467
phhz2쎯	-7.51373
hhhshspnhszs153쎯	-7.51407
shhsszhpn쎯	-7.51561
nnnnzpzhspn쎯	-7.53014
zzsszhh0쎯	-7.53108
pnzzsz쎯	-7.53197
phhhzsnppzhh쎯	-7.53395
phsszhnzzn쎯	-7.53452
nnnhsh쎯	-7.53657
pnhhsh쎯szhhshnh쎯	-7.54001
pssphpnppp쎯	-7.54148
shhhz쎯nhszhzpn쎯	-7.5435
phhz0쎯	-7.5451
phhhshhh쎯	-7.54631
pnhhpn0쎯	-7.54934
nphhps쎯	-7.54979
nhzpphphhpn쎯	-7.55103
hsszhpz쎯	-7.55154
znszh0쎯	-7.55876
hsszhhhh0쎯	-7.56089
hzhz1쎯	-7.56133
hsszzhpzn쎯	-7.5631
hzhs0쎯	-7.56839
nhpnnph0쎯	-7.5687
nphhhpnps쎯	-7.57099
hsshhhzn0쎯	-7.57463
nnzpzhsh0쎯	-7.57534
pzzpn1쎯	-7.57776
hszpzhhzhz쎯	-7.57781
szhshnznn쎯	-7.57887
zpnzhh0쎯	-7.57892
hnzsnnpnhpszss쎯	-7.58136
hzhzhs0쎯ssnph쎯	-7.58314
hhshzznzpn쎯	-7.58605
hhpsnzn쎯ppshhz쎯	-7.5862
hszhspnnzzn쎯	-7.58753
snz쎯	-7.5883
hszhz1쎯shnpn쎯	-7.59252
szhhz1쎯	-7.59294
nhpsnhszhszhsh쎯	-7.59972
zzh5쎯	-7.6048
hszsn쎯	-7.60707
"	-7.6088
pszhhhp쎯	-7.61077
phnphnzhzsp쎯h쎯	-7.61239
hspnhsszhhhh쎯	-7.61292
nnzhznhsh쎯	-7.61376
szhhpzh쎯	-7.6156
zzhpnhnnph쎯	-7.62116
pphsnzzn쎯	-7.62422
ppzhnhzp0쎯	-7.62639
쎆	-7.62845
phzhznp쎯	-7.63437
nhppshzn쎯	-7.63558
.”	-7.63611
hhznnzzn쎯	-7.63713
nznpszhpz쎯	-7.63936
zsz0쎯	-7.63985
szhpnh쎯	-7.64308
,hpshsh쎯	-7.64727
npszsnphszhh쎯	-7.64748
nnn	-7.64821
snnhpnn쎯	-7.65019
hshzzpp쎯	-7.65584
pzszshpzpppn쎯	-7.65633
zzhhsh쎯	-7.65998
zzhpsnhhhsh0쎯	-7.66104
nhzznnnpnhs쎯	-7.66184
h쎯phspnszhs쎯	-7.66221
h쎯pns쎯	-7.66434
nhpzpnzn쎯	-7.66634
pnhszhzs0쎯	-7.67027
hhpz0쎯	-7.67082
szhspnphpnhshsh쎯	-7.67113
hhzn0쎯	-7.67185
hszhshszhzpzpn쎯	-7.6726
szpznnnh쎯	-7.67299
zphszh1쎯	-7.68074
hssz0쎯hspnn쎯	-7.68079
szszs0쎯pshzhpzn쎯	-7.6815
hsszh쎯	-7.6838
hsszhhhhpn0쎯	-7.68389
shhsnnnzz쎯	-7.68715
nhpshszh쎯	-7.69326
hzshnhpnpn쎯	-7.69354
hpzznp쎯nhnph쎯	-7.69362
hnphs쎯	-7.69567
szhs쎯nznn쎯	-7.69828
hshhszhhznp쎯	-7.70301
szhhphhsh0쎯	-7.70507
hzhnnzpzhsh쎯	-7.70839
쎁쎀	-7.70918
쎇	-7.71075
phhhzphhpn쎯	-7.71211
pszszh쎯	-7.71748
szhhpzpp1쎯	-7.72002
sznphhshnnnn쎯	-7.72033
hspnszhhhnznn쎯	-7.72036
쎈	-7.72132
szhshpn1쎯	-7.72237
hspnzhhzpn쎯	-7.72394
nnnszpnsz쎯	-7.72454
hznnpnn쎯	-7.72466
()	-7.72773
szh	-7.72848
zzhszhsh1쎯	-7.73133
hszh1쎯	-7.7334
nzpnpz쎯	-7.73593
nnznznnpszs쎯	-7.73961
hhshspnhszs123쎯	-7.74234
shhsszhhhs쎯	-7.74283
pspzszshpzpppn쎯	-7.74819
pshpzn2쎯	-7.74938
hhhshspnhszs197쎯	-7.75231
),	-7.75332
pnpn1쎯hszhzhhz0쎯	-7.75516
hh0쎯	-7.75657
》、《	-7.75743
shh쎯nnnphzznnh쎯	-7.75994
szhhs0쎯	-7.76183
zhzphzn쎯	-7.76215
nnzhhsshpnszpn쎯	-7.76856
hhps2쎯zpznn쎯	-7.76962
phhpnszh쎯	-7.77017
phszhhpzn쎯	-7.77707
pshsszhphpn쎯	-7.78013
pshz2쎯	-7.7809
nhzpphpn쎯	-7.78192
ssphnszssh쎯	-7.78201
pshszhpn쎯pzhhs0쎯	-7.78372
nzhsznnhpn쎯	-7.78501
hzhpzzn2쎯	-7.78613
hsszhphpn쎯	-7.78638
pzzpn0쎯	-7.78879
nnspznhpn쎯	-7.79152
hssnph쎯	-7.79251
hszpnn쎯pnhhzn쎯	-7.79364
znhznp쎯	-7.79547
hsszhhhspzhh쎯	-7.80107
nnzhszhszhsh쎯	-7.80536
pshzpszhhphs쎯	-7.80567
zsphpn쎯	-7.81221
nhzpphpzpn쎯	-7.81351
ssphnszsh쎯	-7.81581
znszpz쎯	-7.81642
nznhzppn쎯	-7.82011
shhspnnphspn쎯	-7.82029
znhpnppp쎯	-7.83007
zhphsszh쎯	-7.83045
nnzzzh0쎯	-7.83239
phnphnzhzsp쎯	-7.83497
hzhnhnph쎯	-7.83553
hshphz2쎯	-7.83717
hshzsz쎯hpnz0쎯	-7.83744
nphssnphszhh쎯	-7.8394
psphhs1쎯	-7.84254
hzhpnnpnzzn쎯	-7.84364
zhphsszhsz쎯	-7.84807
nhzp쎯	-7.84924
nhpsnhsh쎯	-7.84935
hzshpnhpzhhsz쎯	-7.84965
phnphnsnzszhh쎯	-7.85001
nhpzhhznnpn쎯	-7.85068
nnzpznszh쎯	-7.85214
szhssh0쎯	-7.85899
nzpzpn0쎯	-7.86066
ppshshhshhhz쎯	-7.86236
pznzp쎯	-7.86462
hspnpzzn1쎯	-7.86674
zhhpszhnphhhs1쎯	-7.86833
hshshpnzpszh쎯	-7.86837
nnphpn1쎯	-7.86862
nphzpn쎯,	-7.86961
hzshhhzn쎯	-7.87023
zzsnhzp쎯	-7.87052
nphzpnzpphs쎯	-7.87348
phnphnppzhszhss쎯	-7.87713
nnnhsshpnzhz0쎯	-7.87932
shshspphpszpn쎯	-7.88311
pzhshszh쎯	-7.88333
zzshhspn쎯	-7.88657
hsszs쎯	-7.88886
nnpnzzzh쎯phhsh1쎯	-7.88895
hshnpszsnphszhh쎯	-7.89099
hhhshspnhszs173쎯	-7.8915
,nphhps쎯	-7.89698
shnpn쎯pzzn3쎯	-7.89756
pszhshpzzn쎯	-7.89871
nnzpzpz0쎯	-7.89917
pszhhhnznn쎯	-7.90157
ppsszshpzphpn쎯	-7.9041
nhpspnzp쎯	-7.90442
shhsn쎯	-7.9051
nhhsh쎯pshhsh0쎯	-7.90901
hhshshzn1쎯	-7.91146
hpszs0쎯	-7.91332
pshszhpn쎯	-7.91408
nhnphszshpszss쎯	-7.92426
nzhhshzn쎯	-7.9245
hzhpzhhs쎯hppzhh쎯	-7.92662
hpsnnzzn쎯	-7.92819
hspnpnhnnph쎯	-7.93018
pzszhshh쎯	-7.93186
nzhshhzn쎯	-7.93253
hshhpszpn쎯	-7.93684
쎁쎂	-7.93724
szhszpn3쎯pnhhzn쎯	-7.93948
hshshpnhzznp쎯	-7.93966
szszhh0쎯	-7.94185
pszhhh0쎯zhz0쎯	-7.94535
shphpn쎯nhppshzn쎯	-7.94897
hhpzpn0쎯	-7.95
hzhpnphspnszhsh쎯	-7.95268
snzszh쎯	-7.95311
hsh2쎯ssnph쎯	-7.9536
szpnsz0쎯	-7.95407
shhpszpn쎯szhhh2쎯	-7.95756
zhphhzn쎯	-7.96029
pszssh0쎯	-7.96079
nhzpphzsz쎯	-7.96155
hsh1쎯	-7.96217
”.	-7.96317
hshphz3쎯	-7.96335
szhhssnph1쎯	-7.96395
pszhhhhszzn쎯	-7.96423
nphzpnpnzp쎯	-7.96986
nhpzhhsszh쎯	-7.9726
,shnpn쎯	-7.97477
zzhzhhznnpn0쎯	-7.9788
》:“	-7.97959
nzszhhhspn쎯	-7.98015
hshzn0쎯	-7.98123
phshpz쎯	-7.98211
nhpnnph0쎯pzhhs0쎯	-7.98258
ppszhhzpn쎯	-7.98419
hhhshspnhszs215쎯	-7.99021
nphhshnphszh쎯	-7.99193
zph쎯	-7.99346
hspn0쎯	-7.99377
hshnhnphszh쎯	-7.99613
zzhnnzhhspn1쎯	-7.99707
pszsz쎯	-7.99808
znzn3쎯	-8.00194
쎁쎅	-8.00714
szhhhspn1쎯	-8.00944
hpszzh쎯	-8.01028
zpnzzn쎯	-8.01394
zzhhhzpn쎯	-8.0142
phhhzzhhzpn쎯	-8.01555
pn2쎯.	-8.01576
pzznnzszhzh쎯	-8.01608
hshzshp쎯	-8.01649
hshhpzznp쎯nhszs쎯	-8.01682
szpz0쎯	-8.01772
nnnhsshszpnpn0쎯	-8.01844
hspnnphzpnzph쎯	-8.01861
hspnhpzn0쎯	-8.02097
hshnznn0쎯	-8.02151
psnhhhshszh쎯	-8.02168
pznhspn쎯	-8.02255
pn2쎯,	-8.02273
hzhpsnhhhsh쎯	-8.02556
hszhhpn쎯	-8.02891
szhzpsz쎯	-8.02906
hszn0쎯hzhhshhzn쎯	-8.03153
hhshszpz쎯pshzn1쎯	-8.03175
zzhz0쎯hzhphsszh쎯	-8.0323
nnzszhzh쎯	-8.0343
쎉	-8.03488
szhshshhszhh쎯	-8.03501
hsshszhhs쎯	-8.03588
phnphn	-8.03664
nhnphszhhhs쎯	-8.0375
nhszs쎯hshzzpp쎯	-8.04057
hpzznp쎯npzn0쎯	-8.04397
hzhhz0쎯	-8.04695
pspzzpn쎯	-8.04883
nnzhhshn쎯	-8.052
hzhphhhshhh쎯	-8.05443
～	-8.05957
szhhzpszhnnnn쎯	-8.06254
hspnphpnps쎯	-8.06293
pshsszhhhh쎯	-8.06305
hspnzzh1쎯	-8.06486
hspnnphhhs쎯	-8.06757
szhhhzp0쎯	-8.0689
pn2쎯zhzhz0쎯	-8.07153
hzhzshz쎯	-8.07226
phspnzph쎯pnhhzn쎯	-8.07446
nphpnszssh쎯	-8.0778
hspn	-8.07932
nppn쎯	-8.07958
nnzhpn0쎯	-8.07982
pspzhzh쎯	-8.08214
쎂쎀	-8.08782
hhzn1쎯	-8.08954
nzhzh쎯	-8.09025
hhshnh쎯zzshhspn쎯	-8.09089
hzhzszn쎯	-8.09141
ppszhhhhs쎯	-8.09145
zzshppzhhnzzn쎯	-8.09188
nnnnhpzpnzhz쎯	-8.09756
zhz1쎯	-8.09784
zzhhsznnhpn쎯	-8.09805
hssnzhspn쎯	-8.09937
zzspn쎯	-8.10004
nzpzpn0쎯ssnph쎯	-8.10261
nhhhszh0쎯	-8.10455
hshszhnphszh쎯	-8.10563
nhszhzpn쎯	-8.10837
pzpszhshn쎯	-8.10874
hzhhshhzn쎯	-8.10939
pzpzhsh쎯	-8.10991
szhsshpn쎯	-8.11396
szszhszpnh쎯	-8.11508
hzhszhhh1쎯	-8.1152
!	-8.1178
hhspn2쎯	-8.11858
hnzsnnpn	-8.11978
pspnps쎯	-8.12093
hzh	-8.12276
phnphnhszspn쎯	-8.12334
phhs0쎯	-8.12459
쎁쎁	-8.12483
nnnnpnsns쎯	-8.12507
nnnnhhsh쎯	-8.12525
nnpnzzzh쎯pnhhzn쎯	-8.12539
zhzpsszpn쎯	-8.128
pszhhhphzn쎯	-8.12909
nzhshsh쎯	-8.13099
hpnhszhz1쎯	-8.13237
hhhpnszhh쎯	-8.13536
pshszhhpn쎯	-8.13623
hshsnszssh쎯	-8.13988
nhpn1쎯	-8.14058
szhh3쎯hspnh0쎯	-8.14079
pzhhzszn쎯	-8.14274
szs1쎯hzzpn0쎯	-8.14324
hspnszhhh1쎯	-8.14418
쎁쎆	-8.14518
pnnphspnppp쎯	-8.14632
zhhznzs쎯	-8.14854
hpz0쎯	-8.1487
hszpzhhznpzpzn쎯	-8.14982
nnnsnppznn쎯	-8.14994
hsshpn쎯	-8.15135
zzhpzn0쎯	-8.15178
ppshhz쎯ssnph쎯	-8.15609
shshhz0쎯	-8.15657
nhp쎯	-8.15663
phhhzszpn2쎯	-8.16301
hhs쎯	-8.16621
hhznnzzn쎯hhznzp쎯	-8.16708
hpsn0쎯szhszh1쎯	-8.17158
zzshszhz0쎯	-8.17237
pzzhz0쎯	-8.17719
pn4쎯	-8.17776
nphhh쎯	-8.17857
szpnpn1쎯	-8.18665
hpzp쎯szhpn3쎯	-8.18672
nnzpznnznhhspn쎯	-8.18689
phhpnhszhnph쎯	-8.18826
szhshzp1쎯	-8.18956
nnzhhspn쎯	-8.1898
pznzszs쎯	-8.19074
zhhznnpn0쎯	-8.19207
shhsnnnpznszh쎯	-8.19877
hhhshspnhszs134쎯	-8.20204
szhs쎯pszhhpzn쎯	-8.20205
nnzpz1쎯	-8.20459
쎃쎀	-8.20459
pnn0쎯	-8.20505
pznzpszhsh쎯	-8.20677
pzszhshhnphhhs쎯	-8.20748
phhpszhhh쎯	-8.21116
pzhhs0쎯hhz1쎯	-8.2126
shpzn2쎯phspnpz2쎯	-8.21646
ps	-8.21867
nhppzhzh쎯	-8.21896
nsnzhpn쎯	-8.22017
phshpz쎯hhpsnzn쎯	-8.22184
szhs쎯nnpnzzzh쎯	-8.22194
szhhzsh쎯	-8.22374
zshz0쎯	-8.22617
pnzn0쎯szhhhsh1쎯,	-8.22665
nnpnzzzh쎯znn0쎯	-8.2278
nnnzpnp쎯	-8.22901
szhsh1쎯	-8.23165
).	-8.23188
hspnpnzn0쎯	-8.23212
nhzppnsz0쎯	-8.23515
pzszn쎯	-8.23609
pzznzpn쎯hpznsz쎯	-8.23874
phnphnzhzsp쎯hh0쎯	-8.24026
nnnnhpspznn쎯	-8.24056
hsshhhpn0쎯pszsz쎯	-8.24135
nppn	-8.24189
pzzphszs쎯	-8.24193
nhnph쎯	-8.24373
zpnp쎯	-8.24513
zhhnppn쎯	-8.24556
snzhsshhh쎯	-8.24623
zzhpnhszh쎯	-8.24679
szhsznphsszhshn쎯	-8.24813
nnzhssszpz쎯	-8.25049
nhpn2쎯nnpnzzzh쎯	-8.25124
phnphnphhz쎯	-8.25164
hhshnphhsh쎯	-8.25206
psphshh1쎯npzn0쎯	-8.2554
,psszhhh1쎯	-8.25736
hzhhzhz0쎯	-8.25855
nhszhzzhpznnnnn쎯	-8.25916
pnhhzn쎯szhszpn3쎯	-8.2592
hhps2쎯zphznszh쎯	-8.25963
szhszhhhsshpzpn쎯	-8.26047
szhszpn3쎯,	-8.2605
쎁쎈	-8.26352
pshhzs1쎯	-8.26375
szhpn1쎯	-8.26532
nnnhzhpphs쎯nnnhs	-8.26754
nnzhszhhh쎯	-8.27035
szpnpn0쎯zzhpzn	-8.27229
szszs0쎯phhsh1쎯	-8.27258
pns쎯	-8.27357
hsshpznnphpn쎯	-8.27387
nnnnphhhs쎯	-8.27464
hzhhsshhhznzn쎯	-8.27563
szhshpznszh0쎯	-8.27586
nhzp쎯hpszsshhh쎯	-8.27828
nnzzphhspn쎯	-8.2799
hpnshhhhzn쎯	-8.2806
szhhshnh쎯szpn1쎯	-8.28206
hphshn쎯	-8.28514
zpnn1쎯pnzn0쎯	-8.28655
snpnzszhhsh쎯	-8.28669
hpzn2쎯	-8.28682
pshhhpzzn쎯	-8.28865
nphzhhsspn쎯	-8.2911
zzshzzpn쎯	-8.29318
,npzn0쎯	-8.29391
nnnpzszn쎯	-8.29517
.hpshsh쎯	-8.29735
psszhhspn쎯szh	-8.29792
hhshzzph쎯	-8.30151
nhnpnzszs쎯	-8.30204
zzh	-8.30416
phnphnhshhzn쎯.	-8.30441
szhhhzhhzpn쎯	-8.30448
hpszhpzpzhsh쎯	-8.30456
——	-8.30552
zzspshzn쎯	-8.30692
pnnphspn쎯pzhhs0쎯	-8.30697
nzzhszh쎯	-8.30712
phhpnszhszhh쎯	-8.30808
hzshznhsh쎯	-8.30912
nnzhz0쎯	-8.30913
szhhhs0쎯	-8.30989
nhphspzhspz	-8.31194
znppnhszhnph쎯	-8.31289
hhpsppp0쎯hpzznp쎯	-8.31456
psphshh1쎯pzhhs0쎯	-8.31663
psnhpzpn1쎯	-8.31734
zzzzh쎯	-8.32067
nphhshhpn쎯hspnn쎯	-8.32364
hsh0쎯	-8.32444
szhpszszh쎯	-8.32797
szhpn3쎯	-8.32807
zzhpznnn쎯	-8.32815
szhs쎯szhpn4쎯	-8.32825
hshshhspnhszh쎯	-8.32828
hpszhh쎯	-8.32894
hpznpsnhhhsh0쎯	-8.32898
nnzzph쎯pnhhsh쎯	-8.33347
zphznszh쎯	-8.33422
ppznnhnhpz쎯	-8.33463
hspnzn쎯	-8.33677
zzspnhhspn쎯	-8.33855
nzzhz쎯	-8.34338
hz2쎯	-8.34477
szhsnzpznn쎯	-8.34533
%	-8.34666
hznhshpzn쎯	-8.34695
zhzs1쎯	-8.3471
shhspnhspn쎯	-8.34762
hzzp0쎯	-8.34816
쎁쎃	-8.34884
zpznn쎯hhshpzpn1쎯	-8.35025
zzspnhnnph쎯	-8.35243
ppsnhhsh쎯	-8.36379
hsznhszn쎯	-8.36537
zzhszpn1쎯	-8.36577
nhppnpnhsh쎯	-8.36591
pz2쎯	-8.36693
hpnnnznn쎯	-8.36728
hspnnhzppn쎯	-8.36772
pn2쎯szhszpn3쎯	-8.3683
nphhs0쎯	-8.36846
hp1쎯	-8.36994
npnsns쎯nhszs쎯	-8.37143
쎅쎀	-8.37167
phspnpznpzn쎯	-8.37239
psznphspnhpn쎯	-8.37333
nhphpn쎯	-8.37358
pzhh1쎯	-8.37396
szhsszhh쎯	-8.37785
hsszppn쎯	-8.37862
szhshszpnnzn쎯	-8.38021
nhnphp쎯ssnph쎯	-8.38101
nnnpppzpn쎯	-8.38517
hhpnszpz쎯hznpsz쎯	-8.38716
hhhshspnhszs235쎯	-8.38906
쎁쎇	-8.39032
hpnn0쎯	-8.39054
pznzh쎯	-8.39076
pshshpn0쎯	-8.39362
pszhzps쎯	-8.39535
phhhzszhszpn쎯	-8.39737
zpszh0쎯pn3쎯	-8.39755
nhzpznnphsh쎯	-8.39834
hsshhhpn0쎯szhs쎯	-8.39916
zhphz0쎯	-8.40032
szhs쎯hsshpn쎯	-8.40094
nzphsszh쎯	-8.40126
pszhhhhsh쎯	-8.40238
?	-8.40287
phhsh1쎯phshpzpp쎯	-8.40299
nnzpzhpnn쎯	-8.40349
zn2쎯	-8.40406
hszn0쎯	-8.40468
ppshshsh쎯	-8.40605
hzshnnzphshszh쎯	-8.4061
znpznzh쎯	-8.40619
pz0쎯	-8.40707
hhshn0쎯	-8.40736
nhpznzz쎯	-8.40839
pnhszh쎯psphshh1쎯	-8.40848
hpszhhzzh쎯	-8.40863
ppszhszshn쎯hhz1쎯	-8.40917
hsnzzznzpn쎯	-8.41163
sszshzznzpnphpn쎯	-8.41171
psnhhsh쎯	-8.4123
zhhpzzs쎯	-8.41258
hspznnzzn쎯	-8.41272
szshpszh0쎯	-8.41282
nnzpznszh쎯nzhp쎯	-8.41414
pnphspnznhhs쎯	-8.41555
”pszhhpzn쎯	-8.41568
nzpnpz쎯nhpn2쎯	-8.4168
nhpnsz쎯	-8.41696
szhhhshpn쎯h쎯	-8.41719
nnzhhpz쎯	-8.41869
,hsshhhpn0쎯	-8.41875
pnhznznn쎯	-8.41925
hsshhhznpspnpn쎯	-8.41986
nhzp쎯nnnhshzn쎯	-8.41994
pshzhpzn쎯	-8.42
”,	-8.42452
hshhzshznp쎯	-8.42626
nnnpzzn3쎯hppzhh쎯	-8.42777
zhpnphhps쎯	-8.43273
znzzhpszpn쎯	-8.43394
shshhzhh쎯	-8.43627
zhzhps쎯	-8.4381
hpszhhhpzn쎯	-8.4382
shpzhphszhszznp쎯	-8.43896
szhhhsshpnznnpn쎯	-8.4394
snpszszh쎯	-8.44218
nhp쎯hzzpn0쎯	-8.4426
szhshszpn0쎯	-8.44351
psshpszpn쎯	-8.44458
szhhz2쎯zzh0쎯	-8.44625
쎁쎄	-8.44653
nnphpnnhhhszh쎯	-8.44789
phnphnszhhhhps쎯	-8.44807
nnnzzpp쎯	-8.45206
zpnn1쎯	-8.45266
znhsh0쎯	-8.453
pz1쎯	-8.45414
pzhz0쎯	-8.45637
hnzsnnpnszhsh쎯	-8.45731
hsshpn쎯nhnphp쎯	-8.46485
hzhnnzzph쎯	-8.46551
shhhzpznn쎯	-8.46714
nphhshszssh쎯	-8.46725
phhsssshpznhzs쎯	-8.4675
phzhznp쎯pssnz쎯	-8.469
hzhshhsszhsh쎯	-8.47207
nzhp쎯	-8.47216
쎂쎅	-8.47245
hhzn1쎯hssznphhs쎯	-8.47273
nnnpnnpzznhpn쎯	-8.47383
shhsszphspnh쎯	-8.47576
szhhs2쎯	-8.47579
hphzphznp쎯	-8.47795
hzhphz0쎯	-8.4791
nzzpn1쎯	-8.48243
pshshhsh0쎯	-8.48317
nphhpnzz쎯	-8.48427
,hppzhh쎯	-8.48534
hpszhzzh1쎯	-8.48551
szhszhhszhh쎯	-8.48623
hpnzpzpn쎯	-8.48683
hhspn1쎯	-8.48782
hsszhpznn쎯	-8.48997
pss쎯	-8.49002
hssnphp쎯	-8.49059
,hsshhhpn0쎯szhs쎯	-8.49169
hzshpzpn쎯	-8.49235
phhz1쎯	-8.49265
zhpszhsh1쎯	-8.49505
쎄쎀	-8.49533
hzzppsnhhhsh쎯	-8.4956
pphs0쎯	-8.49586
shhzpnznszhhh쎯	-8.4963
szhhhshznzz쎯	-8.4974
153쎯nhzpphphhpn쎯	-8.49891
zszpn쎯hhshszpn0쎯	-8.49968
zshpnszhshn쎯	-8.50196
zzszhhzpn쎯	-8.50222
nnzszhszh쎯	-8.50321
phspnnznnp쎯	-8.50397
hzhnhpz쎯	-8.50488
—	-8.50957
hshhzn쎯	-8.51144
hshszh0쎯	-8.51186
zpn3쎯nnpnzzzh쎯	-8.51498
nnnhsh쎯hsszppn쎯	-8.51551
nphhpnnzzn쎯	-8.51652
nnpnzzzh쎯hspnn쎯	-8.51675
hzhnzpzhspn쎯	-8.51834
psszpnsz0쎯	-8.51888
hspnhhpsznp쎯	-8.51908
phhhz	-8.51964
zpn4쎯	-8.52383
pznnnhpnpn쎯	-8.52788
phspnnpszhpz쎯	-8.52849
nhphsh쎯	-8.5343
szpzh0쎯pss쎯	-8.53459
hpzznpszssh쎯	-8.53521
hpzshhpszpn쎯	-8.53533
phhspnhsshszhh쎯	-8.53574
nhpphshzzn쎯	-8.53584
nhpsnhsh쎯hpnz0쎯	-8.5364
nzhhps쎯	-8.53646
pznnpzzn1쎯	-8.53772
nhpn0쎯h쎯.	-8.54043
hszpnn쎯	-8.54069
pzszhshhszhh쎯	-8.54074
nnzpzpz0쎯phhsh1쎯	-8.54155
nhpsnszhhh0쎯	-8.54529
szhshn쎯	-8.54617
,szhshshhszhh쎯	-8.54933
hpszhnhp쎯	-8.55027
pphszh쎯,	-8.55123
ssznhsh쎯	-8.55174
hsh2쎯hssz0쎯	-8.55243
nhpnnphhpn쎯	-8.55319
zshpzpn쎯psphhs1쎯	-8.55797
zzhzzhpzpppn쎯	-8.55816
hzshszhhsshhh쎯	-8.55985
pnhhspn1쎯	-8.5613
쎆쎀	-8.56165
phspnnppn0쎯	-8.56247
hszhhshnnznn쎯	-8.56278
쎈쎀	-8.56339
hzhpszpn0쎯	-8.56347
nnphpnhhs쎯	-8.56559
hhhpnznnpn쎯	-8.5658
,nhpnnzzn쎯	-8.56867
psphzp쎯	-8.56914
nnnszhhszsshzn쎯	-8.56944
hpzhphszhszznp쎯	-8.5701
*	-8.57071
zzhnphspnz쎯	-8.5723
pnzp쎯hspnpphs0쎯	-8.57334
zhhhhszzn쎯nhnph쎯	-8.57419
pn2쎯zhzhz0쎯hsh	-8.57648
szpnhzp쎯	-8.5767
nzhs쎯	-8.57674
hszhzhhz0쎯ssnph쎯	-8.57818
nnnzpnnhspn쎯	-8.57927
nhpspnsn쎯	-8.57951
szhhhshpn쎯h쎯pns쎯	-8.58011
pznnphhsh쎯	-8.5809
hhshphhspn쎯	-8.58231
pnnphspn쎯	-8.58256
nsn	-8.58308
zzspzhh쎯	-8.58403
szhshn	-8.58435
zsh0쎯phhsh1쎯	-8.58583
hpszhhpszpn쎯	-8.58631
hpn1쎯hhpsszhsh쎯	-8.58723
pshz1쎯nnpnzzzh쎯	-8.59141
phhs2쎯	-8.59252
phhpn0쎯	-8.5931
szhs쎯,	-8.59387
hspnphzznnh쎯	-8.59393
zhpszhnhnphhs	-8.5946
nzszhshpzhh쎯	-8.59522
nnnszhhssnph쎯	-8.59641
zphzsz쎯	-8.59715
szspznhhhs1쎯	-8.59724
nnzhspn쎯	-8.59894
nnnpznszh0쎯	-8.59934
shshspp쎯	-8.5998
hszhsh0쎯	-8.59987
szhhhzn2쎯,	-8.60005
pnhhpn0쎯pzznzpn쎯	-8.60048
hhshszpz쎯hppzhh쎯	-8.60071
pszhhzzpn쎯	-8.60074
ppshshhzn쎯	-8.60082
znnznn쎯	-8.60325
zzhpznszh0쎯	-8.60519
szhszhszhhspn쎯	-8.60535
nnnphshpz쎯	-8.60645
hpzznp쎯szhszpn3쎯	-8.60722
szhs쎯nhpn2쎯	-8.60742
nhnphszhzzs쎯snz쎯	-8.60777
.《	-8.6082
hzhszhszhszh	-8.60842
nhzpphhsshhhpn쎯	-8.60842
hspnh0쎯hszsn쎯	-8.609
hhszs0쎯	-8.61045
×	-8.61206
phs0쎯	-8.61238
nzshh쎯	-8.61273
znpznnhzhz쎯zp1쎯	-8.61427
hspnhsshszhshpn쎯	-8.61518
hzhpzszhpn쎯	-8.61555
hsszhhhshhzs쎯	-8.61641
phshszhphhhshhh쎯	-8.61649
zsphpn쎯pn3쎯	-8.61738
hpznsz쎯	-8.6183
hhpnszh쎯nzszhpn쎯	-8.61859
szhhszhh0쎯	-8.61869
zhznpszhhhs쎯	-8.62006
h쎯ppznnhpzzn1쎯	-8.62113
”、“	-8.62262
pszhhh0쎯hhznzp쎯	-8.62353
hszsn쎯nnnhshzn쎯	-8.62389
hspnzzpp쎯	-8.62415
zpznn쎯phhsh1쎯	-8.62726
hshhshhzn쎯	-8.62726
pnhzszh쎯	-8.62732
zzhnhpn0쎯	-8.62844
shhsnzhhpzpppn쎯	-8.62846
hhshpzhhpzzhhz쎯	-8.63073
nhphzhs쎯	-8.63444
pshpznsz쎯	-8.63636
pshzszpn쎯	-8.63701
nnzszhhs쎯	-8.63843
hshhhspnpzpn쎯	-8.63867
,hpszss쎯	-8.6405
ssnph쎯pznzp쎯	-8.64089
szhphsh0쎯	-8.64303
pns쎯pn2쎯	-8.64382
pzhhs0쎯nzhp쎯	-8.64473
nhzp쎯hhshzn3쎯	-8.64678
psszhphhpn1쎯	-8.64817
hhhshspnhszs115쎯	-8.64858
zpzzn쎯pznszhsh0쎯	-8.64966
shhsszhhhpnszs쎯	-8.64994
nhpsnz0쎯	-8.65127
nhphspzhspz0쎯	-8.65134
hhhshspnhszs129쎯	-8.65445
nnnpzhspn0쎯	-8.65578
pnzzsz쎯psphshh1쎯	-8.65701
hszhnph쎯	-8.65838
nhnphszhhhsh1쎯	-8.65988
hs	-8.66008
zzspznhphhsh쎯	-8.66031
phspnpz2쎯	-8.66083
nnnnhhsh쎯szszh1쎯	-8.66239
pznzpszpn쎯	-8.66274
hshszhnphzpszh쎯	-8.6628
pnphspnszhsh	-8.66288
hssznphhshpnn쎯	-8.66535
pnhznzzs쎯	-8.66673
.nhpnnzzn쎯	-8.66674
nhpn0쎯snzszhh쎯	-8.66684
nnznszh쎯nhpnnzz쎯	-8.6688
nhnphhspn쎯	-8.67169
hppzhh쎯pnhhpn0쎯	-8.67175
hpszhszszs쎯	-8.67505
hshpzhh0쎯	-8.67506
hspnhspnhspn0쎯	-8.67758
nhhsh쎯pnn0쎯	-8.67766
nhpnpssz쎯	-8.67787
+	-8.67884
phnphnzhzsp쎯hhh쎯	-8.67889
hshzhpn1쎯	-8.67947
hspnshhzpnzn쎯	-8.67974
zzhz0쎯	-8.68076
hpszhhszhhpn쎯	-8.68134
pzzhhz쎯	-8.68164
hhspn0쎯	-8.68235
psnhhhshnnnn쎯	-8.68413
hssnphszhh쎯	-8.68636
hszsn쎯hszhshzs쎯	-8.68668
nphzsppzhhhsh쎯	-8.68746
nppnhzphpz쎯	-8.69007
hhshshzn1쎯sz	-8.69063
ppznnhpzszh1쎯	-8.69074
nzhshpszhh쎯	-8.69094
pzszhshh	-8.69207
zhhznnpn1쎯zh	-8.69433
쎂쎄	-8.69571
,hpsn0쎯	-8.69636
pnpnpn0쎯	-8.69651
psnhhhszh쎯pszhhh	-8.69901
nnzphshszh0쎯	-8.69934
phspnsz쎯pzhhs0쎯	-8.7004
hpszhpzszn쎯	-8.702
nphhshphsh쎯	-8.70227
hzshpnpz쎯	-8.70379
nnzszhhh쎯	-8.70441
nzhs쎯hznpsz쎯	-8.70457
szhszpn3쎯.	-8.70571
pznnpzzhz쎯	-8.70713
npzn0쎯nhhsh쎯	-8.70743
psshnpn쎯	-8.70753
pznnshhsszhhhpn쎯	-8.70775
pszhhpzn쎯h쎯pns쎯	-8.70917
pnpnszh0쎯	-8.71211
nzhs쎯phnphnszh	-8.71272
zpszh0쎯hsh2쎯	-8.71458
nnzpzhzzp0쎯	-8.71526
hhznzp쎯phshpzpp쎯	-8.71695
nhphspn쎯	-8.71708
hzhzpszh1쎯	-8.71768
zpn3쎯nznpszhpz쎯	-8.71794
nzhnphs쎯	-8.71806
hssssphnszssh쎯	-8.71837
szhhhpn0쎯	-8.71919
h쎯nnzhpzpppn쎯	-8.71959
nnnphhz쎯hzhs0쎯	-8.72126
phsphz쎯	-8.72315
nzhhzpn쎯	-8.7276
zzshshpzpzn쎯	-8.73057
ppzhpphs쎯hppzhh쎯	-8.73162
hhshszpz쎯hpshsh쎯	-8.73178
)、	-8.73407
nnnhszhz0쎯shhhz쎯	-8.7341
nhpn0쎯h쎯	-8.73582
nnnszhszh0쎯	-8.73598
phnphnhspnszhhh쎯	-8.73675
,szhshzp1쎯,	-8.73812
hhhshspnhszs128쎯	-8.73816
pnhpszs쎯	-8.73924
hs1쎯	-8.74004
pznpzn0쎯phhshs쎯	-8.74225
hhshszshpszss쎯	-8.74234
szszs0쎯hhshszpz쎯	-8.7451
pzszhpz쎯	-8.74694
phhsh1쎯hhz1쎯	-8.74949
zznnh쎯	-8.74989
nhpzpn0쎯	-8.7523
hsh2쎯psphshh1쎯,	-8.75715
pn2쎯szh0쎯	-8.75847
pzzpzpn쎯	-8.75951
nnpnhzn쎯	-8.76043
nhpnnhshsh쎯	-8.76195
pszhhp쎯	-8.76252
zszhphpnnhhhszh쎯	-8.76262
nnzpznszhhpszpn쎯	-8.76268
쎇pzhh1쎯	-8.76303
nphhpnzzs쎯	-8.76317
szhs쎯hphhpnz쎯	-8.76376
hnzsnnpnzhh쎯	-8.765
hspnnhzppn쎯nznn쎯	-8.76757
hsh1쎯nnpnzzzh쎯	-8.76992
shshhzzznzpn쎯	-8.77027
hpn1쎯pszhhpzn쎯	-8.77313
pn2쎯hzp0쎯	-8.77384
pnhhsh쎯hspnhzn0쎯	-8.77521
shhsphszhhhsh쎯	-8.77537
nhpspznn쎯	-8.7754
zzhzhz쎯	-8.77565
psszs쎯	-8.77571
hshzsz쎯nhzp쎯	-8.77601
psnzhshpszhh쎯	-8.77622
szszs0쎯phhsh1쎯,	-8.77813
zph	-8.77918
hpszh	-8.78011
.nznhzppn쎯	-8.78052
zznnhphpnzznzpn쎯	-8.78284
nnnpzzn2쎯	-8.78422
phzznnh쎯	-8.7845
nphzpnnhnph쎯	-8.7847
zzhzpn쎯	-8.78525
pznnnzzpn쎯	-8.78551
pnps쎯zzhzpszh0쎯	-8.78601
hszpnpn쎯pns쎯	-8.78644
nhpnps쎯	-8.78676
pszhzhnzzn쎯	-8.78774
zphhsshhhspn쎯	-8.78789
hhhps쎯hspnpz2쎯	-8.78809
hzhpszhh쎯	-8.78823
쎁쎀쎀	-8.78825
zzhpnhhzn쎯	-8.78952
phspnpznzzn쎯	-8.79086
zpszhhspn쎯	-8.79164
h쎯nnzhshpn0쎯	-8.79335
phspnzzh0쎯	-8.79343
pszhshhzhzn쎯	-8.79441
pnzn0쎯szhhhsh1쎯	-8.7947
zzhpzzshz쎯	-8.79548
pshh0쎯	-8.79697
nphhshnnnnhsh0쎯	-8.7991
zzhpzhz쎯	-8.79911
nhpnnzzn쎯pns쎯	-8.79993
hsshhh쎯	-8.8007
,szhsh2쎯	-8.80142
zzsnhnphszhhhs쎯	-8.80285
zhhzpnnzzn쎯	-8.8035
nnpnzszpz쎯	-8.80416
npzn0쎯“	-8.80419
ssznzznzpn쎯	-8.80471
zhpnnn쎯	-8.80567
phshpz쎯pphszh쎯	-8.80766
hzp0쎯	-8.80775
hhpn1쎯	-8.80924
쎃쎂	-8.80979
pnhzn쎯	-8.8098
pzszpn쎯	-8.80996
zhpphhz쎯	-8.81041
szhhpzhhszssh쎯	-8.81102
nhpzpn1쎯	-8.81161
zhz1쎯zzhznhsh쎯	-8.81169
nhp쎯npnsns쎯	-8.81199
nnzhhpz쎯hpzznp쎯	-8.81214
nppnszhpnh쎯	-8.81218
nnnpzszh0쎯	-8.8128
hphhpnz쎯nhpnnzz쎯	-8.81284
ssphnszpz쎯	-8.81428
hszsshhhspn쎯	-8.81488
hhshhhpz쎯	-8.81491
zhshszhpsnhhhsh쎯	-8.81512
hzshhpzhhsn쎯	-8.81621
nhpnn	-8.8167
nhnphp쎯phhsh1쎯	-8.81835
pszsz쎯pssnz쎯	-8.8187
pnhz0쎯	-8.81875
nnszhs쎯	-8.82197
,pshszhpn쎯	-8.82636
......	-8.8273
nhnphpppphpszpn쎯	-8.82792
hshshpn쎯	-8.82847
hspnhspnpzn0쎯	-8.82852
:“	-8.82892
nnzhhsshpnhsh쎯	-8.82896
zzspznhzs쎯	-8.83093
hshsh0쎯hhshzn3쎯	-8.8312
szhhhzn2쎯pshzn1쎯	-8.83189
pzzhhnznn쎯	-8.83195
hzhhppnn쎯	-8.83424
hsshz0쎯zzhzhz쎯	-8.83444
nhhsh쎯hzhhshhzn쎯	-8.83447
pz0쎯ppzhpphs쎯	-8.83676
pnzp쎯hpszs0쎯	-8.83691
hpznhz1쎯	-8.83692
hhps1쎯	-8.83729
pznnphszhhpzn쎯	-8.84072
hnzsnnpnhphhzpn쎯	-8.84388
npzhh쎯	-8.84486
pzpszhshn쎯nhnph쎯	-8.84514
szhhpzszhpz1쎯	-8.84581
pspnpz쎯	-8.84741
pz3쎯	-8.84857
nhszhnzpz쎯	-8.84866
hzhznhhs쎯	-8.84914
pzhhnhpnzs쎯	-8.8499
hspnzhhznhzpz쎯	-8.85118
nzhhpzhzn쎯	-8.85118
ppsznhsh쎯	-8.85137
hphz0쎯	-8.85197
nnzzph쎯pp	-8.85286
--	-8.85416
hsszzsnhnphp쎯	-8.8556
hzshszhsh쎯	-8.85766
hpzn1쎯	-8.85809
hzzpn0쎯shhhz쎯	-8.85932
hshzn1쎯	-8.85955
nnnnnzpnpnszh쎯	-8.86349
pshshzzn쎯	-8.86473
phhhzzhhhhszzn쎯	-8.8657
nnnhz2쎯	-8.86704
pspnpnszh0쎯	-8.86726
pnhhzn쎯nzpnn쎯	-8.86861
zzspzphhszs쎯	-8.86985
hhpn0쎯nnnzhhhhs쎯	-8.87019
nnnszhsnzpznn쎯	-8.8706
phzpnnhpzhhsszh쎯	-8.87108
shsh쎯	-8.87128
hszsnnpn쎯	-8.87198
phhpzzsszs쎯	-8.87206
nnpszhhnhzpphpn쎯	-8.8727
nzpzpn0쎯zhzhz0쎯	-8.87352
>	-8.87591
nzhnphs쎯npzn0쎯	-8.87725
nnnsnzhhsh쎯	-8.87924
hszsn쎯nzzhz쎯	-8.88007
nh	-8.88011
,hszhz1쎯	-8.88047
szhpnhnznn쎯	-8.88056
h쎯shshhzhh쎯	-8.88161
szspnhzn0쎯	-8.88228
zzhhzsz쎯	-8.88308
pznpzn0쎯hhpzpn0쎯	-8.88355
hshznzs쎯	-8.88385
shnpn쎯shh쎯	-8.88455
nppnnppn0쎯	-8.88551
hznnpnnphpn쎯	-8.88635
zzshhszs쎯	-8.88657
nppnhz쎯	-8.88733
hsh2쎯psphshh1쎯.	-8.88766
nnhsszhhhspzhh0쎯	-8.88797
zzhnnzpshpszhh쎯	-8.89039
shzn1쎯hhshpzpn1쎯	-8.89155
hspnsnpzhh쎯	-8.89411
hzhpznzp쎯	-8.89486
shszh1쎯hshzsz쎯	-8.89541
nnzhzn쎯	-8.89588
zpznn쎯hhshszpz쎯	-8.89592
pzzn0쎯	-8.89658
쎂쎂	-8.8978
phhhzhhznp쎯	-8.89786
pspzzpnnznn쎯	-8.8992
psszhhhhpn0쎯pzzp	-8.90035
nnnhsh쎯hszpzh쎯	-8.90126
shszh1쎯	-8.9046
nzhsshpszh쎯	-8.90576
zhszh1쎯	-8.90665
szs1쎯hszpzh쎯	-8.91199
shzphzssnph쎯	-8.91323
hspn쎯psphshh1쎯	-8.91326
phhspn0쎯	-8.91331
,npszsnphszhh쎯	-8.9137
nzszhpn쎯	-8.91455
pznh쎯	-8.91707
shhshsszh쎯	-8.91779
nnhphszhznp쎯	-8.91807
hnphs쎯znszh0쎯	-8.91854
szhpnhszh쎯	-8.9194
hpzznp쎯hshzp2쎯	-8.9201
쎃쎅	-8.92034
hsshhhspn쎯	-8.92035
hzphhpnznzshpn쎯	-8.9206
pzzh쎯	-8.92071
pszhhpzn쎯“	-8.92178
pzszhpznpzn쎯	-8.92192
szpn1쎯pznsn쎯	-8.923
nsnhpsn쎯	-8.92409
szshphhs1쎯	-8.92436
pn2쎯phshpzpp쎯	-8.92492
hspnhzn0쎯zhzhz0쎯	-8.9255
pnhhsnph0쎯h	-8.92675
nphszs쎯shhsnnnz	-8.92779
snpnzszhphhz쎯	-8.92788
hz0쎯	-8.92965
hszpzh쎯shhhz쎯	-8.93028
,zhhznzs쎯	-8.9335
nzhpzznp쎯	-8.93454
pzphshpnszhh쎯	-8.93472
hssnzzp쎯hhznzp쎯	-8.94014
pszhhpzn쎯zpznn쎯	-8.94144
nnnnzpz0쎯	-8.94192
hznhshsz쎯zz2쎯	-8.94232
sszhh쎯	-8.94233
hpzpppnnzzn쎯	-8.94616
pznnnpszhpz쎯	-8.94619
ppspnhhspn쎯	-8.94713
nhpnnznpzhhs쎯	-8.94763
쎄쎅	-8.9481
》szhhhshpn쎯	-8.95003
nnnhpzhhsnhzn쎯	-8.9504
쎂쎃	-8.95049
nhpn2쎯psphhs1쎯	-8.95119
nnnhsshpn쎯	-8.95165
pspzszhshhpnhhz쎯	-8.95244
pznhspn쎯psphhs1쎯	-8.9536
hzhhhspshzhh0쎯	-8.9554
쎁쎉	-8.95568
szsshhshpszhh쎯	-8.95626
nhnphszhpz쎯	-8.9563
pzpzhshszhshn쎯	-8.95809
nhzpphzshpn쎯	-8.95911
szhhszhhszhh0쎯	-8.9599
phhsh1쎯hpnnnznn쎯	-8.96345
szhpphs0쎯	-8.96385
pshszhz쎯	-8.96615
hhpsszhsh쎯:	-8.96668
szhshshpznszh쎯	-8.96681
nnnnzpzpn쎯	-8.96682
nphhhs쎯	-8.96793
hspnpnnzpn쎯	-8.9683
hzhpzn1쎯ppshhz쎯	-8.9684
zhhpszh쎯	-8.97103
zsh0쎯	-8.97156
hhhphzn0쎯	-8.97236
nnnhzshpphs쎯	-8.97265
nnnnppnnppn쎯	-8.97328
.npszsnphszhh쎯	-8.97414
쎇쎀	-8.97477
phhhzhsshszhh쎯	-8.97853
psszhhh1쎯	-8.97886
쎈pzhh1쎯	-8.97935
hsshnphspn쎯	-8.98018
nhpnnzz쎯	-8.98131
psszhshpn쎯	-8.98235
szpnpzzn쎯	-8.98307
hhssz쎯	-8.98326
쎁.	-8.98398
shpznzn	-8.98408
hzhpphs1쎯	-8.9886
,szhhhsshhhzn0쎯	-8.98868
pnzp쎯zzh0쎯	-8.98877
pnpnhsh쎯	-8.99076
nhpspnszhhpzpnz쎯	-8.99094
hshshpnpn0쎯	-8.99108
pznszh1쎯.	-8.99117
hhshpzn3쎯	-8.99159
쎉pzhh1쎯	-8.99166
hhhpnphspn쎯	-8.99179
phhhzszhszh쎯	-8.99275
shhsszhpn쎯nhpn2쎯	-8.99356
zzpn0쎯hnphs쎯	-8.99367
,zphszh1쎯	-8.9948
pnhhspnnzzn쎯	-8.99501
hppszhhzpnnznn쎯	-8.99617
shhsp	-8.99776
쎂쎆	-8.99818
hsshszhhszp쎯	-8.99963
nhp쎯nnnpnhpn쎯	-9.00072
hhhznhnphszhhpz쎯	-9.00253
hshpszhhnnnn쎯	-9.00354
phsnzzn쎯	-9.00449
zpnhpn쎯	-9.00481
hnzsnnpnpnhzn쎯	-9.00511
~	-9.0052
hhs쎯nhnphszhzzs쎯	-9.00687
hssz0쎯	-9.01016
hzhshnpn쎯	-9.01044
pznnhshznzs쎯	-9.01065
npszhshhszh쎯	-9.01091
zzshszhsznphs쎯	-9.01113
szhshshhhznp쎯	-9.01138
,psnhnph쎯hhz1쎯	-9.01189
zhhhhszzn쎯hhz1쎯	-9.01272
zsz0쎯szhhhshpn쎯	-9.01356
n0쎯nhnphszhzzs쎯	-9.01484
hzhpphsszh쎯	-9.01507
szhshzzs0쎯	-9.01532
129쎯hshnznn0쎯	-9.0165
nnzhhsshpnnn쎯	-9.01805
szpznnnh쎯hszsn쎯	-9.01887
h쎯hsszhhhh0쎯	-9.01927
nhphsshszs쎯	-9.01938
hhhshspnhszs104쎯	-9.01968
hshshpnhsshhhzn쎯	-9.01982
nphzpn쎯.	-9.0208
szhs쎯sz	-9.022
hpzp쎯	-9.02263
szhszpn3쎯、	-9.02275
pnhnnphsz쎯	-9.02282
shhspzppnnznn쎯	-9.02551
shhsszhhhpnhsh쎯	-9.02658
shzphzpz쎯	-9.02701
pszhhpzn쎯p	-9.02708
pznn	-9.02737
hpznhsszhhhh쎯	-9.02874
hspnhshhsh쎯	-9.02943
hphspzhspzhpszh쎯	-9.03357
nzhhzpn쎯zphzzh0쎯	-9.03408
zzsszhh0쎯nhszs쎯	-9.03539
nhppshznszpnpn쎯	-9.03585
pnnpzzhz1쎯	-9.03646
nnnszhhhzhz쎯	-9.03656
sznphhpnzzh쎯	-9.03743
pn2쎯pssnz쎯	-9.03861
znhpnppp쎯hszh0쎯	-9.03971
hspnnhhsh쎯	-9.04
pzzshz쎯,	-9.04034
,pszsz쎯	-9.04059
쎂.	-9.04084
zhphznhsh쎯	-9.04142
hhsh	-9.04156
hhpsnzn쎯pn3쎯	-9.04164
szhhz2쎯nhpsnsz	-9.04253
nhzppnnn쎯	-9.04255
nhpn0쎯h쎯,	-9.04322
szhphz0쎯	-9.04402
h쎯hhpzpn0쎯	-9.04544
pznnn0쎯	-9.04544
npzn0쎯zz2쎯	-9.04617
phnphnpshzn0쎯	-9.04638
hshphpn1쎯	-9.04687
,nnzpz1쎯	-9.04756
nhpszhsh0쎯	-9.04816
nnpnzzzh쎯hpzp쎯	-9.04872
szhhszshnnzzn쎯	-9.04896
hhhpnhhs쎯	-9.05137
pszhhpzn쎯n	-9.05154
pzzn3쎯hsshhhpn0쎯	-9.05243
쎁pns쎯	-9.053
hnhnphszh쎯nzpss쎯	-9.05365
nnzzpn쎯	-9.05374
》,	-9.0539
hssnphnznn쎯	-9.05433
szhzs1쎯	-9.05565
hznpsz쎯	-9.0568
쎁쎂pzhh1쎯	-9.05846
pz	-9.05857
pshspn쎯	-9.05888
hphsh1쎯	-9.05889
phhhzpszhhszs쎯	-9.0595
쎉쎀	-9.05996
hznpz쎯	-9.06015
쎂쎈	-9.06177
hzhszhszpn쎯	-9.06197
=	-9.06452
pspszhh쎯	-9.06526
hpznphhspn쎯	-9.06678
phshpz쎯phhsh1쎯	-9.06851
,znhzn0쎯	-9.06905
zhhznhzpz쎯	-9.07146
hshszpn2쎯	-9.07199
nzszh쎯	-9.0733
쎃.	-9.07446
hspnhszn쎯	-9.07721
hshnhpzhhsszh쎯	-9.07737
szhhszsshzn쎯	-9.07843
nphhshzph쎯	-9.07955
hszhshszhz쎯	-9.07956
psnhszhnzhz쎯	-9.07991
hpszhnphzznzzn쎯	-9.08044
pshsshszhh쎯	-9.08218
pzn1쎯	-9.08286
pn2쎯pszhhpzn쎯	-9.08481
nhpn2쎯szhhpzhh2쎯	-9.08522
hnphszhh쎯pzzpn0쎯	-9.087
nppnhsshhhspn쎯	-9.08736
nnhs쎯	-9.0874
nnnpzzhz쎯	-9.08852
hsshh쎯	-9.09297
nphszpzhhhzn쎯	-9.09333
nnpzzhhz쎯	-9.09395
ph	-9.09453
nphzpnnzhhzpn쎯	-9.09593
pnzn0쎯szhhpzh쎯	-9.09794
pnzp쎯szhzpsz쎯	-9.09808
shhsszhhhpn0쎯	-9.09809
nppnzpnp쎯	-9.09868
shhshpszh쎯	-9.09929
nsnszhhszsshzn쎯	-9.10002
hhshpnppp쎯	-9.10054
hpznsznhpzpn쎯	-9.10114
phhhzszhs쎯	-9.10242
》(	-9.10275
znpzpn쎯	-9.10314
》phnphnhshhzn쎯	-9.1037
,hsszhphpn쎯	-9.1045
nnnhhhznp0쎯	-9.1047
pznnhhs쎯	-9.10484
szhszhsnznn쎯	-9.1053
pnzp쎯npzn0쎯	-9.10708
pnhhsszh쎯	-9.10812
nhzpphpn쎯pn3쎯	-9.10828
hsshpn쎯szhszh1쎯	-9.10961
ppznn쎯	-9.11294
hspnhpsn쎯	-9.11343
nnnhshszh쎯	-9.11361
’	-9.11452
hsh0쎯hshzsz쎯	-9.1147
nz	-9.11522
nzphhs쎯pznpzn0쎯	-9.11587
nnnhhpnhhpnszhh쎯	-9.11621
snznpszhpz쎯	-9.11844
szhsh2쎯hhz1쎯	-9.11992
쎂쎁	-9.12059
hzhhzhhshpn쎯	-9.12524
hshszhnphhszn쎯	-9.12755
h쎯nhnphszhzzs쎯	-9.12761
zp0쎯	-9.12802
pnhhzn쎯nzhs쎯	-9.12849
,szhszh1쎯	-9.12861
hssnzzp쎯	-9.12886
hpznhhhznp쎯	-9.12896
.hsshhhpn0쎯	-9.12987
nzpszhhhphzn쎯	-9.13048
hhshszpn0쎯	-9.131
hspnpzpzs쎯	-9.13181
hspnpz2쎯pnhhpn0쎯	-9.13198
szszs0쎯zz2쎯	-9.13238
nnnshhsszhs	-9.13245
,p	-9.13285
phhznphhhs쎯	-9.13301
nnnhpzhhsn쎯	-9.13383
,szhhhhpn1쎯	-9.13504
nzpss쎯	-9.13508
nzzn쎯	-9.13542
nsnznhsh쎯	-9.13599
zzspzzhhnznn쎯	-9.13612
szhh	-9.13639
h쎯hshshpnzhz0쎯	-9.13696
hhsszhnhnphhs0쎯	-9.13742
zzhhhshszpn쎯	-9.13836
szhshsh	-9.13871
nnpszpnphzpnhpn쎯	-9.13898
hsszh쎯pshzn1쎯	-9.13986
쎃쎆	-9.14103
phzznnhphpn쎯	-9.14139
,snnpnnphzn쎯	-9.14139
nphzpnnzzn쎯	-9.14141
hsshszhhs쎯pnhszh	-9.14239
zzshszpn0쎯	-9.14357
h쎯zpnpszhhh쎯	-9.14466
nhszs쎯hshshphpn쎯	-9.1451
쎁쎀pzhh1쎯	-9.14615
zpznn쎯ppshhz쎯	-9.14895
hpsnnzzn쎯hppzhh쎯	-9.1492
쎂쎇	-9.14996
pznnzshz쎯	-9.15067
hzzp1쎯	-9.15306
nhzp쎯nnzzphhspn쎯	-9.15341
shhhz쎯zpnpszhhh쎯	-9.15341
nnzpshpszhh쎯	-9.1538
쎄쎈	-9.15448
zpnszh쎯nzpzszhh쎯	-9.15468
'	-9.15564
쎂쎀쎁쎀phhshs쎯	-9.15832
hshhsnphszszhh쎯	-9.15859
hpszh0쎯	-9.16172
shhszzzpnhnnnn쎯	-9.16175
zzsnnzhhpz쎯phzn쎯	-9.16358
pszn0쎯	-9.16397
hnphhsnpnhnphhs쎯	-9.1641
ppsphhshzzs쎯	-9.16438
phhhzsnpszpn쎯	-9.16564
nhp쎯hszpzh쎯	-9.16596
szhhnhnphszhh쎯	-9.16613
zphphhsh쎯	-9.16618
hpznsznnnn쎯	-9.16656
zphzznnh쎯	-9.16728
hhshhhshpnhz쎯	-9.16781
hsshszhhhshzp쎯	-9.16805
pszhhhs쎯psnhnph쎯	-9.16833
pzhhzzpp쎯	-9.16993
hpszzh쎯hpshsh쎯	-9.17138
nnnnzpz1쎯	-9.17179
nnnzsz쎯	-9.17264
hzhhphhzpn쎯	-9.17281
,szhs쎯szhhshnh쎯	-9.1742
pzhpzz0쎯	-9.17484
hpnppn0쎯	-9.17564
nhpzpnnzzn쎯	-9.17605
hpszhpszhhphs쎯	-9.17937
nhszhzzh쎯	-9.18012
szpn4쎯	-9.1802
hshzsz쎯szpznnnh쎯	-9.18127
쎀	-9.18442
szhshnzzn0쎯	-9.18473
.쎄	-9.18651
pnzp쎯nphzpnhpn0쎯	-9.1868
nnszhpz쎯	-9.18734
hznhsh쎯pnhz0쎯	-9.18777
hshshsh쎯	-9.1878
sshppsphszhhpzn쎯	-9.18808
hnphs쎯hshpzhh0쎯	-9.18887
shhszhshhszhshh쎯	-9.189
hspnnhpz쎯npnsns쎯	-9.18942
zphpzhzszhh쎯	-9.18956
pnzzsz쎯zpnn1쎯	-9.18985
nnnshshspp쎯	-9.1899
zhzh	-9.18996
shh쎯pszhhpzn쎯	-9.19108
,nhpspnpzszn쎯	-9.1911
zzhnhhsh쎯	-9.19132
nnnzhphz쎯	-9.19255
shhsszhsh2쎯	-9.19285
szhnzzn쎯	-9.19378
nnnnzhhzpn쎯	-9.19387
zzhphs쎯	-9.19456
nnnhszhzpn쎯	-9.1954
nnnznhhs쎯	-9.19557
shshpnzs쎯	-9.19576
szs	-9.19675
shhspshszhz쎯	-9.19907
hhhshspnhszs113쎯	-9.2009
zznzp1쎯pz2쎯	-9.20198
pnhhpn0쎯hhz1쎯	-9.20285
pspnn쎯	-9.20661
nznnp쎯	-9.20841
phhhzhs쎯	-9.20922
z쎯hpn1쎯nnpnzzzh쎯	-9.21019
h쎯zzhpzzn쎯	-9.21054
쎃쎃	-9.21104
psszhhspnhsh쎯	-9.21193
hspnhsh0쎯	-9.21223
nznppnnppn쎯	-9.21334
szpnsz1쎯	-9.21424
hhznnzzn쎯ppshhz쎯	-9.21492
pnzn0쎯szhhhsh1쎯.	-9.21519
nnspznhszpzhh쎯	-9.21544
hhshszhhhsh쎯、	-9.21757
,hszh0쎯	-9.22004
znn0쎯	-9.22065
pshznhshsz쎯	-9.22163
hsh1쎯phhsh1쎯	-9.22223
szhshpznn0쎯	-9.22307
szhpsnhhhsh0쎯h쎯	-9.22482
pssnz쎯	-9.22583
phsshhhzpn쎯	-9.22589
hpszsshzn쎯	-9.2261
zzspnps쎯	-9.22662
,zsz0쎯	-9.22737
hsshhhszhshhz쎯	-9.22814
hspnphhspn쎯	-9.22912
pzpnzsn쎯	-9.22973
pnpn2쎯	-9.23043
nhszhnzhz쎯	-9.23053
hshzsz쎯pznpn쎯	-9.23136
hpszpn쎯	-9.23445
°	-9.23463
hshpszhh쎯,	-9.23492
phhhzszhhpzpp쎯	-9.23546
hzhzpszhh쎯	-9.23582
pn2쎯nphzpnhpn0쎯	-9.23598
pznszh1쎯npzn0쎯	-9.23806
nzpnppp쎯	-9.23811
szpnshszh쎯	-9.23847
0쎯	-9.23966
.nnzpz1쎯	-9.23981
hspnhspnzshpn쎯	-9.24148
zznzn0쎯nnzhz0쎯	-9.24406
,hhshszpz쎯	-9.24654
hsshzhsnzn쎯	-9.24785
hshpzpn1쎯	-9.24909
nnnpnhhspn0쎯	-9.25165
nzphhs쎯	-9.25175
쎯zpnpszhhh쎯	-9.25389
hhsszhhsshh쎯	-9.25462
.pszsz쎯	-9.25468
szhszpn3쎯hsh2쎯	-9.2553
nznphssnphszhh쎯	-9.25534
hzhpsnhhhsh쎯nhp쎯	-9.25691
hshzsz쎯nhnphp쎯	-9.25761
snpnzszhszpn쎯	-9.26018
쎂쎀쎀쎇phhshs쎯	-9.26091
h쎯ppzhpphs쎯	-9.26532
zshshhznpsz쎯	-9.26556
hsh	-9.26593
nhzp쎯pszszh쎯	-9.26639
-쎁	-9.26693
szhhz2쎯nnnzsz쎯	-9.26862
.pnzn0쎯zhszh1쎯	-9.26874
szhhh0쎯	-9.2689
nhp쎯phshszh0쎯	-9.26909
szhhshnh쎯zhzhz0쎯	-9.26985
hzhpzn1쎯	-9.26995
,nhszhzpnhpzn쎯	-9.27032
hhpsppp0쎯,	-9.27155
쎂쎀쎀쎆phhshs쎯	-9.27208
쎂쎀쎀쎈phhshs쎯	-9.27229
szhpnh쎯npzn0쎯	-9.27313
nhpnpnphpn쎯zp1쎯	-9.27565
hzszhpszpn쎯	-9.27625
쎀.	-9.27633
szhshshhpnhhz쎯	-9.2767
nhp쎯hpn1쎯	-9.27697
h쎯pshspnh0쎯	-9.27765
hhpsnzn쎯shshspp쎯	-9.27804
hs1쎯pnzp쎯	-9.27825
hzhhshhsh쎯	-9.27863
pshsh0쎯	-9.27876
zzhnhzppn0쎯zzh0쎯	-9.27927
hzhzhphznhsh쎯	-9.2806
nnzhhpz쎯pnhhsh쎯	-9.28091
pnpnhsh쎯shhsn	-9.28268
182쎯nnzhshpn0쎯	-9.28308
phsshhshh쎯	-9.2833
hphpszhhhpzn쎯	-9.28362
,pnpn1쎯	-9.28388
szsnnzhhspn0쎯	-9.28479
nphzpnszhhh쎯	-9.28599
hhssnph1쎯hhspn2쎯	-9.28705
hznhshpzn쎯zp1쎯	-9.28712
szhszhszh0쎯.	-9.28715
pnhhsszhznzz쎯	-9.28831
ppsszhhhhzn쎯zz2쎯	-9.28956
hszspnsz쎯	-9.29025
nhszhszszh쎯szhs쎯	-9.29086
nhpsnnphhhs쎯	-9.29123
ppzhszhssnzzn쎯	-9.2916
zzhhzzpn쎯	-9.29198
.쎃	-9.29414
phhspnhhps쎯	-9.29433
pzszh0쎯	-9.29523
hspnpnzz쎯	-9.29561
hzhnhp쎯	-9.29665
ssznpzhh쎯	-9.29754
쎆pzhh1쎯	-9.29881
zpnp쎯phhshs쎯	-9.29891
nphhssz쎯	-9.29991
pnps쎯	-9.30053
zzshnphpn쎯hszpzh	-9.30114
hpszhnhpnpnhs쎯	-9.30121
zhphsshpnpzzn쎯	-9.3014
pznnpzpnzs쎯	-9.30208
hshhpzznp쎯hpnz0쎯	-9.30211
pszsz쎯pszhhpzn쎯	-9.30274
szhhh2쎯pszhhpzn쎯	-9.30307
zpnzhh0쎯pshzn1쎯	-9.30317
hpzznp쎯pszhhpzn쎯	-9.30381
hszsn쎯nzzhz쎯、	-9.30384
hpszhzpnp쎯	-9.304
nzhhshpzhh쎯	-9.30431
hsshhhpzz쎯	-9.30459
pspnzp쎯	-9.30539
hspnnnnn쎯	-9.30688
쎇쎅	-9.30697
쎃pzhh1쎯	-9.3073
h쎯hshhhspnpzpn쎯	-9.30851
nnzhhsshpnhspn쎯	-9.30857
shszhhhs쎯	-9.30894
shnpn쎯hnphspn쎯	-9.30942
szpn1쎯hpszzh쎯	-9.30987
hhhshspnhszs116쎯	-9.31123
nnnnnzpshshpn쎯	-9.31126
nzznhhs쎯	-9.31167
pznsn쎯phspnnnhs쎯	-9.31216
hhpzpnhshzn쎯	-9.31244
hsznnhpn쎯	-9.31371
hpz0쎯hnphs쎯nhzp쎯	-9.31411
pszhphhpn쎯	-9.31651
znzzphspn쎯	-9.31664
hshzsz쎯pphsszpn쎯	-9.31706
phhszszhpn쎯	-9.31709
hshnzhpz쎯	-9.31731
nnznnhpn쎯pzhhs0쎯	-9.31761
ppzhpphs쎯hpshsh쎯	-9.31783
쎂쎀쎀쎉phhshs쎯	-9.31802
hshnszhshzznzpn쎯	-9.31851
phnphnphpn쎯	-9.31871
쎆쎄	-9.3189
hpsn0쎯hszhz1쎯	-9.32116
hhshnhpnhhsh쎯	-9.32285
szhpzzn0쎯	-9.32356
phhpzzs쎯	-9.32555
phsszhphpn쎯	-9.32629
nnnznszh쎯hpnz0쎯	-9.32675
hhpssz1쎯	-9.32765
hhznzp쎯zp1쎯	-9.3281
szs1쎯hpnz0쎯	-9.32821
zhpszhnhnphhshs	-9.32825
zhzhz0쎯snzszhh쎯	-9.32858
szhzshz0쎯	-9.33122
nhzp쎯pshszhhpn쎯	-9.33224
zhznnzhznn쎯	-9.33236
hzhzzpp쎯	-9.33284
nhpzpnzn쎯pshz1쎯	-9.33309
phspnpnnppshzhh쎯	-9.33422
hszhspnpzszpn쎯	-9.33598
shshpnzspnnzn쎯	-9.33605
nphzpn	-9.33814
hsznznnznn쎯	-9.3387
쎃쎈	-9.33873
hszhsnz	-9.33892
zhphsszh쎯zhzhz0쎯	-9.33901
.hhshszpz쎯	-9.33952
nhpn2쎯phshpzpp쎯	-9.3397
nnzhznhsh쎯、	-9.34003
nhnphhshszhspn쎯	-9.34029
nzhsshhhspn쎯	-9.34043
phspnzph	-9.34085
hzhzhzzhzhsshpn쎯	-9.34103
nzpn0쎯npzn0쎯	-9.34105
nsnhszhhh쎯	-9.3412
nnnpnnpzzh쎯	-9.34228
hphsh1쎯hpszh0쎯	-9.34367
hspnpz2쎯hshzzpp쎯	-9.3449
、sz	-9.34505
nnnpsnhhhsh쎯	-9.34581
pszhh0쎯pzzshz쎯	-9.34807
nzhhznpzhh쎯	-9.34826
hszhsz0쎯	-9.34898
쎅쎀쎀	-9.34939
hshszhhh1쎯	-9.34957
nhnpnznhzp쎯	-9.3513
nppnpzzhz쎯	-9.35144
nhnphhs1쎯	-9.35145
snphpznzhzhs쎯	-9.3519
phspnsz쎯hssnph쎯	-9.35229
쎂쎀쎀	-9.3523
phhz0쎯hspnpz2쎯	-9.35349
hshpzszn쎯	-9.35402
hshznphhpn쎯	-9.35617
phspnpzppnznnpn쎯	-9.35748
nhhsh쎯pshhsh0쎯、	-9.35796
szhsnznn쎯	-9.35914
hzhpnnpnzzn쎯,	-9.35991
psnhnph쎯.	-9.36019
szhhhspnhpszpn쎯	-9.36087
nnnzhhhhs쎯	-9.36097
zphzhh쎯	-9.36103
szszs0쎯pszhhpzn쎯	-9.36155
.쎇	-9.36233
쎄쎀쎀	-9.36252
pshz1쎯hsh2쎯	-9.36513
hzhhszn쎯h	-9.36882
,zhppszhszshn쎯	-9.36902
hszpzh쎯nnzzph쎯	-9.3691
쎅쎆	-9.37033
zsphpn쎯shh	-9.37135
psppzhszhss쎯	-9.373
nnnnnzhshpn쎯	-9.37317
nzpnn쎯	-9.37319
nhszhnzhpzpppn쎯	-9.37429
nzpzzn쎯hppzhh쎯	-9.37456
hpn1쎯zpn3쎯	-9.37491
hpn1쎯zzshhszs쎯	-9.37495
쎁쎁pzhh1쎯	-9.37661
pspz2쎯	-9.37719
ppshhz쎯npzn0쎯	-9.37725
nppnppzh쎯	-9.37784
hnphspn쎯pszhhh0쎯	-9.37963
pnhszh쎯nsnphhsh쎯	-9.38002
phspnpzzpn쎯:	-9.38027
zznnpnzs쎯	-9.38102
hzhhznp0쎯	-9.38212
phhphhhhs쎯	-9.38243
nzhhznzzs쎯	-9.3827
》.	-9.38315
nppnphshh쎯	-9.38355
ssznszpn쎯	-9.38424
pnpnszhpzpn쎯	-9.38438
hszhshhsshpnznp쎯	-9.38585
szshszhszhsh쎯	-9.38605
nhzpphzsz쎯hsh2쎯	-9.38918
zzhpnpn0쎯	-9.38967
nzpn0쎯nzhshsh쎯	-9.3904
쎃쎄	-9.39178
247쎯nnnhsh쎯	-9.39187
nhszs쎯phspnzph쎯	-9.39221
phhhzhpzhhsn쎯	-9.39228
nppnhzzpn쎯	-9.3924
zphszhhhpn1쎯p	-9.39263
쎂쎉	-9.3936
쎅pzhh1쎯	-9.39369
phspnzn0쎯	-9.39393
hhhpnhhpn쎯	-9.39467
zphszh1쎯pshszhz쎯	-9.39485
pszhhh0쎯szhsh2쎯	-9.39551
쎂쎀쎀쎅phhshs쎯	-9.39746
szszs0쎯szh0쎯	-9.39755
hhhshhhszhhnznn쎯	-9.39835
phhsh1쎯phzn쎯	-9.39934
hszhsshszhh쎯	-9.39945
쎅쎅	-9.39955
&	-9.39974
nphzpnpznhzs쎯	-9.40056
pzn3쎯	-9.40061
쎆쎅	-9.40102
ppzhszh쎯	-9.40165
phnphnpnhnnph쎯	-9.40209
nnnhs쎯	-9.40224
sshszhshhhznnnn쎯	-9.40241
shhspn1쎯	-9.40272
.쎈	-9.4037
nhzzn쎯	-9.40418
nnnhspnszhhh1쎯	-9.40498
szhhhzshpshsz쎯	-9.40667
hszhspn쎯	-9.40795
pshpnn1쎯	-9.40924
znznznhspn1쎯	-9.4109
′	-9.41232
pnshsh쎯ssnph쎯.	-9.41243
zhhznnpn1쎯	-9.41303
nhszhnzphhz쎯	-9.41339
nnnnhpnznpzpn쎯	-9.41385
,zsz0쎯szhhhshpn쎯	-9.41635
szhpnphz0쎯	-9.41887
hsh2쎯szhhhhpn1쎯	-9.42062
nphzpnnnhs쎯:	-9.42081
shhspzszhphpn쎯	-9.42158
hhsh1쎯nnnphsszh쎯	-9.42251
snzszhshn쎯	-9.42452
.쎆	-9.4255
phsszhz쎯	-9.42679
,shhspzphpnn쎯	-9.42756
pshzhhzhhzhhz쎯	-9.42763
shhsznhsh쎯	-9.42945
zn2쎯phspnpzzpn쎯	-9.43044
쎂쎀쎀쎀	-9.43118
hshnphhs1쎯	-9.43178
ppspphsszhhh쎯	-9.43185
szhshshzhhzpn쎯	-9.43223
nphzpnshszh쎯	-9.43238
.쎅	-9.43298
nhhsh쎯pshhsh0쎯,	-9.43318
nnzpzpszppnh쎯	-9.43325
nnzhpnhszhz쎯	-9.43329
pnpnpn0쎯pznpzn0쎯	-9.43354
zzhnhznpz쎯nzhs쎯	-9.43354
hpn1쎯phspnsz쎯	-9.4337
snzszhh쎯,	-9.43428
,npszhnznn쎯	-9.43458
zzhzhz쎯pnhznznn쎯	-9.4346
hhz1쎯h쎯pshspnh0쎯	-9.43511
pnzn0쎯hsshpn쎯	-9.43555
pszhhhszhshhps0쎯	-9.43718
쎃쎀쎀	-9.43748
ㄧ	-9.43759
nnzpzpz0쎯pnhhzn쎯	-9.43774
hhps2쎯nhzpphpn쎯	-9.43904
zhpsnhhhsh쎯	-9.44189
(pnhz0쎯	-9.44227
nphszs쎯.	-9.44392
zhpzszh쎯phzn쎯	-9.44455
nnzhhz0쎯	-9.44559
》《	-9.44609
zzhnhzp쎯	-9.44698
hspnnhpnpn쎯phzn쎯	-9.44871
pznpzn0쎯pns쎯	-9.44903
nzszhhhpn0쎯	-9.44942
쎄쎂	-9.45027
hpsnszh쎯	-9.45057
zpzzn쎯nhzpphzsz쎯	-9.45259
hspnpszhh쎯	-9.45264
쎂쎀쎀쎄phhshs쎯	-9.45485
szhpnhpzhhsz쎯	-9.45487
psnhnphszh쎯	-9.45544
쎄pzhh1쎯	-9.45568
szhszhshn쎯	-9.45602
hppzhh쎯《	-9.45701
hszhzhhz0쎯,	-9.45711
pzhhpzhh쎯hpzn1쎯	-9.45818
hspnn쎯	-9.45912
phhhzhzhsnzn쎯	-9.46023
pznszh1쎯:	-9.46124
쎃쎇	-9.46243
hpzn2쎯nhpnnph0쎯	-9.46374
phshzzn쎯	-9.46412
zzhszpn0쎯	-9.46504
phshphpn쎯	-9.46573
nnnpzzn3쎯	-9.46602
hspnhhs쎯	-9.46706
쎂쎀쎁쎁phhshs쎯	-9.46708
nzpzzn쎯nhnph쎯	-9.46755
szhhhzhz쎯	-9.46938
pz0쎯zzsnnzhhpz쎯	-9.47011
pzszn쎯pznnhhpn쎯	-9.4716
nzpn0쎯	-9.47175
nzhzhzpszhh쎯	-9.47186
hhh쎯pns쎯	-9.47208
...	-9.47213
,ppzhpphs쎯shnpn쎯	-9.47271
ppshshshpn쎯	-9.47419
pszhhpzn쎯pn2쎯	-9.47432
nphpzpppnnzzn쎯	-9.4747
zpznn쎯hpszs0쎯	-9.47543
hphzpzp쎯	-9.4757
hnphs쎯nhzp쎯	-9.47601
zpn3쎯hpnz0쎯	-9.47603
nnnnhphsshzn쎯	-9.47677
쎯	-9.47744
shszhhznp쎯nnhs쎯	-9.48001
nhpzpznn쎯	-9.4802
nzpss쎯zzhhzzpn쎯	-9.48041
ppznnhszpz쎯	-9.481
pzzhpzn쎯	-9.48186
쎆쎀쎀	-9.48212
zpnn1쎯hszhzhhz0쎯	-9.48278
zhhpszhzzs쎯	-9.48328
hhshzzh1쎯	-9.48332
szhzph쎯zzspn쎯	-9.48366
pnphpnhshsh쎯pns쎯	-9.48405
nnspznhpn쎯.	-9.48485
nnphpnhhs쎯zpnn1쎯	-9.48523
hshpzzh1쎯	-9.48635
pshs쎯pzn2쎯	-9.4869
szhhszzpp쎯	-9.48841
zzhhzphpz0쎯	-9.49052
nhpn2쎯hssz0쎯	-9.4908
hszhh0쎯	-9.49137
pszhh쎯nhphsshzn쎯	-9.49156
hshnhpzpnznp쎯	-9.49316
쎂-	-9.49318
szhhszhhh쎯phzn쎯	-9.49398
pznnhzszhh쎯	-9.49532
,znpzhhsnzzn쎯	-9.49589
,shnpn쎯pzzn3쎯	-9.49742
,pnhhsh쎯	-9.4976
pnzz쎯	-9.49919
hnphpn쎯	-9.49986
shhspzhpzhhsn쎯	-9.49997
hshhspnznp쎯	-9.50025
,pzhhs0쎯	-9.50076
pshshszs쎯	-9.50278
hhz2쎯pzhhnhpnzs쎯	-9.50383
쎄.	-9.50416
znpzhhszp0쎯	-9.50466
,nznhzppn쎯	-9.50579
,szhs쎯hsshpn쎯	-9.50645
hzzpn0쎯hszpzh쎯	-9.5074
hsshh쎯zhhspspn쎯	-9.50812
hppzhhzzs쎯	-9.50843
phspnpzzpn쎯“	-9.50936
nphszs쎯,	-9.50987
zpnn1쎯nnpnzzzh쎯	-9.51162
nznnp쎯ppphpszpn쎯	-9.51205
shh쎯,	-9.51227
pnnpzpppszhhpz쎯	-9.51242
phnphnzhzsp쎯hs1쎯	-9.51337
hspnhszhsshszhh쎯	-9.51346
쎄쎄	-9.51371
nhpzsshhzhz쎯	-9.51371
‘	-9.51429
hshszpn1쎯	-9.516
phnphnpnhszh쎯	-9.51617
hsn쎯,	-9.51628
zhpn2쎯hzn0쎯	-9.51671
쎄쎃	-9.51676
nhpnnzzn쎯h쎯	-9.51713
phspn	-9.51735
hs1쎯hh0쎯	-9.51802
hsszhhhsphz쎯	-9.51809
hphszhznp쎯	-9.51873
、nhszhszszh쎯	-9.51875
phshszh0쎯	-9.51883
szhshzznzpn쎯	-9.51884
pshhsh0쎯pshszhz쎯	-9.51945
zzhpnnphhpzn쎯	-9.51977
h쎯hzzp0쎯	-9.52067
pshspn쎯snzhspn쎯	-9.52152
szhhhshpn쎯shnpn쎯	-9.5218
zhhhzn쎯	-9.52182
hhshpzszn쎯hhsh	-9.52186
phspnpnhpszs쎯	-9.52221
pshhsh0쎯pznzp쎯	-9.52236
pshz1쎯pszhhpzn쎯	-9.52338
:쎁	-9.52384
hzhszhsh1쎯	-9.52433
shhsnhzp쎯	-9.52442
hzshpz쎯	-9.52476
szhhshssszpn쎯	-9.52477
쎂쎀쎀쎂phhshs쎯	-9.52479
nzpzhspn쎯hshpss쎯	-9.52518
쎂쎀쎀쎃phhshs쎯	-9.52536
szhhpnnphhpzn1쎯	-9.52627
,pphszh쎯	-9.52731
hshsshhhphpn쎯	-9.52737
pznnhszs쎯	-9.52772
,zn2쎯	-9.52778
hhznzp쎯hszhshzs쎯	-9.52845
nnzszhhszshn쎯	-9.52915
hshhnphs쎯	-9.52948
hhznnzzn쎯pzhhs0쎯	-9.52972
<	-9.52997
snnhsh0쎯	-9.53065
pnhhspnnnhs쎯	-9.53077
phspnszhhh쎯	-9.53144
pshhshpz쎯	-9.53166
ppspzzn1쎯	-9.53203
nnpznszh쎯hhz1쎯	-9.53351
pznnznszh쎯	-9.53378
hspnhspnhhspn1쎯	-9.53423
h쎯pznhspn쎯	-9.53473
pn2쎯phhsh1쎯	-9.53491
phhspnphhz쎯	-9.53498
nhphpn쎯nhszs쎯	-9.5353
pzhhnphhpnzzh쎯	-9.53619
phnphnhhhphzn쎯	-9.53628
hsszppn쎯npnsns쎯	-9.53652
h쎯phnphnhshhzn쎯	-9.53685
phhsh1쎯,	-9.53784
쎃쎁	-9.53847
hsppznnnhnphhs쎯	-9.54022
zszhszpnpzhhpzn쎯	-9.54182
shhsphhhshhh쎯	-9.54205
쎂쎀쎀쎀phhshs쎯	-9.54229
hpszhszshpnppn쎯	-9.54298
pznnnphhpnznnpn쎯	-9.5431
phhhzpznhhhs쎯	-9.54337
hznp쎯	-9.54386
,zzhznhsh쎯	-9.54478
hnppn쎯	-9.54499
zph쎯nsnphhsh쎯	-9.54523
psszhhszshn쎯	-9.54561
hshshpnsn쎯	-9.54561
,szhhhshpn쎯h쎯	-9.54705
hshnhzp쎯	-9.54737
nhpnphzhhsspn쎯	-9.54745
shnpn쎯hsn쎯	-9.54764
hhpnhhpnszhh쎯	-9.54806
,hssznphhs쎯	-9.54842
nzhhspn쎯hzszhh0쎯	-9.55034
zphznzp쎯zp1쎯	-9.55044
hszhzhhz0쎯.	-9.55127
zpnzhh0쎯hshzsz쎯	-9.55159
hhzs쎯	-9.55163
hszsn쎯·	-9.55223
zhpzzpn쎯	-9.55576
hzhhpzhhsn쎯	-9.55722
hpzznp쎯phzn쎯	-9.55794
nnnzznnpnzs쎯	-9.55831
쎂pns쎯	-9.55875
nhpnnpzzn1쎯	-9.55876
쎁pzhh1쎯	-9.55945
nhpn2쎯nnzzzh0쎯	-9.55947
nhp쎯hshzzpp쎯	-9.55975
hzzpn0쎯nhzp쎯	-9.5608
pznszh0쎯hshzsz쎯	-9.56102
쎆쎈	-9.5615
shzhp쎯	-9.56155
szszhzpz쎯	-9.5638
nnpnpnpznn쎯	-9.56428
zzsszhhh쎯	-9.5652
nhszhzzhzzs쎯	-9.56534
hssznphhs쎯shhhz쎯	-9.56597
pznnszhhh1쎯	-9.56769
)szhhhshpn쎯	-9.5677
nphhshnnnnhpnn0쎯	-9.56884
hphhpnz쎯nphszs쎯	-9.5691
szhhz1쎯.	-9.57012
pznnzhhzpnnzzn쎯	-9.5718
pnhszhphhz1쎯	-9.57223
nhpn0쎯pphszh쎯	-9.57286
szhpznzh쎯	-9.57288
-쎂	-9.5733
pnzp쎯phhhzszhs쎯	-9.57334
,hszhsh0쎯	-9.57358
,sz	-9.57381
,hpsnnzzn쎯	-9.57409
pnzp쎯n	-9.5741
hzhpshhzhhszn쎯	-9.57415
nnznnhpn쎯zzhpnh	-9.57483
hsszs쎯szhhh2쎯	-9.57507
쎉쎈	-9.57513
쎄-	-9.57566
h쎯nhppnpnhsh쎯	-9.57687
h쎯pznszh1쎯	-9.57735
shhsnznn쎯pshz2쎯	-9.57738
쎈쎀쎀	-9.5774
쎃-	-9.57768
nzhzn쎯	-9.57847
nzzhz쎯zhhznnpn0쎯	-9.57853
hhpn0쎯hsn쎯	-9.57853
phhhzphhphzn쎯	-9.57906
nppnhshphz쎯	-9.5792
hhspn0쎯hnphspn쎯	-9.57965
phhhzshszh쎯	-9.57999
zhhznzs쎯hszhz1쎯	-9.58014
zhhhshspnhszs93쎯	-9.58101
zzhnhznpz쎯h쎯	-9.58158
쎆쎆	-9.58179
nhnphszhhpzhh쎯	-9.58202
zhzhz0쎯szhhshnh쎯	-9.58229
nnpzzn1쎯pspnzp쎯h	-9.58304
psnhhsh쎯nnzphz쎯	-9.58567
szpnhhshshzn쎯	-9.58569
hsshpn쎯hppzhh쎯	-9.58674
hpshsh쎯nhpnnzzn쎯	-9.58786
hspnpszhhszs쎯	-9.58816
hszpzhhphshszh쎯	-9.58827
쎃pns쎯	-9.58942
hshpzpnhshpzpn쎯	-9.59021
szhh4쎯	-9.59054
shhsnhnpnzszs쎯	-9.59094
pznnhszsshzph쎯	-9.59112
snppznn쎯	-9.59261
nnspznzzpn쎯	-9.5931
szznzznzs쎯	-9.59389
h쎯shshspp쎯	-9.59474
쎈쎅	-9.59519
szhzph쎯pshspnh0쎯	-9.59559
hpnn0쎯hnphs쎯	-9.59563
pnzpszssh쎯	-9.5963
쎄pns쎯	-9.59659
zhzps쎯	-9.59704
phzn쎯,	-9.59714
ppphpszpn쎯	-9.59864
hshzsz쎯hsn쎯	-9.59877
hshszpn0쎯npnsns쎯	-9.60014
nnzhpzn0쎯	-9.60056
,hszhhznp쎯	-9.60065
nhpzpnnznn0쎯	-9.60305
nnnznpsnhhhsh쎯	-9.60308
zpn3쎯szhhhzn2쎯	-9.60341
zphpz0쎯	-9.60416
.쎉	-9.60452
snzpznszh쎯	-9.60526
,hszhz1쎯shnpn쎯	-9.60571
,szhpnh쎯	-9.60594
zn	-9.60618
,zph쎯,	-9.60626
zzhhsh쎯pzzshz쎯	-9.60631
nzhszhszh쎯nhh	-9.60698
znhzn0쎯hhz1쎯	-9.60724
nnznppn쎯	-9.60724
nnnnzpzhspn쎯pn3쎯	-9.60791
.쎂	-9.60802
hhpz1쎯zzhhhznp0쎯	-9.60879
pszhhpzn쎯h	-9.60882
zhshhzhzn쎯	-9.60924
psszhs쎯	-9.60924
pzhhzszn쎯pznzp쎯.	-9.60969
hpn1쎯pnhhzn쎯	-9.61058
hszhsshszhhnzzn쎯	-9.61089
psszhhs0쎯	-9.61143
쎅-	-9.61249
snznnnphsszh쎯	-9.6155
hhpzpppn쎯hsszh쎯	-9.61638
쎄쎆	-9.61666
pzhppznhhhszh쎯	-9.61718
nphszpzhh	-9.61757
hspznnzzn쎯zz2쎯	-9.61769
pnnszhszhszhszs쎯	-9.61794
);	-9.61805
shnpn쎯hnphspn쎯,	-9.61833
hzhnphhs쎯	-9.61901
nhhsh쎯pshhsh0쎯.	-9.61905
hpnn0쎯zzsszhh0쎯	-9.6191
(),	-9.61975
hhh쎯phhshs쎯	-9.62064
hpszss쎯hpzznp쎯	-9.62165
,nzshh쎯	-9.62418
h쎯hspnnphhhs쎯	-9.62468
nnnhhpnznnn쎯	-9.6262
pznszh1쎯,	-9.62716
hppzhh쎯hspnpz2쎯	-9.62728
szhhz2쎯zp1쎯	-9.6277
szhhshnh쎯pznzp쎯	-9.62833
nznnszhshhsshpn쎯	-9.6301
znhshhpszpn쎯	-9.63041
nsnnhszhzpn쎯	-9.63084
psnhnph쎯,	-9.63133
pspnn쎯sz	-9.63168
hphshn쎯zp1쎯	-9.63264
nnphsszh쎯hhznzp쎯	-9.63309
szhhhzphpz쎯	-9.63405
hhshszpz쎯zz2쎯	-9.63406
hpszhhszhhpn쎯sz	-9.63468
pszhhpszpn쎯hsh1쎯	-9.63469
쎅.	-9.63483
쎅쎂	-9.63496
ˋ	-9.63507
3쎯szhs쎯szhhshnh쎯	-9.63603
hszpzhhnhszhzzh쎯	-9.63628
nphhpnphhz0쎯	-9.6372
쎇쎂	-9.63765
shhszphhsszh쎯	-9.63927
쎇쎆	-9.63975
nzhshhzn쎯pn2쎯	-9.64024
pnhzhpszpn쎯	-9.6403
(쎁)	-9.64037
zsz0쎯.”	-9.64114
nnzhpzpppn쎯,	-9.64138
쎂쎀쎀쎁phhshs쎯	-9.64214
phspnsnppznn쎯	-9.64304
pshhzs0쎯	-9.6441
nhnphszhzzs쎯,	-9.64412
쎅쎄	-9.64505
hzhnzhzhs쎯	-9.64541
nnnzhhnzzn0쎯	-9.64578
hhzn0쎯snz쎯	-9.64697
szsshphhhshhh쎯	-9.6472
쎁쎀쎀쎀	-9.64766
szhpn1쎯hppzhh쎯	-9.64812
szhhz2쎯nzphsszh쎯	-9.64825
szhhh	-9.65038
szhhhznnznn쎯	-9.6509
zzspznhzs쎯zzpn0쎯	-9.65144
hshpszhh쎯.	-9.65176
szhshshpznszh0쎯,	-9.65183
pshznnhpzpn쎯	-9.65191
쎀쎅	-9.65274
hhzn0쎯phspnnnhs쎯	-9.65301
pzhshszh쎯zpnzzn쎯	-9.65362
2	-9.65411
nnpnzzzh쎯、	-9.65421
zphzpnp쎯	-9.65516
pszhhpzn쎯zpn3쎯	-9.65788
,hzhszhhhshpn쎯	-9.65816
《szhs쎯szhhshnh쎯	-9.65858
zsz0쎯hppzhh쎯	-9.65902
pshhzn1쎯》:“	-9.65919
쎃쎉	-9.65985
hpzn3쎯hsshhhpn0쎯	-9.65988
쎂.쎀	-9.65999
pszhhpzn쎯nhnphp쎯	-9.661
h쎯phhshs쎯	-9.66107
nnnpnphspnszhsh쎯	-9.66164
psphzhznp쎯sz	-9.6627
_	-9.66326
nzpzhshszh쎯h	-9.66396
쎂쎀쎁쎂phhshs쎯	-9.66506
쎁쎉쎉쎈phhshs쎯	-9.66512
nnnpzszhshh쎯	-9.66564
hsszhszzhznnnn쎯	-9.66636
.hspnh0쎯	-9.66654
szhhhshpnhz쎯	-9.66737
hzhshhspnhszh쎯	-9.66853
szhhz1쎯:	-9.66872
hpsn0쎯pszn0쎯	-9.66944
szpn1쎯shhsnz	-9.67098
pznnnnzpzhsh쎯	-9.67219
,hpszss쎯szhhh0쎯	-9.67237
nnnhszsshszhhhs쎯	-9.67254
hszhszhshsz쎯nh	-9.67257
.shshhz0쎯	-9.6734
zzhhpnhszhz1쎯	-9.67422
psphzhznp쎯	-9.67426
ㄨ	-9.67469
nhz쎯	-9.67469
쎄쎇	-9.67563
phhhzszhpszh쎯	-9.67572
hshszpz쎯pshhsh0쎯	-9.67631
,hpzznp쎯npzn0쎯	-9.67648
szszh1쎯	-9.67673
「	-9.67678
shhszshshhznpsz쎯	-9.67707
nnzpzhsh0쎯phhz2쎯	-9.67715
pn2쎯hsh1쎯	-9.67737
hzzh쎯hsshhh	-9.67751
zpnhsh0쎯	-9.6777
」	-9.67831
nnznnhpn쎯zp1쎯	-9.67873
h쎯nnnhznpsz0쎯	-9.67888
hshphpn1쎯hhszs0쎯	-9.67956
phhshs쎯hnphspn쎯	-9.6812
pznnhsshszhh쎯	-9.68155
szpznnnh쎯pshz2쎯	-9.68162
pz쎯znszh0쎯	-9.68163
nhszhzzhphpn쎯	-9.68188
°C	-9.68235
shhshpznp쎯	-9.68259
zphhszhspnphpn쎯	-9.68285
pn	-9.68316
hzhz0쎯	-9.68325
psnhzp쎯	-9.68441
pnzn0쎯nnzzph쎯	-9.68449
hszhs	-9.68462
쎁.쎅	-9.68496
nnpnzzzh쎯hszh0쎯	-9.6863
nphhpn쎯szpnpn0쎯	-9.68649
nhszhhpzpn쎯	-9.68733
pzzshz쎯pszhhpzn쎯	-9.68734
nnznszh쎯	-9.68775
psz쎯	-9.68786
hszhzhhz0쎯pznzp쎯	-9.68874
zzhpsnhhhsh0쎯szh	-9.68937
zzhszssh0쎯	-9.68958
nhpspn	-9.68982
hzhpnnphhpzn쎯	-9.69223
nnnhszhhhspn쎯	-9.69287
hhh쎯pzpzhsh쎯	-9.69291
hsz	-9.69308
hzhpnnzpn쎯	-9.69392
hshzsz쎯.	-9.69427
szhshshpnnzpn쎯	-9.69436
h쎯psnhnph쎯	-9.69503
zph쎯zzh0쎯	-9.69504
nzhz쎯	-9.69637
nhzphhpnznzshpn쎯	-9.69678
,pszhhh0쎯	-9.69786
쎀%	-9.69857
zpn3쎯zzhszhhh0쎯	-9.69978
》nzhshhzn쎯:“	-9.70024
nnzhpzpppn쎯.	-9.70024
-쎃	-9.70123
hsh1쎯hpszhhhps0쎯	-9.70162
shhsnhzpsz쎯	-9.70221
nnph쎯nnzhznhsh쎯	-9.70425
nppn쎯hzhs0쎯	-9.70549
zzshzhs쎯	-9.70555
』『	-9.70692
shhshhspnhhspn쎯	-9.70741
pszhhh0쎯pznnhpn	-9.70773
쎅쎃	-9.70827
.psszhhh1쎯	-9.70884
nphhpshshzn쎯	-9.70921
pnzzsz쎯nhnph쎯	-9.70925
hh0쎯zzhpzzn쎯	-9.70937
zznz1쎯	-9.70977
,zpnzhh0쎯	-9.71013
쎀쎄	-9.7105
znnznnnhpnpnhs쎯	-9.71081
shpn쎯phspnszh1쎯	-9.7126
nnznznnpszhshn쎯	-9.71271
nhpzsshhzhz	-9.71289
phzn쎯nnnzpnp쎯	-9.71362
nsnhpnppn쎯	-9.71593
phhznnzzph쎯	-9.71674
phszhhhsh쎯hpn1쎯	-9.71701
nhzznszhsh쎯	-9.71701
pznnpszhhzzpn쎯	-9.7172
,szhpnh쎯shshhz0쎯	-9.71733
pzhhszhs쎯	-9.71755
hhhshspnhszs202쎯	-9.71781
93쎯pn2쎯zhzhz0쎯hs	-9.71826
nhnphhhshpzhh쎯	-9.71911
hspnhzzpn쎯	-9.72033
shhspzphhszs쎯	-9.72097
nznphhhs쎯	-9.72152
hhshszpn0쎯pshhsh	-9.72244
ppshhz쎯hshshp	-9.72271
szpnhzp쎯pznzp쎯	-9.72305
nnpznszh쎯hpshsh쎯	-9.72307
pznsn쎯hhpsppp0쎯	-9.72399
zzhpszhhszs쎯	-9.72451
hpzznp쎯zz2쎯	-9.72522
phhhzhs쎯znhzn0쎯	-9.72681
szhhspznzh쎯	-9.72718
\	-9.72888
.쎁	-9.7295
nphpzhhsznnnn쎯	-9.72965
nhzpphpn쎯nzhzhs쎯	-9.7298
hzshnhpnpn쎯hpn1쎯	-9.73005
zpnp쎯nzphhs쎯	-9.73114
szhszh2쎯	-9.73151
쎅pnzn0쎯szhhhsh1쎯	-9.73191
shzsz쎯hpszsshhh쎯	-9.73317
znnznnpsnhhhsh쎯	-9.73394
hspnhsshhhpn쎯	-9.73398
쎅쎈	-9.73428
szhhzpszh0쎯	-9.73442
.“	-9.7356
zzhppznn쎯	-9.73582
nhphsshzn쎯:	-9.73701
쎅쎇	-9.73758
hss	-9.73777
쎀pnzn0쎯szhhhsh1쎯	-9.7391
쎁쎉쎉쎇phhshs쎯	-9.74028
,hszpzh쎯	-9.74319
쎇쎈	-9.74322
nzhnphs쎯pspnps쎯	-9.74387
hshshhzpzpzhsh쎯	-9.74461
hspnnpzhzsp쎯	-9.74512
hpzznp쎯hspnh0쎯	-9.74528
hhznpszhshpzzn1쎯	-9.74583
phhhznh	-9.7459
hspnhszpzh쎯	-9.74636
shhsnhpn0쎯	-9.7464
쎈쎆	-9.74787
hsh1쎯,	-9.74834
、szhs쎯szhhshnh쎯	-9.74943
szhhszhpn0쎯	-9.74995
nnnshzphznznn쎯	-9.74998
phnphnpznnzp쎯	-9.75085
hsspnzz쎯	-9.75158
hpszhnnzpznzz쎯	-9.75195
hpn1쎯hzhsnzn쎯	-9.75271
hshpss쎯nhszs쎯	-9.75311
()szhhhshpn쎯	-9.75313
hpnhshps쎯	-9.75338
hpsn0쎯szhhhshpn쎯	-9.75359
zzznzzn쎯	-9.75422
zzhhsh쎯nzhzhs쎯	-9.75425
nznhzp쎯	-9.75434
zhzhz0쎯nhhsh쎯	-9.75453
쎁쎉쎉쎆phhshs쎯	-9.75464
pzphpzn쎯	-9.7555
zzhznhsh쎯hpzp쎯	-9.75588
ssphnszsh쎯nhphsp	-9.75703
ppzhznnznn쎯	-9.75786
pnpn2쎯nhnphhspn쎯	-9.75797
znpzpn쎯pzzsnzzn쎯	-9.7581
szszs0쎯hnphspn쎯	-9.75867
snzhzp쎯	-9.75876
zs0쎯nnhs쎯pzzhhz쎯	-9.75997
szshpnppn0쎯	-9.75998
,hhpz1쎯	-9.76019
nhpzpnzhz쎯	-9.76073
zpszh1쎯	-9.76094
,hppszhhzpn쎯	-9.76163
hzhhsshszhh쎯	-9.76187
pnzzsz쎯ssnph쎯	-9.7624
shszhnnnn쎯,	-9.76347
pphspzpn쎯	-9.76386
pznnznhhspn쎯	-9.76447
shhspznzz쎯	-9.76448
psnpszsnphszhh쎯	-9.76522
szhhshnh쎯hsh0쎯	-9.76543
》szhs쎯	-9.76574
hpznnzzn0쎯	-9.76681
phspnnhszhszszh쎯	-9.76825
znzz0쎯	-9.7684
ˊ	-9.76882
phhshs쎯pshzn1쎯	-9.76884
szs1쎯zzpn0쎯	-9.76964
z2쎯	-9.76971
pn2쎯pshspnh0쎯	-9.77021
phhhzphspnpz쎯	-9.77057
shhsszhhpzpnz쎯	-9.77213
hzzh쎯	-9.77257
쎀°C	-9.77263
shhspznnznhhspn쎯	-9.77307
szhshhzhz0쎯	-9.7739
hzhshszhhhs쎯	-9.77404
쎁쎉쎉쎉phhshs쎯	-9.77467
nhznhps쎯	-9.7754
hpszss쎯hpsn0쎯	-9.7759
nhpsnnpszhhhs쎯	-9.77628
zzhhshpszhh쎯	-9.77664
szhshnnnzpz0쎯	-9.77684
pnnpszsnphszhh0쎯	-9.77719
,hzzpn0쎯	-9.77734
hssszsshpzn쎯sn쎯	-9.77743
쎅쎁	-9.77996
hh0쎯hs1쎯	-9.78083
nphzznzznnznn쎯	-9.78106
nzpsnhhhshpznzh쎯	-9.78194
pshzn0쎯	-9.78228
zhzhzn0쎯nphszs쎯	-9.78269
쎂pzhh1쎯	-9.78272
(쎁쎈	-9.78296
hshszhpzpn1쎯	-9.78425
hpzp쎯pshhsh0쎯	-9.78428
hszhhpn쎯pznpzn0쎯	-9.78483
znnhpn쎯	-9.78485
psnphhs쎯	-9.78535
pszhhnzzn0쎯	-9.78538
pnzn0쎯hhpz0쎯	-9.7859
hshhsszhhhhpn쎯	-9.7864
shshpznn쎯	-9.78734
쎈쎈	-9.7877
hzshhszpnpn쎯	-9.7883
hpn1쎯hhzn0쎯	-9.78928
snzpshznp쎯	-9.78954
-)	-9.78962
,pnpn1쎯hpszss쎯	-9.78974
hpnhzn쎯	-9.78977
nnnsnppznn쎯zhzp	-9.78979
nnzhhpz쎯h	-9.79006
hhshpszhhhpszh쎯	-9.79012
sszpn쎯hshpszhh쎯	-9.79033
nnpzpnszssh쎯	-9.79049
szhshshphpn0쎯	-9.79074
쎆쎂	-9.79099
nnzpz1쎯pszhhpzn쎯	-9.7915
hhhzn2쎯snzszhh쎯:	-9.79207
nnnhshpznzh쎯	-9.79228
phhz0쎯hspnn쎯	-9.79302
hpszhhhzn0쎯	-9.7937
-쎄	-9.79439
쎁쎉쎉쎅phhshs쎯	-9.79512
ppzhpznn쎯	-9.79543
pnnpphhszsnzn쎯	-9.79557
,nhpnpn0쎯	-9.79572
hhzn0쎯phspnsz쎯	-9.79644
szspszhh1쎯	-9.79787
zhphsshzpn쎯,	-9.79891
phzn쎯nnnhsh쎯	-9.79971
,phzznnh쎯	-9.80095
pzhhszhs쎯nhpnn	-9.8027
nnzpzphhszs쎯	-9.80274
hshshpnnppshzhh쎯	-9.80305
hzhnphhps쎯	-9.80822
hhshszpz쎯npzn0쎯	-9.80855
hhssz쎯phshpzpp쎯	-9.80856
hznpz쎯pnzp쎯	-9.80871
hshpsnhhhshznp쎯	-9.80889
pzhhs0쎯nnnhshzn쎯	-9.80982
pznnpszhhphs쎯	-9.81087
nzhzhs쎯hpnz0쎯	-9.81098
hzsz쎯	-9.8111
nhszs쎯hpnz0쎯	-9.81171
pnhszh쎯hpzznp쎯	-9.812
pshsshpn쎯zz2쎯	-9.81205
pzphhsh쎯	-9.81218
hsn쎯pszhhpzn쎯	-9.81266
nhpnhpszss쎯	-9.81318
쎁/	-9.81322
zznzp1쎯	-9.81514
hshszh0쎯hspnhspn	-9.81554
pzpzz0쎯	-9.81687
pnhszh쎯nphhps쎯	-9.81834
zn2쎯pznszh1쎯	-9.81861
,phshpz쎯pphszh쎯	-9.8187
nnzhznhsh쎯szpn1쎯	-9.81948
nppnszhhhhs쎯	-9.81951
,szhpn1쎯	-9.81961
zzshnphpn쎯	-9.81996
hhz2쎯nhpsnszpz쎯	-9.82038
szhshshpzzhz0쎯	-9.8204
szhhpzh쎯hpnz0쎯	-9.82048
pznszh1쎯nnzzzh0쎯	-9.8208
hzhnnpnzszpz쎯	-9.82132
hszhhpn쎯zpszh0쎯	-9.8218
.szhsh2쎯hhz1쎯	-9.82272
nhzznnnpnhs쎯:	-9.82283
hsh2쎯nnpnzzzh쎯	-9.82346
hpnz0쎯,	-9.82387
쎅%	-9.8242
hsshszhhshshhsh쎯	-9.82506
nnnnphzznzzn쎯	-9.82517
zzp쎯hspnhzn0쎯	-9.82542
hzhhhpz1쎯	-9.82549
pnhhsh쎯szhhhzn0쎯	-9.8255
hsh쎯nhphsshszs쎯	-9.8261
hzhpzzn2쎯pn3쎯	-9.82612
,szpnsz0쎯	-9.8265
hzhhpszh0쎯	-9.8268
zpznn쎯hzhnzhzhs쎯	-9.82696
hzhzhh쎯	-9.83033
pns쎯nsnphhsh쎯	-9.83073
phhs0쎯nnzhszhsz	-9.83079
hhsszh쎯	-9.8309
pzhhs0쎯.	-9.8319
pnhznznn쎯,	-9.83262
npzn0쎯nhhsh쎯,	-9.83288
hpn1쎯nphszs쎯	-9.83289
zzpn0쎯phspnsz쎯	-9.83309
쎆쎇	-9.83316
pzsznhpszpn쎯	-9.83437
snpnzhhzn쎯	-9.8346
nnzhpzpppn쎯、	-9.83499
쎁쎉쎉쎃phhshs쎯	-9.83503
hzhpsnhhhshpz쎯	-9.83536
phszhhpzn쎯sz	-9.83622
nnzhz0쎯nnnpzszn쎯	-9.83626
,zphzsz쎯	-9.83626
쎄쎉	-9.83657
shhshhshhssz쎯	-9.8368
hspnnphhh쎯	-9.83842
hpszhhphszhznp쎯	-9.83878
.szhhh2쎯	-9.83929
pnshsh쎯ssnph쎯,	-9.83974
hzzp0쎯hpzznp쎯	-9.83987
npszsshzhhznhzn쎯	-9.84056
쎄쎁	-9.84098
쎈쎂	-9.84123
nnnhhs쎯	-9.84193
hshszhnphppp쎯	-9.84256
hhznzp쎯hpnnnznn쎯	-9.84375
pn2쎯nhpn2쎯	-9.84376
shszhnnnn쎯.	-9.8438
zhzszn쎯phshszh0쎯	-9.84416
pzp	-9.84535
shhshpszzh쎯	-9.84546
nnpnzzzh쎯hpzp쎯,	-9.84575
pzpshhsszhsh쎯	-9.84589
zzhpznhhhsnzn쎯	-9.84667
pnhhsh쎯nhszs쎯	-9.84698
,zpszh0쎯	-9.84713
nnnhspnpnznnpn쎯	-9.84741
쎆pns쎯	-9.84747
zhphz0쎯hssnph쎯	-9.8478
znnznn쎯nzznhhs쎯	-9.84815
쎉쎅	-9.85017
hhshn0쎯nphzpn쎯	-9.8506
pnnzpnnzzn쎯	-9.85069
i	-9.85094
szhhhszhhhsh0쎯:	-9.85177
szhs쎯szs1쎯	-9.85196
pszhhh0쎯pszhhhp쎯	-9.85248
phhhznpszhpz쎯	-9.85254
pshzhhhshpzzn1쎯	-9.85341
.”《	-9.85346
hzhpphsnzzn쎯	-9.85364
szhhszhhh1쎯	-9.85407
hs쎯hspnhsszhhhh쎯	-9.85411
hppzhh쎯“	-9.85561
szhpnhszh쎯pzzpn	-9.85563
zzshszpn0쎯ppsh	-9.8557
hzhppsn쎯	-9.85607
hhp	-9.8563
/쎂	-9.85744
.zphszh1쎯	-9.85804
szh0쎯,	-9.85824
,hszhhpn쎯	-9.85848
쎁쎉쎉쎂phhshs쎯	-9.85856
nzhp쎯,	-9.86057
zsz0쎯.	-9.86058
pzpzhsh쎯pzzshz쎯	-9.86109
znznznnzszhhh쎯	-9.86119
nhszhsh쎯,	-9.86216
zzh0쎯,	-9.86222
hshphz2쎯nphszs쎯	-9.86228
1쎯nnnnnzpshshpn쎯	-9.86235
(쎁	-9.86455
phnphnszhszh쎯	-9.86533
pz0쎯szhs쎯nznn쎯	-9.86552
pznpn쎯,	-9.86554
----------------	-9.86562
%,	-9.86602
hszsshszpn쎯	-9.86617
hpszhszszs쎯shh쎯	-9.86624
shpzn2쎯hzhpznzp쎯	-9.86685
hzzpzzs쎯	-9.86781
pzzshz쎯.	-9.86863
hhznzp쎯psphshh1쎯	-9.86898
쎁쎉쎈쎄phhshs쎯	-9.86927
쎆쎃	-9.86955
pnnzpn쎯	-9.86988
shhshzzp쎯	-9.87025
zzhpzzn쎯hsh2쎯	-9.87139
nnnnn쎯hspnhzn0쎯	-9.87239
hshsh0쎯hpshsh쎯	-9.87373
hspnszhhh4쎯hzzh쎯	-9.87465
shhsppzh쎯	-9.87661
szshnphpn쎯	-9.87769
nnzszhhh쎯phspnsz	-9.87794
npszpzszh쎯pznzp쎯	-9.87795
pzpzhhznzs쎯	-9.87833
hpszhhznpsz쎯	-9.87864
szpnpn0쎯shhsn쎯	-9.87963
nphpzhhszzp쎯	-9.88007
pzpnzhpnn쎯	-9.88027
pnzn0쎯zhszh1쎯,	-9.88291
phhhshhhnznn쎯	-9.884
nnnhhshpzhh쎯sz	-9.88415
snzhspn쎯	-9.8842
.hspnh0쎯hszsn쎯	-9.8842
pnzpszpn쎯	-9.88448
,h	-9.88475
hzhpzzhz0쎯	-9.88483
pnzp쎯pnhhzn쎯	-9.88525
hspnhspn쎯ssnph쎯	-9.88535
szhsnzpznn	-9.8858
szhshshpznszh0쎯、	-9.88708
pnphspnnznn쎯	-9.88718
hzhpnnpnzzn쎯.	-9.88745
pzznphhps쎯	-9.88792
hspnpszhhzpnppp쎯	-9.88792
hzshhszhszhsh쎯	-9.88851
hshpznnznn쎯	-9.88904
szhszhszh0쎯,	-9.88913
hpn1쎯nnzhpzpppn쎯	-9.8892
쎁쎅쎀	-9.88977
hhhshspnhszs198쎯	-9.8903
szhhh1쎯	-9.89043
szhpzzn0쎯zsphpn쎯	-9.89093
hhpz1쎯nnnhshzn쎯	-9.89093
pznsn쎯znszpz쎯	-9.89219
phhz0쎯pshhhpzzn쎯	-9.89317
szhhs3쎯	-9.89332
zphzzh0쎯nzhnphs쎯	-9.89362
hsshhhzzs쎯	-9.89377
nzpshshzzn쎯	-9.89426
zznzn0쎯	-9.8944
hspnzzshppzhh쎯	-9.89541
〕	-9.89546
zzs	-9.89548
hsszhhspspn쎯	-9.8956
shhspznphzpn쎯	-9.8966
shh쎯nhszs쎯	-9.8973
hspnpz2쎯sz	-9.89898
pnphspnszhsh쎯	-9.89939
pzzsnzzn쎯	-9.89952
hspnhszpn쎯	-9.89976
shszhnnnn쎯:	-9.90024
hpznpnhpzpn쎯	-9.90042
nnzzh쎯	-9.90059
〔	-9.90118
쎁쎉쎉쎀phhshs쎯	-9.90224
nhnphszhhpz쎯	-9.90234
szhshnhsshzhspn쎯	-9.90266
쎁쎉쎉쎄phhshs쎯	-9.90338
nnzpn0쎯	-9.90368
pnhpzhhsznznn쎯	-9.90377
hzhhsshpznnphpn쎯	-9.90389
nnnzhphszsnnpn쎯	-9.90466
szpzhhszhhphhsh쎯	-9.90533
phshpzpp쎯.	-9.90604
shnpn쎯“	-9.90661
nphzspnzzn쎯	-9.90816
pszhhpzn쎯pnhhsh쎯	-9.90961
phspnzph쎯、	-9.9097
쎁-	-9.91098
hzhpnnpphhszs쎯	-9.91145
zphnzhhzpn쎯	-9.91206
pshphsh쎯	-9.9121
쎆-	-9.91245
zhzs1쎯hhpsnzn쎯	-9.91275
-쎀	-9.91314
zzhzpszh0쎯	-9.91338
shphz3쎯nzhhshzn쎯	-9.91366
pznsn쎯szhhshnh쎯	-9.9137
phpnps쎯	-9.91396
szpnphpn쎯	-9.91453
psznpzpzn쎯	-9.91518
hszhhpnnszhszh쎯,	-9.91554
hzhhz0쎯pshhzs1쎯	-9.91558
113쎯pzznnzszhzh쎯	-9.91637
nnnphhz쎯	-9.91675
nhznznn쎯	-9.91693
pshzhpzn쎯hspnh0쎯	-9.91708
,nphhps쎯szhhh0쎯	-9.91742
hspnhspn쎯hshzsz쎯	-9.91825
hpnszhsh0쎯	-9.91835
nzpnpz쎯sz	-9.919
pnhszhszssh쎯	-9.91948
zzspzpshzhh쎯	-9.91964
hhzn0쎯pzhhs0쎯	-9.92022
npzhzsp쎯	-9.92027
npzn0쎯nhhsh쎯.	-9.92085
phspnzpnp쎯	-9.92124
phhspnhhps쎯h	-9.9219
쎁쎉쎈쎅phhshs쎯	-9.92208
ppzhpphs쎯shnpn쎯	-9.92211
nnznnhpn쎯ppshhz쎯	-9.92244
szhhhshpn쎯“	-9.92262
hzp0쎯znpznnhzhz쎯	-9.92272
ppzhszhss쎯	-9.92279
hspnphpn1쎯	-9.92323
snnhpnn쎯,	-9.92391
nphhhsznnznn쎯	-9.92461
,pznnhpnnnnnn쎯	-9.92487
pshnphpn쎯	-9.9249
shhshpznhzhps쎯	-9.92728
0쎯pnzn0쎯zhszh1쎯	-9.9279
npzhzspnzzn쎯	-9.92894
쎅pns쎯	-9.92905
nhpnpnzzs쎯	-9.92934
):	-9.92975
쎀hnphs쎯nhzp쎯	-9.93024
snz	-9.93048
쎂.쎅	-9.93078
pshhshszpn쎯	-9.93093
nphzznzzn쎯	-9.93195
nnzphshszhsz0쎯	-9.93214
쎃、	-9.93254
zhszh1쎯pnhzn쎯	-9.93269
hshpzhh0쎯pznn0쎯	-9.93283
phzn쎯、	-9.93315
hzhzszn쎯》	-9.93369
snznpszhhhs쎯	-9.93457
hzhpzzs쎯	-9.93468
szhspnh쎯	-9.9347
zhpszszs쎯	-9.93506
pznszh0쎯pns쎯	-9.93529
pnzp쎯hszpzhhzhz쎯	-9.93531
phhshs쎯hnphspn쎯,	-9.93626
pzszhpznnzzn쎯	-9.93674
pszpnphspnhhz0쎯	-9.93681
pzphspnhpszpn쎯	-9.93689
쎇.	-9.93695
pzhspn1쎯	-9.93722
hszhszh쎯	-9.9378
hszpzhhphzznnh쎯	-9.93884
hpszhhshhsh쎯	-9.93903
hspnnnzhhspn쎯	-9.93922
phspnpzzpn쎯.	-9.93928
nphpszhhhnzzn쎯,	-9.93964
phspnnznnp쎯hszsn	-9.93998
hspnsn쎯	-9.93999
hzsz쎯zsphpn쎯pn3쎯	-9.94013
pzszhsh0쎯	-9.94111
쎉쎉	-9.94134
219쎯nnzhshpn0쎯	-9.94164
hszpzh쎯hssnph쎯	-9.94165
nzpzzn쎯nzhs쎯、	-9.94206
szhhhhsh0쎯	-9.94275
hzhszhhpzpnz쎯	-9.94317
zpszhszpn쎯	-9.94328
쎁쎂쎀	-9.94366
h쎯nphpszhhh쎯	-9.94382
》phnphnhshhzn쎯.	-9.94393
hsshszhhspzhh쎯	-9.94413
szhshnhsh0쎯	-9.94438
hshhz1쎯	-9.94445
hpshsh쎯shshhz0쎯	-9.94492
m	-9.94656
nphhpnzp0쎯	-9.94662
쎁쎉쎈쎈phhshs쎯	-9.94695
hs1쎯hszh1쎯	-9.94752
nhszhsh쎯	-9.94804
쎂쎀쎁쎀	-9.94853
znpznnhzhznnnn쎯	-9.94988
hpzznp쎯pnzp쎯	-9.95096
pzzszhshn쎯	-9.95117
szhshnpznhhhs쎯	-9.95136
pnhszh쎯szhszh1쎯	-9.95192
hppzhh쎯h쎯	-9.9524
hshphz2쎯phhshs쎯	-9.95286
nnzszhhs쎯nzhs쎯	-9.95288
nnzhshpn0쎯pnn0쎯	-9.95309
,“	-9.95323
pznn쎯	-9.95376
hhhshspnhszs182쎯	-9.95379
hzhnhsz	-9.9548
쎇쎃	-9.95485
pszhhnzzn1쎯	-9.95485
쎆.	-9.95504
nzhzh쎯psphshh1쎯	-9.95703
snzpn0쎯	-9.9576
hshnhpz쎯	-9.95767
szpn1쎯phspnnnhs쎯	-9.95834
zphzhhpzzs쎯	-9.96015
pshznszpn쎯	-9.96043
pnzn0쎯hhps2쎯	-9.96098
szhs쎯snzszhh쎯	-9.96142
pshpzn2쎯nzhhzpn쎯	-9.96171
hszpzhhhsshszhh쎯	-9.96185
hshpzphshpzszpn쎯	-9.96233
pn2쎯hshpzhh0쎯zzh	-9.96399
pshshhzn쎯	-9.96419
phhz쎯	-9.96433
pznpn쎯hhz1쎯	-9.9649
,szhhh2쎯	-9.96506
pn1쎯nnzpnpnszh쎯	-9.96506
1쎯	-9.96663
nzpn0쎯nzszhpn쎯	-9.96729
pnnphspnszhsh0쎯	-9.96768
nhhsh쎯pzpzhsh쎯	-9.96813
,shszh1쎯hshzsz쎯	-9.9682
pn2쎯szh0쎯쎁	-9.96824
hszhhpnnszhszh쎯、	-9.96832
shshhzhspn쎯	-9.96866
szpzh0쎯pns쎯	-9.96871
nhpnzhhznzzs쎯	-9.96924
쎇쎇	-9.97005
pznnpz0쎯	-9.97047
pnhzszh쎯hppzhh쎯	-9.97085
znhzn0쎯pznsn쎯	-9.97088
szhpnh쎯shshhz0쎯	-9.97176
zzpn0쎯nhphzhs쎯	-9.97255
szhszhs0쎯	-9.97285
hzhzpn쎯	-9.97297
hshpsnhhhsh0쎯	-9.97348
szs1쎯szhhhzn0쎯	-9.97427
nzpsnhhhsh0쎯	-9.97494
hsh쎯pszhhpzn쎯	-9.97593
pzz	-9.97596
zpn3쎯hhpsszhsh쎯	-9.97652
hzhszsshhshzn쎯	-9.97659
hshnzssnph쎯	-9.97764
hh0쎯phnphnhs	-9.97928
nnnhhz2쎯	-9.97945
.쎁쎂	-9.97985
쎁쎉쎈쎆phhshs쎯	-9.97992
nznhzp쎯snzszh쎯	-9.98041
쎇-	-9.98077
쎁쎉쎈쎇phhshs쎯	-9.98105
hsshhhpzzzp쎯	-9.98123
hszhszsn쎯	-9.98138
hshhpsn0쎯	-9.98336
nnzpz1쎯pssnz쎯	-9.98474
zhzpzzpn쎯	-9.98596
nhnph	-9.98802
쎀.쎅	-9.9881
zphzhh쎯zph쎯	-9.98823
pnzn0쎯hzhpszpn1쎯	-9.98855
pzzzhszh쎯	-9.98911
nhnphszhzzs쎯、	-9.98935
shhzs1쎯zhpszssz쎯	-9.99012
쎀×	-9.99053
pnzn0쎯zhszh1쎯.	-9.99107
pshz1쎯、	-9.99318
pzzhz0쎯pnhzszh쎯	-9.99324
nphhps쎯hpsn0쎯	-9.99407
、n	-9.99419
153쎯nzhszhszh쎯	-9.99468
zphzsz쎯pszhhpzn쎯	-9.99472
pshs쎯	-9.99559
nnnphshszh쎯	-9.99574
hhshszhhhsh쎯h	-9.99631
phzhhspn쎯	-9.99743
hsh2쎯hp1쎯	-9.99757
hpszhzzpn0쎯	-9.99782
pspzhszs쎯	-9.99822
szhhz2쎯zzh0쎯nh	-9.9992
hzhpnzp0쎯	-9.99969
shnpn쎯pphszh쎯	-10
hhhshspnhszs214쎯	-10.0006
,hsszhhhh0쎯	-10.0006
pzn0쎯	-10.0018
hzhzhpszszs쎯	-10.0022
snpnzszhpz쎯hsz	-10.0025
hhpsznp쎯	-10.0042
hszpzhhnhpnpnhs쎯	-10.0045
쎁쎉쎈쎉phhshs쎯	-10.0046
nnzphz쎯	-10.0051
zphpnnzpn쎯	-10.0058
nhpspnzp쎯szhs쎯	-10.007
hszpzh쎯nhzp쎯	-10.0074
hspnnhnpnznhzp쎯	-10.0088
hszpzhh	-10.009
pnhhspnzn0쎯	-10.009
pnhszh쎯pznnzshz쎯	-10.0092
znhshzp0쎯	-10.0097
쎀pnzp쎯phhhzszhs쎯	-10.0099
nnnnhnpszhsszh쎯	-10.0101
hpszhszhhhhzn쎯	-10.0103
hpnz0쎯szpn1쎯	-10.0105
zhz1쎯hppzhh쎯	-10.0107
pnshsh쎯	-10.0112
hshshpnpzzhh쎯	-10.0115
shhshspnh쎯	-10.0118
zpn3쎯zzhszhhh0쎯,	-10.0129
,phzhznp쎯	-10.0131
szhsnzpznn쎯hhs쎯	-10.0134
hszhhpn쎯pznszh1쎯	-10.0135
hszpnn쎯szhhhzp0쎯	-10.0147
쎁、	-10.0152
hpnpnpnpnpn0쎯	-10.0155
shhsznzzp쎯	-10.0169
nphzpnhsszhpznn쎯	-10.0171
phzznnh쎯pns쎯	-10.0175
,h쎯	-10.0179
pzppzszh쎯	-10.0179
szhshzp1쎯,	-10.0184
zphszhhh1쎯	-10.0206
hsshpnzhz쎯	-10.0211
nzpzpn0쎯nzhp쎯	-10.0215
zhszh1쎯nnnhshzn쎯	-10.0217
h쎯pshzn1쎯	-10.022
nhphsshzn쎯,	-10.0224
pszhhh0쎯phzhznp쎯	-10.0229
hszpnn쎯nzpnn쎯	-10.0231
hshnphhsh쎯hzzp1쎯	-10.0237
,nhpzpn0쎯	-10.0238
zz2쎯h쎯pns쎯	-10.0246
szhshpnps0쎯shh쎯	-10.0254
zzp쎯hsh	-10.0262
shszpn0쎯	-10.0276
hszsn쎯nzzhz쎯.	-10.0278
nnhshpzpzn쎯	-10.0282
hszhhznp쎯pzzhhz쎯	-10.0289
,zzshppzhhnzzn쎯	-10.0295
pnhhsnph쎯	-10.0306
hspnhhhpnhhs쎯	-10.0314
hhpzpnzph쎯	-10.0318
.pnpn1쎯	-10.0321
zhznhzzn쎯	-10.0322
쎁쎉쎉쎁phhshs쎯	-10.0325
nnhs쎯pzzhhz쎯	-10.033
phspnszhs쎯zzh0쎯	-10.0338
”phnphnhshhzn쎯	-10.0338
szhpszhphhpn쎯	-10.0345
nphzpnnnhs쎯,	-10.0347
zpznn쎯szhhpzhh2쎯	-10.0349
zpn4쎯hspnpz2쎯	-10.0352
phspnszhpn1쎯쎃	-10.0353
.쎂.	-10.0353
pz0쎯nhzp쎯pszszh쎯	-10.0356
hspn2쎯shhsnnnzz쎯	-10.0358
hzhzpznn쎯	-10.0366
phshpzpp쎯ssnph쎯	-10.0366
nhpnnpshhzhhszn쎯	-10.0367
phnphnzhhp쎯	-10.037
szhhhsh1쎯,	-10.0374
pzhhs0쎯hnphspn쎯	-10.0376
pnzphpszpn쎯	-10.0377
szhhshnh쎯pznsn쎯	-10.0381
nnnpszhh쎯	-10.0382
nnnpnhpn쎯	-10.0391
nnnhszsshhhspn쎯	-10.0393
.zpnzhh0쎯	-10.0395
hspnpphs0쎯	-10.0397
szhzph쎯h	-10.0399
phzznnh쎯phhshs쎯	-10.0401
hssnnnzzpp쎯	-10.0414
szhzp0쎯h쎯	-10.0418
pn2쎯hszhzhhz0쎯	-10.043
nnzphshpz쎯	-10.0443
znpzhhsnzzn쎯psh	-10.0444
zzspn쎯pshszh0쎯	-10.0446
hphhzpn쎯	-10.046
hpnphzsppzpn쎯	-10.0462
hzshpphsszhh쎯	-10.0466
phhzzzhznnpn쎯	-10.0471
phspnszhspn쎯	-10.0477
pspzzs쎯	-10.0485
쎉쎆	-10.0485
,hzhzshz쎯	-10.0499
zhphhzn쎯hhpzpn0쎯	-10.0517
h쎯hshhpszpn쎯	-10.052
hhshszhhhsh쎯,	-10.0521
hzhhppnn쎯쎁	-10.0523
szhzshz1쎯	-10.0524
zpznn쎯hhznzp쎯	-10.0527
pnnhpnzsszshn쎯	-10.0527
nhszhphhz1쎯hpn1쎯	-10.0539
쎇쎉	-10.0542
szhs쎯zpn3쎯	-10.0543
zzhspnp쎯	-10.0545
ppznnhpzzn1쎯	-10.055
쎃)	-10.0554
hzhhhpn쎯	-10.0554
zhhhhszzn쎯nzpnn쎯	-10.0559
pn3쎯phshpznzzn쎯	-10.0571
hzhszh2쎯	-10.0579
szhszpnzp쎯	-10.058
hsshhhpnpphs쎯·	-10.058
shszhhhspn쎯	-10.0585
쎁쎉쎈쎂phhshs쎯	-10.0585
psshszpn쎯	-10.0588
、nhnphhspnpphs쎯	-10.0589
pznnpzhpzz쎯	-10.0611
nzzhz쎯hshpszhh쎯	-10.0613
pnphz0쎯	-10.0614
쎈쎄	-10.0615
phshpzphshpzszpn	-10.0627
szhzpsz쎯pznszh1쎯	-10.063
zznnh쎯nhnphhspn쎯	-10.064
zhpszhnhnphhs쎯	-10.0644
hnzshhhhpznzp쎯	-10.0644
nphszs쎯、	-10.0647
nhpnnpznzpszhsh쎯	-10.0655
zpnnznn0쎯	-10.0657
쎀쎃	-10.0659
shh쎯hsn쎯	-10.0661
hspnszhszh쎯	-10.0663
hspnhszhh쎯	-10.0663
.nnnhhshpzhh쎯	-10.0666
nnnpnpnszh쎯	-10.0682
hhshszhhhsh쎯sz	-10.0682
hs1쎯phhshs쎯	-10.0703
pzhhpnhnnph쎯	-10.0704
%.	-10.0705
ppshhz쎯hhznzp쎯	-10.0709
phspnszhs쎯.	-10.0713
szhpz1쎯npzhzsp쎯	-10.0718
szhhhzn2쎯zsz0쎯	-10.072
nsnzhpn쎯pzzpn0쎯	-10.0722
.nhpzhhsszh쎯	-10.0724
phhsh1쎯hznpznn0쎯	-10.0726
hzhpzhzh쎯	-10.0745
hzhhssnzzp쎯	-10.075
쎀쎆	-10.0751
sszhszhpsnhhhsh쎯	-10.0759
pzzpn0쎯zzspn쎯	-10.0759
ppznnh쎯	-10.076
-쎅	-10.0763
,nnzzzh0쎯	-10.0764
쎅쎉	-10.0773
hzhz1쎯pshpznsz쎯	-10.0776
nnnphpn1쎯	-10.0778
쎀hpszhhhsh0쎯	-10.079
,h쎯ppznnhpzzn1쎯	-10.0795
nnnnhpnsz쎯	-10.0799
hphszhnphhzn쎯	-10.0806
szhhhzn0쎯pn2쎯	-10.0806
hnphs쎯p	-10.0806
쎀쎀hnphs쎯nhzp쎯	-10.0807
pphszh쎯pszhhpzn쎯	-10.081
nhppspsnhhhsh	-10.081
pszhhpzn쎯《	-10.0818
phhhzpznszh1쎯	-10.082
,szhshzp1쎯,sz	-10.0823
psszhhszhh1쎯	-10.0824
pznzp쎯zhpzszh쎯	-10.0827
:쎂	-10.0829
쎀.쎀	-10.083
pszhhhp쎯pspnzp쎯	-10.0832
쎂쎀hsshz0쎯zzhzhz쎯	-10.0836
ppspzszn쎯	-10.0838
zzzszhhhspn쎯	-10.0839
쎀-	-10.0841
shhzpnzn쎯	-10.0843
hhps2쎯hzhhpszh0쎯	-10.085
pn2쎯hpn1쎯	-10.0851
쎆쎉	-10.0864
znzzs쎯	-10.087
hszsshhspn쎯	-10.0873
hzhhszn쎯hshhz1쎯	-10.0874
phzn쎯.	-10.0885
szhhz2쎯hphshn쎯	-10.0889
hpz0쎯hhpz0쎯,	-10.0896
pnpn2쎯zznnh쎯	-10.0901
hpzn3쎯	-10.0908
nnnhspnhspn쎯	-10.0909
szhshshnnzhhspn쎯	-10.0909
shhsnnn	-10.0913
zzhphspnpz쎯	-10.0914
hpsn0쎯pnhhzn쎯	-10.0916
h쎯hszn0쎯	-10.0916
hspnhhhshz쎯	-10.0925
쎉쎂	-10.0928
.hhshszpz쎯npzn0쎯	-10.0929
쎈쎃	-10.0929
hzhpnnpnzzn쎯、	-10.0938
pnhszh쎯pnhhzn쎯	-10.0939
psnpzn쎯	-10.0949
nppnhpszpn쎯	-10.095
hspnpz2쎯、	-10.0955
zhzhzn0쎯nphszs쎯.	-10.0969
hpznhz1쎯nhz쎯	-10.0975
pzn0쎯h쎯pshspnh0쎯	-10.0994
pnhhzn쎯phzn쎯	-10.0994
hhh쎯hpn1쎯	-10.0997
쎁쎂쎈	-10.0998
hzhnnzpzz쎯	-10.1001
쎈쎇	-10.1003
쎀쎇	-10.1009
,hshznzs쎯	-10.1009
phspnszhphsh쎯.	-10.101
nphspnpznhshs쎯	-10.102
nhpsn	-10.1021
pzszhpzn쎯	-10.103
pnpnh쎯hszsn쎯	-10.103
hshh1쎯phshpzpp쎯.	-10.1041
nzpzpn0쎯psp	-10.1041
szhhhzn0쎯hsh	-10.1046
nsnhszhszh쎯	-10.1047
nhzpphphhpn쎯,	-10.1057
”nhpn0쎯	-10.106
szsshpzszhshn쎯	-10.1071
,shhhz쎯	-10.1073
,szhhz1쎯	-10.1073
hhhshspnhszs219쎯	-10.1076
hnphs쎯hpszsshhh쎯	-10.1083
nppnpszhhhhsh쎯	-10.1084
pn2쎯hsh2쎯	-10.1097
nhpn0쎯nphpzhhsz쎯	-10.1099
,hshzsz쎯pznpn쎯	-10.1108
hspnpzzn2쎯,	-10.1109
pzhhs0쎯pszhhpzn쎯	-10.1109
쎯hshpzhh0쎯phhz2쎯	-10.1133
szhhhshznzzhsh쎯	-10.1135
nsnnpszhpz쎯	-10.1135
hzhpnzz쎯	-10.114
hsh0쎯hshnh	-10.1141
szpnpn0쎯shh쎯	-10.1141
hs1쎯pnhhspn1쎯	-10.1142
nzsnnpnpsnhhhsh쎯	-10.1143
hzhnhpz쎯szhh3쎯	-10.1145
(쎂)	-10.1146
nsnpsnhhhsh쎯	-10.1147
pzszhhz쎯	-10.1147
hzphpz쎯	-10.1149
pzhhnhphsh쎯	-10.1154
hpnn1쎯	-10.116
hshzsz쎯,	-10.1164
hssznphhs쎯nhzp쎯	-10.1166
hhpsnzn쎯szh0쎯	-10.1169
nsnzzshszpn쎯	-10.117
hszspnnn쎯	-10.1174
szszs0쎯,	-10.1179
nhszhnzszhpznn쎯	-10.1181
szhs쎯hsszzhpzn쎯	-10.1182
szhhhphsshhshh쎯	-10.1182
hspnpzzn2쎯.	-10.1183
phnphnzzhpzpppn쎯	-10.1188
hzhnhp쎯hpn1쎯	-10.12
쎆쎁	-10.1204
szhpzpn0쎯	-10.1205
hsh2쎯pn2쎯	-10.121
hhznnzzn쎯pnhhzn쎯	-10.1213
pszzh1쎯	-10.1215
”szhhhshpn쎯	-10.1229
pszhhpzn쎯h쎯	-10.123
nzhzh쎯pszhhpzn쎯	-10.123
-쎆	-10.1237
,phzhznp쎯pssnz쎯	-10.124
쎈pns쎯	-10.1245
hpszhpzszn쎯hsh	-10.1252
쎇쎄	-10.1254
hsn쎯hshhzshznp쎯	-10.126
pzznszssh쎯	-10.1264
nppnnphhh쎯	-10.1268
,nhszhszszh쎯	-10.1269
nhzpphpn쎯hpshsh쎯	-10.1275
,szhpnh쎯npzn0쎯	-10.1281
,shshhz0쎯	-10.1284
hshzshppzzn	-10.1293
hshzsz쎯psnhnph쎯	-10.1298
phhszsshh	-10.1299
pshznhshsz쎯pn3쎯	-10.1301
.쎀쎇	-10.1307
zzsszhh0쎯snphpz쎯	-10.1309
nnzzph쎯szhhhzn0쎯	-10.1315
pnhzhhzpn쎯hphz0쎯	-10.1316
nhnphshszh쎯.	-10.132
phhsh1쎯hpszzh쎯	-10.1321
zsz0쎯hszhz1쎯	-10.1326
zpnn1쎯nnnhshzn쎯	-10.1328
,szhhh0쎯	-10.1329
hshphzszhh쎯	-10.1329
.(	-10.1329
nznpszhpz쎯,	-10.1332
쎂쎂쎀	-10.134
szhhhspnpphs쎯	-10.1341
zpnpsnhhhsh쎯	-10.1345
쎁쎉쎈쎃phhshs쎯	-10.1346
nhnph쎯pshspnh0쎯	-10.1354
hszsn쎯nzzhz쎯,	-10.1354
szhhhshpn쎯pns쎯	-10.1377
pnzzsz쎯zphznszh쎯	-10.1379
hszhh0쎯hpn1쎯	-10.1383
,pszsz쎯pssnz쎯	-10.1384
sszhhhspnznnznn쎯	-10.14
pnznznnznn쎯	-10.1403
hhzsnzn쎯	-10.1407
hphhzpnszh쎯	-10.1412
hpzznp쎯.	-10.1414
zn쎯	-10.1423
nhpspnpnpnszh쎯	-10.1425
nhpsnzhszh쎯	-10.1429
pnnpnzzn쎯znzz0쎯	-10.1429
ppsphhhzhhz쎯	-10.1435
nnnhsshhhpzz쎯	-10.1437
pnhhpn0쎯hsszs쎯	-10.1439
shhhz쎯nhzp쎯	-10.1441
hshzsz쎯hshshsh쎯	-10.1446
nnzszhhzph쎯	-10.1447
pzn4쎯	-10.145
hhshspnhszs115쎯	-10.1456
hsh2쎯nzpzpn0쎯	-10.146
nhhsh쎯pshspnh0쎯	-10.1461
pzznzpn쎯.	-10.1461
pshpzn2쎯pshz1쎯	-10.1468
zphznnznn0쎯	-10.1472
쎂쎀쎀쎆	-10.1488
pzpzzhszssh쎯	-10.1491
nsnhpzn1쎯	-10.1493
hhshhps0쎯	-10.1494
,nhzpphpn쎯pn3쎯	-10.1495
hhh쎯hs1쎯	-10.1496
szpnszhhpzpp쎯	-10.1507
zzhzs쎯	-10.1518
nphhps쎯szhhh0쎯	-10.152
zzpn0쎯nnnzhphz쎯	-10.152
nzhsshszhhhsh쎯	-10.1524
nhpzpnzn쎯hpzznp쎯	-10.1531
pznhhhsnzzn쎯	-10.154
쎂쎀쎀쎈	-10.1541
ppszhhzpn쎯hpn1쎯	-10.1546
zpnp쎯zph쎯	-10.1552
nhzp쎯psnhnph쎯	-10.1557
szhhhphhzpn쎯	-10.156
zpszh0쎯hshpzszn쎯	-10.1567
hpnz0쎯phspnzph쎯	-10.1571
szshphshhsh1쎯	-10.1571
nnnnhpnps쎯zpznn쎯	-10.1574
psszhhhhpn0쎯	-10.158
쎀쎈	-10.158
zzzszhhhspnsz0쎯”	-10.1585
zpn4쎯ppshhz쎯	-10.1588
쎈쎉	-10.1588
hznnzzn쎯hshzn0쎯	-10.1593
zphhhspn0쎯	-10.1594
npszhhhs쎯hhpz0쎯	-10.1595
hhshnhszhzpn쎯	-10.1595
쎈-	-10.1607
hszpzh쎯shh	-10.1609
znpznnhzhz쎯:	-10.1614
hpnz0쎯.	-10.1615
.szhszh1쎯	-10.1617
phhsh1쎯hhznzp쎯	-10.1618
hhs쎯nppn	-10.162
hspnhszhz쎯	-10.162
n0쎯nhnphszhzzs쎯.	-10.1625
nzhzhs쎯zzspn쎯	-10.1638
zzs쎯	-10.165
pphszh쎯hpshsh쎯	-10.1652
nhpn2쎯pznszh1쎯:	-10.1652
hspnhszhhpn쎯	-10.1658
shhsnnnhpzhhsn쎯	-10.1658
쎁쎉쎀	-10.1664
hzshhhs쎯	-10.1686
쎃.쎅	-10.1692
pnzn0쎯nhpsnhsh쎯	-10.1695
h쎯hspnh0쎯	-10.1703
nzhnphs쎯pshsszh쎯	-10.1705
hhznzp쎯,	-10.1709
hszpn0쎯	-10.1709
pssnpnzhhzn쎯	-10.171
hpn1쎯zzspn쎯	-10.1715
pz3쎯pns쎯	-10.1722
nhhsh쎯zpnn1쎯	-10.1727
nznphhhs쎯zzhsz	-10.1727
nhpsnszhpz쎯	-10.1729
,nnznnhpn쎯	-10.173
h쎯pshhhpzzn쎯	-10.1731
phnphnzhzsp쎯hz2쎯	-10.1734
nhszhnzhpzpppn쎯s	-10.1748
쎁쎉쎈쎁phhshs쎯	-10.1749
nnnzhzps쎯	-10.1754
zhpszssz쎯	-10.1757
szszs0쎯hsh0쎯	-10.1767
pszhhhp쎯npzn0쎯	-10.1769
nppnnnzpnpnszh쎯	-10.177
hsshhh쎯hspnpz2쎯	-10.1779
pnhszh쎯phshpzpp쎯	-10.1779
nhpnnhszpn쎯、	-10.1784
hpn1쎯pznpzn0쎯	-10.1793
、hszhszhshsz쎯	-10.1796
,hpzp쎯pshhsh0쎯	-10.1807
hpszs0쎯zhpzszh쎯	-10.181
phnphnzhzsp쎯쎁	-10.1814
:쎃	-10.1821
pp	-10.1824
pshznp쎯	-10.1833
zhhznzs쎯hszhz1쎯.	-10.1833
phhshs쎯snzszhh쎯	-10.1838
》pszhhpzn쎯	-10.1839
hhps2쎯nzpzzn쎯	-10.185
nhpnps쎯pnhhsh쎯	-10.1855
hpsn0쎯phhpnszh쎯	-10.1861
hshzzpp쎯shh쎯	-10.1863
hhhzn2쎯snzszhh쎯	-10.187
shhspznhhhsnzzn쎯	-10.187
,zsz0쎯hszhz1쎯	-10.1872
zhzphpn0쎯npzn0쎯	-10.1876
pszhhnhzpphpn쎯	-10.1878
nhszs쎯szhs쎯nznn쎯	-10.1886
pszhhphs쎯	-10.1887
hpshsh쎯《	-10.189
hpszhh쎯phhshs쎯	-10.1892
hppzhh쎯shshhzhh쎯	-10.1895
쎉쎄	-10.1895
nhnphszhhhsppp쎯	-10.1899
hzzpn0쎯nhszhzpn쎯	-10.1902
pznpzn0쎯zphhssh	-10.1908
pszhhpzn쎯hshzp2쎯	-10.191
hspnh0쎯znhpnppp쎯	-10.1917
pshz2쎯,	-10.1923
h쎯nphpszhhhnzzn쎯	-10.1924
hsshhhpnpzhh1쎯:	-10.1936
nsnpszhh쎯	-10.1936
197쎯zzh5쎯	-10.194
nnnhphshhsh쎯	-10.1941
pzphsshszhh쎯	-10.1951
nzzhz쎯》	-10.1955
hszh1쎯hs1쎯	-10.1958
szpzh0쎯phhshs쎯	-10.196
hs1쎯nhpn1쎯	-10.197
hsnzzzhzp쎯	-10.1972
、h	-10.1976
nnzhpznp쎯	-10.1977
쎂쎀쎁쎁	-10.1978
쎂쎀쎀쎇	-10.1981
쎀쎀쎀hnphs쎯nhzp쎯	-10.1981
ssnph쎯h	-10.1984
hszh1쎯phhshs쎯	-10.1989
hsszzhszhhszssh쎯	-10.1991
znszpz쎯pnpnpn0쎯	-10.2001
nnnhzhpphs쎯	-10.2015
쎂쎀쎁쎃phhshs쎯	-10.2016
szs1쎯nhszs쎯	-10.2016
nzzhz쎯nsnz0쎯	-10.2025
szhhshnh쎯hppzhh쎯	-10.2026
zzsnnzhhpz쎯.	-10.2034
,nnnhhshpzhh쎯	-10.2036
szhhz2쎯hspnpz2쎯	-10.2037
쎅pnzp쎯phhhzszhs쎯	-10.2039
쎉쎇	-10.204
pzn2쎯szhhszhpn0쎯	-10.2043
nhnphp쎯hspnzn쎯	-10.2049
zzhnhhsh쎯hshzsz쎯	-10.2057
h쎯hznhshpzn쎯	-10.2059
nhp	-10.2062
pn2쎯hshpzhh0쎯phh	-10.2065
zp1쎯nnpzpnszpn쎯	-10.2067
hszhzhhz0쎯phzn쎯	-10.2072
hspnnhpnpn쎯.	-10.2081
zpszh0쎯p	-10.2082
.hsshhhpn0쎯szhs쎯	-10.2083
、hshpzzhphpn쎯	-10.2083
zzh5쎯hsszhpz쎯	-10.2084
、nhnpszpzszh쎯	-10.2087
hszhzhhz0쎯、	-10.209
쎀쎂	-10.2091
hzhhznpznnphpn쎯	-10.2097
,pshhsh0쎯	-10.2098
zph쎯pn2쎯	-10.2108
pz0쎯szhszpn3쎯	-10.2111
nhpsnhsh쎯szhzph쎯	-10.2115
nhnphszhsz쎯	-10.2124
pnhhsh쎯hszsn쎯	-10.213
,szhsh2쎯hhz1쎯	-10.2131
hhzn쎯nnspznhpn쎯	-10.2131
.hpzp쎯pshhsh0쎯	-10.2138
hsshpn쎯nhszhzzh쎯	-10.214
szhhhzhzhz쎯	-10.2143
pznszh1쎯pn2쎯	-10.2144
hshnznn0쎯》	-10.2146
,zpszh0쎯pn3쎯	-10.2147
szhhz2쎯phhz2쎯	-10.2147
zzsnnzhhpz쎯、	-10.2152
pznnhpnszhhz쎯	-10.2152
nphhh쎯npnsns쎯	-10.2154
szszhh0쎯:“	-10.2155
pphsszhhh쎯	-10.2155
hpszhh쎯zphphhsh쎯	-10.2159
nhszs쎯zzhpzzn쎯	-10.2164
z쎯nnpnzzzh쎯	-10.2166
zzshhszs쎯nzhzhs쎯	-10.2168
znzpn쎯zzhnhznpz쎯	-10.2171
():	-10.2184
ppzhszh쎯hhznzp쎯	-10.219
nhpn0쎯pphszh쎯,	-10.219
szhs쎯pznsn쎯	-10.2191
hpnhhspn1쎯	-10.2197
zzhhpnz쎯hhznzp쎯	-10.2198
nsnphhsh쎯、	-10.2205
、hsshszhshpn쎯	-10.2209
쎇쎀쎀	-10.2221
★	-10.2226
pnpnh쎯	-10.2227
93쎯hzzpn0쎯	-10.2234
szhhpzzs쎯	-10.2237
szhszhhhzzzs쎯	-10.2238
쎈쎁	-10.2239
hpzp쎯szhpn3쎯shh쎯	-10.2239
nphzpn쎯pszhhpzn쎯	-10.2241
pn2쎯zhzhz0쎯p	-10.2242
쎀쎉	-10.2243
hhspn쎯pshspnh0쎯	-10.2248
,hsshpn쎯	-10.2263
zzhpzn0쎯쎁	-10.2271
shhsnhzznszhsh쎯	-10.2273
shhsszhhhpnznnn쎯	-10.228
zsz0쎯hpsn0쎯	-10.2282
phspnszh1쎯hnphs쎯	-10.2285
hhhszphpn쎯	-10.2303
shhsphspnsz쎯	-10.2307
쎀쎀	-10.2307
pzpnzhhzpn쎯	-10.2308
zhpn2쎯	-10.2313
nhnphhspnpphs쎯sz	-10.2317
hzzh쎯hhznzp쎯	-10.2317
nhnphpppp쎯	-10.2321
nnzhz0쎯nhszs쎯	-10.2324
:《	-10.2329
hnphspn쎯nnnh	-10.2345
nzhszhszh쎯nhpn2쎯	-10.2347
ˇ	-10.2354
szhzpszh0쎯szh	-10.2362
zsh0쎯szhhphhsh0쎯	-10.2363
nnnpzsznzph쎯	-10.2366
szpz0쎯pszhhpzn쎯	-10.2367
szs1쎯hpnz0쎯.	-10.2382
쎂쎀쎀쎉	-10.2383
pszhhpzn쎯szhhz2쎯	-10.2393
nnznhnphhs쎯	-10.2393
nsznhszs쎯	-10.2397
nppnnppn0쎯、	-10.2397
nnnznhpnppp쎯	-10.2406
pshpzhhsnhzn쎯	-10.2411
szhhhzhz쎯szhshn쎯	-10.2423
hzhzszn쎯hhssz쎯	-10.2431
hszhhpn쎯zphzzh0쎯	-10.2436
hshphz3쎯pn3쎯	-10.2436
zzshphshpznn쎯	-10.2436
szshsshhpzpn쎯	-10.244
zhzzn0쎯	-10.2441
phsszhphpn쎯pn2쎯	-10.2446
(nnpnzzzh쎯	-10.2449
szhszs0쎯	-10.245
nnnnzzpn쎯	-10.2454
zshpszhhh0쎯	-10.2454
hspnhzn0쎯,	-10.2457
szhpzzn0쎯zhzs1쎯	-10.2457
zpszhzzs0쎯	-10.2468
snphpz	-10.247
hh0쎯phhshs쎯	-10.2476
nhnphshszh쎯,	-10.2478
쎄)	-10.2482
zzpn0쎯szhhz2쎯	-10.2483
zhz0쎯	-10.2484
zzhzshh쎯zzhpzn0쎯	-10.2491
phshpz쎯nnpzzhhz쎯	-10.2492
pnhzn쎯pn2쎯	-10.2496
..("	-10.2497
phhhzpsnhhhsh쎯	-10.2501
phhhzhshz쎯	-10.2502
hppzhh쎯:	-10.251
nzhshsh쎯hszsn쎯	-10.2516
hspnpsnhhhsh1쎯	-10.2517
nnspznhpn쎯,	-10.252
phhz2쎯pshspnh0쎯	-10.252
zzhpnhnnph쎯,	-10.2527
szhshshzzpnszhh쎯	-10.2532
zzhssshnszpz쎯	-10.2532
hpssnzszs쎯nnhpn쎯	-10.2534
szpzh0쎯hpn1쎯	-10.2537
nnzpzszhszpn쎯	-10.2537
nhpnpnhs쎯	-10.2544
hszpzhhhzszhh쎯	-10.2549
nzphspnpz쎯	-10.2552
nhpnnpznnn쎯	-10.2554
-쎉	-10.2556
/////.",(){(	-10.2557
-쎈	-10.256
쎁쎀쎀쎀쎀쎈쎀쎁);});	-10.2562
hs1쎯pn4쎯	-10.2566
쎁쎀-	-10.2568
pn2쎯szh0쎯쎂	-10.2572
zzsnnzhhpz쎯,	-10.2577
、phspnszhh쎯	-10.2578
zz2쎯.	-10.2585
pzpzhshzpphhs	-10.2585
nnnhhsh쎯	-10.2587
szhhs0쎯pshz2쎯	-10.2591
.쎀쎉	-10.2592
phnphnzhzsp쎯쎂	-10.2594
phzn쎯nhphsshzn쎯	-10.2603
pszs1쎯	-10.2604
”npzn0쎯	-10.2609
szpnhhpznp쎯	-10.2611
pshsh1쎯	-10.2612
hphhpnz쎯phhsh1쎯	-10.2613
pzzn3쎯szhhhzn2쎯	-10.2614
ppszhhzpn쎯hhz1쎯h	-10.2615
pnzn0쎯hpszs0쎯	-10.2615
,pznpzn0쎯	-10.2618
,znpznnhzhz쎯	-10.2618
hssnnspznhzn쎯	-10.262
nnnnhhsh쎯:“	-10.2621
nnnshhsszhhhpn쎯	-10.2625
pnzs쎯	-10.2627
pzzpn1쎯·	-10.2628
pzppnznn쎯	-10.2637
hzshz쎯	-10.2638
ppsnnnhhz쎯	-10.2639
snphpz쎯sz	-10.2652
hszsn쎯phnphn	-10.2652
》szhs쎯pszhhpzn쎯	-10.2656
zpznn쎯hznpznn0쎯	-10.2657
쎉쎀쎀	-10.2658
ppznnhphshzzn쎯	-10.2665
zzhhpnz쎯	-10.2665
zzhzhz쎯phspnzph쎯	-10.267
pphszh쎯hnphspn쎯	-10.2675
shhsnhz쎯	-10.2682
szpzh0쎯hs1쎯	-10.2686
hppzhh쎯h쎯pns쎯	-10.2687
hzhhszph쎯	-10.2688
szhhz2쎯sz	-10.2689
쎇쎁	-10.2691
hsszh쎯szhsshpn쎯	-10.2695
pzphnphpn쎯	-10.2711
hhshzn3쎯,	-10.2714
hsszppn쎯hpnz0쎯	-10.2716
hpn1쎯pnpnpn0쎯	-10.2716
hzhshhsszhhhpn쎯	-10.2721
hphspzhspzphhz0쎯	-10.2722
pszhshpzznhhspn쎯	-10.2723
hszsshhhspnpzpn쎯	-10.2724
1	-10.2726
hszpzh쎯h	-10.2726
hhhspn3쎯shnpn쎯h	-10.2732
hhs3쎯nzhhshpzhh쎯	-10.2732
nnnppzh쎯	-10.2735
pzzn1쎯	-10.2739
123쎯hhshszhhhsh쎯	-10.274
,hpn1쎯	-10.2741
nnpnzzzh쎯hsh1쎯	-10.2748
szhshzp1쎯zzh0쎯	-10.2754
pzn7쎯	-10.2758
zhspnnzzn쎯pnzn0쎯	-10.2759
shnpn쎯npzn0쎯	-10.2762
nzhszhszh쎯:	-10.2766
zzspnhhspn쎯zz2쎯	-10.2767
hsh2쎯psphshh1쎯;	-10.277
hshshpnzhz0쎯,	-10.2775
nzhhps쎯nphszs쎯	-10.2776
phhhzpnhzn쎯	-10.2791
nznn쎯pshz1쎯	-10.2791
,hsshhhzn0쎯	-10.2795
szhshnphhs0쎯	-10.2796
nhpsnzhhzzpn쎯	-10.2807
szpn1쎯,	-10.2808
shhsnnnzpnp쎯	-10.2812
nhszhszszh쎯hs	-10.2816
nnnszhsh0쎯、	-10.2817
pznnhzszhh쎯pznn	-10.2818
().	-10.2819
.쎂、	-10.2823
zhzhzn0쎯nphszs쎯,	-10.2833
hhz2쎯nnnpzhspn0쎯	-10.2835
hppzhh쎯szhhhzn2쎯	-10.2846
psnphs쎯	-10.2848
pz2쎯zzh0쎯	-10.2857
z쎯	-10.2862
shnpn쎯phspnszhs쎯	-10.2864
shhspshz쎯phhsh1쎯	-10.2878
szsshpznnzzn쎯	-10.2885
,phzn쎯	-10.2896
hs1쎯hhh쎯	-10.2898
hspnszhhh쎯	-10.2898
pszhh0쎯pphsszpn쎯	-10.2899
h쎯shszhnnnn쎯	-10.2906
shhshhpzpn쎯	-10.2914
hspnhsszh쎯	-10.2916
szhszhpnh쎯	-10.2926
hpn쎯hspnhzn0쎯,zh	-10.2929
hspnnnnn쎯szszs0쎯	-10.293
hspnnhpz쎯	-10.2932
pshhzn1쎯》	-10.2932
pzhh	-10.294
szszh2쎯	-10.2945
nphzpnzznzpnhps쎯	-10.2947
zhpppsphszhhpzn쎯	-10.2951
phhpnhszhh쎯	-10.2951
phnphnnphpzhhsz쎯	-10.2951
,phsszhnzzn쎯	-10.2953
zhzphzn쎯)	-10.2962
h쎯phhsh1쎯	-10.2962
pz3쎯pnphz0쎯	-10.2964
zhp0쎯	-10.2965
쎁쎈쎀	-10.2967
hszspnsz쎯n	-10.2976
nhhsh쎯nnnznszh쎯	-10.2983
nnnpszhh	-10.2989
hzhzhs0쎯	-10.2989
(-	-10.2997
(쎃	-10.3
hszhz1쎯hpnnzzn쎯	-10.3004
nhszhzzh쎯hppzhh쎯	-10.3005
―	-10.3006
zsz0쎯phspnpzzpn쎯	-10.301
hszpzhhphspn쎯	-10.3011
hspnhshpzpzn쎯	-10.3012
zzhszhszhhz쎯	-10.3019
phshpz쎯hhpsnzn쎯n	-10.3022
h쎯hpnshhhhzn쎯	-10.303
nphszhhpz쎯nnhpn쎯	-10.3031
nhphpnszhhz쎯	-10.3038
pnzn0쎯nhpnpn0쎯	-10.3039
nzhnphs쎯nzpnpz쎯	-10.3042
pzhhzszn쎯pznzp쎯,	-10.3045
szhszhszh0쎯、	-10.3046
nnhzzpn쎯	-10.3053
hpznsznnnn쎯hsh1쎯	-10.3055
nzszhpn쎯szhzpsz쎯	-10.3057
hpszss쎯szhhh0쎯	-10.3066
shszhhznp쎯hsh1쎯	-10.3076
zphszh1쎯shshhz0쎯	-10.3077
-쎀쎁	-10.3079
hpnz0쎯hshshphpn쎯	-10.3079
hpn1쎯hspnphpnps쎯	-10.3082
szspsnhhhsh0쎯	-10.3086
shnpn쎯nphpzhhsz쎯	-10.3093
hhz1쎯쎂쎀쎁쎀phhshs쎯	-10.3094
hspnhzn0쎯、	-10.3096
pzzpn0쎯sz	-10.3104
hzhhsshpn쎯	-10.3104
hs1쎯hpn1쎯	-10.311
,n	-10.3111
zs0쎯hspnzhhzpn쎯	-10.3115
hzhzhs0쎯ssnph쎯,	-10.3122
,《	-10.3131
shhshnphs0쎯	-10.3137
hszsn쎯,	-10.3143
pszhhh0쎯nhhsh쎯	-10.3143
nnzpnzp0쎯	-10.3147
(쎁쎉쎀	-10.3147
hhznzp쎯.	-10.3167
nnnpsnphzpn쎯	-10.3169
zph쎯zzhnhzppn0쎯	-10.317
pznpn쎯.	-10.3171
pns쎯pshspnh0쎯	-10.3172
szhszhszh0쎯h	-10.3172
nhpnnzhhzpn1쎯	-10.3175
nhpnnnppnnppn쎯	-10.3177
pznpzn0쎯hhpz0쎯	-10.318
zp1쎯nnpnzzzh쎯	-10.3185
shhspnzp쎯	-10.3187
쎈쎀쎂.	-10.3195
,nphhps쎯hpshsh쎯	-10.3195
snnhpnn쎯nnszhpz쎯	-10.3202
nphzpnzphphpn쎯:	-10.3205
nnnnzhzh쎯	-10.3208
zzhhhznp0쎯,	-10.321
쎂쎅쎀	-10.3211
pshz1쎯snnzph쎯	-10.3212
쎂쎀pnhhspn1쎯	-10.3215
nnnhsshz쎯	-10.3223
ssphpnnznn쎯pzn1쎯	-10.3225
phspnszhpn1쎯쎄	-10.3226
.pnzp쎯hpszs0쎯	-10.3238
nnzzph쎯nhszs쎯	-10.324
hphshpznnnzzn쎯	-10.3246
hhhzszhshhsshpn쎯	-10.3254
pzzpzzhz쎯	-10.3254
쎇pns쎯	-10.3262
phhzznhsh쎯	-10.3271
zph쎯pz2쎯	-10.3273
nhnphszh	-10.3274
phhhzpzzn1쎯	-10.3275
phzhznppznzh쎯	-10.3276
쎂hnphs쎯nhzp쎯	-10.3278
szhs쎯hppzhh쎯	-10.3282
nsnphhsh쎯.	-10.3282
hsszh쎯hshphz2쎯	-10.3295
쎅hnphs쎯nhzp쎯	-10.3299
hspnszh1쎯	-10.3301
.nnzhspn쎯	-10.3306
hhh쎯phnphnhs	-10.3307
pnhz0쎯hhpn0쎯	-10.3308
shh쎯hppzhh쎯	-10.3312
szhs쎯nznn쎯、	-10.3313
zhhspspn쎯	-10.334
zzpn0쎯,	-10.3343
psszspsnhhhsh쎯	-10.3345
hhz1쎯쎂쎀쎀쎉phhshs쎯	-10.3348
hhzn0쎯nnnnhhsh쎯	-10.335
phnphnhshhzn쎯,	-10.3351
zp1쎯pszhhpzn쎯	-10.3351
,snpnzszhszs쎯	-10.3353
쎀쎁	-10.3354
zhhhzn쎯hzhhznp0쎯	-10.3356
.쎀쎈	-10.3356
hsshhhnpszhnznn쎯	-10.336
、hpn1쎯	-10.3369
pnzn0쎯nhhsh쎯	-10.3377
hs1쎯szpzh0쎯	-10.3388
szhpsnhhhsh0쎯	-10.3391
쎂쎄쎀	-10.3409
hhshszpz쎯szszs0쎯	-10.3413
szhpz1쎯	-10.3416
쎈.	-10.3421
hhznzp쎯pszhhpzn쎯	-10.3422
쎁쎉쎇쎈phhshs쎯	-10.3426
pszhzhhs쎯	-10.3447
hsshhszhshpn쎯	-10.3466
nhnphszhhpzpnz쎯	-10.3471
zhphsshzpn쎯.	-10.3474
h쎯hpssnzszs쎯	-10.348
shhsnznn쎯	-10.348
247쎯szshpszh0쎯	-10.3481
.zphzsz쎯	-10.3489
hznnpnn쎯,	-10.349
pzhh1쎯쎁szhh3쎯	-10.3491
pznzpszhsh쎯hsn쎯	-10.3498
pszhhhhpnn쎯	-10.3499
hzhpphsn쎯	-10.3504
hzhpzhhs쎯	-10.3506
nhpnpn쎯	-10.3506
쎁쎉쎈쎀phhshs쎯	-10.3507
hzhppznnhpzzn쎯	-10.3518
pznnhszn쎯	-10.3519
hpzznp쎯pn2쎯	-10.3527
zpznn쎯szhhz2쎯	-10.3528
szhhhspn3쎯.	-10.3529
pnzp쎯,	-10.3533
°C,phhshs쎯	-10.3534
쎉쎁	-10.3537
hhszs0쎯zzspn쎯	-10.3544
npzn0쎯h쎯	-10.3551
쎁쎆쎀	-10.3556
szhhzsh쎯szpn1쎯	-10.356
szpnpzzn쎯znnhpn쎯	-10.3564
,phnphnsnzszhh쎯	-10.3565
/쎃	-10.357
nnnhsh쎯szhhhzn0쎯	-10.3572
pz쎯zhphsszhsz쎯	-10.3577
zhpn2쎯hzn0쎯:	-10.3577
znn1쎯	-10.3577
nhpspnszhsh0쎯	-10.3578
hpszhhhsh0쎯	-10.3586
phhhzpzpn쎯	-10.3589
쎃쎀쎀쎀	-10.359
pphs0쎯zzhpzzn쎯	-10.3591
nnzpz	-10.3597
～쎁	-10.36
,hszpnpn쎯	-10.36
szhpszszh쎯zp1쎯	-10.3606
nzpn0쎯hszhz1쎯	-10.361
snphpz쎯nnpnzzzh쎯	-10.3611
쎁.쎂	-10.362
zpszhzzh쎯	-10.3624
hzhnhnph쎯hz0쎯	-10.3624
nnnhhhphzn쎯	-10.3625
쎁쎉쎁	-10.3641
,psszhshpn쎯	-10.3641
hshpzhh0쎯hppzhh쎯	-10.3642
phzn쎯hhhpnszhh쎯	-10.3642
hshshpn쎯pszszh쎯	-10.3644
zhznznn0쎯	-10.365
zphhsszh쎯	-10.3652
hzhnhnpszhsszh쎯	-10.3653
pnhppznn쎯	-10.3654
pszhhpzn쎯pzpn2쎯	-10.3661
hsshhhpzpzs쎯	-10.3664
.szhpnh쎯	-10.3665
zzhhshszh0쎯sz	-10.3668
hsszh쎯hshhpzznp쎯	-10.3672
phnphnhpzpn쎯	-10.3673
phhs1쎯	-10.3674
szhssh0쎯,	-10.3675
pznnnnzzph쎯	-10.3678
pznpzn0쎯hshzp2쎯	-10.3684
hsn쎯nzpzzn쎯	-10.3685
psphshh1쎯“	-10.3687
zphzhz0쎯	-10.3695
nnnszhhhzhz쎯nn	-10.3699
phspnszhphsh쎯h	-10.3702
hpshsh쎯sz	-10.3704
szpnszpnzph쎯	-10.3704
,nhhsh쎯	-10.3705
hpsn0쎯szhshpn1쎯	-10.3706
쎁.쎀	-10.3719
hszpzhhhshpzzh쎯	-10.3723
pnpnhspnhspnhpn	-10.3727
nhpppzh쎯	-10.3729
pshzszpn쎯pszs1쎯	-10.3733
nhzp쎯nnnhshzn쎯.	-10.3735
hshpzhh0쎯npzn0쎯	-10.3738
쎃pnzn0쎯szhhhsh1쎯	-10.3739
hzhszhpznn쎯	-10.375
hspnhzn0쎯pn2쎯.	-10.3751
phzpnnphhshnnnn쎯	-10.3752
hszhsh0쎯hhpzpn0쎯	-10.3753
hhps2쎯pnhhpn0쎯	-10.3765
szhhhzn0쎯phzn쎯	-10.3765
쎉.	-10.3766
쎂pnzn0쎯szhhhsh1쎯	-10.3769
szhhhhhshpzhh쎯	-10.377
hhhshspnhszs107쎯	-10.3781
phspnnnhs쎯、	-10.3783
nnnszhhh1쎯	-10.3788
,zhz1쎯	-10.379
pznsn쎯nzhszhszh쎯	-10.3793
hsshszhhs	-10.3793
zphphpn쎯	-10.3794
hhspznhshszpn쎯	-10.3794
hzhnhszhszszh쎯	-10.3806
zpn3쎯pz2쎯	-10.3812
nhphsshzn쎯.	-10.3814
hnzsnnpnphzznnh쎯	-10.3818
nhpnnpnzz쎯	-10.3818
phhhshhhhzhs쎯	-10.382
)pn2쎯.	-10.3824
nnnznppnhszhnph쎯	-10.3828
.”nnnhhshpzhh쎯	-10.3832
zhphhspnhzn쎯	-10.3832
”(	-10.3835
、szhhz2쎯	-10.3835
hhpnszhshn0쎯	-10.3836
hshhpzznp쎯zzp쎯	-10.384
pspphpnps쎯	-10.384
)phspnszh1쎯	-10.3841
pszhhpzn쎯nznn쎯	-10.3841
.쎁쎀	-10.3853
,hsn쎯	-10.3864
szhhhzn0쎯pn2쎯,	-10.3872
쎂쎀쎀쎃	-10.3872
hshpszhzhhs쎯	-10.3877
쎄hnphs쎯nhzp쎯	-10.388
,nnnnzpzhspn쎯	-10.3883
szsshszh1쎯	-10.3884
hpnz0쎯、	-10.3885
pnhz1쎯	-10.3888
nhzzppsnhhhsh쎯	-10.3889
zpzh쎯phshphhsh쎯.	-10.3901
phhhzszhhhsh쎯	-10.3902
szhzp0쎯	-10.3906
szhhz1쎯,	-10.3917
szhhpn쎯phspnsz쎯,	-10.392
szsszhhszhhh0쎯	-10.3921
hshzn0쎯pzszn쎯	-10.3926
szhhhszhhhsh0쎯.	-10.3927
ppshhz쎯pszhhpzn쎯	-10.3938
nhzp쎯hhshzn3쎯:	-10.3941
pnzp쎯zhpzszh쎯	-10.3944
szhhsh1쎯	-10.3948
쎁쎉쎄쎉phhshs쎯	-10.3955
s	-10.3956
phspnszhpn1쎯쎂	-10.3957
phnphnzhzsp쎯pn4쎯	-10.3958
zpnzhh0쎯phhshs쎯	-10.3963
phs0쎯phhshs쎯	-10.3964
hszhpn쎯	-10.3968
nnnzph쎯	-10.3969
szhspnh쎯sz	-10.3969
nphzpnnnhs쎯、	-10.3971
pszhhpzn쎯nhhsh쎯	-10.3975
ㄢ	-10.3984
zz2쎯“	-10.3986
nppnhzsz쎯	-10.3987
hphsh1쎯hpszh0쎯,	-10.3987
쎁쎉쎇쎂phhshs쎯	-10.3993
h쎯hshzzpp쎯	-10.3994
shszh0쎯	-10.3994
pnzn0쎯zhszh1쎯、	-10.3997
쎃hnphs쎯nhzp쎯	-10.3998
”phspnszh1쎯“	-10.3999
hszpzh쎯hphhpnz쎯	-10.4002
nsnzhhzpn쎯	-10.4003
nnzpzphshh쎯	-10.4008
pzznzpn쎯,	-10.4012
phzznnh쎯h쎯	-10.4015
,nnnhsszhpznn쎯	-10.4016
nnzhz0쎯szhhhzn0쎯	-10.4017
hpszss쎯hpzznp쎯.	-10.4018
phspnnnhs쎯phzn쎯	-10.4018
pzzzh쎯	-10.4024
pznszh0쎯zzhpzzn쎯	-10.404
hzhhz0쎯hhps2쎯	-10.404
pnps쎯pphsszpn쎯	-10.4045
hshhsshhhpzz쎯	-10.4048
znzz	-10.4048
쎁쎉쎇쎇phhshs쎯	-10.4049
hssz0쎯pn2쎯	-10.4058
hznnzzn쎯zz2쎯	-10.4062
hsszhhhh0쎯nhnph쎯	-10.4064
.쎁쎁	-10.4067
、zpn3쎯	-10.4068
쎂쎀쎀쎅	-10.407
shnpn쎯hsshhhpn0쎯	-10.4071
hshpszhh쎯:	-10.4076
pphsszpn쎯,	-10.4086
szhshszhzhnzzn쎯	-10.4087
szhh3쎯hzhzszn쎯	-10.409
nzpphsn쎯	-10.409
pzhhhhhszpnzn쎯	-10.409
-쎂쎀쎀	-10.4093
》shhspzphpnn쎯	-10.4098
hzhnhnphszhhhsh쎯	-10.4114
hzhhzhz0쎯zpznn쎯	-10.412
hszhz1쎯szpz0쎯	-10.4124
hshzsz쎯hshshsh쎯:	-10.4135
쎁szhhz1쎯	-10.4137
nnnzzzszhsh쎯	-10.414
phspnszhpn1쎯쎅	-10.4142
//	-10.4144
pspnps쎯pshsszhhh	-10.4147
pzpn2쎯szhhhspn1쎯	-10.4148
nhzp쎯phhhzhs쎯	-10.4149
hhshzn3쎯:	-10.4151
、hszpzh쎯	-10.4156
zzpn0쎯szhs쎯	-10.4157
.쎀쎃	-10.416
hpszhhzzh쎯,	-10.4161
hspnh0쎯pszhhhp쎯	-10.4162
szpn1쎯hppzhh쎯	-10.4162
nnnznpzhhs쎯	-10.4163
h쎯hzhhzhz0쎯	-10.4172
nhpn1쎯phhshs쎯	-10.4176
,hshpszhhzzs쎯	-10.4189
.szhhpzhh2쎯	-10.4192
shhspphs쎯	-10.4193
shhsnhnphszh쎯	-10.4194
:쎁.	-10.4201
zzh0쎯·	-10.4203
hsshhhpnpzhh1쎯,	-10.4204
nzpnpz쎯hszh0쎯	-10.4207
nnnhsh쎯nhszs쎯	-10.4207
hpnz0쎯szhzpsz쎯	-10.4208
hshnhszhzzhphpn쎯	-10.4216
hphhpnz쎯nphszs쎯,	-10.4221
nsnhsshszhh쎯	-10.4222
szhs쎯hhzn0쎯	-10.4226
n2쎯zhzhz0쎯pszs1쎯	-10.4228
pshhhpzzn쎯,	-10.4231
hzhpzszn쎯phhhzhs	-10.4231
hhh쎯szhhphhsh0쎯	-10.4233
pnpzzn쎯phshpzpp쎯	-10.4235
hshnpzpn쎯	-10.4236
pszhhpzn쎯snzszh쎯	-10.4236
nzpzzn쎯hpshsh쎯	-10.424
pz0쎯nnzhznhsh쎯	-10.4242
hhz1쎯쎂쎀쎀쎅phhshs쎯	-10.4245
hhz1쎯쎂쎀쎀쎆phhshs쎯	-10.4245
zpznn쎯hpnnzzn쎯	-10.4246
pszhzhnhnphhs쎯	-10.426
ppznnhpszhh쎯	-10.4262
zhhnhzpphpnnzzn쎯	-10.4262
znhzn0쎯nhzp쎯	-10.4262
、p	-10.427
znphhpn쎯	-10.4277
pphsnzzn쎯pshzn1쎯	-10.4281
hhz1쎯쎂쎀쎀쎈phhshs쎯	-10.4284
쎈hnphs쎯nhzp쎯	-10.4293
pnpnzs0쎯	-10.4295
shhspshz쎯hshps쎯	-10.4296
nnnpnzz쎯	-10.4313
hzn0쎯	-10.4316
쎁쎉쎇쎉phhshs쎯	-10.4318
zhhznnpn0쎯》	-10.4321
hpszsshhh쎯phspn	-10.4323
hpszsshhh쎯shh쎯	-10.4323
szhhhshpn쎯:	-10.4327
zphhshhsh쎯	-10.4332
hspznnzzn쎯:	-10.4335
shzphznznn쎯	-10.4337
、nphhshhpn쎯	-10.4345
nzzpszh쎯	-10.4347
nnnnhnphszhhhs쎯	-10.4353
nnnhszpzh쎯	-10.4353
]	-10.4356
×쎁	-10.4357
hspnpzzn1쎯npzn0쎯	-10.4358
hzhphzsz쎯	-10.4361
zzshhspn쎯shh쎯	-10.4367
nsnhsszhhhhpn0쎯	-10.4367
쎀nhszhsh쎯,	-10.4377
hzhsnpnzszhphhz쎯	-10.438
nphszpzhhhpn쎯	-10.4384
hpshsh쎯szhhshnh쎯	-10.4393
shhsnnzhhpz쎯	-10.4395
hpzznp쎯,	-10.4398
247쎯nnhpn쎯	-10.4398
nhszs쎯phzn쎯	-10.4401
phshpzpp쎯,	-10.4401
zhhpzhzn쎯nzhzhs쎯	-10.4405
zzpn0쎯、	-10.4407
hnphhsnznhnphhs쎯	-10.4408
、pszhh0쎯	-10.441
쎁쎉쎆쎄phhshs쎯	-10.442
zhzppznn쎯	-10.4426
snpszszh쎯hszsn쎯	-10.4426
szhhshnh쎯nhnph쎯	-10.4427
nnzhshpn0쎯zz2쎯	-10.4435
hzhzzpp쎯npnsns쎯	-10.4438
spszs쎯	-10.445
pzpsphszs쎯	-10.4454
nphhs0쎯pznzszs쎯	-10.4454
nnnnzhzhs쎯	-10.4459
쎁쎉쎇쎄phhshs쎯	-10.4459
hpszhhsshzhspn쎯	-10.4465
nzzn쎯pzszhpz쎯	-10.4469
ppsn쎯	-10.4473
hs1쎯nnzzzh0쎯	-10.4486
pzhh1쎯쎂쎈szhh3쎯	-10.4486
zhpzszh쎯、	-10.4487
pspnhpzhhsz쎯	-10.449
phhhzpshhhpzzn쎯	-10.449
pszhszshn쎯	-10.4495
hhshpnnpphhszs쎯	-10.4495
:쎄	-10.4497
-쎁쎀	-10.4499
phshhnznn쎯	-10.4499
zzsspnpszhhzpn0쎯	-10.4503
(쎁쎉쎁	-10.4504
hs1쎯h쎯	-10.4506
hhpn0쎯hshzsz쎯	-10.4514
hspn쎯psphshh1쎯pz	-10.4518
nzhshsh쎯nphhpnzp	-10.4521
hppszhhzpn쎯zzh0쎯	-10.4522
hpzhhsn쎯	-10.4523
nnnpphs쎯	-10.4523
hp1쎯nhnpszpzszh쎯	-10.4523
zpn3쎯nznpszhpz쎯《	-10.4525
nnnpzphhszs쎯	-10.4531
.쎀쎁	-10.4534
nhszs쎯zhzhz0쎯	-10.4535
hphszhnznnznp쎯sz	-10.4536
hpsn0쎯hszsshzph쎯	-10.4537
》phnphnzhzsp쎯	-10.454
pzzpzpshzhh쎯	-10.4541
,szhszh1쎯phhshs쎯	-10.4543
쎁쎉쎇쎆phhshs쎯	-10.4545
》nphhpnzz쎯	-10.4551
szhszh1쎯shshspp쎯	-10.4554
nhnph쎯szhshpn1쎯	-10.4561
hspnh0쎯hshzsz쎯	-10.4563
szszs0쎯pszhhhp쎯	-10.4571
nhpzhhpzhhs쎯	-10.4575
hpsn0쎯nzhhzpn쎯	-10.4583
phsshhhzpnsz0쎯	-10.4586
zzh0쎯.	-10.4587
pshszh0쎯	-10.4588
shshspp쎯ppshhz쎯	-10.459
psz쎯hhpz0쎯,	-10.4604
hppspsnhhhsh쎯	-10.461
쎆hnphs쎯nhzp쎯	-10.4611
szhhzsz쎯	-10.4613
hpsn0쎯zpnp쎯	-10.4615
zzhnhpszhhhsh쎯	-10.4619
hpz0쎯hhpz0쎯	-10.4622
znhzn0쎯hzhz1쎯	-10.4627
nnzpzpz0쎯,	-10.4633
shhhhznppp	-10.4638
shhsszhpn쎯hzn0쎯	-10.4644
,pnzp쎯szhzpsz쎯	-10.4645
hsh2쎯phspnzph쎯	-10.465
hzhhszn쎯hspnn쎯、	-10.465
szhshzp1쎯zph쎯	-10.4656
hhh쎯zzhpzzn쎯	-10.4659
szhs쎯nznn쎯,	-10.4661
phhsh1쎯hpzznp쎯	-10.4662
pzzpn0쎯nnpnzzzh쎯	-10.4663
szhnzzpn쎯	-10.4668
shshhzpsnhhhsh쎯	-10.4676
hhh쎯szhhshnh쎯	-10.4678
hshhpzhhsn쎯	-10.468
hnphs쎯znszh0쎯.	-10.4688
-쎇	-10.469
쎇hnphs쎯nhzp쎯	-10.4692
쎁쎉쎆쎃phhshs쎯	-10.47
hhshhspnhspn쎯	-10.47
hhhshspnhszs216쎯	-10.4706
szhh4쎯:‘	-10.4713
,zhppszhszshn쎯h	-10.4718
,zhzphpn0쎯	-10.472
pzhshszh쎯phhshs쎯	-10.4726
nznphzhhsspn쎯	-10.4727
쎁쎉쎇쎀phhshs쎯	-10.473
nhpnpn0쎯nnnhz2쎯	-10.473
phhszshsh쎯	-10.4738
szhhhzn0쎯pn2쎯.	-10.4739
hhps2쎯zpznn쎯h	-10.474
쎂쎀쎀쎄	-10.4759
pnhhsh쎯szhh3쎯	-10.4759
zzh0쎯、	-10.476
zhzs1쎯zhzhzn0쎯	-10.4761
pphs1쎯	-10.4761
nhzp쎯nnnhshzn쎯,	-10.4763
pnzn0쎯pphs1쎯	-10.4767
h쎯hsn쎯	-10.4769
nhpsnzhz쎯	-10.477
szpz0쎯hhz1쎯	-10.4774
hzhphshzzn쎯	-10.4774
phzn쎯nphzhhsspn쎯	-10.4774
pznzszs쎯nhszs쎯	-10.4776
hszh1쎯pns쎯	-10.478
pzpn2쎯snphpz쎯	-10.4782
zz2쎯h쎯	-10.4783
hhz1쎯szs1쎯hpnz0쎯	-10.4788
szhshzp1쎯pn2쎯	-10.4792
szpnpn0쎯hpszpn쎯	-10.4794
93쎯pn2쎯	-10.4796
쎁쎉쎆쎆phhshs쎯	-10.4796
hszpnpn쎯hhpzpn0쎯	-10.4799
nhzpphphhpn쎯p	-10.4804
nnzpzpz0쎯.	-10.4805
,zphznszh쎯	-10.4812
쎉쎃	-10.4814
hhz1쎯쎂쎀쎀쎃phhshs쎯	-10.4817
nhnphpzpppnpzzn쎯	-10.4824
h쎯szhpn1쎯	-10.4824
쎀.쎂	-10.4827
phhhznhphsshzn쎯	-10.4837
hhz1쎯쎂쎀쎀쎇phhshs쎯	-10.4848
(쎂	-10.4849
snz쎯nhszs쎯	-10.4851
nnzhshpn0쎯npzn0쎯	-10.4852
nnnnphpnszssh쎯	-10.4857
szhhz2쎯znszh0쎯	-10.4862
.쎂쎀쎀쎆phhshs쎯	-10.4866
ー	-10.4867
》phspnszh1쎯《	-10.4868
pszhhpzn쎯pspnps쎯	-10.4876
nzshh쎯pn2쎯	-10.4878
nphhphpzn쎯	-10.4879
ppszznpzn쎯	-10.488
szhhpn쎯phspnsz쎯.	-10.4882
zhszh1쎯zzh5쎯	-10.4885
|	-10.4886
zzhzshh쎯	-10.4889
zzhzpnnzn쎯	-10.4893
---	-10.4893
쎁쎉쎇쎃phhshs쎯	-10.4897
±	-10.4898
hpsn0쎯hznhshsz쎯	-10.4901
pzhhpzhhpznzh쎯	-10.4905
psnhnph쎯:	-10.491
hspnpnh쎯	-10.491
hzhnhpnps쎯	-10.4914
pzzshz쎯nnnznhhs쎯	-10.4917
hz1쎯szs1쎯hpnz0쎯.	-10.4922
nhnphszhh쎯:	-10.4924
hsh2쎯pnhhzn쎯	-10.4924
、phhsh1쎯nhnphp쎯、	-10.4925
nhszhpzpn쎯	-10.4929
nnnnhszhzzh쎯	-10.4931
szpn4쎯pzzpn1쎯	-10.4932
psphhs1쎯,	-10.494
szhszh1쎯phhshs쎯	-10.4943
h쎯pz1쎯	-10.4949
nnzhznhsh쎯,	-10.4953
phshhsh쎯pznh쎯	-10.4957
zphhsszhsz0쎯	-10.497
nhpnnhszpn쎯pn2쎯	-10.497
shhsszhszhhhz쎯	-10.4971
psnppn쎯psnphhs쎯	-10.4973
szhzhhpzzs쎯	-10.4978
zphzzh0쎯,	-10.4987
쎁쎀pnhhspn1쎯	-10.4988
pznzznznn쎯	-10.4993
pnznhpszpn쎯	-10.4993
nsnznszh쎯	-10.4998
pzppszhphhpn쎯	-10.5003
hpn1쎯nnnhszpzhh쎯	-10.5004
nhhsh쎯hspnhpzn0쎯	-10.5005
szsphzn쎯	-10.5007
pspnn쎯hhshpzpn1쎯	-10.5007
pzszhshhpzzhz쎯	-10.5009
pnzp쎯nnnnznnp쎯	-10.5014
hszpnpn쎯phhshs쎯	-10.5015
()、	-10.5016
hp1쎯ppzhnhzp0쎯	-10.502
nzhzn쎯nzpnpz쎯	-10.502
hpzn	-10.5024
pnhzp쎯hshshphpn쎯	-10.503
szhnnzpznszh쎯	-10.5033
nnnzzppnppn쎯	-10.5036
shhshpszh쎯hhs쎯	-10.5037
hszhszhshnzzn쎯	-10.5038
pzszshpzpppn쎯.	-10.5038
nznn쎯pzhhnhphsh쎯	-10.5038
hspnn쎯nzhszhszh쎯	-10.5042
zhhznhzpzszhhh쎯	-10.5054
『	-10.5057
,zn2쎯pznszh1쎯	-10.5058
pshspnh0쎯szpn1쎯	-10.5058
、szhs쎯	-10.5059
hsn쎯hnphspn쎯	-10.5061
snzszhhs쎯	-10.5061
.phshpz쎯pphszh쎯	-10.5062
szhpn3쎯shh쎯	-10.5073
hzzpn0쎯pnhznzzs쎯	-10.5076
szs1쎯hshzsz쎯	-10.5076
쎂)	-10.5077
nnzhspn쎯pshzn1쎯	-10.5083
szpn1쎯nzpzzn쎯	-10.5083
쎁쎉쎇쎅phhshs쎯	-10.5088
nhphszhznp쎯zpnp쎯	-10.5088
zzh5쎯hnphspn쎯	-10.5093
hhpz1쎯zzszhhzpn쎯	-10.5093
hshszhhhshpn쎯	-10.5094
hszhhznpnznn쎯	-10.5097
szhhz2쎯hhznzp쎯	-10.5099
hssznphhshpnn쎯.	-10.5104
pnps쎯:	-10.5112
phsznphhshnnnn쎯	-10.5122
쎀.쎁	-10.5125
shzphzszhzhpn쎯	-10.5125
phhhzszpn0쎯	-10.5127
nphpzhhsz쎯,	-10.513
、zzpn0쎯	-10.5132
hhz1쎯쎂쎀쎀쎄phhshs쎯	-10.5135
hpszh1쎯sz	-10.5138
szhnhzppn쎯	-10.5138
hpzz0쎯	-10.5142
hsszzspzhh쎯	-10.5143
szhs쎯hssznphhs쎯	-10.5143
zshz0쎯hszpzh쎯	-10.5145
phspnszhpn1쎯쎆	-10.5145
nphhhs	-10.5147
pssphpnnznn쎯	-10.5148
、phspnnnhs쎯	-10.5149
pnzn0쎯nnzhznhsh쎯	-10.515
쎁)	-10.5158
szh0쎯:	-10.5159
;쎂	-10.5171
hnphspn쎯,	-10.5175
hszhz1쎯pshsshpn쎯	-10.5177
pnzp쎯.	-10.5178
nphzpnnnhs쎯.	-10.518
nphszs쎯phhsh1쎯	-10.5186
hszpzhhnzhhzpn쎯	-10.5186
zzhzsz쎯	-10.5186
hszpnn쎯phspnzph쎯	-10.5194
nnzhhz0쎯nnzsz	-10.5195
,hpzznp쎯nhnph쎯	-10.52
、hpszh1쎯	-10.5203
hszsn쎯.	-10.5204
,zn2쎯phspnpzzpn쎯	-10.5214
,hsshhhpzz쎯	-10.5215
szhpzszhpn쎯	-10.5216
nhpsnhsh쎯:	-10.5221
쎁쎉쎆쎅phhshs쎯	-10.5222
《sz	-10.5224
psphshh1쎯ssnph쎯	-10.5229
,pspzzpn쎯	-10.5229
,pnzn0쎯zhszh1쎯	-10.523
zzhpnhnnph쎯.	-10.5231
nnnszhhpzpnz쎯	-10.5232
pzszhh0쎯	-10.5233
nppn쎯szs1쎯	-10.5235
153쎯hszsn쎯·	-10.5239
,hzhnnzzph쎯	-10.5239
hhshnphhsh쎯,	-10.5245
hshnh	-10.5251
nhpnpn0쎯znn1쎯	-10.5253
hnphs쎯znszh0쎯,	-10.5255
zpnpszhhh쎯nhszs쎯	-10.5255
pz2쎯nhnphszh	-10.5258
pznsn쎯nhpnpn0쎯	-10.5258
zpznn쎯szszs0쎯	-10.5259
hspnpz2쎯pnhhzn쎯	-10.5259
,szhszhshn쎯	-10.5264
pz1쎯phhshs쎯	-10.5267
pznszh1쎯npzn0쎯“	-10.527
hhshshzn1쎯hspnn쎯	-10.5272
hhz1쎯쎂쎀쎁쎁phhshs쎯	-10.5276
,zzhhshszh0쎯	-10.5281
pnhhsnphpnhhsnph	-10.5287
pnphz0쎯szhpzzn0쎯	-10.5288
phhpn0쎯hshzn0쎯	-10.5297
ppzhnhzp0쎯、	-10.5298
psszhphhpn1쎯,	-10.5302
(phnphnsnzszhh쎯	-10.5306
hpznp	-10.5307
phshszhnzzn쎯zz2쎯	-10.5312
pzhzszhh쎯	-10.5313
zzsnhzp쎯shsh쎯	-10.5318
hpshsh쎯hhz1쎯	-10.5321
szpnpn0쎯hpzn1쎯	-10.5321
pszssh0쎯hphshn쎯	-10.5324
shh쎯szpnpn0쎯	-10.5332
쎃쎂쎀	-10.5333
ppshzzp쎯	-10.5334
szpn1쎯pszhhpzn쎯	-10.5337
nzphhs쎯hszhz1쎯	-10.5337
(zphszh1쎯	-10.5339
znhznp쎯szhs쎯	-10.534
nnnszhsh0쎯,	-10.5342
hzhsnpzhh쎯	-10.5346
npszhnznn쎯hszn0쎯	-10.5349
szhzpsz쎯pn2쎯	-10.5349
쎅쎀쎀쎀	-10.5352
shhsn쎯sz	-10.5353
[	-10.5355
szs1쎯pznnnzzpn쎯	-10.5361
hsh1쎯pphszh쎯	-10.5362
szhs쎯hszpzh쎯	-10.5367
zph쎯,	-10.5369
zzsnnzpz쎯	-10.5373
nzpzszhh쎯	-10.5378
hszsn쎯szhs쎯	-10.5378
pn2쎯、	-10.5378
pzzhzphpz쎯	-10.5388
,szhhhshspnhszs	-10.5389
nhzp쎯nhhhszh0쎯	-10.539
nnzhszhszhsh쎯,	-10.5391
hzhhpzhhsnhzn쎯	-10.5393
hpnnzphhs쎯	-10.5395
pszhzps쎯szs1쎯	-10.5397
hpn1쎯phhz2쎯	-10.5399
hpn1쎯shszhhznp쎯	-10.5404
hzshszhhsshhh쎯《	-10.5405
znzzphspn쎯phhz1쎯	-10.5406
쎂쎀쎁쎂	-10.5408
쎅hpszhhhsh0쎯	-10.5409
nnnzzhpsnhhhsh쎯	-10.5413
pszhhnhzpphpn	-10.5415
hshshpnhhs쎯	-10.5415
nzpzzn쎯nzhs쎯,	-10.5425
zhhp쎯	-10.5428
zhz3쎯	-10.5431
쎅hsszhpz쎯	-10.5434
,szpzh0쎯pss쎯	-10.5443
(,	-10.5448
znnznn쎯nppnzpnp쎯	-10.5449
쎁쎉쎄쎅phhshs쎯	-10.5455
nphzpnzzh쎯	-10.5458
hppzhh쎯ppzhpphs쎯	-10.546
z	-10.5464
nznphspnnzn쎯	-10.5471
zzhnhznpz쎯、	-10.5473
szhszhhpzpnz쎯	-10.5475
pphsnzzn쎯phhshs쎯	-10.5477
psnhhhshhspn쎯》	-10.5486
hshpzpn0쎯	-10.5493
szh0쎯szhhhspn1쎯	-10.5494
nhzpphpn쎯snphpz쎯	-10.5495
,hhshszpz쎯npzn0쎯	-10.5497
nnnhpssnzszs쎯	-10.5498
nphzpnpnzp쎯、	-10.5499
hspn0쎯zzh5쎯	-10.5499
hhshpzhh쎯	-10.55
,psnhpzpn1쎯	-10.5501
쎉-	-10.5508
hspnpz2쎯szhhz2쎯	-10.5508
.phzznnh쎯	-10.5509
zphzn쎯	-10.5512
pzhh1쎯쎁쎈szhh3쎯	-10.5523
pnphspnznhhs쎯:	-10.5524
npzn0쎯:	-10.5529
snppznnsz쎯	-10.553
pshsszhhhh쎯.	-10.5533
hspnzn쎯phspnsz쎯	-10.554
nnnhshzn쎯pn2쎯	-10.5543
ssnph쎯nnpnzzzh쎯	-10.5544
pnhszh쎯szhhshnh쎯	-10.5547
hpznznpnhzhhzpn쎯	-10.5547
쎃쎀pnhhspn1쎯	-10.5554
phhs2쎯szpnpn1쎯	-10.5563
hspnszpnszpnzph쎯	-10.557
쎁쎉쎆쎂phhshs쎯	-10.5574
nhpzpnszpzszh쎯	-10.5577
hshphz2쎯pn2쎯	-10.558
(hppszhhzpn쎯	-10.5582
zp1쎯,	-10.5586
hhshn쎯	-10.5591
nnzpznzz쎯	-10.5593
pszhh0쎯nphzpn	-10.5595
hzshpphs쎯	-10.5595
snphpz쎯nnnznhhs쎯	-10.5595
쎁,	-10.5596
szs1쎯,	-10.5597
hhshszpz쎯zhz1쎯	-10.56
hnphs쎯nphzpn쎯	-10.5602
hshszhhhsh1쎯	-10.5607
phzznnh쎯hhpzpn0쎯	-10.5609
hsshhhszhpn쎯.	-10.561
pshsshpn쎯szhhz2쎯	-10.5614
쎁쎁쎀	-10.5615
pn2쎯hpn1쎯pshzn1쎯	-10.5625
phzn쎯nnzzph쎯	-10.5626
쎆)	-10.5627
nnnszhshszpn쎯	-10.5628
szhh4쎯:“	-10.563
,zhhznhzpz쎯	-10.5644
phspnszhs쎯,	-10.5647
zzhhzzpn쎯znn0쎯	-10.5654
》szhhhshspnhszs	-10.5657
hhz1쎯쎂쎀쎀쎂phhshs쎯	-10.5659
nnzszhzh쎯nhzp쎯	-10.566
pznszh0쎯hpn1쎯	-10.5665
shphpn쎯hspnhzn0쎯	-10.5669
pspz0쎯	-10.5674
pznn0쎯	-10.568
쎁쎈쎉	-10.5681
hpzp쎯pshzn1쎯	-10.5682
szhs쎯zzhpzzn쎯	-10.5683
쎀쎀nhszhnzphhz쎯	-10.5689
pns쎯ppshhz쎯hsh	-10.5692
szhpzpp쎯	-10.5696
nsnnhz쎯	-10.5696
szhhh0쎯nnnznszh쎯	-10.5697
nnnhpzp쎯	-10.5699
hpzn2쎯“szhhzsh쎯	-10.57
쎁쎉쎇쎁phhshs쎯	-10.5701
szhzpsz쎯:	-10.5703
shh쎯zzhpzzn쎯	-10.5707
zhz1쎯hzshnhpnpn쎯	-10.5711
.쎀쎆	-10.5715
nhpn0쎯pznpn쎯	-10.572
phspnszh1쎯zpznn쎯	-10.5721
hzhpzszn쎯	-10.5723
phspn0쎯	-10.5724
hshznzp1쎯	-10.5726
zhhznnpnsz쎯	-10.5733
pszhhpzn쎯szpn1쎯	-10.5736
hzhzshh쎯	-10.5739
,hzhhzszhh쎯	-10.5743
hhpn1쎯pn2쎯	-10.5744
phnphnsphszs쎯	-10.5747
hshshpnzhz0쎯zz2쎯	-10.5753
.”nnzhspn쎯	-10.5766
zhpzszh쎯phzn쎯、	-10.5767
hspnhpznhzszhh0쎯	-10.5771
hshphz3쎯hsszh쎯	-10.5775
zzhhhzs쎯	-10.5776
nnnhspnszhhh0쎯	-10.5784
.h쎯ppznnhpzzn1쎯	-10.5785
쎅쎀hsszhpz쎯	-10.579
.쎅hpszhhhsh0쎯	-10.5791
znzn3쎯nhzp쎯	-10.5794
pzpppznn0쎯	-10.58
nhphsshzn쎯、	-10.58
zpnpszhhh쎯hsh	-10.5804
hspnhshszh쎯	-10.5808
hphpnn쎯	-10.5816
hssznphhs쎯nhszs쎯	-10.5816
szhhhszhhhsh0쎯,	-10.5817
nhphsh쎯hspnhzn0쎯	-10.5822
zzshpznp쎯	-10.5825
zzpn0쎯szhhhspn3쎯	-10.5826
쎂쎀쎀쎂	-10.5826
hhz1쎯쎁쎈	-10.5833
pphs0쎯npzn0쎯	-10.5837
hpsn0쎯hznnzzn쎯	-10.5839
zphnnzhpzpppn쎯	-10.5839
hspnnphzpnzph쎯、	-10.5844
zzhhhzpn쎯pzzhz0쎯	-10.5844
phhz0쎯,	-10.5845
hszn0쎯zzspn쎯	-10.5853
szhhhhs1쎯	-10.586
116쎯psnhnph쎯	-10.5862
szhzp0쎯pznsn쎯	-10.5865
nhpn1쎯hs1쎯	-10.5867
.쎂쎀쎀쎈phhshs쎯	-10.5869
、nnnhsszhpznn쎯	-10.587
nphpszhhhnzzn쎯.	-10.5873
쎯phzn쎯	-10.5874
쎁쎀pns쎯	-10.5878
hzhsn쎯	-10.588
pshshnhzpphpn쎯	-10.588
phnphnzhzsp쎯pz1쎯	-10.5884
pshhzs0쎯hpn1쎯	-10.5894
phzznnh쎯hhpn0쎯	-10.5902
hszpnpn쎯hpn1쎯	-10.5903
,phhshs쎯hnphs	-10.5905
hpn1쎯hhpn1쎯	-10.5907
zpszhzzh쎯zzhsz	-10.5912
phspnszhphsh쎯,	-10.5913
nhszhsh쎯.	-10.5916
hzhhszph쎯zzh0쎯	-10.5916
쎁쎉쎄쎁phhshs쎯	-10.592
zpn3쎯nppn쎯	-10.5924
npzhzsp쎯zzh0쎯	-10.5939
znzp쎯	-10.5939
nnnhzphpz쎯	-10.5939
.pphszh쎯	-10.594
phhhznhnphhs쎯	-10.594
shhshhpz0쎯	-10.594
pzhh1쎯쎂쎀szhh3쎯	-10.5941
hpnn0쎯zzh0쎯	-10.5948
pz1쎯sz	-10.5953
nhpnps쎯pnhhsh쎯,	-10.5957
szpn쎯	-10.5976
nnhpn쎯,	-10.5978
쎁쎉쎄쎂phhshs쎯	-10.5978
h쎯pshz2쎯	-10.5978
nzhzh쎯zz2쎯	-10.5979
szssh쎯	-10.5979
szs1쎯hshpzszn쎯	-10.5985
zshh쎯	-10.5989
쎉pns쎯	-10.599
,pnnpnzzn쎯	-10.6
pzhpzz0쎯hspnpz2쎯	-10.6001
nnzhhpzshzn쎯	-10.6004
nhpnnznpzhhs쎯,	-10.6005
hspnhzhzpszhh쎯	-10.6012
nzszhhnhpn쎯	-10.6016
쎃phhshs쎯	-10.6018
#	-10.6019
、hhshpzhh1쎯	-10.602
hszn0쎯pshzn0쎯	-10.6023
pn2쎯szh0쎯쎃	-10.6023
.쎂쎀쎀쎉phhshs쎯	-10.6023
zzp쎯snpnzszhpz쎯	-10.6031
h쎯szhh3쎯	-10.6038
쎁쎀hsszhpz쎯	-10.6048
znnpzzn1쎯pspnzp쎯	-10.605
ppzhhzpzzn쎯	-10.6057
.shnpn쎯	-10.6058
pnnzszpn쎯	-10.6059
hzhs0쎯snzszhh쎯	-10.6062
쎁쎉쎄쎈phhshs쎯	-10.607
nnzpnpnszh쎯sz	-10.6072
쎃.쎀	-10.6073
zzhnhpn0쎯,	-10.6084
hsshpnznnn쎯	-10.6087
hhssnph1쎯shhsn쎯	-10.609
hpszss쎯nhhhszh0쎯	-10.6092
pnzp쎯hspnhszn쎯	-10.6095
hppzhh쎯phhs0쎯	-10.6096
,hznhshpzn쎯zp1쎯	-10.61
、hssznphhs쎯	-10.6101
쎅)	-10.6103
)(	-10.6108
hspnpnhpzhhsz쎯	-10.6115
,shhspshz쎯	-10.6118
hzhpznzp쎯,	-10.6119
nzzpn1쎯sz	-10.6123
nzhszsshszhhhs쎯	-10.6127
zhphhzn쎯,	-10.6129
szhshshphhpn쎯	-10.6129
hznnpnn쎯.	-10.613
쎁쎉쎅쎈phhshs쎯	-10.6132
hpphsz쎯	-10.6137
,nnnhsh쎯hsszppn쎯	-10.6142
hzszhh0쎯	-10.6147
zhphsszhsz쎯《	-10.6147
pnpn1쎯hpszss쎯	-10.6148
phhhzhzsz쎯	-10.6151
hspnpzhhpzhh쎯	-10.6153
hhspn2쎯pshpznsz쎯	-10.6159
pns쎯hshpzzhphpn쎯	-10.616
nhpnnpzpn0쎯	-10.6161
pzhh1쎯쎁쎅szhh3쎯	-10.6161
hspnssphnszpz쎯	-10.6162
nnzshhzpnzn쎯	-10.6174
pshz1쎯hpszh1쎯	-10.6176
.쎂쎀쎁쎀phhshs쎯	-10.6177
.쎁쎈	-10.6178
zzpn0쎯nhnphp쎯	-10.6183
szs1쎯、	-10.6186
쎁쎉쎄쎄phhshs쎯	-10.6192
pnzp쎯nhszhzzh쎯	-10.6197
쎂쎀쎀쎁	-10.6204
hpznsz쎯npzn0쎯	-10.6205
hhps2쎯zzpn0쎯	-10.6206
쎁쎉쎉쎈	-10.6208
phhhzpzszh쎯	-10.621
pn2쎯,hssnzzp쎯	-10.6211
znpzpn쎯pszhhpzn쎯	-10.6216
쎄.쎅	-10.6218
znhzn0쎯nhpnnph0쎯	-10.6224
hpnhshhsh쎯	-10.6226
szszs0쎯pznpn쎯	-10.6233
,pnzzsz쎯	-10.6234
hszpnpn쎯pn2쎯	-10.6237
zzzpnh쎯	-10.6242
nzhsznnhpn쎯hhz1쎯	-10.6245
phhhzzhphsszh쎯	-10.625
znpznnhzhz쎯zp1쎯.	-10.6261
pshzpszhhphs쎯.	-10.6262
,pznszh0쎯	-10.6263
hspzszhphpnphhz쎯	-10.6265
zhzszhszhshn쎯,	-10.6267
pn2쎯hshpzhh0쎯	-10.628
nhnphp쎯hhz1쎯	-10.6281
.hpszss쎯	-10.6283
、hhshhpsn쎯	-10.6283
h쎯hshzhpn1쎯	-10.6284
hzshhhzn쎯pshz1쎯	-10.6289
pznzp쎯phspnzph쎯	-10.6295
hpnz0쎯pszhhpzn쎯	-10.6303
nhhsh쎯zp1쎯	-10.6303
zhphsshzpn쎯h	-10.6304
szhzph쎯phspnzph쎯	-10.6304
、shh쎯nnnphzznnh쎯	-10.6309
hspnhzn0쎯nhphsh쎯	-10.631
h쎯zhphhzn쎯	-10.6313
znhznp쎯szhssh0쎯	-10.6316
,szpn1쎯	-10.6317
szhhpzpnzpzpn쎯	-10.6327
pzpzz0쎯szssh	-10.6332
쎁쎉쎆쎀phhshs쎯	-10.6333
phhhzpzn1쎯	-10.6333
szhhhshpn쎯pnpn1쎯	-10.6337
psszhhspnnppn쎯	-10.634
.psnhnph쎯hhz1쎯	-10.6341
psphshh1쎯szszs0쎯	-10.6347
pz3쎯phhshs쎯	-10.6353
hp1쎯nnzhpzpppn쎯	-10.6356
hhz1쎯쎂쎀쎀쎁phhshs쎯	-10.6356
nzzn쎯nzhhshpzhh쎯	-10.6359
hpszss쎯hpzznp쎯,	-10.6362
sn쎯	-10.6369
쎁쎉쎆쎈phhshs쎯	-10.6371
hhpz1쎯nzpnpz쎯	-10.6371
pznszh1쎯:)	-10.6372
zhzs1쎯sh	-10.6372
pzhhzppn쎯	-10.6379
szhhnzhzhs0쎯	-10.6382
、szhhhshspnhszs	-10.6386
phnphnzhzsp쎯쎃	-10.6393
phhz1쎯nnnznhhs쎯h	-10.6395
쎁쎉쎅쎇phhshs쎯	-10.6395
nznn쎯zhhnppn쎯	-10.6395
hhps0쎯nnzpzpz0쎯	-10.6405
ssznnhnph쎯	-10.6408
phzznnh쎯h쎯pns쎯	-10.6413
hzhzhphsszh쎯《	-10.6415
shnzhpnpnszhhh쎯	-10.6424
pnn0쎯pznzp쎯	-10.6425
pnhhsnph0쎯sz	-10.643
(hszhhznp쎯	-10.6432
쎁쎉쎄쎆phhshs쎯	-10.6434
а	-10.6436
phhsh1쎯.	-10.644
hpszhszszs쎯shh쎯,	-10.6444
쎈pnzn0쎯szhhhsh1쎯	-10.6444
hpsn0쎯hszhsh0쎯	-10.6448
pnhhsh쎯pshspnh0쎯	-10.646
.szhpnh쎯shshhz0쎯	-10.6461
zzsnhzp쎯szh	-10.6465
hsshhhpn쎯	-10.6469
nsnhpszs쎯	-10.6472
hphhhshhhz쎯	-10.6478
(쎄	-10.6481
szhzn0쎯	-10.6482
hshnznn0쎯·	-10.6482
pzzshz쎯hszhhznp쎯	-10.6482
hhpz0쎯phhshs쎯	-10.6483
hnphs쎯szhhhzn0쎯	-10.6491
zzhpzzhz쎯zzh0쎯	-10.6491
쎂,	-10.6494
,nphpzhhsz쎯	-10.6497
zzhhsh쎯pznsn쎯	-10.6502
nnnnhhsh쎯pn3쎯	-10.6505
hszhhpnnszhszh쎯.	-10.6506
shszpnh0쎯	-10.6508
phshhnznn쎯pzn2쎯	-10.651
→	-10.6514
snphpz쎯zzhhpnz쎯	-10.6515
szhhszhh0쎯nhszs쎯	-10.6517
pnpz쎯	-10.6517
pzhh1쎯쎂쎅szhh3쎯	-10.6519
szhsh	-10.6521
npzn0쎯szhs쎯nznn쎯	-10.6523
hhzszpn쎯	-10.6524
쎁hnphs쎯nhzp쎯	-10.6526
128쎯nnzphshszh0쎯	-10.6535
쎁pnzn0쎯szhhhsh1쎯	-10.6539
hshzsz쎯shh쎯	-10.6542
snzszhh쎯:쎂쎀쎀	-10.6553
pnzp쎯hszn0쎯	-10.6562
pzhhs0쎯hshzsz쎯	-10.6572
nhpn0쎯zzp쎯	-10.6573
hpsn0쎯nsn	-10.6575
.hzhzhphsszh쎯	-10.6575
nsnpnhszh쎯	-10.6576
znszpz쎯pnhznznn쎯	-10.6579
szhs쎯.	-10.6584
쎄pnzn0쎯szhhhsh1쎯	-10.6588
nnszhpz쎯hsn쎯	-10.6592
、hsszhpznn쎯	-10.6592
hz2쎯phhshs쎯	-10.6596
nsnphhsh쎯,	-10.6601
shh쎯hpszsshhh쎯	-10.6605
szhhhshpszhh쎯	-10.6606
zzhpnnpzph쎯	-10.6607
zzhpzn0쎯쎂	-10.6607
hpszhzzh1쎯nnhpn쎯	-10.6616
pszsz쎯szhhhshpn쎯	-10.6617
hzhnphhs쎯pznn0쎯	-10.6619
szhszpn3쎯;	-10.662
zhhpzzs쎯pns쎯	-10.6621
zhnhnphzph쎯hshnh	-10.6628
-쎂쎀	-10.6628
nhpn0쎯,	-10.6631
hspnpzpn1쎯	-10.6633
쎁쎉쎆쎉phhshs쎯	-10.6635
nhpsnszhszpn쎯	-10.6636
,szs1쎯hzzpn0쎯	-10.6638
pnhpn쎯	-10.6645
szszs0쎯pszhhh0쎯	-10.6646
』	-10.6648
pszhhh0쎯ppshhz쎯	-10.6648
nhpspnhzn1쎯	-10.6654
hpsn0쎯pzn1쎯	-10.6659
(zhhznzs쎯	-10.6659
쎃hsszhpz쎯	-10.6661
쎃,	-10.6666
“hhh쎯	-10.6667
zpn3쎯hhshpzn3쎯	-10.6672
nzpn0쎯nnzhshpn0쎯	-10.6675
hzzh쎯hspnszhhh4쎯	-10.6677
pss쎯szhhhzn0쎯	-10.668
.쎁쎉	-10.668
pszhhhp쎯shh쎯	-10.6685
○	-10.669
pphszh쎯pshhsh0쎯	-10.669
hshhpszpn쎯.	-10.6692
.pnhhsh쎯	-10.6694
phshh쎯	-10.6695
szhhshnh쎯hhsh1쎯	-10.6695
≤	-10.6698
zhznphzpnzhz쎯	-10.6698
nzshh쎯pspzzpn쎯	-10.6699
hzsh	-10.6708
zphzhphz쎯	-10.6709
znpznnhzhz쎯zp1쎯,	-10.6714
pszhhnnzhhpz쎯	-10.6718
.쎂쎀쎀쎇phhshs쎯	-10.6733
szhs쎯hppszhhzpn쎯	-10.6737
の	-10.6738
pzzhhpzszn쎯	-10.6748
hhshspnhszs123쎯n	-10.6751
쎁쎉쎄쎇phhshs쎯	-10.6755
nnzphhs쎯	-10.6757
szhshnhsshszhh쎯	-10.6766
hhshzn3쎯.	-10.6768
zpsz쎯szhhhshpn쎯	-10.677
shhshshpzpzn쎯	-10.6772
phhzzhzps쎯	-10.6774
pshhzs1쎯zpznn쎯	-10.6774
hszpzhhszhszh쎯	-10.6775
nhpsnhshzn0쎯	-10.6784
:쎉	-10.6784
phhpn0쎯szpnphpn쎯	-10.6787
pz0쎯phspnszh1쎯	-10.6793
pzhhphzn쎯	-10.6798
hpszhzzh1쎯:	-10.6801
,ssznhsh쎯	-10.6803
hzhhppnn쎯쎂	-10.6804
쎁쎉쎉쎉	-10.6805
znnpz0쎯pznnhhpn쎯	-10.6806
hszhhpn쎯npzn0쎯	-10.6808
hsh쎯nhphsshszs쎯.	-10.681
:쎅	-10.6811
ン	-10.6813
쎉hnphs쎯nhzp쎯	-10.6818
hsshhhspn쎯h쎯	-10.6818
phhz	-10.6824
szpn	-10.6824
zzhszpn1쎯nphzpn쎯	-10.6825
hhs쎯nnpzzhhz쎯	-10.6827
pznpzn0쎯zpnp쎯	-10.6831
hzzpn0쎯sz	-10.6836
nhpnpnphpn쎯.	-10.6838
nnszhs쎯hhszs0쎯	-10.6839
hs1쎯pz1쎯	-10.684
hzhhpzn0쎯	-10.6841
ssnph쎯、	-10.6843
hsshszhhsnnzzph쎯	-10.6844
hpnshhhhzn쎯n	-10.6844
),nnzzzh0쎯	-10.6845
nnpnhzn쎯hshznzs쎯	-10.6847
쎁쎉쎅쎉phhshs쎯	-10.6855
hs1쎯hz2쎯	-10.6856
psz쎯hhpz0쎯	-10.6858
szspzn2쎯	-10.6858
szpznnnh쎯hszsn쎯>	-10.6859
쎁.쎈	-10.686
hspnhzn0쎯.	-10.6873
hszpzh쎯pnhznzzs쎯	-10.6879
psnppn쎯	-10.6879
쎁쎃쎀	-10.6883
쎁쎉쎄쎃phhshs쎯	-10.6886
.phzhznp쎯	-10.6888
sszhhhhpnhpszpn쎯	-10.6891
nhpspnpzszn쎯hzh	-10.6892
.szhs쎯szhhshnh쎯	-10.6894
nhhsh쎯hhznzp쎯	-10.6895
hshshsh쎯hpshsh쎯	-10.6895
pzhh1쎯쎂쎆szhh3쎯	-10.6896
hszh1쎯pnhhsnph0쎯	-10.6896
hpznphhspn쎯nnnzh	-10.6898
pszhhpzn쎯hhzn0쎯	-10.69
nphhshnnnnpnhz0쎯	-10.6901
hpszhnphssnph쎯	-10.6903
hzhhszn쎯hspnn쎯h	-10.6905
,phshhshhzn쎯szh	-10.6905
hszspnhszspn1쎯	-10.6905
pn4쎯phhshs쎯	-10.6905
쎁쎉쎅쎆phhshs쎯	-10.6906
hshsnszssh쎯、	-10.6907
hszh1쎯zhpszhsh1쎯	-10.6908
hspnnhpzsshhzhz쎯	-10.6913
szhs쎯nznn쎯.	-10.6913
》h쎯hszsn쎯	-10.6914
쎁쎉쎃쎇phhshs쎯	-10.6916
zzhhpszsshhh쎯	-10.6917
쎀.쎃	-10.6925
zpszh1쎯hhps2쎯	-10.6926
phhshs쎯nhnphp쎯	-10.6927
pn2쎯hpshsh쎯	-10.6932
hzhhszn쎯hspnn쎯,	-10.6938
쎀～	-10.6946
szpzh0쎯pzhshszh쎯	-10.6947
hznpsz쎯pnzp쎯	-10.6951
hhz1쎯쎂쎀쎀쎀phhshs쎯	-10.6955
pznpzn0쎯,	-10.6956
hpz0쎯pn2쎯	-10.6957
hsshpn쎯pnzp쎯	-10.6961
hsszhpz쎯,	-10.6962
pnn0쎯.	-10.6964
szs1쎯hspnhzn0쎯	-10.6965
hzhhhspn0쎯	-10.6968
pnzp쎯hspnnhpnpn쎯	-10.6971
h쎯nphzpnhpn0쎯	-10.6973
pzhh1쎯쎃쎀szhh3쎯	-10.6979
szpnphzn쎯	-10.6981
pnhhsnph0쎯szs1쎯	-10.6981
nnz	-10.6981
hhsh1쎯szhhshnh쎯	-10.6987
ppshhz쎯,	-10.6988
hshshhznnnn쎯	-10.6989
(쎁쎉	-10.6993
.npzn0쎯zz2쎯	-10.6997
szhhhszhhhsh0쎯:쎁	-10.6997
,hzhzhs0쎯ssnph쎯	-10.7
pzhhzszn쎯pznzp쎯n	-10.7001
zhhpzzs쎯pzn2쎯	-10.7001
pznpn쎯pznpn쎯	-10.7002
zphpzhzszhh쎯zph	-10.7003
,h쎯pns쎯	-10.7004
hpszhnhp쎯nhnphp쎯	-10.7008
134쎯pznnhzszhh쎯	-10.7009
zzhhhpznp쎯	-10.701
nnzhshpn쎯	-10.7012
(p	-10.7017
hhpn0쎯nhpn2쎯	-10.7019
zpnzhh0쎯pnhz0쎯	-10.7023
.phzhznp쎯pssnz쎯	-10.7023
,pshszhhpn쎯	-10.7026
nhpspnsn쎯hznpz쎯	-10.7029
hpszhhhps0쎯h	-10.703
、nphzpnhhshpzhh쎯	-10.7031
szhszshpszss쎯	-10.7033
phspnszh1쎯n	-10.7034
hhs쎯hszhzhhz0쎯	-10.7037
shhhz쎯nnzhspn쎯	-10.7052
nznn쎯pszssh0쎯	-10.7052
pszhh0쎯hhzn1쎯	-10.7053
phhpnphspnzph쎯	-10.7053
pznnhsh0쎯	-10.7056
nzhnphs쎯npzn0쎯“	-10.7057
nnnphsszh쎯zp1쎯	-10.7058
pzhh1쎯쎁쎀szhh3쎯	-10.706
zzzszhhhspnsz0쎯	-10.7064
.)	-10.7069
.hspnzhhzpn쎯	-10.7073
hspnppp쎯	-10.7073
nnzpshshpn쎯	-10.7074
spnzn쎯hphzphznp쎯	-10.7076
zzshszhz0쎯h	-10.7078
,nphzhhsspn쎯	-10.708
쎁쎉쎅쎅phhshs쎯	-10.7082
pnzn0쎯zhszh1쎯(	-10.7083
,hsshpn쎯hppzhh쎯	-10.7087
h쎯szhs쎯	-10.709
hshzsz쎯hpnz0쎯.	-10.7095
hpnppn0쎯pzzshz쎯	-10.7099
hhshhhshnznnp쎯	-10.7101
zzhhhznp0쎯、	-10.7122
쎂、	-10.7122
,pphszh쎯hnphspn쎯	-10.7123
zhnhnph쎯pspszhh쎯	-10.7125
zzhpnhszh쎯znzz0쎯	-10.7127
szhpnhz0쎯	-10.7129
pznnhspnpnznnpn쎯	-10.7132
h쎯hpszhh쎯	-10.7135
szhszh1쎯h쎯	-10.714
zsz0쎯szhzs1쎯	-10.7143
쎃hpszhhhsh0쎯	-10.7143
hspnpz2쎯nhphspn쎯	-10.7145
shhsnnnhnphs쎯	-10.7147
pzzpnhhzpn쎯	-10.7147
shhhz쎯nphhshhpn쎯	-10.7148
nhszhzznnnn쎯	-10.715
pznsn쎯pznzpszpn쎯	-10.7154
phnphnzhzsp쎯h쎯n	-10.7154
shh쎯nhnphszhzzs쎯	-10.7154
pnhhpn0쎯nznn쎯	-10.7155
μ	-10.7155
hppzhh쎯pznpzn0쎯	-10.7157
nhszhzpn쎯nhszs쎯	-10.7157
nhnphp쎯hshzsz쎯	-10.7166
znszpz쎯snphpz쎯	-10.7167
hnphp쎯ssnph쎯pn2쎯	-10.7167
zzhnhznpz쎯,	-10.717
shh쎯zz2쎯	-10.7174
phspnszhpn1쎯쎇	-10.7176
nhpn0쎯npzn0쎯	-10.7177
h쎯hhpn0쎯	-10.7181
.hppszhhzpn쎯	-10.7184
,npzn0쎯zz2쎯	-10.7185
phhshzzs0쎯	-10.7187
hpn1쎯nnspznhpn쎯	-10.7194
nzpzpn0쎯hshzzpp쎯	-10.7195
,hhshpzpn1쎯	-10.7196
npszhnznn쎯hsh2쎯	-10.7196
nzpzhshszh쎯pn3쎯	-10.7206
spnhpnz쎯zzhzshh쎯	-10.7207
pznszh1쎯nzzhszh쎯	-10.7218
psnhhhshhspn쎯《	-10.7221
pshzhpzn쎯)	-10.7226
hhspn1쎯,	-10.7228
phzn쎯hshhpzznp쎯	-10.7231
zh1쎯phspnpzzpn쎯:	-10.7232
znpz쎯nzphhs쎯	-10.7234
nnnphsszh쎯szhs쎯	-10.7236
shhsnpszspnphpn쎯	-10.7243
hshshphpn쎯hpnz0쎯	-10.7244
쎁쎄쎀	-10.7245
“szhs쎯szhhshnh쎯	-10.7245
zpnp쎯snnpnnphzn쎯	-10.7247
pzznnzszhzh쎯、	-10.7247
zpn3쎯szhphz0쎯	-10.7252
쎁쎉쎅쎄phhshs쎯	-10.7252
pznnhpsnh쎯	-10.7253
pzhhs0쎯psphshh1쎯	-10.7254
zzhnhzppn0쎯	-10.7255
쎁.쎆	-10.726
nhpn2쎯:	-10.7267
hsh쎯	-10.7273
쎁쎂쎅	-10.728
zz2쎯hpn1쎯	-10.7281
hppzhh쎯hszpnpn쎯	-10.7289
zhpnphzpnzph쎯	-10.7296
nhhsh쎯pn2쎯pnzn0쎯	-10.7301
zzhszsshzp쎯	-10.7312
zphzzh1쎯zphzzh1쎯	-10.7315
shz0쎯szhshpnps0쎯	-10.7315
znszh0쎯shhhz쎯	-10.7321
pshshzzs쎯	-10.7323
,szhpnh쎯hpszss쎯	-10.7324
nphzpn쎯;	-10.7325
,hshsh0쎯	-10.7328
pszszh쎯shh쎯	-10.733
hppzhh쎯phh	-10.733
,쎀쎀쎀	-10.7332
hpshsh쎯phzhznp쎯	-10.7332
;쎁	-10.7336
spnhhps쎯hshzsz쎯쎁	-10.7336
szhs쎯nhpn2쎯pzns	-10.7338
hshzsz쎯hpnz0쎯,	-10.7343
、hhh쎯	-10.7344
,nphpzpppnnzzn쎯	-10.7345
zphszh1쎯:	-10.7346
hh0쎯hhpzpn0쎯	-10.7352
,nnnphzznnh쎯	-10.7356
.쎂쎀쎀쎅phhshs쎯	-10.7364
zhhhhszzn쎯zz2쎯	-10.7369
nnpzzhhz쎯,	-10.7378
hpsn0쎯szhhpzhh2쎯	-10.7378
hhz1쎯shshhz0쎯	-10.7379
〉	-10.738
.szhhshnh쎯hsh0쎯	-10.7383
szszhsz쎯	-10.7387
....	-10.7396
shhsznszh쎯	-10.7397
hsh쎯nhphsshszs쎯、	-10.7397
hspnnzpz0쎯	-10.7398
shhshhz0쎯	-10.7402
쎁쎀쎀hsszhpz쎯	-10.7402
hpz0쎯pnhhspn1쎯	-10.7406
nhhsh쎯pshhsh0쎯;	-10.7413
zhzhzn0쎯hsn쎯	-10.7415
phhz0쎯nnnhshzn쎯	-10.7415
shh쎯szhhszhpn0쎯	-10.7417
hzhphsszh쎯	-10.7417
nhpn0쎯zzh0쎯	-10.7419
、hzzpn0쎯	-10.7423
hhh쎯phspnszhs쎯	-10.7423
쎁쎉쎅쎃phhshs쎯	-10.7423
szs2쎯	-10.7426
hspnhzn0쎯pn2쎯	-10.7427
nhpnnpnppp쎯	-10.7429
hpznsz쎯pn3쎯	-10.7429
pzhh1쎯쎁쎆szhh3쎯	-10.7429
.쎂쎀쎁쎁phhshs쎯	-10.7431
nphzsppzhh쎯	-10.7436
hszpzh쎯sz	-10.7437
hshszhhs쎯	-10.7444
zzhz0쎯zzh0쎯	-10.745
h쎯hsshhhpnpzhh1쎯	-10.745
pzszhh1쎯	-10.745
,nhnphp쎯	-10.7454
hspnnhpnpn쎯,	-10.7461
pzhh1쎯쎁쎂szhh3쎯	-10.7472
znnznn쎯phhz1쎯	-10.7472
●	-10.7472
pznszhsh0쎯,	-10.7474
,쎂	-10.7474
〈	-10.7481
pzhhpzhh쎯	-10.7488
nhhsh쎯hspnpz2쎯	-10.749
.쎀쎂	-10.7494
hpznp쎯	-10.7495
hzzpn0쎯shh	-10.7496
,hzhzpszhh쎯	-10.7498
zpzh쎯phshphhsh쎯	-10.7501
zpnpszhhh쎯p	-10.7505
szsshhshzn쎯	-10.7506
szpnhzp쎯nhnphp쎯	-10.7507
hpn1쎯zzhpzn0쎯	-10.7508
nnnpnhpzhhsz쎯	-10.7511
pzhh1쎯쎈szhh3쎯	-10.7514
hznpznn0쎯、	-10.7515
zzhpzzn쎯szhzpsz쎯	-10.7515
쎆pnzn0쎯szhhhsh1쎯	-10.7519
snnzhhpz쎯nhszs쎯	-10.7521
hhpzhpszpn쎯	-10.7524
nnzpzpz0쎯》	-10.7532
zzhszhhh0쎯phzn쎯	-10.7532
szh0쎯ppsznhsh쎯	-10.7535
hpn1쎯hshzsz쎯	-10.7541
,psszhhspn쎯	-10.7544
zzpn0쎯pnzp쎯	-10.7546
hnphspn쎯zz2쎯	-10.7547
pn2쎯snzszhh쎯	-10.7547
hpz0쎯hpzp쎯	-10.7552
nzhp쎯,hppzhh쎯	-10.7555
《nhnphhspnpphs쎯	-10.7558
、nnnphzznnh쎯	-10.7561
hzhznzz쎯	-10.7564
93쎯pspphpnps쎯	-10.7568
、zzhhsh쎯	-10.7568
93쎯shhhz쎯	-10.7569
phspnszhpn1쎯쎈	-10.7572
쎁쎉쎃쎉phhshs쎯	-10.7572
szhssh0쎯.	-10.7574
、pnhhsnph0쎯	-10.7583
nnpsnhhhsh쎯,	-10.7584
nhszhzz쎯	-10.7597
hhz1쎯hssznphhs쎯	-10.7603
nhphsshnnnnnzzn쎯	-10.7604
shpzn2쎯pphsszpn쎯	-10.7609
zzpn0쎯szhhhzn0쎯	-10.7611
szhs쎯hhpsszhsh쎯	-10.7614
쎁쎉쎉쎇	-10.7616
znhznp쎯,	-10.7617
zpszh0쎯shnpn쎯	-10.7624
szhszhszh0쎯《	-10.7629
zzhhhznp0쎯shh쎯	-10.7629
szhshhz1쎯	-10.763
hpn1쎯hszhsz0쎯	-10.7631
hspnhspnpzn1쎯	-10.7636
쎂쎀쎁쎄phhshs쎯	-10.7638
hssznphhs쎯hszh0쎯	-10.7642
hhszs0쎯s	-10.7642
pn1쎯nnzpnpnszh쎯p	-10.7643
phspnszhpn1쎯쎁쎀	-10.7644
nhnphszhhhs쎯,	-10.7651
、、、	-10.7655
쎁쎈쎈	-10.7657
hhshszssh쎯hhsh	-10.766
h쎯znhzn0쎯	-10.7661
npszhpz쎯	-10.7662
nzpzpn0쎯nhnphp쎯	-10.7663
、zzhznhsh쎯	-10.7663
hzzp0쎯pshz2쎯	-10.7664
szszs0쎯.	-10.7669
zhpzszh쎯phzn쎯.	-10.7677
쎁쎀쎈	-10.7677
hshhszhhznp쎯.	-10.7688
phshhshhzn쎯·	-10.769
쎁쎉쎄쎀phhshs쎯	-10.7703
pz0쎯hznhsh쎯	-10.7709
phshphpn쎯ssnph쎯	-10.771
hhps2쎯pnzzsz쎯	-10.771
hphspnszhhh쎯	-10.7713
shnpn쎯pznsn쎯	-10.7713
szpn2쎯	-10.7714
hshpszhh쎯hpshsh쎯	-10.7715
szhshshpznszh0쎯.	-10.7716
phhspnszhhszshn쎯	-10.7721
szhpn3쎯·	-10.7721
szszs0쎯hshszpn2쎯	-10.7725
nzhp쎯hhpsszhsh쎯	-10.7726
shh쎯pphs0쎯	-10.7728
、shhhz쎯nhszhzpn쎯	-10.7728
zzhznhhs0쎯	-10.7734
pzzhhz쎯zp1쎯	-10.7736
hznhsh쎯shh쎯	-10.7738
pznsn쎯,	-10.7739
szhshnphhspn쎯	-10.7743
pn2쎯phhz2쎯	-10.7745
쎂쎄zpn3쎯szhhhzn2쎯	-10.7745
snpszszh쎯hhspn0쎯	-10.7752
nhzp쎯hhshzn3쎯,	-10.7753
npzn0쎯szhhh2쎯	-10.7754
nhpnnznpzhhs쎯、	-10.7758
snnhpnn쎯.	-10.7759
nnnsnzhsznphspn쎯	-10.7761
hpszhszpz쎯	-10.7764
pzhh1쎯쎂쎇szhh3쎯	-10.7767
.”nhpzhhsszh쎯	-10.7767
nzzhz쎯hspnh0쎯	-10.7772
zp1쎯.	-10.7777
쎁pn2쎯,	-10.7781
pnhhsh쎯hpnz0쎯	-10.7782
쎁쎉쎃쎅phhshs쎯	-10.7782
hznpznn0쎯hphz0쎯	-10.7785
pznnnhnpnznhzp쎯	-10.7787
nnzpzhsh0쎯szhs쎯	-10.7789
pzhhzszn쎯pznzp쎯、	-10.7789
pphszh쎯zn2쎯	-10.7789
szhshhzpn0쎯	-10.779
hhpz0쎯psphhs1쎯	-10.7792
nnnszhshpznn쎯	-10.7794
phspnphhpn쎯	-10.7798
zphhhs쎯	-10.7802
.쎂쎀쎀쎄phhshs쎯	-10.7802
쎂szhhz1쎯	-10.7806
pszhhpzn쎯szhhh2쎯	-10.7811
pssn쎯	-10.7813
쎃쎆쎀	-10.7818
szspnpnszh0쎯	-10.782
hpn1쎯zp1쎯	-10.7821
hhsh1쎯zzh0쎯	-10.7828
hspn0쎯hspnhzp0쎯	-10.7829
hspnnhpnpn쎯、	-10.7833
pznpn쎯zzhpzzn쎯	-10.7836
nphhshhpn쎯,	-10.7836
ppsnzshz쎯	-10.7838
szszs0쎯pszssh0쎯	-10.7844
zpszh0쎯nsnzhpn쎯	-10.7844
spnpnznnpnshszh쎯	-10.7846
nhpn0쎯szhs쎯	-10.7847
hhshphpn쎯hhsh	-10.7854
phzn쎯szszhszpnh쎯	-10.7855
nhpn0쎯shh쎯	-10.7856
235쎯shnpn쎯	-10.7859
,hspnzhhzpn쎯	-10.786
hzhpnhszh쎯	-10.7862
szhhhhshpzhh쎯	-10.7863
nhzpphphhpn쎯zzp쎯	-10.7863
phhznppnnppn1쎯	-10.7867
쎀nhszhnzphhz쎯	-10.7875
hpszhsnppznn쎯	-10.7875
,ssznzznzpn쎯	-10.788
pnhszh쎯,	-10.788
ppzhphpnzhhhhs쎯	-10.7882
npzn0쎯쎁	-10.7883
psphhs1쎯.	-10.7885
hhshszhhhsh쎯hhp	-10.7888
hhshszpz쎯hpszzh쎯	-10.7891
hhhpnnpnzpznhzs쎯	-10.7893
nhszhszszh쎯szs1쎯	-10.7895
.hzshnnzphshszh쎯	-10.7895
nnnhhshpzhh쎯·	-10.7898
nhhsh쎯zhzhzn0쎯	-10.7898
hsh0쎯hszhnph쎯	-10.7899
hhpz0쎯.	-10.7899
.h	-10.79
쎀nhszhsh쎯	-10.7904
nnzhpzpppn쎯zzp쎯	-10.7905
szpn1쎯hshzsz쎯	-10.7906
hshzzpp쎯,	-10.7907
쎁쎉쎃쎃phhshs쎯	-10.7911
pznnpz0쎯szpnpn1쎯	-10.7912
pnhhsh쎯pszhhhp쎯	-10.7917
pz0쎯hpzznp쎯	-10.792
.쎀쎀	-10.7929
zzsnnzhhpz쎯hsh1쎯	-10.793
о	-10.7933
pzzhhzzs쎯	-10.7934
pnpn1쎯zpn3쎯	-10.7939
hhshhpsn쎯hsszs쎯	-10.7939
.shshhz0쎯pznsn쎯,	-10.7941
zzhhhzpn쎯zpnn1쎯	-10.7945
,zhhpzzs쎯	-10.7947
hpszhhzzp0쎯	-10.7949
npzn0쎯pn2쎯	-10.7955
hhshszpn0쎯pn2쎯	-10.7958
szhshzznzpn쎯zz2쎯	-10.7958
nphpszhhhnzzn쎯、	-10.7962
szhhszhhszhh0쎯sz	-10.7965
hhpn0쎯pshszhpn쎯	-10.7966
hzhhszn쎯hpzznp쎯	-10.7967
hpszhh쎯pnhhspn1쎯	-10.797
hspnpzzn1쎯hpn1쎯	-10.797
hspn쎯	-10.7975
129쎯nhpnpn0쎯	-10.7977
.pzhhs0쎯hhz1쎯	-10.7978
쎁쎉쎃쎆phhshs쎯	-10.7984
hzhszhshpn쎯	-10.7985
snpnzszhpz쎯phspn	-10.7986
npzn0쎯nhp쎯hpn1쎯	-10.7986
/쎁	-10.7987
nphhps쎯hpshsh쎯	-10.7987
、hspnzzh1쎯	-10.7989
쎁쎂pns쎯	-10.799
nzhp쎯pznsn쎯	-10.7994
zp쎯	-10.7994
쎉pzhh1쎯hznhsh쎯	-10.7997
zz2쎯《	-10.8001
pshspnh0쎯phzn쎯	-10.8004
쎁쎉쎃쎄phhshs쎯	-10.8004
.pszhhh0쎯	-10.801
pznzszs쎯szshzh쎯	-10.8016
szsshhsszhhhh쎯,	-10.8018
hpszss쎯hnphspn쎯	-10.8021
hhps2쎯ssnph쎯	-10.8029
nhszhhhspnpzpn쎯	-10.8029
nnpzzhhz쎯pshz1쎯	-10.8032
,zhhznnpn1쎯	-10.8037
nnnszs쎯nnhpn쎯	-10.8037
hzhzszn쎯》、《	-10.8043
shhspshz쎯nhnph	-10.8047
hszh0쎯hsshhhpn0쎯	-10.8049
zphzhh쎯nhnphp쎯	-10.8054
hpnhhz쎯	-10.8054
.”szhhpzhh2쎯	-10.8055
pzszshpzpppn쎯,	-10.8056
.쎂쎀쎁쎂phhshs쎯	-10.8057
hhzpnzp쎯szhhzsh쎯	-10.806
snzszhh쎯szpn1쎯	-10.8063
znpznnhzhz쎯.	-10.807
sshszhhssnppznn쎯	-10.808
szhhpzh쎯、	-10.8083
—쎂쎀쎀	-10.8084
shhspshz쎯pznzh쎯	-10.8087
pzzpn0쎯szhzph쎯	-10.8088
(쎁쎉쎂	-10.8088
hspnznpzhhs쎯	-10.8088
nphzpnnhpnpnhs쎯	-10.8091
phspnnppnnznn쎯	-10.8092
hzszhh0쎯hpshsh쎯	-10.8099
szsznpzpzn쎯	-10.8102
、pszhhh0쎯	-10.811
nhnphshszh쎯、	-10.8115
쎁쎉쎃쎈phhshs쎯	-10.8115
nhnphznpzpzn쎯	-10.8116
nhpsnzzs쎯	-10.8121
쎅phhshs쎯	-10.8121
szszs0쎯pzzshz쎯	-10.8125
pzhh1쎯쎂쎃szhh3쎯	-10.8128
snzpshznp쎯snz쎯	-10.8134
h0쎯pznnnnzpzhsh쎯	-10.8137
hppzhh쎯zz2쎯	-10.8138
.psphshh1쎯npzn0쎯	-10.8153
szhsh2쎯shshhz0쎯	-10.8155
nnzhpzpppn쎯phzn쎯	-10.8165
shhsszhhpzhh0쎯	-10.8172
hspnh0쎯,	-10.8172
snpszszhphpn쎯	-10.8176
,phspnpzzpn쎯	-10.8176
hhps2쎯zpznn쎯、	-10.8177
hszsshnphzpn쎯	-10.818
hsn쎯nhnphszhzzs쎯	-10.818
hhznzp쎯hspnpz2쎯	-10.8181
쎈쎀phhshs쎯pshzn1쎯	-10.8182
쎁쎂쎀쎀	-10.8184
zn0쎯pzpszhhhhsh쎯	-10.8186
szpzh0쎯nzhzhs쎯	-10.8189
zzsnhzp쎯nppn쎯	-10.819
nn	-10.819
znszh쎯	-10.8193
◎	-10.8194
pzhh1쎯쎂쎁szhh3쎯	-10.8195
phspnzph쎯zpnn1쎯	-10.8197
zhpsnppznn쎯	-10.82
nppnpzpshzhh쎯	-10.8207
hsszhpz쎯pzpn2쎯	-10.821
pns쎯szhhshnh쎯	-10.8211
쎂쎀pznpzn0쎯	-10.8217
-쎁쎂	-10.8224
hpszhh쎯hpz0쎯	-10.8226
nhszs쎯phspnnnhs쎯	-10.823
pnnpnzzn쎯znzz0쎯“	-10.823
shhszpzpzp1쎯	-10.8231
szspzhhpzhh0쎯	-10.8231
pnhhsh쎯zzp쎯	-10.8237
,nphhshhpn쎯	-10.8245
szssh	-10.8246
szhhz2쎯hsh2쎯	-10.8251
nhpnpssz쎯、	-10.8252
zpszh0쎯zz2쎯	-10.8254
쎁쎀phhshs쎯	-10.8254
93쎯hssznphhs쎯	-10.8255
:쎁쎀	-10.8255
pzhh1쎯쎂쎉szhh3쎯	-10.8257
nnspznhpn쎯”	-10.826
shhspzphpnn쎯“	-10.8263
ppzhpphs쎯phzn쎯	-10.8268
shhshsszhpznn쎯	-10.827
;shhspshz쎯	-10.8274
npzn0쎯shsh쎯	-10.8274
hpz0쎯szhhzsz쎯	-10.8274
,쎁쎈	-10.8275
szsshshszhhhs쎯	-10.828
и	-10.8285
hshzsz쎯hzhpznzp쎯	-10.8289
zph쎯hszsn쎯nzzhz쎯	-10.8291
nznnp쎯hszsshzph쎯	-10.8291
shhsznppnhhpn쎯	-10.8291
),szhhhshpn쎯	-10.8291
psnhnpnznhzp쎯	-10.8296
쎁쎉쎉쎆	-10.8298
hzhszhhs1쎯	-10.8299
szh0쎯、	-10.8303
hspnpz2쎯pszhhhp쎯	-10.8304
szhsshpn쎯》	-10.8308
쎀쎀nhszhsh쎯,	-10.8309
hs1쎯pshshhsh0쎯	-10.831
hszhz1쎯szh0쎯	-10.831
,쎁쎉쎈쎄phhshs쎯	-10.8311
,phszhhhsh쎯	-10.8314
hphhzpnhzn쎯	-10.8316
.szhsh2쎯	-10.8317
nnnhppszhhzpn쎯:	-10.8319
nsnszhhhhpn쎯	-10.8322
h쎯zhzphzn쎯	-10.8323
nhphsshnnnn0쎯	-10.8323
nnphpnnhhhszh쎯.	-10.8324
、nnnhhshpzhh쎯	-10.8325
nzzhz쎯·	-10.8335
pzzn3쎯pznszh0쎯	-10.834
nzzhszh쎯nnnhz2쎯	-10.834
pnpnhspnhspnhpn쎯	-10.8346
쎅쎀쎀hsszhpz쎯	-10.8351
hpn1쎯snz쎯	-10.8353
hzhhpnszhhz쎯	-10.8353
phspnzzh0쎯hsszs쎯	-10.8354
hsh쎯nhphsshszs쎯,	-10.8354
pzhh1쎯쎁쎉szhh3쎯	-10.836
쎁쎉쎆쎇phhshs쎯	-10.8364
szhshshshsh쎯	-10.8367
pzpn1쎯	-10.8367
hshzzpp쎯hshzsz쎯	-10.8368
zz2쎯nhpnnzzn쎯	-10.8368
nhpn1쎯zhpszhsh1쎯	-10.8376
shzphzssnph쎯hzh	-10.8384
pzhh1쎯쎂쎂szhh3쎯	-10.8384
,pnpnhsh쎯shhsn	-10.8385
쎁쎉쎅쎁phhshs쎯	-10.839
.pnhhsh쎯hszsn쎯	-10.8394
nhppnpnhsh쎯shhsn	-10.8394
szhzph쎯phzn쎯	-10.8395
snznznn쎯	-10.8404
、nnnhshzn쎯	-10.8406
hshhszhhznp쎯,	-10.8409
、znpznzh쎯	-10.8412
hpszhnhp쎯szs1쎯	-10.8417
nhszhnzphhz쎯nphz	-10.8418
zzhpznnn쎯hhz1쎯	-10.842
pz0쎯szhszpn3쎯,	-10.8422
.shhshshpszhh쎯	-10.8423
pn2쎯phshpzpp쎯,	-10.8425
.zzshppzhhnzzn쎯	-10.8431
쎁pn2쎯	-10.8433
hpzn2쎯znhzn0쎯	-10.8439
,hzhpsnhhhsh쎯	-10.8439
hzshnhpnpn쎯zpn3쎯	-10.8443
nzpphsn쎯nzpnzn0쎯	-10.8444
zz2쎯snzszhshn쎯	-10.8445
nhzpphzsz쎯.	-10.8446
pn2쎯phspnpzzpn쎯	-10.8447
spnznzzpszpzszh쎯	-10.8454
phzznnh쎯szhh3쎯	-10.8464
쎃쎅쎀	-10.8466
zzspnps쎯zzhpzzn쎯	-10.8466
nhhsh쎯zhzphzn쎯	-10.8472
zzpn0쎯sz	-10.8476
hsn쎯zzspznhzs쎯	-10.8479
npzn0쎯szhhshnh쎯	-10.8482
,psphshh1쎯npzn0쎯	-10.8484
nhpn0쎯hsn쎯	-10.8485
pzpn2쎯hhzn1쎯	-10.8486
----	-10.8494
nphhshhpn쎯zph쎯	-10.8496
쎯shhszpszh1쎯	-10.8507
zzhpzn0쎯npzn0쎯	-10.8512
hzhspshhzhhhpn쎯	-10.8512
pns쎯pzhh1쎯	-10.8515
,hzhsnzn쎯	-10.8517
zpn1쎯	-10.8523
hphpz쎯	-10.8527
》pn2쎯phshpzpp쎯	-10.8528
”,szhhhshpn쎯	-10.8529
hpnszhsh0쎯nnhs쎯	-10.853
nnnznszh쎯npnsns쎯	-10.8531
pshz1쎯,	-10.8532
zshz쎯	-10.8533
phshhs	-10.8534
zzhznznznzn쎯	-10.8534
hhspn2쎯zz2쎯	-10.8538
pspnn쎯hhshzn3쎯	-10.854
nsnznhpnhhh쎯	-10.8542
zzspzzhhnznn쎯shh	-10.8543
.pphsnzzn쎯	-10.8546
쎃hhpzpn0쎯	-10.8552
쎂쎀phhshs쎯	-10.8552
znpz쎯	-10.8554
nnspznhpn쎯、	-10.8554
phspnszhphsh쎯、	-10.8558
、zhzphzn쎯	-10.856
hppzhh쎯pn2쎯	-10.8562
ssnph쎯pnhhspn1쎯	-10.8565
pszhh0쎯pzzshz쎯,	-10.8567
》szhhhshpn쎯h쎯	-10.8568
nhpn0쎯snzszhh쎯,	-10.8575
nhszhsh쎯;hppzhh쎯	-10.8575
szhpszszh쎯.	-10.8579
phspnpzhshszh쎯	-10.858
쎁hshhpszpn쎯	-10.8581
snphpz쎯szhhz2쎯	-10.8587
zhphshpszhh쎯	-10.8587
쎁쎀쎅	-10.8589
pzpp쎯	-10.8589
szznzznzs쎯sz	-10.8589
phspnnnhs쎯phzn쎯、	-10.8595
pshzpszhhphs쎯,	-10.8598
hpn0쎯hhpn1쎯	-10.8602
hshzzpp쎯、	-10.8605
shhsnhphsshnnnn쎯	-10.8606
hpnn0쎯hspnpzzn1쎯	-10.8606
,szhshzp1쎯,쎁쎉쎆	-10.8607
쎁쎅hsszhpz쎯	-10.8607
pznnhsh1쎯	-10.8608
nhpnnhszpn쎯,	-10.861
pz2쎯phspnnnhs쎯	-10.861
szhs쎯hhshpzhh1쎯	-10.8612
pznpzn0쎯npzn0쎯	-10.8614
쎀nphzpn쎯,phhshs쎯	-10.8617
pn2쎯phshpzpp쎯.	-10.862
psszhhspn쎯zsh0쎯	-10.862
phhshs쎯,	-10.8621
:쎀.	-10.8631
zphzsz쎯pssnz쎯	-10.8631
shnpn쎯pn2쎯npzn0쎯	-10.8633
h쎯zzhhhznp0쎯	-10.8638
zhhzpnhsh쎯	-10.8645
pnhszhhpszpn쎯	-10.8647
zpn3쎯nznpszhpz쎯,	-10.8654
hhshzznzpn쎯,	-10.8655
nhzpph	-10.8659
、shhspzppnnznn쎯	-10.866
hz2쎯hs1쎯	-10.8661
pznnzp쎯	-10.8661
pnhzhhzpn쎯,	-10.8663
zzspn쎯phzn쎯	-10.8664
pphszh쎯hszhsh0쎯	-10.8666
nppnnnzhhpz쎯	-10.8669
hppzhh쎯zp1쎯	-10.8672
hhpsnzn쎯hsh1쎯	-10.8677
zzsnhnphszh쎯	-10.8681
,phspnszhpn1쎯	-10.8683
zzsszhh0쎯hpnz0쎯	-10.8685
쎁hszpnpn쎯,	-10.8688
hshhsh0쎯	-10.869
snz쎯,	-10.869
nhpsnz0쎯pspnn쎯	-10.8691
쎁쎉쎂쎇phhshs쎯	-10.8694
phshpz쎯pszhhpzn쎯	-10.8695
nnpnzzzh쎯h	-10.8713
쎁쎉쎆쎁phhshs쎯	-10.8713
nphhshhpn쎯hhpz0쎯	-10.8714
pzhh1쎯쎂쎄szhh3쎯	-10.8717
pnhszhpznzh쎯	-10.8718
쎃쎀hsszhpz쎯	-10.8719
pznnnppn쎯	-10.8721
hszpzhhnpnsns0쎯	-10.8724
zhpsnnpnphhs쎯	-10.8725
shhsnnzpnpnszh쎯	-10.8725
nppnhszpn쎯	-10.873
쎁쎉쎃쎀phhshs쎯	-10.8731
hspnhpnhszhz쎯	-10.8733
pnn0쎯:	-10.8738
znhzn0쎯phhz0쎯	-10.8739
szhszhhpnn쎯	-10.8745
hhhzn2쎯snpszszh쎯	-10.8746
、nnn	-10.8753
shhspnnphspn쎯、	-10.8753
,zpn3쎯	-10.8756
、nhzpphpzpn쎯	-10.8768
zsh0쎯nhpsnszpz쎯	-10.8772
hzhpzzp쎯	-10.8774
snzszhh쎯.	-10.8776
hpn1쎯szhszh1쎯	-10.8781
pzhh1쎯쎁쎇szhh3쎯	-10.8784
nnspznhpn쎯;	-10.8785
szh0쎯pzhhzszn쎯	-10.8787
phhz0쎯szszh1쎯	-10.8789
zn2쎯szhzs1쎯	-10.8793
szhhhshpn쎯pszsz쎯	-10.8794
pzhh1쎯쎉szhh3쎯	-10.8796
zzsnhzp쎯zzpn0쎯	-10.8796
,phhsh1쎯hhz1쎯	-10.8799
hsshszhh쎯	-10.8799
hszh1쎯pshzn1쎯	-10.88
szsphzhznp0쎯	-10.88
pzhhs0쎯shnpn쎯	-10.8801
pznpzn0쎯pn2쎯	-10.8803
pzhhs0쎯zzpn0쎯	-10.8805
pznszh1쎯“	-10.881
pzhh1쎯쎁쎁szhh3쎯	-10.8811
153쎯nnzzzh0쎯	-10.8811
,phnphnphhz쎯	-10.8814
()pszhhpzn쎯	-10.8815
hszpzhhzhz쎯nhzp쎯	-10.8815
npzn0쎯n	-10.8815
hhz1쎯쎁쎉쎉쎉phhshs쎯	-10.8816
.쎂쎀쎀쎃phhshs쎯	-10.8816
.pszsz쎯pssnz쎯	-10.8817
,hhz1쎯szhhhshpn쎯	-10.8821
szhszh1쎯pznszh1쎯	-10.8823
,pnzp쎯hpszs0쎯	-10.8823
nsnhhshpzhh쎯,	-10.8824
pnzn0쎯pnpnpn0쎯	-10.8825
.szhpnh쎯npzn0쎯	-10.8833
pshsszhphpn쎯zz2쎯	-10.8841
,hzhhz0쎯	-10.8841
hhshpnhzn쎯	-10.8842
nphhpnzz쎯,	-10.8844
szsshnzsz쎯	-10.8845
hphz0쎯、	-10.8846
pszhshpzznnnhs쎯	-10.8847
.szhszh1쎯phhshs쎯	-10.8852
nhzp쎯hhpsppp0쎯	-10.8853
nnzhhshn쎯hpszh1쎯	-10.8856
(쎅	-10.8861
,hzh	-10.8861
쎇pnzn0쎯szhhhsh1쎯	-10.8864
nhpsnszhhs쎯,	-10.8865
hznnzzn쎯pznpzn0쎯	-10.8868
zzhznhsh쎯zzhzhz쎯	-10.8869
hzhsznzn쎯	-10.887
,szhphsh0쎯	-10.8871
nhpspnszhhhspn쎯	-10.8873
nhpnnnhzppnnn쎯	-10.8875
shh쎯hspznnzzn쎯	-10.8879
zn2쎯hppzhh쎯	-10.888
nnnhz0쎯	-10.8883
ppnpznnhpnnnnnn쎯	-10.8883
ppshhz쎯.	-10.8887
pzpnppn쎯	-10.889
szhhhhpnzznzpn쎯	-10.8893
hshszh0쎯pszsz쎯	-10.8894
zhpn쎯	-10.8894
pzzpn1쎯hhpn1쎯	-10.8897
nnnszhhhsh1쎯	-10.89
hshhhz0쎯	-10.8904
、phhsh1쎯	-10.8906
nhzpphphhpn쎯,쎁쎉쎆	-10.8906
쎅pn2쎯	-10.8911
phs0쎯hsszhpz쎯	-10.8913
shpnznnpn쎯zpznn쎯	-10.8914
、psszhhspn쎯	-10.8918
,hhshszpz쎯zhz1쎯	-10.8921
쎅쎀쎀nphzpn쎯	-10.8922
hhz1쎯쎁쎉쎉쎈phhshs쎯	-10.8929
hspnpnhhsh0쎯	-10.893
쎁쎉쎂쎈phhshs쎯	-10.8934
hnphs쎯nnzzph쎯	-10.894
phhz쎯hszhshzs쎯:	-10.8947
nzhzh쎯nnzzzh0쎯	-10.8947
hhz1쎯쎂쎀쎁쎂phhshs쎯	-10.8948
nnznnhpn쎯ssnph쎯	-10.8949
pnhhspn1쎯phhshs쎯	-10.8953
쎂hhpzpn0쎯	-10.8962
snz쎯nzhp쎯	-10.8963
115쎯szhhhzn2쎯	-10.897
phz1쎯	-10.8975
spnpz2쎯hsznhszn쎯	-10.8975
hspnhszhhh쎯	-10.8978
pzszhshnnnn	-10.8978
hpsnnzzn쎯hszhz1쎯	-10.898
nhszszhhszhhh쎯	-10.8982
shhhz쎯hpn1쎯	-10.8983
nhpzhhpn쎯	-10.8985
nphhhsszhhh0쎯“	-10.8986
nnnphzznnh쎯shh쎯	-10.8987
szhhpzhh2쎯hszsn쎯	-10.8988
,phhhshhh쎯	-10.8988
nhhsh쎯pn2쎯	-10.8991
psnhhsh쎯hpshsh쎯	-10.8993
nnnpzszn쎯nphhh쎯	-10.8996
,hpsn0쎯pszn0쎯	-10.9003
쎁쎉쎉쎅	-10.9004
hpnnpszhhzpn쎯	-10.9006
pn2쎯hshpszhhzzs쎯	-10.9008
nnnhshhsh쎯	-10.9009
쎃쎀hpz0쎯	-10.901
pn3쎯szh0쎯	-10.9012
hpshhzpnznp쎯	-10.9013
hpszhszszs쎯n	-10.9015
pszsz쎯pn2쎯	-10.9017
nnnzpnshsh쎯	-10.902
、hhpz1쎯	-10.9022
nphpzhhsz쎯zhz1쎯	-10.9022
hzhs0쎯hshzzpp쎯	-10.9022
.쎂쎀쎀쎂phhshs쎯	-10.9026
shhshsshhh쎯	-10.9028
hpzn1쎯zphzzh0쎯	-10.9028
hhshspnhszs115쎯.	-10.9033
zzpn0쎯hpszsshhh쎯	-10.9035
nhpzpnzn쎯npzn0쎯	-10.9036
쎁쎀쎀%	-10.9036
쎄쎀쎀쎀	-10.9036
hspnpz2쎯,	-10.9037
、nphhshzph쎯	-10.9038
hshzhpn1쎯,	-10.904
zhzhz0쎯zpnn1쎯	-10.9041
pnhhpn0쎯snzhzp쎯	-10.9045
,쎁	-10.9047
zzhnzhpszssh쎯	-10.9047
nnnphpnhspn쎯	-10.9047
nhzppn1쎯	-10.9048
h쎯pspnzp쎯	-10.9052
phhshs쎯pszhhpzn쎯	-10.9053
h쎯pns쎯pn2쎯	-10.9055
hpszhh쎯pshzszpn쎯	-10.9056
nnnznszh쎯nnzzph쎯	-10.9057
nzhszhszh쎯、	-10.9059
nnnnznn쎯	-10.9062
pshpzn2쎯zhzhps쎯	-10.9065
nhphspzhspzphhz	-10.9068
szhhhspn3쎯,	-10.9069
shnpn쎯shshhz0쎯	-10.9069
pz0쎯szhszpn3쎯.	-10.907
nnzpzhsznnhpn쎯	-10.907
hhps2쎯ppzhszh쎯	-10.9073
zpnzhh0쎯hhz1쎯	-10.9073
nnnshhzpnzn쎯	-10.9075
snpnzszhhspn쎯	-10.9077
hphsh1쎯hpszh0쎯.	-10.9077
nhhsh쎯nzhhps쎯	-10.9082
pz쎯zhphsszhsz쎯《	-10.9085
phhs2쎯zphpz0쎯	-10.9085
hspnnnzhz쎯hspn	-10.909
pznsn쎯hshnzhpz쎯	-10.9091
phhhzphsshhshh쎯	-10.9093
nhzszhhh쎯	-10.9096
hpshsh쎯pnhhsh쎯	-10.9102
pshpnhszhz쎯	-10.9102
szhhhshpnhz쎯,	-10.9109
.hszhz1쎯	-10.9112
hszhz1쎯pzhhs0쎯	-10.9113
pszhhpzn쎯zph쎯	-10.9114
nnnhshzn쎯:	-10.9116
hzhhshhzn쎯“	-10.9118
pnhszhzs0쎯pnhzn쎯	-10.9119
,hspnh0쎯	-10.912
nnzhpzn0쎯znszpz쎯	-10.912
、szhhz2쎯zzh0쎯	-10.9124
zzhpzzhz쎯	-10.9128
shszh1쎯hppzhh쎯	-10.913
.”(쎂).	-10.9131
,shhhz쎯nhszhzpn쎯	-10.9133
pszhhhp쎯zpnzzn쎯	-10.9136
phs0쎯nphzpn쎯	-10.9142
쎀)	-10.9143
nnnhshzn쎯》	-10.9144
쎁쎉쎂쎉phhshs쎯	-10.9144
pssnz쎯pszhhpzn쎯	-10.9147
hpshsh쎯hsshz0쎯	-10.9148
pzhh1쎯쎅szhh3쎯	-10.9149
h쎯hpn1쎯nnpnzzzh쎯	-10.915
hspnnhszs쎯	-10.9153
nnzhpszhhhpnzp쎯	-10.9154
hszhz쎯	-10.9156
쎁쎆쎀쎀	-10.9164
쎁쎅쎀쎀	-10.9171
、hsh2쎯	-10.9171
szhhpzh쎯szpn1쎯	-10.9172
쎁쎀쎂	-10.9172
pshshzzn쎯phzn쎯	-10.9181
nnnznnp쎯zhpzzpn쎯	-10.9182
shhsn	-10.9185
,nphzpnhhshpzhh쎯	-10.9187
npzn0쎯hsshhhpn0쎯	-10.9187
phhpn1쎯	-10.9189
phhz0쎯.	-10.9191
쎄hpszhhhsh0쎯	-10.9192
szhh3쎯nzhzhs쎯	-10.9195
hzhhz0쎯hhszs0쎯	-10.9199
hpz0쎯nhszhsh쎯	-10.9201
h2쎯phspnszhphsh쎯	-10.9202
hhpz1쎯phhz1쎯	-10.9205
hpn0쎯	-10.9208
nhszs쎯、	-10.921
pphsn쎯	-10.9218
hpn1쎯nppn쎯	-10.9219
hshhszhhzphz쎯	-10.9235
zpn3쎯zphszhhh1쎯	-10.9236
zzhznhsh쎯》	-10.9241
phspnszhpn1쎯쎀.	-10.9242
hzhhzszhh쎯pnhzn쎯	-10.9244
phznzzn0쎯pnhz0쎯	-10.9246
hssszsshpzn쎯	-10.9247
szhzzshszhz쎯	-10.9248
、nhpsnhszhszhsh쎯	-10.9249
pnzp쎯hpnz0쎯	-10.9251
(pnzn0쎯hhpz0쎯	-10.9252
psphshszpn쎯	-10.9254
hspnhspn쎯szhs쎯	-10.926
phhsh1쎯nhnphp쎯n	-10.9262
nnnhppszhhzpn쎯,	-10.9264
pzzpzpn쎯pzhhs0쎯	-10.9265
、pshspn쎯snzhspn쎯	-10.9265
zhpsnhhhsh쎯nnn	-10.9267
hhshnzhhzpn쎯	-10.9271
pnhhsnph	-10.9272
,phspnszhh쎯	-10.9272
szshpnhszhz쎯	-10.9276
nhpn2쎯pshz1쎯,	-10.9279
pzzpn0쎯szhhpzh쎯	-10.9282
nhszs쎯hzzpn0쎯	-10.9285
szhhszhspnpzpn쎯	-10.9286
zsz0쎯pnhhzn쎯	-10.9286
pnhhzn쎯hppzhh쎯	-10.9287
nnnzz쎯szhhzsh쎯:	-10.929
hphhpnz쎯nphszs쎯.	-10.9291
shh쎯.	-10.9294
h쎯pznpn쎯	-10.9295
、szhhhsshhhzn0쎯	-10.9297
pznpn쎯nhzp쎯	-10.9303
szhhhszhhhsh0쎯:쎂	-10.9305
pzznnzszhzh쎯.	-10.9311
hpn1쎯sz	-10.9313
z2쎯nppnpnhpszs쎯	-10.9318
nnnhszhz0쎯szh0쎯	-10.9318
hhshnphhsh쎯zzh0쎯	-10.932
zhzs1쎯pn3쎯	-10.932
–	-10.9323
szhhz1쎯)	-10.9329
pznnhhpn쎯	-10.933
—쎁	-10.9331
nhpnpssz쎯,	-10.9331
phnphnzhzsp쎯쎄	-10.9334
nnzpzszs쎯	-10.9338
쎈szhhz1쎯	-10.934
쎃pn2쎯	-10.9341
nznhzppn쎯hszsn쎯	-10.9342
pzhh1쎯쎁쎄szhh3쎯	-10.9344
shnpn쎯hssznphhs쎯	-10.9345
、szpzh0쎯pss쎯	-10.9347
pnhpzhhsz쎯	-10.9349
쎁쎇쎀	-10.935
nhpnnphhpnszh쎯	-10.9353
pznhspn쎯,	-10.9356
,zsz0쎯hppzhh쎯	-10.936
pznsn쎯,hpsnnzzn쎯	-10.9364
nsnhshssszpn쎯	-10.9365
hhhshz쎯	-10.9365
zzhnhpnpn쎯	-10.9366
nzpnpz쎯、	-10.9367
nnnnhhsh쎯:	-10.9371
n0쎯nhnphszhzzs쎯,	-10.9374
nhnphszhhzpszh쎯	-10.9375
pzhh1쎯쎆szhh3쎯	-10.9377
hhszszhpn쎯pnhpn쎯	-10.9377
hsszh쎯pnhz0쎯	-10.9382
pzhh1쎯쎁쎃szhh3쎯	-10.9385
phhz0쎯hzh	-10.9386
pnpn1쎯shshhz0쎯	-10.9398
phnphnhshhzn쎯)	-10.9398
hhps2쎯zz2쎯	-10.9399
hshzzs0쎯psphhs1쎯	-10.9399
zphznzp쎯	-10.94
pnhz0쎯phhshs쎯	-10.9404
pznnhpshhzhhszn쎯	-10.9407
hhzn0쎯hshhpszpn쎯	-10.9407
szhh3쎯nzhszhszh쎯	-10.941
、phhhzsnppzhh쎯	-10.9413
phsszhsz쎯	-10.9415
phs0쎯hpz0쎯	-10.9415
hpzn2쎯phszhhpzn쎯	-10.9416
(shhsszhpn쎯	-10.9416
pznpn쎯phzn쎯	-10.9416
hhz1쎯nphhshhpn쎯	-10.9419
hzshnnzphshszh쎯쎁	-10.9421
쎂pn2쎯	-10.9428
hpszh쎯	-10.9431
hh0쎯pn2쎯	-10.9432
hhh2쎯nphpzhhsz쎯	-10.9438
nnphpn1쎯nhszs쎯	-10.944
phspnszhpn1쎯쎁	-10.944
zphpphpnps쎯	-10.945
psnhhhshszh쎯、	-10.945
zzhszhsh1쎯hsszs쎯	-10.9455
pzzhz쎯	-10.9457
znzzhpszpn쎯nzhs쎯	-10.9466
szhhnhszhzpn0쎯ph	-10.9469
nnnzhzphzn쎯	-10.947
phhhzhz쎯	-10.9471
ㄐ	-10.9476
pszhhhnznn쎯,	-10.9476
hsshhhpnpzpn쎯	-10.9477
hspnszhhhspn0쎯	-10.9478
zzhphpn쎯	-10.948
nnzpzpz0쎯hszh0쎯	-10.9482
pznszh0쎯pszhhh0쎯	-10.9487
zzhpnzp쎯	-10.9487
pzhh1쎯쎃szhh3쎯	-10.9493
hpszhszszs쎯p	-10.9494
쎄pn2쎯	-10.9496
hhpsszhsh쎯,	-10.95
nzznpzhhs쎯	-10.9501
zpnn1쎯nnnhshzn쎯》	-10.9501
nnnhshzn쎯,	-10.9512
nzpnpz쎯》	-10.9513
pshzhhpn쎯	-10.9514
pzn2쎯	-10.9515
nzpnppp쎯nhpnnzz쎯	-10.9518
pzpn2쎯hszsnnpn쎯	-10.9518
pshpszh0쎯	-10.9519
nhpnhhshshzn쎯	-10.9522
pnzp쎯phhhzszhs쎯,	-10.9526
szhszhhhz쎯	-10.9527
쎁쎉쎅쎀phhshs쎯	-10.9529
nzhzszhh쎯	-10.9536
pphszh쎯zsh0쎯	-10.9539
.phhsh1쎯hhz1쎯	-10.9541
쎁쎀/쎁쎀쎀	-10.9543
쎂.쎁	-10.9545
pznpzn0쎯zhphhzn쎯	-10.9547
.pphszh쎯hnphspn쎯	-10.9549
nhpnnph0쎯zp1쎯	-10.9552
h쎯hspnnphhhs쎯,	-10.9553
nhnphszhhhs쎯.	-10.9554
nhpnnpzszn쎯	-10.9554
hhpsppp0쎯.	-10.9555
hszh1쎯hpn1쎯	-10.9555
쎂pn2쎯,	-10.9565
szpn1쎯nznn쎯	-10.9567
nnnszhszpn0쎯	-10.9569
hzhzszn쎯zzhpzhz쎯	-10.9573
zzh0쎯nnzszhszh쎯	-10.9573
szhhpzhh2쎯·	-10.9573
、nhpnpn0쎯	-10.9573
.nnnhszpzhh쎯	-10.9575
쎃szhhz1쎯	-10.9578
hspnpznszh쎯:	-10.9581
쎁쎉쎈쎉	-10.9583
nzpzpn0쎯hpzp쎯	-10.9585
hspnh0쎯hsh0쎯	-10.9587
pzzszhshszpn쎯	-10.9588
h쎯szhhhzn2쎯	-10.9597
pshz2쎯.	-10.9602
、nhp쎯hzzpn0쎯	-10.9604
hnphs쎯ppshhz쎯	-10.9609
hspnnphzpnzph쎯,	-10.961
phhhznphhshhpn쎯	-10.9615
shhsszhhhpnzp0쎯	-10.962
ppszhhzpn쎯zpnp쎯	-10.9623
hspnhszhszh쎯	-10.9623
쎂쎀쎀nphzpn쎯	-10.9624
hshszh0쎯nzpphsn쎯	-10.9629
hhpn0쎯,	-10.9635
.쎂쎀쎁쎃phhshs쎯	-10.9636
nzhzhs쎯nnzszhzh쎯	-10.9637
zpszh0쎯hsh2쎯、	-10.9638
nnznnhpn쎯znn0쎯	-10.9641
shnpn쎯shhhz쎯	-10.9642
pzhhzszn쎯.	-10.9642
hpsn0쎯pzhhs0쎯	-10.9644
hpshsh쎯h쎯pns쎯	-10.9645
-쎁쎉쎉	-10.9647
hshhpszpn쎯,	-10.9648
znhznp쎯.	-10.965
、pszhhhhszzn쎯	-10.9652
≥	-10.9657
—쎁쎉쎉	-10.9661
psphhs1쎯、	-10.9667
,쎃	-10.9678
nnzhhshn쎯szpn4쎯	-10.9678
hszpzh쎯nphhh쎯	-10.968
hshzn0쎯hsshz0쎯	-10.9683
zhzhzn0쎯pszszh쎯	-10.9684
pzszhshhnphs	-10.9684
pnpznhshs쎯pshz2쎯	-10.9684
nnnhsszhhhhpn쎯	-10.9686
쎄.쎀	-10.9686
pzhh1쎯쎂szhh3쎯	-10.9688
zhzhzn0쎯hsn쎯,	-10.9691
hshnhnphszhhpz쎯.	-10.9694
pshshzzn쎯nnzzph쎯	-10.9696
phspnsz쎯hhz1쎯	-10.97
.hzhnhsz	-10.9702
.szhszhshn쎯	-10.9702
.쎁쎉쎈쎂phhshs쎯	-10.9703
nsnnhpnzs쎯	-10.9714
hzhzszn쎯shhsp	-10.9718
pnnpzpppzn쎯	-10.9728
hhz1쎯sz	-10.9729
쎁쎉쎉쎃	-10.973
phhz0쎯hsh2쎯	-10.9733
psphshh1쎯zz2쎯	-10.9734
hpshsh쎯pnhz0쎯	-10.9734
nhszhzznnnn쎯p	-10.9735
hppzhh쎯pznszh1쎯	-10.9735
zpnzhh0쎯szhs쎯	-10.9736
hpzhhsnnhzpphpn쎯	-10.9736
,h쎯hsszhhhh0쎯	-10.9739
shhsnhpnpnhs쎯	-10.974
psshnpn쎯pnphz0쎯	-10.9742
phspnszhpn1쎯쎁쎂	-10.9743
hpszhnhp쎯ssnph쎯	-10.9752
phhsh1쎯szhh3쎯	-10.9756
shhspnps쎯	-10.976
쎆pn2쎯	-10.9764
、pzhhzszn쎯pznzp쎯	-10.9765
、hspn	-10.9768
pzhhnzpzpn쎯	-10.9768
szhzp0쎯h쎯pns쎯	-10.977
pnhzszh쎯pnn0쎯	-10.9772
nnzpznszh쎯pn2쎯	-10.9777
hp1쎯、	-10.9784
hzhpznzszs쎯	-10.9784
:쎆	-10.979
pn2쎯szh0쎯쎄	-10.9791
(shnpn쎯hsn쎯	-10.9794
phs0쎯nphzpn쎯,	-10.98
쎁쎉쎃쎂phhshs쎯	-10.9801
hspnpznzpszhsh쎯	-10.9802
쎀쎀쎀쎀	-10.9806
,쎂쎀쎀쎄phhshs쎯	-10.9806
hzhz1쎯phspnsz쎯	-10.9807
.쎁쎉쎄쎉phhshs쎯	-10.9808
▁	-10.9809
szhshnpnn쎯	-10.9809
hnhnph쎯hshpzzn2쎯	-10.9809
nnnshszh쎯	-10.9811
,szhshhzhz0쎯	-10.9812
psszpnsz0쎯,	-10.9814
hspnhsshhhzzs쎯	-10.9816
hshnhzpphpnnnnn쎯	-10.9817
,hszpzhhzhz쎯	-10.9822
hshzsz쎯hhpsppp0쎯	-10.9823
hsszs쎯szhh3쎯	-10.9824
pznszhsh0쎯h	-10.9824
nzhshhzn쎯nhpn2쎯	-10.9824
쎃쎀pznpzn0쎯	-10.9825
hshshphpn쎯hsh2쎯	-10.9831
hshphz3쎯phhsh1쎯	-10.9834
zpszh0쎯shh쎯	-10.9839
hpnhshpszhh쎯	-10.9839
szhszhsszhszh쎯	-10.9841
h쎯pn2쎯	-10.9841
쎉쎀쎀쎁	-10.9844
nppnhsshpn0쎯	-10.9844
쎁쎉쎈쎈	-10.9844
zhz0쎯hzhphsszh쎯:	-10.9844
hhs쎯hzhhpzn0쎯	-10.9848
hpshsh쎯szpn1쎯	-10.9849
zpnpzp쎯	-10.9851
pznszh쎯	-10.9851
hpzp쎯szhpn3쎯p	-10.9854
zhhznzs쎯hpzznp쎯.	-10.9854
hspnznpzpzn쎯	-10.9857
、psnhhhszh쎯	-10.9858
nphhps쎯pn3쎯	-10.9859
쎂쎀쎀hsszhpz쎯	-10.9862
shhsszhhszsshzn쎯	-10.9862
nnzpzhzzp1쎯	-10.987
nnzhshpn0쎯,	-10.987
,hhps2쎯	-10.9871
szhs쎯hhshzzph쎯	-10.9871
hhh쎯hhpzpn0쎯	-10.9877
zsphpn쎯szpnpzzn쎯	-10.9877
,nnn	-10.988
szhs쎯nnpnzzzh쎯.	-10.9881
nnzpzpz0쎯、	-10.9886
3	-10.9889
hpznsz쎯hzhs0쎯	-10.989
hshzsz쎯zhphhzn쎯	-10.9891
쎀쎀쎀pnhhspn1쎯	-10.9894
hpsn0쎯nhpzpnzn쎯	-10.9894
zhnhszszhhszhhh쎯	-10.9896
shhsnznn쎯pshz2쎯:	-10.9904
nhpn0쎯.	-10.9904
pszsz쎯hpshsh쎯	-10.9904
nhpspnzhhpszh쎯	-10.9906
hspnnhnphhs쎯	-10.9906
pnhpzhhsznzzn쎯	-10.9909
shzphz	-10.991
phzn쎯hpnnzzn쎯	-10.9916
hhpzpnhshzn쎯sz	-10.9917
hshhszhhh쎯	-10.9919
szhhz2쎯zzsszhhh쎯	-10.992
shnpn쎯pphszh쎯,	-10.9921
nphpszhhh쎯:	-10.9922
phhhshhhnhpzpn쎯	-10.9924
hspnnhphsh쎯	-10.9924
nhpn2쎯hszsn쎯	-10.9925
,phhshs쎯	-10.993
snhnphszhhhsh1쎯	-10.993
zzhpzn0쎯쎄	-10.993
nhpnnzzpp쎯	-10.9931
,nhnphszhhnznn쎯	-10.9933
쎅hsszhpz쎯,	-10.9934
szhhhshpn쎯hpsn0쎯	-10.9935
szhzhphz쎯	-10.9937
hhz1쎯nnnphzznnh쎯	-10.9937
pszhhhnznn쎯.	-10.9938
zz2쎯pszsz쎯	-10.9939
hspnpszhshpzzn0쎯	-10.994
、hhsh1쎯	-10.9941
phspnszh1쎯p	-10.9942
znhznp쎯《	-10.9945
ㄣ	-10.9945
hszhsh0쎯phhsh1쎯	-10.9946
,phshpz쎯	-10.9947
쎁쎉쎈쎄	-10.9948
hspnpznszh쎯.	-10.9954
쎁쎉쎈쎇	-10.9955
hpssnzszs쎯,	-10.9956
hspnhznpsz쎯	-10.9959
.쎂쎀쎀쎁phhshs쎯	-10.9959
pszhhpzn쎯pnzzsz쎯	-10.9963
zzhnhpn0쎯.	-10.9963
pnhszh쎯zz2쎯	-10.9964
nnnpnhszh쎯	-10.9966
”nnzzzh0쎯	-10.9966
szhhssnph1쎯shhsn	-10.9967
szhhhzn0쎯hzzpn0쎯	-10.9977
nznn쎯,	-10.9977
,znhzn0쎯hhz1쎯	-10.9977
hshpzhh0쎯hszhz1쎯	-10.9986
hhshnphhsh쎯phzn쎯	-10.9986
snnzph쎯	-10.9988
,ppszhhzpn쎯	-10.999
쎁-쎂	-10.9991
쎁쎉쎅쎂phhshs쎯	-10.9991
hzhhhhpnhhs쎯	-10.9998
pnhspzsz쎯	-10.9998
nnnhszs0쎯	-10.9999
zzhznhhs1쎯	-11
hpsn0쎯hshnphhs1쎯	-11.0003
hszpnn쎯psphshh1쎯	-11.0004
pnnpnzpznhzs쎯	-11.0005
hhshpzhh1쎯szhhh	-11.0005
n쎯zzhznhsh쎯	-11.0009
szszhh0쎯npzhh쎯	-11.0009
pnhzn쎯hshzshp쎯	-11.0015
hpn1쎯hhpnszpz쎯	-11.0015
쎄쎅쎀	-11.0019
hspnnphhhs쎯zzh0쎯	-11.0023
hpsn0쎯pznpzn0쎯	-11.0023
い	-11.0023
hszsn쎯》	-11.0029
szhhhzn0쎯(pnhz0쎯	-11.0031
,쎂쎀쎀쎅phhshs쎯	-11.0032
쎁쎉쎉쎄	-11.0034
hpszss쎯zn2쎯	-11.0034
pzhh1쎯쎄szhh3쎯	-11.0037
zhpn2쎯hzn0쎯:쎁	-11.0042
nphhshzph쎯pshz2쎯	-11.0043
pn2쎯nsnphhsh쎯	-11.0043
npzn0쎯pshs쎯pzn2쎯	-11.0043
pnhnnphphpn쎯	-11.0044
szhhpzhh2쎯,	-11.0045
phszhhpzn쎯szhhh	-11.0045
쎅pzhh1쎯,	-11.0049
쎁phhshs쎯	-11.005
nnpzpnszpn쎯h	-11.0051
zhzs1쎯zpznn쎯	-11.0056
szhs쎯nnpnzzzh쎯,	-11.0057
113쎯nnzpznszh쎯	-11.0058
snnhsh0쎯hpn1쎯	-11.0062
pz3쎯pshszhz쎯	-11.0063
nhhhszh	-11.0064
pznzszs쎯shh쎯	-11.0064
zpszhnzzn1쎯	-11.0064
nhzp쎯pshszhhpn쎯,	-11.007
nznnzszhhh쎯	-11.0071
hhshn0쎯sz	-11.0071
znzhhzpn쎯	-11.0071
1쎯hpn1쎯nnpnzzzh쎯	-11.0072
hszhszh쎯pzzpn1쎯	-11.0073
znphhs쎯	-11.0077
zzhpzn0쎯쎃	-11.0077
pznszhsh0쎯、	-11.0078
쎂hsszhpz쎯	-11.0079
phnphnhshhzn쎯n	-11.0079
z2쎯hszpzhh	-11.008
,쎂쎀쎀쎆phhshs쎯	-11.0081
93쎯hpszhhhpzn쎯	-11.0083
npnsns쎯hpnz0쎯	-11.0087
phspnszh1쎯h	-11.0088
nhnph쎯zhhznzs쎯	-11.0092
hhpsppp0쎯,phzn쎯	-11.0093
h쎯zzshszpn0쎯	-11.0097
nhpspnzp쎯,	-11.0098
hsszs쎯hhhpnhhpn쎯	-11.0098
hzzppsnhhhsh쎯,	-11.0098
pszhhp쎯hsshhhpn	-11.0099
,nhp쎯hzzpn0쎯	-11.0099
szhhszshnnznn쎯	-11.0099
hshpszhh쎯npzn0쎯	-11.0111
zphphhsh쎯pzhz0쎯	-11.0121
,nhpsnhszhszhsh쎯	-11.0121
쎁쎉쎉쎀	-11.0122
134쎯hspn0쎯	-11.0123
szs1쎯shh쎯	-11.0125
쎁.쎁	-11.0125
szszhh0쎯nsnz0쎯	-11.0126
szszhz1쎯	-11.0129
nhpzpnszhshn쎯	-11.0129
zhpn2쎯hzn0쎯쎁	-11.0132
pzhh1쎯쎇szhh3쎯	-11.0134
、nhpn2쎯pshz1쎯	-11.0139
hshnhnphszhhpz쎯,	-11.0143
쎀쎀쎀	-11.0144
szhpszhhphs쎯	-11.0152
pzzshz쎯:	-11.0154
nnzpzzhpszszs쎯	-11.0157
.nhpnnzzn쎯pns쎯	-11.0158
ppshhz쎯hspnzzh1쎯	-11.0159
pzszhshhszhhhsh쎯	-11.0162
.쎁쎉쎈쎄phhshs쎯	-11.0164
,szhhhspn1쎯	-11.0175
shhsnnnpzszn쎯	-11.0176
hpz0쎯hhpz0쎯.	-11.0182
ㄥ	-11.0183
nppnszhhhs	-11.0189
nnhhhpnhhpn쎯	-11.0189
nzpss쎯szhs쎯nznn쎯	-11.019
pshz1쎯nhpnpssz쎯	-11.0194
hzhpznzp쎯zp1쎯	-11.0195
pznsznnnn쎯phshhs	-11.0196
hnphspn쎯szhhz2쎯	-11.0197
,zzspnhhspn쎯	-11.0197
szhhhspn1쎯,	-11.0199
:szhs쎯szhhshnh쎯	-11.0201
nhnphshszh쎯phzn쎯	-11.0201
쎆pzhh1쎯,	-11.0204
zzspnhsh쎯	-11.0205
nnnznhsh0쎯	-11.0205
,shhhz쎯hszh0쎯	-11.0206
2쎯zhpnphhps쎯	-11.0209
szhhssnph1쎯hhspn	-11.021
szhzhphz쎯?	-11.0221
szhhhszhhhsh0쎯、	-11.0222
pszhhpzn쎯zhzhz0쎯	-11.0222
pznsn쎯szszs0쎯	-11.0225
nhpn0쎯pznsn쎯	-11.0227
zzshhspn쎯pshz1쎯	-11.0228
ppshhz쎯nhpsnhsh쎯	-11.024
szpnsz0쎯,	-11.0241
zphszhhhpn1쎯	-11.0247
쎀쎉-	-11.0247
nhhsh쎯hhs쎯	-11.0252
、《	-11.0258
zphzzh0쎯hpzn1쎯	-11.0258
nppnppzhszhss쎯	-11.0258
szhhhszhhhsh0쎯쎁	-11.0262
쎁쎉쎃쎁phhshs쎯	-11.0263
쎆hpszhhhsh0쎯	-11.0267
hszspnsz쎯szhpn3쎯	-11.0269
phhz0쎯hhznzp쎯	-11.027
hznhsh쎯pnhz0쎯,	-11.027
nhpn0쎯ppzhpphs쎯	-11.028
szszs0쎯pshhsh0쎯	-11.0282
pzhhzszn쎯pznzp쎯h	-11.0282
phhszspnp쎯	-11.0288
쎉pzhh1쎯,	-11.029
pzhz쎯	-11.0293
szhs쎯nhszhszszh쎯	-11.0296
.p	-11.03
szhpn3쎯》	-11.03
snz쎯nzhp쎯szpn	-11.0302
zphnphzhhsspn쎯	-11.0303
pnhz0쎯szhh3쎯	-11.0305
hspnzn쎯zp1쎯	-11.0307
,szhh3쎯hspnh0쎯	-11.0311
α	-11.0311
zpnzhh0쎯npzhh쎯	-11.0312
zzhhsh쎯pzzshz쎯,	-11.0313
zzhnhznpz쎯.	-11.0314
н	-11.0316
nhpznzz쎯,	-11.0317
,zhzs1쎯	-11.0317
.쎁쎉쎉쎈phhshs쎯	-11.0321
쎁쎉쎈쎆	-11.0321
znpzpzn쎯	-11.0323
zhzzn0쎯hzhzzpp쎯	-11.0323
hspnzn쎯pszhhpzn쎯	-11.0324
pnzn0쎯pznzp쎯	-11.0324
pn1쎯nnzpnpnszh쎯.	-11.0326
nnzhspn쎯·	-11.0328
,shhsszhpn쎯	-11.0331
(pnhzszh쎯	-11.0336
쎄쎀pnhhspn1쎯	-11.0341
nzhszhszh쎯,	-11.0341
znpznzh쎯szpnpn1쎯	-11.0341
pn2쎯znhpnppp쎯	-11.0343
쎅.쎀	-11.0344
hhhshspnhszs200쎯	-11.0345
pshspnh0쎯.	-11.0347
,nhpnnzzn쎯pns쎯	-11.0348
szhzzh1쎯?	-11.0349
hpn1쎯hhz1쎯	-11.0349
,hzshnnzphshszh쎯	-11.0356
、nhszs쎯	-11.0359
nnnhsh쎯hpnz0쎯	-11.0364
hpnz0쎯)	-11.0366
pshz2쎯、	-11.0366
nppnshszhhhs쎯	-11.037
nppnpzszhpn쎯	-11.0371
、pnhzhhzpn쎯	-11.0372
,pz0쎯	-11.0373
phspnzn0쎯pn2쎯	-11.0375
pszhhpzn쎯hshsh0쎯	-11.0376
、shhs	-11.0378
hsn쎯hpszsshhh쎯	-11.0379
hhpn0쎯phhz2쎯	-11.0379
^	-11.038
szhhshphzszhh쎯	-11.038
pshshpn0쎯szhzph쎯	-11.0387
쎁hszpnpn쎯	-11.0388
pnhhzn쎯shh쎯	-11.0388
hhhpnznnpn쎯szs1쎯	-11.0389
hhh쎯nhnphszhzzs쎯	-11.0391
nnshshnhpzpn쎯、	-11.0392
znzzp0쎯	-11.0394
,hszpzh쎯hszh0쎯	-11.0395
shhshshpszhh쎯《	-11.0396
shhhz쎯psszpnsz0쎯	-11.0396
,hzhnhsz	-11.0398
、shhhz쎯	-11.041
hhz1쎯szpzh0쎯pss쎯	-11.0413
nhszhzzh쎯phhshs쎯	-11.0413
nnnnphzsppzhh쎯	-11.0415
snz쎯、	-11.0416
hhpzpn0쎯phhshs쎯	-11.0418
pn2쎯;	-11.0425
,hpsn0쎯hznnzzn쎯	-11.0425
szhshnhshhsh쎯	-11.0426
,쎂쎀쎀쎃phhshs쎯	-11.0428
szpzh0쎯nhzp쎯	-11.0431
szh0쎯.	-11.0437
zzh5쎯hzhnhnph쎯	-11.0437
hsshhhznzn쎯	-11.0438
hhpn0쎯nhhsh쎯	-11.0442
hpzp쎯zzhznhsh쎯	-11.0445
쎈pzhh1쎯,	-11.0452
pnhszh쎯pshspnh0쎯	-11.0453
shhsszssh	-11.0459
szhhhzn0쎯hszpzh쎯	-11.0461
pzn1쎯nznnzszhhh쎯	-11.0466
phhhzszhhs쎯	-11.0469
hzhpznnnnn쎯,	-11.0472
hhznnzzn쎯:zpnn1쎯	-11.0486
쎁쎈쎇	-11.0486
쎁쎅phhshs쎯	-11.0488
szshszn쎯	-11.0489
pphs쎯nphhh쎯	-11.049
쎃pn2쎯,	-11.0492
쎁쎀hsszhpz쎯,	-11.0492
znppnhhpn쎯	-11.0495
phzn쎯쎁	-11.0497
)h	-11.0499
hhps2쎯hshhshhzn쎯	-11.0499
hsszhpz쎯·	-11.0499
hshzzpp쎯pnhszh쎯	-11.0501
,shh쎯	-11.0503
hzhz0쎯nnznnhpn쎯	-11.0508
znszh0쎯,	-11.0508
shshspp쎯zzh	-11.0509
zhhhpsnhhhshhhz쎯	-11.0509
nznpszhpz쎯:“	-11.0511
pphszh쎯szhpnh쎯	-11.0511
zzhphpnps쎯	-11.0513
ppsszhhhs	-11.0514
pnhhzn쎯phzn쎯,	-11.0515
zhzphzn쎯hhzn0쎯	-11.0519
nzpszpn쎯szhspnh쎯	-11.052
nnnhpnszhhz쎯	-11.0523
、phhsh1쎯nhnphp쎯	-11.0523
쎂.쎃	-11.0523
pnn0쎯nzzhszh쎯	-11.0524
pns쎯,	-11.0527
hpz0쎯nnzzzh0쎯	-11.0531
nnzzzh0쎯zznnh쎯	-11.0532
szszs0쎯pn3쎯	-11.0534
115쎯pszhhpzn쎯	-11.0536
.쎁쎉쎈쎅phhshs쎯	-11.0538
pzhh1쎯쎃쎁szhh3쎯	-11.0545
nnnszpzh0쎯	-11.0548
hspn0쎯hsshhh쎯	-11.0553
-쎁쎉	-11.0555
쎁쎉쎂쎆phhshs쎯	-11.0556
szhhhspn3쎯:	-11.0565
nhszs쎯hszpzh쎯	-11.0565
pnhhsh쎯phzn쎯	-11.0568
zzp쎯,	-11.0569
,nnzpz1쎯pssnz쎯	-11.057
phspnzn0쎯nhnph쎯	-11.0572
nhphsshzn쎯npzn0쎯	-11.0572
hs1쎯h쎯zhpszhsh1쎯	-11.0575
szhhhspn3쎯sz	-11.0578
,hhshhpsn쎯	-11.0581
nnpnzzzh쎯hpzp쎯.	-11.0583
szhs쎯ppzhpphs쎯	-11.0583
zzspn쎯,	-11.0584
、zzshzzpn쎯	-11.0586
hh0쎯hs1쎯phhshs쎯	-11.0592
zzpn0쎯pznpn쎯	-11.0593
nhphpznp쎯	-11.0593
nhzpphpn쎯hpn1쎯	-11.0596
zzspn쎯szhszpn3쎯	-11.0597
zzhszhsh1쎯phzn쎯	-11.0601
pszn0쎯hppzhh쎯	-11.061
,szszs0쎯phhsh1쎯	-11.0615
pznnhshznzs쎯hsn쎯	-11.0621
nhpshszh쎯、	-11.0622
hspnhspn쎯nhszs쎯	-11.0624
ppznnh	-11.0625
,szhhpzhh2쎯	-11.0627
ssnphnphhszs0쎯	-11.0629
134쎯nhnph쎯	-11.0631
hhshspnhszs219쎯	-11.0633
、nnnsnppznn쎯	-11.0637
hzhzpnp쎯	-11.0639
hpsn0쎯psszhhh1쎯	-11.064
nnzpznszh쎯phsshh	-11.064
hpsn0쎯szhhpzpp1쎯	-11.0641
·zzshszhz0쎯	-11.0644
nnnn	-11.0645
psnhhhsh쎯	-11.0653
pn2쎯nznn쎯	-11.066
쎁쎀쎀nphzpn쎯	-11.0663
.쎂쎀쎀쎀phhshs쎯	-11.0664
zzsnnzhhpz쎯(	-11.0667
zphszh1쎯pnhz0쎯	-11.0668
hzhpphsnhhhszh쎯	-11.0668
shhsnnnnhz쎯	-11.067
pn쎯,phsszhnzzn쎯	-11.0671
pn2쎯nhpn0쎯	-11.0671
pn3쎯snpnzszhpz쎯,	-11.0672
nzpzzn쎯h	-11.0672
pszhhhz0쎯	-11.0677
zzspshzn쎯zpszh0쎯	-11.0683
hpznhz1쎯pphszh쎯	-11.0685
:쎈	-11.0686
、pnzzsz쎯	-11.069
,쎁쎉쎈쎅phhshs쎯	-11.0692
pzpsphszs쎯zzh0쎯	-11.0694
쎂쎀hsszhpz쎯	-11.0695
szsshhsszhhhh쎯:	-11.0695
szhpszszh쎯,	-11.0697
pznsn쎯hhshpzpn1쎯	-11.0698
hhpz1쎯pn2쎯	-11.0698
phnphnszhsh0쎯	-11.07
ssnph쎯nnnnpnsns쎯	-11.0703
npzn0쎯hspnh0쎯	-11.0706
hhpznp쎯	-11.0709
szhzzhpzpppn쎯	-11.0713
szhshnphzhznp쎯	-11.0719
zzspzszn쎯	-11.0719
쎆hpz0쎯	-11.072
)phnphnhshhzn쎯	-11.0722
hspnpznszh쎯,	-11.0724
hpszh1쎯pshz1쎯	-11.0726
.쎁쎉쎈쎈phhshs쎯	-11.0727
、snpnzszhpz쎯	-11.0734
,nzpzpn0쎯zhzhz0쎯	-11.0735
nppnhsh1쎯	-11.0736
szh0쎯nphzpnhpn0쎯	-11.0738
nhpz쎯	-11.074
nsnhhshpzhh쎯.	-11.0745
hpszhh쎯pnhszh쎯	-11.0746
nnpnhzn쎯zzpn0쎯	-11.0747
,pszhhhp쎯	-11.0749
hzhhszn쎯hssz0쎯	-11.0754
znszh0쎯hhshzn3쎯	-11.0755
hspnszhpn0쎯	-11.0757
hhz1쎯쎁쎉쎉쎆phhshs쎯	-11.076
쎅pn2쎯,	-11.0763
phhz2쎯,	-11.0764
nzzhszh쎯,	-11.0765
hszhhpn쎯hppzhh쎯	-11.0766
szs1쎯hzhpszpn0쎯	-11.0768
쎁쎉쎈쎅	-11.0774
ssphnszpz쎯sz	-11.0775
.쎁쎉쎉쎂phhshs쎯	-11.0775
szhhshnh쎯phnphn	-11.0777
hshpszhh쎯、	-11.0778
szhhh2쎯,	-11.0779
hszh0쎯zpznn쎯	-11.0779
pnnpzph쎯	-11.0779
szpnhhshshzn쎯》:“	-11.078
쎂hshhpszpn쎯	-11.0783
nnnhshzn쎯nphszs쎯	-11.0785
nphszs쎯pnpn1쎯	-11.0785
,hshzn0쎯	-11.079
nhpznnznnpnppp쎯	-11.0793
sznphhshnnnn	-11.0795
쎁쎉쎉쎂	-11.0796
hshhpzznp쎯shhhz쎯	-11.0797
쎁쎁쎂	-11.0798
snphpz쎯zzhphs쎯	-11.08
hspnpzzn2쎯、	-11.0801
쎂쎁hsshz0쎯zzhzhz쎯	-11.0804
hszsn쎯nzhzh쎯	-11.0813
hhshszpz쎯shh	-11.0814
nhpnhszhzzhzzs쎯	-11.0815
pznzp쎯nnznnhpn쎯	-11.0816
phhshs쎯hnphs	-11.082
szhhpzh쎯,	-11.0821
szhhszhpn0쎯zz2쎯	-11.0825
pssphpnppp쎯nzhz쎯	-11.0826
szhshnphhs1쎯	-11.0828
shhsn쎯pshz2쎯	-11.0829
hshpzn1쎯	-11.083
,nhzpphpn쎯	-11.0831
hpn1쎯hszhnph쎯	-11.0834
phhpnphpnps0쎯	-11.0834
,hznhsh쎯pnhz0쎯	-11.0836
hhz2쎯	-11.0837
hszhhszhh쎯pshz2쎯	-11.0838
szhhz2쎯hp1쎯	-11.0838
phhszssz1쎯pshz2쎯	-11.0838
pz0쎯pnhznhpszpn쎯	-11.0839
쎀/	-11.0842
hhhs쎯szpnshszh쎯	-11.0848
hzzpn0쎯zzhznhsh쎯	-11.0852
,쎂쎀쎀쎂phhshs쎯	-11.0852
쎁hhpzpn0쎯	-11.0853
hsh1쎯.	-11.0855
zpnppp쎯nnnznszh쎯	-11.0856
npszhhhs쎯h쎯	-11.0858
hzshszhhsshhh쎯,	-11.086
szhshphhphzn쎯	-11.0862
hszpnpn쎯pznhspn쎯	-11.0865
pznnnphhs쎯	-11.087
zzhpnhszh쎯pn2쎯	-11.0871
—쎁쎉	-11.0871
hszn0쎯phhz2쎯	-11.0879
pnzp쎯zzhszhhh0쎯	-11.0886
nnzhznhsh쎯.	-11.0887
nnszhpz쎯hsn쎯,	-11.0887
hhspn쎯zzhhhzpn쎯“	-11.0887
hpnz0쎯phzn쎯	-11.0891
nhpnnphhpn쎯pn2쎯	-11.0891
nnnhsnzzzhzp쎯	-11.0893
hhsnznnnznnnznn쎯	-11.0895
、zphszhhhpn1쎯p	-11.0896
,szhhs0쎯	-11.0897
hshzsz쎯phspnsz쎯	-11.0897
hznhsh쎯zpnp쎯	-11.0898
zphnnzpznzz쎯	-11.09
hsszs쎯,	-11.09
93쎯hsznhszn쎯	-11.0903
znznznhsh쎯	-11.091
nznphpnszssh쎯	-11.0913
pznnnhpspznn쎯	-11.0917
,shnpn쎯“	-11.0918
nzhzhs쎯hphhpnz쎯	-11.092
쎂hszpnpn쎯	-11.0922
pnzn0쎯zhzhz0쎯	-11.0922
phsh	-11.0923
hzhz1쎯zphszh1쎯	-11.0926
.쎁쎉쎉쎇phhshs쎯	-11.0929
hshhzshznp쎯,	-11.0929
nnnsnzszhh쎯	-11.093
pznnnnzpznzz쎯	-11.093
hspnszhhhzhz쎯	-11.0934
phspnpzzpn쎯,	-11.0936
szhnhpnpn쎯	-11.0938
pn4쎯pzpzhsh쎯	-11.094
쎀쎀pnhhspn1쎯	-11.0942
szhhshnh쎯pn2쎯	-11.0942
쎂쎈쎀	-11.0942
쎆pn2쎯,	-11.0943
,szhpn1쎯hppzhh쎯	-11.0945
hspnnhnphszhhhs쎯	-11.0948
pz3쎯hs1쎯	-11.0958
psphshh1쎯《	-11.0958
zpszh0쎯npnsns쎯	-11.0961
nppn쎯nppnhzphpz쎯	-11.0964
nsnphhsh쎯:	-11.0968
,쎂쎀쎀쎇phhshs쎯	-11.0973
zzshhpz쎯	-11.0977
phhsh1쎯nhnphp쎯、	-11.0979
nhpn2쎯szhpn3쎯	-11.0981
nhpn0쎯szhs쎯,	-11.0981
szhh3쎯hzhzszn쎯》	-11.0983
,nnzzph쎯pp	-11.0986
ppzhnhzp0쎯,	-11.0988
.snnpnnphzn쎯	-11.0993
hhz1쎯hsshz0쎯	-11.0995
hhshhsshhhpn쎯	-11.0996
zhhps쎯hspznnzzn쎯	-11.0997
р	-11.0999
szhhhszpzh쎯	-11.1008
szpnhhznp쎯	-11.101
nhpn1쎯pns쎯	-11.1012
nzpzhhs쎯szpz0쎯	-11.1013
nphpzhhsz쎯zsh0쎯	-11.1013
쎅쎀hsszhpz쎯,	-11.1013
szhshhpnhszhz쎯	-11.1014
hhz1쎯쎁쎉쎉쎇phhshs쎯	-11.1014
쎂쎅hsszhpz쎯	-11.1014
,hpzpppnnzzn쎯	-11.1017
szhhpszhhhhznp쎯	-11.102
nnnnhpn쎯	-11.1022
pnhznznn쎯.	-11.1024
,zzhpnhszh쎯	-11.1025
hshshphpn쎯pznzp쎯	-11.1027
szhhhspn1쎯.	-11.1035
shshhz0쎯pznsn쎯	-11.1035
szhhhs0쎯phhshs쎯	-11.1036
,pznsn쎯	-11.1036
szhpnh쎯zzh0쎯	-11.1038
pznsn쎯phnphn	-11.104
nhzp쎯hhshzn3쎯.	-11.104
,phhpzzsszs쎯	-11.1044
е	-11.1044
pnhhzn쎯hpshsh쎯	-11.105
hpszs0쎯hzhnhnph쎯	-11.1053
hpszhzpnp쎯nphzpn	-11.1054
pnhhspnnzzn쎯:	-11.1054
,hshpzhh0쎯	-11.1055
hhps2쎯hsh2쎯	-11.1061
hhpn0쎯zzhhhznp0쎯	-11.1062
hznpznn0쎯pn2쎯	-11.1062
hspnh0쎯pn2쎯	-11.1064
szhh3쎯,	-11.1064
nzpzhhs쎯	-11.1066
nhpnnhszpn쎯.	-11.1069
hshphz3쎯shzphz	-11.107
.쎁쎉쎉쎃phhshs쎯	-11.1071
nnnhsshpnzhz0쎯n	-11.1072
쎁쎈쎆	-11.1074
pn3쎯snpnzszhpz쎯	-11.1077
szshzh쎯	-11.1077
·sz	-11.1092
hhzn쎯nnspznhpn쎯.	-11.1092
pnhhzn쎯ppzhpphs쎯	-11.1092
szhhpszhshpzzn0쎯	-11.1093
nhpsnhsh쎯phzn쎯	-11.1093
nph0쎯nhpnnhshsh쎯	-11.1099
쎈pn2쎯	-11.11
hhpzpn0쎯hsshz0쎯	-11.1102
,hznpz쎯pnzp쎯	-11.1104
hhpnszh쎯	-11.1109
,ppzhpphs쎯	-11.1109
、sznphhshnnnn쎯	-11.1112
h쎯szhhh1쎯	-11.1117
nhpn2쎯hspnh0쎯	-11.112
shh쎯nhszs쎯sz	-11.1121
szhshpnps0쎯,	-11.1124
phs0쎯szhhhsh1쎯	-11.1128
hzhpzn1쎯zhzhzn0쎯	-11.1131
.쎁.	-11.1132
pnhszh쎯nnnhshzn쎯	-11.1133
nppnsnznznn쎯	-11.1135
szhssh0쎯《	-11.1136
쎁쎀쎀pznpzn0쎯	-11.1137
쎁쎂pzhh1쎯pshhsh0쎯	-11.1138
hpsn0쎯hhpnszpz쎯	-11.1139
pshhzn1쎯hhznzp쎯	-11.1139
hpszhszszs쎯,	-11.1141
hsh2쎯nnpzpnszpn쎯	-11.1144
(쎂쎀쎀	-11.1145
nhpzhhsszh쎯szs1쎯	-11.1146
pznzp쎯szhs쎯nznn쎯	-11.1154
.pszsz쎯pszhhpzn쎯	-11.1154
phzn쎯zzhpzn0쎯	-11.1154
nnznnhpn쎯ssnph쎯h	-11.1158
nnzhznhsh쎯pznsn쎯	-11.1164
hsshpn쎯nzhs쎯	-11.1165
phspnszhpn1쎯쎁.	-11.1166
hhpz0쎯pshzn1쎯	-11.1166
쎉쎀쎀/쎁쎈쎀쎀	-11.1169
hzzppznzh쎯	-11.1171
,쎁쎉쎉쎈phhshs쎯	-11.1172
、znszh0쎯	-11.1175
pnpnpn0쎯phhsh1쎯	-11.1178
、szhhhspn1쎯	-11.118
nhszs쎯pn2쎯	-11.118
zpn3쎯hhz1쎯	-11.1183
zhphhspnhznnznn쎯	-11.1186
《phzhznp쎯	-11.1191
쎁쎉쎂	-11.1192
,shhshpszh쎯	-11.1192
shhhz쎯zpnzzn쎯	-11.1194
nhhpn0쎯nnnnhhsh쎯	-11.1196
h쎯nhzp쎯	-11.1197
hhshpzhh1쎯szs1쎯	-11.1198
쎇pzhh1쎯,	-11.12
hspn0쎯pphsszpn쎯	-11.12
szs1쎯hspnhspn쎯	-11.1208
hzhznzzphspn쎯	-11.1213
hhpzpn0쎯,	-11.1215
szpnpnhpn쎯	-11.1217
쎅szhhz1쎯	-11.1219
szszhh0쎯zsphpn쎯	-11.1221
)nnzzzh0쎯	-11.1222
szsnhszhszszh0쎯	-11.1224
phhhzhs쎯pznnppn쎯	-11.1224
쎁pzhh1쎯쎁szhh3쎯	-11.1225
szhzph쎯szpnpzzn쎯	-11.1227
hhpsnzn쎯pshz1쎯	-11.123
szhhpzpp1쎯nsn	-11.123
h쎯psphhs1쎯	-11.1231
nnnhshzn쎯.	-11.1244
,zphznzp쎯zp1쎯	-11.1244
nphzpnzph0쎯	-11.1245
szhhs2쎯zzhpzzn쎯	-11.1247
쎂hpszhhhsh0쎯	-11.1252
,hpssnzszs쎯	-11.1253
쎁쎂쎁	-11.1253
pnhhzn쎯phzn쎯、	-11.1256
hhz1쎯쎁쎉쎉쎅phhshs쎯	-11.1263
hsszhhhhpnhpsz	-11.1264
pznzp쎯hsh2쎯	-11.1266
hshzzpp쎯.	-11.1267
h쎯szhhz1쎯	-11.1273
szhshshhppnn쎯	-11.1277
,pshsszhphpn쎯	-11.1278
.szhhs0쎯	-11.1279
hspnhpnz쎯	-11.1281
hpn1쎯hshzp2쎯	-11.1283
hpszh1쎯hpnppn0쎯	-11.1283
szhshnhsszhpznn쎯	-11.1296
nppnpnhpszs쎯	-11.1297
쎁쎈쎅	-11.1304
nhppnpnhsh쎯,	-11.1307
、nnnhszhz0쎯	-11.1308
,znhpnppp쎯hszh0쎯	-11.1316
phspnszhpn1쎯쎁쎅	-11.1319
znnhpn쎯hsznnhpn쎯	-11.1319
hnphnssphnszssh쎯	-11.1321
hszsn쎯》:“	-11.1321
szs1쎯zzp쎯	-11.1322
zzspn쎯.	-11.1322
zpnp쎯pz2쎯	-11.1325
szhhhs0쎯hpshsh쎯	-11.1326
ppszhhhhs쎯sz	-11.1328
nhpnnzzn쎯shshhzh	-11.133
zph쎯phhsh1쎯	-11.1333
,pszszh쎯	-11.1335
쎅쎀pnhhspn1쎯	-11.1335
nnnpzszn쎯sz	-11.1342
nphhs0쎯zhzhzn0쎯	-11.1342
zzhnhznpz쎯szhs쎯	-11.1343
hpsn0쎯szhszh1쎯,	-11.1343
쎀-쎁	-11.1347
pszhhhpnhs쎯	-11.1349
hspnhpzn0쎯、	-11.1354
쎁쎀pzhh1쎯,	-11.1358
nhpnpnhs쎯hhz1쎯	-11.1358
pn3쎯snz쎯	-11.1359
znzzp	-11.1359
h쎯pz1쎯pz1쎯	-11.136
pzznnzszhzh쎯shh	-11.1363
쎁쎀쎁	-11.1365
nzpnnpphhszs쎯	-11.1365
nhpzpn0쎯hppzhh쎯	-11.1367
szhhpzhhsn쎯	-11.1368
h쎯hpszsshhh쎯	-11.1368
nnzszhhh쎯pn2쎯	-11.137
hshnhpn0쎯	-11.137
hspnhpn1쎯	-11.1375
,pnhz0쎯	-11.1376
zzspn쎯pszhhpzn쎯	-11.1377
szszs0쎯hshzzpp쎯	-11.1377
.쎁쎉쎉쎅phhshs쎯	-11.1377
nnzhpzpppn쎯pn2쎯	-11.1381
nhhhszh0쎯,	-11.1381
zpszh0쎯zzpn0쎯	-11.1383
nphhshpz쎯	-11.1389
hhpn0쎯nnzpzhsh0쎯	-11.139
hhz1쎯zzpn0쎯	-11.139
zznnnn	-11.1392
pznpzn쎯	-11.1392
szhhs3쎯hzhzszn쎯	-11.1393
pnzzsz쎯hhssz쎯	-11.1405
nsnpnhpzhhsz쎯	-11.1406
hszpzhhphshpz쎯	-11.1407
,zzpn0쎯	-11.1409
쎁쎉쎉쎁	-11.1413
쎇hpszhhhsh0쎯	-11.1417
,nnzhssszpz쎯	-11.1418
nhzp쎯hpszsshhh쎯,	-11.142
szhszhpz1쎯	-11.1421
phzn쎯ppshshsh쎯	-11.1424
,hsshszhshpn쎯	-11.1425
hhps2쎯zpnn1쎯	-11.1427
phspnszhpn1쎯쎁쎁	-11.1432
nhszs쎯pn2쎯hpn1쎯	-11.1434
nzszh쎯zhhznnpn0쎯	-11.1434
hhpz1쎯ppzhpphs쎯	-11.144
,쎂쎀쎀쎈phhshs쎯	-11.144
nhppzhzh쎯,	-11.1442
hhhshspnhszs174쎯	-11.145
znhznp쎯pszhhpzn쎯	-11.145
hzhnhpz쎯szhh3쎯s	-11.1453
nnnzhzps쎯zzpn0쎯	-11.1456
phhz2쎯hzhpznzp쎯	-11.1459
nn0쎯nsnzzshszpn쎯	-11.146
nzpzszhpzn쎯	-11.1461
쎀쎀hpz0쎯hhpz0쎯,	-11.1461
쎉szhhz1쎯	-11.1462
.znhzn0쎯	-11.1463
hsszh쎯pn2쎯	-11.1465
pn2쎯npzn0쎯	-11.1469
zpnpszhhh쎯szpn1쎯	-11.1469
hshzsz쎯phspnzph쎯	-11.1471
nhzznnnpnhs쎯()	-11.1472
,szhshzzs0쎯	-11.1473
szszs0쎯zpznn쎯	-11.1473
nphhhpnps쎯phhs0쎯	-11.1474
nhzpznnphsh쎯,	-11.1477
pshpznsz쎯,	-11.1478
,shh쎯nnnphzznnh쎯	-11.1481
hhpsnzn쎯zz2쎯	-11.1482
hpshsh쎯n	-11.1482
szhhh2쎯.	-11.1484
hspnh0쎯pphsszpn쎯	-11.1484
hpshsh쎯hshzsz쎯	-11.1486
쎆pzhh1쎯zpszh0쎯pn	-11.1486
、hshshphpn쎯	-11.149
psnphhpnzz쎯	-11.149
ㄒ	-11.1493
zphznszh쎯zzhpzn	-11.1495
쎁쎅쎀hsszhpz쎯	-11.1496
pnn0쎯,	-11.15
、hpszsshzn쎯	-11.1503
phspnszhpn1쎯:	-11.1503
、zzhzhhznnpn0쎯	-11.1503
,hsszhhhhpn0쎯	-11.1506
pnhhzn쎯phzn쎯.	-11.151
nhpnnnphhhs쎯	-11.1514
,pszn0쎯	-11.1516
n쎯hsh2쎯psphshh1쎯	-11.1516
pphsszpn쎯:	-11.1516
hhh쎯pzhh1쎯	-11.1518
쎀쎀nhszhsh쎯	-11.1518
hpz0쎯phhshs쎯	-11.1521
zshpnpznn쎯	-11.1522
nppnnppn	-11.1523
.쎁쎉쎉쎉phhshs쎯	-11.1523
.szhhhsshhhzn0쎯	-11.1527
쎇쎀phhshs쎯pshzn1쎯	-11.1528
szszhz쎯	-11.1531
nhpshszh쎯,	-11.1531
zznzp1쎯szhshn쎯	-11.1532
쎃pzhh1쎯,	-11.1537
shhhshhhh쎯	-11.1543
,쎁쎉쎉쎆phhshs쎯	-11.1544
pszhhzzpn쎯zzpn0쎯	-11.1545
nzhzn쎯pnhhzn쎯	-11.1545
hszhshzs쎯,	-11.1546
쎉쎀phhshs쎯pshzn1쎯	-11.1548
hh0쎯hs1쎯szpzh0쎯	-11.1557
pnpz1쎯	-11.156
,pn2쎯pssnz쎯	-11.1561
с	-11.1562
,쎁쎉쎉쎂phhshs쎯	-11.1562
hpszh1쎯nnhpn쎯	-11.1564
(hshzn0쎯	-11.1566
hshnzhszhnph쎯	-11.1566
nhpshszh쎯.	-11.1567
pszhhpzn쎯hpzn2쎯	-11.1572
zzhznpzpzn쎯	-11.1572
shnpn쎯hzzpn0쎯	-11.1572
.쎁쎉쎈쎃phhshs쎯	-11.1573
hzphpzznnznn쎯	-11.1579
,hspnszhhh4쎯	-11.158
h쎯nphhs0쎯	-11.1582
nhpznzz쎯》:“	-11.1583
nnnhhspn0쎯	-11.1585
;hpshsh쎯	-11.1588
,쎂쎀쎀쎀phhshs쎯	-11.159
phhsh쎯	-11.159
∶	-11.1591
hshszhznp쎯	-11.1591
zzhhsh쎯hszspnnn쎯	-11.1591
hzhhszn쎯zpznn쎯	-11.1594
hspnhhznp0쎯	-11.1595
hpzznp쎯nhnph쎯,	-11.16
hzhzhhpzzs쎯	-11.1601
szpnnhnphszh쎯	-11.1601
hzhz쎯	-11.1605
hshhsh쎯	-11.1615
npzn0쎯pnhhsh쎯	-11.1619
phhpnhszhnph쎯,	-11.1622
zpn3쎯,	-11.1622
(zzhpzn0쎯	-11.1625
pshszhhpn쎯hhz1쎯	-11.1627
shhspshz쎯、	-11.1628
pzhspnsz1쎯	-11.163
hzhhshhzn쎯shnpn쎯	-11.1633
nnznnhpn쎯pznzp쎯	-11.1636
hhps2쎯pnnphspn쎯	-11.1636
nnnpnzp쎯	-11.1637
phhz2쎯pphsszpn쎯	-11.1637
.ppzhpphs쎯shnpn쎯	-11.1639
zhzphzn쎯shhsn쎯	-11.1642
shhsszhhhpnszhh쎯	-11.1642
szhhhzp0쎯hhz1쎯	-11.1642
nhphspn쎯hphhpnz쎯	-11.1645
pnhszh쎯nnnznszh쎯	-11.1647
hshsh0쎯pnn0쎯	-11.1649
phhhzpzhh1쎯	-11.1654
pn2쎯hzp0쎯.	-11.1654
hhz1쎯nphhs0쎯	-11.1654
쎆.쎀	-11.1656
zzhnhnpnzszs쎯	-11.1657
쎈pn2쎯,	-11.1666
shzhphpszpn쎯	-11.1669
hhz1쎯쎁쎉쎉쎄phhshs쎯	-11.1676
pznnhzhzpn쎯	-11.1678
쎁쎁-	-11.1679
hzszhh0쎯,	-11.1679
nzpnhhsh쎯	-11.1679
pzzhhz쎯szhs쎯	-11.168
nnnnnzhszhshpn쎯:	-11.1681
;p	-11.1682
shhhhznzhhhhs쎯	-11.1682
°Cphhshs쎯	-11.1684
,쎁쎉쎉쎇phhshs쎯	-11.1689
sz쎯	-11.169
."	-11.1695
zhhznnpn0쎯zz2쎯	-11.1696
shshhszn쎯	-11.1697
szhhhzhhzpn쎯p	-11.1699
pphs0쎯,	-11.17
pz0쎯pszhhpzn쎯	-11.1702
hsszs쎯zzhpzn0쎯	-11.1704
shhszhphhspnhzn쎯	-11.1704
《nzhshhzn쎯	-11.1715
hzhzzpp쎯hshzshp쎯	-11.1715
,phzznnh쎯phhshs쎯	-11.1717
phspnszhpn1쎯쎁쎃	-11.172
()phspnszh1쎯	-11.1722
szpnszpnzph쎯pz2쎯	-11.1722
,쎂쎀쎀쎉phhshs쎯	-11.1723
hhz1쎯쎁쎉쎉쎃phhshs쎯	-11.1725
phpszhhhpzn쎯snz쎯	-11.1725
pshsszh쎯	-11.1726
,nzhhshpzhh쎯	-11.1727
nnpnzzzh쎯znn0쎯,	-11.1736
nnnhshzn쎯、	-11.1738
npzn0쎯쎂	-11.1739
nznn쎯pzznzpn쎯	-11.1739
nnnhhz2쎯zzpn0쎯	-11.1742
nnnhpzp쎯hhs쎯	-11.1743
phpnps쎯hspn0쎯	-11.1746
nnzhzn쎯szh	-11.1746
szhpzhhpznzh쎯	-11.1746
znzz0쎯shnpn쎯	-11.1747
hzzpn0쎯pzpn2쎯	-11.175
pshhzhhszn쎯	-11.1751
szs1쎯hsszzhpzn쎯	-11.1755
쎃쎀phhshs쎯	-11.1757
hsszhphpn쎯zzp쎯	-11.1759
、szs1쎯hzzpn0쎯	-11.1759
nhnphszhhhspznh	-11.176
,쎂쎀쎀쎁phhshs쎯	-11.1762
hzhnpszspnphpn쎯	-11.1763
shhhz쎯phspnzph	-11.1763
hnzsnnpnpsnhhhsh	-11.1767
nphhshszssh쎯zz2쎯	-11.1769
,pspnpnszh0쎯	-11.1773
nznn쎯szhs쎯	-11.1776
psphshh1쎯nhpn2쎯	-11.1776
쎁hpszhhhsh0쎯	-11.1777
nhnpnzszs쎯hhsh1쎯	-11.1778
hshhshpszhh쎯	-11.178
う	-11.1784
pznszhsh0쎯.	-11.1788
、shpznzn	-11.1788
hpzz	-11.1791
shnpn쎯hszpzh쎯	-11.1791
phshzn0쎯	-11.1794
nhpznzz쎯hpznsz쎯	-11.1796
phnphnzhzsp쎯쎅	-11.1797
snzzzh0쎯	-11.1798
h쎯szshszhszhsh쎯	-11.1799
.쎁쎉쎉쎆phhshs쎯	-11.1801
hzzpn0쎯szhhhzn0쎯	-11.1805
nhpzpnnzzn쎯.	-11.1806
pszn0쎯pszn0쎯	-11.1807
h쎯nhphsshzn쎯	-11.1809
snz쎯nzpnppp쎯	-11.1813
snznphzsppzpn쎯	-11.1815
zzshzzpn쎯hpznsz쎯	-11.1815
hsn쎯zz2쎯	-11.1818
pphs쎯	-11.1818
nhpnnhshsh쎯、	-11.1822
nhpzpnzn쎯hphshn쎯	-11.1826
hhh쎯hssnph쎯	-11.1826
、nnnphhz쎯hzhs0쎯	-11.1826
zpnzzn쎯hpnz0쎯	-11.1828
phhshs쎯snzszhh쎯,	-11.1833
、pnhhsh쎯	-11.1834
pshszhshhszhshh쎯	-11.1835
.szszs0쎯pznpn쎯	-11.1839
.쎁쎉쎈쎇phhshs쎯	-11.1839
hznnzzn쎯znhzn0쎯	-11.1848
,쎁쎉쎈쎈phhshs쎯	-11.1848
pzhh1쎯hhssz쎯	-11.1849
nzszhhs쎯nphhssz쎯	-11.1853
nhpsnshszpn쎯	-11.1854
%shnpn쎯shh쎯	-11.1854
.nhpzpn0쎯	-11.1857
pshhhpzzn쎯.	-11.1858
.쎁쎉쎈쎆phhshs쎯	-11.1859
hs1쎯pzhh1쎯	-11.186
、nnnhsh쎯hsszppn쎯	-11.186
쎁쎀pzhh1쎯phhsh1쎯,	-11.1863
《hhh쎯szhhshnh쎯	-11.1864
shhsnnnhpzhhsn	-11.1868
,쎁쎉쎈쎆phhshs쎯	-11.1869
nhnph쎯nnnhshzn쎯	-11.1871
nznnp쎯pznszhsh0쎯	-11.1872
phspnszhpn1쎯쎉	-11.1874
szhsh2쎯sz	-11.1876
zpn3쎯hshzhpn1쎯	-11.1886
쎅shhsszhpn쎯hzn0쎯	-11.1891
쎁쎉쎇쎉	-11.1892
hs1쎯pznpzn0쎯	-11.1896
,쎁쎉쎉쎅phhshs쎯	-11.1896
hspnhzn0쎯szpn1쎯	-11.1899
hpszhszszs쎯.	-11.1902
zzpn0쎯shh쎯	-11.1906
hpn쎯	-11.1906
,쎁쎉쎉쎃phhshs쎯	-11.1907
ssnph쎯szpn1쎯	-11.1907
pshsshpn쎯pnhhsh쎯	-11.1909
shhsn쎯hzhnhnph쎯	-11.1918
hhpz0쎯/	-11.1921
nhhhszh쎯	-11.1924
nhpzpn0쎯hszhz1쎯	-11.1925
”nhpzpnzn쎯	-11.1927
pnhznzzs쎯,	-11.1932
phshszhnzzn쎯h	-11.1933
ㄌ	-11.1934
、shhspshz쎯	-11.1935
쎄pzhh1쎯,	-11.1941
szhshnnpszhhhs쎯	-11.1942
hszhsznphs쎯	-11.1944
nphhshnphszh쎯,	-11.1945
hzn쎯	-11.1946
pspzhzh쎯,	-11.1946
.쎁쎉쎉쎄phhshs쎯	-11.1951
nhpzpn쎯	-11.1952
쎆szhhz1쎯	-11.1952
hszsn쎯nzzhz쎯;	-11.1953
쎁쎉쎂쎅phhshs쎯	-11.1953
nzpzzn쎯、	-11.1955
hhpz1쎯hspnpz2쎯	-11.1959
hszh1쎯pzhh1쎯	-11.1961
hsshhhnppn쎯	-11.1963
znhzn0쎯nzphsszh쎯	-11.1964
nphhps쎯phhhshhh쎯	-11.1968
nhpn0쎯.”	-11.1968
hpznphsshpn쎯	-11.1972
pznpzn0쎯pznszh1쎯	-11.1974
pszhhh0쎯zznzp1쎯	-11.1974
pznnhshszhnph	-11.1975
h쎯zpnzzn쎯	-11.1976
,쎁쎉쎈쎇phhshs쎯	-11.1977
szhszh1쎯ppshhz쎯	-11.1977
hpn1쎯pshszhpn쎯	-11.1979
hszh0쎯n	-11.198
szspzpn1쎯	-11.1982
nhszs쎯pshpzn2쎯p	-11.1984
ppp쎯pzhhphzn쎯	-11.1987
szhs쎯phspnnnhs쎯	-11.1992
szhhpzh쎯hssz0쎯	-11.1992
,shhhzpznn쎯	-11.1993
hhz1쎯쎁쎉쎅쎈phhshs쎯	-11.1993
pznsn쎯zzhhhznp0쎯	-11.1994
hszpzh쎯zpnzzn쎯	-11.1995
,phspnsz쎯pzhhs0쎯	-11.1997
nnzzph쎯zhpzszh쎯	-11.1997
pshhsh0쎯pznzp쎯.	-11.1998
nhnphp쎯phshpzpp쎯	-11.1999
shhspnnphspn쎯,	-11.2002
nsnz0쎯	-11.2004
pszhhhphpnz쎯	-11.2008
hzhznpsnhhhsh쎯	-11.2012
,hhh쎯	-11.2014
pspzhzh쎯hhz1쎯	-11.2016
hhpz1쎯pzzshz쎯	-11.2016
nphzpn쎯、	-11.2017
쎅쎀nphzpn쎯	-11.2018
쎁쎉hsshz0쎯zzhzhz쎯	-11.2018
hhpzpnszh쎯nzpz	-11.2023
szhhhsshhhzn0쎯p	-11.2024
쎀°	-11.2027
pznszh1쎯hpznsz쎯	-11.2029
shhszpszh1쎯	-11.2029
hshpszhh쎯znhzn0쎯	-11.2031
sh0쎯nhzpphphhpn쎯	-11.2032
szhsshhszhnph쎯	-11.2032
nn쎯ssznhsh쎯	-11.2038
.szhzp0쎯pznsn쎯,	-11.2038
《pnhhpn0쎯hhz1쎯	-11.2039
nnpnzzzh쎯》、《	-11.2042
쎃pzhh1쎯pshhsh0쎯	-11.2043
hsshszhshpn쎯shhs	-11.2048
phz	-11.2048
,zhpnnn쎯	-11.2051
.쎁쎉쎉쎀phhshs쎯	-11.2052
hhz1쎯nnnhszhz0쎯	-11.2052
hspnhhhszphpn쎯	-11.2056
nhzp쎯pshszhhpn쎯.	-11.2061
,hzhz1쎯	-11.2064
pnnpzzh쎯	-11.2069
pnshsh쎯ssnph쎯、	-11.2069
h쎯szhszh1쎯	-11.207
nhpnnszhshhps쎯	-11.2071
h쎯nhnphshszh쎯	-11.2073
:(	-11.2075
hzhpzn1쎯ssnph쎯	-11.2076
szs1쎯pnpnszh0쎯	-11.2081
,shhs	-11.2083
hszhzhhz0쎯phzn쎯、	-11.2089
hhpz1쎯nnzpnzp0쎯	-11.2091
pshsshpn쎯zzpn0쎯	-11.2096
nhpspnnhphzhs쎯	-11.2096
ppshhz쎯hzhs0쎯	-11.2098
szhhnhp쎯	-11.2101
nhpzpnzn쎯pshz1쎯,	-11.2105
nhpzhhsszh쎯、	-11.2107
nhhhszh0쎯:	-11.2111
,쎂쎀쎁쎀phhshs쎯	-11.2111
hpnzpzpn쎯nnn	-11.2112
pshzzp쎯nhppzhzh쎯	-11.2113
nnhpn쎯、	-11.2114
nnnszs쎯	-11.2119
pshz1쎯phshpzpp쎯	-11.212
zzspn쎯zzspn쎯	-11.2124
hzzpn0쎯zpnzzn쎯	-11.2129
szpzh0쎯pznnhszn쎯	-11.213
phshszhnzzn쎯、	-11.2131
hzhnhp쎯zhzphzn쎯	-11.2133
shhsphzznnh쎯	-11.2133
pznh쎯hhshpzn3쎯	-11.2134
쎁쎉쎈쎃	-11.2135
hszh0쎯nnznnhpn쎯	-11.2135
쎇쎅쎀	-11.2136
pz1쎯nnnhsh쎯	-11.2143
hznzhshzn쎯	-11.2147
nzhzhs쎯,	-11.2147
zhhpszh쎯zzh0쎯	-11.2147
hpnn0쎯nnzpzhsh0쎯	-11.2148
hshshnhnpnzszs쎯	-11.215
znzn3쎯phszhhhsh쎯	-11.2151
쎅-쎁	-11.2151
hspnhspnpzn0쎯》	-11.2154
hpz0쎯pznpzn0쎯	-11.2154
szhhshnh쎯nhnphp쎯	-11.216
shhhz쎯ssphnszsh쎯	-11.2161
쎁쎂-	-11.2163
hpzpppn쎯	-11.2164
°C,	-11.2168
h쎯zzhszhhh0쎯	-11.2175
hzhhppnn쎯쎁,	-11.2178
nnszhpz쎯,	-11.2179
npzn0쎯phzhznp쎯	-11.218
nhp쎯hszpzh쎯snnh	-11.2182
hzshznhsh쎯pn2쎯	-11.2183
nzzpn1쎯pzzpn0쎯	-11.2184
shhsnnnzz쎯pshz1쎯	-11.2192
hhszs0쎯shszh	-11.2194
,쎄	-11.2194
phspnhhs쎯	-11.2198
pznn쎯zhphsshzpn쎯	-11.2198
.pshpznsz쎯	-11.2203
shhhz쎯hpszsshhh쎯	-11.2203
ス	-11.2204
hznp쎯pzzhhz쎯.쎁쎉쎃	-11.2212
hszhzhhz0쎯phzn쎯.	-11.2215
,쎁쎉	-11.2216
zp1쎯phspnszh1쎯	-11.2216
、szpzh0쎯	-11.2217
pz쎯	-11.2217
pn2쎯ppzhpphs쎯	-11.222
szhshnphhs0쎯,	-11.2222
nppnszhshn쎯	-11.2224
hppzhh쎯pzzshz쎯	-11.2227
쎄pn2쎯,	-11.2232
hhpn0쎯zzh0쎯	-11.2232
쎅nhszhsh쎯,	-11.2233
《zzhhsh쎯	-11.2233
h쎯、	-11.2234
hzhz1쎯hssnph쎯	-11.2242
zphzzh0쎯.	-11.2243
,pphsnzzn쎯	-11.2244
(hhshszpz쎯	-11.2244
phnphnhshhzn쎯;	-11.2246
pzhhnhpnps쎯	-11.2246
pn2쎯szhs쎯hsshpn쎯	-11.2249
nhpsnhsh쎯:쎉쎇쎈쎇	-11.2249
pzzphszs쎯)	-11.2259
hzshnhpnpn쎯zpnp쎯	-11.2261
nhpn0쎯szhh3쎯	-11.2262
hpzp쎯szhpn3쎯.	-11.2262
nppnzpnp쎯)	-11.2263
,쎁쎉쎉쎉phhshs쎯	-11.2264
,쎁쎉쎈쎂phhshs쎯	-11.2266
pshsshszhh쎯szh	-11.2268
hpznsznhpzpn쎯,	-11.2268
hs1쎯pnzp쎯psh	-11.2269
к	-11.227
ル	-11.2271
szhsh1쎯ppsznhsh쎯	-11.2273
hznpz쎯szhshpn1쎯	-11.2274
phhpnszh쎯》(	-11.2275
hpn1쎯nhzp쎯	-11.2275
spnhhps쎯hshzsz쎯쎀	-11.2278
zzhnhznpz쎯:	-11.2279
쎂쎅쎀hsszhpz쎯	-11.228
nsnphzznnh쎯	-11.228
,zsphpn쎯	-11.2282
hhznpszssh쎯	-11.2284
hpn1쎯hzhhzhz0쎯	-11.2284
psnhnph쎯、	-11.2285
zhzhz0쎯pnpnpn0쎯	-11.2291
.nhnphp쎯	-11.2292
hszh0쎯sz	-11.2294
쎆쎀쎀쎀	-11.2299
、zpnpszhhh쎯	-11.2301
zhzhz0쎯pzhhs0쎯	-11.2304
nzszhpn쎯,	-11.2306
npszhnznn쎯nzhp쎯	-11.2312
npnsns쎯、	-11.2314
shhsn쎯pzzpn1쎯	-11.2319
hshzsz쎯psnhnph쎯.	-11.2323
、nhpnsz쎯	-11.2325
nzpn0쎯phhpnszh쎯	-11.2327
h쎯zpn3쎯	-11.2331
psnhhhshszh쎯n	-11.2333
hnphs쎯szhhhzn2쎯	-11.2339
hhz1쎯쎁쎉쎉쎂phhshs쎯	-11.2339
nnnznszh쎯、	-11.234
.쎁쎉쎅쎈phhshs쎯	-11.2348
szhshnszhshn쎯	-11.235
、nhp쎯hszpzh쎯	-11.2351
npzn0쎯psnhpzpn1쎯	-11.2352
psnhppshzn쎯	-11.2352
pzhzh쎯	-11.2355
hszpzhhpnzp쎯	-11.2357
szsphspnzph	-11.2365
zzhphhpzzs쎯	-11.2366
pnzpszs0쎯	-11.2367
nhszhzpn쎯nphszs쎯	-11.2368
zzh쎯	-11.2368
hszhshszhz쎯pspnp	-11.2369
hshzshp쎯shhsn쎯	-11.2374
hshzshp쎯pzzpn0쎯	-11.2375
nhpsnszpz쎯npzn0쎯	-11.2378
hpsn0쎯pnnpnzzn쎯	-11.2388
.zhhznzs쎯	-11.239
hzhnnzzph쎯n	-11.239
hnphs쎯hshszhhh1쎯	-11.2392
pnnpnzhpzn쎯nznn쎯	-11.2393
ppsshshshpn쎯	-11.2394
쎅nhszhnzphhz쎯	-11.2395
pzpnzsn쎯snnhpnn쎯	-11.2396
hzhh	-11.2397
nnznnhpn쎯nzpss쎯	-11.2397
쎇pn2쎯	-11.2399
nzhszhszh쎯·	-11.2403
hhh쎯zhpszhsh1쎯	-11.2403
.....	-11.2404
szhshpnps0쎯.	-11.2404
zsz0쎯znpznnhzhz쎯	-11.2406
hpz0쎯szhhhsh1쎯	-11.2407
,shhhz쎯pnhznzzs쎯	-11.2409
쎀쎀hpz0쎯hhpz0쎯	-11.241
pznszhsh0쎯zz2쎯	-11.2413
znhzn0쎯hzhnhpz쎯	-11.2414
hspnhhpsznp쎯h	-11.2418
nhzp쎯phhhzhs쎯、	-11.2419
쎇pzhh1쎯hpshsh쎯	-11.2421
hsshhhspn쎯pns쎯	-11.2423
ppshshsh쎯zsphpn쎯	-11.2423
pnzz쎯nhphzhs쎯	-11.2426
shhspzn3쎯	-11.2426
pn2쎯zp1쎯	-11.2433
hshhpsnh쎯	-11.2435
phhz2쎯phhzpnzp쎯	-11.2436
zzhpzzn쎯)	-11.2439
pzzhhz쎯szhhhzn2쎯	-11.244
zzshshshpn쎯	-11.2444
zphzzh1쎯	-11.2444
hpnz0쎯hpszsshhh쎯	-11.2445
snzpzpshzhh쎯	-11.2448
zzhnnzpz쎯	-11.2449
pznszh1쎯nphszs쎯	-11.2452
hnzshhhh	-11.2453
hssnzzp쎯pznzp쎯	-11.2456
hhpz0쎯phhshs쎯(	-11.2458
ssnph쎯pznzp쎯.	-11.2458
,nzszhshpzhh쎯	-11.2459
hpnnnznn쎯.	-11.2464
nnnszhshn쎯	-11.2465
hspnhspnppp쎯	-11.2465
、hzhnhpz쎯	-11.2465
pszpszh0쎯	-11.2468
zzshszhz0쎯hspn	-11.2478
npnsns쎯,	-11.2482
pshshpn0쎯sz	-11.2483
hs1쎯pz3쎯	-11.2484
szs쎯	-11.2486
zhpzszh쎯phzn쎯,	-11.2486
hpnz0쎯hzzpn0쎯	-11.2488
,zhhpzzs쎯pzn2쎯	-11.2489
phhhzzshh쎯	-11.2492
znpzhhs쎯	-11.2494
hpn1쎯hpn1쎯	-11.2494
pznszh1쎯szhzs1쎯	-11.2498
shpnn쎯shhspnhzn쎯	-11.2498
ppzhpphs쎯pzhhs0쎯	-11.2502
ㄙ	-11.2503
nnpnzzzh쎯》	-11.2506
nnzszhzh쎯,	-11.2506
npzn0쎯p	-11.2507
쎯hpn1쎯nnpnzzzh쎯	-11.2507
pn3쎯nnnhshzn쎯	-11.2507
hppzhh쎯쎁	-11.2509
szhhsshhh쎯	-11.2516
〗	-11.2518
,nnnhszhz0쎯	-11.2518
,hpszhpzpzhsh쎯	-11.2524
в	-11.2532
pzhhs0쎯szhhz2쎯	-11.2533
〖	-11.2535
,zzhnphspnz쎯	-11.2537
zhhzpn쎯phshzzn쎯	-11.2539
hpsn0쎯szpz0쎯	-11.2539
hshphz1쎯	-11.2542
psz쎯hhpz0쎯.	-11.2542
nnnphzznnh쎯szh0쎯	-11.2549
hhzn1쎯:	-11.255
쎀.쎀쎀	-11.2552
pzszhh쎯	-11.2558
zzhzpszh0쎯nnp	-11.2559
、nnzzph쎯	-11.2563
zhhznzs쎯npzn0쎯	-11.2569
、hshsnszssh쎯	-11.257
pnpnpphs쎯	-11.257
phhshs쎯zzhpzzn쎯	-11.2574
nzpnn쎯pnhhzn쎯	-11.2576
pn2쎯szh0쎯쎅	-11.2576
hzhpzszhpz쎯	-11.2578
hpn1쎯zzhszpn0쎯	-11.2578
nnzhszhsz쎯	-11.2581
쎂phhshs쎯	-11.2581
h쎯nzzhszh쎯	-11.2581
hshpznnznn쎯sz	-11.2582
pzphhshpzhh쎯	-11.2584
pzzpn1쎯nphhh쎯	-11.2584
nnnhshzn쎯nphhh쎯	-11.2585
hhh쎯szshnphpn쎯	-11.2585
pshspnh0쎯pnhhzn쎯	-11.2586
pspnznnznnpszhh쎯	-11.2587
psszhszh1쎯	-11.2587
.nhhsh쎯	-11.2588
nphhs0쎯phhshs쎯	-11.2589
pnzn0쎯pnzp쎯	-11.2592
ㄠ	-11.2595
pzhhs0쎯hszsn쎯	-11.2596
hpz0쎯nhszhsh쎯,	-11.2597
pzszh쎯hspnzhz1쎯	-11.2598
szhpnh쎯hpszss쎯	-11.2599
szhhshnh쎯pphszh쎯	-11.2599
nphpszhhh쎯zpznn쎯	-11.2602
hpszh1쎯、	-11.2604
쎀쎀쎀nphzpn쎯	-11.2604
、nnzzph쎯pnhhsh쎯	-11.2604
,쎁쎉쎉쎀phhshs쎯	-11.2605
pszhhhps0쎯zpznn쎯	-11.2605
nhphsshzn쎯(	-11.2608
nzhszhszh쎯:)	-11.2611
hnhnphzph쎯szh0쎯:	-11.2611
ppshhz쎯、	-11.2613
nhzp쎯nnnhshzn쎯:	-11.2613
npzn0쎯쎃	-11.2614
:쎁쎆	-11.2615
,쎁쎉쎉쎄phhshs쎯	-11.2616
shshhz0쎯hszsn쎯	-11.2616
hnphs쎯pzn3쎯	-11.2617
pphsszpn쎯、	-11.2621
nphszs쎯hpn1쎯	-11.2623
pzpzhhzpn쎯	-11.2623
zphznzp쎯zp1쎯,	-11.2625
zhzs1쎯phspnszhs쎯	-11.2628
hppzhh쎯hpn1쎯	-11.263
szsshhsszhhhh쎯.	-11.2632
shh쎯nhzp쎯	-11.2632
hpn1쎯snnpnnphzn쎯	-11.264
zzpn0쎯szhsh1쎯	-11.2641
쎀쎀hzshhhzn쎯	-11.2641
zn2쎯szhhhshpn쎯	-11.2642
zzshpszhh쎯	-11.2644
,hssnphp쎯	-11.2645
zzhz쎯hshhzshznp쎯	-11.2646
pphszh쎯zhzphpn0쎯	-11.2654
か	-11.2654
shhshhpn0쎯shhs	-11.2656
hzsh쎯zzhhzphpz0쎯	-11.2658
쎁쎂pzhh1쎯,	-11.2659
nhphpznp쎯hpn1쎯	-11.2661
nnnzpznn쎯	-11.2666
znzzs쎯zpn3쎯	-11.2666
hzzpn0쎯hznhsh쎯	-11.2668
zzh5쎯pzzpn1쎯	-11.2668
hpszhh쎯pnzp쎯	-11.2669
szs1쎯nhphsh쎯	-11.267
.hzhhzszhh쎯	-11.267
nhpspnppp쎯	-11.2673
zpn3쎯nznpszhpz쎯.	-11.2674
nhpnpssz쎯.	-11.2676
hpsn0쎯nnzszhhh쎯	-11.2682
,szpzh0쎯	-11.2686
phhhzhhznp쎯,	-11.2687
hzhhszhh쎯	-11.2687
pzn쎯	-11.2694
nphhhs쎯szpnpn1쎯	-11.2695
pzznnzszhzh쎯,	-11.2696
pzhhzszn쎯pzhhs0쎯	-11.2698
,hzzpn0쎯hszh0쎯	-11.2698
,쎁쎉쎈쎃phhshs쎯	-11.2699
、zhzhz0쎯	-11.2701
szpnhshpszhh쎯	-11.2701
npszspnphpnhps쎯	-11.2702
hszh0쎯“	-11.2704
247쎯snz쎯	-11.2704
,pszsz쎯pszhhpzn쎯	-11.2708
nnnpnnpzzh쎯p	-11.2708
,hhspn0쎯	-11.271
hshhpzn0쎯	-11.2713
nnnhhshszpn쎯	-11.2716
“hszh1쎯	-11.2719
pphsszpn쎯hshzsz쎯	-11.2722
hhpzpnnznn쎯	-11.2722
115쎯pzhh1쎯	-11.2722
nnzszhzh쎯.	-11.2725
pnhhsnph0쎯、	-11.2729
hzhpzzn2쎯nhnphp쎯	-11.273
hsh1쎯、	-11.273
pznnszhhphhsh쎯	-11.2733
쎃phhhzhhznp쎯	-11.2736
hpnnnznn쎯,	-11.2737
hssznphhs쎯hhps2쎯	-11.2741
zpszh0쎯nhpnpssz쎯	-11.2741
hnphspn쎯.	-11.2743
phshpz쎯hhpn0쎯	-11.2744
쎂쎀쎀pznpzn0쎯	-11.2745
.쎁쎉쎉쎁phhshs쎯	-11.2746
nhszhspzpn쎯	-11.2747
hpszss쎯szszs0쎯	-11.2747
hspnhspn쎯、	-11.2748
nhpnnhshsh쎯.	-11.2748
shhsphspnzph쎯	-11.2751
hhshpzphpn	-11.2753
hssznphhs쎯szs1쎯	-11.2756
hszsn쎯phzn쎯、	-11.2758
,pzpn2쎯	-11.2761
pshz1쎯szhhhzn0쎯	-11.277
pn3쎯pshszh0쎯	-11.2771
shszhhznp쎯hspnn쎯	-11.2776
znphhpn쎯.”	-11.2776
(쎁쎀	-11.2781
pznsn쎯hnphspn쎯	-11.2782
shhspzzhz쎯	-11.2782
phzn쎯hhhphzn0쎯	-11.2783
nhzpphzsz쎯,	-11.2784
pnzn0쎯zpnn1쎯	-11.2785
nzhpzppnpn0쎯	-11.2788
szpn4쎯hshnzhpz쎯	-11.279
pzzh쎯pzszhshhszh	-11.2792
npzn0쎯shshhz0쎯	-11.2794
hsshhhpnpphs쎯()	-11.2799
hhpn0쎯pzpszhshn쎯	-11.2799
nzpzpn0쎯hspnpz2쎯	-11.2803
szshphhs1쎯,	-11.2804
hhpsszhsh쎯.	-11.2805
.shhspshz쎯	-11.2807
szhpn3쎯nnpnzzzh쎯	-11.2812
pszszh쎯hzzpn0쎯	-11.2813
hhz1쎯nnzzph쎯pp	-11.2814
(hsshhhpn0쎯szhs쎯	-11.2815
hspnnphzpnzph쎯sz	-11.2817
쎉pnzn0쎯szhhhsh1쎯	-11.2817
phs0쎯hshzn1쎯	-11.2818
szpnnnzh쎯	-11.2818
nzhsznphspn쎯	-11.2818
szhhs2쎯snnhpnn쎯	-11.2819
、znzzhpszpn쎯	-11.2819
、zzsnhzp쎯	-11.2821
pspnnpzzh쎯	-11.2822
hhpsppp0쎯szhhh2쎯	-11.2822
phnphnhszspn쎯,	-11.2824
zzpn0쎯hnphs쎯.	-11.2825
hhps2쎯shhspshz쎯	-11.2825
pn2쎯phspnszh1쎯	-11.2827
hhpz0쎯,	-11.2829
zzhpnpn0쎯zzspn쎯	-11.2829
.쎁쎉쎈쎉phhshs쎯	-11.2832
,zzhzhhznnpn0쎯	-11.2835
nzzpn1쎯pzn1쎯	-11.2836
pphszh쎯zsh0쎯,	-11.2836
zsz0쎯ppszhhzpn쎯	-11.2837
zzhszhpzhh쎯	-11.2838
hshhpzznp쎯,	-11.284
npzhzsp쎯npzhzsp쎯	-11.284
쎂쎁쎀	-11.2841
128쎯hpznhz1쎯	-11.2841
,쎁쎉쎉쎁phhshs쎯	-11.2845
nnpnzzzh쎯hpzznp쎯	-11.2848
zzh0쎯(	-11.2848
nhszhszszhshzn쎯	-11.2849
szhhpzh쎯.	-11.285
pn3쎯pszhhnzzn0쎯	-11.2852
、shhshhspnhhspn쎯	-11.2855
,nzhhps쎯	-11.2858
hh0쎯zhpszhsh1쎯	-11.2858
szh0쎯nhszs쎯	-11.2859
hpsnszh쎯szpnsz0쎯	-11.2864
nhpnnznpzhhs쎯.	-11.2866
hsshnphpn쎯	-11.2867
,shhshshpszhh쎯	-11.287
hpnz0쎯hznpsz쎯	-11.2873
szhhhszhhhsh0쎯쎂	-11.2874
hpnn0쎯nnzhzn쎯	-11.2875
─	-11.2875
hszhhpnnszhszh쎯:	-11.288
nppnnhnphszh쎯	-11.2881
phshhszpzh쎯phshp	-11.2881
235쎯nhphsshzn쎯	-11.2883
zz2쎯pnhhsh쎯	-11.2886
hpsn0쎯nznphhhs쎯	-11.2887
zhphsshpnpzzn	-11.2887
쎁pzhh1쎯pshhsh0쎯	-11.2889
hpn1쎯nnpnzzzh쎯、	-11.2892
phhs0쎯szhhhzn0쎯	-11.2894
nhnph쎯nhzp쎯	-11.2895
pnnpzpppszhhpz쎯.	-11.2895
쎅nhszhsh쎯	-11.2897
hsshszhhhsh쎯	-11.2902
znhpnppp쎯szpz0쎯	-11.2914
hssznphhs쎯hpnz0쎯	-11.2918
zhpnszhhh쎯	-11.2921
pnnpzpp	-11.2922
snzszhh쎯、	-11.2923
nnnpnnpphsh쎯	-11.2923
.hzhz1쎯	-11.2924
쎯hhpsppp0쎯	-11.2924
zzpn0쎯nnnnzphhs쎯	-11.2929
zzh0쎯zph쎯	-11.2931
、pshhzs1쎯	-11.2933
pzpn2쎯zzpn0쎯	-11.2937
、phhhzphhpn쎯	-11.2938
nsnszhh	-11.2939
し	-11.2939
nppnnhzzn쎯	-11.2944
hspnpz2쎯hhznzp쎯	-11.2944
hhpsnzn쎯szszs0쎯	-11.2946
nnzszhzh쎯hznhsh쎯	-11.2948
hhpn0쎯hzp0쎯	-11.2953
、nnnhzhpphs쎯	-11.2954
sszhh쎯hshshsh쎯	-11.2955
hsszhszhpszpn쎯	-11.2955
shszhhznp쎯hsh1쎯,	-11.2956
pnzn0쎯hhshzn3쎯	-11.2956
hzhs쎯	-11.2958
,hpzn2쎯	-11.296
nhhsh쎯nnnznszh쎯:	-11.2962
hpn쎯hspnhzn0쎯,	-11.2966
szhhspn1쎯	-11.297
hpnznp쎯	-11.2971
,hhpz1쎯nzpnpz쎯	-11.2971
pspnhnnph쎯	-11.2971
hhpsszhsh쎯、	-11.2986
hszpzhhpznszh1쎯	-11.2989
znhpnppp쎯szpz0쎯“	-11.2991
、hsszhhhshhzs쎯	-11.2994
nzpz	-11.2995
nhppshzn쎯zpnn1쎯	-11.2995
イ	-11.2999
、pszhh0쎯nphzpn	-11.2999
¥	-11.3001
pnzp쎯hspnpphs0쎯、	-11.3001
nhphspn쎯shh쎯	-11.3002
szhhzhnhnph쎯	-11.3003
zzhhhznp0쎯.	-11.3003
ppznnhpnzz쎯	-11.3004
hspnhspnnppn쎯	-11.3005
hspnhspn쎯hsn쎯	-11.3007
zsz0쎯nzphhs쎯	-11.301
쎇szhhz1쎯	-11.3012
hhznzp쎯szhs쎯	-11.3015
hssnz	-11.3015
pnhszhzs0쎯,	-11.3017
《hsshz0쎯	-11.302
pzzshz쎯;	-11.3021
nphzpnpnzp쎯,	-11.3021
shszpnz쎯	-11.3023
쎃hshhpszpn쎯	-11.3023
,pznnphszhhpzn쎯	-11.3027
hpshsh쎯pszsz쎯	-11.3027
szhs쎯nnnphzznnh쎯	-11.3028
shhshpnnhps0쎯	-11.3029
hszh0쎯hhshhpsn쎯	-11.3041
nnnhsszhhspspn쎯	-11.3042
pzszhpzzp쎯	-11.3042
ppzhpsnhhhsh쎯	-11.3043
shhshsshh쎯	-11.3043
hzshhhzn쎯pszszh쎯	-11.3046
,hshszhnphszh쎯	-11.3051
nzpzzn쎯hsh2쎯	-11.3052
snnhpnn쎯hhpz0쎯	-11.3053
nnpnhzn쎯nnhzzpn쎯	-11.3053
153쎯pshzn1쎯	-11.3055
pnpnhsshhh쎯	-11.3056
nnzhszhshpn쎯	-11.3057
hssznphhs쎯ppznn쎯	-11.3058
β	-11.306
phzn쎯;	-11.3061
、pnshsh쎯ssnph쎯	-11.3066
nnnhppszhhzpn쎯、	-11.307
shhspzzhz쎯pshz2쎯	-11.307
202쎯pshh0쎯	-11.3075
ppzhszhss쎯hnphs쎯	-11.3076
pszhhhppzhspn1쎯	-11.3076
,,,	-11.3077
nzpzzn쎯,	-11.3078
hszsn쎯、	-11.3079
pnpn1쎯ssnph쎯	-11.308
phs쎯	-11.308
,hzhz1쎯zphszh1쎯	-11.3081
nhpn0쎯hshzp2쎯	-11.3082
쎁쎁pzhh1쎯phhsh1쎯,	-11.3083
、zzh5쎯	-11.3087
쎅,	-11.3092
nhpzpnhspn쎯	-11.3094
hppzhh쎯hszhz1쎯	-11.3095
h쎯hspn0쎯nhpnps쎯	-11.3096
pzzhhz쎯nzpnn쎯	-11.3097
shhspshszhz쎯nphh	-11.3097
hshphz3쎯hszsn쎯	-11.3101
zzhpzn0쎯hs	-11.3102
,hshpzhhsnhzn쎯	-11.3104
、phhhzzhhzpn쎯	-11.3106
hszpzhhzhz쎯sz	-11.3117
nnnhsshhh쎯	-11.3119
hhh쎯pn2쎯	-11.312
ppsszshphshphpn쎯	-11.3122
쎇pzhh1쎯hznhsh쎯	-11.3122
pnzp쎯hsh2쎯	-11.3124
zphzshpszhhh쎯	-11.3124
szhhhspnznnznn쎯·	-11.313
zpnpszhhh쎯nhnph쎯	-11.3131
,hzszhh0쎯hpshsh쎯	-11.3136
szszhpszszs0쎯	-11.3136
szhh3쎯nzzhz쎯	-11.314
、hshsnszssh쎯、	-11.3145
.phsszhnzzn쎯	-11.3146
zsh0쎯nnnpnpnszh쎯	-11.3148
)쎁	-11.315
szhh3쎯zzh0쎯	-11.315
szssnppznn0쎯	-11.3152
nhpnnzzn쎯pzn2쎯	-11.3156
hhpn1쎯hzhhszph쎯	-11.3162
ppshhz쎯hhz1쎯	-11.3162
nzhzhs쎯.	-11.3164
zhznnzhznn쎯,	-11.3165
～쎁쎉	-11.3166
hhhpnszhh쎯hhpn0쎯	-11.3169
nhpnpnhs쎯phhshs쎯	-11.317
ssnph쎯nhhsh쎯	-11.317
szhshhzpn쎯	-11.3171
nsnpnhzn쎯	-11.3171
zzhpzn0쎯쎁쎀	-11.3174
phhpnnzzn쎯	-11.3179
zzhzs쎯zzhpnzp쎯	-11.318
hzhshnpn쎯nzhz쎯	-11.318
phs0쎯nphzpn쎯.	-11.3181
,pshznhshsz쎯pn3쎯	-11.3183
zhz1쎯hpzznp쎯	-11.3185
nphhs0쎯pns쎯	-11.3185
npzn0쎯《	-11.3188
hhh쎯hpszhh쎯	-11.3189
szhhhnhzzn쎯	-11.3189
》szhsh2쎯	-11.3189
nphhps쎯zpznn쎯	-11.3191
hpsn0쎯zpnn1쎯	-11.3193
szhhhzhz쎯szs1쎯	-11.3196
spnnphhh쎯szhhh2쎯	-11.32
znhpnppp쎯znszpz쎯	-11.3208
,pspz2쎯	-11.3214
szpnppzn쎯	-11.3215
zpn3쎯zzhszhhh0쎯.	-11.322
hpszhpzzpn1쎯	-11.322
쎈.쎀	-11.3224
znn0쎯nsnphhsh쎯	-11.3231
hzzpn0쎯szs1쎯	-11.3233
/.	-11.3233
npszhnznn쎯zzspn쎯	-11.3234
hspnh0쎯shh쎯	-11.3237
pznszh1쎯:)npzn0쎯	-11.3237
쎃쎀쎀nphzpn쎯	-11.3238
phhhzhpnn쎯	-11.3244
hshpzhh0쎯p	-11.325
zzhpzn0쎯쎅	-11.3255
hpn1쎯hznhshpzn쎯	-11.3255
szhshnpnhszh쎯	-11.3258
(pnzn0쎯hhpz0쎯쎁	-11.3259
nhzznnnpnhs쎯:쎁	-11.3262
hshnhzp쎯nhszs쎯	-11.3266
z쎯hzhz1쎯hssnph쎯	-11.3268
nhpspnpzzhz쎯	-11.3272
phzn쎯hpn1쎯	-11.3273
,nphhps쎯shnpn쎯	-11.3274
hphz0쎯zzhpzzn쎯	-11.3278
zpnhpn쎯,	-11.3281
hszspn쎯hznpsz쎯、	-11.3282
phspnszphhs쎯	-11.3283
hspnhhpsznp쎯n	-11.3286
247쎯pszhhzzpn쎯	-11.3287
.znhzn0쎯hhz1쎯	-11.3287
hpszss쎯zhz1쎯	-11.3288
hspnpz2쎯hzhs0쎯	-11.3289
phspnszhh쎯,	-11.3289
pn4쎯hs1쎯	-11.3294
nhpn1쎯pzhh1쎯	-11.3304
phs0쎯pnhhspn1쎯	-11.3304
,nznnp쎯	-11.3306
》pzznzpn쎯hpznsz쎯	-11.331
phhsh1쎯hpznhz1쎯	-11.3311
pnzp쎯hpzznp쎯	-11.3312
hzhznszh쎯	-11.3312
hhspn2쎯sz	-11.3315
pn4쎯pzhh1쎯	-11.3317
쎁쎉쎈쎂	-11.3318
쎄szhhz1쎯	-11.3319
nnnhszpzhh쎯、	-11.3319
,nhpnnph0쎯	-11.3319
쎁쎂pzhh1쎯phhsh1쎯,	-11.3322
hszhzhhz0쎯phzn쎯,	-11.3329
hsszhhhhpn쎯	-11.333
zhhhpn쎯pnzpszpn쎯	-11.333
nnzzpn쎯nphzpn	-11.3335
hzzpn0쎯hpnz0쎯	-11.3335
zzhnzhpszhss쎯《	-11.3339
hzhs0쎯、	-11.3339
zhpszhnhnphhshsh	-11.3346
hpsn0쎯zphszh1쎯	-11.3348
、phszhhhsh쎯	-11.335
쎁쎉쎈쎁	-11.335
、hszh1쎯	-11.3352
nnnnhpnps쎯hszh0쎯	-11.3353
hpn1쎯pznnszhhh1쎯	-11.3354
phsnzzn쎯hznhsh쎯	-11.3355
zphszh1쎯hsn쎯	-11.3358
pzzshz쎯、	-11.3359
nnpzzhhz쎯hzzp0쎯	-11.3359
쎁phhshs쎯)	-11.3365
쎆쎀phhshs쎯pshzn1쎯	-11.3367
쎆hsszhpz쎯	-11.3371
、shhsszhpn쎯	-11.3371
pn2쎯(	-11.3374
”phspnpzzpn쎯	-11.3374
pnnphhpzn쎯	-11.3377
hsshhhpn0쎯pnpn2쎯	-11.3378
hshszhhznnznn쎯	-11.338
nhzpphpn쎯pphszh쎯	-11.338
hzhnhzznnnpnhs쎯	-11.3383
szhhpzhh2쎯zz2쎯	-11.3386
pzpzhsh	-11.3386
93쎯szhs쎯	-11.3387
phhhzpznhhhs쎯,	-11.3391
nnpnzzzh쎯nzpzzn쎯	-11.3393
hshpzpn	-11.3396
h쎯snz쎯	-11.3396
nhpn0쎯psphshh1쎯	-11.34
szhs쎯hzzpn0쎯	-11.3406
szhhz1쎯npzn0쎯	-11.3407
pz1쎯hs1쎯	-11.3407
hspnnnzpzphshh쎯	-11.3413
hszh1쎯hpszhh쎯	-11.3414
zn2쎯phspnpzzpn쎯“	-11.3414
zpn3쎯szhhs0쎯	-11.3417
.hzhnnzzph쎯	-11.3419
ssnph쎯zpznn쎯	-11.342
pzpszhhhhsh쎯	-11.3422
nhpsnpphs0쎯	-11.3423
pznpn쎯phzn쎯,	-11.3424
nphzpnnnhs쎯h	-11.3426
zzp쎯phzn쎯	-11.3428
nhszhsh쎯nhnphp쎯	-11.343
hphszhnznnznp쎯.	-11.3432
hpshsh쎯nznhzppn쎯	-11.3433
쎀%shnpn쎯shh쎯	-11.3433
hhh쎯hs1쎯phhshs쎯	-11.3434
zzh0쎯npzhzsp쎯	-11.3435
zpszh0쎯phspnsz쎯	-11.3436
nhpn0쎯pznsn쎯,	-11.3436
hshszpn1쎯hpnz0쎯	-11.3437
znpzpn쎯pzzpn0쎯	-11.344
hzhhszn쎯pnzzsz쎯	-11.3446
zzp쎯nhszs쎯	-11.3448
,ppshshhzn쎯	-11.3452
pnzn0쎯nhnph쎯	-11.3452
szs1쎯hsn쎯	-11.3454
hshsh0쎯hhpnszpz쎯	-11.3454
zhzhz0쎯phhsh1쎯	-11.3454
nphzpnhpn0쎯、	-11.3458
쎀쎀-	-11.3461
phhhzpzhh0쎯	-11.3463
hshhz1쎯zphzpnp쎯	-11.3465
nphpnszssh쎯.	-11.3467
hphszhznp쎯phhs0쎯	-11.3468
znhzn0쎯phhsh1쎯	-11.3469
hszsn쎯phzn쎯.	-11.3469
쎇phhshs쎯)	-11.3469
pn4쎯hpn1쎯	-11.3469
phhhzphshpz쎯	-11.3471
hhh쎯zhphhzn쎯	-11.3471
pshz2쎯《	-11.3475
shpnhpzhhsz쎯pn3쎯	-11.3475
pznszh0쎯hppzhh쎯	-11.3478
hh0쎯phhznphhhs쎯	-11.3482
pzhhs쎯	-11.3485
《hpn1쎯	-11.3487
zzhszhpn0쎯、	-11.3487
shhspzpn0쎯	-11.3487
pznsn쎯nnnhz2쎯	-11.3488
pznnphhsh쎯hpnz0쎯	-11.349
nzhzhs쎯szhzph쎯	-11.3493
pnzp쎯szhhpzhh2쎯	-11.3495
ssnph쎯szhs쎯nznn쎯	-11.3497
쎇nhszhsh쎯	-11.3497
hshzsz쎯pznszh1쎯	-11.3502
hspnhpsn쎯”	-11.3506
、nzpzpn0쎯	-11.3506
zzhpzn0쎯h	-11.3513
szsshszpn0쎯	-11.3514
z0쎯	-11.3518
:h	-11.3523
,pnzp쎯	-11.3526
hzhhszn쎯nphszs쎯	-11.3529
szhshnphhz0쎯	-11.3536
pzzpn	-11.3545
.쎁쎉쎈쎀phhshs쎯	-11.3547
쎇.쎀	-11.3548
szszs0쎯zpznn쎯,	-11.3552
nphhhpnps쎯hpzn	-11.3554
ssnph쎯,	-11.3556
hzhnphhh쎯	-11.3558
쎁쎉쎈쎀	-11.3559
nzhnphs쎯npzn0쎯p	-11.3562
nnnhznpsz0쎯,	-11.3563
zp1쎯hznnpnn쎯	-11.3564
hphhpnz쎯nphszs쎯、	-11.3565
sszhh쎯szhhhzn2쎯	-11.3566
nphszs쎯phzn쎯	-11.357
nhnphszhhnznn쎯.	-11.357
쎄phhshs쎯)	-11.3571
쎆phhshs쎯	-11.3571
szhhz2쎯szpnpn0쎯	-11.3572
hhpn0쎯sz	-11.3573
pznpn쎯phzn쎯、	-11.3575
szhhpzppsz쎯	-11.3575
nnnhznpznnphpn쎯	-11.3575
,pzhhs0쎯hhz1쎯	-11.3577
hpshsh쎯pznszh0쎯	-11.3581
nzszhhpzpnz쎯	-11.3584
쎈pzhh1쎯hznhsh쎯	-11.3584
hzzp1쎯shshpnzs쎯	-11.3586
szhzhhspspn쎯	-11.3593
hszhz1쎯hzhhshh	-11.3595
phspnnnhs쎯zznz1쎯	-11.3596
《pzhshszh쎯	-11.3598
nzpzpn0쎯szhsh1쎯	-11.3599
,nnnhsshszpnpn0쎯	-11.36
psnhpzpn1쎯szs1쎯	-11.3602
zn쎯zzhhsznnhpn쎯z	-11.3603
《hszpzh쎯	-11.3606
pzhhhpnn쎯	-11.3606
◆	-11.3607
hszhh쎯	-11.3608
.쎁쎉쎅쎆phhshs쎯	-11.3613
nnnzpszh0쎯	-11.3614
zph쎯nhpsnszhhs쎯	-11.3618
hhhshspnhszs234쎯	-11.3619
nnzphshszh0쎯.	-11.3621
nzpz0쎯	-11.3622
,쎅	-11.3623
nzpzhpzz쎯	-11.3623
,nnnhsh쎯hszpzh쎯	-11.3628
zhhpszh쎯nhhsh쎯	-11.363
hznhsh쎯pnhz0쎯.	-11.363
.szhs쎯hsshpn쎯	-11.3632
zzhznnszhshn쎯	-11.3633
zpznn쎯snphpz쎯	-11.3638
쎉pn2쎯	-11.3638
zzhpnzp쎯zzhpnzp쎯	-11.3638
hsn쎯pn3쎯	-11.3641
:szszs0쎯hshzzpp쎯	-11.3645
szhhnnzzph1쎯	-11.3646
hsh쎯hszhshzs쎯	-11.3646
pz1쎯pzhh1쎯	-11.3648
szs1쎯pn2쎯	-11.3649
shnpn쎯pshszhhpn쎯	-11.3656
hzhhsshhhpnpphs쎯	-11.3658
hzhpphs1쎯:“	-11.3658
hz2쎯pzhh1쎯	-11.3667
zzhhhpznp쎯phhz1쎯	-11.3669
nhpn2쎯sz	-11.3674
znzn3쎯pszszh쎯	-11.3677
쎯phzn쎯,	-11.3678
phhhshhhnhpn쎯	-11.368
pzpnzsnpnnpzzh쎯	-11.368
쎄phhshs쎯	-11.3681
hzhpzszh쎯	-11.3682
hpszhnhp쎯hpszh1쎯	-11.3682
pn2쎯hspnpznszh쎯	-11.3682
hzshszhhsshhh쎯.	-11.3684
hspnppp쎯sz	-11.3687
nphhshphspnhzznp	-11.3689
zpn3쎯hspnhszn쎯	-11.369
szpnnphzhhsspn쎯	-11.3694
nhzp쎯hshsh0쎯	-11.3698
)npzn0쎯	-11.3699
pphsnzzn쎯hpszhh쎯	-11.3699
szhsshpn쎯》、《	-11.3702
.npszhnznn쎯	-11.3702
,szhs쎯szhpn4쎯	-11.3703
、hhshn0쎯nphzpn쎯	-11.3705
쎂쎀쎁쎃	-11.3706
shhsnphzsppzhh쎯	-11.3706
zpznn쎯nsnphhsh쎯	-11.3707
nzpnpz쎯pszhhpzn쎯	-11.3708
hszhhpn쎯hpn1쎯	-11.3708
h쎯phs0쎯	-11.371
szhhhsh1쎯hppzhh쎯	-11.3711
phspnszhpn1쎯쎁쎆	-11.3711
h쎯pn4쎯	-11.3714
shhspzszhh쎯	-11.3716
hsh0쎯nnzhpzpppn쎯	-11.3718
《szhs쎯	-11.3722
zzhhhshszpn쎯.	-11.3724
nsnzhhznhzpz쎯	-11.3724
nhnph쎯zz2쎯	-11.3724
zhzhzn0쎯pn2쎯	-11.3725
zphszh1쎯szhszh1쎯	-11.3726
szszs0쎯ppshhz쎯	-11.3736
쎯hnzshhhhhpzp쎯	-11.3738
nhpn0쎯hshzsz쎯	-11.3739
nnzhshpn0쎯.	-11.3745
hhzn0쎯pshhsh0쎯	-11.3747
쎄쎀쎀nphzpn쎯	-11.3747
szhhz2쎯hphshn쎯:	-11.3751
hpnhszhz쎯	-11.3753
、phhhz	-11.3755
hshszpn1쎯hpnz0쎯.	-11.3758
.hsszhphpn쎯	-11.3759
hppzhh쎯phspnsz쎯	-11.3761
ㄏ	-11.3761
zpnp쎯,	-11.3762
쎀.쎀쎀nphzpn쎯	-11.3765
pshshp쎯pshshn쎯	-11.3765
szhhhzn0쎯(	-11.3771
pshszhpn쎯pn2쎯	-11.3771
nnzhpn0쎯zz2쎯	-11.3776
nhpzpnszs0쎯	-11.3778
pspshzhhpz쎯	-11.3781
hshzsz쎯nhzp쎯.	-11.3784
nhhsh쎯hzhhz0쎯	-11.3784
hznsznphhshnnnn쎯	-11.3784
hspnnnzpnpnszh쎯	-11.3785
,zhhznnpn1쎯zh	-11.3785
phhszssz1쎯sz	-11.3787
hzshnhpnpn쎯phzn쎯	-11.3795
szhpzhhsnh쎯	-11.3795
phspnszhh쎯phhz2쎯	-11.3796
hsszh쎯phnphn	-11.3801
phshszh쎯	-11.3806
,쎁쎉쎅쎈phhshs쎯	-11.3806
hshhshsn쎯	-11.3807
pznpn쎯hszhszhsh	-11.3808
pszsz쎯hpsnnzzn쎯	-11.3808
,nhpspnzp쎯	-11.3809
,hzhhssnzzp쎯	-11.381
zzhpzn0쎯쎆	-11.3813
nnzpzhhpnszpz쎯	-11.3816
쎅phhhzhhznp쎯	-11.3818
zphznszh쎯hhz1쎯	-11.3819
snnhsh0쎯znszpz쎯	-11.3826
쎀-쎂	-11.3828
szhhpzpp1쎯h	-11.3829
,쎁쎉쎈쎉phhshs쎯	-11.3831
zz2쎯h쎯shshhzhh쎯	-11.3832
shhsnhnphhs쎯	-11.3833
phspnszhpn1쎯쎁쎄	-11.3834
쎁쎉쎂쎄phhshs쎯	-11.3837
/hzhnhnphzph쎯	-11.3839
hpszsshzn쎯n	-11.384
szhzs1쎯“	-11.3841
nzpn0쎯nzhshsh쎯.	-11.3845
pzphpzn쎯zphszh1쎯	-11.3846
szpz0쎯hznhshsz쎯	-11.385
hzhzzzpnh쎯	-11.385
pphszh쎯hshpszhh쎯	-11.3851
hshshphpn쎯hszpn	-11.3852
hpszss쎯hznnzzn쎯,	-11.3852
hnphs쎯sz	-11.3853
hzhzhs0쎯ssnph쎯.	-11.3853
hspnhssznphhs쎯	-11.3853
zzhpznszh1쎯	-11.3857
,zhz1쎯zzhznhsh쎯	-11.3859
phnphnhspnpnh쎯	-11.3862
pszhhpzzhpz쎯	-11.3864
,hhshpzhh1쎯	-11.3866
szhhszhz0쎯	-11.3868
nnzzpn쎯pss쎯	-11.3875
쎁phhhzhhznp쎯	-11.3876
.hzhzhs0쎯ssnph쎯	-11.3878
pznszh1쎯hphhpnz쎯	-11.388
nhszs쎯pn2쎯.	-11.388
nphzpnhpn0쎯:	-11.3881
hshzp2쎯hhpn1쎯	-11.3883
nzhszhszh쎯、nnzhs	-11.3884
hpnszhhz쎯	-11.3885
pzphpzn쎯hpnn0쎯	-11.3887
hshzznzpn쎯nzhs쎯	-11.3889
shhshpzhhsn쎯	-11.389
pz1쎯hhh쎯	-11.3892
,hznhsh쎯	-11.3896
hpn0쎯nzhszhszh쎯;	-11.3897
hznpznn0쎯hs	-11.3897
szhs쎯snnpnnphzn쎯	-11.3897
pnnpsz	-11.3898
pnszpnzphpznzh쎯	-11.3899
phhhzpszhhhhspn쎯	-11.3902
zhphz0쎯hsszhpz쎯	-11.3903
szhsh0쎯	-11.3903
쎇pn2쎯,	-11.3907
znszpz쎯,	-11.3908
shhspshz쎯sz	-11.3909
hshnhzpphpn	-11.3909
h쎯hh0쎯	-11.3913
pzn	-11.3914
zzhshszhhhs쎯	-11.3916
phszhhhsh쎯zp1쎯	-11.3923
hsn쎯phhs1쎯	-11.3924
쎃phhshs쎯)	-11.3925
pzszn쎯hsshszhhs쎯	-11.3925
hpszhnhnpnznhzp쎯	-11.3925
쎈hpszhhhsh0쎯	-11.393
zzspn쎯pshszh0쎯,	-11.3938
pshznszs0쎯	-11.3939
134쎯pzszn쎯	-11.3943
hpsn0쎯pnhzszh쎯	-11.3944
hnzsnnpnsnppznn쎯	-11.3944
zsphpn쎯pn3쎯쎁	-11.3946
쎈phhshs쎯)	-11.3947
zzshzzpn쎯pzszn쎯	-11.3947
nphhpnzz쎯.	-11.3947
pnhhpn0쎯nsnhpsn쎯	-11.3948
pspzzpn쎯pssnz쎯	-11.395
phnphnzhzsp쎯쎆	-11.3955
phhsh1쎯pshz1쎯	-11.3955
hszh1쎯hshnznn0쎯	-11.3955
nphzpnnhnph쎯,	-11.3956
쎂phhhzhhznp쎯	-11.3957
h쎯phhshs쎯phhsh1쎯	-11.3957
쎁-쎁	-11.3958
쎉phhshs쎯)	-11.3962
nzznhhs쎯pznszh1쎯	-11.3962
zn2쎯nhpspnpzszn쎯	-11.3969
hspnshhzpnzn쎯、	-11.3973
pn2쎯nnzhpzpppn쎯	-11.3977
nphhhsznhsh쎯	-11.3978
ppshshsh쎯.	-11.398
;szhhs0쎯	-11.398
,pszhh0쎯	-11.3981
pnnpnzhpzn쎯.	-11.3983
nhszs쎯pn2쎯,	-11.3983
pnps쎯pn3쎯	-11.3984
hshphz3쎯.	-11.3985
nnpnzzzh쎯hsh1쎯nn	-11.3985
szhhhhspn0쎯	-11.3994
nnnnnzhszhhh쎯	-11.3996
쎂phhshs쎯)	-11.3997
szpznnnh쎯》	-11.3998
nhszs쎯hssznphhs쎯	-11.3999
hspnh0쎯p	-11.4
h쎯hsshz0쎯	-11.4002
.zn2쎯	-11.4002
hhshhznpsz쎯hhsh	-11.4005
hznhsh쎯hhz1쎯	-11.4005
zzzsz	-11.4006
쎅phhshs쎯)	-11.4008
szhzph쎯)	-11.401
,nphhps쎯hppzhh쎯	-11.4011
pnhhzn쎯,	-11.4012
,pnhzn쎯	-11.4012
hsshhhznzph쎯	-11.4014
pnhhsh쎯zhzhz0쎯	-11.4015
nhzpznnphsh쎯.	-11.4016
phhshs쎯sz	-11.4016
psnhhhszh쎯、	-11.4019
zhznhzzn쎯phhhz	-11.402
hsh1쎯pshshpn0쎯	-11.4021
hshshpn쎯hhpsnzn쎯	-11.4021
zzhhhzpn쎯nzpn0쎯	-11.4025
hnphs쎯hspnhpzn0쎯	-11.4028
psssnphnphhhpn쎯	-11.4028
pn3쎯szhhhspn1쎯	-11.403
shhspnzp쎯nphhh쎯	-11.403
phzp쎯	-11.403
szhhzsz쎯,	-11.4031
hspnpzpzh쎯	-11.4032
hpzznp쎯pspnzp쎯	-11.4033
pszhhh0쎯hsszh쎯	-11.404
nhszszhhhhspn쎯	-11.404
phhz2쎯pszssh0쎯	-11.4042
쎃쎀쎀pznpzn0쎯	-11.4045
pnhhzn쎯p	-11.4048
zzshhszs쎯hshzsz쎯	-11.405
.hhpz0쎯	-11.4052
pnzn0쎯zhpn2쎯	-11.4053
pzzn3쎯n	-11.4057
zhphsszhsz쎯szhs쎯	-11.4057
hh0쎯hs1쎯h쎯	-11.4059
h쎯hpn1쎯	-11.4061
szhhpzhh2쎯hhpn0쎯	-11.4063
snpnzszhhsh쎯,	-11.4064
nzhs쎯phhsh1쎯	-11.4065
ㄤ	-11.4068
hsn쎯nhzp쎯	-11.4071
shnpn쎯ppsnhhsh쎯	-11.4076
phshhshhzn쎯phzn쎯	-11.4077
pn2쎯phshszhnzzn쎯	-11.408
szhshnhszhszhsh쎯	-11.4083
쎀pn2쎯,	-11.4088
pzzhz0쎯szhhzsh쎯	-11.4088
hhznphhhs쎯pshz1쎯	-11.4089
shszhnnnn쎯h	-11.4089
,nhszhzzh쎯	-11.409
snpnzszhpz쎯,	-11.4093
쎁쎅hsszhpz쎯,	-11.4095
pz2쎯zph쎯	-11.4095
nhpn0쎯nphhshhpn쎯	-11.4096
nhpzhhsszh쎯·	-11.4098
zzh0쎯ppzhnhzp0쎯	-11.4098
n쎯hszhszhshsz쎯nh	-11.4098
쎃쎀쎀hsszhpz쎯	-11.4101
nhphsh쎯zzh0쎯	-11.4107
hzhnhszhzpn쎯	-11.4115
nhpzpn	-11.4116
hshpzpnzzs쎯	-11.4116
phpn	-11.4117
pspzhzh쎯hphshn쎯	-11.4119
szhhhsh1쎯hssnph쎯	-11.4122
szszhh쎯	-11.4123
szhsnppznn쎯	-11.4126
pnzn0쎯hnphs쎯	-11.4127
hzhszh	-11.4129
zphznszh쎯pnzzsz쎯	-11.4133
zzsszhhszshn쎯	-11.4137
hzhhzszhh쎯hzh	-11.4138
zhphsshzpn쎯zz2쎯	-11.414
、pspzhzh쎯	-11.4141
psphshh1쎯pzpn2쎯	-11.4142
,hnphs쎯hshpzhh0쎯	-11.4145
ssphnszsh쎯nnn	-11.4147
nhpn2쎯pshspnh0쎯	-11.4147
、pznpzn0쎯	-11.4147
,phnphn	-11.4148
snz쎯pznsn쎯	-11.4149
,pszhzhnzzn쎯	-11.415
hhspn0쎯phhpnszh쎯	-11.4154
phhpszhhh쎯szpz0쎯	-11.4161
nphzpnhpn0쎯.	-11.4165
pszhhpzn쎯hs	-11.4165
nhzpphpn쎯nznn쎯	-11.4166
nhp쎯pnn0쎯	-11.4167
zhz1쎯hpshsh쎯	-11.4168
쎀hpz0쎯hhpz0쎯	-11.4171
nnnphpn1쎯pzzpn1쎯	-11.4173
hzshznhsh쎯hsh2쎯	-11.4174
pnnphspn쎯nznhzp쎯	-11.4174
znnznnpnppp쎯	-11.4175
ssnph쎯.	-11.4179
shshspphpszpn쎯hz	-11.4186
pnnpnzzn쎯psphzp쎯	-11.4186
nhzpphpn쎯sz	-11.4187
zz2쎯pznpzn0쎯	-11.4187
쎈pzhh1쎯pshhsh0쎯	-11.4188
pnhhzn쎯nhpsnhsh쎯	-11.4189
pnzn0쎯szhhpzh쎯,	-11.4192
pnpnh쎯phhsh1쎯	-11.4193
쎉.쎀	-11.4194
spnhsh0쎯hpzhhsn쎯	-11.4194
shhsnnnpznszh쎯,	-11.4195
nnpnzzzh쎯hpzp쎯,h	-11.4195
pnhhspn쎯	-11.4201
pznszh0쎯zhzhps쎯	-11.4201
nhpshszh쎯)	-11.4201
hzhhzhhshpn쎯,	-11.4208
psnhhhshhspn쎯》、《	-11.421
hpszhh쎯shhspshz쎯	-11.4212
hpshsh쎯zhhpzzs쎯	-11.4213
pnhszh쎯h쎯	-11.4213
nphhhpnps쎯zz2쎯	-11.4215
nnnszhsh0쎯phhz2쎯	-11.4217
ん	-11.4218
phspnnnhs쎯phzn쎯,	-11.4219
hsszh쎯hspnsn쎯	-11.4221
szhshshszhhpzpp쎯	-11.4221
123쎯pznnhhpn쎯	-11.4227
pzn0쎯,	-11.423
phshphhsh쎯	-11.423
shszhhznp쎯szhs쎯	-11.4232
hhpsnzn쎯pnhhzn쎯	-11.4232
.쎁쎉쎇쎈phhshs쎯	-11.4236
zhshhzhznnzzn쎯	-11.4237
hhshshzn1쎯shhsp	-11.4243
hspnpzznszssh쎯	-11.4244
nphhs쎯	-11.4246
,hszpzh쎯hznhsh쎯	-11.4246
pznszh1쎯:.	-11.4247
szhhshpzzh쎯	-11.4247
nhzp쎯nhpnpssz쎯	-11.4248
hpz0쎯nhnph쎯nhzp쎯	-11.4248
zhhznnpnnzzn0쎯	-11.4249
npzn0쎯phszhhhsh쎯	-11.4253
hhshhpzppnpn쎯	-11.4253
nnphpnhhs쎯pn2쎯	-11.4254
zp1쎯、	-11.4255
pphszh쎯,hpshsh쎯	-11.4258
hsszhhhh쎯ssnph쎯	-11.4262
쎄,	-11.4262
nhhsh쎯pshhsh0쎯(	-11.4263
pzzhz0쎯nnhpn쎯	-11.4268
、phhpnszhszhh쎯	-11.4271
phpnps쎯hspn0쎯,	-11.4273
hspnh0쎯hspnhzn0쎯	-11.4274
ω	-11.4274
zzpn0쎯nhpn2쎯	-11.4279
szhzph쎯,	-11.428
.hszsn쎯szhs쎯	-11.4285
hzzh쎯phhsh1쎯	-11.4285
pnzn0쎯nzpn0쎯	-11.4285
hsh1쎯znhpnppp쎯	-11.4285
hhshn0쎯nphzpn쎯、	-11.4287
phhhzzzhszssh쎯	-11.429
쎁쎉쎇쎈	-11.4291
hhz1쎯hszpzh쎯	-11.4292
쎄쎀phhshs쎯	-11.4292
hpnhszhz1쎯zznz1쎯	-11.4294
znn0쎯pspnpnszh0쎯	-11.4294
:쎂쎀	-11.4295
hsznhszn쎯nnnhsh쎯	-11.4296
hspnzzh1쎯pszhh0쎯	-11.4297
zz	-11.4298
nnnnnzhszhshpn쎯.	-11.4301
쎆phhshs쎯)	-11.4305
pznnn0쎯ppznn쎯	-11.4305
hhz1쎯nnnhzhpphs쎯	-11.4306
nhpnnph0쎯znhzn0쎯	-11.4308
zzh0쎯zzhzpn쎯	-11.4309
nhphsh쎯nhszs쎯	-11.4313
pn2쎯,phhspnhhps쎯	-11.4313
hpn1쎯nphzpn쎯	-11.4314
hpsn0쎯nznphhhs쎯,	-11.4314
pshsszh쎯nzhs쎯	-11.4317
phnphnzhzsp쎯szpz	-11.4317
szhshnznn쎯pnn0쎯	-11.432
nnhpn쎯zpznn쎯	-11.4322
,nphpszhhh쎯	-11.4322
zzpn0쎯pphsszpn쎯	-11.4323
nphpszhhh쎯pns쎯	-11.4329
h쎯nphhpnzz쎯	-11.4329
.shhsznhsh쎯	-11.4332
h0쎯zhpszhsh1쎯	-11.4334
hznpz쎯szhhz2쎯sz	-11.4339
phhszssz1쎯nzhz쎯	-11.434
hhps2쎯hspnpz2쎯	-11.4342
hshphz3쎯nzhshsh쎯	-11.4342
hhps0쎯	-11.4344
hspnszh1쎯pshh0쎯	-11.4348
pn2쎯”	-11.4349
hszhnphnnzpznzz쎯	-11.4351
쎂쎀쎀pnhhspn1쎯	-11.4351
hhshnhnphszhhhs쎯	-11.4351
zpznn쎯hzhzzpp쎯	-11.4359
szhzph쎯zzspn쎯,	-11.4359
zzp쎯pn2쎯	-11.436
snpnzszhpz쎯.	-11.4363
쎁쎈phhshs쎯	-11.4364
hssnph쎯hpnn0쎯	-11.4367
hzhssphnszpz쎯	-11.4367
hpznphs	-11.4367
,phsszhnzzn쎯nhpn	-11.4373
、pnhhsnph0쎯h	-11.4376
npnsns쎯pn2쎯	-11.4377
.szszs0쎯pznpn쎯:	-11.4377
nnnhsshhszhshpn쎯	-11.4379
ppzhpphs쎯phzn쎯,	-11.4379
pnpn1쎯szhs쎯	-11.4379
쎁쎉phhshs쎯	-11.4382
hhpszzs0쎯	-11.4382
zpszh0쎯hpn1쎯	-11.4384
hzhsnzn쎯hhzn1쎯	-11.4385
hzshszhhsshhh쎯、	-11.4386
쎀쎀hpz0쎯	-11.4386
nhpzpnzn쎯hhznzp쎯	-11.4387
hhshzzph쎯,	-11.439
szhzp0쎯hppzhh쎯	-11.439
hhzn0쎯ssnph쎯,	-11.4393
szhsh2쎯szhhshnh쎯	-11.4393
,pshhshpz쎯	-11.4394
,pzsznhpszpn쎯	-11.4396
pznnpzzn1쎯phzn쎯	-11.4396
hzhpznzp쎯.	-11.4398
ppznnhnhpz쎯nnzpz	-11.44
szhhnzhzhs1쎯	-11.4401
pz1쎯zhpszhsh1쎯	-11.4401
pn4쎯zhpszhsh1쎯	-11.4402
hp1쎯phzn쎯	-11.4403
pnzp쎯ppshhz쎯	-11.4403
phhz1쎯,	-11.4404
pznzp쎯.	-11.4405
hpszss쎯hznnzzn쎯	-11.4409
쎅nphzpn쎯	-11.441
nhpsszhhspnpzpn쎯	-11.4411
znhpnppp쎯n	-11.4411
nhszs쎯hshzzpp쎯,	-11.4415
pszhhhp쎯nznn쎯	-11.4415
.nznhzppn쎯hszsn쎯	-11.4417
쎄pzhh1쎯pshhsh0쎯	-11.4418
shhsszhpnh쎯	-11.4418
쎈-쎁	-11.442
hhzn0쎯hsznnhpn쎯	-11.4425
nnnphsszh쎯nnn	-11.4429
,pshszhz쎯	-11.4429
128쎯phhz0쎯	-11.4431
npzn0쎯pnhzhhzpn쎯	-11.4433
쎈쎀쎀nphzpn쎯	-11.4434
hhz1쎯h쎯pszhhhp쎯	-11.4435
.쎁쎉쎇쎉phhshs쎯	-11.4435
shshhz0쎯hshzsz쎯	-11.4436
szshzshpphs쎯	-11.4443
h쎯h쎯	-11.4444
쎉pzhh1쎯phhsh1쎯,	-11.4449
zz2쎯phzhznp쎯	-11.4451
szhssh0쎯hssz0쎯	-11.4453
hhshzznzpn쎯.	-11.4454
hhshsnpszpn쎯	-11.4454
hsn쎯hshzn0쎯	-11.4454
hszpzh쎯ppznn쎯	-11.4454
쎅쎄쎀	-11.4455
zhsshhhspn쎯phzn쎯	-11.4455
hpsnnzzn쎯hpshsh쎯	-11.4459
ㄕ	-11.4461
,zzspnhhspn쎯zz2쎯	-11.4464
nnzzzh0쎯pshz1쎯	-11.4467
hpn1쎯pzhhnhpnzs쎯	-11.4471
shhshhzn쎯	-11.4472
znn쎯	-11.4473
zhphsszh쎯hsh1쎯	-11.4476
pzhhs0쎯hhz1쎯n	-11.4484
hsh0쎯hspn0쎯hsh2쎯	-11.4484
.nnzpz1쎯pssnz쎯	-11.4485
hpn1쎯hphz0쎯	-11.4485
、szpnhzp쎯pznzp쎯	-11.4486
pshpzn2쎯phshpz쎯	-11.4487
pn2쎯hzp0쎯,	-11.4491
phpnps쎯nnnznszh쎯	-11.4491
《nzpnpz쎯	-11.4491
phhz2쎯szhhhspn1쎯	-11.4492
,hshnhnphszh쎯	-11.4493
phzn쎯쎂	-11.4495
znhpnppp쎯nzhzhs쎯	-11.4499
nnzhhsshpnszpn쎯n	-11.4507
zph쎯hsh1쎯	-11.4507
hspnhsshh쎯	-11.4509
nzzhszh쎯:	-11.4511
szhhpzpp1쎯hhz1쎯	-11.4513
nhpnnphspnsz쎯	-11.4513
nnzsnnzhhnzzn쎯	-11.4514
szpzh0쎯pzhh1쎯	-11.4516
nhphsshzn쎯:쎁	-11.4516
nzpnpz쎯p	-11.4517
szhsh1쎯szhhhzn0쎯	-11.4518
shhsszhhhs쎯、	-11.4521
hznpz쎯szhhz2쎯	-11.4522
,hpszsshzn쎯	-11.4523
szhpn4쎯	-11.4523
nnpnzzzh쎯hhzn0쎯	-11.4524
nhzpphphhpn쎯,쎁쎉쎅	-11.4525
szshpszh0쎯、	-11.4526
phhsh1쎯pshzn1쎯	-11.453
hhshszpz쎯pnhz0쎯	-11.4531
hppzhh쎯pns쎯	-11.4531
nnpnzzzh쎯znn0쎯.	-11.4532
,nhp쎯hszpzh쎯	-11.4535
247쎯szs1쎯	-11.4538
hpzznp쎯h쎯pns쎯	-11.454
hhshpzhh1쎯sz	-11.454
쎀hpz0쎯hhpz0쎯,	-11.454
pnpnh쎯szhs쎯	-11.4541
nphhshpzshh쎯	-11.4543
phspnnppn쎯	-11.4544
nhszhzzh쎯pnnpnz	-11.4544
,phhsh1쎯phzn쎯	-11.4545
hszhzhhz0쎯n	-11.4545
nhphsshzn쎯()	-11.4547
nhpnpnzzs쎯hpnz0쎯	-11.4548
szhhpzhh2쎯nhszs쎯	-11.4549
nzpnn쎯szhszpn3쎯	-11.4549
л	-11.4556
hhshhhshzshz쎯	-11.4556
ssnph쎯hzhhszn쎯	-11.4559
pzzhhpsnhhhsh쎯	-11.4559
szhhhpnnzpn쎯	-11.456
szh0쎯szshphhs1쎯	-11.4562
pnn0쎯shh쎯	-11.4566
nnnnhpnps쎯、	-11.4566
hszpnpn쎯psnhnph쎯	-11.4566
szhszhszh0쎯szhs쎯	-11.4566
nznn쎯pznnpz0쎯	-11.4567
npzn0쎯nphpszhhh쎯	-11.4567
hpzp쎯szhhhzn2쎯	-11.4569
、hspnzzpp쎯	-11.4573
pnzn0쎯pphs1쎯,	-11.4579
psszs쎯pn2쎯	-11.4579
쎁쎀hpz0쎯	-11.4584
、hpsn0쎯	-11.4584
pszhhh0쎯zsh0쎯	-11.4585
szhh4쎯:	-11.4587
쎆pzhh1쎯pshhsh0쎯	-11.4587
nnnn쎯	-11.459
pphszh쎯pshzn1쎯	-11.4592
hh0쎯、hhh쎯	-11.4597
zhz1쎯zpznn쎯	-11.4598
쎉pzhh1쎯pshhsh0쎯	-11.4599
》zzhnzhpszhss쎯	-11.4602
shhsnnnhszhz쎯	-11.4603
phshpzpp쎯hppzhh쎯	-11.4603
ppshhz쎯hshshpn쎯	-11.4605
.쎁쎉쎅쎀phhshs쎯	-11.4606
,hzhszhhh1쎯	-11.4607
hpnnzzn쎯쎁	-11.4611
pnzn0쎯zzh0쎯	-11.4611
쎆nphzpn쎯	-11.4613
zzpn0쎯pzznzpn쎯	-11.4616
",	-11.4616
pnzzsz쎯psphzp쎯	-11.4618
쎅nphzpn쎯,	-11.4618
zhhznnpn0쎯·	-11.4619
、hzhhszn쎯hspnn쎯	-11.4627
nhpn0쎯nhpspnzp쎯	-11.463
pnn0쎯pszhhpzn쎯	-11.4633
、nnzzph쎯pp	-11.4634
pphszh쎯pzhhs0쎯	-11.4636
shhsszphspnh쎯、	-11.4645
hshpzpn1쎯zsh0쎯	-11.4646
szhszhzzh쎯	-11.4647
phnphnzzh0쎯	-11.4647
shhspnhhsh쎯	-11.4649
nhpshszh쎯(	-11.4652
93쎯hpzznpszssh쎯	-11.4655
nnnszhsnzpznn쎯,	-11.4656
zhz1쎯phhpnszh쎯	-11.4657
.shhshpszh쎯	-11.4658
zzsszhhh쎯shsh쎯	-11.4658
pshz1쎯pzznzpn쎯	-11.466
pznsn쎯pzzhz0쎯	-11.4665
pzpzhsh쎯,	-11.4666
hznnzzn쎯pnn0쎯	-11.4666
,쎁쎉쎆쎃phhshs쎯	-11.4666
hpsn0쎯pzzzh쎯	-11.467
shzph	-11.4671
nphzpnszhhh쎯np	-11.4671
szh0쎯nzhszhszh쎯	-11.4672
szhs쎯pshhhpzzn쎯	-11.4674
pphszh쎯pn2쎯	-11.4675
,쎁쎉쎈쎁phhshs쎯	-11.4676
phspnszhpn1쎯쎂.	-11.4679
nnhzhhszph쎯	-11.4683
psnhnph쎯;	-11.4684
,쎂쎀쎁쎁phhshs쎯	-11.4685
hzpnphshszhnzzn쎯	-11.4686
hhpsnzn쎯hsh1쎯,	-11.4688
、hsshh쎯	-11.469
hshshpnpnppp쎯	-11.469
pshsshpn쎯p	-11.4694
zhphz쎯	-11.4697
znszh0쎯shh쎯	-11.4699
hspnhhpsznp쎯、	-11.4701
(hshsh0쎯	-11.4702
hzhznhhs쎯.	-11.4703
phhhzpznszh0쎯	-11.4705
zhhzpn쎯	-11.4706
ㄉ	-11.4707
nnzzph쎯pn2쎯	-11.4709
hh0쎯hs1쎯hszh1쎯	-11.4715
nhzznszhsh쎯phshp	-11.4718
pnzp쎯hhps2쎯	-11.4721
zzh5쎯phhhzpnhzn쎯	-11.4723
hsszzhpzn쎯、	-11.4725
nhphsh쎯、	-11.4726
pznszh0쎯hhshzn3쎯	-11.4728
zpznn쎯ppshhz쎯.	-11.4733
zpn3쎯pshszhhpn쎯	-11.4735
hznnzzn쎯쎉쎀쎀쎁	-11.4738
pznsn쎯psszpnsz0쎯	-11.4743
zsz0쎯,	-11.4743
、hshphz2쎯	-11.4747
znhhs쎯	-11.475
nznpszhpz쎯szhs쎯	-11.475
szszhh0쎯hnphspn쎯	-11.4754
》nhpn0쎯	-11.4754
phhhzszsshpzn쎯	-11.4758
pnzp쎯zzsnnzhhpz쎯	-11.4764
,hpzn3쎯	-11.4764
shhshhzn쎯snzhzp쎯	-11.4767
◇	-11.4767
%pszhhpzn쎯	-11.4768
pznzpszpn쎯h	-11.477
hhs쎯szhhhhs1쎯	-11.477
shhhz쎯hpnz0쎯	-11.4773
nnzhssszpz쎯쎂	-11.4773
phhsh1쎯hnphs쎯	-11.4777
hpnn쎯	-11.4778
shhsh	-11.4778
hppzhh쎯쎂	-11.478
hspnszhhhnznn쎯,	-11.4781
hszhshzs쎯《	-11.4782
znhsh0쎯hshzsz쎯	-11.4785
nhhsh쎯zhpnphhps쎯	-11.4785
pshhzn1쎯·	-11.4785
pshhhpnznnpn쎯	-11.4788
nhpnpn0쎯zpnn1쎯	-11.4789
nsnsnppznn쎯	-11.479
h쎯hszsn쎯	-11.4791
hzhpznphhz쎯	-11.4791
phspnszhh쎯shhs	-11.4794
hzshhhzn쎯pn3쎯	-11.4796
、ssphnszssh쎯	-11.4797
h쎯nznpszhpz쎯	-11.48
zhphsshzpn쎯、	-11.4801
szhs쎯szhh3쎯	-11.4805
,szhshzp1쎯,쎁쎉쎅	-11.4805
쎈쎀쎀쎀	-11.4806
nzpnpz쎯》:“	-11.4807
nnzhhpz쎯zphzzh0쎯	-11.4808
pshzhh쎯	-11.4811
pns쎯pszhhh0쎯	-11.4813
nhszs쎯phspnzph쎯、	-11.4814
ppshhz쎯npzn0쎯.	-11.4814
szszh1쎯,	-11.4815
쎅쎀phhshs쎯pshzn1쎯	-11.4817
nhpnpn0쎯hzzh쎯	-11.4818
、szpnpn0쎯zzh	-11.4819
hszh0쎯pn2쎯	-11.4822
phhz2쎯hhznzp쎯	-11.4823
szhs쎯pnps쎯	-11.4824
.쎅hnphs쎯nhzp쎯	-11.4825
,pzhshszh쎯	-11.4825
pzzshz쎯hzhnhnph쎯	-11.4826
pnhszh쎯hspnhzp0쎯	-11.4827
zzspzpshzhh쎯pn3쎯	-11.4831
pnzshz쎯pnpnzshz쎯	-11.4833
,sznphhshnnnn쎯	-11.4835
129쎯hshnznn0쎯》	-11.4835
nphhs0쎯ppsznhsh쎯	-11.4838
쎯nhzp쎯nphzpn쎯,	-11.4839
phhsh1쎯nhpnpnhs쎯	-11.484
ppshszhszhhhz쎯	-11.484
hshshpn쎯szszs0쎯	-11.484
、hsn쎯	-11.4844
shnpn쎯shh쎯,	-11.4844
“hpn1쎯	-11.4846
zphhhspn0쎯zphh	-11.4847
nnnzpnppzszhshh쎯	-11.4853
,phzznnh쎯pns쎯	-11.4855
hpnz0쎯hszpzh쎯	-11.4855
nphhhpnps쎯szh	-11.4857
phhznppnnppn0쎯	-11.4858
pz3쎯phspnszhs쎯	-11.4858
“sz	-11.486
,hpn1쎯hhzn0쎯	-11.486
、nnnszhsh0쎯	-11.4861
szhhpzhh2쎯:	-11.4862
hpn1쎯hszpzh쎯	-11.4863
hh0쎯)	-11.4863
hzhszspsnhhhsh쎯	-11.4863
hhps2쎯zphznszh쎯,	-11.4867
hshzsz쎯hshzhpn1쎯	-11.4873
szhhhszhhhsh0쎯()	-11.4874
hh0쎯pzhh1쎯	-11.4876
nphzpn쎯pzzpn1쎯	-11.4877
hzhpznnnnn쎯sz	-11.4877
hpsn0쎯zz2쎯	-11.4878
pn2쎯zsz0쎯	-11.4879
pshsshpn쎯h쎯pns쎯	-11.4879
h쎯pns쎯zpn3쎯	-11.4881
hshsh0쎯pzhh1쎯	-11.4882
、hpnzpzpn쎯	-11.4882
hzhs0쎯psnhnph쎯	-11.4883
pnn0쎯pzzh쎯	-11.4883
쎁pznszh1쎯	-11.4886
hzhpznnnnn쎯snz쎯	-11.4886
な	-11.4889
nhpn0쎯shszhhznp쎯	-11.4891
hhsh쎯zphhphhzpn쎯	-11.4892
hspnpznszh쎯nnhs쎯	-11.4895
쎀°C,phhshs쎯	-11.4895
hpszhszhsshpn쎯	-11.4901
pn2쎯phshpznzzn쎯	-11.4904
hhz1쎯pnzpszpn쎯sz	-11.4906
hspnhzp0쎯、	-11.4909
hzhnhnph쎯hhpn1쎯	-11.4909
hhznzp쎯hsh2쎯	-11.491
nzpnpz쎯nzhshsh쎯	-11.4911
쎀쎀phhshs쎯	-11.4916
(szhs쎯szhhshnh쎯	-11.4917
hsshsnphszszhh쎯	-11.4918
hsshszhshpn쎯sz	-11.4918
szhhhzn2쎯snphpz쎯	-11.4918
psnhhhshhspn쎯·	-11.4919
쎅쎀pznpzn0쎯	-11.492
nzhhps쎯nnzpzpz0쎯	-11.4923
pzhshszh쎯hhssz쎯	-11.4925
쎈pzhh1쎯phhsh1쎯,	-11.4926
szs1쎯hspnhspn	-11.4928
hpszs0쎯pzzpn1쎯	-11.4931
hppzhszhssz쎯	-11.4936
hspnh0쎯pshz2쎯	-11.494
nhpsnhpszh1쎯	-11.494
pshz1쎯nhszs쎯	-11.4943
hszhnphhszn쎯	-11.4949
pnnpzznhpn쎯	-11.4949
hzshszhsh쎯zzhhhz	-11.4952
쎁쎀pznpzn0쎯	-11.4952
nhpn2쎯pn2쎯	-11.4953
pn2쎯zhphsszh쎯	-11.4955
(shhhz쎯nhszhzpn쎯	-11.4957
pphszh쎯hsshz0쎯	-11.4959
nhszhszszh쎯zz2쎯	-11.4959
hshshphpn쎯hphz0쎯	-11.4961
4	-11.4962
ppshshshnznn쎯	-11.4964
nsnhhshpzhh쎯pn2쎯	-11.4966
phhhshhhznnznn쎯	-11.4968
nzhhshzn쎯pzhhs0쎯	-11.4971
ppszhhzpn쎯sz	-11.4972
nnzpzhsh0쎯nznn쎯	-11.4973
hzhhszhh쎯zzh	-11.4975
nhszs쎯szhs쎯	-11.4977
shhsszhhhpnphhz쎯	-11.4978
zhhznnpn0쎯.	-11.4979
hzshhhzn쎯nzshh쎯	-11.4981
zhpnszhpn쎯zhpn2쎯	-11.4981
쎇pzhh1쎯pshhsh0쎯	-11.4982
phshhshhzn쎯ps	-11.4984
hszpzhhznpzpzn쎯、	-11.4984
hszh1쎯shhspshz쎯	-11.4987
/쎁쎀쎀	-11.499
쎁쎈쎀쎀	-11.4991
pn2쎯hhpzpn0쎯	-11.4992
zph쎯hhsh1쎯	-11.4993
hhszs0쎯szpnphpn쎯	-11.4996
pzhh1쎯nhszhnzpz쎯	-11.4996
128쎯pn2쎯	-11.4997
hspnhszpn쎯phzn쎯	-11.4998
、pznsn쎯	-11.4999
nppnhz쎯snphpz쎯	-11.5
、hzhpznnnnn쎯	-11.5
nhszhnzpz쎯,	-11.5001
pnhzhhzpn쎯.	-11.5001
쎅hpz0쎯	-11.5001
.쎁쎉쎈쎁phhshs쎯	-11.5002
hpszss쎯hppzhh쎯	-11.5004
shhspzszh0쎯	-11.5004
pnzn0쎯hshsh0쎯	-11.5006
pzhh1쎯zzhznhsh쎯	-11.5006
nhnphszshpszss쎯,	-11.5007
pn4쎯hpnnzzn쎯	-11.5007
shszpn쎯npnsns쎯	-11.5007
pznhspn쎯zzhpzn0쎯	-11.5009
hpnz0쎯phspnszh1쎯	-11.501
hpzznp쎯nhnph쎯.	-11.5013
phspnszhpn1쎯쎁쎈	-11.5014
znzhhzpn쎯shhs	-11.5019
zshpnszhshn쎯n	-11.5022
”phspnpzzpn쎯sz	-11.5022
zzpn0쎯n	-11.5023
shszhnnnn쎯、	-11.5023
쎁pzhh1쎯,	-11.5025
hpzznp쎯phhshs쎯	-11.5026
た	-11.5028
,zpszh0쎯shh쎯	-11.5034
szhszhshhzpn쎯	-11.5034
phzn쎯zzh0쎯	-11.5035
znszh0쎯、	-11.5037
nhpnnznpsnhhhsh쎯	-11.5038
nhnphszhhhsh쎯	-11.5039
쎁쎀쎀pnhhspn1쎯	-11.5041
szhs쎯pszhhpzn쎯h쎯	-11.5046
쎃hpz0쎯	-11.5046
hpzp쎯szhpn3쎯,	-11.5046
szpnh0쎯	-11.5049
ㄟ	-11.5051
hzhppsn쎯psnhhsh쎯	-11.5052
hh0쎯phhz0쎯	-11.5052
,shszh1쎯	-11.5053
hhpn0쎯snz쎯	-11.5059
pzzshz쎯pshspnh0쎯	-11.506
phspnszhpn1쎯쎂쎀	-11.506
shshhz0쎯hhpzpn0쎯	-11.5063
phzhznp쎯nhszs쎯	-11.5063
hssnph쎯nzhzhs쎯	-11.5065
.《pphszh쎯sz	-11.5069
hhps2쎯,	-11.5071
hhhpn0쎯pnhhsh쎯	-11.5073
nnzzzh0쎯,	-11.5074
szhhhzn0쎯、	-11.5075
hnphs쎯nhszs쎯	-11.5075
phhz0쎯szhs쎯	-11.5078
쎅pzhh1쎯pshhsh0쎯	-11.5078
zzhszhpn0쎯.	-11.5079
쎁쎀pzhh1쎯pshhsh0쎯	-11.5081
hshzn0쎯zz2쎯	-11.5081
hspnsnppznn쎯	-11.5081
nzhp쎯,npszhnznn쎯	-11.5082
pzh0쎯phspnzzh0쎯	-11.5086
pznpn쎯、	-11.5087
hhshspnhszs115쎯,	-11.5087
hhshpzhhszpz쎯	-11.5087
쎁쎇phhshs쎯	-11.5089
znnhshszhnphppp쎯	-11.5091
shhszpszh1쎯zzh0쎯	-11.5094
hspnpzzn2쎯:	-11.5096
pszhhhznnnn쎯	-11.5097
h쎯nhpnnph0쎯psszh	-11.5099
hshhzn쎯,	-11.5099
nnnnpnsns쎯、	-11.5101
hznnzzn쎯nnzhzn쎯	-11.5101
hsznhszn쎯,	-11.5104
hpn1쎯hshszpn1쎯	-11.5107
shhszshz쎯shhs	-11.511
nnnphsszh쎯.	-11.5111
zpszh0쎯hzhnhnph쎯	-11.5114
nzpss쎯nnpnzzzh쎯	-11.5115
hpzznp쎯szhshn쎯	-11.5117
hsszh쎯szhhhzn2쎯	-11.5119
szhszh1쎯“	-11.512
szszhszpnh쎯hspn	-11.5124
ppzhnhzp0쎯zzh0쎯	-11.5124
zzhpznnn쎯phhshs쎯	-11.5129
”hszhhznp쎯“	-11.5133
pnzn0쎯pnhhpn0쎯	-11.5135
nppn쎯,	-11.5136
hshznphhpn쎯hsh	-11.5137
、znzn3쎯	-11.5138
szhs쎯szhhshnh쎯sz	-11.5139
hhzn1쎯szhhhzn0쎯	-11.5139
hszpnn쎯szhszh1쎯	-11.5139
nnnhszhz0쎯zzpn0쎯	-11.5142
hhz1쎯쎁쎉쎈쎄phhshs쎯	-11.5146
nnnpznzpszhsh쎯	-11.5147
shhhz쎯hnphs쎯	-11.5148
hpznhz1쎯,	-11.5149
,szhzpsz쎯	-11.515
.pznnhpnnnnnn쎯	-11.5151
(hpnshhhhzn쎯)	-11.5151
129쎯pphsszpn쎯	-11.5151
nphzpnzphphpn쎯:쎂	-11.5152
szhs쎯szs1쎯nhszs쎯	-11.5152
hpzznp쎯pphszh쎯	-11.5157
쎁쎁phhshs쎯	-11.5159
hzhhzhhshpn쎯.	-11.516
쎁쎉쎂쎃phhshs쎯	-11.5161
hpn1쎯nnphpn1쎯	-11.5165
hzhpnpnhsh쎯	-11.5165
nnnzzpp쎯nnnhs쎯	-11.5165
szs1쎯nnnphzznnh쎯	-11.5167
pznsn쎯hszhzhhz0쎯	-11.517
nzhsshzhspn쎯	-11.5173
phzn쎯;쎂쎀쎀	-11.5175
nhpspnzp쎯phhshs쎯	-11.5178
hhshpzszn쎯	-11.5181
nnnnhnphszhhhsh쎯	-11.5183
nhpn쎯	-11.5184
hszh1쎯h쎯	-11.5184
pszszh쎯hsn쎯	-11.5185
zzhpzhz쎯zhzphzn쎯	-11.5186
hsshhhpn0쎯szhs쎯p	-11.5186
쎁쎃phhshs쎯	-11.5188
pphszh쎯snz쎯	-11.5189
hsshz0쎯pshzn1쎯	-11.5191
hhps2쎯pphszh쎯	-11.5192
phhz0쎯hzhhzszhh쎯	-11.5193
phhszszhpn쎯zpnp쎯	-11.5193
nnnhsh쎯zzspzhh쎯	-11.5194
pphsnzzn쎯pz3쎯	-11.5195
szhs쎯hspnhpnz쎯	-11.5195
phzznnh쎯pns쎯pn2쎯	-11.5198
szhzzh1쎯	-11.5198
nhphsh쎯szhhpzh쎯	-11.52
pnhzn쎯hshzshp쎯』『	-11.5202
pzszhshh쎯、	-11.5203
zzhpzzn쎯h	-11.5206
쎀쎀쎁	-11.521
zzh5쎯szhhhsh1쎯	-11.521
pszhhpzn쎯znszpz쎯	-11.5218
hpsn0쎯zphzzh0쎯	-11.5219
zpn3쎯nnpnzzzh쎯,	-11.5219
snpnzszhhsh쎯、	-11.522
hsh2쎯szhhhhpn1쎯,	-11.5225
hpnz0쎯pnzp쎯	-11.5225
hzhs0쎯hhpsszhsh쎯	-11.5225
hzshhhzn쎯hhznzp쎯	-11.5228
nnzpzpz0쎯h	-11.5229
pznnsnphpz쎯	-11.5229
쎂쎁phhshs쎯	-11.5231
ト	-11.5231
hspnhspn쎯hspn0쎯	-11.5234
、pshpzn2쎯	-11.5235
szhhpzpp쎯	-11.5238
,snnhsh0쎯h	-11.5238
hhpn1쎯zphzhh쎯	-11.5239
hzhsnzn쎯phzn쎯	-11.5239
shzphzh	-11.524
hh0쎯szhhs2쎯	-11.5247
h쎯)	-11.5247
pshzn1쎯szhhz1쎯	-11.5249
hphz0쎯phzn쎯	-11.525
pn2쎯szh0쎯쎆	-11.5251
hhs쎯zzhhhznp0쎯	-11.5252
nhpznzz쎯.	-11.5254
pshhzn1쎯nzzhz쎯	-11.5254
ㄚ	-11.5254
szhsnzpznn쎯sz	-11.5255
pzpn쎯	-11.5257
쎆쎀pnhhspn1쎯	-11.5258
hpnz쎯	-11.526
pzpn2쎯pnnphspn쎯	-11.5261
,hhpsppp0쎯	-11.5263
nnzhssszpz쎯쎁	-11.5263
쎃nphzpn쎯	-11.5264
hszn0쎯hspnnhhsh쎯	-11.5265
szhhnhszhzpn1쎯	-11.5265
npszhnznn쎯phnphn	-11.5267
nzshh쎯pszsz쎯	-11.5272
:쎉쎇쎈쎇	-11.5274
nzphsszh쎯,	-11.5274
hpshsh쎯“	-11.5276
szhhpzpnz쎯	-11.5278
nhp쎯szhhz2쎯	-11.5283
zs0쎯nzhzhs쎯	-11.5288
hhznzp쎯hzhs0쎯	-11.529
pn2쎯hpsn0쎯	-11.5291
nnnnzzpn쎯nnnzsz쎯	-11.5293
psnhhhszh쎯』『	-11.5294
쎁쎆phhshs쎯	-11.5294
nphspnhsshpn쎯	-11.5297
szhphzhznp쎯	-11.5299
znnn0쎯phspnzzh0쎯	-11.5299
pzzshz쎯hpznsz쎯	-11.5303
,pn3쎯	-11.5304
hspnhzp0쎯,	-11.5306
nzph	-11.5307
.hpsn0쎯hznnzzn쎯	-11.5308
nhszs쎯pnzn0쎯	-11.531
hsszhhhshznp쎯	-11.5311
hspnhpzn0쎯,	-11.5312
npzn0쎯pspzzpn쎯	-11.5312
쎁쎀쎀hsszhpz쎯,	-11.5313
hshpzzh0쎯	-11.5313
т	-11.5316
hhshszssh쎯	-11.5318
pn3쎯zz2쎯	-11.532
nppnnppn0쎯,	-11.5321
0쎯hzhphz0쎯hzhs0쎯	-11.5326
pshz1쎯phspnszh1쎯	-11.5327
zzhzhhznnpn0쎯sz	-11.5329
hpnn0쎯nnzhhspn쎯	-11.5331
nhpn0쎯szpn1쎯	-11.5333
shpznznnphzpn쎯	-11.5334
쎁쎀pn2쎯	-11.5336
pszszh쎯hszpzh쎯	-11.5336
szhhhsh1쎯.	-11.5337
쎀쎀nhszhsh쎯.	-11.5337
hhpsppp0쎯hznhsh쎯	-11.5338
hszpzh쎯snz쎯	-11.5339
shhhz쎯zzhhhzs쎯	-11.5343
、pzhshszh쎯	-11.5343
zsphpn쎯hznhshsz쎯	-11.5344
ppshshhshhhz쎯,	-11.5346
hsszhpz쎯sz	-11.5354
リ	-11.5354
hzzp0쎯zzzzh쎯	-11.5357
zhpnhszh쎯pzzpn1쎯	-11.5358
shzphzpzppp쎯	-11.5363
,phhpszhhh쎯	-11.5365
nnnhsh쎯shhhz쎯	-11.5366
hshzn0쎯,	-11.5369
zpnpszhhh쎯nhpn2쎯	-11.5369
pszhh0쎯hhshn0쎯	-11.537
nzhszhszh쎯.	-11.5375
hsznphspn쎯	-11.5375
szpnsz1쎯szpnsz1쎯	-11.5376
phsszhz쎯,	-11.5377
,nhpsnszhhh0쎯	-11.5385
,nphhshnphszh쎯	-11.5387
》:	-11.5387
h쎯nnzzzh0쎯	-11.5388
쎁쎁pzhh1쎯,	-11.5391
zhhznzs쎯hpzznp쎯	-11.5391
hzhnhnphzph쎯pn3쎯	-11.5392
、nnnszhhszssh쎯	-11.5393
、nnnhsh쎯hszpzh쎯	-11.5394
、pzpn2쎯	-11.5394
쎆쎀hsszhpz쎯	-11.5394
,pnpn1쎯shshhz0쎯	-11.5395
zpn3쎯zzhnhzppn0쎯	-11.5395
zzhpzzn쎯p	-11.5395
zz2쎯h쎯hzhhzhz0쎯	-11.5399
hshhpzznp쎯szpn1쎯	-11.5403
hp1쎯,	-11.5403
psnhnph쎯hhz1쎯sz	-11.5404
zshz0쎯pzzpn1쎯	-11.5404
znszh0쎯nhszs쎯	-11.5405
hhpn0쎯nnnhszhz0쎯	-11.5405
szhhpnz쎯szhhsh1쎯	-11.5407
hpszss쎯hhpz1쎯	-11.5409
hppzhh쎯hhh쎯	-11.541
zhzhps쎯nsnphhsh쎯	-11.541
116쎯szshpszh0쎯	-11.5415
pznnzshz쎯nnnp	-11.5415
hz2쎯zhpszhsh1쎯	-11.5416
zzpn0쎯hnphs쎯,	-11.5417
zzp쎯、	-11.5419
szhhnhszhzpn0쎯,	-11.542
,szh	-11.542
zzpn0쎯nnnhszhz0쎯	-11.5422
szhhhzn2쎯npzn0쎯	-11.5425
hszhnph	-11.5425
hhznzp쎯zz2쎯	-11.5428
znnnszhshn쎯	-11.5431
hspnh0쎯hnphspn쎯	-11.5433
nhpzpnnzzn쎯,	-11.5435
zhhznnpn쎯	-11.5438
hs1쎯pns쎯	-11.544
nphhpnszhhh쎯	-11.5445
pnhhsh쎯phhshs쎯	-11.5445
(),szhhhshpn쎯	-11.5445
phhhzhspnh쎯	-11.5445
nhpzpnzn쎯pshz1쎯.	-11.5446
,nnnnhhsh쎯	-11.5446
hsh2쎯pnhhzn쎯nh	-11.5448
nhzpphphhpn쎯.	-11.545
nhpnzsszshn쎯zzp쎯	-11.5454
쎀쎀쎀pznpzn0쎯hnphs	-11.5456
쎉nhszhsh쎯	-11.5456
phspnpsnhhhsh쎯	-11.5458
hpszss쎯hpshsh쎯	-11.5459
hpz0쎯pn2쎯,	-11.5462
쎁쎂pzhh1쎯hznhsh쎯	-11.5463
pssphpn	-11.5467
nzszhshpzhh쎯“	-11.5468
shszpn쎯	-11.5468
,쎁쎉쎇쎉phhshs쎯	-11.5468
zhhhzn쎯hznnpnn쎯	-11.5469
hhz1쎯쎁쎉쎈쎅phhshs쎯	-11.547
ssnph쎯hpnz0쎯	-11.547
nhpn2쎯nhnpnzszs쎯	-11.5471
pphszh쎯,pshhsh0쎯	-11.5472
쎁hshhpszpn쎯,	-11.5473
zpn3쎯nnpnzzzh쎯、	-11.5473
쎀쎀pnhhspn1쎯pn2쎯,	-11.5475
shnpn쎯shh쎯.	-11.5476
zzspshzn쎯hppzhh쎯	-11.5478
hpn1쎯pszhhh0쎯	-11.548
szhhhs0쎯s	-11.548
,hzhnhpz쎯	-11.5483
hpszh1쎯hspnhzp0쎯	-11.5485
pn3쎯hhshzn3쎯	-11.5485
zzsnnzhhpz쎯)	-11.5486
쎃pzhh1쎯hznhsh쎯	-11.5486
snpnzszhszs쎯p	-11.5487
szhs쎯phzn쎯	-11.5488
zhhznzs쎯psnhnph쎯	-11.5488
zzhpnhszh쎯zz2쎯	-11.5491
zphszhpznn쎯	-11.5494
hhpn0쎯pszhhhhsh쎯	-11.5496
zshz0쎯hzhnhnph쎯	-11.5498
nnhpn쎯hspnhzn0쎯	-11.5499
pznzp쎯pznpn쎯	-11.5499
(쎅zhzphzn쎯)	-11.5503
hshhszhhznp쎯:	-11.5506
nnzzph쎯zzsnhzp쎯	-11.551
szhshnhspnpphs쎯	-11.5512
pszhhh0쎯hnphspn쎯	-11.552
hpszhpzpn0쎯	-11.5522
phhhzszhs쎯』『	-11.5524
hszh0쎯pshhzn1쎯	-11.5527
쎀pns쎯	-11.5528
hsszhhhhpn0쎯pn2쎯	-11.5528
hhzn0쎯npzn0쎯	-11.553
hspnnnzszhzh쎯	-11.5531
pnhnnph쎯	-11.5532
phshpzpp쎯pspnps쎯	-11.5532
zzhszhsh1쎯zpn3쎯	-11.5535
pzzpn1쎯pznpzn0쎯	-11.5536
nzzhszh쎯.	-11.5538
nzznnznnpnppp쎯	-11.5539
pshz1쎯.	-11.5539
szhshpn1쎯shnpn쎯	-11.5545
nnnhszhz0쎯shh쎯	-11.5547
쎅쎀쎀zhzszhszhshn쎯	-11.5548
.쎀쎀hhpz0쎯	-11.5552
hspnpspzhs쎯	-11.5553
、ppsszshpzphpn쎯	-11.5555
znpznzh쎯nnnzzpp쎯	-11.5556
npzn0쎯shhhzpznn쎯	-11.5557
zz쎯	-11.5558
쎁쎁pzhh1쎯pshhsh0쎯	-11.5559
,hpszhhpszpn쎯	-11.5559
hhps2쎯ppzhpphs쎯	-11.556
쎀phhshs쎯)	-11.5565
、nhp쎯npnsns쎯	-11.5569
hpznhz1쎯.	-11.5569
hshzshp쎯pshpzn2쎯	-11.5571
쎂pzhh1쎯,	-11.5572
쎂pzhh1쎯pshhsh0쎯	-11.5573
pshzhpzn쎯hspnzn쎯	-11.5573
,szhh3쎯	-11.5576
쎁nhszhsh쎯	-11.5576
hshnhzpphpn쎯	-11.5579
nphhh쎯shhspshz쎯	-11.5581
,쎁쎉쎆쎂phhshs쎯	-11.5583
》phnphnzhzsp쎯h쎯	-11.5584
nppn쎯nnznppn쎯	-11.5584
쎁pzhh1쎯phhsh1쎯,	-11.5586
hpzp쎯szhpn3쎯ps	-11.5587
zphhszhspnphpn쎯,	-11.5588
pnhz0쎯pphszh쎯	-11.5588
zsz0쎯hpshsh쎯	-11.5589
쎅쎀phhshs쎯	-11.5589
zpnp쎯hspnhspn쎯	-11.5592
nnnhpzhhsnhzn쎯,	-11.5593
)hpzznp쎯nhnph쎯	-11.5594
nhzp쎯nnnhshzn쎯、	-11.5595
hhshzzph쎯h	-11.5595
쎀nhszhsh쎯.	-11.5597
nhpsnhsh쎯,	-11.5598
hszh0쎯nhpn0쎯	-11.5601
nhzp쎯phhhzhs쎯,	-11.5601
hpsnnzzn쎯pnhhzn쎯	-11.5602
ppshshhshhhz쎯、	-11.5602
hsh2쎯szhhhhpn1쎯.	-11.5603
nnpzpnszpn쎯zp1쎯	-11.5606
szhh3쎯hpzp쎯	-11.5607
pz0쎯szhszpn3쎯、	-11.5608
.쎂쎀쎁쎄phhshs쎯	-11.5611
nzzp0쎯pphsszhhh쎯	-11.5612
zzpp쎯	-11.5612
szszs0쎯ppzhpphs쎯	-11.5613
쎁쎉쎁쎂phhshs쎯	-11.5615
、nzpzzn쎯nzhs쎯、	-11.5617
쎁.snnpnnphzn쎯	-11.5618
pznsn쎯psphzp쎯	-11.5622
nhpnnhszhnph쎯	-11.5622
nphzpnzphphpn쎯:쎁	-11.5623
nhszhzzhpznhsh쎯	-11.5623
zpznn쎯hpnnzzn쎯,	-11.5625
zhz0쎯pshhsh0쎯	-11.5627
pznnpzzn1쎯、	-11.5629
shpzpn쎯psphhs1쎯/	-11.5629
szhsh2쎯pn2쎯hsh2쎯	-11.5632
き	-11.5632
hznhshpzn쎯,	-11.5633
szhhhshpn쎯p	-11.5634
hzshhhshzn쎯	-11.5634
hhpz1쎯hhshzzph쎯	-11.5635
hh0쎯szhhhshpn쎯	-11.5636
phhhznphspnzph쎯	-11.5636
、zpznn쎯	-11.564
szhznznznhspn쎯	-11.5641
쎀쎈phhshs쎯	-11.5641
ラ	-11.5641
hhz1쎯쎁쎉쎈쎈phhshs쎯	-11.5642
zzhpzzn쎯(쎀-쎅):	-11.5642
hszsn쎯nhpshszh쎯	-11.5645
szhh3쎯nhpn2쎯	-11.5647
hh0쎯shszhhznp쎯	-11.5647
hhzn0쎯phzn쎯	-11.5648
hh0쎯szhs쎯	-11.5648
hhps2쎯hhpz0쎯	-11.5653
nphzpn쎯phzn쎯	-11.5656
nnpzzhhz쎯zzpn0쎯	-11.5657
,ps	-11.5657
pshhsh0쎯pznzp쎯,	-11.5658
npnsns쎯nhppshzn쎯	-11.5661
hzzp0쎯nnznnhpn쎯	-11.5661
pszhhhnznn쎯:	-11.5666
shhspshz쎯,	-11.5666
hshznzs쎯hpsn0쎯	-11.5667
pzpszhhhsh0쎯	-11.5668
zzhhsh쎯shhspshz쎯	-11.567
hsshz0쎯snzszhh쎯	-11.567
nnzshhsszhhhpn쎯	-11.5671
쎯shhsnznn쎯pshz2쎯	-11.5671
hs1쎯pn4쎯phhshs쎯	-11.5672
pzpnzs쎯hzzp1쎯	-11.5672
hhz1쎯nhp쎯hzzpn0쎯	-11.5673
@	-11.5674
hhpz1쎯phhz1쎯,	-11.5674
nphzpn쎯nphhh쎯	-11.5674
hhshshznpznzh쎯	-11.5678
hpszh1쎯snz쎯	-11.5681
snzpn0쎯snphpz쎯	-11.5684
nnnszhhhzhz쎯nnn	-11.5686
hzshszhhhzhz쎯	-11.5688
hspnzn쎯,	-11.5693
shszhnphszhnnnn쎯	-11.5694
nhpsnhsh쎯hpnz0쎯.	-11.5694
pznhspn쎯.	-11.5695
hs1쎯hpz0쎯	-11.5695
pzhhhhhszpnzn쎯,	-11.5696
hs1쎯hh0쎯phhshs쎯	-11.5697
쎅쎀nhszhsh쎯	-11.5697
쎁phhhzhhznp쎯,	-11.5699
pzpn2쎯hspnpz2쎯	-11.57
、shhspnhspn쎯	-11.5702
hznhshsz쎯h쎯pns쎯	-11.5705
ppznnh쎯szs1쎯	-11.5706
nhpn0쎯nznn쎯	-11.5707
쎀쎉phhshs쎯	-11.5708
pz0쎯hhps2쎯zpznn쎯	-11.5709
szsz쎯	-11.571
쎅pnzp쎯	-11.571
、hnphs쎯	-11.5714
、hpszh	-11.5715
hpzn1쎯pn2쎯	-11.5715
,phhz2쎯	-11.5717
쎉pn2쎯,	-11.5718
nhpn0쎯hshzsz쎯.	-11.572
nnnpphs쎯nhszs쎯	-11.5725
hsszh쎯nhpn2쎯	-11.5726
쎁쎉쎂쎂phhshs쎯	-11.5727
hshhhshphzszhh쎯	-11.5727
phhshs쎯pzhh1쎯	-11.5728
pnhhsh쎯zp1쎯	-11.5728
hpn1쎯zp1쎯zpznn쎯	-11.5732
쎉hpszhhhsh0쎯	-11.5733
npzn0쎯hshsh0쎯	-11.5734
쎁쎄phhshs쎯	-11.5735
zzpn0쎯psnhnph쎯	-11.5735
nnpnhzn쎯shh	-11.5736
,쎁쎉쎇쎈phhshs쎯	-11.5737
phhhzhsshh쎯	-11.5737
psshnpn쎯hhz1쎯	-11.5739
nhp쎯hshzzpp쎯、	-11.5739
zp1쎯hhz1쎯npzn0쎯	-11.5741
pzzzh쎯zphzhh쎯	-11.5741
snz쎯snnpnnphzn쎯	-11.5751
zpn쎯	-11.5756
ㄑ	-11.5758
zhzs1쎯pzhhs0쎯	-11.5761
、zzhnnzhhspn1쎯	-11.5761
,nphhps쎯znhzn0쎯	-11.5762
nphhshszssh쎯shh쎯	-11.5763
nhnphhspn쎯hzzp0쎯	-11.5764
psnhzp쎯pszhzps쎯	-11.5765
,nnnpzszh0쎯	-11.5766
pshpnnpszhhzpn쎯	-11.5766
hpnz0쎯npszhnznn쎯	-11.5772
hpn1쎯pnhhzn쎯p	-11.5773
pn3쎯hsszzhpzn쎯	-11.5775
szhhhspn쎯	-11.5776
spnhhps쎯hshzsz쎯쎂	-11.578
nzpnpz쎯nhpn2쎯《	-11.5783
nzhszhszh쎯;	-11.5785
pzhhs0쎯;	-11.5785
szhs쎯hszsn쎯	-11.579
pspnps쎯hzhz1쎯	-11.579
hpznhz1쎯hhz1쎯	-11.579
szhs쎯nppn쎯	-11.5791
hzhhshhzn쎯pzn1쎯	-11.5791
hpn1쎯nhphspn쎯	-11.5792
npzn0쎯"	-11.5792
쎁쎉쎂쎀phhshs쎯	-11.5794
szhshzp1쎯,sz	-11.5794
hszhhpnnszhszh쎯h	-11.5794
zphhspn쎯	-11.5796
szhhhzn2쎯hszhz1쎯	-11.5803
nzzhszh쎯pznhspn쎯	-11.5804
znnhphpnzznzpn쎯s	-11.5808
hshhz1쎯hsszhpz쎯	-11.5809
shhszphszh쎯	-11.5809
hshznszssh쎯	-11.5815
hshzn1쎯pzzpn1쎯	-11.5815
nnnhsshpn쎯zzpn0쎯	-11.5815
pn2쎯,hpn1쎯hhzn0쎯	-11.5818
zhhznnpn0쎯pshz2쎯	-11.582
shh쎯nhnpnzszs쎯	-11.582
hshnhnphszh쎯.	-11.5821
pzzh쎯hzhnhnph쎯	-11.5824
hzp0쎯szhhhshpn쎯	-11.5824
pznpzn0쎯pzhhs0쎯	-11.5824
、nnspznhszpzhh쎯	-11.5825
nhpn0쎯szhs쎯.	-11.5826
zpphzsz쎯ppshhz쎯.	-11.583
pznhzs쎯	-11.5832
.hssnphszhh쎯	-11.5832
,hzhpszpn0쎯	-11.5833
pshhsh0쎯hznnzzn쎯	-11.5835
szszhh0쎯hzhzszn쎯	-11.584
hpnz0쎯psnhnph쎯	-11.5842
pn1쎯nnzpnpnszh쎯,	-11.5844
,pnhpszs쎯	-11.5846
zhhzpnnznn쎯	-11.5848
hh0쎯hs1쎯pznpzn0쎯	-11.585
、hhpnszpz쎯	-11.5855
pshspnh0쎯shh쎯	-11.5857
-쎀쎁ppzhpphs쎯	-11.5858
hspnnphhhs쎯,	-11.5858
hssnzhspn쎯nhnph쎯	-11.5858
、szhh3쎯hspnh0쎯	-11.586
nnshshnhpzpn쎯sz	-11.5861
・	-11.5861
nznn쎯szhhhsh1쎯	-11.5861
zn2쎯hszhz1쎯	-11.5861
hsh2쎯nhpznzz쎯	-11.5863
hsszs쎯zpnpszhhh쎯	-11.5865
shhspzphhszs쎯n	-11.5865
zzpn0쎯nsnphhsh쎯	-11.5866
hshpss쎯	-11.5866
hpn1쎯nnnphzznnh쎯	-11.5866
hhhpnszhh쎯hsszs쎯	-11.5867
szhhhzn0쎯)	-11.5868
pshspnh0쎯hzh	-11.5868
psz쎯hhpz0쎯p	-11.5868
と	-11.587
g	-11.587
szhhhh	-11.5874
hpzn2쎯szhhzsh쎯	-11.5874
phhz1쎯.	-11.5875
hsszhpzhsszhpz쎯	-11.5875
nphzpnpnzp쎯쎁	-11.5877
nnnhznpsz0쎯、	-11.5879
hsnzzzh쎯	-11.588
szhhz2쎯zzh0쎯h	-11.5882
pn3쎯psnhhsh쎯	-11.5883
nnzpzpz0쎯》、《	-11.5883
pszhzps쎯sz	-11.5884
nnzhhshn쎯sz	-11.5885
쎇pzhh1쎯zpszh0쎯pn	-11.5886
hzhhz0쎯hsh2쎯	-11.5887
hpz0쎯phshpzpp쎯	-11.589
hh0쎯hpszhh쎯	-11.5891
nnzzphhspn쎯,	-11.5892
hhhpnszhh쎯nhszs쎯	-11.5893
215쎯nhpnzsszshn쎯	-11.5893
hzzp0쎯hshzhpn1쎯	-11.5894
hshshpnzhz0쎯nh	-11.5897
pz0쎯hspnpz2쎯	-11.59
,hsshpn쎯szhszh1쎯	-11.5907
pphsnzzn쎯쎂쎀	-11.5909
zzhhpnhszhz0쎯	-11.5909
hzhszhhhsh0쎯	-11.5911
h쎯、hh0쎯	-11.5912
hhshhpnhszhz쎯	-11.5913
[...]
