[PAD]	0
[UNK]	0
[CLS]	0
[SEP]	0
[MASK]	0
▁the	-2.89883
.	-3.13247
,	-3.28157
▁of	-3.60357
▁in	-3.63838
▁and	-3.77491
▁a	-3.97996
▁to	-4.27171
s	-4.3136
▁was	-4.43752
▁is	-4.61109
▁"	-4.81637
-	-4.83849
▁on	-4.97458
▁for	-4.99242
▁he	-5.00356
▁as	-5.06915
▁by	-5.154
"	-5.16803
'	-5.18052
▁with	-5.21854
▁at	-5.25944
▁(	-5.28615
▁	-5.32572
▁from	-5.39195
▁it	-5.45974
▁his	-5.51225
▁an	-5.6674
▁that	-5.79675
)	-5.88737
▁were	-6.12174
▁are	-6.15598
▁which	-6.16567
▁also	-6.17836
▁has	-6.17965
:	-6.20781
▁first	-6.21759
▁she	-6.21961
;	-6.32151
▁this	-6.41148
▁after	-6.47116
▁one	-6.47416
▁her	-6.4798
▁or	-6.48238
▁had	-6.48691
▁be	-6.50029
▁its	-6.51227
a	-6.51755
▁who	-6.51891
▁new	-6.52298
▁two	-6.59699
",	-6.67246
▁their	-6.68992
▁but	-6.76948
th	-6.83215
▁school	-6.83566
".	-6.8363
▁university	-6.85092
▁been	-6.85195
▁they	-6.86141
▁may	-6.87296
▁during	-6.91126
e	-6.91196
▁have	-6.95643
▁national	-6.96139
▁all	-6.96592
▁not	-6.96921
the	-6.97945
▁other	-7.00321
▁season	-7.02583
▁career	-7.02782
▁there	-7.04093
▁team	-7.04355
▁years	-7.0541
▁when	-7.08035
).	-7.08357
▁world	-7.0866
▁film	-7.09161
),	-7.11685
i	-7.11827
▁district	-7.1196
▁where	-7.13202
▁state	-7.13844
▁known	-7.14268
▁time	-7.14427
▁city	-7.15046
▁into	-7.15495
▁south	-7.16681
▁played	-7.17536
▁family	-7.18001
▁american	-7.18208
▁united	-7.19555
▁three	-7.19853
▁under	-7.20546
▁de	-7.20676
▁over	-7.20845
▁part	-7.21797
▁history	-7.22728
▁year	-7.22941
▁later	-7.23953
▁between	-7.26033
▁made	-7.2627
▁became	-7.27156
▁league	-7.28256
▁second	-7.29593
▁album	-7.30944
▁up	-7.32352
▁north	-7.32646
▁born	-7.32994
d	-7.33214
▁life	-7.33224
▁county	-7.33863
▁club	-7.3518
▁won	-7.36048
▁name	-7.36078
born	-7.36552
t	-7.36574
▁only	-7.37266
n	-7.37353
▁then	-7.37747
▁states	-7.38579
▁located	-7.39051
▁more	-7.39546
▁most	-7.40548
▁about	-7.40637
▁released	-7.41151
▁–	-7.4197
▁member	-7.42475
▁music	-7.42743
▁1	-7.42909
▁until	-7.43703
▁early	-7.46847
▁out	-7.46919
▁football	-7.47075
▁following	-7.47587
▁area	-7.47687
▁including	-7.48103
▁college	-7.49074
▁village	-7.49124
▁no	-7.49733
▁before	-7.50906
▁group	-7.51065
y	-7.51199
▁series	-7.52253
▁used	-7.52322
▁company	-7.52706
▁work	-7.5297
▁war	-7.5309
▁since	-7.53343
/	-7.53382
o	-7.53492
▁well	-7.53556
▁high	-7.53699
▁people	-7.53925
c	-7.54487
▁march	-7.54584
▁january	-7.55692
▁while	-7.55895
▁served	-7.55904
▁can	-7.56095
▁population	-7.5613
in	-7.56196
▁station	-7.56275
▁i	-7.56371
▁some	-7.5737
▁international	-7.57463
▁species	-7.58459
ing	-7.59182
▁september	-7.59882
▁four	-7.60142
▁house	-7.60342
▁july	-7.60394
▁august	-7.6134
▁through	-7.61472
▁june	-7.61652
▁being	-7.61888
▁him	-7.62025
▁october	-7.62585
▁age	-7.6264
▁against	-7.62919
▁many	-7.62981
▁town	-7.63517
▁both	-7.63894
▁april	-7.64969
▁such	-7.64996
▁would	-7.65293
▁2	-7.6558
▁west	-7.65688
▁november	-7.66085
m	-7.66248
▁held	-7.67372
▁december	-7.68074
▁&	-7.69917
▁named	-7.70277
▁former	-7.70832
▁number	-7.71816
ed	-7.72545
▁3	-7.72679
▁song	-7.7311
amp	-7.73444
er	-7.73447
▁than	-7.73665
▁several	-7.7405
▁february	-7.76521
▁church	-7.76915
▁river	-7.77984
▁john	-7.78356
▁died	-7.79951
▁found	-7.79964
▁east	-7.80726
▁place	-7.80732
▁women	-7.81118
▁band	-7.81287
▁st	-7.81895
▁party	-7.82011
▁u	-7.82157
▁york	-7.82193
▁best	-7.829
▁4	-7.83565
▁home	-7.85045
▁these	-7.85573
▁called	-7.85789
▁games	-7.87629
▁received	-7.87751
▁general	-7.87938
▁built	-7.88434
▁single	-7.88679
▁game	-7.89826
▁began	-7.90167
▁government	-7.90335
▁published	-7.9117
▁each	-7.91257
▁final	-7.91742
▁m	-7.91844
▁same	-7.92011
r	-7.92014
’	-7.92094
▁building	-7.92432
▁division	-7.93193
▁line	-7.93646
▁however	-7.94241
▁10	-7.94616
▁british	-7.95089
▁long	-7.95134
▁5	-7.95728
▁took	-7.95871
▁co	-7.96286
▁end	-7.96479
▁based	-7.96482
▁public	-7.96795
&	-7.96865
▁will	-7.97112
▁include	-7.97223
▁cup	-7.9741
▁professional	-7.97472
▁local	-7.97557
▁president	-7.97737
▁son	-7.98285
▁education	-7.98479
▁award	-7.99903
▁so	-8.00031
▁b	-8.0069
▁park	-8.01122
▁service	-8.01491
▁men	-8.02024
▁d	-8.02046
▁18	-8.02779
ly	-8.0373
▁championship	-8.0402
▁them	-8.0415
b	-8.04828
▁death	-8.05749
▁five	-8.06241
▁moved	-8.06288
▁married	-8.06547
▁player	-8.07135
▁road	-8.07189
▁art	-8.07325
▁children	-8.0766
▁now	-8.07727
▁third	-8.07994
▁()	-8.0831
l	-8.08433
▁along	-8.08727
▁book	-8.08768
▁director	-8.08774
▁main	-8.0883
▁play	-8.09021
▁central	-8.09564
▁re	-8.09567
▁around	-8.09634
▁refer	-8.09773
▁worked	-8.09904
▁council	-8.10006
▁top	-8.10676
▁small	-8.10865
▁show	-8.11069
▁-	-8.11473
▁english	-8.11475
▁members	-8.11815
▁6	-8.12075
▁c	-8.12873
▁election	-8.13908
▁joined	-8.14019
▁due	-8.14696
▁12	-8.14972
▁research	-8.15076
▁day	-8.1517
k	-8.1518
▁debut	-8.15188
▁community	-8.15467
▁side	-8.15562
▁title	-8.16218
▁london	-8.16572
an	-8.16616
▁major	-8.17153
▁left	-8.17228
▁20	-8.17689
man	-8.17785
▁head	-8.17892
▁census	-8.18129
▁french	-8.18431
▁back	-8.18547
▁father	-8.18635
▁summer	-8.1893
")	-8.19033
▁century	-8.19057
▁within	-8.19259
▁association	-8.19544
▁near	-8.19637
▁'	-8.19816
▁included	-8.20033
▁round	-8.20655
▁("	-8.20701
▁list	-8.20862
▁founded	-8.21033
▁last	-8.21173
▁started	-8.21758
▁system	-8.22052
lt	-8.22304
▁region	-8.22353
▁television	-8.2274
▁province	-8.22791
▁record	-8.22891
▁elected	-8.22932
▁8	-8.2385
▁german	-8.23893
en	-8.23956
▁use	-8.24019
▁center	-8.2409
▁country	-8.24461
▁la	-8.24543
▁7	-8.25114
▁per	-8.25291
▁established	-8.25737
▁law	-8.26286
▁described	-8.2689
▁works	-8.2727
▁9	-8.27352
▁island	-8.27457
▁ii	-8.28148
on	-8.29014
▁according	-8.2912
u	-8.29274
▁development	-8.29323
▁total	-8.29588
g	-8.2981
▁white	-8.29955
▁department	-8.30569
▁england	-8.3087
es	-8.30946
▁set	-8.31395
▁san	-8.31596
▁office	-8.31825
▁teams	-8.32384
▁order	-8.3242
▁11	-8.32447
▁appointed	-8.32472
▁event	-8.32568
▁street	-8.32645
gt	-8.33128
▁like	-8.33181
▁six	-8.33396
▁tournament	-8.33458
▁india	-8.33787
st	-8.34081
▁15	-8.34158
▁did	-8.34763
▁australia	-8.35197
▁railway	-8.3532
▁western	-8.35393
▁old	-8.3543
p	-8.35473
▁union	-8.35579
▁land	-8.35826
▁times	-8.35862
▁written	-8.36231
▁produced	-8.36317
▁large	-8.36617
▁currently	-8.36678
▁army	-8.36723
▁al	-8.36739
▁water	-8.36931
al	-8.37734
▁playing	-8.37747
h	-8.38149
▁awards	-8.38311
▁court	-8.3861
▁13	-8.38676
▁went	-8.39073
▁original	-8.39109
▁business	-8.39293
▁radio	-8.39303
▁royal	-8.39338
▁another	-8.39485
▁king	-8.39759
▁14	-8.39775
▁coach	-8.39942
▁e	-8.40186
▁air	-8.40725
▁man	-8.41039
to	-8.41048
▁signed	-8.41105
▁society	-8.41147
▁any	-8.41371
▁own	-8.41551
▁role	-8.41679
▁among	-8.41694
▁late	-8.42062
▁2010	-8.42074
▁site	-8.4264
▁northern	-8.42751
▁production	-8.42881
▁16	-8.43147
▁led	-8.43678
▁because	-8.43992
▁william	-8.44135
▁non	-8.4544
us	-8.45448
▁recorded	-8.45524
▁great	-8.45655
▁created	-8.45849
▁19	-8.46127
▁short	-8.46305
▁california	-8.46378
▁lake	-8.46908
▁political	-8.4694
▁professor	-8.46979
▁km	-8.47021
▁european	-8.47053
▁board	-8.47139
▁post	-8.47282
▁records	-8.47477
–	-8.4752
▁black	-8.47869
▁australian	-8.48114
▁returned	-8.48176
▁france	-8.48505
▁those	-8.48718
▁announced	-8.48804
▁o	-8.48843
▁hall	-8.49008
▁southern	-8.49472
or	-8.49863
▁track	-8.50029
▁if	-8.50065
▁still	-8.50269
▁again	-8.50379
▁us	-8.50791
▁various	-8.5086
▁museum	-8.50874
▁canada	-8.50951
▁video	-8.50998
▁championships	-8.51119
▁2011	-8.51186
▁competition	-8.5125
▁minister	-8.51291
▁2006	-8.51657
▁very	-8.51948
▁directed	-8.51992
▁off	-8.52002
▁institute	-8.52091
▁average	-8.52135
▁s	-8.5216
▁although	-8.52207
▁25	-8.52255
▁young	-8.52315
▁living	-8.52391
▁opened	-8.5246
▁j	-8.52745
▁personal	-8.52813
▁academy	-8.52826
▁together	-8.52949
▁form	-8.53031
▁program	-8.53177
▁indian	-8.53346
▁came	-8.53711
▁competed	-8.53861
▁open	-8.54515
f	-8.54535
▁race	-8.54704
▁field	-8.54752
▁just	-8.55012
▁daughter	-8.55015
▁do	-8.55201
▁wife	-8.55332
▁17	-8.5535
▁down	-8.55354
▁design	-8.55451
▁science	-8.55457
▁100	-8.55798
▁rock	-8.5584
▁having	-8.56212
▁period	-8.5633
la	-8.56576
▁george	-8.56684
▁appeared	-8.56738
▁different	-8.56853
▁military	-8.57024
▁historic	-8.57261
▁rural	-8.57342
▁services	-8.57638
▁medal	-8.58122
▁given	-8.58145
▁30	-8.58179
▁olympics	-8.58236
▁festival	-8.58443
▁win	-8.58581
▁students	-8.58941
▁originally	-8.59164
▁sea	-8.59381
na	-8.59573
▁red	-8.59771
▁wrote	-8.59842
▁2012	-8.60014
▁match	-8.60209
▁project	-8.60352
▁james	-8.60386
▁live	-8.60552
▁events	-8.60687
le	-8.60803
▁million	-8.60838
▁style	-8.60929
▁2014	-8.60991
▁position	-8.61218
▁awarded	-8.61226
▁degree	-8.61486
z	-8.61674
▁release	-8.61679
▁arts	-8.61761
▁america	-8.61787
▁genus	-8.62052
▁g	-8.62103
▁finished	-8.62109
▁could	-8.62173
▁f	-8.6238
▁municipality	-8.62655
▁said	-8.62735
▁working	-8.62864
▁level	-8.62912
year	-8.63072
▁2016	-8.63319
▁full	-8.63647
re	-8.63722
▁t	-8.6384
▁senior	-8.64089
▁k	-8.64121
2	-8.64142
▁germany	-8.64178
▁next	-8.64912
▁2015	-8.64932
▁1,	-8.65057
▁p	-8.65063
▁songs	-8.65208
▁often	-8.65302
▁every	-8.65328
▁version	-8.65575
▁centre	-8.65821
▁committee	-8.65922
▁studio	-8.65931
▁become	-8.65943
▁formed	-8.65984
▁run	-8.66044
▁tour	-8.66409
▁2013	-8.667
▁listed	-8.66977
▁point	-8.67354
▁current	-8.67868
▁lost	-8.68035
▁r	-8.68153
▁route	-8.68161
▁plays	-8.68205
▁biography	-8.68489
▁represented	-8.68601
▁canadian	-8.68853
▁social	-8.68998
▁l	-8.69765
▁gold	-8.69937
▁present	-8.70443
▁families	-8.70516
▁power	-8.71042
▁go	-8.71088
▁brother	-8.71972
▁way	-8.72353
▁construction	-8.72555
▁21	-8.72943
▁players	-8.72972
▁chief	-8.73171
▁assembly	-8.73624
▁2018	-8.73651
▁much	-8.73706
de	-8.73847
ta	-8.74084
▁popular	-8.74214
▁features	-8.74258
▁make	-8.74393
▁attended	-8.74683
▁you	-8.74705
▁magazine	-8.74917
▁studied	-8.75028
▁points	-8.75132
▁story	-8.75607
▁v	-8.75789
▁2017	-8.75878
▁conference	-8.75906
ia	-8.75929
▁free	-8.76169
▁support	-8.76177
▁japan	-8.76309
▁eastern	-8.76372
▁china	-8.76393
▁few	-8.76408
▁politician	-8.76452
▁seven	-8.76466
▁stage	-8.76619
▁notable	-8.77308
▁includes	-8.77523
▁designed	-8.77579
▁class	-8.77668
▁sports	-8.78119
nd	-8.78187
▁using	-8.78191
▁w	-8.78233
▁studies	-8.78265
▁artist	-8.78354
▁basketball	-8.78375
▁language	-8.78532
▁sold	-8.78968
▁2019	-8.79215
▁24	-8.79271
▁media	-8.79464
▁completed	-8.79524
▁italian	-8.79554
▁what	-8.79981
up	-8.80436
br	-8.80586
▁2009	-8.80611
▁mother	-8.80923
▁22	-8.80953
▁right	-8.81572
▁health	-8.81626
▁thomas	-8.81676
▁books	-8.81914
▁car	-8.81915
▁half	-8.82009
▁performed	-8.82015
▁2008	-8.82066
x	-8.82119
▁continued	-8.82139
▁david	-8.8219
▁ten	-8.82522
▁special	-8.82593
▁h	-8.82741
▁eight	-8.82996
▁bank	-8.83308
▁footballer	-8.83408
▁act	-8.8345
no	-8.83464
▁republic	-8.83721
▁hospital	-8.83721
▁featured	-8.83814
▁african	-8.84205
▁2000	-8.84354
▁grand	-8.84389
▁official	-8.84875
▁robert	-8.85096
▁formula	-8.85203
▁lead	-8.85281
▁tv	-8.85374
▁training	-8.8539
▁take	-8.85602
▁bay	-8.85723
▁singer	-8.85824
▁films	-8.86058
▁parliament	-8.86186
▁love	-8.86236
▁days	-8.86413
▁considered	-8.86753
el	-8.86902
▁addition	-8.86978
▁matches	-8.87055
▁range	-8.8736
is	-8.87478
▁23	-8.87538
▁native	-8.87622
▁uk	-8.87659
▁fourth	-8.87813
▁civil	-8.88019
▁washington	-8.8802
▁green	-8.88069
ton	-8.88268
▁2007	-8.88426
▁hill	-8.88512
▁further	-8.88542
▁charles	-8.88546
▁star	-8.88568
▁common	-8.8879
▁developed	-8.88844
▁making	-8.89
▁theatre	-8.89319
▁term	-8.89325
▁russian	-8.89342
▁graduated	-8.89439
▁japanese	-8.89534
▁me	-8.89865
▁female	-8.89904
▁africa	-8.89975
▁force	-8.90073
▁europe	-8.90487
▁township	-8.90566
▁paul	-8.90768
▁schools	-8.90885
as	-8.91063
▁middle	-8.91302
▁private	-8.91851
▁zealand	-8.92085
▁square	-8.9211
▁modern	-8.92204
▁performance	-8.9232
▁coast	-8.92349
▁once	-8.92599
▁bridge	-8.92733
▁independent	-8.92995
▁retired	-8.93015
▁across	-8.93051
ma	-8.93087
▁youth	-8.93094
▁saint	-8.9344
▁seat	-8.93579
▁mountain	-8.9421
▁capital	-8.94258
▁medical	-8.94273
▁valley	-8.94302
▁network	-8.94411
▁organization	-8.9444
▁brown	-8.9447
▁“	-8.94495
▁areas	-8.94514
▁1980	-8.94629
▁without	-8.94704
▁regional	-8.94885
1	-8.94886
▁places	-8.95257
rd	-8.95408
▁light	-8.95408
▁28	-8.95437
▁important	-8.95674
ka	-8.9583
▁battle	-8.96096
▁paris	-8.96186
▁26	-8.96196
▁even	-8.96307
▁previously	-8.96332
▁1990	-8.96387
▁similar	-8.96517
▁owned	-8.96587
v	-8.96622
▁results	-8.9666
▁chart	-8.96728
▁edition	-8.96894
▁contract	-8.97046
▁collection	-8.97514
▁writer	-8.97633
▁officer	-8.97641
▁regular	-8.97995
▁leading	-8.98074
▁27	-8.98144
▁kingdom	-8.98199
▁information	-8.98321
▁novel	-8.98416
▁little	-8.98459
te	-8.98541
▁cross	-8.98811
▁n	-8.98961
▁winning	-8.99073
▁largest	-8.99235
▁author	-8.99388
▁section	-8.9947
▁police	-8.99703
▁management	-8.99703
▁singles	-8.99824
▁master	-8.99918
▁away	-8.99953
ers	-9.00019
▁technology	-9.00161
▁others	-9.0019
▁plant	-9.00252
▁we	-9.00353
▁good	-9.00452
▁active	-9.00508
▁upon	-9.00597
▁size	-9.01148
▁approximately	-9.01166
▁governor	-9.01175
▁scored	-9.01179
▁body	-9.01289
▁mid	-9.01405
▁study	-9.01527
▁spanish	-9.0156
▁available	-9.0198
time	-9.01999
▁texas	-9.02204
▁un	-9.02254
▁2004	-9.0228
▁remained	-9.02294
▁throughout	-9.02438
▁result	-9.02484
▁surname	-9.0271
▁selected	-9.031
▁foundation	-9.0313
▁though	-9.03309
▁see	-9.03441
▁followed	-9.03528
▁description	-9.0359
and	-9.03657
▁income	-9.03664
▁hockey	-9.04068
▁bishop	-9.0446
▁bar	-9.04546
▁junior	-9.04598
▁2019,	-9.04862
▁secretary	-9.04879
▁parish	-9.04929
▁2018,	-9.05078
▁control	-9.05122
▁los	-9.05423
da	-9.05711
▁ireland	-9.05777
▁contains	-9.05892
▁ran	-9.05998
▁big	-9.0601
ne	-9.06013
▁mary	-9.06234
▁background	-9.06273
▁space	-9.06445
ra	-9.06545
▁assistant	-9.06545
▁industry	-9.06627
▁2020	-9.06704
▁via	-9.06743
▁rugby	-9.06894
▁fire	-9.07125
▁location	-9.07154
▁gave	-9.0725
▁writing	-9.07323
▁involved	-9.07528
▁front	-9.07531
▁prior	-9.07708
▁primary	-9.07711
▁2005	-9.07785
▁serving	-9.07881
▁van	-9.07926
▁replaced	-9.07977
▁1970	-9.08065
▁months	-9.08156
▁2017,	-9.08198
▁ground	-9.0822
▁eventually	-9.08232
▁federal	-9.08252
▁fellow	-9.08373
▁spent	-9.08432
▁actor	-9.08476
▁below	-9.08509
▁henry	-9.08633
▁added	-9.08732
▁highway	-9.0884
▁lower	-9.08855
▁michael	-9.08927
▁himself	-9.08968
▁older	-9.09134
▁previous	-9.09148
▁29	-9.09174
j	-9.09249
▁manager	-9.09257
▁runs	-9.09368
▁chinese	-9.09576
▁my	-9.0959
ar	-9.0959
▁elections	-9.09705
▁pre	-9.09814
son	-9.09869
▁2015,	-9.10256
▁commission	-9.10299
▁dr	-9.10416
▁placed	-9.10525
▁2016,	-9.10562
▁executive	-9.10634
it	-9.10639
▁prize	-9.10642
▁median	-9.10788
▁buildings	-9.10825
▁case	-9.1086
▁base	-9.11455
▁never	-9.11583
▁reception	-9.11769
▁taken	-9.11784
▁stadium	-9.11923
▁human	-9.12041
▁fc	-9.12045
▁artists	-9.12058
▁far	-9.12158
▁type	-9.1226
▁today	-9.12321
▁earned	-9.12379
▁italy	-9.12386
▁husband	-9.12457
▁shows	-9.12667
▁1960	-9.12718
▁editor	-9.12845
▁geography	-9.12918
land	-9.1297
▁reached	-9.13001
▁library	-9.13077
▁channel	-9.13216
▁el	-9.13219
▁christian	-9.1324
▁sir	-9.13263
▁2014,	-9.13275
▁above	-9.13372
▁close	-9.13396
▁navy	-9.13525
▁catholic	-9.13728
▁wales	-9.14032
▁defeated	-9.14086
▁pro	-9.14165
▁peter	-9.14519
▁annual	-9.1488
▁administrative	-9.14899
ch	-9.1496
▁structure	-9.15199
▁musical	-9.15235
▁households	-9.15381
▁lived	-9.15397
▁russia	-9.15422
▁leader	-9.15599
▁airport	-9.15753
▁males	-9.15806
▁news	-9.1584
▁65	-9.15986
▁culture	-9.16157
▁roman	-9.16367
▁champion	-9.16537
▁drama	-9.16643
▁di	-9.1689
▁democratic	-9.16944
▁woman	-9.17105
▁2013,	-9.17151
▁mexico	-9.17154
ley	-9.17243
▁operated	-9.17321
▁chicago	-9.17455
▁staff	-9.17507
▁night	-9.17585
▁how	-9.17828
▁plot	-9.17923
▁model	-9.18004
▁blue	-9.1808
▁silver	-9.18232
▁castle	-9.18323
▁creek	-9.18375
▁virginia	-9.18397
▁chairman	-9.18407
▁2012,	-9.18432
▁week	-9.18505
▁countries	-9.18631
▁wide	-9.18832
▁low	-9.18837
▁forces	-9.19099
▁commercial	-9.19231
▁return	-9.19314
▁!	-9.19328
▁females	-9.19341
▁campaign	-9.19426
▁promoted	-9.19485
▁closed	-9.19776
▁aircraft	-9.1995
3	-9.19959
▁movement	-9.20009
▁2020,	-9.20203
▁register	-9.20262
▁angeles	-9.20311
▁appearances	-9.20434
▁smith	-9.20488
▁consists	-9.2058
at	-9.20582
one	-9.20587
ni	-9.206
▁successful	-9.20608
▁baseball	-9.20618
am	-9.21105
▁2011,	-9.2116
▁2010,	-9.21163
▁iran	-9.21295
▁2002	-9.21313
▁forest	-9.21601
▁hit	-9.21699
▁real	-9.21718
▁example	-9.21796
▁length	-9.22072
▁changed	-9.22167
▁entered	-9.22243
▁course	-9.22378
—	-9.22406
▁student	-9.22417
▁richard	-9.22437
co	-9.22801
▁highest	-9.22814
▁historical	-9.22832
▁lies	-9.22859
▁goals	-9.22887
▁31	-9.22913
▁stars	-9.22979
▁distribution	-9.23275
▁rights	-9.23564
▁stone	-9.23601
▁vice	-9.23673
▁cricket	-9.23788
ville	-9.23867
w	-9.23968
▁child	-9.24067
▁character	-9.24104
▁mark	-9.24142
▁beginning	-9.24287
▁usually	-9.2431
▁2003	-9.24345
▁feature	-9.24383
▁launched	-9.24576
based	-9.24586
▁composed	-9.24733
▁ship	-9.24736
▁winter	-9.24932
▁start	-9.24968
▁ice	-9.25027
▁review	-9.25052
▁le	-9.25063
▁subsequently	-9.25261
▁help	-9.25395
▁2001	-9.25492
▁label	-9.25504
▁producer	-9.25511
▁met	-9.25683
▁data	-9.25719
▁natural	-9.25963
▁florida	-9.26142
▁islands	-9.26156
▁administration	-9.26174
▁nine	-9.26262
▁market	-9.26337
▁2,	-9.26356
▁press	-9.26359
▁mayor	-9.26457
▁participated	-9.26531
▁du	-9.26597
▁50	-9.26616
▁super	-9.26621
▁engineering	-9.26749
▁initially	-9.26997
▁goal	-9.2703
▁seasons	-9.27131
▁sub	-9.2719
▁decided	-9.27267
▁less	-9.27312
▁groups	-9.27395
▁recording	-9.2748
▁operations	-9.27506
▁trade	-9.27581
▁sister	-9.27761
▁sound	-9.27887
▁whose	-9.27964
▁success	-9.28064
▁journal	-9.28071
▁despite	-9.28075
▁ministry	-9.28149
▁numerous	-9.28268
▁greek	-9.28374
▁date	-9.28432
▁carolina	-9.28725
▁famous	-9.29252
▁sent	-9.29279
▁captain	-9.29293
▁units	-9.29296
▁irish	-9.29412
▁x	-9.29474
▁soon	-9.2953
▁tracks	-9.29658
▁joseph	-9.29795
▁port	-9.29796
▁spain	-9.30364
ri	-9.30437
▁seen	-9.30591
▁temple	-9.30632
▁reported	-9.30656
▁marine	-9.30694
▁property	-9.30717
▁unit	-9.30726
▁get	-9.30726
ca	-9.30862
▁whom	-9.31056
▁=	-9.3145
▁does	-9.31598
▁least	-9.31636
▁becoming	-9.31764
▁limited	-9.31792
ic	-9.31993
▁appearance	-9.32025
▁saw	-9.32129
▁process	-9.32155
▁foreign	-9.32189
▁queen	-9.32369
▁interest	-9.32423
▁practice	-9.32795
ko	-9.32805
▁action	-9.32808
▁ended	-9.32809
▁candidate	-9.32902
▁poland	-9.32935
▁episode	-9.32969
▁running	-9.331
▁provided	-9.33336
▁cast	-9.3345
▁parts	-9.3405
▁individual	-9.34054
▁traditional	-9.341
▁actress	-9.34122
▁settlement	-9.34125
▁instead	-9.34529
▁overall	-9.34534
▁ever	-9.3456
▁related	-9.34649
▁starting	-9.34691
▁deputy	-9.34756
▁activities	-9.35005
▁constituency	-9.35075
▁raised	-9.3519
▁fifth	-9.35946
▁winner	-9.35951
▁introduced	-9.35991
com	-9.3603
▁upper	-9.36085
▁movie	-9.36106
▁pennsylvania	-9.36135
▁opening	-9.36183
▁male	-9.36216
▁sometimes	-9.36245
▁asian	-9.36389
▁here	-9.36465
▁minor	-9.36599
▁either	-9.36618
▁40	-9.36738
▁pacific	-9.36889
▁albums	-9.36943
▁congress	-9.37028
▁sun	-9.37086
▁noted	-9.37239
▁change	-9.3729
▁mm	-9.37401
▁outside	-9.37736
▁soviet	-9.37756
▁almost	-9.37767
▁lord	-9.37897
um	-9.37962
by	-9.38094
▁scottish	-9.38117
▁2009,	-9.38181
▁dance	-9.38241
▁references	-9.38271
▁edward	-9.38349
ti	-9.38378
▁taking	-9.38413
▁systems	-9.38475
▁moth	-9.38556
▁put	-9.38642
class	-9.38709
▁killed	-9.38797
do	-9.39284
▁ma	-9.3931
▁1950	-9.39338
▁standard	-9.39342
▁del	-9.39344
▁behind	-9.39366
ba	-9.39519
▁acquired	-9.39716
▁scotland	-9.39725
ie	-9.39762
4	-9.39781
▁food	-9.3994
▁future	-9.39961
▁dutch	-9.39996
▁squad	-9.40016
▁louis	-9.40076
▁branch	-9.40113
▁companies	-9.40358
▁train	-9.40407
▁premier	-9.40431
▁senate	-9.40513
▁martin	-9.40647
▁2010.	-9.40648
▁1999	-9.40682
"),	-9.40819
▁draw	-9.40839
▁da	-9.40928
▁hotel	-9.41013
▁newspaper	-9.41025
▁comedy	-9.41115
▁1996	-9.41214
▁higher	-9.41232
men	-9.41236
▁format	-9.4139
▁mainly	-9.41578
▁situated	-9.41594
▁complex	-9.41706
▁bronze	-9.41731
”	-9.41772
▁score	-9.41775
▁(;	-9.4182
▁cultural	-9.41839
▁camp	-9.4187
▁cover	-9.41932
▁academic	-9.42008
▁associated	-9.4206
▁anti	-9.42065
▁bill	-9.42105
▁tower	-9.42206
▁nearby	-9.42217
▁olympic	-9.42237
▁operation	-9.42347
▁got	-9.42532
▁racing	-9.42639
▁1998	-9.42773
▁races	-9.42837
▁victory	-9.42879
]	-9.42967
▁reserve	-9.43028
▁2015.	-9.43028
ya	-9.43033
▁thus	-9.43073
▁source	-9.43154
▁semi	-9.43334
▁mostly	-9.43366
▁swedish	-9.43589
▁mission	-9.43823
▁3,	-9.4401
▁density	-9.44101
▁2018.	-9.44137
▁justice	-9.44194
▁2017.	-9.44235
▁lee	-9.44337
▁2014.	-9.444
▁champions	-9.44421
▁broadcast	-9.44555
▁able	-9.44643
▁money	-9.4467
li	-9.44705
▁test	-9.44724
▁prince	-9.44726
▁past	-9.44841
▁lives	-9.44924
me	-9.44979
ro	-9.4503
▁metres	-9.45107
day	-9.45201
▁2008,	-9.45204
▁provide	-9.45343
▁means	-9.45575
▁command	-9.4566
-19	-9.45707
▁border	-9.45714
▁miles	-9.45743
go	-9.45871
▁should	-9.45925
▁teacher	-9.45987
▁legislative	-9.4601
▁pop	-9.46012
▁economic	-9.4604
▁2013.	-9.4613
▁renamed	-9.46158
▁michigan	-9.46159
▁1992	-9.46277
▁2016.	-9.46338
di	-9.46372
american	-9.46564
sa	-9.4667
▁mount	-9.46744
▁serves	-9.46857
▁access	-9.46867
▁columbia	-9.47051
▁parents	-9.47114
▁estate	-9.47251
▁dark	-9.47269
▁wood	-9.47379
▁ohio	-9.47507
▁self	-9.47628
▁financial	-9.4769
▁nations	-9.47813
▁illinois	-9.47913
▁towards	-9.4819
et	-9.48285
▁corporation	-9.48408
▁issues	-9.48412
▁2012.	-9.48501
▁additional	-9.4862
▁presented	-9.48697
▁housing	-9.48737
▁status	-9.48794
▁must	-9.48882
▁starring	-9.49004
▁hot	-9.49008
▁opera	-9.49299
(	-9.49349
▁2019.	-9.49381
▁complete	-9.49403
▁brought	-9.49408
▁solo	-9.4947
▁fort	-9.49493
▁heart	-9.49494
▁earlier	-9.49545
▁bachelor	-9.49823
▁spring	-9.49831
▁acting	-9.49961
▁2007,	-9.50143
▁rather	-9.50146
▁covered	-9.50368
▁programs	-9.50375
▁2011.	-9.50384
▁farm	-9.50401
▁polish	-9.50494
▁draft	-9.50555
▁mile	-9.50615
▁names	-9.50734
▁beach	-9.50739
▁transferred	-9.5074
▁firm	-9.50801
▁republican	-9.5106
▁variety	-9.51102
ner	-9.51116
▁literature	-9.51208
▁clubs	-9.51254
▁judge	-9.51403
▁affairs	-9.51404
ist	-9.51409
▁rest	-9.51433
▁jazz	-9.51554
▁representatives	-9.51581
▁word	-9.51592
▁host	-9.517
▁grew	-9.51818
▁stories	-9.51909
▁brothers	-9.51949
▁secondary	-9.51955
▁constructed	-9.52029
▁y	-9.52228
▁wing	-9.5223
▁ancient	-9.52247
▁sciences	-9.52336
▁municipal	-9.52354
▁georgia	-9.524
▁itself	-9.52453
▁majority	-9.52476
▁don	-9.525
▁era	-9.52547
old	-9.52575
▁digital	-9.52677
▁twenty	-9.52755
▁plan	-9.52788
▁security	-9.52888
▁1997	-9.52947
▁empire	-9.53039
se	-9.53132
ga	-9.53207
▁remains	-9.53444
▁come	-9.53521
▁architecture	-9.53599
▁roles	-9.537
▁helped	-9.53892
▁person	-9.53921
▁berlin	-9.53929
▁significant	-9.53972
▁legal	-9.54018
▁hand	-9.54036
▁stated	-9.54087
▁1994	-9.54177
q	-9.54282
▁alongside	-9.54534
▁commander	-9.54621
▁cemetery	-9.54709
▁urban	-9.54853
▁engine	-9.54923
▁soccer	-9.54966
▁contemporary	-9.55021
▁4,	-9.55065
▁especially	-9.55158
▁taught	-9.55231
▁24,	-9.55245
▁houses	-9.55311
▁generally	-9.55328
▁marriage	-9.55367
▁nominated	-9.5547
▁am	-9.55486
▁double	-9.55596
▁energy	-9.55615
▁key	-9.55647
▁products	-9.5569
▁household	-9.55757
▁formation	-9.55884
▁leaves	-9.55889
un	-9.56053
▁18,	-9.56055
west	-9.56072
▁buried	-9.56332
▁table	-9.56332
▁educated	-9.56413
▁jersey	-9.56414
▁lines	-9.56522
ian	-9.56523
▁prime	-9.56706
▁painting	-9.56832
▁shot	-9.56838
▁critical	-9.56855
▁minutes	-9.56865
▁meaning	-9.56999
▁boston	-9.57044
▁latin	-9.57046
▁memorial	-9.57094
▁founder	-9.5713
ling	-9.57175
▁1995	-9.57183
▁multiple	-9.57235
▁sydney	-9.57471
▁regiment	-9.57598
▁cd	-9.57963
now	-9.57967
▁computer	-9.57998
▁massachusetts	-9.58075
▁francisco	-9.58119
▁managed	-9.58162
▁follows	-9.5836
▁victoria	-9.58365
▁prominent	-9.58376
▁online	-9.58383
▁deal	-9.58456
▁strong	-9.58472
he	-9.58726
▁1930	-9.58767
▁dedicated	-9.58774
▁ncaa	-9.58836
▁serve	-9.58848
▁provides	-9.58943
ge	-9.59057
▁fall	-9.59204
able	-9.59246
▁45	-9.59373
▁en	-9.59446
ism	-9.59701
▁better	-9.59732
▁platform	-9.59784
▁territory	-9.59924
▁surface	-9.59945
▁recent	-9.59959
▁room	-9.59962
▁brazil	-9.60192
ja	-9.60198
▁vote	-9.60287
▁discovered	-9.60317
▁transport	-9.6037
▁grade	-9.6056
▁representative	-9.60587
▁1988	-9.60588
ki	-9.60597
▁finally	-9.60605
for	-9.60626
▁latter	-9.60697
▁oil	-9.60775
▁attack	-9.6079
").	-9.6086
▁asia	-9.60869
▁iii	-9.6088
▁oxford	-9.60898
▁200	-9.60973
▁politics	-9.61008
all	-9.61245
▁medicine	-9.61257
den	-9.61264
▁federation	-9.61297
▁leaving	-9.61306
▁fine	-9.61333
▁sport	-9.61452
▁nature	-9.61499
▁hong	-9.61529
▁loss	-9.61582
▁primarily	-9.61775
▁facilities	-9.61826
▁create	-9.6184
▁wall	-9.61851
▁hosted	-9.61884
pa	-9.61969
▁ontario	-9.61999
▁5,	-9.62062
▁supported	-9.62069
▁distance	-9.62139
▁friend	-9.62162
▁kong	-9.6231
▁policy	-9.62331
▁material	-9.62364
▁lieutenant	-9.62389
▁covers	-9.62498
▁uses	-9.62572
▁stations	-9.62602
▁pan	-9.62682
▁website	-9.6276
▁care	-9.62861
▁store	-9.62911
▁rose	-9.63123
mi	-9.63234
▁2009.	-9.63283
▁girls	-9.63331
of	-9.6342
▁girl	-9.63423
▁projects	-9.63468
▁mountains	-9.63595
▁entire	-9.63636
▁2006,	-9.63693
▁meeting	-9.63711
▁frank	-9.6372
▁takes	-9.63901
▁jones	-9.63934
▁1991	-9.63995
▁1993	-9.641
▁call	-9.64136
▁bus	-9.64166
ry	-9.642
ve	-9.64367
▁reviews	-9.64566
▁campus	-9.64575
don	-9.64622
▁forward	-9.64678
▁alexander	-9.64802
il	-9.64813
▁featuring	-9.64849
▁officially	-9.64864
▁jean	-9.64935
▁voice	-9.65018
▁qualified	-9.65038
▁von	-9.65054
▁individuals	-9.65166
▁month	-9.65191
▁going	-9.65245
▁promotion	-9.65272
▁possible	-9.65295
▁votes	-9.65381
▁jr	-9.65383
▁divided	-9.65487
▁1920	-9.65488
▁referred	-9.65521
▁norwegian	-9.65577
▁heritage	-9.65735
▁bbc	-9.65856
▁teaching	-9.65937
▁succeeded	-9.65992
▁formerly	-9.66002
▁/	-9.6601
▁move	-9.66064
▁paper	-9.66242
▁find	-9.663
▁wisconsin	-9.6636
▁allowed	-9.66401
▁faculty	-9.66604
5	-9.66627
off	-9.66652
▁entertainment	-9.6671
▁scientific	-9.6671
▁commonly	-9.66737
▁hours	-9.66783
▁responsible	-9.66812
▁agency	-9.66835
▁friends	-9.66866
▁orchestra	-9.66973
▁honor	-9.67069
▁des	-9.67115
▁purchased	-9.67158
os	-9.67167
▁weeks	-9.67188
▁religious	-9.67222
▁tennis	-9.67259
▁santa	-9.67331
ke	-9.67375
ha	-9.6739
▁toronto	-9.67436
▁extended	-9.67445
▁theater	-9.67452
▁separate	-9.67507
▁metal	-9.6755
▁multi	-9.67563
sen	-9.67571
▁sons	-9.67578
▁cities	-9.67681
▁software	-9.6771
▁turn	-9.67806
▁avenue	-9.67884
▁seats	-9.68012
▁sweden	-9.68207
field	-9.68218
▁pakistan	-9.68241
▁turkey	-9.68325
▁forms	-9.68325
▁moving	-9.68356
▁issue	-9.68357
▁britain	-9.68568
▁provincial	-9.68609
▁)	-9.68698
▁principal	-9.68711
▁larger	-9.68736
▁passed	-9.68911
▁speed	-9.69105
▁remaining	-9.6919
▁jewish	-9.69418
▁architect	-9.69548
▁1984	-9.69559
▁shown	-9.69577
▁mixed	-9.69602
▁korea	-9.6965
▁2000,	-9.69691
▁tree	-9.69824
▁6,	-9.6986
▁southeast	-9.69874
▁characters	-9.69885
▁2005,	-9.69989
▁daily	-9.69996
▁netherlands	-9.70009
▁terms	-9.70051
▁episodes	-9.7013
▁global	-9.70203
▁code	-9.70322
▁northwest	-9.70342
ur	-9.70395
▁liberal	-9.70416
▁winners	-9.70436
▁fish	-9.70512
▁owner	-9.70523
▁representing	-9.70584
▁already	-9.70592
▁mass	-9.70662
▁composer	-9.70679
▁2020.	-9.70687
▁text	-9.70757
east	-9.70864
▁scoring	-9.7092
▁elizabeth	-9.70948
▁obtained	-9.70965
▁mr	-9.70975
▁[	-9.70999
▁ep	-9.71017
▁recently	-9.71098
▁decision	-9.71253
▁sixth	-9.71456
be	-9.71499
▁too	-9.71656
▁graduate	-9.71973
ine	-9.71995
▁aged	-9.72031
▁railroad	-9.72045
▁technical	-9.7213
▁naval	-9.72152
▁failed	-9.72236
▁corps	-9.72255
wood	-9.72264
▁titled	-9.72271
mo	-9.72405
▁ko	-9.72455
▁sri	-9.72514
▁lady	-9.72541
▁1989	-9.72561
▁changes	-9.7261
▁headquarters	-9.72663
▁founding	-9.72693
▁earth	-9.72703
▁retirement	-9.72758
▁particularly	-9.72802
▁industrial	-9.72822
▁gallery	-9.72937
▁subject	-9.72946
km	-9.72965
▁scott	-9.7302
▁yellow	-9.73161
▁fight	-9.73213
▁titles	-9.73434
▁7,	-9.73476
▁duke	-9.73476
▁theory	-9.73578
▁na	-9.73692
wa	-9.73698
▁report	-9.73806
▁documentary	-9.73816
▁carried	-9.73864
▁golden	-9.73883
▁2007.	-9.73913
we	-9.73923
▁dam	-9.73936
▁residents	-9.73966
also	-9.74034
▁nation	-9.74154
▁mill	-9.74282
▁villages	-9.74318
▁locality	-9.74374
▁twice	-9.74387
="	-9.74421
▁2008.	-9.7451
▁korean	-9.74523
▁capacity	-9.74544
der	-9.74642
▁miss	-9.74836
▁climate	-9.74865
▁experience	-9.74978
▁williams	-9.75046
▁cambridge	-9.75105
▁our	-9.75113
▁garden	-9.75128
▁guitar	-9.75162
▁thought	-9.75202
▁hard	-9.75237
▁johnson	-9.75547
▁boy	-9.75559
▁exhibition	-9.75579
▁article	-9.75747
▁painter	-9.75814
▁organized	-9.75859
▁15,	-9.75886
▁gained	-9.75981
▁fame	-9.76397
▁sam	-9.76491
▁assigned	-9.765
▁finish	-9.7663
▁offers	-9.76636
▁brand	-9.7676
▁usa	-9.76801
▁shortly	-9.76828
▁join	-9.76877
▁zone	-9.77166
▁languages	-9.77297
▁literary	-9.77337
▁notes	-9.77532
▁peak	-9.7768
▁rome	-9.77687
▁offered	-9.77744
▁authority	-9.77756
lin	-9.77787
▁appears	-9.77825
▁poetry	-9.77842
▁boys	-9.78019
▁plants	-9.7802
▁ba	-9.78105
▁1987	-9.78119
▁floor	-9.78127
▁fa	-9.78227
▁journalist	-9.78227
▁8,	-9.7828
▁athletic	-9.78285
▁younger	-9.7833
▁inter	-9.78352
▁holds	-9.78403
▁workers	-9.78415
▁athletics	-9.78452
▁color	-9.78458
▁northeast	-9.78461
▁particular	-9.78478
▁god	-9.78478
▁bureau	-9.78491
▁honours	-9.78537
▁gas	-9.7855
▁labour	-9.78589
▁longer	-9.78694
▁give	-9.78708
▁advanced	-9.78799
▁comes	-9.78802
▁jack	-9.78827
▁amateur	-9.78953
▁cape	-9.79135
ji	-9.79152
▁demographics	-9.79192
▁cost	-9.79478
▁loan	-9.79526
star	-9.7956
▁flight	-9.7975
▁1940	-9.79882
▁nearly	-9.79929
▁required	-9.8005
▁split	-9.80052
▁face	-9.80083
ham	-9.80242
▁feet	-9.80351
line	-9.80367
▁joint	-9.80386
▁10,	-9.80401
▁cut	-9.80437
▁publication	-9.805
▁bell	-9.8065
▁poet	-9.80653
▁1986	-9.80693
▁aired	-9.80698
▁concert	-9.80741
▁category	-9.80777
▁pass	-9.80796
▁norway	-9.80854
▁rank	-9.80873
▁minnesota	-9.80877
▁cancer	-9.81086
▁1972	-9.81433
side	-9.81444
▁60	-9.81518
▁performances	-9.81628
▁forced	-9.81633
new	-9.81712
▁caused	-9.81801
▁couple	-9.81935
▁recognized	-9.81956
▁commissioned	-9.82039
▁—	-9.82058
▁rules	-9.82075
▁articles	-9.82121
▁czech	-9.82156
▁mar	-9.82221
▁turned	-9.82279
▁entry	-9.82303
▁publications	-9.82387
▁guest	-9.82394
▁francis	-9.82477
billboard	-9.825
▁2004,	-9.82514
▁maria	-9.8252
▁facility	-9.82596
▁job	-9.82667
▁specific	-9.82881
é	-9.82881
▁designated	-9.82942
onlyinclude	-9.8304
▁romanized	-9.83068
▁ocean	-9.83184
▁southwest	-9.83191
▁origin	-9.83194
like	-9.83388
▁1976	-9.83428
▁11,	-9.83477
berg	-9.83569
▁flowers	-9.83619
▁supreme	-9.83773
▁melbourne	-9.83868
bo	-9.84
▁(17	-9.84002
!	-9.84035
▁chair	-9.84043
ul	-9.84119
my	-9.84243
▁ben	-9.84244
ina	-9.843
▁1983	-9.84309
▁claimed	-9.84354
▁sources	-9.84375
▁relations	-9.84403
▁12,	-9.84477
▁mexican	-9.8448
▁block	-9.8453
▁trust	-9.84576
century	-9.846
▁iron	-9.84666
▁1985	-9.84677
▁probably	-9.84693
▁ward	-9.8475
▁philadelphia	-9.84819
▁product	-9.8483
20	-9.84907
ter	-9.84969
▁16,	-9.85051
▁done	-9.85131
▁ph	-9.85147
▁lyrics	-9.85162
▁performing	-9.85165
▁deep	-9.85249
▁direction	-9.85286
▁relationship	-9.85385
▁respectively	-9.85566
▁14,	-9.85618
▁leadership	-9.85632
▁inside	-9.85687
▁ships	-9.85767
▁direct	-9.85775
▁conducted	-9.85797
▁focus	-9.85816
▁horse	-9.85875
8	-9.85882
▁box	-9.85885
▁operating	-9.85965
▁districts	-9.86
▁9,	-9.86093
▁merged	-9.86184
▁oldest	-9.86284
▁defense	-9.86371
▁moscow	-9.86377
▁17,	-9.86404
▁mi	-9.86428
out	-9.86542
▁prison	-9.86551
ng	-9.8656
▁missouri	-9.86564
▁proposed	-9.86631
▁khan	-9.86648
▁coming	-9.86658
▁combined	-9.86711
▁z	-9.86725
▁plans	-9.86796
▁li	-9.86828
▁engineer	-9.86848
▁alone	-9.87017
▁electoral	-9.87019
▁peace	-9.87041
▁physical	-9.87119
▁israel	-9.87143
▁atlantic	-9.87187
▁issued	-9.8737
▁(1	-9.87391
va	-9.8742
▁fact	-9.87426
less	-9.87528
ford	-9.87559
ity	-9.87614
ny	-9.87685
▁your	-9.87751
▁communities	-9.88043
▁contest	-9.88047
▁agent	-9.88282
▁te	-9.88302
▁reach	-9.88326
▁1982	-9.88396
▁publishing	-9.8844
▁travel	-9.88466
▁returning	-9.88548
▁crew	-9.88768
▁heavy	-9.88842
▁expanded	-9.88865
▁fiction	-9.889
pur	-9.89224
▁smaller	-9.89237
▁whole	-9.89285
▁rail	-9.89362
▁1968	-9.89485
▁13,	-9.89512
▁exchange	-9.8954
▁falls	-9.89608
▁greater	-9.89631
▁partner	-9.89695
▁queensland	-9.89731
ness	-9.89753
▁trains	-9.89791
▁spread	-9.89882
▁[[	-9.89915
6	-9.89916
▁sa	-9.89922
▁beetle	-9.89995
▁surrounding	-9.90006
▁vi	-9.90043
▁function	-9.90056
za	-9.90145
▁parliamentary	-9.90288
ye	-9.90301
▁premiered	-9.90341
▁programme	-9.90386
▁tom	-9.90447
▁rate	-9.90453
▁mac	-9.90466
chi	-9.90492
▁boat	-9.9056
▁finishing	-9.90582
ad	-9.90622
les	-9.9063
▁charge	-9.90631
▁content	-9.90631
▁believed	-9.90658
▁view	-9.90845
▁defeat	-9.90849
▁figure	-9.909
▁bought	-9.9096
▁broadcasting	-9.91019
▁always	-9.91071
▁2006.	-9.91113
▁1979	-9.91137
▁challenge	-9.91142
▁except	-9.91179
▁composition	-9.91429
▁mentioned	-9.91506
]]	-9.91512
▁21,	-9.91535
▁associate	-9.91604
▁22,	-9.9162
si	-9.91673
▁height	-9.91705
▁fund	-9.91751
▁appear	-9.91927
▁need	-9.9194
▁28,	-9.91983
▁stop	-9.92003
▁trial	-9.92099
▁certain	-9.92113
ce	-9.92138
▁directly	-9.92195
▁classical	-9.92202
▁palace	-9.92228
way	-9.9228
lo	-9.92281
▁et	-9.92407
▁basis	-9.9247
▁musician	-9.92496
▁metropolitan	-9.92551
▁ranked	-9.92553
▁newly	-9.92593
▁windows	-9.92617
▁23,	-9.92743
▁20,	-9.92758
▁positive	-9.92866
▁sr	-9.92983
▁commune	-9.92986
▁daniel	-9.9304
▁dead	-9.93055
▁piano	-9.93132
▁doctor	-9.93215
▁makes	-9.93237
▁joining	-9.93271
mer	-9.93304
▁inspired	-9.93319
▁26,	-9.9333
▁build	-9.93364
▁ball	-9.93481
▁listing	-9.93518
▁interior	-9.93553
▁edge	-9.93606
ana	-9.93626
▁mc	-9.93659
▁educational	-9.9371
▁jan	-9.93738
▁grant	-9.93775
▁habitat	-9.93817
▁problems	-9.93824
▁bi	-9.93832
▁scene	-9.93892
▁environment	-9.93934
▁ex	-9.93946
▁19,	-9.93958
▁27,	-9.93969
▁influence	-9.93969
con	-9.93987
▁cathedral	-9.93995
▁personnel	-9.94016
▁danish	-9.94142
▁30,	-9.9416
▁philosophy	-9.9423
▁guard	-9.94268
▁35	-9.94296
▁inhabitants	-9.9432
▁stock	-9.94332
▁elements	-9.94439
▁1974	-9.94597
▁1981	-9.94626
▁produce	-9.94687
▁arthur	-9.94983
▁widely	-9.9501
▁fleet	-9.95043
▁conservative	-9.95065
▁applied	-9.95079
▁creation	-9.95087
▁25,	-9.95111
▁therefore	-9.95224
▁compete	-9.9532
ler	-9.95371
▁andrew	-9.95379
▁initial	-9.95407
▁weekly	-9.95447
▁positions	-9.95456
▁kansas	-9.95477
▁poor	-9.95546
▁1945	-9.95556
▁intended	-9.95558
▁chapel	-9.95578
▁colorado	-9.95609
▁2005.	-9.95638
▁emperor	-9.95674
▁planned	-9.95716
▁wins	-9.95723
▁gun	-9.95839
▁‘	-9.95841
▁wilson	-9.95934
▁joe	-9.95959
▁increased	-9.95965
▁graduating	-9.96028
▁ka	-9.96074
▁web	-9.96104
▁2003,	-9.9622
▁qualifying	-9.96245
▁losing	-9.96248
▁recognition	-9.96288
▁mine	-9.96451
▁analysis	-9.96539
▁yet	-9.9656
em	-9.96581
▁bass	-9.9659
▁gene	-9.96603
▁statistics	-9.96606
fa	-9.96616
well	-9.96627
▁unknown	-9.96682
▁trophy	-9.96755
▁1977	-9.96806
▁rule	-9.96807
▁classic	-9.96818
▁medals	-9.96833
▁1978	-9.96966
sky	-9.97018
▁highly	-9.97041
▁taylor	-9.97088
▁hills	-9.97091
per	-9.97094
▁consisted	-9.97112
▁chosen	-9.97241
▁jackson	-9.9729
▁removed	-9.97293
▁settled	-9.97356
▁response	-9.97418
▁electric	-9.97434
▁typically	-9.97518
▁resigned	-9.97535
▁grey	-9.97568
▁albert	-9.97568
ty	-9.97634
▁diocese	-9.97635
story	-9.97636
▁conservation	-9.97644
▁pay	-9.97667
▁quality	-9.97682
▁represent	-9.97723
▁adult	-9.97735
▁ali	-9.97856
▁birth	-9.97987
▁leave	-9.98036
▁cabinet	-9.98112
▁protection	-9.98183
id	-9.98201
▁activity	-9.98212
▁arrived	-9.98241
▁continues	-9.98281
▁der	-9.98347
▁1975	-9.98414
▁tennessee	-9.9847
▁borough	-9.9849
▁flows	-9.98562
▁29,	-9.987
▁finals	-9.98708
▁folk	-9.9871
han	-9.98738
▁immediately	-9.98885
ak	-9.98888
–18	-9.99022
▁1964	-9.99045
▁connected	-9.99069
▁austria	-9.99137
war	-9.9922
▁turkish	-9.99283
▁presidential	-9.99313
du	-9.99356
▁effect	-9.99366
ey	-9.99424
▁scheduled	-9.99467
▁dean	-9.99521
▁cases	-9.99606
mar	-9.99696
▁occurs	-9.99761
▁dan	-9.99791
so	-9.99854
▁factory	-9.99905
▁davis	-9.99959
▁quarter	-9.99978
;/	-10.0009
▁arizona	-10.0011
▁bob	-10.0016
▁oregon	-10.0018
▁growing	-10.0019
ten	-10.0029
▁attorney	-10.0033
▁accepted	-10.0044
▁independence	-10.0048
▁bad	-10.005
▁sales	-10.005
▁fell	-10.0053
▁adopted	-10.0054
lu	-10.0058
▁drive	-10.0062
▁junction	-10.0063
▁achieved	-10.0063
▁classes	-10.0066
▁steel	-10.0067
▁organizations	-10.0075
▁properties	-10.008
▁infantry	-10.0082
▁themselves	-10.0082
▁studios	-10.0084
▁alliance	-10.0085
▁enough	-10.0092
▁treatment	-10.0093
▁ca	-10.0094
▁ad	-10.0095
▁cell	-10.0098
▁doubles	-10.01
▁32	-10.0102
▁inc	-10.0105
▁indiana	-10.0118
▁volume	-10.0122
▁lawyer	-10.013
▁brazilian	-10.0131
▁meet	-10.0136
▁revolution	-10.0141
▁attention	-10.0143
▁bo	-10.0152
▁hold	-10.0165
▁attempt	-10.0168
▁destroyed	-10.0174
known	-10.0176
▁injury	-10.0176
▁prix	-10.0183
▁economy	-10.0186
▁traffic	-10.0186
with	-10.019
▁philippines	-10.0194
▁growth	-10.0194
▁sign	-10.0197
▁tri	-10.0212
▁protein	-10.0217
▁granted	-10.0217
▁chamber	-10.0217
▁competitions	-10.0232
▁count	-10.0233
ation	-10.0244
▁critics	-10.0254
▁permanent	-10.0259
▁bc	-10.026
ah	-10.027
▁copies	-10.0272
▁sites	-10.028
▁letter	-10.0282
▁mike	-10.0292
▁squadron	-10.0295
▁estimated	-10.0299
▁1973	-10.0301
▁1928	-10.0306
▁iowa	-10.0311
▁method	-10.0313
▁fields	-10.0319
▁giving	-10.032
▁seventh	-10.0323
▁candidates	-10.0324
▁equipment	-10.033
▁versions	-10.0345
▁entitled	-10.0347
im	-10.0349
▁agreement	-10.0353
tv	-10.0354
▁evidence	-10.0357
▁derived	-10.0365
▁swiss	-10.0365
▁institution	-10.0369
▁imperial	-10.038
▁true	-10.038
▁quebec	-10.0387
hi	-10.0394
▁switzerland	-10.04
▁2004.	-10.0404
▁theme	-10.041
▁liga	-10.041
▁impact	-10.0418
▁earl	-10.0423
▁conditions	-10.0431
▁twelve	-10.0431
▁neighborhood	-10.0434
▁fox	-10.0435
▁declared	-10.0438
▁stand	-10.0438
ii	-10.0439
▁trail	-10.0441
▁maryland	-10.0451
▁metro	-10.0453
▁words	-10.0456
▁pope	-10.046
▁mathematics	-10.0461
▁continue	-10.0466
▁environmental	-10.0476
▁levels	-10.0477
▁someone	-10.0479
▁purpose	-10.0483
▁links	-10.0484
▁1971	-10.0485
ov	-10.0485
▁convention	-10.0486
▁1969	-10.0489
▁ring	-10.0497
▁parties	-10.051
▁2002.	-10.0513
▁roof	-10.0516
▁beat	-10.0528
▁portion	-10.053
▁maximum	-10.0531
▁agricultural	-10.0539
▁containing	-10.054
▁pa	-10.0542
▁tamil	-10.0548
▁80	-10.0549
▁morning	-10.056
▁argentina	-10.0561
▁edinburgh	-10.0564
▁suffered	-10.0566
▁unincorporated	-10.0583
▁crown	-10.0585
▁ha	-10.0593
▁circuit	-10.0596
▁incorporated	-10.0599
▁golf	-10.0604
▁anne	-10.0605
▁arms	-10.0613
election	-10.0617
▁chris	-10.0619
▁2002,	-10.0619
▁distinguished	-10.0619
▁external	-10.0621
▁spot	-10.0622
▁schedule	-10.0626
▁arena	-10.0632
▁machine	-10.0647
▁corner	-10.0651
po	-10.0653
▁oblast	-10.0657
▁confirmed	-10.0663
▁planning	-10.0669
▁communist	-10.0672
if	-10.0677
▁entrance	-10.0684
▁fashion	-10.0688
▁alternative	-10.0691
▁providing	-10.0694
▁ray	-10.0695
▁meters	-10.0698
▁priest	-10.0699
▁page	-10.0706
ski	-10.0711
▁sand	-10.0731
▁glass	-10.0734
▁officers	-10.0745
▁kentucky	-10.0746
▁500	-10.0748
▁resources	-10.075
▁concept	-10.0763
▁yards	-10.0765
▁debuted	-10.0766
▁mo	-10.0778
▁orange	-10.0785
▁invited	-10.0785
▁numbers	-10.0791
▁1967	-10.0791
▁supporting	-10.0794
▁pilot	-10.0805
▁brick	-10.0805
▁offices	-10.0808
▁idea	-10.0814
▁fm	-10.0817
rs	-10.0823
▁types	-10.0826
▁wild	-10.0828
▁counties	-10.0834
▁letters	-10.0835
fi	-10.0838
▁walter	-10.0844
▁economics	-10.085
▁wind	-10.0852
-1	-10.0855
▁blood	-10.0855
▁lewis	-10.0856
▁transfer	-10.0857
▁cars	-10.0863
▁likely	-10.0864
▁trained	-10.0879
▁bowl	-10.0881
bar	-10.0888
▁2001,	-10.0912
▁leaders	-10.0912
▁identified	-10.0915
▁stephen	-10.0919
▁asked	-10.092
▁con	-10.092
▁passenger	-10.0923
▁allow	-10.0937
▁lack	-10.0939
au	-10.0941
▁internet	-10.0942
bi	-10.0947
▁value	-10.0947
▁agriculture	-10.0948
▁productions	-10.0955
ek	-10.0958
▁organisation	-10.0958
▁share	-10.0964
mann	-10.0967
ll	-10.097
▁labor	-10.097
▁increase	-10.0978
▁receiving	-10.0981
▁disease	-10.0982
▁musicians	-10.0988
▁survey	-10.099
▁1948	-10.0992
▁paintings	-10.0993
▁contributed	-10.0994
▁learning	-10.1011
▁soundtrack	-10.1015
▁defence	-10.1018
▁communications	-10.1027
▁crime	-10.103
▁cm	-10.1037
▁towns	-10.1041
▁midfielder	-10.1045
▁registered	-10.106
▁sky	-10.1062
▁denmark	-10.1063
▁nfl	-10.1067
▁goes	-10.1076
house	-10.1076
▁coaching	-10.1077
7	-10.1078
▁fought	-10.1079
▁tokyo	-10.108
▁rich	-10.1082
▁unique	-10.1086
▁bangladesh	-10.1091
▁express	-10.1092
▁dublin	-10.1098
▁writers	-10.1101
▁historian	-10.1104
town	-10.1107
▁transportation	-10.1114
▁break	-10.112
▁jim	-10.1122
▁flat	-10.1122
▁cause	-10.1126
▁starred	-10.1126
▁pair	-10.1129
▁70	-10.113
▁mp	-10.1136
▁dates	-10.1142
general	-10.1152
▁wanted	-10.1172
▁harvard	-10.1181
▁reading	-10.1183
▁account	-10.1185
▁contested	-10.1196
▁physics	-10.1201
▁0	-10.1216
▁marked	-10.1226
▁converted	-10.1226
▁austrian	-10.1227
▁domestic	-10.1235
▁holy	-10.1237
sk	-10.1243
▁fair	-10.1244
▁locations	-10.1245
▁manchester	-10.1245
▁troops	-10.1248
▁shell	-10.1249
▁establishment	-10.125
▁ambassador	-10.1254
▁su	-10.1257
▁efforts	-10.1258
▁slightly	-10.1268
▁figures	-10.1275
▁collected	-10.1281
shaped	-10.1281
▁begins	-10.1285
▁sc	-10.1294
▁2003.	-10.1299
▁piece	-10.1301
▁tall	-10.1303
▁singing	-10.1322
▁lot	-10.1322
▁simon	-10.1323
car	-10.1327
▁makeup	-10.134
▁miller	-10.1343
▁trees	-10.1347
▁400	-10.1348
back	-10.1354
▁safety	-10.1366
▁clear	-10.1367
▁largely	-10.1369
▁consecutive	-10.137
see	-10.1377
▁saying	-10.1381
▁ltd	-10.1381
▁1965	-10.1387
▁soldiers	-10.1388
▁occurred	-10.1391
▁generation	-10.1404
▁restaurant	-10.1421
▁reference	-10.1428
▁ceremony	-10.1429
kar	-10.1432
▁materials	-10.1433
▁chi	-10.1449
▁selection	-10.1449
▁steve	-10.1452
vi	-10.1456
kin	-10.1457
▁read	-10.1466
▁focused	-10.1467
▁rare	-10.1469
▁daughters	-10.1475
▁etc	-10.1475
▁regions	-10.1478
▁image	-10.1479
▁captured	-10.1492
▁recordings	-10.1496
▁colonel	-10.1503
▁card	-10.1516
▁1966	-10.1531
▁broad	-10.1546
ci	-10.1549
▁residential	-10.1558
▁effects	-10.1564
▁portuguese	-10.1566
▁commonwealth	-10.1567
▁ceo	-10.157
law	-10.1576
ir	-10.1578
▁finance	-10.1578
▁racial	-10.1583
▁honorary	-10.1588
▁shape	-10.159
▁canal	-10.16
▁1956	-10.1609
▁quickly	-10.1612
▁say	-10.1614
▁compared	-10.162
▁costa	-10.1626
▁31,	-10.1632
▁defeating	-10.1633
▁belgium	-10.1635
▁launch	-10.1637
▁courses	-10.1638
▁adjacent	-10.164
ate	-10.1644
▁classification	-10.1648
▁2021	-10.1664
▁sides	-10.1666
▁lu	-10.1675
▁partnership	-10.1688
▁ram	-10.1695
▁streets	-10.1705
▁(16	-10.1709
cha	-10.1717
▁endemic	-10.1718
▁price	-10.1727
▁consisting	-10.1739
▁iv	-10.1742
▁motor	-10.1744
▁vienna	-10.1747
▁holding	-10.175
▁leg	-10.1754
▁brigade	-10.1754
▁kim	-10.1759
ger	-10.1761
▁subsequent	-10.1765
▁residence	-10.1768
▁receive	-10.177
▁arrested	-10.1771
▁peaked	-10.1774
▁cinema	-10.1775
▁programming	-10.1776
ho	-10.1777
▁salt	-10.1791
ion	-10.1793
▁refers	-10.1801
▁36	-10.1806
▁runner	-10.1809
▁vocals	-10.1819
▁charts	-10.1821
-18	-10.1826
▁operates	-10.1829
gi	-10.1832
▁might	-10.1833
▁reports	-10.1835
▁ordered	-10.1839
▁1952	-10.1839
▁develop	-10.1857
▁opposition	-10.1858
▁samuel	-10.1858
▁swimming	-10.1859
which	-10.1865
tu	-10.1868
2).	-10.1877
▁shop	-10.1885
▁ho	-10.1887
=	-10.1889
▁gmina	-10.1892
▁laid	-10.1897
▁contributions	-10.1901
▁flying	-10.1904
▁indonesia	-10.1907
▁par	-10.192
▁ending	-10.192
ru	-10.1924
▁remain	-10.1928
▁models	-10.1928
▁worldwide	-10.1934
▁visit	-10.194
▁armed	-10.1941
▁visual	-10.1952
▁elevation	-10.1964
▁beyond	-10.1966
▁reaching	-10.1968
▁standing	-10.1972
▁singapore	-10.1975
▁application	-10.1975
9	-10.1979
▁passes	-10.1979
▁producing	-10.198
▁montreal	-10.1986
▁rio	-10.1987
▁distributed	-10.1989
head	-10.199
▁freedom	-10.2
▁2001.	-10.2002
▁mobile	-10.2005
▁approach	-10.2011
▁commissioner	-10.2018
yan	-10.2019
▁greece	-10.2027
gen	-10.2028
▁collaboration	-10.203
▁monument	-10.2033
▁hits	-10.2033
▁1962	-10.2035
▁churches	-10.204
pe	-10.2041
▁perform	-10.2048
▁1999,	-10.2053
▁margaret	-10.2054
▁institutions	-10.2054
▁drug	-10.2054
▁se	-10.206
▁competing	-10.206
▁2000.	-10.2063
▁ridge	-10.2064
▁singh	-10.2075
▁sunday	-10.2076
▁finnish	-10.208
▁existing	-10.2081
▁senator	-10.2081
▁visited	-10.2089
▁foot	-10.209
▁presence	-10.2092
▁gives	-10.2095
▁athletes	-10.2096
▁oklahoma	-10.2098
uk	-10.2099
san	-10.2102
▁hamilton	-10.2103
▁kind	-10.2104
▁know	-10.211
▁phd	-10.2112
▁ukraine	-10.2113
▁things	-10.2116
▁tradition	-10.212
▁wrestling	-10.2124
▁straight	-10.2125
▁kept	-10.2134
▁painted	-10.2134
age	-10.2136
▁search	-10.2143
▁heat	-10.2146
▁guitarist	-10.2148
▁artistic	-10.2148
▁frederick	-10.2151
▁knowledge	-10.2154
▁electronic	-10.2154
▁revival	-10.2159
▁alabama	-10.2166
▁hungarian	-10.2168
▁para	-10.217
▁murder	-10.2173
▁qualification	-10.2175
▁pradesh	-10.2183
▁directors	-10.2184
▁keep	-10.2186
▁ross	-10.219
▁comic	-10.2208
long	-10.2209
net	-10.2211
▁dynasty	-10.2211
ol	-10.2215
▁peninsula	-10.222
▁poverty	-10.2225
▁offer	-10.2229
▁ban	-10.2231
▁finland	-10.2238
▁bird	-10.2238
▁occupied	-10.2243
▁audience	-10.2243
▁33	-10.2244
ber	-10.2244
▁creating	-10.2251
▁simply	-10.2253
▁connecticut	-10.2256
▁pieces	-10.2256
▁frequently	-10.2261
▁note	-10.2265
▁collections	-10.2267
▁anna	-10.2273
▁translated	-10.2273
▁chemical	-10.2276
ku	-10.2278
▁flag	-10.2279
▁resulted	-10.228
▁basic	-10.2286
▁acts	-10.2304
▁1963	-10.2305
▁mississippi	-10.2305
▁approved	-10.2308
▁volleyball	-10.2316
ite	-10.2318
▁malaysia	-10.2325
▁potential	-10.2325
▁howard	-10.2326
▁90	-10.2327
▁cricketer	-10.2329
▁represents	-10.233
▁studying	-10.2332
▁outstanding	-10.2334
red	-10.2336
ac	-10.2339
▁core	-10.235
▁blues	-10.2361
▁expedition	-10.2366
▁po	-10.2366
▁narrow	-10.2375
▁shared	-10.2381
▁interview	-10.2381
▁rear	-10.2384
io	-10.2391
▁simple	-10.2405
▁antonio	-10.2411
▁walls	-10.2414
▁investment	-10.2414
▁belgian	-10.2417
▁chain	-10.242
▁pictures	-10.2421
▁told	-10.2423
▁fighting	-10.2427
▁employed	-10.2428
▁whether	-10.243
▁hired	-10.2437
▁follow	-10.2445
▁pool	-10.2459
ini	-10.2466
▁diego	-10.247
▁screen	-10.2471
▁revealed	-10.2471
▁driver	-10.2473
▁adapted	-10.2476
▁eye	-10.2476
▁ukrainian	-10.2477
▁ed	-10.2485
ting	-10.2487
▁stream	-10.249
▁starts	-10.2497
que	-10.2501
▁1936	-10.2509
▁animals	-10.2514
▁overview	-10.2517
▁expected	-10.2521
▁householder	-10.2528
);	-10.2528
▁couples	-10.2535
▁constitution	-10.2538
idae	-10.2544
2.	-10.2551
▁lane	-10.2553
▁diameter	-10.2555
▁phase	-10.256
▁puerto	-10.2563
▁mining	-10.2564
su	-10.2566
▁juan	-10.259
▁fully	-10.259
jo	-10.2593
▁map	-10.2594
▁welsh	-10.26
▁paid	-10.2603
▁harry	-10.2604
▁stands	-10.2607
▁bands	-10.2609
▁broke	-10.2612
▁coal	-10.2613
▁applications	-10.2615
▁fan	-10.2617
▁animal	-10.2618
▁funding	-10.262
▁ken	-10.2621
▁carl	-10.2623
▁designer	-10.2624
▁colonial	-10.2643
▁defending	-10.2644
▁patrick	-10.2647
▁hundred	-10.2652
▁begin	-10.266
▁legislature	-10.2664
her	-10.2665
▁sale	-10.2668
▁1946	-10.2679
▁dry	-10.268
▁duo	-10.2684
▁participate	-10.2701
▁reduced	-10.2705
▁display	-10.2709
▁extensive	-10.2711
▁authorities	-10.2717
▁1999.	-10.272
▁expansion	-10.2723
▁write	-10.2729
▁session	-10.2736
▁1959	-10.2739
▁victorian	-10.2746
▁survived	-10.2767
▁kent	-10.2777
▁1961	-10.2777
▁baron	-10.278
▁si	-10.2786
more	-10.2796
▁affiliated	-10.2808
▁1958	-10.2811
▁memory	-10.2813
▁abandoned	-10.2832
ker	-10.2837
▁summit	-10.2846
▁fruit	-10.2847
▁examples	-10.2848
▁tax	-10.2856
▁regularly	-10.2858
▁edited	-10.287
▁1939	-10.2875
▁vietnam	-10.2875
sh	-10.2877
▁pen	-10.2879
▁ranking	-10.2889
▁normal	-10.2895
▁creative	-10.29
▁credited	-10.2906
▁anthony	-10.2907
ani	-10.2908
▁ni	-10.2911
▁moon	-10.2912
▁houston	-10.2912
▁scholar	-10.2914
▁medieval	-10.2915
▁teachers	-10.292
▁universities	-10.2922
ju	-10.2922
▁eu	-10.2924
▁aviation	-10.2926
▁reform	-10.2928
▁installed	-10.2929
zi	-10.2929
▁grows	-10.2931
dy	-10.2933
ish	-10.2934
▁indoor	-10.2936
▁1998,	-10.2937
▁nigeria	-10.2937
je	-10.2939
▁extension	-10.2939
ment	-10.294
from	-10.2941
▁1947	-10.2955
▁legacy	-10.2957
▁anderson	-10.2957
▁resulting	-10.296
▁portugal	-10.2962
ies	-10.2962
▁contained	-10.2963
▁ya	-10.2963
▁compilation	-10.2972
▁34	-10.2979
▁defined	-10.2979
▁1957	-10.299
▁allows	-10.2991
▁structures	-10.2992
▁picture	-10.2996
▁relatively	-10.2996
▁let	-10.3001
▁elementary	-10.3009
▁honors	-10.3015
let	-10.3025
▁josé	-10.3028
▁details	-10.3034
▁actually	-10.3034
▁membership	-10.3043
+	-10.3047
▁lanka	-10.3052
▁sex	-10.3053
▁arab	-10.3055
▁sat	-10.3058
▁completely	-10.3058
▁stores	-10.3091
▁fans	-10.3095
▁clark	-10.3099
▁choice	-10.3109
▁ki	-10.3114
▁becomes	-10.3118
▁allen	-10.3119
";	-10.3119
▁promote	-10.3127
▁christ	-10.3131
▁brian	-10.3134
▁closely	-10.3145
▁scholarship	-10.3152
▁1944	-10.3156
▁successfully	-10.3156
▁voted	-10.316
▁downtown	-10.3162
▁billion	-10.3165
▁eleven	-10.317
▁moore	-10.3172
▁versus	-10.3173
▁louisiana	-10.318
ang	-10.3181
▁amount	-10.3182
▁coastal	-10.3184
▁extra	-10.3185
▁existence	-10.319
▁philip	-10.3194
▁hip	-10.32
;&	-10.3203
ron	-10.3204
▁dvd	-10.3204
▁businessman	-10.3211
▁passing	-10.3212
level	-10.3215
▁shore	-10.3215
▁max	-10.3216
ney	-10.3222
▁egypt	-10.3222
ze	-10.3223
▁chess	-10.3234
▁novels	-10.3234
▁sar	-10.3237
ard	-10.3244
▁arm	-10.3246
▁bottom	-10.3248
pi	-10.3259
▁anniversary	-10.3264
▁1924	-10.327
▁banks	-10.3272
▁tu	-10.3273
▁christmas	-10.3274
▁marie	-10.3276
▁weather	-10.3277
▁religion	-10.3278
air	-10.3282
▁yorkshire	-10.3286
▁minute	-10.3294
▁sets	-10.3296
▁mall	-10.3308
▁medium	-10.331
▁las	-10.3311
▁speaker	-10.3313
▁sector	-10.3313
▁sculpture	-10.3325
▁weight	-10.3328
▁secret	-10.3328
▁vehicle	-10.3331
▁glasgow	-10.3338
▁agreed	-10.3343
▁percent	-10.3347
▁nor	-10.3348
▁notably	-10.3349
▁jo	-10.335
▁covid	-10.335
▁setting	-10.3351
▁fast	-10.3352
▁lincoln	-10.3353
▁gastropod	-10.3355
lan	-10.3357
▁dog	-10.3358
!"	-10.3362
▁effort	-10.3366
▁ends	-10.337
kan	-10.337
led	-10.3371
▁stood	-10.3373
▁(),	-10.3373
▁1949	-10.3383
che	-10.3386
▁rating	-10.3388
▁battalion	-10.3388
▁criminal	-10.3396
▁try	-10.3397
▁atlanta	-10.3397
▁dj	-10.3398
▁intelligence	-10.3401
▁connection	-10.3403
▁ny	-10.3409
▁critic	-10.3409
▁developing	-10.3411
▁prefecture	-10.3413
▁honour	-10.3414
▁douglas	-10.3421
▁cdp	-10.3422
ized	-10.3422
▁yu	-10.3434
nes	-10.3437
▁1955	-10.3439
▁uncle	-10.3447
▁difficult	-10.3447
▁briefly	-10.3448
▁ku	-10.3449
▁sang	-10.3461
▁unlike	-10.3461
▁1942	-10.3462
▁hispanic	-10.3463
▁kg	-10.3473
▁communication	-10.3476
▁arranged	-10.3483
category	-10.3483
▁incumbent	-10.3492
ot	-10.35
▁tony	-10.3502
▁look	-10.3503
▁inaugural	-10.3504
▁protected	-10.3507
▁functions	-10.351
▁miami	-10.3517
▁chapter	-10.3518
▁chemistry	-10.3518
this	-10.3522
▁han	-10.3525
▁supply	-10.3525
▁cap	-10.3529
▁belonging	-10.353
ous	-10.3533
▁1900	-10.3533
▁architectural	-10.3536
▁thailand	-10.3537
ver	-10.354
▁branches	-10.3544
▁problem	-10.3548
▁mu	-10.3551
mu	-10.3553
▁appointment	-10.3557
▁1998.	-10.3565
▁hungary	-10.3566
▁discovery	-10.3568
▁satellite	-10.3577
▁ability	-10.3579
▁detroit	-10.3581
▁twin	-10.3584
▁accident	-10.3595
▁fifa	-10.3596
ica	-10.3597
▁dating	-10.3601
▁centuries	-10.3602
▁classified	-10.3606
▁walker	-10.3612
▁enter	-10.3614
▁1997,	-10.3617
▁plus	-10.3621
bu	-10.3623
▁cells	-10.3626
▁link	-10.3627
▁lawrence	-10.3633
▁needed	-10.3633
▁translation	-10.3633
ns	-10.3634
▁adam	-10.3639
▁(2	-10.3645
▁internal	-10.3646
▁arkansas	-10.3647
▁covering	-10.3649
▁standards	-10.3661
▁hands	-10.3661
era	-10.3667
▁reasons	-10.3668
▁ultimately	-10.3669
▁eighth	-10.3672
not	-10.3675
▁opposite	-10.3676
ally	-10.3682
▁1951	-10.3687
▁38	-10.3704
í	-10.3705
▁guide	-10.3705
▁1996,	-10.3709
▁chose	-10.3711
▁typical	-10.3712
▁thirty	-10.3712
▁defender	-10.3716
▁lists	-10.3717
▁1941	-10.3722
▁1954	-10.3728
▁views	-10.3731
▁dropped	-10.3733
▁credits	-10.3734
▁talk	-10.3742
▁latino	-10.3744
▁feed	-10.375
▁israeli	-10.3754
▁sections	-10.3758
▁ski	-10.3759
▁suburb	-10.3764
▁showed	-10.3765
▁citizens	-10.3776
▁influenced	-10.3776
▁1953	-10.3782
▁appearing	-10.3782
▁300	-10.3793
▁taiwan	-10.3796
▁voivodeship	-10.3798
▁tie	-10.3808
▁municipalities	-10.381
▁shooting	-10.3814
▁die	-10.3824
gar	-10.3825
hu	-10.3825
▁signing	-10.3836
▁condition	-10.3838
▁hope	-10.3839
▁admitted	-10.3843
▁disc	-10.385
▁visiting	-10.3854
▁2021,	-10.3856
▁ahead	-10.3857
▁says	-10.3858
▁papers	-10.3859
▁merchant	-10.3859
▁socialist	-10.3862
▁muslim	-10.3863
▁boundary	-10.3864
▁bring	-10.3868
▁basin	-10.387
▁abbey	-10.3873
▁unable	-10.3874
ization	-10.3892
who	-10.3896
ran	-10.3897
▁wooden	-10.3899
▁combat	-10.39
▁stay	-10.3902
▁colour	-10.3903
▁tribe	-10.3904
ella	-10.3907
▁cold	-10.3907
▁1997.	-10.3909
▁hosts	-10.3913
mm	-10.3922
▁defensive	-10.3924
▁inner	-10.3928
▁motion	-10.3938
▁effective	-10.3938
▁engaged	-10.3942
▁gordon	-10.3943
ab	-10.3945
▁hampshire	-10.3947
ier	-10.3953
▁oak	-10.3954
▁37	-10.3954
▁claims	-10.3956
▁laboratory	-10.3958
▁monastery	-10.3959
▁determined	-10.3964
▁row	-10.3965
▁underground	-10.3973
▁credit	-10.398
▁roads	-10.3983
▁passengers	-10.3984
▁entirely	-10.399
▁bal	-10.3992
▁1943	-10.4004
▁44	-10.4009
▁knight	-10.401
▁describes	-10.4017
?	-10.4023
▁whilst	-10.4039
▁restored	-10.404
▁divisions	-10.4041
▁acid	-10.4043
▁mind	-10.4047
▁nomination	-10.4049
▁specifically	-10.4053
0	-10.4062
▁decades	-10.4062
har	-10.4065
▁venue	-10.4071
▁suggested	-10.4077
▁faced	-10.4083
▁1938	-10.4086
▁(18	-10.4089
▁guinea	-10.409
▁1910	-10.4091
▁path	-10.4101
▁vehicles	-10.4101
language	-10.4106
▁tier	-10.4106
▁delhi	-10.411
▁want	-10.4111
▁1919	-10.4117
▁1996.	-10.4119
families	-10.4123
▁insurance	-10.4126
▁reign	-10.4127
▁leaf	-10.4127
▁funds	-10.4129
▁injured	-10.413
▁rise	-10.413
▁soul	-10.4132
ex	-10.4139
▁nuclear	-10.4142
dale	-10.4144
▁mouth	-10.4146
▁springs	-10.4149
▁chile	-10.4151
▁tried	-10.4166
ata	-10.4167
▁poems	-10.4168
▁onto	-10.4174
▁tim	-10.4174
▁1995,	-10.4177
colspan	-10.4178
ram	-10.4179
▁1918	-10.4183
gan	-10.4186
▁employees	-10.4187
▁users	-10.4189
▁annually	-10.4195
▁serbian	-10.4198
▁ke	-10.4199
▁marketing	-10.42
▁athlete	-10.42
▁crossing	-10.4203
▁childhood	-10.4204
▁reality	-10.4213
▁trip	-10.4223
▁lands	-10.4224
▁birds	-10.4229
▁utah	-10.4232
ai	-10.4232
▁adults	-10.4232
▁relegated	-10.4239
▁cycle	-10.4242
▁investigation	-10.4243
▁riding	-10.4252
▁maintained	-10.4253
▁degrees	-10.4255
▁pressure	-10.4265
▁fishing	-10.4281
▁sisters	-10.4283
▁1929	-10.4289
▁franchise	-10.429
▁cook	-10.4294
▁methods	-10.4295
▁window	-10.4296
ts	-10.4298
▁introduction	-10.4299
▁archbishop	-10.4303
▁broken	-10.4307
▁hollywood	-10.4308
▁substitute	-10.431
▁domain	-10.4317
fm	-10.4321
▁claim	-10.4324
▁micro	-10.4326
▁greatest	-10.434
▁1937	-10.4343
▁landscape	-10.435
season	-10.4351
▁damage	-10.4354
▁cleveland	-10.4354
-2	-10.4356
▁equal	-10.4362
dar	-10.4363
▁herself	-10.4366
▁nearest	-10.4368
yo	-10.437
▁afterwards	-10.4371
ant	-10.4377
▁bear	-10.4377
▁milan	-10.4378
▁gardens	-10.4389
▁tells	-10.4397
tan	-10.4399
▁advance	-10.4399
▁kings	-10.4408
▁masters	-10.4414
▁walk	-10.4419
▁publisher	-10.442
▁fu	-10.4422
▁organ	-10.4424
▁coalition	-10.4437
▁acted	-10.4444
▁reason	-10.4446
▁1995.	-10.4447
▁signal	-10.445
▁1922	-10.445
▁princess	-10.4453
▁dream	-10.4463
▁formally	-10.4466
▁youngest	-10.4466
▁doctorate	-10.4469
▁rooms	-10.4483
▁frame	-10.4487
▁1994,	-10.4487
▁successor	-10.4488
▁42	-10.4493
▁lecturer	-10.4494
▁trans	-10.4496
née	-10.4497
▁biggest	-10.4499
▁hour	-10.4499
▁progressive	-10.4501
▁maine	-10.4502
ano	-10.4508
▁1935	-10.4511
▁talent	-10.4512
▁madrid	-10.4512
▁q	-10.4514
type	-10.4519
▁conflict	-10.4521
▁1932	-10.4525
art	-10.453
▁pale	-10.4557
▁operate	-10.4557
▁stayed	-10.4557
▁something	-10.456
▁romania	-10.457
ino	-10.4573
▁scale	-10.4573
▁allowing	-10.4577
▁seattle	-10.4578
▁birmingham	-10.4585
▁steam	-10.4587
▁brooklyn	-10.4592
▁biology	-10.4592
▁serbia	-10.4599
▁ar	-10.4601
▁brief	-10.4614
▁temperature	-10.4615
▁manufacturing	-10.4617
▁scenes	-10.4619
▁wine	-10.4623
▁gray	-10.4625
▁tan	-10.4633
▁bears	-10.4636
▁photography	-10.4639
ung	-10.464
finals	-10.4641
▁vocal	-10.4651
▁partners	-10.4652
▁tropical	-10.4656
▁1912	-10.4656
▁interests	-10.4665
▁heard	-10.4673
▁alan	-10.4679
▁trinity	-10.4679
▁gulf	-10.4683
▁uefa	-10.4692
ensis	-10.4695
▁harris	-10.4697
▁villa	-10.4698
▁ghana	-10.47
▁restoration	-10.47
▁jane	-10.4701
▁coached	-10.4709
▁1934	-10.4711
▁drafted	-10.4724
▁headed	-10.4725
▁intersection	-10.4726
▁pittsburgh	-10.4727
▁liverpool	-10.4731
▁eric	-10.4733
▁48	-10.4735
▁1917	-10.4735
▁fe	-10.4737
▁matt	-10.4738
▁poem	-10.474
▁wings	-10.4743
best	-10.4744
▁wildlife	-10.4745
▁flower	-10.4745
▁selling	-10.4747
▁grounds	-10.4751
▁1927	-10.4753
▁cat	-10.476
▁cousin	-10.4761
▁val	-10.4761
van	-10.4761
▁islamic	-10.4767
▁(3	-10.4769
▁decade	-10.4772
▁har	-10.4773
▁rice	-10.4773
▁jordan	-10.4774
▁ta	-10.4775
▁attached	-10.4775
▁drummer	-10.4776
▁karl	-10.4777
est	-10.4778
▁(15	-10.4785
▁1925	-10.4786
▁forests	-10.4787
▁step	-10.4788
▁kill	-10.4789
▁circle	-10.4791
▁separated	-10.4791
may	-10.4798
▁ce	-10.4804
▁summary	-10.4812
▁replacing	-10.4813
▁regarded	-10.4817
▁owners	-10.4818
▁toured	-10.4825
▁tar	-10.4826
▁gender	-10.4831
▁1914	-10.4833
▁nova	-10.4835
▁munich	-10.4839
▁grow	-10.4843
▁officials	-10.4845
ap	-10.4852
▁solar	-10.4853
▁manor	-10.4862
▁rivers	-10.4864
▁artillery	-10.4866
▁managing	-10.4866
)"	-10.4867
▁pick	-10.4867
▁1923	-10.4867
▁opposed	-10.4869
▁75	-10.4871
▁tributary	-10.4872
▁1933	-10.4876
▁importance	-10.4876
▁ge	-10.4878
elected	-10.4879
▁1994.	-10.488
can	-10.4885
▁argentine	-10.4889
▁pi	-10.4893
▁1992,	-10.4894
▁1992.	-10.49
▁quite	-10.4901
▁drawn	-10.4902
▁felt	-10.4903
▁baltimore	-10.4903
▁il	-10.4906
ola	-10.4906
▁possibly	-10.4909
ff	-10.4912
▁pat	-10.4912
▁49	-10.4915
tz	-10.4919
▁1921	-10.4921
▁surrounded	-10.4925
gu	-10.4926
▁clay	-10.4936
▁capita	-10.4938
▁terminus	-10.4939
▁sense	-10.4939
▁improve	-10.4939
▁bin	-10.494
shi	-10.4941
▁ann	-10.4945
▁engines	-10.4949
▁touring	-10.4954
▁flow	-10.496
▁charity	-10.4965
▁activist	-10.4966
▁norman	-10.4966
▁shah	-10.4968
▁roy	-10.4977
▁romanian	-10.498
▁silent	-10.4986
▁pandemic	-10.4986
mp	-10.4987
▁doing	-10.4989
▁licensed	-10.499
▁tourism	-10.499
▁fly	-10.4995
▁interested	-10.4997
▁freestyle	-10.5003
▁praised	-10.5003
▁portland	-10.5006
▁actors	-10.5008
▁austin	-10.5012
▁alfred	-10.5014
▁terminal	-10.5015
▁1926	-10.5016
▁hans	-10.502
including	-10.5023
▁kar	-10.503
▁matter	-10.503
▁journey	-10.5032
▁establish	-10.5034
▁worth	-10.5036
▁margin	-10.5039
▁situation	-10.5039
eh	-10.504
▁courts	-10.5041
▁powerful	-10.5042
▁combination	-10.5049
▁nelson	-10.5055
▁audio	-10.5056
▁cave	-10.5058
▁41	-10.506
▁till	-10.5067
team	-10.5072
▁borders	-10.5075
▁earliest	-10.5076
▁rico	-10.508
▁snail	-10.5085
▁rounds	-10.5086
burg	-10.5087
▁campbell	-10.5089
▁statue	-10.5093
▁morgan	-10.5101
▁budget	-10.5105
▁thompson	-10.5107
hill	-10.5108
▁platforms	-10.5112
ria	-10.5116
over	-10.5118
▁alberta	-10.5119
▁ford	-10.5128
▁triple	-10.5129
▁lo	-10.5132
▁risk	-10.5132
ster	-10.5134
▁marathon	-10.5137
▁seed	-10.5138
▁competitive	-10.5147
▁finds	-10.515
▁peru	-10.5159
▁identity	-10.5167
▁routes	-10.5169
▁exhibitions	-10.5169
▁carry	-10.517
▁eldest	-10.5172
▁1931	-10.5173
▁exist	-10.518
▁39	-10.5182
▁sell	-10.5188
tel	-10.5194
▁movies	-10.5194
▁gay	-10.5198
▁northwestern	-10.5198
▁1993.	-10.5203
▁aid	-10.5206
▁flowering	-10.5208
▁needs	-10.5216
▁1993,	-10.522
▁marshall	-10.5222
▁stewart	-10.5224
▁attend	-10.5227
▁apart	-10.5234
league	-10.5239
-17	-10.5245
▁kenya	-10.5248
ium	-10.5255
▁heavily	-10.5257
▁skills	-10.5261
▁dar	-10.5265
▁designs	-10.5265
▁videos	-10.5272
▁roster	-10.5274
▁refused	-10.5274
▁elder	-10.5275
▁laws	-10.5277
▁descent	-10.5277
▁contain	-10.528
tra	-10.528
▁corporate	-10.5284
sha	-10.5285
▁contact	-10.5293
▁instrumental	-10.53
▁spirit	-10.5307
▁ethnic	-10.5316
▁driving	-10.5318
▁businesses	-10.5322
▁youtube	-10.5323
▁dated	-10.5326
▁outdoor	-10.5327
▁assumed	-10.533
▁gate	-10.5336
▁door	-10.5337
▁1991.	-10.534
▁dave	-10.5347
▁retained	-10.5352
▁subfamily	-10.5352
▁sh	-10.5354
▁playoffs	-10.5355
▁bush	-10.5362
▁64	-10.5369
▁saturday	-10.5372
▁roughly	-10.5373
▁parallel	-10.5374
▁instruments	-10.5375
▁1991,	-10.538
▁commerce	-10.5381
chief	-10.5381
▁mal	-10.5383
▁russell	-10.5387
▁roll	-10.5395
▁outer	-10.5401
▁dakota	-10.5402
▁ra	-10.5402
▁ch	-10.5419
▁occupation	-10.5419
▁beijing	-10.5421
▁friendly	-10.5426
▁ill	-10.5427
▁visitors	-10.5427
▁christopher	-10.5429
profit	-10.5429
sch	-10.544
▁replace	-10.5444
▁ninth	-10.5451
ik	-10.5453
▁landing	-10.5454
life	-10.5457
dan	-10.546
▁subjects	-10.546
▁pioneer	-10.5462
▁ownership	-10.5463
▁colony	-10.5464
▁save	-10.5465
end	-10.5466
▁storm	-10.5471
▁advisory	-10.5476
▁persons	-10.548
▁adelaide	-10.548
▁meant	-10.5484
▁symphony	-10.549
▁victor	-10.5493
▁richmond	-10.5494
iya	-10.5498
▁bodies	-10.5499
ray	-10.5506
ck	-10.5512
▁ordained	-10.5513
▁additionally	-10.5515
▁150	-10.5515
▁statistical	-10.5516
▁panel	-10.5517
▁nu	-10.5517
▁grandfather	-10.5524
▁filmed	-10.5525
▁universal	-10.5526
▁gar	-10.5526
mon	-10.5528
▁accompanied	-10.5534
▁donated	-10.5538
▁evening	-10.554
ut	-10.5542
▁camera	-10.5543
▁azerbaijan	-10.555
▁kilometers	-10.555
▁industries	-10.5554
▁ruled	-10.5556
▁opportunity	-10.5558
▁user	-10.5559
▁murray	-10.556
▁initiative	-10.5564
▁sugar	-10.5568
min	-10.5575
▁exhibited	-10.5576
▁print	-10.5581
nik	-10.5582
▁clan	-10.5592
▁treaty	-10.5593
▁patients	-10.5596
▁duty	-10.5599
final	-10.5599
▁beautiful	-10.5603
▁nepal	-10.5609
▁resident	-10.5616
▁clinical	-10.5619
▁contributing	-10.5619
▁distinct	-10.562
▁hat	-10.5623
▁reaction	-10.5625
▁authors	-10.5626
▁carlos	-10.5627
▁compiled	-10.5631
king	-10.5632
ston	-10.5637
var	-10.5638
▁64,	-10.5639
ren	-10.564
▁broadway	-10.5645
▁purchase	-10.5647
▁lakes	-10.5651
▁internationally	-10.5651
▁license	-10.5657
▁attempts	-10.5658
▁cal	-10.5658
▁comics	-10.566
▁"(	-10.5662
▁subsidiary	-10.5664
▁concerts	-10.5664
ius	-10.5668
pro	-10.5671
▁dallas	-10.5672
▁hull	-10.5674
▁leads	-10.5674
▁vancouver	-10.5675
▁seeds	-10.5678
▁solid	-10.5684
nia	-10.5686
▁ballet	-10.5686
tes	-10.5689
▁franklin	-10.5691
▁demolished	-10.5692
▁bengal	-10.5694
▁newspapers	-10.5696
▁belongs	-10.5697
19	-10.57
▁images	-10.5702
▁infrastructure	-10.5703
ura	-10.5708
▁1890	-10.5709
▁celebrated	-10.5709
die	-10.5711
tus	-10.5713
▁turns	-10.5717
▁+	-10.5717
▁factor	-10.5719
▁alex	-10.572
▁fred	-10.5721
▁sarah	-10.5721
▁...	-10.573
▁bid	-10.5731
▁legend	-10.5731
▁baptist	-10.5732
▁planet	-10.5732
▁soil	-10.5736
▁ways	-10.5736
▁charter	-10.5738
▁roger	-10.5741
rock	-10.5741
▁incident	-10.5744
▁surgery	-10.5745
▁pierre	-10.5756
▁abroad	-10.576
▁kelly	-10.576
▁wright	-10.5773
▁experimental	-10.5775
▁tenure	-10.5779
▁waters	-10.578
▁larvae	-10.5782
▁attempted	-10.5784
▁va	-10.5787
▁progress	-10.5792
▁abc	-10.5794
▁duties	-10.5797
▁1908	-10.5798
▁indigenous	-10.5802
▁qualify	-10.5804
▁sexual	-10.581
▁gets	-10.5816
▁railways	-10.582
▁operational	-10.5821
▁humans	-10.5822
▁ju	-10.5823
▁gang	-10.5824
▁drew	-10.5827
▁residing	-10.5832
▁extinct	-10.5832
▁robinson	-10.5835
▁southeastern	-10.5835
▁prevent	-10.5836
▁bristol	-10.5859
▁volumes	-10.586
▁participation	-10.5863
love	-10.5864
▁beauty	-10.5866
▁calendar	-10.5868
ara	-10.5872
▁adaptation	-10.5877
▁hu	-10.5879
▁stages	-10.5881
▁forming	-10.5886
▁enemy	-10.5888
▁vessel	-10.5888
▁portrait	-10.5896
▁graham	-10.5902
▁formal	-10.5906
▁são	-10.5908
▁continental	-10.5909
▁mon	-10.5911
▁escape	-10.5912
died	-10.5912
▁wingspan	-10.5915
▁serious	-10.5921
▁earning	-10.5923
ska	-10.5923
▁adams	-10.5925
ban	-10.5927
▁plain	-10.5929
▁speech	-10.5933
▁auto	-10.5933
▁cannot	-10.5938
▁getting	-10.5939
▁editions	-10.5941
▁sought	-10.5941
▁scientist	-10.5943
▁rebuilt	-10.5945
▁wa	-10.5946
▁desert	-10.5949
▁1989.	-10.5949
▁goods	-10.595
▁physician	-10.5952
▁column	-10.5953
▁snow	-10.5957
▁photo	-10.5957
▁rain	-10.5959
▁replacement	-10.5966
▁drawing	-10.5966
▁mix	-10.5973
▁regarding	-10.5976
▁brain	-10.5976
▁tunnel	-10.5979
ring	-10.5982
right	-10.5982
▁xi	-10.5991
▁ham	-10.5992
▁necessary	-10.5994
▁ryan	-10.5995
▁premiere	-10.5999
▁target	-10.6003
▁coaches	-10.6009
▁scheme	-10.6015
▁sponsored	-10.6019
▁journalism	-10.602
▁measures	-10.6021
▁relocated	-10.6028
▁hop	-10.6031
▁equivalent	-10.6031
▁ga	-10.6038
▁baker	-10.6041
▁2021.	-10.6045
▁controversy	-10.6047
▁serie	-10.6049
▁mini	-10.6049
▁appeal	-10.605
▁determine	-10.6052
-20	-10.6054
▁think	-10.6054
▁cerambycidae	-10.606
▁objects	-10.6061
western	-10.607
formerly	-10.6071
▁bruce	-10.6071
▁tries	-10.6072
▁concluded	-10.6073
▁influential	-10.6075
▁44,	-10.608
▁1916	-10.6084
▁rising	-10.609
▁eliminated	-10.6091
you	-10.6094
▁baby	-10.6095
▁relay	-10.6098
▁chance	-10.6098
▁tournaments	-10.61
▁55	-10.6102
▁surviving	-10.6103
white	-10.6103
▁jesus	-10.6106
▁otherwise	-10.6108
▁depth	-10.6109
ari	-10.6112
▁jump	-10.6113
▁donald	-10.6113
▁rev	-10.6115
style	-10.612
▁genre	-10.6127
▁hart	-10.6129
▁les	-10.6134
▁techniques	-10.6134
▁guns	-10.6136
tha	-10.6137
▁barcelona	-10.6141
▁fuel	-10.6142
▁meets	-10.6146
▁failure	-10.615
▁retiring	-10.6153
▁recipient	-10.6154
▁protect	-10.6154
▁entering	-10.6161
▁address	-10.6162
▁lions	-10.6163
▁concrete	-10.6164
zo	-10.6165
▁electrical	-10.6166
▁learned	-10.6171
▁tied	-10.6174
▁mean	-10.6174
▁col	-10.6177
▁device	-10.6183
top	-10.6184
▁heads	-10.6184
▁erected	-10.6187
▁mills	-10.6187
▁amsterdam	-10.6187
▁watch	-10.6189
▁committed	-10.619
▁occur	-10.6195
▁proved	-10.6197
▁|	-10.6199
▁controlled	-10.62
▁guy	-10.6202
two	-10.6206
▁focuses	-10.6207
▁advertising	-10.6209
▁cha	-10.621
▁showing	-10.6211
▁didn	-10.6222
stone	-10.6232
▁wave	-10.6236
10	-10.6238
▁popularity	-10.6248
▁pine	-10.6251
▁items	-10.6252
▁mis	-10.6252
wing	-10.6253
▁ver	-10.6254
▁gain	-10.6263
▁kevin	-10.6267
▁merger	-10.6275
▁fellowship	-10.6276
▁festivals	-10.6279
▁1915	-10.6279
▁dis	-10.628
▁ottoman	-10.6282
▁glen	-10.6282
▁vocalist	-10.6293
pp	-10.6306
▁den	-10.6307
▁ago	-10.6308
▁sequence	-10.631
▁orthodox	-10.6311
▁mor	-10.6313
cc	-10.6314
▁documents	-10.6315
▁storage	-10.6319
din	-10.6321
▁morris	-10.6326
▁birthday	-10.6331
▁looking	-10.6335
▁observed	-10.6339
▁inducted	-10.6343
▁avoid	-10.6344
▁participating	-10.6344
▁nick	-10.6351
▁1989,	-10.6355
abad	-10.6358
▁1880	-10.6358
▁colombia	-10.6359
▁soldier	-10.6359
port	-10.6364
▁1988.	-10.6364
▁increasing	-10.6364
ae	-10.6365
wi	-10.6367
▁iranian	-10.6367
▁orleans	-10.6369
▁magic	-10.6372
▁52	-10.6385
south	-10.6392
▁choir	-10.6392
▁democrat	-10.6402
18	-10.6402
▁script	-10.6406
▁reservoir	-10.6412
▁none	-10.6418
▁homes	-10.642
▁emergency	-10.6429
ev	-10.6431
▁pianist	-10.6432
▁1990,	-10.6433
▁1913	-10.6433
▁revolutionary	-10.6436
▁1911	-10.6443
▁semifinals	-10.6449
▁helping	-10.645
▁ja	-10.6452
▁iraq	-10.6456
▁net	-10.6457
jan	-10.6458
▁existed	-10.6458
▁pin	-10.6459
▁delivered	-10.646
▁calling	-10.6464
▁attending	-10.6465
dis	-10.6469
▁organised	-10.6475
▁attacks	-10.6478
tor	-10.6479
▁shi	-10.6484
▁athens	-10.6487
▁perhaps	-10.6488
–17	-10.6488
▁grown	-10.6493
▁spoken	-10.6494
▁1986.	-10.6494
▁za	-10.6496
part	-10.6497
▁resistance	-10.6504
▁stanley	-10.6506
▁derby	-10.6509
▁43	-10.6509
▁improved	-10.651
▁ne	-10.6511
▁faith	-10.6513
▁mollusk	-10.6517
▁bond	-10.6517
▁bio	-10.6521
▁saints	-10.6522
▁representation	-10.6523
▁pink	-10.6532
▁parks	-10.6532
▁forewings	-10.6535
▁stating	-10.654
ref	-10.6546
▁vision	-10.6548
▁virgin	-10.6548
▁(4	-10.655
▁reporter	-10.6558
▁1990.	-10.6562
▁occasionally	-10.6562
▁offering	-10.6564
▁mrs	-10.657
▁sole	-10.6576
▁commons	-10.6577
▁seconds	-10.6581
▁punjab	-10.6583
▁eyes	-10.6588
▁glacier	-10.6597
af	-10.6598
▁neo	-10.6598
▁amongst	-10.6601
▁relief	-10.6602
▁cable	-10.6602
later	-10.6608
▁trying	-10.6608
▁kennedy	-10.6615
▁kerala	-10.6617
▁jay	-10.6618
▁bor	-10.6619
▁collaborated	-10.6621
ated	-10.6625
▁innings	-10.6627
▁belt	-10.6628
▁auckland	-10.6628
▁sha	-10.6628
▁produces	-10.6629
▁nothing	-10.6629
▁longest	-10.6631
▁toward	-10.6633
▁completing	-10.6634
▁46	-10.6634
▁spin	-10.6639
▁invasion	-10.6645
▁hunter	-10.6646
▁prague	-10.6647
▁var	-10.6647
ised	-10.6648
ser	-10.6649
▁tigers	-10.6649
▁warren	-10.665
vo	-10.6651
▁egyptian	-10.6651
nu	-10.6656
▁superior	-10.6659
▁benjamin	-10.6662
▁tail	-10.6663
fer	-10.6663
▁tank	-10.6671
▁psychology	-10.6674
▁retail	-10.6683
▁sabha	-10.6684
des	-10.6684
▁manufacturer	-10.6687
tri	-10.6689
▁undergraduate	-10.6689
ky	-10.6697
▁romantic	-10.6699
▁voting	-10.6703
▁bulgarian	-10.671
▁songwriter	-10.6722
▁task	-10.6732
ea	-10.6735
▁ideas	-10.6735
vin	-10.6746
▁collegiate	-10.6751
▁losses	-10.6753
ita	-10.6761
▁preserved	-10.6764
▁charlotte	-10.6772
▁object	-10.6777
cher	-10.6778
▁fighter	-10.6779
▁sessions	-10.678
▁causes	-10.6784
▁sporting	-10.6785
dal	-10.6785
▁nba	-10.6787
▁soft	-10.6788
▁caribbean	-10.6788
▁graduation	-10.6789
▁archaeological	-10.679
▁ferry	-10.6796
▁1987.	-10.6796
▁47	-10.6796
▁technique	-10.68
▁offensive	-10.6801
she	-10.6804
▁calls	-10.6806
▁easily	-10.6812
▁yale	-10.6816
▁achievement	-10.6816
▁temporary	-10.6823
▁1985.	-10.6827
tar	-10.6828
▁1889	-10.6832
▁attacked	-10.6844
▁bit	-10.6846
ich	-10.6847
▁accused	-10.6854
▁ji	-10.6855
▁ceased	-10.6857
▁dc	-10.6861
▁origins	-10.6862
ell	-10.6863
▁trading	-10.6864
▁engineers	-10.6867
▁mad	-10.687
▁fixed	-10.6872
▁1987,	-10.6882
▁linked	-10.6884
▁venture	-10.6885
▁vs	-10.6892
▁allmusic	-10.6892
▁jacob	-10.6896
▁yard	-10.69
world	-10.69
▁nazi	-10.6902
▁completion	-10.6907
▁luis	-10.6912
▁resort	-10.6913
▁missing	-10.6914
▁boundaries	-10.6914
▁purposes	-10.6918
▁carter	-10.6928
▁aggregate	-10.6933
▁tea	-10.6934
▁categories	-10.6945
sc	-10.6948
▁matthew	-10.6953
pu	-10.6953
▁trio	-10.6954
▁seems	-10.6959
▁1982.	-10.696
▁tech	-10.6966
▁shopping	-10.6966
black	-10.6967
ted	-10.6973
▁counter	-10.6977
▁mitchell	-10.6979
del	-10.6979
bel	-10.698
▁really	-10.6984
▁killing	-10.6985
▁lay	-10.6986
▁buffalo	-10.6992
▁nhl	-10.6992
▁ensemble	-10.6995
ive	-10.6999
▁goalkeeper	-10.7
▁ti	-10.7006
▁uganda	-10.7006
▁cited	-10.7008
▁actions	-10.7008
ett	-10.7011
▁continuing	-10.7014
▁1906	-10.7015
▁animated	-10.7017
▁nevada	-10.7018
ula	-10.7022
▁expert	-10.7024
ary	-10.7024
▁violence	-10.7027
▁shares	-10.7028
op	-10.7031
▁wu	-10.7031
▁assistance	-10.7032
▁arabic	-10.7035
▁phil	-10.7041
▁hunt	-10.7044
▁seminary	-10.7051
▁damaged	-10.7052
align	-10.7053
founded	-10.7054
▁occasions	-10.7056
▁wounded	-10.7061
▁bull	-10.7061
▁grass	-10.7061
▁horror	-10.7078
▁kan	-10.7081
▁question	-10.7084
▁robin	-10.7089
yl	-10.7094
▁vol	-10.7102
term	-10.7107
▁bernard	-10.7113
▁1904	-10.7114
▁bu	-10.7114
▁lab	-10.7116
▁manga	-10.7123
▁jimmy	-10.7128
▁housed	-10.7132
▁rapid	-10.7137
▁acres	-10.7139
▁1000	-10.714
▁wayne	-10.7142
▁compositions	-10.7146
ful	-10.7147
▁transit	-10.7148
▁euro	-10.7155
▁unusual	-10.7155
dia	-10.7157
▁releases	-10.7157
▁filled	-10.7164
▁somewhat	-10.7168
▁1984.	-10.7169
▁1983.	-10.7171
▁os	-10.7175
▁southwestern	-10.7176
▁1988,	-10.7179
▁coverage	-10.7181
▁clerk	-10.7185
rin	-10.7187
president	-10.719
▁contribution	-10.7191
fl	-10.7191
▁comprises	-10.7193
▁criticism	-10.7194
▁northeastern	-10.7197
▁integrated	-10.7199
▁printed	-10.7199
▁mail	-10.7201
ven	-10.7201
▁string	-10.7205
▁farmer	-10.7206
▁sing	-10.7208
▁responsibility	-10.721
▁im	-10.721
fu	-10.7212
▁belonged	-10.7215
▁51	-10.7215
▁fantasy	-10.7216
▁revenue	-10.7219
▁bulgaria	-10.7223
▁muhammad	-10.7225
▁photographer	-10.7225
▁request	-10.7231
▁genera	-10.7234
▁wolf	-10.7239
▁topics	-10.7242
▁(10	-10.7243
cu	-10.7243
▁mosque	-10.7253
▁carrying	-10.7261
length	-10.7265
▁1905	-10.7266
▁posted	-10.7273
▁caught	-10.7273
▁why	-10.7275
▁nicholas	-10.7279
▁barbara	-10.7283
▁illustrated	-10.7287
▁magazines	-10.729
▁pe	-10.7296
▁measure	-10.7297
▁bath	-10.7299
▁hawaii	-10.73
▁strike	-10.7301
▁pattern	-10.7305
▁cork	-10.7308
len	-10.7312
winning	-10.7315
▁hair	-10.7316
▁cancelled	-10.7321
▁vermont	-10.7328
▁sung	-10.7328
▁1909	-10.733
stein	-10.7331
▁visible	-10.7334
▁specialized	-10.7339
12	-10.7347
place	-10.7349
▁stockholm	-10.735
▁sweet	-10.735
cy	-10.7353
▁sp	-10.7355
▁er	-10.7356
▁apple	-10.7364
march	-10.7368
.”	-10.7371
▁plate	-10.7374
▁boxing	-10.7375
▁petersburg	-10.7379
://	-10.7384
▁cooper	-10.7384
▁capture	-10.7385
▁actual	-10.7385
down	-10.7385
▁1986,	-10.7388
▁suicide	-10.739
▁giant	-10.7392
▁constitutional	-10.7392
▁canton	-10.7394
▁thereafter	-10.7399
▁themes	-10.74
▁grammar	-10.7408
▁gu	-10.7409
▁app	-10.7411
▁monthly	-10.7416
▁crisis	-10.7418
▁herbert	-10.742
▁funded	-10.7423
-4	-10.7426
▁florence	-10.7428
▁widow	-10.743
yu	-10.7434
▁charged	-10.7445
▁enrolled	-10.7448
▁smooth	-10.7448
par	-10.745
val	-10.7452
▁expressed	-10.7453
▁certified	-10.7454
▁grace	-10.7454
▁poll	-10.7455
▁1870	-10.7459
▁(9	-10.7459
▁bed	-10.7461
▁1979.	-10.7463
▁sultan	-10.7465
ken	-10.7472
ou	-10.7473
▁1907	-10.7474
▁grandson	-10.7474
▁pursue	-10.7478
▁playoff	-10.7478
first	-10.749
▁(5	-10.7491
▁evans	-10.7495
▁characteristics	-10.7498
▁nominations	-10.7499
ros	-10.7502
▁elite	-10.7502
▁fifteen	-10.7507
▁catherine	-10.7508
▁jeff	-10.7508
ps	-10.751
▁bright	-10.7515
▁testing	-10.7519
big	-10.7519
▁suspended	-10.752
▁resolution	-10.7522
▁taxonomy	-10.753
▁easy	-10.7531
▁boats	-10.7533
▁mediterranean	-10.7533
▁54	-10.7536
▁remainder	-10.7538
▁cardinal	-10.7545
▁prepared	-10.7551
▁congo	-10.7552
▁alaska	-10.7553
▁opponents	-10.7554
cho	-10.7554
▁blocks	-10.7558
▁editorial	-10.7559
songwriter	-10.7565
50	-10.7567
▁resignation	-10.757
▁roots	-10.7572
▁traveled	-10.7577
▁mental	-10.7578
central	-10.758
▁arch	-10.758
▁forum	-10.7581
▁advisor	-10.7582
▁croatian	-10.7584
rat	-10.7587
▁pm	-10.7587
▁ottawa	-10.7588
▁rob	-10.7593
▁gary	-10.76
▁cash	-10.7603
▁raj	-10.7606
▁employment	-10.7606
▁harbour	-10.7615
▁autonomous	-10.7617
nan	-10.7619
▁drop	-10.7624
–19	-10.7624
▁philippine	-10.7625
▁tel	-10.7637
▁leeds	-10.7639
▁jury	-10.7642
▁harbor	-10.7644
▁metre	-10.7646
▁cooperation	-10.7651
▁pole	-10.7653
▁berkeley	-10.7654
ika	-10.7654
ali	-10.7657
▁rescue	-10.7658
-3	-10.766
▁instrument	-10.7663
water	-10.7664
▁spots	-10.7664
▁poly	-10.7666
▁bur	-10.7667
▁thai	-10.767
▁involving	-10.7674
▁croatia	-10.7676
▁bold	-10.7683
cal	-10.769
▁powers	-10.7692
▁stopped	-10.7695
▁volunteer	-10.7696
▁negative	-10.7696
▁intermediate	-10.7697
▁lasted	-10.7697
▁networks	-10.7698
ning	-10.7699
▁tools	-10.7703
▁wellington	-10.7707
▁scholars	-10.7711
▁locally	-10.7712
▁marks	-10.7717
▁skin	-10.7722
▁runners	-10.7726
▁molecular	-10.773
▁turner	-10.7736
▁palm	-10.774
▁disney	-10.7741
▁arrival	-10.7741
▁1985,	-10.7743
á	-10.7743
▁designation	-10.7743
▁handball	-10.7745
▁warner	-10.7754
▁angel	-10.7756
▁statement	-10.7758
stra	-10.7765
row	-10.7774
▁ranks	-10.7776
▁safe	-10.7783
bank	-10.7787
▁bag	-10.7788
▁56	-10.7789
▁tell	-10.7795
▁orders	-10.7798
round	-10.7803
▁ages	-10.7805
▁devices	-10.7805
▁peer	-10.7806
▁universe	-10.7809
▁vessels	-10.7809
▁alice	-10.7809
▁stem	-10.7813
▁strength	-10.7814
▁bat	-10.7815
bach	-10.7818
▁ron	-10.7823
▁overseas	-10.7827
▁assists	-10.7828
▁literacy	-10.7828
▁lie	-10.7831
▁diplomatic	-10.7833
▁(6	-10.7838
▁index	-10.7841
om	-10.7841
?"	-10.7841
▁baronet	-10.7845
▁bible	-10.7849
▁values	-10.7852
▁causing	-10.7854
▁raise	-10.7857
▁lang	-10.7866
▁afghanistan	-10.7867
▁billy	-10.7871
▁cincinnati	-10.7871
▁ian	-10.7875
▁experiences	-10.7883
▁rocky	-10.7886
▁ft	-10.7887
|	-10.7887
▁legs	-10.7889
▁departure	-10.7889
run	-10.7892
▁horn	-10.7893
sson	-10.7898
point	-10.7899
▁sur	-10.7902
▁tenth	-10.7906
▁besides	-10.7906
▁johnny	-10.7907
▁isolated	-10.791
▁rifle	-10.7914
wan	-10.7916
▁weapons	-10.7917
▁shanghai	-10.7919
▁reputation	-10.792
▁brisbane	-10.7934
▁demand	-10.7934
▁bonus	-10.7941
▁aspects	-10.7942
▁merit	-10.7942
:#	-10.7945
▁commanded	-10.7947
▁strategic	-10.7949
▁diamond	-10.795
▁siege	-10.7953
▁stanford	-10.7953
▁eagles	-10.7955
▁markets	-10.7962
fe	-10.7967
▁min	-10.797
▁lin	-10.7973
▁hi	-10.7973
▁phone	-10.7975
▁skating	-10.7976
▁rangers	-10.7976
▁standings	-10.7982
▁etymology	-10.7984
▁sierra	-10.7984
▁believe	-10.7989
▁rival	-10.7991
▁bel	-10.7993
▁participants	-10.7993
lis	-10.7995
▁sprint	-10.7997
▁copenhagen	-10.7999
▁weekend	-10.8001
▁dual	-10.8007
▁1974.	-10.8009
▁connecting	-10.8013
▁conductor	-10.8013
▁armenian	-10.8015
▁sentenced	-10.8015
gate	-10.8016
▁equipped	-10.8017
▁thousand	-10.8017
▁ibn	-10.8017
▁norfolk	-10.802
▁noble	-10.802
▁modified	-10.802
▁farmers	-10.8021
▁understanding	-10.8023
▁producers	-10.8031
▁newcastle	-10.8038
▁historically	-10.8041
▁thin	-10.8043
▁hugh	-10.8044
▁file	-10.8047
▁fun	-10.8047
▁1903	-10.8048
▁hal	-10.805
▁hamburg	-10.8053
▁connects	-10.8057
▁foster	-10.8058
▁mur	-10.8061
tal	-10.8061
mont	-10.8064
los	-10.8072
▁rocks	-10.8073
▁che	-10.8077
▁hero	-10.8079
▁context	-10.808
▁cards	-10.8081
▁1978.	-10.8083
▁sum	-10.8084
tis	-10.8087
▁vincent	-10.8087
gun	-10.809
▁1984,	-10.809
▁mel	-10.8095
pan	-10.8095
▁abolished	-10.8097
▁montana	-10.8098
▁cuba	-10.81
▁aim	-10.8104
ada	-10.8106
▁adventure	-10.8114
▁plane	-10.8115
▁und	-10.8116
▁achieve	-10.8118
▁admiral	-10.8119
sur	-10.8123
ph	-10.8131
▁warsaw	-10.8132
bert	-10.8134
▁segment	-10.8134
para	-10.8135
ena	-10.8136
worth	-10.8137
ok	-10.8137
▁maintenance	-10.8138
▁submarine	-10.814
▁territories	-10.8145
▁carbon	-10.8152
▁ride	-10.8156
▁fresh	-10.8163
▁strategy	-10.8166
▁forty	-10.8168
▁manhattan	-10.8169
▁drum	-10.817
▁illness	-10.8172
tin	-10.8175
▁charges	-10.8177
▁settlements	-10.8183
▁congregation	-10.8187
▁tourist	-10.8191
▁jerusalem	-10.8194
ette	-10.8194
▁episcopal	-10.8194
▁cycling	-10.8196
▁respect	-10.8197
▁relative	-10.8199
▁ber	-10.8201
▁pit	-10.8208
▁nebraska	-10.8208
▁jon	-10.821
":	-10.8212
▁wang	-10.8213
▁executed	-10.8217
▁división	-10.8219
ee	-10.822
▁1902	-10.8222
▁technologies	-10.8223
▁architects	-10.8224
▁judges	-10.8228
▁venice	-10.8232
▁hay	-10.8232
▁mines	-10.8232
minute	-10.8233
▁ivan	-10.8237
▁affected	-10.8238
▁advocate	-10.8239
free	-10.8242
▁manuscript	-10.8243
▁cattle	-10.8246
▁sk	-10.8246
▁grove	-10.8248
▁document	-10.8249
ida	-10.8249
▁1901	-10.825
▁supports	-10.8254
▁bow	-10.8255
▁adding	-10.8259
ova	-10.826
▁antarctic	-10.827
▁significance	-10.8271
▁1972.	-10.8273
▁120	-10.8274
▁lifetime	-10.8276
▁slow	-10.828
▁op	-10.828
▁mono	-10.8282
ay	-10.8283
▁rated	-10.8287
▁extremely	-10.8288
▁administrator	-10.8289
▁mumbai	-10.8291
▁delaware	-10.8292
ud	-10.8298
aka	-10.8299
▁thesis	-10.8306
▁citizen	-10.8308
▁milk	-10.831
▁spending	-10.8312
▁raja	-10.8312
▁jam	-10.8319
▁judicial	-10.8319
▁traded	-10.8321
-12	-10.8321
bra	-10.8322
-10	-10.8328
▁ticket	-10.8329
▁66	-10.8334
▁kara	-10.8335
▁consultant	-10.8337
–16	-10.8337
▁1945,	-10.8342
▁recreation	-10.8343
high	-10.8345
rum	-10.8346
ez	-10.835
▁theology	-10.8353
▁manufactured	-10.8354
▁trials	-10.8355
▁parker	-10.8356
▁anglican	-10.8356
▁parent	-10.8359
▁gone	-10.8366
▁monte	-10.8367
▁stan	-10.8368
▁locomotives	-10.8368
uri	-10.8372
▁1973.	-10.8377
▁beating	-10.8377
▁picked	-10.8382
▁mechanical	-10.8385
▁attracted	-10.8386
▁limit	-10.8388
▁patrol	-10.8393
▁sheriff	-10.8401
▁brook	-10.8402
ach	-10.8403
usa	-10.8403
▁ro	-10.8404
ig	-10.8406
▁53	-10.8407
▁proper	-10.8408
▁components	-10.8411
▁cho	-10.8413
nt	-10.8413
▁hometown	-10.8416
▁harrison	-10.8418
sar	-10.8431
ington	-10.8432
▁animation	-10.8436
▁helen	-10.8438
game	-10.8439
pm	-10.8439
▁meetings	-10.844
▁compound	-10.8443
▁tip	-10.8443
ens	-10.8445
▁venezuela	-10.8447
▁relegation	-10.8447
our	-10.8452
▁achievements	-10.8456
tier	-10.846
▁maintain	-10.8469
▁1976.	-10.8469
lon	-10.8474
▁1975.	-10.8474
ship	-10.8475
▁rap	-10.8476
▁subspecies	-10.8479
▁naming	-10.8479
▁1981.	-10.8482
kov	-10.8483
use	-10.8489
section	-10.8491
▁hamlet	-10.8501
▁accessible	-10.8501
▁kai	-10.8503
▁wedding	-10.8507
▁es	-10.8507
▁1982,	-10.8508
pop	-10.8509
16	-10.8512
bit	-10.8514
▁feel	-10.8519
▁sharp	-10.852
▁reaches	-10.8521
▁tours	-10.8521
▁experienced	-10.8525
▁cargo	-10.8526
▁embassy	-10.8526
▁persian	-10.8528
▁punk	-10.8529
▁closure	-10.853
aria	-10.8534
▁jonathan	-10.8535
▁mason	-10.8535
▁disbanded	-10.8536
▁johann	-10.854
iv	-10.8542
far	-10.8543
▁strip	-10.8547
hour	-10.8551
▁reduce	-10.8553
▁57	-10.8555
▁extensively	-10.8559
▁solution	-10.8563
▁mounted	-10.8568
▁facing	-10.8568
▁saudi	-10.8572
▁expression	-10.8574
▁butterfly	-10.8579
▁horses	-10.858
▁photographs	-10.8584
▁suffering	-10.8584
▁shield	-10.8588
▁mathematical	-10.8594
▁voters	-10.8595
▁specialist	-10.8599
founder	-10.86
izing	-10.86
▁1860	-10.8604
▁barry	-10.8604
▁missed	-10.8606
▁attributed	-10.8607
▁copper	-10.8608
▁1980.	-10.8616
▁thick	-10.8622
▁nashville	-10.8623
oni	-10.8625
tt	-10.8629
▁characterized	-10.863
oh	-10.8632
▁cbs	-10.8634
▁devoted	-10.8636
pin	-10.8637
▁72	-10.8637
▁headquartered	-10.8644
▁fictional	-10.8645
▁dancer	-10.8647
▁cavalry	-10.8647
state	-10.8649
▁writes	-10.865
▁civic	-10.8654
▁indicated	-10.8655
▁injuries	-10.8663
▁observatory	-10.8666
▁lloyd	-10.8666
▁tin	-10.8667
▁threatened	-10.8669
▁capable	-10.8675
▁holiday	-10.8677
▁secure	-10.8677
▁finding	-10.8678
▁oliver	-10.868
▁diploma	-10.8683
▁kal	-10.8695
▁traditionally	-10.8704
▁egg	-10.8707
▁crosses	-10.8715
▁hindu	-10.8715
▁tribute	-10.8717
▁operator	-10.8717
▁1983,	-10.8717
hr	-10.872
▁pakistani	-10.8721
▁drums	-10.8722
▁ratio	-10.8722
▁centers	-10.8724
▁nigerian	-10.8725
▁powered	-10.8726
▁1979,	-10.8726
▁travelled	-10.8726
▁sandy	-10.8727
▁leo	-10.873
▁add	-10.8732
▁raf	-10.8735
▁jason	-10.8739
▁kids	-10.8739
▁everything	-10.8744
▁earn	-10.8747
▁methodist	-10.8748
▁filming	-10.8752
▁woods	-10.8758
▁unsuccessful	-10.8759
▁lp	-10.8764
ei	-10.8765
▁changing	-10.8771
▁nephew	-10.8773
▁collective	-10.8776
non	-10.8782
▁processing	-10.8782
▁grave	-10.8785
▁legislation	-10.8787
▁pet	-10.8789
under	-10.8794
▁paulo	-10.8796
▁decorated	-10.8799
▁turning	-10.88
▁holland	-10.8801
▁arc	-10.8801
▁returns	-10.8801
▁1898	-10.8807
▁butler	-10.8807
▁farming	-10.8808
▁ladies	-10.881
▁customers	-10.881
called	-10.8812
▁slovenia	-10.8814
▁happened	-10.8815
ben	-10.8816
▁perth	-10.8817
▁ab	-10.8818
▁pri	-10.8821
▁manuel	-10.8824
dr	-10.8826
▁1945.	-10.8828
ise	-10.883
▁indicates	-10.883
▁constant	-10.8835
▁mode	-10.8842
▁aires	-10.8844
▁800	-10.8853
▁locomotive	-10.8856
▁jews	-10.8856
▁(8	-10.8856
▁1977.	-10.8858
national	-10.8859
german	-10.8862
▁delta	-10.8863
▁reed	-10.8864
▁rejected	-10.8867
burn	-10.8867
▁element	-10.8869
▁huge	-10.8871
▁hebrew	-10.8872
▁battery	-10.8873
▁cruz	-10.8878
▁recognised	-10.888
▁pairs	-10.8882
▁biological	-10.8883
shan	-10.8886
▁accounts	-10.8886
▁thousands	-10.8888
▁rod	-10.889
▁requirements	-10.8891
▁inherited	-10.8891
▁contrast	-10.8892
▁assisted	-10.8893
▁eligible	-10.8893
▁inspiration	-10.8894
nica	-10.8894
▁1981,	-10.8894
▁ms	-10.8896
▁concerns	-10.8897
▁gro	-10.8898
▁sixteen	-10.8899
▁strongly	-10.89
▁marc	-10.8902
august	-10.8903
▁pedro	-10.8907
yn	-10.8907
▁displayed	-10.8908
▁depending	-10.891
mal	-10.8911
▁rapper	-10.8913
▁buy	-10.8914
▁nord	-10.8915
▁sal	-10.8916
qui	-10.8917
▁elevated	-10.8919
▁sculptor	-10.8919
▁eagle	-10.8919
▁1974,	-10.8923
▁coat	-10.8925
▁(7	-10.8927
▁giants	-10.8927
▁cotton	-10.8929
▁1972,	-10.893
▁collins	-10.8931
▁involvement	-10.8935
▁walking	-10.8937
▁neighbouring	-10.8937
three	-10.8938
▁agencies	-10.894
▁allied	-10.8943
▁abu	-10.8955
▁canyon	-10.8955
▁cor	-10.8958
▁1971.	-10.8958
▁thirteen	-10.8962
▁1879	-10.8962
▁sheffield	-10.8963
▁sitting	-10.8968
▁bon	-10.8968
▁pastor	-10.8968
23	-10.897
▁craig	-10.897
▁au	-10.897
rie	-10.8973
▁excellence	-10.8975
▁depot	-10.8976
▁mit	-10.8977
▁thing	-10.8978
▁chen	-10.898
ag	-10.898
▁jose	-10.898
▁preliminary	-10.8983
▁approval	-10.8984
▁latest	-10.8985
▁styles	-10.8991
oli	-10.8999
án	-10.9005
▁mont	-10.9007
▁extreme	-10.9008
▁colors	-10.9013
▁orbit	-10.9014
▁friday	-10.9021
▁layout	-10.903
lar	-10.9033
▁tai	-10.9033
▁founders	-10.9035
▁exclusively	-10.9038
2,	-10.9042
▁pra	-10.9042
▁penalty	-10.9045
▁saskatchewan	-10.9051
▁speak	-10.9053
▁crowd	-10.9053
▁enzyme	-10.9056
background	-10.9056
gal	-10.9058
▁58	-10.9059
▁jurisdiction	-10.9061
▁originated	-10.9068
▁difference	-10.9074
▁fired	-10.9074
kh	-10.9075
▁cyclist	-10.9076
ball	-10.9077
▁filed	-10.9078
▁lodge	-10.908
▁georgian	-10.9082
▁anime	-10.9084
▁frequent	-10.9084
rich	-10.9085
ec	-10.9087
▁bringing	-10.9087
ala	-10.9088
▁altitude	-10.9089
▁yo	-10.9096
▁1978,	-10.9098
four	-10.9098
▁profile	-10.91
▁behalf	-10.91
▁certificate	-10.9101
▁placing	-10.9101
▁250	-10.9106
▁learn	-10.9113
▁exists	-10.9122
▁minimum	-10.9124
▁cloud	-10.9125
▁buenos	-10.913
▁dissolved	-10.9131
▁processes	-10.9133
▁indonesian	-10.9135
▁spell	-10.9138
▁shaw	-10.9143
▁limestone	-10.9143
bridge	-10.9144
▁electricity	-10.9148
▁63	-10.9152
▁essex	-10.9153
▁severe	-10.9158
ong	-10.9161
▁bench	-10.9166
▁preservation	-10.9181
▁oslo	-10.919
17	-10.9192
▁maritime	-10.9194
▁sara	-10.9195
mus	-10.9199
▁whereas	-10.92
▁lip	-10.9202
▁gregory	-10.9203
eastern	-10.9208
▁gap	-10.921
▁lancashire	-10.9214
▁62	-10.922
▁kilometres	-10.9227
▁1896	-10.9227
▁estonia	-10.9229
▁charlie	-10.9229
▁span	-10.9233
▁percentage	-10.9233
▁declined	-10.9236
ating	-10.924
▁truck	-10.924
sp	-10.9244
▁gothic	-10.9244
▁denver	-10.9246
_	-10.9247
▁wars	-10.9249
▁channels	-10.9251
▁fee	-10.9254
▁occasion	-10.9259
▁rush	-10.9263
▁archives	-10.9271
▁1975,	-10.9275
21	-10.9277
▁lowest	-10.9278
▁meanwhile	-10.9284
▁questions	-10.9284
▁char	-10.9284
but	-10.9286
▁favor	-10.9286
▁purple	-10.9289
▁tests	-10.929
▁symbol	-10.9291
▁dick	-10.9293
▁clean	-10.9295
▁1899	-10.9295
handed	-10.9296
▁yugoslavia	-10.9301
▁asteroid	-10.9302
▁perfect	-10.9304
▁component	-10.9305
▁59	-10.9307
▁grammy	-10.9309
▁enterprise	-10.9312
owned	-10.9314
▁output	-10.9315
raj	-10.9317
▁restaurants	-10.9321
11	-10.9323
nie	-10.9324
▁fin	-10.9327
▁partly	-10.9328
▁describe	-10.9328
▁journals	-10.9335
▁sussex	-10.9337
▁hindi	-10.9339
▁victims	-10.9344
▁dramatic	-10.9345
▁1968,	-10.9346
▁bas	-10.9348
▁acquisition	-10.9348
▁(14	-10.9351
yard	-10.9352
▁nadu	-10.9356
▁prestigious	-10.9359
▁alternate	-10.9359
▁civilian	-10.9362
sville	-10.9363
▁apartment	-10.9363
▁otto	-10.9372
▁predecessor	-10.9373
▁columns	-10.9375
zer	-10.9375
ris	-10.9376
▁renowned	-10.9379
▁personality	-10.9389
▁1969.	-10.9392
▁1980,	-10.9394
▁manner	-10.94
▁assist	-10.9401
▁linear	-10.9402
▁chan	-10.9404
▁1976,	-10.9406
set	-10.9411
▁struck	-10.9412
▁guardian	-10.9413
▁snails	-10.9416
▁prisoners	-10.9417
heim	-10.942
▁frequency	-10.9423
▁banking	-10.9423
sel	-10.9426
▁brunswick	-10.9428
▁rector	-10.9428
▁considerable	-10.9432
▁somerset	-10.9433
▁quartet	-10.9433
▁transition	-10.9435
▁nbc	-10.9437
▁chu	-10.9438
▁scientists	-10.944
▁portrayed	-10.9441
▁recommended	-10.9441
▁mas	-10.9444
▁fourteen	-10.9446
▁durham	-10.9448
▁landmark	-10.9449
mat	-10.9451
▁mention	-10.9451
▁withdrew	-10.9453
▁madison	-10.9456
▁drivers	-10.9457
▁assets	-10.9458
▁reserves	-10.946
▁martial	-10.946
▁spiritual	-10.946
cl	-10.9463
▁hundreds	-10.9465
▁bosnia	-10.9471
center	-10.9473
▁timber	-10.9473
▁vegas	-10.9475
ize	-10.9476
▁truth	-10.9477
▁throne	-10.9477
▁heights	-10.9478
▁crash	-10.9478
mc	-10.9479
light	-10.948
▁controversial	-10.9481
▁councillor	-10.9487
▁aimed	-10.9492
▁dal	-10.9495
▁spa	-10.9495
▁definition	-10.9501
▁earthquake	-10.9503
-16	-10.9503
▁comprehensive	-10.9505
▁suggests	-10.9507
▁ruling	-10.9507
▁opinion	-10.9508
▁diverse	-10.9509
band	-10.9511
▁copa	-10.9518
city	-10.952
▁scotia	-10.9522
present	-10.9522
▁hudson	-10.9523
▁maps	-10.9526
▁outbreak	-10.9535
▁behavior	-10.9538
▁rogers	-10.9545
▁criticized	-10.9546
▁loop	-10.9548
▁1877	-10.9549
▁passage	-10.9551
▁1,000	-10.9552
enberg	-10.9556
▁keith	-10.9556
▁veteran	-10.9558
▁hon	-10.9559
▁message	-10.9561
▁matters	-10.9561
▁opportunities	-10.9562
▁$1	-10.9565
▁missions	-10.9565
▁serial	-10.9566
▁funeral	-10.9566
▁hindwings	-10.9569
▁normally	-10.9571
▁1968.	-10.9571
elli	-10.9575
▁workshop	-10.9576
▁fifty	-10.9579
tur	-10.9581
▁autumn	-10.9581
▁jamaica	-10.9584
▁moment	-10.9585
▁stable	-10.9585
▁fitted	-10.9588
▁rabbi	-10.9588
▁1977,	-10.9591
▁alpine	-10.9591
ane	-10.9593
▁rovers	-10.9597
▁remote	-10.9597
▁1897	-10.9599
▁conduct	-10.9599
▁barn	-10.96
▁1971,	-10.9602
▁1994)	-10.9605
▁10,000	-10.9605
▁spoke	-10.9605
▁partially	-10.9606
▁dancing	-10.9607
▁phoenix	-10.9611
▁ol	-10.9616
▁belong	-10.9617
▁organic	-10.9619
▁wealthy	-10.962
▁knockout	-10.9622
▁rowing	-10.9623
▁select	-10.9634
▁preparation	-10.9635
▁provinces	-10.9635
▁syria	-10.9635
▁stakes	-10.9635
▁°	-10.9636
▁1895	-10.9637
▁arrest	-10.9638
▁68	-10.9638
▁sailing	-10.9643
▁reportedly	-10.9647
▁lebanon	-10.9651
▁kumar	-10.9651
▁bomb	-10.9651
good	-10.9652
▁kin	-10.9654
▁1993)	-10.9658
▁nickname	-10.966
ology	-10.966
▁nan	-10.9662
▁hence	-10.9663
▁artwork	-10.9664
▁wheel	-10.9666
▁tool	-10.967
30	-10.9672
▁switched	-10.9674
):	-10.9676
▁61	-10.9677
▁manitoba	-10.968
▁globe	-10.9682
▁significantly	-10.9683
▁airline	-10.9683
▁romance	-10.9685
▁promoting	-10.9686
▁tre	-10.9687
▁secured	-10.9687
▁1992)	-10.9688
ice	-10.969
▁coffee	-10.969
▁lap	-10.9693
▁extends	-10.9695
▁chancellor	-10.9696
▁ralph	-10.9696
▁1967.	-10.9697
nis	-10.9699
▁ash	-10.9699
▁milwaukee	-10.9705
▁constituencies	-10.9708
ua	-10.9712
ert	-10.9712
ó	-10.9713
ić	-10.9724
▁fat	-10.9727
▁graphic	-10.9731
tic	-10.9732
▁option	-10.9734
▁speaking	-10.9735
osa	-10.9736
▁enjoyed	-10.9736
▁shin	-10.9737
▁administered	-10.9738
▁wear	-10.9749
▁1894	-10.9757
▁1875	-10.9759
▁researcher	-10.9759
hop	-10.976
▁liberation	-10.9762
▁(12	-10.9768
▁caps	-10.9775
▁novelist	-10.9776
▁crystal	-10.9778
some	-10.9781
▁perry	-10.9782
▁eggs	-10.9784
▁copy	-10.9787
▁happy	-10.979
▁pond	-10.9791
▁venues	-10.9794
▁differences	-10.9799
▁idaho	-10.98
▁detailed	-10.9814
eu	-10.9817
▁meat	-10.9823
▁fit	-10.9824
▁jefferson	-10.9827
▁printing	-10.9827
▁bone	-10.9829
▁widespread	-10.9838
hara	-10.9838
▁1995)	-10.984
january	-10.9841
▁usage	-10.9841
▁fur	-10.9844
▁proposal	-10.9846
▁geographic	-10.9849
▁67	-10.9849
▁1965.	-10.9851
▁departments	-10.9851
▁blind	-10.9852
▁ranging	-10.9853
▁worker	-10.9854
$	-10.9855
▁lou	-10.9856
▁decline	-10.9858
▁ties	-10.986
▁1973,	-10.986
pre	-10.9862
▁indie	-10.9862
▁benefit	-10.9863
▁friedrich	-10.9864
▁85	-10.9866
▁diesel	-10.9867
▁movements	-10.9868
win	-10.9868
▁gen	-10.9868
▁affiliate	-10.9869
▁kor	-10.9869
▁obtain	-10.9874
▁harold	-10.9874
▁mansion	-10.9878
▁apparently	-10.9879
▁pitcher	-10.9881
▁companion	-10.9882
june	-10.9891
▁dame	-10.9893
▁database	-10.9895
▁sacred	-10.9899
▁missionary	-10.99
▁programmes	-10.9901
▁discography	-10.9902
▁grande	-10.9902
ance	-10.9904
▁sen	-10.9906
▁verse	-10.9906
mel	-10.9909
▁bridges	-10.9911
▁aftermath	-10.9913
▁policies	-10.9914
▁microsoft	-10.9914
▁1944,	-10.9917
october	-10.9918
▁scope	-10.9924
▁roberts	-10.9925
▁magnitude	-10.9927
▁gospel	-10.9931
december	-10.9934
▁mir	-10.9934
▁carries	-10.9935
▁ensure	-10.9936
▁begun	-10.9936
▁1969,	-10.9938
▁raymond	-10.9942
▁flora	-10.9943
▁hell	-10.9946
▁bassist	-10.995
▁theological	-10.9952
▁vinyl	-10.9955
▁advantage	-10.9956
▁inscription	-10.9956
written	-10.9959
▁dun	-10.9959
▁beer	-10.9965
▁rally	-10.9967
▁innovation	-10.9969
what	-10.9969
▁variant	-10.9978
▁practices	-10.9978
▁depression	-10.9978
▁1892	-10.9979
▁marry	-10.998
▁76	-10.9983
aga	-10.9984
▁hunting	-10.9985
▁diplomat	-10.9986
▁susan	-10.9987
▁premiership	-10.999
▁synopsis	-10.9991
april	-10.9994
▁sounds	-10.9995
▁mer	-10.9997
▁soap	-10.9998
▁2018–19	-10.9998
▁influences	-11
▁1893	-11.0001
▁vladimir	-11.0001
▁shops	-11.0004
▁fr	-11.0011
▁specimens	-11.0011
▁rebounds	-11.0013
▁sit	-11.0014
▁tag	-11.0015
only	-11.0016
▁ministers	-11.0017
▁dna	-11.0019
▁boss	-11.0022
▁gilbert	-11.0025
▁og	-11.0026
ī	-11.0027
▁islam	-11.0028
▁corn	-11.0029
▁minority	-11.0032
▁solutions	-11.0034
▁singers	-11.0034
▁volunteers	-11.0036
▁panama	-11.0038
▁democrats	-11.004
▁massive	-11.0042
▁fer	-11.0043
▁princeton	-11.0048
▁connections	-11.0049
▁closing	-11.0052
▁stuart	-11.0053
▁interviews	-11.0054
▁discontinued	-11.0054
▁lok	-11.0061
hand	-11.0064
ep	-11.0065
▁automatic	-11.0069
september	-11.0069
▁lighthouse	-11.0074
▁ger	-11.0078
▁welfare	-11.0082
▁1991)	-11.0083
▁1967,	-11.0083
▁kil	-11.0085
▁sailed	-11.0087
▁log	-11.0087
▁acoustic	-11.0087
▁crater	-11.0088
▁cole	-11.0089
▁leon	-11.0091
▁tele	-11.0093
▁murphy	-11.0093
▁2–1	-11.0094
▁commenced	-11.0097
july	-11.0097
view	-11.0098
▁consumer	-11.0099
▁ap	-11.01
▁worship	-11.0108
▁jobs	-11.0108
cor	-11.0109
▁presenter	-11.0111
▁gradually	-11.0116
▁cream	-11.012
english	-11.012
▁1990)	-11.012
▁pages	-11.0122
▁alumni	-11.0123
related	-11.0133
▁joan	-11.0134
▁ze	-11.014
▁airlines	-11.0143
▁polo	-11.0143
▁dominican	-11.0147
▁researchers	-11.0148
▁chase	-11.0149
ent	-11.0149
lia	-11.015
lam	-11.0151
▁segments	-11.0153
▁oscar	-11.0153
▁framework	-11.0155
▁fastest	-11.0156
▁guests	-11.0156
▁pitched	-11.0157
▁zero	-11.0157
▁batting	-11.0158
▁establishing	-11.0159
▁predominantly	-11.0159
green	-11.0164
▁leagues	-11.0168
▁cool	-11.0169
▁buddhist	-11.0172
yama	-11.0172
▁doors	-11.0176
▁kit	-11.0177
▁educator	-11.0178
▁shipping	-11.0179
▁gil	-11.018
sey	-11.018
▁penn	-11.0183
are	-11.0185
▁throw	-11.0185
zu	-11.0188
▁regime	-11.0191
▁watson	-11.0193
▁surrey	-11.0199
▁struggle	-11.0201
rus	-11.0203
▁69	-11.0203
▁leonard	-11.0203
fo	-11.0204
▁rosa	-11.0205
▁transmission	-11.021
▁luke	-11.021
▁valuable	-11.0213
▁74	-11.0213
▁costs	-11.0217
▁rick	-11.0219
▁1964.	-11.0219
▁tur	-11.0221
▁falling	-11.0223
▁1966.	-11.0224
▁commanding	-11.0224
▁entrepreneur	-11.0225
▁1850	-11.0227
14	-11.0229
▁violin	-11.0231
40	-11.0233
▁wilhelm	-11.0235
▁chester	-11.0239
mes	-11.0239
▁1869	-11.0239
illa	-11.0244
▁gabriel	-11.0246
▁democracy	-11.0247
48	-11.0248
ix	-11.0248
▁78	-11.0255
▁protest	-11.0256
▁exception	-11.0257
▁anglo	-11.0259
wick	-11.0261
▁fled	-11.0265
▁hole	-11.0269
sburg	-11.027
▁neighboring	-11.0272
▁corresponding	-11.0273
▁grades	-11.0273
▁1885	-11.0275
country	-11.0276
▁absence	-11.0279
▁guild	-11.0279
▁tomb	-11.028
▁advice	-11.0281
▁yi	-11.0285
▁diet	-11.0285
▁giovanni	-11.0285
▁debate	-11.0286
▁99	-11.029
▁arrangement	-11.0293
▁dismissed	-11.0298
▁reviewed	-11.0299
med	-11.03
▁oval	-11.0302
▁liberty	-11.0305
▁ky	-11.0307
▁alpha	-11.031
▁je	-11.0311
▁freight	-11.0313
▁argued	-11.0314
▁rhode	-11.0315
▁canterbury	-11.0319
▁interstate	-11.0321
_1	-11.0323
▁nacional	-11.0324
scale	-11.0325
fish	-11.0329
▁geological	-11.0329
ms	-11.0331
▁encouraged	-11.0332
five	-11.0334
▁governing	-11.0337
▁ser	-11.0342
▁1996)	-11.0345
bal	-11.0359
▁fill	-11.0359
▁shrub	-11.036
▁lion	-11.0361
▁badminton	-11.0363
▁reporting	-11.0366
zen	-11.0366
▁morocco	-11.0367
▁virtual	-11.037
▁tr	-11.0371
▁(13	-11.0371
▁mainland	-11.0372
book	-11.0376
▁lan	-11.0376
chen	-11.0376
that	-11.0377
▁brussels	-11.0379
ela	-11.0384
▁boulevard	-11.0385
▁patron	-11.0391
▁arnold	-11.0397
▁java	-11.0398
▁flood	-11.0403
▁illegal	-11.0404
foot	-11.0406
az	-11.0409
room	-11.041
▁craft	-11.0412
▁pc	-11.0414
▁aims	-11.0415
▁ted	-11.0416
▁mai	-11.0417
▁sin	-11.0419
bury	-11.0419
▁evolution	-11.0424
▁congressional	-11.0424
▁mainstream	-11.0425
▁gram	-11.0425
bay	-11.043
november	-11.0432
▁send	-11.0434
▁partial	-11.0438
▁archive	-11.0439
▁sol	-11.044
▁phillips	-11.0443
▁nursing	-11.0445
low	-11.0449
▁populated	-11.0454
▁kitchen	-11.0454
▁parking	-11.0455
▁ready	-11.0456
▁dennis	-11.0457
▁sad	-11.046
such	-11.0465
second	-11.0465
▁favorite	-11.0467
▁mars	-11.0468
▁loaned	-11.0472
live	-11.0474
▁pot	-11.048
▁instructor	-11.0486
▁manage	-11.0487
▁wants	-11.049
▁trustees	-11.049
▁terry	-11.0493
▁clothing	-11.0498
▁ghost	-11.0505
where	-11.0508
▁instance	-11.0511
▁tang	-11.0515
▁theatrical	-11.0515
▁71	-11.0516
▁shu	-11.0517
olo	-11.0517
▁sony	-11.0521
▁eurovision	-11.0524
▁uci	-11.0524
▁ranges	-11.0525
▁settlers	-11.0527
▁seek	-11.053
▁600	-11.0532
▁width	-11.0533
▁excellent	-11.0535
▁jerry	-11.0536
▁1888	-11.0536
pr	-11.0537
month	-11.0538
▁estonian	-11.0543
▁michel	-11.0547
▁hughes	-11.0547
▁clinton	-11.0559
▁pain	-11.056
▁jail	-11.0562
▁requires	-11.057
▁indies	-11.0571
▁(11	-11.0571
▁alleged	-11.0574
ile	-11.0575
▁descendants	-11.0576
▁riders	-11.0576
▁surgeon	-11.0578
▁professionally	-11.058
▁98	-11.058
▁friendship	-11.0584
mr	-11.0585
▁ernest	-11.0587
▁santiago	-11.0588
▁rookie	-11.0591
▁delivery	-11.0591
▁towers	-11.0592
▁1970.	-11.0592
▁ve	-11.0598
▁1989)	-11.06
▁bordered	-11.0604
▁rough	-11.0604
▁initiated	-11.0605
▁1891	-11.0606
▁stones	-11.0608
▁organisations	-11.0609
1,	-11.061
▁slovakia	-11.0611
▁1970,	-11.0615
▁proteins	-11.0615
▁survive	-11.0625
▁hub	-11.063
▁teach	-11.0633
▁paralympics	-11.0634
▁77	-11.0639
▁spaces	-11.0639
▁emigrated	-11.0658
▁jacques	-11.0659
▁inspector	-11.0661
▁honored	-11.0664
▁edwards	-11.0664
ira	-11.0665
half	-11.0668
▁canon	-11.0669
▁sequel	-11.0671
▁portraits	-11.0671
▁neighbourhood	-11.0673
▁jin	-11.0674
▁mystery	-11.0675
▁guards	-11.0677
▁vertical	-11.068
▁columbus	-11.0681
▁em	-11.0685
res	-11.0689
▁consist	-11.0693
▁colleges	-11.0695
▁plaza	-11.0695
▁pitch	-11.0696
▁recovered	-11.0701
▁require	-11.0701
after	-11.0702
▁marble	-11.0703
▁wei	-11.0703
get	-11.0703
▁treated	-11.0711
mark	-11.0711
ator	-11.0719
una	-11.0723
▁rim	-11.0723
▁pu	-11.073
▁cu	-11.0731
▁warriors	-11.0731
▁brands	-11.0732
▁bound	-11.0733
▁boxer	-11.0738
▁miguel	-11.0742
play	-11.0745
member	-11.0746
▁defended	-11.0746
▁1965,	-11.0747
▁resource	-11.075
isation	-11.0752
▁1962.	-11.0753
▁dispute	-11.0753
▁breaking	-11.0753
▁queens	-11.0754
▁gor	-11.076
▁enlisted	-11.0764
▁dominated	-11.0764
▁steps	-11.0765
most	-11.0768
▁maurice	-11.0775
š	-11.0775
▁indicate	-11.0784
ding	-11.0786
▁95	-11.0786
ists	-11.0787
▁distinctive	-11.0791
▁averaged	-11.0794
▁swimmer	-11.0796
▁immediate	-11.0796
▁scout	-11.0797
▁buses	-11.0797
▁westminster	-11.0802
▁ruler	-11.0804
org	-11.0808
▁confused	-11.0809
▁wet	-11.0811
▁download	-11.0817
▁1997)	-11.0826
▁scores	-11.0827
▁yan	-11.0829
▁campaigns	-11.083
▁gear	-11.083
▁google	-11.0832
▁screenwriter	-11.0834
ib	-11.0835
▁respective	-11.0835
ob	-11.0838
▁tiger	-11.0839
▁ru	-11.0839
▁newton	-11.084
▁rebellion	-11.084
▁cf	-11.0841
-8	-11.0843
▁ahmed	-11.0844
sea	-11.0845
▁pr	-11.0847
▁rankings	-11.0847
▁renaissance	-11.0847
-21	-11.0847
ú	-11.0848
▁remix	-11.085
▁subdivision	-11.085
▁competitors	-11.085
▁presidency	-11.0851
▁96	-11.0854
▁travels	-11.0854
-5	-11.0856
wal	-11.0859
kal	-11.0864
▁ss	-11.0864
▁rat	-11.0864
▁crossed	-11.0865
▁concentration	-11.0871
▁larry	-11.0872
school	-11.0875
tte	-11.0877
xi	-11.0885
february	-11.0886
▁laura	-11.0887
▁1964,	-11.0887
brown	-11.0888
▁regulations	-11.0888
▁plateau	-11.0891
▁warm	-11.0893
bus	-11.0895
▁73	-11.0904
▁berg	-11.0906
▁81	-11.091
▁albanian	-11.091
▁spelled	-11.0913
yi	-11.0914
▁relation	-11.0914
ft	-11.0915
▁beam	-11.0915
▁ty	-11.0917
▁pageant	-11.0919
▁thriller	-11.093
▁immigrants	-11.0931
ef	-11.0936
▁knights	-11.0938
▁ri	-11.0943
▁fed	-11.0947
▁installation	-11.0948
mis	-11.095
released	-11.0951
▁paint	-11.0952
2)	-11.0952
then	-11.0954
▁connect	-11.0958
▁calgary	-11.0959
▁drugs	-11.0962
▁sim	-11.0963
▁rai	-11.0965
▁1966,	-11.0968
▁ecology	-11.0972
▁ongoing	-11.0974
how	-11.0974
▁patient	-11.0976
▁franz	-11.0979
arm	-11.0985
▁screenplay	-11.099
note	-11.0991
▁topped	-11.0992
▁bobby	-11.1002
▁touch	-11.1003
▁kingston	-11.1005
▁gal	-11.1006
▁conservatory	-11.1006
▁publicly	-11.1007
▁conclusion	-11.1008
▁eighteen	-11.1012
▁neither	-11.1013
▁pupils	-11.1015
▁kay	-11.1018
▁gift	-11.1019
▁ry	-11.1019
▁edmonton	-11.1021
▁1988)	-11.1026
▁apparent	-11.1026
ble	-11.1027
▁territorial	-11.1029
tre	-11.1035
▁telephone	-11.1035
▁writings	-11.1037
▁slopes	-11.1038
▁neck	-11.1038
▁wake	-11.1039
▁presbyterian	-11.1042
▁angle	-11.1044
▁citation	-11.1046
▁gauge	-11.1048
▁extending	-11.1051
pc	-11.1057
▁limits	-11.1059
▁profession	-11.106
▁cyprus	-11.1062
▁fisher	-11.1063
▁tale	-11.1066
▁tribes	-11.1067
▁celebration	-11.1069
bad	-11.1069
▁root	-11.1071
▁decides	-11.1072
▁patent	-11.1073
▁uttar	-11.1074
▁2017–18	-11.1076
▁wickets	-11.1079
gel	-11.1085
▁82	-11.109
▁ros	-11.1091
▁superintendent	-11.1092
▁ruins	-11.1093
▁machines	-11.1094
▁sv	-11.1097
▁bowling	-11.1097
▁principles	-11.11
▁1887	-11.11
▁implementation	-11.11
work	-11.111
▁concern	-11.1111
▁broadcasts	-11.1111
▁submitted	-11.1114
▁clarke	-11.1119
▁radical	-11.1121
iz	-11.1121
▁continuous	-11.1122
▁developer	-11.1124
▁belgrade	-11.1124
▁namely	-11.1125
anti	-11.1126
▁raw	-11.1127
▁reconstruction	-11.113
▁wider	-11.1136
▁abraham	-11.1136
▁emeritus	-11.1141
▁sheep	-11.1142
▁authored	-11.1143
▁passion	-11.1145
▁inaugurated	-11.1145
▁kr	-11.1145
▁supporters	-11.1151
▁tackles	-11.1151
▁clients	-11.1153
▁doesn	-11.1155
▁viewers	-11.1155
▁diseases	-11.116
▁ye	-11.1161
eri	-11.1162
▁isaac	-11.1166
▁rocket	-11.1168
▁identical	-11.1172
▁galaxy	-11.1173
▁wi	-11.1175
▁rounded	-11.1179
▁zoo	-11.118
▁wallace	-11.118
▁interchange	-11.1183
▁1963.	-11.1188
▁threat	-11.1188
▁relationships	-11.1189
▁estates	-11.119
home	-11.1192
▁concerned	-11.1192
ireland	-11.1192
ale	-11.1197
▁preserve	-11.1197
gon	-11.12
▁affair	-11.1202
▁istanbul	-11.1204
dor	-11.1206
▁wo	-11.1208
=9	-11.1212
▁radar	-11.1212
▁succession	-11.1218
▁maharashtra	-11.1221
▁favour	-11.1221
▁greg	-11.1227
▁artificial	-11.1227
▁opponent	-11.123
▁curriculum	-11.123
▁repair	-11.1237
▁mtv	-11.1239
▁ter	-11.1239
▁indians	-11.1241
▁banned	-11.1243
his	-11.125
▁seeking	-11.1253
▁resumed	-11.1253
▁henri	-11.1254
▁pal	-11.1256
▁layer	-11.1258
▁doctoral	-11.126
▁steven	-11.1262
▁cr	-11.1263
▁possession	-11.1267
▁frankfurt	-11.127
▁periods	-11.1276
▁exact	-11.1276
▁accept	-11.1277
▁herzegovina	-11.1279
▁chang	-11.128
▁monday	-11.1284
▁janeiro	-11.1291
▁comedian	-11.1292
▁fossils	-11.1293
▁focusing	-11.1297
▁1946,	-11.1297
▁sch	-11.1298
▁similarly	-11.1299
▁thanks	-11.1302
▁interim	-11.1303
▁elsewhere	-11.1306
▁divorced	-11.1306
▁tube	-11.1306
▁palmer	-11.1308
▁pure	-11.1312
▁remembered	-11.1314
▁harvey	-11.1314
▁exile	-11.1315
▁wards	-11.1316
▁distinction	-11.1317
aceae	-11.1317
▁krishna	-11.1318
▁1500	-11.1319
▁examination	-11.1321
▁confederate	-11.1321
▁recruited	-11.1332
▁gi	-11.1333
ora	-11.1333
▁breeding	-11.1334
key	-11.1334
▁facade	-11.1341
▁sits	-11.1342
▁dragon	-11.1343
▁gameplay	-11.1348
▁zo	-11.1351
▁1946.	-11.136
box	-11.136
▁sentence	-11.1363
▁assault	-11.1367
▁exterior	-11.1367
▁1963,	-11.1368
▁exposed	-11.1371
▁kid	-11.1371
▁texts	-11.1372
▁characteristic	-11.1373
▁1–0	-11.1374
ré	-11.1374
▁useful	-11.1374
▁factors	-11.1377
▁coordinator	-11.1378
▁essential	-11.1381
ase	-11.1381
▁suburbs	-11.1382
▁3-	-11.1383
▁syrian	-11.1385
▁burned	-11.1386
▁anchor	-11.1387
▁releasing	-11.1388
▁nominee	-11.1393
▁1961.	-11.1395
▁bennett	-11.1395
▁parade	-11.14
▁awareness	-11.1402
▁committees	-11.1402
lock	-11.1403
▁driven	-11.1404
▁nationally	-11.1405
▁gran	-11.1406
▁privately	-11.1408
▁julian	-11.1409
bl	-11.1409
▁emerged	-11.1411
▁practiced	-11.1413
▁pas	-11.1413
▁billboard	-11.1418
▁attendance	-11.1418
▁treasurer	-11.1418
▁afl	-11.1418
when	-11.142
▁choose	-11.1421
▁clock	-11.1424
met	-11.1425
▁keeping	-11.1425
▁burial	-11.1429
north	-11.1432
▁consecrated	-11.1433
▁faces	-11.1434
ón	-11.1435
▁97	-11.1435
▁nar	-11.1435
▁consider	-11.1437
▁lithuania	-11.1438
▁ruth	-11.144
lp	-11.1446
▁airfield	-11.1452
▁legion	-11.1452
100	-11.1453
▁jet	-11.1453
▁mud	-11.1454
▁rarely	-11.1457
▁bradford	-11.1459
▁joy	-11.146
▁84	-11.1461
▁shallow	-11.1461
▁electronics	-11.1461
▁1942,	-11.1463
▁supplies	-11.1466
tum	-11.1468
▁eddie	-11.1468
▁geographical	-11.147
▁substantial	-11.1471
▁zu	-11.1473
▁neil	-11.1473
▁ker	-11.1473
▁anthology	-11.1474
▁afc	-11.1476
▁quarterfinals	-11.1476
▁streams	-11.1478
▁bark	-11.1482
▁describing	-11.1482
▁carrier	-11.1482
▁110	-11.1483
there	-11.1483
▁bars	-11.1484
▁fernando	-11.1485
▁nationwide	-11.1485
▁everyone	-11.1486
▁mineral	-11.1486
▁banner	-11.1486
▁expand	-11.1495
▁montgomery	-11.1495
▁granite	-11.1496
▁armenia	-11.1497
▁abdul	-11.1497
▁anything	-11.15
stad	-11.1504
▁bach	-11.1504
▁understand	-11.1505
▁correspondent	-11.1506
▁louise	-11.1509
▁conversion	-11.1509
▁md	-11.1512
▁marsh	-11.1514
▁1947,	-11.1516
▁1948,	-11.1524
▁performer	-11.1524
▁signs	-11.1526
▁comprising	-11.1526
ene	-11.1529
▁yang	-11.153
list	-11.1532
bro	-11.1533
▁79	-11.1535
made	-11.1536
pl	-11.1539
▁permission	-11.1542
▁variants	-11.1543
▁observation	-11.1544
▁courthouse	-11.1545
▁rolling	-11.1545
▁conferences	-11.1545
▁exclusive	-11.1546
▁1884	-11.1548
▁chapters	-11.1554
▁1962,	-11.1554
▁byzantine	-11.1555
15	-11.1557
▁commented	-11.1558
ever	-11.156
▁restricted	-11.156
▁libraries	-11.1562
▁veterans	-11.1564
▁amazon	-11.1564
▁bou	-11.1567
▁thi	-11.1569
▁cuban	-11.157
uli	-11.1572
▁shadow	-11.1573
▁shoot	-11.1574
▁servant	-11.158
▁1987)	-11.1583
▁smart	-11.1591
▁nam	-11.1593
ability	-11.1596
▁narrative	-11.1596
▁lit	-11.1598
▁closer	-11.16
tro	-11.1604
▁qu	-11.1607
oc	-11.1607
▁holder	-11.1612
▁siblings	-11.1613
journal	-11.1613
▁deck	-11.1616
ial	-11.1619
master	-11.1619
▁88	-11.1619
ric	-11.1621
▁malta	-11.1622
▁motorcycle	-11.1629
▁plains	-11.1634
ming	-11.1634
▁newport	-11.1634
ries	-11.1635
▁sponsorship	-11.1644
making	-11.1644
▁scales	-11.1645
▁1944.	-11.1647
▁rapidly	-11.1653
▁bro	-11.1658
▁1961,	-11.1661
▁dialect	-11.1662
▁lessons	-11.1662
▁encoded	-11.1663
▁circulation	-11.1667
▁mat	-11.167
▁workshops	-11.167
▁ranch	-11.1674
▁receives	-11.1674
▁convicted	-11.1674
▁abuse	-11.1675
▁alcohol	-11.1676
pen	-11.1677
▁fear	-11.1678
nam	-11.1678
▁flights	-11.1681
▁identify	-11.1683
▁lectures	-11.1686
▁lac	-11.1687
▁performers	-11.1691
▁woodland	-11.1692
▁bir	-11.1696
kha	-11.1697
▁chorus	-11.1698
▁dorsal	-11.1698
▁iceland	-11.1702
▁practical	-11.1702
▁1886	-11.1711
▁usual	-11.1712
▁kazakhstan	-11.1714
▁spencer	-11.1718
▁denied	-11.1719
▁rises	-11.172
seat	-11.172
▁shire	-11.1726
▁mt	-11.173
▁renovated	-11.1731
▁filipino	-11.1733
▁allies	-11.1734
▁concerning	-11.1735
▁pol	-11.1738
▁suitable	-11.1739
▁lock	-11.1742
▁aboriginal	-11.1745
hal	-11.1746
eau	-11.1746
▁lyon	-11.175
▁failing	-11.1754
▁switch	-11.1756
▁devon	-11.1756
das	-11.1758
▁variable	-11.1759
▁hearing	-11.1759
▁silva	-11.1761
▁lutheran	-11.1761
▁heir	-11.1765
▁militia	-11.1765
▁1956.	-11.1765
▁solomon	-11.1765
▁reduction	-11.1766
▁mil	-11.1766
▁#	-11.1767
▁agents	-11.1768
▁liu	-11.1768
post	-11.1774
▁pearl	-11.1775
▁logo	-11.1778
▁explained	-11.1779
▁adventures	-11.178
▁hms	-11.1782
▁claiming	-11.1783
▁uniform	-11.1788
▁1998)	-11.1791
▁fortune	-11.1791
▁hor	-11.1792
cia	-11.1796
▁1957.	-11.18
▁healthcare	-11.1805
▁murdered	-11.1808
oma	-11.181
▁oakland	-11.1814
hua	-11.1817
▁1958.	-11.1817
▁balance	-11.1817
▁maría	-11.1818
▁fortress	-11.1821
▁cluster	-11.1823
▁slave	-11.1824
▁1959.	-11.1826
ping	-11.1826
▁1948.	-11.1827
▁1943,	-11.1829
▁2016–17	-11.183
▁victories	-11.183
▁simultaneously	-11.1835
▁stroke	-11.1835
ati	-11.1836
▁wan	-11.1836
▁updated	-11.1837
▁else	-11.1838
▁ci	-11.1846
▁heath	-11.1848
▁beta	-11.1848
▁2019–20	-11.1849
▁elect	-11.185
▁zimbabwe	-11.185
▁kon	-11.1853
▁neu	-11.1853
▁bala	-11.1856
▁seoul	-11.1856
▁trainer	-11.1859
▁hyper	-11.186
▁geneva	-11.186
▁quick	-11.186
▁pod	-11.1862
▁chilean	-11.1864
▁myanmar	-11.1865
▁furniture	-11.1865
▁translator	-11.1866
▁rao	-11.1867
▁cornwall	-11.1867
▁conventional	-11.1868
▁custom	-11.1868
▁mari	-11.1868
▁variations	-11.1869
▁1941,	-11.187
▁odd	-11.1871
ip	-11.1874
▁gill	-11.1874
sia	-11.1877
▁heats	-11.1877
▁curling	-11.1878
▁floors	-11.1879
▁mechanism	-11.1881
▁shut	-11.1881
▁cardiff	-11.1882
▁vale	-11.1882
▁spend	-11.1882
▁intention	-11.1891
▁uni	-11.1891
▁albania	-11.1895
▁resides	-11.1901
▁buck	-11.1904
▁shrine	-11.1908
bed	-11.191
▁counsel	-11.1912
▁fossil	-11.1912
▁sharing	-11.1912
▁confederation	-11.1914
▁intellectual	-11.1916
▁runway	-11.1918
▁1881	-11.1921
▁hidden	-11.1923
▁primera	-11.1928
▁bern	-11.1928
brook	-11.1933
ence	-11.1934
hn	-11.1937
▁epic	-11.1937
▁essays	-11.1938
▁geology	-11.1942
▁manila	-11.1944
▁moves	-11.1945
▁pur	-11.1953
▁inhabited	-11.1955
▁budapest	-11.1955
▁fk	-11.1955
▁decree	-11.1956
▁maha	-11.1959
▁sudan	-11.1961
▁wyoming	-11.1961
▁wil	-11.1966
▁haven	-11.1966
▁liquid	-11.1966
ero	-11.1966
▁localities	-11.197
89	-11.197
▁traditions	-11.1974
▁generated	-11.1974
▁indianapolis	-11.1975
▁ahmad	-11.1976
▁cameron	-11.1976
▁papua	-11.1976
▁stint	-11.1977
▁exercise	-11.1978
▁mega	-11.1978
▁1986)	-11.1979
▁hosting	-11.1986
▁composers	-11.1987
▁accommodate	-11.1989
▁#1	-11.1991
▁involves	-11.1991
▁1939,	-11.1991
▁sandstone	-11.1992
dra	-11.1993
bin	-11.1994
▁readers	-11.1995
▁photos	-11.1995
▁nicknamed	-11.2
▁anton	-11.2002
▁upcoming	-11.2002
mor	-11.2008
▁nationalist	-11.2009
▁ng	-11.2014
▁false	-11.2017
▁hospitals	-11.2017
▁implemented	-11.2018
”.	-11.2021
ward	-11.2026
▁nc	-11.2027
▁davies	-11.2029
▁cox	-11.2029
▁reformed	-11.2035
eng	-11.2036
▁cult	-11.2036
▁salvador	-11.2037
▁1.5	-11.2037
▁rica	-11.2038
▁traveling	-11.204
▁ecuador	-11.204
▁regulation	-11.204
▁zi	-11.2045
▁greatly	-11.2051
▁bend	-11.2056
mb	-11.2058
▁1882	-11.2061
www	-11.2064
produced	-11.2066
▁extend	-11.2066
▁suit	-11.2066
cr	-11.2067
▁kate	-11.207
▁documented	-11.2071
▁arabia	-11.2073
▁gaining	-11.2075
▁emerging	-11.2078
▁referring	-11.2079
▁pier	-11.208
▁hy	-11.2086
▁playwright	-11.2086
▁monuments	-11.2088
▁1918,	-11.2089
ović	-11.2091
wo	-11.2092
nar	-11.2097
tech	-11.2102
lla	-11.2102
▁arriving	-11.2104
▁destruction	-11.2107
▁1840	-11.211
▁rhythm	-11.2112
▁compact	-11.2113
▁protestant	-11.2113
▁alive	-11.212
▁boards	-11.212
▁1883	-11.2122
was	-11.2122
▁repeated	-11.2123
▁plastic	-11.2125
▁tommy	-11.2127
blue	-11.2127
▁slovak	-11.2128
▁86	-11.2129
ue	-11.2131
▁ur	-11.2131
▁crowned	-11.2132
▁gymnasium	-11.2134
ow	-11.2134
▁lose	-11.2138
ori	-11.2139
▁fate	-11.214
▁hopkins	-11.2143
speed	-11.2144
▁hammer	-11.2145
qa	-11.2146
▁cardinals	-11.2147
▁circular	-11.2152
▁structural	-11.2153
▁directing	-11.2156
▁algeria	-11.2158
▁isle	-11.2162
▁fraser	-11.2167
▁nurse	-11.2169
▁rider	-11.217
▁collector	-11.2171
▁imprisoned	-11.2174
▁tal	-11.2174
▁hurling	-11.2175
▁acclaimed	-11.2175
▁pub	-11.2177
▁seeing	-11.2178
▁guilty	-11.2178
▁liner	-11.2187
super	-11.2187
▁freshman	-11.2188
▁1958,	-11.2189
▁naples	-11.2191
▁hardware	-11.2193
▁phrase	-11.2197
▁1940,	-11.2198
▁entrants	-11.22
ovich	-11.2203
▁dangerous	-11.2204
▁plantation	-11.2204
▁prototype	-11.2216
▁sho	-11.2216
▁1956,	-11.2217
▁gaelic	-11.2219
▁wy	-11.2221
▁fo	-11.2221
▁landed	-11.2221
▁vii	-11.2222
▁recovery	-11.2222
▁voyage	-11.2223
mac	-11.2225
▁entries	-11.2226
▁cam	-11.2228
▁desire	-11.2229
▁hotels	-11.2232
▁tanzania	-11.2234
▁increasingly	-11.2239
ped	-11.224
▁tampa	-11.2241
▁gates	-11.2241
lay	-11.2242
▁decide	-11.2244
tia	-11.2244
▁knee	-11.2244
▁rad	-11.225
▁protests	-11.2254
▁trump	-11.2255
ona	-11.2256
▁raising	-11.2262
▁deer	-11.2262
▁ag	-11.2263
▁disaster	-11.2265
▁fuscous	-11.2266
music	-11.2267
▁ratings	-11.2271
-6	-11.2271
link	-11.2272
▁backing	-11.2272
▁renovation	-11.2276
▁owen	-11.228
▁underwent	-11.228
▁geo	-11.2285
▁1872	-11.2288
▁83	-11.2288
▁celtic	-11.229
▁blake	-11.2291
▁exhibit	-11.2295
▁viewed	-11.2297
kai	-11.2301
▁closest	-11.2303
▁colspan	-11.2311
▁tons	-11.2314
iana	-11.2317
▁cornell	-11.2319
lie	-11.2321
85	-11.2322
▁noise	-11.2322
▁grants	-11.2322
▁extent	-11.2323
thi	-11.2323
▁holdings	-11.2323
▁defend	-11.2324
▁suburban	-11.2332
▁sec	-11.2332
▁testament	-11.2334
▁allan	-11.2335
cat	-11.2335
enko	-11.2336
▁corruption	-11.234
▁telugu	-11.2341
bon	-11.2341
oka	-11.2344
▁evil	-11.2345
▁supplied	-11.2346
▁interface	-11.2349
▁1947.	-11.2349
▁winnipeg	-11.2352
54	-11.2355
▁journalists	-11.2355
▁blog	-11.2356
▁societies	-11.2358
▁mun	-11.2359
▁steep	-11.2361
▁shelter	-11.2361
▁henderson	-11.2362
▁effectively	-11.2363
▁hd	-11.2364
▁improvement	-11.2375
▁bra	-11.238
▁1985)	-11.2381
cap	-11.2389
▁swan	-11.2389
▁andrews	-11.2393
zan	-11.2395
▁malayalam	-11.2396
▁councillors	-11.2398
▁sample	-11.2401
▁knew	-11.2403
▁dome	-11.2406
▁charted	-11.2407
lee	-11.2408
▁supposed	-11.241
▁ellis	-11.241
▁interactive	-11.2414
little	-11.2418
▁enters	-11.242
▁ordinary	-11.2422
▁mutual	-11.2423
od	-11.2423
▁convent	-11.2427
▁speakers	-11.2427
▁deployed	-11.2428
▁1959,	-11.2431
▁emmy	-11.2432
▁nave	-11.2433
meter	-11.244
▁porch	-11.2442
▁1871	-11.2443
▁shorter	-11.2446
▁uruguay	-11.2448
▁gross	-11.2451
▁presents	-11.2452
▁appeals	-11.2452
▁speedway	-11.2456
▁reader	-11.2457
nus	-11.2457
▁est	-11.246
▁1999)	-11.2462
▁1949,	-11.2471
▁skiing	-11.2473
▁baroque	-11.2475
▁specimen	-11.2476
bur	-11.2479
▁mixture	-11.248
▁demo	-11.248
▁luxembourg	-11.2481
▁françois	-11.2483
-7	-11.2487
▁bang	-11.2497
▁1957,	-11.25
▁vast	-11.25
text	-11.2501
tion	-11.2502
▁th	-11.2502
▁2015–16	-11.2502
▁1874	-11.2504
▁correct	-11.2505
▁bailey	-11.2512
▁alma	-11.2515
inch	-11.2517
▁cabin	-11.2525
▁87	-11.2527
▁supervision	-11.2537
▁drawings	-11.2541
▁nasa	-11.2547
▁tasmania	-11.2548
▁cher	-11.2549
▁assessment	-11.2556
elle	-11.2558
▁edmund	-11.2559
▁owns	-11.256
▁varieties	-11.2561
boy	-11.2562
eta	-11.2564
▁supporter	-11.2565
▁br	-11.2566
▁recreational	-11.2566
▁stein	-11.2567
▁wrestler	-11.257
▁pirates	-11.257
▁palestine	-11.2574
nor	-11.2579
▁curator	-11.2581
hl	-11.2581
▁monk	-11.2583
aa	-11.2584
▁coup	-11.2587
▁89	-11.2587
▁1955.	-11.2588
▁dogs	-11.2592
▁1861	-11.2592
▁parishes	-11.2592
pet	-11.2594
▁fiba	-11.2595
lived	-11.2595
▁integration	-11.2599
▁chin	-11.2599
▁sul	-11.2601
▁exit	-11.2603
▁governorate	-11.2606
13	-11.2611
▁lucas	-11.2611
ras	-11.2617
▁suspension	-11.2621
sley	-11.2622
▁atp	-11.2623
▁kam	-11.2624
▁tro	-11.2624
▁chef	-11.2625
▁belfast	-11.2627
▁92	-11.2631
▁1955,	-11.2639
▁evolved	-11.264
▁reflect	-11.264
▁gr	-11.2646
▁signature	-11.2646
▁carved	-11.2649
▁sustainable	-11.2657
▁lights	-11.2658
▁relating	-11.266
▁discussion	-11.266
▁wearing	-11.2677
-15	-11.2677
▁porter	-11.2677
▁nevertheless	-11.2678
▁computing	-11.2678
▁enforcement	-11.2679
▁flew	-11.2683
▁emphasis	-11.2683
▁sanctuary	-11.2687
ama	-11.2688
▁qui	-11.2689
▁registration	-11.2691
mas	-11.2694
▁destination	-11.2695
sta	-11.2697
▁coins	-11.2699
▁bud	-11.2705
designated	-11.2706
▁carol	-11.2706
▁sean	-11.2707
▁commentary	-11.2713
▁cutting	-11.2715
▁ok	-11.2716
▁travelling	-11.2717
▁cartoon	-11.2718
▁renewed	-11.2719
▁carlo	-11.2721
speaking	-11.2727
pal	-11.2727
cin	-11.2735
▁dish	-11.2736
▁1939.	-11.2736
▁1873	-11.2737
▁platinum	-11.2737
▁nineteenth	-11.2741
▁interesting	-11.2746
▁halifax	-11.2747
▁invitation	-11.2749
nh	-11.275
▁mag	-11.2753
bb	-11.2753
▁vicar	-11.2755
▁boarding	-11.2757
▁publishes	-11.2758
uma	-11.276
ks	-11.276
▁brad	-11.2762
sam	-11.2762
▁franco	-11.2763
▁helsinki	-11.2764
sun	-11.2765
▁1960,	-11.2766
▁prisoner	-11.2771
▁missile	-11.2771
▁dub	-11.2775
yang	-11.2776
▁batsman	-11.2778
rio	-11.278
▁mah	-11.2782
96	-11.2782
▁patterns	-11.2785
ins	-11.2786
▁eve	-11.2788
▁streak	-11.279
▁actively	-11.2791
tr	-11.2794
bre	-11.2796
▁specializing	-11.2796
space	-11.2797
▁capitol	-11.2798
▁cent	-11.2799
ash	-11.28
tti	-11.2801
▁leipzig	-11.2803
▁1876	-11.2804
▁revised	-11.2804
▁bee	-11.2805
▁cheese	-11.2805
▁memphis	-11.2805
▁1953.	-11.2808
▁1878	-11.2809
▁beneath	-11.2809
▁mw	-11.2809
▁scorer	-11.281
hall	-11.2811
▁heavyweight	-11.2811
▁delegation	-11.2813
▁wealth	-11.2814
▁das	-11.2814
▁ob	-11.2817
▁anyone	-11.2817
▁reverse	-11.2818
▁rochester	-11.2819
▁benefits	-11.2819
▁antarctica	-11.2821
▁1954.	-11.2821
▁karnataka	-11.2821
▁museums	-11.2823
▁olive	-11.2823
▁eugene	-11.2823
▁sofia	-11.2825
▁tape	-11.2826
▁perennial	-11.2828
▁gymnastics	-11.2835
▁cliff	-11.2841
▁burns	-11.2842
▁1984)	-11.2844
▁farms	-11.2847
▁customs	-11.285
▁visits	-11.2852
page	-11.2853
▁dreams	-11.2857
ami	-11.2858
▁ronald	-11.286
horn	-11.2862
▁caroline	-11.2863
▁delegate	-11.2864
▁detective	-11.2867
▁taste	-11.2872
▁orchid	-11.2873
▁herald	-11.2873
▁relevant	-11.2874
chan	-11.288
▁perspective	-11.2881
▁medalist	-11.2882
▁associations	-11.2884
▁stevens	-11.2884
gh	-11.2884
▁1918.	-11.2885
atus	-11.2886
▁sees	-11.2886
ema	-11.2886
▁rama	-11.2891
▁stra	-11.2895
▁seal	-11.2896
▁presentation	-11.2896
av	-11.2897
▁posts	-11.2899
▁2014–15	-11.29
▁pseudo	-11.29
▁93	-11.2901
▁kirk	-11.2903
▁filmmaker	-11.2903
▁vary	-11.2905
▁preston	-11.2907
▁nancy	-11.2908
cus	-11.2909
▁1867	-11.291
▁1863	-11.2911
▁waste	-11.2912
▁portions	-11.2915
▁snake	-11.2916
▁tune	-11.2916
▁2–0	-11.2918
80	-11.292
▁numbered	-11.2921
▁spider	-11.2921
▁1954,	-11.2925
▁(19	-11.2926
▁dominant	-11.2926
▁ly	-11.2928
▁101	-11.2932
▁sm	-11.2935
▁wells	-11.2936
ans	-11.2937
▁grid	-11.2937
▁bounded	-11.2938
▁ole	-11.2939
▁bout	-11.2939
cut	-11.2946
▁pride	-11.2947
series	-11.2948
▁celebrate	-11.2949
ure	-11.2949
zy	-11.2952
▁execution	-11.2953
tai	-11.2953
▁hood	-11.2955
▁albany	-11.2956
▁acclaim	-11.2958
▁exhibits	-11.2959
▁colin	-11.2959
▁instruction	-11.2961
▁beetles	-11.2963
▁functional	-11.2968
track	-11.2968
▁moss	-11.2968
▁apply	-11.2971
▁manufacturers	-11.2972
▁variation	-11.2975
▁santos	-11.2976
▁coral	-11.2977
▁ferdinand	-11.2979
▁generations	-11.298
▁aerial	-11.298
▁kra	-11.298
▁temperatures	-11.2983
▁apex	-11.2985
▁pace	-11.2986
▁touchdowns	-11.2989
▁1942.	-11.2991
ş	-11.2991
▁hydro	-11.2992
▁displays	-11.2994
▁teeth	-11.2994
▁equity	-11.2997
▁atmosphere	-11.2998
60	-11.3002
▁departed	-11.3005
▁difficulties	-11.3006
▁requested	-11.3008
zel	-11.3009
▁handed	-11.3013
▁wilderness	-11.3017
▁facebook	-11.3018
▁bla	-11.302
▁interpretation	-11.3024
▁feminist	-11.3025
▁governance	-11.3026
▁indicating	-11.3027
▁dress	-11.3032
▁aberdeen	-11.3032
▁julia	-11.3033
▁/&	-11.3034
▁1952,	-11.3035
▁waiting	-11.3037
▁diversity	-11.304
▁bros	-11.304
▁chambers	-11.3041
ado	-11.3042
▁1949.	-11.3042
▁depicted	-11.3044
▁2-	-11.3046
▁theoretical	-11.3047
▁governed	-11.3049
▁aaron	-11.3051
via	-11.3052
▁kas	-11.3053
▁endangered	-11.3054
▁aboard	-11.3061
▁stern	-11.3061
▁lithuanian	-11.3065
▁1953,	-11.3065
▁independently	-11.3066
▁bases	-11.3077
▁publishers	-11.3079
▁ethiopia	-11.3079
▁reid	-11.3079
offs	-11.308
ovsky	-11.3083
▁1960.	-11.3083
▁santo	-11.3084
▁competes	-11.3088
▁striker	-11.3089
vis	-11.3089
▁brewery	-11.3091
▁temporarily	-11.3092
nagar	-11.3092
▁auxiliary	-11.3094
▁leslie	-11.3095
▁1952.	-11.31
▁garrison	-11.3101
▁guidance	-11.3103
▁lineup	-11.3104
▁macedonia	-11.3106
▁finalist	-11.3108
board	-11.3109
▁employee	-11.311
▁depicts	-11.311
24	-11.3112
ese	-11.3112
▁mohammad	-11.3112
▁drag	-11.3114
▁brooks	-11.3114
▁richardson	-11.3115
ila	-11.3119
[	-11.312
▁rectangular	-11.3122
▁quarterback	-11.3122
▁angels	-11.3125
▁engagement	-11.3127
▁promotional	-11.3131
sis	-11.3132
▁vegetation	-11.3135
▁1983)	-11.3138
▁pursued	-11.314
▁portfolio	-11.314
▁sai	-11.3146
90	-11.3146
▁deemed	-11.3148
▁tales	-11.3149
▁twentieth	-11.315
▁ellen	-11.3153
▁editing	-11.3153
▁procedure	-11.3153
char	-11.3154
▁climbing	-11.3154
▁brighton	-11.3158
25	-11.316
200	-11.3161
distance	-11.3166
▁emma	-11.3169
▁literally	-11.3169
away	-11.3169
▁1847	-11.3171
▁bryan	-11.3171
▁mario	-11.3174
▁theorem	-11.3175
▁files	-11.3177
▁pete	-11.3178
▁automobile	-11.318
▁investors	-11.318
▁looks	-11.3182
▁toll	-11.3182
▁crimes	-11.3185
▁(20	-11.3186
eva	-11.3188
▁challenges	-11.3191
ín	-11.3192
▁depicting	-11.3195
▁wal	-11.3196
titled	-11.3196
ā	-11.3196
▁valid	-11.3197
▁tribal	-11.3198
▁bavaria	-11.3199
▁georg	-11.3202
▁manuscripts	-11.3202
istic	-11.3203
▁therapy	-11.3204
sport	-11.3204
▁stationed	-11.3207
▁discussed	-11.3209
▁boom	-11.3209
▁circumstances	-11.321
č	-11.3211
▁marcus	-11.3212
▁poets	-11.3213
▁dialogue	-11.3213
▁carr	-11.3214
▁exploration	-11.3216
▁referee	-11.3217
▁lying	-11.3217
▁madagascar	-11.3218
▁preferred	-11.3219
▁shaped	-11.3219
▁todd	-11.3221
lane	-11.3222
rt	-11.3223
▁varies	-11.3224
▁duncan	-11.3225
▁staged	-11.3225
▁principle	-11.3227
▁1981)	-11.3233
▁ussr	-11.3235
vel	-11.3236
▁maintains	-11.3237
▁idol	-11.3238
▁random	-11.3239
▁fighters	-11.3241
▁fiji	-11.3242
▁clearly	-11.3245
▁seem	-11.3247
▁1982)	-11.3248
▁shift	-11.325
▁1862	-11.325
▁1830	-11.3252
▁permanently	-11.3253
▁sculptures	-11.3258
▁archaeology	-11.3258
▁shakespeare	-11.3263
▁$	-11.3264
▁contestants	-11.3265
▁lifestyle	-11.3268
▁footage	-11.327
▁prairie	-11.3271
▁armstrong	-11.3273
▁accredited	-11.3274
▁sox	-11.3278
▁rey	-11.3279
▁dale	-11.328
▁1940.	-11.3282
▁whitish	-11.3284
ret	-11.3285
▁dealing	-11.3286
▁debt	-11.3286
▁dissertation	-11.3287
▁remove	-11.3287
▁justin	-11.3288
▁chaired	-11.329
▁comparison	-11.3291
07	-11.3293
▁titular	-11.3296
▁1943.	-11.3298
▁consulting	-11.33
feld	-11.3301
▁airing	-11.3301
▁1941.	-11.3303
▁lisa	-11.3305
▁zhang	-11.3306
▁derives	-11.3309
▁breed	-11.3309
▁mathematician	-11.3311
▁americans	-11.3311
jin	-11.3314
▁rhine	-11.3316
▁divorce	-11.3318
▁syndrome	-11.3319
▁onwards	-11.3321
▁sleep	-11.3322
▁2013–14	-11.3324
▁moral	-11.3325
▁tested	-11.3326
ose	-11.3326
wall	-11.3329
▁130	-11.333
▁thunder	-11.3333
49	-11.3334
▁moderate	-11.3337
▁measuring	-11.3338
▁1951,	-11.3338
▁delayed	-11.3338
▁suffolk	-11.3341
ld	-11.3343
▁gibson	-11.3343
▁ballot	-11.3347
▁kolkata	-11.3348
▁chennai	-11.3351
sub	-11.3355
▁tam	-11.3359
▁gui	-11.336
▁legendary	-11.3362
▁danny	-11.3362
▁sullivan	-11.3368
▁conducting	-11.3371
▁worn	-11.3373
▁jar	-11.3375
mile	-11.3379
bie	-11.338
▁prayer	-11.3384
▁andhra	-11.3389
▁plymouth	-11.3389
▁colleagues	-11.3389
▁91	-11.339
▁kenneth	-11.3392
las	-11.3393
▁malaysian	-11.3393
▁stems	-11.3393
gin	-11.3393
▁notre	-11.3394
ovo	-11.3397
ites	-11.34
pt	-11.34
▁bishops	-11.3401
ities	-11.3401
▁bol	-11.3402
▁brass	-11.3402
▁weapon	-11.3403
▁rates	-11.3404
▁sociology	-11.3407
▁attraction	-11.3407
▁nottingham	-11.3409
▁drink	-11.3409
▁herb	-11.3409
▁kala	-11.3409
aw	-11.341
▁occasional	-11.3411
▁saved	-11.3412
ābād	-11.3412
▁invented	-11.3413
sized	-11.3415
▁oh	-11.3416
▁pointed	-11.3417
▁confluence	-11.3418
▁graves	-11.3418
▁garage	-11.3421
▁windsor	-11.3421
▁virus	-11.3425
▁unity	-11.3426
rc	-11.3429
▁lift	-11.3429
▁lamb	-11.3432
▁marion	-11.3438
▁amendment	-11.3439
▁proof	-11.344
▁mouse	-11.344
65	-11.3444
aba	-11.3444
▁125	-11.3446
42	-11.3448
great	-11.3451
▁jun	-11.3452
"&	-11.3452
▁por	-11.3454
▁hybrid	-11.3454
▁1938,	-11.3455
▁loch	-11.3456
wide	-11.3457
▁escaped	-11.3459
▁lover	-11.346
▁gable	-11.3462
▁genetic	-11.3463
▁consul	-11.3464
▁milton	-11.3466
women	-11.3469
▁kol	-11.3469
▁id	-11.3472
▁1951.	-11.3474
▁citizenship	-11.3475
58	-11.3475
ves	-11.3477
▁basel	-11.3479
▁1800	-11.348
▁ip	-11.3484
▁botanist	-11.3484
▁holmes	-11.3485
▁helicopter	-11.3485
▁1971)	-11.3485
▁server	-11.3487
▁victim	-11.3487
▁colours	-11.3491
▁reviewer	-11.3491
▁refuge	-11.3492
▁lords	-11.3493
▁ludwig	-11.3494
▁andré	-11.3494
late	-11.3501
▁telegraph	-11.3501
mad	-11.3502
▁furthermore	-11.3503
▁sheet	-11.3503
fc	-11.3504
gas	-11.3506
▁mali	-11.3507
▁trinidad	-11.351
lit	-11.3516
▁1919.	-11.3517
▁flash	-11.3519
▁graphics	-11.3522
▁optical	-11.3523
▁criteria	-11.3524
▁mul	-11.3524
jar	-11.3524
▁spur	-11.3525
fire	-11.3528
esh	-11.3531
▁ir	-11.3537
▁appropriate	-11.3541
ija	-11.3541
▁lynn	-11.3542
ava	-11.3547
▁philosopher	-11.355
▁worst	-11.3551
▁camps	-11.3552
▁senators	-11.3553
▁1950,	-11.3553
▁marshal	-11.3554
▁leicester	-11.3554
38	-11.3555
▁carnegie	-11.3569
▁1917,	-11.3571
hen	-11.3572
chy	-11.3572
third	-11.3574
▁partnered	-11.3574
maker	-11.3576
kel	-11.3579
▁exposure	-11.358
27	-11.3584
log	-11.3587
▁lighting	-11.3587
▁pad	-11.3588
▁guru	-11.3589
▁teaches	-11.359
▁1865	-11.3591
▁creator	-11.3599
▁manages	-11.3599
▁eva	-11.3601
adi	-11.3601
hy	-11.3603
▁conjunction	-11.3606
gra	-11.3606
▁tone	-11.3607
french	-11.3608
▁cedar	-11.361
gy	-11.3611
▁battles	-11.3613
▁watershed	-11.3616
▁kat	-11.3618
▁samples	-11.3618
▁humanities	-11.3619
▁arrangements	-11.362
▁tackle	-11.362
▁peaks	-11.3621
▁pac	-11.3624
▁rivals	-11.3628
▁slam	-11.3628
zar	-11.3629
▁referendum	-11.3632
▁newfoundland	-11.3634
▁ultra	-11.3636
▁1938.	-11.3639
ridge	-11.3643
▁saxony	-11.3643
▁diving	-11.3643
▁1969)	-11.3644
▁bolivia	-11.3649
▁1868	-11.3651
▁tha	-11.3653
▁economist	-11.3654
▁1866	-11.3654
ense	-11.3655
▁helps	-11.3656
▁1864	-11.3658
rian	-11.3659
hard	-11.3661
film	-11.3662
▁dictionary	-11.3665
▁py	-11.3667
▁synthesis	-11.3667
▁voices	-11.3668
ware	-11.3668
ele	-11.3671
▁trails	-11.3672
▁dense	-11.3672
▁cur	-11.3674
▁inches	-11.3675
▁botanical	-11.3676
▁sta	-11.3677
▁stretch	-11.3678
▁andrea	-11.368
gr	-11.3682
"|	-11.3682
rr	-11.3687
▁performs	-11.3689
▁graph	-11.3689
▁llc	-11.369
card	-11.3691
▁1979)	-11.3692
▁immigration	-11.3692
400	-11.3696
▁rotation	-11.3699
▁collapse	-11.3699
▁feeling	-11.37
▁lightweight	-11.37
▁catalog	-11.37
▁publish	-11.3702
▁experts	-11.3702
▁configuration	-11.3706
▁quit	-11.3707
▁edges	-11.3707
▁claude	-11.3708
▁editors	-11.3709
▁1980)	-11.3711
▁delegates	-11.3712
▁wish	-11.3713
▁experiment	-11.3716
▁screened	-11.3716
▁lateral	-11.3716
▁francesco	-11.3719
95	-11.372
▁2000)	-11.372
▁impressive	-11.3721
▁nice	-11.3722
▁louisville	-11.3724
▁shock	-11.3725
rah	-11.3726
▁trouble	-11.3727
▁bengali	-11.3729
▁insects	-11.373
▁measured	-11.3733
▁cow	-11.3738
park	-11.3738
▁cab	-11.3738
▁meter	-11.3745
▁$2	-11.3746
▁illustrations	-11.3747
▁postal	-11.3749
▁rode	-11.375
▁med	-11.3755
▁2,000	-11.3755
57	-11.3755
▁bai	-11.3756
aro	-11.3756
fan	-11.3756
▁heinrich	-11.3757
▁unless	-11.3758
enburg	-11.3759
bat	-11.3761
ide	-11.3761
alis	-11.3762
▁observations	-11.3762
▁suddenly	-11.3763
▁load	-11.3764
▁basement	-11.3766
▁sto	-11.3767
▁simpson	-11.3769
▁spelling	-11.3771
▁wrong	-11.3774
power	-11.3774
inae	-11.3777
▁shri	-11.3777
▁beck	-11.3778
wrote	-11.3778
▁customer	-11.378
ches	-11.3783
▁centres	-11.3785
aya	-11.3791
▁grain	-11.3791
▁curtis	-11.3796
▁citing	-11.3799
▁dollars	-11.38
▁flies	-11.3801
mos	-11.3802
▁robertson	-11.3802
▁orlando	-11.3803
▁salon	-11.3803
▁lance	-11.3804
etti	-11.3804
▁contributor	-11.3805
▁1972)	-11.3805
06	-11.3808
▁uprising	-11.381
▁contents	-11.3811
▁objective	-11.3811
▁maiden	-11.3814
hat	-11.3814
▁beaten	-11.3814
▁quantum	-11.3815
▁dubai	-11.3818
▁tight	-11.3819
▁maple	-11.3823
▁cove	-11.3824
▁hp	-11.3824
gor	-11.3825
▁suggest	-11.3827
▁ernst	-11.3827
py	-11.383
▁bru	-11.3834
▁clinic	-11.3836
▁1919,	-11.3837
▁kw	-11.3838
yer	-11.3838
▁spectrum	-11.3841
▁construct	-11.3842
▁1937,	-11.3842
built	-11.3845
rod	-11.3845
▁hugo	-11.3849
▁heading	-11.386
▁bis	-11.386
▁innovative	-11.3862
▁burn	-11.3862
anna	-11.3862
▁mann	-11.3866
▁lancaster	-11.3867
lik	-11.387
col	-11.3873
▁mature	-11.3876
▁chandra	-11.3878
▁qa	-11.3878
night	-11.3879
▁mythology	-11.388
▁sy	-11.3881
▁1973)	-11.3881
▁jointly	-11.3884
▁leone	-11.3886
▁empty	-11.3893
▁1970)	-11.3894
▁1950.	-11.3895
▁marco	-11.3895
▁axis	-11.3899
nen	-11.3899
▁bicycle	-11.39
▁starter	-11.3902
▁fundamental	-11.3903
▁strait	-11.3905
67	-11.3907
▁iraqi	-11.3907
▁eventual	-11.391
john	-11.3912
▁2012–13	-11.3914
▁94	-11.3915
▁volcanic	-11.3918
▁sel	-11.3918
▁doctors	-11.3919
▁fabric	-11.3919
▁chiefs	-11.3919
rate	-11.3921
▁vacant	-11.3923
▁chronicle	-11.3925
▁automatically	-11.3925
pra	-11.3926
▁gur	-11.3932
▁collect	-11.3933
▁casino	-11.3935
▁icelandic	-11.3936
ub	-11.3938
▁strange	-11.394
▁zagreb	-11.3944
▁prussia	-11.3945
qua	-11.3949
▁streaming	-11.395
▁vicinity	-11.395
▁wai	-11.3953
▁catch	-11.3955
▁latvia	-11.3955
sal	-11.3956
pel	-11.3958
▁sergeant	-11.396
▁muslims	-11.396
▁4-	-11.3965
▁dubbed	-11.3966
dc	-11.3968
▁options	-11.3968
▁1968)	-11.3973
=|	-11.3978
brien	-11.3985
▁vin	-11.3987
take	-11.3988
uni	-11.3991
gui	-11.3995
88	-11.3996
▁bore	-11.3996
▁pipe	-11.3997
mit	-11.3998
▁2020)	-11.3998
▁lesser	-11.4001
gram	-11.4006
▁associates	-11.4006
▁edgar	-11.4007
▁1914,	-11.4008
▁bibliography	-11.401
mate	-11.401
▁historians	-11.4012
hai	-11.4012
▁lens	-11.4013
▁drinking	-11.4013
▁mara	-11.4017
▁identification	-11.4017
▁panels	-11.402
hurst	-11.402
▁1964)	-11.4022
▁deals	-11.4025
▁wire	-11.4026
▁removal	-11.4028
▁trunk	-11.4028
▁praise	-11.4029
▁swing	-11.403
▁sitcom	-11.4037
▁waived	-11.4038
▁meta	-11.4039
▁broadcaster	-11.4039
▁julius	-11.4045
▁celebrity	-11.4047
▁1974)	-11.4047
▁refugees	-11.4048
▁chat	-11.4049
▁shan	-11.405
▁prizes	-11.405
▁1977)	-11.405
lic	-11.405
▁scandal	-11.4054
▁deputies	-11.4055
▁mala	-11.4055
qu	-11.4056
▁topic	-11.4056
▁adviser	-11.4056
▁duchy	-11.4058
▁lam	-11.4059
wen	-11.406
court	-11.4061
▁podcast	-11.4062
▁wheat	-11.4063
▁recalled	-11.4063
▁1936,	-11.4063
▁yuan	-11.4065
▁sword	-11.4065
left	-11.4069
▁cum	-11.4071
▁expensive	-11.4071
▁mirror	-11.4074
▁roller	-11.4076
▁negotiations	-11.4076
▁protocol	-11.4076
smith	-11.4077
▁(25	-11.4078
aki	-11.4079
▁cre	-11.4079
▁plates	-11.4083
▁clare	-11.4087
22	-11.4089
▁qatar	-11.4091
▁thor	-11.4092
▁shed	-11.4096
▁linda	-11.4096
▁colombian	-11.41
▁1848	-11.41
▁gathered	-11.4104
▁kur	-11.4106
▁bowler	-11.4107
▁bearing	-11.411
▁reopened	-11.4113
▁heaven	-11.4116
▁stake	-11.4118
▁cairo	-11.412
▁1978)	-11.4125
▁chaplain	-11.4126
wer	-11.4127
▁1975)	-11.4128
ichi	-11.4131
▁joins	-11.4134
▁violent	-11.4134
▁package	-11.4136
dell	-11.4138
▁emily	-11.4141
▁clara	-11.4141
▁1965)	-11.4141
-9	-11.4142
▁ultimate	-11.4148
▁mate	-11.4151
▁receiver	-11.4152
bee	-11.4155
▁worcester	-11.4156
▁fallen	-11.4156
▁1976)	-11.4158
▁1967)	-11.4162
▁prof	-11.4162
nc	-11.4163
ct	-11.4169
▁powell	-11.4172
just	-11.4172
▁recurring	-11.4173
▁pulled	-11.4175
▁torpedo	-11.4176
▁mcdonald	-11.4178
six	-11.4179
▁inclusion	-11.418
▁bundesliga	-11.418
▁melody	-11.4181
▁tram	-11.4182
▁favourite	-11.4186
cd	-11.4186
▁challenger	-11.4188
▁psychological	-11.4188
▁client	-11.4189
▁succeeding	-11.419
▁gt	-11.419
▁talks	-11.4191
▁bradley	-11.4193
▁ek	-11.4195
▁burton	-11.4195
▁edwin	-11.4197
▁motors	-11.4198
▁explorer	-11.42
▁navigation	-11.4203
▁pala	-11.4207
▁approached	-11.4216
ima	-11.4217
ito	-11.4218
▁glenn	-11.422
ets	-11.4223
▁touchdown	-11.4226
▁lima	-11.4226
▁folded	-11.4228
▁1963)	-11.4229
▁berry	-11.4233
ō	-11.4233
▁sid	-11.4235
ota	-11.4236
▁crambidae	-11.4238
▁dur	-11.4239
▁arctic	-11.4241
▁johannes	-11.4241
▁improvements	-11.4241
▁1966)	-11.4242
▁sophomore	-11.4247
▁collecting	-11.4247
▁deaths	-11.4247
saint	-11.4257
▁silk	-11.4257
ello	-11.4259
▁computers	-11.426
▁exactly	-11.426
▁bankruptcy	-11.4261
▁pupil	-11.4262
▁herman	-11.4264
bor	-11.4265
▁crawford	-11.4267
rey	-11.4275
▁martha	-11.4276
▁wool	-11.4277
▁lunar	-11.4278
▁hc	-11.4279
tas	-11.4283
91	-11.4285
dam	-11.4285
ū	-11.4285
▁tehran	-11.4286
▁springfield	-11.4288
sol	-11.4289
▁townships	-11.4289
500	-11.429
▁slope	-11.4291
▁portsmouth	-11.4292
▁jockey	-11.4294
▁paralympic	-11.4296
▁pack	-11.4297
▁dor	-11.4297
▁devi	-11.43
▁1920,	-11.4301
▁professionals	-11.4303
▁ac	-11.4304
▁detail	-11.4308
▁thinking	-11.4311
▁constellation	-11.4311
▁notice	-11.4315
lot	-11.4315
▁breast	-11.4317
▁erect	-11.4318
▁genres	-11.4319
gg	-11.4319
▁dozen	-11.432
▁unsuccessfully	-11.4324
▁decisions	-11.4325
mid	-11.4325
▁ober	-11.4325
▁dock	-11.4326
▁1937.	-11.4327
▁oral	-11.4329
ão	-11.433
▁ore	-11.4331
▁jets	-11.4333
▁cc	-11.4334
uta	-11.4334
▁teammate	-11.4335
▁christianity	-11.4336
▁girlfriend	-11.4338
3,	-11.4339
▁bombing	-11.4342
onia	-11.4343
▁sort	-11.4344
▁permitted	-11.4348
song	-11.435
▁terrain	-11.4352
▁tra	-11.4353
▁manufacture	-11.4354
▁tourists	-11.4355
▁electro	-11.4358
▁fiscal	-11.436
▁lung	-11.4361
▁dai	-11.4361
▁grandmother	-11.4363
▁payment	-11.4364
▁cooking	-11.4365
▁allocated	-11.4366
▁1857	-11.4367
cio	-11.4367
bia	-11.4369
cas	-11.437
▁charitable	-11.4371
▁frontier	-11.4372
▁1962)	-11.4375
▁monroe	-11.4377
▁watts	-11.4377
▁sant	-11.4378
▁fl	-11.4378
▁slowly	-11.4378
▁sometime	-11.4379
▁centered	-11.4381
lyn	-11.4382
▁highland	-11.4388
sing	-11.4388
▁massacre	-11.4389
▁spiral	-11.4392
▁2.5	-11.4392
▁cameroon	-11.4393
▁carroll	-11.4394
▁epithet	-11.4394
▁apostolic	-11.4396
lé	-11.4396
fest	-11.4397
46	-11.4398
▁aside	-11.4398
▁140	-11.4399
▁palestinian	-11.4402
▁stops	-11.4402
▁beds	-11.4404
▁deposits	-11.4406
▁behaviour	-11.4406
▁logic	-11.4406
▁marina	-11.4406
▁surprise	-11.4407
▁1917.	-11.4407
▁hyderabad	-11.4409
▁kun	-11.4409
▁raid	-11.4417
▁indeed	-11.4421
▁nascar	-11.4422
og	-11.4422
▁ibm	-11.4423
▁dong	-11.4425
▁archdiocese	-11.4426
skoye	-11.4427
▁declaration	-11.4428
▁temples	-11.4428
▁rebel	-11.4435
▁pilots	-11.4436
cp	-11.4439
▁altar	-11.4442
_2	-11.4442
▁electorate	-11.4445
▁polytechnic	-11.4446
▁mercury	-11.4446
▁demonstrated	-11.4451
fr	-11.4453
▁kho	-11.4455
▁kiss	-11.4455
▁succeed	-11.4458
▁shall	-11.446
▁cuts	-11.4463
america	-11.4464
▁crest	-11.4464
▁catalogue	-11.4468
▁cologne	-11.4469
▁bedford	-11.4471
▁handled	-11.4472
ians	-11.4473
▁kick	-11.4475
both	-11.4476
▁1935.	-11.4477
▁gala	-11.4477
▁challenged	-11.4478
▁potter	-11.4479
▁arsenal	-11.4483
ore	-11.4484
pat	-11.4485
▁pleasant	-11.4485
▁carpenter	-11.4491
▁certification	-11.4494
▁batted	-11.4499
▁irregular	-11.4499
▁nest	-11.45
▁eleventh	-11.4501
▁hear	-11.4501
▁keel	-11.4504
▁om	-11.4504
▁premises	-11.4506
▁classics	-11.4507
▁montenegro	-11.4507
god	-11.4511
▁separately	-11.4516
▁colonies	-11.452
▁1838	-11.4522
▁handle	-11.4524
▁reddish	-11.4527
–14	-11.4528
▁booth	-11.4528
fall	-11.4528
▁700	-11.4529
▁nordic	-11.4529
ery	-11.4531
▁nad	-11.4534
▁skill	-11.4535
▁ulster	-11.4536
fiction	-11.4537
▁belle	-11.4538
▁1935,	-11.4538
vik	-11.4539
▁roosevelt	-11.4541
mani	-11.4547
▁basal	-11.4549
▁tend	-11.455
cross	-11.4551
▁receptor	-11.4552
▁possibility	-11.4553
dt	-11.4555
▁dorothy	-11.4556
▁cord	-11.4557
▁ras	-11.4557
▁landscapes	-11.4559
▁1859	-11.4559
▁hurricane	-11.4559
▁expressway	-11.4561
▁barnes	-11.4562
▁devil	-11.4564
▁accounting	-11.4565
▁prolific	-11.4565
▁fountain	-11.4571
▁manual	-11.4571
▁cottage	-11.4574
▁illustrator	-11.4575
▁fauna	-11.4577
▁fri	-11.458
▁decoration	-11.4582
▁export	-11.4583
▁auction	-11.4585
oid	-11.4585
▁ren	-11.4586
▁drainage	-11.4586
▁nights	-11.4587
▁peaking	-11.4592
▁fuselage	-11.4596
▁sponsor	-11.4596
ili	-11.4597
56	-11.4598
▁winger	-11.4599
▁approaches	-11.4599
▁webb	-11.46
▁kannada	-11.4602
chu	-11.4605
▁prove	-11.4605
zhou	-11.4607
▁prominence	-11.4607
real	-11.4607
▁baltic	-11.4608
▁segunda	-11.4608
▁unofficial	-11.4612
▁fruits	-11.4613
▁check	-11.4614
▁killer	-11.4615
86	-11.4616
▁tobacco	-11.4617
▁seventeen	-11.4617
▁1936.	-11.4618
▁turin	-11.4618
hor	-11.4618
▁experiments	-11.4619
▁placement	-11.4626
;"|	-11.4627
▁ul	-11.4628
party	-11.463
▁bihar	-11.4634
▁astronomer	-11.4635
▁withdrawn	-11.4636
▁maker	-11.4636
59	-11.4636
▁charleston	-11.4643
▁expelled	-11.4643
▁bergen	-11.4645
▁afternoon	-11.4648
▁ideal	-11.4649
▁crops	-11.465
▁yugoslav	-11.4653
young	-11.4653
ill	-11.4657
▁dairy	-11.466
▁retire	-11.466
55	-11.4661
vy	-11.4665
▁£1	-11.4665
▁aviv	-11.4665
▁hai	-11.4665
sat	-11.4666
▁12-	-11.4667
▁shifted	-11.4667
78	-11.4668
▁sail	-11.4672
▁assignment	-11.4672
▁answer	-11.4672
▁nose	-11.4672
▁guatemala	-11.4673
▁shoulder	-11.4674
▁fork	-11.4675
ille	-11.4675
▁cohen	-11.4676
▁galleries	-11.4677
▁admission	-11.4682
▁lecture	-11.4683
ids	-11.4684
▁viscount	-11.4686
▁developers	-11.4687
▁fairly	-11.4689
▁brings	-11.4693
75	-11.4694
ö	-11.4697
▁belarus	-11.4699
▁bug	-11.4699
▁stepped	-11.47
▁encompasses	-11.4703
▁(21	-11.4703
▁duck	-11.4703
lov	-11.4704
▁elliott	-11.4705
▁reynolds	-11.4706
▁physicist	-11.4706
shire	-11.4707
▁chelsea	-11.471
nin	-11.4718
▁rainfall	-11.4721
▁1914.	-11.4724
▁pavilion	-11.4728
▁provisional	-11.4728
▁dragons	-11.4729
▁della	-11.473
last	-11.4732
▁heroes	-11.4732
▁kha	-11.4732
▁freshwater	-11.4738
▁stress	-11.4746
▁johan	-11.4746
▁sei	-11.4748
▁resided	-11.4753
▁inception	-11.4753
▁cultivation	-11.4755
▁lisbon	-11.4758
▁belief	-11.4758
▁nathan	-11.476
uc	-11.476
300	-11.4763
▁matrix	-11.4765
ls	-11.4766
▁3000	-11.4767
▁curved	-11.4771
▁rebels	-11.4772
▁discipline	-11.4775
sr	-11.4775
▁bike	-11.4776
▁maj	-11.4779
▁philharmonic	-11.4779
▁ion	-11.478
people	-11.4783
92	-11.4784
▁frances	-11.4786
▁1933,	-11.4786
▁1929,	-11.4788
▁attractions	-11.4788
▁essentially	-11.4789
▁jorge	-11.4789
gle	-11.479
▁attempting	-11.4791
week	-11.4793
09	-11.4793
▁viii	-11.4794
▁upgraded	-11.4795
▁brigadier	-11.4797
▁magnetic	-11.4798
▁stolen	-11.4801
▁wagner	-11.4802
°	-11.4803
▁maternal	-11.4805
▁kurt	-11.4806
▁treasury	-11.4807
▁sixty	-11.4812
▁1912.	-11.4813
▁garcía	-11.4814
modern	-11.4815
chin	-11.4815
▁rower	-11.4816
▁pla	-11.4817
▁lankan	-11.4818
▁mare	-11.4818
▁trips	-11.4822
order	-11.4823
▁lau	-11.4824
▁transformed	-11.4824
▁5,000	-11.4825
▁habitats	-11.4826
▁1961)	-11.4827
79	-11.4827
▁hydrogen	-11.4829
▁exeter	-11.4834
media	-11.4836
lab	-11.4837
▁drove	-11.4839
▁minneapolis	-11.484
▁provider	-11.4841
▁lamp	-11.4843
▁bread	-11.4844
anga	-11.4846
etta	-11.4853
uro	-11.4853
▁3–1	-11.4854
▁oxygen	-11.4854
▁disappeared	-11.4859
▁teen	-11.4859
▁pursuit	-11.4862
74	-11.4863
▁chad	-11.4866
▁latvian	-11.4868
▁mechanics	-11.4868
▁preceded	-11.487
▁circus	-11.487
93	-11.4871
▁cooperative	-11.4872
▁trace	-11.4873
▁gujarat	-11.4874
▁believes	-11.4874
▁rs	-11.4877
▁dwarf	-11.4878
pol	-11.4881
▁mus	-11.4882
▁separation	-11.4883
▁reads	-11.4883
nce	-11.4884
▁ethics	-11.4888
62	-11.4895
▁tables	-11.4896
▁decorative	-11.4898
mond	-11.49
shin	-11.49
▁tehsil	-11.4902
▁aria	-11.4902
▁migration	-11.4903
▁ear	-11.4904
_3	-11.4906
signed	-11.4906
▁é	-11.4906
▁conquest	-11.4907
▁pic	-11.4908
▁bert	-11.4909
▁bacteria	-11.4909
fin	-11.4911
▁deutsche	-11.4911
én	-11.4914
ato	-11.4915
put	-11.4915
ech	-11.4915
▁synagogue	-11.4917
è	-11.4919
▁enterprises	-11.492
▁error	-11.492
▁allegedly	-11.4921
▁cherry	-11.4922
▁lucy	-11.4923
▁middlesex	-11.4924
▁scattered	-11.4924
▁(22	-11.4925
▁hayes	-11.4932
▁kosovo	-11.4939
▁ven	-11.4939
▁softball	-11.4939
rick	-11.4943
▁1960)	-11.4946
eo	-11.4947
▁doug	-11.4947
39	-11.4948
▁interaction	-11.4949
▁announcement	-11.495
▁atlético	-11.4952
▁taka	-11.4954
▁looked	-11.4956
▁http	-11.4957
03	-11.4958
rama	-11.4958
▁aunt	-11.496
▁relatives	-11.496
▁reserved	-11.4962
▁dissolution	-11.4964
▁bog	-11.4965
▁espn	-11.4965
▁essay	-11.4966
▁fusion	-11.4968
sham	-11.4969
▁accomplished	-11.497
ole	-11.4972
▁descendant	-11.4973
▁(24	-11.4974
bol	-11.4974
▁entity	-11.4974
▁jennifer	-11.4981
▁remake	-11.4982
▁obtaining	-11.4986
▁acc	-11.4986
▁comprised	-11.4989
▁león	-11.499
▁loose	-11.4997
▁cumberland	-11.4997
▁syracuse	-11.4998
▁prepare	-11.5006
hot	-11.5007
wald	-11.5011
▁twelfth	-11.5012
nick	-11.5016
▁longtime	-11.5017
lands	-11.5017
▁hol	-11.5019
itis	-11.5021
▁interactions	-11.5022
▁abbot	-11.5022
▁2011–12	-11.5023
▁eat	-11.5025
eck	-11.5028
▁rud	-11.503
▁gan	-11.5032
▁vietnamese	-11.5034
cur	-11.5037
▁audiences	-11.5039
▁1929.	-11.5039
▁danger	-11.5043
person	-11.5045
▁vir	-11.5048
▁lebanese	-11.5049
▁textile	-11.5049
▁alexandria	-11.505
avi	-11.5052
▁logan	-11.5054
▁gaming	-11.5056
▁painters	-11.5057
eur	-11.506
▁abbreviated	-11.506
▁asks	-11.5063
selling	-11.5066
▁duration	-11.5066
▁bet	-11.5067
nic	-11.5067
00	-11.5071
▁mod	-11.5072
▁karen	-11.5076
▁familiar	-11.508
▁varied	-11.508
70	-11.5081
▁sailor	-11.5084
▁forestry	-11.5084
▁legends	-11.5086
▁uss	-11.5086
sex	-11.5088
bahn	-11.5088
▁ucla	-11.5089
playing	-11.509
▁highlights	-11.5091
▁theodore	-11.5091
▁vic	-11.5093
▁antwerp	-11.5094
▁transmitter	-11.5095
▁push	-11.5096
▁handling	-11.5097
▁oriental	-11.5097
▁ballad	-11.5099
▁trustee	-11.51
▁1–1	-11.5104
▁weak	-11.5106
▁tyler	-11.5106
ative	-11.5106
▁ant	-11.5108
▁bombay	-11.511
▁highways	-11.511
beck	-11.5112
▁1855	-11.5115
▁twitter	-11.5122
▁shiva	-11.5123
ological	-11.5124
▁bulldogs	-11.5125
hir	-11.5126
▁neuro	-11.5126
▁casa	-11.5128
▁1934,	-11.5129
.00	-11.5131
▁jumping	-11.5135
▁dying	-11.5135
▁coordinates	-11.5137
sio	-11.5138
▁1959)	-11.514
around	-11.514
about	-11.514
▁rachel	-11.5141
▁consequently	-11.5142
ido	-11.5144
▁rubber	-11.5144
▁porto	-11.5145
▁treat	-11.5149
▁tissue	-11.5152
roman	-11.5152
▁retreat	-11.5155
▁pseudonym	-11.5157
▁blast	-11.5157
▁bre	-11.5162
▁wicket	-11.5163
▁defunct	-11.5164
▁commercially	-11.5165
say	-11.5165
▁narrowly	-11.5167
97	-11.5169
tom	-11.5169
anne	-11.517
▁für	-11.5172
▁encourage	-11.5172
▁ana	-11.5172
▁varsity	-11.5174
▁madras	-11.5175
▁spy	-11.5176
zz	-11.5177
▁sebastian	-11.5178
vor	-11.5179
▁communes	-11.5179
kon	-11.518
▁ming	-11.518
▁dawn	-11.5182
▁mandate	-11.5183
▁permit	-11.5183
▁2001)	-11.5184
▁dhaka	-11.5186
▁panthers	-11.5187
▁terminated	-11.5187
64	-11.5189
dong	-11.5191
▁1858	-11.5195
▁ace	-11.5196
▁fi	-11.5199
▁backed	-11.5202
99	-11.5202
▁philosophical	-11.5202
▁math	-11.5204
▁absorbed	-11.5205
▁mohammed	-11.5211
▁ou	-11.5212
▁disorder	-11.5213
▁posthumously	-11.5214
▁qualifier	-11.5215
▁monitoring	-11.5215
▁shooter	-11.5216
▁walsh	-11.5216
▁macdonald	-11.5218
eg	-11.5219
▁improving	-11.5219
▁£	-11.5224
▁absolute	-11.5224
▁chip	-11.5227
▁wednesday	-11.523
▁1835	-11.523
▁1958)	-11.5232
▁salem	-11.5233
-23	-11.5234
▁peoples	-11.5235
wu	-11.5236
▁lund	-11.5237
▁interviewed	-11.5237
▁amy	-11.524
▁mata	-11.5242
▁1854	-11.5245
hit	-11.5247
▁stefan	-11.5252
▁1856	-11.5253
▁kh	-11.5256
▁adrian	-11.5257
▁compounds	-11.5258
▁critically	-11.5258
▁wheels	-11.5258
show	-11.5258
▁sap	-11.5261
▁josh	-11.5266
▁3,000	-11.5267
▁casting	-11.5268
▁(26	-11.527
bass	-11.527
aj	-11.5272
▁expanding	-11.5272
▁lease	-11.5272
ž	-11.5274
▁sheikh	-11.5275
▁bills	-11.528
▁len	-11.528
▁captained	-11.528
▁bun	-11.528
▁deliver	-11.5284
▁enlarged	-11.5284
▁hook	-11.5284
ante	-11.5285
▁hr	-11.5285
sie	-11.5286
camp	-11.5287
▁unveiled	-11.5292
▁regard	-11.5292
▁gra	-11.5295
▁midland	-11.5295
▁morrison	-11.5298
zh	-11.53
29	-11.5301
▁arcade	-11.5304
▁muscle	-11.5305
rk	-11.5306
▁licence	-11.5307
▁flowing	-11.5308
▁taipei	-11.5309
sz	-11.5309
mia	-11.5312
▁raiders	-11.5313
▁cuisine	-11.5316
▁collaborative	-11.5318
▁dinner	-11.5318
▁labels	-11.5321
▁patch	-11.5323
▁goddess	-11.5323
woman	-11.5329
▁dash	-11.5329
bc	-11.533
▁biblical	-11.5337
▁diagnosed	-11.5337
▁1927,	-11.5342
▁geometry	-11.5347
32	-11.5348
▁beside	-11.5349
▁pil	-11.535
has	-11.5353
▁czechoslovakia	-11.5357
▁tau	-11.5359
▁triangle	-11.536
▁usl	-11.5361
▁hectares	-11.5361
▁tiny	-11.5365
▁(23	-11.5365
▁gerald	-11.537
▁explore	-11.537
agh	-11.5373
▁knock	-11.5375
▁moths	-11.5376
▁burning	-11.5376
▁hide	-11.5379
▁nh	-11.5379
▁inventor	-11.5379
▁thereby	-11.5381
▁5-	-11.5381
▁contribute	-11.5382
▁counts	-11.5384
▁yacht	-11.5385
▁rafael	-11.5385
▁modeling	-11.5386
▁flagship	-11.5387
▁que	-11.5387
eli	-11.5389
▁rams	-11.539
sometimes	-11.5392
▁soils	-11.5394
▁apartments	-11.5394
▁pottery	-11.5396
▁accurate	-11.54
▁aero	-11.5402
▁thomson	-11.5403
▁1933.	-11.5404
▁stored	-11.5406
▁plaque	-11.5406
▁johnston	-11.5409
▁evangelical	-11.5411
▁sure	-11.5411
▁reducing	-11.5411
▁obama	-11.5412
▁raced	-11.5413
ganj	-11.5414
▁1957)	-11.5415
▁jacksonville	-11.5416
▁dynamic	-11.5416
history	-11.5416
▁colored	-11.5417
08	-11.5423
▁marketed	-11.5426
▁array	-11.5427
▁tap	-11.5428
rud	-11.543
▁lei	-11.5432
▁1912,	-11.5433
▁revenge	-11.5436
–1	-11.544
seven	-11.5442
▁1927.	-11.5443
▁(28	-11.5443
▁extraordinary	-11.5444
▁negro	-11.5447
▁1910.	-11.5448
▁pull	-11.5449
▁memoir	-11.5449
boat	-11.545
▁ec	-11.5451
▁tributaries	-11.5455
rn	-11.5455
▁hardy	-11.5455
▁hampton	-11.5457
▁competitor	-11.5459
▁genes	-11.5462
▁tuesday	-11.5462
▁fluid	-11.5464
▁prices	-11.5464
▁tallest	-11.5466
▁tara	-11.5467
▁postgraduate	-11.547
▁wen	-11.5471
▁1956)	-11.5472
▁southampton	-11.5474
▁investments	-11.5475
▁threw	-11.5475
▁abstract	-11.5481
form	-11.5481
family	-11.5485
▁warning	-11.5486
▁sworn	-11.5488
–10	-11.549
▁greene	-11.5493
▁maintaining	-11.5493
any	-11.5493
▁slaves	-11.5495
▁1922,	-11.5496
▁wait	-11.5497
▁creates	-11.5498
▁luxury	-11.5499
▁com	-11.5501
▁1955)	-11.5503
▁stoke	-11.5504
ów	-11.5509
▁arrondissement	-11.5509
▁unesco	-11.5511
▁escort	-11.5511
▁troy	-11.5512
▁1934.	-11.5514
press	-11.5515
ging	-11.5515
▁severely	-11.5516
▁nominees	-11.5517
▁authorized	-11.5519
▁hermann	-11.552
▁sustained	-11.5523
..."	-11.5523
▁impressed	-11.5524
▁integral	-11.5525
▁elimination	-11.5525
▁settle	-11.5526
▁1932,	-11.553
04	-11.5538
▁operators	-11.554
inter	-11.5541
aq	-11.5542
ible	-11.5545
stock	-11.5547
▁reforms	-11.5548
table	-11.5548
▁fraud	-11.5548
▁thames	-11.5549
▁altered	-11.5549
▁jung	-11.5551
▁zones	-11.5551
▁1922.	-11.5555
▁bruno	-11.5556
▁difficulty	-11.556
▁valencia	-11.556
▁1921,	-11.5561
▁cecil	-11.5562
▁bones	-11.5566
uka	-11.5567
▁corridor	-11.5567
nell	-11.5568
▁suite	-11.5568
▁cannon	-11.557
▁survival	-11.5572
dos	-11.5573
responsibilities	-11.5573
71	-11.5575
▁verses	-11.5577
▁lim	-11.5579
▁translations	-11.558
▁rum	-11.558
iva	-11.5582
name	-11.5586
▁slot	-11.5587
▁prevention	-11.5587
▁ports	-11.5588
▁yellowish	-11.5588
▁ecclesiastical	-11.559
▁petition	-11.56
▁50%	-11.5602
▁horizontal	-11.5604
vfl	-11.5604
cum	-11.5606
▁1910,	-11.5607
▁angola	-11.5608
▁governments	-11.561
▁rings	-11.5612
▁emotional	-11.5615
▁fitness	-11.5615
▁acquire	-11.5616
▁aspect	-11.5616
▁targets	-11.5617
▁revolt	-11.5618
▁profit	-11.5618
▁revived	-11.562
▁1930,	-11.5621
▁hiv	-11.5621
82	-11.5625
▁chocolate	-11.5626
▁1925,	-11.5629
%	-11.5629
▁1931,	-11.563
▁occurring	-11.5631
▁gum	-11.5631
5,000	-11.5632
▁dia	-11.5635
▁1923.	-11.5636
▁triangular	-11.5637
▁frost	-11.5637
mmer	-11.5637
36	-11.5638
▁android	-11.5638
▁gathering	-11.5639
aux	-11.5641
37	-11.5644
▁feeding	-11.5646
▁1924,	-11.5647
▁dundee	-11.565
▁burke	-11.5651
▁rican	-11.5651
▁honey	-11.5653
▁seating	-11.5656
▁jesse	-11.5656
▁deeply	-11.5659
▁submerged	-11.5661
▁destroy	-11.5662
▁columnist	-11.5662
‘	-11.5662
▁thursday	-11.5664
group	-11.567
▁2015)	-11.5671
ü	-11.5671
lor	-11.5671
▁oz	-11.5672
lum	-11.5675
▁2014)	-11.5675
▁kos	-11.5675
hip	-11.5676
▁putting	-11.5677
ox	-11.568
▁chicken	-11.5681
had	-11.5682
▁astronomy	-11.5682
bet	-11.5687
▁sight	-11.5689
▁formats	-11.5689
▁griffin	-11.5689
ral	-11.5689
▁petals	-11.569
▁organist	-11.569
▁fault	-11.5691
▁wonder	-11.5692
rak	-11.5694
▁osaka	-11.5694
▁1931.	-11.5695
▁quarterly	-11.5696
▁symptoms	-11.5696
▁1920.	-11.5697
▁seriously	-11.5699
reviewed	-11.5699
▁scenic	-11.5703
▁joel	-11.5705
▁accompanying	-11.5705
owski	-11.5707
▁distant	-11.5707
▁gp	-11.5708
▁threats	-11.5709
▁imprisonment	-11.5711
▁chemist	-11.5712
▁discover	-11.5712
▁preceding	-11.5714
lle	-11.5715
▁mau	-11.5716
▁sac	-11.5716
▁zip	-11.5716
52	-11.5717
▁dot	-11.5717
▁signals	-11.5717
▁3–0	-11.5718
▁algerian	-11.5719
▁(30	-11.572
▁uc	-11.5721
▁disk	-11.5722
ds	-11.5722
▁annie	-11.5722
▁vital	-11.5724
dimensional	-11.5724
▁survivors	-11.5725
▁pie	-11.5726
▁providence	-11.5728
▁bangkok	-11.5728
▁consolidated	-11.5729
▁cer	-11.5729
▁twins	-11.573
▁favorable	-11.5732
▁enabled	-11.5734
▁warfare	-11.5736
▁leather	-11.5739
▁sue	-11.5739
▁"[	-11.5739
▁rajasthan	-11.5742
▁bulk	-11.5742
▁dresden	-11.5743
▁1924.	-11.5744
▁observer	-11.5744
▁vault	-11.5745
▁swift	-11.5745
▁breakthrough	-11.5746
▁lumber	-11.5747
oides	-11.575
▁countess	-11.5751
beat	-11.5752
▁ligue	-11.5753
,500	-11.5754
▁1915,	-11.5755
shu	-11.5757
▁1916,	-11.5757
bird	-11.5759
▁controls	-11.5762
▁petroleum	-11.5762
▁concepts	-11.5762
bell	-11.5765
bound	-11.5767
▁highlands	-11.5768
▁attacking	-11.5769
▁solicitor	-11.577
▁roberto	-11.5771
▁gym	-11.5771
▁fever	-11.5772
▁enable	-11.5772
▁waves	-11.5775
▁provision	-11.5776
▁modest	-11.5779
▁(27	-11.5779
▁sufficient	-11.578
▁1953)	-11.5782
▁baden	-11.5783
▁1921.	-11.5785
mine	-11.5789
▁alps	-11.5789
▁1923,	-11.5793
gold	-11.5793
nine	-11.5794
▁namibia	-11.5796
▁portal	-11.5797
▁circa	-11.5798
▁transformation	-11.5798
▁preseason	-11.5802
▁successive	-11.5802
▁disabled	-11.5803
▁norwich	-11.5804
▁1913.	-11.5808
▁1954)	-11.5809
lei	-11.5811
▁undertook	-11.5817
▁unions	-11.5818
68	-11.5819
▁consistent	-11.5819
tone	-11.5821
▁zen	-11.5822
▁meyer	-11.5822
▁basket	-11.5823
▁poker	-11.5824
▁vernon	-11.5825
▁nagar	-11.5825
insky	-11.5825
▁itunes	-11.5826
▁surrender	-11.5826
▁concentrated	-11.5826
▁input	-11.5828
▁mentions	-11.5829
ux	-11.5833
▁advancement	-11.5833
▁banker	-11.5834
▁drake	-11.5834
▁canberra	-11.5834
▁disciplines	-11.5836
nov	-11.5838
▁clo	-11.584
▁finger	-11.584
anda	-11.5843
-11	-11.5843
▁tunisia	-11.5844
▁finn	-11.5844
▁dom	-11.5845
▁1925.	-11.5846
▁2013)	-11.5847
▁harper	-11.5847
▁contracts	-11.5848
▁ufc	-11.5848
▁specializes	-11.5849
▁strict	-11.5849
1.	-11.5851
▁1915.	-11.5851
fort	-11.5851
4,	-11.5857
▁politicians	-11.5857
▁nonprofit	-11.5858
large	-11.5858
▁halt	-11.5859
nas	-11.5859
▁jaya	-11.5859
26	-11.5862
lat	-11.5862
▁faction	-11.5863
▁solely	-11.5867
▁protagonist	-11.5869
▁shipyard	-11.5872
ui	-11.5872
▁surfaces	-11.5873
▁école	-11.5875
tie	-11.5875
ug	-11.5876
▁mba	-11.5876
▁immigrant	-11.5878
▁ste	-11.5882
▁1932.	-11.5882
▁comments	-11.5885
▁quoted	-11.5886
”,	-11.5888
▁kashmir	-11.5889
▁salmon	-11.589
▁1852	-11.5891
▁fried	-11.5892
▁panchayat	-11.5893
spor	-11.5894
news	-11.5894
▁binding	-11.5895
russian	-11.5896
▁kenny	-11.5897
sim	-11.5899
▁rapids	-11.5899
▁investigate	-11.5902
running	-11.5904
▁anthem	-11.5904
▁2017)	-11.5905
mol	-11.5905
▁advocacy	-11.5907
▁accommodation	-11.5908
▁2016)	-11.5909
ān	-11.591
▁1952)	-11.5911
▁lawsuit	-11.5913
▁160	-11.5913
▁180	-11.5914
▁retain	-11.5915
▁conceived	-11.5916
since	-11.5917
▁consumption	-11.5917
▁chartered	-11.5917
▁premise	-11.5919
▁5000	-11.5923
▁suspected	-11.5924
▁loved	-11.5924
▁contracted	-11.5927
act	-11.5929
▁baldwin	-11.5929
▁curve	-11.593
▁enrollment	-11.593
▁derbyshire	-11.5931
▁gloucester	-11.5931
▁nat	-11.5932
▁gol	-11.5933
author	-11.5934
▁raion	-11.5938
▁rou	-11.5939
▁lind	-11.5942
▁firms	-11.5945
53	-11.5946
▁strings	-11.5946
44	-11.595
director	-11.595
▁rehabilitation	-11.5951
▁evaluation	-11.5953
_4	-11.5953
▁monks	-11.5955
▁giuseppe	-11.5957
▁castro	-11.596
▁commitment	-11.5962
▁catalan	-11.5962
lc	-11.5963
▁presenting	-11.5966
▁darker	-11.597
▁wheelchair	-11.5972
▁calcutta	-11.5973
▁teenager	-11.5973
▁reef	-11.5973
▁font	-11.5976
▁jeremy	-11.5979
▁pushed	-11.5979
▁barracks	-11.598
▁designers	-11.598
hari	-11.5981
▁extant	-11.5981
▁talking	-11.5982
▁telescope	-11.5983
▁governors	-11.5983
uga	-11.5984
▁nas	-11.5986
▁stuttgart	-11.5987
▁followers	-11.5987
▁mentor	-11.5988
▁stick	-11.5988
▁2018)	-11.5989
–13	-11.599
▁glory	-11.5991
▁ghanaian	-11.5992
road	-11.5993
ification	-11.5994
▁gel	-11.5994
▁roma	-11.5995
▁boris	-11.5996
▁icc	-11.5997
ée	-11.5998
▁ibrahim	-11.5999
france	-11.6
▁outlets	-11.6
▁warehouse	-11.6001
94	-11.6003
▁secular	-11.6005
lake	-11.6006
lf	-11.6008
▁cruise	-11.6009
▁algorithm	-11.6011
▁quiet	-11.6011
▁hou	-11.6013
▁hurdles	-11.6014
▁erik	-11.6017
▁faster	-11.602
kara	-11.6022
fly	-11.6023
▁skier	-11.6026
tang	-11.6026
▁keen	-11.6029
▁capped	-11.6029
quin	-11.6031
▁mild	-11.6031
▁semifinal	-11.6033
▁baba	-11.6033
eb	-11.6037
▁1916.	-11.6039
▁mack	-11.6039
▁europa	-11.6042
▁proceeded	-11.6042
▁1851	-11.6043
▁ivory	-11.6043
▁tribune	-11.6045
▁lagos	-11.6046
nal	-11.6052
ute	-11.6052
▁proximity	-11.6054
▁wimbledon	-11.6054
▁layers	-11.6054
▁motorway	-11.6057
▁1926.	-11.6057
▁mei	-11.6059
tail	-11.6059
▁morton	-11.6062
▁reactions	-11.6064
ł	-11.6065
▁draws	-11.6068
try	-11.6068
▁planted	-11.6069
▁100,000	-11.607
ges	-11.607
itz	-11.6072
▁academics	-11.6072
▁witness	-11.6073
▁tanks	-11.6076
▁visa	-11.6076
▁foods	-11.6077
▁dies	-11.608
▁ventures	-11.6081
ander	-11.6081
▁alberto	-11.6082
▁investigations	-11.6085
▁stamp	-11.6086
▁toledo	-11.609
▁unified	-11.609
▁restore	-11.609
mini	-11.609
▁forbes	-11.6092
▁2019)	-11.6094
pac	-11.6094
▁assam	-11.6096
▁galway	-11.6097
▁phi	-11.6097
▁hearts	-11.6097
dom	-11.6098
▁pga	-11.6099
▁hind	-11.61
vey	-11.61
▁2012)	-11.61
▁lacrosse	-11.6101
▁josef	-11.6101
▁impossible	-11.6102
▁repertoire	-11.6104
▁helena	-11.6109
ström	-11.6111
▁regent	-11.6113
▁anthropology	-11.6114
▁cheshire	-11.6114
▁lt	-11.6115
mura	-11.6115
code	-11.6115
▁nsw	-11.6118
▁105	-11.6119
▁bald	-11.6119
72	-11.612
▁cowboys	-11.6121
▁sick	-11.6123
gam	-11.6123
▁interred	-11.6124
▁itv	-11.6125
▁1926,	-11.6128
▁archipelago	-11.6129
▁trend	-11.613
▁astronomical	-11.613
▁slalom	-11.6131
▁2020–21	-11.6132
▁brownish	-11.6133
hart	-11.6135
▁sig	-11.6136
▁pounds	-11.6136
dh	-11.6136
▁macro	-11.6137
▁auditorium	-11.6137
▁canoe	-11.6139
▁marking	-11.6141
ick	-11.6141
▁holes	-11.6143
▁jamie	-11.6143
▁cbc	-11.6144
▁enemies	-11.6146
▁naga	-11.6148
▁eco	-11.6148
▁mast	-11.6151
▁copyright	-11.6153
▁ix	-11.6156
▁joshua	-11.6158
▁netflix	-11.6159
▁agnes	-11.616
▁gandhi	-11.6164
dai	-11.6165
▁1947)	-11.6167
▁citations	-11.617
rad	-11.6171
▁quest	-11.6172
▁recognize	-11.6173
▁fragments	-11.6175
▁lawn	-11.6177
▁mae	-11.6178
▁eponymous	-11.6178
▁betty	-11.6178
mir	-11.6179
▁fewer	-11.6179
▁slovenian	-11.6179
▁emirates	-11.618
▁equation	-11.6183
▁venezuelan	-11.6183
▁discovers	-11.6184
fra	-11.6184
▁1928.	-11.6185
▁jakarta	-11.6187
▁georgetown	-11.6187
▁2011)	-11.619
ew	-11.619
▁munster	-11.6193
▁consortium	-11.6194
berry	-11.6199
▁1911.	-11.6199
▁moor	-11.6199
qi	-11.62
▁keyboard	-11.6202
41	-11.6204
▁hairs	-11.6206
cz	-11.6209
▁hollow	-11.6209
▁metacritic	-11.6212
cer	-11.6214
▁dos	-11.6215
▁1951)	-11.6215
▁moments	-11.6217
▁midlands	-11.6218
▁klein	-11.622
▁kang	-11.6222
▁burma	-11.6222
▁hawks	-11.6225
▁radiation	-11.6225
▁mascot	-11.6227
▁populations	-11.6227
▁nm	-11.6229
45	-11.623
▁theories	-11.623
▁2010–11	-11.6236
▁mona	-11.6239
▁builder	-11.624
▁saga	-11.624
piece	-11.6244
▁alto	-11.6244
▁provisions	-11.6245
▁smallest	-11.6245
▁wireless	-11.6248
▁julie	-11.6248
conference	-11.6251
▁pablo	-11.6252
▁destinations	-11.6252
▁artifacts	-11.6252
base	-11.6254
international	-11.6254
▁dust	-11.6254
▁hiking	-11.6255
screen	-11.6256
▁terrace	-11.626
▁albion	-11.6262
▁shots	-11.6262
lang	-11.6267
▁epi	-11.6268
▁bays	-11.6271
▁affect	-11.6272
▁enjoy	-11.6274
▁celebrities	-11.6281
▁trap	-11.6282
▁sacramento	-11.6286
▁tru	-11.6287
dd	-11.6287
▁chuck	-11.6288
▁dev	-11.6288
▁codes	-11.629
▁pike	-11.6293
combe	-11.6293
uz	-11.6293
▁remarkable	-11.6295
▁keys	-11.6296
▁costume	-11.6296
▁bulls	-11.6296
35	-11.6298
▁hale	-11.6301
▁stud	-11.6302
▁1853	-11.6302
▁traces	-11.6304
▁patriarch	-11.6306
sberg	-11.6306
▁vector	-11.6307
▁divine	-11.6307
heart	-11.6312
–15	-11.6312
▁baku	-11.6312
▁3.5	-11.6313
aire	-11.6315
rot	-11.6316
eda	-11.6318
▁realized	-11.6322
▁bangalore	-11.6325
▁1950)	-11.6325
▁teenage	-11.6329
oi	-11.6329
ides	-11.6329
▁1831	-11.6329
▁empress	-11.6333
▁tasks	-11.6334
united	-11.6334
▁1930.	-11.6336
▁bologna	-11.6337
▁bul	-11.6337
▁1865.	-11.6339
▁surveys	-11.6339
▁playstation	-11.6339
spanish	-11.6341
▁sci	-11.6343
holm	-11.6344
▁amounts	-11.6346
▁freelance	-11.6352
cht	-11.6352
▁kerry	-11.6357
▁monitor	-11.6362
wy	-11.6364
▁constituent	-11.6365
▁gibraltar	-11.6366
▁1913,	-11.6367
oriented	-11.6371
▁utility	-11.6374
▁thermal	-11.6376
▁barrel	-11.638
▁belarusian	-11.6383
▁polar	-11.6384
source	-11.6388
action	-11.6389
gang	-11.639
▁1900,	-11.6391
yar	-11.6393
▁initiatives	-11.6393
acre	-11.6393
▁informed	-11.6394
▁guided	-11.6395
ule	-11.6395
▁fen	-11.6396
▁inspection	-11.6397
▁subdivided	-11.64
▁1911,	-11.64
kat	-11.6402
▁leased	-11.6404
▁patricia	-11.6406
▁chapman	-11.6407
ao	-11.6407
tc	-11.6409
▁lil	-11.641
▁assassination	-11.6414
lund	-11.6415
▁riverside	-11.6419
▁intense	-11.6422
▁ceremonies	-11.6424
▁philanthropist	-11.6428
▁denis	-11.6428
▁1949)	-11.6428
▁laser	-11.643
▁paraguay	-11.6436
té	-11.6437
mun	-11.6437
▁tribunal	-11.644
bh	-11.644
iba	-11.644
▁coleman	-11.6441
▁confusion	-11.6442
▁malcolm	-11.6443
▁addressed	-11.6446
▁miners	-11.6446
▁gre	-11.6448
▁dimensions	-11.6448
▁norton	-11.645
date	-11.6451
plan	-11.6454
▁airplay	-11.6457
▁discuss	-11.646
university	-11.6464
▁eclipse	-11.6466
▁telling	-11.6466
▁pension	-11.6466
▁torn	-11.6468
▁investigated	-11.6469
lecommunications	-11.6469
-14	-11.6471
▁commentator	-11.6472
▁hiatus	-11.6474
ire	-11.6476
▁organizing	-11.6477
▁napoleon	-11.6478
▁counted	-11.6481
▁climb	-11.6482
uddin	-11.6483
▁physicians	-11.6483
▁1820	-11.6484
▁supervised	-11.6484
▁equality	-11.6484
▁basque	-11.6485
▁mcc	-11.6488
▁ribbon	-11.6489
mouth	-11.649
▁wise	-11.6494
▁firing	-11.6494
▁efficiency	-11.6494
▁neutral	-11.6498
▁dependent	-11.6498
▁fixtures	-11.6499
▁marcel	-11.6499
▁accreditation	-11.65
▁breaks	-11.6501
▁kv	-11.6505
▁aids	-11.6511
▁1948)	-11.6513
▁disability	-11.6515
▁commercials	-11.6517
▁pig	-11.6521
than	-11.6522
▁mandal	-11.6525
▁politically	-11.6525
▁nobel	-11.6526
▁islander	-11.6528
▁gardner	-11.6528
▁lgbt	-11.653
▁cp	-11.6532
▁transported	-11.6536
▁reveals	-11.6536
▁qing	-11.6538
▁ei	-11.6538
43	-11.6547
▁achieving	-11.6548
▁consensus	-11.6548
▁sil	-11.6548
▁occupies	-11.6549
▁conservatives	-11.6551
▁collapsed	-11.6553
▁seized	-11.6553
▁linux	-11.6554
arts	-11.6555
▁freeman	-11.6555
▁responded	-11.6557
oz	-11.6559
▁pomeranian	-11.6559
▁tenor	-11.6561
▁restrictions	-11.6562
hole	-11.6564
▁trademark	-11.6566
▁lightning	-11.6567
▁machinery	-11.6568
▁allegations	-11.6569
▁membrane	-11.657
▁reflected	-11.657
▁prussian	-11.6571
powered	-11.6572
▁unfortunately	-11.6574
▁slender	-11.6574
storey	-11.6575
rose	-11.6575
▁funk	-11.6576
▁cro	-11.6577
shaw	-11.6578
▁correspondence	-11.6578
66	-11.6581
▁1908.	-11.6581
▁garnered	-11.6583
▁skater	-11.6584
▁americas	-11.6584
nk	-11.6585
▁intervention	-11.6587
color	-11.6588
▁scholarly	-11.6592
▁watching	-11.6593
▁explains	-11.6594
▁indo	-11.6594
▁taxes	-11.6595
▁terra	-11.6598
▁frog	-11.66
eni	-11.66
kur	-11.6601
▁hairy	-11.6602
▁enclosed	-11.6603
▁newman	-11.6604
–12	-11.6605
▁(29	-11.6606
▁wit	-11.6606
▁ev	-11.6606
inus	-11.6608
▁activists	-11.6608
▁lone	-11.6609
▁prevented	-11.661
▁exposition	-11.6611
miss	-11.6611
▁hari	-11.6616
▁lambert	-11.6617
▁sz	-11.6617
▁violinist	-11.6617
ade	-11.6618
pf	-11.6619
▁powder	-11.6622
▁targeted	-11.6623
▁mysterious	-11.6624
▁judgment	-11.6625
▁harmony	-11.6625
▁tongue	-11.6626
▁ud	-11.6629
–3	-11.663
▁augustus	-11.6632
▁inland	-11.6632
▁eg	-11.6635
▁beaver	-11.6638
▁elisabeth	-11.6638
och	-11.6642
rou	-11.6643
84	-11.6645
ple	-11.6646
▁2.0	-11.6648
▁gul	-11.6648
▁gloucestershire	-11.6649
▁quarry	-11.6649
rl	-11.665
▁kot	-11.6652
▁advancing	-11.6653
▁winston	-11.6654
▁explosion	-11.6654
yon	-11.6655
▁undrafted	-11.6655
▁nato	-11.6656
▁350	-11.6657
▁accordance	-11.6658
81	-11.6659
asi	-11.6659
thy	-11.666
▁invested	-11.6661
▁prospect	-11.6661
▁ingredients	-11.6662
grand	-11.6663
▁skull	-11.6664
▁1946)	-11.6664
▁dynamics	-11.6664
▁gonzález	-11.6664
▁lynch	-11.6665
▁solve	-11.6665
▁atlas	-11.6666
▁developments	-11.6666
▁kir	-11.6667
tree	-11.6668
▁dorset	-11.6673
mil	-11.6673
▁apollo	-11.6675
tian	-11.6675
▁technological	-11.6675
▁hang	-11.6676
▁dixon	-11.6676
▁monster	-11.6677
▁unanimous	-11.6677
▁andreas	-11.6677
▁folklore	-11.6678
▁argument	-11.6679
▁beau	-11.6681
▁contestant	-11.6682
▁mohamed	-11.6682
▁photographic	-11.6682
▁sw	-11.6682
▁blair	-11.6683
▁roth	-11.6683
▁interrupted	-11.6684
pha	-11.6685
▁pastoral	-11.6686
▁1900.	-11.6686
▁campeonato	-11.6689
ologist	-11.6691
tta	-11.6691
kun	-11.6692
▁spotted	-11.6694
▁cad	-11.6696
▁gru	-11.6696
cm	-11.6697
uch	-11.6697
28	-11.6697
▁atomic	-11.6697
▁transfers	-11.6699
▁convinced	-11.6699
▁feast	-11.6701
▁regency	-11.6703
▁rudolf	-11.6707
▁1849	-11.6708
▁stamps	-11.6708
nfl	-11.6708
works	-11.6711
▁ira	-11.6713
▁2009)	-11.6714
▁listening	-11.6715
bai	-11.6716
▁wanderers	-11.6717
▁din	-11.6718
▁canvas	-11.672
▁felix	-11.672
▁unopposed	-11.6722
▁benedict	-11.6722
▁rue	-11.6724
▁colleague	-11.6725
▁anterior	-11.6726
▁smoke	-11.6726
▁willie	-11.6728
▁terrestrial	-11.6729
shot	-11.6731
▁rotterdam	-11.6731
▁holt	-11.6733
▁winds	-11.6733
▁mol	-11.6734
61	-11.6735
▁highlighted	-11.6739
▁ib	-11.6739
▁sings	-11.6741
▁1907.	-11.6743
rel	-11.6745
pas	-11.6746
▁symbols	-11.6746
▁laboratories	-11.6748
87	-11.6748
▁rushing	-11.6748
▁roland	-11.6749
▁foundations	-11.6751
▁promise	-11.6752
▁trout	-11.6752
ious	-11.6753
▁autobiography	-11.6753
▁hartford	-11.6753
stars	-11.6754
wei	-11.6756
ère	-11.6756
lett	-11.6757
▁sd	-11.6757
num	-11.6758
▁pont	-11.6759
▁mongolia	-11.6763
vol	-11.6764
▁dental	-11.6764
▁geometridae	-11.6767
▁sending	-11.6772
▁rainbow	-11.6772
▁motto	-11.6773
▁cone	-11.6774
service	-11.6779
▁undertaken	-11.678
▁1945)	-11.6781
▁lesbian	-11.6783
authored	-11.6784
▁vel	-11.6784
▁consent	-11.6786
▁ut	-11.6787
hra	-11.6789
▁clothes	-11.679
▁donations	-11.6792
▁rot	-11.6792
cast	-11.6795
▁interact	-11.6796
▁secretariat	-11.6796
▁davidson	-11.6797
▁trilogy	-11.6798
metre	-11.6799
▁pyramid	-11.68
▁compensation	-11.6803
eus	-11.6804
eight	-11.6809
nn	-11.6811
▁peri	-11.6812
▁sanskrit	-11.6812
69	-11.6816
▁activism	-11.6816
▁peruvian	-11.6817
▁encounter	-11.6819
▁gustav	-11.682
▁pregnant	-11.6821
▁fitzgerald	-11.6824
▁1909.	-11.6824
▁rent	-11.6825
▁documentaries	-11.6829
▁recover	-11.6837
▁coin	-11.6838
▁kali	-11.6839
▁countryside	-11.6841
▁papa	-11.6842
▁priests	-11.6843
ere	-11.6843
isa	-11.6846
▁walt	-11.6846
▁infant	-11.6848
lim	-11.6849
▁dol	-11.6858
▁bce	-11.686
ico	-11.6861
▁spectators	-11.6863
human	-11.6865
▁incidents	-11.6865
▁garcia	-11.6867
▁cafe	-11.6868
▁stephan	-11.687
▁commemorate	-11.687
▁sectors	-11.6871
pacific	-11.6872
district	-11.6873
▁https	-11.6873
mur	-11.6877
▁unionist	-11.6878
▁bolton	-11.6879
▁percussion	-11.6879
/10	-11.6879
▁clement	-11.6883
▁claire	-11.6884
▁mvp	-11.6884
▁prose	-11.6885
▁blu	-11.6888
▁recipients	-11.6888
▁novo	-11.6895
▁alexandra	-11.6896
▁situations	-11.6897
cent	-11.6898
apa	-11.6898
▁assembled	-11.6898
▁oversaw	-11.6898
▁leigh	-11.6899
df	-11.69
wind	-11.69
▁tender	-11.6901
▁reproduction	-11.6903
▁cleared	-11.6904
▁"...	-11.6904
▁bates	-11.6904
iah	-11.6905
73	-11.6905
els	-11.6908
▁unclear	-11.6908
▁dancers	-11.691
▁medley	-11.691
▁verde	-11.6912
▁slate	-11.6912
▁innocent	-11.6913
tsu	-11.6917
▁prey	-11.692
bill	-11.6921
▁pak	-11.6923
front	-11.6924
▁wong	-11.6925
▁ps	-11.6925
sko	-11.6927
▁diana	-11.6929
▁cultures	-11.6929
▁asking	-11.6931
will	-11.6931
▁crop	-11.6934
bir	-11.6937
▁hassan	-11.6938
▁sunk	-11.6938
▁château	-11.694
▁sud	-11.6941
ucci	-11.6942
▁gda	-11.6942
▁intent	-11.6943
▁posterior	-11.6946
▁directorate	-11.6946
▁treasure	-11.695
▁reverend	-11.6951
▁winchester	-11.6952
rina	-11.6952
▁finest	-11.6956
bou	-11.6958
▁granddaughter	-11.6959
▁repeatedly	-11.6959
▁postponed	-11.6959
▁1944)	-11.696
▁pomerania	-11.6963
▁nicolas	-11.6963
cola	-11.6965
▁engage	-11.697
▁homeland	-11.697
▁pioneering	-11.6971
▁convoy	-11.6976
mina	-11.6976
▁mhz	-11.698
▁hawk	-11.6981
▁3–2	-11.6982
▁bucharest	-11.6983
▁jeffrey	-11.6986
▁humanitarian	-11.6987
▁jenkins	-11.6987
face	-11.6991
▁blackish	-11.6992
▁consort	-11.6993
▁mob	-11.6995
▁generate	-11.6995
▁varying	-11.6996
▁subway	-11.6998
▁preparing	-11.6999
▁tutor	-11.7001
jack	-11.7003
▁uncertain	-11.7004
▁20,000	-11.7004
▁requirement	-11.7005
98	-11.7007
34	-11.7008
▁sutton	-11.7011
–2	-11.7012
▁upset	-11.7016
▁mla	-11.7017
▁1905.	-11.7017
▁gy	-11.7019
▁2002)	-11.7021
▁sketch	-11.7022
▁māori	-11.7023
▁maxwell	-11.7024
▁elephant	-11.7024
▁markings	-11.7027
▁macedonian	-11.7034
▁pretty	-11.7035
yne	-11.7035
▁speaks	-11.7036
▁migrated	-11.7038
▁spans	-11.7039
▁eden	-11.7042
▁adolf	-11.7042
▁ō	-11.7044
yr	-11.7047
hm	-11.7047
they	-11.7047
▁flooding	-11.7048
▁requiring	-11.7053
▁paradise	-11.7053
▁nur	-11.7053
▁syn	-11.7057
▁darwin	-11.7057
▁cultivated	-11.7058
▁swim	-11.7058
▁tomatoes	-11.7062
rom	-11.7062
▁mlb	-11.7064
▁lorenzo	-11.7066
▁chancel	-11.7067
▁lava	-11.7069
▁blade	-11.7072
marie	-11.7073
▁dining	-11.7074
▁striking	-11.7076
▁aquatic	-11.7077
▁sidney	-11.7078
▁settling	-11.7078
▁velocity	-11.7079
ax	-11.708
ann	-11.7082
▁gam	-11.7083
▁designing	-11.7086
radio	-11.7087
–0	-11.7088
▁mapping	-11.709
▁finalists	-11.709
▁ancestry	-11.7091
▁kyiv	-11.7091
▁considering	-11.7094
iidae	-11.7094
▁samoa	-11.7094
▁rotten	-11.7095
▁2010)	-11.7099
▁rendered	-11.7099
▁conflicts	-11.7101
▁webster	-11.7103
▁kro	-11.7103
▁auburn	-11.7104
hel	-11.7104
▁specialty	-11.7105
▁proceedings	-11.7106
bot	-11.7106
▁institutional	-11.7107
▁balls	-11.7112
▁excess	-11.7113
vir	-11.7113
▁boyd	-11.7114
▁broncos	-11.7117
▁cas	-11.7119
▁taiwanese	-11.712
▁vera	-11.712
▁inscriptions	-11.7121
sche	-11.7125
▁vis	-11.7126
▁cambodia	-11.7127
▁concerto	-11.7129
▁submarines	-11.7134
▁whitney	-11.7135
-0	-11.7139
▁listings	-11.714
▁christians	-11.7141
▁casualties	-11.7141
▁1908,	-11.7142
▁feminine	-11.7143
▁crashed	-11.7143
▁jer	-11.7143
ske	-11.7144
▁scouts	-11.7144
▁qi	-11.7149
▁combining	-11.7149
▁environments	-11.7151
site	-11.7158
mic	-11.7158
▁1864.	-11.7159
▁sau	-11.7159
won	-11.716
▁spacecraft	-11.7161
▁1906.	-11.7161
▁shar	-11.7162
▁lal	-11.7166
▁kel	-11.717
cker	-11.717
▁barber	-11.717
▁tips	-11.7171
▁hitting	-11.7172
▁noting	-11.7173
▁ska	-11.7174
▁ll	-11.7174
▁dealer	-11.7175
▁dig	-11.7177
▁ave	-11.7177
▁tab	-11.7177
▁tetra	-11.7177
▁landmarks	-11.7177
lou	-11.7179
▁circles	-11.7179
▁masculine	-11.7181
cock	-11.7181
250	-11.7181
▁patriotic	-11.7182
▁apprentice	-11.7184
▁timothy	-11.7185
▁moses	-11.7186
▁increases	-11.7187
▁mask	-11.7188
▁duet	-11.7188
▁sicily	-11.7189
▁excavations	-11.719
▁pioneers	-11.7193
▁caves	-11.7193
▁backup	-11.7194
▁quarters	-11.7194
garh	-11.7198
▁ceylon	-11.7198
▁basilica	-11.72
▁complement	-11.7203
▁102	-11.7203
sq	-11.7205
▁mint	-11.7206
▁monica	-11.7207
▁convert	-11.721
▁encountered	-11.7212
lac	-11.7212
dur	-11.7215
▁wore	-11.7216
gue	-11.7219
mara	-11.7219
▁regulatory	-11.7219
▁latitude	-11.7221
▁gale	-11.7222
47	-11.7222
production	-11.7223
▁voluntary	-11.7224
▁rig	-11.7224
▁echo	-11.7225
▁mater	-11.7225
▁zambia	-11.7226
▁soprano	-11.7228
▁breakfast	-11.723
hon	-11.7231
▁churchill	-11.7231
osis	-11.7232
▁bent	-11.7232
▁explored	-11.7235
iri	-11.7235
▁decommissioned	-11.7236
▁sprinter	-11.7237
▁vijay	-11.7238
vet	-11.7239
▁selo	-11.7239
▁103	-11.724
▁deacon	-11.7241
▁sank	-11.7242
▁$3	-11.7245
▁coventry	-11.7247
▁ferguson	-11.7247
▁talented	-11.7247
▁mixtape	-11.7248
▁infection	-11.725
▁asylum	-11.7251
▁participant	-11.7253
▁gods	-11.7255
▁pp	-11.7256
▁hague	-11.7258
lich	-11.726
▁reconnaissance	-11.726
web	-11.7261
▁cannes	-11.7262
▁emi	-11.7263
▁colombo	-11.7264
▁ea	-11.727
▁arrives	-11.7272
▁icon	-11.7272
▁whorls	-11.7273
trans	-11.7274
▁tide	-11.7275
▁knocked	-11.7277
▁demolition	-11.7277
▁lizard	-11.728
▁demands	-11.728
▁café	-11.7284
pot	-11.7285
listed	-11.7286
▁brandon	-11.7287
▁slight	-11.7288
▁codex	-11.7289
▁feels	-11.729
▁nt	-11.7291
▁photograph	-11.7291
▁violet	-11.7292
▁archdeacon	-11.7292
▁struggled	-11.7293
▁arrive	-11.7293
01	-11.7294
stage	-11.7294
▁fal	-11.7294
▁substance	-11.7295
drama	-11.7295
▁whip	-11.7295
▁reissued	-11.7295
▁meadow	-11.7296
▁germans	-11.7296
▁accessed	-11.7306
today	-11.7307
2),	-11.7308
▁sham	-11.7308
awa	-11.7308
wild	-11.7309
▁conrad	-11.7309
▁vo	-11.731
ree	-11.731
nz	-11.7313
mag	-11.7313
▁posting	-11.7313
▁wta	-11.7314
▁berkshire	-11.7314
vers	-11.7315
▁née	-11.7317
▁continuously	-11.7318
▁philippe	-11.7318
▁mes	-11.7319
stown	-11.732
▁pistol	-11.7322
core	-11.7324
▁easter	-11.7325
▁rom	-11.7329
▁1845	-11.733
▁cyber	-11.733
▁stability	-11.7331
▁mg	-11.7334
▁jaw	-11.7334
▁10-	-11.7335
▁messages	-11.734
wheel	-11.734
▁midnight	-11.7341
▁efficient	-11.7345
▁naked	-11.7346
▁naturally	-11.7347
▁berth	-11.7358
▁humor	-11.7358
▁joyce	-11.736
3.	-11.7361
ique	-11.7362
▁hawaiian	-11.7362
ingham	-11.7362
amba	-11.7363
dance	-11.7365
▁juvenile	-11.7365
▁dollar	-11.7365
▁rink	-11.7366
come	-11.7367
▁hum	-11.7368
▁meadows	-11.7368
▁livestock	-11.7369
▁finale	-11.737
▁imprint	-11.7372
▁magistrate	-11.7373
▁feelings	-11.7373
▁cement	-11.7374
▁ecological	-11.7375
british	-11.7375
▁residency	-11.7376
▁organize	-11.7376
▁leisure	-11.7381
▁xavier	-11.7381
▁complications	-11.7382
▁fest	-11.7382
▁2007)	-11.7383
▁combines	-11.7384
▁managers	-11.7386
roy	-11.7386
▁fletcher	-11.7386
▁corp	-11.7387
▁guitars	-11.7389
▁facilitate	-11.739
▁eli	-11.739
▁currency	-11.739
▁visitor	-11.7393
▁levi	-11.7394
▁bats	-11.7397
▁def	-11.7398
▁fisheries	-11.7399
▁gymnast	-11.7399
endra	-11.74
brand	-11.74
▁karachi	-11.7401
▁um	-11.7402
▁prints	-11.7405
▁generic	-11.7406
▁hank	-11.7407
▁heidelberg	-11.7408
ová	-11.7408
max	-11.7409
▁carlton	-11.7409
▁abdullah	-11.7411
▁decorations	-11.7413
▁pools	-11.7413
▁lawyers	-11.7414
orum	-11.7414
▁1846	-11.7418
▁snout	-11.7418
▁shepherd	-11.7418
▁bomber	-11.7421
▁embarked	-11.7421
▁supplement	-11.7422
dl	-11.7423
▁absent	-11.7423
▁yoshi	-11.7424
cell	-11.7424
▁clyde	-11.7424
▁108	-11.7425
inger	-11.7426
oo	-11.7427
▁ak	-11.7433
▁judo	-11.7436
ij	-11.7438
▁forever	-11.7438
▁divide	-11.7438
▁barrow	-11.7439
▁diagnosis	-11.744
kins	-11.7443
▁capabilities	-11.7445
å	-11.7446
▁kul	-11.7446
▁alphabet	-11.7449
▁mak	-11.745
▁paramount	-11.7454
▁1905,	-11.7454
▁loyal	-11.7455
▁proto	-11.7456
▁trucks	-11.7456
▁cadet	-11.7457
▁1904.	-11.7458
▁trailer	-11.7458
▁attract	-11.7459
▁zurich	-11.7461
▁hut	-11.7461
▁podium	-11.7461
▁expertise	-11.7463
▁poorly	-11.7463
▁bonn	-11.7464
▁ravi	-11.7464
▁owing	-11.7464
iro	-11.7465
▁incomplete	-11.7465
▁pocket	-11.7466
ça	-11.7468
▁1841	-11.7472
▁acute	-11.7472
▁papal	-11.7475
▁yemen	-11.7476
▁everyday	-11.7476
▁pitt	-11.7477
▁lucky	-11.7478
lak	-11.7479
▁pune	-11.7483
▁1829	-11.7483
▁comparative	-11.7483
▁incorporates	-11.7485
borough	-11.7486
▁bwf	-11.7486
▁phenomenon	-11.7487
▁sage	-11.7488
▁dwelling	-11.749
ably	-11.7491
▁1808	-11.7492
▁wigan	-11.7495
tine	-11.7496
▁abilities	-11.7498
▁bride	-11.75
kawa	-11.7501
▁adoption	-11.7503
county	-11.7503
uda	-11.7504
▁shaft	-11.7506
robin	-11.7509
▁promising	-11.751
▁explain	-11.7513
▁kuwait	-11.7515
▁hyde	-11.7516
▁irrigation	-11.7518
▁1943)	-11.7519
▁pleasure	-11.752
▁hastings	-11.7521
▁ceiling	-11.7522
▁erebidae	-11.7525
▁chest	-11.7525
▁personally	-11.7526
recorded	-11.7527
▁nash	-11.7528
▁christchurch	-11.753
▁marvel	-11.7531
né	-11.7531
▁statues	-11.7533
▁bara	-11.7535
rp	-11.7536
▁1902.	-11.7537
▁attained	-11.7538
bas	-11.7538
▁emmanuel	-11.7539
▁crane	-11.7539
▁showcase	-11.7542
▁shortened	-11.7544
▁lópez	-11.7544
ien	-11.7548
pala	-11.7549
▁uzbekistan	-11.7551
dun	-11.7556
▁thrown	-11.7556
▁blow	-11.7557
▁reelection	-11.756
▁downstream	-11.7561
▁considers	-11.7561
paul	-11.7562
gia	-11.7562
▁dynamo	-11.7564
▁pronounced	-11.7564
rai	-11.7564
▁2005)	-11.7566
51	-11.7567
▁ethiopian	-11.7568
▁harp	-11.7569
operation	-11.757
▁moreover	-11.7571
▁presently	-11.7574
▁villagers	-11.7574
gs	-11.7575
▁mammals	-11.7575
▁leningrad	-11.7576
▁librarian	-11.7577
▁haiti	-11.7579
▁goa	-11.7579
▁limerick	-11.7583
▁gin	-11.7584
▁1807	-11.7585
▁lahore	-11.7587
▁warrant	-11.7587
▁1902,	-11.7588
▁badly	-11.7589
▁commissioners	-11.7593
▁procedures	-11.7595
▁introducing	-11.7596
mala	-11.7596
▁salisbury	-11.7599
▁pel	-11.7599
▁madhya	-11.7601
▁barker	-11.7605
▁johannesburg	-11.7606
▁mori	-11.7607
▁duchess	-11.7607
▁llan	-11.7608
▁longitude	-11.7609
▁stained	-11.7612
▁sharks	-11.7614
cam	-11.7615
▁vocational	-11.7617
▁bos	-11.7621
tron	-11.7621
▁finishes	-11.7622
▁deaf	-11.7623
bio	-11.7623
▁rides	-11.7624
▁seasonal	-11.7624
▁hopes	-11.7626
▁equally	-11.7626
▁develops	-11.7627
▁disco	-11.7628
▁saxophonist	-11.7629
leg	-11.7632
▁geoffrey	-11.7633
chair	-11.7633
▁newark	-11.7636
▁falcons	-11.7638
▁kyle	-11.764
▁advised	-11.7641
▁1903.	-11.7644
▁krai	-11.7645
hey	-11.7646
▁wat	-11.7646
▁pt	-11.7646
oa	-11.765
▁marginal	-11.765
▁confidence	-11.7652
▁soloist	-11.7653
along	-11.7653
▁peerage	-11.7655
lina	-11.7657
▁brock	-11.7658
▁jubilee	-11.7664
▁richards	-11.7664
▁dunn	-11.7671
▁sophie	-11.7673
▁gravel	-11.7673
▁gateway	-11.7673
▁genoa	-11.7673
▁catalonia	-11.7673
zhi	-11.7675
▁tough	-11.7675
vale	-11.7676
▁measurement	-11.7678
▁pierce	-11.7679
▁beaches	-11.768
hum	-11.7683
▁ritual	-11.7685
▁ochreous	-11.7685
▁proceeds	-11.7686
▁continent	-11.7686
▁numbering	-11.7691
▁promised	-11.7691
▁luther	-11.7692
▁dealt	-11.7692
▁consequence	-11.7693
▁willow	-11.7694
dp	-11.7695
▁petro	-11.7695
▁janet	-11.7698
▁equestrian	-11.7699
igan	-11.77
▁punishment	-11.7704
▁neighborhoods	-11.7705
▁pir	-11.7706
▁rape	-11.7707
▁paying	-11.7707
▁eleanor	-11.771
ı	-11.7711
▁saving	-11.7714
path	-11.7714
▁khorasan	-11.7715
▁automotive	-11.7717
gli	-11.7719
▁lincolnshire	-11.7721
▁kane	-11.7721
bang	-11.7722
gro	-11.7725
▁brun	-11.7728
lli	-11.7729
▁cheng	-11.7729
▁celebrations	-11.7733
gus	-11.7733
▁2008)	-11.7736
▁helm	-11.7736
▁spreading	-11.7738
iti	-11.7738
▁sequences	-11.774
ops	-11.7741
▁bally	-11.7741
ved	-11.7743
▁104	-11.7743
▁1901.	-11.7744
▁precipitation	-11.7745
▁cop	-11.7745
tch	-11.7745
ture	-11.7746
▁linguistics	-11.7747
▁dec	-11.7748
▁ling	-11.7748
inn	-11.7748
▁jungle	-11.775
illo	-11.7751
▁flint	-11.7752
▁bosnian	-11.7752
▁vein	-11.7752
31	-11.7753
▁holocaust	-11.7754
▁hua	-11.7756
▁botany	-11.7758
▁destroyer	-11.7758
▁linebacker	-11.7759
cylinder	-11.776
kom	-11.7763
meaning	-11.7764
▁tucker	-11.7764
▁bart	-11.7765
▁racer	-11.7767
ār	-11.7768
▁dressed	-11.7769
haus	-11.777
gb	-11.777
▁thoroughbred	-11.7771
▁regardless	-11.7778
▁futsal	-11.7778
▁rna	-11.7782
▁spanning	-11.7783
kra	-11.7784
▁preparatory	-11.7787
▁staying	-11.7789
▁floyd	-11.7797
▁koch	-11.7797
▁binary	-11.7801
▁kei	-11.7802
ons	-11.7807
▁radial	-11.7807
▁repairs	-11.7809
▁mound	-11.7809
▁outscored	-11.781
▁chronicles	-11.7811
▁senegal	-11.7811
▁sherman	-11.7812
▁campuses	-11.7813
▁hung	-11.7814
▁1906,	-11.7816
▁sl	-11.7816
▁personalities	-11.7816
▁staffordshire	-11.7819
nath	-11.7819
tina	-11.7821
tag	-11.7825
▁phillip	-11.7828
connor	-11.7829
▁percy	-11.7829
▁hansen	-11.7829
▁merchants	-11.783
▁surgical	-11.7832
▁busy	-11.7836
▁2003)	-11.7837
rm	-11.7837
▁cage	-11.7838
▁lar	-11.7838
▁1837	-11.7839
▁paved	-11.784
▁hui	-11.7842
sports	-11.7843
▁reunited	-11.7844
▁constantinople	-11.7846
ym	-11.7846
▁fights	-11.7852
▁schmidt	-11.7853
▁hypo	-11.7856
▁deposit	-11.7857
▁fixture	-11.7858
▁upstream	-11.7859
▁annexed	-11.786
▁1909,	-11.7861
▁luck	-11.7862
▁pepper	-11.7862
▁hare	-11.7863
▁hurt	-11.7864
▁fungus	-11.7865
size	-11.7866
bah	-11.7866
▁1844	-11.7867
▁carriage	-11.7868
▁composite	-11.7868
▁systematic	-11.7869
▁seeks	-11.787
guitar	-11.7871
▁butter	-11.7873
▁niece	-11.7874
▁sudden	-11.7874
▁agree	-11.7875
got	-11.7875
▁virtually	-11.7876
▁1907,	-11.788
▁tsu	-11.7881
leigh	-11.7881
▁alley	-11.7881
▁cameras	-11.7882
dre	-11.7885
▁fungi	-11.7887
▁mk	-11.789
▁tobago	-11.789
▁radius	-11.7896
iu	-11.7898
rik	-11.7898
▁robot	-11.7901
china	-11.7901
▁waterloo	-11.7904
▁tract	-11.7905
▁liver	-11.7905
▁basil	-11.7906
▁mcg	-11.7906
▁grandchildren	-11.7907
▁daytime	-11.7908
▁introduce	-11.7911
iko	-11.7912
▁aware	-11.7912
▁dedication	-11.7913
▁barton	-11.7914
▁savings	-11.7914
▁115	-11.7915
▁asset	-11.7916
▁highlight	-11.7916
▁centimeters	-11.7917
▁computational	-11.7917
▁iaaf	-11.792
▁christine	-11.7921
bey	-11.7921
▁reg	-11.7922
iron	-11.7924
▁resembles	-11.7928
▁securities	-11.7928
▁rhodes	-11.7928
pura	-11.7932
▁attractive	-11.7933
▁viral	-11.7934
ical	-11.7934
▁shirley	-11.7935
▁supervisor	-11.7935
▁dee	-11.7937
▁zhu	-11.7939
kes	-11.7939
fold	-11.7943
▁suggesting	-11.7943
▁flemish	-11.7946
▁offshore	-11.7946
▁derek	-11.7947
▁katherine	-11.795
▁proclaimed	-11.7951
llo	-11.7952
▁differs	-11.7952
▁az	-11.7954
▁jesuit	-11.7954
▁activated	-11.7954
▁riley	-11.7956
▁ef	-11.7957
▁terror	-11.7959
street	-11.796
▁namesake	-11.796
▁warrior	-11.7961
▁rodríguez	-11.7961
▁transferring	-11.7961
▁assignments	-11.7962
▁lime	-11.7963
▁woody	-11.7964
▁enhance	-11.7964
▁alien	-11.7966
▁lasting	-11.7967
▁rag	-11.7968
▁qualifiers	-11.797
watch	-11.797
▁ik	-11.7971
mata	-11.7972
here	-11.7972
▁comeback	-11.7974
placed	-11.7975
▁1942)	-11.7978
▁narrator	-11.798
▁lindsay	-11.7981
▁sauce	-11.7982
▁castile	-11.7983
▁hanover	-11.7984
hana	-11.7984
▁fuji	-11.7987
▁tickets	-11.7987
▁facts	-11.7987
▁reveal	-11.7988
▁winters	-11.7989
▁ngc	-11.7989
ios	-11.7989
lea	-11.799
▁descended	-11.799
▁2009–10	-11.799
▁crow	-11.7991
▁1818	-11.7993
▁nielsen	-11.7994
▁demonstration	-11.7994
▁differential	-11.7994
▁keeper	-11.7997
▁mou	-11.7997
stadt	-11.8
▁trim	-11.8002
▁afghan	-11.8003
▁seeded	-11.8004
main	-11.8005
▁paternal	-11.8005
▁resign	-11.8007
▁fees	-11.8007
▁moldova	-11.8007
▁ammunition	-11.8008
▁immigrated	-11.8009
▁corners	-11.8009
▁lea	-11.8011
hay	-11.8012
▁gem	-11.8013
▁tavern	-11.8015
▁vista	-11.8015
▁millennium	-11.8016
▁xiao	-11.8016
▁torres	-11.8016
▁cypriot	-11.8017
▁item	-11.8019
ppa	-11.802
▁mora	-11.802
▁prosecutor	-11.8024
▁dawson	-11.8024
▁drains	-11.8024
▁barrier	-11.8027
–9	-11.8027
▁teamed	-11.8028
borg	-11.8029
▁masa	-11.803
▁reunion	-11.8034
▁106	-11.8036
▁leinster	-11.8037
▁conspiracy	-11.8038
▁ask	-11.804
bis	-11.8042
–20	-11.8043
▁fencing	-11.8044
▁beats	-11.8045
tun	-11.8045
▁respected	-11.8045
▁mls	-11.8046
▁orbital	-11.8048
▁disputed	-11.8049
tam	-11.805
ude	-11.8052
▁dylan	-11.8053
▁taxi	-11.8053
▁isabel	-11.8056
▁lyric	-11.8056
kot	-11.8057
▁malay	-11.8058
▁volcano	-11.8058
por	-11.8058
▁bil	-11.8063
▁define	-11.8063
▁explores	-11.8064
▁endorsed	-11.8064
▁reservation	-11.8066
▁healthy	-11.8066
▁linking	-11.8068
▁rosen	-11.8069
▁ris	-11.8071
▁songwriting	-11.8072
▁diary	-11.8072
▁factories	-11.8075
▁patterson	-11.8078
▁bri	-11.808
▁discrimination	-11.808
▁analyst	-11.8082
▁summers	-11.8083
▁viewing	-11.8086
▁omaha	-11.8088
uru	-11.8091
▁dirt	-11.8093
▁strand	-11.8094
▁collaborations	-11.8095
▁1804	-11.8097
▁surveyor	-11.8097
▁oman	-11.8097
▁sf	-11.8098
▁rulers	-11.81
▁websites	-11.81
▁bigger	-11.8101
▁elm	-11.8102
stan	-11.8106
▁suffrage	-11.8108
operative	-11.811
▁imaging	-11.811
▁wade	-11.8112
▁vor	-11.8114
▁elderly	-11.8114
▁crafts	-11.8119
▁128	-11.8121
▁postseason	-11.8123
▁polling	-11.8124
▁electron	-11.8127
▁mps	-11.8128
▁flute	-11.8129
▁shoe	-11.813
its	-11.813
▁jake	-11.8133
vent	-11.8135
▁refugee	-11.8139
▁rené	-11.814
▁nun	-11.814
▁inquiry	-11.8143
▁canceled	-11.8144
▁kerr	-11.8147
▁2004)	-11.8147
▁findings	-11.8149
rise	-11.8149
-13	-11.8149
▁knows	-11.815
▁bavarian	-11.8155
▁walks	-11.8156
▁chassis	-11.8156
▁1904,	-11.8157
▁birthplace	-11.8157
▁elaborate	-11.8158
▁dil	-11.816
▁eating	-11.8163
▁devils	-11.8163
asa	-11.8165
▁appointments	-11.8166
sec	-11.8173
wang	-11.8174
▁potentially	-11.8175
hof	-11.8175
▁valle	-11.8175
▁kenyan	-11.8176
▁mikhail	-11.8176
▁gad	-11.8178
▁1842	-11.818
▁carlisle	-11.8181
specific	-11.8182
▁originates	-11.8184
▁tong	-11.8184
▁vfl	-11.8184
▁dell	-11.8186
▁progressed	-11.8188
nio	-11.8189
▁kom	-11.8189
▁honduras	-11.8189
open	-11.819
craft	-11.8191
▁100%	-11.8192
▁1839	-11.8192
nai	-11.8193
▁terrorist	-11.8194
ht	-11.8195
▁kinds	-11.8196
▁ox	-11.8196
chal	-11.8196
tek	-11.8198
▁homestead	-11.82
▁rivalry	-11.8201
▁advocated	-11.8203
▁objectives	-11.8205
▁zürich	-11.8207
▁projected	-11.821
app	-11.821
▁ot	-11.8212
▁sovereign	-11.8213
▁wie	-11.8215
▁mick	-11.8215
▁discussions	-11.8215
▁doubt	-11.8215
▁flour	-11.8215
▁specified	-11.8216
▁trick	-11.8216
77	-11.8217
▁hanging	-11.8217
▁moroccan	-11.822
▁dove	-11.822
▁jen	-11.822
▁rows	-11.8222
established	-11.8223
▁fritz	-11.8224
▁genetics	-11.8225
mail	-11.8227
▁easier	-11.823
▁1843	-11.8232
▁1863.	-11.8235
▁lily	-11.8235
▁interpreted	-11.8237
▁rays	-11.8238
pes	-11.8238
▁chairperson	-11.8238
▁estimate	-11.8243
body	-11.8244
▁saxon	-11.8245
▁contractor	-11.8245
▁fold	-11.8247
rem	-11.825
lok	-11.8251
▁witch	-11.8251
▁yearly	-11.8252
▁boot	-11.8255
▁1780	-11.8257
▁analog	-11.8257
escu	-11.8257
rolling	-11.8258
▁feat	-11.8259
▁birch	-11.8262
▁erie	-11.8263
▁sponsors	-11.8263
▁courtyard	-11.8265
▁reich	-11.8266
▁bitter	-11.8266
▁ivy	-11.8266
▁clarence	-11.8267
▁pratt	-11.8268
▁exceptional	-11.8272
▁wakefield	-11.8274
▁rebecca	-11.8274
▁practicing	-11.8274
▁statute	-11.8278
▁reflects	-11.8278
▁statements	-11.8279
int	-11.828
▁barrister	-11.828
pic	-11.8281
▁1836	-11.8281
▁harsh	-11.8281
cf	-11.8282
▁alderman	-11.8283
▁augusta	-11.8284
▁distinguish	-11.8285
▁overlooking	-11.8287
=12	-11.8289
▁laps	-11.8289
▁troupe	-11.8289
▁roe	-11.829
▁spire	-11.829
kala	-11.829
▁settings	-11.8293
▁camping	-11.8294
▁pharmaceutical	-11.8296
▁livingston	-11.8297
▁imported	-11.8297
▁bells	-11.83
▁investor	-11.83
▁huang	-11.8302
▁mercy	-11.8306
▁prompted	-11.8306
▁unreleased	-11.8306
▁greenland	-11.8306
▁mb	-11.8306
iki	-11.8306
▁dana	-11.8307
▁nk	-11.8309
▁proposals	-11.831
▁anatomy	-11.831
▁kre	-11.8311
▁nobility	-11.8312
▁triumph	-11.8312
▁laurel	-11.8312
▁bred	-11.8317
▁sketches	-11.8318
▁happen	-11.8319
▁peterson	-11.8323
oro	-11.8323
▁tubes	-11.8324
▁murders	-11.8327
▁warwick	-11.8327
▁employs	-11.8328
▁1903,	-11.8328
matic	-11.8328
▁sed	-11.8329
▁generating	-11.8329
ár	-11.8331
▁fis	-11.8331
phil	-11.8333
–5	-11.8338
▁pasha	-11.8339
▁colts	-11.834
▁penalties	-11.834
▁hannah	-11.8341
ned	-11.8341
▁selsoviet	-11.8342
aca	-11.8344
▁fra	-11.8345
▁gb	-11.8345
▁weber	-11.835
sir	-11.8354
▁rescued	-11.8355
care	-11.8355
iff	-11.8355
▁aerospace	-11.8357
▁acknowledged	-11.8357
▁rca	-11.8358
range	-11.8361
▁dots	-11.8363
▁1901,	-11.8364
▁rex	-11.8364
▁vil	-11.8367
▁paired	-11.8369
gp	-11.837
▁prop	-11.8371
▁seemed	-11.8372
▁rejoined	-11.8375
rail	-11.8375
▁irving	-11.8375
▁depths	-11.8378
jet	-11.838
▁patriots	-11.8384
▁opted	-11.8386
▁leopold	-11.8387
▁gubernatorial	-11.839
▁savage	-11.8392
▁riga	-11.8392
▁buddha	-11.8394
▁amenities	-11.8395
▁condemned	-11.8395
wr	-11.8399
▁criticised	-11.8399
hem	-11.8402
▁michelle	-11.8403
▁directions	-11.8404
▁mozart	-11.8405
▁legally	-11.8406
3)	-11.8411
mbo	-11.8411
▁bare	-11.8411
▁forcing	-11.8412
jean	-11.8413
▁implement	-11.8413
ste	-11.8415
▁1827	-11.8416
▁affiliation	-11.8417
shima	-11.8417
▁portrayal	-11.8418
european	-11.8419
▁cham	-11.8422
erman	-11.8424
▁bermuda	-11.8425
▁delay	-11.8425
▁pharmacy	-11.8426
tell	-11.8426
▁encyclopedia	-11.8427
gl	-11.8429
▁spiders	-11.8429
▁feeds	-11.843
▁bail	-11.843
gaard	-11.8435
evich	-11.8435
▁ned	-11.8436
nya	-11.8438
▁invention	-11.8438
▁tibetan	-11.8439
▁tonnes	-11.8439
cis	-11.8442
london	-11.8443
▁strategies	-11.8445
▁bollywood	-11.8446
▁tate	-11.8449
▁demanded	-11.8452
▁coloured	-11.8453
▁calculated	-11.8455
▁fairy	-11.8456
▁synonym	-11.8457
▁ashley	-11.8457
▁combine	-11.8457
▁cara	-11.8458
mund	-11.8459
▁remember	-11.8461
ago	-11.8466
pers	-11.8466
▁beliefs	-11.8467
▁launching	-11.8467
▁sor	-11.847
▁hesse	-11.8471
although	-11.8473
mari	-11.8474
▁borneo	-11.8475
▁georges	-11.8477
▁wheeler	-11.8478
33	-11.8479
▁transactions	-11.8479
▁tunes	-11.848
▁courage	-11.848
▁bust	-11.8482
▁consistently	-11.8482
▁arabian	-11.8482
▁graduates	-11.8486
▁benson	-11.8487
▁mayo	-11.8491
too	-11.8491
▁fern	-11.8495
odes	-11.8495
ace	-11.8495
▁specialised	-11.8496
▁900	-11.8496
▁outlet	-11.8496
▁withdrawal	-11.8497
mut	-11.8498
▁minimal	-11.8498
gren	-11.8499
▁avant	-11.8499
▁sn	-11.8501
kowski	-11.8504
▁exam	-11.8504
▁mozambique	-11.8505
▁dad	-11.8506
neill	-11.8509
▁vatican	-11.8511
lev	-11.8511
ising	-11.8514
▁zar	-11.8515
race	-11.8517
rea	-11.8517
▁opposing	-11.8517
▁propaganda	-11.8519
▁bot	-11.8524
▁caste	-11.8524
▁reside	-11.8525
▁differ	-11.8527
kam	-11.8529
door	-11.8531
▁commissions	-11.8532
▁councils	-11.8535
▁welcome	-11.8537
▁shoes	-11.8541
▁vacated	-11.8544
▁align	-11.8547
ties	-11.855
▁elk	-11.855
hood	-11.8553
▁hate	-11.8553
▁naturalist	-11.8556
▁mere	-11.8556
▁humid	-11.8557
▁merely	-11.8558
▁bacterium	-11.856
club	-11.8561
▁wr	-11.8561
▁professorship	-11.8561
▁opens	-11.8562
italian	-11.8562
▁gau	-11.8566
▁midway	-11.8566
▁mom	-11.8569
vil	-11.857
▁filling	-11.857
▁vas	-11.8572
ej	-11.8573
▁deployment	-11.8574
▁averaging	-11.8574
▁gore	-11.8575
▁clusters	-11.8575
▁casey	-11.8576
vert	-11.8578
▁harvest	-11.8578
dha	-11.8579
ø	-11.858
mé	-11.858
▁monarch	-11.858
▁deceased	-11.8582
▁abundant	-11.8582
–11	-11.8582
▁boyfriend	-11.8582
▁wildcats	-11.8583
dian	-11.8583
▁walton	-11.8586
▁gazette	-11.8586
ching	-11.8589
▁email	-11.8591
▁omar	-11.8594
▁orchestral	-11.8594
▁1898.	-11.8595
▁entities	-11.8595
▁understood	-11.8597
trick	-11.8597
purpose	-11.8597
▁sensitive	-11.8598
▁constantly	-11.8598
india	-11.8599
▁amino	-11.8599
enne	-11.86
▁disorders	-11.86
▁azerbaijani	-11.8601
editor	-11.8603
▁documentation	-11.8603
▁pursuing	-11.8606
▁vacancy	-11.8606
▁monaco	-11.8606
▁carson	-11.8609
yev	-11.861
▁theologian	-11.8611
▁libya	-11.8611
▁saddle	-11.8611
▁struggling	-11.8614
pit	-11.8614
▁dei	-11.8614
▁challenging	-11.8615
▁remixes	-11.8616
▁wartime	-11.8616
▁hitler	-11.8618
▁paz	-11.8619
▁strictly	-11.8622
▁ease	-11.8622
▁ark	-11.8622
▁branded	-11.8623
▁1832	-11.8624
▁noticed	-11.8627
▁conversation	-11.8627
▁veins	-11.8627
▁comp	-11.8628
▁edith	-11.8631
lem	-11.8632
▁merge	-11.8632
elo	-11.8632
eye	-11.8633
▁chau	-11.8633
brother	-11.8634
▁fro	-11.8634
talk	-11.8636
▁poles	-11.8637
▁choral	-11.8638
▁doctrine	-11.8638
▁janata	-11.8638
▁logistics	-11.864
rell	-11.8641
▁tactical	-11.8642
canadian	-11.8642
▁matthews	-11.8644
▁fia	-11.8647
▁1899,	-11.8649
pod	-11.865
sti	-11.865
▁badge	-11.8651
▁cassette	-11.8651
▁111	-11.8653
▁nano	-11.8653
▁listen	-11.8654
father	-11.8655
▁rebranded	-11.8655
▁sharma	-11.8656
▁$4	-11.8656
▁bowls	-11.8659
▁floating	-11.866
83	-11.8668
▁wis	-11.8668
▁lent	-11.867
▁salary	-11.867
▁automated	-11.8671
▁finite	-11.8672
dic	-11.8672
▁fake	-11.8673
▁hymn	-11.8673
▁arlington	-11.8674
▁swimmers	-11.8675
▁blackburn	-11.8675
▁mandatory	-11.8676
▁northumberland	-11.8678
▁fernández	-11.8679
▁stronger	-11.868
▁rahman	-11.8681
dark	-11.8681
▁synod	-11.8682
▁examined	-11.8682
▁wives	-11.8683
raja	-11.8684
▁nit	-11.8684
itt	-11.8684
▁strikeouts	-11.8685
▁alignment	-11.8686
▁360	-11.8687
▁spare	-11.869
▁scots	-11.8692
▁pollution	-11.8693
ory	-11.8694
jun	-11.8694
▁learns	-11.8695
nne	-11.8696
▁mohan	-11.8697
▁shade	-11.8698
nard	-11.8698
▁memories	-11.8698
▁transcription	-11.8698
▁wreck	-11.8698
2.5	-11.8699
▁dudley	-11.8702
▁cy	-11.8702
▁sued	-11.8708
dorf	-11.8708
▁consumers	-11.8711
▁nie	-11.8715
sunday	-11.8716
▁willis	-11.8717
bun	-11.8718
▁mess	-11.8719
▁salzburg	-11.8724
pad	-11.8725
▁insect	-11.8725
▁ahl	-11.8725
▁bombers	-11.8725
–8	-11.8725
gur	-11.8726
▁specification	-11.8727
▁gut	-11.8727
▁poetic	-11.8728
▁bonds	-11.873
▁archer	-11.8733
rf	-11.8735
▁cinematographer	-11.8739
▁stony	-11.8739
▁enhanced	-11.8741
doctor	-11.8742
▁cass	-11.8743
ters	-11.8744
berger	-11.8744
▁payne	-11.8744
76	-11.8746
▁2"	-11.8751
step	-11.8752
▁considerably	-11.8753
▁scrap	-11.8753
nova	-11.8756
▁lafayette	-11.8756
▁honda	-11.8758
▁boulder	-11.8758
▁breuning	-11.8759
til	-11.8759
▁scha	-11.876
▁mackenzie	-11.876
cre	-11.8761
▁update	-11.8762
▁taluk	-11.8764
▁lighter	-11.8766
▁jessica	-11.8766
▁bracket	-11.8767
▁outskirts	-11.8768
▁silence	-11.8768
▁excavated	-11.8768
bla	-11.8769
▁dartmouth	-11.8769
sei	-11.877
▁shuttle	-11.8771
▁flown	-11.8771
▁harm	-11.8772
▁rep	-11.8773
▁staging	-11.8775
▁spells	-11.8777
▁1790	-11.8779
mba	-11.878
▁cunningham	-11.8782
▁brush	-11.8782
▁109	-11.8785
▁sterling	-11.8785
cdp	-11.8792
▁cliffs	-11.8795
▁greenwich	-11.8796
skaya	-11.8796
▁bottle	-11.8797
▁rental	-11.8799
▁knowing	-11.88
▁nursery	-11.88
▁cylinder	-11.8803
▁rid	-11.8803
▁isabella	-11.8803
▁kidney	-11.8804
▁spe	-11.8805
▁watched	-11.8806
saturday	-11.8807
▁marquis	-11.8808
▁vr	-11.8809
▁agreements	-11.8809
▁prehistoric	-11.8809
▁rhythmic	-11.881
width	-11.8811
▁pipeline	-11.8811
▁kle	-11.8813
:30	-11.8814
▁cats	-11.8816
wave	-11.8817
▁wiltshire	-11.8819
▁serra	-11.8819
▁residences	-11.882
▁fil	-11.8823
▁ple	-11.8824
▁kills	-11.8824
▁detachment	-11.8825
▁dow	-11.8825
vas	-11.8826
▁dimension	-11.8826
▁originating	-11.8829
▁operas	-11.883
ending	-11.8832
▁blocked	-11.8832
▁myth	-11.8834
▁fjord	-11.8835
▁sab	-11.8839
special	-11.8839
_5	-11.884
▁107	-11.884
▁priority	-11.884
▁pump	-11.8841
▁loosely	-11.8842
▁domingo	-11.8844
▁wolves	-11.8844
▁realm	-11.8846
▁mos	-11.8847
uf	-11.8847
▁proportion	-11.8848
▁jamaican	-11.8849
▁edo	-11.885
▁cure	-11.8851
▁cry	-11.8852
lau	-11.8855
▁domains	-11.8855
tour	-11.8855
att	-11.8856
▁attitude	-11.8857
▁unnamed	-11.8859
nah	-11.886
▁scrapped	-11.8861
rain	-11.8861
▁probability	-11.8862
▁thirteenth	-11.8865
iso	-11.8868
▁happens	-11.8868
mount	-11.887
▁ida	-11.887
▁mira	-11.8871
▁teammates	-11.8871
ars	-11.8872
death	-11.8874
▁mam	-11.8874
▁evergreen	-11.8876
▁makers	-11.8877
elia	-11.8877
ther	-11.8878
▁eighteenth	-11.8883
▁1941)	-11.8883
–4	-11.8884
lus	-11.8888
▁physically	-11.8889
▁nes	-11.8894
▁involve	-11.8896
▁nara	-11.8897
▁deity	-11.8897
▁warwickshire	-11.8898
▁spike	-11.89
grade	-11.8903
daily	-11.8903
▁arches	-11.8904
▁townland	-11.8905
▁brilliant	-11.8906
dot	-11.8906
▁viola	-11.8906
▁camden	-11.8907
host	-11.8907
iii	-11.8908
▁gravity	-11.8909
▁griffith	-11.8911
rang	-11.8912
▁1862.	-11.8912
▁knighted	-11.8912
▁hbo	-11.8912
▁doyle	-11.8913
still	-11.8914
▁stereo	-11.8915
▁crescent	-11.8917
▁carnival	-11.8917
ml	-11.8919
isi	-11.892
▁chant	-11.8921
idi	-11.8922
royal	-11.8923
▁classrooms	-11.8924
800	-11.8925
ates	-11.8928
▁theaters	-11.8928
▁clayton	-11.8929
▁1797	-11.893
▁honoured	-11.8931
▁waterfall	-11.8931
▁exploring	-11.8934
asia	-11.8935
▁abd	-11.8937
▁dropping	-11.8938
▁perceived	-11.8938
▁av	-11.894
▁imp	-11.894
db	-11.8942
▁antenna	-11.8942
▁bryant	-11.8942
iel	-11.8943
▁brig	-11.8944
▁prelate	-11.8945
▁financing	-11.8946
▁1,500	-11.8948
▁lovers	-11.8948
▁antoine	-11.895
▁regina	-11.8951
▁predicted	-11.8952
▁rath	-11.8953
▁peel	-11.8955
nier	-11.8957
▁112	-11.8957
▁republicans	-11.8957
▁valleys	-11.8959
▁mountainous	-11.896
▁barony	-11.8963
▁endowment	-11.8963
deep	-11.8965
▁subtropical	-11.8965
▁picks	-11.8966
▁missionaries	-11.8967
▁kuala	-11.8968
▁cis	-11.8969
▁alter	-11.8969
▁somalia	-11.8971
▁playground	-11.8974
▁rus	-11.8974
ingen	-11.8975
▁burlington	-11.8976
▁fuller	-11.898
▁bard	-11.8981
▁tibet	-11.8984
▁molecules	-11.8984
▁providers	-11.8986
▁properly	-11.8987
▁midwest	-11.8987
▁odi	-11.8988
▁academia	-11.8988
▁arrow	-11.899
arch	-11.899
▁135	-11.8991
▁intact	-11.8993
▁angela	-11.8993
▁statewide	-11.8993
ault	-11.8996
▁marseille	-11.8998
▁estimates	-11.8999
▁uruguayan	-11.9
enstein	-11.9004
▁meyrick	-11.9004
▁vila	-11.9005
▁wound	-11.9005
oba	-11.9006
blood	-11.9007
ç	-11.9008
▁particles	-11.9008
ain	-11.9008
▁swamp	-11.901
ullah	-11.901
▁civilians	-11.9012
▁gall	-11.9013
▁nintendo	-11.9013
mie	-11.9014
▁coined	-11.9016
▁upgrade	-11.9017
▁nrl	-11.9019
▁dy	-11.902
chinese	-11.9021
odi	-11.9022
zone	-11.9023
ä	-11.9023
mah	-11.9023
▁mani	-11.9025
▁caucus	-11.9026
▁jackie	-11.9026
▁aquatics	-11.9028
zon	-11.9029
▁ipswich	-11.9031
▁thread	-11.9035
▁blend	-11.9036
50,000	-11.9036
ified	-11.9038
▁vest	-11.9039
▁deportivo	-11.9041
hausen	-11.9042
▁sailors	-11.9042
▁esp	-11.9043
▁mixing	-11.9043
dé	-11.9044
▁1896.	-11.9045
▁boeing	-11.9046
▁timeline	-11.9047
bek	-11.9047
▁rope	-11.9049
▁wesley	-11.9052
▁bluff	-11.9052
▁6-	-11.9055
▁removing	-11.9056
▁nowadays	-11.9057
ono	-11.9057
▁sten	-11.9059
girl	-11.9061
▁counterpart	-11.9061
▁armies	-11.9061
▁pul	-11.9063
▁bod	-11.9066
▁sevens	-11.9067
small	-11.9068
▁informal	-11.9068
▁#3	-11.9072
,”	-11.9074
ison	-11.9074
japanese	-11.9075
bil	-11.9075
▁pearson	-11.9075
▁divinity	-11.9075
▁pérez	-11.9079
▁chal	-11.908
▁underwater	-11.9081
▁holidays	-11.9081
omi	-11.9082
▁rifles	-11.9083
–7	-11.9083
▁sanders	-11.9084
sai	-11.9085
▁stellar	-11.9093
▁flanders	-11.9093
▁beirut	-11.9093
▁genome	-11.9094
ssa	-11.9096
ces	-11.9097
▁survives	-11.9097
▁renovations	-11.9098
map	-11.9098
▁seventy	-11.9099
bul	-11.9099
▁constituted	-11.9099
▁vacation	-11.91
▁1799	-11.9101
▁schooling	-11.9102
▁tun	-11.9102
gaon	-11.9102
ario	-11.9102
▁shores	-11.9103
-1990	-11.9108
▁willing	-11.911
▁postdoctoral	-11.911
▁addresses	-11.911
▁frames	-11.9111
6,	-11.9111
▁codice	-11.9111
phy	-11.9113
▁clifford	-11.9114
ants	-11.9114
icus	-11.9115
hoff	-11.9115
▁geologic	-11.9116
dio	-11.9117
▁vologda	-11.9117
▁pitching	-11.9117
▁kyoto	-11.9118
▁shells	-11.9119
▁tay	-11.9119
▁constitute	-11.9121
▁loud	-11.9121
▁1899.	-11.9123
bes	-11.9123
ković	-11.9124
–6	-11.9125
stead	-11.9125
▁accidentally	-11.9126
zin	-11.9126
▁wol	-11.9127
tec	-11.9129
▁northampton	-11.9129
▁š	-11.9131
▁gerard	-11.9133
▁hoped	-11.9134
▁bypass	-11.9135
▁fare	-11.9135
▁vanderbilt	-11.9138
▁nina	-11.9138
▁sepals	-11.9139
oe	-11.9139
▁mechanisms	-11.9142
kou	-11.9143
▁beverly	-11.9143
▁continuation	-11.9144
▁cockpit	-11.9144
▁anonymous	-11.9145
fen	-11.9146
▁certainly	-11.915
fs	-11.9151
▁tragedy	-11.9152
▁bali	-11.9153
volume	-11.9153
▁mood	-11.9154
▁ancestor	-11.9154
river	-11.9155
gat	-11.9155
▁1940)	-11.9158
▁kl	-11.9163
▁$6	-11.9164
▁measurements	-11.9167
▁settler	-11.9169
▁kemp	-11.9169
▁alfonso	-11.917
▁rouge	-11.9177
eaux	-11.918
▁trades	-11.9181
▁surveillance	-11.9184
▁atmospheric	-11.9184
▁bronx	-11.9188
▁preserves	-11.919
tsch	-11.9191
▁1:	-11.9193
▁announcer	-11.9194
▁detection	-11.9196
▁consideration	-11.9197
▁ssr	-11.9198
▁tension	-11.9199
▁bremen	-11.9202
▁saxophone	-11.9203
▁lineage	-11.9203
▁struggles	-11.9205
▁1897.	-11.9205
▁primitive	-11.921
division	-11.9211
▁randy	-11.9212
hwa	-11.9216
▁cloth	-11.9216
▁kindergarten	-11.9218
cheng	-11.922
total	-11.9221
▁howe	-11.9222
▁expired	-11.9223
1.5	-11.9224
▁vent	-11.9224
▁revision	-11.9225
▁québec	-11.9226
full	-11.9227
▁screening	-11.9227
▁cia	-11.9228
▁classroom	-11.9229
▁clifton	-11.9229
▁mansfield	-11.9229
▁rbi	-11.9229
▁jacobs	-11.923
▁kap	-11.9231
▁patents	-11.9234
▁talents	-11.9234
tius	-11.9235
▁specifications	-11.9235
player	-11.9235
▁paolo	-11.9235
▁1812	-11.9238
▁116	-11.9239
▁yong	-11.924
dou	-11.924
▁donation	-11.9241
▁pau	-11.9241
▁discharge	-11.9242
▁adjoining	-11.9242
▁humanity	-11.9244
mere	-11.9245
▁concacaf	-11.9245
▁barbados	-11.9245
▁humorous	-11.9247
rov	-11.9247
▁eng	-11.9247
▁aba	-11.9248
▁vegetables	-11.9248
▁nag	-11.925
▁urdu	-11.9251
▁aperture	-11.9252
▁marathi	-11.9252
▁currie	-11.9252
▁hammond	-11.9255
dog	-11.9256
▁williamson	-11.9257
▁cb	-11.9257
▁gm	-11.9257
▁woo	-11.926
pass	-11.926
▁grape	-11.926
▁shannon	-11.9263
▁candy	-11.9264
▁lunch	-11.9265
▁peters	-11.9266
▁reggae	-11.9266
#	-11.9267
▁drives	-11.9268
▁fischer	-11.9269
▁toyota	-11.927
rated	-11.9271
▁minerals	-11.9272
▁jules	-11.9275
▁guides	-11.9276
hold	-11.9279
▁doll	-11.9279
▁eb	-11.9282
sho	-11.9284
▁rwanda	-11.9284
▁handicap	-11.9284
▁surrendered	-11.9285
▁amalgamated	-11.9289
▁sunshine	-11.9289
4.	-11.929
▁1898,	-11.9297
▁cinematography	-11.9302
▁yankees	-11.9304
▁barrett	-11.9307
▁carmen	-11.9308
flight	-11.9308
▁theatres	-11.9311
▁consequences	-11.9311
▁displacement	-11.9312
▁wholly	-11.9312
bourne	-11.9313
▁6–4	-11.9313
▁hobart	-11.9313
▁telenovela	-11.9315
▁marin	-11.9318
tica	-11.9319
▁algebra	-11.9321
mother	-11.9322
bri	-11.9324
▁horizon	-11.9325
ilo	-11.9326
▁sally	-11.9326
▁popularly	-11.9327
nat	-11.9327
▁sophia	-11.9328
▁proven	-11.9329
▁oblique	-11.9331
▁lifted	-11.9332
tle	-11.9334
call	-11.9334
▁trent	-11.9338
▁gorge	-11.9341
pierre	-11.9341
lost	-11.9341
▁dover	-11.9341
▁import	-11.9341
▁strongest	-11.9342
▁linguistic	-11.9343
▁cartoonist	-11.9343
▁tortricidae	-11.9344
gie	-11.9344
▁transverse	-11.9344
▁113	-11.9346
▁reconstructed	-11.9348
kul	-11.9349
▁whit	-11.935
▁strain	-11.935
▁listeners	-11.935
▁normandy	-11.9351
▁fir	-11.9351
▁carey	-11.9352
mai	-11.9352
tter	-11.9352
▁deh	-11.9352
▁kok	-11.9352
poly	-11.9353
▁caesar	-11.9353
▁tallinn	-11.9354
▁slavic	-11.9357
▁orientation	-11.9357
▁organisms	-11.9358
▁brett	-11.9359
pon	-11.9359
lah	-11.9364
mill	-11.9364
▁clergy	-11.9365
▁pbs	-11.9367
▁spokesperson	-11.9367
khan	-11.937
▁1890,	-11.937
▁rented	-11.9371
▁pietro	-11.9372
▁silicon	-11.9373
hoe	-11.9374
▁partnerships	-11.9374
pos	-11.9378
▁burnt	-11.9379
▁boxes	-11.9379
▁tidal	-11.9382
▁4,000	-11.9382
keeper	-11.9384
▁magnus	-11.9385
▁cello	-11.9385
▁worm	-11.9386
▁undefeated	-11.939
▁recommendation	-11.939
▁romanesque	-11.9391
▁argues	-11.9391
▁ricardo	-11.9393
▁bac	-11.9394
tak	-11.9396
lies	-11.9396
▁retaining	-11.9397
▁falcon	-11.9397
▁pia	-11.9398
pati	-11.9399
▁multimedia	-11.9401
▁wolfgang	-11.9405
▁imam	-11.9405
▁randolph	-11.9405
▁nicola	-11.9407
rine	-11.9407
▁wishes	-11.9407
short	-11.941
▁totally	-11.9412
▁displaced	-11.9412
▁downs	-11.9415
▁bha	-11.9416
▁trumpet	-11.9417
▁veterinary	-11.9418
▁pl	-11.942
▁homer	-11.9421
▁maid	-11.9422
▁hertfordshire	-11.9423
▁choreographer	-11.9424
sco	-11.9425
▁cameo	-11.9425
▁grab	-11.9427
▁specially	-11.9429
▁swansea	-11.943
▁button	-11.943
▁cemeteries	-11.9431
▁inscribed	-11.9431
▁jerome	-11.9433
▁comfort	-11.9433
▁pilgrimage	-11.9433
▁overcome	-11.9434
▁conferred	-11.9437
mixed	-11.9439
▁sacks	-11.944
▁nixon	-11.9441
union	-11.9442
▁convex	-11.9443
▁bloom	-11.9445
▁fleming	-11.9447
▁trevor	-11.9448
▁abdomen	-11.9449
▁holly	-11.945
▁beatles	-11.945
▁spite	-11.945
▁kicked	-11.9451
▁kawa	-11.9452
zio	-11.9452
▁rfc	-11.9453
▁prosecution	-11.9454
/19	-11.9455
▁plc	-11.9462
garde	-11.9463
▁coordination	-11.9468
▁bury	-11.9468
▁loves	-11.9468
▁til	-11.947
▁220	-11.947
▁payments	-11.9471
▁gua	-11.9472
▁ancestors	-11.9473
▁sept	-11.9477
▁bangladeshi	-11.9477
▁propeller	-11.948
▁stade	-11.9481
▁stirling	-11.9482
▁sanctioned	-11.9482
▁afro	-11.9482
▁hanna	-11.9484
▁buying	-11.9486
pia	-11.9486
▁securing	-11.9487
▁rita	-11.9488
900	-11.9489
▁fringe	-11.949
▁odisha	-11.949
▁malawi	-11.9491
▁vulnerable	-11.9493
▁eaten	-11.9493
▁synthetic	-11.9494
wil	-11.9495
▁privy	-11.9497
▁sindh	-11.9502
▁switching	-11.9502
▁syed	-11.9503
és	-11.9503
▁fiber	-11.9504
▁werner	-11.9505
▁lor	-11.9506
▁cnn	-11.9506
▁proportional	-11.9507
▁amber	-11.9508
▁admiralty	-11.9508
▁stripes	-11.9512
▁directorial	-11.9512
▁weiss	-11.9513
vision	-11.9514
amine	-11.9515
▁harriet	-11.9517
even	-11.9517
▁institutes	-11.9517
▁teatro	-11.952
▁parsons	-11.952
▁voiced	-11.9523
▁yoga	-11.9523
▁nerve	-11.9525
through	-11.9526
▁luna	-11.9527
▁cai	-11.9527
▁underlying	-11.953
lier	-11.953
▁düsseldorf	-11.9531
▁turf	-11.9532
▁commuter	-11.9533
bos	-11.9534
ifolia	-11.9535
▁comment	-11.9535
▁whale	-11.9536
▁bour	-11.9537
▁siding	-11.9538
▁module	-11.9539
▁rau	-11.954
▁controlling	-11.9541
▁withdraw	-11.9542
▁brittany	-11.9543
oon	-11.9544
▁rc	-11.9544
▁arose	-11.9544
kas	-11.9547
▁thorn	-11.9547
named	-11.9548
lio	-11.955
▁rand	-11.9552
▁valued	-11.9553
▁martínez	-11.9553
▁boo	-11.9557
▁loans	-11.9558
▁shirt	-11.9558
hang	-11.9558
iga	-11.9558
rani	-11.956
▁quinn	-11.956
▁weston	-11.9562
▁watt	-11.9562
▁protecting	-11.9564
▁1897,	-11.9565
▁ic	-11.9566
▁retrospective	-11.9567
▁noel	-11.9568
▁nineteen	-11.9568
▁presumably	-11.9569
▁sis	-11.957
▁atop	-11.957
ego	-11.957
▁rt	-11.9575
▁punjabi	-11.9576
▁guyana	-11.9577
▁lanes	-11.9579
▁specialising	-11.958
nice	-11.9581
▁farmland	-11.9582
▁mural	-11.9582
▁spirits	-11.9582
▁underside	-11.9584
▁strasbourg	-11.9584
lip	-11.9584
▁petr	-11.9586
▁savannah	-11.9588
▁universidad	-11.9589
▁luigi	-11.9589
vie	-11.959
▁openly	-11.959
▁lagoon	-11.959
▁sharon	-11.9591
▁cra	-11.9592
xa	-11.9595
▁photographed	-11.9599
rap	-11.9599
▁kerman	-11.96
▁baghdad	-11.9602
▁gather	-11.9602
▁bahrain	-11.9603
▁slim	-11.9603
force	-11.9603
sten	-11.9604
aircraft	-11.9607
▁commodore	-11.9607
▁recommendations	-11.9608
▁usc	-11.9608
▁2008–09	-11.961
nation	-11.9611
▁meal	-11.9611
▁wax	-11.9612
nos	-11.9615
▁aggressive	-11.9617
▁marker	-11.9618
▁mé	-11.9619
▁televised	-11.9619
▁gaa	-11.962
pper	-11.9622
quet	-11.9623
▁whorl	-11.9625
ean	-11.9625
▁hapoel	-11.9627
▁disabilities	-11.963
ía	-11.9632
▁sodium	-11.9634
▁capability	-11.9634
electric	-11.9636
▁dull	-11.9639
moto	-11.9642
▁similarities	-11.9642
▁perkins	-11.9645
sil	-11.9646
▁throwing	-11.9646
▁custody	-11.9647
▁depends	-11.9647
▁margins	-11.9648
metal	-11.9648
gard	-11.965
▁cle	-11.9651
▁1896,	-11.9652
▁braves	-11.9655
▁utrecht	-11.9655
▁afterward	-11.9656
▁investigator	-11.9657
▁nutrition	-11.9658
▁eduardo	-11.9658
government	-11.9659
▁gus	-11.9659
▁dayton	-11.9659
yellow	-11.966
▁newer	-11.9661
▁ribs	-11.9662
▁ascent	-11.9662
▁valentine	-11.9663
▁xu	-11.9663
issa	-11.9663
▁dodge	-11.9664
ès	-11.9671
▁silesian	-11.9671
▁slavery	-11.9675
▁1893.	-11.9676
▁chains	-11.9676
yam	-11.9678
vu	-11.9678
▁simulation	-11.9678
▁broader	-11.9679
▁dialects	-11.9681
▁climbed	-11.9685
mak	-11.9686
▁desired	-11.9687
▁dozens	-11.9688
▁1834	-11.9689
▁broadly	-11.969
▁calvin	-11.9691
▁1892,	-11.9694
▁lengths	-11.9695
▁vikings	-11.9696
▁170	-11.9696
▁constable	-11.9697
▁mercer	-11.9698
▁integrity	-11.9699
▁jong	-11.97
major	-11.9703
▁flu	-11.9703
▁partition	-11.9704
church	-11.9705
▁reinforced	-11.9705
▁flames	-11.9705
▁nov	-11.9707
▁pun	-11.9708
▁2006)	-11.9709
▁demon	-11.9711
▁1894.	-11.9712
▁ankara	-11.9713
▁lemon	-11.9713
▁spines	-11.9714
▁decreased	-11.9714
▁pedestrian	-11.9715
▁1895,	-11.9717
▁prasad	-11.9717
▁promotes	-11.9719
▁flee	-11.9722
▁albedo	-11.9723
angel	-11.9723
dream	-11.9723
▁occupy	-11.9724
▁sleeping	-11.9725
▁pound	-11.9727
▁decrease	-11.9727
eth	-11.9729
▁resemble	-11.9729
oy	-11.9731
▁guangzhou	-11.9731
▁laude	-11.9732
▁6–4,	-11.9734
sf	-11.9736
▁wagon	-11.974
▁6–3,	-11.9741
▁servants	-11.9743
▁umbrella	-11.9744
▁abs	-11.9744
▁117	-11.9745
▁kraków	-11.9746
bara	-11.9748
â	-11.9749
▁cubs	-11.9749
▁browns	-11.975
kari	-11.9751
▁yar	-11.9752
▁moist	-11.9754
▁dramas	-11.9754
▁truly	-11.9758
▁licensing	-11.9758
dead	-11.9759
punk	-11.976
▁offense	-11.9761
▁fraternity	-11.9762
dev	-11.9763
▁cock	-11.9764
▁havana	-11.9766
▁stack	-11.9766
▁landowner	-11.9766
▁weaver	-11.9766
▁cartoons	-11.9769
▁reliable	-11.9772
▁ó	-11.9773
▁augustine	-11.9773
oda	-11.9774
som	-11.9775
▁subdistrict	-11.9776
▁nicaragua	-11.9776
▁reelected	-11.9777
▁elena	-11.9777
▁1887.	-11.9778
▁keeps	-11.9779
▁jing	-11.9782
▁musik	-11.9783
▁niger	-11.9787
▁1892.	-11.9788
▁hatch	-11.979
▁corpus	-11.9791
▁manning	-11.9791
tten	-11.9791
ardi	-11.9792
lady	-11.9792
wala	-11.9794
eira	-11.9795
▁reward	-11.9796
aries	-11.9797
chicago	-11.9798
▁hardcore	-11.9799
▁imposed	-11.9801
▁borne	-11.9803
nate	-11.9803
▁lowe	-11.9803
▁2:	-11.9805
▁oaks	-11.9805
▁shankar	-11.9806
jer	-11.9808
igh	-11.9809
▁mesa	-11.9811
drums	-11.9813
▁ngo	-11.9813
▁lined	-11.9813
▁brasil	-11.9813
ike	-11.9814
owner	-11.9815
▁handful	-11.9817
very	-11.9818
▁searching	-11.9818
ias	-11.9819
▁stevenson	-11.982
▁knife	-11.982
chel	-11.9821
▁congressman	-11.9822
other	-11.9822
▁amanda	-11.9822
▁adjunct	-11.9825
▁middleweight	-11.9827
quest	-11.983
dad	-11.9831
▁dominion	-11.9831
▁desk	-11.9831
▁lexington	-11.9833
▁chung	-11.9835
frame	-11.9836
▁penny	-11.9839
▁chord	-11.9839
▁funny	-11.9839
tl	-11.984
australian	-11.984
▁cake	-11.9841
latin	-11.9841
▁fatal	-11.9841
[...]
