[PAD]	0
[UNK]	0
[CLS]	0
[SEP]	0
[MASK]	0
▁the	-3.05995
.	-3.23708
,	-3.40247
s	-3.46062
▁in	-3.77162
▁of	-3.77245
▁and	-3.94097
▁a	-4.03608
▁to	-4.40846
▁was	-4.60581
▁is	-4.77288
-	-4.94903
▁"	-4.98331
▁	-4.98412
▁he	-5.12604
▁for	-5.12876
▁on	-5.1316
▁as	-5.26564
▁by	-5.31848
"	-5.31982
'	-5.34875
▁with	-5.38718
▁(	-5.39942
▁at	-5.41422
ed	-5.52867
▁from	-5.56204
▁it	-5.60124
)	-5.64523
ing	-5.6603
d	-5.67471
▁his	-5.67975
▁an	-5.76113
e	-5.7633
a	-5.88149
▁that	-5.96568
t	-6.04291
y	-6.12195
n	-6.13108
er	-6.13801
i	-6.17342
o	-6.24896
c	-6.28534
ly	-6.28627
▁were	-6.29146
:	-6.30382
▁are	-6.33003
▁she	-6.33331
▁which	-6.33579
▁has	-6.33999
▁also	-6.34853
▁first	-6.38524
▁be	-6.40485
th	-6.4133
m	-6.4687
;	-6.49583
al	-6.50413
r	-6.52174
▁or	-6.56057
k	-6.57706
▁this	-6.57951
▁her	-6.58491
in	-6.59786
▁new	-6.61999
▁after	-6.63694
▁de	-6.6379
▁had	-6.65229
▁one	-6.65441
▁who	-6.67176
es	-6.68281
▁re	-6.70222
▁its	-6.73666
▁two	-6.76713
g	-6.7728
p	-6.80648
",	-6.81715
l	-6.81856
b	-6.83776
▁their	-6.87186
▁but	-6.88843
h	-6.94496
the	-6.96996
),	-6.97032
▁school	-6.97099
".	-6.97758
an	-6.98084
▁may	-7.0119
or	-7.01476
▁university	-7.02104
▁been	-7.02323
).	-7.04279
f	-7.04315
u	-7.04395
en	-7.04602
▁all	-7.05767
re	-7.07096
▁national	-7.07699
▁not	-7.0786
▁during	-7.08148
le	-7.08347
▁have	-7.11076
▁they	-7.12112
▁other	-7.1558
na	-7.16331
▁season	-7.16834
▁film	-7.17698
w	-7.18598
▁team	-7.18714
▁career	-7.19808
on	-7.20511
▁1	-7.20521
la	-7.21457
man	-7.2191
▁there	-7.23298
▁18	-7.23524
▁co	-7.23553
▁over	-7.23647
▁years	-7.23994
▁when	-7.24349
▁world	-7.25506
z	-7.26001
us	-7.26358
▁where	-7.26374
to	-7.26542
de	-7.2694
▁under	-7.27285
▁district	-7.27298
▁state	-7.27332
▁part	-7.28037
▁time	-7.28159
ma	-7.28684
▁m	-7.29222
ne	-7.2957
▁south	-7.30534
ta	-7.31011
%	-7.31182
▁known	-7.313
▁city	-7.31987
▁american	-7.33491
▁i	-7.3376
▁into	-7.339
▁played	-7.347
ra	-7.34719
▁family	-7.35016
▁up	-7.35469
▁2	-7.35546
▁no	-7.36474
▁united	-7.36626
▁three	-7.36865
▁year	-7.3688
x	-7.37143
ar	-7.3766
▁b	-7.38184
st	-7.38789
▁later	-7.39194
▁history	-7.39729
▁c	-7.41204
v	-7.41665
▁s	-7.41971
▁made	-7.4226
▁second	-7.42395
▁league	-7.42916
▁between	-7.43042
ro	-7.43061
ton	-7.43558
is	-7.43634
▁st	-7.43718
▁e	-7.43987
▁became	-7.44164
te	-7.44181
▁out	-7.44686
▁north	-7.4572
▁album	-7.46199
▁life	-7.4626
/	-7.46859
ers	-7.47696
▁3	-7.47874
▁name	-7.48224
▁born	-7.48239
▁club	-7.49191
born	-7.49702
▁d	-7.49887
ic	-7.50256
▁county	-7.50889
▁can	-7.51049
▁won	-7.51862
▁u	-7.52498
▁war	-7.52807
▁more	-7.53435
▁la	-7.53463
▁17	-7.54361
▁only	-7.55996
▁located	-7.56055
▁k	-7.56862
▁g	-7.56924
▁most	-7.57171
▁states	-7.57224
▁about	-7.57651
▁member	-7.57699
ry	-7.5822
▁released	-7.58267
▁music	-7.58581
il	-7.59163
▁–	-7.59317
ia	-7.60188
▁until	-7.60711
li	-7.60842
▁work	-7.62007
ri	-7.62847
▁village	-7.6299
▁college	-7.63221
▁area	-7.63583
▁early	-7.63866
▁football	-7.63877
▁group	-7.64294
▁following	-7.6462
el	-7.64727
amp	-7.64949
▁including	-7.6512
ation	-7.65458
it	-7.66604
▁well	-7.66749
da	-7.6701
▁o	-7.67299
▁before	-7.67688
▁then	-7.68403
▁station	-7.68564
▁march	-7.6894
▁people	-7.69094
j	-7.69212
▁series	-7.69368
▁used	-7.69642
▁some	-7.69664
▁company	-7.69712
▁high	-7.69743
▁house	-7.69999
▁since	-7.70198
▁p	-7.70667
▁con	-7.70911
▁population	-7.71427
ist	-7.71983
▁al	-7.72082
▁4	-7.72107
▁august	-7.72164
son	-7.72484
▁january	-7.72705
▁while	-7.72905
▁served	-7.72956
co	-7.73183
▁international	-7.73547
▁west	-7.74156
ian	-7.75113
ch	-7.75385
▁species	-7.75467
▁16	-7.75718
ke	-7.76582
▁four	-7.7662
▁so	-7.76642
▁town	-7.7674
▁age	-7.76795
ca	-7.76871
▁september	-7.76896
▁him	-7.77088
lo	-7.7713
▁july	-7.77443
go	-7.77695
se	-7.78019
am	-7.78234
▁through	-7.78299
▁june	-7.78379
▁sa	-7.78475
ti	-7.79171
▁na	-7.79203
at	-7.79227
▁october	-7.79599
▁against	-7.79942
▁being	-7.8013
▁many	-7.80165
mo	-7.80636
ck	-7.80906
▁both	-7.81012
▁6	-7.81182
ha	-7.8145
▁would	-7.81569
ur	-7.81631
▁un	-7.81918
▁april	-7.81984
▁such	-7.82035
no	-7.82421
ga	-7.82481
ion	-7.8252
▁number	-7.82593
ine	-7.82604
▁5	-7.82949
land	-7.82959
▁november	-7.83099
▁f	-7.83117
▁mo	-7.83144
▁per	-7.83473
▁band	-7.83958
▁river	-7.84391
▁do	-7.84441
▁held	-7.84441
–	-7.84661
ul	-7.84915
▁december	-7.85089
me	-7.85216
2	-7.85925
ce	-7.85982
▁song	-7.86421
ba	-7.86453
▁&	-7.8712
▁home	-7.87205
▁named	-7.87686
be	-7.87854
▁former	-7.87944
▁w	-7.8871
▁than	-7.89142
▁10	-7.89736
▁john	-7.90126
ka	-7.90179
di	-7.90395
▁end	-7.9045
▁church	-7.90511
▁east	-7.91002
▁t	-7.91019
▁several	-7.91056
um	-7.91094
▁15	-7.91271
et	-7.91777
▁(19	-7.91895
▁line	-7.92108
▁place	-7.92508
▁le	-7.92738
▁february	-7.93536
as	-7.94549
▁found	-7.94598
un	-7.95194
▁man	-7.95561
ge	-7.95622
ate	-7.95818
3	-7.96147
▁r	-7.96244
▁best	-7.97256
do	-7.97276
▁died	-7.97317
ment	-7.97734
▁me	-7.97845
▁york	-7.97915
▁women	-7.98114
▁park	-7.98339
ter	-7.99087
▁7	-7.99331
▁car	-7.99336
▁party	-7.99357
▁h	-7.99723
▁game	-7.9975
id	-7.99821
ni	-7.99885
1	-7.99885
sh	-8.00309
▁division	-8.00593
▁will	-8.0094
▁ma	-8.0165
ity	-8.0174
▁ba	-8.01755
▁pro	-8.02018
▁n	-8.02306
▁pre	-8.02382
▁local	-8.02641
▁son	-8.02656
▁called	-8.0293
▁government	-8.03256
▁single	-8.03288
▁general	-8.03399
▁long	-8.03782
va	-8.03821
▁final	-8.03831
▁v	-8.04001
▁vi	-8.04019
ley	-8.04338
&	-8.04534
▁12	-8.04542
▁ca	-8.04802
▁received	-8.04809
ve	-8.05176
▁built	-8.05449
ir	-8.05695
nd	-8.05699
pa	-8.06323
▁games	-8.06493
▁professional	-8.06692
▁public	-8.06895
lt	-8.06946
sa	-8.07108
▁began	-8.07248
▁building	-8.07742
▁l	-8.07924
’	-8.0797
▁director	-8.08153
▁published	-8.08219
▁each	-8.08288
▁mar	-8.08443
▁men	-8.08718
▁these	-8.08832
é	-8.08875
▁same	-8.09158
▁refer	-8.10149
▁8	-8.10457
▁se	-8.10906
▁however	-8.11249
▁head	-8.11274
▁art	-8.11793
▁road	-8.11856
▁british	-8.12101
▁cup	-8.12124
▁include	-8.12152
▁ha	-8.12233
▁ar	-8.12491
4	-8.12911
▁president	-8.13209
▁took	-8.13209
▁show	-8.13235
▁ka	-8.1348
age	-8.13674
▁based	-8.13751
▁award	-8.14363
▁san	-8.14633
ty	-8.14659
▁play	-8.14792
▁education	-8.15002
▁service	-8.15193
6	-8.15394
▁bo	-8.15871
ll	-8.16031
vi	-8.16318
ie	-8.16485
8	-8.16694
▁go	-8.16881
▁main	-8.16944
▁back	-8.16956
▁9	-8.17057
ent	-8.17224
▁j	-8.1746
▁ta	-8.18062
▁20	-8.18824
▁book	-8.18913
ci	-8.19079
▁death	-8.19155
▁championship	-8.19228
▁14	-8.19415
▁post	-8.19505
▁di	-8.20452
▁water	-8.20596
wa	-8.21339
▁round	-8.21708
▁player	-8.22524
▁council	-8.2264
▁air	-8.23112
▁five	-8.23288
▁ro	-8.23305
▁moved	-8.23374
▁married	-8.23551
▁day	-8.23561
▁13	-8.23709
▁land	-8.239
▁small	-8.24165
▁now	-8.24472
▁top	-8.24535
▁children	-8.24664
▁11	-8.24877
ko	-8.24932
▁third	-8.25018
▁ra	-8.2514
ant	-8.25181
▁central	-8.25255
hi	-8.25475
▁list	-8.25915
ted	-8.26143
▁along	-8.2616
mi	-8.26393
▁side	-8.26674
▁around	-8.26754
pe	-8.26885
▁law	-8.26933
▁su	-8.2695
▁research	-8.27415
▁worked	-8.27587
▁()	-8.27745
▁last	-8.27853
▁due	-8.27881
▁english	-8.27914
9	-8.28966
▁election	-8.29183
5	-8.29239
▁-	-8.29733
▁debut	-8.29912
▁li	-8.2992
▁center	-8.29968
▁title	-8.30086
▁lo	-8.30145
ad	-8.30329
bi	-8.3035
im	-8.30371
▁court	-8.30631
ho	-8.30705
▁en	-8.30826
▁joined	-8.31109
▁set	-8.31488
ja	-8.31493
▁major	-8.31566
up	-8.3166
ut	-8.31894
ol	-8.31943
▁association	-8.32109
▁system	-8.3244
bo	-8.32447
▁community	-8.32473
▁members	-8.32514
ated	-8.32564
▁london	-8.32843
▁left	-8.3301
der	-8.33016
▁summer	-8.33288
▁province	-8.33511
com	-8.33945
▁da	-8.34409
▁census	-8.34672
▁french	-8.34838
▁record	-8.35156
▁german	-8.35165
he	-8.35194
▁father	-8.35316
able	-8.35478
ive	-8.35909
▁near	-8.36059
▁century	-8.36102
ner	-8.36164
ver	-8.36472
den	-8.3649
▁("	-8.36744
7	-8.3704
")	-8.37142
▁dis	-8.37308
▁included	-8.37391
▁region	-8.37444
ous	-8.37843
▁within	-8.37946
▁them	-8.37984
▁country	-8.38336
▁'	-8.38472
▁island	-8.38531
▁founded	-8.38602
▁use	-8.38771
▁started	-8.38935
tic	-8.39662
▁television	-8.39742
▁order	-8.39844
▁elected	-8.40041
▁department	-8.40112
▁development	-8.40598
con	-8.40662
▁tournament	-8.40679
ies	-8.40744
ling	-8.40763
ya	-8.41174
ki	-8.41334
▁fa	-8.41607
▁lu	-8.4172
▁like	-8.4184
way	-8.41854
▁total	-8.41879
▁white	-8.41946
▁pe	-8.42019
po	-8.42056
▁railway	-8.42105
▁short	-8.42335
▁fi	-8.42378
▁el	-8.42623
▁established	-8.42796
os	-8.4283
▁king	-8.43052
▁event	-8.4326
▁po	-8.43784
▁rock	-8.43833
▁ii	-8.4387
▁described	-8.43913
▁black	-8.43985
▁according	-8.44049
▁bi	-8.44386
▁ga	-8.44737
min	-8.44742
▁six	-8.44849
▁ho	-8.44864
ny	-8.4495
gt	-8.44988
ber	-8.45017
▁bar	-8.4512
▁du	-8.45184
▁ne	-8.45323
▁union	-8.45403
ler	-8.4551
▁street	-8.46652
▁office	-8.46694
ish	-8.46797
▁pa	-8.46827
▁old	-8.47458
0	-8.47502
ary	-8.47526
▁england	-8.47873
▁lake	-8.47916
▁works	-8.47964
men	-8.48344
ac	-8.49055
br	-8.49065
▁sea	-8.49389
▁appointed	-8.49495
▁ko	-8.49858
▁us	-8.49953
vo	-8.50332
ff	-8.50367
za	-8.50545
ting	-8.50586
▁own	-8.50603
▁did	-8.50682
▁any	-8.50805
▁india	-8.50989
▁board	-8.51058
▁19	-8.51074
▁race	-8.51222
▁western	-8.51456
▁royal	-8.5146
one	-8.51523
per	-8.51841
▁australia	-8.52046
ot	-8.5246
hu	-8.52545
ts	-8.52603
▁business	-8.52743
ster	-8.5278
▁large	-8.52926
▁ten	-8.5296
▁non	-8.53121
▁red	-8.53127
▁design	-8.53169
lin	-8.5322
▁written	-8.53259
▁present	-8.53404
▁produced	-8.53432
▁ni	-8.53488
q	-8.53589
▁currently	-8.53793
▁army	-8.5381
▁2010	-8.53821
▁radio	-8.54228
mon	-8.54341
▁france	-8.54444
▁25	-8.54504
ak	-8.54515
▁video	-8.54528
000	-8.54534
▁sub	-8.54573
▁went	-8.54685
▁playing	-8.55185
▁original	-8.55246
ang	-8.55274
ger	-8.55401
▁hall	-8.5559
▁great	-8.55899
▁coach	-8.56235
▁teams	-8.56269
▁another	-8.56474
au	-8.5655
▁down	-8.56561
▁role	-8.56643
▁william	-8.56656
▁win	-8.56902
▁2011	-8.56904
que	-8.57138
▁site	-8.5728
ville	-8.57352
pi	-8.57395
▁off	-8.57438
gu	-8.57492
▁late	-8.57502
▁northern	-8.57784
▁we	-8.57829
▁minister	-8.57847
lu	-8.57897
▁awards	-8.58079
che	-8.58105
▁times	-8.58139
▁society	-8.5815
▁production	-8.58162
▁signed	-8.58208
▁ja	-8.5825
▁professor	-8.58311
▁period	-8.58348
▁among	-8.58668
gi	-8.58844
▁came	-8.58844
▁inter	-8.58931
ud	-8.59155
▁gu	-8.5947
we	-8.59481
▁political	-8.59873
▁2006	-8.60079
▁track	-8.60293
ham	-8.6052
▁bank	-8.60645
▁led	-8.60652
▁just	-8.60826
and	-8.60858
▁because	-8.60992
ru	-8.61081
mar	-8.61168
tor	-8.61196
▁medal	-8.61291
om	-8.61509
▁average	-8.61679
▁museum	-8.61814
▁personal	-8.61848
▁project	-8.61868
op	-8.62179
▁open	-8.62211
mp	-8.62232
▁live	-8.62238
io	-8.62335
▁100	-8.62421
▁field	-8.62562
ina	-8.62601
▁california	-8.62757
▁created	-8.62957
▁recorded	-8.62977
▁power	-8.62977
▁indian	-8.63092
▁festival	-8.6326
▁degree	-8.63338
▁institute	-8.63361
ism	-8.63562
▁30	-8.63643
▁european	-8.64107
▁2012	-8.64221
▁different	-8.64244
▁cha	-8.6435
▁southern	-8.64366
▁support	-8.64414
by	-8.6446
▁km	-8.6455
▁living	-8.64825
gen	-8.64843
á	-8.65115
▁mi	-8.65131
▁australian	-8.65281
▁te	-8.65292
▁returned	-8.65393
▁1,	-8.65401
▁become	-8.65452
▁george	-8.65574
▁style	-8.65574
▁various	-8.65578
ard	-8.65616
▁those	-8.65724
▁sc	-8.65759
▁announced	-8.65809
ana	-8.66152
▁if	-8.66421
▁competition	-8.66479
▁young	-8.66562
▁har	-8.66595
▁still	-8.66629
ah	-8.66782
▁release	-8.66829
les	-8.66899
▁every	-8.66939
▁records	-8.66956
▁program	-8.67295
▁again	-8.67326
rd	-8.67634
▁special	-8.6771
▁canada	-8.67962
▁green	-8.68106
▁route	-8.68624
ku	-8.68736
▁directed	-8.69117
▁very	-8.69149
▁form	-8.69159
▁although	-8.69197
fa	-8.69237
▁my	-8.6932
ng	-8.69333
▁ri	-8.69439
▁free	-8.69442
▁match	-8.69769
▁academy	-8.6983
▁opened	-8.69837
▁together	-8.69979
▁daughter	-8.70242
▁hu	-8.70275
▁science	-8.70711
chi	-8.70731
▁2014	-8.70888
▁competed	-8.70967
em	-8.71032
▁championships	-8.71078
▁stage	-8.71169
field	-8.71266
time	-8.71402
ten	-8.71523
▁point	-8.71735
▁1990	-8.71926
▁position	-8.72191
▁2016	-8.7221
▁tu	-8.72316
▁wife	-8.7234
ance	-8.72449
ai	-8.7274
fi	-8.72747
▁full	-8.73002
od	-8.73141
▁million	-8.73165
▁tour	-8.73174
▁having	-8.73227
▁24	-8.73754
▁appeared	-8.73839
▁centre	-8.73886
▁america	-8.73906
si	-8.73928
▁military	-8.74043
▁bre	-8.74057
▁historic	-8.74129
▁light	-8.74156
lan	-8.74178
ex	-8.74251
▁pi	-8.74341
▁rural	-8.74357
▁run	-8.74451
▁wa	-8.74482
▁2015	-8.74609
mer	-8.74847
▁gold	-8.74872
gan	-8.74872
▁committee	-8.7489
mb	-8.7492
▁author	-8.75053
▁grand	-8.75185
▁given	-8.75202
▁james	-8.75383
▁way	-8.75489
▁could	-8.75919
line	-8.75932
▁x	-8.76
▁olympics	-8.76036
▁2013	-8.76132
side	-8.76221
10	-8.76265
▁originally	-8.76354
ized	-8.76363
▁ru	-8.76523
▁wrote	-8.76863
▁students	-8.76989
▁mc	-8.77017
ron	-8.77043
har	-8.77207
year	-8.77315
▁chief	-8.77507
▁wi	-8.77715
▁robert	-8.77864
▁services	-8.77963
▁sp	-8.77972
ow	-8.78081
▁level	-8.78201
▁super	-8.78396
▁senior	-8.78457
▁(18	-8.78595
▁awarded	-8.78905
▁magazine	-8.78981
ite	-8.78986
dy	-8.7901
▁genus	-8.79083
▁ex	-8.79172
▁1980	-8.79193
▁finished	-8.79257
idae	-8.79267
ology	-8.79303
▁sch	-8.79353
tra	-8.79404
ach	-8.79545
ven	-8.79551
▁21	-8.79599
▁municipality	-8.79663
▁said	-8.7983
du	-8.80117
▁working	-8.8023
▁events	-8.80334
▁social	-8.80479
rs	-8.80719
▁mid	-8.80791
▁version	-8.80806
▁am	-8.80807
▁studio	-8.81146
▁make	-8.81235
bu	-8.81424
▁germany	-8.81439
▁sta	-8.81553
▁cor	-8.81831
▁next	-8.81904
est	-8.81961
▁arts	-8.82128
tal	-8.82201
ran	-8.82383
▁bay	-8.8245
▁22	-8.8272
-19	-8.82755
ong	-8.82815
▁2018	-8.82852
ford	-8.82966
▁comp	-8.83315
ating	-8.83355
▁dr	-8.83376
▁formed	-8.83626
▁popular	-8.83665
tro	-8.83685
▁seven	-8.83729
▁plays	-8.83883
ze	-8.83907
▁official	-8.83916
▁ch	-8.84002
ness	-8.84181
▁conference	-8.84202
wi	-8.84204
▁often	-8.8421
ence	-8.84248
▁story	-8.84282
▁2017	-8.84395
▁paul	-8.84458
▁brother	-8.84504
▁hi	-8.84547
▁2009	-8.84557
▁cross	-8.84583
▁listed	-8.84601
▁current	-8.84782
ward	-8.84936
▁lead	-8.85248
▁lost	-8.85301
ig	-8.8536
▁star	-8.85431
▁good	-8.85444
▁biography	-8.85501
▁z	-8.85511
▁represented	-8.85703
▁canadian	-8.85869
han	-8.86151
▁novel	-8.86235
▁ran	-8.86536
00	-8.86607
▁bra	-8.86661
▁hospital	-8.86725
cha	-8.8685
▁songs	-8.86904
▁master	-8.87105
▁love	-8.87209
▁class	-8.87299
▁few	-8.873
▁2008	-8.87394
▁si	-8.8746
▁families	-8.87567
zi	-8.87634
▁politician	-8.87675
▁23	-8.88059
▁2019	-8.88285
–19	-8.88313
▁media	-8.88325
val	-8.88352
▁che	-8.88624
ier	-8.88636
▁fire	-8.88637
▁contract	-8.88697
▁range	-8.88768
sen	-8.89177
20	-8.89201
▁common	-8.89212
tu	-8.89271
ov	-8.89504
▁construction	-8.89562
▁assembly	-8.89641
▁hand	-8.89742
ik	-8.89978
je	-8.90043
▁sports	-8.90062
▁human	-8.90065
ft	-8.90136
▁you	-8.90138
ium	-8.90296
▁much	-8.90324
▁saint	-8.90362
▁port	-8.90972
ding	-8.91054
▁italian	-8.91207
▁artist	-8.91294
ities	-8.91358
▁half	-8.9147
▁ver	-8.91488
▁term	-8.91723
▁ju	-8.91737
▁hill	-8.91763
▁attended	-8.91772
▁singer	-8.91855
▁2000	-8.91891
▁ti	-8.91912
▁brown	-8.91912
▁network	-8.91921
▁china	-8.91995
▁chi	-8.92021
▁studied	-8.92033
▁eastern	-8.92084
▁1970	-8.92371
▁features	-8.92381
don	-8.92459
▁bridge	-8.92511
car	-8.92626
▁mother	-8.92901
less	-8.92988
▁far	-8.93047
▁what	-8.93107
tan	-8.93108
▁va	-8.93206
▁japan	-8.93304
pp	-8.93371
▁section	-8.93373
▁2007	-8.9338
kin	-8.93394
▁david	-8.93608
▁players	-8.93645
▁health	-8.93732
▁language	-8.93784
shi	-8.94262
▁notable	-8.94437
▁points	-8.94489
port	-8.94567
▁y	-8.94619
▁similar	-8.94654
ally	-8.94655
▁right	-8.9491
▁designed	-8.95114
▁take	-8.95137
▁mark	-8.95172
▁studies	-8.95269
▁mu	-8.95288
▁basketball	-8.95381
▁eight	-8.95425
▁act	-8.9549
fl	-8.9554
▁1992	-8.95574
ung	-8.95653
▁middle	-8.95671
▁using	-8.95724
▁private	-8.95864
▁sun	-8.95865
▁edition	-8.95927
▁sold	-8.96121
ical	-8.96313
▁26	-8.96315
qui	-8.96426
ab	-8.96463
tt	-8.96502
▁further	-8.96622
▁completed	-8.96664
▁ground	-8.96809
▁jo	-8.96934
all	-8.97031
▁tri	-8.97118
▁modern	-8.97125
▁sha	-8.97145
▁books	-8.97267
▁charles	-8.97401
▁battle	-8.97426
ice	-8.97485
▁28	-8.97736
▁chart	-8.97742
ap	-8.97839
gar	-8.9786
▁base	-8.97947
ther	-8.98236
▁formula	-8.98426
▁1995	-8.98629
▁thomas	-8.98653
berg	-8.98669
▁includes	-8.98674
▁see	-8.98692
▁1994	-8.98742
▁th	-8.98918
▁performed	-8.99139
▁continued	-8.99229
ise	-8.99245
▁independent	-8.99315
kh	-8.99387
▁governor	-8.99423
▁coast	-8.99558
▁mountain	-8.99683
und	-8.997
ji	-8.99703
if	-8.99715
▁seat	-8.99722
▁ke	-8.99726
▁tv	-8.99763
▁footballer	-8.99843
▁civil	-8.99856
▁township	-8.99889
ag	-8.99938
▁cast	-8.99952
▁addition	-9.00116
▁27	-9.00596
▁parliament	-9.00628
▁republic	-9.00664
ps	-9.00789
ide	-9.00861
▁1960	-9.00939
▁featured	-9.01008
▁forest	-9.01062
pt	-9.01114
sion	-9.01125
▁space	-9.01133
▁african	-9.01367
▁process	-9.01445
▁theatre	-9.01664
▁front	-9.01794
ek	-9.01833
▁test	-9.01931
nes	-9.02113
▁native	-9.02199
▁van	-9.02209
out	-9.02371
▁bur	-9.02457
day	-9.02479
▁wood	-9.02508
▁plant	-9.02563
ph	-9.02578
▁training	-9.02618
van	-9.031
▁par	-9.03209
▁control	-9.03259
▁capital	-9.03393
ial	-9.03443
ct	-9.03681
▁uk	-9.03738
ö	-9.03813
▁actor	-9.03831
▁considered	-9.03886
▁matches	-9.04223
nt	-9.0424
ney	-9.04424
▁$	-9.04555
▁russian	-9.04584
her	-9.04594
ill	-9.04691
▁don	-9.04694
▁pan	-9.04702
▁ob	-9.04715
▁gra	-9.04865
mit	-9.04909
ure	-9.04933
▁semi	-9.04954
▁fourth	-9.05007
▁washington	-9.05013
▁anti	-9.05036
▁host	-9.05047
▁female	-9.05096
▁organization	-9.05163
ring	-9.05224
pro	-9.05245
ell	-9.05293
▁1993	-9.05299
”	-9.05402
ey	-9.05473
▁force	-9.05477
▁close	-9.05769
tion	-9.0579
▁square	-9.05872
▁developed	-9.05959
▁trade	-9.06052
fe	-9.06056
▁making	-9.06086
▁real	-9.06202
▁valley	-9.06229
▁1991	-9.0644
ning	-9.06508
▁japanese	-9.0656
▁graduated	-9.06584
▁africa	-9.06832
▁europe	-9.07433
▁fe	-9.0751
▁performance	-9.0753
▁days	-9.07594
▁parish	-9.07688
▁active	-9.07801
▁los	-9.07835
▁bishop	-9.07883
my	-9.07948
jo	-9.07994
▁zealand	-9.08176
▁2004	-9.08211
ju	-9.0825
gue	-9.08395
over	-9.08496
ful	-9.08694
▁review	-9.08802
▁youth	-9.08867
▁regional	-9.08931
cy	-9.08996
ath	-9.09008
red	-9.09026
▁command	-9.0976
▁ship	-9.09955
so	-9.09962
▁retired	-9.10039
▁across	-9.10128
▁ben	-9.10169
king	-9.1017
bar	-9.10303
▁1996	-9.10367
▁ad	-9.10611
50	-9.10644
▁paris	-9.10688
lic	-9.10698
ker	-9.10731
▁important	-9.10997
▁interest	-9.11153
▁night	-9.11268
▁even	-9.11296
▁medical	-9.11297
▁size	-9.11314
well	-9.11412
▁prior	-9.11425
▁once	-9.11452
▁ci	-9.11476
▁29	-9.11483
▁“	-9.11537
▁1988	-9.11566
12	-9.11574
▁1998	-9.11625
▁christian	-9.11744
ü	-9.11876
shire	-9.11913
row	-9.11991
▁without	-9.11995
▁mon	-9.12044
▁writing	-9.12064
of	-9.122
▁market	-9.12244
▁officer	-9.12244
▁2005	-9.12293
▁ku	-9.12465
wood	-9.12491
▁kingdom	-9.12624
▁para	-9.12637
▁foundation	-9.12637
▁mac	-9.12643
▁peter	-9.1266
▁pu	-9.12709
▁collection	-9.12735
▁police	-9.12803
su	-9.12816
▁2020	-9.12868
▁0	-9.1289
▁writer	-9.12942
tre	-9.12997
▁campaign	-9.13129
pur	-9.13215
▁model	-9.13302
▁body	-9.1333
▁previously	-9.13484
▁travel	-9.13719
ves	-9.13899
ship	-9.13946
▁success	-9.14144
▁ph	-9.14206
▁owned	-9.14321
▁cal	-9.14339
ez	-9.14357
tri	-9.14391
des	-9.1444
▁little	-9.14505
▁border	-9.14558
▁1989	-9.14688
▁farm	-9.14715
▁channel	-9.14803
▁regular	-9.14838
▁manager	-9.14981
▁big	-9.15063
▁trans	-9.15184
▁films	-9.15303
▁information	-9.15304
▁results	-9.15449
▁leading	-9.15483
ita	-9.15516
▁turn	-9.15614
30	-9.15652
ay	-9.15789
▁result	-9.15834
▁app	-9.15874
▁hit	-9.15932
▁bu	-9.15944
14	-9.16023
ura	-9.16064
▁winning	-9.16131
▁largest	-9.16307
ou	-9.16337
▁junior	-9.16477
ā	-9.16504
▁camp	-9.16598
▁gar	-9.16629
▁commission	-9.16695
▁management	-9.16712
gg	-9.16783
sta	-9.16832
▁sister	-9.16834
▁prize	-9.17053
▁technology	-9.17162
▁roman	-9.17239
▁pen	-9.17374
▁highway	-9.17416
▁description	-9.17498
▁1997	-9.17528
off	-9.17568
▁mary	-9.17749
▁gi	-9.17778
bb	-9.17915
▁upon	-9.1794
▁surname	-9.17993
▁ice	-9.18019
ino	-9.18138
▁approximately	-9.18172
fer	-9.182
▁standard	-9.18207
▁study	-9.18228
▁cap	-9.18229
for	-9.18258
▁editor	-9.18351
▁staff	-9.18451
▁places	-9.1846
▁scored	-9.18468
▁spanish	-9.18541
lia	-9.18553
▁wide	-9.18619
▁return	-9.18684
í	-9.18687
11	-9.18705
▁get	-9.18737
▁za	-9.18784
▁available	-9.18985
13	-9.19071
▁low	-9.19082
▁texas	-9.19202
▁case	-9.19237
ev	-9.19249
can	-9.19259
▁commercial	-9.1939
▁remained	-9.19413
▁throughout	-9.19475
▁sound	-9.19476
▁em	-9.19488
▁del	-9.19554
▁practice	-9.19688
▁tra	-9.19773
uk	-9.19806
▁away	-9.19906
▁sir	-9.1994
▁areas	-9.20048
▁though	-9.20082
▁selected	-9.2022
▁hockey	-9.20436
▁background	-9.20458
▁richard	-9.20479
▁federal	-9.20515
▁stone	-9.20558
▁how	-9.20566
15	-9.2059
ee	-9.20659
▁followed	-9.20684
sk	-9.20734
▁ya	-9.20759
▁sal	-9.20831
▁via	-9.20934
▁fellow	-9.20944
ola	-9.20982
ub	-9.21017
▁score	-9.21034
▁lower	-9.21105
▁1987	-9.21247
ep	-9.21281
ius	-9.21315
▁income	-9.21346
▁label	-9.21411
▁1984	-9.21483
▁movement	-9.21558
▁2019,	-9.21683
▁start	-9.21843
▁secretary	-9.21881
▁2018,	-9.21882
▁stra	-9.21899
▁assistant	-9.21916
_	-9.22079
▁ge	-9.22195
ria	-9.22264
gra	-9.2235
▁location	-9.22446
▁singles	-9.22519
▁catholic	-9.22769
▁ireland	-9.22809
sha	-9.2283
ture	-9.22854
▁drama	-9.22935
▁natural	-9.23
▁1986	-9.23047
▁1950	-9.23225
▁producer	-9.2334
cu	-9.23381
▁schools	-9.23476
long	-9.23496
war	-9.23543
▁contains	-9.23604
▁industry	-9.23631
▁executive	-9.23639
▁im	-9.23674
▁rugby	-9.23898
▁gave	-9.24372
▁blue	-9.2439
▁ab	-9.2457
▁henry	-9.24578
▁involved	-9.24592
▁fo	-9.24684
▁type	-9.247
▁primary	-9.2471
▁reception	-9.24812
▁serving	-9.24879
▁fc	-9.24934
▁50	-9.24974
▁2017,	-9.25033
▁replaced	-9.25053
ari	-9.2506
led	-9.25203
▁eventually	-9.25235
ative	-9.25274
▁week	-9.25326
▁spent	-9.25485
▁culture	-9.25498
lam	-9.25591
▁below	-9.25649
▁met	-9.25651
▁louis	-9.257
▁movie	-9.25789
▁structure	-9.25831
▁added	-9.2586
iv	-9.2588
▁michael	-9.25918
▁himself	-9.2598
▁previous	-9.25999
▁wing	-9.26004
▁months	-9.26207
▁ki	-9.26249
ction	-9.26269
▁help	-9.26371
▁2002	-9.26504
▁length	-9.26519
▁older	-9.26536
▁chinese	-9.26554
▁view	-9.26572
▁1985	-9.26918
▁2015,	-9.27009
ug	-9.27034
▁silver	-9.27061
▁unit	-9.27074
ó	-9.27097
▁airport	-9.27135
▁deal	-9.27176
mu	-9.27198
▁journal	-9.27225
mor	-9.27274
▁2016,	-9.27349
form	-9.2738
ip	-9.27386
▁rest	-9.27564
▁champion	-9.27651
(	-9.27755
▁musical	-9.27905
sco	-9.27907
▁husband	-9.27934
▁ever	-9.28006
▁median	-9.28027
▁cur	-9.28128
house	-9.28376
▁2003	-9.28502
ea	-9.28503
▁placed	-9.28567
▁castle	-9.28635
▁never	-9.2864
▁broadcast	-9.28764
xi	-9.28817
ations	-9.28826
▁ce	-9.28885
▁plot	-9.28901
▁stadium	-9.2893
▁taken	-9.28988
▁action	-9.29041
tch	-9.29063
tain	-9.29181
25	-9.29267
▁2001	-9.29318
19	-9.29329
▁italy	-9.29418
▁65	-9.29449
▁earned	-9.29461
ok	-9.29486
▁runs	-9.29509
▁captain	-9.29564
gon	-9.29733
▁today	-9.29913
ä	-9.29916
▁geography	-9.29927
▁2014,	-9.29989
▁character	-9.30058
▁bill	-9.30068
▁library	-9.30078
▁reached	-9.30175
▁1983	-9.30214
▁reserve	-9.30298
▁31	-9.30304
▁above	-9.30375
▁smith	-9.30421
▁leader	-9.30425
▁put	-9.30476
▁reported	-9.30481
▁dan	-9.30519
▁navy	-9.3054
ix	-9.30552
▁settlement	-9.30584
tz	-9.30594
▁newspaper	-9.30744
▁mill	-9.30851
ō	-9.30855
▁wales	-9.31143
▁less	-9.31153
▁others	-9.31172
yl	-9.31219
▁vice	-9.31253
end	-9.3126
▁defeated	-9.31269
▁traditional	-9.3127
▁call	-9.31393
▁press	-9.31529
▁elections	-9.31531
▁nine	-9.31544
ese	-9.31603
▁pra	-9.3164
▁1982	-9.31646
▁annual	-9.31725
▁vo	-9.31726
▁artists	-9.31751
▁strong	-9.31799
▁bus	-9.31807
▁er	-9.31823
▁je	-9.31866
▁administrative	-9.3189
mal	-9.32043
sch	-9.3211
oc	-9.32156
▁queen	-9.32205
▁russia	-9.32265
▁goal	-9.32324
▁train	-9.3233
▁1972	-9.32373
ator	-9.32729
▁!	-9.32856
▁mayor	-9.32894
▁lived	-9.32906
▁register	-9.33005
▁winter	-9.33196
▁brand	-9.33216
▁democratic	-9.33299
bil	-9.33365
old	-9.33397
▁creek	-9.33514
▁chairman	-9.33518
▁attack	-9.3353
uch	-9.33565
▁households	-9.33618
ye	-9.33646
▁40	-9.33659
—	-9.33691
din	-9.33698
▁does	-9.33808
▁buildings	-9.33884
▁2013,	-9.33897
▁mexico	-9.34153
▁ball	-9.34154
▁sent	-9.34204
▁woman	-9.34212
▁bla	-9.34249
▁mission	-9.34268
ani	-9.34277
▁bal	-9.34351
▁operated	-9.34411
▁chicago	-9.34433
▁males	-9.34495
▁nu	-9.34642
vin	-9.34665
▁1976	-9.34869
▁child	-9.34964
▁judge	-9.34998
▁ber	-9.35036
▁1979	-9.35043
tter	-9.35086
▁temple	-9.35096
16	-9.35134
low	-9.35134
▁cla	-9.3517
par	-9.35212
▁mount	-9.35295
▁virginia	-9.35403
▁2012,	-9.35455
class	-9.35489
▁cho	-9.35547
▁marine	-9.356
nch	-9.35604
▁countries	-9.35644
ization	-9.35768
▁martin	-9.35894
▁goals	-9.35897
▁shows	-9.35948
ett	-9.35955
ef	-9.35985
▁gun	-9.36294
▁sl	-9.363
ica	-9.36349
ski	-9.36382
▁hard	-9.36492
ara	-9.36504
▁person	-9.3653
▁course	-9.36599
21	-9.36607
▁promoted	-9.36626
ken	-9.36672
iz	-9.36784
tin	-9.36806
▁gene	-9.36859
▁aircraft	-9.36934
▁example	-9.37008
▁edward	-9.37097
▁access	-9.37099
▁2020,	-9.37166
▁closed	-9.37176
▁beginning	-9.37342
▁angeles	-9.37381
▁successful	-9.37468
▁student	-9.37479
▁fall	-9.3748
▁gri	-9.37502
▁min	-9.37607
▁baseball	-9.37624
▁2010,	-9.37643
fin	-9.37647
ec	-9.37733
▁nor	-9.37921
rie	-9.37999
▁consists	-9.38003
▁1999	-9.38055
▁fu	-9.38057
▁2011,	-9.3808
▁engine	-9.38266
nk	-9.38313
▁iran	-9.38392
▁1981	-9.38428
–1	-9.38492
▁1974	-9.38521
▁lord	-9.38524
▁han	-9.38538
▁forces	-9.38627
▁distribution	-9.38687
▁females	-9.3882
▁dar	-9.38822
town	-9.38987
▁appearances	-9.39078
ving	-9.39143
af	-9.39203
60	-9.39207
ini	-9.39222
è	-9.39229
▁qu	-9.39238
▁feature	-9.39289
nce	-9.39334
▁ve	-9.3937
▁changed	-9.39408
▁entered	-9.39462
back	-9.39507
qu	-9.39593
▁experience	-9.39748
▁tro	-9.3975
▁room	-9.3976
▁1978	-9.39866
▁highest	-9.39872
▁historical	-9.39916
▁saw	-9.39935
▁1968	-9.39946
▁ste	-9.40007
80	-9.40012
pri	-9.40415
▁(20	-9.40419
▁cricket	-9.40502
tur	-9.40543
▁ter	-9.40746
▁ly	-9.40794
▁fl	-9.40869
win	-9.41057
pu	-9.41092
▁honor	-9.41189
▁dam	-9.41224
ata	-9.41254
▁boy	-9.41291
▁data	-9.41312
▁usually	-9.41315
let	-9.41388
▁lies	-9.41467
lon	-9.41518
▁sand	-9.41576
new	-9.41584
▁mal	-9.41618
▁text	-9.41631
based	-9.41646
res	-9.41716
▁composed	-9.4173
fo	-9.41731
▁launched	-9.41772
▁academic	-9.41907
▁mer	-9.41915
▁come	-9.42078
▁tower	-9.42119
▁1975	-9.42131
▁hotel	-9.42166
▁origin	-9.42196
▁ser	-9.42205
▁congress	-9.42239
▁subsequently	-9.42327
▁joseph	-9.42335
▁2,	-9.42488
▁color	-9.42569
▁1977	-9.42595
▁famous	-9.42597
▁sam	-9.42712
18	-9.42757
ren	-9.42848
▁individual	-9.42912
gh	-9.42922
▁greek	-9.42959
▁dance	-9.42987
▁1945	-9.42998
▁platform	-9.43047
▁florida	-9.43143
▁administration	-9.43176
▁block	-9.43193
▁spring	-9.43229
▁decided	-9.43237
▁stars	-9.43291
▁rights	-9.43475
▁recording	-9.43557
▁participated	-9.43658
▁multi	-9.43662
▁ram	-9.43662
▁date	-9.43731
▁bro	-9.43786
]	-9.43833
▁bell	-9.43838
▁pop	-9.43934
vis	-9.43934
▁leg	-9.43981
▁engineering	-9.44011
cc	-9.44026
▁garden	-9.4404
▁partner	-9.44047
▁foreign	-9.44059
▁initially	-9.44083
ified	-9.44234
mann	-9.4424
▁got	-9.444
40	-9.44526
pic	-9.4456
▁disc	-9.44561
▁soon	-9.44599
ised	-9.44766
▁moth	-9.44788
▁find	-9.44798
▁1973	-9.4491
▁complex	-9.45029
▁despite	-9.45073
▁format	-9.45086
▁ministry	-9.45152
sky	-9.45181
▁draw	-9.45186
▁break	-9.4522
▁numerous	-9.45276
-20	-9.45406
cus	-9.45457
▁branch	-9.4547
hl	-9.45521
▁whose	-9.45646
west	-9.45678
▁carolina	-9.45735
▁concert	-9.45819
▁prime	-9.45819
▁dark	-9.45882
▁food	-9.45911
▁past	-9.45922
ire	-9.45942
▁minor	-9.46016
east	-9.46034
▁actress	-9.46042
▁heart	-9.46081
▁operations	-9.461
▁mel	-9.46151
▁rose	-9.4617
▁1971	-9.46175
hen	-9.46188
ric	-9.46266
ris	-9.46296
▁mag	-9.46313
▁irish	-9.46402
mes	-9.46419
▁fort	-9.46494
▁sur	-9.46535
our	-9.46673
▁pri	-9.46678
▁estate	-9.46686
hr	-9.46996
eg	-9.4711
▁1930	-9.47162
▁subject	-9.4719
tha	-9.47199
▁should	-9.47215
▁appearance	-9.47229
▁beat	-9.4724
▁spain	-9.47404
▁key	-9.4742
▁provide	-9.47468
▁news	-9.47471
▁os	-9.47558
▁kar	-9.47587
▁must	-9.47678
▁property	-9.47729
ella	-9.47756
▁1969	-9.47845
▁georgia	-9.47865
▁ep	-9.48
▁candidate	-9.48107
▁episode	-9.48148
▁yu	-9.48194
▁seen	-9.48217
▁cut	-9.48237
ash	-9.484
23	-9.4846
▁islands	-9.48539
▁table	-9.48555
▁=	-9.48604
▁least	-9.48658
▁becoming	-9.48761
▁upper	-9.48793
▁units	-9.48803
art	-9.48892
▁1964	-9.48904
▁limited	-9.48967
▁ban	-9.49035
dar	-9.49156
ade	-9.49162
now	-9.49168
og	-9.49171
rt	-9.4932
▁opera	-9.49376
dic	-9.49398
nn	-9.49416
▁significant	-9.49485
0%	-9.49602
▁bri	-9.49657
▁opening	-9.49721
ological	-9.49759
▁whom	-9.49826
▁fair	-9.49929
▁poland	-9.50053
▁running	-9.50079
▁male	-9.50158
▁prince	-9.50275
mis	-9.50493
ual	-9.50592
▁provided	-9.50627
▁mr	-9.50634
▁plan	-9.50651
▁1940	-9.50678
ore	-9.50687
▁wall	-9.50776
nu	-9.50792
▁1967	-9.5082
az	-9.50827
▁solo	-9.50895
▁tracks	-9.50999
▁outside	-9.51031
zo	-9.51085
▁firm	-9.51091
90	-9.51095
▁winner	-9.51174
ena	-9.51267
▁val	-9.51318
▁grade	-9.51358
▁mor	-9.51368
▁fer	-9.51428
tes	-9.51452
▁founder	-9.5146
▁ended	-9.51606
▁need	-9.51608
▁overall	-9.51611
▁squad	-9.51653
▁owner	-9.51656
stan	-9.51693
▁related	-9.51738
pl	-9.51748
▁deputy	-9.51758
▁1920	-9.51842
▁store	-9.51964
▁activities	-9.52012
▁change	-9.52033
▁here	-9.52055
▁constituency	-9.5208
▁starting	-9.52137
▁instead	-9.52186
▁raised	-9.52292
star	-9.52406
▁care	-9.52529
▁soviet	-9.52732
yo	-9.52806
▁des	-9.52852
ries	-9.52886
▁fifth	-9.52928
▁acc	-9.52957
–0	-9.53025
▁introduced	-9.53033
▁sometimes	-9.53107
▁pennsylvania	-9.53137
▁future	-9.53197
▁prison	-9.53198
99	-9.53202
▁kh	-9.53334
cher	-9.53487
ologist	-9.53574
▁economic	-9.536
▁either	-9.5362
▁account	-9.5363
cul	-9.53634
air	-9.53671
▁source	-9.53679
pen	-9.53749
cal	-9.53785
▁meeting	-9.53823
ib	-9.5385
▁pacific	-9.53918
cre	-9.54158
▁imp	-9.54205
▁cover	-9.5427
▁exhibition	-9.54289
▁q	-9.54308
▁challenge	-9.54337
▁dutch	-9.54406
22	-9.54572
bra	-9.54609
▁mm	-9.54617
ile	-9.54695
▁almost	-9.54779
95	-9.54832
▁voice	-9.54858
▁pla	-9.54927
▁cost	-9.54985
nie	-9.5511
▁scottish	-9.55127
▁premier	-9.55141
▁2009,	-9.55267
▁1965	-9.5527
ano	-9.5531
▁taking	-9.55439
▁bat	-9.55475
ms	-9.55628
american	-9.55733
▁groups	-9.55763
▁miss	-9.55791
▁sh	-9.55907
cho	-9.55913
act	-9.55997
▁killed	-9.56023
kar	-9.56051
▁asian	-9.56126
▁bor	-9.56225
▁references	-9.56314
▁serve	-9.56322
▁behind	-9.56356
▁transport	-9.56373
▁christ	-9.56402
24	-9.56485
▁arch	-9.5651
▁cultural	-9.56512
▁lee	-9.56554
▁sim	-9.56584
▁col	-9.56585
▁metal	-9.56624
▁scotland	-9.5672
▁acquired	-9.56747
▁count	-9.56758
▁2010.	-9.57095
▁1966	-9.57167
ala	-9.57221
serv	-9.57317
"),	-9.57333
▁companies	-9.57363
▁olympic	-9.57424
▁operation	-9.57432
▁senate	-9.57539
▁(;	-9.57601
die	-9.57611
-1	-9.578
▁financial	-9.57874
part	-9.57879
▁hot	-9.57954
▁chair	-9.57988
ette	-9.57992
av	-9.5806
08	-9.58068
▁comedy	-9.58121
▁promotion	-9.5815
▁beach	-9.58169
ral	-9.58172
▁surface	-9.58259
▁horse	-9.58283
▁shot	-9.58299
ks	-9.58313
▁justice	-9.58342
▁architect	-9.58468
▁ed	-9.58499
wing	-9.58517
70	-9.58596
▁situated	-9.58602
▁corporation	-9.58609
head	-9.58626
▁legal	-9.58629
▁sin	-9.58689
dal	-9.58701
▁bronze	-9.58731
▁noted	-9.58816
▁mile	-9.58856
▁fra	-9.58894
▁sk	-9.5891
▁computer	-9.5894
▁attempt	-9.59023
▁speed	-9.59055
▁mainly	-9.59223
▁nearby	-9.59258
▁associated	-9.59264
▁ol	-9.59317
▁republican	-9.59357
▁higher	-9.59364
▁racing	-9.59636
▁2015.	-9.59778
▁era	-9.59826
▁victory	-9.59946
ira	-9.60001
net	-9.60008
▁thus	-9.60107
▁ye	-9.60123
▁row	-9.60172
▁scene	-9.602
ban	-9.60216
eh	-9.60296
▁contest	-9.60394
▁bear	-9.60457
stein	-9.60462
š	-9.60533
▁swedish	-9.60575
č	-9.60642
yn	-9.60697
ped	-9.60711
▁bowl	-9.60849
illa	-9.60926
▁2018.	-9.60936
▁dun	-9.61015
▁spot	-9.6103
del	-9.61065
▁god	-9.61092
▁code	-9.61095
▁2017.	-9.61097
▁2014.	-9.611
▁density	-9.61103
burg	-9.61203
▁critical	-9.61209
▁teacher	-9.61249
ize	-9.61252
▁cre	-9.6128
▁peak	-9.61356
▁fine	-9.61362
▁cro	-9.61377
17	-9.61396
gy	-9.61424
ions	-9.61458
▁mass	-9.61488
wan	-9.6151
▁mostly	-9.61539
▁organ	-9.6159
▁1948	-9.61611
▁draft	-9.61636
bit	-9.61709
▁money	-9.61743
▁1962	-9.61817
play	-9.61832
▁systems	-9.61864
▁columbia	-9.61907
▁double	-9.61923
98	-9.62145
▁2008,	-9.62159
cent	-9.62208
▁engineer	-9.62216
▁regiment	-9.62241
▁orchestra	-9.62243
▁rank	-9.62257
▁loan	-9.62267
bor	-9.62273
ns	-9.62325
▁digital	-9.62387
bel	-9.62391
▁urban	-9.62394
▁luc	-9.624
▁box	-9.62463
▁seasons	-9.62568
▁metres	-9.6262
var	-9.62705
ase	-9.62842
▁2013.	-9.62886
int	-9.62889
▁brought	-9.62898
cia	-9.62937
ging	-9.62959
▁wal	-9.62996
▁legislative	-9.63012
▁report	-9.63115
▁2016.	-9.6314
▁renamed	-9.63152
▁michigan	-9.63161
more	-9.63161
▁3,	-9.63175
bal	-9.63195
▁move	-9.63198
ston	-9.63288
▁girl	-9.63307
▁means	-9.63347
▁ski	-9.63353
▁1963	-9.63372
▁shi	-9.63402
▁self	-9.63408
▁polish	-9.63447
▁separate	-9.63452
96	-9.6352
–20	-9.63618
▁commander	-9.63659
ible	-9.63684
tta	-9.63775
dra	-9.63807
=	-9.63838
▁hol	-9.63864
▁tre	-9.63913
▁champions	-9.64033
▁miles	-9.64062
▁jan	-9.6408
45	-9.64149
▁foot	-9.64209
ates	-9.64357
▁able	-9.64402
▁1956	-9.6446
▁ohio	-9.64503
▁45	-9.64549
light	-9.64612
use	-9.64713
▁document	-9.64783
26	-9.64798
▁towards	-9.64809
▁illinois	-9.64915
▁arm	-9.64951
▁parents	-9.64985
▁formation	-9.65015
▁create	-9.65088
97	-9.65105
▁tur	-9.65112
▁motor	-9.65204
▁/	-9.65249
ugh	-9.65274
bre	-9.65388
▁word	-9.65505
ole	-9.65597
tel	-9.65603
▁2012.	-9.6569
▁eu	-9.65703
▁additional	-9.65712
fu	-9.65731
▁housing	-9.65742
▁status	-9.65823
str	-9.65857
ł	-9.65894
7%	-9.65919
▁races	-9.65925
▁boat	-9.65938
▁web	-9.65942
▁marriage	-9.65977
▁starring	-9.66015
▁serves	-9.66016
wo	-9.66018
▁complete	-9.6608
pre	-9.66121
▁2019.	-9.66192
iya	-9.66193
85	-9.662
cl	-9.66232
ability	-9.66265
▁nations	-9.66285
▁lives	-9.66309
▁cra	-9.66386
▁mine	-9.66408
28	-9.66525
▁earlier	-9.66557
▁reg	-9.66615
rk	-9.66659
▁fact	-9.66775
▁pay	-9.66799
▁presented	-9.66817
▁bachelor	-9.66823
▁poet	-9.66826
35	-9.66878
stra	-9.66895
ón	-9.66908
▁issues	-9.66932
01	-9.66967
▁fr	-9.67008
era	-9.6706
▁2007,	-9.67127
▁kil	-9.67136
27	-9.67192
▁rather	-9.67193
len	-9.67225
▁meaning	-9.67289
▁principal	-9.67303
dan	-9.67354
med	-9.67357
▁oil	-9.67369
▁composer	-9.67384
▁doctor	-9.6739
▁ir	-9.67414
ded	-9.67421
▁2011.	-9.67435
▁1961	-9.67469
cker	-9.67511
05	-9.67563
▁acting	-9.67586
▁charge	-9.67592
top	-9.67702
▁covered	-9.67748
▁prominent	-9.67753
▁transferred	-9.67755
▁cd	-9.67868
ins	-9.67956
ula	-9.68009
mm	-9.68018
▁frank	-9.68057
▁jazz	-9.68059
▁variety	-9.68083
▁share	-9.68099
stone	-9.68121
▁literature	-9.68214
oo	-9.68267
▁1946	-9.68276
▁kan	-9.68302
ero	-9.68351
▁berlin	-9.68354
▁mat	-9.68517
▁cu	-9.68619
▁200	-9.68635
▁affairs	-9.68784
▁clear	-9.68791
mic	-9.68793
▁albums	-9.68843
▁grew	-9.68874
▁deep	-9.68883
▁stories	-9.68913
▁website	-9.69082
▁vote	-9.69123
▁secondary	-9.69126
▁constructed	-9.6913
ada	-9.69159
▁ancient	-9.69237
▁composition	-9.69242
▁latin	-9.69245
kan	-9.69248
▁programme	-9.69309
▁municipal	-9.69313
nia	-9.6933
▁pick	-9.69393
ious	-9.69473
▁itself	-9.69517
▁1944	-9.69557
▁majority	-9.6959
▁parts	-9.69592
▁sar	-9.69694
▁jack	-9.69713
▁twenty	-9.69751
▁oxford	-9.69763
▁ali	-9.69827
▁face	-9.69853
▁security	-9.69878
non	-9.70012
▁empire	-9.70025
ii	-9.70064
ré	-9.70087
▁multiple	-9.70098
▁bad	-9.70112
▁memorial	-9.70126
▁jean	-9.70126
▁floor	-9.70143
▁1959	-9.70217
▁1958	-9.7022
▁representatives	-9.70267
▁vol	-9.70366
▁1952	-9.70393
▁read	-9.7042
▁der	-9.70442
▁sport	-9.70462
▁campus	-9.70524
▁distance	-9.70542
▁direct	-9.70558
▁architecture	-9.70611
▁finish	-9.70643
▁exp	-9.70655
▁pass	-9.70699
tle	-9.70716
rn	-9.70788
yan	-9.70791
▁household	-9.70799
–2	-9.70947
▁bomb	-9.70991
iti	-9.71029
ose	-9.71208
93	-9.71268
▁journalist	-9.71324
94	-9.71353
▁produce	-9.71394
▁remains	-9.71411
▁helped	-9.71459
▁1947	-9.71477
ever	-9.71492
▁alongside	-9.71583
dia	-9.71601
▁1957	-9.7168
▁cemetery	-9.71717
▁decision	-9.7178
▁guest	-9.71896
bon	-9.719
pan	-9.71946
▁soccer	-9.7195
zy	-9.71959
eu	-9.71971
▁yellow	-9.72014
▁contemporary	-9.72017
▁gen	-9.72066
▁trail	-9.7208
▁painting	-9.72109
▁especially	-9.72139
ough	-9.7217
▁taught	-9.72235
▁24,	-9.72315
▁programs	-9.72379
▁nominated	-9.72447
ens	-9.72494
▁barr	-9.72524
sign	-9.72579
▁energy	-9.72597
nc	-9.72623
29	-9.72662
▁paper	-9.72864
▁fri	-9.72892
tar	-9.72916
ington	-9.72943
▁entire	-9.73002
▁image	-9.73004
▁friend	-9.73056
▁pur	-9.73067
▁flight	-9.73077
set	-9.73082
lla	-9.73106
▁card	-9.73112
▁generally	-9.73148
mont	-9.73162
▁4,	-9.7319
88	-9.73222
▁brothers	-9.73246
▁buried	-9.73336
▁job	-9.7337
▁educated	-9.73404
▁jersey	-9.73417
09	-9.73427
ux	-9.73488
▁volume	-9.73495
ø	-9.73502
89	-9.73546
▁wild	-9.73587
hy	-9.7379
75	-9.73842
dale	-9.73853
▁sign	-9.73863
▁map	-9.74012
▁pair	-9.74047
▁boston	-9.74067
▁pat	-9.74067
▁reform	-9.74099
▁leaves	-9.74166
cur	-9.74188
▁sciences	-9.7422
▁focus	-9.7423
▁sil	-9.74259
bert	-9.74313
07	-9.74333
▁theater	-9.7436
▁products	-9.74416
▁display	-9.74418
▁(1	-9.74428
ich	-9.74447
▁ocean	-9.74451
▁sydney	-9.74463
="	-9.74471
▁meet	-9.74498
▁stated	-9.74547
▁join	-9.74568
lay	-9.74603
ome	-9.74604
án	-9.74643
san	-9.74678
▁minutes	-9.74765
▁gas	-9.74794
cat	-9.7494
▁massachusetts	-9.75079
▁material	-9.75084
▁francisco	-9.75157
▁santa	-9.75204
▁federation	-9.75221
▁ken	-9.75223
▁victoria	-9.75233
▁managed	-9.7528
▁2021	-9.75282
▁medicine	-9.75331
▁quarter	-9.75463
ists	-9.75535
ī	-9.75608
▁trial	-9.75644
▁latter	-9.75723
▁cat	-9.75756
▁yo	-9.75768
▁dedicated	-9.75772
▁representative	-9.75791
06	-9.75818
▁ncaa	-9.75826
▁1955	-9.75846
▁better	-9.75866
86	-9.75957
▁value	-9.75979
water	-9.75982
▁guard	-9.75996
billboard	-9.76016
ration	-9.76046
▁zone	-9.76063
▁60	-9.76104
04	-9.76106
▁stock	-9.76167
▁joint	-9.76236
▁mad	-9.76255
tv	-9.76256
▁height	-9.76431
▁liberal	-9.76447
").	-9.76451
▁online	-9.7646
▁roles	-9.76496
▁specific	-9.76519
▁ward	-9.76575
▁[	-9.76666
▁tax	-9.7674
▁global	-9.76827
she	-9.7684
▁dor	-9.76879
▁follows	-9.76883
▁teaching	-9.76885
▁painter	-9.76895
▁territory	-9.76929
▁burn	-9.76941
▁recent	-9.76943
▁step	-9.77042
▁stream	-9.77113
▁brazil	-9.77156
▁fight	-9.77172
▁nature	-9.77232
uri	-9.77374
▁1949	-9.77387
▁graduate	-9.77427
▁discovered	-9.77485
▁relationship	-9.77528
▁names	-9.77574
ming	-9.77648
▁1939	-9.77654
ue	-9.77701
nder	-9.77707
▁receive	-9.77715
▁drive	-9.77762
▁asia	-9.77784
▁hong	-9.77796
▁kong	-9.77853
▁grant	-9.77881
▁politics	-9.77972
▁industrial	-9.78119
!	-9.78134
▁cy	-9.78161
92	-9.78168
▁1942	-9.78183
uc	-9.78195
eng	-9.78271
▁leaving	-9.78306
▁iii	-9.78444
▁policy	-9.78449
▁finally	-9.78512
▁provides	-9.78538
▁forward	-9.78557
▁fre	-9.78584
lli	-9.78608
▁1954	-9.78615
▁tar	-9.78642
▁cause	-9.78645
▁sri	-9.78664
bl	-9.78674
▁tall	-9.78697
ches	-9.78719
▁build	-9.78742
▁primarily	-9.78776
place	-9.78788
▁facilities	-9.78834
right	-9.78903
ram	-9.78932
ress	-9.78941
▁ger	-9.78982
▁ontario	-9.78998
66	-9.79078
aka	-9.79111
▁1953	-9.7918
▁guitar	-9.79213
▁machine	-9.79297
▁lieutenant	-9.79377
▁wind	-9.79443
eo	-9.79488
rat	-9.79509
▁roll	-9.79613
▁hosted	-9.79648
▁purpose	-9.79653
▁bas	-9.79655
oli	-9.79706
▁survey	-9.79723
qua	-9.79736
▁jones	-9.79773
76	-9.79817
▁maria	-9.79845
▁compete	-9.79878
▁stop	-9.79911
▁rate	-9.79916
sur	-9.79973
▁bio	-9.80152
▁ze	-9.80158
▁(17	-9.8016
▁supported	-9.80203
ense	-9.8026
▁2006,	-9.80293
uff	-9.80305
zar	-9.80391
▁month	-9.80505
▁op	-9.80541
▁ur	-9.80542
▁content	-9.8057
▁2009.	-9.80579
ç	-9.80649
38	-9.80741
lar	-9.80792
▁interview	-9.80825
▁rome	-9.80897
▁influence	-9.80944
▁micro	-9.81023
vel	-9.8103
▁scientific	-9.81034
▁idea	-9.81041
▁1951	-9.81043
▁fun	-9.81158
▁5,	-9.81176
zz	-9.81237
91	-9.81239
▁lin	-9.81273
ges	-9.81285
mat	-9.81311
84	-9.81329
▁poly	-9.81331
36	-9.81387
▁edge	-9.81398
▁fish	-9.81472
oma	-9.81479
▁char	-9.81557
37	-9.81573
▁1943	-9.81617
▁duke	-9.81618
▁walk	-9.81635
mate	-9.81709
▁eye	-9.81711
03	-9.81752
▁technical	-9.8179
▁alexander	-9.81798
▁featuring	-9.81843
▁murder	-9.81847
▁1941	-9.81878
▁covers	-9.81935
bin	-9.8195
▁qualified	-9.82034
▁ham	-9.82063
▁avenue	-9.82082
oon	-9.82138
▁mus	-9.82142
▁von	-9.82153
sia	-9.82158
78	-9.82165
work	-9.82177
▁officially	-9.8228
▁convention	-9.82285
▁possible	-9.82303
▁chamber	-9.8234
tern	-9.82381
▁agent	-9.82386
▁custom	-9.82393
▁mil	-9.82452
▁divided	-9.82483
ery	-9.82525
▁earth	-9.82535
▁referred	-9.82568
▁norwegian	-9.8257
▁corps	-9.82613
▁log	-9.82618
▁girls	-9.82628
▁jr	-9.82646
ane	-9.82668
▁heritage	-9.82725
dis	-9.82756
cor	-9.82801
77	-9.82813
▁bbc	-9.82895
▁thought	-9.82946
▁loss	-9.82962
2.	-9.83078
▁succeeded	-9.8314
worth	-9.83175
gr	-9.83267
wer	-9.83305
▁scholar	-9.83345
87	-9.83352
▁wisconsin	-9.83364
tive	-9.83375
▁fin	-9.83395
31	-9.83423
▁issue	-9.83442
▁fame	-9.83445
▁concept	-9.83468
▁pl	-9.83488
83	-9.83492
▁comic	-9.83496
nan	-9.8356
ky	-9.83592
▁faculty	-9.83606
▁allowed	-9.83661
ene	-9.83684
▁approach	-9.83692
▁entertainment	-9.83696
46	-9.83717
33	-9.83807
▁responsible	-9.83816
▁agency	-9.83835
zh	-9.83838
ei	-9.83843
list	-9.83932
▁going	-9.8395
▁1936	-9.84039
app	-9.84085
▁railroad	-9.84089
▁seed	-9.84108
▁commonly	-9.84131
▁formerly	-9.84178
▁religious	-9.84208
▁print	-9.84248
▁tennis	-9.84261
▁screen	-9.84296
▁purchased	-9.84298
▁mont	-9.84306
izing	-9.84318
lie	-9.84399
▁toronto	-9.8443
39	-9.84444
▁keep	-9.84527
▁votes	-9.8455
istic	-9.8456
▁software	-9.84712
44	-9.84719
▁extended	-9.84724
▁takes	-9.8474
▁hours	-9.84768
▁cambridge	-9.84796
▁cities	-9.84832
▁44	-9.84834
▁mountains	-9.8484
tation	-9.84872
▁beetle	-9.84889
▁ty	-9.84906
rin	-9.84956
▁individuals	-9.84975
▁pakistan	-9.85089
79	-9.85094
▁concern	-9.85095
▁clubs	-9.85124
▁ren	-9.85161
bc	-9.85168
▁sweden	-9.85218
▁turkey	-9.85331
▁elizabeth	-9.85352
bury	-9.85398
▁moving	-9.85406
rum	-9.85439
like	-9.85482
–18	-9.85505
▁et	-9.85526
▁peace	-9.8553
cer	-9.85566
▁britain	-9.8558
▁provincial	-9.85601
▁split	-9.85608
▁iron	-9.85621
▁scott	-9.85637
▁tree	-9.85718
▁francis	-9.85761
law	-9.85826
▁dy	-9.85826
▁hor	-9.85892
68	-9.859
och	-9.85929
itz	-9.85934
▁friends	-9.85937
▁reviews	-9.85954
▁carl	-9.85957
▁lines	-9.86119
▁larger	-9.86153
chen	-9.86308
▁passed	-9.86352
ory	-9.86364
tom	-9.86369
▁remaining	-9.86383
▁jewish	-9.86388
bri	-9.86389
▁express	-9.86434
ping	-9.86452
dor	-9.86477
▁mis	-9.86483
▁product	-9.86485
▁2000,	-9.86513
bro	-9.86524
▁korea	-9.86526
dd	-9.86541
▁northwest	-9.86581
▁broad	-9.86624
▁direction	-9.86655
rick	-9.86696
34	-9.86701
▁comm	-9.86711
▁houses	-9.86783
▁mixed	-9.86784
ved	-9.868
▁hy	-9.86822
gor	-9.86826
▁path	-9.86834
▁southeast	-9.86872
74	-9.86883
|	-9.86917
59	-9.86923
▁daily	-9.86945
▁netherlands	-9.8699
▁2005,	-9.87011
▁projects	-9.87024
kov	-9.87059
chan	-9.87134
rea	-9.87161
67	-9.87213
▁64	-9.87225
▁pet	-9.87243
ato	-9.87272
ob	-9.8729
▁crime	-9.8735
▁qui	-9.8736
58	-9.87372
▁ky	-9.87418
32	-9.87441
▁shown	-9.87466
▁32	-9.87491
▁crew	-9.87492
ū	-9.87527
▁rich	-9.8759
▁already	-9.87599
▁uses	-9.87617
▁35	-9.87632
▁weeks	-9.87644
ray	-9.87663
▁cell	-9.87679
▁2020.	-9.87743
▁representing	-9.87816
fra	-9.87843
▁associate	-9.87895
▁scoring	-9.8791
▁kal	-9.8792
▁1938	-9.87967
57	-9.87972
▁andrew	-9.87976
ora	-9.88017
sum	-9.8804
▁gla	-9.8806
▁obtained	-9.88137
▁recently	-9.88279
▁sat	-9.88299
clu	-9.88336
▁couple	-9.88348
▁habitat	-9.88354
board	-9.88499
41	-9.88503
▁shar	-9.88571
▁adam	-9.88613
▁function	-9.88657
▁sixth	-9.88694
▁cru	-9.88708
pos	-9.88785
▁spread	-9.88801
02	-9.88821
72	-9.88845
▁priest	-9.88866
▁protein	-9.88871
▁bureau	-9.89
lle	-9.89037
▁article	-9.8911
▁climate	-9.8922
▁failed	-9.8924
▁naval	-9.8924
▁visit	-9.8931
▁7,	-9.89326
▁page	-9.89351
tte	-9.89381
81	-9.89408
▁labour	-9.89408
▁coll	-9.89409
▁nation	-9.89472
▁headquarters	-9.89582
▁lady	-9.8965
▁seats	-9.89686
ida	-9.8971
▁williams	-9.89747
bul	-9.89752
▁retirement	-9.89764
ı	-9.89799
▁episodes	-9.8981
lum	-9.89851
tsu	-9.89906
▁bring	-9.89935
▁particularly	-9.89936
▁gallery	-9.89944
are	-9.89995
▁$1	-9.89997
▁mur	-9.90034
▁winners	-9.90046
run	-9.90123
▁usa	-9.90149
69	-9.90253
▁characters	-9.90303
▁our	-9.90319
▁1918	-9.90368
▁iv	-9.90387
▁kra	-9.90396
▁grey	-9.904
km	-9.90651
▁titled	-9.90737
til	-9.9078
▁heat	-9.90785
nor	-9.90795
zu	-9.90817
▁documentary	-9.90843
▁carried	-9.90868
▁auto	-9.90912
▁suburb	-9.90913
▁golden	-9.90944
▁lack	-9.90988
▁enter	-9.9103
▁2007.	-9.91052
63	-9.91055
poli	-9.91062
ification	-9.91072
▁runner	-9.91079
▁amateur	-9.91089
▁daniel	-9.91137
sey	-9.91202
hal	-9.91217
also	-9.91294
▁transfer	-9.91308
▁cook	-9.91376
▁twice	-9.91383
▁commune	-9.91391
▁fund	-9.91423
▁look	-9.91426
▁den	-9.91446
▁done	-9.91466
cular	-9.91492
▁6,	-9.91522
▁capacity	-9.9154
▁locality	-9.91571
met	-9.9158
▁dead	-9.91589
▁2008.	-9.91606
▁classic	-9.91612
▁physical	-9.91626
▁xi	-9.91628
rus	-9.91645
▁korean	-9.91667
▁fla	-9.91752
▁trust	-9.91757
story	-9.91786
▁founding	-9.91796
▁residents	-9.91804
▁ec	-9.9182
▁dia	-9.91825
char	-9.91913
▁18,	-9.91921
▁sto	-9.91951
▁measure	-9.91967
▁organisation	-9.91994
llar	-9.92028
▁#	-9.92039
▁genera	-9.92043
▁fan	-9.92064
▁changes	-9.9225
nic	-9.92265
▁terms	-9.92285
▁1937	-9.92311
▁forms	-9.92314
aya	-9.92356
ú	-9.92521
▁cri	-9.92592
aw	-9.9262
▁rh	-9.92683
tis	-9.92733
▁johnson	-9.92809
▁aged	-9.92959
▁organized	-9.92986
▁certain	-9.93001
42	-9.93038
▁bel	-9.93047
▁birth	-9.93111
▁hal	-9.93234
▁session	-9.93235
▁northeast	-9.93263
73	-9.9327
▁swa	-9.93272
▁gained	-9.93304
▁poor	-9.93376
▁assigned	-9.93392
▁standing	-9.93426
▁athletic	-9.93481
▁exchange	-9.93483
▁chance	-9.93559
aries	-9.93602
71	-9.93614
hor	-9.93652
82	-9.93658
▁zi	-9.93674
▁crown	-9.93687
mark	-9.93727
wn	-9.93786
▁restaurant	-9.93786
▁es	-9.93789
ić	-9.93877
▁steel	-9.93951
ned	-9.93956
ld	-9.94025
43	-9.94053
▁ker	-9.94106
ants	-9.94187
▁give	-9.94246
tail	-9.94278
▁literary	-9.94333
▁emb	-9.94386
▁1928	-9.94494
hand	-9.94494
▁oak	-9.94499
▁mcc	-9.94531
▁shortly	-9.94567
▁rob	-9.94651
ili	-9.94671
▁20,	-9.94676
▁len	-9.9481
▁authority	-9.94862
▁environment	-9.94886
▁poetry	-9.94895
▁theory	-9.94922
▁anne	-9.94926
▁mas	-9.94981
▁offered	-9.94993
▁feed	-9.95018
▁mari	-9.95074
▁offers	-9.95097
61	-9.9516
rich	-9.95183
▁£	-9.95184
▁wil	-9.95218
▁bru	-9.95258
▁sm	-9.95263
▁rail	-9.95285
▁particular	-9.95327
▁conservative	-9.95344
▁spar	-9.95407
▁jackson	-9.9541
▁permanent	-9.95472
▁bin	-9.95483
▁stations	-9.95497
▁cape	-9.95508
▁workers	-9.95517
elli	-9.95629
▁joe	-9.95695
▁(2	-9.957
point	-9.95704
▁longer	-9.95818
▁lot	-9.95923
▁younger	-9.9596
▁holds	-9.95975
▁publication	-9.95979
▁disease	-9.9598
rio	-9.95998
pal	-9.96014
pper	-9.96017
▁advanced	-9.96021
▁defense	-9.96026
▁object	-9.96052
▁monument	-9.96062
vent	-9.96091
▁demographics	-9.96102
▁shop	-9.96119
gre	-9.9616
▁rain	-9.96273
wick	-9.9628
▁1919	-9.96316
▁1935	-9.96397
gun	-9.96422
▁appears	-9.96444
▁mir	-9.96469
▁est	-9.96533
▁listing	-9.96578
pin	-9.96582
los	-9.96583
chu	-9.96609
▁albert	-9.96619
gro	-9.96659
mel	-9.96678
▁corner	-9.96854
gal	-9.97091
▁portion	-9.97119
hra	-9.97149
not	-9.97169
▁sons	-9.9724
▁honours	-9.9726
▁required	-9.97278
cap	-9.97282
▁athletics	-9.97301
▁8,	-9.97308
ama	-9.97369
▁flag	-9.97413
tru	-9.97458
▁gal	-9.97474
▁feet	-9.97517
rac	-9.97517
nar	-9.97558
▁talk	-9.97609
mas	-9.97646
▁spec	-9.97691
▁nearly	-9.97702
▁your	-9.97803
▁know	-9.97817
▁minnesota	-9.97879
▁norway	-9.97891
▁category	-9.97897
vor	-9.97921
pha	-9.97923
▁notes	-9.97998
▁ny	-9.98049
election	-9.98068
▁cancer	-9.98145
▁knight	-9.98168
profit	-9.98202
▁electronic	-9.98299
ition	-9.98306
mag	-9.98341
▁ring	-9.9845
▁mexican	-9.98451
▁whole	-9.98457
▁sho	-9.98461
▁flu	-9.98498
▁spell	-9.98626
▁11,	-9.98642
▁1924	-9.98646
▁aim	-9.98672
gin	-9.98686
▁khan	-9.98895
▁surrounding	-9.98904
▁pilot	-9.98965
finals	-9.99014
▁boys	-9.99022
stic	-9.99025
▁recognized	-9.99032
▁rep	-9.99053
▁ray	-9.99078
62	-9.99082
▁1929	-9.99098
▁colour	-9.99134
▁czech	-9.9915
▁caused	-9.99182
jan	-9.99245
▁pol	-9.99278
▁languages	-9.99284
▁bass	-9.99301
▁entry	-9.99306
gle	-9.99374
▁forced	-9.99444
▁difficult	-9.99457
▁2004,	-9.99457
▁—	-9.9947
▁southwest	-9.99496
nam	-9.9955
ati	-9.99593
▁facility	-9.99604
▁comes	-9.99623
▁titles	-9.99666
+	-9.99702
▁institution	-9.99719
▁wo	-9.99772
▁10,	-9.99814
▁commissioned	-9.9984
▁var	-9.99958
▁15,	-9.99998
▁aired	-10
▁plants	-10.0005
onlyinclude	-10.0005
▁pal	-10.0005
▁guide	-10.001
▁romanized	-10.0011
▁turned	-10.0013
▁write	-10.0014
▁designated	-10.0015
ava	-10.0023
▁zo	-10.0028
with	-10.003
lip	-10.0036
▁cle	-10.0041
ska	-10.0041
una	-10.0048
pet	-10.0048
zer	-10.0049
▁cinema	-10.0051
▁gro	-10.0053
fc	-10.0058
▁1934	-10.0069
ments	-10.0069
lies	-10.0069
▁bha	-10.007
▁rules	-10.0074
▁supreme	-10.0077
▁melbourne	-10.0087
ado	-10.009
hel	-10.0097
▁sr	-10.0098
▁rare	-10.0102
fici	-10.0105
▁prevent	-10.0113
▁articles	-10.0116
abad	-10.0117
▁drug	-10.0117
yard	-10.0119
ple	-10.0131
▁defeat	-10.0132
▁publications	-10.0133
century	-10.0142
ae	-10.0143
▁instrument	-10.0145
book	-10.015
fect	-10.0154
▁flowers	-10.0164
▁bou	-10.0166
▁1933	-10.0166
▁claimed	-10.0167
▁probably	-10.0167
dr	-10.0169
▁driver	-10.017
▁1917	-10.017
ert	-10.0174
cht	-10.0177
▁12,	-10.018
▁philadelphia	-10.0181
▁hay	-10.0187
▁positive	-10.0189
late	-10.0197
▁launch	-10.0197
▁lawyer	-10.0199
▁9,	-10.02
▁figure	-10.0201
▁relations	-10.0202
65	-10.0206
ient	-10.0221
gate	-10.0224
ika	-10.0231
ball	-10.0236
▁syn	-10.0237
duc	-10.0239
▁1932	-10.0241
▁performing	-10.0244
▁tele	-10.0249
▁tan	-10.0252
▁hundred	-10.0257
▁respectively	-10.0262
▁leadership	-10.0265
room	-10.0266
▁gor	-10.027
▁narrow	-10.0273
▁prop	-10.0275
▁clo	-10.0277
▁nan	-10.0277
duct	-10.0282
-2	-10.0284
▁stand	-10.0285
▁column	-10.0286
▁occasion	-10.0289
▁operating	-10.03
▁flat	-10.0304
ged	-10.0307
▁conducted	-10.0307
▁performances	-10.0316
▁merged	-10.0319
▁israel	-10.032
▁photo	-10.0327
▁lyrics	-10.0328
▁roof	-10.0331
▁oldest	-10.0334
▁1910	-10.0335
▁earl	-10.0337
▁moscow	-10.0337
▁pin	-10.0356
▁missouri	-10.0356
]]	-10.0361
ona	-10.0363
▁proposed	-10.0364
dom	-10.0364
▁generation	-10.0368
graph	-10.0369
▁coming	-10.0372
▁method	-10.0374
▁historian	-10.0375
▁inside	-10.0376
▁combined	-10.038
▁1914	-10.0387
▁tom	-10.039
▁nomination	-10.0395
▁electoral	-10.0402
▁adult	-10.0402
▁response	-10.0403
gel	-10.0403
press	-10.0403
▁whit	-10.0405
aga	-10.0407
▁alone	-10.041
▁atlantic	-10.0416
▁interior	-10.0418
▁shell	-10.0418
cle	-10.0428
▁rod	-10.0431
▁liga	-10.0432
▁pr	-10.0432
▁sources	-10.0439
▁philip	-10.0439
mid	-10.044
▁traffic	-10.0451
▁1900	-10.0451
▁wins	-10.0462
55	-10.0467
▁issued	-10.047
yer	-10.0478
▁poll	-10.0484
roll	-10.0484
°	-10.0492
▁reach	-10.0496
▁holding	-10.0498
▁neighborhood	-10.0498
▁1927	-10.0499
▁bob	-10.0499
▁senator	-10.0504
▁communities	-10.0505
rey	-10.0507
▁stephen	-10.051
▁tradition	-10.0512
dha	-10.0514
rate	-10.0515
▁phil	-10.0517
▁1922	-10.0527
▁chapel	-10.053
▁14,	-10.0533
cen	-10.0539
sburg	-10.0544
▁bun	-10.0544
▁letter	-10.0545
▁alternative	-10.0558
▁publishing	-10.0559
▁1912	-10.0562
▁palace	-10.0564
anda	-10.057
▁clark	-10.0574
burn	-10.0581
▁heavy	-10.0582
▁agreement	-10.0589
▁folk	-10.0591
▁spin	-10.0592
▁fiction	-10.0593
bus	-10.0597
▁consul	-10.0599
▁question	-10.0599
▁expanded	-10.0606
▁glo	-10.0612
▁gate	-10.0619
);	-10.062
▁cli	-10.0625
▁sum	-10.0628
▁metropolitan	-10.0628
▁returning	-10.0628
▁musician	-10.0629
udi	-10.0635
▁want	-10.0638
▁1931	-10.0639
▁appear	-10.0643
å	-10.0645
mir	-10.0652
▁fleet	-10.0658
▁mun	-10.0661
▁angel	-10.0661
▁21,	-10.0667
▁extra	-10.0668
mun	-10.0673
▁queensland	-10.0673
season	-10.0678
▁initial	-10.0683
▁rev	-10.0691
▁[[	-10.0692
▁creation	-10.0693
▁impact	-10.0696
▁classical	-10.0697
bound	-10.0705
▁equal	-10.0706
pon	-10.0707
▁tam	-10.071
▁1925	-10.072
▁golf	-10.072
▁tim	-10.072
▁price	-10.0722
▁plans	-10.0728
▁smaller	-10.0731
▁parliamentary	-10.0734
▁greater	-10.0741
▁except	-10.0753
▁kur	-10.0756
▁secret	-10.0777
▁2006.	-10.0777
ography	-10.0781
48	-10.0785
mond	-10.0785
▁believed	-10.0787
▁kha	-10.0789
▁22,	-10.0789
▁ash	-10.0795
vol	-10.0795
▁too	-10.0798
▁bought	-10.0799
▁finishing	-10.0803
ros	-10.0806
via	-10.0806
▁always	-10.0806
▁premiered	-10.0809
▁brick	-10.0811
▁emperor	-10.0814
▁ships	-10.0822
down	-10.0824
▁28,	-10.0829
–3	-10.0837
▁hills	-10.0837
▁1921	-10.0838
▁increase	-10.084
dem	-10.0841
▁1923	-10.0841
ick	-10.0844
▁dog	-10.086
▁perform	-10.0863
ér	-10.087
▁broadcasting	-10.0871
▁mentioned	-10.0872
▁kat	-10.0877
▁13,	-10.0888
▁pale	-10.089
awa	-10.0896
ben	-10.0902
▁mono	-10.0905
▁ranking	-10.0913
▁mp	-10.0918
▁treatment	-10.0922
▁search	-10.0926
pat	-10.0928
▁23,	-10.0929
▁hold	-10.0931
▁19,	-10.0935
▁strike	-10.0936
hill	-10.0938
▁trip	-10.0939
▁directly	-10.0943
▁30,	-10.0948
▁basis	-10.0951
▁1926	-10.0953
▁weight	-10.0953
▁33	-10.0958
▁connection	-10.0963
▁borough	-10.0963
mus	-10.0963
▁27,	-10.0964
▁follow	-10.0969
cept	-10.0975
▁ven	-10.0978
▁36	-10.0982
▁kind	-10.0987
▁26,	-10.0989
yu	-10.0993
ori	-10.0995
▁sales	-10.0995
▁trains	-10.0998
▁villages	-10.0999
heim	-10.0999
▁educational	-10.1002
▁ann	-10.1004
▁ranked	-10.101
▁eli	-10.1012
▁piano	-10.1013
▁wheel	-10.1014
cra	-10.1014
▁dean	-10.1018
▁rio	-10.1019
▁leave	-10.1021
▁baron	-10.1022
▁jam	-10.1024
▁inspired	-10.1029
▁diocese	-10.104
▁25,	-10.1047
47	-10.1047
▁kim	-10.1051
▁squadron	-10.1057
▁gain	-10.1058
▁‘	-10.1061
▁shape	-10.107
▁windows	-10.1071
▁joining	-10.1071
▁door	-10.1075
rad	-10.1077
▁tribe	-10.1085
▁palm	-10.1085
▁finance	-10.1087
▁cathedral	-10.1099
gent	-10.11
▁falls	-10.1102
▁personnel	-10.1103
bas	-10.1106
ele	-10.1107
▁effective	-10.1113
▁fruit	-10.1116
▁danish	-10.1119
▁80	-10.112
▁electric	-10.112
▁spi	-10.1123
▁philosophy	-10.1123
▁conservation	-10.1125
▁euro	-10.1128
▁inhabitants	-10.113
▁attorney	-10.1133
▁pioneer	-10.1134
ency	-10.1136
▁file	-10.1137
ller	-10.1144
▁sit	-10.1163
▁malaysia	-10.1168
▁rule	-10.1177
shaped	-10.119
ax	-10.1192
▁arthur	-10.1197
ret	-10.12
lian	-10.1206
lea	-10.1208
▁applied	-10.1208
▁problems	-10.1218
▁factor	-10.1221
▁represent	-10.1221
▁dream	-10.1221
▁therefore	-10.1223
rated	-10.1224
▁effect	-10.1224
▁elements	-10.1225
▁promote	-10.1227
▁technique	-10.1231
▁legend	-10.1231
▁metro	-10.1232
ova	-10.1235
bach	-10.1238
mba	-10.1242
▁widely	-10.1243
ace	-10.1244
▁kansas	-10.1248
master	-10.1251
▁critic	-10.1252
ising	-10.1254
▁intended	-10.1256
▁colorado	-10.1262
▁circuit	-10.1265
▁sky	-10.1266
▁target	-10.1268
▁pool	-10.1271
▁planned	-10.1272
▁weekly	-10.1279
▁consider	-10.1281
▁2005.	-10.1283
▁davis	-10.1284
64	-10.1286
▁exist	-10.1286
▁fox	-10.1295
▁venue	-10.1298
▁wilson	-10.1298
▁mini	-10.1301
weight	-10.1303
▁graduating	-10.1304
▁jim	-10.1304
vid	-10.1305
▁newly	-10.1308
chin	-10.1313
▁bangladesh	-10.1315
aceae	-10.1315
osa	-10.1323
kha	-10.1325
▁increased	-10.1327
▁pot	-10.1329
▁recognition	-10.1329
▁2003,	-10.1331
▁kill	-10.1335
ste	-10.1336
▁morning	-10.1338
ular	-10.134
▁qualifying	-10.134
▁jump	-10.1343
log	-10.1346
known	-10.135
▁analysis	-10.1353
▁statistics	-10.1355
▁$2	-10.1356
▁epi	-10.1363
▁unknown	-10.137
wich	-10.1371
spect	-10.1372
ille	-10.1372
▁sn	-10.1372
▁clar	-10.1373
▁trophy	-10.1375
▁accident	-10.1383
▁tie	-10.1389
▁flow	-10.1393
▁ple	-10.1396
▁junction	-10.1402
▁taylor	-10.1408
▁losing	-10.142
▁consisted	-10.1427
▁cam	-10.1433
▁yet	-10.1434
▁hope	-10.1437
▁removed	-10.1438
▁chosen	-10.1438
lf	-10.144
▁revolution	-10.1443
▁70	-10.1449
▁claim	-10.1449
56	-10.1451
▁resigned	-10.1453
▁settled	-10.1458
ico	-10.146
ination	-10.1461
▁typically	-10.1461
▁500	-10.1462
▁divi	-10.1463
▁quality	-10.1464
▁blood	-10.1468
arch	-10.1476
▁fresh	-10.1477
▁expedition	-10.1482
▁gre	-10.1483
▁audience	-10.1489
▁entrance	-10.149
vil	-10.1493
▁villa	-10.1494
▁fashion	-10.1498
-18	-10.15
tti	-10.15
eb	-10.1506
▁lion	-10.1507
▁cabinet	-10.1512
▁chapter	-10.1517
▁ross	-10.1517
▁29,	-10.1518
▁activity	-10.152
▁protection	-10.1522
▁hum	-10.1531
▁max	-10.1534
▁arrived	-10.1536
▁seem	-10.154
▁watch	-10.1541
▁blo	-10.1542
▁develop	-10.1543
rid	-10.1545
▁reflect	-10.1545
▁tennessee	-10.1547
align	-10.155
▁defence	-10.1556
ulation	-10.1557
▁communist	-10.156
▁appeal	-10.1561
▁extend	-10.1566
54	-10.1571
▁vessel	-10.1572
ign	-10.1575
▁rise	-10.1577
▁establish	-10.1581
▁highly	-10.1583
▁environmental	-10.1592
▁immediately	-10.1595
▁austria	-10.1599
▁evidence	-10.1601
oid	-10.1602
▁)	-10.1608
hood	-10.1618
matic	-10.1624
▁turkish	-10.1626
▁makes	-10.1628
▁sale	-10.163
▁drum	-10.1633
▁vas	-10.1637
▁presidential	-10.164
▁fred	-10.1641
▁simon	-10.1641
▁connected	-10.1642
▁rapid	-10.1645
▁protect	-10.1651
dri	-10.1659
▁scale	-10.166
▁twin	-10.1667
▁scheduled	-10.1674
ima	-10.1674
▁bow	-10.1677
ín	-10.1686
▁speaker	-10.1689
▁chu	-10.1692
▁suggest	-10.1693
▁rating	-10.1698
bol	-10.1699
ott	-10.17
▁continues	-10.1702
49	-10.1703
▁bc	-10.1705
▁arizona	-10.1711
▁factory	-10.1711
▁1916	-10.1712
oy	-10.1716
▁amount	-10.1717
▁investment	-10.1717
▁shore	-10.1717
▁oregon	-10.1718
;/	-10.1722
hol	-10.1727
slav	-10.1728
▁device	-10.173
▁signal	-10.1732
▁growing	-10.1736
▁lar	-10.1737
meter	-10.1741
▁independence	-10.1747
nell	-10.1748
rup	-10.1755
thi	-10.176
▁1915	-10.176
▁allow	-10.1763
▁fell	-10.1767
▁adopted	-10.1772
▁mall	-10.1772
▁accepted	-10.1775
▁achieved	-10.1776
▁connect	-10.1778
▁grave	-10.1779
▁properties	-10.1781
ident	-10.1783
▁themselves	-10.1783
▁infantry	-10.1784
▁alliance	-10.1785
▁snail	-10.1787
avi	-10.1788
▁selection	-10.1796
▁residence	-10.1796
▁flows	-10.1796
▁enough	-10.1796
▁slo	-10.1797
▁16,	-10.1804
▁hat	-10.1804
▁classes	-10.1807
▁hydro	-10.181
▁chris	-10.1813
!"	-10.1813
▁partnership	-10.1815
▁lewis	-10.182
ym	-10.1822
cro	-10.1823
▁gall	-10.1823
general	-10.1824
▁reference	-10.183
esh	-10.1832
▁glass	-10.1835
▁brazilian	-10.1836
aki	-10.1838
▁occurs	-10.184
▁honour	-10.1841
▁attention	-10.1844
range	-10.185
pr	-10.1851
▁din	-10.1855
▁schedule	-10.1857
▁imperial	-10.1859
hn	-10.1862
key	-10.1864
▁external	-10.1869
▁sculpture	-10.1874
struct	-10.1877
▁injury	-10.1877
▁address	-10.188
boy	-10.1885
▁economy	-10.1886
tus	-10.189
▁prix	-10.1895
▁matter	-10.1896
▁growth	-10.1897
▁destroyed	-10.1897
▁walter	-10.1901
▁collaboration	-10.1902
▁indiana	-10.1909
cast	-10.191
pping	-10.191
hold	-10.1914
▁1908	-10.1918
▁visual	-10.1919
lau	-10.1921
ify	-10.1922
▁cm	-10.1924
ua	-10.1924
▁il	-10.1933
tting	-10.1941
▁margin	-10.1941
▁commissioner	-10.1942
▁fur	-10.1943
vers	-10.1944
▁1913	-10.1947
final	-10.1947
col	-10.1949
▁advance	-10.1955
▁continue	-10.1957
▁barn	-10.1958
▁90	-10.1958
▁nar	-10.1966
▁emi	-10.1967
▁copies	-10.1972
▁granted	-10.1974
▁pope	-10.1975
▁vietnam	-10.1978
▁assist	-10.1978
▁towns	-10.1982
▁philippines	-10.1982
▁volunteer	-10.1985
▁34	-10.1991
nik	-10.1991
▁unique	-10.1992
▁soundtrack	-10.1993
▁1911	-10.2
round	-10.2005
▁estimated	-10.2008
▁iowa	-10.2011
ulated	-10.2013
▁flo	-10.2014
▁positions	-10.2016
▁mike	-10.2017
▁giving	-10.2021
▁equipment	-10.2031
▁strip	-10.2032
▁establishment	-10.2033
▁kid	-10.2037
▁seventh	-10.2047
▁entitled	-10.2048
ave	-10.2051
▁labor	-10.2056
▁photograph	-10.2059
gram	-10.206
igh	-10.2061
▁derived	-10.2063
▁arena	-10.2064
▁swiss	-10.2064
▁limit	-10.2064
▁glen	-10.2065
▁phase	-10.2072
▁chile	-10.2076
▁jen	-10.2076
▁eleven	-10.2079
cio	-10.2079
nel	-10.2084
▁quebec	-10.2087
▁switzerland	-10.2099
▁talent	-10.2099
gui	-10.2104
▁domestic	-10.2113
▁plain	-10.2113
▁2004.	-10.2116
▁ji	-10.213
ami	-10.213
ably	-10.213
▁twelve	-10.2131
▁rat	-10.2133
▁doubles	-10.2134
▁lanka	-10.2136
▁declared	-10.2137
▁true	-10.2138
▁holy	-10.2144
▁bol	-10.2148
▁reading	-10.2152
▁maryland	-10.216
▁potential	-10.2161
▁mathematics	-10.2161
▁cases	-10.2171
▁ridge	-10.2173
▁brook	-10.2175
rl	-10.2178
pho	-10.2179
ž	-10.2185
▁ambassador	-10.2188
▁bright	-10.219
▁someone	-10.2191
▁critics	-10.2193
band	-10.2199
53	-10.2205
▁qua	-10.2209
colspan	-10.221
eli	-10.2213
ş	-10.2217
ional	-10.2219
▁fly	-10.2222
▁hair	-10.2223
▁stri	-10.2223
ute	-10.2223
5,000	-10.2224
▁words	-10.2226
most	-10.2231
▁2002.	-10.2231
▁maximum	-10.2232
see	-10.2238
▁agricultural	-10.2239
▁roger	-10.2245
▁salt	-10.2247
▁parties	-10.2248
▁tamil	-10.2252
▁link	-10.2259
vic	-10.2261
▁argentina	-10.2261
▁edinburgh	-10.2263
▁containing	-10.2265
▁suffered	-10.2266
1,	-10.2269
▁designer	-10.2276
spir	-10.2276
▁portrait	-10.2279
emp	-10.228
nish	-10.2282
▁mah	-10.2282
▁unincorporated	-10.2284
▁medals	-10.2286
▁grass	-10.2289
▁elect	-10.2293
▁bengal	-10.2293
sect	-10.23
ister	-10.2302
▁raj	-10.2302
rant	-10.2303
oper	-10.2304
▁scientist	-10.2307
▁incorporated	-10.2308
▁sen	-10.2312
▁conditions	-10.2315
▁think	-10.2319
▁qualification	-10.232
▁2002,	-10.2321
ically	-10.2321
▁elevation	-10.2324
hard	-10.2327
▁distinguished	-10.233
▁tea	-10.2341
▁progress	-10.2341
▁pad	-10.2351
▁buck	-10.2351
▁chain	-10.2352
▁organizations	-10.2356
▁oblast	-10.2357
▁sex	-10.2357
mbo	-10.2358
▁steam	-10.2363
adi	-10.2366
py	-10.237
▁planning	-10.2371
▁confirmed	-10.2373
▁dj	-10.2374
▁achievement	-10.2376
▁meters	-10.2377
dle	-10.238
thy	-10.2381
arian	-10.2392
▁links	-10.2394
tten	-10.2394
▁providing	-10.2395
fun	-10.2398
▁candidates	-10.2398
▁chemical	-10.24
▁translation	-10.2408
▁span	-10.2411
ctic	-10.2419
rah	-10.2425
▁request	-10.2432
sar	-10.2433
mble	-10.2435
▁passenger	-10.2442
sol	-10.2442
▁shan	-10.2443
▁might	-10.2443
ught	-10.2444
▁flor	-10.2444
▁kentucky	-10.2446
▁yan	-10.2449
▁muslim	-10.2455
mmer	-10.2455
▁esp	-10.2464
nz	-10.2464
▁sunday	-10.2475
▁save	-10.2477
▁por	-10.2479
▁orange	-10.2485
▁invited	-10.2486
oph	-10.2489
▁hip	-10.249
▁stay	-10.249
▁expert	-10.2492
51	-10.2495
▁pitch	-10.2498
▁studios	-10.2501
▁resources	-10.2518
arm	-10.252
pol	-10.2525
▁(16	-10.2527
ello	-10.253
▁bull	-10.2534
night	-10.2537
▁counties	-10.2539
▁400	-10.2543
▁gmina	-10.2545
▁yards	-10.2547
zen	-10.2567
▁lan	-10.2569
▁wolf	-10.2577
▁landscape	-10.2579
come	-10.2584
live	-10.2587
▁ev	-10.2588
▁broke	-10.2591
morph	-10.2594
rock	-10.2608
▁identified	-10.2615
▁kn	-10.2617
52	-10.2618
–6	-10.2623
▁2001,	-10.2626
▁asked	-10.2626
▁whi	-10.2639
▁canal	-10.264
▁maintain	-10.2643
▁internet	-10.2644
née	-10.2645
▁agriculture	-10.2648
▁brigade	-10.2648
▁supporting	-10.2648
reg	-10.2649
▁consecutive	-10.2649
▁publisher	-10.2649
▁gang	-10.2652
▁singapore	-10.2655
▁likely	-10.2664
▁trained	-10.2668
▁receiving	-10.2681
▁hart	-10.2683
▁rein	-10.2686
cz	-10.2689
eller	-10.2696
▁farmer	-10.2698
▁wel	-10.2699
lock	-10.2702
▁contributed	-10.2705
▁symbol	-10.2709
▁lock	-10.2713
▁debuted	-10.2715
▁temperature	-10.2716
▁sector	-10.2716
type	-10.2717
▁simple	-10.2724
▁learning	-10.2733
▁fm	-10.2736
▁kam	-10.2736
▁reign	-10.2741
olo	-10.2744
agh	-10.2744
▁midfielder	-10.2745
nal	-10.2751
▁note	-10.2753
▁classification	-10.2755
▁marked	-10.2756
▁denmark	-10.2763
▁fast	-10.2765
▁escape	-10.2766
▁nfl	-10.277
▁tokyo	-10.2772
▁letters	-10.2772
▁rival	-10.2776
vy	-10.2776
▁competitions	-10.2779
▁lind	-10.2779
▁fought	-10.278
▁versions	-10.2785
▁arms	-10.2794
▁dublin	-10.2799
▁switch	-10.2801
▁democrat	-10.2801
put	-10.2803
▁cata	-10.2807
ble	-10.2809
▁(3	-10.281
?	-10.2817
▁snow	-10.2821
▁transportation	-10.2824
style	-10.2824
▁starred	-10.2825
get	-10.2826
▁uncle	-10.283
▁demand	-10.2831
▁wave	-10.2833
fall	-10.2835
organ	-10.2837
gio	-10.2839
▁pas	-10.2848
▁registered	-10.2849
hara	-10.2849
▁etc	-10.285
▁piece	-10.2851
▁mode	-10.2853
▁sang	-10.2866
▁communications	-10.2872
▁harvard	-10.288
▁lane	-10.2881
ators	-10.2881
▁goes	-10.2881
▁cher	-10.2883
may	-10.2885
▁anna	-10.2896
▁physics	-10.2897
▁mala	-10.2901
▁troops	-10.2904
▁frame	-10.2908
▁dra	-10.2912
▁1905	-10.2912
▁musicians	-10.2913
▁wanted	-10.2917
ien	-10.2919
▁lincoln	-10.2919
▁arab	-10.2921
▁1906	-10.2921
▁participate	-10.2924
▁peninsula	-10.2925
▁giant	-10.2926
▁cer	-10.2931
▁sol	-10.2935
▁sites	-10.2936
2).	-10.2939
▁temp	-10.294
▁dal	-10.2942
▁johann	-10.2942
▁austrian	-10.2943
▁converted	-10.2943
▁economics	-10.2944
▁coaching	-10.2944
▁manchester	-10.2947
▁levels	-10.2949
▁types	-10.2951
▁jacob	-10.2953
▁rub	-10.2955
▁fields	-10.2955
▁slightly	-10.2968
▁contested	-10.297
▁gil	-10.2971
▁1909	-10.2972
▁racial	-10.2979
▁panel	-10.2984
under	-10.2989
–4	-10.2991
▁cooper	-10.2994
▁say	-10.2994
▁cave	-10.3002
▁collected	-10.3007
▁mai	-10.3007
▁paintings	-10.3008
▁officers	-10.3019
▁protest	-10.3022
▁rear	-10.3022
▁17,	-10.3026
▁opt	-10.3027
▁treat	-10.3028
▁2003.	-10.3029
▁acid	-10.3035
cri	-10.3038
▁setting	-10.304
far	-10.3043
▁makeup	-10.3045
▁merc	-10.3048
▁require	-10.3054
▁hai	-10.3054
▁singing	-10.3054
▁dry	-10.3065
▁bird	-10.3065
▁safety	-10.3067
hop	-10.3068
▁mol	-10.307
gger	-10.3072
▁1907	-10.3072
mac	-10.308
▁ltd	-10.3083
chy	-10.3083
▁root	-10.3088
ür	-10.3088
▁occurred	-10.3093
▁costa	-10.3103
▁1904	-10.3104
▁leaders	-10.311
▁efforts	-10.3112
▁miller	-10.3112
▁saying	-10.3113
▁1890	-10.3118
▁script	-10.3122
▁fen	-10.3127
▁ceremony	-10.313
▁sel	-10.3131
▁pala	-10.3133
▁die	-10.3135
▁shah	-10.3136
▁steve	-10.3148
▁sy	-10.315
▁taiwan	-10.3153
▁radi	-10.3155
tric	-10.3156
▁largely	-10.3162
▁counter	-10.3164
▁begins	-10.3165
▁appointment	-10.317
▁tru	-10.3175
▁leaf	-10.3176
ów	-10.3184
▁eagle	-10.3191
▁explore	-10.3193
cell	-10.3194
south	-10.3196
rang	-10.3197
▁soldiers	-10.32
▁colonel	-10.3201
▁captured	-10.321
▁thousand	-10.3211
▁finals	-10.3212
ject	-10.3214
roy	-10.3217
uck	-10.3218
▁conflict	-10.322
▁figures	-10.3221
lit	-10.3222
oh	-10.3224
▁reason	-10.3225
▁31,	-10.3225
▁straight	-10.3226
▁focused	-10.3229
▁pack	-10.3231
▁basic	-10.3235
▁38	-10.3251
grad	-10.3258
▁residential	-10.3258
▁condition	-10.3263
▁portuguese	-10.3263
▁wr	-10.3265
▁commonwealth	-10.3267
▁normal	-10.3269
▁aid	-10.327
term	-10.3272
▁investigation	-10.3274
atory	-10.3285
▁dates	-10.3289
▁honorary	-10.3293
▁seek	-10.3298
▁tiger	-10.33
▁guitarist	-10.3305
▁task	-10.3308
▁jay	-10.3312
▁compared	-10.3318
▁quickly	-10.3319
▁lev	-10.3329
▁belgium	-10.3334
cut	-10.3334
▁adjacent	-10.334
inter	-10.3345
▁mind	-10.3347
▁ceo	-10.3348
▁merchant	-10.3349
▁districts	-10.335
▁trees	-10.3351
▁segment	-10.3355
ij	-10.336
elle	-10.3372
▁wei	-10.3373
▁hero	-10.3373
▁portray	-10.3374
▁defeating	-10.3376
▁remain	-10.3377
▁locomotive	-10.3378
▁writers	-10.3379
▁extension	-10.3382
cel	-10.3389
▁pul	-10.3389
▁rap	-10.339
▁pit	-10.3393
ties	-10.3402
▁scholarship	-10.3403
▁mit	-10.3405
oni	-10.3409
▁charter	-10.3413
▁endemic	-10.3419
▁frederick	-10.342
▁dur	-10.3421
pop	-10.3422
▁lang	-10.3423
▁flood	-10.343
ota	-10.344
▁vienna	-10.3446
▁let	-10.3447
▁tha	-10.3449
▁subsequent	-10.345
▁gui	-10.3451
bridge	-10.3452
▁consisting	-10.3455
▁cricketer	-10.3457
▁materials	-10.3457
▁religion	-10.3467
▁cow	-10.347
▁locations	-10.3476
▁shoot	-10.3477
▁programming	-10.3479
▁effects	-10.349
▁arrested	-10.3491
▁application	-10.3494
▁throw	-10.35
fort	-10.3502
▁contain	-10.3517
▁matt	-10.3522
▁kin	-10.3522
▁37	-10.3523
ock	-10.3527
▁hamilton	-10.3528
rian	-10.3528
llen	-10.3532
▁begin	-10.354
which	-10.3547
hon	-10.3547
▁peaked	-10.3551
▁barb	-10.3552
▁samuel	-10.3558
▁swimming	-10.3559
▁opposition	-10.3559
▁compilation	-10.356
▁sell	-10.3562
▁peru	-10.3564
▁drawing	-10.3566
▁moon	-10.3577
▁mix	-10.3579
▁pictures	-10.3586
▁indonesia	-10.3592
▁zu	-10.3596
▁planet	-10.3597
▁ghana	-10.3598
ique	-10.3605
▁legislature	-10.3608
▁offices	-10.3609
▁unlike	-10.3611
▁knowledge	-10.3612
▁component	-10.3616
▁1902	-10.3617
sie	-10.3625
▁battalion	-10.3634
▁worldwide	-10.3636
▁geo	-10.3639
▁flying	-10.3639
▁recordings	-10.3642
chel	-10.3643
▁increasing	-10.3644
▁choice	-10.3646
▁laid	-10.365
▁productions	-10.365
isation	-10.3651
▁vocals	-10.3657
▁beyond	-10.3663
ela	-10.3669
▁operates	-10.3671
▁producing	-10.3678
▁montreal	-10.3686
▁net	-10.3689
▁1903	-10.369
▁satellite	-10.3693
▁sym	-10.3693
▁distributed	-10.3694
▁comment	-10.3695
▁freedom	-10.37
▁mobile	-10.37
▁passes	-10.3703
▁summit	-10.3706
▁sole	-10.3707
▁reaching	-10.3708
▁contributions	-10.3711
▁elder	-10.3712
uni	-10.3719
ender	-10.3719
▁wine	-10.3721
iff	-10.3721
▁enjoy	-10.3722
▁shu	-10.3724
▁armed	-10.3726
▁greece	-10.3727
▁tank	-10.3729
▁slow	-10.3731
▁2001.	-10.3739
▁dig	-10.374
fre	-10.3741
how	-10.3742
▁things	-10.3744
odi	-10.3745
▁bon	-10.3745
▁horn	-10.375
▁margaret	-10.3754
▁2000.	-10.3757
▁lou	-10.3757
mill	-10.3759
fri	-10.376
▁competing	-10.3761
▁artistic	-10.3762
▁morris	-10.3764
hua	-10.3775
zan	-10.3779
▁finnish	-10.3779
lton	-10.3785
▁ordered	-10.3791
▁presence	-10.3793
▁singh	-10.3798
▁oklahoma	-10.3798
▁conduct	-10.3798
later	-10.3799
▁bud	-10.38
gli	-10.3803
▁ukraine	-10.3812
assi	-10.3812
▁existing	-10.3819
▁courses	-10.3822
▁tr	-10.3822
▁1999,	-10.3822
▁adventure	-10.3823
▁wrestling	-10.3823
▁jun	-10.3827
▁juan	-10.3828
▁1901	-10.3831
▁egg	-10.3833
▁kept	-10.3838
▁contact	-10.384
▁thi	-10.3841
▁visited	-10.385
▁painted	-10.3851
soci	-10.3857
▁revival	-10.3859
▁kick	-10.3861
▁hungarian	-10.3861
▁alabama	-10.3865
▁billion	-10.3867
▁churches	-10.3871
▁nick	-10.3872
▁kit	-10.3875
▁karl	-10.3876
take	-10.3877
▁criminal	-10.388
▁pradesh	-10.3884
att	-10.3896
▁deliver	-10.3907
▁dynasty	-10.3911
▁domain	-10.3912
▁las	-10.3914
▁phd	-10.3922
▁poverty	-10.3925
▁shin	-10.3926
national	-10.3935
▁incident	-10.3938
ographic	-10.3939
▁statue	-10.3939
▁occupied	-10.3939
▁secure	-10.394
▁soft	-10.3941
▁circle	-10.3944
▁athletes	-10.3945
▁finland	-10.3946
onic	-10.3946
▁activist	-10.395
▁kon	-10.3951
▁simply	-10.3952
▁creating	-10.3954
▁connecticut	-10.3956
▁reports	-10.3961
▁cent	-10.3962
▁soul	-10.3968
▁translated	-10.3971
▁frequently	-10.3971
▁alex	-10.3973
lé	-10.3974
▁coal	-10.3974
▁pattern	-10.398
▁fat	-10.3983
▁lit	-10.3984
▁ending	-10.3984
▁opponent	-10.3993
100	-10.3994
▁hur	-10.3997
▁colonial	-10.4004
▁mississippi	-10.4004
▁approved	-10.4006
▁defender	-10.4011
▁spa	-10.4014
▁volleyball	-10.4016
▁characteristic	-10.4019
▁breed	-10.4024
tical	-10.4024
▁indoor	-10.4026
▁gy	-10.4026
▁option	-10.4026
enberg	-10.4027
2,	-10.4027
▁bed	-10.4029
▁outstanding	-10.4032
elected	-10.4032
▁1880	-10.4032
▁correspond	-10.4038
yr	-10.4039
mini	-10.4039
▁solution	-10.404
borough	-10.404
▁howard	-10.4041
▁corn	-10.4048
▁try	-10.4048
▁internal	-10.4048
▁institutions	-10.4053
▁archive	-10.4059
ensis	-10.406
▁situation	-10.4074
▁gives	-10.4081
▁worth	-10.4089
▁daughters	-10.41
▁attend	-10.4101
▁resulted	-10.4102
▁accept	-10.4103
▁antonio	-10.4106
who	-10.4109
▁belgian	-10.4117
▁manufacturer	-10.4125
▁picture	-10.4126
▁whether	-10.4129
▁animal	-10.4133
▁studying	-10.4134
nica	-10.4137
▁kent	-10.4138
▁guy	-10.4139
▁kara	-10.4144
▁core	-10.4147
▁employed	-10.4156
▁pieces	-10.4158
aba	-10.416
▁supply	-10.4174
lio	-10.4174
▁diego	-10.4174
▁ukrainian	-10.4175
▁hired	-10.4176
▁fighting	-10.4181
▁constant	-10.4183
▁42	-10.4185
▁adapted	-10.419
▁revealed	-10.4195
▁bul	-10.4196
▁que	-10.4196
▁airline	-10.4197
▁difference	-10.4198
▁genre	-10.4206
▁membership	-10.4211
▁shared	-10.4213
ović	-10.4213
try	-10.4215
pit	-10.4217
▁overview	-10.422
some	-10.4223
▁ethnic	-10.423
▁explain	-10.4234
▁ill	-10.4234
▁camera	-10.4235
▁expected	-10.4239
▁sing	-10.4248
▁constitution	-10.4248
▁dvd	-10.425
cious	-10.4254
▁diameter	-10.4255
ech	-10.426
▁puerto	-10.4263
▁householder	-10.4264
▁colombia	-10.4266
▁iraq	-10.4269
illo	-10.427
▁represents	-10.4271
nov	-10.4277
▁soil	-10.4278
tian	-10.428
▁bit	-10.4284
▁cold	-10.4289
▁rou	-10.4295
▁defend	-10.4297
▁welsh	-10.4297
gene	-10.4299
bank	-10.43
▁reaction	-10.4308
▁told	-10.4309
▁wear	-10.4314
▁charts	-10.4323
▁hop	-10.4327
physi	-10.433
▁harry	-10.433
▁models	-10.4335
▁paid	-10.4336
▁stem	-10.4341
";	-10.4346
▁patrick	-10.4346
▁monte	-10.4347
▁initiative	-10.4348
▁sexual	-10.4348
rov	-10.4349
▁cardinal	-10.4352
▁weather	-10.4353
▁kenya	-10.4354
▁offer	-10.4355
▁hon	-10.4357
▁speak	-10.4361
▁recruit	-10.4362
cca	-10.4371
▁mining	-10.4372
▁funding	-10.4374
▁eric	-10.4376
▁defending	-10.4378
ander	-10.4382
▁sab	-10.4383
▁fully	-10.4388
▁cars	-10.4389
▁wy	-10.439
▁occur	-10.4394
▁allen	-10.4394
table	-10.4395
▁extensive	-10.4395
▁animals	-10.4397
▁neo	-10.4399
stroke	-10.4406
▁problem	-10.4414
lov	-10.4415
▁fighter	-10.4416
▁expansion	-10.4422
bia	-10.4422
▁authorities	-10.4424
▁reduced	-10.4425
▁transform	-10.4426
▁serious	-10.4429
▁steven	-10.4429
té	-10.4434
▁guinea	-10.4438
high	-10.4448
▁egypt	-10.4448
▁bond	-10.4448
▁jon	-10.4449
▁duo	-10.4452
ural	-10.4454
▁hits	-10.4456
power	-10.4456
▁rot	-10.4462
▁tail	-10.4465
omi	-10.4475
▁streets	-10.4475
note	-10.4478
▁victorian	-10.4478
▁regions	-10.4478
friend	-10.4484
where	-10.4485
▁survived	-10.4486
▁hans	-10.449
▁indicate	-10.4498
▁buy	-10.4507
▁clay	-10.4509
▁climb	-10.4511
▁applications	-10.4511
▁48	-10.4512
▁memory	-10.4512
▁affiliated	-10.4522
▁1999.	-10.4524
▁300	-10.4525
▁syria	-10.4527
▁substitute	-10.4528
vert	-10.4528
num	-10.4528
feld	-10.4529
▁moore	-10.453
▁abandoned	-10.4531
▁tier	-10.4532
▁damage	-10.4533
ograph	-10.4533
▁sara	-10.4535
▁spirit	-10.4539
▁norman	-10.454
▁suit	-10.4543
▁stands	-10.4549
▁tin	-10.4553
▁avoid	-10.4556
▁orbit	-10.456
▁scar	-10.4563
▁edited	-10.4563
from	-10.4564
▁blues	-10.4565
▁couples	-10.4567
▁combat	-10.4568
maker	-10.4568
▁believe	-10.4573
▁49	-10.4575
rill	-10.4582
▁cole	-10.4587
▁marie	-10.4589
▁helen	-10.459
ingham	-10.4591
ule	-10.4593
▁plate	-10.4595
cycl	-10.4596
▁douglas	-10.4596
▁josé	-10.4596
▁cycle	-10.4596
▁creative	-10.4601
▁minute	-10.4602
vision	-10.4603
▁anthony	-10.4607
▁incumbent	-10.461
▁houston	-10.4611
▁medieval	-10.4615
▁regularly	-10.4616
▁collections	-10.4619
▁nigeria	-10.4621
▁universities	-10.4624
▁aviation	-10.4627
▁installed	-10.4627
▁strength	-10.4627
▁anderson	-10.4633
▁favor	-10.4634
▁basin	-10.4635
▁estonia	-10.4637
bur	-10.4637
▁credited	-10.464
box	-10.4641
ddle	-10.4642
▁walls	-10.4643
▁sid	-10.4645
▁39	-10.4647
bed	-10.4649
▁legacy	-10.4656
▁1898	-10.4659
▁physician	-10.466
▁portugal	-10.4662
▁75	-10.4665
▁venture	-10.4679
▁fisher	-10.4684
▁pursue	-10.4684
-3	-10.4685
▁weapon	-10.4686
▁architectural	-10.4686
▁defined	-10.4687
▁details	-10.4692
yama	-10.4701
▁storm	-10.4702
▁contained	-10.4703
pass	-10.4705
▁numbers	-10.4706
▁elementary	-10.471
▁relatively	-10.4712
▁pressure	-10.472
▁effort	-10.4732
▁retail	-10.4738
▁bern	-10.474
iel	-10.4741
▁actually	-10.4744
▁gray	-10.4744
▁hispanic	-10.4745
▁sides	-10.4746
▁drop	-10.4747
▁jane	-10.4748
▁oc	-10.4753
▁chand	-10.4755
life	-10.4755
▁string	-10.4756
you	-10.4757
lect	-10.4759
ör	-10.4761
level	-10.4768
▁resulting	-10.4771
▁rush	-10.4774
▁pap	-10.4779
▁benefit	-10.4785
▁completely	-10.4792
▁catch	-10.4794
▁socialist	-10.4798
▁grows	-10.4802
▁cau	-10.4803
eur	-10.4812
atus	-10.4813
lah	-10.4814
jun	-10.4817
▁ng	-10.4825
ml	-10.4825
▁bush	-10.4826
▁craft	-10.4828
plo	-10.4833
▁acts	-10.4834
▁lab	-10.4834
▁milan	-10.4841
▁walker	-10.4843
▁jeff	-10.4845
person	-10.4845
▁proceed	-10.4846
ologi	-10.4846
▁dick	-10.4849
▁nazi	-10.485
▁azerbaijan	-10.485
bla	-10.4851
▁vehicle	-10.4851
bat	-10.4851
▁hawk	-10.4854
ivity	-10.4855
▁advocate	-10.486
ça	-10.4863
▁blu	-10.4864
▁tech	-10.4865
▁downtown	-10.4865
$	-10.4867
▁meta	-10.4869
▁credit	-10.4869
▁versus	-10.4875
▁vin	-10.4876
▁starts	-10.4876
▁brian	-10.4878
▁louisiana	-10.488
▁é	-10.4884
▁nepal	-10.4889
▁brad	-10.489
;&	-10.489
▁1899	-10.4892
▁existence	-10.4892
▁sequence	-10.4895
▁penn	-10.4899
▁successfully	-10.4904
▁kg	-10.4906
▁closely	-10.4913
▁recipient	-10.4913
▁gran	-10.4916
▁magic	-10.4917
▁derby	-10.4921
▁voted	-10.4931
▁(),	-10.4933
▁tal	-10.4933
▁add	-10.4938
▁coastal	-10.4939
▁cul	-10.4943
▁bottom	-10.4944
▁encourage	-10.4945
▁businessman	-10.4945
▁allows	-10.4948
▁noble	-10.4952
▁gay	-10.4953
▁cousin	-10.4953
liga	-10.4954
▁rad	-10.4961
▁anniversary	-10.4964
▁michel	-10.4969
▁christmas	-10.4973
▁ei	-10.4977
▁passing	-10.4982
▁chess	-10.4982
▁1998,	-10.499
▁lim	-10.4991
▁communication	-10.4994
league	-10.4994
phe	-10.4997
▁hau	-10.4997
▁yorkshire	-10.4998
▁recreation	-10.5002
▁nova	-10.5004
▁medium	-10.5006
uf	-10.5011
▁nickname	-10.5014
direct	-10.5019
▁bag	-10.5025
▁solid	-10.5026
path	-10.5026
▁graphic	-10.5034
▁glasgow	-10.5038
▁select	-10.5042
â	-10.5047
▁teachers	-10.505
▁gastropod	-10.5051
▁percent	-10.5053
▁antarctic	-10.5056
▁fill	-10.5056
▁notably	-10.5057
▁kir	-10.5058
▁covid	-10.506
▁agreed	-10.5061
▁stan	-10.5064
▁peer	-10.5073
▁stood	-10.5077
▁1896	-10.5078
▁occupation	-10.5079
▁examples	-10.5088
▁lawrence	-10.509
▁franchise	-10.5091
▁pier	-10.5092
▁atlanta	-10.5094
▁intelligence	-10.5099
lets	-10.51
▁lie	-10.5108
▁prefecture	-10.5109
▁tell	-10.5112
eau	-10.5126
▁cdp	-10.5133
▁threat	-10.5137
▁fans	-10.5138
▁settle	-10.5139
▁respect	-10.514
▁clan	-10.5142
▁risk	-10.5147
▁(15	-10.5149
comp	-10.5156
▁developing	-10.5156
hall	-10.5157
▁bid	-10.5159
▁plus	-10.5163
▁briefly	-10.5164
category	-10.5164
▁marsh	-10.5168
fish	-10.5175
▁lecture	-10.518
stead	-10.518
▁arranged	-10.5181
cip	-10.5186
▁manuscript	-10.5187
▁send	-10.5187
:00	-10.5189
▁hour	-10.5189
force	-10.5195
▁inaugural	-10.5205
verse	-10.5205
▁tend	-10.5208
families	-10.5208
▁israeli	-10.521
▁chemistry	-10.5217
▁miami	-10.5218
▁dave	-10.5224
▁successor	-10.5227
▁dub	-10.5227
▁belonging	-10.5228
▁crossing	-10.5228
▁license	-10.5229
read	-10.5229
▁depth	-10.5234
▁thailand	-10.5238
▁baker	-10.5239
▁eva	-10.5243
▁ok	-10.5245
▁$3	-10.5254
front	-10.5257
▁protected	-10.526
▁1897	-10.526
this	-10.5261
▁hungary	-10.5263
▁(4	-10.5269
▁1870	-10.527
uli	-10.5274
▁branches	-10.5277
▁veteran	-10.5279
▁detroit	-10.528
▁discovery	-10.5285
ites	-10.5288
▁41	-10.5293
kka	-10.5293
▁centuries	-10.5302
vian	-10.5308
▁classified	-10.5309
▁fifa	-10.5309
▁jordan	-10.5314
mour	-10.5315
▁harris	-10.5315
shan	-10.5323
▁structures	-10.5326
qual	-10.5335
▁alfred	-10.5336
▁workshop	-10.5338
▁arkansas	-10.5347
▁dating	-10.5348
▁tip	-10.5354
▁stores	-10.5354
▁honors	-10.536
▁riding	-10.5368
▁bath	-10.5371
▁ultimately	-10.5376
▁opposite	-10.5376
▁victor	-10.5382
▁ron	-10.5391
▁typical	-10.5394
▁eighth	-10.5404
▁rib	-10.5406
▁index	-10.5409
▁thirty	-10.5411
▁ability	-10.5414
▁gill	-10.5416
▁chose	-10.5417
enburg	-10.5418
▁covering	-10.543
▁adaptation	-10.5432
▁demo	-10.5432
▁dropped	-10.5435
▁needed	-10.5436
uru	-10.5443
▁1895	-10.5458
▁progressive	-10.5459
tech	-10.5464
▁terminal	-10.5466
▁latino	-10.5467
▁skin	-10.5473
emi	-10.5474
▁wait	-10.5485
▁journey	-10.5486
▁jose	-10.5488
▁struggle	-10.549
▁tourist	-10.5492
▁variant	-10.5496
▁voivodeship	-10.5498
▁maha	-10.5499
ote	-10.5513
▁municipalities	-10.5513
dict	-10.5515
▁scout	-10.5518
▁learn	-10.5524
▁appearing	-10.5531
▁influenced	-10.5533
tak	-10.5539
▁mouth	-10.5541
phy	-10.5542
▁admitted	-10.5544
▁electro	-10.5553
▁shooting	-10.5553
▁exhibit	-10.5555
▁till	-10.5555
vat	-10.5557
▁boundary	-10.5564
▁abbey	-10.5573
▁alexandr	-10.5578
member	-10.5579
▁archbishop	-10.5588
▁functions	-10.5591
▁citizens	-10.5593
but	-10.5594
odor	-10.5596
▁swe	-10.5598
aire	-10.5601
print	-10.5601
▁councillor	-10.5606
▁bir	-10.5607
script	-10.5607
▁unable	-10.5608
▁signing	-10.561
▁visiting	-10.5616
▁uni	-10.5623
▁defensive	-10.5623
▁sul	-10.5625
▁audio	-10.5627
▁credits	-10.5628
▁exception	-10.5628
▁reasons	-10.5632
▁wooden	-10.5635
▁gordon	-10.5644
▁researcher	-10.5646
▁1892	-10.5646
mur	-10.5646
▁liber	-10.5647
▁hampshire	-10.5648
▁motion	-10.5651
▁engaged	-10.5653
▁combination	-10.5655
▁laboratory	-10.5659
▁monastery	-10.5659
▁rabbi	-10.566
plane	-10.5662
▁raid	-10.5663
▁intersection	-10.5664
aux	-10.5669
zon	-10.567
▁leon	-10.5671
card	-10.5674
▁underground	-10.5677
lou	-10.5677
▁1894	-10.5681
▁carol	-10.5684
▁vel	-10.5686
▁1997,	-10.5687
▁nord	-10.5688
▁determined	-10.5689
▁rescue	-10.5691
pm	-10.5694
▁lay	-10.5702
▁moment	-10.5707
,500	-10.571
dé	-10.5713
▁athlete	-10.5717
▁dress	-10.5719
▁desert	-10.5724
▁tunnel	-10.5725
▁grow	-10.5727
▁entirely	-10.5727
▁brief	-10.573
pel	-10.5734
▁refuge	-10.5737
▁restored	-10.5739
▁ip	-10.574
▁whilst	-10.574
▁scheme	-10.5741
▁lap	-10.5741
▁1893	-10.5742
▁cells	-10.5743
▁ry	-10.5747
▁specifically	-10.5754
▁1889	-10.5756
▁hunt	-10.5757
▁outdoor	-10.5757
gua	-10.5759
vit	-10.5761
pra	-10.5763
▁1996,	-10.5767
▁relative	-10.5769
language	-10.5787
▁rider	-10.579
▁princess	-10.579
dell	-10.5798
▁faith	-10.58
▁ahead	-10.5802
▁parallel	-10.5803
▁baronet	-10.5806
▁clean	-10.5807
▁2021,	-10.581
▁says	-10.5811
north	-10.5813
▁slave	-10.5813
▁delhi	-10.5818
▁window	-10.5819
phon	-10.5823
iga	-10.5824
▁saturday	-10.5824
▁insurance	-10.5826
▁describes	-10.5826
ão	-10.5827
ridge	-10.5828
▁injured	-10.5829
called	-10.5831
rama	-10.5831
state	-10.5835
▁suggested	-10.5835
▁nuclear	-10.5839
▁extinct	-10.5844
▁severe	-10.5849
▁faced	-10.5857
▁cuba	-10.5862
para	-10.5865
▁showed	-10.5866
tribu	-10.5866
▁parent	-10.5868
▁punjab	-10.5871
200	-10.5872
itch	-10.5874
▁universal	-10.5877
▁tony	-10.5878
▁hawaii	-10.5881
ddy	-10.5886
gie	-10.5887
▁discover	-10.5891
▁sample	-10.5892
▁canton	-10.59
▁childhood	-10.5905
▁py	-10.5907
▁serbian	-10.5909
▁mean	-10.591
▁tel	-10.5914
anga	-10.5916
▁52	-10.5918
▁reality	-10.5926
oka	-10.5926
best	-10.5928
▁unsuccessful	-10.5928
▁correct	-10.593
▁utah	-10.5932
▁decades	-10.5934
▁passengers	-10.5935
▁specimen	-10.5937
raj	-10.5937
▁decide	-10.5939
▁provision	-10.594
▁relegated	-10.594
▁matthew	-10.5947
▁annually	-10.5951
▁fossil	-10.5954
▁bernard	-10.5959
▁employees	-10.5964
gs	-10.5967
▁purchase	-10.5968
▁repair	-10.597
▁victim	-10.597
▁pic	-10.5975
▁vocal	-10.5978
lington	-10.5986
chang	-10.5986
love	-10.5987
mount	-10.5989
▁competitive	-10.5989
▁springs	-10.599
▁claims	-10.5995
-4	-10.5995
▁introduction	-10.5998
team	-10.5998
▁vehicles	-10.6001
▁papers	-10.6005
▁maintained	-10.6005
▁hollywood	-10.6005
▁neuro	-10.6007
▁43	-10.6024
lim	-10.6029
▁baby	-10.6029
▁broken	-10.6029
▁alter	-10.6031
▁congregation	-10.6033
▁marketing	-10.6035
▁sense	-10.6036
body	-10.6039
▁55	-10.6041
▁speech	-10.6042
▁poems	-10.6043
-17	-10.6043
fm	-10.6043
▁afterwards	-10.6044
▁fishing	-10.6046
▁greatest	-10.6047
▁compound	-10.605
▁cleveland	-10.6054
▁tried	-10.6055
▁150	-10.6056
hun	-10.606
▁operate	-10.6061
scribe	-10.6068
▁phone	-10.6068
▁push	-10.6071
▁herself	-10.6072
▁1891	-10.6074
▁mention	-10.6074
▁nearest	-10.6081
▁pont	-10.6082
▁highlight	-10.6084
▁crash	-10.6084
rise	-10.6084
▁shir	-10.6091
▁sor	-10.6092
▁birds	-10.6097
2)	-10.61
ttle	-10.61
▁1885	-10.6105
–5	-10.6107
▁qa	-10.611
▁users	-10.6114
▁copy	-10.6129
▁evening	-10.6133
activ	-10.6134
▁coalition	-10.6139
▁dispute	-10.6142
cott	-10.6143
▁pastor	-10.6148
▁spoke	-10.6156
▁shift	-10.6158
▁triple	-10.6158
dou	-10.616
▁gulf	-10.6161
[	-10.6161
eva	-10.6165
▁experiment	-10.6165
gri	-10.6166
craft	-10.6169
▁youngest	-10.6175
▁roy	-10.6176
▁doctorate	-10.6181
ao	-10.6184
▁pine	-10.6186
▁none	-10.6187
▁formally	-10.6188
▁cool	-10.6195
▁biggest	-10.6198
▁flower	-10.6199
▁wu	-10.62
▁drink	-10.6209
▁sugar	-10.6209
▁lecturer	-10.6211
▁1888	-10.6212
▁madrid	-10.6212
▁neu	-10.6213
▁funds	-10.6213
▁regulation	-10.6214
▁46	-10.6215
ancy	-10.6227
▁solar	-10.6233
ware	-10.6237
lumin	-10.6247
view	-10.6247
▁something	-10.6254
kon	-10.6262
▁poem	-10.6264
▁adults	-10.6268
▁romania	-10.627
▁felt	-10.6275
▁ign	-10.628
▁seattle	-10.6282
▁transition	-10.6283
▁birmingham	-10.6284
▁serbia	-10.6285
▁decade	-10.6288
mouth	-10.6289
▁rhode	-10.629
▁brooklyn	-10.6291
▁ride	-10.6297
▁apart	-10.6303
▁biology	-10.6304
▁replace	-10.6309
▁stayed	-10.631
▁manufacturing	-10.6317
four	-10.6318
▁safe	-10.6323
▁allowing	-10.6325
▁operator	-10.633
acle	-10.633
hydr	-10.6336
▁acted	-10.6337
▁methods	-10.6346
▁tells	-10.6352
franc	-10.6352
▁venezuela	-10.6352
▁tropical	-10.6353
▁participant	-10.6357
▁sprint	-10.636
▁patron	-10.6361
▁photography	-10.6371
▁manor	-10.6374
▁kor	-10.6377
▁trinity	-10.6378
1.5	-10.6385
▁eat	-10.6388
▁carbon	-10.6389
▁uefa	-10.6393
▁restoration	-10.64
▁earning	-10.6403
▁roster	-10.6403
▁formal	-10.6407
▁budget	-10.6415
▁submarine	-10.6422
chief	-10.6423
kel	-10.6423
▁pittsburgh	-10.6425
▁distinct	-10.6426
▁ticket	-10.6428
boat	-10.6428
▁liverpool	-10.6431
wen	-10.6431
▁unusual	-10.6431
▁fal	-10.6436
▁pole	-10.6443
▁wildlife	-10.6446
▁landing	-10.6451
real	-10.6452
chester	-10.6454
rome	-10.646
▁islamic	-10.6464
▁drain	-10.6464
▁thick	-10.6465
city	-10.6468
▁attached	-10.6474
▁selling	-10.6475
bling	-10.6477
▁burg	-10.6477
▁drummer	-10.6478
inae	-10.6481
▁beautiful	-10.6485
▁reader	-10.6487
▁apple	-10.6489
ref	-10.6491
▁enterprise	-10.6494
even	-10.6499
▁collect	-10.6503
▁pie	-10.6503
▁raf	-10.6508
▁admiral	-10.651
tier	-10.6511
▁summary	-10.6512
▁replacing	-10.6513
▁morgan	-10.6514
position	-10.6514
▁thor	-10.6515
▁youtube	-10.6523
▁drafted	-10.6524
▁maine	-10.6526
▁hunter	-10.6531
ía	-10.6533
▁rice	-10.6535
▁1887	-10.6536
▁munich	-10.6539
▁gender	-10.6544
▁sher	-10.6545
én	-10.6545
▁regarded	-10.6546
rest	-10.6547
▁quar	-10.6548
▁campbell	-10.6556
▁performer	-10.6563
▁managing	-10.6566
▁artillery	-10.6567
berry	-10.6568
otic	-10.6568
▁opposed	-10.6569
▁separated	-10.657
▁tributary	-10.6573
▁hir	-10.6574
▁importance	-10.6578
▁automatic	-10.6579
tile	-10.658
▁arrangement	-10.6587
▁argentine	-10.6589
ulate	-10.659
▁tries	-10.6594
▁emerge	-10.6595
▁improve	-10.6598
▁offering	-10.6601
▁baltimore	-10.6602
▁slovenia	-10.6602
▁possibly	-10.6604
▁1860	-10.6606
▁quite	-10.6609
uda	-10.6613
▁capita	-10.6615
▁sau	-10.6623
▁surrounded	-10.6625
▁vision	-10.6627
▁fellowship	-10.6628
▁terminus	-10.6637
▁fuel	-10.6648
▁drawn	-10.6649
▁remix	-10.6649
▁determine	-10.6652
onia	-10.6653
cies	-10.6656
hir	-10.666
▁resort	-10.6661
▁statement	-10.6664
last	-10.6668
▁charity	-10.6674
▁dragon	-10.6675
▁manage	-10.6679
▁mut	-10.6682
ault	-10.6682
▁donald	-10.6685
▁nurse	-10.6686
media	-10.6687
▁pandemic	-10.6687
▁pipe	-10.6687
▁silent	-10.6691
▁listen	-10.6692
▁coached	-10.6693
▁mcg	-10.6694
▁tourism	-10.6698
titut	-10.6702
▁freestyle	-10.6704
▁praised	-10.6704
including	-10.6704
▁apartment	-10.6708
▁romanian	-10.6708
count	-10.6709
▁mollusk	-10.671
ān	-10.6711
bot	-10.6717
▁tackle	-10.6719
▁diamond	-10.672
▁austin	-10.6721
▁licensed	-10.6721
▁baptist	-10.6723
▁portland	-10.6725
▁colon	-10.6727
▁powerful	-10.6731
▁heard	-10.6736
▁teach	-10.6736
▁1865	-10.674
▁feel	-10.674
▁47	-10.6742
▁lip	-10.6753
▁nelson	-10.6754
▁instrumental	-10.676
ibility	-10.6767
▁trace	-10.6768
plan	-10.677
▁earliest	-10.6776
▁pull	-10.6779
▁widow	-10.6779
▁implement	-10.678
▁rifle	-10.6782
▁representation	-10.6782
▁toured	-10.6782
died	-10.6786
▁choir	-10.6791
stock	-10.6793
▁hil	-10.6793
ña	-10.6794
▁ivan	-10.6794
▁crowd	-10.6794
▁reporter	-10.6805
▁thompson	-10.6806
▁squ	-10.6807
▁dancer	-10.681
▁rico	-10.6821
▁statistical	-10.6822
▁alberta	-10.6836
▁marathon	-10.6836
▁rosa	-10.6837
▁relay	-10.6838
▁client	-10.6844
▁obtain	-10.6844
face	-10.6847
▁wish	-10.6848
▁mort	-10.685
▁essay	-10.6852
rose	-10.6852
▁brain	-10.6853
▁touring	-10.6854
▁uganda	-10.6857
vari	-10.6864
▁mason	-10.6865
▁identity	-10.6867
▁+	-10.6869
▁henri	-10.687
▁interested	-10.6872
leigh	-10.6873
▁eldest	-10.6873
▁principle	-10.6874
▁employ	-10.6877
▁failure	-10.6877
▁headed	-10.6879
▁ottoman	-10.6882
▁fifteen	-10.6891
▁glacier	-10.6892
▁descent	-10.6893
▁51	-10.6894
▁|	-10.6897
▁northwestern	-10.6899
▁charlotte	-10.6899
ár	-10.6902
▁marshall	-10.6905
▁eco	-10.6905
western	-10.6913
▁depend	-10.6922
▁stewart	-10.6924
▁carry	-10.6927
▁observation	-10.6931
▁hindu	-10.6935
game	-10.6937
▁...	-10.6939
▁flowering	-10.6941
▁hom	-10.6942
▁heavily	-10.6958
▁manga	-10.6958
phone	-10.6967
smith	-10.6968
▁resident	-10.6968
▁clinical	-10.6972
▁wol	-10.6973
▁lamb	-10.6973
▁1864	-10.6976
▁truck	-10.6977
▁jet	-10.698
▁1886	-10.6981
▁lithuania	-10.6983
▁corporate	-10.6984
▁cable	-10.6984
▁refused	-10.6986
▁vocalist	-10.6991
▁tenure	-10.6994
▁destroy	-10.6997
▁patent	-10.7003
▁premiere	-10.7011
▁driving	-10.7017
ün	-10.7027
▁divorce	-10.703
▁assumed	-10.703
vet	-10.703
▁serial	-10.7034
▁photographer	-10.7036
▁jar	-10.7038
▁revenue	-10.7042
▁ensemble	-10.7051
ctu	-10.7051
▁subfamily	-10.7053
▁pink	-10.7059
▁bosnia	-10.7066
▁merger	-10.7067
▁replacement	-10.7067
▁paralympic	-10.7067
▁reservoir	-10.7069
▁slope	-10.707
▁commerce	-10.7075
bha	-10.708
▁roughly	-10.7083
▁retained	-10.7085
▁russell	-10.7085
▁sweet	-10.7088
▁visitors	-10.7088
▁songwriter	-10.7091
▁violin	-10.7093
▁sharp	-10.7096
▁dakota	-10.7103
▁skills	-10.7104
angel	-10.7104
space	-10.7113
ppa	-10.7117
▁ox	-10.7117
core	-10.7119
kara	-10.7119
▁beijing	-10.712
▁businesses	-10.712
▁(5	-10.7126
▁christopher	-10.7126
?"	-10.7129
▁belt	-10.7132
▁experimental	-10.7132
nagar	-10.7133
▁pac	-10.7135
▁gift	-10.714
mari	-10.7146
▁vir	-10.7147
▁ninth	-10.7148
▁1884	-10.7148
▁neighbor	-10.7151
▁hang	-10.7151
▁friendly	-10.7161
▁ownership	-10.7163
▁cliff	-10.7172
▁variation	-10.7174
▁adelaide	-10.718
post	-10.7183
▁boot	-10.7183
▁colony	-10.7186
_1	-10.7187
▁symphony	-10.7189
▁advisory	-10.7193
▁"(	-10.7194
▁richmond	-10.7194
▁proper	-10.7195
▁tang	-10.7196
▁bodies	-10.7198
▁playoffs	-10.7202
▁dated	-10.7208
▁kun	-10.721
▁finding	-10.7213
▁ordained	-10.7214
▁pierre	-10.7216
▁grandfather	-10.7218
▁user	-10.7225
▁meant	-10.723
▁kilometers	-10.7232
▁outer	-10.7233
ssel	-10.7234
▁accompanied	-10.7234
▁doing	-10.7241
▁industries	-10.7244
▁donated	-10.7251
▁opportunity	-10.7258
▁murray	-10.7259
2.5	-10.7264
▁additionally	-10.7266
▁fear	-10.727
▁pupil	-10.7274
▁monk	-10.7274
▁carlos	-10.7276
▁verse	-10.7277
▁anchor	-10.7277
▁alleged	-10.7283
dorf	-10.7284
▁cum	-10.7286
zhou	-10.7297
▁expand	-10.7302
▁descendant	-10.7303
▁trustee	-10.7304
▁graham	-10.7311
▁ruled	-10.7312
▁contributing	-10.7318
▁exhibited	-10.7321
▁treaty	-10.7323
▁duty	-10.7324
▁cub	-10.7326
▁acclaim	-10.7328
▁compiled	-10.733
contin	-10.7331
▁withdraw	-10.734
▁broadway	-10.7342
▁wicket	-10.7349
▁fold	-10.735
▁holiday	-10.735
▁landmark	-10.7355
borg	-10.7356
▁stretch	-10.7357
▁hull	-10.7361
▁shut	-10.7361
▁dallas	-10.7363
▁counsel	-10.7364
▁subsidiary	-10.7365
▁ble	-10.7369
▁vancouver	-10.7375
▁pav	-10.7381
cock	-10.7386
▁electrical	-10.7391
▁demolished	-10.7392
▁equivalent	-10.7392
▁franklin	-10.7395
world	-10.7397
look	-10.7398
▁tape	-10.7402
▁ballet	-10.7403
▁patients	-10.7404
▁infrastructure	-10.7404
turn	-10.7412
▁1863	-10.7414
▁jur	-10.7415
▁tube	-10.7415
▁abdul	-10.7417
metric	-10.7417
▁gru	-10.742
ovich	-10.7424
▁exact	-10.7424
▁celebrated	-10.7427
spor	-10.7428
▁load	-10.7429
▁cartoon	-10.7438
ffe	-10.7441
▁sarah	-10.7445
▁surgery	-10.7445
▁abroad	-10.7448
▁1881	-10.7453
▁trump	-10.7458
▁delegate	-10.7461
▁orthodox	-10.7462
▁romantic	-10.7465
colo	-10.7468
▁qualify	-10.7475
▁kelly	-10.7475
▁wright	-10.7476
▁layer	-10.7479
quin	-10.748
▁larvae	-10.7481
▁message	-10.7482
▁sultan	-10.7487
aria	-10.7489
▁54	-10.7499
▁fee	-10.75
▁indigenous	-10.7501
▁duties	-10.7501
▁thirteen	-10.7502
▁evans	-10.7508
▁expression	-10.7509
▁tale	-10.7515
▁merit	-10.752
▁drew	-10.7523
▁1882	-10.7532
▁residing	-10.7533
▁southeastern	-10.7534
▁robinson	-10.7537
▁operational	-10.7547
▁update	-10.7552
▁mental	-10.7552
▁bristol	-10.7559
▁participation	-10.7563
▁beauty	-10.7566
▁calendar	-10.7567
▁pond	-10.7568
▁weekend	-10.7571
horn	-10.7571
▁patrol	-10.7575
▁contrast	-10.7575
pot	-10.7577
▁joy	-10.7579
▁plane	-10.7581
zel	-10.7581
length	-10.7586
▁enemy	-10.7587
big	-10.7587
▁serie	-10.7593
name	-10.7594
▁brun	-10.7594
▁beau	-10.7598
▁deposit	-10.7601
▁attempted	-10.7603
▁continental	-10.7614
▁wingspan	-10.7615
▁são	-10.7617
▁swan	-10.7632
▁sala	-10.7633
▁cannot	-10.7645
500	-10.7647
▁getting	-10.7647
▁sought	-10.7649
two	-10.7649
▁rebuilt	-10.7651
break	-10.7654
▁competitor	-10.7661
▁relief	-10.7662
▁inscription	-10.7664
▁internationally	-10.7665
brand	-10.7666
▁warm	-10.7672
▁bone	-10.7677
ophi	-10.7681
▁kw	-10.7683
▁developer	-10.7685
▁angle	-10.7688
▁killing	-10.7688
▁necessary	-10.7694
▁curve	-10.7698
▁ryan	-10.77
▁diver	-10.7701
▁mosque	-10.7704
▁regarding	-10.7706
▁crystal	-10.7706
▁essential	-10.7706
roid	-10.7708
▁invasion	-10.7711
zza	-10.7715
▁hunting	-10.772
▁lil	-10.7723
▁mess	-10.7726
▁journalism	-10.7727
▁relocated	-10.7727
▁1883	-10.7734
▁sponsored	-10.7743
▁controversy	-10.7748
ounce	-10.7751
formerly	-10.7752
50,000	-10.7754
▁lift	-10.7758
▁resolution	-10.7759
▁cerambycidae	-10.7761
▁sixteen	-10.7762
▁1862	-10.7766
▁concluded	-10.7773
▁influential	-10.7776
▁kel	-10.7776
▁bruce	-10.7782
white	-10.7784
▁eliminated	-10.779
▁shield	-10.7795
▁jesus	-10.7799
▁rising	-10.7802
▁surviving	-10.7803
▁ranch	-10.7808
▁cloud	-10.781
▁coaches	-10.781
corp	-10.7813
▁otherwise	-10.7813
:#	-10.7827
▁53	-10.7828
jiang	-10.7828
▁collective	-10.7829
▁enable	-10.783
▁bab	-10.7832
▁handle	-10.7834
▁superior	-10.7834
▁goalkeeper	-10.7835
rou	-10.7838
▁barcelona	-10.784
▁advisor	-10.784
▁publish	-10.7843
▁retiring	-10.7854
▁cash	-10.7855
▁civilian	-10.7856
▁rhythm	-10.7859
▁gent	-10.7862
▁concrete	-10.7863
▁perfect	-10.7866
–7	-10.7867
yev	-10.787
▁immigrant	-10.787
▁diploma	-10.7877
▁soldier	-10.7884
▁amsterdam	-10.7886
▁committed	-10.789
▁controlled	-10.7897
▁proved	-10.7902
▁erected	-10.7905
zzo	-10.7907
▁capture	-10.7909
▁advertising	-10.7909
–17	-10.791
▁eighteen	-10.7911
▁learned	-10.7919
▁items	-10.792
▁virtual	-10.7921
▁congo	-10.7921
-12	-10.7921
▁greg	-10.7922
▁luis	-10.7937
▁nun	-10.7937
▁collegiate	-10.7939
▁entering	-10.7939
▁focuses	-10.794
ño	-10.7945
issa	-10.7945
▁jamaica	-10.7948
load	-10.7949
▁rica	-10.7959
▁forming	-10.796
krishna	-10.7961
▁attract	-10.7967
▁kevin	-10.7967
▁popularity	-10.7969
▁rick	-10.797
▁virgin	-10.7974
▁proposal	-10.7977
▁criticism	-10.7978
▁thin	-10.798
▁notice	-10.799
erie	-10.7995
comb	-10.8009
▁nominee	-10.8013
▁storage	-10.8019
▁lp	-10.8023
▁wake	-10.8023
▁math	-10.8031
▁robin	-10.8032
▁birthday	-10.8033
asse	-10.8033
▁observed	-10.8039
▁buffalo	-10.8043
▁improvement	-10.8044
▁participating	-10.8045
▁inducted	-10.8046
stad	-10.8048
phil	-10.8052
▁vale	-10.8053
▁sung	-10.8053
▁citation	-10.8054
▁grove	-10.8056
▁context	-10.8065
vig	-10.8068
mara	-10.8069
▁orleans	-10.807
▁didn	-10.8072
▁iranian	-10.808
▁mou	-10.8095
▁monitor	-10.8096
▁looking	-10.8107
▁rebel	-10.8109
green	-10.8114
▁maur	-10.8115
▁1850	-10.8123
owned	-10.8125
▁emergency	-10.8128
▁succeed	-10.8129
▁cluster	-10.8129
▁gross	-10.8131
▁pianist	-10.8133
ør	-10.8136
▁revolutionary	-10.8136
▁1861	-10.814
▁hamlet	-10.814
▁behavior	-10.8151
▁coat	-10.8152
▁detect	-10.8159
than	-10.8161
made	-10.8169
▁organised	-10.8176
▁56	-10.8182
▁perhaps	-10.8185
▁gram	-10.8186
cum	-10.8187
▁bart	-10.8187
▁fourteen	-10.8189
▁athens	-10.8191
▁profile	-10.8193
▁resistance	-10.8203
bir	-10.8204
▁kol	-10.8205
▁tied	-10.8205
▁aggregate	-10.8205
▁tram	-10.8206
▁forewings	-10.8207
▁stanley	-10.8209
▁grown	-10.8209
▁attending	-10.8212
▁spoken	-10.8214
▁delivered	-10.8219
▁pel	-10.823
wald	-10.823
▁phillip	-10.8233
▁existed	-10.8233
▁raise	-10.8237
▁shrub	-10.8241
black	-10.8241
▁improved	-10.8242
▁syl	-10.8253
▁why	-10.826
▁occasionally	-10.8263
▁consumer	-10.8272
lett	-10.8288
▁mineral	-10.8292
▁administrator	-10.8294
▁helping	-10.8295
▁stating	-10.8297
▁terror	-10.8299
▁hub	-10.8299
▁š	-10.8305
▁entrepreneur	-10.8309
▁kennedy	-10.8314
▁bench	-10.8319
▁kerala	-10.8319
▁nothing	-10.8325
▁innings	-10.8325
▁calling	-10.8327
▁auckland	-10.8328
ante	-10.8328
▁collaborated	-10.8329
▁completing	-10.8335
▁amongst	-10.8342
▁schu	-10.8346
▁encounter	-10.8349
released	-10.8352
▁prague	-10.8352
▁longest	-10.8352
tique	-10.8354
▁egyptian	-10.8355
▁trying	-10.8356
▁touchdown	-10.8357
▁tir	-10.8359
founded	-10.8361
▁benjamin	-10.8362
ground	-10.8365
▁1876	-10.8367
▁diet	-10.8367
▁warren	-10.8368
▁psychology	-10.8373
▁bold	-10.8373
free	-10.8375
▁undergraduate	-10.8389
▁opinion	-10.8394
▁affect	-10.8396
▁sabha	-10.8399
▁shaw	-10.8399
phyll	-10.8405
▁voting	-10.8411
wel	-10.8414
▁reduce	-10.8416
▁bog	-10.8421
▁designation	-10.8421
▁bulgarian	-10.8421
▁hole	-10.8423
▁ratio	-10.8424
▁negative	-10.8428
▁1879	-10.844
central	-10.8443
▁sig	-10.8446
fire	-10.8447
▁conductor	-10.8451
▁check	-10.8453
present	-10.8461
president	-10.8462
grand	-10.8466
▁1878	-10.847
▁grace	-10.8472
▁warrior	-10.8473
▁specialist	-10.8476
hoe	-10.8479
▁preserved	-10.8485
▁caribbean	-10.8487
▁losses	-10.8487
▁graduation	-10.8489
▁archaeological	-10.8491
trans	-10.8495
▁mail	-10.8496
▁debate	-10.8499
▁dock	-10.8499
▁offensive	-10.85
foot	-10.851
owski	-10.8511
▁easily	-10.8512
▁ferry	-10.8513
▁continuous	-10.8515
▁highland	-10.8522
▁temporary	-10.8522
▁ful	-10.8522
color	-10.8534
▁nba	-10.8537
ential	-10.854
▁raja	-10.8544
▁abd	-10.8545
▁1872	-10.8546
▁trio	-10.8548
▁smooth	-10.8548
ovsky	-10.8549
▁alaska	-10.8552
▁algeria	-10.8553
▁download	-10.8553
▁accused	-10.8554
▁yale	-10.8556
▁ceased	-10.8557
▁maz	-10.8557
▁rig	-10.8561
ön	-10.8562
tina	-10.857
▁trading	-10.857
▁fixed	-10.8571
▁sporting	-10.8578
▁yard	-10.8581
▁foster	-10.8586
▁hamburg	-10.8592
▁allmusic	-10.8593
▁cyclist	-10.8597
▁1875	-10.8601
▁completion	-10.8608
▁transit	-10.8612
▁export	-10.8613
▁stamp	-10.8613
▁1871	-10.8615
▁boundaries	-10.8615
▁kai	-10.8618
▁celebration	-10.8624
wall	-10.8626
bble	-10.8627
related	-10.8634
▁joan	-10.8635
▁ruler	-10.8642
▁categories	-10.8646
▁siege	-10.8648
▁linked	-10.8649
itude	-10.865
▁mega	-10.8663
▁clerk	-10.8665
▁shopping	-10.8669
piece	-10.8672
▁kirk	-10.8676
▁genetic	-10.8677
▁carter	-10.8679
▁mitchell	-10.8679
▁carr	-10.8685
mail	-10.8686
▁sv	-10.869
▁earn	-10.869
▁nhl	-10.8692
hurst	-10.8694
toria	-10.8695
gged	-10.8695
founder	-10.8697
▁1874	-10.8705
▁witness	-10.8707
▁contribution	-10.8709
▁attacked	-10.8712
▁continuing	-10.8714
▁animated	-10.8715
▁grammar	-10.8717
▁nevada	-10.8719
▁cited	-10.8721
▁enzyme	-10.8722
▁violence	-10.8725
▁wedding	-10.8727
▁passage	-10.8728
▁chen	-10.8729
▁survive	-10.8729
▁missing	-10.8731
kie	-10.8731
▁patriot	-10.8732
etta	-10.8732
▁retain	-10.8734
▁arabic	-10.8735
▁assistance	-10.8736
▁canon	-10.8743
▁disney	-10.8744
german	-10.8744
▁swimmer	-10.8748
▁seminary	-10.8751
▁prepared	-10.8751
▁gabriel	-10.8755
▁chronicle	-10.8758
▁armenian	-10.8765
▁exercise	-10.8766
▁pil	-10.8771
▁horror	-10.8776
▁wounded	-10.8783
▁cult	-10.8791
▁damaged	-10.8795
bird	-10.8796
▁rud	-10.8797
▁weak	-10.8801
▁consultant	-10.8804
wise	-10.8806
▁acres	-10.8824
▁mann	-10.8825
▁jimmy	-10.8827
▁altitude	-10.8831
▁milk	-10.8836
brook	-10.8855
▁attraction	-10.8856
▁worship	-10.8856
▁wool	-10.8857
▁elite	-10.886
▁comprises	-10.886
▁sleep	-10.8865
▁really	-10.8866
▁somewhat	-10.8868
▁regard	-10.8874
▁southwestern	-10.8877
▁lyric	-10.8881
▁bloom	-10.8886
▁coverage	-10.8892
▁topics	-10.8892
▁1000	-10.8894
▁integrated	-10.8896
▁northeastern	-10.8897
▁alternate	-10.8898
▁wayne	-10.8899
▁strategic	-10.8907
▁bulgaria	-10.8908
▁responsibility	-10.891
▁earthquake	-10.8911
▁filled	-10.8912
▁fantasy	-10.8912
▁belonged	-10.8913
bru	-10.8924
▁muhammad	-10.8924
▁gear	-10.8937
▁mul	-10.894
▁favour	-10.8945
▁rapper	-10.8947
▁advantage	-10.895
▁1868	-10.8956
speaking	-10.8965
section	-10.8966
▁gau	-10.8973
▁nicholas	-10.8978
▁caught	-10.8979
▁barbara	-10.8982
▁illustrated	-10.8985
throp	-10.8993
▁acquisition	-10.8995
▁carrying	-10.8997
▁printed	-10.9003
▁ensure	-10.9004
▁playoff	-10.9006
▁certificate	-10.9006
▁1873	-10.9006
▁guild	-10.901
bourg	-10.9011
▁universe	-10.902
▁cancelled	-10.9021
▁bonus	-10.9025
▁coup	-10.903
▁gli	-10.9031
▁vermont	-10.9033
▁handball	-10.9034
▁visible	-10.9034
▁1866	-10.9034
▁illness	-10.9039
▁dome	-10.904
▁uniform	-10.9042
▁repeated	-10.9042
2,000	-10.9042
▁1877	-10.9043
▁1867	-10.9047
▁stockholm	-10.905
sphere	-10.9051
▁specialized	-10.9052
march	-10.906
▁predecessor	-10.9065
fest	-10.9065
group	-10.9066
▁constitutional	-10.9072
winning	-10.9073
▁lodge	-10.9073
▁actual	-10.9073
▁petersburg	-10.908
▁destination	-10.9084
://	-10.9084
▁preparation	-10.9085
▁suicide	-10.9089
▁thereafter	-10.91
▁rama	-10.9106
▁susan	-10.9111
▁timber	-10.9113
▁crisis	-10.9118
pound	-10.9127
▁artwork	-10.9127
▁florence	-10.913
▁seal	-10.9137
ovo	-10.9143
▁asteroid	-10.9143
▁philippine	-10.9144
▁organize	-10.9147
▁desire	-10.9147
▁enrolled	-10.9148
▁certified	-10.9151
▁herbert	-10.9152
▁preserve	-10.9154
▁monthly	-10.9158
author	-10.9162
fur	-10.9168
first	-10.9172
▁latvia	-10.9176
▁cock	-10.9178
▁leonard	-10.9181
▁nik	-10.9188
▁boxing	-10.9189
▁cruise	-10.9193
ente	-10.9196
▁grandson	-10.9197
▁metre	-10.9199
▁rag	-10.9202
▁pain	-10.9204
▁catherine	-10.9207
▁rent	-10.9207
▁funded	-10.9213
▁sculptor	-10.9219
▁suspended	-10.922
▁easy	-10.9226
▁definition	-10.9226
▁installation	-10.9227
▁taxonomy	-10.923
▁mediterranean	-10.9233
▁cork	-10.9239
▁evolution	-10.9241
▁dramatic	-10.9242
▁remainder	-10.9242
▁tag	-10.9244
songwriter	-10.9247
▁charged	-10.9247
▁tun	-10.9248
▁surgeon	-10.9249
är	-10.9252
▁expressed	-10.9258
district	-10.9261
▁editorial	-10.9267
▁jurisdiction	-10.9267
▁dialect	-10.9269
▁resignation	-10.9271
▁marry	-10.9283
▁ottawa	-10.9287
▁croatian	-10.9295
▁steep	-10.9297
▁harbor	-10.9301
▁bark	-10.9302
jar	-10.9304
▁employment	-10.931
▁rector	-10.9314
▁harbour	-10.9316
▁autonomous	-10.9316
▁intention	-10.9316
▁tools	-10.9317
▁wang	-10.9318
▁trap	-10.9324
▁pm	-10.9342
hawk	-10.9348
▁exit	-10.9351
▁berkeley	-10.9354
▁cooperation	-10.936
▁croatia	-10.9361
▁leeds	-10.9367
▁involving	-10.9375
good	-10.9376
▁animation	-10.9385
▁innovation	-10.9385
▁nico	-10.9387
▁reveal	-10.9391
▁intermediate	-10.9397
▁stopped	-10.9397
▁jury	-10.9406
▁arrest	-10.9415
ambi	-10.9417
▁120	-10.9419
▁instruction	-10.9419
▁wellington	-10.942
▁affiliate	-10.942
▁gir	-10.9423
▁frequent	-10.9424
▁molecular	-10.9427
▁disappear	-10.9431
▁dual	-10.9434
▁database	-10.9435
▁loop	-10.9438
▁abstract	-10.944
▁arrival	-10.9441
▁thai	-10.9444
▁adopt	-10.9445
▁manner	-10.9445
▁pitcher	-10.9449
▁spiritual	-10.9449
▁vent	-10.9467
▁franco	-10.9467
▁episcopal	-10.9484
▁import	-10.9484
▁mora	-10.9489
▁warner	-10.9506
–16	-10.9514
▁shelter	-10.9515
▁pig	-10.9523
▁raw	-10.9525
hang	-10.9526
▁overseas	-10.9528
▁literacy	-10.9529
▁rocket	-10.9532
▁dynamic	-10.9539
▁gary	-10.9544
▁besides	-10.9545
▁diplomatic	-10.9546
▁lease	-10.9549
▁causing	-10.9557
–10	-10.9557
0.5	-10.9557
▁subdivision	-10.956
bell	-10.956
▁differ	-10.9566
▁afghanistan	-10.9567
▁friday	-10.9567
▁cincinnati	-10.9571
▁turner	-10.9572
▁bible	-10.9576
▁chester	-10.9577
▁mechanical	-10.9583
▁gha	-10.9584
▁departure	-10.9589
▁aspects	-10.9593
▁involve	-10.9594
▁adding	-10.9595
▁companion	-10.9595
▁inspiration	-10.9596
▁discipline	-10.9601
▁isolated	-10.961
rrell	-10.9613
▁knock	-10.9615
▁shanghai	-10.9618
▁servant	-10.9618
▁nest	-10.962
▁reputation	-10.9621
making	-10.9625
▁brisbane	-10.9635
▁alcohol	-10.9635
▁mechanism	-10.9635
▁guardian	-10.9636
▁vary	-10.9637
▁johnny	-10.9638
shima	-10.9638
▁macedonia	-10.9646
▁rangers	-10.9653
▁billy	-10.9656
▁stanford	-10.9656
etti	-10.9663
▁jin	-10.9677
▁stable	-10.968
▁trouble	-10.9681
▁skating	-10.9682
▁investigate	-10.9683
▁sierra	-10.9684
▁etymology	-10.9685
▁mau	-10.9687
▁colleague	-10.9689
▁nephew	-10.969
▁copenhagen	-10.97
▁fictional	-10.9704
series	-10.9704
▁ibn	-10.9709
shore	-10.9712
▁equipped	-10.9713
▁potter	-10.9714
▁element	-10.9716
▁modified	-10.9719
▁norfolk	-10.9719
▁1869	-10.9723
▁instance	-10.9727
▁newcastle	-10.9734
▁accomplish	-10.9738
▁sentenced	-10.9742
▁understanding	-10.9746
▁hugh	-10.9748
▁bang	-10.9751
▁interaction	-10.9754
▁respond	-10.9769
▁barry	-10.9771
▁ruth	-10.9772
▁georg	-10.9782
▁helm	-10.9783
▁achieve	-10.9783
▁connecting	-10.9787
▁vincent	-10.9787
▁collapse	-10.9793
▁abolished	-10.9797
▁montana	-10.98
osis	-10.9808
▁mathematical	-10.9811
▁#1	-10.9812
▁kumar	-10.9813
▁citizen	-10.9823
▁historically	-10.9824
▁devon	-10.9825
▁discussion	-10.9826
▁warsaw	-10.9831
▁sack	-10.9834
▁til	-10.9836
▁consist	-10.9838
▁maintenance	-10.9838
▁ethiopia	-10.9841
▁territories	-10.9846
▁bryan	-10.9848
▁wonder	-10.9855
▁cream	-10.9856
test	-10.9863
▁strategy	-10.9866
▁manhattan	-10.9868
building	-10.9871
fasci	-10.9872
▁keyboard	-10.9873
▁crater	-10.9875
▁finalist	-10.9875
code	-10.9877
▁renovation	-10.9885
▁blind	-10.9886
▁jerusalem	-10.9893
▁cycling	-10.9895
center	-10.9895
prov	-10.9896
▁procedure	-10.9899
▁examination	-10.9904
700	-10.9904
vir	-10.9906
▁nebraska	-10.9908
▁promise	-10.991
wyn	-10.991
▁wen	-10.991
uit	-10.9913
▁executed	-10.9916
▁cotton	-10.9917
▁división	-10.9919
minute	-10.9922
▁technologies	-10.9924
▁venice	-10.9934
▁huge	-10.9942
▁exile	-10.9947
▁butterfly	-10.9949
▁upgrade	-10.995
stadt	-10.9951
▁cattle	-10.9954
▁premise	-10.9955
▁construct	-10.9959
▁uruguay	-10.9965
▁significance	-10.9972
▁holder	-10.9972
▁sponsor	-10.9974
▁sight	-10.9975
▁affected	-10.9981
▁dent	-10.9983
▁sort	-10.9985
▁cali	-10.9987
▁mumbai	-10.9989
▁gap	-10.999
▁lifetime	-10.9992
▁delaware	-10.9992
▁cruz	-11
▁extremely	-11.0001
▁answer	-11.0006
▁ghost	-11.0012
▁judicial	-11.0019
▁passion	-11.0023
▁educator	-11.0027
▁liquid	-11.0031
chlor	-11.0034
▁substantial	-11.0037
▁spending	-11.0039
▁1840	-11.0042
psych	-11.0051
dolph	-11.0053
▁watt	-11.0054
▁anglican	-11.0056
▁800	-11.0058
▁hypo	-11.0065
▁quad	-11.0073
▁spider	-11.0073
▁manufactured	-11.0077
▁tune	-11.0083
hour	-11.0095
▁sheriff	-11.0101
▁predict	-11.0126
▁harrison	-11.0127
▁identify	-11.0127
▁hometown	-11.0128
/20	-11.0129
▁lyon	-11.013
▁attracted	-11.0134
▁gren	-11.0139
flu	-11.0142
▁bavaria	-11.0144
▁relegation	-11.0145
▁clock	-11.0153
second	-11.0155
▁demonstrate	-11.0159
▁vene	-11.016
▁moral	-11.0163
▁icon	-11.0167
music	-11.0168
▁biological	-11.0168
liter	-11.0175
▁subspecies	-11.0179
▁feeling	-11.0183
▁investor	-11.0185
mile	-11.0187
▁naming	-11.0193
▁remote	-11.0193
rington	-11.02
▁accessible	-11.0203
open	-11.0211
▁krist	-11.0211
▁ernest	-11.0212
▁gone	-11.0213
▁rough	-11.0213
▁punk	-11.0214
child	-11.022
▁persian	-11.0222
▁hook	-11.0226
▁embassy	-11.0227
▁closure	-11.0229
▁mali	-11.0233
▁jonathan	-11.0235
bourne	-11.0235
▁disbanded	-11.0237
▁drag	-11.0251
▁reaches	-11.0251
▁holland	-11.0252
▁facing	-11.0259
▁chal	-11.026
▁belarus	-11.0261
▁voters	-11.0262
▁hyper	-11.0267
▁variable	-11.0276
▁cbs	-11.0279
▁suffering	-11.0283
▁saudi	-11.0287
▁extensively	-11.0287
▁collector	-11.0288
▁craig	-11.0293
written	-11.0305
▁attributed	-11.0305
▁cargo	-11.0307
▁ahmed	-11.0319
▁wilhelm	-11.0321
▁nashville	-11.0321
▁copper	-11.0325
▁devoted	-11.0336
▁characterized	-11.0337
▁carrier	-11.0342
▁headquartered	-11.0344
▁java	-11.0345
▁cavalry	-11.0348
▁civic	-11.0356
▁crop	-11.0357
▁1857	-11.0359
▁lloyd	-11.0359
develop	-11.0359
nucle	-11.0363
▁injuries	-11.0364
▁observatory	-11.0366
▁threatened	-11.0368
▁woodland	-11.0369
▁wrestler	-11.0371
▁illegal	-11.0374
▁blog	-11.0378
▁suspect	-11.0381
▁supposed	-11.0381
▁capable	-11.0388
▁chase	-11.0389
▁jail	-11.0399
▁dish	-11.0404
▁yugoslavia	-11.0404
▁indicated	-11.0411
▁tribute	-11.0414
scale	-11.0419
what	-11.0422
▁travelled	-11.0433
▁everything	-11.0437
▁oliver	-11.0443
▁concentration	-11.0443
▁smart	-11.045
▁gospel	-11.045
▁nigerian	-11.0452
▁methodist	-11.046
▁controversial	-11.046
road	-11.0462
▁changing	-11.0464
▁1848	-11.0468
▁pakistani	-11.0469
▁pure	-11.0477
▁1859	-11.0479
▁sentence	-11.0479
▁odd	-11.0485
▁legislation	-11.0488
▁jason	-11.0492
▁decorated	-11.0497
▁prussia	-11.05
▁petr	-11.0502
▁ladies	-11.0507
▁manuel	-11.0511
▁happen	-11.0512
▁instructor	-11.0516
▁jews	-11.0524
▁requirements	-11.0534
▁midland	-11.0544
▁objective	-11.0544
▁happened	-11.0554
▁lowest	-11.0555
▁hebrew	-11.0561
eastern	-11.0566
▁rejected	-11.0567
ulous	-11.0568
▁diplomat	-11.0569
▁battery	-11.0572
august	-11.0585
▁recognised	-11.0589
▁cran	-11.059
▁bug	-11.059
▁inherited	-11.0591
▁font	-11.0591
▁rally	-11.0592
▁eligible	-11.0593
▁delta	-11.0595
▁collins	-11.06
▁possession	-11.0602
therapy	-11.0604
▁pedro	-11.0605
▁pub	-11.0612
three	-11.0613
▁elevated	-11.0619
▁valid	-11.0622
▁gala	-11.0622
▁http	-11.0626
▁ultra	-11.0626
▁vertical	-11.0627
▁owen	-11.0635
▁referee	-11.0639
▁involvement	-11.064
▁agencies	-11.0641
gawa	-11.0644
▁neighbouring	-11.065
▁allied	-11.0652
▁bala	-11.0654
▁canyon	-11.0654
▁depending	-11.0658
▁shri	-11.0659
▁arabia	-11.0661
▁sheffield	-11.0662
▁plantation	-11.0663
▁decoration	-11.0667
▁medic	-11.0673
▁encompass	-11.0674
▁excellence	-11.0675
▁sitting	-11.0675
▁panama	-11.0676
▁assisted	-11.0679
▁preliminary	-11.0683
current	-11.0684
▁fern	-11.0684
▁approval	-11.0685
▁extreme	-11.069
▁depot	-11.0692
wide	-11.0695
▁eve	-11.0695
▁250	-11.0698
▁marco	-11.0705
walk	-11.071
▁zoo	-11.0713
school	-11.0716
▁gable	-11.0717
▁mansion	-11.0723
sufficient	-11.0723
▁neighbourhood	-11.0725
▁theatrical	-11.0726
▁layout	-11.0733
▁premiership	-11.0736
background	-11.0739
▁transmission	-11.0741
▁latest	-11.0744
▁penalty	-11.0746
▁olive	-11.0746
▁exclusively	-11.0751
▁saskatchewan	-11.0751
week	-11.0759
▁originated	-11.078
▁anime	-11.0782
▁communi	-11.0783
▁balance	-11.0786
▁jewel	-11.0786
market	-11.0787
▁assassin	-11.0789
▁moderate	-11.0794
skoye	-11.0796
▁placing	-11.0802
▁behalf	-11.0802
titled	-11.081
▁examine	-11.0812
▁radical	-11.0813
▁profession	-11.0815
▁turk	-11.0821
▁buenos	-11.0821
▁minimum	-11.0823
▁blanc	-11.0824
▁dissolved	-11.0831
▁nbc	-11.0836
▁describe	-11.084
▁limestone	-11.0844
▁fragment	-11.085
▁essex	-11.0852
▁electricity	-11.0856
▁missile	-11.086
▁nicola	-11.0862
▁abuse	-11.0864
▁indonesian	-11.0864
▁pageant	-11.0868
▁tract	-11.0876
track	-11.0877
▁shadow	-11.0881
▁preservation	-11.0881
▁kitchen	-11.0884
▁truth	-11.0891
▁maritime	-11.0894
▁fabric	-11.0898
▁lighthouse	-11.0901
▁gregory	-11.0903
▁neck	-11.0905
shaw	-11.0908
▁petro	-11.0909
▁oslo	-11.0914
▁lancashire	-11.0914
▁1854	-11.0919
▁charlie	-11.092
active	-11.0926
mund	-11.0931
▁1855	-11.0936
▁uttar	-11.0936
▁filmmaker	-11.0937
▁gothic	-11.0938
▁percentage	-11.0938
▁assignment	-11.0951
▁denver	-11.0955
▁gilbert	-11.0955
▁devil	-11.0956
▁skill	-11.0957
nova	-11.0961
▁favorite	-11.0961
▁declined	-11.0962
▁lover	-11.0971
▁0.1	-11.0981
▁meanwhile	-11.0985
▁purple	-11.0986
▁assault	-11.0992
▁possess	-11.0998
▁comedian	-11.1003
300	-11.1007
ipped	-11.1007
▁vladimir	-11.101
▁grammy	-11.1011
▁output	-11.1014
▁hindi	-11.102
▁otto	-11.1022
▁tasmania	-11.1022
cylinder	-11.103
▁coffee	-11.1032
▁chip	-11.1034
▁sussex	-11.1038
▁maxim	-11.1039
▁mack	-11.1041
▁burial	-11.1048
▁leicester	-11.1048
▁freight	-11.105
▁gloucester	-11.1052
▁prestigious	-11.1059
▁invitation	-11.1071
▁nottingham	-11.1073
▁functional	-11.1073
▁paint	-11.1076
▁renowned	-11.1077
kawa	-11.1077
▁nadu	-11.1081
course	-11.1085
▁sequel	-11.1085
designated	-11.1086
▁tyr	-11.1086
▁geographical	-11.109
▁1858	-11.1095
▁assets	-11.1109
▁globe	-11.1111
▁struck	-11.1112
▁monarch	-11.1113
▁frequency	-11.1119
▁motorcycle	-11.1122
▁personality	-11.1124
▁brunswick	-11.1129
▁quartet	-11.1133
▁somerset	-11.1133
▁vegas	-11.1134
▁considerable	-11.1138
▁teammate	-11.114
▁recommended	-11.114
▁sketch	-11.1145
▁madison	-11.1146
▁durham	-11.1151
▁withdrew	-11.1151
▁massive	-11.1152
▁martial	-11.1156
▁package	-11.1157
eiro	-11.1161
▁reverse	-11.1161
▁throne	-11.1175
▁stick	-11.1181
ienne	-11.1198
▁comprehensive	-11.1204
▁1856	-11.1206
▁belief	-11.1211
▁scotia	-11.1218
▁diverse	-11.122
▁hudson	-11.1221
▁convert	-11.1222
holm	-11.1223
▁10,000	-11.1226
▁ruling	-11.1232
▁julie	-11.1237
▁outbreak	-11.1242
▁hindwings	-11.1245
▁sudan	-11.1247
▁criticized	-11.125
▁keith	-11.1252
writing	-11.1254
▁lance	-11.1254
▁raz	-11.1255
▁prospect	-11.1257
www	-11.1257
▁mentor	-11.1261
▁opportunities	-11.1262
400	-11.1263
▁enhance	-11.1263
▁funeral	-11.1266
▁qualifier	-11.1267
▁rovers	-11.1277
▁fifty	-11.1278
▁autumn	-11.1278
▁friedrich	-11.1279
▁alpine	-11.1287
▁fitted	-11.1288
▁dancing	-11.1299
▁contributor	-11.1301
troph	-11.1302
▁partially	-11.1304
▁normally	-11.1307
▁phoenix	-11.1308
▁debt	-11.1312
witt	-11.1318
▁knockout	-11.1324
0.3	-11.1327
▁wealthy	-11.1335
ñ	-11.1335
endra	-11.1339
▁polo	-11.1344
▁hammer	-11.1346
=9	-11.1349
▁lebanon	-11.135
woman	-11.1353
▁contra	-11.1355
▁consort	-11.1355
insky	-11.1356
heart	-11.1359
fold	-11.1365
▁voyage	-11.1365
▁esc	-11.1375
▁manitoba	-11.1381
▁olympia	-11.1386
▁promoting	-11.1386
▁illustration	-11.1387
▁ralph	-11.1395
▁torre	-11.1397
▁payment	-11.14
▁milwaukee	-11.1403
▁spend	-11.1403
▁geographic	-11.1405
▁romance	-11.1405
▁constituencies	-11.1409
▁thorn	-11.141
▁regime	-11.141
▁emil	-11.1411
▁choose	-11.1418
▁constitute	-11.1421
super	-11.1422
▁herald	-11.1423
▁dozen	-11.1425
▁thanks	-11.1431
▁interchange	-11.1434
▁intellectual	-11.1436
▁1830	-11.1436
▁kaz	-11.144
▁organic	-11.1447
▁administered	-11.1452
▁geological	-11.1454
self	-11.1462
▁screenplay	-11.1462
▁stint	-11.1463
▁supplement	-11.1468
▁liberation	-11.147
▁abbot	-11.1472
▁snake	-11.1486
4.5	-11.149
▁ecuador	-11.1494
▁breast	-11.1498
▁dense	-11.1499
▁idaho	-11.1501
court	-11.1501
▁loose	-11.1502
▁practical	-11.1503
▁monday	-11.1511
▁novelist	-11.1521
january	-11.1522
▁2–1	-11.1526
▁jefferson	-11.1526
after	-11.153
▁disorder	-11.1531
▁decline	-11.1531
▁spur	-11.1534
▁widespread	-11.1538
▁vest	-11.1552
▁ranging	-11.1554
▁$4	-11.1564
journal	-11.1565
▁diesel	-11.1565
▁implementation	-11.157
tree	-11.157
▁conclusion	-11.1575
▁relation	-11.1576
▁harold	-11.1585
▁apparently	-11.1593
▁usage	-11.1594
▁luke	-11.1595
▁sacred	-11.1596
▁zimbabwe	-11.1596
▁flash	-11.1599
october	-11.1599
▁discography	-11.1605
▁aftermath	-11.161
▁missionary	-11.1613
▁microsoft	-11.1615
▁policies	-11.1615
december	-11.1616
▁magnitude	-11.1627
▁carries	-11.1629
▁provider	-11.1632
▁ideal	-11.1633
▁sailor	-11.1634
▁isabel	-11.1634
▁realize	-11.164
▁oversee	-11.164
▁1852	-11.164
april	-11.164
▁raymond	-11.1642
▁clinic	-11.1653
▁vinyl	-11.1655
▁albanian	-11.1657
▁helicopter	-11.1662
▁bassist	-11.1663
▁amazon	-11.1663
just	-11.1666
▁retreat	-11.1666
▁agree	-11.1667
▁surrender	-11.1667
▁distinction	-11.1673
▁depression	-11.1679
occu	-11.1681
third	-11.1686
▁fortune	-11.1688
▁dennis	-11.169
3,000	-11.1691
▁protestant	-11.1692
▁synopsis	-11.1692
▁rebounds	-11.1701
▁inspector	-11.1707
▁2018–19	-11.1711
▁worcester	-11.1712
▁nikola	-11.1714
▁narrative	-11.1715
cross	-11.1719
guard	-11.1719
▁shrine	-11.1721
▁commemorate	-11.1725
▁pump	-11.1726
▁thunder	-11.1727
▁soap	-11.1729
▁bullet	-11.1741
tract	-11.1744
▁minority	-11.1748
september	-11.1751
▁stuart	-11.1752
▁discontinued	-11.1755
▁closing	-11.1756
▁alpha	-11.1768
bahn	-11.1772
▁princeton	-11.1773
▁signature	-11.1781
▁welfare	-11.1782
▁acoustic	-11.1783
▁meadow	-11.1784
▁receptor	-11.1785
production	-11.1786
united	-11.1792
▁murphy	-11.1793
▁commenced	-11.1797
english	-11.1801
▁gradually	-11.1817
▁shock	-11.182
▁alumni	-11.1823
▁proportion	-11.1824
▁apprentice	-11.1825
▁inventor	-11.1826
▁vicar	-11.1827
▁consistent	-11.1833
doctor	-11.1843
▁duck	-11.1844
▁flank	-11.1845
▁dominican	-11.185
▁altar	-11.185
▁framework	-11.1856
▁fastest	-11.1858
▁predominantly	-11.1859
▁oscar	-11.186
▁zero	-11.1869
▁buddhist	-11.1871
▁runway	-11.1872
▁julian	-11.1876
▁batting	-11.1877
▁shipping	-11.1885
▁watson	-11.1893
amba	-11.1893
▁prototype	-11.1897
▁surrey	-11.1902
▁phrase	-11.1903
home	-11.191
▁valuable	-11.1914
▁torpedo	-11.1921
▁prohibit	-11.1922
▁fixture	-11.1924
▁streak	-11.1926
▁seventeen	-11.1935
▁democracy	-11.1943
▁loyal	-11.1946
large	-11.1959
▁translator	-11.196
▁facade	-11.1964
country	-11.1966
▁absence	-11.198
▁advice	-11.1982
▁giovanni	-11.1985
▁1851	-11.1995
▁brave	-11.1995
▁disaster	-11.1997
▁plum	-11.1997
▁false	-11.1997
▁dismissed	-11.1998
▁liberty	-11.2007
▁bonn	-11.2008
▁brig	-11.2015
▁canterbury	-11.2019
▁distinctive	-11.202
▁robot	-11.202
▁arrive	-11.202
▁mandate	-11.2023
▁interstate	-11.2025
▁nacional	-11.2025
▁governing	-11.2034
▁nathan	-11.2054
▁interface	-11.2055
▁plastic	-11.206
▁badminton	-11.2064
▁morocco	-11.2068
▁brussels	-11.2073
▁resemble	-11.2074
7.5	-11.2074
▁marque	-11.2076
keeper	-11.2077
▁boulevard	-11.2085
▁dimension	-11.2085
▁arnold	-11.2098
▁trend	-11.2105
november	-11.2114
▁knee	-11.2118
▁mainstream	-11.2124
▁congressional	-11.2127
▁1853	-11.2128
▁johan	-11.2139
▁nursing	-11.2146
1.2	-11.2146
▁populated	-11.2152
▁interpretation	-11.2154
lich	-11.2157
▁artificial	-11.2157
▁prayer	-11.2163
▁cabin	-11.2163
record	-11.2165
▁perspective	-11.2167
▁rhine	-11.2178
▁hearing	-11.2181
▁algorithm	-11.2189
▁clothing	-11.2197
▁wheat	-11.2203
▁conversion	-11.2211
▁attendance	-11.2214
▁terry	-11.2221
▁eurovision	-11.2225
▁excellent	-11.2231
▁jerry	-11.2234
produced	-11.2237
▁banner	-11.224
lough	-11.224
▁tanzania	-11.225
▁clinton	-11.2257
▁error	-11.2259
▁pyr	-11.2261
▁creator	-11.2262
▁hughes	-11.2262
▁franz	-11.2267
half	-11.2268
▁bolivia	-11.2272
▁hung	-11.2273
▁resource	-11.2273
nick	-11.2275
▁canoe	-11.2282
▁friendship	-11.2286
▁santiago	-11.2287
▁rookie	-11.2287
▁initiated	-11.2303
▁fitz	-11.2304
▁finger	-11.2306
fight	-11.2318
▁orchid	-11.2321
▁terminate	-11.2327
▁marcel	-11.233
▁concentrate	-11.2332
▁analog	-11.2336
▁slovakia	-11.2339
▁jacques	-11.234
▁celebrate	-11.234
▁pearl	-11.2342
▁kazakhstan	-11.2353
▁emigrated	-11.2358
▁mystery	-11.2371
▁columbus	-11.238
▁playwright	-11.238
▁salvador	-11.239
▁structural	-11.2404
▁plaza	-11.2405
▁marble	-11.2412
▁czechoslovak	-11.2414
▁mutual	-11.2414
▁expect	-11.2423
▁miguel	-11.2443
▁dominated	-11.2459
▁enlisted	-11.2464
▁useful	-11.2467
▁hybrid	-11.2473
▁maurice	-11.2474
▁stefan	-11.2474
▁immediate	-11.248
system	-11.2483
▁virus	-11.2488
▁aust	-11.249
▁patient	-11.2491
▁automobile	-11.2495
▁accommodate	-11.2501
▁westminster	-11.2502
▁confused	-11.2509
fjord	-11.2522
▁respective	-11.2525
▁falcon	-11.253
▁google	-11.2531
▁screenwriter	-11.2535
▁dorsal	-11.2539
▁rebellion	-11.2541
▁renaissance	-11.2545
region	-11.2546
1.1	-11.255
▁surprise	-11.2551
▁presidency	-11.2552
brown	-11.2553
▁chorus	-11.2555
february	-11.2568
▁amendment	-11.2572
▁quick	-11.2582
▁engagement	-11.2585
▁larry	-11.2586
methyl	-11.2586
▁plateau	-11.2594
▁saving	-11.2601
▁fortress	-11.2602
▁ellis	-11.2605
standing	-11.2606
▁sword	-11.2609
▁accompany	-11.261
▁auction	-11.2611
▁affair	-11.2614
▁1849	-11.2616
▁rotation	-11.2618
▁thriller	-11.2624
▁ballot	-11.2627
text	-11.2629
blue	-11.2633
▁wrong	-11.2633
▁weigh	-11.2633
▁1847	-11.2636
▁irregular	-11.2639
▁combine	-11.2644
▁random	-11.2645
▁cyclo	-11.2649
▁tunisia	-11.265
feder	-11.2655
▁ongoing	-11.2658
▁calgary	-11.266
▁mirror	-11.2665
▁flame	-11.2674
▁hurricane	-11.2676
great	-11.2676
▁ecology	-11.2676
▁viewers	-11.268
▁comparison	-11.268
▁cornwall	-11.2686
▁execution	-11.2688
▁convince	-11.2696
skaya	-11.2698
▁bobby	-11.2703
▁montgomery	-11.2705
▁honey	-11.2705
▁topped	-11.2707
▁conservatory	-11.2707
▁kingston	-11.2708
▁apparent	-11.2712
▁neither	-11.2712
▁memoir	-11.2715
▁shak	-11.272
cultural	-11.2721
▁territorial	-11.2722
▁edmonton	-11.2722
▁alphabet	-11.2733
▁telephone	-11.2737
▁presbyterian	-11.2741
▁celtic	-11.2742
about	-11.2751
▁gauge	-11.2753
▁vijay	-11.2754
▁ruins	-11.2757
fiction	-11.2757
john	-11.2761
▁cyprus	-11.2763
▁equation	-11.2763
▁aquatic	-11.2772
▁2017–18	-11.2778
▁fiji	-11.2781
father	-11.2784
0.4	-11.2791
▁superintendent	-11.2792
girl	-11.2798
word	-11.281
▁submitted	-11.2814
▁edmund	-11.2822
▁decree	-11.2823
▁belgrade	-11.2825
▁reconstruction	-11.2831
▁abraham	-11.2835
▁psycho	-11.2836
▁emeritus	-11.284
▁inaugurated	-11.2845
▁absorb	-11.2846
0.0	-11.2846
▁mechanic	-11.2852
▁assessment	-11.2855
▁manufacture	-11.2857
▁cottage	-11.2865
ucci	-11.2872
▁galaxy	-11.2872
▁identical	-11.2873
▁isaac	-11.2874
▁ahmad	-11.2877
▁wallace	-11.2881
▁luxembourg	-11.2888
ireland	-11.289
ulating	-11.2898
▁protocol	-11.2902
▁istanbul	-11.2904
▁extract	-11.2905
▁gustav	-11.2914
▁linguistic	-11.2921
▁maharashtra	-11.2921
figur	-11.2929
▁curriculum	-11.2931
▁papua	-11.2931
family	-11.2932
▁radar	-11.2938
christ	-11.2939
oriented	-11.2943
▁banned	-11.2947
▁resumed	-11.2952
▁petition	-11.296
▁frankfurt	-11.2966
1.3	-11.2976
▁herzegovina	-11.2979
1.6	-11.2991
▁janeiro	-11.2992
lick	-11.3001
▁elsewhere	-11.3006
▁remembered	-11.3012
▁harvey	-11.3013
▁confederate	-11.302
▁somali	-11.3031
▁discharge	-11.3031
ābād	-11.3041
▁decrease	-11.3048
science	-11.305
▁dialogue	-11.3054
ová	-11.3055
▁2019–20	-11.3063
▁exterior	-11.3068
▁exposed	-11.3068
▁coordinator	-11.3079
▁costume	-11.3081
▁mathematician	-11.3083
▁wealth	-11.3083
▁releasing	-11.3087
▁feather	-11.309
▁bennett	-11.3092
ledge	-11.3094
▁contribute	-11.3099
▁awareness	-11.3101
▁aberdeen	-11.3103
▁idol	-11.3108
▁treasurer	-11.3124
▁consecrated	-11.313
▁bedford	-11.3138
▁quarterfinals	-11.3141
▁gujarat	-11.316
▁shallow	-11.316
▁bradford	-11.3163
▁detective	-11.3165
▁supplies	-11.3167
▁survivor	-11.3167
▁eddie	-11.317
▁anthology	-11.3173
▁understand	-11.3174
▁armenia	-11.318
▁describing	-11.3182
▁fernando	-11.3185
▁nationwide	-11.3186
▁porch	-11.3195
▁bacteria	-11.3196
▁yield	-11.3196
▁anything	-11.3198
▁granite	-11.3201
▁measurement	-11.3205
▁correspondent	-11.3214
▁comprising	-11.3225
▁exclusive	-11.3228
▁consequence	-11.3237
▁admission	-11.3239
▁permission	-11.3242
▁byzantine	-11.3254
▁restricted	-11.3258
chrom	-11.3259
▁libraries	-11.3263
▁taste	-11.3267
vfl	-11.327
▁unanimous	-11.327
▁tight	-11.3281
▁fuji	-11.3288
▁siblings	-11.3293
▁patch	-11.3299
▁portfolio	-11.3314
establish	-11.3319
▁philosopher	-11.3335
▁lessons	-11.3335
▁sponsorship	-11.3346
▁estimate	-11.3351
▁bicycle	-11.3358
▁encoded	-11.3363
6.5	-11.3366
▁circulation	-11.3368
▁showcase	-11.3368
▁convicted	-11.3374
▁pseudo	-11.338
▁solve	-11.3381
oxide	-11.3384
electric	-11.34
▁tissue	-11.3409
▁usual	-11.3411
▁spencer	-11.3414
▁textile	-11.3416
▁denied	-11.3422
▁quint	-11.3429
▁filipino	-11.343
▁renovated	-11.3431
▁aboriginal	-11.3444
▁suitable	-11.3444
clair	-11.3445
speed	-11.3447
▁failing	-11.3453
▁lutheran	-11.346
elimination	-11.3463
▁stoke	-11.3464
▁militia	-11.3465
▁solomon	-11.3472
▁mistake	-11.3486
▁recognize	-11.3487
▁meteor	-11.3497
▁delegation	-11.3499
▁silva	-11.3503
▁curator	-11.3503
▁healthcare	-11.3505
5.5	-11.3509
▁maría	-11.3522
▁2016–17	-11.353
▁victories	-11.3536
evich	-11.354
▁dwelling	-11.3548
▁flour	-11.3555
▁seoul	-11.3557
▁myanmar	-11.3563
▁furniture	-11.3566
▁albania	-11.3578
▁cardiff	-11.3584
▁escort	-11.3589
little	-11.3592
▁cecil	-11.3607
▁confederation	-11.3615
▁emphasis	-11.3615
0.6	-11.3615
▁hidden	-11.3619
▁exceed	-11.3626
▁yacht	-11.3629
▁manila	-11.3644
▁budapest	-11.3654
▁geology	-11.3656
film	-11.3657
▁wyoming	-11.3662
▁indianapolis	-11.3675
▁configuration	-11.3683
▁excavation	-11.3689
▁define	-11.3696
▁sandstone	-11.3696
▁davies	-11.3715
▁amphi	-11.3728
hausen	-11.3729
▁catalogue	-11.3736
▁theoretical	-11.3736
▁quarterback	-11.3748
▁remove	-11.3749
▁supervisor	-11.3762
▁ferdinand	-11.3767
▁adapt	-11.3771
▁astronomer	-11.3773
▁emerging	-11.3776
▁exploit	-11.3783
▁emmy	-11.3788
▁slovak	-11.3794
▁compact	-11.3798
▁excess	-11.3801
▁arriving	-11.3805
▁destruction	-11.3808
▁muscle	-11.3818
▁exploration	-11.3822
▁fault	-11.3827
▁gymnasium	-11.3829
▁tommy	-11.383
▁hopkins	-11.3844
▁circular	-11.3847
▁classroom	-11.3848
▁fraser	-11.3872
▁imprisoned	-11.3875
▁guilty	-11.3875
▁incorporate	-11.3878
▁distinguish	-11.3879
▁hurling	-11.388
sexual	-11.388
▁economist	-11.3882
▁mongolia	-11.3883
▁entrants	-11.3888
▁naples	-11.3893
▁hardware	-11.3895
location	-11.3896
▁dangerous	-11.3896
▁gaelic	-11.3918
▁oriental	-11.3923
institut	-11.3924
▁entries	-11.3927
logical	-11.3928
▁scandal	-11.3931
▁ronald	-11.3934
▁wound	-11.3942
▁vault	-11.3951
▁wreck	-11.3957
▁benedict	-11.3959
▁comfort	-11.3959
▁fuscous	-11.3962
▁stephan	-11.3963
▁raising	-11.3963
▁fundamental	-11.3979
▁underwent	-11.398
▁synonym	-11.3983
▁orphan	-11.3985
▁algebra	-11.3986
▁argument	-11.3988
▁curtis	-11.399
1.8	-11.4008
▁heaven	-11.402
▁extent	-11.4024
▁cornell	-11.4026
▁mull	-11.4028
▁corruption	-11.4033
▁bottle	-11.4034
▁testament	-11.4034
▁telugu	-11.4039
▁ludwig	-11.404
▁supplied	-11.4044
▁qatar	-11.4047
▁simpson	-11.4049
▁audition	-11.4051
▁winnipeg	-11.4051
▁cameroon	-11.4053
▁massacre	-11.4055
▁societies	-11.4058
▁henderson	-11.4063
▁ancestor	-11.4081
▁malayalam	-11.4095
published	-11.4097
▁garrison	-11.41
▁interactive	-11.4116
▁ordinary	-11.4119
▁interrupt	-11.4123
▁deployed	-11.4128
eight	-11.414
centric	-11.4145
▁laude	-11.4147
▁accurate	-11.4153
▁guatemala	-11.4165
▁podcast	-11.4166
▁shakespeare	-11.4168
issue	-11.4169
▁baroque	-11.4173
▁hymn	-11.4173
▁valentin	-11.4183
▁mixture	-11.4184
▁2015–16	-11.4203
▁adjust	-11.4208
▁mammal	-11.421
▁bailey	-11.4211
▁pirates	-11.4215
▁pursuit	-11.4218
▁trinidad	-11.4228
complete	-11.423
▁supervision	-11.4242
▁casino	-11.4248
▁adrian	-11.4255
▁particle	-11.4259
▁smoke	-11.4259
▁varieties	-11.4261
▁recommendation	-11.4267
▁blend	-11.4272
▁palestine	-11.4273
▁integration	-11.4296
▁pilgrim	-11.43
▁erect	-11.4313
▁suspension	-11.4322
▁harvest	-11.4326
▁belfast	-11.4328
▁evolved	-11.4339
▁frog	-11.4346
▁sustainable	-11.4355
0.8	-11.4357
▁gerald	-11.4359
▁adviser	-11.436
▁relating	-11.4361
4,000	-11.4374
russian	-11.4376
▁enforcement	-11.4379
▁nevertheless	-11.4379
▁computing	-11.4379
▁transaction	-11.4385
▁sanctuary	-11.4386
▁flew	-11.4386
▁registration	-11.4389
▁bracket	-11.4392
▁trunk	-11.4404
▁pyramid	-11.4407
▁ornament	-11.4415
illustr	-11.4417
▁favourite	-11.4418
▁commentary	-11.4418
▁renewed	-11.4419
▁platinum	-11.4432
▁fountain	-11.4432
▁nineteenth	-11.4433
▁trent	-11.4433
▁halifax	-11.4446
sław	-11.4457
▁helsinki	-11.4464
▁hollow	-11.4467
▁batsman	-11.4478
▁facilitate	-11.4486
▁napoleon	-11.4489
reviewed	-11.4495
▁capitol	-11.4497
▁leipzig	-11.4502
▁memphis	-11.4504
▁beneath	-11.4508
▁revised	-11.4508
▁heavyweight	-11.4508
▁eugene	-11.4521
▁karnataka	-11.4522
▁sofia	-11.4524
factor	-11.4525
▁rochester	-11.4525
▁perennial	-11.4529
▁gymnastics	-11.4529
▁absolute	-11.453
▁patriarch	-11.4538
▁confess	-11.4545
▁infant	-11.4566
▁relevant	-11.4573
▁carriage	-11.4588
▁2014–15	-11.46
government	-11.4605
▁valencia	-11.4618
▁repeat	-11.462
▁utilize	-11.4623
▁dominant	-11.4624
▁certification	-11.4626
▁employee	-11.4629
▁flee	-11.4631
▁commitment	-11.4638
▁assess	-11.4649
▁madras	-11.4651
▁albany	-11.4655
▁slate	-11.4663
▁sensor	-11.4665
▁paraguay	-11.4665
▁demonstration	-11.4666
▁violent	-11.4671
▁apex	-11.4672
▁stereo	-11.4678
▁clergy	-11.468
▁universit	-11.4681
▁aerial	-11.4685
▁teeth	-11.4692
▁equity	-11.4695
▁atmosphere	-11.4698
claim	-11.4698
▁departed	-11.4705
▁taluk	-11.4706
cephal	-11.4706
▁wilderness	-11.4717
▁facebook	-11.4719
▁feminist	-11.4723
▁governance	-11.4725
▁indicating	-11.4728
▁diversity	-11.4738
▁angola	-11.4741
▁depicted	-11.4743
▁prepare	-11.4744
original	-11.4748
▁governed	-11.4748
▁empty	-11.4749
▁endangered	-11.4751
8.5	-11.4757
▁aaron	-11.4766
▁navigation	-11.4769
▁electorate	-11.477
▁bohemia	-11.4785
▁continent	-11.4787
▁temporarily	-11.4791
▁auxiliary	-11.4795
▁leslie	-11.4796
▁guidance	-11.4804
▁gathering	-11.481
▁mohammad	-11.4811
▁rectangular	-11.4823
▁vegetation	-11.4836
▁twentieth	-11.4847
distance	-11.4848
▁literally	-11.4849
▁deemed	-11.485
▁substance	-11.4851
▁editing	-11.4852
▁occupy	-11.4856
built	-11.4868
▁protagonist	-11.4875
▁inhibit	-11.4887
▁theorem	-11.4891
▁depicting	-11.4894
▁circumstances	-11.49
▁complement	-11.49
▁discussed	-11.4906
▁madagascar	-11.4918
▁preferred	-11.4919
▁poison	-11.4921
▁antenna	-11.4928
▁afternoon	-11.4934
▁ussr	-11.494
▁eclipse	-11.4941
modern	-11.4942
▁illustrator	-11.4957
▁archaeology	-11.4959
▁wesley	-11.4962
▁twist	-11.4969
▁prairie	-11.4969
▁uncertain	-11.497
0.9	-11.497
▁accredited	-11.4971
▁derives	-11.4972
writer	-11.4973
900	-11.4973
▁armstrong	-11.4973
▁dissertation	-11.4988
▁pavilion	-11.4997
▁titular	-11.4997
▁carpenter	-11.5001
▁zhang	-11.5002
▁announcement	-11.5014
▁syndrome	-11.502
▁catalog	-11.5021
▁2013–14	-11.5023
plication	-11.5027
▁measuring	-11.5038
▁suffolk	-11.5042
▁gibson	-11.5044
▁kolkata	-11.5048
▁chennai	-11.5048
▁sullivan	-11.5056
▁transmitter	-11.506
▁suppress	-11.506
▁worn	-11.5065
▁horizontal	-11.5068
croft	-11.507
▁plymouth	-11.509
▁kenneth	-11.5093
▁infection	-11.5094
▁sociology	-11.5108
▁invented	-11.5117
▁confluence	-11.5118
▁windsor	-11.512
▁molecule	-11.512
▁ingredient	-11.5144
▁sovereign	-11.5154
▁namibia	-11.5165
▁citizenship	-11.5177
▁botanist	-11.5185
▁telegraph	-11.5187
▁behaviour	-11.5199
▁criteria	-11.5224
disciplinary	-11.5231
▁worst	-11.5233
saxon	-11.5234
▁commentator	-11.5246
▁elephant	-11.5257
▁spiral	-11.5258
connect	-11.5267
▁carnegie	-11.527
people	-11.5271
▁acknowledge	-11.5277
▁exposure	-11.5279
french	-11.5292
▁triangle	-11.5296
▁conjunction	-11.5307
;"|	-11.5309
▁afford	-11.5314
▁impression	-11.5319
▁emotional	-11.5331
▁referendum	-11.5332
▁coincide	-11.5332
▁newfoundland	-11.5335
▁pseudonym	-11.5338
▁introduce	-11.5338
#	-11.5338
▁chaplain	-11.5341
▁saxony	-11.5341
▁kidnap	-11.5342
▁claude	-11.5352
▁dictionary	-11.536
▁telescope	-11.5362
▁ritual	-11.5363
▁synthesis	-11.5365
▁viscount	-11.5367
▁botanical	-11.5371
▁llc	-11.5388
▁immigration	-11.5393
▁impressive	-11.5419
thorpe	-11.5442
▁wednesday	-11.5447
▁percussion	-11.5454
▁heinrich	-11.5457
wrote	-11.546
cellular	-11.5463
▁doubt	-11.5466
▁module	-11.5498
special	-11.5499
▁orlando	-11.5502
▁uprising	-11.551
6,000	-11.5512
▁quantum	-11.5512
▁warehouse	-11.5519
▁dodge	-11.552
▁gazette	-11.5525
▁ernst	-11.5526
▁spectrum	-11.5539
▁panchayat	-11.5541
▁lawsuit	-11.5541
wheel	-11.5553
▁innovative	-11.5561
▁arcade	-11.5567
▁lancaster	-11.5568
▁cambodia	-11.5574
pronounced	-11.5585
▁conversation	-11.5589
▁sediment	-11.5597
▁lgbt	-11.5598
▁vegetable	-11.5609
▁aviv	-11.5614
▁volcanic	-11.5617
▁corridor	-11.562
▁lombard	-11.5621
▁vacant	-11.5624
▁zagreb	-11.5645
▁vicinity	-11.5651
▁sergeant	-11.5659
▁dubbed	-11.5663
▁whale	-11.567
3.1	-11.5693
▁bibliography	-11.571
▁identification	-11.5715
▁kashmir	-11.5716
▁removal	-11.5729
▁treasure	-11.573
▁waived	-11.5739
▁celebrity	-11.574
▁julius	-11.5743
▁deputies	-11.5755
▁licence	-11.5767
▁expensive	-11.5772
▁libya	-11.5772
▁regulate	-11.5781
▁prolific	-11.5786
▁thursday	-11.5791
▁syndicate	-11.5796
▁tuesday	-11.5802
symmetric	-11.5805
▁reopened	-11.5812
source	-11.5818
▁cairo	-11.5819
▁ceramic	-11.5825
▁ultimate	-11.5826
▁regain	-11.5827
▁samoa	-11.583
▁constituent	-11.5842
dimensional	-11.5844
▁leather	-11.5869
▁recurring	-11.5874
▁melody	-11.5875
▁moldova	-11.5875
▁bundesliga	-11.5877
▁mcdonald	-11.5879
▁inclusion	-11.5881
▁psychological	-11.5886
▁vector	-11.5893
▁basket	-11.5909
▁familiar	-11.591
▁predator	-11.5913
▁lizard	-11.5925
▁jorge	-11.5938
▁crambidae	-11.5938
▁sophomore	-11.5947
▁confirm	-11.5962
▁bankruptcy	-11.5962
▁crawford	-11.5968
▁neutral	-11.5984
▁tehran	-11.5987
▁portsmouth	-11.5993
▁jockey	-11.5994
▁resolve	-11.6003
▁apollo	-11.601
▁accommodation	-11.601
▁constellation	-11.6011
america	-11.6029
▁goddess	-11.6045
▁intervention	-11.6053
▁fiscal	-11.6064
▁allocated	-11.6065
▁eduard	-11.6065
▁charitable	-11.6071
▁monroe	-11.6074
▁jesuit	-11.6084
▁apostolic	-11.6095
▁epithet	-11.6095
▁sebastian	-11.6097
▁palestinian	-11.6099
▁hyderabad	-11.6108
quarter	-11.6111
▁archdiocese	-11.6127
▁declaration	-11.6127
▁polytechnic	-11.6136
▁mercury	-11.6143
▁cologne	-11.6168
▁beaver	-11.6174
ć	-11.6208
‘	-11.7344
“	-11.8367
ã	-12.0873
£	-13.4975
