[PAD]	0
[UNK]	0
[CLS]	0
[SEP]	0
[MASK]	0
▁the	-2.93352
.	-3.163
,	-3.31115
▁of	-3.63939
▁in	-3.66777
▁and	-3.80999
▁a	-3.99061
s	-4.05354
▁to	-4.30134
▁was	-4.47327
▁is	-4.64493
▁"	-4.85067
-	-4.85895
▁on	-5.00783
▁for	-5.02313
▁he	-5.0266
▁as	-5.11076
▁by	-5.18963
"	-5.20255
'	-5.21631
▁	-5.24013
▁with	-5.25388
▁at	-5.2939
▁(	-5.31787
▁from	-5.42807
▁it	-5.49008
▁his	-5.54692
▁an	-5.68522
▁that	-5.8317
)	-5.89491
▁were	-6.15745
▁are	-6.19173
▁which	-6.20179
▁has	-6.21401
▁also	-6.21449
:	-6.21851
▁she	-6.24818
▁first	-6.25126
a	-6.28717
;	-6.3564
▁this	-6.44768
▁be	-6.4871
▁or	-6.49051
▁her	-6.49923
▁after	-6.50699
▁one	-6.51113
e	-6.51239
▁had	-6.51944
▁new	-6.54711
▁who	-6.55387
▁its	-6.56029
▁two	-6.63312
",	-6.70136
▁their	-6.72792
th	-6.77048
d	-6.78804
ing	-6.79377
▁but	-6.8006
i	-6.8574
".	-6.86383
▁school	-6.86446
▁university	-6.88704
▁been	-6.88825
▁may	-6.89657
ed	-6.90772
▁they	-6.91421
▁during	-6.94739
the	-6.98323
▁not	-6.99033
▁national	-6.99093
▁all	-6.99129
▁have	-6.99164
n	-7.00021
▁other	-7.03525
t	-7.049
▁season	-7.05614
▁career	-7.06396
y	-7.06406
▁team	-7.07502
▁there	-7.08133
▁years	-7.09363
o	-7.09657
).	-7.10909
▁when	-7.11495
▁de	-7.11565
▁world	-7.12103
▁film	-7.1225
),	-7.1279
er	-7.13979
▁district	-7.15165
▁where	-7.16189
▁state	-7.16671
▁time	-7.17307
▁known	-7.17884
▁city	-7.18549
▁into	-7.19348
▁south	-7.19825
▁american	-7.20037
▁over	-7.20327
▁played	-7.21172
▁family	-7.21613
c	-7.21997
▁under	-7.22458
▁united	-7.23174
▁part	-7.23374
▁three	-7.23465
▁year	-7.26131
▁history	-7.26341
in	-7.26779
▁later	-7.27318
▁1	-7.29348
▁between	-7.29645
▁made	-7.29702
▁became	-7.30767
▁league	-7.31472
▁up	-7.32413
▁2	-7.32436
▁second	-7.32545
▁album	-7.34146
▁north	-7.35036
▁life	-7.36433
▁born	-7.36601
▁county	-7.37477
m	-7.37659
▁club	-7.37663
▁name	-7.39091
born	-7.39314
▁won	-7.39599
▁only	-7.41172
▁more	-7.42003
▁located	-7.42664
▁states	-7.42705
▁most	-7.43808
▁then	-7.43867
ly	-7.44243
▁about	-7.44244
▁released	-7.44779
▁–	-7.45649
▁member	-7.45681
▁music	-7.45948
▁out	-7.47102
▁until	-7.47315
▁no	-7.4738
▁i	-7.49877
▁early	-7.50463
▁football	-7.50631
▁area	-7.51056
▁following	-7.51201
▁including	-7.51716
▁3	-7.51953
▁college	-7.52175
▁village	-7.52323
/	-7.52666
▁war	-7.53224
▁group	-7.54151
▁before	-7.54297
▁work	-7.54928
▁can	-7.5545
▁well	-7.55627
▁people	-7.55694
▁series	-7.55886
▁used	-7.55986
▁company	-7.56317
▁high	-7.56614
▁since	-7.56802
▁march	-7.57059
▁population	-7.58034
▁station	-7.59221
▁january	-7.59304
▁while	-7.59508
▁served	-7.59523
▁international	-7.60286
r	-7.60537
▁some	-7.60676
▁species	-7.62071
▁house	-7.62917
▁four	-7.6324
▁august	-7.63414
▁september	-7.63495
▁july	-7.64011
▁through	-7.64916
▁june	-7.6496
▁him	-7.6528
▁being	-7.65707
▁age	-7.66089
▁town	-7.66156
▁october	-7.66197
▁against	-7.66533
▁many	-7.66617
▁west	-7.6694
▁both	-7.67521
▁4	-7.68009
▁would	-7.68175
▁april	-7.68582
▁such	-7.68613
k	-7.68796
▁re	-7.69389
▁november	-7.69698
b	-7.70687
▁held	-7.70998
▁december	-7.71687
es	-7.71783
amp	-7.72214
▁u	-7.73059
▁&	-7.73572
▁named	-7.73961
▁former	-7.74487
▁number	-7.74898
▁song	-7.7597
▁than	-7.76106
▁st	-7.76402
man	-7.77572
▁several	-7.7766
an	-7.77858
al	-7.79175
▁john	-7.7982
▁river	-7.79868
▁february	-7.80134
▁church	-7.80508
▁band	-7.8102
▁co	-7.81261
▁m	-7.81786
▁east	-7.82409
g	-7.82888
▁place	-7.83183
▁found	-7.83381
▁died	-7.83599
l	-7.83676
▁women	-7.84731
▁b	-7.85448
▁york	-7.85515
▁party	-7.85683
▁home	-7.85985
▁5	-7.86367
▁best	-7.8639
▁d	-7.87951
u	-7.88222
en	-7.88432
▁called	-7.89414
▁these	-7.90093
p	-7.9014
▁so	-7.90351
▁general	-7.90806
▁single	-7.91265
▁received	-7.91368
▁c	-7.91418
▁games	-7.91651
▁built	-7.92048
▁game	-7.92401
▁government	-7.93529
▁began	-7.93789
▁final	-7.94058
’	-7.94573
▁published	-7.94784
▁each	-7.94871
▁10	-7.94924
▁same	-7.95638
▁building	-7.95651
▁line	-7.96289
▁division	-7.96376
▁long	-7.96882
h	-7.97458
▁however	-7.97852
▁15	-7.97869
&	-7.97917
▁end	-7.98274
▁local	-7.98637
▁british	-7.98702
on	-7.98852
▁public	-7.9936
▁cup	-7.99457
f	-7.99494
▁son	-7.99529
▁took	-7.99555
▁president	-7.99811
▁based	-8.00127
▁will	-8.00255
▁professional	-8.00264
▁include	-8.00377
▁men	-8.01463
▁education	-8.01712
▁award	-8.01932
▁park	-8.03012
▁service	-8.032
▁6	-8.03454
▁18	-8.04829
us	-8.06201
▁championship	-8.07224
▁art	-8.0746
or	-8.07525
▁book	-8.08308
▁death	-8.08703
▁road	-8.09463
▁five	-8.0986
▁moved	-8.09909
▁play	-8.10081
▁married	-8.10159
▁them	-8.1016
▁12	-8.10281
▁player	-8.10378
▁now	-8.10825
▁director	-8.1107
▁children	-8.11275
▁show	-8.11368
▁third	-8.11607
▁main	-8.1164
▁central	-8.11845
▁()	-8.12051
▁la	-8.12329
▁along	-8.12389
re	-8.12646
▁council	-8.12705
▁refer	-8.1291
▁around	-8.13271
z	-8.13369
▁7	-8.13584
▁worked	-8.13617
to	-8.14117
▁small	-8.14438
▁english	-8.1451
▁-	-8.14625
▁top	-8.14646
st	-8.15916
▁side	-8.16038
▁members	-8.16243
▁research	-8.1635
▁8	-8.16387
le	-8.16417
▁debut	-8.16801
▁per	-8.16852
▁e	-8.1689
▁9	-8.16977
▁election	-8.17125
▁joined	-8.17644
na	-8.17984
▁major	-8.18208
▁day	-8.18211
▁due	-8.1827
▁head	-8.18383
lt	-8.18643
▁20	-8.1895
▁community	-8.19079
▁title	-8.19373
▁back	-8.19514
▁al	-8.19816
▁london	-8.20185
▁left	-8.20499
▁census	-8.21275
▁french	-8.21434
")	-8.21539
–	-8.21579
▁father	-8.21883
▁summer	-8.22154
▁'	-8.22186
▁century	-8.22677
▁association	-8.22748
▁near	-8.22761
2	-8.22768
▁round	-8.23013
▁list	-8.23185
▁within	-8.23216
▁14	-8.23581
▁included	-8.23704
la	-8.23947
▁last	-8.2398
▁("	-8.23992
▁system	-8.24489
▁founded	-8.24735
▁started	-8.25391
▁region	-8.25437
▁record	-8.25772
▁province	-8.25993
▁german	-8.26255
▁television	-8.26352
▁elected	-8.26555
▁use	-8.26571
▁man	-8.26647
▁center	-8.26692
▁law	-8.27291
de	-8.27546
▁11	-8.27985
▁country	-8.28074
▁san	-8.28943
▁established	-8.29362
▁13	-8.29397
▁s	-8.29752
▁white	-8.30097
▁described	-8.30506
▁total	-8.30665
▁island	-8.30898
▁works	-8.31577
▁ii	-8.31876
▁development	-8.32512
▁according	-8.32707
▁department	-8.32879
▁set	-8.33073
▁like	-8.33675
▁land	-8.33677
ta	-8.33879
▁o	-8.33888
▁order	-8.34378
▁england	-8.34482
gt	-8.34593
▁office	-8.34753
v	-8.34975
x	-8.35189
▁water	-8.3534
▁event	-8.35779
▁street	-8.35843
▁p	-8.36045
▁appointed	-8.36086
▁j	-8.36328
▁air	-8.36337
▁six	-8.3636
▁tournament	-8.36662
▁t	-8.3691
▁did	-8.37187
▁india	-8.37434
▁teams	-8.37489
▁g	-8.37553
ton	-8.37954
▁old	-8.38091
▁railway	-8.38521
▁australia	-8.38779
▁union	-8.38781
▁western	-8.3901
▁large	-8.39757
▁court	-8.39793
▁written	-8.39851
▁produced	-8.39941
▁currently	-8.40309
▁army	-8.40343
ma	-8.40366
▁times	-8.4085
▁radio	-8.41384
▁16	-8.41414
▁playing	-8.41448
▁royal	-8.41827
▁original	-8.41915
ia	-8.42264
▁business	-8.4232
▁awards	-8.42574
▁king	-8.42583
▁went	-8.42682
j	-8.42752
▁k	-8.42988
▁another	-8.431
▁own	-8.43389
▁do	-8.43411
▁coach	-8.43419
▁2010	-8.43664
▁f	-8.43705
▁black	-8.43775
▁late	-8.4399
▁role	-8.44502
▁signed	-8.44734
▁society	-8.44758
▁site	-8.44968
▁any	-8.44999
▁among	-8.45301
ers	-8.45405
▁led	-8.4542
▁post	-8.4563
da	-8.45757
▁short	-8.45834
▁production	-8.46087
▁non	-8.46093
▁northern	-8.46364
▁us	-8.46829
▁william	-8.46839
▁19	-8.46876
ne	-8.47095
▁lake	-8.47391
▁because	-8.47603
te	-8.48117
▁professor	-8.48167
▁board	-8.48656
▁great	-8.48781
w	-8.49023
▁recorded	-8.49209
▁california	-8.49368
▁created	-8.49477
ar	-8.49576
▁25	-8.49713
▁sea	-8.49758
▁hall	-8.49882
1	-8.49899
▁l	-8.50089
▁political	-8.50527
▁european	-8.50675
▁km	-8.50706
no	-8.5082
▁track	-8.51003
▁go	-8.51119
el	-8.51414
▁records	-8.51619
▁red	-8.51732
▁france	-8.51742
▁australian	-8.51761
▁returned	-8.51815
▁if	-8.52328
▁those	-8.5233
▁2011	-8.52382
▁announced	-8.52417
▁r	-8.52815
ka	-8.52996
▁video	-8.53031
▁southern	-8.53086
▁still	-8.53214
▁off	-8.53551
▁2006	-8.53758
▁again	-8.53963
▁museum	-8.54078
is	-8.54298
▁various	-8.54445
▁competition	-8.54452
▁minister	-8.5449
▁canada	-8.54567
▁institute	-8.55247
ch	-8.55316
▁championships	-8.55387
▁win	-8.55391
▁v	-8.55402
3	-8.5556
▁very	-8.55582
▁living	-8.55616
▁directed	-8.55622
▁down	-8.55627
▁average	-8.55699
▁rock	-8.55705
▁field	-8.55708
▁personal	-8.55788
▁although	-8.5582
▁young	-8.55888
▁program	-8.55904
▁just	-8.55915
▁opened	-8.56128
▁form	-8.56157
▁race	-8.56331
▁academy	-8.56437
▁30	-8.56451
▁together	-8.56561
▁indian	-8.56629
▁17	-8.56966
ra	-8.56976
▁came	-8.57081
▁100	-8.57181
▁w	-8.57467
▁competed	-8.57485
▁open	-8.57553
▁design	-8.58027
▁daughter	-8.58221
▁science	-8.58667
▁wife	-8.58951
▁h	-8.59469
▁period	-8.59542
ley	-8.59819
▁having	-8.59827
▁different	-8.59902
▁george	-8.59956
▁car	-8.60156
▁me	-8.60339
▁appeared	-8.60364
▁un	-8.60373
son	-8.60403
▁military	-8.60637
▁historic	-8.60852
▁rural	-8.60954
▁2012	-8.61195
▁medal	-8.61316
▁project	-8.6144
▁festival	-8.61646
▁given	-8.61766
land	-8.61926
▁services	-8.62015
▁olympics	-8.62024
▁2014	-8.62189
▁students	-8.62783
▁match	-8.6281
▁originally	-8.62811
▁james	-8.63102
▁position	-8.6312
▁live	-8.63345
▁2016	-8.63437
▁wrote	-8.63456
year	-8.64056
▁million	-8.6406
▁style	-8.64092
▁degree	-8.64689
▁release	-8.64834
▁events	-8.64844
▁america	-8.64924
▁awarded	-8.64942
▁senior	-8.65069
▁arts	-8.65625
▁genus	-8.65664
▁finished	-8.6574
▁could	-8.65759
nd	-8.66027
▁working	-8.66081
▁level	-8.66126
▁municipality	-8.6627
▁said	-8.66358
▁run	-8.66866
▁full	-8.67188
▁2015	-8.67192
▁germany	-8.67838
▁point	-8.68093
ic	-8.68517
▁next	-8.6852
▁tour	-8.6853
▁2013	-8.68676
▁version	-8.68786
▁every	-8.68961
▁centre	-8.68976
it	-8.69044
▁committee	-8.69124
▁studio	-8.69131
▁become	-8.69146
▁often	-8.69319
▁route	-8.69328
▁formed	-8.69729
as	-8.6979
▁songs	-8.69865
up	-8.70298
▁listed	-8.70685
▁n	-8.70789
br	-8.71033
▁social	-8.71432
▁current	-8.71459
▁gold	-8.71612
▁lost	-8.71669
▁1,	-8.71813
▁biography	-8.72099
▁represented	-8.72229
▁canadian	-8.72466
▁power	-8.72604
▁plays	-8.72631
co	-8.731
▁present	-8.73265
ca	-8.7355
▁21	-8.73767
▁families	-8.74136
▁2018	-8.74665
▁24	-8.74982
▁brother	-8.75182
4	-8.75252
▁way	-8.7537
▁chief	-8.75632
▁free	-8.75976
▁construction	-8.76168
▁popular	-8.76226
▁assembly	-8.7625
▁make	-8.76279
▁much	-8.76851
▁you	-8.77314
▁players	-8.77392
▁2017	-8.77751
▁sports	-8.78101
▁features	-8.78117
▁magazine	-8.78119
▁attended	-8.78305
▁story	-8.78493
▁studied	-8.78637
▁conference	-8.79111
▁support	-8.79209
▁seven	-8.79213
▁points	-8.79217
▁few	-8.79259
▁class	-8.79276
▁artist	-8.79351
▁politician	-8.79654
▁media	-8.79777
▁stage	-8.798
▁japan	-8.79918
▁eastern	-8.79993
▁china	-8.80046
▁22	-8.80487
▁ten	-8.80494
▁mother	-8.80897
▁notable	-8.80954
▁italian	-8.81153
▁2009	-8.81176
▁designed	-8.81264
am	-8.81279
▁star	-8.81661
▁language	-8.81743
▁studies	-8.81877
▁using	-8.81898
▁basketball	-8.81985
▁includes	-8.82054
▁special	-8.82314
▁2019	-8.82407
▁sold	-8.82596
▁act	-8.82746
▁completed	-8.83155
um	-8.83434
ni	-8.83448
▁what	-8.83607
▁2008	-8.83889
▁23	-8.839
▁bay	-8.8394
▁half	-8.83976
▁right	-8.84071
▁green	-8.84696
ro	-8.84802
▁bank	-8.84902
ist	-8.85169
▁health	-8.8521
▁books	-8.8524
▁thomas	-8.8527
ri	-8.85284
▁eight	-8.85429
▁love	-8.85449
▁performed	-8.85637
▁tv	-8.85691
▁continued	-8.85765
▁david	-8.85799
▁footballer	-8.8587
ry	-8.8607
▁di	-8.86127
▁take	-8.86254
▁hospital	-8.86256
at	-8.86321
▁grand	-8.86762
▁robert	-8.87088
▁republic	-8.87309
▁hill	-8.87427
▁featured	-8.87457
▁african	-8.8785
▁2000	-8.87862
▁official	-8.88053
ba	-8.88139
▁formula	-8.8821
rd	-8.88252
▁we	-8.88315
▁lead	-8.88391
▁range	-8.88394
▁modern	-8.88412
%	-8.88683
▁native	-8.88774
▁singer	-8.89037
▁training	-8.89041
me	-8.89238
▁parliament	-8.89795
▁addition	-8.90162
▁2007	-8.90273
▁considered	-8.90367
▁uk	-8.90419
▁matches	-8.90695
▁civil	-8.90747
▁el	-8.90817
▁days	-8.90853
▁russian	-8.91073
▁common	-8.91161
▁bar	-8.91209
▁charles	-8.91251
▁further	-8.91315
▁fourth	-8.91458
▁paul	-8.91547
▁capital	-8.91612
▁washington	-8.91632
and	-8.91697
▁pro	-8.917
-19	-8.91748
▁term	-8.91877
▁28	-8.92045
▁films	-8.92077
▁force	-8.92154
▁26	-8.92187
▁developed	-8.92472
▁square	-8.92493
▁theatre	-8.92526
▁making	-8.92628
▁brown	-8.92903
▁graduated	-8.93071
▁female	-8.93109
▁japanese	-8.93149
5	-8.93192
▁bridge	-8.9333
ha	-8.93369
▁mid	-8.93521
▁africa	-8.93553
▁township	-8.93778
▁middle	-8.93854
ian	-8.93991
▁europe	-8.94085
▁coast	-8.94113
▁independent	-8.94688
▁pre	-8.94744
▁zealand	-8.9478
di	-8.94925
den	-8.95151
▁private	-8.95165
▁youth	-8.95416
▁performance	-8.95525
▁27	-8.95613
▁light	-8.95667
et	-8.95873
▁seat	-8.96278
▁once	-8.96497
▁saint	-8.96571
▁network	-8.96593
▁retired	-8.9663
▁across	-8.96714
ti	-8.97097
▁mountain	-8.97443
▁regional	-8.97472
▁valley	-8.97513
▁important	-8.97602
▁organization	-8.9762
do	-8.9772
▁schools	-8.97856
▁medical	-8.97887
▁good	-8.97919
▁(18	-8.97989
▁battle	-8.98025
▁even	-8.98058
▁contract	-8.98068
▁“	-8.98111
▁without	-8.98361
il	-8.98373
▁master	-8.98387
▁1980	-8.98518
▁my	-8.98518
▁chart	-8.98777
▁kingdom	-8.99222
▁sub	-8.99285
▁van	-8.99289
time	-8.99351
▁paris	-8.99811
▁novel	-8.99921
men	-8.99964
▁previously	-8.99969
▁areas	-8.9998
▁similar	-9.00098
▁edition	-9.00102
▁officer	-9.00124
▁plant	-9.00172
sa	-9.00186
▁places	-9.002
▁1990	-9.00265
li	-9.00309
▁owned	-9.00311
ie	-9.00551
▁cross	-9.00566
ge	-9.00653
▁results	-9.00674
▁collection	-9.00718
▁writer	-9.00861
▁little	-9.01086
▁le	-9.01111
▁author	-9.01187
▁far	-9.01404
▁fire	-9.01445
▁regular	-9.01581
▁section	-9.01751
▁leading	-9.01758
se	-9.01776
▁police	-9.01877
pa	-9.0188
▁information	-9.01918
ur	-9.02225
▁winning	-9.02694
▁largest	-9.02858
▁0	-9.03127
▁body	-9.032
by	-9.03205
▁size	-9.03308
▁management	-9.03319
▁2004	-9.03644
–19	-9.03758
▁technology	-9.03772
▁da	-9.03837
▁away	-9.03849
▁front	-9.03851
able	-9.03894
▁active	-9.04088
▁description	-9.04103
▁upon	-9.04267
▁governor	-9.04372
▁result	-9.04388
▁surname	-9.04597
▁see	-9.04598
▁singles	-9.04716
▁approximately	-9.04779
▁scored	-9.04826
▁study	-9.05084
▁spanish	-9.05175
▁space	-9.05243
▁du	-9.05353
6	-9.05437
▁foundation	-9.0544
▁29	-9.0557
▁available	-9.05589
▁texas	-9.05817
▁remained	-9.05923
▁throughout	-9.06054
ville	-9.06097
ja	-9.06297
▁dr	-9.06701
▁selected	-9.06721
▁others	-9.06874
▁though	-9.06885
▁ran	-9.06989
▁background	-9.07036
▁big	-9.07085
▁followed	-9.07157
▁mary	-9.07201
ve	-9.07238
▁income	-9.07311
▁hockey	-9.07684
▁bishop	-9.07705
▁junior	-9.07802
one	-9.07818
ation	-9.07953
▁control	-9.07974
go	-9.07983
be	-9.07989
ko	-9.0808
ya	-9.08141
▁2019,	-9.08349
▁secretary	-9.08499
▁assistant	-9.08515
▁parish	-9.08527
ine	-9.08601
▁2018,	-9.08668
▁2020	-9.08675
ism	-9.08809
ga	-9.08907
▁2005	-9.09076
▁los	-9.09081
▁ireland	-9.09393
▁via	-9.0941
▁contains	-9.0961
mo	-9.09893
▁industry	-9.10239
▁executive	-9.10263
▁lower	-9.10353
▁location	-9.10371
▁human	-9.10405
▁rugby	-9.10502
▁writing	-9.10538
▁ground	-9.10635
ter	-9.10668
▁gave	-9.10879
con	-9.11133
▁involved	-9.11141
▁henry	-9.11195
▁prior	-9.1128
▁primary	-9.11323
▁reception	-9.11415
▁serving	-9.11502
▁fellow	-9.1158
▁replaced	-9.11603
▁actor	-9.11697
▁2017,	-9.11743
▁federal	-9.11829
▁sir	-9.11838
▁eventually	-9.11844
▁(19	-9.11881
▁1970	-9.11943
▁months	-9.11999
▁spent	-9.12045
▁highway	-9.1205
▁below	-9.12131
▁roman	-9.12242
8	-9.12306
▁added	-9.12348
▁manager	-9.1246
▁michael	-9.1254
▁himself	-9.1258
▁prize	-9.12686
▁previous	-9.12731
▁older	-9.12819
▁case	-9.12892
ner	-9.13045
▁super	-9.13067
▁chinese	-9.1319
▁commission	-9.13334
▁base	-9.13433
▁fc	-9.13674
▁silver	-9.13681
▁runs	-9.13684
▁2015,	-9.13776
▁2016,	-9.14201
un	-9.14296
▁placed	-9.14322
mi	-9.14335
▁elections	-9.14375
▁median	-9.14443
▁type	-9.14451
▁christian	-9.14517
▁husband	-9.14548
▁editor	-9.14564
▁close	-9.14769
▁never	-9.15201
▁taken	-9.1541
▁1960	-9.15466
▁ma	-9.15483
▁plot	-9.15519
▁stadium	-9.15534
ity	-9.15747
▁buildings	-9.15765
ke	-9.15965
q	-9.15968
▁italy	-9.15991
▁earned	-9.16001
▁today	-9.16039
▁musical	-9.16263
▁night	-9.16297
▁artists	-9.16313
▁channel	-9.16428
▁geography	-9.16526
▁reached	-9.16639
▁library	-9.16689
▁x	-9.1683
▁2014,	-9.16847
ling	-9.16852
▁catholic	-9.16927
▁above	-9.16977
▁navy	-9.17135
bo	-9.17204
▁castle	-9.17392
▁shows	-9.17586
▁wales	-9.17629
▁defeated	-9.17727
▁65	-9.17797
▁champion	-9.17893
▁peter	-9.17974
▁leader	-9.18209
▁drama	-9.18239
ce	-9.18265
▁low	-9.18365
▁structure	-9.18366
▁annual	-9.18466
▁real	-9.18491
▁administrative	-9.18512
▁blue	-9.18545
▁31	-9.1865
os	-9.18681
▁how	-9.18698
▁airport	-9.18961
▁russia	-9.19001
▁lived	-9.1911
▁wide	-9.19158
▁households	-9.19266
▁culture	-9.1938
▁mar	-9.19517
▁males	-9.19779
lo	-9.19817
▁democratic	-9.19853
▁register	-9.19908
▁staff	-9.19908
7	-9.19989
▁creek	-9.20111
der	-9.20261
▁campaign	-9.20275
com	-9.20434
▁2013,	-9.20675
▁50	-9.20716
▁woman	-9.20731
▁mexico	-9.20766
▁en	-9.20773
▁week	-9.20918
▁operated	-9.20952
▁chicago	-9.21069
va	-9.21074
▁port	-9.21098
▁model	-9.2111
▁stone	-9.2157
▁news	-9.21977
▁2012,	-9.22002
▁virginia	-9.22005
▁chairman	-9.2203
ty	-9.22061
▁countries	-9.22243
▁return	-9.22393
▁commercial	-9.22406
▁ko	-9.2261
▁smith	-9.22765
▁met	-9.22797
▁sound	-9.22865
field	-9.22866
wa	-9.22908
▁!	-9.22941
▁promoted	-9.23109
▁forest	-9.23123
▁movement	-9.23213
▁forces	-9.2335
▁closed	-9.23441
▁females	-9.23502
▁aircraft	-9.23565
▁2020,	-9.23755
▁length	-9.23896
▁hit	-9.23925
▁angeles	-9.23929
▁2002	-9.23937
▁beginning	-9.23946
▁successful	-9.24189
▁baseball	-9.24224
▁consists	-9.24255
▁appearances	-9.2441
▁course	-9.24498
▁2010,	-9.24688
▁2011,	-9.24724
—	-9.24828
▁iran	-9.24946
▁example	-9.24999
▁distribution	-9.25295
ki	-9.25472
▁student	-9.25596
▁captain	-9.25616
▁richard	-9.25636
lin	-9.25669
▁changed	-9.25829
▁ship	-9.25833
▁2003	-9.2585
▁entered	-9.25874
▁mark	-9.25902
▁mayor	-9.25911
▁help	-9.26156
▁child	-9.26161
▁goal	-9.26408
▁highest	-9.26444
▁historical	-9.26457
▁character	-9.26553
▁lies	-9.2667
▁ice	-9.26809
▁goals	-9.26943
▁start	-9.27053
▁natural	-9.27059
▁stars	-9.27195
▁cricket	-9.27281
▁vice	-9.27339
▁label	-9.27441
▁feature	-9.2754
▁data	-9.27692
▁press	-9.27768
▁rights	-9.27813
▁usually	-9.27928
▁review	-9.28092
za	-9.28121
based	-9.28178
▁launched	-9.28211
▁winter	-9.28244
▁sa	-9.28257
▁composed	-9.28339
▁producer	-9.28723
▁2001	-9.28772
▁cast	-9.28777
▁subsequently	-9.28883
ina	-9.29025
▁con	-9.29117
▁nine	-9.29323
▁market	-9.29435
▁greek	-9.29589
ad	-9.29697
▁florida	-9.29746
▁decided	-9.29752
ny	-9.29767
▁administration	-9.2978
▁martin	-9.30133
▁participated	-9.3016
▁get	-9.3029
▁sister	-9.30332
▁engineering	-9.30398
▁sun	-9.30575
▁initially	-9.30624
▁trade	-9.30753
ion	-9.30799
▁soon	-9.30841
▁recording	-9.30861
▁sent	-9.30925
▁islands	-9.30941
▁less	-9.31157
▁journal	-9.31275
sen	-9.31322
▁put	-9.31414
▁operations	-9.31471
▁unit	-9.31499
▁na	-9.31552
▁success	-9.31634
▁date	-9.31656
▁whose	-9.31676
▁despite	-9.31687
▁ministry	-9.3176
▁numerous	-9.3188
▁pan	-9.31882
▁2,	-9.31883
9	-9.32071
▁temple	-9.32185
(	-9.32224
▁carolina	-9.32334
id	-9.32372
▁ka	-9.32399
▁wood	-9.32433
▁marine	-9.32715
▁famous	-9.32838
▁40	-9.32897
▁irish	-9.33031
ham	-9.33179
▁anti	-9.33184
▁units	-9.33355
▁joseph	-9.33403
▁groups	-9.33428
]	-9.33662
▁am	-9.33695
▁spain	-9.33968
▁tracks	-9.34237
he	-9.34251
▁reported	-9.34274
▁seen	-9.34275
▁ever	-9.34297
▁foreign	-9.34307
▁property	-9.34326
▁saw	-9.34426
▁ba	-9.34598
▁seasons	-9.34723
▁camp	-9.34893
▁whom	-9.34917
▁queen	-9.34923
▁=	-9.3509
ak	-9.35091
▁does	-9.35192
▁appearance	-9.35224
▁least	-9.35244
▁becoming	-9.35386
▁limited	-9.35419
▁interest	-9.35528
▁process	-9.35587
▁opening	-9.35753
▁practice	-9.35953
chi	-9.3598
▁candidate	-9.36099
▁action	-9.36119
▁episode	-9.36174
day	-9.36366
▁y	-9.36477
▁poland	-9.36551
▁traditional	-9.36658
▁ended	-9.36673
▁running	-9.3672
▁provided	-9.36986
▁individual	-9.3723
▁settlement	-9.37337
▁se	-9.37391
▁male	-9.37508
▁minor	-9.37688
▁actress	-9.37708
▁upper	-9.3775
▁del	-9.37917
we	-9.38088
▁overall	-9.3815
▁squad	-9.38259
▁related	-9.38274
▁instead	-9.38308
▁deputy	-9.38367
▁starting	-9.38371
class	-9.38456
▁activities	-9.38616
▁constituency	-9.38684
▁score	-9.38701
▁raised	-9.38809
wood	-9.3891
▁z	-9.39095
▁winner	-9.3917
fa	-9.39279
▁movie	-9.39314
▁soviet	-9.39361
mer	-9.3946
20	-9.39524
si	-9.39549
▁fifth	-9.39568
▁introduced	-9.39607
▁pennsylvania	-9.39747
▁future	-9.39817
▁congress	-9.39847
▁dance	-9.39898
▁here	-9.39906
▁sometimes	-9.39913
▁bill	-9.40003
don	-9.40007
▁got	-9.40051
▁edward	-9.40065
▁either	-9.40234
▁asian	-9.4037
ir	-9.40474
▁change	-9.40492
▁pacific	-9.40508
▁don	-9.4061
▁standard	-9.4066
▁mm	-9.40788
▁dutch	-9.4101
line	-9.41116
▁lord	-9.4115
▁outside	-9.41164
old	-9.41166
ul	-9.41316
▁moth	-9.41342
▁almost	-9.41382
▁parts	-9.41398
▁academic	-9.41489
▁noted	-9.41547
vi	-9.41623
▁hand	-9.41695
▁scottish	-9.41731
▁2009,	-9.4179
au	-9.41821
▁command	-9.41972
▁draw	-9.42037
▁taking	-9.42043
▁references	-9.42074
▁lee	-9.42253
é	-9.42324
▁premier	-9.42336
▁fa	-9.42385
▁killed	-9.4243
▁cover	-9.42492
▁1999	-9.42619
▁food	-9.42732
ji	-9.42753
ler	-9.42862
▁format	-9.42908
▁behind	-9.42983
▁cultural	-9.43041
▁past	-9.43215
▁1950	-9.43227
▁pop	-9.43241
▁train	-9.43266
▁pa	-9.43272
▁hotel	-9.43312
▁acquired	-9.43334
▁scotland	-9.43337
▁systems	-9.43424
ness	-9.43569
▁branch	-9.43591
▁louis	-9.43621
▁albums	-9.43824
▁companies	-9.43967
ana	-9.4402
”	-9.44048
"),	-9.44072
▁2010.	-9.44127
▁senate	-9.44127
▁newspaper	-9.44225
▁complex	-9.44448
▁1996	-9.44481
▁comedy	-9.4473
▁heart	-9.44817
american	-9.44879
▁su	-9.44903
▁justice	-9.44945
▁higher	-9.45074
▁(;	-9.45092
▁situated	-9.45206
ate	-9.45253
▁mainly	-9.45292
▁bronze	-9.45336
▁olympic	-9.45441
▁tower	-9.45524
▁operation	-9.4554
▁associated	-9.45702
▁nearby	-9.45841
for	-9.45887
ford	-9.45904
▁semi	-9.4595
▁1998	-9.45979
▁bi	-9.46012
▁mount	-9.46145
▁reserve	-9.46182
ol	-9.4625
▁racing	-9.46262
▁source	-9.46328
less	-9.46339
▁2015.	-9.46486
▁victory	-9.46493
▁inter	-9.46572
▁thus	-9.46763
▁mission	-9.47042
▁mostly	-9.47182
▁swedish	-9.47202
▁mi	-9.47266
ive	-9.47299
pur	-9.47302
▁provide	-9.47339
▁races	-9.47511
ci	-9.4753
▁broadcast	-9.47649
▁2018.	-9.47702
▁density	-9.47705
▁border	-9.47723
▁2017.	-9.47728
0	-9.47762
▁prince	-9.47856
▁test	-9.47901
▁2014.	-9.47936
im	-9.47976
all	-9.48193
▁money	-9.48289
▁rest	-9.48368
ov	-9.48392
▁columbia	-9.48542
▁mc	-9.48554
▁champions	-9.48607
▁2008,	-9.48725
▁access	-9.48789
▁able	-9.48813
▁dark	-9.48822
▁metres	-9.48832
▁bo	-9.49179
▁teacher	-9.49208
▁economic	-9.49231
▁should	-9.49269
▁means	-9.493
▁lives	-9.49488
▁must	-9.49494
▁2013.	-9.49596
▁legislative	-9.49622
▁1992	-9.49752
▁renamed	-9.49761
▁michigan	-9.49765
▁miles	-9.49773
▁ni	-9.49865
▁self	-9.49938
▁2016.	-9.49985
off	-9.50064
▁solo	-9.50253
▁draft	-9.50412
▁estate	-9.5045
▁spring	-9.50619
▁farm	-9.50628
▁wing	-9.50685
▁era	-9.5071
▁serves	-9.50834
▁mo	-9.50871
bi	-9.50936
▁parents	-9.50956
per	-9.51116
▁ohio	-9.51119
▁te	-9.51167
▁financial	-9.51276
▁fort	-9.51319
▁hot	-9.51437
▁illinois	-9.51519
▁corporation	-9.51608
▁nations	-9.51741
▁ha	-9.51767
▁3,	-9.51774
▁mile	-9.51892
▁towards	-9.51963
▁2012.	-9.52038
les	-9.52088
▁additional	-9.52236
▁firm	-9.52304
▁housing	-9.52345
▁issues	-9.52359
▁status	-9.52403
▁presented	-9.52427
▁opera	-9.52578
▁starring	-9.52623
ac	-9.52652
▁person	-9.52655
han	-9.52709
▁2019.	-9.52757
fi	-9.52917
▁word	-9.52934
▁complete	-9.52956
now	-9.52961
▁brought	-9.53008
▁urban	-9.53142
▁plan	-9.53145
▁earlier	-9.53154
▁wall	-9.53344
my	-9.53367
▁bachelor	-9.53435
ard	-9.53495
em	-9.53614
▁legal	-9.53631
▁judge	-9.53647
▁2007,	-9.53664
▁acting	-9.5371
▁rather	-9.53765
well	-9.53803
▁2011.	-9.53912
ized	-9.53944
▁li	-9.54007
▁covered	-9.54049
▁polish	-9.54052
▁vi	-9.54054
age	-9.54152
▁call	-9.54191
▁republican	-9.54292
▁key	-9.54298
lu	-9.54313
▁transferred	-9.54352
▁beach	-9.54367
mar	-9.54573
car	-9.54581
west	-9.54586
▁jazz	-9.54682
▁variety	-9.54716
▁chi	-9.54738
▁host	-9.54765
▁literature	-9.54818
▁berlin	-9.54942
of	-9.55047
▁affairs	-9.55095
▁programs	-9.55096
▁grew	-9.55444
▁come	-9.55467
▁stories	-9.55523
▁representatives	-9.55566
▁secondary	-9.55588
▁constructed	-9.55646
ten	-9.55694
ous	-9.55702
cha	-9.55736
▁commander	-9.55791
▁ancient	-9.5586
▁latin	-9.55886
▁ca	-9.55908
▁fall	-9.55913
ger	-9.55927
▁georgia	-9.5595
▁municipal	-9.55963
▁1997	-9.55999
ek	-9.5601
▁table	-9.56037
▁itself	-9.56071
▁majority	-9.56104
▁dis	-9.56146
▁digital	-9.56271
▁double	-9.56315
▁twenty	-9.56367
▁45	-9.56367
ze	-9.56372
po	-9.56413
▁brothers	-9.56463
▁security	-9.565
berg	-9.56608
▁empire	-9.56652
pe	-9.56665
▁memorial	-9.56737
▁sciences	-9.57032
▁meaning	-9.5708
rs	-9.57193
▁architecture	-9.57214
ant	-9.57226
▁remains	-9.57268
▁significant	-9.57558
▁helped	-9.57582
ru	-9.57964
▁names	-9.57966
▁engine	-9.58043
▁1994	-9.58048
▁dam	-9.58085
▁alongside	-9.58145
▁attack	-9.58159
ting	-9.58181
▁stated	-9.5826
▁cemetery	-9.58321
▁prime	-9.58327
▁transport	-9.58388
▁founder	-9.58402
▁po	-9.58421
▁clubs	-9.58564
▁marriage	-9.58571
▁soccer	-9.5858
▁roles	-9.58598
▁sport	-9.58631
▁contemporary	-9.58633
▁especially	-9.58772
▁taught	-9.58844
▁24,	-9.58917
▁household	-9.58924
▁nominated	-9.59086
▁generally	-9.59086
▁formation	-9.59107
▁ar	-9.59154
▁energy	-9.5923
▁18,	-9.59402
▁oil	-9.59468
▁computer	-9.59591
▁products	-9.59607
▁cd	-9.59714
▁leaves	-9.59768
▁frank	-9.59921
▁buried	-9.59937
▁jersey	-9.60021
▁educated	-9.60029
▁painting	-9.60054
▁shot	-9.60102
ber	-9.60271
▁1995	-9.6034
▁critical	-9.60451
▁strong	-9.60591
▁boston	-9.60662
▁200	-9.6067
▁minutes	-9.60686
▁regiment	-9.60774
▁multiple	-9.60906
side	-9.6092
ey	-9.61079
▁sydney	-9.61084
▁mill	-9.61096
▁rose	-9.612
hi	-9.61319
▁1930	-9.61557
▁massachusetts	-9.61687
▁multi	-9.61695
▁francisco	-9.61733
▁managed	-9.61777
▁deal	-9.61802
▁federation	-9.61826
▁houses	-9.61897
▁medicine	-9.61939
▁prominent	-9.61957
▁victoria	-9.6196
▁serve	-9.61973
▁follows	-9.62184
▁online	-9.62257
▁latter	-9.62268
▁care	-9.62295
▁better	-9.62299
du	-9.62305
▁lines	-9.62351
▁dedicated	-9.62392
▁ncaa	-9.62449
▁4,	-9.6272
▁grade	-9.62722
ated	-9.62724
▁platform	-9.62989
▁provides	-9.63048
▁material	-9.63098
▁surface	-9.63107
▁fine	-9.63199
▁room	-9.63241
▁bus	-9.63382
▁teaching	-9.6339
▁vote	-9.63422
▁territory	-9.63533
▁recent	-9.63543
ng	-9.63632
ah	-9.6375
▁representative	-9.63788
▁brazil	-9.63789
ted	-9.63812
").	-9.63852
▁nature	-9.63902
▁discovered	-9.63928
sh	-9.64009
▁store	-9.64026
▁hard	-9.64043
▁forward	-9.64098
▁kong	-9.64226
▁hong	-9.64234
▁finally	-9.64365
▁jean	-9.64427
▁1988	-9.64464
▁mac	-9.64478
▁oxford	-9.64511
▁ke	-9.64532
▁iii	-9.64627
▁politics	-9.64633
▁leaving	-9.6491
▁1920	-9.64922
way	-9.6498
▁voice	-9.64982
▁create	-9.64986
▁policy	-9.65053
▁separate	-9.6506
▁distance	-9.65347
▁asia	-9.65366
▁friend	-9.65383
▁primarily	-9.65387
vo	-9.65434
▁facilities	-9.65437
▁ep	-9.65501
▁hosted	-9.65563
▁mr	-9.65577
▁ontario	-9.65612
▁meeting	-9.65665
▁supported	-9.65817
▁honor	-9.65859
▁metal	-9.65867
▁loss	-9.65903
▁website	-9.65962
▁lieutenant	-9.66002
ies	-9.6617
house	-9.66176
▁des	-9.66251
▁jones	-9.66323
▁boy	-9.66491
ment	-9.66635
▁girl	-9.66646
▁covers	-9.66675
▁mass	-9.66864
▁(17	-9.66868
▁2009.	-9.66882
▁lu	-9.66943
▁turn	-9.67048
▁[	-9.6705
jo	-9.67128
▁2006,	-9.67132
▁cha	-9.67178
ier	-9.67179
▁/	-9.6719
▁1991	-9.67198
▁entire	-9.67215
gi	-9.67228
▁par	-9.67301
▁girls	-9.67353
▁1993	-9.67387
▁sam	-9.67388
▁5,	-9.67656
▁scientific	-9.67656
▁move	-9.67812
out	-9.67862
▁ben	-9.6789
▁mountains	-9.6796
▁uses	-9.67967
▁takes	-9.67987
▁von	-9.68035
="	-9.68097
▁tu	-9.6814
▁campus	-9.68189
▁paper	-9.68193
▁find	-9.68218
▁projects	-9.68337
▁alexander	-9.68414
▁month	-9.68416
▁promotion	-9.68447
▁featuring	-9.68461
▁officially	-9.68537
▁qualified	-9.6865
▁avenue	-9.68685
▁principal	-9.68707
▁reviews	-9.68791
▁jr	-9.68884
▁possible	-9.68906
▁going	-9.69094
▁divided	-9.69105
▁referred	-9.69141
▁norwegian	-9.69189
▁thought	-9.69227
▁earth	-9.69251
ski	-9.69312
▁individuals	-9.69338
▁heritage	-9.69348
▁votes	-9.69441
▁bbc	-9.69489
▁stations	-9.69539
▁succeeded	-9.69616
▁formerly	-9.69817
▁code	-9.69878
▁wisconsin	-9.69972
▁allowed	-9.7005
▁sri	-9.70121
▁speed	-9.70127
▁orchestra	-9.70167
▁faculty	-9.7021
dy	-9.7026
▁entertainment	-9.70324
ck	-9.70336
har	-9.70405
▁commonly	-9.70409
▁santa	-9.70423
▁responsible	-9.70428
▁agency	-9.70443
sky	-9.7046
ney	-9.70541
▁hours	-9.70583
▁jan	-9.70616
▁theater	-9.70683
▁railroad	-9.70693
pi	-9.70708
so	-9.70759
▁ex	-9.70786
▁purchased	-9.70795
▁religious	-9.70835
▁tennis	-9.70867
▁friends	-9.70888
ite	-9.70891
bar	-9.70921
▁toronto	-9.71048
▁extended	-9.71069
ish	-9.71083
▁ph	-9.71111
▁liberal	-9.71165
ex	-9.7128
▁cities	-9.71286
▁software	-9.71314
▁brand	-9.71337
▁global	-9.71374
ho	-9.71422
▁weeks	-9.71493
▁issue	-9.71542
ab	-9.7155
war	-9.71579
▁gar	-9.71746
▁sweden	-9.7181
▁pakistan	-9.71835
–18	-9.71855
▁turkey	-9.71927
▁elizabeth	-9.71966
▁moving	-9.71971
ver	-9.7214
▁britain	-9.7217
▁provincial	-9.72227
▁scott	-9.72307
▁larger	-9.724
▁seats	-9.72519
▁passed	-9.72579
east	-9.72648
▁architect	-9.72756
idae	-9.72785
▁remaining	-9.72839
▁ho	-9.72974
▁jewish	-9.73033
▁2000,	-9.73059
gen	-9.73069
▁yellow	-9.73076
sk	-9.73192
▁korea	-9.73219
▁tree	-9.73228
▁mixed	-9.73245
▁shown	-9.73335
▁subject	-9.73344
▁1984	-9.73426
▁forms	-9.73446
▁southeast	-9.73488
▁2005,	-9.73552
km	-9.73571
▁netherlands	-9.73601
▁daily	-9.73618
▁sons	-9.7366
▁color	-9.73664
▁composer	-9.73871
▁owner	-9.73873
▁northwest	-9.73953
▁text	-9.7397
ap	-9.74008
▁miss	-9.74049
▁fish	-9.74118
▁characters	-9.74168
▁2020.	-9.74177
▁already	-9.74204
▁representing	-9.74243
▁bell	-9.74314
▁episodes	-9.74336
ku	-9.74442
▁decision	-9.74452
▁scoring	-9.74545
▁chair	-9.7455
▁obtained	-9.74592
▁terms	-9.74613
▁industrial	-9.74618
▁winners	-9.74619
▁recently	-9.74739
▁duke	-9.74904
tor	-9.75046
▁sixth	-9.75098
▁6,	-9.75099
▁graduate	-9.7513
▁cost	-9.75211
je	-9.75229
▁corps	-9.75296
▁gas	-9.75633
▁report	-9.75679
▁technical	-9.75717
▁finish	-9.75736
▁naval	-9.75762
▁climate	-9.7582
▁60	-9.75843
▁failed	-9.75853
▁ocean	-9.75888
tu	-9.75988
ju	-9.76141
▁cut	-9.76142
▁titled	-9.76158
▁lady	-9.7618
▁headquarters	-9.763
▁fight	-9.76317
▁god	-9.76344
est	-9.7635
▁retirement	-9.7637
▁)	-9.76375
▁1989	-9.76435
▁particularly	-9.76441
▁aged	-9.76442
▁gallery	-9.76544
▁usa	-9.76622
▁founding	-9.76717
ster	-9.76783
▁changes	-9.76812
▁stock	-9.76855
che	-9.77009
town	-9.77069
▁article	-9.77152
▁zone	-9.77203
▁pass	-9.77375
▁2007.	-9.77383
ll	-9.7739
▁nation	-9.774
▁documentary	-9.77421
▁floor	-9.77436
▁carried	-9.77479
▁golden	-9.77544
▁tri	-9.77652
also	-9.77674
▁amateur	-9.77692
▁iron	-9.77734
▁residents	-9.7777
kin	-9.77865
▁fame	-9.77894
▁gun	-9.77939
▁2008.	-9.7797
▁twice	-9.78
▁locality	-9.78019
▁theory	-9.78073
▁williams	-9.78088
▁experience	-9.78133
▁capacity	-9.78157
▁garden	-9.78168
▁korean	-9.78169
like	-9.78184
star	-9.78226
hu	-9.78267
▁guitar	-9.78358
ung	-9.78475
▁join	-9.78583
▁jack	-9.78709
▁cambridge	-9.78717
▁exhibition	-9.78777
▁our	-9.7891
▁split	-9.78992
▁painter	-9.79022
▁titles	-9.79043
▁7,	-9.79077
▁johnson	-9.792
ally	-9.79295
▁organized	-9.79481
que	-9.79556
lan	-9.79591
▁gained	-9.79619
▁sc	-9.7966
▁cape	-9.79698
▁labour	-9.79787
io	-9.79847
▁northeast	-9.79888
tra	-9.79947
if	-9.80049
ye	-9.80074
▁dan	-9.80078
new	-9.80086
▁assigned	-9.80111
su	-9.80114
▁face	-9.80499
▁shortly	-9.80546
▁offers	-9.80547
ut	-9.80604
▁block	-9.80667
▁joint	-9.80746
bu	-9.80779
▁peak	-9.8078
▁literary	-9.80949
▁authority	-9.8138
▁offered	-9.81395
▁journalist	-9.81426
▁holds	-9.81443
▁ad	-9.81459
▁poetry	-9.81462
▁longer	-9.81466
▁athletic	-9.81489
▁loan	-9.8149
▁rome	-9.81567
▁sha	-9.81592
▁flight	-9.81651
▁notes	-9.81744
▁appears	-9.81794
▁villages	-9.81905
▁concert	-9.81923
▁francis	-9.81933
▁lo	-9.81975
▁give	-9.81987
▁1987	-9.81996
▁si	-9.82001
▁languages	-9.82014
▁particular	-9.82065
▁daniel	-9.82067
▁younger	-9.82067
▁bureau	-9.82099
▁maria	-9.82117
▁deep	-9.82195
!	-9.82204
▁rail	-9.82237
▁workers	-9.82245
▁boys	-9.82274
▁et	-9.82287
▁honours	-9.82414
▁advanced	-9.82437
▁athletics	-9.82473
ran	-9.82507
▁plants	-9.82655
▁defense	-9.82659
▁ge	-9.82703
▁1940	-9.82779
▁demographics	-9.82833
▁comes	-9.82992
▁too	-9.83148
ini	-9.83194
▁prison	-9.8329
▁poet	-9.83374
ker	-9.83468
mann	-9.836
▁trust	-9.83609
▁8,	-9.83633
▁ban	-9.83634
▁nearly	-9.83666
▁required	-9.83672
▁publication	-9.83742
▁horse	-9.83748
▁1986	-9.83806
▁origin	-9.8387
19	-9.83922
▁rank	-9.83935
▁feet	-9.83969
▁ne	-9.84009
ization	-9.84167
▁10,	-9.8424
▁guest	-9.84241
▁specific	-9.84282
▁need	-9.8429
▁32	-9.84381
▁category	-9.84415
▁norway	-9.84458
▁minnesota	-9.84483
▁aired	-9.84578
▁khan	-9.84662
▁har	-9.84701
▁cancer	-9.84707
▁ver	-9.85058
▁mexican	-9.8507
▁couple	-9.85096
▁1972	-9.8532
▁forced	-9.85375
▁caused	-9.85449
▁surrounding	-9.85515
ik	-9.85543
▁recognized	-9.85567
ts	-9.85641
▁direct	-9.85651
▁—	-9.85747
▁czech	-9.85773
▁commissioned	-9.85783
▁35	-9.85844
uk	-9.85856
▁job	-9.85857
10	-9.8587
▁entry	-9.8592
▁turned	-9.85963
her	-9.86041
▁rules	-9.86043
▁2004,	-9.8606
billboard	-9.86067
▁articles	-9.86207
▁facility	-9.86207
▁contest	-9.86233
▁box	-9.86242
▁performances	-9.86244
▁15,	-9.86363
▁publications	-9.86423
▁travel	-9.86433
▁designated	-9.86582
onlyinclude	-9.86651
▁romanized	-9.86688
▁ku	-9.86696
▁direction	-9.86698
mp	-9.86746
▁southwest	-9.86804
▁exchange	-9.86846
▁sar	-9.86877
50	-9.86946
ron	-9.87254
▁peace	-9.87268
▁1976	-9.87314
▁supreme	-9.87385
▁flowers	-9.87448
▁melbourne	-9.87472
▁guard	-9.87833
▁focus	-9.87943
▁claimed	-9.87985
▁product	-9.88035
▁11,	-9.88089
▁build	-9.88106
century	-9.88166
▁relations	-9.88176
▁1983	-9.88183
▁ward	-9.88223
▁probably	-9.88306
▁16,	-9.88326
▁philadelphia	-9.88432
▁defeat	-9.88458
80	-9.8848
▁crew	-9.88492
▁1985	-9.88562
▁relationship	-9.88583
▁fe	-9.88601
▁sources	-9.88608
▁performing	-9.88823
▁done	-9.88827
▁sand	-9.88828
qui	-9.88849
▁lyrics	-9.88853
▁spread	-9.89026
min	-9.89089
▁respectively	-9.89182
▁leadership	-9.89245
▁17,	-9.89297
▁mu	-9.89345
yl	-9.89418
▁conducted	-9.89431
▁12,	-9.89492
ot	-9.89512
▁operating	-9.89574
red	-9.8964
▁pen	-9.89643
-1	-9.89686
gan	-9.89708
▁merged	-9.898
▁israel	-9.8984
▁oldest	-9.89899
▁ball	-9.8996
▁engineer	-9.89964
▁inside	-9.89968
▁moscow	-9.89989
í	-9.9004
▁figure	-9.9004
ang	-9.90056
ino	-9.90061
ita	-9.90119
á	-9.90176
▁missouri	-9.90176
▁ships	-9.90184
]]	-9.90217
▁proposed	-9.90248
▁combined	-9.9032
▁ali	-9.90327
ium	-9.90352
▁coming	-9.90408
▁za	-9.90409
▁para	-9.90512
head	-9.90519
more	-9.9057
▁electoral	-9.90627
▁fact	-9.90631
▁physical	-9.90729
▁interior	-9.9078
▁atlantic	-9.90802
▁alone	-9.90804
▁bass	-9.91011
▁ro	-9.91013
▁issued	-9.91042
▁pay	-9.91045
▁plans	-9.91049
▁boat	-9.91097
kar	-9.91192
▁tom	-9.91378
▁your	-9.91445
tv	-9.91455
▁content	-9.91466
▁composition	-9.91572
▁communities	-9.9165
▁agent	-9.91715
▁reach	-9.91836
ius	-9.91904
let	-9.91946
▁chapel	-9.91957
nes	-9.9198
▁publishing	-9.92066
▁sign	-9.92174
▁9,	-9.92177
▁palace	-9.92216
▁1982	-9.92281
▁returning	-9.92284
ola	-9.92313
▁fu	-9.9239
▁bad	-9.92408
▁heavy	-9.92456
▁14,	-9.92478
▁expanded	-9.92493
▁fiction	-9.9251
▁height	-9.92543
▁grant	-9.92594
▁function	-9.92609
gar	-9.92701
▁trains	-9.92772
op	-9.92804
▁partner	-9.92812
van	-9.92845
▁metropolitan	-9.92903
▁view	-9.92905
▁rate	-9.93029
▁smaller	-9.93062
▁beetle	-9.93196
ura	-9.93202
▁whole	-9.93206
▁fair	-9.93238
▁queensland	-9.93338
▁1968	-9.93372
▁fund	-9.93379
▁greater	-9.93385
net	-9.93401
▁letter	-9.93416
▁classical	-9.93417
▁programme	-9.93427
▁creation	-9.93437
▁birth	-9.93438
▁[[	-9.9352
▁initial	-9.93556
▁stop	-9.93726
▁charge	-9.93888
▁parliamentary	-9.93907
▁falls	-9.93927
▁premiered	-9.94077
▁yu	-9.94108
▁challenge	-9.94236
▁musician	-9.94262
▁finishing	-9.94263
30	-9.94267
▁believed	-9.94296
▁edge	-9.943
▁poor	-9.94373
▁roof	-9.94383
▁2006.	-9.94447
▁bought	-9.94572
ani	-9.94591
▁13,	-9.94654
▁always	-9.94687
ica	-9.9472
led	-9.94725
▁broadcasting	-9.9473
▁associate	-9.94741
▁emperor	-9.94757
▁21,	-9.94776
▁except	-9.94799
▁22,	-9.94958
▁1979	-9.95022
▁appear	-9.95049
▁ya	-9.95053
▁mentioned	-9.95138
▁dead	-9.95171
▁web	-9.95218
▁trial	-9.95252
▁ga	-9.95439
▁certain	-9.95695
▁28,	-9.95715
▁newly	-9.95735
yan	-9.95802
▁treatment	-9.95805
▁directly	-9.95824
▁educational	-9.95843
▁borough	-9.9588
▁compete	-9.95932
▁basis	-9.96034
▁ja	-9.96081
▁districts	-9.96153
▁20,	-9.96188
▁commune	-9.9619
▁ranked	-9.9624
▁doctor	-9.96398
▁ray	-9.96444
▁positive	-9.96455
▁rich	-9.96456
▁windows	-9.96461
▁23,	-9.96545
▁der	-9.96566
can	-9.96635
▁mine	-9.96637
yo	-9.96745
▁piano	-9.96749
▁environment	-9.96759
▁sr	-9.96769
cy	-9.96929
▁inspired	-9.96938
▁joining	-9.96952
▁habitat	-9.96978
▁diocese	-9.97001
▁listing	-9.97076
▁scene	-9.97077
▁influence	-9.9712
▁26,	-9.97159
▁‘	-9.9718
▁19,	-9.97188
ig	-9.97346
sch	-9.97396
▁cathedral	-9.97608
▁personnel	-9.97622
▁27,	-9.97628
▁ki	-9.97629
▁problems	-9.97704
ez	-9.9771
▁electric	-9.97711
▁folk	-9.97741
▁1945	-9.97747
▁danish	-9.97762
▁produce	-9.97825
▁philosophy	-9.97834
▁conservation	-9.97849
▁gene	-9.97877
▁classic	-9.97883
▁beat	-9.97896
▁inhabitants	-9.97905
▁attorney	-9.97932
with	-9.97995
▁pi	-9.98027
zi	-9.98045
▁30,	-9.9812
▁brick	-9.9818
▁elements	-9.98256
▁makes	-9.98257
▁conservative	-9.98269
▁adult	-9.98279
dar	-9.98388
▁1974	-9.98481
▁1981	-9.985
▁andrew	-9.98555
ns	-9.98584
▁arthur	-9.9861
▁tar	-9.98622
ai	-9.98648
▁fleet	-9.98672
▁widely	-9.98682
▁applied	-9.98682
▁val	-9.98793
▁therefore	-9.9883
▁wa	-9.98897
▁im	-9.98985
▁ring	-9.98997
▁bob	-9.99024
ara	-9.9903
▁joe	-9.99094
▁kansas	-9.99096
▁weekly	-9.99129
▁2005.	-9.99166
▁intended	-9.99178
▁ram	-9.99213
▁colorado	-9.99215
▁25,	-9.99226
▁planned	-9.99317
▁dean	-9.99395
▁davis	-9.99411
▁wilson	-9.99538
▁impact	-9.99605
▁increased	-9.99618
▁graduating	-9.99639
af	-9.99658
▁fox	-9.99671
▁2003,	-9.99763
▁qualifying	-9.99881
▁recognition	-9.99895
▁hills	-9.99905
ram	-9.99931
▁rule	-9.99972
▁morning	-9.99995
▁losing	-9.99995
▁1978	-10.0003
▁ch	-10.0003
▁grey	-10.0013
▁analysis	-10.0015
▁statistics	-10.0024
▁effect	-10.0028
▁yet	-10.0028
▁unknown	-10.0028
▁trophy	-10.0035
▁1964	-10.0037
election	-10.0039
=	-10.0046
▁wins	-10.006
▁response	-10.0062
law	-10.0063
▁junction	-10.0065
▁1977	-10.0068
▁taylor	-10.007
ship	-10.0071
40	-10.0073
▁positions	-10.0074
▁dar	-10.0074
▁consisted	-10.0074
▁represent	-10.0079
▁chosen	-10.0087
▁jackson	-10.009
▁removed	-10.0092
▁highly	-10.0095
▁settled	-10.0098
▁chamber	-10.0104
▁albert	-10.0112
▁typically	-10.0115
▁resigned	-10.0116
▁ra	-10.0117
▁leave	-10.0124
story	-10.0125
ph	-10.0128
▁quality	-10.013
▁steel	-10.0139
▁entrance	-10.015
▁cell	-10.0156
▁stand	-10.0159
mu	-10.0172
▁cabinet	-10.0172
▁method	-10.0175
▁protection	-10.0179
▁wind	-10.0179
▁activity	-10.0184
▁arrived	-10.0186
tz	-10.0187
▁sales	-10.0191
known	-10.0194
▁drive	-10.0203
▁leg	-10.0204
▁tennessee	-10.0208
▁medals	-10.021
▁broad	-10.0216
▁(1	-10.0221
▁communist	-10.0221
ii	-10.0226
▁continues	-10.0228
▁1975	-10.0229
18	-10.0234
70	-10.0241
▁environmental	-10.0243
▁flows	-10.0245
ating	-10.0247
▁immediately	-10.0251
back	-10.0255
▁evidence	-10.0261
ata	-10.0262
▁29,	-10.0264
▁priest	-10.027
▁connected	-10.0272
▁austria	-10.0273
kan	-10.0284
▁earl	-10.0284
▁er	-10.029
▁turkish	-10.029
▁eu	-10.029
▁presidential	-10.0294
▁traffic	-10.0302
▁scheduled	-10.0312
ful	-10.0327
pp	-10.0328
wan	-10.0339
▁quarter	-10.0341
-2	-10.0342
▁factory	-10.0353
port	-10.0356
▁occurs	-10.0359
gu	-10.0361
vin	-10.0365
;/	-10.0371
▁arizona	-10.0372
▁oregon	-10.0378
▁growing	-10.0385
▁salt	-10.039
▁accepted	-10.0407
ary	-10.0409
▁independence	-10.041
▁adopted	-10.0415
▁fell	-10.0424
▁achieved	-10.0427
▁sky	-10.0428
▁cases	-10.0428
▁classes	-10.0434
▁properties	-10.0441
▁wild	-10.0442
▁volume	-10.0442
▁infantry	-10.0443
▁themselves	-10.0444
▁alliance	-10.0445
ud	-10.045
▁lawyer	-10.0451
era	-10.0451
▁enough	-10.0452
▁meet	-10.0453
▁hold	-10.0459
▁va	-10.0474
▁attempt	-10.0475
▁alternative	-10.0478
▁lewis	-10.0481
▁indiana	-10.0492
mon	-10.0493
▁brazilian	-10.0493
▁revolution	-10.0503
▁attention	-10.0504
▁os	-10.0509
▁arena	-10.0512
▁imperial	-10.0522
long	-10.0524
▁1928	-10.0526
▁external	-10.0529
▁doubles	-10.053
▁metro	-10.0533
▁count	-10.0534
▁destroyed	-10.0536
▁injury	-10.0538
▁protein	-10.054
▁schedule	-10.054
▁prix	-10.0543
▁economy	-10.0547
▁organizations	-10.0555
▁growth	-10.0558
90	-10.0559
▁walter	-10.0561
▁cap	-10.0572
▁philippines	-10.0574
▁finals	-10.0578
tri	-10.0579
▁trail	-10.0585
▁granted	-10.0585
▁anne	-10.0594
▁studios	-10.0605
-18	-10.0614
▁squadron	-10.0615
▁sat	-10.0617
▁permanent	-10.0618
▁bc	-10.0632
▁copies	-10.0633
▁ta	-10.0635
▁inc	-10.0637
▁q	-10.065
▁critics	-10.0652
▁soundtrack	-10.0653
▁ju	-10.0655
cc	-10.0656
▁estimated	-10.066
ano	-10.0665
▁mike	-10.0668
▁iowa	-10.0671
▁agreement	-10.0673
▁giving	-10.0681
ev	-10.0687
▁institution	-10.0687
▁seventh	-10.0687
▁1973	-10.0687
▁equipment	-10.0691
▁establishment	-10.0691
ria	-10.0691
ps	-10.0693
▁mis	-10.0697
▁spot	-10.0699
tan	-10.0704
▁lot	-10.0704
▁entitled	-10.0708
fer	-10.0708
▁pilot	-10.0708
▁labor	-10.0708
▁crown	-10.0719
▁fashion	-10.0722
▁pope	-10.0723
▁ed	-10.0725
▁derived	-10.0727
▁page	-10.0727
▁swiss	-10.0727
▁words	-10.0737
▁ti	-10.0742
▁80	-10.0744
▁quebec	-10.0748
▁true	-10.0749
▁convention	-10.0751
▁2004.	-10.0755
▁neighborhood	-10.0756
2.	-10.0759
▁switzerland	-10.0761
ella	-10.0762
▁reading	-10.0767
▁candidates	-10.0768
cho	-10.0773
▁competitions	-10.078
▁continue	-10.0781
▁liga	-10.0783
▁twelve	-10.0792
ff	-10.0793
▁flat	-10.0794
▁declared	-10.0799
▁cm	-10.0801
▁purpose	-10.0806
▁maryland	-10.0814
▁mathematics	-10.0821
▁mal	-10.0824
▁conditions	-10.0825
tel	-10.0832
▁someone	-10.084
ised	-10.0845
▁ambassador	-10.0849
▁fields	-10.0849
▁sites	-10.085
▁portion	-10.0851
▁2002.	-10.0853
▁bowl	-10.0862
▁versions	-10.087
▁links	-10.0871
▁1971	-10.0873
wi	-10.0875
▁parties	-10.0876
▁1969	-10.0879
▁bor	-10.0887
ial	-10.089
▁maximum	-10.0891
▁iv	-10.0896
▁agricultural	-10.09
▁36	-10.09
▁containing	-10.0905
pro	-10.0906
▁tamil	-10.0907
▁chris	-10.0913
▁circuit	-10.0916
▁argentina	-10.0922
▁edinburgh	-10.0924
sha	-10.0924
▁suffered	-10.0928
▁motor	-10.093
▁golf	-10.0934
▁unincorporated	-10.0944
▁transfer	-10.0945
▁organisation	-10.0955
▁defence	-10.0956
▁nu	-10.0959
▁incorporated	-10.0961
▁2002,	-10.0963
▁machine	-10.0968
▁corner	-10.0977
▁distinguished	-10.0982
▁card	-10.0982
▁70	-10.0991
▁break	-10.1007
▁levels	-10.1009
art	-10.1009
king	-10.1017
▁oblast	-10.1019
▁confirmed	-10.1025
▁arms	-10.1028
▁planning	-10.103
▁blood	-10.1036
60	-10.1036
▁holy	-10.1038
▁sch	-10.1047
san	-10.105
▁providing	-10.1055
see	-10.1058
▁foot	-10.1063
ī	-10.1065
▁finance	-10.1068
▁ken	-10.1071
▁meters	-10.1073
ou	-10.1081
▁concept	-10.1081
▁jo	-10.1085
shi	-10.1086
▁jim	-10.1092
▁glass	-10.1105
▁kentucky	-10.1107
▁ny	-10.1112
▁shell	-10.112
▁500	-10.112
▁resources	-10.1127
▁lack	-10.1129
▁idea	-10.113
▁1948	-10.1136
hl	-10.1143
▁invited	-10.1145
▁orange	-10.1146
ena	-10.1149
▁account	-10.1152
▁yards	-10.1167
▁debuted	-10.1167
▁canal	-10.1174
▁supporting	-10.1177
▁1967	-10.1179
▁bu	-10.1188
▁mp	-10.1194
▁counties	-10.1195
▁cars	-10.1197
▁kind	-10.1199
▁share	-10.1203
▁unique	-10.1204
▁allow	-10.1204
▁gmina	-10.1206
▁fm	-10.1213
▁officers	-10.1215
▁express	-10.1216
tic	-10.1222
▁400	-10.1233
▁stephen	-10.1237
▁likely	-10.1242
▁passenger	-10.1242
▁2001,	-10.1251
▁trained	-10.1252
▁simon	-10.1257
▁letters	-10.1263
▁value	-10.1266
▁identified	-10.1277
▁(16	-10.128
▁33	-10.1281
▁sh	-10.1284
▁increase	-10.1286
▁economics	-10.1288
ning	-10.1289
▁asked	-10.129
▁tall	-10.1291
▁marked	-10.1291
stone	-10.1293
▁survey	-10.1297
▁types	-10.1299
▁disease	-10.1303
▁internet	-10.1303
▁brigade	-10.1308
▁agriculture	-10.1309
▁consecutive	-10.1311
▁domestic	-10.1333
▁receiving	-10.1342
▁crime	-10.1344
illa	-10.1344
ren	-10.135
▁contributed	-10.1356
▁musicians	-10.1361
17	-10.1362
hr	-10.1362
▁learning	-10.1376
bra	-10.1383
▁kar	-10.1384
▁leaders	-10.1384
▁carl	-10.1397
▁midfielder	-10.1406
▁offices	-10.1412
▁classification	-10.1414
▁towns	-10.142
▁communications	-10.142
▁pat	-10.1421
▁denmark	-10.1423
burg	-10.1424
▁historian	-10.1424
▁paintings	-10.1424
▁kim	-10.1425
▁nfl	-10.143
▁tokyo	-10.1434
▁registered	-10.1437
▁fought	-10.144
▁pair	-10.144
▁cause	-10.144
▁fan	-10.1444
▁bangladesh	-10.1449
▁goes	-10.1451
▁pin	-10.1454
▁clear	-10.1455
án	-10.1456
▁dublin	-10.1458
▁coaching	-10.1472
▁price	-10.1475
▁transportation	-10.1476
▁starred	-10.149
▁read	-10.1499
general	-10.1506
▁electronic	-10.1519
▁theme	-10.1528
▁bal	-10.1534
▁productions	-10.1536
▁wanted	-10.1536
▁harvard	-10.1542
dal	-10.1558
▁pra	-10.1559
▁physics	-10.156
▁contested	-10.1565
pan	-10.157
yn	-10.1585
▁pe	-10.1586
▁writers	-10.1589
▁converted	-10.1589
▁austrian	-10.159
▁dry	-10.1593
▁dates	-10.1598
▁numbers	-10.1598
kh	-10.1602
▁manchester	-10.1605
nan	-10.1609
ent	-10.1612
▁search	-10.1619
▁piece	-10.1629
▁slightly	-10.1629
▁il	-10.1634
▁troops	-10.1634
cu	-10.1635
shaped	-10.1638
▁racial	-10.1642
▁collected	-10.1642
▁2003.	-10.165
▁efforts	-10.1655
▁hal	-10.1657
▁singing	-10.1685
ky	-10.1692
▁begins	-10.1692
▁han	-10.1694
▁1956	-10.1694
▁figures	-10.1696
▁makeup	-10.1701
dale	-10.1704
▁shop	-10.1708
▁miller	-10.1713
15	-10.1719
▁locations	-10.1723
dan	-10.1723
▁sp	-10.1725
▁safety	-10.1726
▁generation	-10.1726
cher	-10.1729
ea	-10.1731
▁ham	-10.1737
▁restaurant	-10.1741
▁90	-10.1741
▁ltd	-10.1744
▁reference	-10.1745
▁largely	-10.1746
▁saying	-10.1748
▁sex	-10.1752
▁occurred	-10.1752
▁nor	-10.1753
water	-10.1757
▁etc	-10.1765
▁trees	-10.1768
▁selection	-10.1771
▁soldiers	-10.1774
▁1965	-10.1775
over	-10.1776
ā	-10.1779
▁say	-10.1782
▁flag	-10.1785
+	-10.1787
▁ceremony	-10.179
▁2021	-10.1798
▁murder	-10.1798
▁image	-10.1799
ris	-10.1804
▁visit	-10.1807
▁steve	-10.1813
eh	-10.1818
ula	-10.1819
▁bur	-10.1829
▁rare	-10.1834
▁focused	-10.1836
ray	-10.1842
var	-10.1856
▁captured	-10.1856
▁colonel	-10.1865
▁materials	-10.187
▁ross	-10.1875
ven	-10.1876
▁cinema	-10.1879
▁micro	-10.1881
▁baron	-10.1894
▁interview	-10.1903
12	-10.1908
nie	-10.1908
▁shape	-10.1908
▁rio	-10.1911
▁residential	-10.1918
▁anna	-10.1918
▁1966	-10.1919
▁commonwealth	-10.1927
▁portuguese	-10.1927
▁narrow	-10.1929
▁launch	-10.1937
▁ceo	-10.1941
ett	-10.1944
▁sang	-10.1948
▁honorary	-10.1949
▁mor	-10.1952
▁heat	-10.1953
▁recordings	-10.1956
▁cor	-10.1956
ken	-10.1958
tes	-10.1958
▁guitarist	-10.1962
▁arm	-10.1964
▁quickly	-10.1974
▁effects	-10.1978
▁compared	-10.1981
tus	-10.1986
▁hu	-10.1988
air	-10.1993
▁belgium	-10.1996
▁adjacent	-10.2
▁defeating	-10.2003
▁partnership	-10.2008
ari	-10.2023
ok	-10.2027
▁costa	-10.2029
▁31,	-10.2031
ance	-10.2039
▁daughters	-10.204
▁simple	-10.2047
die	-10.2062
▁visual	-10.2069
▁cricketer	-10.2072
▁receive	-10.2076
▁rear	-10.2078
▁holding	-10.2079
▁endemic	-10.2079
ae	-10.2086
▁residence	-10.2089
▁ridge	-10.2101
▁consisting	-10.2102
▁arab	-10.2103
▁trans	-10.2105
▁vienna	-10.2107
▁courses	-10.2109
not	-10.2119
▁34	-10.2119
!"	-10.2119
▁tan	-10.2122
▁subsequent	-10.2124
▁mall	-10.2125
▁regions	-10.2126
▁arrested	-10.2135
▁runner	-10.2136
▁programming	-10.2137
▁peaked	-10.2144
▁eye	-10.2155
▁develop	-10.2162
ban	-10.2168
▁drug	-10.2169
▁let	-10.218
▁comic	-10.2183
▁hamilton	-10.219
▁might	-10.2191
▁know	-10.22
▁mon	-10.2202
▁je	-10.2202
▁bird	-10.2204
▁fruit	-10.2204
▁chemical	-10.2213
▁vocals	-10.2214
▁samuel	-10.2218
▁opposition	-10.2219
▁swimming	-10.222
▁compilation	-10.222
▁operates	-10.2222
which	-10.2222
use	-10.2225
▁phase	-10.2225
▁1952	-10.2226
▁dj	-10.2226
16	-10.223
▁remain	-10.2235
▁ordered	-10.2236
▁stream	-10.2258
▁reports	-10.2263
▁indonesia	-10.2265
▁laid	-10.2267
▁legislature	-10.2269
▁flying	-10.2272
▁knowledge	-10.2275
▁elevation	-10.2284
▁contributions	-10.2287
▁ru	-10.2294
▁application	-10.2294
▁worldwide	-10.2295
par	-10.2297
▁auto	-10.23
▁standing	-10.2305
▁armed	-10.2313
▁begin	-10.2323
tha	-10.2326
▁beyond	-10.2328
▁charts	-10.2328
▁streets	-10.2333
▁singapore	-10.2334
▁2001.	-10.2335
▁reaching	-10.2336
▁producing	-10.2343
▁ending	-10.2344
▁passes	-10.2344
▁montreal	-10.2346
▁commissioner	-10.2349
▁collaboration	-10.235
tro	-10.2351
35	-10.2352
▁monument	-10.2353
▁distributed	-10.2354
▁perform	-10.2354
▁approach	-10.2357
ach	-10.2359
▁freedom	-10.2362
▁sides	-10.2362
▁artistic	-10.2364
▁summit	-10.2366
▁pick	-10.237
▁mobile	-10.237
▁2000.	-10.2377
▁juan	-10.2378
▁coal	-10.2385
▁col	-10.2387
▁greece	-10.2388
▁sunday	-10.2398
▁senator	-10.2401
▁models	-10.2403
▁1999,	-10.2403
2).	-10.2412
ó	-10.2415
▁margaret	-10.2415
▁oak	-10.2416
ska	-10.2417
zo	-10.2421
▁competing	-10.2421
▁map	-10.2422
▁1962	-10.2424
▁churches	-10.2425
tur	-10.2427
val	-10.2435
▁mad	-10.2436
▁tradition	-10.2437
▁singh	-10.2439
);	-10.244
▁ce	-10.2441
▁finnish	-10.2441
▁existing	-10.2447
▁presence	-10.2453
▁visited	-10.2456
▁oklahoma	-10.246
del	-10.2462
▁institutions	-10.2464
ida	-10.2464
▁normal	-10.2467
▁ukraine	-10.2474
▁row	-10.2477
▁keep	-10.2479
▁phd	-10.2481
ft	-10.2484
▁wrestling	-10.2485
▁straight	-10.2487
▁athletes	-10.249
▁kept	-10.2494
▁qualification	-10.2494
▁things	-10.2495
▁refers	-10.2498
▁painted	-10.25
▁hits	-10.2508
▁frederick	-10.2511
▁ski	-10.2515
▁philip	-10.2516
▁gives	-10.2519
▁revival	-10.2519
▁mind	-10.2524
▁alabama	-10.2526
▁hungarian	-10.253
ring	-10.2531
11	-10.2533
▁(2	-10.2538
▁pradesh	-10.2544
end	-10.2545
iv	-10.2547
▁extra	-10.2548
om	-10.2556
▁cu	-10.2559
▁audience	-10.2563
▁dynasty	-10.2571
din	-10.2572
▁peninsula	-10.2577
kov	-10.2579
▁poverty	-10.2586
mm	-10.2592
fl	-10.2598
▁finland	-10.26
▁occupied	-10.2607
▁1936	-10.261
▁creating	-10.2612
▁simply	-10.2612
▁chain	-10.2614
▁connecticut	-10.2616
tal	-10.2623
▁frequently	-10.2624
▁translated	-10.2635
▁moon	-10.2639
▁kent	-10.2643
▁basic	-10.2644
iya	-10.2651
▁resulted	-10.266
▁pieces	-10.2661
ros	-10.2662
▁mississippi	-10.2666
▁hip	-10.2667
▁colonial	-10.2668
▁approved	-10.2669
▁cat	-10.2671
▁volleyball	-10.2677
ston	-10.2681
▁potential	-10.2683
▁malaysia	-10.2683
▁dog	-10.2684
▁expedition	-10.2685
▁howard	-10.2688
▁1963	-10.2694
▁outstanding	-10.2696
▁offer	-10.2702
bel	-10.2708
▁studying	-10.2714
▁investment	-10.2734
▁1924	-10.2736
▁represents	-10.2745
▁38	-10.2745
▁indoor	-10.2748
▁shared	-10.2748
▁note	-10.275
▁follow	-10.2751
▁leaf	-10.2765
▁tre	-10.2766
▁pool	-10.2769
▁collections	-10.2773
▁antonio	-10.2774
▁core	-10.2774
▁reform	-10.2777
▁belgian	-10.2777
ens	-10.2784
▁screen	-10.2786
▁employed	-10.279
▁bio	-10.279
▁whether	-10.2791
▁driver	-10.2796
▁fighting	-10.28
▁hired	-10.2801
▁cold	-10.2817
▁max	-10.2819
▁1959	-10.2824
▁blues	-10.2825
▁told	-10.2826
▁pictures	-10.2827
▁diego	-10.2831
▁revealed	-10.2834
▁adapted	-10.2838
▁ukrainian	-10.2838
res	-10.2839
▁ze	-10.2847
bury	-10.2858
▁sale	-10.2859
▁weight	-10.2861
▁acts	-10.2861
▁membership	-10.2861
nia	-10.2866
▁fast	-10.2869
▁gu	-10.2873
▁overview	-10.2879
▁dream	-10.2882
▁expected	-10.2883
▁cal	-10.2888
sson	-10.2891
▁walls	-10.2892
▁directors	-10.2894
▁householder	-10.2896
▁constitution	-10.2901
tis	-10.2904
▁secret	-10.2906
dia	-10.2912
▁dvd	-10.2915
▁diameter	-10.2915
▁animals	-10.2916
▁(3	-10.2919
▁puerto	-10.2923
▁allen	-10.2927
▁picture	-10.2927
▁mining	-10.2931
▁amount	-10.2933
▁animal	-10.2938
▁shi	-10.2939
▁lane	-10.2944
▁welsh	-10.2957
▁couples	-10.2959
▁designer	-10.2963
▁em	-10.2964
▁harry	-10.2967
▁tim	-10.2971
▁hundred	-10.2972
▁paid	-10.2973
▁fully	-10.2975
rin	-10.2976
▁starts	-10.2977
▁funding	-10.299
light	-10.2991
▁broke	-10.2995
tt	-10.2995
▁christ	-10.2997
▁duo	-10.3007
▁defending	-10.3007
▁patrick	-10.301
▁participate	-10.3016
▁display	-10.3017
▁weather	-10.3019
▁applications	-10.302
▁1957	-10.3027
▁stands	-10.3029
▁1939	-10.3034
tar	-10.3044
▁path	-10.3047
▁write	-10.305
pu	-10.3056
▁session	-10.3057
?	-10.306
▁1999.	-10.3066
▁1946	-10.3068
▁extensive	-10.3068
▁reduced	-10.3069
▁matt	-10.3074
ú	-10.3074
▁authorities	-10.3078
▁ur	-10.3079
▁expansion	-10.3084
▁stay	-10.3089
21	-10.3097
cal	-10.3097
▁guinea	-10.3097
ence	-10.3099
oli	-10.3106
▁vol	-10.3106
▁shore	-10.3107
type	-10.3109
sc	-10.3111
▁victorian	-10.3112
▁egypt	-10.3114
abad	-10.3128
▁survived	-10.313
▁37	-10.3138
▁min	-10.3146
▁clark	-10.3149
ise	-10.3155
▁try	-10.3163
▁1961	-10.3166
ries	-10.3171
▁affiliated	-10.3172
▁memory	-10.3173
ec	-10.3175
▁gay	-10.3176
▁villa	-10.3177
she	-10.3191
▁abandoned	-10.3193
▁1900	-10.3196
38	-10.3197
▁hat	-10.3198
▁tax	-10.3199
▁1958	-10.32
▁che	-10.3203
▁ranking	-10.3221
09	-10.3222
oc	-10.3223
dis	-10.3224
tin	-10.3229
▁regularly	-10.3229
▁scholar	-10.323
▁adam	-10.3231
▁edited	-10.3234
▁vietnam	-10.3237
▁critic	-10.3243
▁gor	-10.325
nik	-10.3253
▁josé	-10.3256
▁douglas	-10.3258
▁extension	-10.3258
▁creative	-10.3261
may	-10.3265
▁anthony	-10.3267
sp	-10.327
▁incumbent	-10.327
▁credited	-10.3271
▁houston	-10.3273
▁1998,	-10.3274
▁44	-10.3276
▁medieval	-10.3277
fe	-10.3277
▁64	-10.3277
▁universities	-10.3283
▁las	-10.3284
▁aviation	-10.3287
▁ob	-10.3287
▁installed	-10.3291
▁die	-10.3291
from	-10.3293
▁nigeria	-10.3294
▁basin	-10.3296
▁hope	-10.3316
▁legacy	-10.3317
▁moore	-10.3319
▁portugal	-10.3322
▁examples	-10.3329
▁contained	-10.3329
▁grows	-10.3335
ure	-10.3343
▁1947	-10.3343
▁resulting	-10.3344
▁defined	-10.3345
▁architectural	-10.3346
ich	-10.3348
▁equal	-10.3355
▁anderson	-10.3357
▁relatively	-10.3359
š	-10.3362
25	-10.3363
";	-10.3365
uri	-10.3368
▁1944	-10.3368
▁42	-10.3368
▁elementary	-10.3369
▁kg	-10.337
ada	-10.3372
▁den	-10.3372
48	-10.3373
▁teachers	-10.3376
▁pressure	-10.338
▁sim	-10.3383
level	-10.3386
▁minute	-10.3393
▁actually	-10.3396
26	-10.3402
▁allows	-10.3404
▁bush	-10.3408
▁details	-10.3408
▁hispanic	-10.3408
▁lanka	-10.341
ong	-10.3418
14	-10.3423
▁completely	-10.3424
▁honour	-10.3426
▁choice	-10.343
▁promote	-10.3432
▁tie	-10.3438
▁1918	-10.3438
lon	-10.3448
▁socialist	-10.3449
rat	-10.3449
45	-10.345
hill	-10.345
▁1949	-10.3452
▁walker	-10.3458
▁honors	-10.3468
▁scholarship	-10.3473
▁structures	-10.3483
▁marie	-10.3483
▁fans	-10.3485
nu	-10.3486
nt	-10.3487
39	-10.3488
▁storm	-10.3498
▁closely	-10.3515
▁brian	-10.3516
▁poly	-10.3522
▁downtown	-10.3523
▁successfully	-10.3525
ay	-10.3526
▁billion	-10.3527
▁bands	-10.3529
▁eleven	-10.3529
▁voted	-10.3531
▁colour	-10.3533
▁effort	-10.3533
▁versus	-10.3534
▁louisiana	-10.354
▁stores	-10.3544
▁coastal	-10.355
▁existence	-10.3551
▁rain	-10.3553
▁1910	-10.3558
;&	-10.3563
len	-10.3575
▁businessman	-10.3582
▁passing	-10.3584
▁translation	-10.3588
lia	-10.359
▁chess	-10.3591
▁hor	-10.3594
▁tier	-10.3595
rie	-10.3596
▁religion	-10.3598
▁1919	-10.3598
▁bottom	-10.361
▁(),	-10.3613
iz	-10.3616
▁trip	-10.3623
ag	-10.3624
▁ve	-10.3624
▁anniversary	-10.3625
▁speaker	-10.3633
▁sector	-10.3634
▁christmas	-10.3636
ón	-10.3641
75	-10.3643
▁sculpture	-10.3644
▁yorkshire	-10.3647
▁vehicle	-10.3651
▁mag	-10.3651
▁medium	-10.3672
▁guide	-10.3672
▁setting	-10.3674
▁step	-10.3674
ell	-10.3676
55	-10.3679
▁1942	-10.3684
this	-10.3687
▁disc	-10.3691
▁becomes	-10.3695
who	-10.3696
mal	-10.3696
▁karl	-10.3697
▁glasgow	-10.3698
mes	-10.3699
▁agreed	-10.3706
▁shah	-10.3706
▁percent	-10.3707
▁battalion	-10.3708
▁look	-10.3709
▁covid	-10.3711
▁gastropod	-10.3711
▁notably	-10.3711
▁lincoln	-10.3715
▁fo	-10.3716
▁criminal	-10.3717
▁rating	-10.3721
05	-10.3721
▁connection	-10.3722
aka	-10.3729
▁hi	-10.373
36	-10.3733
▁stood	-10.3735
▁bin	-10.3742
▁crossing	-10.3749
▁lawrence	-10.3752
▁franchise	-10.3754
▁atlanta	-10.3756
▁gang	-10.3761
▁intelligence	-10.3762
▁1951	-10.3763
▁novels	-10.3765
1,	-10.3774
▁prefecture	-10.3776
ip	-10.3778
▁developing	-10.378
row	-10.3781
▁1954	-10.3781
▁cdp	-10.3787
▁reign	-10.3791
ee	-10.3792
▁var	-10.3794
gra	-10.3795
▁communication	-10.3798
▁enter	-10.3804
▁difficult	-10.3805
▁uncle	-10.3808
▁condition	-10.3809
▁briefly	-10.3812
▁banks	-10.3815
▁unlike	-10.3819
▁plus	-10.3823
ator	-10.3826
▁1955	-10.3827
▁talk	-10.383
32	-10.3837
▁chapter	-10.3839
category	-10.3839
23	-10.3844
▁arranged	-10.3846
▁gi	-10.3849
▁nova	-10.3852
▁bre	-10.3852
▁successor	-10.386
▁inaugural	-10.3865
gon	-10.3865
▁1922	-10.3867
▁problem	-10.3868
65	-10.387
▁protected	-10.3872
bert	-10.3874
▁israeli	-10.3874
▁appointment	-10.3876
▁miami	-10.3879
▁supply	-10.3879
27	-10.388
▁chemistry	-10.3882
▁organ	-10.3889
▁belonging	-10.3894
▁1998.	-10.3897
▁thailand	-10.3897
▁satellite	-10.3897
▁combat	-10.3906
▁branches	-10.3911
▁license	-10.3912
▁accident	-10.3912
▁(15	-10.3917
▁twin	-10.3922
ology	-10.3923
pre	-10.3927
▁hungary	-10.3928
▁discovery	-10.3931
▁functions	-10.3937
▁1941	-10.3939
▁detroit	-10.3942
zy	-10.3946
▁ability	-10.3951
des	-10.3952
▁gray	-10.3952
▁fifa	-10.3956
▁1997,	-10.3957
ova	-10.3962
▁centuries	-10.3962
▁link	-10.3964
▁dating	-10.3966
▁classified	-10.3966
▁hands	-10.3975
▁sets	-10.3995
-3	-10.3999
▁needed	-10.4003
▁internal	-10.4004
▁fly	-10.4007
▁arkansas	-10.4007
▁riding	-10.4023
▁covering	-10.4026
▁bag	-10.4031
▁ultimately	-10.4031
▁1925	-10.4035
▁opposite	-10.4036
mont	-10.4036
▁defender	-10.4036
▁tony	-10.4037
▁eighth	-10.4039
med	-10.404
▁1996,	-10.4044
▁(4	-10.4045
▁mun	-10.4048
95	-10.405
▁cells	-10.4052
▁till	-10.4057
fu	-10.4065
▁reasons	-10.4067
▁chose	-10.4071
▁typical	-10.4073
▁thirty	-10.4073
▁wine	-10.4075
▁feed	-10.4076
▁suburb	-10.4083
fo	-10.4086
ms	-10.4093
▁dropped	-10.4095
▁gro	-10.4096
ama	-10.41
top	-10.41
gate	-10.4102
▁latino	-10.4107
ette	-10.4117
▁1938	-10.4122
▁41	-10.4123
46	-10.4131
▁landscape	-10.4131
▁terminal	-10.4132
▁credits	-10.4135
ensis	-10.4135
▁acid	-10.4137
▁sal	-10.4138
▁standards	-10.414
▁ann	-10.4142
▁influenced	-10.4145
▁300	-10.4148
▁mouth	-10.4148
▁journey	-10.4149
▁rev	-10.4152
▁appearing	-10.4153
▁taiwan	-10.4155
▁voivodeship	-10.4159
▁views	-10.416
▁citizens	-10.4163
▁municipalities	-10.4171
▁1953	-10.4172
▁shooting	-10.4177
▁bel	-10.4177
▁merchant	-10.4179
▁muslim	-10.4183
▁showed	-10.4184
▁1912	-10.4186
▁bring	-10.4187
down	-10.4188
▁48	-10.419
ize	-10.4191
ane	-10.4195
▁conflict	-10.4195
▁xi	-10.4197
▁admitted	-10.4204
▁1926	-10.4205
▁ends	-10.4206
▁signing	-10.4209
▁2021,	-10.4214
37	-10.4218
▁kan	-10.422
▁visiting	-10.4223
▁tribe	-10.4224
▁boundary	-10.4224
▁1943	-10.4226
▁abbey	-10.4234
mus	-10.4236
▁unable	-10.4239
née	-10.4241
▁1997.	-10.4245
sur	-10.4245
▁archbishop	-10.4249
▁1923	-10.4255
▁wooden	-10.4265
▁39	-10.427
▁inner	-10.4272
▁1921	-10.4273
▁says	-10.4275
47	-10.4278
▁defensive	-10.4283
worth	-10.4286
▁sections	-10.4291
point	-10.4299
zer	-10.43
▁effective	-10.43
▁credit	-10.4301
▁ahead	-10.4303
▁gordon	-10.4303
▁motion	-10.4305
▁engaged	-10.4305
06	-10.4308
▁hampshire	-10.4309
▁eric	-10.4309
▁papers	-10.431
▁steam	-10.4315
▁combination	-10.4315
▁laboratory	-10.4319
▁monastery	-10.432
▁1917	-10.432
▁intersection	-10.4323
▁knight	-10.4324
▁pale	-10.4333
▁determined	-10.4333
▁underground	-10.4334
29	-10.4335
▁bid	-10.4336
99	-10.4343
▁pu	-10.4343
▁hay	-10.4349
▁49	-10.435
▁milan	-10.4351
▁claims	-10.4357
▁entirely	-10.4357
▁nomination	-10.4369
▁hosts	-10.4372
▁walk	-10.4375
▁venue	-10.4391
▁mel	-10.4394
▁char	-10.4395
▁whilst	-10.44
▁passengers	-10.4401
▁brief	-10.4401
▁describes	-10.4402
▁restored	-10.4403
▁1914	-10.4409
▁worth	-10.4412
▁specifically	-10.4412
▁1929	-10.4413
▁cook	-10.4413
00	-10.4414
season	-10.4416
▁outdoor	-10.4419
▁es	-10.4421
▁kings	-10.4423
▁want	-10.4428
▁mat	-10.4432
▁1937	-10.4433
lis	-10.4435
44	-10.4436
rock	-10.444
▁suggested	-10.4441
▁1996.	-10.4447
28	-10.445
▁faced	-10.4453
▁ser	-10.4454
▁lists	-10.4455
▁decades	-10.4461
language	-10.4462
66	-10.4463
elle	-10.4463
▁ji	-10.4463
ks	-10.4465
▁parallel	-10.4467
▁princess	-10.4468
▁delhi	-10.447
▁photo	-10.4472
▁lands	-10.4475
pin	-10.4475
families	-10.4477
ika	-10.448
▁saturday	-10.4481
▁rise	-10.4483
▁soul	-10.4484
▁insurance	-10.4486
▁injured	-10.4491
▁clan	-10.4494
▁nuclear	-10.4504
▁kal	-10.4505
▁vehicles	-10.4507
ding	-10.4507
lar	-10.4507
▁1995,	-10.4516
▁ger	-10.452
ping	-10.4523
▁athlete	-10.4524
▁cro	-10.4531
▁spin	-10.4532
▁grow	-10.4534
colspan	-10.4534
ua	-10.4537
▁chile	-10.4539
▁tried	-10.4541
▁universal	-10.4544
13	-10.4555
▁signal	-10.456
▁funds	-10.4561
▁investigation	-10.4563
▁serbian	-10.4563
01	-10.4564
▁bull	-10.4564
▁childhood	-10.4565
▁employees	-10.4565
▁annually	-10.4566
▁cycle	-10.4567
▁snow	-10.4567
▁poems	-10.4568
ball	-10.4569
▁reality	-10.4575
▁elder	-10.4579
▁marketing	-10.458
▁ab	-10.459
▁utah	-10.4593
gy	-10.4595
▁users	-10.4599
▁relegated	-10.46
▁prevent	-10.4618
▁maintained	-10.4618
▁window	-10.4619
▁springs	-10.4623
ase	-10.4627
▁1935	-10.4628
▁claim	-10.4631
49	-10.4631
-17	-10.4632
finals	-10.4633
▁1932	-10.4635
▁birds	-10.4636
▁domain	-10.4639
▁onto	-10.4645
team	-10.4646
elected	-10.4649
▁competitive	-10.4652
▁fishing	-10.4653
▁purchase	-10.4653
34	-10.466
▁introduction	-10.4661
run	-10.4662
▁adults	-10.4665
▁substitute	-10.4666
stra	-10.4668
▁sense	-10.4669
▁hollywood	-10.4669
▁damage	-10.467
ben	-10.4673
part	-10.4674
▁bear	-10.4674
▁broken	-10.4676
▁roads	-10.4677
fm	-10.4684
▁establish	-10.4692
▁evening	-10.4692
78	-10.4697
▁greatest	-10.4703
▁sur	-10.4709
▁advance	-10.4713
▁cleveland	-10.4714
▁chu	-10.4719
▁flow	-10.4719
85	-10.4719
▁fer	-10.4727
▁herself	-10.4728
▁methods	-10.4729
▁nearest	-10.4732
▁fur	-10.4733
33	-10.4733
▁publisher	-10.474
▁charter	-10.4742
▁afterwards	-10.4743
69	-10.4744
ala	-10.475
▁app	-10.4752
▁reason	-10.4757
▁150	-10.4763
bit	-10.4767
jan	-10.4773
▁sisters	-10.4778
ü	-10.478
▁vocal	-10.4781
▁1995.	-10.4781
▁yo	-10.4783
▁tells	-10.4787
lie	-10.4787
▁kill	-10.4789
08	-10.4796
ep	-10.4799
▁coalition	-10.4799
ix	-10.4803
▁frame	-10.4805
▁triple	-10.4809
▁aid	-10.4817
▁1994,	-10.4819
▁gulf	-10.4824
▁hour	-10.4825
▁1934	-10.4825
shan	-10.4825
▁talent	-10.4825
▁landing	-10.4825
▁75	-10.4827
▁youngest	-10.4828
▁doctorate	-10.4831
▁gardens	-10.4832
▁acted	-10.4834
07	-10.4836
▁formally	-10.4837
▁escape	-10.484
ale	-10.4854
▁glen	-10.4855
▁lecturer	-10.4856
life	-10.4856
ş	-10.4856
mel	-10.4857
bach	-10.4858
▁biggest	-10.4859
are	-10.486
▁progressive	-10.486
▁degrees	-10.487
▁hol	-10.487
ese	-10.4871
aceae	-10.4872
▁madrid	-10.4872
▁operate	-10.4872
▁hans	-10.4881
24	-10.4889
ene	-10.489
76	-10.489
▁mas	-10.4896
▁solar	-10.4899
▁divisions	-10.4901
lic	-10.4902
▁scale	-10.4907
▁jane	-10.4913
ira	-10.4914
▁1927	-10.4915
▁something	-10.4921
▁maine	-10.4923
▁bengal	-10.4923
▁stayed	-10.4924
▁romania	-10.493
▁rooms	-10.4932
▁$	-10.4934
▁temperature	-10.4935
▁attend	-10.4937
▁seattle	-10.4938
▁bath	-10.4939
▁mur	-10.4945
▁birmingham	-10.4946
▁allowing	-10.4947
▁jay	-10.4948
▁felt	-10.4948
▁brooklyn	-10.4951
▁biology	-10.4956
▁serbia	-10.4957
▁gen	-10.496
▁manor	-10.4969
▁replace	-10.4971
▁net	-10.4972
▁manufacturing	-10.4978
dr	-10.4979
▁bon	-10.4983
ib	-10.4985
▁ron	-10.4986
▁ol	-10.4986
▁bri	-10.4991
▁ri	-10.4994
▁statue	-10.4995
▁masters	-10.4997
▁ber	-10.5
▁photography	-10.5001
board	-10.5002
▁1933	-10.5005
▁flower	-10.5012
az	-10.5015
-4	-10.5017
▁tropical	-10.5018
▁margin	-10.5028
▁roy	-10.5031
far	-10.5036
best	-10.5037
)"	-10.5037
▁bears	-10.5038
▁trinity	-10.5039
▁earning	-10.5043
▁roster	-10.5045
bal	-10.5045
cor	-10.5048
▁dave	-10.5049
▁scenes	-10.505
wing	-10.505
▁uefa	-10.5053
▁ghana	-10.5055
▁restoration	-10.5061
▁jam	-10.5064
▁poem	-10.5064
▁lang	-10.5068
▁mer	-10.5076
▁lin	-10.5078
▁cousin	-10.508
▁budget	-10.508
▁chance	-10.5081
▁harris	-10.5085
▁partners	-10.5086
▁pittsburgh	-10.5088
88	-10.509
▁decade	-10.509
bre	-10.5091
▁liverpool	-10.5093
▁object	-10.5096
▁occupation	-10.5097
▁drafted	-10.5101
▁risk	-10.5102
right	-10.5103
▁wildlife	-10.5106
▁circle	-10.5112
▁cho	-10.5115
▁coached	-10.5115
▁selling	-10.5116
▁ill	-10.5124
▁islamic	-10.5129
▁jordan	-10.5132
▁heard	-10.5133
▁ethnic	-10.5133
▁drummer	-10.5136
▁attached	-10.5136
chief	-10.5138
04	-10.5142
gue	-10.5146
you	-10.5148
▁headed	-10.515
▁rice	-10.5152
▁seed	-10.5156
▁interests	-10.5156
stein	-10.5159
▁morgan	-10.5162
▁separated	-10.5164
▁summary	-10.5173
▁replacing	-10.5173
bin	-10.5175
tter	-10.5177
▁regarded	-10.5179
pen	-10.5182
▁incident	-10.5182
▁youtube	-10.5184
▁alan	-10.5185
▁hy	-10.519
▁gender	-10.5191
▁sum	-10.5194
▁op	-10.5197
▁munich	-10.5199
ser	-10.5201
▁1994.	-10.5205
▁campbell	-10.5216
▁toured	-10.5223
▁wings	-10.5225
▁1992,	-10.5226
▁managing	-10.5226
▁1992.	-10.5226
▁artillery	-10.5227
ö	-10.5228
▁nick	-10.5229
▁opposed	-10.5231
▁kin	-10.5231
▁tributary	-10.5233
▁kenya	-10.5236
▁importance	-10.5238
▁spirit	-10.5238
▁roll	-10.5241
▁52	-10.5248
▁1860	-10.525
▁argentine	-10.525
▁bond	-10.5254
non	-10.5261
▁quite	-10.5264
▁baltimore	-10.5264
▁contain	-10.5267
▁pur	-10.5269
▁possibly	-10.5271
▁drawn	-10.5273
mor	-10.5274
▁owners	-10.5277
▁ci	-10.5278
▁grounds	-10.528
▁capita	-10.528
yu	-10.5283
▁fellowship	-10.5286
▁activist	-10.5286
▁surrounded	-10.5287
▁bra	-10.5287
sis	-10.5295
▁peru	-10.5297
▁fuel	-10.5298
▁clay	-10.5298
▁terminus	-10.5298
▁pine	-10.5299
ei	-10.53
▁1931	-10.53
▁jump	-10.5301
▁improve	-10.5301
▁1908	-10.5302
▁forests	-10.5306
▁think	-10.5307
▁camera	-10.5308
▁£	-10.5309
▁alex	-10.5319
tier	-10.532
ona	-10.5321
42	-10.5323
89	-10.5326
▁charity	-10.5327
▁progress	-10.533
▁norman	-10.5331
▁determine	-10.5334
▁protect	-10.5336
2,	-10.5336
vis	-10.5339
68	-10.5343
▁romanian	-10.5347
▁silent	-10.5348
▁pandemic	-10.5348
▁tourism	-10.5353
▁matter	-10.5356
▁situation	-10.5359
▁licensed	-10.536
57	-10.5362
▁freestyle	-10.5364
▁praised	-10.5367
▁alfred	-10.5368
▁portland	-10.5368
▁touring	-10.537
▁austin	-10.5373
▁interested	-10.5377
including	-10.5379
▁pri	-10.5382
eu	-10.5384
▁brain	-10.5385
ref	-10.5389
86	-10.5392
▁cave	-10.5393
▁gre	-10.5397
oma	-10.54
▁phil	-10.54
▁powerful	-10.5403
▁snail	-10.5405
▁doing	-10.5405
▁audio	-10.541
ice	-10.541
▁nelson	-10.5414
▁engines	-10.5417
▁officials	-10.5419
mark	-10.542
▁sk	-10.5425
▁portrait	-10.543
▁bas	-10.5433
▁representation	-10.5433
▁earliest	-10.5437
▁mix	-10.5438
▁choir	-10.5442
▁jacob	-10.5446
▁instrumental	-10.5449
▁rico	-10.5451
dra	-10.5455
ped	-10.5459
▁solid	-10.5464
▁thompson	-10.5468
▁tail	-10.5469
▁relay	-10.5472
ery	-10.5474
▁door	-10.5477
41	-10.5479
▁cur	-10.5479
ington	-10.5483
▁statistical	-10.5484
▁exist	-10.5484
▁alberta	-10.5488
our	-10.5493
▁55	-10.5496
▁marathon	-10.5499
isation	-10.5516
▁bit	-10.5516
▁desert	-10.5517
▁outer	-10.5518
burn	-10.5522
▁(5	-10.5525
▁watch	-10.5527
▁identity	-10.5528
bl	-10.5528
96	-10.5528
▁mono	-10.5528
nis	-10.5529
▁palm	-10.5532
▁eldest	-10.5533
▁1993.	-10.5536
ert	-10.5537
▁1890	-10.5538
▁carry	-10.5538
▁failure	-10.5538
▁actors	-10.5539
▁ottoman	-10.554
▁wi	-10.5543
▁hart	-10.5554
▁glacier	-10.5554
aria	-10.5554
▁mini	-10.5555
▁1993,	-10.5558
▁northwestern	-10.5559
▁borders	-10.556
set	-10.556
▁sell	-10.5561
▁mit	-10.5563
low	-10.5565
profit	-10.5567
▁gate	-10.5569
▁hunt	-10.5572
gun	-10.5573
▁platforms	-10.5576
▁flowering	-10.5576
▁marshall	-10.5578
▁stewart	-10.5584
▁43	-10.5585
▁1916	-10.5585
ati	-10.5587
ela	-10.5594
▁lay	-10.5594
league	-10.5595
▁tea	-10.5595
▁cable	-10.56
22	-10.5605
▁premiere	-10.5606
▁contact	-10.5607
▁belt	-10.5609
▁finds	-10.5613
▁exhibitions	-10.5618
▁heavily	-10.5618
sar	-10.5618
▁wave	-10.5619
ense	-10.562
▁clinical	-10.5626
▁ir	-10.5632
▁apart	-10.5634
▁refused	-10.5635
▁bat	-10.5637
▁descent	-10.5638
▁baptist	-10.564
▁corporate	-10.5644
▁panel	-10.5644
▁skills	-10.5644
▁tenure	-10.5645
▁fi	-10.5646
▁vocalist	-10.5647
tre	-10.5655
97	-10.5657
ide	-10.5658
ū	-10.5672
▁1991.	-10.5673
▁driving	-10.568
▁dal	-10.5684
▁movies	-10.5686
▁tur	-10.5687
▁needs	-10.5688
▁assumed	-10.5692
|	-10.5698
▁...	-10.57
▁businesses	-10.5701
ric	-10.5705
▁tro	-10.5708
▁subfamily	-10.5713
▁retained	-10.5715
▁dated	-10.5717
▁1991,	-10.5717
▁monte	-10.5723
▁sugar	-10.5723
▁replacement	-10.5723
▁merger	-10.5723
▁46	-10.5728
▁reservoir	-10.5729
▁1915	-10.5729
▁roughly	-10.5733
▁lan	-10.5739
▁songwriter	-10.574
▁horn	-10.5742
▁commerce	-10.5742
▁russell	-10.5746
▁neo	-10.5749
▁playoffs	-10.5749
xi	-10.5751
ub	-10.5756
▁courts	-10.5763
▁dakota	-10.5763
58	-10.5766
▁instruments	-10.5768
▁experimental	-10.5769
▁pioneer	-10.5771
▁resident	-10.5776
▁1911	-10.578
▁beijing	-10.578
?"	-10.5782
cur	-10.5789
▁christopher	-10.5789
▁friendly	-10.5795
▁bow	-10.5795
▁visitors	-10.5801
▁ninth	-10.5808
▁sole	-10.5808
▁fred	-10.5808
▁routes	-10.5814
mat	-10.5822
state	-10.5823
died	-10.5823
▁+	-10.5823
▁arch	-10.5824
▁ownership	-10.5825
▁formal	-10.5825
▁colony	-10.5827
fish	-10.5831
79	-10.5837
▁adelaide	-10.584
▁advisory	-10.5841
▁save	-10.5841
▁1913	-10.5842
▁plain	-10.5842
▁vision	-10.5846
▁symphony	-10.5849
▁meant	-10.5851
▁victor	-10.5852
▁richmond	-10.5854
▁bodies	-10.5862
31	-10.5862
ile	-10.587
▁ordained	-10.5874
style	-10.5875
▁rounds	-10.5881
▁pierre	-10.5882
rid	-10.5883
▁initiative	-10.5884
gal	-10.5884
▁additionally	-10.5885
ava	-10.5885
▁grandfather	-10.5886
▁print	-10.5887
ue	-10.5892
▁accompanied	-10.5895
▁"(	-10.5898
▁rivers	-10.5902
▁donated	-10.5902
▁industries	-10.5904
▁azerbaijan	-10.5907
oni	-10.591
-20	-10.5911
▁sad	-10.5912
▁kilometers	-10.5916
bus	-10.5917
▁soft	-10.5917
final	-10.5918
▁opportunity	-10.5918
▁murray	-10.5919
▁gain	-10.5919
▁user	-10.5923
▁ruled	-10.5924
▁subjects	-10.5926
▁designs	-10.5931
▁exhibited	-10.594
64	-10.5942
▁angel	-10.5945
▁reaction	-10.5946
love	-10.5948
▁adams	-10.5951
▁treaty	-10.5955
▁videos	-10.5959
▁tele	-10.5959
▁duty	-10.596
▁tech	-10.596
43	-10.5961
▁beautiful	-10.5962
▁graham	-10.5962
▁nepal	-10.5966
aga	-10.5969
▁persons	-10.5976
▁distinct	-10.5976
▁patients	-10.5981
▁contributing	-10.5981
oh	-10.5982
54	-10.5984
▁compiled	-10.5992
ug	-10.5994
91	-10.5994
term	-10.5999
▁apple	-10.6
▁broadway	-10.6007
▁carlos	-10.6009
ative	-10.6018
67	-10.6019
▁mir	-10.6019
▁dallas	-10.6023
▁subsidiary	-10.6025
▁factor	-10.6026
ists	-10.6029
▁hull	-10.603
▁vancouver	-10.6035
▁hair	-10.6037
▁ballet	-10.6049
▁electrical	-10.6051
▁legend	-10.6051
▁franklin	-10.6053
▁demolished	-10.6053
▁roger	-10.6055
▁bru	-10.6055
▁equivalent	-10.6058
▁ago	-10.6061
▁nan	-10.6063
▁planet	-10.6064
▁infrastructure	-10.6064
▁internationally	-10.6066
▁soil	-10.6068
▁laws	-10.6068
▁filmed	-10.607
▁celebrated	-10.6074
▁sarah	-10.6084
▁64,	-10.6085
▁belongs	-10.6086
▁comics	-10.6087
▁seeds	-10.6088
▁attempts	-10.6091
▁kon	-10.6097
▁baker	-10.6098
_	-10.61
▁canton	-10.6102
los	-10.6104
▁surgery	-10.6105
▁abroad	-10.6108
rich	-10.611
hara	-10.6115
▁brook	-10.6117
sta	-10.6119
▁romantic	-10.6119
▁concerts	-10.612
98	-10.6121
▁kelly	-10.6121
▁rod	-10.6122
▁orthodox	-10.6123
▁images	-10.6126
kha	-10.6128
▁dun	-10.613
lam	-10.6135
▁wright	-10.6137
▁larvae	-10.6144
rus	-10.6155
▁expression	-10.6155
▁attempted	-10.6155
▁duties	-10.6159
▁qualify	-10.6159
▁wolf	-10.6162
▁kil	-10.6162
▁indigenous	-10.6163
▁sexual	-10.6171
▁sequence	-10.6173
71	-10.6177
▁parent	-10.6181
izing	-10.6183
▁morris	-10.6185
▁operational	-10.6187
▁drew	-10.6188
▁newspapers	-10.6188
▁sin	-10.6191
some	-10.6191
▁gil	-10.6191
▁extinct	-10.6192
▁turns	-10.6192
▁residing	-10.6193
▁robinson	-10.6195
▁southeastern	-10.6195
▁jon	-10.6197
▁adaptation	-10.6198
▁hop	-10.6198
▁authors	-10.6199
▁$1	-10.6207
▁vessel	-10.6208
▁abc	-10.6214
▁lab	-10.6218
▁bristol	-10.6219
▁avoid	-10.622
▁participation	-10.6224
▁shu	-10.6227
▁calendar	-10.6228
▁beauty	-10.6228
▁charlotte	-10.6228
▁fin	-10.623
▁tries	-10.6236
▁lions	-10.6238
▁wo	-10.6241
▁enemy	-10.6247
▁scientist	-10.6261
▁1880	-10.6263
▁script	-10.6264
▁sara	-10.6265
▁leads	-10.6266
▁continental	-10.6269
03	-10.627
▁são	-10.627
▁physician	-10.6272
▁column	-10.6272
ić	-10.6274
▁wingspan	-10.6276
▁1989.	-10.6277
▁serious	-10.6277
od	-10.6277
▁bright	-10.6277
▁patrol	-10.6284
▁killing	-10.6286
cap	-10.6288
▁speech	-10.629
02	-10.6292
77	-10.6294
▁volumes	-10.6295
▁tunnel	-10.6298
▁cannot	-10.63
▁getting	-10.6302
▁sought	-10.6303
▁drawing	-10.6306
▁baby	-10.6306
▁rebuilt	-10.6307
▁target	-10.6309
place	-10.6317
ali	-10.6321
▁forming	-10.6322
▁relief	-10.6326
align	-10.6334
▁nazi	-10.6337
▁scheme	-10.6339
▁regarding	-10.6339
rum	-10.634
pt	-10.6342
▁gets	-10.6346
▁necessary	-10.6354
▁ryan	-10.6356
▁appeal	-10.6359
▁ways	-10.6363
▁mosque	-10.6364
under	-10.6368
▁serie	-10.6371
▁poll	-10.6371
▁invasion	-10.6371
▁cash	-10.6376
▁journalism	-10.6383
▁sponsored	-10.6384
▁rob	-10.6385
▁coaches	-10.6389
▁lakes	-10.639
▁relocated	-10.639
bank	-10.6395
▁humans	-10.64
▁2021.	-10.6401
▁bla	-10.6402
▁counter	-10.6404
▁controversy	-10.6409
▁ye	-10.641
▁measures	-10.6418
nica	-10.642
▁cerambycidae	-10.6421
▁resolution	-10.6422
formerly	-10.6428
▁depth	-10.643
▁bruce	-10.6432
western	-10.6433
▁venture	-10.6433
▁concluded	-10.6435
▁influential	-10.6436
▁luis	-10.644
▁genre	-10.6447
▁jeff	-10.6448
81	-10.645
▁rising	-10.6451
▁eliminated	-10.6453
two	-10.6458
▁jesus	-10.6463
▁surviving	-10.6463
white	-10.6463
olo	-10.6467
▁otherwise	-10.6468
▁donald	-10.6471
–17	-10.6472
▁44,	-10.6473
▁recipient	-10.6473
▁kor	-10.648
hn	-10.6489
▁superior	-10.6494
▁goalkeeper	-10.6495
▁mont	-10.6497
▁objects	-10.6497
▁stages	-10.6499
▁device	-10.65
▁barcelona	-10.6502
▁nar	-10.6505
▁|	-10.6505
▁address	-10.6507
▁editions	-10.6512
▁les	-10.6513
mas	-10.6513
▁retiring	-10.6514
▁advisor	-10.6514
▁wu	-10.6515
▁mean	-10.6515
▁occur	-10.6515
▁lie	-10.6516
▁concrete	-10.6525
▁entering	-10.6531
ré	-10.6531
▁techniques	-10.6533
south	-10.6534
▁learned	-10.6538
59	-10.6543
▁1906	-10.6543
▁bro	-10.6544
▁amsterdam	-10.6549
▁rad	-10.6549
▁erected	-10.6549
▁committed	-10.655
▁pot	-10.6552
▁tied	-10.6553
▁mills	-10.6553
▁kha	-10.6554
▁stra	-10.6555
56	-10.6557
▁pet	-10.6559
▁proved	-10.6562
ow	-10.6563
▁controlled	-10.6565
▁waters	-10.6565
▁47	-10.6566
round	-10.6568
▁string	-10.6568
▁railways	-10.6569
▁advertising	-10.6569
▁goods	-10.6571
▁guy	-10.6571
▁focuses	-10.6572
▁fr	-10.6573
sey	-10.658
▁sta	-10.6581
sel	-10.6581
▁meets	-10.6582
▁capture	-10.6587
-12	-10.6587
▁collegiate	-10.6601
▁didn	-10.6612
▁popularity	-10.6613
▁kevin	-10.662
▁items	-10.6627
93	-10.6634
▁criticism	-10.6636
bridge	-10.6637
ero	-10.6638
▁1904	-10.6639
▁virgin	-10.664
▁pink	-10.6643
▁retail	-10.6653
▁showing	-10.6653
▁guns	-10.6654
una	-10.6656
▁ford	-10.666
▁sweet	-10.6667
mb	-10.6667
band	-10.6669
▁robin	-10.667
hal	-10.6672
▁1889	-10.6676
osa	-10.6679
▁storage	-10.6679
▁ly	-10.6681
▁soldier	-10.6682
▁1988.	-10.6685
▁1905	-10.6687
▁1989,	-10.6687
ora	-10.6687
▁euro	-10.6691
▁birthday	-10.6692
ities	-10.6699
av	-10.6701
▁observed	-10.6702
▁inducted	-10.6704
▁buffalo	-10.6705
▁participating	-10.6705
▁looking	-10.6706
▁tank	-10.6706
▁question	-10.6709
▁documents	-10.671
▁democrat	-10.6711
▁51	-10.6713
▁colombia	-10.6715
▁increasing	-10.6721
▁context	-10.6724
▁1909	-10.6724
▁iranian	-10.6729
▁1990,	-10.673
▁orleans	-10.6731
▁nord	-10.6737
hop	-10.6738
bat	-10.674
▁magic	-10.6743
▁1850	-10.6755
▁cooper	-10.6756
52	-10.6779
▁none	-10.6783
▁cre	-10.6784
▁emergency	-10.6791
▁pianist	-10.6793
og	-10.6797
▁revolutionary	-10.6798
▁believe	-10.6799
▁skin	-10.6808
adi	-10.6809
100	-10.6813
▁iraq	-10.6816
▁task	-10.6817
▁delivered	-10.6824
▁semifinals	-10.6824
▁existed	-10.6826
ō	-10.6826
eri	-10.6828
▁1986.	-10.6829
dom	-10.683
▁attending	-10.6834
▁organised	-10.6836
▁helping	-10.6837
▁mollusk	-10.6837
▁tin	-10.684
work	-10.6845
▁calling	-10.6846
▁1990.	-10.6846
▁athens	-10.6848
▁perhaps	-10.685
para	-10.6852
▁spoken	-10.6858
▁grown	-10.6862
▁resistance	-10.6864
▁aggregate	-10.6866
▁stanley	-10.6866
▁tournaments	-10.6868
▁profile	-10.6868
istic	-10.6869
▁derby	-10.6871
72	-10.6871
▁faith	-10.6873
▁(6	-10.6875
▁improved	-10.6877
▁select	-10.6879
zu	-10.6881
ob	-10.6882
▁reporter	-10.6886
▁pattern	-10.6892
▁offering	-10.6895
later	-10.6899
▁sen	-10.69
▁forewings	-10.6905
▁kara	-10.6908
▁stating	-10.6909
black	-10.6912
94	-10.6913
▁1907	-10.6914
▁mail	-10.6922
▁why	-10.6923
▁occasionally	-10.6924
▁raise	-10.693
usa	-10.693
ins	-10.6934
▁54	-10.6937
▁gal	-10.6939
▁punjab	-10.6941
wick	-10.6942
mond	-10.6947
pl	-10.6949
▁administrator	-10.6955
▁innings	-10.6956
▁forum	-10.6958
▁festivals	-10.6962
▁heads	-10.6965
▁amongst	-10.6967
▁hunter	-10.6974
▁kennedy	-10.6975
▁kerala	-10.6978
▁(9	-10.6978
▁trying	-10.6978
ible	-10.6979
▁collaborated	-10.6984
▁attacks	-10.6985
big	-10.6987
▁pit	-10.6988
▁auckland	-10.6988
master	-10.699
▁nothing	-10.699
▁rat	-10.6994
▁completing	-10.6995
▁longest	-10.6996
▁mah	-10.6996
▁eyes	-10.6998
▁toward	-10.7002
▁prague	-10.7007
▁manufacturer	-10.7008
▁egyptian	-10.7011
▁widow	-10.7012
▁warren	-10.7013
ore	-10.7013
▁designation	-10.7019
▁benjamin	-10.7022
▁barn	-10.7025
▁tigers	-10.7028
▁psychology	-10.7033
founded	-10.7039
▁thin	-10.7039
but	-10.7043
▁tai	-10.7048
▁sabha	-10.7049
▁undergraduate	-10.705
▁slow	-10.7054
▁voting	-10.7062
▁fun	-10.7063
▁rescue	-10.7063
▁manga	-10.707
key	-10.7072
high	-10.7073
▁produces	-10.7074
▁bulgarian	-10.7074
▁mrs	-10.708
cus	-10.7084
▁cer	-10.7099
▁conductor	-10.71
▁pal	-10.7101
62	-10.7101
enberg	-10.7105
mur	-10.7107
▁fighter	-10.711
▁evans	-10.7113
▁saints	-10.7113
▁losses	-10.712
▁technique	-10.7121
▁1987.	-10.7122
ä	-10.7125
▁gram	-10.7126
▁preserved	-10.7129
ima	-10.7133
ability	-10.7134
▁achievement	-10.7136
uli	-10.7137
president	-10.7137
gh	-10.7149
▁caribbean	-10.7149
▁graduation	-10.7149
▁archaeological	-10.7151
▁1985.	-10.7154
▁nba	-10.7155
▁ferry	-10.7156
▁raja	-10.7157
▁offensive	-10.7163
▁sporting	-10.7164
▁commons	-10.7169
▁ideas	-10.717
▁easily	-10.7172
▁hindu	-10.7173
▁temporary	-10.7182
▁yale	-10.7182
ging	-10.719
▁raj	-10.719
87	-10.7195
ves	-10.72
▁sessions	-10.7202
▁yard	-10.7204
▁smooth	-10.7208
▁alaska	-10.7212
anda	-10.7212
▁1987,	-10.7213
▁accused	-10.7216
▁causes	-10.7218
▁ceased	-10.7219
▁trading	-10.7223
▁attacked	-10.7224
heim	-10.7225
▁tra	-10.7229
▁resort	-10.7232
▁fixed	-10.7235
▁foster	-10.7236
▁respect	-10.7239
▁genera	-10.7245
▁th	-10.7246
▁linked	-10.7249
▁allmusic	-10.7253
world	-10.7257
▁serial	-10.7258
elli	-10.7262
bro	-10.7268
▁plate	-10.7268
▁completion	-10.7268
▁matthew	-10.7269
eo	-10.7272
ato	-10.7272
▁boundaries	-10.7275
▁mari	-10.7277
ado	-10.7287
▁strike	-10.7288
▁1982.	-10.7288
92	-10.7288
▁missing	-10.729
▁ros	-10.7294
▁carter	-10.7295
▁trio	-10.7296
84	-10.7304
ld	-10.7305
▁categories	-10.7306
▁volunteer	-10.7307
▁ensemble	-10.7314
▁log	-10.7315
ming	-10.7315
ther	-10.7323
▁clerk	-10.7323
▁contrast	-10.7324
▁engineers	-10.7325
hen	-10.7326
83	-10.7327
▁shopping	-10.7328
▁origins	-10.7331
▁tam	-10.7334
▁fresh	-10.7338
▁mitchell	-10.734
▁expert	-10.7341
▁dc	-10.7342
▁seems	-10.7343
▁homes	-10.7344
bor	-10.7347
▁calls	-10.7352
stad	-10.7353
▁tel	-10.7355
pop	-10.7355
▁nhl	-10.7357
▁purposes	-10.7357
▁ren	-10.7357
▁bed	-10.7359
▁uganda	-10.7363
sburg	-10.7364
▁really	-10.7364
▁sm	-10.7366
bad	-10.7366
▁(10	-10.7368
▁cited	-10.7369
ović	-10.7371
▁continuing	-10.7375
▁grammar	-10.7376
▁animated	-10.7378
▁nevada	-10.7379
founder	-10.7379
▁rap	-10.7381
▁pas	-10.7384
ious	-10.7387
▁violence	-10.7388
sville	-10.7389
▁disney	-10.7391
▁wedding	-10.7391
▁assistance	-10.7393
▁ash	-10.7394
▁strength	-10.7396
▁shin	-10.7397
▁clean	-10.7397
▁arabic	-10.74
▁prepared	-10.7401
▁grass	-10.7403
▁pm	-10.7407
▁raf	-10.7412
▁seminary	-10.7413
eng	-10.7418
▁damaged	-10.7419
▁1000	-10.7421
▁cow	-10.7421
▁armenian	-10.7422
▁wounded	-10.7424
▁thick	-10.7427
ān	-10.7427
▁sultan	-10.7433
▁sit	-10.7435
ori	-10.7437
▁horror	-10.7439
▁occasions	-10.745
▁rapid	-10.7453
▁wear	-10.7454
▁zo	-10.7454
82	-10.7456
000	-10.7463
61	-10.7464
▁consultant	-10.7465
▁transit	-10.7466
▁bernard	-10.7468
▁shares	-10.7468
▁56	-10.747
hand	-10.7473
tte	-10.7474
▁merit	-10.7479
lay	-10.748
rc	-10.7481
tion	-10.7482
▁1903	-10.7487
▁grove	-10.7489
▁jimmy	-10.749
:00	-10.7491
▁1984.	-10.7492
č	-10.7496
▁coat	-10.7498
▁1983.	-10.7498
ever	-10.7502
▁1988,	-10.7504
▁wayne	-10.7509
▁parks	-10.751
tia	-10.751
▁contribution	-10.7511
▁unusual	-10.7513
▁ker	-10.7516
▁acres	-10.7519
▁somewhat	-10.7529
▁filled	-10.7533
▁actions	-10.7534
qua	-10.7534
hall	-10.7535
▁southwestern	-10.7537
▁farmer	-10.7538
▁revenue	-10.7539
▁request	-10.754
▁coverage	-10.7544
▁segment	-10.7545
▁photographer	-10.7547
room	-10.755
▁arc	-10.7557
▁northeastern	-10.7558
▁integrated	-10.7562
▁printed	-10.7563
▁comprises	-10.7565
▁responsibility	-10.757
▁53	-10.7575
▁fantasy	-10.7577
▁bulgaria	-10.758
▁belonged	-10.7581
▁muhammad	-10.7585
zar	-10.7585
yer	-10.7586
ward	-10.7589
game	-10.7591
section	-10.7592
cl	-10.7595
▁stem	-10.7598
▁housed	-10.7603
▁rapper	-10.7604
▁mental	-10.761
▁compositions	-10.7611
▁measure	-10.7613
▁#1	-10.7613
-10	-10.7615
length	-10.7621
▁gra	-10.7623
▁topics	-10.7627
▁carrying	-10.7628
▁caught	-10.7633
▁nicholas	-10.7639
▁barbara	-10.7644
▁drop	-10.7645
▁illustrated	-10.7648
▁sing	-10.7648
▁rival	-10.765
▁sung	-10.7651
▁und	-10.7653
ick	-10.7654
▁carbon	-10.7655
▁1902	-10.7658
▁hawaii	-10.7661
▁chan	-10.7663
▁bern	-10.7664
win	-10.7666
▁certificate	-10.7667
▁bonus	-10.7676
▁pol	-10.7676
▁1901	-10.7676
sia	-10.7679
▁universe	-10.7681
▁cancelled	-10.7682
winning	-10.7683
▁vermont	-10.7689
▁au	-10.769
arm	-10.769
ret	-10.7691
▁handball	-10.7692
▁ivan	-10.7693
▁zi	-10.7693
▁posted	-10.7694
▁1877	-10.7696
central	-10.7697
▁illness	-10.7698
▁visible	-10.7699
.”	-10.77
▁cork	-10.7701
▁specialized	-10.7703
▁kam	-10.771
▁stockholm	-10.771
wo	-10.7715
▁giant	-10.7719
▁index	-10.772
cia	-10.7723
book	-10.7724
▁1986,	-10.7725
march	-10.7727
lla	-10.773
▁petersburg	-10.7739
▁lodge	-10.7739
://	-10.7745
▁phone	-10.7746
▁actual	-10.7746
▁constitutional	-10.7749
gel	-10.7749
▁suicide	-10.775
▁boxing	-10.7752
73	-10.7753
▁rai	-10.7753
▁boats	-10.7755
▁thereafter	-10.7761
mit	-10.7765
▁timber	-10.777
▁marc	-10.7776
▁crisis	-10.7778
1.	-10.7784
ila	-10.7785
▁monthly	-10.7786
▁florence	-10.7788
▁herbert	-10.7789
▁1979.	-10.779
▁admiral	-10.7794
▁funded	-10.7799
▁playoff	-10.78
▁crowd	-10.7802
▁grace	-10.7803
▁asteroid	-10.7807
▁hero	-10.7808
▁enrolled	-10.781
▁bol	-10.7814
▁vs	-10.7815
▁certified	-10.7815
▁charged	-10.7815
▁expressed	-10.7825
–6	-10.7826
▁rabbi	-10.7833
▁pursue	-10.7834
▁grandson	-10.7841
nam	-10.7841
▁1870	-10.7846
wal	-10.7847
first	-10.7847
nor	-10.785
eg	-10.7851
▁bou	-10.7853
5,000	-10.7857
▁releases	-10.7859
bay	-10.7863
pr	-10.7864
▁cardinal	-10.7864
▁elite	-10.7865
▁fifteen	-10.7866
▁catherine	-10.7867
▁66	-10.7868
▁noble	-10.7873
ification	-10.7873
bur	-10.7877
▁sculptor	-10.788
▁pr	-10.788
▁suspended	-10.7881
▁characteristics	-10.7887
▁taxonomy	-10.7891
cr	-10.7893
▁mediterranean	-10.7895
▁easy	-10.7896
▁transition	-10.7899
▁remainder	-10.79
▁testing	-10.7901
▁dick	-10.7902
ole	-10.7904
▁wy	-10.7907
chen	-10.7907
▁nominations	-10.7918
▁gran	-10.7919
songwriter	-10.7922
▁editorial	-10.7922
▁congo	-10.7923
-5	-10.7927
▁jurisdiction	-10.7928
▁resignation	-10.7932
▁opponents	-10.7943
▁tr	-10.7945
▁ottawa	-10.7947
▁croatian	-10.7948
▁magazines	-10.7952
▁traveled	-10.7953
▁philippine	-10.7955
nar	-10.7955
▁harbor	-10.7956
▁limit	-10.7956
▁fill	-10.7957
ovich	-10.7961
chan	-10.7962
▁roots	-10.7962
74	-10.7965
▁employment	-10.7967
nic	-10.7969
▁ft	-10.797
onia	-10.7972
▁metre	-10.7975
▁harbour	-10.7976
▁autonomous	-10.7979
▁instrument	-10.7983
▁yan	-10.7985
▁baronet	-10.7985
▁gary	-10.7987
▁sol	-10.7993
bb	-10.7997
▁stan	-10.7997
▁leeds	-10.8001
▁symbol	-10.8004
▁jury	-10.8008
▁ride	-10.8008
▁cooperation	-10.8014
▁berkeley	-10.8014
▁dual	-10.802
take	-10.8021
ef	-10.803
▁croatia	-10.8033
▁involving	-10.8035
▁manner	-10.8036
▁ratio	-10.804
uch	-10.8042
▁animation	-10.8045
▁thai	-10.805
▁wheel	-10.8052
▁negative	-10.8056
▁stopped	-10.8056
▁blocks	-10.8057
▁intermediate	-10.8058
▁loop	-10.8059
▁wellington	-10.807
▁pole	-10.8071
▁wei	-10.8072
▁1985,	-10.8073
bed	-10.8074
esh	-10.8076
rt	-10.8084
▁statement	-10.8088
▁molecular	-10.8092
▁fear	-10.8094
▁arrest	-10.8101
▁arrival	-10.8102
▁tell	-10.8103
▁fri	-10.8104
▁tools	-10.8104
–16	-10.8105
▁bold	-10.8108
▁turner	-10.811
▁spots	-10.8117
▁locally	-10.8118
▁warner	-10.8122
▁learn	-10.8125
▁ticket	-10.8129
pm	-10.8131
▁lasted	-10.8135
▁peer	-10.814
▁scholars	-10.8141
▁tang	-10.8143
ble	-10.8144
▁episcopal	-10.8146
63	-10.815
mc	-10.8154
nal	-10.8158
▁runners	-10.8161
▁kh	-10.817
tom	-10.8177
ical	-10.8187
▁overseas	-10.8188
▁file	-10.8188
▁literacy	-10.819
rah	-10.819
ified	-10.8193
▁mode	-10.8195
▁diplomatic	-10.8196
▁seconds	-10.82
▁72	-10.8203
▁alice	-10.8204
▁hon	-10.8208
▁bible	-10.8213
▁causing	-10.8215
▁devices	-10.8219
▁safe	-10.8219
▁vessels	-10.822
▁tip	-10.822
▁mechanical	-10.8223
▁assists	-10.8225
▁afghanistan	-10.8228
▁cincinnati	-10.8233
cut	-10.8233
▁rifle	-10.8234
▁friday	-10.8235
cre	-10.8236
▁spa	-10.8239
▁gill	-10.824
▁demand	-10.8244
▁ranks	-10.8245
▁57	-10.8247
▁departure	-10.825
▁billy	-10.825
member	-10.8252
:#	-10.8256
▁inspiration	-10.8256
▁tag	-10.8257
yard	-10.8258
▁diploma	-10.826
▁diamond	-10.8271
▁isolated	-10.8271
▁lp	-10.8272
free	-10.8272
▁rocky	-10.8276
▁johnny	-10.8277
▁tenth	-10.8278
▁stable	-10.8278
▁shanghai	-10.8278
brook	-10.8278
▁marks	-10.828
▁reputation	-10.8281
▁themes	-10.8286
▁besides	-10.8287
aa	-10.8289
▁strip	-10.8289
note	-10.8292
▁guardian	-10.8292
▁values	-10.8295
▁brisbane	-10.8295
–5	-10.8296
eta	-10.83
ned	-10.8301
▁strategic	-10.8309
▁barry	-10.831
yama	-10.8311
▁weapons	-10.8312
▁pc	-10.8314
▁stanford	-10.8315
▁kai	-10.8317
▁weekend	-10.8322
▁drum	-10.8322
▁aspects	-10.8322
▁gabriel	-10.8323
▁gap	-10.8323
ique	-10.8325
▁suit	-10.8326
▁networks	-10.8328
aire	-10.833
▁commanded	-10.8333
▁1974.	-10.8336
▁(8	-10.8337
▁skating	-10.8337
▁thousand	-10.8338
▁fictional	-10.8339
▁cam	-10.8339
▁siege	-10.8341
▁sierra	-10.8344
▁tourist	-10.8344
▁etymology	-10.8345
▁sprint	-10.8349
▁rangers	-10.8352
▁lap	-10.8354
▁nephew	-10.8355
▁eagles	-10.8355
▁copenhagen	-10.836
▁experiences	-10.8361
200	-10.8367
53	-10.837
▁participants	-10.8371
sol	-10.8372
▁1869	-10.8376
vel	-10.8378
▁equipped	-10.8379
▁modified	-10.8379
▁connecting	-10.8379
▁norfolk	-10.8379
▁sentenced	-10.838
▁ibn	-10.8386
▁understanding	-10.8388
cio	-10.8391
▁legs	-10.8392
▁powers	-10.8392
hat	-10.8398
▁newcastle	-10.8399
▁aim	-10.8401
uf	-10.8403
▁hamburg	-10.8405
▁hugh	-10.8408
▁carr	-10.8412
ien	-10.8413
▁historically	-10.8416
▁1984,	-10.8416
▁standings	-10.8418
▁1978.	-10.8418
▁wang	-10.8419
▁farmers	-10.843
▁adventure	-10.8434
▁vincent	-10.8447
▁plane	-10.8448
$	-10.8451
▁lac	-10.8454
ax	-10.8456
▁montana	-10.8456
▁connects	-10.8457
▁abolished	-10.8459
▁leon	-10.846
▁1898	-10.8463
▁submarine	-10.8463
▁buy	-10.8464
▁(7	-10.8466
▁corn	-10.8468
aki	-10.8472
▁mathematical	-10.8473
":	-10.8473
▁achieve	-10.8475
▁cuba	-10.8476
lock	-10.8479
zh	-10.8481
▁dia	-10.8484
▁ian	-10.8484
foot	-10.849
▁warsaw	-10.8493
▁kumar	-10.8499
▁maintenance	-10.8499
zz	-10.8501
▁fra	-10.8502
▁congregation	-10.8505
▁territories	-10.8506
ans	-10.8509
▁helen	-10.8515
▁milk	-10.8515
▁sul	-10.8516
▁relative	-10.8516
ello	-10.852
▁markets	-10.852
▁crater	-10.8524
▁huge	-10.8526
▁strategy	-10.8526
▁element	-10.8526
lle	-10.8526
fc	-10.8527
▁manhattan	-10.8529
ów	-10.8532
▁worship	-10.8537
▁58	-10.8544
▁perth	-10.8545
uz	-10.8549
▁advocate	-10.8553
▁jerusalem	-10.8555
▁cards	-10.8556
▁document	-10.8559
▁cycling	-10.856
▁manuscript	-10.8563
num	-10.8564
pha	-10.8564
▁nebraska	-10.8568
▁cotton	-10.8578
▁executed	-10.8578
▁canon	-10.8578
▁división	-10.858
ami	-10.8583
▁technologies	-10.8584
national	-10.8586
▁producers	-10.8587
▁sharp	-10.8587
▁(14	-10.8588
▁com	-10.8588
▁dock	-10.8589
minute	-10.8589
▁severe	-10.8589
och	-10.859
▁venice	-10.8591
▁lip	-10.8593
▁1972.	-10.8595
▁affected	-10.8604
▁cattle	-10.8608
▁butterfly	-10.8611
▁wal	-10.8614
▁tap	-10.8624
▁antarctic	-10.8628
▁citizen	-10.8628
ches	-10.8629
▁neu	-10.8629
▁qa	-10.8631
▁significance	-10.8632
center	-10.8635
▁lifetime	-10.8638
▁charges	-10.8641
▁earn	-10.8643
▁add	-10.8647
▁sho	-10.8649
▁extremely	-10.8649
3,	-10.865
è	-10.8651
▁gross	-10.8651
get	-10.8652
▁delaware	-10.8652
▁mumbai	-10.8652
view	-10.8656
▁rush	-10.8657
las	-10.8658
▁adding	-10.866
▁bomb	-10.8667
▁hai	-10.8668
▁#	-10.8673
▁orders	-10.8674
▁jose	-10.8678
▁spending	-10.8679
aw	-10.8679
ele	-10.868
▁judicial	-10.8682
▁1840	-10.8683
▁rated	-10.8683
city	-10.8684
▁ghost	-10.8687
▁educator	-10.8688
▁1945,	-10.8689
▁mines	-10.8694
ash	-10.8698
▁fit	-10.8699
raj	-10.8702
▁recreation	-10.8702
▁traded	-10.8704
▁1973.	-10.8706
▁architects	-10.8712
▁anglican	-10.8716
▁manufactured	-10.8718
▁egg	-10.8719
▁forty	-10.8721
▁judges	-10.8723
awa	-10.8723
aya	-10.8724
▁conduct	-10.8725
▁settlements	-10.8726
▁62	-10.8733
▁120	-10.8736
51	-10.8741
mis	-10.8743
gs	-10.8746
▁lou	-10.8748
▁attracted	-10.8749
zen	-10.8753
▁picked	-10.8754
▁sv	-10.8756
▁sheriff	-10.876
▁gone	-10.8762
▁compound	-10.8763
▁63	-10.8764
▁leo	-10.8767
▁orbit	-10.8768
▁locomotives	-10.8768
▁proper	-10.877
▁beating	-10.8777
▁maintain	-10.8778
▁mai	-10.8779
rick	-10.878
▁harrison	-10.878
▁hometown	-10.8781
ple	-10.8785
▁parker	-10.8786
▁1976.	-10.879
good	-10.8794
▁rocks	-10.8797
▁1975.	-10.8802
▁venezuela	-10.8805
▁1981.	-10.8809
▁relegation	-10.8809
▁components	-10.8809
aj	-10.8813
▁nad	-10.8813
▁vo	-10.8814
iri	-10.8814
▁presenter	-10.8817
▁hamlet	-10.8818
▁trials	-10.8819
▁biological	-10.8819
▁constant	-10.8834
▁1982,	-10.8837
▁fat	-10.8837
▁subspecies	-10.884
▁pain	-10.8841
▁beer	-10.8846
▁feel	-10.8847
▁behavior	-10.8848
▁naming	-10.8848
▁jin	-10.8853
▁remote	-10.8853
mac	-10.8854
▁accessible	-10.8861
bie	-10.8862
▁achievements	-10.8865
hour	-10.8866
▁reduce	-10.8868
▁span	-10.8869
▁1980.	-10.8878
▁fee	-10.8881
▁solution	-10.8882
▁embassy	-10.8887
▁reaches	-10.8888
▁closure	-10.8889
▁por	-10.8889
▁1899	-10.889
▁persian	-10.8891
–1	-10.8892
▁cargo	-10.8893
▁1896	-10.8894
uff	-10.8895
▁jonathan	-10.8895
▁punk	-10.8897
▁disbanded	-10.8897
▁med	-10.8898
▁experienced	-10.8901
▁mason	-10.8904
▁johann	-10.8907
cin	-10.891
▁shield	-10.8911
▁holland	-10.8911
anti	-10.8915
bha	-10.892
▁extensively	-10.8925
▁specialist	-10.8925
play	-10.8927
rio	-10.8929
fin	-10.8929
▁facing	-10.8931
owned	-10.8934
▁saudi	-10.8935
ín	-10.8937
▁protest	-10.8942
mad	-10.8944
▁supports	-10.8946
▁suffering	-10.8946
▁meetings	-10.8947
▁craig	-10.8947
▁copy	-10.8955
▁wool	-10.8957
▁mounted	-10.8959
▁ste	-10.8966
▁attributed	-10.8967
-6	-10.8967
▁copper	-10.8969
▁voters	-10.8969
▁pastor	-10.8971
▁dancer	-10.8972
feld	-10.8973
▁photographs	-10.8974
▁crash	-10.8974
▁penn	-10.8974
present	-10.8976
written	-10.898
▁wilhelm	-10.8981
▁nashville	-10.8982
▁missed	-10.8986
▁characterized	-10.8994
▁jar	-10.8997
▁holiday	-10.8998
▁devoted	-10.8999
ware	-10.9004
▁threat	-10.9006
▁headquartered	-10.9006
▁cavalry	-10.9008
▁option	-10.901
kel	-10.9013
▁civic	-10.9014
▁finding	-10.9016
▁dor	-10.9017
▁indicated	-10.902
sam	-10.9022
▁alternate	-10.9024
▁injuries	-10.9025
shire	-10.9027
▁observatory	-10.9027
▁lloyd	-10.9028
▁threatened	-10.903
▁secure	-10.9032
▁operator	-10.9036
▁capable	-10.9042
▁1983,	-10.9045
▁qui	-10.9047
▁yugoslavia	-10.9047
▁cbs	-10.9048
▁oliver	-10.9054
▁1979,	-10.9055
aba	-10.9056
nk	-10.9058
▁zu	-10.9059
list	-10.9062
▁wil	-10.9063
▁og	-10.9065
▁cole	-10.9066
four	-10.9071
most	-10.9072
▁tribute	-10.9075
▁cr	-10.9076
▁horses	-10.9078
▁traditionally	-10.9078
▁crosses	-10.908
▁pond	-10.9085
▁writes	-10.9085
▁travelled	-10.9088
▁pakistani	-10.9088
▁truck	-10.9089
▁nigerian	-10.9092
▁theology	-10.9093
▁61	-10.9095
▁800	-10.9096
▁jason	-10.9104
▁sandy	-10.9106
▁everything	-10.9106
pra	-10.9108
▁airline	-10.9108
ct	-10.9108
▁gospel	-10.911
▁nickname	-10.9111
▁bench	-10.9111
▁methodist	-10.9111
▁unsuccessful	-10.9117
▁warm	-10.9118
▁kids	-10.9119
▁controversial	-10.9121
▁1848	-10.9124
▁collective	-10.9132
▁powered	-10.9138
▁kur	-10.9139
▁epi	-10.914
mr	-10.914
▁intention	-10.914
▁changing	-10.9141
▁pad	-10.9143
▁bosnia	-10.9144
▁thesis	-10.9144
▁legislation	-10.9149
▁drums	-10.9149
▁59	-10.9152
▁lock	-10.9152
log	-10.9159
ons	-10.916
▁decorated	-10.9161
▁perfect	-10.9165
ological	-10.9166
avi	-10.9167
▁processing	-10.9169
▁1897	-10.917
▁1945.	-10.9171
eb	-10.9171
called	-10.9171
▁ladies	-10.9171
▁99	-10.9171
▁rick	-10.9172
▁slovenia	-10.9172
å	-10.9173
▁mil	-10.9173
▁paulo	-10.9174
▁grave	-10.9175
▁instructor	-10.9176
▁locomotive	-10.9176
▁manuel	-10.9178
▁happened	-10.9179
▁ensure	-10.918
▁turning	-10.9181
▁1977.	-10.9184
▁butler	-10.9186
▁ry	-10.9188
german	-10.9189
▁diplomat	-10.9193
▁farming	-10.9195
what	-10.9195
handed	-10.9197
▁customers	-10.9197
cat	-10.9212
▁geo	-10.9213
▁68	-10.9216
▁mud	-10.9219
▁delta	-10.9223
▁1895	-10.9223
link	-10.9224
▁indicates	-10.9225
▁1981,	-10.9225
▁ages	-10.9225
pat	-10.9226
▁rally	-10.9226
▁rejected	-10.9231
▁beam	-10.9232
▁hebrew	-10.9234
▁battery	-10.9234
▁woods	-10.9237
▁referee	-10.9239
▁aires	-10.9239
▁eagle	-10.9241
▁ter	-10.9241
▁recognised	-10.9243
▁cruz	-10.9243
▁jews	-10.9246
inae	-10.9252
▁1974,	-10.9253
▁eligible	-10.9253
▁inherited	-10.9254
▁1972,	-10.9256
▁tours	-10.9257
▁sixteen	-10.9259
▁assisted	-10.9259
august	-10.926
▁ky	-10.9262
▁download	-10.9264
▁pedro	-10.9268
▁requirements	-10.927
▁strongly	-10.9271
▁depending	-10.9271
▁drag	-10.9273
▁spell	-10.9275
oy	-10.9276
tive	-10.9277
▁elevated	-10.928
▁displayed	-10.928
eastern	-10.9283
▁1971.	-10.9285
hon	-10.9286
▁rama	-10.9287
▁bun	-10.9288
▁concerns	-10.9291
▁thousands	-10.9294
▁collins	-10.9295
three	-10.9296
▁involvement	-10.9297
▁neighbouring	-10.93
▁agencies	-10.9302
▁thing	-10.9304
▁allied	-10.9305
thy	-10.9307
matic	-10.9307
▁walking	-10.9309
▁passage	-10.9309
_2	-10.9317
▁canyon	-10.9317
▁thirteen	-10.9321
▁sheffield	-10.9322
cas	-10.9323
▁sitting	-10.9328
▁pairs	-10.9333
▁excellence	-10.9335
▁giants	-10.9336
▁depot	-10.9339
▁1879	-10.934
▁preliminary	-10.9344
▁approval	-10.9346
scale	-10.9348
chy	-10.9349
▁shaw	-10.9349
▁accounts	-10.935
▁mansion	-10.9354
▁latest	-10.9354
ili	-10.9355
▁chen	-10.9358
▁speak	-10.9359
tech	-10.936
▁extreme	-10.9363
▁check	-10.937
▁enzyme	-10.9374
▁nam	-10.9376
-16	-10.9376
ace	-10.938
▁benefit	-10.9383
▁kirk	-10.9385
▁neighbourhood	-10.9385
▁returns	-10.9387
▁filming	-10.9391
▁ec	-10.9391
▁layout	-10.9392
▁cf	-10.9393
▁premiership	-10.9393
▁difference	-10.9395
▁cyclist	-10.9397
ral	-10.9399
▁transmission	-10.9401
▁exclusively	-10.9402
▁thi	-10.9406
▁abu	-10.9406
▁penalty	-10.9407
ute	-10.9409
▁altitude	-10.941
▁saskatchewan	-10.9412
background	-10.9413
uc	-10.9414
▁reed	-10.9414
▁lit	-10.9415
wall	-10.9416
hua	-10.9416
fra	-10.9421
▁1894	-10.9422
▁originated	-10.9432
▁1978,	-10.9435
fr	-10.9438
▁br	-10.9439
▁frequent	-10.9441
▁cloud	-10.9441
▁spiritual	-10.9446
▁ms	-10.9449
▁filed	-10.9449
▁maha	-10.945
▁anime	-10.9451
▁radical	-10.9454
eva	-10.9454
▁blind	-10.9456
kal	-10.9457
▁bringing	-10.9457
sea	-10.946
▁behalf	-10.9461
▁placing	-10.9462
met	-10.9465
▁ip	-10.9467
▁vir	-10.9468
▁fired	-10.9469
▁bala	-10.9473
▁whit	-10.9474
▁georgian	-10.9475
▁250	-10.9476
▁buenos	-10.9482
ose	-10.9483
▁minimum	-10.9484
▁hence	-10.9486
▁hell	-10.9487
▁nbc	-10.9488
▁dissolved	-10.9493
ets	-10.9496
had	-10.9497
ema	-10.9498
▁indonesian	-10.95
▁limestone	-10.9504
oon	-10.9504
▁processes	-10.9505
▁š	-10.9506
▁electricity	-10.951
▁essex	-10.9512
▁(12	-10.9514
▁profession	-10.9515
▁pageant	-10.9518
ill	-10.9518
▁truth	-10.9522
▁mul	-10.9523
–4	-10.9524
zan	-10.9533
ichi	-10.9536
▁preservation	-10.9542
▁colors	-10.9543
▁exists	-10.9545
▁oslo	-10.9551
bol	-10.9555
▁maritime	-10.9556
▁lighthouse	-10.9556
▁ty	-10.9563
▁gregory	-10.9564
3.	-10.9565
▁1875	-10.9565
pal	-10.9567
yne	-10.9569
horn	-10.9572
▁susan	-10.9574
▁lancashire	-10.9575
▁mol	-10.9575
▁occasion	-10.9577
▁whereas	-10.9581
▁1892	-10.9583
▁founders	-10.9583
pping	-10.9584
his	-10.9587
▁charlie	-10.9587
▁estonia	-10.9587
▁pub	-10.9589
▁1855	-10.9592
▁ap	-10.9593
▁percentage	-10.9595
pet	-10.9595
▁1893	-10.9596
▁kilometres	-10.9598
▁spoke	-10.9601
▁declined	-10.9601
▁67	-10.9603
▁1975,	-10.9606
▁76	-10.9606
▁gothic	-10.9606
▁dur	-10.9607
▁denver	-10.9608
▁rosa	-10.9611
▁gilbert	-10.9614
das	-10.9618
▁archive	-10.962
▁favorite	-10.9621
▁component	-10.9624
gram	-10.9626
oid	-10.9629
▁ven	-10.9631
▁enterprise	-10.9632
▁angle	-10.9636
ridge	-10.9639
▁lowest	-10.964
▁favor	-10.964
ille	-10.9641
▁gr	-10.9641
lip	-10.9642
▁meanwhile	-10.9645
▁describe	-10.9647
▁moment	-10.9648
bon	-10.9648
▁purple	-10.9651
▁wet	-10.9653
▁boss	-10.9654
▁crystal	-10.9655
act	-10.9658
sco	-10.9658
post	-10.9659
gg	-10.966
▁comedian	-10.9664
▁1980,	-10.9664
▁seek	-10.9665
▁ei	-10.9665
▁output	-10.9666
▁acquisition	-10.9668
▁kit	-10.967
▁mus	-10.967
▁vladimir	-10.967
▁grammy	-10.967
▁1968,	-10.9672
sal	-10.9674
▁copa	-10.9681
▁apartment	-10.9682
▁civilian	-10.9687
▁archives	-10.9687
▁centers	-10.9688
dell	-10.9689
▁boxer	-10.9692
▁coffee	-10.9692
▁predecessor	-10.9693
▁violin	-10.9694
▁raw	-10.9694
▁mos	-10.9695
▁sussex	-10.9698
▁burial	-10.9699
eau	-10.9702
▁hindi	-10.9703
▁pod	-10.9704
▁dramatic	-10.9706
▁freight	-10.971
▁questions	-10.9712
▁assist	-10.9713
▁chase	-10.9715
▁1969.	-10.9717
nell	-10.9718
pel	-10.9719
▁prestigious	-10.972
▁nadu	-10.9724
▁1976,	-10.973
▁kas	-10.973
lus	-10.9731
▁victims	-10.9732
▁kun	-10.9733
inter	-10.9736
:30	-10.9737
▁renowned	-10.9738
▁sequel	-10.9746
▁1858	-10.9746
ı	-10.9755
▁advantage	-10.9756
▁personality	-10.9756
▁globe	-10.9757
▁mention	-10.9761
▁otto	-10.9764
):	-10.9765
▁styles	-10.9766
▁landmark	-10.9768
▁bog	-10.9769
llo	-10.9772
▁linear	-10.9773
▁restaurants	-10.9773
▁struck	-10.9773
rian	-10.9777
▁cher	-10.9781
▁motorcycle	-10.9782
▁rector	-10.9783
▁berg	-10.9783
▁ul	-10.9783
phy	-10.9784
▁frequency	-10.9785
▁rim	-10.9787
▁brunswick	-10.9789
▁chancellor	-10.979
▁anchor	-10.979
▁buck	-10.9792
▁quartet	-10.9793
▁ag	-10.9793
▁considerable	-10.9794
▁columns	-10.9794
▁somerset	-10.9794
▁paint	-10.9794
▁bound	-10.9796
▁cool	-10.9796
▁portrayed	-10.9801
▁recommended	-10.9803
▁partly	-10.9804
▁massive	-10.9804
▁uniform	-10.9807
▁fourteen	-10.9808
▁councillor	-10.9808
▁durham	-10.9808
▁flood	-10.9809
▁prisoners	-10.9811
▁69	-10.9811
▁withdrew	-10.9811
ably	-10.9815
▁madison	-10.9818
▁martial	-10.9822
▁definition	-10.9822
ade	-10.9822
▁earthquake	-10.9823
▁opinion	-10.9829
▁tests	-10.983
▁throne	-10.9836
▁assets	-10.9838
▁banking	-10.9838
▁snails	-10.9841
music	-10.9845
▁74	-10.9845
▁islam	-10.9849
▁vegas	-10.985
▁joy	-10.9857
agh	-10.9857
▁scientists	-10.9859
▁aimed	-10.9861
▁channels	-10.9862
▁1856	-10.9862
▁comprehensive	-10.9865
▁ruling	-10.987
lé	-10.9871
▁diverse	-10.9875
qu	-10.9876
▁eighteen	-10.9877
▁veteran	-10.9878
▁message	-10.9879
▁kick	-10.9881
▁bis	-10.9881
▁hudson	-10.9882
▁scotia	-10.9884
▁uni	-10.9887
▁1968.	-10.989
▁pier	-10.9895
mir	-10.9895
rate	-10.9896
▁workshop	-10.9896
▁cord	-10.9896
▁outbreak	-10.9897
ui	-10.99
ito	-10.99
gin	-10.9901
▁caps	-10.9901
▁drivers	-10.9901
dor	-10.9903
▁suggests	-10.9906
▁hundreds	-10.9908
▁criticized	-10.9908
▁1885	-10.9909
▁1,000	-10.9911
lot	-10.9911
▁journals	-10.9911
▁keith	-10.992
▁1977,	-10.992
▁vin	-10.9921
▁opportunities	-10.9923
▁funeral	-10.9927
▁1971,	-10.9932
▁belong	-10.9933
▁hindwings	-10.9938
▁fifty	-10.9938
▁normally	-10.9939
ean	-10.9939
▁friedrich	-10.994
▁jamaica	-10.994
▁autumn	-10.9942
▁ted	-10.9945
▁fitted	-10.9949
▁preparation	-10.9955
▁alpine	-10.9958
▁(13	-10.9962
▁cad	-10.9963
dic	-10.9964
▁1994)	-10.9966
▁heights	-10.9967
▁10,000	-10.9968
▁dancing	-10.9969
▁partially	-10.997
▁liquid	-10.9972
▁phoenix	-10.9972
▁cream	-10.9972
wer	-10.9974
▁rovers	-10.9976
▁rogers	-10.9977
▁98	-10.9978
nas	-10.9979
▁bach	-10.9981
▁wealthy	-10.9983
▁knockout	-10.9984
▁artwork	-10.9986
▁tha	-10.9986
▁matters	-10.9989
▁maps	-10.999
nc	-10.9991
tam	-10.9993
▁organic	-10.9994
▁sto	-10.9996
gas	-10.9997
▁syria	-10.9998
▁rowing	-10.9999
▁°	-11.0002
-8	-11.0009
▁reserves	-11.0009
▁lebanon	-11.0011
▁sailing	-11.0011
▁indie	-11.0016
▁polo	-11.0016
ao	-11.0017
▁78	-11.0017
box	-11.0019
▁1993)	-11.0021
wen	-11.0022
▁reportedly	-11.0022
▁1967.	-11.0024
▁voyage	-11.0026
▁stakes	-11.0029
enburg	-11.0031
form	-11.0035
▁switched	-11.0039
▁anglo	-11.0041
▁manitoba	-11.0041
▁promoting	-11.0046
nin	-11.005
▁1992)	-11.005
▁romance	-11.0053
mic	-11.0054
▁significantly	-11.0055
▁ralph	-11.0056
▁secured	-11.0057
▁graphic	-11.0058
▁spend	-11.006
▁1830	-11.006
,500	-11.0064
▁milwaukee	-11.0067
▁constituencies	-11.0069
▁regime	-11.007
jar	-11.0073
super	-11.0074
▁choose	-11.0074
nen	-11.0076
▁1891	-11.008
cer	-11.0083
▁extends	-11.0089
▁interchange	-11.0094
▁intellectual	-11.0097
▁stint	-11.01
▁enjoyed	-11.01
▁85	-11.0101
▁imp	-11.0102
▁administered	-11.0103
ł	-11.0106
sun	-11.0106
▁speaking	-11.0107
▁scout	-11.011
▁geological	-11.011
thi	-11.0116
▁missions	-11.0116
card	-11.0117
▁heath	-11.0118
▁screenplay	-11.0121
▁liberation	-11.0122
rn	-11.0123
▁yi	-11.0127
org	-11.0128
▁sounds	-11.0133
▁clock	-11.0134
sley	-11.0136
▁researcher	-11.0143
▁novelist	-11.0144
▁grande	-11.0144
▁chester	-11.0146
▁71	-11.0148
put	-11.0148
▁gau	-11.0149
▁lok	-11.015
▁happy	-11.0152
▁perry	-11.0155
▁luke	-11.016
▁pac	-11.016
▁idaho	-11.0161
▁1888	-11.0164
▁ou	-11.0164
▁proposal	-11.0167
▁monday	-11.017
green	-11.0172
▁bha	-11.0172
rey	-11.0176
▁marsh	-11.0177
▁1965.	-11.0178
▁detailed	-11.018
▁affiliate	-11.0183
▁jefferson	-11.0186
ota	-11.0188
ois	-11.0188
▁companion	-11.0191
▁craft	-11.0191
▁1973,	-11.0191
lov	-11.0193
bri	-11.0193
▁hydro	-11.0194
▁meat	-11.0195
4,	-11.0195
january	-11.0197
▁printing	-11.0198
▁widespread	-11.0199
▁1995)	-11.0203
▁differences	-11.0204
▁pitcher	-11.0205
▁eggs	-11.0207
▁geographic	-11.0208
sz	-11.0209
▁usage	-11.021
ites	-11.021
▁sel	-11.021
▁decline	-11.0215
▁database	-11.0217
▁implementation	-11.0218
▁ranging	-11.0218
-21	-11.0221
▁obtain	-11.0224
hai	-11.0225
▁ranch	-11.0226
▁diesel	-11.0227
▁venues	-11.0228
▁swan	-11.0229
▁krishna	-11.0233
▁verse	-11.0233
▁conclusion	-11.0235
▁harold	-11.0237
▁beck	-11.024
ture	-11.024
ations	-11.0241
▁apparently	-11.0242
▁guild	-11.0243
where	-11.0244
▁cluster	-11.0247
▁kra	-11.0249
june	-11.0256
▁send	-11.026
▁ideal	-11.0261
▁sacred	-11.0261
▁missionary	-11.0263
▁discography	-11.0263
▁patron	-11.0264
▁1969,	-11.0268
▁1944,	-11.027
▁kw	-11.0271
▁$2	-11.0271
▁aftermath	-11.0274
october	-11.0274
▁policies	-11.0275
▁microsoft	-11.0275
▁bir	-11.0283
▁wake	-11.0286
mine	-11.0286
▁magnitude	-11.0287
▁innovation	-11.0288
▁wars	-11.0289
december	-11.0291
qa	-11.0292
▁scope	-11.0292
▁worker	-11.0293
▁(11	-11.0293
▁tool	-11.0294
▁shrub	-11.0294
▁inscription	-11.0295
▁meta	-11.0298
▁1852	-11.0299
alis	-11.0301
▁raymond	-11.0301
▁begun	-11.0304
▁variant	-11.0305
▁carries	-11.0307
▁albanian	-11.0309
▁bassist	-11.0312
▁vinyl	-11.0314
ico	-11.0317
related	-11.0317
▁virtual	-11.0319
second	-11.0319
▁gear	-11.0322
▁distinction	-11.0324
▁flora	-11.0329
▁dame	-11.0331
▁wait	-11.0331
north	-11.0332
▁diet	-11.0332
gli	-11.0334
▁bone	-11.0337
▁depression	-11.0339
▁marry	-11.034
▁protestant	-11.0342
fort	-11.0343
▁id	-11.0345
april	-11.0349
▁kol	-11.0349
▁touch	-11.0349
▁dennis	-11.035
▁ok	-11.0352
▁hunting	-11.0352
▁synopsis	-11.0352
lee	-11.0355
▁ties	-11.0356
▁rough	-11.0357
ante	-11.0362
▁graph	-11.0362
▁shrine	-11.0363
▁fortune	-11.0364
▁soap	-11.0365
▁2018–19	-11.0369
▁inspector	-11.0369
ox	-11.0371
▁kr	-11.0374
▁shelter	-11.0374
▁narrative	-11.0375
via	-11.0377
▁relation	-11.0379
▁dna	-11.0381
▁layer	-11.0382
iro	-11.0384
▁py	-11.0385
ž	-11.0386
▁programmes	-11.0387
ste	-11.0387
▁sab	-11.0393
▁77	-11.0394
▁rebounds	-11.0395
▁96	-11.0395
▁minority	-11.0396
▁panama	-11.0397
▁electro	-11.0399
▁specimens	-11.0405
ved	-11.0405
hard	-11.0406
▁bark	-11.0408
pc	-11.041
▁lion	-11.041
▁fled	-11.0411
▁stuart	-11.0413
▁closing	-11.0413
▁princeton	-11.0413
▁1967,	-11.0415
▁discontinued	-11.0415
▁consumer	-11.042
then	-11.0423
september	-11.0426
cast	-11.0428
▁automatic	-11.0431
eur	-11.0434
▁alpha	-11.0438
dam	-11.0441
▁2–1	-11.0442
▁cent	-11.0443
▁solutions	-11.0443
▁welfare	-11.0443
▁1991)	-11.0446
▁moor	-11.045
▁acoustic	-11.0451
made	-11.0452
col	-11.0453
▁murphy	-11.0453
▁sailed	-11.0454
▁qu	-11.0456
▁commenced	-11.0459
only	-11.0459
▁democrats	-11.046
▁volunteers	-11.0465
july	-11.0468
etti	-11.0473
▁shops	-11.0473
▁teach	-11.0476
english	-11.0476
iel	-11.0476
▁movements	-11.0477
uma	-11.0478
▁gradually	-11.0478
▁exit	-11.0478
▁influences	-11.048
▁est	-11.0481
▁throw	-11.0481
▁1990)	-11.0481
such	-11.0482
▁alumni	-11.0483
tti	-11.0485
een	-11.0486
nagar	-11.0488
▁connections	-11.049
gor	-11.0491
lands	-11.0492
after	-11.0492
▁repair	-11.0493
how	-11.0497
▁entrepreneur	-11.05
hy	-11.05
▁é	-11.0501
▁joan	-11.0504
▁scar	-11.0504
▁dominican	-11.0511
ory	-11.0513
▁oscar	-11.0513
▁struggle	-11.0515
▁fastest	-11.0516
▁framework	-11.0516
▁herb	-11.0517
▁pitched	-11.052
▁predominantly	-11.052
▁runway	-11.0521
▁zero	-11.0522
▁batting	-11.0523
space	-11.0526
▁kho	-11.0528
anga	-11.0531
▁buddhist	-11.0532
▁establishing	-11.0532
▁mars	-11.0533
▁comp	-11.0533
▁interviews	-11.0535
▁ernest	-11.0537
table	-11.0541
▁shipping	-11.0541
cent	-11.0546
nus	-11.0547
▁jet	-11.055
▁1966.	-11.0551
eli	-11.0554
▁watson	-11.0554
▁kay	-11.0555
▁prototype	-11.0557
▁leonard	-11.056
▁practices	-11.056
▁surrey	-11.056
titled	-11.0561
illo	-11.0561
▁airlines	-11.0565
▁phrase	-11.0565
zon	-11.0566
▁correct	-11.0568
▁vale	-11.0569
▁custom	-11.0569
▁researchers	-11.0569
that	-11.057
▁1964.	-11.0572
▁valuable	-11.0574
▁om	-11.0577
▁exception	-11.0577
▁segments	-11.0584
▁streak	-11.0586
▁theological	-11.0589
away	-11.0591
▁gan	-11.0593
ire	-11.0594
▁debate	-11.0602
▁jobs	-11.0602
▁ss	-11.0603
[	-11.0603
▁pages	-11.0604
▁doors	-11.0607
▁democracy	-11.0609
▁falling	-11.061
▁sec	-11.0613
▁arrangement	-11.0613
rod	-11.0614
▁73	-11.0615
▁commanding	-11.0619
▁translator	-11.062
▁facade	-11.0624
▁parade	-11.0626
▁tomb	-11.0628
▁false	-11.0629
▁nest	-11.063
gle	-11.0631
▁bridges	-11.0632
country	-11.0633
▁corresponding	-11.0634
▁neighboring	-11.0635
ija	-11.0636
boat	-11.0636
▁ruth	-11.0637
▁absence	-11.064
lp	-11.0642
▁advice	-11.0643
▁rhode	-11.0643
▁giovanni	-11.0645
ij	-11.0647
▁provinces	-11.0649
▁oval	-11.065
▁1851	-11.0651
▁disaster	-11.0657
▁dismissed	-11.066
▁roberts	-11.066
▁guests	-11.0661
▁liberty	-11.0663
▁1887	-11.0665
▁connect	-11.0666
▁bud	-11.0676
▁argued	-11.0676
▁distinctive	-11.0677
▁kat	-11.0677
▁pack	-11.0678
▁canterbury	-11.0679
▁interstate	-11.0683
ges	-11.0684
▁nacional	-11.0685
▁deck	-11.0686
▁bout	-11.0688
▁encouraged	-11.0696
▁dome	-11.0697
▁reviewed	-11.0698
sie	-11.0698
▁governing	-11.07
_1	-11.0701
▁hyper	-11.0702
five	-11.0702
▁1996)	-11.0708
press	-11.0712
▁interface	-11.0714
▁blog	-11.0717
▁badminton	-11.0724
▁plastic	-11.0726
▁julian	-11.0726
▁morocco	-11.0728
▁brussels	-11.0734
yr	-11.0735
▁81	-11.0741
▁boulevard	-11.0745
▁hole	-11.0745
▁mainland	-11.0747
▁reporting	-11.075
▁ahmed	-11.0753
ovo	-11.0753
▁singers	-11.0753
hir	-11.0754
▁arnold	-11.0759
▁tal	-11.076
▁illegal	-11.0761
▁trainer	-11.0765
ians	-11.0766
▁abdul	-11.0766
▁costs	-11.0767
▁java	-11.0768
▁vis	-11.0771
▁wan	-11.0771
▁neck	-11.0779
ions	-11.0779
▁evolution	-11.078
maker	-11.0783
▁1853	-11.0783
▁expand	-11.0784
▁ras	-11.0785
▁congressional	-11.0785
▁mainstream	-11.0786
november	-11.0789
bas	-11.0791
bia	-11.0793
released	-11.0798
▁partial	-11.0805
▁nursing	-11.0806
▁knee	-11.0806
▁manage	-11.0807
▁grades	-11.0807
borg	-11.0808
▁kitchen	-11.0809
char	-11.0816
▁steven	-11.0816
▁artificial	-11.0818
▁populated	-11.0818
▁steps	-11.0818
▁riders	-11.082
▁sort	-11.0822
▁rud	-11.0822
yang	-11.0824
▁phillips	-11.0825
▁ready	-11.0826
▁abuse	-11.0826
vy	-11.0827
▁perspective	-11.0827
▁instance	-11.0832
py	-11.0832
▁cabin	-11.0834
▁aims	-11.0837
▁hearing	-11.0841
yi	-11.0844
rad	-11.0851
▁departments	-11.0852
ologist	-11.0852
▁1970.	-11.0853
▁terry	-11.0853
▁loaned	-11.0853
▁accept	-11.0854
▁82	-11.0862
▁clothing	-11.0863
▁math	-11.0865
rr	-11.0867
int	-11.0868
▁gru	-11.087
▁1800	-11.0871
▁attendance	-11.0871
▁conversion	-11.0872
▁theatrical	-11.0873
uda	-11.0877
▁eurovision	-11.0885
▁ministers	-11.0887
itz	-11.0887
▁michel	-11.0888
▁1970,	-11.089
▁banner	-11.089
▁jerry	-11.0895
▁excellent	-11.0896
▁width	-11.0897
▁surgeon	-11.0899
▁nc	-11.0903
ido	-11.0904
bc	-11.0905
▁estonian	-11.0905
▁settlers	-11.0906
ão	-11.0906
▁trustees	-11.0906
▁hughes	-11.0911
▁600	-11.0911
month	-11.0916
▁jail	-11.0917
▁uci	-11.0917
▁clinton	-11.0918
tru	-11.0919
▁neil	-11.092
ere	-11.0921
▁queens	-11.0925
ces	-11.0928
ras	-11.093
▁wants	-11.093
▁alleged	-11.0932
▁survive	-11.094
sub	-11.0941
▁franz	-11.0944
▁friendship	-11.0944
vers	-11.0945
▁maj	-11.0946
▁santiago	-11.0947
▁indies	-11.0947
▁parking	-11.0949
▁rookie	-11.0953
▁lau	-11.0953
▁delivery	-11.0955
▁1989)	-11.0962
▁descendants	-11.0963
▁valid	-11.0964
mid	-11.0964
▁initiated	-11.0966
▁requires	-11.0971
▁anton	-11.0973
4.	-11.0979
▁sony	-11.098
▁orchid	-11.0981
▁slovakia	-11.0981
▁bore	-11.0982
▁bordered	-11.0993
live	-11.0994
idi	-11.0995
▁tribes	-11.0999
▁professionally	-11.1
▁88	-11.1002
▁consist	-11.1003
vik	-11.1003
▁assault	-11.1009
▁grain	-11.1011
▁kazakhstan	-11.1014
▁require	-11.1016
▁favour	-11.1016
▁emigrated	-11.102
half	-11.1023
▁paralympics	-11.1023
▁celebrate	-11.1023
▁fed	-11.1024
▁jacques	-11.1024
▁knights	-11.1024
arch	-11.1033
kai	-11.1036
▁vertical	-11.1036
▁mystery	-11.1036
▁root	-11.1038
▁95	-11.1039
▁columbus	-11.1041
▁playwright	-11.1041
tum	-11.1041
▁nationalist	-11.1042
nz	-11.1044
▁pitch	-11.1046
lyn	-11.1047
▁honored	-11.105
ged	-11.1051
▁vel	-11.1054
▁plaza	-11.1055
-15	-11.106
▁hub	-11.1064
▁marble	-11.1065
▁recovered	-11.1066
rl	-11.1066
▁resource	-11.1068
▁dispute	-11.1069
boy	-11.1072
▁1965,	-11.1077
▁treated	-11.1078
▁1962.	-11.1079
ovsky	-11.108
ago	-11.1081
▁spur	-11.1089
has	-11.1091
▁proteins	-11.1093
▁organisations	-11.1093
▁observation	-11.1096
▁indicate	-11.1099
bahn	-11.1102
▁miguel	-11.1103
▁84	-11.1106
▁cc	-11.1108
home	-11.1111
▁defended	-11.1112
▁warriors	-11.1113
journal	-11.1113
▁swimmer	-11.1117
▁ruler	-11.1117
▁1884	-11.112
▁portraits	-11.1122
cz	-11.1122
ave	-11.1124
gr	-11.1125
▁enlisted	-11.1128
▁dominated	-11.1128
▁cab	-11.1128
real	-11.1129
▁hybrid	-11.1134
▁breaking	-11.1134
▁shoot	-11.1139
▁maurice	-11.1139
mag	-11.1143
▁pearl	-11.1145
▁dragon	-11.1149
ars	-11.1151
▁immediate	-11.1153
chin	-11.1153
▁kir	-11.1155
▁automobile	-11.1156
▁pont	-11.1159
▁accommodate	-11.1162
sport	-11.1163
▁mt	-11.1164
▁westminster	-11.1164
▁towers	-11.1167
▁buses	-11.1169
▁confused	-11.117
▁subdivision	-11.117
▁logo	-11.1179
▁tiger	-11.118
▁elect	-11.1181
▁das	-11.1182
uro	-11.1186
–15	-11.1187
▁quick	-11.1188
▁zoo	-11.1188
▁1997)	-11.119
▁google	-11.1191
▁dorsal	-11.1191
▁concentration	-11.1192
▁respective	-11.1195
▁screenwriter	-11.1195
▁remix	-11.1201
▁rebellion	-11.1202
▁mala	-11.1205
▁chin	-11.1208
▁renaissance	-11.1209
–7	-11.1211
▁presidency	-11.1212
▁chorus	-11.1214
▁averaged	-11.1216
nce	-11.1217
gam	-11.122
wald	-11.1223
▁bend	-11.1224
▁guards	-11.1224
ration	-11.1227
seat	-11.1231
▁lam	-11.1231
▁larry	-11.1231
▁bang	-11.1232
school	-11.1234
▁competitors	-11.1237
mos	-11.1239
▁1964,	-11.1242
▁engagement	-11.1243
february	-11.1243
▁plateau	-11.1248
mun	-11.125
ew	-11.1253
▁mod	-11.1255
brown	-11.1255
▁laura	-11.1257
▁fortress	-11.1258
was	-11.126
▁desire	-11.1264
▁installation	-11.1267
▁edwards	-11.1268
▁1849	-11.1271
▁chef	-11.1271
▁sheep	-11.1273
▁crossed	-11.1273
▁stones	-11.1277
▁ballot	-11.1277
▁1886	-11.1278
▁brands	-11.1279
▁drugs	-11.1281
▁spelled	-11.1281
▁regulations	-11.1286
▁cra	-11.1287
▁ranges	-11.1287
▁1847	-11.129
▁newton	-11.129
▁ion	-11.129
▁thriller	-11.1294
▁counsel	-11.1297
▁patient	-11.1299
▁1966,	-11.1299
▁rankings	-11.1299
▁greg	-11.1303
blue	-11.1304
▁ng	-11.1311
pass	-11.1311
▁immigrants	-11.1317
aq	-11.1318
▁calgary	-11.1321
▁notice	-11.1323
bul	-11.1326
▁spaces	-11.1327
▁mirror	-11.133
▁ecology	-11.1331
▁gift	-11.1332
▁ongoing	-11.1334
▁79	-11.1335
text	-11.1338
▁97	-11.1338
▁shift	-11.1338
▁useful	-11.1339
▁comparison	-11.134
▁chang	-11.1342
vor	-11.1342
▁cornwall	-11.1346
pri	-11.1347
▁execution	-11.1349
▁françois	-11.135
▁topped	-11.1352
elo	-11.1352
uta	-11.1356
▁bobby	-11.1361
▁citation	-11.1365
▁montgomery	-11.1365
▁conservatory	-11.1367
pod	-11.1367
ht	-11.1368
▁neither	-11.1372
▁kingston	-11.1374
▁travels	-11.1378
ault	-11.138
▁edmonton	-11.1382
–8	-11.1383
▁apparent	-11.1385
▁patent	-11.1387
▁1988)	-11.1387
▁celebration	-11.1387
▁fossil	-11.1389
▁territorial	-11.1391
▁exhibit	-11.1395
▁telephone	-11.1396
▁presbyterian	-11.1403
▁celtic	-11.1403
▁pupils	-11.1406
ø	-11.1409
▁tale	-11.141
anna	-11.1413
▁dialect	-11.1416
▁concern	-11.1417
▁gauge	-11.1417
▁extending	-11.1418
▁1857	-11.1419
eck	-11.1422
▁cyprus	-11.1423
smith	-11.1424
dd	-11.1429
▁publicly	-11.143
▁load	-11.1431
inus	-11.1433
track	-11.1434
iva	-11.1434
▁fisher	-11.1434
▁uttar	-11.1435
▁slopes	-11.1435
▁sl	-11.1438
▁2017–18	-11.1439
▁amazon	-11.1448
▁superintendent	-11.1452
▁developer	-11.1454
▁pel	-11.1465
▁scores	-11.1466
▁ruins	-11.147
=9	-11.1472
▁tube	-11.1474
▁submitted	-11.1475
▁decree	-11.1476
▁wickets	-11.1477
▁bowling	-11.1478
▁continuous	-11.1478
▁edmund	-11.1481
▁decides	-11.1485
▁pure	-11.1485
▁belgrade	-11.1486
▁limits	-11.1492
▁reconstruction	-11.1492
▁campaigns	-11.1494
▁clarke	-11.1494
▁principles	-11.1494
▁abraham	-11.1495
▁photos	-11.15
▁emeritus	-11.15
▁affair	-11.1503
▁rocket	-11.1505
▁inaugurated	-11.1505
uni	-11.1509
▁wider	-11.1509
lat	-11.151
▁passion	-11.1511
▁assessment	-11.1512
▁preserve	-11.1513
▁1963.	-11.1514
tr	-11.1515
▁mega	-11.1515
–3	-11.152
rk	-11.1521
late	-11.1524
▁1881	-11.1524
▁isaac	-11.1527
making	-11.1528
-7	-11.1529
aro	-11.1529
▁galaxy	-11.1532
▁doesn	-11.1533
▁identical	-11.1533
▁viewers	-11.1535
▁receiver	-11.1535
400	-11.1536
▁wallace	-11.1539
▁bet	-11.1541
▁clients	-11.1544
▁ahmad	-11.1548
▁luxembourg	-11.1548
mate	-11.155
lit	-11.155
▁lift	-11.155
ireland	-11.155
▁opponent	-11.155
ids	-11.1551
gui	-11.1554
asa	-11.1554
▁tackles	-11.1556
▁qua	-11.1557
▁supporters	-11.1557
▁authored	-11.1558
▁concerned	-11.1559
▁lyon	-11.1563
▁ps	-11.1564
▁istanbul	-11.1565
▁push	-11.1566
6,	-11.1571
▁machines	-11.1573
▁radar	-11.1574
iti	-11.1578
▁maharashtra	-11.1581
▁succession	-11.1584
▁possession	-11.1586
meter	-11.1588
▁curriculum	-11.1591
▁hammer	-11.1593
▁cult	-11.1593
iana	-11.1594
▁3-	-11.1595
▁papua	-11.1597
▁mtv	-11.16
▁namely	-11.1601
▁banned	-11.1604
▁prof	-11.1609
▁gable	-11.161
vas	-11.1612
▁resumed	-11.1616
omi	-11.1618
mmer	-11.1621
▁seeking	-11.1621
▁henri	-11.1623
▁stein	-11.1626
▁1859	-11.1628
▁doctoral	-11.1628
▁exact	-11.163
▁1946,	-11.163
▁frankfurt	-11.163
▁pic	-11.1631
▁decide	-11.1633
▁sample	-11.1634
▁diseases	-11.1635
bell	-11.1639
▁examination	-11.1639
▁herzegovina	-11.1639
▁rounded	-11.1643
▁shut	-11.1646
▁thanks	-11.1647
▁janeiro	-11.1652
oka	-11.1654
▁lar	-11.1655
▁rag	-11.1655
▁coup	-11.1656
▁conventional	-11.1659
▁odd	-11.1661
▁coral	-11.1666
▁interim	-11.1667
–20	-11.1667
▁elsewhere	-11.1667
▁1882	-11.1667
▁exile	-11.1668
▁divorced	-11.1671
ates	-11.1671
▁harvey	-11.1674
▁vicar	-11.1675
▁palmer	-11.1678
▁kom	-11.1679
▁remembered	-11.1679
▁shan	-11.168
▁sentence	-11.168
▁confederate	-11.1681
▁focusing	-11.1681
owski	-11.1682
▁similarly	-11.1684
▁1500	-11.1685
▁1946.	-11.1687
til	-11.1689
▁1883	-11.1689
▁characteristic	-11.1692
▁broadcasts	-11.1692
▁pala	-11.1695
▁neuro	-11.1696
▁relationships	-11.1696
▁recruited	-11.1696
▁trap	-11.1696
▁breeding	-11.1696
▁1963,	-11.1699
ender	-11.1704
cross	-11.1705
▁mineral	-11.1705
▁fossils	-11.1707
▁gameplay	-11.1709
▁tau	-11.171
there	-11.1711
▁nominee	-11.1714
▁dialogue	-11.1714
▁86	-11.1716
▁writings	-11.1716
pers	-11.1716
ened	-11.1717
▁2019–20	-11.1718
▁1–0	-11.1718
▁1961.	-11.1721
▁wire	-11.1723
▁cri	-11.1724
dc	-11.1727
▁exterior	-11.1728
▁gul	-11.1731
▁exposed	-11.1731
oo	-11.1731
▁coordinator	-11.174
▁sail	-11.1741
▁essential	-11.1742
▁syrian	-11.1743
▁mathematician	-11.1743
▁releasing	-11.1747
▁consider	-11.1748
▁bennett	-11.1753
▁burned	-11.1754
▁porch	-11.1757
▁swing	-11.1758
hor	-11.1761
▁awareness	-11.1762
wy	-11.1762
▁carol	-11.1763
▁estates	-11.1766
▁striker	-11.1771
▁emerged	-11.1773
▁driven	-11.1776
▁olive	-11.1776
when	-11.1777
▁treasurer	-11.1777
▁idol	-11.1783
▁brad	-11.1786
ente	-11.1787
nn	-11.1788
nh	-11.179
▁kid	-11.1793
500	-11.1793
▁privately	-11.1793
▁consecrated	-11.1794
▁rica	-11.1795
▁lithuania	-11.1795
▁billboard	-11.1796
ux	-11.18
▁carrier	-11.1802
mé	-11.1804
▁practiced	-11.1804
▁sap	-11.1804
atus	-11.1807
▁ac	-11.1807
▁keeping	-11.1808
▁1942,	-11.1811
▁legion	-11.1811
▁factors	-11.1812
▁luc	-11.1813
▁airfield	-11.1816
▁sits	-11.1819
▁bradford	-11.182
insky	-11.1821
▁detective	-11.1822
▁shallow	-11.1822
▁rarely	-11.1823
page	-11.1823
▁eddie	-11.1825
▁supplies	-11.1827
▁geographical	-11.1829
▁substantial	-11.1829
park	-11.1831
▁suburbs	-11.1831
▁anthology	-11.1833
▁dub	-11.1835
lum	-11.1835
sberg	-11.1839
▁wards	-11.184
▁strait	-11.1841
▁lectures	-11.1841
▁describing	-11.1843
itt	-11.1844
▁everyone	-11.1845
▁nationwide	-11.1846
▁fernando	-11.1847
▁kate	-11.1848
▁1947,	-11.1849
▁quarterfinals	-11.1849
▁armenia	-11.1851
▁performer	-11.1854
▁uc	-11.1857
▁anything	-11.1858
▁granite	-11.1858
▁taste	-11.1861
▁understand	-11.1862
▁appropriate	-11.1863
▁nurse	-11.1866
▁correspondent	-11.1867
tai	-11.1868
night	-11.187
▁lor	-11.1873
▁bil	-11.1875
ters	-11.1875
▁1948,	-11.1875
▁sau	-11.1876
▁rum	-11.1878
▁rider	-11.1878
▁1962,	-11.1884
▁sai	-11.1885
▁comprising	-11.1886
▁lance	-11.189
▁louise	-11.189
8,	-11.189
cht	-11.1891
▁servant	-11.1898
etta	-11.1901
lio	-11.1902
▁permission	-11.1903
▁shadow	-11.1905
▁exclusive	-11.1905
▁cox	-11.1905
▁texts	-11.1905
▁cop	-11.1905
▁courthouse	-11.1908
–0	-11.1909
▁(20	-11.1916
▁83	-11.1916
▁byzantine	-11.1917
▁flash	-11.1918
bet	-11.1918
uga	-11.192
▁pla	-11.192
▁commented	-11.1922
▁afc	-11.1922
▁restricted	-11.1922
▁libraries	-11.1923
▁rolling	-11.1924
▁yang	-11.193
▁110	-11.193
▁cuban	-11.1932
▁fabric	-11.1933
ech	-11.1937
▁smart	-11.1941
▁sy	-11.1943
▁sei	-11.1944
▁nationally	-11.1945
▁1987)	-11.1945
borough	-11.1948
fire	-11.195
▁pitt	-11.1951
▁holder	-11.1952
▁variants	-11.1952
▁afl	-11.1954
▁bai	-11.1954
▁jun	-11.1955
tone	-11.1958
▁streams	-11.1958
▁hook	-11.1959
▁1846	-11.1963
▁heir	-11.1965
tta	-11.1966
lau	-11.197
▁closer	-11.1971
▁faces	-11.1971
▁electronics	-11.1972
vent	-11.1972
7,	-11.1972
▁veterans	-11.1974
▁portfolio	-11.1974
▁siblings	-11.1978
berry	-11.1983
▁malta	-11.1988
atory	-11.1992
▁1961,	-11.1993
dh	-11.1993
▁philosopher	-11.1995
▁1944.	-11.1996
▁bee	-11.2
tc	-11.2001
inch	-11.2001
gri	-11.2004
▁sponsorship	-11.2006
media	-11.2006
▁chapters	-11.2007
▁weak	-11.2009
▁petr	-11.2009
▁construct	-11.2014
▁newport	-11.2016
▁reflect	-11.2017
▁wheat	-11.2018
▁bicycle	-11.2018
▁woodland	-11.2018
▁rapidly	-11.2019
camp	-11.202
gio	-11.2021
▁encoded	-11.2025
gie	-11.2027
▁vast	-11.2027
▁circulation	-11.2028
▁lessons	-11.2033
▁alcohol	-11.2034
▁pir	-11.2035
▁identify	-11.2036
▁1845	-11.2037
▁convicted	-11.2038
▁wrong	-11.2038
▁tram	-11.204
▁md	-11.204
▁vii	-11.2044
▁beau	-11.2045
sti	-11.2045
cum	-11.2049
els	-11.2055
▁jen	-11.2059
ving	-11.2059
stan	-11.2059
kon	-11.2061
▁practical	-11.2064
hel	-11.2064
▁blake	-11.2066
▁moral	-11.2066
▁iceland	-11.2066
▁breed	-11.2067
say	-11.2069
▁plains	-11.207
▁usual	-11.2072
▁delegate	-11.2073
▁mate	-11.2074
▁1854	-11.2074
té	-11.2075
kun	-11.2077
▁variable	-11.2077
▁spencer	-11.2077
▁denied	-11.208
▁2.5	-11.2081
▁workshops	-11.2082
lik	-11.2089
▁bike	-11.209
▁scales	-11.2092
▁signs	-11.2092
▁renovated	-11.2093
▁filipino	-11.2095
speed	-11.2095
▁performers	-11.2096
▁switch	-11.2098
ssel	-11.2098
▁suitable	-11.2101
zhou	-11.2102
▁concerning	-11.2103
▁aboriginal	-11.2104
▁mcc	-11.2106
organ	-11.2107
▁deer	-11.2109
▁dev	-11.211
▁silk	-11.2113
tch	-11.2115
▁boom	-11.2116
▁failing	-11.2118
▁allies	-11.2118
und	-11.2119
▁1956.	-11.2121
▁lutheran	-11.2123
▁hind	-11.2123
▁solomon	-11.2124
▁devon	-11.2125
▁militia	-11.2126
2)	-11.2127
▁reduction	-11.2128
▁sor	-11.213
▁moss	-11.2142
▁1958.	-11.2142
▁explained	-11.2144
▁receives	-11.2147
▁gur	-11.2147
▁flu	-11.2148
▁curator	-11.215
ls	-11.2154
▁auction	-11.2155
▁1998)	-11.2155
▁claiming	-11.2157
▁cru	-11.2158
▁seal	-11.2159
▁delegation	-11.2159
▁stroke	-11.216
▁pul	-11.216
▁liu	-11.2163
▁1957.	-11.2164
▁healthcare	-11.2167
▁indians	-11.2169
▁rises	-11.217
coming	-11.217
▁shire	-11.2174
wei	-11.2175
▁1948.	-11.2176
▁1943,	-11.2176
▁epic	-11.2176
▁maría	-11.2178
▁oakland	-11.2178
▁balance	-11.2181
▁silva	-11.2181
▁1959.	-11.2184
▁periods	-11.2184
▁murdered	-11.2186
▁mau	-11.2187
▁rec	-11.2189
▁2016–17	-11.2191
▁victories	-11.2192
▁slave	-11.2194
▁hms	-11.2194
hol	-11.2194
▁simultaneously	-11.2197
▁adventures	-11.2199
▁mechanism	-11.2201
▁updated	-11.2202
▁zimbabwe	-11.2209
▁devi	-11.221
tas	-11.2211
tail	-11.2213
▁else	-11.2214
▁zen	-11.2214
▁92	-11.2214
▁flights	-11.2214
hoe	-11.2215
▁spelling	-11.2215
▁seoul	-11.2218
▁1941,	-11.2218
”.	-11.2218
▁cle	-11.2219
▁bug	-11.2222
▁mara	-11.2222
▁myanmar	-11.2223
little	-11.2225
▁geneva	-11.2226
▁furniture	-11.2226
court	-11.2227
▁chilean	-11.2228
lac	-11.2229
▁ble	-11.2231
cott	-11.2234
fall	-11.2239
ābād	-11.2239
▁curling	-11.2242
▁cardiff	-11.2243
mbo	-11.2244
300	-11.2247
ía	-11.225
▁albania	-11.2251
mia	-11.2254
ske	-11.2259
lived	-11.2262
▁committees	-11.2265
▁rao	-11.2266
▁variations	-11.2267
fan	-11.2268
shaw	-11.2271
▁confederation	-11.2275
▁emphasis	-11.2275
▁ace	-11.2275
cm	-11.2278
▁hidden	-11.2279
▁pt	-11.228
▁eva	-11.228
▁agents	-11.2281
▁sharing	-11.2281
rai	-11.2283
▁resides	-11.2284
pper	-11.2285
▁yacht	-11.2285
▁explorer	-11.2287
▁beta	-11.2288
▁primera	-11.2291
▁exercise	-11.2293
–9	-11.2297
cker	-11.23
▁geology	-11.2304
▁pull	-11.2305
sim	-11.2307
▁manila	-11.2309
▁rot	-11.2313
▁budapest	-11.2315
eni	-11.2316
▁inhabited	-11.2318
chu	-11.232
▁sudan	-11.2322
oi	-11.2322
▁wyoming	-11.2322
▁owen	-11.2325
▁alma	-11.2325
▁essays	-11.233
▁localities	-11.2334
▁indianapolis	-11.2336
▁len	-11.2336
▁cameron	-11.2339
▁generated	-11.2342
▁1986)	-11.2343
▁configuration	-11.2343
▁1939,	-11.2345
▁91	-11.2347
▁89	-11.2348
aud	-11.235
▁experiment	-11.235
▁leagues	-11.2352
lc	-11.2352
▁sandstone	-11.2354
▁tape	-11.2355
▁1.5	-11.236
▁regulation	-11.2361
▁nicknamed	-11.2365
▁esp	-11.2366
▁conferences	-11.2367
▁demo	-11.2367
▁upcoming	-11.2367
▁hus	-11.237
▁extend	-11.2372
▁involves	-11.2373
▁fk	-11.2373
person	-11.2375
▁davies	-11.2375
▁hosting	-11.2378
ree	-11.2378
▁1837	-11.2381
vey	-11.2382
▁implemented	-11.2384
▁gin	-11.2387
beat	-11.2388
▁heats	-11.2389
▁dish	-11.2389
9,	-11.2391
hausen	-11.2394
▁catalogue	-11.2396
▁salvador	-11.2397
▁theoretical	-11.2397
hari	-11.2397
▁readers	-11.2398
▁1878	-11.24
▁ecuador	-11.2401
▁waste	-11.2402
god	-11.2403
▁quarterback	-11.2406
▁bars	-11.2408
▁reformed	-11.2413
www	-11.2413
▁1876	-11.2415
▁monk	-11.2416
isa	-11.2418
▁rhythm	-11.2419
▁87	-11.2419
dt	-11.242
produced	-11.2421
mble	-11.2422
▁1841	-11.2426
▁traveling	-11.2427
▁ferdinand	-11.2427
▁import	-11.243
ucci	-11.2431
▁remove	-11.2433
▁astronomer	-11.2434
▁arabia	-11.2434
▁justin	-11.2434
▁emerging	-11.2437
enko	-11.2439
▁floors	-11.2439
▁referring	-11.244
▁documented	-11.244
▁emmy	-11.2442
▁traditions	-11.2445
▁mak	-11.2446
▁export	-11.2446
▁gaining	-11.2449
▁93	-11.2451
▁greatly	-11.2454
▁lynn	-11.2457
▁ek	-11.2459
▁wai	-11.246
vert	-11.2465
▁arriving	-11.2465
▁destruction	-11.2468
rp	-11.2472
▁slovak	-11.2475
▁compact	-11.2476
▁aria	-11.2478
▁clo	-11.2481
▁fault	-11.2482
▁exploration	-11.2483
▁tommy	-11.2486
▁ple	-11.2487
▁repeated	-11.2487
asi	-11.2488
▁lamp	-11.249
▁collector	-11.249
▁lose	-11.249
▁alive	-11.2491
piece	-11.2495
▁gymnasium	-11.2495
▁dol	-11.2496
group	-11.2499
▁bombing	-11.2502
▁hopkins	-11.2504
pic	-11.2507
nick	-11.2509
▁rein	-11.2509
▁crowned	-11.2509
▁moves	-11.251
▁algeria	-11.2513
▁structural	-11.2514
hurst	-11.2514
▁circular	-11.2514
mani	-11.2518
▁1958,	-11.2519
▁1918,	-11.2519
power	-11.252
▁1940,	-11.2523
▁cannon	-11.2528
▁fraser	-11.2528
▁plantation	-11.2532
▁composers	-11.2532
▁haven	-11.2533
sat	-11.2534
▁hurling	-11.2534
▁imprisoned	-11.2535
sion	-11.2536
▁guilty	-11.2537
▁eve	-11.2541
▁acclaimed	-11.2542
▁economist	-11.2542
▁directing	-11.2543
rina	-11.2543
"|	-11.2544
hm	-11.2546
▁freshman	-11.255
▁naples	-11.2553
▁hardware	-11.2554
▁burn	-11.2554
evich	-11.2558
▁thor	-11.2561
lton	-11.2561
sham	-11.2561
▁monuments	-11.2562
rea	-11.2563
▁entrants	-11.2566
▁dangerous	-11.2568
▁moh	-11.2568
▁herald	-11.2571
▁cardinals	-11.2573
▁prove	-11.2575
▁1956,	-11.2575
▁fre	-11.2578
film	-11.2578
▁gaelic	-11.2578
▁fate	-11.2585
▁lim	-11.2587
▁entries	-11.2587
ular	-11.2588
▁recovery	-11.2588
▁pace	-11.2591
▁scandal	-11.2592
▁tanzania	-11.2592
zel	-11.2594
▁renovation	-11.2597
▁seeing	-11.2597
▁ut	-11.26
▁tampa	-11.2603
▁increasingly	-11.2605
▁ronald	-11.2605
▁vault	-11.2606
▁santos	-11.261
▁trump	-11.2614
▁colleges	-11.2616
hole	-11.2623
▁raising	-11.2624
▁liner	-11.2625
▁fuscous	-11.2627
hit	-11.2632
▁gy	-11.2632
▁underwent	-11.2641
▁slot	-11.2641
▁fundamental	-11.2642
oz	-11.2643
▁que	-11.2645
▁curtis	-11.2646
▁bryan	-11.2653
fest	-11.2653
▁retreat	-11.2658
tree	-11.2661
▁starter	-11.2664
▁defend	-11.2666
▁closest	-11.2669
5,	-11.2672
▁1947.	-11.2673
▁1872	-11.2674
▁dress	-11.2674
kat	-11.2675
gene	-11.2677
▁stern	-11.2677
▁cornell	-11.2678
▁viewed	-11.268
▁sleep	-11.2681
mara	-11.2682
▁colspan	-11.2683
▁extent	-11.2684
▁shock	-11.269
▁noise	-11.269
▁pseudo	-11.2692
▁gates	-11.2694
▁landed	-11.2694
▁improvement	-11.2694
shu	-11.2694
▁suburban	-11.2695
▁testament	-11.2695
▁telugu	-11.2699
asse	-11.27
tten	-11.27
▁ludwig	-11.27
▁corruption	-11.2702
▁protests	-11.2703
▁evil	-11.2703
▁supplied	-11.2707
▁simpson	-11.2709
▁winnipeg	-11.2712
▁massacre	-11.2718
▁steep	-11.2718
▁societies	-11.2719
▁genetic	-11.2722
▁henderson	-11.2723
beck	-11.2724
▁weapon	-11.2727
▁hood	-11.2729
kara	-11.2729
▁effectively	-11.273
▁ratings	-11.2732
▁sid	-11.2733
én	-11.2741
▁1985)	-11.2743
itis	-11.2745
ère	-11.275
▁malayalam	-11.2755
jer	-11.2757
▁eat	-11.2758
▁garrison	-11.276
tain	-11.2763
rit	-11.2764
▁gui	-11.2765
▁knew	-11.2766
▁hr	-11.2767
–10	-11.2769
▁sig	-11.2769
▁supposed	-11.2769
rail	-11.277
▁backing	-11.277
▁oh	-11.277
▁ellis	-11.2772
▁interactive	-11.2774
▁mutual	-11.2779
tie	-11.278
dre	-11.2782
▁cum	-11.2785
▁1844	-11.2785
▁ordinary	-11.2786
▁convent	-11.2787
ulf	-11.2789
▁1959,	-11.279
▁deployed	-11.2791
▁reader	-11.2792
▁belle	-11.2793
▁specimen	-11.2796
▁cy	-11.2797
▁functional	-11.2799
▁holdings	-11.2803
▁uruguay	-11.2806
▁debt	-11.2811
▁councillors	-11.2814
▁speedway	-11.2818
▁1838	-11.2823
▁charted	-11.2826
▁shoulder	-11.2827
▁allan	-11.2827
▁podcast	-11.2829
▁din	-11.2831
dian	-11.2831
▁1999)	-11.2831
▁shakespeare	-11.2831
▁1949,	-11.2832
▁wol	-11.2832
▁1871	-11.2834
▁baroque	-11.2837
bee	-11.2838
▁hospitals	-11.2839
▁mixture	-11.2841
▁praise	-11.2842
mill	-11.2843
pon	-11.2844
▁franco	-11.2844
lian	-11.2846
lich	-11.2849
▁skiing	-11.2854
oa	-11.2854
▁fl	-11.2855
▁fal	-11.2855
▁hotels	-11.2857
lag	-11.2858
▁cliff	-11.2858
▁grants	-11.2863
▁2015–16	-11.2864
▁1957,	-11.2864
miss	-11.2865
▁clinic	-11.2866
▁1820	-11.2867
▁shorter	-11.2869
igan	-11.2872
▁bailey	-11.2874
▁hd	-11.2877
▁pursuit	-11.2878
▁lung	-11.2882
ening	-11.2883
ér	-11.2884
▁enters	-11.2887
▁clement	-11.2887
▁wrestler	-11.2887
▁vest	-11.2888
▁trinidad	-11.2889
▁moderate	-11.289
▁appeals	-11.2892
▁1874	-11.2892
▁1839	-11.2894
▁journalists	-11.2894
▁raid	-11.2894
▁ox	-11.2896
stown	-11.2897
wr	-11.2897
▁gem	-11.2897
▁supervision	-11.2899
works	-11.2899
▁adrian	-11.2903
▁speakers	-11.2903
▁andrews	-11.2904
▁tasmania	-11.2906
▁casino	-11.2907
▁1955.	-11.2914
cle	-11.2914
dp	-11.2915
cp	-11.2916
▁lei	-11.2917
great	-11.2917
ār	-11.2919
▁trace	-11.2919
▁ole	-11.2919
▁varieties	-11.2922
▁nave	-11.2924
▁ultra	-11.2924
▁smoke	-11.2926
▁gig	-11.2927
tina	-11.2927
spir	-11.2928
roy	-11.2928
▁supporter	-11.2929
▁recreational	-11.2929
▁kap	-11.2932
▁palestine	-11.2933
▁tab	-11.2934
▁tons	-11.2946
▁nasa	-11.2948
▁pirates	-11.2949
▁mess	-11.295
john	-11.2952
▁rom	-11.2955
rg	-11.296
▁integration	-11.2963
▁random	-11.2964
▁signature	-11.2964
just	-11.2965
▁drink	-11.2966
▁fiba	-11.2967
–12	-11.2968
▁1836	-11.2968
▁1955,	-11.2971
▁governorate	-11.2973
▁parishes	-11.2973
▁dust	-11.2973
▁1861	-11.2974
kins	-11.2977
▁discussion	-11.2981
amba	-11.2981
▁todd	-11.2982
▁drawings	-11.2982
▁brass	-11.2982
▁suspension	-11.2982
name	-11.2988
▁belfast	-11.2988
stead	-11.299
▁erik	-11.2993
▁lucas	-11.2998
▁bart	-11.3001
▁evolved	-11.3002
â	-11.3008
▁carved	-11.3009
▁til	-11.301
▁succeed	-11.3011
▁destination	-11.3013
▁killer	-11.3015
▁sustainable	-11.3019
uka	-11.302
▁relating	-11.3021
▁adviser	-11.3025
▁richardson	-11.303
pot	-11.3034
▁swa	-11.3034
▁cartoon	-11.3035
pol	-11.3038
▁computing	-11.3039
▁nevertheless	-11.3039
▁enforcement	-11.3039
gro	-11.3041
▁flew	-11.3045
pit	-11.3046
▁sanctuary	-11.3047
▁registration	-11.3049
▁lind	-11.3051
▁wearing	-11.3051
▁gel	-11.3052
▁1960,	-11.3055
▁sn	-11.3058
▁um	-11.3059
▁sher	-11.3061
▁ll	-11.3061
designated	-11.3061
▁trunk	-11.3062
nov	-11.3063
▁mei	-11.3066
▁porter	-11.3069
▁commentary	-11.3073
grad	-11.3074
▁ober	-11.3076
▁favourite	-11.3076
▁cutting	-11.3078
▁hear	-11.3079
▁carlo	-11.3079
▁travelling	-11.308
▁renewed	-11.3082
speaking	-11.3083
▁1842	-11.3083
▁guru	-11.3083
ock	-11.3083
▁1939.	-11.3087
▁cruise	-11.3087
▁missile	-11.309
▁tsu	-11.3091
▁fountain	-11.3093
▁dogs	-11.3094
▁coins	-11.3098
▁platinum	-11.3099
▁lamb	-11.31
▁$5	-11.3101
-0	-11.3101
series	-11.3103
▁nineteenth	-11.3103
▁prisoner	-11.3104
▁halifax	-11.3106
▁invitation	-11.3107
lab	-11.3113
▁isle	-11.3114
▁1812	-11.3115
vol	-11.3118
iah	-11.3119
mini	-11.3119
▁1873	-11.312
▁publishes	-11.3121
▁bul	-11.3124
▁helsinki	-11.3125
▁chat	-11.3125
▁tackle	-11.3128
▁cas	-11.3128
▁acc	-11.3129
▁font	-11.313
▁1953.	-11.3133
hang	-11.3134
rna	-11.3135
▁interesting	-11.3139
▁batsman	-11.314
▁chronicle	-11.3142
yev	-11.3144
▁scorer	-11.3144
▁1865	-11.3155
▁capitol	-11.3157
▁specializing	-11.3158
iki	-11.3159
▁leipzig	-11.3162
iidae	-11.3162
▁memphis	-11.3165
▁suggest	-11.3165
▁revised	-11.3166
kes	-11.3166
▁cheese	-11.3167
▁sean	-11.3168
▁beneath	-11.3168
▁wealth	-11.317
▁heavyweight	-11.3173
▁reverse	-11.3174
▁terrace	-11.3177
code	-11.3177
▁actively	-11.3177
▁suite	-11.318
gre	-11.318
▁pil	-11.318
▁boards	-11.318
▁rochester	-11.318
▁anyone	-11.3181
▁karnataka	-11.3182
▁1954.	-11.3183
osis	-11.3184
▁1843	-11.3184
▁sofia	-11.3185
▁kn	-11.3185
▁eugene	-11.3187
▁antarctica	-11.3188
▁perennial	-11.3189
▁gymnastics	-11.3189
▁heading	-11.3191
quin	-11.3194
▁mw	-11.3197
▁roller	-11.3198
▁rig	-11.3202
▁wish	-11.3203
▁santo	-11.3205
▁1984)	-11.3206
▁1864	-11.321
▁medalist	-11.3213
▁lil	-11.3216
keeper	-11.3216
sex	-11.322
tern	-11.3223
▁sponsor	-11.3224
▁1868	-11.3224
▁presentation	-11.3226
▁filmmaker	-11.3226
▁boarding	-11.3226
shin	-11.3228
lf	-11.3229
▁gall	-11.3231
▁relevant	-11.3233
▁mast	-11.3238
▁mandate	-11.324
▁patterns	-11.3241
▁mou	-11.3241
▁spider	-11.3245
▁snake	-11.3252
jin	-11.3253
▁challenger	-11.3254
▁julia	-11.3255
show	-11.3255
▁benefits	-11.3255
▁knock	-11.3256
color	-11.3257
▁2–0	-11.3258
▁gol	-11.3259
hip	-11.3259
▁caroline	-11.326
▁2014–15	-11.3262
▁nancy	-11.3268
▁stereo	-11.3268
▁preston	-11.3271
eth	-11.3271
▁wr	-11.3273
▁instruction	-11.3278
iu	-11.3278
▁vary	-11.328
▁burns	-11.3282
▁grid	-11.3284
▁nas	-11.3286
▁101	-11.3286
▁certification	-11.3286
▁frontier	-11.3287
▁1954,	-11.3287
▁dominant	-11.3289
▁customs	-11.329
try	-11.3291
▁variation	-11.3292
apa	-11.3293
iba	-11.3294
▁1867	-11.3296
▁1863	-11.3297
tle	-11.3297
hra	-11.3298
▁commitment	-11.33
▁quit	-11.33
ander	-11.3301
▁bounded	-11.3308
▁kala	-11.3309
▁pride	-11.3309
▁stevens	-11.331
dio	-11.3312
▁acclaim	-11.3313
▁2:	-11.3314
stock	-11.3315
▁albany	-11.3318
▁crow	-11.332
▁infant	-11.3321
▁1835	-11.3322
▁deutsche	-11.3323
▁tune	-11.3326
▁apex	-11.3328
qi	-11.3329
▁georg	-11.3332
▁1918.	-11.3332
▁1942.	-11.3333
▁danger	-11.3333
▁apply	-11.3334
▁marco	-11.3335
ographic	-11.3338
▁bearing	-11.3339
▁violent	-11.334
▁interpretation	-11.334
▁aerial	-11.3342
_3	-11.3342
lim	-11.3345
▁stretch	-11.3349
▁colin	-11.3349
udi	-11.3351
oro	-11.3352
hin	-11.3354
left	-11.3354
▁equity	-11.3356
▁presents	-11.3357
▁1960.	-11.3357
▁visits	-11.3358
▁teeth	-11.3358
▁atmosphere	-11.3358
▁1952,	-11.3359
ée	-11.3363
ising	-11.3364
▁toll	-11.3366
▁convert	-11.3366
▁departed	-11.3368
▁difficulties	-11.3368
ssa	-11.337
▁torpedo	-11.3371
kur	-11.3372
▁4-	-11.3373
▁wilderness	-11.3377
▁ear	-11.3377
▁facebook	-11.3378
ments	-11.3379
▁requested	-11.3379
▁dale	-11.3385
▁governance	-11.3386
▁touchdowns	-11.3386
▁feminist	-11.3386
▁exhibits	-11.3388
▁indicating	-11.3388
▁/&	-11.3389
▁nice	-11.339
▁aberdeen	-11.3393
▁hil	-11.3394
▁1953,	-11.3395
▁wonder	-11.3396
▁diversity	-11.3399
rot	-11.3401
/20	-11.3402
▁94	-11.3402
▁1949.	-11.3403
jack	-11.3405
▁marion	-11.3407
▁depicted	-11.3408
▁empty	-11.341
▁manufacturers	-11.341
▁kiss	-11.341
▁governed	-11.3411
wind	-11.3412
▁shooter	-11.3413
▁aaron	-11.3413
▁handed	-11.3414
fur	-11.3415
▁endangered	-11.3415
▁1952.	-11.3417
▁dreams	-11.3419
▁portions	-11.3419
leg	-11.342
▁alien	-11.3421
▁waiting	-11.3422
ische	-11.3424
▁prepare	-11.3427
▁employee	-11.3428
▁navigation	-11.3429
▁lithuanian	-11.343
▁electorate	-11.3431
▁ethiopia	-11.3437
▁temperatures	-11.3439
▁treat	-11.3441
▁unofficial	-11.3442
mile	-11.3446
▁temporarily	-11.3452
▁brewery	-11.3453
▁dom	-11.3454
sized	-11.3454
▁finalist	-11.3454
▁auxiliary	-11.3455
tun	-11.3456
▁leslie	-11.3457
▁independently	-11.3457
oj	-11.3458
▁dy	-11.3463
▁macedonia	-11.3464
▁guidance	-11.3464
▁lineup	-11.3468
lane	-11.3471
▁displays	-11.3471
▁mohammad	-11.3472
▁generations	-11.3472
▁maiden	-11.3472
▁mature	-11.3472
▁procedure	-11.3474
▁trouble	-11.3476
▁gathering	-11.3477
▁gri	-11.3478
▁answer	-11.348
▁lights	-11.3482
▁reg	-11.3482
vid	-11.3482
▁rectangular	-11.3483
▁farms	-11.3486
▁depicts	-11.3487
▁kre	-11.3487
rel	-11.3488
imo	-11.3489
▁beetles	-11.3491
▁hide	-11.3491
▁reid	-11.3492
▁numbered	-11.3494
gia	-11.3494
▁vegetation	-11.3496
offs	-11.3497
▁1983)	-11.35
▁ellen	-11.35
▁1832	-11.3502
▁promotional	-11.3502
▁sw	-11.3509
▁deemed	-11.351
▁pursued	-11.351
▁twentieth	-11.3511
▁mann	-11.3514
endra	-11.3517
▁editing	-11.3518
▁climbing	-11.352
▁brighton	-11.3522
distance	-11.3523
▁emma	-11.3528
▁atp	-11.353
▁literally	-11.3532
▁protagonist	-11.3536
vir	-11.3536
▁theorem	-11.3538
▁mario	-11.3538
phil	-11.3538
▁publishers	-11.354
▁shri	-11.3548
▁principle	-11.3548
▁bros	-11.3549
built	-11.355
▁bavaria	-11.3557
▁tribal	-11.3557
▁stamp	-11.3557
▁depicting	-11.3558
▁nat	-11.3563
ement	-11.3564
dun	-11.3566
▁investors	-11.3566
▁brun	-11.3567
▁therapy	-11.3568
ssen	-11.3569
odi	-11.357
▁marcus	-11.3573
▁discussed	-11.3574
▁circumstances	-11.3574
body	-11.3576
▁madagascar	-11.3578
▁chambers	-11.3579
▁eg	-11.358
▁duncan	-11.358
▁preferred	-11.358
▁stick	-11.3583
▁pete	-11.3583
▁tales	-11.3586
▁varies	-11.359
eno	-11.359
▁afternoon	-11.3594
▁1981)	-11.3594
▁tender	-11.3595
▁1940.	-11.3595
▁strange	-11.3596
vu	-11.3597
▁sight	-11.3598
▁ussr	-11.3598
base	-11.3598
stic	-11.3598
▁eclipse	-11.3601
rov	-11.3601
▁leone	-11.3602
▁fiji	-11.3603
▁seem	-11.3603
▁files	-11.3604
▁loch	-11.3605
▁1982)	-11.3609
▁lying	-11.3611
▁shaped	-11.3611
ched	-11.3614
▁clearly	-11.3615
▁petition	-11.3615
▁illustrator	-11.3618
▁chal	-11.3618
▁shed	-11.3619
▁archaeology	-11.362
▁130	-11.3621
-9	-11.3623
▁permanently	-11.3624
evo	-11.3625
▁competes	-11.3627
▁handle	-11.3628
▁angels	-11.3628
ants	-11.3629
▁prairie	-11.363
▁lifestyle	-11.363
ison	-11.363
▁manuscripts	-11.363
ual	-11.363
▁accredited	-11.3631
▁footage	-11.3633
▁1862	-11.3634
▁armstrong	-11.3634
▁2-	-11.3634
▁brooks	-11.3636
▁fol	-11.3638
▁bread	-11.3639
▁1943.	-11.3639
▁lease	-11.364
iko	-11.364
▁whitish	-11.3642
▁altar	-11.3642
▁looks	-11.3644
▁1941.	-11.3646
▁dissertation	-11.3648
▁staged	-11.365
▁jag	-11.3651
▁crest	-11.3653
▁contestants	-11.3656
ffer	-11.3656
▁pavilion	-11.3657
▁titular	-11.3657
▁gym	-11.3658
▁dong	-11.3658
▁ak	-11.3659
▁zhang	-11.366
▁carpenter	-11.3661
▁consulting	-11.3663
▁maintains	-11.3665
ann	-11.3667
▁aboard	-11.3668
▁divorce	-11.3672
▁stri	-11.3673
▁rhine	-11.3674
trans	-11.3674
nne	-11.3675
▁sox	-11.3675
▁announcement	-11.3675
any	-11.3679
▁chaired	-11.3679
rama	-11.368
▁catalog	-11.368
▁syndrome	-11.368
▁derives	-11.3682
▁manual	-11.3682
▁sac	-11.3683
▁dealing	-11.3683
▁thunder	-11.3684
▁fighters	-11.3685
▁2013–14	-11.3685
▁basel	-11.3688
▁crack	-11.3688
pie	-11.3689
ain	-11.369
▁owns	-11.3692
▁crimes	-11.3693
▁hatch	-11.3694
cd	-11.3696
▁1951,	-11.3697
▁measuring	-11.3699
–14	-11.37
▁sees	-11.37
▁delayed	-11.3702
▁suffolk	-11.3702
▁prayer	-11.3704
▁gibson	-11.3705
▁cali	-11.3705
▁polar	-11.3705
ym	-11.3707
▁onwards	-11.3708
▁kolkata	-11.3709
▁chennai	-11.3709
mund	-11.3719
–2	-11.372
▁legendary	-11.372
▁transmitter	-11.3721
▁tested	-11.3721
▁danny	-11.3721
▁gir	-11.3721
▁challenges	-11.3722
▁attraction	-11.3723
▁tara	-11.3723
▁lisa	-11.3724
lake	-11.373
▁sculptures	-11.373
▁sullivan	-11.373
sted	-11.3731
"&	-11.3733
▁dai	-11.3733
iff	-11.3734
gol	-11.3735
▁collect	-11.3736
vat	-11.374
▁125	-11.3741
▁worn	-11.3742
▁conducting	-11.3743
▁plymouth	-11.375
ule	-11.3752
▁kenneth	-11.3753
▁holmes	-11.3754
-11	-11.3754
saint	-11.3754
▁stress	-11.3754
▁rey	-11.3757
gua	-11.3757
▁amendment	-11.3759
▁malaysian	-11.3763
▁nottingham	-11.3768
▁sociology	-11.3768
▁poets	-11.3768
▁tight	-11.377
▁occasional	-11.3771
mount	-11.3771
▁invented	-11.3773
ingham	-11.3774
▁fen	-11.3776
▁mé	-11.3778
▁confluence	-11.3779
▁colleagues	-11.378
▁mouse	-11.3781
▁windsor	-11.3781
▁garage	-11.3786
▁saved	-11.3788
dou	-11.3788
▁cooperative	-11.3793
▁vital	-11.3793
hart	-11.3795
▁airing	-11.3796
▁regent	-11.3797
▁aero	-11.3798
▁virus	-11.38
▁ib	-11.3801
▁lover	-11.3801
order	-11.3802
wide	-11.3803
▁victim	-11.3805
▁helicopter	-11.3806
▁ic	-11.3806
▁proof	-11.3808
bot	-11.3809
uck	-11.3811
hui	-11.3812
▁pie	-11.3814
▁eli	-11.3814
▁graves	-11.3816
bourne	-11.3816
hot	-11.3817
▁stationed	-11.3817
lang	-11.3818
▁1938,	-11.3818
▁server	-11.3819
rou	-11.3821
gger	-11.3821
▁andhra	-11.3822
▁unity	-11.3822
▁kel	-11.3826
▁1950,	-11.3826
women	-11.3827
▁milton	-11.383
df	-11.3832
▁1951.	-11.3832
▁consul	-11.3833
▁escaped	-11.3833
▁bases	-11.3836
ides	-11.3836
▁citizenship	-11.3837
oe	-11.3839
▁reviewer	-11.3841
him	-11.3843
▁botanist	-11.3846
▁refuge	-11.3846
▁1971)	-11.3847
▁hua	-11.3847
▁plaque	-11.3848
▁stems	-11.3848
▁fil	-11.3854
▁pointed	-11.3856
▁hum	-11.3856
▁behaviour	-11.3859
▁notre	-11.386
▁telegraph	-11.3861
▁museums	-11.3862
around	-11.3865
▁carroll	-11.3865
▁furthermore	-11.3866
▁mack	-11.3872
▁optical	-11.3874
quet	-11.3877
▁vic	-11.3877
rak	-11.3883
▁pipe	-11.3883
▁criteria	-11.3885
ath	-11.3887
ç	-11.3888
third	-11.389
▁pump	-11.3891
imi	-11.3893
dos	-11.3895
▁commentator	-11.3895
tsu	-11.3903
mol	-11.3903
▁bod	-11.3904
▁stake	-11.3907
mie	-11.3911
▁spiral	-11.3913
tine	-11.3913
▁leicester	-11.3915
▁creator	-11.392
inda	-11.3924
▁investigate	-11.3925
▁marshal	-11.3925
▁bran	-11.3925
▁sheet	-11.3929
▁carnegie	-11.393
▁worst	-11.3931
▁oriental	-11.3933
ière	-11.3938
▁exposure	-11.3939
▁graphics	-11.3943
▁1919.	-11.3943
people	-11.3946
▁lateral	-11.3949
▁andré	-11.3949
cock	-11.3953
omo	-11.3953
▁rates	-11.3953
▁def	-11.3954
▁teaches	-11.3955
▁triangle	-11.3956
cra	-11.396
▁partnered	-11.396
▁taka	-11.3963
french	-11.3965
▁conjunction	-11.3967
comp	-11.3968
nai	-11.3969
▁slam	-11.3969
▁cedar	-11.397
▁dec	-11.397
▁tend	-11.3971
▁1917,	-11.3976
hem	-11.3977
ña	-11.3977
▁watershed	-11.3978
mil	-11.3978
▁humanities	-11.3981
bass	-11.3983
cro	-11.3985
▁kot	-11.3988
▁keel	-11.3989
▁referendum	-11.3993
▁newfoundland	-11.3995
▁colours	-11.3996
▁pseudonym	-11.3998
anne	-11.4001
lina	-11.4001
▁chaplain	-11.4001
▁1938.	-11.4002
▁diving	-11.4005
▁1969)	-11.4006
▁saxony	-11.4006
week	-11.4007
▁bolivia	-11.4007
bla	-11.4011
ography	-11.4013
both	-11.4015
▁climb	-11.4017
▁manages	-11.4017
▁lighting	-11.4018
▁telescope	-11.4022
▁slope	-11.4023
▁synthesis	-11.4026
▁dictionary	-11.4027
▁viscount	-11.4028
▁feeling	-11.4028
▁merc	-11.4031
▁botanical	-11.4036
▁arrangements	-11.4038
▁chandra	-11.404
▁1866	-11.4043
▁publish	-11.4043
▁senators	-11.4044
▁lecture	-11.4045
▁samples	-11.4046
▁hang	-11.4048
▁postal	-11.405
▁immigration	-11.4054
▁1979)	-11.4054
▁collapse	-11.4055
0%	-11.4056
▁monitor	-11.4057
▁llc	-11.4057
▁lightweight	-11.4058
▁rotation	-11.406
kam	-11.406
▁dense	-11.4066
▁macro	-11.4069
▁1980)	-11.4072
ush	-11.4075
▁pon	-11.4079
▁francesco	-11.4079
▁impressive	-11.408
▁rivals	-11.4082
▁2000)	-11.4086
▁louisville	-11.4087
▁warning	-11.4093
▁1:	-11.4094
▁screened	-11.4095
vet	-11.4096
▁bengali	-11.4097
▁roth	-11.4099
▁claude	-11.4102
▁measured	-11.4103
▁andrea	-11.4104
por	-11.4106
▁customer	-11.4107
▁duck	-11.4112
▁posts	-11.4113
▁£1	-11.4113
▁bau	-11.4113
alo	-11.4114
▁wednesday	-11.4116
▁heinrich	-11.4117
▁meter	-11.4118
▁breast	-11.4118
▁tone	-11.412
▁sham	-11.412
hood	-11.412
▁unless	-11.4123
▁suddenly	-11.4124
umi	-11.4125
▁contributor	-11.4125
roman	-11.4128
▁illustrations	-11.4128
mina	-11.413
▁basement	-11.4131
▁objective	-11.4132
skoye	-11.4133
▁2,000	-11.4134
wrote	-11.4135
▁helm	-11.4136
▁bishops	-11.4139
▁delegates	-11.414
▁insects	-11.414
front	-11.4143
°	-11.4145
▁ang	-11.4145
▁experts	-11.4147
▁1950.	-11.4149
▁fluid	-11.415
▁lords	-11.4153
▁salon	-11.4153
▁shipyard	-11.4155
wu	-11.4156
nel	-11.4159
▁orlando	-11.4161
▁1972)	-11.4166
nier	-11.4166
▁bihar	-11.4167
▁citing	-11.4167
▁prop	-11.4169
▁flies	-11.417
▁uprising	-11.417
▁quantum	-11.4173
▁robertson	-11.4174
rud	-11.4179
▁dubai	-11.418
▁warehouse	-11.418
than	-11.4181
▁beaten	-11.4182
▁performs	-11.4183
▁peaks	-11.4186
▁ernst	-11.4187
▁associations	-11.4187
▁dollars	-11.4189
▁maple	-11.4191
▁observations	-11.4191
▁emb	-11.4192
liga	-11.4195
▁cove	-11.4198
▁trails	-11.4199
▁spectrum	-11.4199
stadt	-11.4199
▁mali	-11.42
▁1937,	-11.42
▁panchayat	-11.4201
sko	-11.4202
▁lawsuit	-11.4202
holm	-11.4203
▁hugo	-11.4203
▁mare	-11.4208
anta	-11.421
bird	-11.421
ded	-11.4213
ici	-11.4214
▁jer	-11.4215
▁lem	-11.4219
▁stor	-11.4221
▁innovative	-11.4222
serv	-11.4223
;"|	-11.4225
wheel	-11.4228
▁lancaster	-11.4228
▁inches	-11.4229
▁(25	-11.4231
▁arcade	-11.4233
igh	-11.4234
▁discipline	-11.4235
▁kru	-11.4236
▁mythology	-11.4241
▁provisional	-11.4241
▁1973)	-11.4243
▁ot	-11.4244
inger	-11.4246
spect	-11.4247
yon	-11.425
▁1970)	-11.4256
▁ling	-11.4256
▁1919,	-11.4257
▁jointly	-11.4259
▁stefan	-11.4259
▁edges	-11.4261
▁fauna	-11.4262
fiction	-11.4263
ulu	-11.4264
rá	-11.4269
▁eventual	-11.427
▁axis	-11.4272
▁fran	-11.4272
▁iraqi	-11.4272
▁swamp	-11.4272
▁2012–13	-11.4275
▁volcanic	-11.4277
▁corridor	-11.428
▁halt	-11.428
▁hp	-11.4283
▁voices	-11.4283
▁vacant	-11.4284
▁automatically	-11.4287
▁abstract	-11.4289
six	-11.4292
brien	-11.4293
▁sep	-11.4296
▁icelandic	-11.4297
250	-11.4299
▁prussia	-11.4303
▁zagreb	-11.4305
▁für	-11.4306
rm	-11.4307
cell	-11.4309
▁vicinity	-11.4312
▁latvia	-11.4313
▁catch	-11.4314
▁rode	-11.4316
▁dra	-11.4319
▁sergeant	-11.4319
▁gt	-11.4321
bou	-11.4325
▁dubbed	-11.4328
▁chicken	-11.4328
▁streaming	-11.4333
lei	-11.4333
▁1968)	-11.4335
▁camps	-11.4339
=|	-11.434
sten	-11.4341
dimensional	-11.4345
ios	-11.4348
onic	-11.4349
ering	-11.4354
cen	-11.4362
dha	-11.4363
▁fork	-11.4365
tour	-11.4367
dong	-11.4367
▁mild	-11.4369
▁2020)	-11.437
▁contents	-11.437
▁bibliography	-11.4371
▁edgar	-11.4372
▁identification	-11.4375
akh	-11.4376
▁kashmir	-11.4377
▁sword	-11.438
▁drinking	-11.4382
rang	-11.4385
▁broadcaster	-11.4385
▁1964)	-11.4388
▁berth	-11.4388
▁removal	-11.4389
▁lesser	-11.4393
▁sche	-11.4394
ify	-11.4395
▁protocol	-11.4397
▁helps	-11.4398
▁av	-11.4398
▁sitcom	-11.4399
▁1834	-11.4399
▁waived	-11.44
ald	-11.4402
▁julius	-11.4404
cos	-11.4404
▁1974)	-11.4408
▁celebrity	-11.4408
ude	-11.441
▁treasure	-11.441
▁1977)	-11.4412
▁deputies	-11.4416
▁whale	-11.4417
▁1914,	-11.4418
▁llan	-11.4419
mba	-11.4419
▁1936,	-11.4419
▁pension	-11.442
▁duchy	-11.4421
▁sant	-11.4421
▁options	-11.4421
ress	-11.4424
▁wen	-11.4427
▁licence	-11.4427
▁escort	-11.4428
▁recalled	-11.4431
▁expensive	-11.4432
gn	-11.4434
▁muslims	-11.4435
▁pav	-11.4437
chal	-11.4438
▁rent	-11.4438
▁elm	-11.4439
grand	-11.4439
▁refugees	-11.4439
▁kos	-11.4439
district	-11.4441
ár	-11.4442
▁editors	-11.4443
kra	-11.4445
▁negotiations	-11.4445
▁prolific	-11.4446
▁bert	-11.4448
▁package	-11.4449
▁qatar	-11.445
nate	-11.4451
woman	-11.4452
▁yuan	-11.4457
▁generate	-11.4458
▁doctors	-11.4458
▁negro	-11.4461
ike	-11.4461
▁kurt	-11.4462
▁battles	-11.4463
▁thursday	-11.4463
▁lens	-11.4464
▁topic	-11.4466
▁tuesday	-11.4469
history	-11.447
▁gathered	-11.447
▁colombian	-11.4471
▁reopened	-11.4476
app	-11.4477
▁transformation	-11.4477
▁heaven	-11.4481
▁spy	-11.4482
▁cairo	-11.4482
▁lima	-11.4483
last	-11.4484
▁prospect	-11.4484
▁lis	-11.4485
▁panels	-11.4487
▁linda	-11.4488
▁1978)	-11.4488
rine	-11.449
▁1975)	-11.449
▁mask	-11.4492
sum	-11.4494
▁honey	-11.4495
▁clare	-11.4498
source	-11.4498
▁bowler	-11.45
▁constituent	-11.4503
▁1965)	-11.4503
▁1831	-11.4503
gard	-11.4504
▁ultimate	-11.4507
▁emily	-11.4507
▁client	-11.4508
▁saga	-11.4508
▁input	-11.451
▁rip	-11.4511
▁140	-11.4513
shore	-11.4514
▁portal	-11.4516
▁worcester	-11.4517
▁ana	-11.4518
▁1976)	-11.452
▁clara	-11.452
▁shaft	-11.452
▁historians	-11.4523
▁1967)	-11.4523
▁fallen	-11.4523
▁array	-11.4527
▁leather	-11.4529
young	-11.4533
▁powell	-11.4533
▁ud	-11.4533
▁recurring	-11.4534
▁plates	-11.4536
▁melody	-11.4536
tica	-11.4537
▁pepper	-11.4538
lor	-11.4539
▁jaw	-11.4539
▁mcdonald	-11.4539
tell	-11.454
▁dash	-11.454
▁lev	-11.4541
▁inclusion	-11.4542
▁bundesliga	-11.4542
▁bos	-11.4545
dle	-11.4545
sr	-11.4546
▁pulled	-11.4546
▁touchdown	-11.4546
▁psychological	-11.4546
mouth	-11.4548
▁nun	-11.4548
duct	-11.4549
gur	-11.4551
chrom	-11.4552
spor	-11.4553
▁vector	-11.4553
corn	-11.4554
▁associates	-11.4555
▁schi	-11.4555
▁bradley	-11.4555
▁burton	-11.4558
▁succeeding	-11.4558
▁edwin	-11.4559
▁mentor	-11.4561
▁cel	-11.4563
iger	-11.4564
▁rams	-11.4569
▁familiar	-11.4571
aux	-11.4571
▁scha	-11.4571
oides	-11.4572
lou	-11.4577
▁basket	-11.4578
date	-11.458
▁basal	-11.4581
tham	-11.4583
▁sure	-11.4585
roll	-11.4585
▁pupil	-11.4585
▁lizard	-11.4586
ost	-11.4588
▁1963)	-11.459
▁disk	-11.4591
▁gerald	-11.4593
▁folded	-11.4596
▁johannes	-11.4596
▁approached	-11.4597
▁crambidae	-11.4599
▁meyer	-11.4599
garh	-11.4599
▁arctic	-11.46
▁1966)	-11.4603
▁filter	-11.4604
▁gp	-11.4605
▁sophomore	-11.4608
▁collecting	-11.4615
▁paralympic	-11.4617
▁detail	-11.462
▁gam	-11.4621
▁bankruptcy	-11.4623
playing	-11.4623
▁exactly	-11.4624
▁berry	-11.4626
▁crawford	-11.4628
oto	-11.4633
▁jorge	-11.4634
▁mata	-11.4634
▁dozen	-11.4641
▁deals	-11.4643
▁lunar	-11.4643
gus	-11.4645
ws	-11.4646
▁tehran	-11.4647
▁improvements	-11.4652
▁springfield	-11.4652
▁portsmouth	-11.4653
glo	-11.4654
erson	-11.4654
▁kro	-11.4654
▁dh	-11.4654
▁jockey	-11.4655
pac	-11.4655
▁martha	-11.4657
▁glenn	-11.4657
▁erect	-11.4658
▁teammate	-11.4658
enstein	-11.4659
road	-11.4659
▁talks	-11.4664
▁chad	-11.4668
rec	-11.4668
▁manufacture	-11.4668
▁wicket	-11.4669
▁rs	-11.467
▁accommodation	-11.467
▁constellation	-11.4671
▁banker	-11.4672
▁ming	-11.4678
grave	-11.4679
▁abbot	-11.4681
▁herman	-11.4681
tation	-11.4682
lets	-11.4682
lea	-11.4682
▁1937.	-11.4683
▁thinking	-11.4683
ça	-11.4684
▁rh	-11.4685
bil	-11.4685
▁1920,	-11.4686
▁beds	-11.4686
fly	-11.4688
▁unsuccessfully	-11.469
▁payment	-11.4691
▁160	-11.4695
ort	-11.4695
▁fold	-11.4697
▁spi	-11.4697
▁girlfriend	-11.47
▁skier	-11.47
▁sometime	-11.4701
ode	-11.4702
▁rebel	-11.4702
▁christianity	-11.4703
▁goddess	-11.4705
tian	-11.4705
▁yoshi	-11.4708
site	-11.4709
▁permitted	-11.471
rac	-11.4711
▁cata	-11.4711
▁intervention	-11.4713
▁showcase	-11.4714
▁highland	-11.4716
▁terrain	-11.4717
▁grandmother	-11.4721
▁fiscal	-11.4722
▁joins	-11.4725
▁cran	-11.4725
▁sd	-11.4726
▁allocated	-11.4728
▁charitable	-11.4732
▁monroe	-11.4733
care	-11.4734
▁mut	-11.4735
▁1962)	-11.4736
▁laser	-11.474
xa	-11.4741
▁cooking	-11.4744
▁nathan	-11.4746
▁slowly	-11.4746
kawa	-11.4747
▁hc	-11.4748
▁700	-11.4753
▁cameroon	-11.4754
haus	-11.4755
▁epithet	-11.4756
▁peri	-11.4756
▁apostolic	-11.4756
▁jets	-11.4757
▁surprise	-11.476
▁sebastian	-11.4763
▁palestinian	-11.4764
craft	-11.4765
▁hyderabad	-11.4768
ario	-11.4769
▁logic	-11.4771
ilo	-11.4771
▁watts	-11.4774
▁genres	-11.4774
plan	-11.4781
▁nascar	-11.4783
▁motors	-11.4784
▁rou	-11.4784
▁carriage	-11.4785
▁indeed	-11.4787
▁archdiocese	-11.4787
▁declaration	-11.4787
▁mori	-11.4788
▁centres	-11.4791
combe	-11.4791
▁ibm	-11.4793
bound	-11.4793
▁supervisor	-11.4796
▁lynch	-11.4796
▁amy	-11.4796
▁shall	-11.4797
hof	-11.4798
▁tourists	-11.4799
ome	-11.4799
leigh	-11.4802
▁polytechnic	-11.4805
▁deposits	-11.4807
▁mercury	-11.4808
america	-11.4809
▁skill	-11.4809
dog	-11.4813
▁kla	-11.4816
▁stoke	-11.4817
▁demonstrated	-11.4818
mala	-11.4818
grade	-11.4819
▁1917.	-11.4823
▁marina	-11.4824
▁troy	-11.4824
▁cologne	-11.4828
heart	-11.483
▁1935.	-11.4831
hum	-11.4832
cam	-11.4832
▁bedford	-11.4833
kas	-11.4834
▁mcg	-11.4835
▁potter	-11.4836
mul	-11.4839
▁handled	-11.4841
▁arsenal	-11.4843
▁mint	-11.4843
▁beaver	-11.4843
▁nsw	-11.4844
▁pleasant	-11.4844
uru	-11.4847
▁prizes	-11.4849
▁echo	-11.4849
▁retain	-11.4854
▁blast	-11.4857
▁turin	-11.4857
▁irregular	-11.4857
rose	-11.4859
▁challenged	-11.4862
yar	-11.4862
▁eleventh	-11.4864
▁batted	-11.4865
▁montenegro	-11.4868
▁keen	-11.4871
author	-11.4872
▁blend	-11.4873
signed	-11.4874
▁receptor	-11.4874
hun	-11.4874
▁reich	-11.4876
▁hurricane	-11.4877
▁centered	-11.4877
cca	-11.4879
▁"[	-11.4879
▁colonies	-11.4881
▁cp	-11.4883
▁vent	-11.4887
▁booth	-11.4888
▁reddish	-11.4888
▁gymnast	-11.489
▁kei	-11.4891
▁gla	-11.4892
▁nordic	-11.4892
▁1935,	-11.4894
▁cottage	-11.4895
▁separately	-11.4895
▁cry	-11.4895
▁ulster	-11.4898
cola	-11.4899
▁patricia	-11.4899
▁premises	-11.4901
▁devil	-11.4901
▁swift	-11.4901
▁1833	-11.4901
▁roosevelt	-11.4902
▁decoration	-11.4902
▁alto	-11.4903
▁chiefs	-11.4904
▁taxi	-11.4905
▁computers	-11.4906
▁abd	-11.4907
une	-11.4908
pala	-11.491
▁possibility	-11.4914
▁dorothy	-11.4917
▁decisions	-11.4917
▁engage	-11.4918
–13	-11.4919
▁yugoslav	-11.4922
▁expressway	-11.4923
hab	-11.4924
▁funk	-11.4929
▁barnes	-11.4933
▁bron	-11.4933
dé	-11.4933
gha	-11.4934
▁anthem	-11.4935
▁klein	-11.4936
▁mani	-11.4937
vil	-11.494
iga	-11.4946
duc	-11.4946
▁bac	-11.4947
▁drainage	-11.4947
abi	-11.4948
▁webb	-11.4952
▁spike	-11.4952
▁accounting	-11.4952
▁marcel	-11.4952
bir	-11.4953
screen	-11.4954
▁czechoslovakia	-11.4954
omy	-11.4954
▁fuselage	-11.4957
ote	-11.4958
dur	-11.496
▁kannada	-11.496
▁(21	-11.4963
▁stops	-11.4966
▁aviv	-11.4968
▁approaches	-11.4968
vision	-11.4968
▁prominence	-11.4968
▁segunda	-11.4969
▁baltic	-11.497
▁strain	-11.497
▁1936.	-11.4971
-23	-11.4974
▁pf	-11.4975
▁seventeen	-11.4976
ashi	-11.4977
▁tobacco	-11.4977
seven	-11.4977
▁revolt	-11.4981
▁ska	-11.4982
eira	-11.4982
▁oral	-11.4983
sign	-11.4987
▁peaking	-11.4987
pos	-11.4988
▁pilots	-11.4989
▁distant	-11.4991
▁assignment	-11.4992
▁winger	-11.4993
▁oz	-11.4994
▁bergen	-11.4994
▁maker	-11.4996
▁profit	-11.5002
▁admission	-11.5003
▁withdrawn	-11.5004
▁expelled	-11.5004
▁juvenile	-11.5006
lk	-11.5009
aged	-11.501
▁tru	-11.5012
party	-11.5013
▁placement	-11.5013
▁retire	-11.5016
▁charleston	-11.5016
▁dairy	-11.5022
▁franc	-11.5025
word	-11.5025
▁cuts	-11.5027
▁guatemala	-11.5031
▁patriarch	-11.5031
fen	-11.5032
▁12-	-11.5033
ops	-11.5033
▁roma	-11.5035
▁galleries	-11.5038
▁shifted	-11.5038
▁hou	-11.5039
sio	-11.5039
▁cohen	-11.5039
ego	-11.5041
▁vas	-11.5042
▁belarus	-11.5043
▁boris	-11.5046
▁rub	-11.5055
▁crops	-11.5057
tron	-11.5058
▁pp	-11.5058
▁experiments	-11.5059
▁jamie	-11.5059
▁reynolds	-11.5059
▁landscapes	-11.5061
▁stepped	-11.5064
▁encompasses	-11.5064
▁nose	-11.5065
▁fairly	-11.5066
▁elliott	-11.5067
▁physicist	-11.5067
▁chelsea	-11.5067
▁classics	-11.5069
tens	-11.5069
▁gua	-11.507
▁fried	-11.5071
▁dil	-11.5073
ition	-11.5077
▁belief	-11.5078
▁membrane	-11.508
writer	-11.5081
▁rainfall	-11.5082
▁explosion	-11.5089
▁heroes	-11.5091
gaon	-11.5094
▁johan	-11.5097
▁freshwater	-11.51
mbi	-11.5103
tang	-11.5103
▁convoy	-11.5106
▁witness	-11.5106
bio	-11.5106
▁tutor	-11.5109
▁sketch	-11.5109
▁porto	-11.511
▁developers	-11.511
ingen	-11.5112
▁oxygen	-11.5114
▁hiv	-11.5114
▁inception	-11.5115
▁trend	-11.5115
▁cultivation	-11.5117
▁vil	-11.5118
▁resided	-11.5119
▁lisbon	-11.5119
▁aside	-11.5119
▁matrix	-11.5121
▁della	-11.5122
won	-11.5124
fold	-11.5124
▁rosen	-11.5126
▁curved	-11.5131
▁3000	-11.5133
ller	-11.5135
song	-11.5136
sai	-11.5137
▁hut	-11.5138
▁philharmonic	-11.514
▁1933,	-11.5141
▁1929,	-11.5142
▁surf	-11.5142
▁3–1	-11.5143
▁1914.	-11.5146
▁gale	-11.5148
▁inventor	-11.5153
▁essentially	-11.5154
▁dragons	-11.5156
▁brigadier	-11.5158
▁1815	-11.5159
▁fruits	-11.5162
▁terra	-11.5162
▁upgraded	-11.5162
cken	-11.5163
▁stolen	-11.5163
▁viii	-11.5164
▁wagner	-11.5164
▁maternal	-11.5166
▁treasury	-11.5168
▁magnetic	-11.5168
paul	-11.5169
oko	-11.517
bh	-11.5171
modern	-11.5172
▁provider	-11.5172
▁townships	-11.5174
▁brings	-11.5175
▁garcía	-11.5175
▁rebels	-11.5176
▁attempting	-11.5179
▁anterior	-11.5182
▁jaya	-11.5183
▁hydrogen	-11.5184
▁sil	-11.5185
▁sixty	-11.5185
▁lankan	-11.5188
▁1961)	-11.5188
▁(24	-11.5188
▁temples	-11.5189
chel	-11.5189
▁lund	-11.5189
rill	-11.519
▁transformed	-11.5191
▁espn	-11.5195
phon	-11.5196
▁exeter	-11.5196
▁attractions	-11.5196
eus	-11.5198
▁ea	-11.5199
▁madras	-11.5199
▁minneapolis	-11.5199
▁ev	-11.5203
▁pap	-11.5203
▁bypass	-11.5204
▁modest	-11.5207
▁wells	-11.5208
▁rower	-11.5212
▁(22	-11.522
▁disappeared	-11.5225
zzo	-11.5226
▁gala	-11.5226
▁drove	-11.5226
▁chau	-11.5228
▁tract	-11.5228
▁circus	-11.5229
▁gujarat	-11.5229
▁ethics	-11.5231
▁casa	-11.5231
▁latvian	-11.5232
▁preceded	-11.5232
▁rib	-11.5235
large	-11.5236
dance	-11.5237
▁dwarf	-11.5237
▁error	-11.5238
▁1912.	-11.5238
▁tide	-11.5242
▁separation	-11.5244
▁teen	-11.5246
▁mechanics	-11.5248
established	-11.5248
nath	-11.5252
▁finn	-11.5253
▁electron	-11.5253
▁5,000	-11.5254
▁decorative	-11.5259
▁migration	-11.526
▁patch	-11.5261
▁tehsil	-11.5263
▁bacteria	-11.5264
yam	-11.5268
▁conquest	-11.5269
▁interaction	-11.527
▁stud	-11.5272
▁horizon	-11.5274
▁cherry	-11.5277
ume	-11.5277
▁synagogue	-11.5279
tric	-11.5279
cb	-11.528
▁essay	-11.5285
▁scattered	-11.5285
▁middlesex	-11.5286
▁http	-11.5286
▁supplement	-11.5286
▁allegedly	-11.5287
iq	-11.529
uddin	-11.5291
▁descendant	-11.5291
teen	-11.5293
▁nights	-11.5293
nation	-11.5293
egan	-11.5293
elia	-11.5295
▁mandal	-11.5295
▁lucy	-11.5296
▁1825	-11.5297
▁aunt	-11.5298
▁kosovo	-11.53
▁digit	-11.53
▁hayes	-11.53
▁softball	-11.53
▁canvas	-11.5304
ml	-11.531
▁1960)	-11.5312
▁atlético	-11.5313
▁magistrate	-11.5316
▁chip	-11.532
▁dissolution	-11.5325
▁surrender	-11.5327
ground	-11.5328
▁accomplished	-11.5332
ganj	-11.5333
▁statute	-11.5334
▁looked	-11.5336
▁entity	-11.5336
▁vr	-11.5339
▁fusion	-11.534
▁jennifer	-11.5341
ör	-11.5341
▁wer	-11.5343
escu	-11.5344
▁remake	-11.5344
onne	-11.5347
▁trips	-11.5349
▁enterprises	-11.5353
▁comprised	-11.5353
▁león	-11.5354
aid	-11.5357
▁obtaining	-11.5357
▁1814	-11.5357
▁cumberland	-11.5358
▁tetra	-11.5359
▁syracuse	-11.536
erie	-11.536
nch	-11.5361
▁reserved	-11.5362
eight	-11.5362
vit	-11.5363
▁pistol	-11.5365
▁textile	-11.537
▁loose	-11.5371
▁doug	-11.5372
▁twelfth	-11.5373
▁believes	-11.5374
bing	-11.5374
aca	-11.5375
▁sci	-11.5375
▁trustee	-11.5376
▁longtime	-11.538
▁habitats	-11.5382
▁cla	-11.5384
▁2011–12	-11.5385
▁mull	-11.539
▁1929.	-11.539
bru	-11.5391
▁sank	-11.5392
▁vietnamese	-11.5392
bey	-11.5394
mod	-11.5395
mato	-11.54
▁relatives	-11.5402
▁sailor	-11.5403
▁shar	-11.5404
▁soloist	-11.5407
▁lebanese	-11.5408
▁1–1	-11.541
selling	-11.5415
nah	-11.5416
▁dos	-11.5416
.00	-11.5418
▁dou	-11.5418
▁remember	-11.542
▁sheikh	-11.5421
▁ballad	-11.5421
▁gaming	-11.5422
▁abbreviated	-11.5422
▁interactions	-11.5425
▁reads	-11.5425
-13	-11.5427
▁haz	-11.5428
▁myth	-11.5428
▁duration	-11.5428
mari	-11.5433
ties	-11.5433
▁alexandria	-11.5435
▁logan	-11.5442
▁interact	-11.5443
▁ucla	-11.5447
▁varied	-11.5448
▁karen	-11.5448
▁ribbon	-11.5451
▁shiva	-11.5452
wn	-11.5452
▁#2	-11.5452
▁antwerp	-11.5453
▁forestry	-11.5453
▁dynamic	-11.5454
▁handling	-11.5459
bun	-11.5459
▁terrorist	-11.5461
▁nagar	-11.5462
pho	-11.5462
about	-11.5463
▁rid	-11.5463
wil	-11.5464
▁dunn	-11.5464
▁astro	-11.5465
ister	-11.5466
▁tyler	-11.5467
▁bombay	-11.5468
▁theodore	-11.5469
▁wise	-11.5471
▁tissue	-11.5472
..."	-11.5478
lv	-11.5478
▁glo	-11.5481
▁trim	-11.5482
▁highlights	-11.5482
▁twitter	-11.5483
▁1934,	-11.5484
brand	-11.5486
▁encourage	-11.5487
▁concerto	-11.549
▁disco	-11.5492
▁bulldogs	-11.5492
▁ore	-11.5501
▁adolf	-11.5503
▁rubber	-11.5504
▁consequently	-11.5504
▁1959)	-11.5506
▁permit	-11.5507
issa	-11.5507
▁rachel	-11.5508
▁dying	-11.5508
▁jumping	-11.5511
▁pastoral	-11.5512
▁intense	-11.5514
▁coordinates	-11.5517
▁flute	-11.5518
bis	-11.5519
▁algorithm	-11.552
etz	-11.5524
▁duet	-11.5524
▁defunct	-11.5525
▁doubt	-11.5527
comb	-11.553
lem	-11.5531
▁disorder	-11.5531
▁varsity	-11.5532
▁skull	-11.5534
▁qualifier	-11.5535
▁(26	-11.5535
pas	-11.5536
ered	-11.5537
▁narrowly	-11.554
▁chant	-11.5543
▁zip	-11.5543
bid	-11.5545
kom	-11.5545
▁pharmaceutical	-11.5546
▁bab	-11.5548
▁audiences	-11.5548
face	-11.5548
▁dhaka	-11.5549
▁2001)	-11.5551
▁legends	-11.5552
▁terminated	-11.5552
ør	-11.5553
▁commercially	-11.5553
▁freelance	-11.5556
▁cafe	-11.5557
quest	-11.5558
pus	-11.5558
▁shade	-11.5559
▁mla	-11.5559
▁philosophical	-11.556
hei	-11.5562
▁panthers	-11.5562
▁ceiling	-11.5563
▁kle	-11.5564
cept	-11.5566
▁copyright	-11.5567
▁absorbed	-11.5568
▁facilitate	-11.557
▁dawn	-11.557
▁tac	-11.5571
▁mohammed	-11.5572
▁posthumously	-11.5576
dai	-11.5577
hana	-11.5577
▁macdonald	-11.5579
▁invention	-11.5579
▁sten	-11.558
▁europa	-11.5581
▁nh	-11.5581
▁asks	-11.5583
▁improving	-11.5584
▁nm	-11.5585
▁monitoring	-11.5585
▁å	-11.5585
▁hin	-11.5586
▁bulk	-11.5586
▁absolute	-11.5587
▁genes	-11.5588
▁tables	-11.5588
▁deliver	-11.5589
▁repeat	-11.559
▁analyst	-11.5591
▁1958)	-11.5593
▁clu	-11.5595
▁bak	-11.5597
▁walsh	-11.5598
▁5-	-11.5599
dorf	-11.5602
▁regard	-11.5605
▁salem	-11.5606
▁pes	-11.5613
▁interviewed	-11.5622
▁muscle	-11.5622
▁mob	-11.5624
▁1810	-11.5625
▁sf	-11.5625
▁midland	-11.5627
lene	-11.5627
▁1828	-11.5629
▁(23	-11.5631
nder	-11.5631
▁bonn	-11.5631
▁josh	-11.5634
pia	-11.5636
pf	-11.5638
▁ō	-11.5638
▁racer	-11.5638
▁critically	-11.5639
▁expanding	-11.5643
▁enlarged	-11.5644
ová	-11.5645
atic	-11.5648
▁3,000	-11.5651
▁unveiled	-11.5653
oba	-11.5653
shot	-11.5653
▁cart	-11.5656
▁thorn	-11.5658
▁novo	-11.5659
▁painters	-11.566
▁kang	-11.566
▁raiders	-11.566
▁morrison	-11.5662
▁poli	-11.5663
▁trailer	-11.5664
▁scan	-11.5666
▁taipei	-11.567
hay	-11.5673
loo	-11.5674
▁explore	-11.5676
▁cuisine	-11.5677
ket	-11.5679
▁flowing	-11.5679
lá	-11.5679
▁dinner	-11.5679
▁collaborative	-11.5679
▁greene	-11.5684
vie	-11.5686
▁nicola	-11.5686
▁kab	-11.5688
50,000	-11.5688
▁casting	-11.5689
▁rep	-11.569
gold	-11.5691
action	-11.5692
▁1927,	-11.5692
▁beside	-11.5695
▁swim	-11.5696
▁biblical	-11.5696
▁restore	-11.5697
▁contribute	-11.5697
rap	-11.5697
kill	-11.5698
▁diagnosed	-11.5699
▁compounds	-11.57
▁captained	-11.5701
▁pocket	-11.5703
▁hag	-11.5708
▁geometry	-11.5709
▁gad	-11.5709
▁qing	-11.5709
▁chand	-11.5712
▁kuwait	-11.5714
▁sz	-11.5718
vic	-11.5721
rous	-11.5722
rol	-11.5723
gb	-11.5723
▁(28	-11.5728
▁mona	-11.573
▁tiny	-11.5731
▁mysterious	-11.5731
▁backed	-11.5733
▁hectares	-11.5734
▁pig	-11.5736
▁attitude	-11.5738
▁burning	-11.5739
▁crab	-11.5742
▁barber	-11.5742
▁communes	-11.5743
▁rafael	-11.5746
tana	-11.5746
lines	-11.5746
▁harp	-11.5747
▁ant	-11.5748
▁flagship	-11.5749
sometimes	-11.5749
▁usl	-11.575
bill	-11.5751
gent	-11.5752
▁systematic	-11.5753
▁wheels	-11.5755
▁1933.	-11.5756
wara	-11.5756
▁accurate	-11.5759
▁fond	-11.576
▁pottery	-11.5761
iza	-11.5761
▁thomson	-11.5765
gne	-11.5766
reviewed	-11.5766
ono	-11.5767
▁memoir	-11.5767
▁blow	-11.5769
▁johnston	-11.5769
▁reducing	-11.577
▁odi	-11.577
sdale	-11.5771
▁evangelical	-11.5772
▁obama	-11.5773
▁librarian	-11.5773
▁thereby	-11.5774
▁quarry	-11.5777
▁jacksonville	-11.5778
▁competitor	-11.578
▁1957)	-11.5782
▁zhu	-11.5784
▁1927.	-11.579
▁hur	-11.579
att	-11.5791
▁revenge	-11.5792
gil	-11.5792
▁elaborate	-11.5796
moto	-11.5798
tim	-11.5798
france	-11.58
sil	-11.58
▁extraordinary	-11.5801
▁1829	-11.5802
▁cara	-11.5806
hp	-11.5806
stage	-11.5807
▁bent	-11.5807
▁complement	-11.5808
come	-11.5809
▁stored	-11.581
rant	-11.5812
amo	-11.5812
shima	-11.5813
▁modeling	-11.5815
▁tributaries	-11.5816
dl	-11.5817
syn	-11.5818
▁whip	-11.5819
tori	-11.5819
▁colored	-11.582
sworth	-11.5821
▁hampton	-11.5822
▁tallest	-11.5824
orum	-11.5827
▁(2011)	-11.583
▁apartments	-11.5831
▁postgraduate	-11.5831
dem	-11.5835
▁southampton	-11.5835
▁vit	-11.5835
▁consideration	-11.5836
▁threw	-11.5836
▁1956)	-11.5839
▁powder	-11.5839
▁crane	-11.5839
▁implement	-11.5839
family	-11.5842
▁hardy	-11.5842
▁marketed	-11.5843
lak	-11.5847
gla	-11.5848
▁deaths	-11.5849
▁sworn	-11.5849
lies	-11.585
pura	-11.585
▁pant	-11.5853
imp	-11.5853
▁1912,	-11.5854
▁reward	-11.5857
▁1821	-11.5858
▁prosecutor	-11.5858
▁luxury	-11.586
▁soils	-11.5864
▁rbi	-11.5864
▁1955)	-11.5865
fre	-11.5865
nine	-11.5865
▁kv	-11.5866
▁maintaining	-11.5866
▁1934.	-11.5867
▁rope	-11.5869
▁unesco	-11.5869
▁arrondissement	-11.5869
▁mae	-11.587
-14	-11.5875
▁raced	-11.5877
russian	-11.5881
cru	-11.5882
▁settle	-11.5882
▁marginal	-11.5883
▁encounter	-11.5884
▁severely	-11.5884
▁authorized	-11.5884
▁1932,	-11.5885
▁impressed	-11.5888
▁elimination	-11.5888
▁sustained	-11.5888
▁integral	-11.5889
▁1910.	-11.5891
▁cb	-11.5897
▁sept	-11.5898
/10	-11.5898
cel	-11.5903
ân	-11.5905
▁thames	-11.5906
▁valencia	-11.5906
llen	-11.5907
▁hermann	-11.5907
▁verde	-11.5908
mura	-11.5908
▁fraud	-11.5909
turn	-11.591
phone	-11.5911
eye	-11.5911
▁loud	-11.5911
ess	-11.5912
rem	-11.5913
▁rna	-11.5913
▁slaves	-11.5916
rom	-11.5916
▁altered	-11.5917
▁cecil	-11.5921
▁1930,	-11.5922
▁clyde	-11.5922
▁baba	-11.5924
▁upgrade	-11.5926
ström	-11.5927
xia	-11.5929
▁survival	-11.5931
▁difficulty	-11.5931
▁1922,	-11.5932
responsibilities	-11.5934
är	-11.5936
will	-11.5937
step	-11.5938
▁nominees	-11.594
lett	-11.5941
▁counts	-11.5944
sse	-11.5945
▁highways	-11.5946
▁pos	-11.5949
▁bruno	-11.595
▁ecclesiastical	-11.595
▁prevention	-11.595
▁yellowish	-11.5951
▁valle	-11.5952
▁scho	-11.5955
lap	-11.5956
▁frances	-11.5958
frame	-11.5959
▁angola	-11.5959
▁horizontal	-11.5962
vfl	-11.5963
▁bust	-11.5965
▁emotional	-11.597
▁gandhi	-11.5971
▁acquire	-11.5972
sell	-11.5974
▁fitness	-11.5977
▁gustav	-11.5977
anza	-11.5977
news	-11.598
▁50%	-11.5981
▁jung	-11.5982
▁chocolate	-11.5982
▁revived	-11.5983
▁operators	-11.5983
▁1931,	-11.5984
▁1824	-11.5986
alia	-11.5986
▁lone	-11.5987
▁investments	-11.5988
▁bones	-11.5988
hey	-11.5988
▁occurring	-11.599
▁frost	-11.5992
▁triangular	-11.5994
ür	-11.5996
▁proto	-11.5998
▁burke	-11.5998
▁1922.	-11.6002
▁1921,	-11.6003
▁(2005)	-11.6004
▁absent	-11.6005
skaya	-11.6005
▁destroy	-11.6007
nat	-11.6009
▁2.0	-11.601
▁verses	-11.6011
▁dundee	-11.6011
▁xu	-11.6012
▁provision	-11.6016
gna	-11.6016
▁prices	-11.6017
▁rican	-11.6018
‘	-11.6019
▁discover	-11.602
▁1826	-11.6021
▁trademark	-11.6021
▁submerged	-11.6021
▁shepherd	-11.6023
▁feeding	-11.6023
hold	-11.6025
▁columnist	-11.6026
▁abs	-11.6031
latin	-11.6033
▁levi	-11.6036
pil	-11.6036
▁deeply	-11.6037
▁putting	-11.6038
phi	-11.6038
▁griffin	-11.604
▁1910,	-11.604
▁astronomy	-11.6042
▁visa	-11.6042
▁2015)	-11.6043
▁3–0	-11.6046
▁1931.	-11.6047
▁liver	-11.605
▁kali	-11.6052
▁organist	-11.6055
▁osaka	-11.6056
named	-11.6057
▁professionals	-11.6059
▁2014)	-11.606
▁jesse	-11.6061
▁observer	-11.6062
▁salmon	-11.6063
lah	-11.6064
▁scenic	-11.6064
▁hale	-11.6065
7%	-11.6065
▁petals	-11.6065
”,	-11.6066
▁quarterly	-11.6067
▁seriously	-11.6068
▁bills	-11.6068
▁mam	-11.6069
▁symptoms	-11.6069
▁accompanying	-11.607
▁chemist	-11.6072
▁imprisonment	-11.6072
▁preceding	-11.6075
0.4	-11.6075
▁android	-11.6076
bos	-11.6078
ć	-11.608
▁barb	-11.6081
▁deaf	-11.6084
▁algerian	-11.6084
▁targets	-11.6084
▁1923.	-11.6084
▁reforms	-11.6084
▁1925,	-11.6085
▁hom	-11.6087
▁1924,	-11.6087
▁1920.	-11.6087
▁providence	-11.6087
▁(2010)	-11.6088
ih	-11.6088
▁joel	-11.6089
▁buff	-11.6089
sq	-11.6089
▁bangkok	-11.6089
▁consolidated	-11.6089
▁(30	-11.6092
▁favorable	-11.6094
nee	-11.6095
▁enable	-11.6096
▁enabled	-11.6096
▁warfare	-11.6096
▁translations	-11.6099
mut	-11.61
▁aspect	-11.61
▁dresden	-11.6102
▁rc	-11.6102
▁rajasthan	-11.6103
▁moths	-11.6103
▁lumber	-11.6106
▁breakthrough	-11.6107
▁gum	-11.6111
▁wagon	-11.6113
▁countess	-11.6113
▁baden	-11.6113
▁papa	-11.6114
sche	-11.6114
nish	-11.6115
▁labels	-11.6115
▁ligue	-11.6116
▁chor	-11.6116
▁seating	-11.6116
▁(27	-11.612
▁survivors	-11.6122
▁petroleum	-11.6124
authored	-11.6126
enne	-11.6127
▁mba	-11.613
▁solicitor	-11.6131
▁fever	-11.6134
▁wit	-11.6134
▁sufficient	-11.6139
▁ramp	-11.614
▁1953)	-11.6143
specific	-11.6143
▁keys	-11.6146
▁(2012)	-11.6146
▁creates	-11.6148
▁bitter	-11.6148
sbury	-11.6149
▁(2013)	-11.615
▁annie	-11.6153
▁namibia	-11.6153
▁circa	-11.6161
▁disabled	-11.6163
▁preseason	-11.6164
▁syn	-11.6164
kor	-11.6164
▁norwich	-11.6165
▁screening	-11.6166
▁finger	-11.6166
▁harm	-11.6166
▁successive	-11.6166
isi	-11.6167
▁photograph	-11.6168
▁neutral	-11.617
▁1916,	-11.6175
▁consistent	-11.6175
▁1954)	-11.6176
▁1915,	-11.6177
arra	-11.6177
▁roberto	-11.6179
▁undertook	-11.618
▁attacking	-11.618
▁sue	-11.618
▁highlands	-11.6181
▁bald	-11.6184
emp	-11.6185
▁vernon	-11.6186
▁impression	-11.6187
▁itunes	-11.6187
▁specializes	-11.6189
oso	-11.6189
▁poker	-11.6189
▁woo	-11.6189
prop	-11.6191
tsch	-11.6192
▁concentrated	-11.6192
▁phi	-11.6192
▁rings	-11.6192
▁fla	-11.6192
▁zones	-11.6194
▁canberra	-11.6196
▁1924.	-11.6196
▁advancement	-11.6196
▁immigrant	-11.6196
▁burma	-11.6197
▁pl	-11.62
▁tunisia	-11.62
dine	-11.6201
▁faction	-11.6202
▁alps	-11.6203
▁ufc	-11.6208
mt	-11.6211
mma	-11.6212
▁threats	-11.6213
▁bot	-11.6214
corp	-11.6215
▁recover	-11.6216
▁signals	-11.6218
▁nonprofit	-11.6219
▁2013)	-11.6221
omer	-11.6222
lund	-11.6223
▁harper	-11.6224
–11	-11.6225
ern	-11.6227
▁nash	-11.6229
▁twins	-11.6229
▁drake	-11.6229
▁strict	-11.6229
izer	-11.6231
▁1923,	-11.6232
▁roland	-11.6234
▁chord	-11.6234
▁ris	-11.6234
▁proportion	-11.6235
▁1932.	-11.6235
▁solely	-11.6236
▁école	-11.6237
uel	-11.6238
▁premise	-11.624
▁1921.	-11.6241
▁colon	-11.6242
▁1913.	-11.6245
▁lb	-11.6246
▁pun	-11.6248
ddy	-11.6248
sher	-11.6249
▁quoted	-11.6249
ats	-11.6252
▁curve	-11.6254
▁cement	-11.6256
▁1818	-11.6256
▁kenny	-11.6256
▁triumph	-11.6257
né	-11.6257
▁sb	-11.6259
ulus	-11.626
▁ped	-11.626
▁disciplines	-11.626
▁sib	-11.6262
▁trick	-11.6263
running	-11.6265
▁binding	-11.6266
▁nur	-11.6267
▁mentions	-11.6268
▁advocacy	-11.6268
▁cone	-11.627
tak	-11.627
▁nag	-11.6272
▁vor	-11.6272
▁1952)	-11.6273
▁conceived	-11.6275
▁marvel	-11.6276
▁reservation	-11.6276
▁consumption	-11.6277
▁dot	-11.6279
aff	-11.6279
▁alter	-11.628
▁cham	-11.6282
bara	-11.6283
▁1915.	-11.6283
▁comments	-11.6284
rell	-11.6286
atta	-11.6286
▁5000	-11.6287
▁2017)	-11.6288
▁waves	-11.6288
▁suspected	-11.6288
▁baldwin	-11.629
▁pierce	-11.629
▁gloucester	-11.6291
▁enrollment	-11.6291
▁derbyshire	-11.6293
▁caste	-11.6294
▁teenager	-11.6295
▁chartered	-11.6299
▁reef	-11.63
▁eb	-11.6302
since	-11.6303
▁coin	-11.6304
▁raion	-11.6304
director	-11.6308
▁concepts	-11.6309
▁180	-11.6311
zza	-11.6312
▁rehabilitation	-11.6312
▁evaluation	-11.6314
▁catalan	-11.6315
▁cass	-11.6316
▁giuseppe	-11.6317
▁rus	-11.6317
▁2016)	-11.6318
▁1925.	-11.6318
sports	-11.6324
dus	-11.6325
esse	-11.6327
ista	-11.6327
kos	-11.6328
▁barracks	-11.6329
▁calcutta	-11.6332
▁wheelchair	-11.6333
▁tak	-11.6334
cis	-11.6335
cula	-11.6335
▁sco	-11.6336
▁julie	-11.6337
▁jewel	-11.6338
▁easter	-11.6339
▁jeremy	-11.634
ige	-11.6341
▁extant	-11.6343
▁(2006)	-11.6343
▁castro	-11.6345
▁humor	-11.6346
▁stuttgart	-11.6346
▁glory	-11.6347
▁semifinal	-11.6351
▁pushed	-11.6352
▁butter	-11.6352
▁button	-11.6354
▁sed	-11.6354
▁ghanaian	-11.6355
bang	-11.6356
▁witt	-11.6356
▁talking	-11.6356
▁fry	-11.6358
▁rapids	-11.6358
▁snap	-11.636
▁ibrahim	-11.636
▁landowner	-11.636
▁quiet	-11.6361
▁loved	-11.6364
▁secular	-11.6364
▁darker	-11.6365
▁followers	-11.6365
ković	-11.6366
▁bottle	-11.6367
▁contracted	-11.637
gang	-11.6371
human	-11.6371
▁(2015)	-11.6373
gren	-11.6375
hur	-11.6375
▁maz	-11.6375
sho	-11.6375
▁hypo	-11.6377
▁hari	-11.6379
▁2018)	-11.638
rik	-11.638
▁icc	-11.6382
gl	-11.6382
its	-11.6382
▁hurdles	-11.6384
▁gab	-11.6385
▁capped	-11.6386
▁monks	-11.6387
▁cyber	-11.6388
▁outlets	-11.6396
uan	-11.6396
bai	-11.6397
▁monkey	-11.6398
▁tribune	-11.6399
▁faster	-11.64
▁ivory	-11.64
▁hairs	-11.6403
▁ira	-11.6403
▁proceeded	-11.6406
▁mater	-11.6406
▁lud	-11.6407
▁kri	-11.6408
▁naga	-11.6408
acre	-11.6411
▁boulder	-11.6412
▁proximity	-11.6415
▁wimbledon	-11.6415
▁motorway	-11.6419
▁lagos	-11.642
▁flo	-11.6421
▁adapt	-11.6425
▁morton	-11.6431
▁ports	-11.6432
ej	-11.6433
stand	-11.6434
▁solve	-11.6435
▁100,000	-11.6436
lli	-11.6437
▁blu	-11.6439
iser	-11.6439
▁formats	-11.644
▁presenting	-11.6441
▁revision	-11.6445
▁strings	-11.6449
▁unified	-11.6451
▁toledo	-11.6451
▁stephan	-11.6455
▁winds	-11.6455
ación	-11.6456
▁alberto	-11.6457
▁galway	-11.6459
▁2019)	-11.646
▁impossible	-11.6461
▁lacrosse	-11.6462
▁helena	-11.6462
tho	-11.6463
bes	-11.6464
pul	-11.6464
▁sunk	-11.6465
▁repertoire	-11.6465
lev	-11.6466
▁1916.	-11.6466
moor	-11.6466
▁mora	-11.6468
▁sick	-11.6471
▁anthropology	-11.6475
▁dug	-11.6475
▁cheshire	-11.6475
ching	-11.6477
▁pga	-11.6481
▁brock	-11.6481
▁forbes	-11.6482
▁2012)	-11.6484
▁interred	-11.6484
▁recognize	-11.6487
▁lal	-11.6488
▁blo	-11.6488
▁od	-11.6489
▁archipelago	-11.649
▁astronomical	-11.6491
▁hun	-11.6492
rated	-11.6492
▁slalom	-11.6492
▁2020–21	-11.6493
▁eco	-11.6494
▁canoe	-11.6497
▁brownish	-11.6498
▁fuji	-11.6499
▁auditorium	-11.6499
▁josef	-11.6499
ators	-11.6499
▁ark	-11.6502
▁105	-11.6502
▁cowboys	-11.6503
▁equation	-11.6503
▁assam	-11.6504
▁enemies	-11.6505
▁flavor	-11.6511
▁cbc	-11.6511
▁1928.	-11.6511
▁1926.	-11.6514
▁planted	-11.6516
kot	-11.6516
▁keyboard	-11.6517
max	-11.6518
▁designers	-11.6519
▁joshua	-11.6519
▁netflix	-11.652
▁layers	-11.6522
ddle	-11.6522
▁fringe	-11.6524
▁agnes	-11.6527
▁1947)	-11.6529
cil	-11.653
▁marking	-11.6532
▁pounds	-11.6534
▁petro	-11.6537
cri	-11.6538
▁surfaces	-11.6538
▁eponymous	-11.6539
▁betty	-11.654
▁crop	-11.6541
▁reactions	-11.6543
▁sud	-11.6544
listed	-11.6545
▁jakarta	-11.6546
▁slovenian	-11.6546
dolph	-11.6547
lach	-11.6548
dig	-11.6548
▁1827	-11.6549
▁emirates	-11.6549
▁venezuelan	-11.6551
▁(2009)	-11.6552
▁georgetown	-11.6552
▁fis	-11.6552
▁tanks	-11.6554
zin	-11.6554
▁cli	-11.6555
▁consortium	-11.6556
▁munster	-11.6556
jun	-11.6557
ester	-11.6558
▁quest	-11.6561
▁$3	-11.6563
▁keeper	-11.6564
▁nano	-11.6566
▁spe	-11.6568
▁hollow	-11.6568
▁2011)	-11.6569
▁choral	-11.657
assi	-11.6571
▁(2007)	-11.6572
ifying	-11.6572
▁metacritic	-11.6573
▁borg	-11.6573
▁uss	-11.6574
▁pak	-11.6574
▁1926,	-11.6575
standing	-11.6575
▁(0	-11.6575
▁foods	-11.6576
▁holes	-11.6576
▁affect	-11.6578
▁enjoy	-11.6578
▁qi	-11.658
fair	-11.658
nfl	-11.658
▁ventures	-11.658
tent	-11.658
▁investigations	-11.6581
▁1951)	-11.6582
ès	-11.6583
fit	-11.6585
▁1813	-11.6586
▁fragments	-11.6587
▁radiation	-11.6587
▁prose	-11.6588
▁discovers	-11.6589
▁mascot	-11.6589
drama	-11.6589
▁strand	-11.6589
nett	-11.6589
▁builder	-11.6591
▁(2014)	-11.6591
▁theories	-11.6592
scape	-11.6593
▁stack	-11.6595
▁2010–11	-11.6598
▁citations	-11.66
▁fewer	-11.6605
robin	-11.6605
radio	-11.6607
international	-11.6607
conference	-11.6607
▁wireless	-11.6608
rup	-11.6608
▁flee	-11.6609
ope	-11.6612
khan	-11.6612
▁pablo	-11.6613
gat	-11.6613
▁costume	-11.6615
▁hiking	-11.6616
▁smallest	-11.6617
pack	-11.6617
▁artifacts	-11.662
▁1930.	-11.662
door	-11.6621
▁albion	-11.6622
▁lt	-11.6622
▁ravi	-11.6623
▁striking	-11.6624
▁torn	-11.6625
▁felix	-11.6625
▁midlands	-11.6625
unda	-11.6626
eto	-11.6627
▁ef	-11.663
▁lawn	-11.6631
ppa	-11.6631
alla	-11.6632
▁corp	-11.664
▁sala	-11.6642
▁celebrities	-11.6642
▁kad	-11.6643
eria	-11.6643
▁sem	-11.6644
▁masa	-11.6644
▁1911.	-11.6646
host	-11.6647
▁sacramento	-11.6648
ulation	-11.6649
▁provisions	-11.665
▁stall	-11.6652
guin	-11.6653
main	-11.6654
▁chuck	-11.6654
▁ix	-11.6656
▁controls	-11.6657
▁kul	-11.6657
▁pike	-11.6658
▁remarkable	-11.6659
▁realm	-11.6664
▁wie	-11.6666
▁moments	-11.6667
▁firms	-11.6668
▁destinations	-11.6671
▁rie	-11.6671
▁divine	-11.6673
▁(2008)	-11.6673
2.5	-11.6682
wang	-11.6682
reg	-11.6683
▁teenage	-11.6683
▁dies	-11.6684
▁bangalore	-11.6686
▁1950)	-11.6686
▁lib	-11.6687
▁realized	-11.6691
▁château	-11.6692
▁bays	-11.6693
united	-11.6694
▁3.5	-11.6694
▁empress	-11.6695
▁bologna	-11.6698
▁lyn	-11.6698
spanish	-11.6698
▁hawks	-11.67
lib	-11.6701
▁playstation	-11.6703
▁fix	-11.6703
eda	-11.6706
yana	-11.6707
▁bats	-11.6712
▁fest	-11.6715
ked	-11.6717
▁barrel	-11.6721
▁kerry	-11.6725
▁gibraltar	-11.6726
▁dow	-11.6726
▁baku	-11.6727
▁1865.	-11.6728
▁ceylon	-11.6729
▁holt	-11.6732
oriented	-11.6732
▁propeller	-11.6733
▁thermal	-11.6734
▁utility	-11.6735
▁1823	-11.6737
▁lub	-11.6741
▁bind	-11.6741
struct	-11.6741
▁belarusian	-11.6743
tara	-11.6745
▁radi	-11.6746
▁archer	-11.6753
lai	-11.6754
▁inspection	-11.6758
▁lea	-11.6759
5.4	-11.676
▁subdivided	-11.6761
▁gravel	-11.6763
▁traces	-11.6764
▁guided	-11.6765
kul	-11.6766
▁ves	-11.6767
▁leopold	-11.6768
iso	-11.6769
tty	-11.6769
▁chapman	-11.6771
sec	-11.6771
neill	-11.6773
▁leased	-11.6774
▁assassination	-11.6776
▁emp	-11.6778
burgh	-11.678
nice	-11.678
▁demonstrate	-11.6781
_4	-11.6782
▁insight	-11.6782
▁ceremonies	-11.6785
▁merge	-11.6787
▁riverside	-11.6787
▁philanthropist	-11.6789
path	-11.6794
▁paraguay	-11.6796
▁1949)	-11.6796
ór	-11.6796
cate	-11.6797
▁deacon	-11.6797
▁1913,	-11.6798
▁uncertain	-11.6799
▁malcolm	-11.6801
▁tribunal	-11.6801
rium	-11.6801
▁confusion	-11.6804
▁denis	-11.6806
▁tun	-11.6806
▁coleman	-11.6807
▁1900,	-11.6808
watch	-11.681
▁shirt	-11.6813
▁rand	-11.6814
ró	-11.6814
▁tasks	-11.6814
▁norton	-11.6815
▁airplay	-11.6819
chia	-11.682
university	-11.682
▁addressed	-11.6823
▁informed	-11.6826
▁discharge	-11.6826
dad	-11.6826
som	-11.6826
range	-11.6828
powered	-11.6831
▁discuss	-11.6831
▁draws	-11.6832
▁napoleon	-11.6835
▁telling	-11.6836
▁hiatus	-11.6836
arts	-11.6837
▁investigated	-11.6838
▁1911,	-11.6838
▁organizing	-11.6838
▁contracts	-11.684
▁supervised	-11.6844
▁dimensions	-11.6846
▁miners	-11.6846
▁ecological	-11.6847
▁equality	-11.6848
▁ov	-11.6849
▁basque	-11.6849
tag	-11.685
lly	-11.6852
▁1816	-11.6854
ło	-11.6854
▁efficiency	-11.6856
▁bhu	-11.6856
▁firing	-11.6858
▁accreditation	-11.6861
▁dependent	-11.6861
got	-11.6863
▁academics	-11.6866
▁analog	-11.6866
▁2006)	-11.6871
▁counted	-11.6871
▁slide	-11.6872
▁initiatives	-11.6876
▁disability	-11.6877
gp	-11.688
▁1948)	-11.688
▁lgbt	-11.6887
▁gardner	-11.6889
▁och	-11.6891
wave	-11.6891
icus	-11.6891
▁(29	-11.6891
odes	-11.6892
bian	-11.6893
▁surveys	-11.6893
▁fixtures	-11.6896
assa	-11.6897
▁nobel	-11.6897
zia	-11.6899
fal	-11.69
▁amounts	-11.6901
▁governors	-11.6903
▁bulls	-11.6907
▁skater	-11.6907
▁achieving	-11.6909
▁consensus	-11.6909
▁occupies	-11.691
pati	-11.6911
▁linux	-11.6912
▁dig	-11.6913
brother	-11.6916
▁350	-11.692
▁collapsed	-11.692
onym	-11.6921
▁seized	-11.6922
▁responded	-11.6924
dec	-11.6925
▁pomeranian	-11.6925
▁cau	-11.6925
▁frog	-11.6926
onian	-11.6926
▁lightning	-11.6927
▁spar	-11.6927
▁politicians	-11.693
storey	-11.6931
▁reveals	-11.6932
▁hearts	-11.6932
▁machinery	-11.6933
▁tenor	-11.6933
▁1806	-11.6933
▁unfortunately	-11.6933
▁slender	-11.6935
ević	-11.6935
▁allegations	-11.6935
▁oc	-11.6937
▁restrictions	-11.6937
rib	-11.6938
▁prussian	-11.6938
▁correspondence	-11.694
▁reflected	-11.6941
▁laps	-11.6942
▁freeman	-11.6944
▁transported	-11.6945
rz	-11.6946
▁mes	-11.6947
▁bare	-11.6948
▁garnered	-11.6948
▁(2016)	-11.695
▁shots	-11.6951
▁politically	-11.6951
▁wis	-11.6952
sound	-11.6953
poly	-11.6954
race	-11.6957
rig	-11.6958
stat	-11.6959
hwa	-11.6959
▁physicians	-11.6962
▁enclosed	-11.6963
▁scholarly	-11.6964
▁taxes	-11.6964
▁nerve	-11.6967
▁siding	-11.6969
▁watching	-11.6971
▁islander	-11.6972
▁exposition	-11.6972
ete	-11.6972
▁lambert	-11.6974
▁hairy	-11.6978
▁violinist	-11.6981
▁tongue	-11.6981
fully	-11.6983
ign	-11.6983
▁judgment	-11.6984
▁tooth	-11.6985
▁harmony	-11.6985
▁1822	-11.6987
graph	-11.6988
fs	-11.6991
pole	-11.6992
▁prevented	-11.6992
▁explains	-11.6993
▁meadow	-11.6993
▁flint	-11.6994
▁elisabeth	-11.6997
fel	-11.6997
▁argument	-11.6998
kka	-11.6999
▁lime	-11.7
▁targeted	-11.7001
▁itv	-11.7001
tner	-11.7003
▁partition	-11.7003
▁codes	-11.7003
▁christians	-11.7003
▁monster	-11.7003
▁contestant	-11.7005
2,000	-11.7006
▁cod	-11.7007
chair	-11.7008
▁breaks	-11.701
▁gloucestershire	-11.701
▁vu	-11.7013
▁advancing	-11.7014
▁1908.	-11.7015
▁undrafted	-11.7016
zhi	-11.7018
▁minimal	-11.7018
▁accordance	-11.7019
▁twist	-11.702
▁kemp	-11.702
along	-11.7021
0.0	-11.7024
▁1946)	-11.7025
▁gonzález	-11.7025
deep	-11.7025
▁invested	-11.7026
▁dixon	-11.7035
▁unanimous	-11.7036
▁dorset	-11.7036
▁winston	-11.7036
▁technological	-11.7036
berger	-11.7038
call	-11.7039
▁ingredients	-11.7039
▁tough	-11.7039
▁folklore	-11.7039
▁yar	-11.7039
▁walt	-11.704
▁groove	-11.7041
▁mohamed	-11.7043
hee	-11.7043
▁colleague	-11.7045
▁transform	-11.7045
illi	-11.7046
test	-11.7046
▁submission	-11.7046
tribu	-11.7046
▁extract	-11.7047
▁interrupted	-11.7047
▁apollo	-11.7047
▁blair	-11.7048
▁campeonato	-11.7049
▁spotted	-11.705
▁photographic	-11.7051
cke	-11.7053
aries	-11.7055
▁augustus	-11.7058
▁sauce	-11.7059
▁insect	-11.7059
▁promise	-11.7061
▁nato	-11.7061
▁atomic	-11.7062
▁regency	-11.7064
▁convinced	-11.7065
▁feast	-11.7067
▁wanderers	-11.7067
▁rudolf	-11.7068
wild	-11.707
market	-11.7071
▁atlas	-11.7073
▁townland	-11.7077
▁dynamics	-11.7077
riya	-11.7079
▁sage	-11.7079
▁listening	-11.708
▁andreas	-11.7081
▁benedict	-11.7081
ias	-11.7082
▁unopposed	-11.7083
▁terrestrial	-11.7088
sby	-11.7089
▁pyr	-11.7089
▁rotterdam	-11.709
▁badge	-11.7091
cf	-11.7092
aku	-11.7092
1)	-11.7093
▁boot	-11.7098
▁activists	-11.7101
▁(2004)	-11.7101
▁2009)	-11.7102
▁bloom	-11.7102
▁fence	-11.7102
▁livingston	-11.7103
▁champ	-11.7105
▁highlighted	-11.7105
mah	-11.7106
ivity	-11.7107
core	-11.7108
▁willie	-11.7108
▁trout	-11.7109
▁antenna	-11.7109
▁laboratories	-11.7109
▁"...	-11.7112
▁elk	-11.7113
▁1900.	-11.7113
▁zar	-11.7114
▁autobiography	-11.7114
▁hartford	-11.7115
oda	-11.7118
▁roe	-11.7118
▁emi	-11.7119
▁nr	-11.7119
▁khu	-11.7119
▁stro	-11.7121
▁mongolia	-11.7122
▁rushing	-11.7125
▁dental	-11.7128
▁geometridae	-11.7128
cephal	-11.713
▁rainbow	-11.7134
▁raz	-11.7136
cop	-11.7136
service	-11.7138
▁emil	-11.714
▁conservatives	-11.714
▁undertaken	-11.7142
▁motto	-11.7142
sure	-11.7144
▁lesbian	-11.7145
▁gou	-11.7147
▁1945)	-11.7147
▁consent	-11.7147
▁sending	-11.7148
inen	-11.7151
cata	-11.7152
▁doctrine	-11.7153
rer	-11.7153
cul	-11.7153
▁clothes	-11.7154
▁secretariat	-11.7157
▁aids	-11.7159
ulo	-11.7159
▁wat	-11.7159
▁trilogy	-11.716
▁pyramid	-11.716
angel	-11.7161
▁1790	-11.7161
break	-11.7164
▁compensation	-11.7164
▁davidson	-11.7166
▁bam	-11.7167
▁coo	-11.7167
iano	-11.7169
▁bluff	-11.7171
▁1819	-11.7171
▁printer	-11.7173
▁sanskrit	-11.7174
▁1907.	-11.7174
▁simulation	-11.7175
▁stamps	-11.7176
▁activism	-11.7178
force	-11.7178
metre	-11.7178
▁peruvian	-11.7179
▁pregnant	-11.7182
▁fitzgerald	-11.7185
▁commemorate	-11.7186
▁donations	-11.7187
enia	-11.7188
▁mick	-11.7189
▁documentaries	-11.719
makers	-11.7194
▁sings	-11.72
ncy	-11.7201
osh	-11.7201
purpose	-11.7204
▁countryside	-11.7206
doc	-11.7206
▁bates	-11.7207
▁thur	-11.7208
shed	-11.721
▁newman	-11.7213
nit	-11.7214
▁hawk	-11.7215
gala	-11.7217
oku	-11.7217
▁gha	-11.7219
sser	-11.7223
mers	-11.7223
ango	-11.7227
pacific	-11.7229
▁garcia	-11.723
▁bally	-11.7231
▁spear	-11.7232
fast	-11.7232
▁expo	-11.7233
nos	-11.7235
▁mb	-11.724
▁spectators	-11.7242
▁percussion	-11.7243
▁3–2	-11.7244
web	-11.7245
▁mvp	-11.7245
▁sali	-11.7245
mata	-11.7246
▁bolton	-11.7247
ál	-11.7247
▁claire	-11.7248
tract	-11.7249
bah	-11.7249
▁bred	-11.7251
▁nie	-11.7251
▁1817	-11.7251
uw	-11.7253
▁vijay	-11.7254
vé	-11.7255
▁symbols	-11.7258
▁hail	-11.7258
ough	-11.7259
▁assembled	-11.7261
▁oversaw	-11.7261
▁hanover	-11.7262
▁1909.	-11.7262
▁unionist	-11.7262
▁barr	-11.7262
▁reproduction	-11.7265
▁unions	-11.7267
▁lyric	-11.727
▁innocent	-11.7271
▁slate	-11.7271
vari	-11.7273
▁unclear	-11.7273
▁bce	-11.7274
▁medley	-11.7274
▁https	-11.7277
▁alexandra	-11.7277
▁beech	-11.7279
▁bride	-11.728
▁transfers	-11.7282
rise	-11.7283
▁pha	-11.7287
▁leigh	-11.7289
placed	-11.7291
▁diana	-11.7291
▁sym	-11.7291
▁anonymous	-11.7292
gged	-11.7293
▁cleared	-11.7293
stars	-11.7293
▁nit	-11.7293
▁dio	-11.7302
▁posterior	-11.7303
▁thy	-11.7303
▁outfit	-11.7303
▁upset	-11.7306
dri	-11.731
▁$4	-11.7311
▁reverend	-11.7312
▁winchester	-11.7313
▁tat	-11.7314
illon	-11.7318
▁postponed	-11.732
▁granddaughter	-11.7321
▁pomerania	-11.7321
▁hassan	-11.7321
▁repeatedly	-11.7324
▁finest	-11.7325
▁requirement	-11.7326
rain	-11.7326
▁1944)	-11.7326
▁directorate	-11.7329
▁processor	-11.7332
scope	-11.7334
▁muk	-11.7336
▁prey	-11.7338
▁elephant	-11.7339
▁mira	-11.734
▁mhz	-11.7341
haven	-11.7341
uku	-11.7341
station	-11.7342
flower	-11.7344
▁bucharest	-11.7344
▁10-	-11.7345
▁jeffrey	-11.7347
▁humanitarian	-11.7348
▁jenkins	-11.7348
▁icon	-11.7351
▁pioneering	-11.7351
▁deposit	-11.7351
▁ž	-11.7352
▁blade	-11.7352
ril	-11.7352
odo	-11.7352
▁fatal	-11.7354
▁consort	-11.7354
▁preparing	-11.736
▁blackish	-11.7361
weight	-11.7361
▁ré	-11.7362
▁puzzle	-11.7364
▁hare	-11.7364
▁subway	-11.7364
▁weaver	-11.7366
▁varying	-11.7366
▁ngo	-11.7367
▁mikhail	-11.7368
▁dancers	-11.7368
ically	-11.7368
▁rue	-11.7369
▁recipients	-11.737
▁1801	-11.737
▁pipeline	-11.737
▁commercials	-11.7371
▁homeland	-11.7372
▁sutton	-11.7372
emia	-11.7377
▁rau	-11.7377
3,000	-11.7378
▁decrease	-11.738
▁20,000	-11.738
▁ful	-11.7381
▁māori	-11.7384
▁adel	-11.7386
▁maxwell	-11.7386
esi	-11.739
gm	-11.739
▁saba	-11.739
▁vie	-11.7391
garde	-11.7391
▁sectors	-11.7392
▁situations	-11.7393
▁aquatic	-11.7394
vio	-11.7395
▁macedonian	-11.7396
chet	-11.7396
▁2002)	-11.7396
▁vy	-11.7397
▁wong	-11.7397
▁pretty	-11.7398
emi	-11.7399
lord	-11.74
▁migrated	-11.7401
▁incidents	-11.7401
▁ö	-11.7401
▁ave	-11.7401
wich	-11.7401
nard	-11.7402
jet	-11.7403
▁fir	-11.7411
▁paradise	-11.7412
▁grassland	-11.7412
▁hurt	-11.7413
▁requiring	-11.7414
scribe	-11.7415
▁darwin	-11.7415
▁hyde	-11.7419
1.3	-11.7419
▁cultivated	-11.742
▁asking	-11.7421
▁rca	-11.7422
▁tomatoes	-11.7422
▁gazette	-11.7423
▁flooding	-11.7424
▁cons	-11.7426
▁lorenzo	-11.7427
▁nicolas	-11.7428
▁mlb	-11.7429
case	-11.7431
amine	-11.7431
▁chancel	-11.7432
▁markings	-11.7433
iaceae	-11.7434
nian	-11.7436
▁velocity	-11.7437
toria	-11.7438
▁settling	-11.7439
▁defect	-11.7439
▁sidney	-11.744
mother	-11.744
▁rotten	-11.7444
vale	-11.7447
▁2010)	-11.745
▁kyiv	-11.745
▁comb	-11.7451
▁ancestry	-11.7452
wel	-11.7453
▁dining	-11.7453
cious	-11.7453
▁1905.	-11.7454
▁samoa	-11.7454
▁mapping	-11.7454
▁jab	-11.7455
▁conviction	-11.7461
▁rendered	-11.7463
▁institutional	-11.7464
ís	-11.7464
▁auburn	-11.7466
▁webster	-11.7466
▁considering	-11.7466
▁broncos	-11.7468
▁brush	-11.7471
▁specialty	-11.7473
▁excess	-11.7473
marie	-11.7476
etic	-11.7478
▁eden	-11.748
▁intent	-11.7481
▁priests	-11.7481
▁cambodia	-11.7481
▁taiwanese	-11.7481
inn	-11.7482
▁proceedings	-11.7483
▁az	-11.7483
▁mural	-11.7486
stream	-11.7486
▁hir	-11.7487
▁speaks	-11.7489
map	-11.7489
▁scots	-11.7492
system	-11.7493
▁bry	-11.7495
▁trumpet	-11.7496
mai	-11.7496
▁drift	-11.7497
▁whitney	-11.7497
▁casualties	-11.7503
ache	-11.7503
▁dim	-11.7503
▁cin	-11.7504
és	-11.7505
▁feminine	-11.7505
▁gda	-11.7505
lecommunications	-11.7509
▁finalists	-11.7509
▁arise	-11.751
▁combining	-11.751
▁gon	-11.7512
sca	-11.7512
▁arrow	-11.7513
▁cort	-11.7515
pad	-11.7517
talk	-11.7517
▁crashed	-11.7518
▁withdraw	-11.7519
▁spans	-11.7519
▁spacecraft	-11.7522
▁attract	-11.7523
▁dealer	-11.7523
▁luck	-11.7523
▁brig	-11.7527
uit	-11.7529
aco	-11.7529
nio	-11.7531
▁hitting	-11.7531
▁ara	-11.7531
lite	-11.7535
▁moses	-11.7537
▁apprentice	-11.7539
kie	-11.7541
▁masculine	-11.7543
/19	-11.7543
mand	-11.7546
▁patriotic	-11.7546
▁miniature	-11.7546
▁timothy	-11.7546
rolling	-11.7547
▁sicily	-11.755
▁1864.	-11.7552
▁sacrifice	-11.7553
▁102	-11.7553
▁distributor	-11.7554
▁drill	-11.7554
wat	-11.7555
▁cake	-11.7557
▁dre	-11.7557
▁equi	-11.7559
▁rath	-11.756
▁backup	-11.756
▁basilica	-11.7563
▁inscriptions	-11.7567
▁monica	-11.7567
▁infection	-11.7568
▁genome	-11.757
▁1908,	-11.7571
mart	-11.7571
▁boyd	-11.7571
▁participant	-11.7573
production	-11.7579
▁excavations	-11.7579
ending	-11.7579
▁regulatory	-11.7579
▁encountered	-11.758
▁bah	-11.7582
ła	-11.7582
▁algebra	-11.7583
▁latitude	-11.7583
▁zambia	-11.7584
▁fungi	-11.7584
▁tumor	-11.7585
▁voluntary	-11.7585
▁breakfast	-11.7586
▁churchill	-11.7586
▁lat	-11.7586
ardi	-11.7587
▁1906.	-11.7588
▁pedestrian	-11.7588
▁campo	-11.7589
▁soprano	-11.759
ulate	-11.7594
▁designing	-11.7596
▁submarines	-11.7597
▁cul	-11.7597
▁wore	-11.7597
▁decommissioned	-11.7599
china	-11.76
▁explored	-11.7602
▁rin	-11.7604
enbach	-11.7604
▁controller	-11.7605
▁coventry	-11.7608
▁ferguson	-11.7609
▁mixtape	-11.7609
▁oman	-11.761
▁arrive	-11.761
ega	-11.7611
▁asylum	-11.7612
▁sprinter	-11.7612
▁substance	-11.7615
tl	-11.7615
other	-11.7616
▁dee	-11.7617
▁scouts	-11.7617
▁reconnaissance	-11.762
rata	-11.762
▁transcription	-11.7621
▁hague	-11.7622
▁colombo	-11.7623
arn	-11.7624
▁landmarks	-11.7626
oke	-11.7628
▁frei	-11.7628
▁wound	-11.7628
▁nt	-11.7629
▁talented	-11.7629
▁tips	-11.7629
▁projection	-11.7629
▁kl	-11.7632
▁cannes	-11.7636
▁demolition	-11.7638
▁café	-11.7641
vier	-11.7644
rb	-11.7647
▁knocked	-11.7648
▁conflicts	-11.765
louis	-11.7652
▁archdeacon	-11.7653
▁basil	-11.7653
▁roh	-11.7653
▁slight	-11.7654
bala	-11.7655
▁née	-11.7656
▁brandon	-11.7656
▁governments	-11.7657
jay	-11.7657
ghan	-11.7659
▁codex	-11.7659
▁reissued	-11.7661
▁selo	-11.7663
▁struggled	-11.7664
eller	-11.7665
▁lad	-11.7665
▁violet	-11.7665
▁whorls	-11.7666
▁deco	-11.7667
flow	-11.7668
▁lava	-11.7673
rington	-11.7673
today	-11.7673
▁arrives	-11.7674
▁incomplete	-11.7674
▁commuter	-11.7675
▁emerge	-11.7675
▁berkshire	-11.7675
pd	-11.7676
▁kerr	-11.7678
ject	-11.7678
▁rabbit	-11.7679
▁circles	-11.768
osi	-11.7681
▁delay	-11.7681
▁continuously	-11.7684
ency	-11.7685
▁conrad	-11.7687
▁pioneers	-11.7687
▁lowland	-11.7689
bone	-11.769
▁dollar	-11.7691
▁organize	-11.7691
▁nab	-11.7691
▁limb	-11.7691
▁philippe	-11.7692
zio	-11.7696
▁mg	-11.7697
▁stability	-11.7697
hani	-11.7698
ppe	-11.7699
ott	-11.77
▁caves	-11.77
uba	-11.7703
▁bracket	-11.7704
▁efficient	-11.7704
▁midnight	-11.7704
ako	-11.7705
▁boh	-11.7707
▁grape	-11.7707
sund	-11.7709
wear	-11.771
▁dé	-11.771
▁wta	-11.771
▁naked	-11.7713
rani	-11.7714
▁visitor	-11.7717
lier	-11.7719
▁harvest	-11.7721
wie	-11.7721
▁quin	-11.7722
▁joyce	-11.7722
▁accessed	-11.7724
▁103	-11.7724
▁hawaiian	-11.7724
▁imprint	-11.7728
4)	-11.7728
▁explanation	-11.7729
▁livestock	-11.773
▁2007)	-11.7731
▁bé	-11.7731
▁complications	-11.7731
british	-11.7732
▁bomber	-11.7733
tou	-11.7734
▁residency	-11.7734
sang	-11.7734
▁foundations	-11.7735
writing	-11.7735
▁greenland	-11.7737
even	-11.7739
dhar	-11.7739
▁mistake	-11.7739
▁xavier	-11.7739
rip	-11.7741
▁naturally	-11.7742
▁leisure	-11.7742
▁1803	-11.7743
▁typ	-11.7744
▁convey	-11.7746
▁demands	-11.7747
▁fletcher	-11.7747
▁listings	-11.7748
eff	-11.7748
jak	-11.7749
tidae	-11.775
▁feels	-11.7751
▁currency	-11.7751
rev	-11.7754
oga	-11.7757
walk	-11.7757
▁increases	-11.7758
neu	-11.7759
▁lig	-11.776
▁fisheries	-11.7761
▁subscription	-11.7761
▁environments	-11.7762
▁harsh	-11.7763
▁karachi	-11.7763
mail	-11.7763
▁generic	-11.7763
def	-11.7765
▁abdullah	-11.7765
▁heidelberg	-11.7769
▁rené	-11.7769
ghi	-11.7771
▁lineage	-11.7771
▁cadet	-11.7771
▁meadows	-11.7778
▁deva	-11.7778
▁carlton	-11.7778
▁quarters	-11.778
▁snout	-11.778
▁combines	-11.7782
▁divide	-11.7784
▁embarked	-11.7786
▁gerard	-11.7788
▁rink	-11.7789
kowski	-11.779
▁messages	-11.7791
▁feelings	-11.7794
nad	-11.7794
▁loyal	-11.7796
▁mach	-11.7798
▁prints	-11.7799
▁barrow	-11.78
▁judo	-11.78
▁cloth	-11.7801
▁diagnosis	-11.7801
▁balls	-11.7801
▁alphabet	-11.7805
isch	-11.7806
▁troop	-11.7806
▁lagoon	-11.7806
▁gorge	-11.7806
▁vine	-11.7806
▁capabilities	-11.7807
▁papal	-11.7807
science	-11.7809
▁dwelling	-11.781
zone	-11.7811
uchi	-11.7811
opsis	-11.7812
gis	-11.7812
▁paramount	-11.7815
player	-11.7815
▁gag	-11.7816
▁podium	-11.7817
▁cultures	-11.7818
▁explain	-11.7821
▁zurich	-11.7822
▁naka	-11.7824
▁expertise	-11.7825
ná	-11.7826
▁decorations	-11.7829
▁graz	-11.7829
▁owing	-11.783
▁spark	-11.7831
▁acute	-11.7832
▁malay	-11.7832
kou	-11.7834
▁yemen	-11.7835
▁everyday	-11.7835
▁spec	-11.7837
▁americas	-11.7838
ador	-11.784
▁comparative	-11.784
▁bwf	-11.7841
tto	-11.7841
▁monarch	-11.7841
▁poorly	-11.7842
fun	-11.7843
▁108	-11.7847
mbe	-11.7847
disc	-11.7848
▁phenomenon	-11.7848
▁amar	-11.7849
▁lucky	-11.7849
▁posting	-11.7851
▁adopt	-11.7854
▁promoter	-11.7856
▁forever	-11.7857
lı	-11.7858
too	-11.7858
ody	-11.7859
▁wigan	-11.7859
▁abilities	-11.7859
they	-11.786
vr	-11.7861
county	-11.7862
▁pune	-11.7863
bek	-11.7863
▁pis	-11.7864
▁adoption	-11.7864
kk	-11.7867
▁eng	-11.7869
▁lum	-11.787
etto	-11.787
▁hung	-11.7871
▁hank	-11.7871
▁mold	-11.7871
▁promising	-11.7871
▁incorporates	-11.7874
tec	-11.7875
▁sak	-11.7876
▁1808	-11.7876
▁vera	-11.7878
gos	-11.7879
▁irrigation	-11.788
ination	-11.7883
▁1943)	-11.7884
▁hastings	-11.7884
▁1905,	-11.7884
▁pleasure	-11.7886
▁erebidae	-11.7886
▁chest	-11.7887
▁1904.	-11.7888
recorded	-11.7888
▁christchurch	-11.7891
▁bahrain	-11.7893
mak	-11.7894
▁conversation	-11.7894
here	-11.7897
▁ley	-11.7899
▁emmanuel	-11.79
operation	-11.7901
▁attained	-11.7902
▁lópez	-11.7904
▁shortened	-11.7904
▁saf	-11.7905
▁trent	-11.7906
▁indo	-11.7909
▁wad	-11.791
▁coll	-11.791
▁pia	-11.791
▁uzbekistan	-11.7911
▁fairy	-11.7914
aru	-11.7915
▁ahl	-11.7915
2),	-11.7916
ede	-11.7918
db	-11.7918
load	-11.7919
▁downstream	-11.7922
▁thrown	-11.7923
▁preference	-11.7924
▁dynamo	-11.7925
▁kana	-11.7925
▁ik	-11.7926
▁pronounced	-11.7926
sir	-11.7927
bling	-11.7929
▁reelection	-11.7931
▁trucks	-11.7933
▁spare	-11.7933
▁ethiopian	-11.7934
▁shoe	-11.7935
▁leningrad	-11.7937
▁gibb	-11.7941
▁moreover	-11.7941
▁limerick	-11.7944
▁2005)	-11.7944
▁1809	-11.7945
▁lahore	-11.7945
▁lun	-11.7946
▁haiti	-11.7946
pay	-11.7948
▁mohan	-11.7949
▁warrant	-11.7951
▁mammals	-11.7952
lä	-11.7952
▁1807	-11.7954
▁pools	-11.7954
▁yama	-11.7956
▁lent	-11.7957
▁finite	-11.7957
▁personally	-11.7957
▁introducing	-11.7957
▁villagers	-11.7958
direct	-11.7958
boro	-11.7958
▁salisbury	-11.796
▁madhya	-11.7962
▁mcca	-11.7963
friend	-11.7966
▁duchess	-11.7966
neck	-11.7966
▁johannesburg	-11.7967
▁1902.	-11.7968
▁edo	-11.7969
▁badly	-11.797
▁ign	-11.797
▁longitude	-11.7971
▁chap	-11.7971
▁stained	-11.7973
▁reflection	-11.7974
▁nec	-11.7974
lok	-11.7976
▁vocational	-11.7976
▁gather	-11.7977
▁retro	-11.7977
▁barker	-11.7979
ics	-11.798
▁mozart	-11.7981
▁saxophonist	-11.7989
sf	-11.7991
▁presently	-11.7992
▁finale	-11.7993
▁128	-11.7994
▁mart	-11.7994
▁geoffrey	-11.7994
▁frigate	-11.7995
litz	-11.7996
▁newark	-11.7999
▁considers	-11.7999
▁measurement	-11.7999
▁ease	-11.7999
▁finishes	-11.8
▁equally	-11.8
child	-11.8001
▁ritual	-11.8002
▁6–1	-11.8002
rf	-11.8003
flight	-11.8003
▁accountant	-11.8005
▁advised	-11.8006
▁lawyers	-11.8009
▁consequence	-11.801
▁gods	-11.8011
▁sharks	-11.8011
▁1902,	-11.8011
▁continent	-11.8012
▁confidence	-11.8014
eti	-11.8015
▁kyle	-11.8015
▁peerage	-11.8017
▁gö	-11.8018
▁rah	-11.8019
▁skate	-11.802
▁procedures	-11.802
▁rhodes	-11.8023
▁jubilee	-11.8023
▁fare	-11.8024
▁genoa	-11.8026
cip	-11.8026
lick	-11.8027
▁dive	-11.8028
▁sophie	-11.8029
▁gai	-11.8029
▁umpire	-11.8029
▁seasonal	-11.8029
though	-11.8031
▁maxim	-11.8032
▁inflorescence	-11.8033
dler	-11.8034
▁catalonia	-11.8034
▁gateway	-11.8035
stre	-11.8041
▁eel	-11.8044
▁willow	-11.8045
open	-11.8046
river	-11.8046
ophi	-11.8046
▁saving	-11.8047
▁ochreous	-11.8047
▁anger	-11.8048
▁luther	-11.8049
▁wreck	-11.8049
slav	-11.8049
▁dove	-11.805
▁sie	-11.805
▁slip	-11.8052
▁guitars	-11.8052
cheon	-11.8053
▁kum	-11.8054
dul	-11.8055
▁falcons	-11.8056
▁promised	-11.8058
▁1805	-11.8058
alli	-11.8059
▁equestrian	-11.806
▁beaches	-11.8062
mere	-11.8063
▁statues	-11.8063
▁punishment	-11.8065
ctu	-11.8065
▁dealt	-11.8068
ienne	-11.8069
▁krai	-11.807
▁habit	-11.8071
▁eleanor	-11.8072
▁proceeds	-11.8073
▁khorasan	-11.8076
itu	-11.8076
verse	-11.8077
▁1903.	-11.8077
gara	-11.8078
▁automotive	-11.8078
▁vein	-11.8079
▁cheng	-11.8081
▁lincolnshire	-11.8082
lom	-11.8083
▁destroyer	-11.8083
oper	-11.8083
rh	-11.8084
▁2008)	-11.8085
ania	-11.8088
▁brilliant	-11.8089
▁magnet	-11.809
▁2022	-11.8093
▁janet	-11.8094
dore	-11.8099
morph	-11.8099
▁ner	-11.81
▁kata	-11.8101
nut	-11.8102
▁punt	-11.8104
▁precipitation	-11.8106
▁paying	-11.8108
▁jungle	-11.8108
ional	-11.8108
cla	-11.8109
▁knows	-11.8109
▁owl	-11.8111
▁1802	-11.8112
▁batch	-11.8112
▁tire	-11.8113
▁holocaust	-11.8113
▁botany	-11.8115
nja	-11.8117
cylinder	-11.8117
▁linebacker	-11.812
▁bosnian	-11.8121
public	-11.8122
nga	-11.8123
meaning	-11.8123
rab	-11.8124
▁pep	-11.8127
▁tucker	-11.8127
▁sven	-11.8128
isha	-11.8131
▁mound	-11.8133
▁thoroughbred	-11.8133
▁prophet	-11.8133
▁(2003)	-11.8133
▁rape	-11.8134
▁dressed	-11.8135
▁regardless	-11.8138
▁nau	-11.8139
▁futsal	-11.814
▁rides	-11.814
grass	-11.814
dding	-11.8142
▁spreading	-11.8143
buck	-11.8143
▁spanning	-11.8145
▁preparatory	-11.8145
▁puppet	-11.8145
ön	-11.8145
▁phillip	-11.8146
dit	-11.8149
▁agree	-11.815
▁norm	-11.8152
▁linguistics	-11.8154
logical	-11.8155
▁gle	-11.8156
▁floyd	-11.8158
▁binary	-11.8158
▁stuff	-11.8164
▁occurrence	-11.8165
tton	-11.8165
▁caucus	-11.8166
▁commissioners	-11.8166
▁shak	-11.8168
▁senegal	-11.817
▁outscored	-11.817
▁sherman	-11.8174
▁celebrations	-11.8174
▁gian	-11.8175
ulla	-11.8175
▁grab	-11.8176
▁cater	-11.8177
▁fixture	-11.8178
gill	-11.8179
▁staffordshire	-11.818
▁staying	-11.818
▁nik	-11.818
▁1901.	-11.818
▁personalities	-11.8181
▁falcon	-11.8181
ogen	-11.8183
▁robot	-11.8183
▁siva	-11.8185
▁bara	-11.8186
▁willis	-11.8187
connor	-11.8188
▁develops	-11.819
▁campuses	-11.8192
▁surgical	-11.8193
▁suggestion	-11.8195
▁hansen	-11.8197
▁tong	-11.82
▁percy	-11.8201
▁104	-11.8202
▁doc	-11.8202
▁goa	-11.8203
▁alley	-11.8204
▁constantinople	-11.8207
▁$6	-11.8208
▁punch	-11.8208
▁reunited	-11.8209
church	-11.821
▁liber	-11.8211
gaard	-11.8212
▁commodore	-11.8212
▁radial	-11.8213
▁paved	-11.8213
▁2"	-11.8214
▁vari	-11.8215
uca	-11.8216
▁schmidt	-11.8218
▁hopes	-11.8218
▁routine	-11.8219
▁rainforest	-11.8221
▁upstream	-11.8222
▁introduce	-11.8222
▁2003)	-11.8223
▁annexed	-11.8225
▁fungus	-11.8225
guitar	-11.8226
▁busy	-11.8227
kt	-11.8227
▁cruiser	-11.8229
▁composite	-11.8229
▁niece	-11.823
8.2	-11.8232
▁elevator	-11.8232
▁sudden	-11.8233
oco	-11.8235
▁highlight	-11.8236
▁1906,	-11.8238
nese	-11.824
▁virtue	-11.824
kol	-11.8241
▁virtually	-11.8243
uh	-11.8244
▁pau	-11.8245
ffe	-11.8246
lal	-11.8253
▁tobago	-11.8253
▁1793	-11.8254
▁reggae	-11.8254
▁homo	-11.8255
▁115	-11.8255
dot	-11.8256
▁sequences	-11.8256
▁waterloo	-11.8259
illy	-11.826
cultural	-11.826
gc	-11.8261
▁radius	-11.8261
▁dad	-11.8262
▁fro	-11.8262
▁grandchildren	-11.8263
▁chronicles	-11.8263
▁kane	-11.8264
uti	-11.8264
tek	-11.8265
▁comet	-11.8265
print	-11.8267
fat	-11.8268
▁daytime	-11.827
▁poetic	-11.8271
▁dedication	-11.8271
▁offense	-11.8272
▁1811	-11.8272
▁yong	-11.8274
▁jesuit	-11.8274
▁caesar	-11.8276
▁beard	-11.8277
▁computational	-11.8277
▁vila	-11.8277
0.8	-11.8277
building	-11.8279
▁iaaf	-11.8282
▁warrior	-11.8282
▁neighborhoods	-11.8284
▁repairs	-11.8286
▁christine	-11.8286
▁centimeters	-11.8287
▁securities	-11.8287
▁developments	-11.8287
▁cage	-11.8287
▁attractive	-11.8289
▁hetero	-11.8289
▁trauma	-11.8289
▁stre	-11.8291
▁reveal	-11.8293
mass	-11.8294
▁1909,	-11.8296
▁shirley	-11.8297
▁106	-11.8298
trick	-11.83
▁tho	-11.83
▁barton	-11.8301
0°	-11.8303
▁flemish	-11.8304
oxy	-11.8304
▁derek	-11.8304
oria	-11.8305
dah	-11.8306
▁offshore	-11.8308
▁viral	-11.8309
▁1907,	-11.8309
▁activated	-11.8311
▁sack	-11.8311
▁katherine	-11.8311
▁dro	-11.8312
▁scal	-11.8314
▁demonstration	-11.8314
▁proclaimed	-11.8315
▁schwe	-11.8315
▁suggesting	-11.8315
▁tir	-11.8316
▁asset	-11.8317
▁dip	-11.8317
▁savings	-11.8317
street	-11.8319
nda	-11.8319
▁lav	-11.8319
▁noting	-11.8319
▁enhance	-11.8319
▁900	-11.832
sei	-11.832
▁namesake	-11.8322
▁rodríguez	-11.8322
▁riley	-11.8322
▁terror	-11.8323
▁transferring	-11.8323
▁resembles	-11.8323
▁respond	-11.8324
hou	-11.8324
▁sou	-11.8328
▁stirling	-11.8329
▁cyclo	-11.833
▁xiao	-11.8331
▁freed	-11.8332
▁comeback	-11.8335
▁gm	-11.8335
agi	-11.8337
▁narrator	-11.8341
tant	-11.8341
▁bury	-11.8341
▁lindsay	-11.8342
▁1942)	-11.8343
▁managers	-11.8343
vall	-11.8345
▁castile	-11.8346
▁subdistrict	-11.8347
▁dell	-11.8348
▁barrier	-11.8349
▁crypt	-11.835
▁scrap	-11.8351
▁2009–10	-11.8352
▁differs	-11.8352
1.5	-11.8353
▁descended	-11.8353
▁resign	-11.8355
▁aff	-11.8355
▁nielsen	-11.8355
▁tyne	-11.8356
▁boo	-11.8356
▁merchants	-11.8358
xin	-11.8359
▁ngc	-11.8359
evi	-11.8359
▁concession	-11.836
lant	-11.836
▁rak	-11.836
nya	-11.8361
▁differential	-11.8362
6,000	-11.8363
blood	-11.8363
▁afghan	-11.8365
▁moldova	-11.8365
▁seeks	-11.8366
▁yield	-11.8367
▁woody	-11.8367
▁paternal	-11.8368
▁ammunition	-11.8369
▁immigrated	-11.8369
▁millennium	-11.8374
rra	-11.8374
▁tavern	-11.8376
▁afro	-11.8377
▁cypriot	-11.8378
▁texture	-11.8379
▁assignments	-11.8381
▁paz	-11.8382
▁define	-11.8383
▁maid	-11.8383
▁qualifiers	-11.8385
▁dawson	-11.8387
iron	-11.8387
kova	-11.8392
wl	-11.8393
▁(2017)	-11.8393
▁rational	-11.8395
▁reunion	-11.8396
ñ	-11.8396
▁conspiracy	-11.8396
tailed	-11.8397
▁seeded	-11.8398
▁leinster	-11.8398
▁fern	-11.8402
▁vista	-11.8402
electric	-11.8403
▁fencing	-11.8405
▁orbital	-11.8406
▁drains	-11.8408
▁3.0	-11.841
▁cai	-11.841
▁som	-11.8412
▁clause	-11.8414
ines	-11.8415
▁volcano	-11.8415
▁dylan	-11.8416
▁numbering	-11.8416
anov	-11.8417
▁crafts	-11.8418
▁brasil	-11.8418
giri	-11.8418
▁isabel	-11.8419
▁disputed	-11.842
▁cameras	-11.8421
▁respected	-11.8421
▁dei	-11.8422
flu	-11.8423
▁bash	-11.8423
▁storyline	-11.8425
▁endorsed	-11.8426
eux	-11.8428
phe	-11.8428
cot	-11.8429
▁mk	-11.843
▁torres	-11.8433
▁viktor	-11.8433
▁songwriting	-11.8434
▁diary	-11.8435
otti	-11.8436
▁discrimination	-11.8437
▁patterson	-11.8437
▁factories	-11.8438
▁dirt	-11.8438
▁aggressive	-11.8438
uto	-11.8438
▁stunt	-11.8439
800	-11.844
fb	-11.844
np	-11.8443
▁mls	-11.8444
stick	-11.8445
▁naturalist	-11.8446
▁kut	-11.8446
tov	-11.8449
▁omaha	-11.845
▁fulfill	-11.845
rach	-11.845
▁orchard	-11.8455
▁linking	-11.8457
▁thal	-11.8458
▁sca	-11.8459
operative	-11.8459
rier	-11.8461
▁aware	-11.8461
▁koch	-11.8462
indian	-11.8462
▁esc	-11.8464
▁surveyor	-11.8464
▁refugee	-11.8466
rite	-11.8467
special	-11.8468
▁bigger	-11.8469
▁suffrage	-11.8469
▁cope	-11.8469
▁imaging	-11.8471
▁1804	-11.8472
▁rm	-11.8473
igo	-11.8475
uer	-11.8475
▁cun	-11.8477
▁rab	-11.8478
▁tickets	-11.8479
▁explores	-11.8479
kle	-11.8481
▁postseason	-11.8484
▁nikola	-11.8484
▁gut	-11.8485
▁elderly	-11.8487
abe	-11.8487
nova	-11.8489
▁viewing	-11.849
▁healthy	-11.849
▁jake	-11.849
▁item	-11.849
9.4	-11.8491
▁1798	-11.8496
▁serra	-11.8497
▁distinguish	-11.85
culture	-11.85
erman	-11.8501
▁inquiry	-11.8504
gall	-11.8508
▁canceled	-11.8509
īn	-11.8509
▁bard	-11.851
▁polling	-11.8512
▁chassis	-11.8517
ttle	-11.8519
▁bavarian	-11.8519
▁birthplace	-11.8519
▁richards	-11.8524
oca	-11.8527
▁fees	-11.8528
øy	-11.853
▁psycho	-11.8533
lice	-11.8533
▁eating	-11.8533
▁fights	-11.8537
vara	-11.854
▁carlisle	-11.8542
▁2004)	-11.8543
still	-11.8543
aldo	-11.8543
▁1795	-11.8545
gau	-11.8547
owner	-11.8548
▁potentially	-11.8549
▁kenyan	-11.855
▁honduras	-11.8551
▁arn	-11.8554
▁vfl	-11.8555
▁estimate	-11.8555
▁lasting	-11.8559
▁dys	-11.856
lop	-11.856
tani	-11.8562
▁homestead	-11.8565
▁rivalry	-11.8565
▁originates	-11.8566
▁rulers	-11.8567
▁zürich	-11.8568
cie	-11.8569
▁luna	-11.857
▁sovereign	-11.857
xton	-11.8571
▁progressed	-11.8572
str	-11.8573
▁fritz	-11.8575
leh	-11.8576
▁advocated	-11.8577
▁tum	-11.8577
▁specified	-11.8577
▁flour	-11.8578
▁fog	-11.8578
▁moroccan	-11.8578
▁1863.	-11.8579
▁marin	-11.8579
▁devils	-11.858
ité	-11.8581
▁1904,	-11.8582
▁sas	-11.8583
did	-11.8584
▁corners	-11.8584
▁contractor	-11.8585
▁tay	-11.8586
odont	-11.8586
india	-11.8586
▁jor	-11.8586
▁exam	-11.8587
▁bali	-11.8588
pes	-11.8589
▁hanging	-11.8591
▁easier	-11.8591
model	-11.8592
urban	-11.8592
▁metric	-11.8593
▁verb	-11.8593
▁100%	-11.8593
▁obscure	-11.8594
fp	-11.8596
▁maa	-11.8599
▁chairperson	-11.86
▁sindh	-11.8601
▁sphere	-11.8601
▁clarinet	-11.8601
▁interpreted	-11.8602
▁daw	-11.8603
▁transverse	-11.8603
position	-11.8605
▁dru	-11.8606
▁saxon	-11.861
tico	-11.861
▁collision	-11.861
▁fau	-11.8611
▁(2001)	-11.8612
dro	-11.8613
ural	-11.8614
eer	-11.8615
total	-11.8616
▁birch	-11.8616
▁findings	-11.8616
▁mollusc	-11.8619
▁malawi	-11.8619
▁investor	-11.8621
▁1,5	-11.8624
▁hm	-11.8625
▁courtyard	-11.8627
▁happen	-11.8628
▁witch	-11.8628
▁exceptional	-11.8628
▁clarence	-11.8628
▁1780	-11.8629
▁objectives	-11.8629
yk	-11.863
▁1796	-11.8631
▁supplier	-11.8631
ink	-11.8631
▁rebecca	-11.8632
▁facts	-11.8632
=12	-11.8633
▁feat	-11.8633
fect	-11.8633
▁ó	-11.8635
▁practicing	-11.8635
▁wakefield	-11.8636
▁slim	-11.8637
▁bail	-11.8637
▁lily	-11.8638
▁río	-11.8639
[...]
