[UNK]	0
[PAD]	0
[CLS]	0
[SEP]	0
[MASK]	0
,	-3.55095
r쎯	-3.90932
zzbd쎯	-3.91201
.	-4.01485
t쎯	-5.01085
d쎯	-5.40347
o쎯	-5.51355
j쎯	-5.61625
k쎯	-5.67879
:	-5.74058
gn쎯	-5.77076
(	-5.80161
e쎯	-5.86705
tffu쎯	-5.94644
;	-5.96004
w쎯	-6.00812
dd쎯	-6.02738
)	-6.06672
《	-6.06997
h쎯	-6.13371
ey쎯	-6.20068
b쎯	-6.20962
“	-6.22319
c쎯	-6.24303
pp쎯	-6.29285
g쎯	-6.29538
i쎯	-6.41152
gf쎯	-6.42624
”	-6.42996
ymhj쎯	-6.51493
ii쎯	-6.56508
cf쎯	-6.63746
mmm쎯	-6.65663
rg쎯	-6.65827
ym쎯	-6.66351
egc쎯	-6.66663
k쎯l쎯	-6.66689
dg쎯	-6.66976
ak쎯	-6.6862
f쎯	-6.69747
쎁	-6.72725
wc쎯ngk쎯	-6.73097
ih쎯	-6.73133
aq쎯	-6.73789
》	-6.74422
dmj쎯	-6.74489
bb쎯	-6.74599
쎂	-6.76629
ntg쎯	-6.78433
쎃	-6.79275
et쎯	-6.8027
usr쎯	-6.80621
jf쎯	-6.80852
gh쎯	-6.82542
pe쎯	-6.82795
gc쎯	-6.82815
qq쎯	-6.8817
uqf쎯	-6.88675
puhc쎯	-6.91002
rn쎯	-6.91218
mw쎯	-6.93662
ta쎯	-6.93761
gd쎯	-6.94136
gcf쎯	-6.99421
bm쎯	-7.00217
tg쎯	-7.01414
whf쎯og쎯	-7.02693
mh쎯	-7.02838
sk쎯	-7.03159
qk쎯	-7.03556
-	-7.04351
wf쎯	-7.05591
uk쎯	-7.06168
fq쎯	-7.06582
fcu쎯	-7.06663
qfhw쎯	-7.07565
a쎯wt쎯	-7.08172
adw쎯	-7.09978
dn쎯	-7.10522
ww쎯	-7.1105
쎄	-7.11303
sghg쎯	-7.11807
sg쎯	-7.12424
fm쎯	-7.12759
go쎯	-7.13052
e쎯bv쎯wc쎯ngk쎯	-7.1332
fg쎯	-7.13488
yygy쎯	-7.13775
/	-7.13818
u쎯kkk쎯	-7.14433
sf쎯	-7.14916
rfc쎯sy쎯	-7.15052
ua쎯	-7.16252
qqqq쎯	-7.16945
if쎯	-7.16962
ggg쎯	-7.17031
ip쎯	-7.18294
rh쎯	-7.1946
fny쎯og쎯	-7.19702
ai쎯	-7.19842
kht쎯	-7.20649
ftbt쎯yce쎯	-7.2156
쎅	-7.22
tp쎯gj쎯	-7.22967
itx쎯	-7.23543
wv쎯	-7.2384
dgtg쎯	-7.24965
xte쎯	-7.25253
fd쎯	-7.25371
eb쎯tl쎯	-7.25603
ue쎯	-7.26181
ftj쎯	-7.27004
txi쎯xyc쎯	-7.27312
jjjj쎯	-7.27657
wx쎯	-7.27894
awx쎯	-7.28177
l쎯	-7.28485
dd쎯ip쎯	-7.28595
bn쎯	-7.28624
tfl쎯	-7.29115
g쎯wh쎯	-7.31818
jfd쎯	-7.32362
lh쎯	-7.32689
sm쎯	-7.32927
ny쎯	-7.32984
wtf쎯	-7.33266
wug쎯gf쎯	-7.33564
ftjb쎯	-7.34088
dga쎯pwv쎯	-7.35024
fj쎯tf쎯	-7.3556
tf쎯	-7.35564
,j쎯	-7.35828
thd쎯	-7.36431
wb쎯	-7.36485
udi쎯	-7.36486
l쎯pe쎯	-7.37158
tu쎯	-7.37294
dx쎯	-7.37458
쎆	-7.37697
ce쎯	-7.37844
gg쎯	-7.37855
wsg쎯	-7.38357
pv쎯	-7.38777
》zzbd쎯《	-7.38928
()	-7.39278
a	-7.39988
ip쎯suq쎯	-7.40096
gu쎯	-7.40278
gmww쎯	-7.40538
aa쎯	-7.41543
x쎯	-7.41878
rrr쎯	-7.41923
cn쎯	-7.41978
uthp쎯	-7.42241
쎈	-7.42354
i	-7.42364
l쎯bf쎯	-7.4276
fp쎯	-7.43433
qh쎯	-7.4359
xg쎯	-7.43757
v쎯nae쎯	-7.44129
쎁쎀	-7.4413
,d쎯	-7.44492
쎇	-7.4473
je쎯	-7.4538
uyh쎯	-7.45491
ige쎯	-7.45672
ymc쎯yf쎯	-7.46422
yygy쎯wx쎯	-7.4643
dm쎯	-7.46927
gajf쎯	-7.47041
iq쎯	-7.47683
isk쎯	-7.48065
dnv쎯	-7.49099
k쎯ny쎯	-7.49747
"	-7.49987
txi쎯	-7.50407
wxf쎯	-7.50508
fqb쎯	-7.50666
mq쎯	-7.50813
udh쎯	-7.51943
ux쎯	-7.5223
ty쎯	-7.52484
lt쎯	-7.53886
tm쎯	-7.54033
ss쎯	-7.54709
cep쎯	-7.54927
ga쎯	-7.5511
a쎯tkgg쎯	-7.55147
amw쎯	-7.55593
tg쎯u쎯	-7.56671
pl쎯	-7.57195
tgj쎯	-7.57196
wg쎯l쎯	-7.57332
v쎯	-7.57496
rt쎯	-7.57595
x쎯iyj쎯	-7.57957
jb쎯	-7.58073
dp쎯	-7.58114
ck쎯	-7.58119
trf쎯	-7.58512
kkkk쎯	-7.58784
adm쎯hhhh쎯	-7.59185
tj쎯	-7.60175
wg쎯	-7.60285
xa쎯	-7.60328
mqq쎯	-7.6046
s쎯	-7.60861
k	-7.60861
,ua쎯	-7.60948
hw쎯e쎯	-7.61021
dgh쎯	-7.61062
ytyh쎯	-7.61333
c쎯ey쎯	-7.61422
.”	-7.61645
xeg쎯xkw쎯	-7.61696
ghd쎯	-7.61739
m쎯	-7.61773
kf쎯	-7.61805
wt쎯	-7.6244
xt쎯	-7.62745
ugdu쎯	-7.63386
th쎯	-7.63447
ya쎯	-7.6363
hko쎯	-7.6417
yi쎯	-7.64232
dr쎯	-7.64254
ip쎯bpf쎯	-7.64436
vk쎯	-7.6466
yy쎯	-7.6493
ux쎯yiu쎯	-7.65017
ia쎯	-7.65291
f쎯aq쎯	-7.6531
tk쎯	-7.65741
wys쎯	-7.66263
dq쎯	-7.66396
wc쎯	-7.67218
rj쎯waw쎯	-7.67646
sh쎯	-7.67809
nnh쎯	-7.67817
lk쎯	-7.68233
rmhj쎯	-7.68324
vfhp쎯ymc쎯	-7.68443
쎉	-7.68747
rnb쎯	-7.69156
a쎯	-7.69695
q	-7.69888
od쎯	-7.70111
jgm쎯	-7.70713
nnk쎯	-7.70719
,c쎯	-7.71177
w쎯,	-7.71271
ymhj쎯fnrt쎯	-7.71342
nnnn쎯	-7.72674
vb쎯	-7.72765
lg쎯	-7.7277
y쎯	-7.72831
),	-7.72919
wgkq쎯et쎯	-7.73033
fhn쎯	-7.73391
tu쎯rfc쎯	-7.73664
cc쎯	-7.7369
t	-7.73965
sk쎯c쎯	-7.74102
xe쎯	-7.74189
kkd쎯	-7.74586
ntk쎯	-7.75625
an쎯lwj쎯	-7.76025
tp쎯	-7.7699
q쎯	-7.772
qiu쎯	-7.77241
h쎯itx쎯	-7.77439
wug쎯	-7.7744
gkp쎯	-7.77458
y쎯s쎯	-7.77588
mqq쎯xtk쎯	-7.77823
pyj쎯	-7.77862
ith쎯	-7.78353
ovt쎯	-7.78441
rvyo쎯	-7.79916
adwr쎯	-7.80026
lq쎯	-7.80576
cep쎯fp쎯	-7.80656
”.	-7.80749
wy쎯thn쎯	-7.80955
ukn쎯	-7.81479
aqt쎯	-7.81642
thg쎯	-7.81835
oy쎯	-7.81901
qc쎯	-7.82003
tjh쎯	-7.82015
ftx쎯	-7.82205
img쎯	-7.82439
tkh쎯	-7.82448
iyc쎯	-7.82894
ggi쎯fuj쎯	-7.83019
sb쎯	-7.83265
ltu쎯	-7.8328
rcn쎯	-7.8337
쎂쎀	-7.83618
ccc쎯	-7.83668
jn쎯	-7.8397
gef쎯	-7.84286
pb쎯	-7.84293
yynw쎯	-7.84432
ssss쎯	-7.84874
kgn쎯	-7.85018
ugm쎯	-7.8509
hhu쎯	-7.85269
ep쎯	-7.85325
jg쎯	-7.85536
bj쎯	-7.85748
vfhp쎯	-7.86262
rp쎯	-7.8628
gk쎯	-7.86978
tg쎯itd쎯	-7.87155
xx쎯	-7.87495
g	-7.87811
tx쎯g쎯	-7.87824
fd쎯ymhj쎯	-7.88298
w쎯.	-7.88446
an쎯	-7.88546
쎁쎂	-7.88723
vvv쎯	-7.88786
uh쎯	-7.88801
ru쎯	-7.88986
uj쎯	-7.89005
rxj쎯	-7.89087
ugdu쎯l쎯	-7.89662
anb쎯sy쎯	-7.89997
wgkq쎯	-7.90126
ip쎯tg쎯	-7.90377
w	-7.90504
r	-7.90513
ymc쎯tlf쎯	-7.90883
adwe쎯	-7.91225
쎁쎅	-7.91252
tjf쎯	-7.91304
ftbt쎯	-7.91733
fggh쎯	-7.91846
wgk쎯	-7.91917
ftbt쎯ip쎯	-7.92153
uy쎯	-7.92604
yu쎯	-7.93151
tmd쎯	-7.93238
ip쎯nu쎯	-7.93457
wys쎯lft쎯	-7.93833
pn쎯	-7.93917
qgf쎯	-7.94306
py쎯wf쎯	-7.94685
uu쎯	-7.94922
ad쎯	-7.9526
.d쎯	-7.95568
fj쎯	-7.95656
qi쎯	-7.96268
y	-7.9643
ujfj쎯	-7.97242
j	-7.97272
쎃쎀	-7.97386
rmc쎯uqwm쎯	-7.9742
ld쎯	-7.97839
s	-7.97861
vfhp쎯tam쎯	-7.98057
mfk쎯	-7.98083
hx쎯	-7.98493
f	-7.98593
n	-7.9889
dgt쎯	-7.98977
》:“	-7.99014
hc쎯	-7.99026
sfi쎯uwy쎯	-7.99068
iv쎯	-7.99795
lll쎯	-7.99853
d	-7.99911
pgy쎯	-7.99997
!	-8.00076
gl쎯	-8.00905
al쎯ce쎯	-8.01643
yff쎯	-8.01783
reh쎯e쎯	-8.01817
xxf쎯og쎯gf쎯	-8.01838
nfc쎯	-8.01978
ipw쎯	-8.02032
n쎯	-8.02171
gip쎯	-8.02334
ga쎯vck쎯	-8.02384
ujfj쎯wug쎯	-8.02522
tk쎯tkh쎯	-8.02604
tr쎯	-8.02795
pg쎯	-8.03023
rpw쎯rmhj쎯	-8.03155
udy쎯	-8.03248
fnrt쎯	-8.03463
wfny쎯	-8.03748
ab쎯	-8.03807
쎁쎉	-8.04327
udbb쎯	-8.04717
fc쎯rf쎯	-8.05036
uf쎯	-8.05058
aw쎯	-8.05072
mqb쎯	-8.0509
lkd쎯	-8.05213
,o쎯	-8.05345
ts쎯	-8.05593
ic쎯	-8.05678
dn쎯o쎯	-8.05741
lpk쎯	-8.05765
wq쎯	-8.05911
a쎯og쎯	-8.05993
ajj쎯	-8.06139
djd쎯	-8.06264
xk쎯	-8.06367
gjq쎯	-8.0638
kkk쎯thgf쎯	-8.0671
ag쎯	-8.06755
itd쎯fcl쎯	-8.06771
zzsx쎯	-8.06794
tq쎯	-8.0688
std쎯	-8.0688
ga쎯v쎯	-8.06936
ba쎯	-8.07014
gy쎯	-8.0717
ftbt쎯jgm쎯	-8.0719
gog쎯	-8.07463
eee쎯	-8.075
wt쎯o쎯	-8.07769
ide쎯	-8.07793
uth쎯	-8.07889
xq쎯	-8.07911
wty쎯	-8.0807
ooo쎯	-8.08309
yne쎯	-8.08394
gah쎯	-8.08833
dmh쎯	-8.09156
vcb쎯	-8.09359
vt쎯	-8.09386
lp쎯	-8.0961
yx쎯	-8.09696
ygk쎯	-8.10178
tf쎯og쎯	-8.10366
src쎯	-8.10433
lft쎯	-8.10556
kkk쎯	-8.10586
gkl쎯	-8.1084
jjjj쎯sg쎯	-8.10911
dj쎯	-8.10925
atd쎯bpf쎯	-8.10973
wh쎯	-8.11086
rs쎯	-8.11234
wa쎯	-8.11296
iytb쎯ca쎯	-8.11338
p쎯	-8.11573
puv쎯	-8.11858
xeg쎯	-8.11941
ul쎯	-8.11996
idr쎯	-8.11998
cd쎯lk쎯	-8.1203
wy쎯	-8.12118
um쎯	-8.12153
yj쎯	-8.1237
fnr쎯	-8.12627
jtg쎯	-8.1269
k쎯r쎯	-8.13348
gae쎯	-8.13382
ujf쎯qi쎯	-8.1341
bu쎯	-8.13493
uqw쎯	-8.13532
txi쎯gq쎯	-8.13559
mj쎯	-8.13711
wt쎯kkk쎯	-8.13807
fqp쎯	-8.13807
tu쎯ip쎯	-8.13901
bs쎯	-8.14111
nge쎯	-8.14188
m	-8.1427
og쎯	-8.14377
ght쎯ywf쎯	-8.14534
es쎯et쎯	-8.14577
dw쎯	-8.14613
lfo쎯	-8.14702
ffff쎯	-8.14988
쎁쎁	-8.15264
bpf쎯	-8.15488
yny쎯	-8.15562
wdt쎯	-8.15666
rfm쎯jg쎯	-8.15868
pv쎯wg쎯	-8.15902
iit쎯	-8.15956
scf쎯	-8.16217
suq쎯	-8.16218
wdn쎯te쎯	-8.16555
bc쎯	-8.16699
kq쎯	-8.17144
fn쎯	-8.17235
쎁쎈	-8.17256
gm쎯wa쎯	-8.17283
xf쎯sq쎯	-8.17757
tffu쎯.	-8.17894
fawk쎯	-8.18149
ps쎯	-8.1826
uff쎯	-8.1826
js쎯	-8.18276
py쎯aq쎯	-8.18339
lfq쎯	-8.18643
bw쎯	-8.19133
”zzbd쎯“	-8.19569
hka쎯	-8.19594
sov쎯	-8.1973
”r쎯	-8.20286
u	-8.20376
tmg쎯	-8.20522
jf쎯uj쎯	-8.20616
yid쎯	-8.20628
,wjg쎯	-8.21131
og쎯tl쎯	-8.21142
epc쎯	-8.21153
쎁쎆	-8.21214
aqt쎯tj쎯	-8.21275
fhv쎯	-8.21511
lfn쎯	-8.21616
st쎯	-8.21821
ae쎯	-8.219
fhw쎯	-8.21949
iw쎯	-8.22026
pgc쎯	-8.22218
tfn쎯	-8.22241
jn쎯bb쎯	-8.22495
rfm쎯	-8.22645
oge쎯	-8.22645
xw쎯	-8.22762
ww쎯gk쎯	-8.23175
isgg쎯	-8.23271
ipkh쎯	-8.23426
fcl쎯	-8.23807
fh쎯	-8.24004
qe쎯	-8.24402
hw쎯	-8.24551
ujn쎯	-8.24571
x쎯apk쎯	-8.24606
ma쎯	-8.24675
ick쎯ubk쎯	-8.24722
yygt쎯	-8.25075
yid쎯et쎯	-8.2513
wqa쎯	-8.25159
lqw쎯wrh쎯	-8.25286
”,	-8.25333
k쎯ip쎯	-8.25469
ujj쎯	-8.25617
thd쎯nng쎯	-8.25619
sft쎯ou쎯	-8.25773
qa쎯	-8.2612
ytey쎯iytb쎯	-8.2631
nd쎯	-8.26348
dy쎯	-8.26401
쎅쎀	-8.26426
ax쎯	-8.2644
wyv쎯	-8.26561
yy쎯if쎯	-8.26614
tffh쎯	-8.26903
tel쎯	-8.26937
xxg쎯	-8.27007
).	-8.27135
mww쎯	-8.27175
yi쎯j쎯	-8.27328
qr쎯	-8.27571
px쎯	-8.2763
yq쎯	-8.27734
swc쎯	-8.28199
wv쎯sr쎯	-8.28246
tfqp쎯	-8.2839
ud쎯	-8.2848
ymf쎯	-8.28523
dl쎯kq쎯	-8.28612
cnh쎯	-8.28782
ihc쎯	-8.28786
yqa쎯	-8.28839
rc쎯	-8.28862
ire쎯	-8.28896
ff쎯	-8.28938
qn쎯rtd쎯	-8.28949
thgc쎯	-8.2899
sve쎯	-8.29245
쎄쎀	-8.29326
uk쎯wv쎯	-8.29706
l쎯mw쎯	-8.29806
thd쎯qd쎯	-8.29931
fqu쎯	-8.30023
tv쎯km쎯wf쎯	-8.30076
kthh쎯	-8.30131
aws쎯	-8.30256
fl쎯wf쎯	-8.30302
rgw쎯	-8.30439
zzts쎯	-8.30618
x	-8.30886
ow쎯	-8.30888
tfq쎯	-8.30902
ujf쎯	-8.30984
lwj쎯	-8.31108
wgk쎯wt쎯	-8.31111
ywx쎯	-8.31111
pw쎯	-8.31229
jy쎯	-8.31341
hv쎯	-8.31378
tld쎯	-8.31682
tjt쎯	-8.31688
qn쎯	-8.31751
ge쎯	-8.31824
yyy쎯	-8.32096
fhl쎯	-8.32102
gyt쎯	-8.32205
vbn쎯	-8.32217
rb쎯	-8.32241
i쎯m쎯	-8.32246
yt쎯	-8.32289
pfi쎯	-8.32466
u쎯	-8.32473
yo쎯	-8.32658
qynm쎯	-8.32667
pei쎯og쎯	-8.32908
lk쎯ty쎯	-8.33343
fghg쎯	-8.33473
yvh쎯	-8.33788
q쎯wu쎯	-8.34103
rhf쎯	-8.34132
jf쎯,	-8.34466
isgg쎯yhk쎯	-8.34516
rg쎯,	-8.34943
fny쎯pe쎯	-8.34966
w쎯km쎯	-8.35408
wdm쎯	-8.35475
,adw쎯	-8.35512
tfk쎯	-8.35593
uqwm쎯idr쎯	-8.35808
tx쎯fg쎯	-8.35951
wk쎯	-8.36296
yh쎯	-8.36327
ick쎯	-8.36386
uqd쎯	-8.36485
ll쎯	-8.36804
fge쎯	-8.37175
gmf쎯	-8.37223
쎂쎅	-8.37751
ggi쎯	-8.38084
nui쎯	-8.38105
amd쎯	-8.38292
gj쎯ywx쎯	-8.38598
pyg쎯	-8.38677
gfi쎯	-8.39147
rmhj쎯wt쎯	-8.39716
se쎯	-8.39897
pu쎯	-8.40251
td쎯	-8.40376
uq쎯	-8.40937
wk쎯ryn쎯	-8.40957
ruv쎯	-8.41006
sc쎯	-8.41277
wfg쎯	-8.41351
th쎯gj쎯	-8.41365
gm쎯	-8.41471
aft쎯qk쎯	-8.41748
ft쎯	-8.41797
ipkf쎯	-8.41916
sm쎯sa쎯	-8.41971
쎁쎄	-8.42049
irn쎯lg쎯	-8.42189
,e쎯	-8.4249
pgn쎯	-8.42552
xp쎯wgk쎯	-8.4258
tve쎯	-8.42624
naj쎯	-8.42685
sm쎯sq쎯	-8.42847
ufy쎯	-8.43342
mdf쎯	-8.43478
dgkn쎯	-8.4357
rj쎯ym쎯	-8.43597
im쎯e쎯	-8.43858
fcp쎯fcl쎯	-8.43878
쎁쎃	-8.439
wht쎯	-8.44411
vtk쎯	-8.4443
tgj쎯hko쎯	-8.44454
et쎯yne쎯	-8.44627
e	-8.44837
ijl쎯	-8.44909
lk쎯a쎯	-8.45017
mmm쎯ai쎯	-8.45243
ih쎯ip쎯	-8.45268
w쎯ft쎯	-8.4534
xl쎯	-8.4538
yygy쎯ip쎯	-8.45394
qm쎯gmu쎯	-8.4542
kw쎯	-8.45445
fghy쎯	-8.45497
tt쎯	-8.45689
iex쎯	-8.45706
km쎯	-8.45789
fhu쎯	-8.45818
yni쎯	-8.4584
lw쎯	-8.45892
쎀	-8.46045
rhk쎯	-8.4607
qev쎯	-8.46489
sn쎯	-8.46502
pa쎯	-8.46716
jqr쎯	-8.46826
yb쎯	-8.46835
qie쎯wyk쎯	-8.46974
tdg쎯	-8.47028
쎁쎇	-8.47104
gj쎯	-8.4733
wfhg쎯	-8.47435
u쎯og쎯	-8.47564
쎆쎀	-8.47623
wbj쎯usr쎯	-8.47693
rxj쎯nf쎯	-8.47725
fgh쎯	-8.47761
it쎯	-8.47765
yww쎯	-8.4779
g쎯tkh쎯	-8.47912
xf쎯	-8.48048
me쎯	-8.4805
yhk쎯	-8.48136
atd쎯ip쎯	-8.48146
dd쎯gajf쎯	-8.48169
kg쎯	-8.48391
iytb쎯	-8.48564
s쎯fiy쎯	-8.48763
,dmj쎯	-8.48782
uvo쎯	-8.48835
쎁쎀쎀	-8.49298
k쎯md쎯	-8.49491
adw쎯k쎯	-8.49602
jn쎯jyie쎯	-8.49768
dnnl쎯	-8.50069
kgd쎯	-8.50174
fje쎯	-8.50229
xmw쎯	-8.50256
fii쎯	-8.5034
mqq쎯uh쎯	-8.50569
nh쎯	-8.50573
fw쎯	-8.50806
yjjh쎯	-8.50958
pfq쎯dn쎯	-8.51052
alw쎯	-8.51143
dfy쎯	-8.51286
xwy쎯	-8.51288
fdm쎯s쎯	-8.51445
adw쎯wb쎯	-8.51573
nae쎯	-8.51613
sfhg쎯tr쎯	-8.52053
lhnh쎯	-8.52135
pp쎯g쎯.	-8.5243
cff쎯	-8.52493
dskf쎯	-8.52581
ln쎯	-8.52601
g쎯tem쎯	-8.52722
vo쎯	-8.5294
fwm쎯aj쎯	-8.53035
mw쎯pww쎯	-8.53184
lkmi쎯	-8.53217
pt쎯yne쎯	-8.53269
?	-8.53337
yf쎯tha쎯sm쎯	-8.53365
ait쎯	-8.5342
pei쎯	-8.53469
wycm쎯fakg쎯	-8.53477
pk쎯	-8.5352
e쎯ud쎯	-8.53572
bm쎯thgc쎯	-8.53757
bnn쎯	-8.53894
wa쎯ge쎯	-8.5414
av쎯	-8.54164
um쎯og쎯	-8.54183
wvf쎯yvi쎯	-8.54292
yf쎯aj쎯	-8.5435
mqu쎯	-8.54407
yfd쎯	-8.54487
sgc쎯	-8.54551
vfb쎯	-8.54569
fuk쎯yk쎯	-8.546
ymc쎯	-8.54663
inr쎯	-8.54701
sve쎯rnd쎯	-8.54782
w쎯n쎯	-8.55123
hhhh쎯	-8.55175
nx쎯	-8.55189
lu쎯	-8.5521
gqx쎯	-8.55232
nnnn쎯x쎯	-8.55402
wh쎯w쎯	-8.55521
rpv쎯	-8.55523
tjf쎯iawn쎯	-8.55578
rmhj쎯tfkp쎯	-8.55682
yngk쎯	-8.5576
w쎯kkkk쎯	-8.55765
uq쎯cep쎯	-8.55951
ttg쎯	-8.55987
psu쎯	-8.56027
쎈쎀	-8.56029
fk쎯	-8.56529
iawn쎯	-8.5654
tjh쎯et쎯	-8.56609
kfi쎯	-8.5674
ipk쎯	-8.56894
ip쎯wf쎯	-8.56996
by쎯	-8.57222
uo쎯	-8.57229
qg쎯	-8.573
stx쎯	-8.57508
qnp쎯	-8.57605
+	-8.57609
dht쎯	-8.5761
qgb쎯	-8.57638
tyna쎯	-8.5774
yn쎯	-8.57943
pu쎯gm쎯	-8.58313
flf쎯	-8.58414
n쎯ytt쎯	-8.58757
us쎯	-8.58976
shn쎯	-8.59041
to쎯	-8.59068
ck쎯iyo쎯	-8.59075
mtd쎯	-8.59195
sksw쎯	-8.59261
py쎯	-8.5929
adnt쎯	-8.59352
wfny쎯xyc쎯	-8.59422
ce쎯lt쎯	-8.59426
rjg쎯wtf쎯	-8.59447
ym쎯xe쎯	-8.59599
ght쎯	-8.59612
xqa쎯	-8.59758
bwt쎯	-8.59794
pp쎯g쎯	-8.59813
h	-8.59818
thd쎯fcl쎯	-8.60002
jb쎯dd쎯	-8.60059
a쎯anb쎯	-8.60228
ylk쎯	-8.60234
.wc쎯ngk쎯	-8.60292
jyie쎯ktm쎯	-8.60472
ovt쎯rnd쎯	-8.60494
ri쎯	-8.60602
yy쎯aa쎯	-8.60651
bg쎯	-8.60667
.《	-8.60842
fc쎯	-8.61202
p쎯wh쎯	-8.61241
ywf쎯	-8.61259
dn쎯uu쎯	-8.61548
xv쎯	-8.61563
imgk쎯	-8.61627
qgj쎯	-8.6169
wwk쎯	-8.61769
yygy쎯wrh쎯	-8.61853
tfqp쎯rcf쎯	-8.61991
qd쎯	-8.62141
,ll쎯,	-8.62146
rymn쎯	-8.62204
tk쎯od쎯	-8.62247
v	-8.62253
dwiu쎯	-8.62295
uduk쎯	-8.62321
qmq쎯	-8.6237
xyna쎯	-8.62433
xl쎯eqn쎯	-8.62502
쎂쎄	-8.62522
dh쎯	-8.62554
fcp쎯	-8.62632
wbj쎯wt쎯	-8.62779
cqy쎯	-8.62809
ukd쎯jghm쎯	-8.62982
wtu쎯	-8.62984
saj쎯aa쎯	-8.63019
pnt쎯	-8.63051
j쎯rxj쎯	-8.63074
sgh쎯	-8.63286
wyc쎯	-8.63334
tv쎯	-8.63356
ii쎯gu쎯	-8.63405
ytt쎯	-8.63406
wxj쎯	-8.63535
apk쎯	-8.63561
gxi쎯	-8.63944
ou쎯	-8.63997
jty쎯	-8.64094
,mh쎯	-8.64472
ad쎯sg쎯	-8.64564
al쎯	-8.64571
gae쎯dn쎯	-8.64648
wqj쎯	-8.64692
qt쎯	-8.64698
djd쎯ipkh쎯	-8.64798
qve쎯	-8.64834
bg쎯tg쎯	-8.64863
,wb쎯	-8.65103
ftbt쎯rep쎯	-8.65196
dga쎯pwv쎯rn쎯	-8.65509
q쎯l쎯	-8.65599
aet쎯	-8.65605
fj쎯ty쎯	-8.65685
:“	-8.65686
bm쎯thgc쎯py쎯	-8.65775
mmm쎯ai쎯ith쎯	-8.658
ugl쎯	-8.65823
wrh쎯	-8.6583
cm쎯	-8.65857
khu쎯	-8.65967
dp쎯gc쎯	-8.6608
v쎯tg쎯	-8.66135
td쎯ykw쎯	-8.66166
쎂쎂	-8.66336
umd쎯	-8.6634
,wgkq쎯	-8.66383
wsk쎯	-8.66625
m쎯jf쎯	-8.66633
fiy쎯	-8.66703
wyv쎯kkk쎯	-8.66755
l	-8.66771
ntg쎯ce쎯	-8.66776
yvi쎯	-8.66798
wgj쎯	-8.66865
pynn쎯	-8.66883
k쎯,	-8.66899
txg쎯	-8.67208
yygt쎯ytyh쎯	-8.67279
쎂쎀쎀	-8.67349
cw쎯	-8.67449
o	-8.67587
fuk쎯udyj쎯	-8.67599
yfn쎯	-8.67615
w쎯tr쎯	-8.67716
tg쎯tr쎯	-8.6778
r쎯g쎯tkh쎯	-8.67818
gmww쎯wh쎯	-8.67828
jfc쎯	-8.68115
ywx쎯yygy쎯	-8.68151
v쎯gm쎯	-8.68167
pgk쎯	-8.68209
tak쎯	-8.68242
od쎯gajf쎯	-8.68328
ahty쎯	-8.68535
rdj쎯	-8.6866
tmo쎯	-8.68899
쎁쎀eee쎯	-8.68984
tg쎯gf쎯	-8.69067
trf쎯qc쎯	-8.69076
wc쎯kht쎯	-8.69251
ght쎯ick쎯	-8.69259
hk쎯	-8.69439
wx쎯ip쎯	-8.69473
qng쎯	-8.69544
j쎯g쎯wh쎯	-8.69584
thd쎯nng쎯r쎯	-8.69898
g쎯hxf쎯	-8.69976
gq쎯	-8.70045
vfhp쎯uu쎯	-8.70067
xgu쎯	-8.7021
oyvk쎯	-8.70323
gu쎯ck쎯	-8.70375
eb쎯	-8.70503
gny쎯	-8.70562
fv쎯	-8.70562
dm쎯tkw쎯	-8.70699
wb쎯wu쎯	-8.70735
irr쎯ia쎯	-8.7095
rkk쎯wt쎯	-8.70965
fha쎯	-8.70987
쎄eee쎯	-8.71074
ih쎯yu쎯	-8.71152
ywt쎯	-8.71152
쎆eee쎯	-8.71237
wsg쎯yce쎯	-8.71377
ye쎯	-8.71394
ad쎯dbm쎯	-8.71447
qy쎯	-8.71475
ddu쎯	-8.7149
)zzbd쎯	-8.71689
uq쎯iyc쎯	-8.71781
rta쎯	-8.71808
djb쎯	-8.71989
riu쎯	-8.72017
rn쎯e쎯	-8.72087
hhhh쎯ue쎯	-8.72254
pfjm쎯	-8.72316
ghd쎯aa쎯	-8.72409
bi쎯	-8.72553
gef쎯rh쎯	-8.72568
de쎯	-8.7265
bde쎯	-8.72726
synw쎯	-8.72886
xh쎯	-8.72981
tj쎯gc쎯	-8.73098
wvt쎯	-8.73099
iagw쎯	-8.73204
쎃쎂	-8.73254
vn쎯	-8.73271
dga쎯pwv쎯tg쎯	-8.73273
dn쎯al쎯	-8.73296
jj쎯	-8.73396
kd쎯	-8.73421
ntf쎯	-8.73458
pf쎯	-8.73468
nm쎯	-8.73481
vi쎯	-8.7359
fjk쎯	-8.73657
if쎯tvfh쎯	-8.7366
hj쎯	-8.73744
temk쎯	-8.73868
thgf쎯	-8.74046
lh쎯kthh쎯	-8.74069
tx쎯dg쎯	-8.74076
쎇쎀	-8.74282
nty쎯	-8.74314
ruv쎯kkkk쎯	-8.74444
yygt쎯ai쎯	-8.74469
wt쎯et쎯	-8.74551
fa쎯	-8.74586
yjs쎯tkgg쎯	-8.74661
pu쎯ytb쎯	-8.74726
yy쎯dm쎯	-8.74734
lwx쎯	-8.74756
vfhp쎯tam쎯dm쎯tkw쎯	-8.74778
eu쎯	-8.74797
sh쎯ud쎯	-8.75006
usr쎯ub쎯	-8.75177
ivw쎯	-8.75297
,adw쎯k쎯	-8.75426
yneg쎯	-8.7551
jv쎯	-8.75558
ynt쎯	-8.75584
i쎯on쎯	-8.75596
wynk쎯	-8.75664
pym쎯	-8.75668
tf쎯ght쎯	-8.75884
pt쎯	-8.75905
j쎯mh쎯	-8.7606
ifh쎯	-8.76169
yygt쎯sghg쎯	-8.76571
sg쎯nnh쎯	-8.76579
et쎯gf쎯	-8.76666
adm쎯	-8.76794
ugdu쎯sy쎯	-8.77071
os쎯	-8.77074
c	-8.77347
up쎯	-8.77409
yiu쎯	-8.77451
nf쎯	-8.7761
wg쎯dm쎯	-8.77683
yygt쎯ai쎯ith쎯	-8.77729
wm쎯	-8.77752
gs쎯	-8.77763
be쎯	-8.77846
ia쎯alw쎯	-8.77909
mt쎯	-8.77911
tfq쎯tg쎯	-8.77914
jn쎯pym쎯	-8.77934
hi쎯	-8.77976
qyvl쎯	-8.78082
xx쎯lu쎯	-8.78174
yygy쎯je쎯	-8.78247
쎃쎅	-8.78277
vtkd쎯	-8.78393
w쎯n쎯ght쎯ywf쎯	-8.78473
you쎯	-8.78515
isk쎯fm쎯	-8.78517
쎈eee쎯	-8.78648
te쎯	-8.78896
atd쎯	-8.78969
fm쎯yiu쎯	-8.78982
amd쎯ygk쎯	-8.79021
klj쎯	-8.79036
fhq쎯	-8.79036
fcb쎯	-8.79214
rw쎯	-8.79254
wynb쎯	-8.79317
aq쎯fakg쎯	-8.79352
wjg쎯	-8.79402
kwg쎯	-8.79426
fffy쎯	-8.79437
--	-8.79484
sfi쎯	-8.79539
yjj쎯	-8.79559
fcl쎯tr쎯	-8.79624
kha쎯	-8.79627
pv쎯ufy쎯	-8.79946
um쎯tl쎯	-8.80064
ng쎯	-8.80114
sdm쎯	-8.80202
tfl쎯l쎯	-8.80208
xf쎯wgk쎯	-8.80234
rwyg쎯yygt쎯	-8.80346
,cf쎯	-8.80405
yft쎯	-8.80406
tfq쎯fj쎯	-8.80437
ngk쎯	-8.80462
qve쎯tf쎯	-8.80605
.yynw쎯	-8.80618
uwyc쎯	-8.80626
ygh쎯	-8.80674
udyj쎯	-8.80944
pgj쎯wfny쎯	-8.81027
uqwm쎯ou쎯	-8.81031
fnw쎯	-8.81042
pe쎯ytfp쎯	-8.81071
xjm쎯	-8.81301
qr쎯kht쎯	-8.81327
ga쎯nae쎯	-8.81364
f쎯yy쎯	-8.81394
ght쎯tgm쎯	-8.81411
gogj쎯	-8.81475
ukh쎯	-8.81733
sam쎯	-8.81777
gmd쎯	-8.81982
jty쎯ysi쎯	-8.82084
eajd쎯	-8.82127
dty쎯	-8.82156
yv쎯	-8.82217
iyw쎯	-8.82227
qtj쎯uu쎯	-8.82294
jf쎯wa쎯	-8.82299
bk쎯	-8.82342
ugm쎯gxgu쎯	-8.82378
iyo쎯	-8.82462
i쎯ce쎯	-8.82557
jh쎯	-8.82579
ese쎯	-8.82813
jhny쎯	-8.82891
tkh쎯sfhg쎯	-8.82999
ln쎯shn쎯	-8.8316
dty쎯gk쎯	-8.83187
r쎯g쎯wh쎯	-8.83263
ntk쎯gf쎯	-8.83502
lc쎯	-8.8354
pei쎯sf쎯	-8.83546
yf쎯	-8.83753
udp쎯	-8.83762
bu쎯wgk쎯	-8.83771
gmy쎯	-8.83846
wg쎯gfi쎯	-8.83884
쎂쎃	-8.84022
alt쎯	-8.84037
yygt쎯tfkf쎯	-8.841
sf쎯tv쎯wf쎯	-8.84138
c쎯h쎯	-8.84188
ds쎯	-8.8426
*	-8.84307
,vcb쎯	-8.84329
da쎯	-8.84334
aw쎯m쎯	-8.84341
oug쎯	-8.84371
nkuf쎯	-8.84375
,wug쎯gf쎯	-8.84575
쎉eee쎯	-8.84584
iu쎯	-8.84636
jyie쎯	-8.84739
xyy쎯	-8.84815
dc쎯	-8.84816
rj쎯	-8.84882
ud쎯txi쎯	-8.85005
g쎯uqw쎯	-8.85023
wtl쎯	-8.85174
mwyc쎯	-8.85176
pw쎯uj쎯	-8.85373
ymc쎯ytb쎯	-8.85453
gcft쎯	-8.85454
wbj쎯	-8.85544
ide쎯fm쎯	-8.85586
af쎯wgkb쎯	-8.85611
ad쎯f쎯	-8.85864
ajt쎯	-8.85871
bm쎯tg쎯gf쎯	-8.85929
iy쎯	-8.85962
dn쎯km쎯	-8.8604
cd쎯gn쎯	-8.86057
kkk쎯tkh쎯	-8.861
fh쎯ruv쎯	-8.86212
쎂쎈	-8.86265
qmgk쎯	-8.86288
ygk쎯yyy쎯	-8.86293
aps쎯	-8.86413
j쎯g쎯tkh쎯	-8.86482
pp쎯uj쎯	-8.86621
ktn쎯	-8.86687
lw쎯wc쎯pgc쎯	-8.8674
ia쎯alw쎯ith쎯	-8.86744
qsu쎯	-8.86799
amd쎯l쎯	-8.87074
,sk쎯	-8.8712
ai쎯ux쎯	-8.87162
pu쎯cwg쎯	-8.87252
bm쎯gm쎯	-8.87361
qqqq쎯ntk쎯	-8.87376
xxe쎯	-8.87423
ha쎯	-8.87542
~	-8.87656
uo쎯cep쎯	-8.87721
dhb쎯	-8.8774
iqc쎯	-8.87761
gae쎯aa쎯	-8.87771
쎅eee쎯	-8.87852
kha쎯yb쎯	-8.87969
wf쎯yyq쎯	-8.88053
apk쎯qie쎯	-8.88093
ol쎯	-8.88114
wr쎯	-8.88183
ldn쎯	-8.88184
nnh쎯if쎯	-8.88271
uqt쎯js쎯	-8.88522
쎉쎀	-8.88529
wwj쎯wfhg쎯	-8.88652
xn쎯	-8.88865
r쎯“	-8.88872
,vk쎯	-8.88982
synw쎯ny쎯	-8.89004
qq쎯tkh쎯	-8.89036
puhc쎯ygu쎯o쎯	-8.89086
xqc쎯	-8.8916
hhhh쎯sfi쎯	-8.89166
쎄쎅	-8.89169
rvy쎯tf쎯	-8.89182
hxx쎯	-8.89355
ts쎯wrh쎯	-8.89382
wc쎯lfq쎯	-8.89423
》tffu쎯	-8.89482
jn쎯eyb쎯	-8.89505
efcb쎯	-8.89631
h쎯r쎯	-8.89717
bgh쎯	-8.89799
yy쎯tm쎯	-8.8998
pv쎯tmgt쎯	-8.90036
wye쎯	-8.90074
ftjb쎯j쎯	-8.90159
ftg쎯	-8.90162
bk쎯og쎯	-8.90418
ndj쎯	-8.90433
쎂쎁	-8.90621
a쎯wt쎯.	-8.90625
fny쎯	-8.9069
nyu쎯	-8.90825
wu쎯	-8.90844
dgv쎯	-8.90868
mq쎯st쎯	-8.90933
ib쎯	-8.90952
쎂쎆	-8.90978
ltk쎯	-8.90994
lqw쎯	-8.91001
qtj쎯	-8.91058
lks쎯	-8.9107
yaa쎯	-8.91084
wgi쎯	-8.91096
puh쎯	-8.9122
kh	-8.91236
tg쎯dyn쎯	-8.91267
on쎯	-8.91325
etg쎯	-8.91436
ta쎯adwe쎯	-8.91487
irr쎯ia쎯ith쎯	-8.91566
yy쎯wgj쎯	-8.91672
x쎯fp쎯	-8.91897
fcp쎯tf쎯	-8.91902
p쎯hxf쎯	-8.91951
yd쎯	-8.92018
iaw쎯	-8.92156
ytb쎯	-8.92185
tu쎯dga쎯	-8.92307
wt쎯ftj쎯	-8.9242
oge쎯pyj쎯	-8.92451
ip쎯sy쎯	-8.9251
uda쎯	-8.92599
ey쎯adw쎯	-8.92601
dyt쎯	-8.92646
jghm쎯	-8.92702
u쎯tg쎯	-8.92707
tffh쎯uthp쎯	-8.92732
fu쎯	-8.92733
v쎯ge쎯	-8.92783
ge쎯dm쎯	-8.928
ufy쎯qnth쎯	-8.92844
dcw쎯	-8.92903
myd쎯	-8.93024
sgn쎯	-8.9311
eyb쎯	-8.93229
mc쎯	-8.93237
if쎯l쎯	-8.93274
lfhf쎯	-8.93323
jf쎯imkf쎯	-8.93412
ytd쎯	-8.93518
ywu쎯	-8.93599
geq쎯	-8.93638
w쎯wu쎯	-8.93676
xeg쎯dn쎯	-8.93682
mh쎯gf쎯	-8.93788
fggh쎯uk쎯	-8.93901
cy쎯	-8.93973
gkip쎯	-8.94099
wgkb쎯	-8.94252
wsg쎯txi쎯	-8.94322
p쎯tkh쎯	-8.94415
iwf쎯	-8.94592
ftbt쎯sft쎯	-8.94643
tgj쎯s쎯	-8.94741
》(	-8.94786
xuj쎯	-8.94891
qqqq쎯gkm쎯	-8.94997
wyq쎯	-8.95088
jgm쎯aib쎯dd쎯ip쎯	-8.95139
wwj쎯	-8.95147
pye쎯	-8.95148
khu쎯gfi쎯	-8.95157
xgb쎯	-8.95219
tyg쎯	-8.95288
ith쎯xe쎯	-8.95307
wycm쎯nf쎯	-8.95685
ce쎯qkqq쎯	-8.9578
gm쎯e쎯	-8.95907
nnw쎯	-8.95919
twt쎯	-8.96017
anb쎯	-8.96089
sy쎯	-8.96239
.wb쎯	-8.96242
adk쎯	-8.96249
sghg쎯fm쎯	-8.96266
yw쎯ygh쎯	-8.96494
qyng쎯	-8.96617
wgc쎯	-8.9669
apg쎯	-8.9671
sgi쎯	-8.96759
uxe쎯	-8.9678
jb쎯dd쎯r쎯	-8.96976
rmhj쎯ya쎯	-8.96988
wffg쎯	-8.97041
ajd쎯	-8.97361
wf쎯km쎯	-8.97384
sw쎯imj쎯	-8.97391
vs쎯	-8.97501
wgq쎯	-8.97538
,uqf쎯	-8.97581
l쎯mw쎯qh쎯	-8.97605
itk쎯	-8.97629
adf쎯	-8.97668
cd쎯	-8.97785
jq쎯	-8.97889
dl쎯	-8.9797
ymd쎯	-8.97973
sghg쎯ux쎯	-8.9807
isk쎯ux쎯	-8.98073
k쎯wxf쎯	-8.98149
wg쎯uk쎯	-8.98186
qkhh쎯	-8.98225
yss쎯	-8.98336
ymc쎯e쎯	-8.98384
isk쎯fm쎯ith쎯	-8.98421
fyv쎯	-8.98504
eg쎯	-8.98519
p쎯g쎯	-8.98766
yjs쎯	-8.98802
ip쎯tu쎯	-8.98865
lfof쎯	-8.98893
pfj쎯	-8.98933
wv쎯o쎯	-8.98935
k쎯atd쎯	-8.98941
qje쎯	-8.99105
wgku쎯	-8.99112
yps쎯	-8.99203
pvs쎯	-8.99206
ui쎯	-8.99291
wfny쎯rtol쎯	-8.99419
qgu쎯	-8.99463
tl쎯	-8.9953
》,	-8.99575
yw쎯o쎯	-8.99646
nh쎯ty쎯	-8.997
qt쎯ujff쎯	-9.00009
gku쎯	-9.001
ide쎯ux쎯	-9.0015
udj쎯	-9.00174
ssq쎯	-9.00197
tdkj쎯	-9.00203
pww쎯	-9.00217
.adw쎯	-9.00291
ytb쎯a쎯	-9.00312
ec쎯	-9.0055
r쎯v쎯nae쎯	-9.00602
jf쎯adwe쎯	-9.00625
fku쎯	-9.00686
a쎯hw쎯	-9.00845
ufk쎯	-9.01005
bfm쎯	-9.0111
wj쎯xvk쎯	-9.01182
kkk쎯rfm쎯	-9.01271
bn쎯j쎯	-9.01379
bt쎯	-9.01593
rs쎯tfkp쎯	-9.01635
km쎯a쎯	-9.01691
tq쎯o쎯	-9.01704
fmk쎯	-9.01704
wcy쎯	-9.01826
aib쎯lfnh쎯	-9.01873
tkgg쎯ycb쎯	-9.02048
udb쎯	-9.02064
dtf쎯	-9.02106
xv쎯qc쎯	-9.02131
kn쎯	-9.02156
atd쎯ubk쎯	-9.02295
xxr쎯	-9.02324
fpx쎯	-9.02441
ebn쎯	-9.0273
dwt쎯	-9.02742
wdn쎯	-9.02794
uk쎯uyh쎯	-9.02811
sm쎯ud쎯	-9.0285
lpk쎯ruv쎯	-9.02923
pfjf쎯	-9.02973
mhny쎯	-9.03098
lud쎯	-9.03253
ffi쎯	-9.03279
ux쎯yiu쎯ymhj쎯	-9.03404
tg쎯,	-9.0351
gk쎯og쎯	-9.03728
fwm쎯saj쎯	-9.04099
fp쎯tkgg쎯	-9.041
ybv쎯	-9.04192
ijl쎯ya쎯	-9.04276
afl쎯	-9.04362
gd쎯ivfh쎯	-9.04399
utd쎯ugm쎯	-9.04416
yo쎯wx쎯	-9.04453
yssd쎯	-9.0447
hao쎯	-9.0449
quj쎯	-9.04565
tkw쎯se쎯	-9.04572
fkuk쎯	-9.04647
h쎯itx쎯ymhj쎯	-9.04735
쎂쎇	-9.04759
aqq쎯iyt쎯	-9.04862
ffff쎯f쎯	-9.04892
pyg쎯vfhp쎯	-9.04995
emc쎯	-9.05035
eyni쎯	-9.05202
peg쎯	-9.0529
tgh쎯	-9.05318
waw쎯	-9.05399
,ww쎯	-9.05416
lft쎯bw쎯	-9.05423
fge쎯fghg쎯	-9.05435
tkgg쎯	-9.05464
tfq쎯rg쎯	-9.05688
dt쎯egl쎯	-9.05784
yfj쎯	-9.05787
ud쎯gf쎯	-9.05836
tx쎯	-9.05858
yad쎯	-9.06013
pu쎯khg쎯	-9.06015
pgj쎯	-9.06025
wycm쎯	-9.06031
pp쎯g쎯,	-9.06054
dk쎯	-9.06091
ovt쎯ip쎯	-9.06193
ytf쎯qq쎯	-9.06194
pfq쎯wg쎯	-9.06234
wv쎯dmh쎯	-9.06258
aig쎯	-9.06471
쎂쎀쎀쎈rh쎯	-9.06475
y쎯rf쎯	-9.0659
쎃쎀쎀	-9.06601
ddm쎯fghg쎯	-9.0674
bct쎯	-9.06746
쎁쎂eee쎯	-9.06909
sfc쎯	-9.06985
wygg쎯	-9.07008
쎃쎆	-9.07156
쎇eee쎯	-9.07193
yaa쎯cwg쎯	-9.07247
k쎯aw쎯	-9.0738
o쎯b쎯	-9.07697
igt쎯	-9.07703
wuk쎯	-9.07751
lh쎯kthh쎯ith쎯	-9.07784
ca쎯	-9.07814
itd쎯	-9.07878
rq쎯	-9.07886
mm쎯	-9.0794
xyna쎯lkb쎯	-9.07948
쎁.	-9.07956
wb쎯r쎯	-9.08028
ryn쎯	-9.08083
qtfj쎯	-9.08122
imkf쎯	-9.08141
쎅쎀쎀	-9.08279
ago쎯	-9.08318
um쎯kkk쎯	-9.08384
wx쎯a쎯	-9.08503
un쎯pg쎯	-9.08614
wv쎯klj쎯	-9.08615
ipk쎯km쎯	-9.08632
gm쎯wtf쎯	-9.08664
fgh쎯wv쎯	-9.0869
w쎯r쎯	-9.08717
lm쎯	-9.08786
sgn쎯ddu쎯	-9.0889
rlg쎯	-9.08891
gjh쎯	-9.08967
l쎯pe쎯xe쎯	-9.09067
nt쎯	-9.09085
gxgu쎯	-9.09124
rgf쎯	-9.09141
wmj쎯	-9.09174
ia쎯sghg쎯	-9.09193
inx쎯	-9.09229
,px쎯	-9.09314
ub쎯	-9.09387
쎃eee쎯	-9.09398
btg쎯	-9.09516
euk쎯	-9.09543
qn쎯ufy쎯	-9.09548
pym쎯hid쎯	-9.09549
fo쎯	-9.09681
adwe쎯uj쎯	-9.09706
im쎯	-9.09865
uq쎯jqr쎯	-9.0997
pei쎯n쎯	-9.10017
gkih쎯	-9.10064
kr쎯	-9.10073
io쎯	-9.10132
r쎯tgj쎯s쎯	-9.10143
tgj쎯yd쎯	-9.10187
sf쎯vii쎯ntk쎯gf쎯	-9.10245
uce쎯	-9.10246
,i쎯	-9.10349
bfw쎯	-9.1041
fu쎯lk쎯	-9.10427
lpk쎯xfn쎯	-9.105
jlc쎯	-9.10523
dgj쎯	-9.10557
ugh쎯	-9.10568
yle쎯	-9.10679
jvko쎯	-9.10681
g쎯fhn쎯	-9.10732
ptkm쎯	-9.10834
쎁쎁eee쎯	-9.10863
wkh쎯fj쎯	-9.10974
mp쎯	-9.11046
fwm쎯aib쎯	-9.11123
rnr쎯	-9.11261
jtyl쎯hich쎯	-9.11306
trf쎯tgh쎯	-9.11368
ipw쎯fkh쎯	-9.11374
vtk쎯www쎯	-9.1149
ge쎯fi쎯	-9.11526
wwj쎯st쎯	-9.1163
yjs쎯jghm쎯	-9.11635
,ccc쎯	-9.11686
ak쎯ftj쎯	-9.11689
rvyl쎯	-9.11697
쎂쎀쎁쎀rh쎯	-9.11734
jo쎯fi쎯	-9.11814
oat쎯	-9.11825
fjfh쎯	-9.11863
wtf쎯tl쎯	-9.11926
pfqf쎯	-9.12052
pv쎯tmgt쎯ith쎯	-9.12059
rwyg쎯	-9.12079
gip쎯e쎯	-9.12124
etj쎯	-9.12217
nnw쎯gkip쎯	-9.12228
yygt쎯itp쎯	-9.12233
es쎯	-9.12243
fpm쎯	-9.12348
fd쎯aq쎯	-9.12364
a쎯wt쎯,	-9.12405
ajdf쎯	-9.1248
mmq쎯	-9.12493
jo쎯	-9.12572
khgm쎯	-9.1262
sfg쎯	-9.12782
쎂쎀쎀쎅rh쎯	-9.12835
xu쎯	-9.12909
쎂쎀쎀쎆rh쎯	-9.12951
ftjo쎯	-9.12956
sss쎯	-9.12975
thp쎯	-9.12982
wdn쎯rfm쎯	-9.13032
rrr쎯qc쎯	-9.13057
vaf쎯wsg쎯	-9.13077
uwl쎯	-9.1323
fhc쎯	-9.13251
zzxx쎯	-9.13377
my쎯	-9.13484
dg쎯wh쎯	-9.13488
tqv쎯pg쎯	-9.13506
syg쎯	-9.13515
ylf쎯	-9.13599
yt쎯ty쎯	-9.13634
gkih쎯wh쎯	-9.13758
ide쎯ux쎯ith쎯	-9.13801
g쎯fh쎯	-9.13833
jn쎯idr쎯	-9.13853
oo쎯	-9.13917
ifj쎯	-9.13979
fcp쎯lwg쎯	-9.1403
ggi쎯wk쎯	-9.14056
쎁eee쎯	-9.14083
yk쎯xan쎯	-9.14092
wbj쎯vfhp쎯	-9.14119
iqn쎯	-9.14166
wa쎯gj쎯	-9.14265
w쎯od쎯	-9.14326
dmjf쎯	-9.14388
uqwk쎯yqj쎯	-9.14401
tf쎯o쎯	-9.14478
gr쎯	-9.14546
tfkp쎯	-9.14576
bwf쎯	-9.14603
tr쎯rfm쎯	-9.14609
nge쎯ukq쎯	-9.14663
qyv쎯jqr쎯	-9.14694
쎂쎉	-9.14748
vcl쎯lt쎯	-9.14774
ju쎯	-9.14777
sqt쎯	-9.14793
yta쎯	-9.14881
hka쎯ltk쎯	-9.14932
fcu쎯fm쎯	-9.14965
iy쎯mm쎯	-9.14979
wnh쎯	-9.14981
pu쎯bf쎯	-9.15184
khgp쎯	-9.15213
rt쎯sm쎯	-9.15295
gcft쎯lt쎯gf쎯	-9.15295
gkip쎯ya쎯	-9.15372
yygt쎯dd쎯	-9.15383
bqr쎯	-9.15532
nyi쎯fghy쎯	-9.15636
xyc쎯g쎯	-9.1575
ytf쎯	-9.15926
ymc쎯lfhf쎯	-9.1593
fjh쎯	-9.16033
imj쎯	-9.16056
,gn쎯	-9.16092
trf쎯klj쎯	-9.16106
쎁wh쎯	-9.1615
tr쎯gj쎯	-9.16225
gah쎯ic쎯	-9.16261
icf쎯	-9.16318
id쎯	-9.16517
tuj쎯	-9.16525
do쎯	-9.1655
ge쎯gm쎯	-9.16611
thd쎯mh쎯	-9.1665
vep쎯	-9.16691
wwx쎯	-9.16697
ovt쎯pb쎯	-9.16787
qf쎯	-9.16922
fcu쎯fm쎯ith쎯	-9.17058
www쎯	-9.17089
jb쎯ym쎯	-9.17144
epc쎯gc쎯	-9.17149
iv쎯f쎯	-9.1715
dhc쎯	-9.17151
nt쎯ed쎯	-9.17256
e쎯uqt쎯	-9.17261
qkd쎯	-9.17303
f쎯th쎯	-9.17357
sj쎯	-9.1737
bd쎯rjg쎯	-9.17543
쎂쎀쎀쎇rh쎯	-9.17547
fuj쎯	-9.17661
》j쎯	-9.17676
tuu쎯	-9.17725
mmm쎯aq쎯	-9.1777
,m쎯jf쎯	-9.17778
ide쎯fm쎯ith쎯	-9.1783
gmi쎯	-9.17833
xo쎯	-9.17853
rpw쎯	-9.17867
v쎯tf쎯	-9.18007
nua쎯ajdh쎯	-9.18148
nd쎯n쎯	-9.18148
wwf쎯	-9.18261
yygt쎯fnrt쎯	-9.18457
rbcc쎯jyie쎯	-9.1865
n쎯uj쎯	-9.18708
rr쎯	-9.18774
ahn쎯	-9.1892
mmm쎯sghg쎯	-9.18943
wyna쎯	-9.18971
ukd쎯	-9.18994
pp쎯rg쎯	-9.19038
pfjs쎯	-9.19156
wt쎯pe쎯	-9.19159
apl쎯fcl쎯	-9.19209
dga쎯v쎯	-9.19324
쎆쎀쎀	-9.19346
》《	-9.19387
fhv쎯fp쎯	-9.19441
db쎯ukd쎯	-9.19491
fjfh쎯l쎯	-9.19536
ugv쎯	-9.19582
b	-9.19589
yf쎯tha쎯	-9.19606
nnh쎯gl쎯	-9.19698
rc쎯yid쎯	-9.19713
jn쎯lt쎯	-9.19746
tdn쎯	-9.19851
tr쎯iyc쎯	-9.19872
bgu쎯sghg쎯	-9.19918
pu쎯cwg쎯pgc쎯	-9.19939
iugg쎯	-9.20012
suq쎯lfq쎯	-9.20069
apk쎯udyj쎯	-9.20081
iagw쎯khu쎯	-9.20129
su쎯	-9.20279
tx쎯lh쎯	-9.20325
쎃쎈	-9.20339
tfp쎯	-9.20383
tsh쎯	-9.20384
oe쎯	-9.20404
vtkb쎯	-9.20579
,bn쎯	-9.20585
쎂쎀쎀쎄rh쎯	-9.20625
vk쎯wsk쎯	-9.20721
apl쎯	-9.2079
,k쎯l쎯	-9.20809
bgk쎯	-9.20816
an쎯xn쎯	-9.20817
쎃쎄	-9.20825
o쎯y쎯	-9.20865
wbj쎯tfkp쎯	-9.20886
tuk쎯	-9.20896
so쎯	-9.20925
ah쎯	-9.21118
oi쎯	-9.2122
jcm쎯	-9.21234
yssc쎯	-9.21261
nhy쎯	-9.21271
afd쎯	-9.21301
imj쎯yaa쎯	-9.21445
ym쎯k쎯	-9.21449
ian쎯	-9.21504
fge쎯tr쎯qnp쎯	-9.21567
ym쎯gkip쎯	-9.21615
we쎯	-9.21649
wxm쎯	-9.21663
gtu쎯	-9.2167
qnth쎯	-9.21692
pyg쎯vfhp쎯ith쎯	-9.2175
iyt쎯	-9.21799
ieb쎯	-9.21803
ay쎯	-9.21808
gae쎯qje쎯	-9.21826
fcp쎯et쎯	-9.21844
bq쎯	-9.21898
mw쎯uk쎯	-9.21979
dgh쎯wa쎯	-9.21984
qv쎯	-9.21998
nty쎯af쎯	-9.22029
bd쎯	-9.22046
udy쎯dyn쎯	-9.22075
oyn쎯	-9.22102
hwb쎯	-9.22205
cbd쎯	-9.22215
jcf쎯rf쎯	-9.22245
tkw쎯	-9.22283
ad쎯qqqq쎯	-9.22329
rmc쎯	-9.22415
》.	-9.22517
wn쎯	-9.22614
e쎯udh쎯	-9.22623
da쎯dk쎯	-9.22697
vkgd쎯qi쎯	-9.22744
fkuc쎯	-9.22826
wqin쎯	-9.22862
qrm쎯	-9.22954
,rn쎯c쎯	-9.23038
imj쎯jg쎯	-9.23152
ld쎯o쎯	-9.23204
rj쎯bm쎯	-9.23336
god쎯	-9.23408
egc쎯fd쎯	-9.23419
mqj쎯	-9.2344
go쎯thd쎯	-9.23578
uyiy쎯	-9.23614
yge쎯	-9.2362
dd쎯ih쎯	-9.23658
fmy쎯	-9.23709
xeg쎯wgk쎯	-9.23747
=	-9.23777
wnnp쎯fiy쎯	-9.23812
qev쎯un쎯	-9.23813
naw쎯	-9.23916
sff쎯	-9.2406
yv쎯vb쎯r쎯	-9.24116
vck쎯	-9.24145
b쎯qev쎯	-9.24145
cep쎯wy쎯	-9.24168
ycf쎯	-9.24212
ldd쎯	-9.24408
rmhj쎯kkk쎯	-9.2442
nua쎯	-9.24592
tgj쎯dd쎯	-9.24598
sym쎯ytyh쎯	-9.24624
tdkj쎯ce쎯	-9.24855
쎄쎈	-9.24855
ymf쎯sj쎯	-9.24879
ufy쎯lfhf쎯	-9.24899
f쎯rfm쎯	-9.24947
>	-9.25059
qk쎯tq쎯	-9.2508
dga쎯pwv쎯bpf쎯	-9.25203
trf쎯hko쎯	-9.25254
yvcb쎯	-9.25286
쎂쎀쎀쎉rh쎯	-9.25425
쎂쎀쎀쎀rh쎯	-9.25482
khn쎯	-9.25493
kjj쎯	-9.25498
au쎯	-9.25547
aft쎯	-9.2558
bc쎯tj쎯	-9.25602
abu쎯	-9.25627
itf쎯	-9.25685
uqt쎯	-9.25783
gcf쎯wynb쎯	-9.25828
gkl쎯y쎯wtf쎯	-9.25879
fdm쎯fiy쎯	-9.259
쎃쎃	-9.25947
usg쎯	-9.25983
ysi쎯	-9.26031
isk쎯ux쎯ith쎯	-9.2607
fwm쎯pg쎯	-9.26134
쎆쎄	-9.26179
쎃쎇	-9.26182
bu쎯txi쎯	-9.26279
qm쎯	-9.26298
i쎯m쎯r쎯	-9.26342
wfk쎯	-9.26366
tmdf쎯	-9.26537
vyi쎯	-9.26629
uqwm쎯qqqq쎯	-9.26664
yfn쎯ftj쎯	-9.26705
zzbd쎯k쎯l쎯	-9.26733
rj쎯tak쎯	-9.26776
sghg쎯pv쎯	-9.26777
ftg쎯yaa쎯	-9.26794
ytm쎯	-9.26903
yxu쎯	-9.26919
fl쎯	-9.2693
tb쎯	-9.26947
ym쎯suq쎯	-9.26997
ipm쎯	-9.27011
,c쎯ey쎯	-9.27045
aps쎯aqt쎯	-9.27146
nf쎯ipg쎯	-9.27233
dr쎯ou쎯	-9.27271
bk쎯a쎯	-9.27375
xx쎯pfjm쎯	-9.27409
vcb쎯sk쎯	-9.27413
,gmf쎯	-9.27497
rrk쎯ip쎯	-9.27512
xwy쎯ryn쎯	-9.27543
yygt쎯rtol쎯	-9.27555
쎂쎀쎀쎃rh쎯	-9.27767
쎇쎅	-9.27829
ygu쎯	-9.28098
tffy쎯	-9.28157
aqu쎯	-9.28171
fp쎯tkgg쎯k쎯	-9.28222
pl쎯gk쎯	-9.28242
ufy쎯tlf쎯	-9.2826
wk쎯rf쎯	-9.28311
sksw쎯ma쎯	-9.28332
쎂쎀쎀쎂rh쎯	-9.2836
jb쎯wffg쎯	-9.28384
iie쎯xjm쎯ftj쎯	-9.28405
ypm쎯	-9.28489
tvr쎯	-9.28504
,dty쎯	-9.28515
r쎯dga쎯pwv쎯	-9.28535
ime쎯	-9.28577
fuj쎯mw쎯	-9.28596
쎁쎉쎉쎆rh쎯	-9.28611
wtf쎯wsk쎯	-9.28683
ghc쎯gyb쎯	-9.28713
thd쎯ick쎯aq쎯	-9.28736
uk쎯bw쎯	-9.28798
ftj쎯,	-9.28821
dn쎯ftjb쎯	-9.28839
.gm쎯wtf쎯	-9.28864
gj쎯wynn쎯	-9.28956
fhh쎯	-9.28957
tqq쎯fcl쎯	-9.2897
mhkg쎯	-9.29032
tux쎯	-9.29107
dn쎯js쎯	-9.2916
쎂쎀쎀쎀	-9.29423
eb쎯ufy쎯	-9.29569
mw쎯apg쎯dgh쎯	-9.2957
gqg쎯	-9.29619
swb쎯	-9.29661
lw쎯wc쎯	-9.29698
ll쎯,	-9.29725
oa쎯	-9.29811
fwyc쎯	-9.29918
imk쎯	-9.29941
k쎯yygy쎯	-9.29972
k쎯l쎯aw쎯u쎯ipk쎯	-9.30021
qq쎯wh쎯	-9.30132
bm쎯kkkk쎯	-9.30156
dd쎯jg쎯	-9.30184
qkq쎯xjm쎯	-9.30258
ai쎯yy쎯	-9.303
qkm쎯	-9.30315
vs쎯fn쎯	-9.30471
saj쎯	-9.30577
sghg쎯uk쎯	-9.30813
ijo쎯	-9.30859
g쎯av쎯	-9.30906
쎄쎀쎀	-9.30929
’	-9.31048
xyc쎯yf쎯	-9.31063
iyj쎯	-9.31064
kw쎯e쎯	-9.31094
iv쎯wa쎯	-9.31188
'	-9.31207
adw쎯px쎯	-9.31223
wksf쎯	-9.31234
pyu쎯	-9.31248
,et쎯	-9.31277
ttd쎯	-9.31278
wg쎯sf쎯	-9.31317
vtg쎯	-9.31321
eq쎯	-9.31346
di쎯	-9.3136
tca쎯	-9.31413
ipg쎯bm쎯	-9.31489
wdn쎯rvyl쎯	-9.31511
hka쎯qv쎯	-9.31559
g쎯rh쎯	-9.31623
y쎯wtf쎯	-9.3175
qh쎯tu쎯	-9.31885
wf쎯yf쎯	-9.31888
aqq쎯	-9.31938
jhng쎯	-9.31986
쎂eee쎯	-9.31998
lw쎯ip쎯	-9.32123
tdt쎯	-9.32136
pj쎯	-9.3218
ujn쎯dd쎯tjh쎯	-9.32195
fkhk쎯	-9.32215
alp쎯	-9.32254
usr쎯xfg쎯	-9.32482
xxf쎯og쎯	-9.32495
,bn쎯j쎯	-9.32504
pu쎯et쎯	-9.32533
gyg쎯	-9.32712
nny쎯	-9.32814
ydn쎯	-9.32876
tuj쎯ujfj쎯	-9.32915
itx쎯rdc쎯	-9.32944
qg	-9.32972
:쎁	-9.33121
dfy쎯lt쎯	-9.33155
fgh쎯fg쎯	-9.33197
g쎯ts쎯	-9.33205
wqu쎯	-9.33243
쎁쎉쎉쎅rh쎯	-9.3326
alf쎯	-9.33263
gm쎯qje쎯	-9.33487
mhg쎯	-9.33502
v쎯dmh쎯	-9.3355
쎁쎀쎀쎀	-9.33607
fii쎯go쎯	-9.33617
ybf쎯epc쎯	-9.33675
ih쎯aq쎯	-9.33877
dn쎯ta쎯	-9.33889
pwd쎯bm쎯	-9.33898
yygy쎯anb쎯	-9.33931
,y쎯s쎯	-9.33975
쎁쎉쎉쎈rh쎯	-9.34011
wy쎯kgn쎯	-9.34163
ipkr쎯	-9.34187
udg쎯	-9.34202
yyq쎯	-9.34203
ke쎯	-9.34211
ipg쎯	-9.34225
ws쎯usi쎯	-9.34308
c쎯go쎯	-9.34331
ed쎯	-9.3436
rmhj쎯pg쎯	-9.34362
vvv쎯ntg쎯	-9.34412
aca쎯	-9.34435
wnt쎯	-9.34451
drt쎯	-9.3455
enr쎯	-9.34583
vx쎯	-9.34673
ih쎯jf쎯	-9.3468
쎁쎉쎉쎂rh쎯	-9.34772
쎄쎂	-9.34906
pyj쎯x쎯	-9.34951
le쎯	-9.34962
tdp쎯wgk쎯	-9.35109
wny쎯	-9.35113
gip쎯j쎯	-9.35188
rrg쎯rbcc쎯	-9.35261
etn쎯	-9.35265
yy쎯pvs쎯	-9.35291
gogn쎯	-9.35314
,hw쎯e쎯	-9.35324
rpv쎯jvko쎯	-9.35347
aft쎯wt쎯	-9.35413
uygh쎯	-9.35528
wug쎯lfhf쎯	-9.35534
sk쎯ce쎯	-9.35565
gx쎯bu쎯mqq쎯	-9.35606
gm쎯d쎯	-9.35701
ef쎯	-9.35703
,puhc쎯	-9.35714
ral쎯syp쎯	-9.35725
xtu쎯	-9.35746
tha쎯	-9.35746
i쎯j쎯	-9.35763
gd쎯qd쎯	-9.35769
.px쎯	-9.35802
tdp쎯et쎯gf쎯	-9.35823
www쎯qq쎯	-9.35825
ybb쎯	-9.35853
xh쎯fj쎯	-9.35899
nh쎯adnt쎯	-9.35925
hh쎯	-9.36051
dg쎯rh쎯	-9.36063
vfhp쎯dn쎯	-9.36066
쎁쎉쎉쎇rh쎯	-9.36102
atd쎯ip쎯bpf쎯	-9.3618
rfc쎯ce쎯	-9.36196
lfnh쎯	-9.36235
ek쎯uqyl쎯	-9.36279
dh쎯pgk쎯	-9.36279
aib쎯	-9.36328
mnm쎯	-9.36344
mf쎯	-9.36368
rcy쎯	-9.36395
tey쎯	-9.36415
ngc쎯	-9.36435
vca쎯	-9.36487
);	-9.36552
op쎯	-9.36556
rdf쎯	-9.36585
aqky쎯	-9.36612
ulg쎯	-9.3662
wwkw쎯	-9.36633
fku쎯cqw쎯	-9.36655
hn쎯	-9.36713
cd쎯ovt쎯	-9.36772
qvn쎯	-9.36846
ytfp쎯	-9.36853
od쎯gajf쎯:	-9.36949
uqv쎯	-9.37053
aft쎯qk쎯r쎯	-9.37082
gu쎯fqu쎯	-9.37193
jc쎯	-9.37278
xln쎯qt쎯lfq쎯	-9.37296
hnd쎯	-9.37376
amd쎯yygy쎯	-9.37437
쎃쎁	-9.37502
쎅쎅	-9.37516
쎁쎉쎉쎃rh쎯	-9.37559
fcp쎯apk쎯	-9.37567
gkih쎯wsg쎯	-9.37577
igey쎯	-9.37578
qc쎯ese쎯	-9.37622
tep쎯	-9.37646
o쎯g쎯wsg쎯r쎯	-9.37649
wys쎯k쎯	-9.37654
ssn쎯	-9.37676
gxi쎯rfm쎯	-9.37701
oq쎯	-9.37829
ffuk쎯	-9.37863
ftb쎯	-9.37895
ruv쎯epc쎯	-9.38093
x쎯cwg쎯	-9.38154
du쎯	-9.38158
i쎯sk쎯	-9.38189
ggw쎯	-9.3822
a쎯tkgg쎯jgm쎯	-9.38307
ab쎯hhhh쎯	-9.38419
sw쎯cwg쎯	-9.3844
wc쎯aw쎯	-9.38461
qdm쎯yneg쎯	-9.38569
cep쎯ipkh쎯	-9.38584
vck쎯vfhp쎯gf쎯	-9.38608
tdaf쎯	-9.38664
dwf쎯	-9.38853
c쎯gh쎯	-9.38881
gm쎯wa쎯wx쎯	-9.38973
쎆쎅	-9.3908
toln쎯	-9.39098
yoo쎯	-9.39179
r쎯y쎯s쎯	-9.3919
xtf쎯xwy쎯	-9.39438
fj쎯tf쎯b쎯	-9.39442
,rg쎯	-9.39479
ltu쎯nnh쎯	-9.39536
atd쎯ax쎯	-9.3961
and쎯	-9.39812
xwy쎯wht쎯	-9.39886
(wynb쎯	-9.3995
gma쎯	-9.3996
gd쎯gh쎯	-9.40105
dn쎯uu쎯gf쎯	-9.40147
ai쎯fm쎯	-9.40149
.y쎯s쎯	-9.40259
ujqu쎯	-9.40264
ym쎯tffu쎯	-9.40294
y쎯jghm쎯	-9.40308
qk쎯.	-9.40363
lk쎯xk쎯	-9.40394
쎂쎀쎀쎁rh쎯	-9.404
jn쎯ytd쎯	-9.40438
dn쎯sg쎯	-9.40439
wk쎯ygh쎯	-9.40481
ge쎯ipg쎯	-9.40533
uthp쎯kht쎯	-9.40569
쎈쎀쎀	-9.40598
aw쎯e쎯	-9.40694
cf쎯qje쎯	-9.40706
kkhn쎯ftj쎯	-9.40725
tg쎯ta쎯	-9.40768
rb쎯tfkf쎯	-9.40819
lpdk쎯	-9.4083
bwj쎯wdm쎯	-9.40859
j쎯d쎯	-9.40865
sm쎯fnrt쎯	-9.40874
ymf쎯gkih쎯	-9.40881
wv쎯bb쎯	-9.40959
fiyt쎯	-9.41015
ipg쎯km쎯	-9.41067
x쎯maw쎯	-9.41081
amd쎯fghy쎯	-9.41099
ipw쎯fkh쎯ymhj쎯	-9.41106
bm쎯tg쎯	-9.41107
쎂쎀쎁쎂rh쎯	-9.41112
tfkd쎯	-9.41136
.“	-9.41136
ytyh쎯ymhj쎯	-9.41175
waye쎯	-9.41176
kfa쎯	-9.41178
ccc쎯tq쎯	-9.41183
rffg쎯	-9.41228
ngj쎯	-9.41257
쎁쎉쎉쎉rh쎯	-9.413
gfq쎯	-9.41321
gkm쎯	-9.41363
jb쎯rg쎯	-9.41389
ymf쎯ab쎯	-9.41416
lwg쎯bm쎯	-9.41421
dnv쎯fqb쎯	-9.41446
ia쎯sghg쎯ith쎯	-9.41447
ivfh쎯	-9.41454
gjq쎯lk쎯	-9.41466
lfo쎯qc쎯	-9.41472
iie쎯	-9.415
rpws쎯	-9.415
yygy쎯pb쎯	-9.41516
tve쎯qq쎯	-9.41582
dgkn쎯ivs쎯	-9.41593
wnnp쎯	-9.41628
afs쎯	-9.41677
tqq쎯	-9.41677
gqje쎯	-9.41678
mfk쎯lp쎯	-9.41695
rdfh쎯	-9.41734
tlf쎯	-9.41981
pwat쎯	-9.42032
uqwm쎯	-9.42074
ddm쎯fghg쎯ip쎯wug쎯	-9.42076
tgm쎯aj쎯	-9.42162
nae쎯fi쎯	-9.42325
qq쎯rh쎯	-9.42402
쎂wh쎯	-9.42528
uag쎯	-9.4253
ghd쎯ipkh쎯	-9.42559
tdij쎯	-9.42663
fnud쎯	-9.4272
uqi쎯	-9.42807
tn쎯	-9.42841
wbj쎯og쎯	-9.42865
g쎯tffu쎯uqd쎯	-9.42899
fm쎯uk쎯	-9.42903
y쎯xyna쎯	-9.42951
itx쎯iu쎯	-9.42976
nu쎯	-9.43007
oge쎯kkk쎯	-9.43027
kqy쎯	-9.43028
cf쎯gf쎯	-9.4313
,dn쎯o쎯	-9.43263
r쎯w쎯	-9.43341
ubtf쎯ou쎯	-9.43373
falw쎯	-9.43422
ipkr쎯rng쎯	-9.43447
sft쎯	-9.43495
y쎯yq쎯	-9.43547
dga쎯	-9.43596
mmm쎯sghg쎯ith쎯	-9.43661
,sk쎯c쎯	-9.4368
at쎯	-9.43706
,ll쎯,ic쎯ytt쎯,	-9.43726
,ld쎯hx쎯	-9.43778
o쎯“	-9.43846
쎁쎉쎉쎄rh쎯	-9.4386
wk쎯buj쎯	-9.43871
rtol쎯	-9.43873
rnd쎯	-9.43931
esv쎯	-9.43936
ypeu쎯	-9.43996
pfq쎯uduk쎯	-9.4404
gk쎯wrh쎯	-9.44219
《k쎯l쎯	-9.44361
lgey쎯	-9.44437
pdc쎯	-9.44467
thl쎯	-9.44495
lwg쎯ty쎯	-9.44549
j쎯k쎯l쎯	-9.44741
jtyq쎯pg쎯	-9.4481
nla쎯	-9.44822
<	-9.44879
qdm쎯	-9.44891
iv쎯jf쎯	-9.4492
ylf쎯,	-9.44927
sh쎯cf쎯	-9.44984
쎄쎃	-9.45051
e쎯sm쎯	-9.45059
cccs쎯	-9.45186
dmu쎯	-9.45345
yn쎯vi쎯	-9.45429
qq쎯uqw쎯	-9.45438
wk쎯bwg쎯	-9.45482
tie쎯	-9.4556
rymn쎯jjjj쎯	-9.45588
gog쎯iyt쎯	-9.45631
ygu쎯wwj쎯	-9.4568
stt쎯ugl쎯	-9.45709
xww쎯	-9.45751
yssr쎯	-9.45777
bm쎯tg쎯,	-9.4584
쎄쎄	-9.45862
쎃쎉	-9.4607
dtb쎯	-9.46151
xln쎯	-9.46239
iie쎯xjm쎯	-9.46341
tu쎯rfc쎯fj쎯hi쎯	-9.4638
,qn쎯rtd쎯	-9.46449
pr쎯	-9.46476
yygy쎯ujj쎯	-9.46489
ynty쎯	-9.46572
f쎯gh쎯	-9.46636
wtr쎯lq쎯adwr쎯	-9.46705
lw쎯gk쎯th쎯	-9.46714
mf쎯ght쎯	-9.46723
h쎯,	-9.46748
f쎯fdf쎯	-9.46801
dh쎯pgk쎯r쎯	-9.46806
wynk쎯jg쎯	-9.47098
,dmj쎯eg쎯	-9.47143
yc쎯	-9.47189
trf쎯gqr쎯	-9.47273
ee쎯dc쎯	-9.47294
qkq쎯	-9.47311
yc쎯wv쎯	-9.47312
rt쎯sy쎯	-9.47315
siq쎯	-9.47374
,yh쎯	-9.47375
fny쎯og쎯r쎯	-9.47412
sq쎯dn쎯	-9.47449
.ip쎯suq쎯	-9.47451
ud쎯iy쎯	-9.47518
ymhj쎯ght쎯ywf쎯	-9.47561
ycb쎯	-9.47561
egl쎯	-9.47613
iwf쎯lw쎯	-9.47665
pu쎯lt쎯	-9.47665
tgj쎯yd쎯ymhj쎯	-9.47672
dt쎯	-9.47714
ijlc쎯gl쎯	-9.47743
」	-9.47755
xm쎯	-9.47761
g쎯xe쎯	-9.47762
fge쎯fghg쎯ip쎯wug쎯	-9.47763
dd쎯uthp쎯	-9.47807
guw쎯	-9.47846
wvf쎯	-9.47864
nd쎯wygg쎯	-9.47943
bgu쎯sghg쎯ith쎯	-9.47947
by쎯ick쎯	-9.4798
fny쎯et쎯	-9.48068
gy쎯oy쎯	-9.48186
mpf쎯	-9.48229
rqc쎯	-9.48229
jtyq쎯	-9.48257
pwdj쎯	-9.48302
쎉쎈	-9.48315
ux쎯uk쎯	-9.48381
jyie쎯pym쎯	-9.48385
rgm쎯	-9.48409
wyo쎯	-9.48431
adwn쎯	-9.48444
i쎯wcy쎯	-9.48452
aqrn쎯	-9.48453
wg쎯egc쎯	-9.48493
utem쎯qc쎯	-9.48511
fwm쎯st쎯	-9.48558
dgtg쎯img쎯	-9.48575
wtuf쎯	-9.48627
pgf쎯	-9.48629
pfqf쎯pl쎯	-9.48776
jat쎯	-9.48815
xf쎯js쎯	-9.48854
fg쎯fgh쎯	-9.48862
wyq쎯kkd쎯	-9.48874
쎄쎆	-9.48919
uuk쎯yfn쎯	-9.49
sw쎯sj쎯	-9.4902
tey쎯pw쎯	-9.49055
qgb쎯nmh쎯	-9.49069
hw쎯wsg쎯	-9.49146
qge쎯	-9.49222
bn쎯e쎯	-9.49247
,reh쎯e쎯	-9.49295
qf쎯cf쎯	-9.49337
ny쎯gj쎯	-9.49349
wdy쎯	-9.4936
hc쎯efw쎯	-9.49511
gcg쎯	-9.49566
ipq쎯	-9.49599
vf쎯	-9.4964
waj쎯	-9.49664
ytn쎯	-9.49671
gh쎯,	-9.49784
쎄쎇	-9.49787
wv쎯qkhh쎯	-9.49858
tdp쎯jg쎯	-9.49866
upy쎯	-9.49891
rj쎯waw쎯b쎯	-9.49925
kc쎯	-9.49957
ugdu쎯pww쎯	-9.49959
ax쎯tr쎯	-9.50016
,ld쎯	-9.50052
ovt쎯jg쎯	-9.50065
ywe쎯on쎯	-9.50092
e쎯bv쎯wc쎯ngk쎯j쎯	-9.50123
xa쎯qc쎯	-9.50124
fcl쎯gl쎯	-9.50168
rgd쎯	-9.50187
aqk쎯	-9.50226
qgb쎯ya쎯	-9.50339
rtf쎯	-9.50341
fg쎯tffu쎯uqd쎯	-9.50364
akgl쎯	-9.50387
cep쎯ynf쎯	-9.50416
w쎯fghg쎯	-9.50431
ffc쎯	-9.50446
nty쎯yo쎯	-9.50492
tcy쎯	-9.50597
g쎯pg쎯	-9.50612
lqy쎯	-9.50669
쎂쎀쎁쎁rh쎯	-9.507
ic쎯ytt쎯	-9.50738
dhb쎯d쎯	-9.50741
tgjn쎯	-9.50806
fcl쎯lt쎯	-9.50838
bv쎯	-9.50854
tfq쎯fj쎯r쎯	-9.50867
xo쎯xfn쎯	-9.50874
「	-9.50953
nfp쎯gkip쎯	-9.50955
yff쎯w쎯	-9.51011
afff쎯	-9.5104
rep쎯	-9.51188
fj쎯g쎯hi쎯	-9.5119
awx쎯lfq쎯	-9.51197
hid쎯yx쎯	-9.51212
dfny쎯	-9.51249
pp쎯uj쎯r쎯	-9.513
gkih쎯wgk쎯	-9.5133
gu쎯yy쎯oy쎯	-9.51343
gfq쎯pe쎯	-9.51369
xan쎯	-9.51412
bt쎯wqa쎯	-9.51431
c쎯go쎯,	-9.51439
sg쎯tu쎯	-9.51447
쎁쎅쎀	-9.51473
sfh쎯	-9.51477
tkgg쎯ya쎯	-9.51561
ishg쎯	-9.5157
wv쎯od쎯	-9.51576
w쎯tg쎯	-9.51587
wbj쎯vfhp쎯gf쎯	-9.51605
fdm쎯	-9.51623
nty쎯uduk쎯	-9.51699
,kha쎯	-9.51719
쎁쎉쎈쎄rh쎯	-9.51743
,cep쎯fp쎯	-9.5177
fof쎯	-9.51792
쎆쎆	-9.5186
pd쎯	-9.51895
d쎯k쎯l쎯	-9.51923
srg쎯	-9.51979
tmd쎯wsg쎯	-9.52122
xh쎯fhn쎯	-9.52143
wg쎯ymhj쎯	-9.52157
ujff쎯	-9.52208
sgn쎯lfhf쎯	-9.52232
srm쎯	-9.52392
st쎯aa쎯	-9.52427
egm쎯	-9.52446
kwyg쎯g쎯	-9.52458
qtj쎯trf쎯r쎯	-9.52487
ftbt쎯yce쎯uk쎯	-9.52503
qk쎯,	-9.52511
쎁zzbd쎯	-9.52516
tfhy쎯	-9.52675
ipk쎯tv쎯nnh쎯yn쎯	-9.52757
pfq쎯	-9.52775
nudu쎯	-9.52794
hka쎯ufk쎯	-9.52843
gb쎯	-9.52852
twf쎯wgk쎯	-9.52899
fl쎯ymf쎯	-9.52923
sss쎯ss쎯	-9.52977
.mh쎯gf쎯	-9.53039
tfkp쎯gajf쎯	-9.53053
trf쎯ntg쎯	-9.53055
쎁쎉쎉쎀rh쎯	-9.53059
dqe쎯pg쎯	-9.53149
qjq쎯	-9.53158
sfiu쎯	-9.532
ipw쎯ty쎯	-9.53302
,p쎯	-9.53307
fhn쎯go쎯	-9.53355
tffu쎯f쎯	-9.53386
tu쎯ip쎯rfc쎯sy쎯	-9.53391
쎁.쎅	-9.53584
r쎯fny쎯og쎯	-9.53615
cbts쎯	-9.53636
rn쎯ntk쎯	-9.53642
iya쎯	-9.53686
yuo쎯	-9.5373
-쎁	-9.53746
dr쎯gj쎯	-9.53784
rvk쎯	-9.53857
jy쎯cm쎯	-9.53961
aqb쎯	-9.54067
ndo쎯tjt쎯	-9.54143
utk쎯	-9.5415
g쎯su쎯	-9.54171
ftjb쎯e쎯	-9.54178
쎅-	-9.54179
rwyg쎯fj쎯	-9.54206
ykw쎯	-9.54233
e쎯bv쎯gmu쎯wtf쎯	-9.54267
sm쎯zzbd쎯	-9.54298
ymc쎯yf쎯zzbd쎯	-9.54334
sf쎯n쎯	-9.54346
tym쎯	-9.544
je쎯jo쎯	-9.54405
mdfj쎯	-9.54541
maw쎯	-9.54589
qkk쎯	-9.54631
rlg쎯khev쎯	-9.54639
ytey쎯	-9.54647
dd쎯pe쎯	-9.54657
thd쎯fcl쎯wx쎯	-9.5469
.sg쎯	-9.54698
ke쎯nh쎯	-9.54724
xp쎯wgk쎯ntg쎯	-9.54785
tg쎯wgkb쎯	-9.54799
pg쎯wug쎯	-9.5481
ldd쎯pg쎯	-9.54813
fny쎯uyh쎯	-9.5483
ftx쎯jgm쎯	-9.54832
wbj쎯lw쎯	-9.54877
ntg쎯r쎯	-9.54958
vfhp쎯uu쎯b쎯	-9.54968
uwa쎯	-9.54987
lt쎯jg쎯	-9.54994
ssf쎯	-9.55009
pwy쎯	-9.55029
sai쎯	-9.55043
bynw쎯bb쎯	-9.5513
gef쎯qynm쎯	-9.55145
ydm쎯	-9.5516
nyiy쎯	-9.55377
ihi쎯ey쎯	-9.55408
nnl쎯	-9.55454
iy쎯ujn쎯	-9.55472
alw쎯ytyh쎯	-9.5555
udg쎯it쎯	-9.55589
yvc쎯	-9.5562
mfky쎯	-9.55703
(),	-9.55705
쎅쎂	-9.55764
yygy쎯tr쎯	-9.55824
dn쎯ybv쎯	-9.55836
ltu쎯nnh쎯qnp쎯	-9.55848
c쎯“	-9.5587
zzjp쎯zzjp쎯zzjp쎯	-9.55925
rnn쎯	-9.55934
쎁쎉쎈쎅rh쎯	-9.55945
tf쎯ght쎯sf쎯	-9.5596
wyp쎯	-9.55987
tduh쎯	-9.56043
hw쎯tlf쎯	-9.56124
dn쎯xgm쎯	-9.56132
jn쎯bb쎯um쎯tl쎯	-9.56176
wfny쎯yu쎯	-9.56269
gbnm쎯	-9.56283
ynj쎯	-9.56329
ydn쎯wy쎯	-9.56368
,yynw쎯	-9.56386
txg쎯rh쎯	-9.5641
rmc쎯ty쎯	-9.56425
eb쎯tl쎯.	-9.5649
wyv쎯et쎯	-9.56496
tdp쎯yid쎯	-9.56497
sw쎯	-9.566
aup쎯	-9.56657
oy쎯,	-9.56724
fu쎯xk쎯	-9.56773
.hx쎯	-9.56903
,wtf쎯	-9.56909
,qd쎯rg쎯	-9.56921
쎃wh쎯	-9.56938
tgj쎯s쎯r쎯	-9.56968
jtyl쎯	-9.56993
ym쎯ya쎯	-9.5702
vk쎯js쎯	-9.57081
ipmq쎯	-9.57083
sf쎯wug쎯gf쎯	-9.5713
vvv쎯bb쎯	-9.57134
mf쎯tl쎯	-9.57199
wfh쎯tc쎯	-9.57292
ldj쎯	-9.57321
jm쎯	-9.57331
kk쎯	-9.57364
》k쎯	-9.57372
rxj쎯rpl쎯	-9.57374
,ww쎯dmj쎯	-9.57486
khgm쎯ytyh쎯	-9.57491
ym쎯gkip쎯wc쎯kht쎯	-9.5752
ai쎯sghg쎯	-9.57588
dd쎯pfjm쎯	-9.57697
쎁쎉쎈쎈rh쎯	-9.57725
qlp쎯	-9.57804
p	-9.57809
uwy쎯	-9.57879
wynn쎯	-9.57935
qq쎯vaf쎯wsg쎯	-9.57956
ym쎯usr쎯rfc쎯sy쎯	-9.57975
rrg쎯	-9.58033
,mj쎯	-9.58081
ip쎯ftj쎯	-9.58086
khv쎯	-9.58106
bp쎯ps쎯ith쎯	-9.58108
toln쎯ycf쎯	-9.58122
p쎯su쎯	-9.58162
yce쎯	-9.58164
fq쎯if쎯	-9.58197
anh쎯ae쎯	-9.58292
,txg쎯	-9.5831
wgk쎯dn쎯	-9.58323
rf쎯	-9.5833
dd쎯jgm쎯	-9.5833
pw쎯rnb쎯	-9.58371
trh쎯	-9.58381
tq쎯kgn쎯	-9.58388
pwr쎯	-9.58436
ufy쎯wht쎯	-9.58463
fgu쎯	-9.58523
av쎯dn쎯	-9.5855
ywx쎯ffc쎯	-9.58602
ymc쎯uu쎯	-9.5861
oh쎯	-9.58626
am쎯fmud쎯	-9.58635
ghd쎯d쎯	-9.58661
awb쎯	-9.58687
쎁쎂쎀	-9.58688
쎁쎉쎉쎁rh쎯	-9.58746
fi쎯	-9.58786
mw쎯lfhf쎯	-9.58943
sks쎯	-9.5895
khgp쎯fhg쎯	-9.58954
fqb쎯gxi쎯	-9.59069
mfk쎯lfnh쎯	-9.59085
ygu쎯o쎯	-9.59093
fi쎯aib쎯	-9.59099
w쎯wsg쎯	-9.59112
쎅쎆	-9.59129
qtdn쎯	-9.59183
pfq쎯uduk쎯r쎯	-9.59225
ijx쎯	-9.59262
k쎯uk쎯	-9.5932
sksw쎯rt쎯	-9.59351
ynk쎯	-9.59369
jpx쎯	-9.59494
wfny쎯lwg쎯	-9.59526
iwyf쎯	-9.59674
iwt쎯	-9.59733
l쎯qh쎯	-9.59752
rnu쎯	-9.59757
sm쎯rmhj쎯	-9.59798
vb쎯r쎯	-9.59812
wwv쎯	-9.59889
bqr쎯uqwn쎯	-9.59966
ul쎯x쎯	-9.5997
thn쎯	-9.59996
yny쎯f쎯u쎯	-9.60013
rpws쎯fpx쎯	-9.60058
a쎯dgt쎯	-9.60068
쎂-	-9.60121
tffu쎯xe쎯	-9.60129
wsg쎯cwg쎯	-9.60251
rfc쎯sy쎯w쎯km쎯	-9.60291
gkh쎯	-9.60323
cd쎯ftg쎯	-9.6036
o쎯y쎯,	-9.60525
ta쎯ia쎯	-9.60526
wk쎯wvf쎯	-9.60527
pl쎯aq쎯	-9.60541
bu쎯jel쎯	-9.60569
y쎯yam쎯	-9.60603
tuj쎯tq쎯	-9.60785
yi쎯og쎯	-9.60845
ipk쎯xeg쎯dn쎯km쎯	-9.61018
zzxe쎯zzxe쎯zzxe쎯	-9.61034
usr쎯r쎯	-9.61066
bp쎯ps쎯	-9.6109
jghy쎯	-9.61094
td쎯qk쎯	-9.61142
fqu쎯qu쎯	-9.61181
쎅쎈	-9.61273
m쎯fn쎯	-9.61293
gkl쎯ftbt쎯rep쎯	-9.61296
쎆쎈	-9.6134
rmn쎯	-9.61341
am쎯	-9.61372
dm쎯tm쎯	-9.61404
lft쎯wsg쎯	-9.61405
qvfp쎯	-9.61439
...	-9.61494
jn쎯ib쎯	-9.61593
epi쎯il쎯	-9.61624
dg쎯tffu쎯uqd쎯	-9.61665
gw쎯	-9.61757
wkhh쎯	-9.61767
쎅쎄	-9.61852
mqc쎯	-9.61868
‘	-9.61882
ntg쎯rfm쎯	-9.62135
yk쎯	-9.62188
at쎯fmk쎯	-9.62205
qev쎯toc쎯	-9.62233
fny쎯lkb쎯	-9.62281
lm쎯bd쎯	-9.62345
rwyg쎯bm쎯	-9.62358
th쎯gf쎯	-9.62366
awf쎯	-9.62387
tfkf쎯	-9.62456
it쎯ytf쎯	-9.62458
mqc쎯tr쎯	-9.62496
r쎯dl쎯kq쎯	-9.62535
wg쎯ith쎯	-9.62584
pt쎯yny쎯	-9.6263
diu쎯	-9.62633
iwf쎯tf쎯	-9.62663
lpk쎯qim쎯	-9.62679
kwg쎯qiu쎯ipr쎯	-9.62696
dyw쎯	-9.62697
쎁쎉쎈쎆rh쎯	-9.62702
sty쎯	-9.62733
jjj쎯	-9.62735
bwf쎯rp쎯	-9.62842
fcl쎯dyn쎯	-9.62877
gmww쎯tkh쎯	-9.62888
qie쎯	-9.62908
yud쎯xl쎯	-9.62952
쎄wh쎯	-9.62958
ey쎯jf쎯	-9.62961
khd쎯	-9.63054
rx쎯uwy쎯	-9.63064
khx쎯	-9.63169
,gm쎯wtf쎯	-9.63178
ipe쎯	-9.63255
pr쎯qnp쎯	-9.63294
jn쎯pym쎯ck쎯	-9.63321
fyn쎯	-9.63371
쎁쎉쎈쎇rh쎯	-9.63392
nhj쎯	-9.63478
fwyf쎯	-9.63485
isw쎯	-9.63505
쎁쎉쎈쎉rh쎯	-9.63516
xyc쎯	-9.63661
jb쎯usr쎯	-9.63717
iqpl쎯	-9.6383
dga쎯pwv쎯k쎯ny쎯	-9.63843
t쎯yxxr쎯	-9.63848
tfq쎯fj쎯ujfj쎯wug쎯	-9.63853
j쎯c쎯	-9.63957
rwyg쎯fcl쎯	-9.64024
sgn쎯wgk쎯	-9.64033
fj쎯kkkk쎯	-9.64056
tvfh쎯	-9.6411
jvk쎯	-9.64133
bw쎯wgg쎯	-9.64191
gf쎯g쎯wsg쎯r쎯	-9.64207
ygh쎯nnh쎯	-9.64223
x쎯iyj쎯ip쎯	-9.64225
ce쎯idr쎯	-9.6434
ywyg쎯	-9.64356
ccc쎯qk쎯	-9.64364
xyna쎯pgn쎯	-9.64367
,ua쎯eg쎯	-9.64372
pu쎯tf쎯	-9.64512
w쎯yygy쎯	-9.64632
tv쎯gkl쎯nnh쎯yn쎯	-9.64707
hq쎯	-9.64728
trfh쎯ggi쎯	-9.64732
ijx쎯wgk쎯	-9.6475
wgkl쎯	-9.6477
it쎯rh쎯	-9.64797
wc쎯jfd쎯	-9.64807
ul쎯wtf쎯	-9.64893
ej쎯	-9.65045
nywf쎯	-9.65072
iaqg쎯	-9.65082
bn쎯.”	-9.65175
g쎯pe쎯	-9.65181
wygg쎯pta쎯	-9.65204
쎂.	-9.6525
쎅쎃	-9.65275
abi쎯	-9.65287
aj쎯	-9.65302
r쎯f쎯yy쎯	-9.65384
em쎯	-9.65395
쎂.쎅	-9.65448
awnu쎯	-9.65486
mhr쎯	-9.65518
fd쎯qfhw쎯	-9.65567
grd쎯	-9.65575
ft쎯ce쎯	-9.65633
jh쎯adwe쎯	-9.65659
tgj쎯usr쎯	-9.6572
v쎯ge쎯ywx쎯yygy쎯	-9.6572
ga쎯yt쎯	-9.65724
rfc쎯	-9.65727
amw쎯qc쎯	-9.65784
tx쎯gg쎯	-9.65793
df쎯	-9.65825
.쎂zzbd쎯	-9.65826
hid쎯	-9.65864
xfn쎯	-9.65913
sfhg쎯	-9.65937
aeu쎯	-9.65946
uqsg쎯	-9.65998
jce쎯	-9.66053
zzy쎯	-9.66095
trt쎯	-9.66117
lft쎯xf쎯	-9.66202
bl쎯	-9.66273
yaf쎯	-9.66321
쎁쎉쎅쎈rh쎯	-9.66357
fakg쎯	-9.66444
sgtu쎯	-9.66479
sgm쎯	-9.66512
i쎯qten쎯qmq쎯	-9.66527
qim쎯	-9.66532
et쎯kkk쎯	-9.66533
qq쎯adm쎯	-9.66541
blf쎯	-9.66648
rep쎯cbj쎯	-9.6668
ruv쎯qejy쎯	-9.66752
ufg쎯	-9.6679
dn쎯yi쎯	-9.66878
gc쎯b쎯	-9.66897
epw쎯	-9.66944
ld쎯gxi쎯	-9.67009
wfny쎯vaf쎯	-9.67014
tdp쎯	-9.67017
si쎯pvs쎯	-9.67022
txg쎯wh쎯	-9.67062
wwf쎯ait쎯gf쎯	-9.67085
wt쎯hka쎯	-9.6713
,vvv쎯,	-9.67132
rt쎯wdm쎯	-9.6714
kj쎯	-9.67178
qaj쎯	-9.67236
uth쎯nm쎯	-9.67243
,ul쎯	-9.67286
rf쎯xfn쎯	-9.67328
khi쎯	-9.67377
hq쎯qnq쎯	-9.67392
gm쎯fnrt쎯	-9.67418
f쎯gj쎯	-9.6742
gd쎯ivfh쎯ymhj쎯	-9.6751
bwg쎯	-9.67632
ws쎯	-9.6764
vq쎯	-9.67656
saj쎯gajf쎯	-9.67695
drin쎯	-9.67765
쎈쎈	-9.67808
wul쎯	-9.67837
zzjp쎯zzjp쎯	-9.67847
쎉쎆	-9.67887
.hhhh쎯ue쎯	-9.67933
쎂.쎀	-9.67968
쎉쎉	-9.67975
xn쎯wynn쎯	-9.68021
uk쎯zzbd쎯	-9.68033
-쎂	-9.6805
suq쎯ta쎯	-9.68116
,vbn쎯	-9.6814
wfkb쎯	-9.68156
fke쎯	-9.68195
oyv쎯	-9.68234
r쎯ih쎯	-9.68261
ai쎯uk쎯	-9.68264
db쎯	-9.68332
쎁쎉쎆쎄rh쎯	-9.68366
uqwn쎯	-9.68484
sri쎯	-9.68509
,gm쎯	-9.68547
fm쎯ux쎯	-9.68582
vfhp쎯yyq쎯	-9.68591
dmd쎯	-9.68723
pj쎯yf쎯	-9.68725
dd쎯bfm쎯	-9.68742
》yff쎯:“	-9.68792
gmu쎯wtf쎯	-9.68801
g쎯yww쎯	-9.68801
y쎯tp쎯	-9.68822
yygy쎯fmud쎯	-9.68824
l쎯tl쎯bpf쎯	-9.68869
iyc쎯tf쎯	-9.68872
sh쎯iv쎯	-9.68881
cqw쎯qbp쎯	-9.68907
fcl쎯wt쎯	-9.68922
f쎯gfi쎯	-9.68932
ex쎯	-9.68938
쎄쎉	-9.68939
fcn쎯	-9.68953
yned쎯	-9.6898
tv쎯km쎯	-9.69112
amd쎯dcw쎯	-9.69214
uqwm쎯u쎯	-9.69253
wbb쎯	-9.69333
udyj쎯gqf쎯	-9.69419
itx쎯fm쎯	-9.69433
gl쎯pe쎯	-9.69436
iuc쎯	-9.69447
sgn쎯wrh쎯	-9.69493
jb쎯jh쎯	-9.69543
pfi쎯ftbt쎯	-9.69646
fl쎯egl쎯	-9.6966
k쎯uj쎯	-9.69702
raj쎯ytb쎯	-9.69742
bp쎯	-9.69778
whw쎯qi쎯uk쎯	-9.69798
,q쎯wu쎯	-9.69802
ti쎯	-9.69816
:쎂	-9.6984
c쎯rg쎯	-9.69997
.ww쎯	-9.70001
gae쎯dyn쎯	-9.7001
ubt쎯	-9.70099
aynq쎯	-9.70143
wdn쎯wx쎯	-9.70168
ymhj쎯aq쎯	-9.70282
uwy쎯tlf쎯	-9.70298
kl쎯	-9.7035
n쎯y쎯	-9.70402
ubtf쎯	-9.70406
pe쎯hw쎯	-9.70421
,aqt쎯	-9.70437
wgk쎯m쎯	-9.70464
쎅쎇	-9.70494
cad쎯	-9.70566
fdf쎯	-9.70637
wgkr쎯	-9.70785
tn쎯nnh쎯	-9.70794
qnu쎯	-9.70802
txgt쎯	-9.7086
fh쎯tca쎯	-9.70936
dyn쎯	-9.70985
pgc쎯zzbd쎯	-9.71004
thd쎯tmd쎯	-9.7107
al쎯uqt쎯	-9.71081
dga쎯pwv쎯wf쎯	-9.71126
p쎯jfd쎯	-9.71148
qnr쎯	-9.71155
,wc쎯ngk쎯	-9.71199
j쎯g쎯pe쎯	-9.71205
u쎯kkk쎯rfm쎯jg쎯	-9.7126
ltu쎯thg쎯	-9.71269
w쎯a쎯	-9.71339
xjk쎯	-9.71405
nc쎯	-9.7147
nhj쎯rrr쎯	-9.71486
x쎯ipkh쎯	-9.71515
cd쎯lk쎯b쎯	-9.71521
yw쎯ykw쎯	-9.71548
vv쎯vvv쎯	-9.71584
aps쎯iwyf쎯	-9.71617
ufk쎯qv쎯	-9.71673
ii쎯tjh쎯	-9.71761
dy쎯bj쎯	-9.71763
rxj쎯sfi쎯	-9.71778
bpf쎯suq쎯	-9.71814
쎃rh쎯	-9.71862
yygt쎯ytyh쎯ymhj쎯	-9.71891
lk쎯wgkr쎯dd쎯	-9.71952
khu쎯gfi쎯whw쎯qi쎯	-9.71956
쎈쎅	-9.71969
rrhy쎯	-9.72145
ip쎯dl쎯	-9.72245
fas쎯fuk쎯	-9.72262
쎁쎉쎈쎂rh쎯	-9.72284
r쎯u쎯kkk쎯	-9.72334
wxj쎯ftbt쎯	-9.72354
쎇쎂	-9.72408
tmgk쎯	-9.72443
djfd쎯oy쎯	-9.72499
yv쎯vb쎯	-9.72591
nh쎯vi쎯	-9.72593
xk쎯ya쎯	-9.72629
qev쎯yt쎯	-9.72714
gu쎯tqdh쎯	-9.7278
fj쎯hi쎯	-9.72881
dd쎯ip쎯tg쎯	-9.72882
fg쎯xe쎯	-9.72885
wda쎯	-9.72929
thgc쎯sg쎯	-9.72979
usr쎯gajf쎯	-9.72982
uqf쎯pl쎯	-9.73028
쎁쎉쎆쎂rh쎯	-9.73089
nty쎯tfkp쎯	-9.73116
ep쎯nge쎯	-9.73255
쎀쎀	-9.7328
ftjb쎯ymhj쎯	-9.73297
fny쎯tjh쎯	-9.73353
,wjg쎯j쎯	-9.73356
》tffu쎯.	-9.73368
쎆쎃	-9.73425
pgn쎯wt쎯	-9.73438
g쎯qk쎯	-9.73458
saj쎯rny쎯	-9.73474
cel쎯	-9.73495
uep쎯	-9.73509
쎁쎉쎆쎃rh쎯	-9.73598
wcw쎯	-9.73766
dr쎯qk쎯	-9.73816
bde쎯udh쎯	-9.73886
pnt쎯ya쎯	-9.73893
쎁쎉쎇쎈rh쎯	-9.73917
xyna쎯rmhj쎯	-9.73954
tfqm쎯	-9.73987
쎁쎉쎈쎀rh쎯	-9.74002
atd쎯tu쎯dd쎯ip쎯	-9.7403
ii쎯ylk쎯	-9.74045
qq쎯pe쎯	-9.74064
wq쎯r쎯	-9.74081
ukqb쎯qv쎯	-9.74109
smu쎯	-9.74155
tffu쎯yy쎯dm쎯	-9.74185
ym쎯uqt쎯	-9.74214
dcg쎯	-9.74218
ujn쎯ykw쎯	-9.74243
jy쎯aq쎯	-9.74367
iqgg쎯	-9.74378
wfny쎯》:“	-9.74424
tfj쎯	-9.74453
whf쎯og쎯.	-9.74456
wye쎯rnd쎯	-9.74556
wfn쎯	-9.74584
vnu쎯	-9.74599
wys쎯dn쎯	-9.74618
ooo쎯lg쎯uh쎯	-9.74641
&	-9.74735
jn쎯rnb쎯	-9.74828
adj쎯	-9.74832
jlx쎯	-9.74846
ige쎯wa쎯	-9.74912
icw쎯	-9.74985
”tffu쎯	-9.75095
vgk쎯	-9.75098
uth쎯uqw쎯	-9.75122
gqjo쎯	-9.75175
uxe쎯jy쎯	-9.75259
ca쎯ndj쎯	-9.75291
쎄-	-9.75317
dff쎯	-9.75327
iff쎯	-9.75347
afd쎯vij쎯	-9.75469
ipq쎯bj쎯	-9.75544
wtfm쎯waj쎯	-9.75549
rh쎯wa쎯	-9.75573
rc쎯jmd쎯	-9.7559
q쎯wu쎯r쎯	-9.75592
쎆쎂	-9.75626
g쎯wug쎯	-9.7565
dpq쎯	-9.7574
adn쎯	-9.75774
gah쎯kkd쎯	-9.75784
lfq쎯ss쎯	-9.75912
d쎯xg쎯	-9.75948
rgf쎯up쎯	-9.75961
wfy쎯	-9.7597
nae쎯jtyq쎯	-9.76015
fym쎯	-9.76102
rtol쎯yt쎯	-9.76117
쎁쎉쎆쎅rh쎯	-9.76148
lh쎯wh쎯	-9.76168
goi쎯	-9.76172
fmud쎯	-9.76197
wwwk쎯	-9.76295
lkm쎯	-9.76334
vit쎯	-9.76377
iyv쎯	-9.76401
yb쎯bb쎯	-9.76425
wbj쎯ujn쎯	-9.76454
wgk쎯ua쎯	-9.76456
u쎯kkk쎯r쎯	-9.76484
yy쎯dm쎯r쎯	-9.76516
ymhj쎯xe쎯	-9.76562
puv쎯k쎯	-9.76636
khq쎯	-9.76678
jtyl쎯imj쎯	-9.76686
jo쎯aft쎯	-9.76705
begg쎯	-9.76714
kl쎯qh쎯	-9.76733
r쎯jf쎯whn쎯	-9.7675
쎅rh쎯	-9.76756
un쎯	-9.76881
ukn쎯dm쎯tkw쎯	-9.76882
iqp쎯	-9.7691
j쎯gik쎯	-9.76952
tu쎯zzbd쎯	-9.76971
jyie쎯thg쎯	-9.77036
v쎯nae쎯r쎯	-9.77042
vfhp쎯gf쎯	-9.7705
.wjg쎯	-9.77101
a쎯wt쎯ftj쎯	-9.77212
dmj쎯i쎯	-9.77372
tfkp쎯dn쎯	-9.77394
et쎯go쎯	-9.77398
qnq쎯	-9.77427
adwe쎯fjh쎯	-9.77466
wxf쎯w쎯n쎯aw쎯t쎯l쎯	-9.77478
ld쎯hx쎯	-9.77489
tkh쎯od쎯	-9.77565
al쎯yx쎯	-9.77578
rm쎯	-9.77578
ab쎯ce쎯	-9.77598
jel쎯	-9.77682
atd쎯jgm쎯	-9.77702
lgk쎯tmdf쎯	-9.7772
xy쎯xkw쎯	-9.77735
oyv쎯wyv쎯	-9.77777
쎄쎁	-9.77782
udr쎯	-9.77796
쎁쎉쎈쎃rh쎯	-9.77809
f쎯fhg쎯	-9.77862
dhc쎯fgi쎯	-9.77868
쎉쎅	-9.77878
tkh쎯bb쎯	-9.77883
jaw쎯	-9.7791
pw쎯ymf쎯	-9.78007
pww쎯jqr쎯	-9.78034
mty쎯	-9.781
fkue쎯	-9.78118
toc쎯	-9.78129
tx쎯쎁	-9.78134
fpo쎯	-9.7816
yon쎯	-9.7817
ad쎯gf쎯	-9.78192
afi쎯	-9.78248
rb쎯uthp쎯	-9.78258
amw쎯qqqq쎯	-9.78324
tf쎯fcl쎯	-9.78423
lf쎯	-9.78442
----------------	-9.78452
wk쎯dhb쎯	-9.78458
wc쎯ga쎯	-9.78483
xwf쎯gl쎯	-9.78568
pgc쎯mw쎯	-9.78643
mw쎯dhb쎯	-9.78692
mga쎯	-9.78739
jb쎯xtu쎯	-9.7874
gmiu쎯	-9.78758
uft쎯	-9.78779
rfc쎯agnn쎯	-9.78826
iy쎯tgj쎯	-9.78869
sgyb쎯	-9.78871
pwt쎯	-9.78876
쎁쎉쎇쎉rh쎯	-9.78945
cb쎯	-9.79027
a쎯w쎯	-9.79082
ahnh쎯	-9.79092
yfj쎯jgm쎯	-9.79106
fh쎯ntk쎯	-9.79125
gk쎯og쎯ujfj쎯wug쎯	-9.79177
mqq쎯h쎯	-9.79202
sghg쎯yy쎯	-9.79209
wyc쎯w쎯	-9.7927
w쎯gk쎯	-9.79283
sh쎯gx쎯	-9.79388
if쎯ip쎯	-9.79406
nk쎯	-9.79446
jn쎯dfy쎯	-9.79468
ss쎯og쎯	-9.79511
쎅쎁	-9.79551
i쎯wf쎯	-9.79553
ygu쎯wd쎯	-9.79558
x쎯gj쎯	-9.79565
iyj쎯fm쎯	-9.79597
,hhhh쎯ue쎯	-9.79603
rhj쎯	-9.79609
wc쎯jfd쎯,	-9.79636
mmm쎯ii쎯	-9.79668
ipkh쎯tl쎯	-9.79699
ivp쎯	-9.79713
rvy쎯	-9.7972
rwyg쎯adh쎯	-9.79742
jef쎯	-9.79813
lfo쎯dx쎯ia쎯ith쎯	-9.79845
w쎯lt쎯uqwm쎯idr쎯	-9.79862
gj쎯qev쎯	-9.79866
dd쎯ddh쎯	-9.799
v쎯rpl쎯	-9.79985
yn쎯ftj쎯	-9.80007
sghg쎯adnt쎯	-9.80044
wc쎯rtt쎯	-9.80048
zzpj쎯	-9.80092
yynw쎯sf쎯	-9.80143
cbd쎯by쎯	-9.80244
fq쎯xg쎯	-9.80246
awn쎯	-9.8028
x쎯dl쎯	-9.80323
n쎯l쎯	-9.8035
ifw쎯	-9.80352
쎅쎉	-9.80411
dr쎯mj쎯	-9.80418
san쎯	-9.8042
kgb쎯	-9.80434
wv쎯yb쎯	-9.80444
tx쎯쎂	-9.80446
ipkh쎯et쎯	-9.80467
dhb쎯wyf쎯	-9.80472
r쎯usr쎯	-9.80489
tev쎯	-9.80556
wgk쎯gj쎯	-9.80676
emc쎯wwv쎯	-9.80681
wqu쎯us쎯	-9.80737
itx쎯pl쎯	-9.80751
qk쎯w쎯	-9.80808
py쎯wf쎯y쎯yq쎯	-9.80872
uejo쎯	-9.80898
쎁-	-9.81112
f쎯wug쎯	-9.81126
dl쎯wtf쎯	-9.81158
nnh쎯yn쎯	-9.81216
tve쎯dd쎯	-9.81219
tp쎯gj쎯zzbd쎯	-9.81226
tx쎯g쎯wh쎯	-9.81295
zzpj쎯zzpj쎯zzpj쎯	-9.81338
wye쎯rta쎯	-9.81375
wfkb쎯tdp쎯	-9.8138
yop쎯	-9.81427
ykge쎯	-9.81438
fl쎯yyq쎯	-9.8147
tdd쎯	-9.81489
tdkj쎯dhd쎯	-9.81489
thd쎯q쎯	-9.81534
,thd쎯	-9.81553
dd쎯lpk쎯	-9.81595
ykg쎯	-9.81683
pta쎯	-9.81746
txi쎯xyc쎯r쎯	-9.81827
lg쎯lgm쎯	-9.81901
fnhc쎯	-9.8192
fj쎯tkgg쎯	-9.81973
g쎯fc쎯	-9.81985
uwy쎯dqe쎯	-9.8201
쎈쎆	-9.8202
yyn쎯	-9.82021
xyx쎯	-9.82034
r쎯tg쎯itd쎯	-9.82094
ovt쎯dcg쎯	-9.8212
rp쎯rh쎯go쎯	-9.82189
r쎯ad쎯sg쎯	-9.82189
쎀.쎅	-9.82193
vck쎯xtu쎯	-9.82253
utem쎯	-9.82346
eck쎯	-9.82347
cqy쎯nhj쎯	-9.82362
eerq쎯	-9.82366
hm쎯	-9.82375
wdn쎯fha쎯	-9.82377
,yi쎯	-9.82405
qe쎯qc쎯	-9.82411
fgh쎯rh쎯	-9.82441
wyk쎯rg쎯eb쎯tl쎯	-9.8255
a쎯wt쎯r쎯	-9.8255
wxd쎯	-9.82593
.ul쎯wtf쎯	-9.82621
jn쎯kkd쎯	-9.82633
ujf쎯hid쎯	-9.82635
ypeu쎯wxf쎯	-9.82651
tdj쎯	-9.82722
gl쎯dm쎯	-9.82724
)j쎯	-9.82727
mw쎯tu쎯	-9.82765
whn쎯	-9.82777
dr쎯ld쎯	-9.82786
xxm쎯	-9.82857
tp쎯gj쎯nnk쎯	-9.8287
qtq쎯	-9.82932
g쎯iyc쎯r쎯	-9.82949
dmj쎯eg쎯	-9.82957
,rcn쎯	-9.82998
dj쎯ya쎯f쎯ltu쎯	-9.83012
쎁쎉쎅쎆rh쎯	-9.8302
qt	-9.83055
xg쎯kht쎯	-9.83071
tom쎯	-9.83115
ty쎯tfqp쎯	-9.83124
h쎯gh쎯	-9.83138
d쎯hx쎯	-9.83146
jhk쎯yge쎯	-9.83209
teg쎯	-9.83243
td쎯uthp쎯	-9.83251
itf쎯uqv쎯	-9.83251
ynv쎯	-9.83261
yam쎯	-9.83262
ium쎯	-9.83273
vbn쎯r쎯	-9.83319
uc쎯	-9.83323
rnb쎯whn쎯	-9.83368
dgk쎯	-9.83479
qtvb쎯	-9.83496
ovt쎯rnd쎯o쎯uwy쎯.	-9.83546
,jb쎯xtu쎯xf쎯js쎯c쎯	-9.83552
gef쎯it쎯rh쎯	-9.8358
bn쎯.	-9.83581
sgmj쎯	-9.83605
tg쎯dhb쎯	-9.83607
.",(){(	-9.83618
.("/////	-9.83618
쎁쎀쎀쎀쎀쎈쎀쎁);});	-9.83648
tk쎯wh쎯	-9.83665
gf쎯dj쎯ya쎯f쎯ltu쎯	-9.83693
ktm쎯	-9.83701
yc쎯iagw쎯	-9.83749
쎃-	-9.83867
yu쎯je쎯	-9.83868
bj쎯egc쎯	-9.83882
uqwm쎯ynf쎯	-9.83897
qev쎯un쎯yy쎯pvs쎯	-9.83918
쎆쎉	-9.83921
wys쎯lft쎯wc쎯ngk쎯	-9.83973
god쎯tgj쎯	-9.83977
mq쎯bwg쎯	-9.83993
ygh쎯udv쎯	-9.83993
mu쎯	-9.84071
쎇쎆	-9.84085
qn	-9.84092
쎁쎉쎇쎀rh쎯	-9.84094
gm쎯pu쎯	-9.84121
wynk쎯e쎯	-9.8416
fct쎯	-9.84294
fhg쎯	-9.84372
qejy쎯	-9.84373
dnp쎯	-9.84376
쎁쎉쎇쎆rh쎯	-9.84378
쎈쎂	-9.8445
go쎯idr쎯	-9.84465
egl쎯gj쎯	-9.84485
epi쎯hi쎯	-9.84529
,x쎯	-9.84576
lgey쎯egl쎯	-9.84601
ryl쎯ta쎯	-9.84629
ipwk쎯	-9.8464
ry쎯dd쎯	-9.84776
ffff쎯fyk쎯	-9.84807
쎅wh쎯	-9.84835
,eg쎯	-9.84847
f쎯dm쎯	-9.8485
lk쎯rvyo쎯	-9.84874
kf쎯thg쎯	-9.84891
fwy쎯	-9.84894
mt쎯tuh쎯	-9.84909
itfk쎯	-9.84955
ua쎯eg쎯	-9.84965
xeg쎯vfhp쎯	-9.84975
ajdh쎯	-9.85005
쎁rh쎯	-9.85046
dd쎯wf쎯	-9.8506
eve쎯	-9.85105
vp쎯	-9.8512
qi쎯bw쎯	-9.85139
hka쎯fghg쎯	-9.85172
,fq쎯	-9.85174
tep쎯je쎯	-9.85218
wy쎯thn쎯wx쎯	-9.85239
tjs쎯	-9.8525
qtal쎯	-9.85335
zzsx쎯쎁	-9.85356
y쎯ipg쎯	-9.85372
gk쎯tl쎯	-9.85398
ew쎯	-9.85409
fk쎯ss쎯ith쎯	-9.85439
bj쎯iq쎯	-9.8544
dga쎯rmhj쎯	-9.85464
uxx쎯	-9.85484
cf쎯qh쎯	-9.85516
yox쎯	-9.85609
pg쎯yq쎯	-9.85611
dd쎯bw쎯	-9.85629
uw쎯	-9.85654
yfn쎯nnh쎯	-9.85734
uji쎯	-9.85743
px쎯r쎯	-9.85746
gkm쎯wgk쎯	-9.85747
rx쎯	-9.85786
qkqp쎯	-9.85807
fwm쎯tvfh쎯	-9.85845
qta쎯	-9.85864
.p쎯	-9.85864
uvo쎯wtf쎯	-9.85883
atg쎯gk쎯ta쎯	-9.85923
ia쎯fm쎯	-9.8594
usr쎯lk쎯fhc쎯	-9.85957
vfhp쎯tfkp쎯	-9.85981
xxf쎯og쎯rg쎯	-9.86023
dg쎯dd쎯	-9.86025
wfi쎯	-9.86033
nnw쎯qi쎯	-9.86071
jhk쎯	-9.86193
tk쎯f쎯	-9.86217
k쎯l쎯aw쎯u쎯ipk쎯,	-9.86244
itm쎯dd쎯tjh쎯gog쎯	-9.86263
cm쎯pwfi쎯	-9.86297
kqb쎯uxh쎯	-9.86302
tk쎯adm쎯	-9.8634
쎆wh쎯	-9.86369
xtdh쎯	-9.86559
gajh쎯	-9.8656
.adw쎯k쎯	-9.86577
qh쎯cm쎯	-9.86581
va쎯	-9.86603
ad쎯ld쎯	-9.86657
itol쎯	-9.86722
gki쎯	-9.86796
bwt쎯b쎯	-9.86812
ta쎯ya쎯	-9.86819
pds쎯	-9.86824
xgu쎯us쎯	-9.86831
nf쎯gcft쎯	-9.86865
fp쎯fcu쎯	-9.8694
.sg쎯nnh쎯	-9.87007
tg쎯u쎯xg쎯	-9.8706
rhf쎯gc쎯	-9.87072
gx쎯	-9.87085
,gip쎯	-9.87105
rn쎯c쎯	-9.87125
atg쎯	-9.87153
rlg쎯ck쎯	-9.87156
ipg쎯kjj쎯	-9.87177
u쎯jg쎯	-9.872
,ak쎯	-9.87269
v쎯je쎯	-9.87292
fu쎯ta쎯	-9.87307
쎆쎇	-9.87344
hcd쎯	-9.87369
wvl쎯	-9.87416
e쎯g쎯	-9.8742
tdp쎯peg쎯	-9.8742
쎇쎈	-9.8743
jx쎯	-9.87533
dwg쎯	-9.87549
wwf쎯ait쎯d쎯	-9.87556
nui쎯sm쎯	-9.87569
tj쎯gc쎯b쎯	-9.87614
eud쎯	-9.87766
fku쎯ep쎯	-9.87772
fnh쎯	-9.87807
fggh쎯okk쎯	-9.87816
wv쎯wc쎯ngk쎯	-9.87838
p쎯j쎯	-9.87899
jjjj쎯ipkh쎯	-9.87912
wmg쎯	-9.87945
bm쎯go쎯	-9.87967
w쎯fqu쎯xgb쎯nh쎯ty쎯	-9.87978
fuf쎯pyg쎯	-9.87999
anb쎯sy쎯pe쎯	-9.88012
temq쎯	-9.88058
hk쎯f쎯	-9.88078
iak쎯	-9.88243
vii쎯ntk쎯gf쎯	-9.88255
uck쎯qqqq쎯	-9.88297
dd쎯uk쎯wv쎯	-9.88323
bu쎯wgk쎯wf쎯	-9.88361
sgtk쎯	-9.88378
yw쎯sk쎯	-9.88568
svc쎯wynn쎯	-9.8863
afd쎯vij쎯ith쎯	-9.88633
ny쎯gj쎯ip쎯	-9.88641
un쎯tgm쎯	-9.88742
tw쎯	-9.88789
e쎯hxf쎯	-9.88849
nty쎯o쎯	-9.88918
rh쎯uj쎯	-9.88926
qtj쎯trf쎯	-9.88988
thd쎯y쎯	-9.88989
mb쎯	-9.89003
쎀쎁	-9.89063
usi쎯	-9.89073
쎁쎈쎀	-9.89103
xwf쎯	-9.89114
.쎂.	-9.89156
jtyl쎯rpw쎯	-9.8916
ynk쎯fcl쎯	-9.89205
pujn쎯qc쎯	-9.89256
g쎯gkp쎯	-9.89268
yt쎯d쎯	-9.89301
wj쎯xvk쎯b쎯	-9.89332
uqwm쎯sg쎯	-9.89336
wwg쎯	-9.89357
,ce쎯	-9.89365
g쎯ddu쎯	-9.89427
yw쎯fhw쎯	-9.89429
gmww쎯wmj쎯	-9.89484
khgm쎯ytyh쎯ith쎯	-9.8949
aak쎯	-9.89548
ih쎯gajf쎯	-9.89571
fgh쎯g쎯	-9.89597
wo쎯	-9.89682
tv쎯km쎯wf쎯tv쎯km쎯	-9.89726
tjt쎯vs쎯	-9.89733
pl쎯bw쎯	-9.89779
god쎯st쎯	-9.89785
kt쎯	-9.898
pe쎯ytt쎯	-9.89804
gh쎯fa쎯	-9.89832
,ntk쎯gf쎯mmm쎯aq쎯.	-9.89846
nng쎯	-9.89876
mmm쎯egc쎯	-9.89928
v쎯tmdf쎯	-9.89955
qk쎯tq쎯:	-9.89996
wh쎯ntg쎯	-9.90011
쎁쎉쎇쎅rh쎯	-9.90032
kkhn쎯	-9.90047
dfa쎯	-9.90125
uqwl쎯	-9.90186
uqwm쎯st쎯	-9.90195
ym쎯umd쎯	-9.90208
rnnw쎯	-9.90222
aah쎯	-9.90234
uejv쎯	-9.9024
wc쎯pjm쎯	-9.90254
쎁쎉쎆쎈rh쎯	-9.9028
xef쎯	-9.90337
dhd쎯	-9.90363
lx쎯	-9.90429
waw쎯yid쎯	-9.90435
gx쎯fcl쎯	-9.90493
ms쎯	-9.9059
y쎯wsg쎯	-9.9061
tei쎯	-9.90654
sqj쎯eu쎯	-9.90661
kmh쎯	-9.90676
ipkh쎯tl쎯gj쎯gk쎯	-9.90696
rnb쎯wsg쎯	-9.90729
iqny쎯	-9.9075
adwr쎯trf쎯	-9.90771
br쎯	-9.90777
bk쎯tl쎯	-9.90791
i쎯khu쎯	-9.90862
gg쎯rh쎯	-9.90877
gqx쎯ynv쎯	-9.90932
qn쎯wynk쎯	-9.90946
lw쎯gj쎯	-9.90947
wjm쎯	-9.91022
fhw쎯ghd쎯	-9.91096
iha쎯	-9.91123
rlf쎯	-9.91135
itdy쎯	-9.91169
po쎯	-9.91193
g쎯adm쎯	-9.91199
tam쎯	-9.91232
ry쎯nae쎯	-9.91256
”o쎯	-9.91274
쎁쎉쎅쎇rh쎯	-9.91311
qhk쎯	-9.91316
bk쎯ce쎯	-9.91362
wfh쎯	-9.91378
ii쎯inx쎯	-9.91386
oanw쎯	-9.9141
lftj쎯	-9.91415
hic쎯	-9.91463
qbp쎯	-9.91506
avi쎯	-9.91568
ddg쎯	-9.91612
,ld쎯o쎯	-9.9168
agnn쎯	-9.91713
cexo쎯	-9.91734
gkf쎯	-9.91801
쎇쎃	-9.91802
nbm쎯	-9.91831
wgk쎯qqqq쎯	-9.91842
vvf쎯	-9.9185
wsg쎯txi쎯yw쎯ygh쎯	-9.91941
tjt쎯wgk쎯	-9.92209
ufw쎯	-9.92258
xx쎯wgq쎯	-9.9226
dnv쎯kgb쎯	-9.92263
wyv쎯tr쎯	-9.92263
tfq쎯fj쎯a쎯wt쎯ftj쎯	-9.92263
sk쎯dp쎯	-9.92319
hwbc쎯	-9.92332
wv쎯tp쎯	-9.92354
wqu쎯xgu쎯	-9.924
pwu쎯	-9.92435
k쎯ax쎯	-9.92449
e쎯《	-9.92491
,ntk쎯	-9.92555
.ul쎯	-9.92563
vv쎯	-9.92576
je쎯wa쎯	-9.92587
lfq쎯aq쎯	-9.9259
〕	-9.92602
af쎯	-9.92606
tmgt쎯	-9.92608
yw쎯	-9.92626
쎆-	-9.92633
ux쎯yy쎯	-9.92642
쎃.	-9.92645
hhhh쎯r쎯	-9.92652
uth쎯ftjb쎯	-9.92669
ym쎯si쎯	-9.92689
ukn쎯w쎯kkkk쎯	-9.92717
iqv쎯	-9.92731
,wb쎯wu쎯	-9.92746
y쎯wtf쎯atd쎯jgm쎯	-9.92779
,iv쎯	-9.92796
ftbt쎯rep쎯,	-9.92799
xk쎯dd쎯r쎯	-9.9291
saj쎯hw쎯	-9.92922
th쎯gj쎯kkd쎯	-9.9303
nnk쎯gkl쎯nnk쎯ta쎯	-9.93086
l쎯n쎯ipk쎯	-9.93102
쎁쎉쎅쎂rh쎯	-9.93113
ym쎯xe쎯ftbt쎯jgm쎯	-9.93136
ym쎯tu쎯rfc쎯	-9.9319
tlf쎯et쎯	-9.93285
ge쎯dp쎯	-9.93292
wgkb쎯qk쎯	-9.93302
ta쎯iit쎯	-9.93329
sq쎯tfkp쎯	-9.93341
gjq쎯usr쎯	-9.93352
ujfj쎯fqb쎯	-9.93372
sh쎯m쎯	-9.93387
gku쎯ywfw쎯	-9.93394
wsg쎯gm쎯	-9.93418
ahtb쎯	-9.9347
jb쎯hw쎯	-9.93498
pwd쎯dhc쎯	-9.93531
dxy쎯	-9.93535
cep쎯uthp쎯	-9.93547
rb쎯》	-9.9358
iry쎯iq쎯	-9.93605
lt쎯ip쎯	-9.93616
g쎯gcft쎯	-9.93646
tgj쎯pym쎯	-9.93687
mt쎯wh쎯	-9.93708
쎇쎉	-9.9375
ga쎯rd쎯	-9.9383
lc쎯swc쎯	-9.93837
wgk쎯st쎯	-9.93914
′	-9.93935
nhd쎯	-9.93966
sdw쎯	-9.93994
uxxn쎯	-9.94003
wys쎯wsg쎯	-9.94011
uqt쎯yx쎯	-9.94041
yn쎯fa쎯	-9.94055
nyi쎯fghy쎯:	-9.94058
yff쎯sksw쎯	-9.94097
wj쎯	-9.94101
itx쎯qh쎯	-9.94107
tga쎯	-9.94178
&;	-9.9419
sghg쎯gyt쎯ah쎯	-9.94198
fm쎯yy쎯	-9.94224
uxh쎯	-9.94236
rdc쎯	-9.94254
lfn쎯rq쎯	-9.94273
oth쎯	-9.9429
ux쎯yiu쎯dd쎯ip쎯	-9.94295
dgj쎯tel쎯	-9.94297
ajq쎯	-9.9431
bm쎯b쎯	-9.94358
isj쎯	-9.94373
yny쎯ngc쎯	-9.94383
mjq쎯	-9.94415
r쎯eb쎯tl쎯	-9.94422
쎀쎅	-9.94441
telb쎯	-9.94459
ywwf쎯	-9.94468
ght쎯fl쎯	-9.94526
aps쎯iwyf쎯tq쎯kgn쎯	-9.94599
wbj쎯uu쎯	-9.94646
ur쎯	-9.94652
,gjq쎯	-9.94719
wc쎯fqb쎯	-9.94752
cqw쎯	-9.94754
oja쎯	-9.94758
hid쎯uthp쎯	-9.94778
db쎯pt쎯	-9.94799
fuk쎯	-9.94841
쎉쎇	-9.94864
rny쎯	-9.94869
uth쎯rx쎯	-9.94889
pwd쎯	-9.94905
.rnd쎯	-9.94918
es쎯bc쎯	-9.94919
ynma쎯	-9.94942
rer쎯	-9.94974
adw쎯pu쎯	-9.94998
fj쎯wht쎯	-9.95044
tdt쎯w쎯	-9.95062
sga쎯	-9.9512
j쎯g쎯ffi쎯	-9.95147
lqj쎯	-9.95161
bib쎯ovt쎯	-9.95192
udb쎯ytyh쎯	-9.9527
ltu쎯wqj쎯	-9.95288
쎇쎇	-9.95335
qtbl쎯	-9.95358
kl쎯g쎯	-9.95383
쎀쎈	-9.95445
xkw쎯	-9.95479
gae쎯dn쎯b쎯	-9.95508
ftbt쎯dga쎯pgc쎯	-9.95512
tri쎯	-9.95534
yn쎯nn쎯	-9.9554
dnv쎯fqb쎯,	-9.95543
ga쎯v쎯aq쎯	-9.95545
ip쎯fghg쎯	-9.95559
qm쎯gmu쎯w쎯	-9.95566
,pb쎯	-9.95593
vfhp쎯sft쎯	-9.9562
쎀쎆	-9.95622
쎁쎉쎅쎉rh쎯	-9.95624
uge쎯	-9.95634
.쎃zzbd쎯	-9.95645
wyn쎯	-9.9567
agnt쎯	-9.95695
dd쎯www쎯	-9.95725
bbh쎯	-9.95774
qtg쎯	-9.95811
ojf쎯	-9.95824
gaj쎯	-9.95872
dgty쎯	-9.95877
tgm쎯ltk쎯	-9.95901
gkp쎯go쎯	-9.95916
쎃쎀쎀쎀	-9.95923
fnrt쎯rn쎯	-9.95938
atd쎯tg쎯	-9.95955
aet쎯yygy쎯	-9.95966
rs쎯qgb쎯	-9.96023
udy쎯,	-9.96038
fgh쎯gg쎯	-9.96064
qdt쎯	-9.96103
qjn쎯	-9.96145
y쎯s쎯j쎯	-9.96171
dgh쎯maw쎯	-9.96185
jgg쎯	-9.96189
py쎯lft쎯	-9.96234
r쎯wt쎯et쎯	-9.96235
ywwg쎯	-9.96238
vynu쎯	-9.96248
tqt쎯	-9.96302
wdt쎯vb쎯	-9.96392
쎃.쎅	-9.9644
:《	-9.96443
ivs쎯	-9.9645
xeg쎯dn쎯r쎯	-9.96482
jn쎯sm쎯	-9.9649
cm쎯www쎯	-9.9652
mq쎯jy쎯	-9.96525
qb쎯	-9.96536
ra쎯gc쎯	-9.96596
wycm쎯fakg쎯r쎯	-9.96631
rbcc쎯wqj쎯udi쎯	-9.96632
il쎯	-9.96653
ce쎯jg쎯	-9.96702
쎁쎉쎆쎉rh쎯	-9.96753
ifn쎯ivs쎯	-9.96758
nyi쎯	-9.96768
쎁쎉쎄쎉rh쎯	-9.96784
xln쎯qt쎯	-9.96799
x쎯iyj쎯v쎯nae쎯	-9.968
px쎯wu쎯	-9.9681
lxx쎯wycb쎯	-9.96883
k쎯aw쎯ipk쎯km쎯	-9.96883
ryn쎯gj쎯	-9.96905
uqd쎯.	-9.96923
rmay쎯	-9.96943
r쎯dty쎯gk쎯	-9.97067
lwg쎯	-9.97116
쎂쎀쎀쎇	-9.97158
ujn쎯yq쎯	-9.97167
.쎁쎂	-9.97176
tjh쎯uwl쎯	-9.97198
쎁쎉쎈쎁rh쎯	-9.97239
lw쎯if쎯	-9.97294
pu쎯og쎯	-9.97301
lu쎯o쎯	-9.974
dm쎯cf쎯	-9.97492
nae쎯ga쎯	-9.97558
nnnn쎯e쎯	-9.97568
jn쎯kht쎯	-9.97572
ypt쎯oy쎯	-9.97598
,f쎯th쎯	-9.97626
uqd쎯ddnl쎯	-9.97696
r쎯《	-9.97706
gu쎯yy쎯wc쎯jfd쎯	-9.97716
ijlc쎯	-9.97737
ukn쎯x쎯gj쎯	-9.97748
fcr쎯	-9.9776
w쎯dd쎯ipkh쎯tv쎯wf쎯	-9.97761
qd쎯rg쎯	-9.97795
py쎯wf쎯tu쎯ip쎯	-9.9781
nnk쎯nnk쎯ta쎯	-9.97821
cal쎯	-9.9784
kw쎯j쎯	-9.97865
sc쎯dgv쎯	-9.97959
쎁쎉쎆쎆rh쎯	-9.98006
쎂쎀쎀쎈	-9.98009
qtb쎯	-9.98032
nu쎯nxf쎯	-9.98074
ftg쎯ty쎯	-9.98078
r쎯yy쎯if쎯	-9.98096
g쎯hko쎯	-9.98107
twf쎯	-9.98121
lw쎯wc쎯pgc쎯y쎯wtf쎯	-9.98144
epi쎯	-9.98237
fgh쎯dg쎯	-9.98294
lfn쎯tqq쎯	-9.98303
jvko쎯thg쎯	-9.98324
ddh쎯uyh쎯	-9.98355
d쎯bk쎯	-9.98388
d쎯wg쎯l쎯	-9.98388
쎁쎉쎇쎂rh쎯	-9.98412
dj쎯rh쎯	-9.98421
ln쎯xwy쎯	-9.98435
kj쎯qd쎯	-9.98448
ffh쎯	-9.98468
qkq쎯umc쎯	-9.98524
ym쎯dfy쎯	-9.98554
qdb쎯	-9.98597
fje쎯qgu쎯	-9.98598
d쎯g쎯fhn쎯	-9.98635
gh쎯ymc쎯	-9.98654
i쎯tj쎯	-9.98683
쎁쎉쎅쎃rh쎯	-9.98707
qq쎯rh쎯go쎯	-9.98709
ugdu쎯gmy쎯r쎯	-9.98743
fgh쎯wty쎯	-9.98769
adwn쎯gcf쎯	-9.98794
쎀.쎀	-9.988
rnu쎯wx쎯	-9.98802
tqdh쎯	-9.98832
쎁쎉쎅쎄rh쎯	-9.98837
sup쎯	-9.98844
txi쎯gq쎯u쎯kkk쎯	-9.98884
afs쎯hxf쎯	-9.9889
pvs쎯wgq쎯	-9.98938
mdff쎯	-9.98985
ip쎯km쎯	-9.98992
wynb쎯gd쎯	-9.99006
vfb쎯hxf쎯	-9.9904
cds쎯	-9.99048
gu쎯dm쎯	-9.99083
qtd쎯	-9.9909
pwfi쎯	-9.99099
gv쎯	-9.99107
ipk쎯tv쎯	-9.99119
fj쎯fghg쎯	-9.99131
ykw쎯klj쎯	-9.99181
zzbd쎯zzbd쎯zzbd쎯	-9.99206
gae쎯udy쎯	-9.99243
ukn쎯xf쎯	-9.99244
쎂쎀쎀쎆	-9.99283
jn쎯iyc쎯	-9.99369
fcp쎯fcl쎯km쎯	-9.99393
txgi쎯	-9.99416
pp쎯rg쎯,	-9.99469
ugdu쎯gmy쎯	-9.99484
yi쎯wf쎯	-9.99508
f쎯aq쎯r쎯	-9.99519
쎇-	-9.99524
ngk쎯if쎯	-9.99527
w쎯ovt쎯	-9.99559
pyuf쎯	-9.99573
py	-9.99591
tgj쎯jg쎯	-9.996
gmw쎯	-9.99601
ith쎯ymhj쎯	-9.99613
xv쎯wx쎯	-9.99631
,kgn쎯	-9.99654
wye쎯if쎯	-9.99655
rnnw쎯pgn쎯	-9.99679
tq쎯“	-9.99751
jsd쎯oug쎯	-9.99754
vfhp쎯e쎯	-9.99813
syp쎯	-9.99815
쎂zzbd쎯	-9.99839
umd쎯kkkk쎯	-9.99845
쎀쎃	-9.99864
gjq쎯qk쎯o쎯	-9.99879
stt쎯	-9.99881
ie쎯	-9.99955
gkp쎯wycm쎯	-9.99965
쎆쎁	-9.99981
ipkm쎯	-10.0003
,mh쎯gf쎯	-10.0003
rufh쎯	-10.0005
m쎯su쎯	-10.0007
gj쎯a쎯dd쎯ip쎯	-10.0007
g쎯iyc쎯	-10.0007
xwy쎯tg쎯gxi쎯	-10.0012
bfm쎯pl쎯	-10.0013
wv쎯uyt쎯yx쎯	-10.0013
he쎯	-10.0018
hk쎯f쎯dm쎯tkw쎯	-10.0019
yta쎯gh쎯	-10.004
udy쎯ukq쎯	-10.0041
wtf쎯ftbt쎯	-10.0044
dif쎯f쎯	-10.0045
oft쎯	-10.005
aqt쎯uqd쎯	-10.005
sfi쎯uwy쎯wx쎯	-10.0052
h쎯xe쎯	-10.0053
fk쎯ss쎯	-10.0054
()j쎯	-10.0055
iyw쎯wsg쎯	-10.0061
ga쎯ud쎯	-10.0066
nh쎯wys쎯	-10.0072
rg쎯go쎯	-10.0077
ipkh쎯mqb쎯	-10.0081
wxf쎯ai쎯	-10.0085
wyl쎯	-10.0088
pu	-10.009
sfi쎯fn쎯	-10.0098
ssk쎯	-10.01
wvf쎯tmd쎯	-10.0101
gkih쎯gj쎯	-10.0103
aw쎯ybf쎯	-10.0104
d쎯ux쎯yiu쎯	-10.0105
tak쎯xe쎯	-10.0112
쎇쎄	-10.0112
fd쎯egc쎯	-10.0114
je쎯jtg쎯	-10.0115
lg쎯uh쎯	-10.0116
bf쎯	-10.012
ga쎯ymc쎯	-10.0123
wcn쎯	-10.0127
쎁쎉쎆쎁rh쎯	-10.0134
rh쎯ya쎯	-10.0138
gu쎯dr쎯	-10.0145
tvfh쎯jgm쎯	-10.0145
qd쎯dmj쎯	-10.0146
xjm쎯et쎯	-10.0146
me쎯fggh쎯	-10.0149
tx쎯g쎯uqw쎯	-10.0152
ugh쎯udy쎯	-10.0159
ige쎯ii쎯	-10.0163
ax쎯kkk쎯	-10.0163
쎂쎀쎁쎃rh쎯	-10.0165
gah쎯ufy쎯	-10.0165
cep쎯et쎯	-10.0166
xpw쎯	-10.017
djdn쎯	-10.0172
ifk쎯	-10.0174
ipr쎯	-10.0178
ra쎯	-10.0178
ad쎯nfc쎯	-10.0183
yyn쎯ukd쎯	-10.0184
tf쎯og쎯r쎯	-10.0194
쎈쎇	-10.0194
쎀쎂	-10.0194
r쎯a쎯wt쎯	-10.0197
qe쎯ya쎯	-10.0201
jf쎯uj쎯:	-10.0202
dfe쎯	-10.0206
gajf쎯kgn쎯	-10.0206
rqn쎯	-10.0206
ue쎯rg쎯	-10.0207
tp쎯uthp쎯	-10.021
anu쎯	-10.021
lh쎯rh쎯	-10.0214
amw쎯isk쎯	-10.0217
ovt쎯rnd쎯go쎯idr쎯	-10.0217
anu쎯thg쎯	-10.0217
ipgh쎯ow쎯	-10.0227
ls쎯cw쎯	-10.0228
쎁쎉쎇쎄rh쎯	-10.0229
qdb쎯bwg쎯	-10.0231
sg쎯kkk쎯	-10.0231
.gm쎯	-10.0233
rh쎯lc쎯	-10.0235
쎄rh쎯	-10.0235
t쎯gu쎯	-10.0235
dnv쎯gu쎯yy쎯oy쎯,	-10.0237
쎁.쎂	-10.0238
fny쎯aft쎯	-10.024
y쎯s쎯ww쎯gk쎯	-10.0241
hjj쎯	-10.0242
e쎯“	-10.0247
lp쎯xxe쎯	-10.0249
nty쎯fj쎯	-10.0249
um쎯sfi쎯	-10.025
fny쎯og쎯wx쎯	-10.0254
-쎃	-10.0256
dfek쎯	-10.0257
mqc쎯nudu쎯	-10.0259
ynnd쎯	-10.0263
tgm쎯	-10.0265
uth쎯tfq쎯	-10.0267
ve쎯	-10.027
,tfq쎯rg쎯	-10.0274
ddm쎯	-10.0279
g쎯tg쎯	-10.028
쎇쎀쎀	-10.0288
fgh쎯uy쎯	-10.0289
wwg쎯nnh쎯	-10.0289
fny쎯jghm쎯	-10.0291
rn쎯d쎯	-10.0293
cbq쎯	-10.0294
c쎯ue쎯	-10.0301
j쎯wh쎯	-10.0304
nhj쎯rrr쎯rfm쎯	-10.0305
,fcb쎯	-10.0307
qvfp쎯tel쎯	-10.0307
tfpd쎯	-10.031
쎁쎆쎀	-10.0311
kt쎯ke쎯	-10.0313
ap쎯	-10.0318
wff쎯	-10.032
vk쎯hx쎯	-10.0321
o쎯y쎯.	-10.0323
eb쎯tl쎯kkd쎯	-10.0323
ipk쎯fc쎯uk쎯	-10.0324
uai쎯	-10.0324
agq쎯	-10.0325
vtk쎯wsg쎯	-10.0325
ians쎯	-10.0326
쎂쎀쎀쎃	-10.033
쎂쎀쎁쎀	-10.0336
fcp쎯wt쎯	-10.0338
txg쎯gd쎯	-10.0338
bb쎯,	-10.0339
ripq쎯rufh쎯	-10.0346
iwy쎯	-10.0357
lwg쎯udp쎯	-10.0359
쎁쎉쎇쎇rh쎯	-10.0364
ntg쎯st쎯	-10.0366
lfo쎯dx쎯ia쎯	-10.0373
w쎯n쎯qev쎯yt쎯pl쎯	-10.0373
r쎯ad쎯dbm쎯h쎯	-10.0378
xte쎯qfhw쎯	-10.0378
fwm쎯	-10.0379
acbt쎯	-10.0381
mn쎯	-10.0386
kcb쎯	-10.0387
pv쎯rdj쎯	-10.039
egc쎯xe쎯	-10.0392
aib쎯lfnh쎯mw쎯	-10.0396
dn쎯wv쎯	-10.0398
tyg쎯tyg쎯	-10.04
,g쎯tem쎯	-10.0402
tg쎯fcl쎯	-10.0405
tdp쎯et쎯	-10.0406
gjq쎯qq쎯	-10.0406
쎈wh쎯	-10.0407
ftl쎯	-10.0408
uj쎯,	-10.0408
jmd쎯	-10.041
ditn쎯	-10.0417
udng쎯	-10.0417
wgc쎯ty쎯	-10.0419
qgh쎯	-10.0424
nfc쎯uqw쎯	-10.0427
a쎯wt쎯;	-10.0442
qh쎯gae쎯	-10.0447
쎈쎄	-10.0448
쎀쎉	-10.045
쎈쎃	-10.0452
(쎁)	-10.0453
asg쎯	-10.0454
qqq쎯	-10.0454
wfny쎯dskf쎯	-10.0455
emc쎯sfiu쎯	-10.0459
dg쎯fgh쎯	-10.0461
nii쎯	-10.0463
b쎯g쎯wh쎯	-10.0467
ovt쎯rnd쎯ylk쎯	-10.0468
fhu쎯tm쎯	-10.0473
pgk쎯e쎯	-10.0481
wyk쎯	-10.0482
.q쎯wu쎯	-10.0485
ftx쎯rh쎯	-10.0487
r쎯dd쎯gajf쎯	-10.0487
tmh쎯	-10.049
quj쎯udi쎯	-10.0496
,ua쎯d쎯	-10.0498
qyt쎯	-10.0498
rnc쎯	-10.0499
wv쎯sgn쎯	-10.0499
kqw쎯	-10.0499
qu쎯	-10.0501
,aw쎯	-10.0502
pfq쎯gkih쎯	-10.0504
rgv쎯	-10.0511
dd쎯std쎯	-10.0512
dn쎯b쎯	-10.0513
zzbd쎯qie쎯wyk쎯	-10.0513
tx쎯uy쎯	-10.0514
qgo쎯	-10.0516
wc쎯ngk쎯r쎯	-10.0516
ihcv쎯	-10.0519
aqt쎯tj쎯b쎯	-10.0523
egcn쎯	-10.0523
fhn쎯yq쎯	-10.0525
dl쎯kq쎯h쎯	-10.0526
ijx쎯uxt쎯ffff쎯	-10.053
dd쎯tffh쎯	-10.0532
bwf쎯ntk쎯	-10.0533
egc쎯tv쎯	-10.0533
egc쎯w쎯n쎯ght쎯ywf쎯	-10.0535
xcy쎯	-10.0537
dmh쎯nnk쎯	-10.0538
rk쎯	-10.054
wdn쎯ugdu쎯	-10.0541
r쎯ymc쎯yf쎯	-10.0542
nj쎯	-10.0544
wv쎯dmh쎯gf쎯	-10.0545
iyc쎯fcl쎯	-10.0545
iagw쎯ujn쎯	-10.0546
():	-10.0546
xkjn쎯	-10.0546
rfw쎯	-10.0546
f쎯qr쎯	-10.0547
um쎯qyv쎯	-10.0548
ukn쎯xyc쎯	-10.0549
viq쎯	-10.0554
ukqb쎯	-10.0564
iie쎯by쎯	-10.0567
oge쎯pnt쎯	-10.0567
jvko쎯je쎯	-10.0569
jcf쎯	-10.0569
nk쎯qkq쎯	-10.0571
쎂rh쎯	-10.0573
sg쎯f쎯	-10.0575
egc쎯ght쎯ywf쎯	-10.0576
pe쎯nd쎯	-10.0577
dfi쎯	-10.0579
hq쎯ds쎯	-10.0579
쎈쎉	-10.0582
rvyf쎯	-10.0583
infy쎯	-10.0587
h쎯ymhj쎯	-10.059
ugk쎯	-10.0593
쎂쎅쎀	-10.0594
pfq쎯ugdu쎯	-10.0596
uxt쎯	-10.0598
쎃zzbd쎯	-10.0603
jb쎯o쎯	-10.0604
ep쎯vb쎯ftj쎯	-10.0606
,ym쎯	-10.0607
tffu쎯qq쎯tkh쎯	-10.0613
bc쎯tj쎯b쎯	-10.0614
nnnn쎯dn쎯o쎯	-10.0615
tqv쎯	-10.0619
ijl쎯riu쎯	-10.0619
wht쎯nty쎯	-10.0619
ym쎯ijl쎯	-10.0621
wdn쎯yv쎯	-10.0626
ic쎯ygk쎯	-10.0626
lgey쎯nf쎯	-10.0628
,you쎯	-10.0629
ex쎯eyn쎯	-10.0637
wfd쎯	-10.0638
”t쎯“	-10.064
xxf쎯	-10.0642
gef쎯dw쎯	-10.0653
pww쎯jg쎯	-10.0654
ih쎯gtu쎯	-10.0655
ynm쎯	-10.0659
iqc쎯cep쎯	-10.0659
vi쎯ujf쎯	-10.0663
fny쎯tu쎯	-10.0667
쎁쎉쎇쎃rh쎯	-10.0667
jtyl쎯pwfi쎯	-10.067
o쎯pt쎯yne쎯rj쎯waw쎯	-10.0673
yvh쎯wa쎯	-10.0675
nj쎯ntg쎯	-10.0676
pe쎯fl쎯wf쎯wf쎯km쎯	-10.0677
v쎯fcl쎯sm쎯	-10.068
rep쎯sc쎯	-10.0683
ain쎯	-10.0686
ftj쎯.	-10.069
rfq쎯	-10.0692
kkh쎯	-10.0693
qmq쎯qr쎯	-10.0697
awv쎯	-10.0708
ul쎯d쎯	-10.0708
』『	-10.0709
c쎯adw쎯	-10.0712
irr쎯	-10.0714
o쎯y쎯r쎯	-10.0715
jgm쎯aib쎯ip쎯bpf쎯	-10.0716
jfd쎯,	-10.0716
wgku쎯yn쎯	-10.0719
raw쎯	-10.0721
ukk쎯	-10.0722
rg쎯adwe쎯	-10.0723
ap	-10.0724
djd쎯iyt쎯	-10.0725
k쎯qh쎯	-10.0725
_	-10.0728
fhv쎯xe쎯	-10.0729
wqj쎯gxi쎯	-10.0732
h쎯dm쎯	-10.0732
l쎯uthp쎯	-10.0733
yff쎯yngk쎯	-10.0735
gmf쎯uqw쎯	-10.0735
q쎯r쎯	-10.0735
ygk쎯yygy쎯	-10.0739
ys쎯	-10.0741
wgk쎯ec쎯	-10.0741
iyn쎯	-10.0742
쎉쎃	-10.0745
pei쎯og쎯dd쎯ip쎯	-10.0745
v쎯fhn쎯	-10.0748
deb쎯	-10.0749
caq쎯fcl쎯	-10.0757
j쎯g쎯rn쎯	-10.0758
ntg쎯t쎯	-10.0758
qq쎯tyna쎯	-10.0759
sad쎯	-10.0759
gmi쎯iry쎯	-10.0759
rpws쎯yfy쎯	-10.0762
xh쎯nf쎯	-10.0766
ians쎯uthp쎯	-10.0767
wv쎯wf쎯	-10.0767
fny쎯og쎯tv쎯km쎯wf쎯	-10.0769
pv쎯egc쎯	-10.0769
rvyo쎯gkp쎯	-10.0771
qqk쎯	-10.0773
쎉쎄	-10.0775
nnh쎯tdij쎯	-10.078
uqt쎯yid쎯	-10.0781
wb쎯wu쎯r쎯	-10.0784
uthp쎯tfl쎯	-10.0789
ige쎯jsr쎯	-10.0795
gae쎯pww쎯	-10.0797
wt쎯og쎯	-10.0798
fcl쎯ijlc쎯	-10.0799
sux쎯	-10.08
yid쎯yynw쎯	-10.0808
:쎃	-10.0809
lh쎯dd쎯	-10.0809
i쎯s쎯	-10.0816
)zzbd쎯《	-10.0829
whf쎯	-10.0829
bg쎯jtg쎯	-10.083
rdj쎯gq쎯	-10.0832
qnq쎯wyv쎯	-10.0835
gj쎯gk쎯	-10.0835
itd쎯fcl쎯,	-10.0837
tuh쎯	-10.0839
pntj쎯	-10.0841
uit쎯	-10.0847
wvm쎯	-10.0847
od쎯wny쎯	-10.0848
qh쎯l쎯	-10.0852
nkue쎯	-10.0855
wn쎯fqb쎯	-10.0855
madt쎯	-10.0856
maw쎯gajf쎯	-10.0857
rae쎯	-10.0858
k쎯e쎯	-10.0862
d쎯《	-10.0862
cd쎯lk쎯af쎯wgkb쎯	-10.0864
shi쎯	-10.0865
,lk쎯	-10.0869
fqp쎯tkgg쎯	-10.087
ig쎯	-10.0873
jd쎯	-10.0876
oufg쎯	-10.0877
쎂쎀쎀쎅	-10.0877
jy쎯hko쎯	-10.0877
쎀쎄	-10.0879
yy쎯qf쎯	-10.0882
uk쎯wug쎯	-10.0883
tk쎯dd쎯	-10.0886
rxj쎯pg쎯	-10.0888
iyc쎯jg쎯	-10.0888
dr쎯vck쎯	-10.0891
pp쎯ue쎯	-10.0895
dif쎯f쎯dm쎯tkw쎯	-10.0897
fqu쎯o쎯	-10.0897
cccg쎯	-10.0907
rn쎯yle쎯	-10.0907
ipf쎯	-10.0912
ujn쎯mqb쎯	-10.0913
pnt쎯fffy쎯	-10.0915
jjjj쎯,	-10.0918
apk쎯og쎯	-10.0925
쎉쎂	-10.0925
dnv쎯gu쎯yy쎯oy쎯	-10.0925
a쎯um쎯	-10.0926
qk쎯:	-10.0936
ruv쎯fyk쎯	-10.0938
쎂쎀쎀쎉	-10.0939
wy쎯iwyf쎯	-10.0943
iv쎯rh쎯	-10.0944
rd쎯nae쎯	-10.0945
qty쎯	-10.0947
bm쎯thd쎯	-10.0948
klj쎯jfcf쎯	-10.0951
쎅%	-10.0951
wdn쎯te쎯ftbt쎯jgm쎯	-10.0957
xh쎯fhn쎯r쎯	-10.0957
si쎯	-10.0958
쎆rh쎯	-10.0962
kfg쎯	-10.0966
fha쎯go쎯fha쎯	-10.0972
.iv쎯	-10.0972
wy쎯et쎯	-10.0974
ua쎯i쎯	-10.0977
ltu쎯pvs쎯	-10.0985
rmhj쎯dn쎯	-10.0996
fhw쎯pu쎯	-10.1
pyg쎯ytyh쎯	-10.1
tfq쎯fj쎯wh쎯w쎯	-10.1
sh쎯wny쎯	-10.1001
uyt쎯	-10.1001
wuf쎯	-10.1004
dga쎯pwv쎯km쎯	-10.1005
bv쎯rmhj쎯	-10.1005
ese쎯qc쎯	-10.1008
i쎯it쎯	-10.1013
gae쎯,	-10.1016
ymc쎯yf쎯jgm쎯	-10.1023
쎅쎀쎀쎀	-10.1023
ygh쎯je쎯	-10.1023
qkqy쎯	-10.1026
vf쎯ra쎯	-10.1028
wgu쎯	-10.103
ud쎯ab쎯	-10.1033
쎁쎉쎅쎁rh쎯	-10.1036
fg쎯rh쎯	-10.1037
ydjn쎯	-10.1038
ugdu쎯sy쎯ip쎯bpf쎯	-10.1038
aws쎯kf쎯	-10.104
sm쎯kkd쎯	-10.1042
wt쎯et쎯.	-10.105
wfny쎯xyc쎯r쎯	-10.1056
rnb쎯qje쎯	-10.1062
jfd쎯r쎯	-10.1069
vkf쎯	-10.1073
쎅zzbd쎯	-10.1075
tg쎯dn쎯	-10.1075
jan쎯	-10.1076
nmh쎯	-10.1076
usr쎯vfhp쎯	-10.1076
h쎯e쎯	-10.1077
uqyl쎯	-10.1084
nui쎯tf쎯	-10.1084
쎀쎇	-10.1087
opw쎯	-10.1088
yynw쎯suq쎯	-10.1089
tu쎯ip쎯ad쎯qqqq쎯	-10.1091
e쎯:	-10.1092
jgm쎯tg쎯	-10.1093
r쎯yy쎯aa쎯	-10.1095
zzbd쎯ym쎯	-10.11
ftg쎯pwfi쎯	-10.1102
쎁쎉쎆쎀rh쎯	-10.1105
ukn쎯wc쎯ngk쎯	-10.1106
udjh쎯	-10.1109
쎈rh쎯	-10.1111
tp쎯gj쎯a쎯wt쎯	-10.1113
smgk쎯	-10.1114
pfi쎯xj쎯	-10.1118
m쎯hi쎯	-10.1119
wn쎯fqb쎯,	-10.1127
g쎯gh쎯	-10.1134
쎁쎀쎀%	-10.1146
ssq쎯shn쎯	-10.1149
aik쎯	-10.1152
jgf쎯	-10.1156
wam쎯ffi쎯	-10.1159
vk쎯wynb쎯	-10.1163
eb쎯qnth쎯	-10.1164
fjt쎯btg쎯	-10.1168
rh쎯hwbc쎯	-10.1169
bwj쎯	-10.1171
trs쎯trtg쎯	-10.1173
tffu쎯pei쎯wt쎯tr쎯.	-10.1173
ulk쎯	-10.1175
fjf쎯	-10.118
sk쎯mqb쎯	-10.1187
sg쎯tmd쎯	-10.1189
쎁쎉쎅쎅rh쎯	-10.1192
eqd쎯	-10.1194
쎀-	-10.1196
atj쎯	-10.1199
mdf쎯dgtg쎯	-10.12
kw쎯ce쎯	-10.1201
jqb쎯	-10.1202
fj쎯bm쎯kkkk쎯	-10.1202
tld쎯iyw쎯	-10.1203
nge쎯dgkn쎯	-10.1203
wh쎯wsg쎯	-10.1205
gyiy쎯	-10.1208
tlo쎯	-10.1212
xf쎯gki쎯	-10.1213
ll쎯bb쎯	-10.1222
hjs쎯	-10.1224
ynf쎯	-10.1225
iwe쎯	-10.1227
gk쎯dty쎯	-10.1229
mqi쎯	-10.1229
tga쎯fh쎯	-10.123
g쎯rx쎯	-10.1234
ukn쎯uk쎯	-10.1236
uqt쎯uwl쎯	-10.1237
rg쎯r쎯	-10.1242
apg쎯dgh쎯	-10.1242
ad쎯sg쎯cd쎯ovt쎯	-10.1258
lkd쎯:“	-10.1258
hka쎯tmc쎯	-10.126
wgg쎯	-10.1264
uq쎯rq쎯	-10.1266
k쎯fny쎯	-10.1267
dn쎯ftjb쎯ymhj쎯	-10.127
gjq쎯qq쎯r쎯	-10.1272
bj쎯ymhj쎯	-10.1272
,yt쎯ty쎯	-10.1272
ftbt쎯pgc쎯	-10.1275
imj쎯pg쎯	-10.1276
oge쎯ny쎯	-10.1276
k쎯mmm쎯	-10.1277
awsk쎯	-10.1277
j쎯“	-10.1278
xr쎯	-10.1282
tld쎯tp쎯	-10.1283
dm쎯ow쎯	-10.1284
te	-10.1287
ovt쎯fgh쎯	-10.1287
gh쎯lpdk쎯	-10.1294
irn쎯	-10.1297
.vbn쎯	-10.1298
etg쎯tjh쎯	-10.1301
adwe쎯uj쎯,	-10.1306
saj쎯fnw쎯	-10.1306
ivg쎯	-10.1313
hxw쎯	-10.1314
mwy쎯	-10.1322
pvs쎯wrh쎯	-10.1323
rs쎯ga쎯	-10.1324
fgh쎯dd쎯	-10.1324
k쎯l쎯tu쎯ip쎯bpf쎯	-10.1329
riq쎯hka쎯	-10.1339
쎁쎂쎈	-10.1339
wc쎯py쎯	-10.1345
wbj쎯lw쎯gf쎯	-10.1347
emc쎯wwv쎯e쎯bv쎯	-10.1349
dy쎯gu쎯	-10.1353
gmww쎯rh쎯	-10.1354
lfnh쎯xat쎯	-10.1355
tffu쎯tffu쎯	-10.1355
uo쎯ynm쎯	-10.1356
e쎯g쎯wh쎯	-10.1357
auqw쎯	-10.1359
qmq쎯ggw쎯	-10.1359
g쎯txi쎯gq쎯	-10.136
fwm쎯mj쎯	-10.1361
》r쎯	-10.1364
c쎯o쎯	-10.1365
wycb쎯	-10.1368
a쎯og쎯dd쎯ip쎯	-10.1376
vo쎯itd쎯	-10.1377
oge쎯amd쎯	-10.1379
jn쎯pym쎯ndj쎯	-10.1379
yvi쎯tjt쎯	-10.1379
”j쎯	-10.1381
fuf쎯	-10.1383
sf쎯zzbd쎯	-10.1383
qq쎯al쎯ce쎯	-10.1385
ek쎯	-10.1385
,rj쎯ym쎯	-10.1387
lkmi쎯gae쎯	-10.1389
fhb쎯	-10.1391
utd쎯	-10.1392
nnw쎯rgv쎯	-10.1393
//	-10.1395
ps쎯ihc쎯	-10.14
et쎯wtp쎯	-10.1404
rma쎯	-10.1407
xk쎯wx쎯	-10.1408
kkfb쎯	-10.1411
v쎯yce쎯	-10.1411
wgen쎯	-10.1412
iyw쎯dfy쎯	-10.1414
jtyl쎯hich쎯tp쎯gj쎯	-10.1414
,k쎯aw쎯ipk쎯km쎯,	-10.1415
pym쎯ipmq쎯	-10.1416
oa쎯mdo쎯	-10.1417
yssc쎯if쎯	-10.1424
bgh쎯sm쎯	-10.1425
ai쎯fm쎯gog쎯	-10.1426
ii쎯tev쎯	-10.1428
쎀.쎁	-10.1433
lkb쎯	-10.1433
qtb쎯ldj쎯	-10.1443
ct쎯	-10.1444
ynky쎯tj쎯b쎯	-10.1445
쎁kgn쎯	-10.1446
aga쎯	-10.1448
tqd쎯	-10.1452
og쎯xgm쎯	-10.1453
ukqb쎯pfjm쎯	-10.1454
god쎯yak쎯	-10.1457
r쎯jf쎯uj쎯	-10.1458
bm쎯ffff쎯	-10.1459
fhv쎯ymhj쎯	-10.1468
k쎯yygy쎯txi쎯	-10.1471
jx쎯jhny쎯	-10.1476
wc쎯pv쎯	-10.148
fgi쎯	-10.1485
tx쎯ag쎯	-10.1493
tg쎯u쎯r쎯	-10.1495
yi쎯sk쎯c쎯	-10.1496
쎁.쎀	-10.1498
r쎯wt쎯kkk쎯	-10.1502
wfny쎯》	-10.1506
d쎯p쎯jfd쎯	-10.151
xi쎯	-10.1512
og쎯e쎯bv쎯wc쎯ngk쎯	-10.1512
rcp쎯	-10.1513
쎁쎉쎇쎁rh쎯	-10.1526
ln쎯ftg쎯	-10.153
g쎯fnrt쎯	-10.153
gmww쎯uqw쎯	-10.1537
qyi쎯	-10.1548
qk쎯o쎯	-10.1551
wxm쎯tr쎯	-10.1552
td쎯ykw쎯u쎯sc쎯	-10.1557
zzxl쎯	-10.1558
vcn쎯	-10.156
gmap쎯	-10.1572
js쎯pu쎯	-10.1585
dj쎯vtg쎯	-10.1588
쎈-	-10.1589
xeg쎯xkw쎯pu쎯ytb쎯	-10.1603
dhq쎯	-10.1607
pnt쎯dcg쎯	-10.1608
wg쎯usr쎯	-10.1608
iq쎯ip쎯	-10.1608
qqc쎯	-10.161
iry쎯	-10.1611
,lk쎯ty쎯	-10.1612
쎉-	-10.1616
fqu쎯e쎯	-10.1623
cyi쎯	-10.1634
vep쎯ws쎯	-10.1635
er쎯	-10.1643
ypk쎯	-10.1644
temk쎯ter쎯	-10.1645
shy쎯	-10.1649
쎉쎀쎀	-10.1652
iie쎯wx쎯	-10.1656
ke쎯xh쎯	-10.166
qyvl쎯ip쎯	-10.1661
y쎯lw쎯	-10.1662
,wkh쎯fj쎯	-10.1663
pynk쎯	-10.1666
lu쎯dd쎯	-10.1675
쎁쎉쎄쎆rh쎯	-10.1675
ta쎯,	-10.1679
ipw쎯ya쎯	-10.1683
eri쎯	-10.1691
ja쎯	-10.1692
puv쎯adwe쎯	-10.1693
wtr쎯	-10.1701
g쎯uk쎯	-10.1709
.yvh쎯	-10.1709
xq쎯쎁	-10.1712
xqc쎯cf쎯	-10.1721
zzj쎯	-10.1724
ugdu쎯wyv쎯	-10.1726
sgn쎯tlf쎯	-10.1726
x쎯iyj쎯ukn쎯nh쎯ty쎯	-10.1727
wht쎯vfhp쎯	-10.1733
rnt쎯	-10.1733
jn쎯wy쎯	-10.1736
tgv쎯bd쎯	-10.1736
,ux쎯	-10.1736
sfiq쎯	-10.174
yca쎯	-10.1742
faf쎯	-10.1743
ijl쎯ytyh쎯	-10.1745
yf쎯jg쎯	-10.1747
xo쎯bd쎯	-10.1748
,nnnn쎯	-10.1749
wfny쎯dgkn쎯kkd쎯	-10.1752
rkk쎯wt쎯txi쎯xyc쎯	-10.1752
ipk쎯xeg쎯nnh쎯yn쎯	-10.1754
by쎯hh쎯	-10.1756
gh쎯r쎯	-10.1757
vcb쎯sk쎯.	-10.1762
rkm쎯	-10.1771
uqwm쎯ipw쎯	-10.1775
es쎯mqc쎯	-10.178
puhc쎯tq쎯o쎯	-10.1786
sr쎯	-10.1788
fggh쎯gk쎯	-10.179
quk쎯	-10.1792
std쎯ivw쎯	-10.1801
g쎯wdm쎯	-10.1804
wdn쎯ahty쎯	-10.1805
jn쎯xjt쎯	-10.1807
twgi쎯	-10.181
jgm쎯aib쎯	-10.1813
,hx쎯	-10.1814
tn쎯nnh쎯ta쎯	-10.1814
sf쎯,	-10.1815
pyv쎯	-10.1815
iwgu쎯	-10.1816
kkkk쎯epw쎯	-10.1816
쎂쎂쎀	-10.1818
sfw쎯	-10.182
ipk쎯r쎯	-10.1825
ga쎯v쎯r쎯	-10.183
whf쎯og쎯r쎯	-10.183
o쎯k쎯l쎯	-10.1831
kqb쎯	-10.1834
》aqt쎯	-10.1835
alw쎯bu쎯	-10.184
,ukn쎯	-10.1841
ukqb쎯qv쎯lt쎯	-10.1841
iyc쎯tkgg쎯	-10.1843
yuvo쎯	-10.1843
tv쎯rta쎯	-10.1845
sgy쎯	-10.1852
kfi쎯uthp쎯	-10.1857
gd쎯f쎯	-10.1859
dr쎯bb쎯	-10.186
ojf쎯ruv쎯	-10.1865
m쎯rh쎯	-10.1869
mhh쎯	-10.1871
cd쎯lk쎯a쎯wt쎯,	-10.1873
ih쎯qt쎯	-10.1877
doq쎯	-10.1879
sg	-10.1879
rqb쎯rmhj쎯	-10.188
pwt쎯kkkk쎯	-10.1884
,q쎯	-10.1886
rua쎯	-10.1888
ruv쎯nh쎯	-10.1889
gah쎯ic쎯ymhj쎯	-10.189
tu쎯ip쎯dga쎯pwv쎯	-10.1898
,ta쎯	-10.1899
awsk쎯uff쎯	-10.1901
ebf쎯	-10.1903
nty쎯xyna쎯	-10.1908
ymhj쎯tv쎯	-10.1909
kwyg쎯	-10.1914
mfk쎯adwe쎯	-10.1919
ip쎯wf쎯wf쎯km쎯	-10.1924
vii쎯ntk쎯	-10.1925
apl쎯fcl쎯lt쎯	-10.1926
쎄.	-10.1926
lu쎯ym쎯	-10.1928
.dl쎯wtf쎯	-10.1933
jf쎯whn쎯	-10.1933
tx쎯쎃	-10.1935
awx쎯faj쎯	-10.1936
jhnr쎯	-10.1938
쎁쎉쎅쎀rh쎯	-10.1938
wc쎯y쎯	-10.194
buj쎯djg쎯	-10.1942
eb쎯tl쎯,	-10.1943
nv쎯	-10.1944
dgt쎯yny쎯	-10.1945
udyj쎯tg쎯	-10.1947
---	-10.1948
yo쎯dn쎯	-10.1948
gh쎯ntk쎯	-10.1948
gc쎯dp쎯	-10.1949
lkc쎯	-10.1949
yid쎯et쎯gf쎯	-10.1951
uk쎯,	-10.1955
g쎯pg쎯r쎯	-10.1957
uqf쎯adw쎯	-10.1968
gj쎯wynn쎯,	-10.1969
wtd쎯	-10.1971
yny쎯f쎯u쎯ga쎯v쎯	-10.1972
wxm쎯tmh쎯	-10.1973
xyna쎯tv쎯	-10.1976
dif쎯	-10.1976
itd쎯fcl쎯.	-10.1976
pei쎯yne쎯	-10.199
nnh쎯zzbd쎯	-10.1992
.psu쎯	-10.1997
vvv쎯bynw쎯	-10.2002
쎇rh쎯	-10.2004
ugm쎯w쎯	-10.2006
ftjb쎯wf쎯	-10.2007
ugk쎯shi쎯	-10.2007
wqbh쎯	-10.2008
ad쎯uk쎯	-10.2011
dw쎯to쎯	-10.2012
lq쎯cn쎯	-10.2013
jyie쎯wqj쎯	-10.2017
쎂쎀쎀쎄	-10.2018
》t쎯《	-10.202
:쎁.	-10.2021
xat쎯	-10.2022
ujt쎯	-10.2023
yvk쎯	-10.2023
d쎯l쎯mw쎯	-10.2023
trf쎯tkh쎯	-10.2025
img쎯gl쎯	-10.203
tg쎯u쎯ad쎯f쎯	-10.2035
mfky쎯ynt쎯	-10.2035
ftbt쎯bk쎯a쎯	-10.2036
txg쎯g쎯	-10.2037
ajt쎯qc쎯	-10.2038
xtdp쎯	-10.2039
ige쎯wxf쎯dd쎯ip쎯	-10.204
wgkq쎯et쎯r쎯	-10.2042
rkk쎯	-10.2044
(쎁쎉쎁	-10.2045
wdt쎯gc쎯	-10.2046
mc쎯mrg쎯	-10.2048
gkim쎯	-10.2051
dr쎯wbj쎯	-10.2053
rfm쎯jg쎯tp쎯gj쎯	-10.2054
itp쎯	-10.2056
qq쎯rh쎯r쎯	-10.2056
qnr쎯yhk쎯	-10.2057
et쎯if쎯	-10.2057
wv쎯sfc쎯	-10.2058
txi쎯xyc쎯zzbd쎯	-10.2063
aq쎯klj쎯	-10.2067
puw쎯	-10.2069
go쎯gc쎯	-10.207
sf쎯w쎯.	-10.2073
wt쎯tr쎯	-10.2074
,ntk쎯gf쎯	-10.208
rytp쎯yge쎯	-10.2085
f쎯gkp쎯	-10.2087
iyc쎯cep쎯	-10.2091
rnv쎯	-10.2092
f쎯ltu쎯	-10.2095
rge쎯	-10.2097
gk쎯tr쎯	-10.2101
tffu쎯bk쎯.	-10.2102
aqo쎯	-10.2103
dgkn쎯ipmq쎯	-10.2107
jb쎯puv쎯	-10.2112
.p쎯tkh쎯	-10.2115
uu쎯wsg쎯	-10.2119
gkp쎯e쎯	-10.212
idt쎯	-10.2126
ip쎯wf쎯gj쎯gk쎯	-10.2131
wht쎯tjt쎯	-10.2136
tq쎯o쎯“	-10.2137
rpw쎯emc쎯	-10.2147
uvh쎯	-10.2147
f쎯gj쎯wug쎯lfhf쎯	-10.2148
jn쎯fcl쎯	-10.2148
mmq쎯wug쎯	-10.2149
fha쎯fm쎯	-10.2153
ecl쎯	-10.2155
wa쎯dcg쎯	-10.2158
naj쎯ipkh쎯	-10.2159
bn쎯i쎯	-10.2161
zzbd쎯sb쎯	-10.2169
tfk쎯rh쎯	-10.2172
dgtg쎯pe쎯yfd쎯	-10.2177
pjv쎯	-10.218
xeg쎯dn쎯.	-10.2185
.dmj쎯	-10.2192
dm쎯tkw쎯쎁	-10.2192
bk쎯tq쎯	-10.2192
ybf쎯e쎯	-10.2195
suq쎯aq쎯	-10.2196
fjh쎯tr쎯	-10.2197
gkq쎯	-10.2198
txg쎯g쎯wh쎯	-10.2198
it쎯vvv쎯	-10.22
auq쎯	-10.2205
fjgh쎯	-10.2207
l쎯uu쎯	-10.221
gm쎯o쎯	-10.2214
wgj쎯tjh쎯	-10.2215
gah쎯sy쎯	-10.2216
rqci쎯lt쎯	-10.2217
e쎯rn쎯	-10.2218
agu쎯js쎯	-10.223
pwkw쎯	-10.2231
sm쎯jn쎯	-10.2241
tx쎯fg쎯nm쎯	-10.2241
iuw쎯	-10.2242
yn쎯》	-10.2243
fyb쎯	-10.2245
d쎯ugdu쎯l쎯	-10.2247
wyb쎯	-10.2249
tq쎯kgn쎯.	-10.2253
쎈쎁	-10.2255
xten쎯	-10.2256
yo쎯gae쎯	-10.2261
r쎯trf쎯hko쎯	-10.2264
.thd쎯	-10.2265
쎀.쎂	-10.2266
iw쎯fhb쎯	-10.2267
sh쎯wycb쎯	-10.2268
j쎯g쎯pe쎯wys쎯	-10.2268
yny쎯uj쎯	-10.2272
rp쎯wa쎯	-10.2275
bm쎯go쎯r쎯	-10.2276
eeq쎯	-10.2279
dgh쎯fd쎯	-10.2279
pw쎯pl쎯	-10.228
”(	-10.2283
eb쎯tl쎯k쎯ny쎯	-10.2285
rmhj쎯ax쎯	-10.2285
yfj쎯syp쎯b쎯	-10.2287
ts쎯wrh쎯gh쎯	-10.2288
by쎯ryn쎯	-10.2291
wys쎯》	-10.2294
whf쎯og쎯,	-10.2304
wdt쎯bm쎯	-10.2305
qq쎯ovt쎯	-10.2306
tmc쎯	-10.2308
쎂)	-10.231
쎁쎉쎃쎆rh쎯	-10.2312
th쎯th쎯ta쎯	-10.2315
쎁쎁쎀	-10.2319
-쎄	-10.2323
caq쎯	-10.233
wg쎯l쎯tk쎯f쎯	-10.2333
,ai쎯	-10.234
v쎯jn쎯	-10.234
suf쎯	-10.2342
aqg쎯aqr쎯	-10.2344
,m쎯rh쎯	-10.2345
ftx쎯w쎯	-10.2347
(쎁쎉쎀	-10.2352
r쎯fdm쎯fiy쎯	-10.2352
uqsg쎯img쎯	-10.2354
tr	-10.2356
ldd쎯pg쎯uqwm쎯u쎯	-10.2359
ygu쎯ywx쎯	-10.2367
ytn쎯lfn쎯	-10.2368
fu쎯u쎯	-10.2372
g쎯wa쎯	-10.2379
rxj쎯ovt쎯	-10.2381
sgn쎯e쎯	-10.2386
/쎂	-10.2387
ftg쎯han쎯	-10.2387
vtk쎯qynm쎯	-10.2388
bn쎯sk쎯c쎯	-10.2394
wdn쎯te쎯r쎯	-10.2397
쎇zzbd쎯	-10.2397
.”《	-10.2398
g쎯kw쎯	-10.2398
lpdk쎯aq쎯	-10.2399
rv쎯ral쎯	-10.2401
sg쎯tu쎯ip쎯dl쎯	-10.2401
tgj쎯vfhp쎯	-10.2402
yw쎯pg쎯	-10.2402
wg쎯aq쎯	-10.2406
whf쎯og쎯tp쎯gj쎯	-10.241
mfky쎯ubtf쎯	-10.2412
yfy쎯ywx쎯	-10.2417
nuk쎯	-10.2418
ww쎯dmj쎯	-10.2421
rqw쎯	-10.2426
je쎯dqe쎯	-10.2426
r쎯jyie쎯ktm쎯	-10.2431
suf쎯hhhh쎯	-10.2433
wa쎯ge쎯wt쎯	-10.2434
dgt쎯um쎯	-10.2436
\	-10.2437
wcd쎯	-10.2438
xeg쎯dn쎯,	-10.2441
,gip쎯e쎯	-10.2446
rvyo쎯nge쎯	-10.2447
jx쎯je쎯	-10.2448
f쎯u쎯	-10.245
yfj쎯syp쎯	-10.2452
쎁)	-10.2453
wtp쎯	-10.2455
dgkn쎯nge쎯	-10.2455
trf쎯klj쎯j쎯	-10.2456
""	-10.2456
tu쎯rfc쎯dd쎯ip쎯	-10.2458
,x쎯fp쎯	-10.2461
ice쎯	-10.2462
yb쎯ga쎯	-10.2463
fl쎯wf쎯wf쎯km쎯	-10.2464
tmd쎯wwv쎯	-10.2471
ode쎯	-10.2472
bu쎯pfjm쎯	-10.2476
fq쎯bv쎯	-10.2476
rvh쎯fpx쎯	-10.2482
vkf쎯ga쎯	-10.2489
sh쎯lpk쎯	-10.249
r쎯tk쎯tkh쎯	-10.249
mw쎯qh쎯	-10.2491
qqqq쎯uqd쎯	-10.2494
()zzbd쎯	-10.2497
(쎂)	-10.2501
kn쎯wdt쎯	-10.2501
ruv쎯tffy쎯	-10.2502
iv쎯ue쎯	-10.2505
g쎯rn쎯	-10.2513
gkl쎯tn쎯nnh쎯ta쎯	-10.2513
um쎯fnrt쎯	-10.2514
jfj쎯	-10.2516
nfif쎯	-10.2517
dgkn쎯epc쎯	-10.2517
ue쎯tmd쎯o쎯	-10.2519
y쎯s쎯e쎯	-10.252
fjg쎯	-10.2523
thp쎯wjh쎯	-10.2528
yf쎯aj쎯tg쎯yce쎯	-10.2529
,gae쎯dn쎯	-10.2537
cf쎯yy쎯	-10.254
sq쎯	-10.2548
.o쎯b쎯	-10.2553
mdo쎯	-10.2556
v쎯dp쎯	-10.2557
쎇쎁	-10.2561
itd쎯ntg쎯	-10.2563
dan쎯	-10.2564
anb쎯w쎯	-10.2567
ym쎯dp쎯	-10.2572
lkd쎯gc쎯	-10.2573
i쎯td쎯	-10.2576
pgf쎯pm쎯	-10.2581
f쎯hko쎯	-10.2584
hxs쎯	-10.2584
hjj쎯fha쎯	-10.2586
waw쎯yid쎯um쎯	-10.2587
dn쎯uu쎯r쎯	-10.2587
jfd쎯dm쎯	-10.2594
fs쎯	-10.2596
fue쎯	-10.2599
hao쎯rny쎯	-10.2599
fhfk쎯	-10.2602
uy쎯rh쎯	-10.2605
o쎯synw쎯ny쎯	-10.2605
g쎯thg쎯	-10.2606
nn쎯	-10.2608
jm쎯gc쎯	-10.2609
yyv쎯	-10.261
wxf쎯w쎯	-10.2617
쎁쎉쎃쎉rh쎯	-10.2618
“dg쎯	-10.2618
iwt쎯ou쎯	-10.262
aqq쎯ugdu쎯	-10.2623
dqq쎯	-10.2623
whw쎯	-10.2626
xvk쎯	-10.2626
qk쎯pe쎯	-10.2628
fp쎯iha쎯	-10.2628
pu쎯wsg쎯	-10.264
wc쎯xd쎯	-10.2641
adk쎯fggh쎯	-10.2643
sq쎯vfhp쎯	-10.2646
ip쎯sy쎯ywx쎯yygy쎯	-10.2653
lg쎯uj쎯	-10.2655
gxw쎯	-10.2659
yh쎯w쎯	-10.2662
wjg쎯j쎯	-10.2663
txg쎯jjjj쎯	-10.2665
gkl쎯y쎯yam쎯	-10.2665
wbg쎯	-10.2669
fuk쎯yce쎯	-10.2671
itk쎯bj쎯	-10.2676
jmh쎯	-10.2681
xe쎯a쎯tkgg쎯jgm쎯	-10.2698
qwyc쎯	-10.2699
w쎯n쎯atd쎯bpf쎯	-10.27
zzzy쎯zzzy쎯zzzy쎯	-10.2705
ihi쎯	-10.2706
.ld쎯	-10.2708
쎇wh쎯	-10.2712
yud쎯	-10.2716
k쎯ny쎯zzbd쎯	-10.2716
tfk쎯oy쎯	-10.2717
fgh쎯lh쎯	-10.272
tr쎯og쎯	-10.272
jyie쎯ktm쎯lt쎯	-10.2721
ruv쎯rp쎯	-10.2723
ll쎯vvv쎯	-10.2723
쎂쎀쎁쎁	-10.2727
b쎯.	-10.2729
xnf쎯xq쎯	-10.273
fc쎯rip쎯	-10.273
”“	-10.273
xj쎯	-10.2732
dd쎯rnb쎯	-10.2735
sk쎯waw쎯	-10.2735
、	-10.2736
gfi쎯bw쎯	-10.2737
vv쎯tu쎯	-10.2745
usr쎯fd쎯	-10.2751
,ipkh쎯	-10.2752
l쎯by쎯	-10.2754
.vk쎯	-10.2757
r쎯oge쎯pyj쎯	-10.2758
waw쎯jn쎯	-10.2758
wc쎯fqb쎯ue쎯	-10.2761
r쎯whf쎯og쎯	-10.2762
gjq쎯j쎯	-10.2768
ige쎯ifk쎯	-10.2768
ywfw쎯	-10.2769
kkd쎯sft쎯	-10.2771
ht쎯	-10.2772
ipl쎯	-10.2774
txt쎯	-10.2776
ith쎯zzbd쎯ymhj쎯	-10.2776
쎁쎉쎄쎀rh쎯	-10.2778
uter쎯	-10.2778
qk쎯pb쎯	-10.278
:fc쎯rf쎯	-10.2782
):	-10.2783
wwgj쎯	-10.2788
wyf쎯	-10.2788
쎄zzbd쎯	-10.279
jghm쎯sft쎯	-10.279
dww쎯	-10.2798
ick쎯gj쎯	-10.2799
jn쎯du쎯	-10.28
uqb쎯	-10.28
ftbt쎯ip쎯a쎯wt쎯	-10.2806
tu쎯ta쎯	-10.2809
qvn쎯ntg쎯	-10.2814
ahko쎯	-10.2824
wge쎯	-10.2833
ip쎯pe쎯	-10.2849
쎁쎀쎀dq쎯	-10.285
uwa쎯uyh쎯	-10.2854
sh쎯wy쎯	-10.2854
gg쎯qqqq쎯	-10.2854
lqp쎯lkb쎯	-10.286
xx쎯kwgj쎯	-10.2863
tfq쎯rg쎯d쎯	-10.2868
dy쎯gu쎯iu쎯	-10.2868
dmj쎯dn쎯	-10.2869
nnk쎯ta쎯	-10.2869
zzzy쎯zzzy쎯ˋ	-10.2872
tg쎯itd쎯r쎯	-10.2874
tdh쎯	-10.2875
ih쎯xeg쎯	-10.2875
ptf쎯	-10.2876
ql쎯	-10.2877
,gm쎯e쎯	-10.2877
qtyd쎯	-10.2878
-쎆	-10.2883
tp쎯lpdk쎯	-10.289
sgj쎯	-10.2897
bh쎯	-10.29
igd쎯lk쎯	-10.29
iy쎯mm쎯uqwm쎯qqqq쎯	-10.2904
nb쎯	-10.2904
and쎯dd쎯	-10.2905
cc쎯yy쎯	-10.2909
rkm쎯rw쎯	-10.2916
bb쎯zzbd쎯	-10.2916
qje쎯tgh쎯	-10.2916
iss쎯	-10.2917
uo쎯ey쎯	-10.2922
jsd쎯	-10.2922
ypt쎯oy쎯,tdp쎯peg쎯	-10.2925
wj쎯rfm쎯	-10.2926
.쎁zzbd쎯	-10.2929
yni쎯fqp쎯	-10.2935
dwiu쎯l쎯	-10.2935
r쎯synw쎯ny쎯	-10.294
wg쎯wsg쎯	-10.2942
fnr쎯ujf쎯	-10.2949
dty쎯buj쎯	-10.2949
wbj쎯vck쎯w쎯	-10.2949
qnnk쎯ou쎯	-10.295
r쎯ftbt쎯ip쎯	-10.2954
gss쎯	-10.2958
yn	-10.2959
mgu쎯	-10.2959
rbcc쎯	-10.297
nge쎯rb쎯	-10.297
jhng쎯:“	-10.2979
y쎯wtf쎯,	-10.2981
wjjg쎯nf쎯	-10.2982
rtt쎯	-10.2983
ftbt쎯rep쎯.	-10.2985
isjg쎯	-10.2985
if쎯fwm쎯	-10.2989
gkl쎯nnh쎯yn쎯	-10.2998
ai쎯yiu쎯	-10.2999
usr쎯rfc쎯sy쎯	-10.3
qq쎯su쎯	-10.3007
ia쎯egc쎯	-10.3009
tffu쎯wycm쎯fakg쎯	-10.3024
ntg쎯zzbd쎯	-10.3025
쎂쎀쎁쎂	-10.3025
bqv쎯	-10.3027
nwy쎯	-10.3027
fje쎯bj쎯	-10.3029
kwyg쎯g쎯r쎯	-10.3029
itf쎯uqv쎯,	-10.303
wg쎯yy쎯wug쎯	-10.3034
(tuj쎯tq쎯	-10.3035
sd쎯	-10.3038
faw쎯	-10.3039
ln쎯kht쎯	-10.3045
kgn쎯:	-10.3047
tgj쎯s쎯cd쎯ovt쎯	-10.3049
,yi쎯j쎯	-10.3051
a쎯tkgg쎯ip쎯bpf쎯	-10.3059
sve쎯sg쎯	-10.3063
ai쎯fm쎯uk쎯	-10.3064
up쎯l쎯	-10.3066
g쎯sg쎯	-10.3067
lk쎯jel쎯	-10.3069
am쎯fmud쎯.	-10.3072
nc쎯ulg쎯	-10.3073
kjq쎯	-10.3079
)w쎯.	-10.3083
(vk쎯	-10.3085
v쎯bm쎯	-10.3088
usr쎯aq쎯	-10.3091
rtb쎯	-10.3092
mh쎯hx쎯	-10.3095
r쎯gj쎯shn쎯	-10.3097
r쎯ukd쎯jghm쎯	-10.3097
bc쎯bm쎯	-10.3098
sg쎯udh쎯	-10.3101
i쎯gc쎯	-10.3101
ryc쎯	-10.3102
klj쎯w쎯	-10.3103
u쎯tg쎯r쎯	-10.3103
rap쎯bm쎯	-10.3106
aiit쎯	-10.3107
쎅djfd쎯oy쎯	-10.3108
cbd쎯imj쎯	-10.311
ftbt쎯ip쎯gyt쎯	-10.311
nx쎯gog쎯	-10.3111
vvv쎯w쎯	-10.3111
fc쎯wfy쎯	-10.3112
a쎯anb쎯ugdu쎯sy쎯	-10.3113
tdtf쎯	-10.3113
uth쎯yam쎯	-10.312
g쎯wsg쎯wx쎯	-10.3121
]	-10.3121
o쎯yygt쎯dd쎯	-10.3122
wqin쎯r쎯	-10.3122
ymhj쎯k쎯ny쎯	-10.3124
,pu쎯gm쎯	-10.3125
dg쎯qe쎯	-10.3127
saj쎯trf쎯	-10.3128
sghg쎯ux쎯uk쎯	-10.3129
cm쎯wynn쎯	-10.313
쎃wc쎯jfd쎯	-10.313
txg쎯uqw쎯	-10.313
qnth쎯ipg쎯	-10.3131
vyv쎯	-10.3132
fjt쎯	-10.3133
.k쎯l쎯	-10.3135
ige쎯itf쎯	-10.3137
uf쎯qynm쎯	-10.3139
ii쎯js쎯	-10.314
fny쎯og쎯tg쎯u쎯	-10.3141
ert쎯	-10.3143
y쎯fcl쎯	-10.3146
it쎯ovt쎯n쎯ytt쎯	-10.315
쎁쎀-	-10.3152
dd쎯ip쎯ip쎯dl쎯	-10.3161
gmu쎯	-10.3161
tdx쎯	-10.3163
v쎯fcl쎯	-10.3164
(-)	-10.3168
lv쎯	-10.3168
iej쎯	-10.317
bd쎯lw쎯	-10.3171
|	-10.3175
oge쎯ese쎯	-10.3175
vtd쎯	-10.3178
rn쎯e쎯r쎯	-10.3178
.vk쎯js쎯	-10.3181
zzsx쎯쎂	-10.3181
uqwm쎯rfm쎯	-10.3183
ltu쎯gae쎯	-10.3185
fgh쎯wtu쎯	-10.3185
iqpl쎯or쎯	-10.3188
g쎯nfc쎯	-10.319
uk쎯ta쎯	-10.319
쎆zzbd쎯	-10.3194
gkl쎯y쎯wtf쎯zzbd쎯	-10.3195
jtd쎯	-10.32
ll쎯w쎯	-10.32
sgty쎯	-10.3204
쎁.쎈	-10.3206
쎁쎉쎆쎇rh쎯	-10.3208
#	-10.321
uwyc쎯fcb쎯	-10.321
dfy쎯xpw쎯	-10.3211
usr쎯xtd쎯	-10.3212
mq쎯jy쎯aq쎯	-10.3218
klk쎯kdj쎯	-10.3219
sft쎯rfm쎯	-10.322
d쎯gf쎯	-10.322
kcy쎯	-10.3221
inro쎯	-10.3222
pe쎯ta쎯	-10.3225
hxf쎯	-10.3225
쎁쎉쎅	-10.323
ftg쎯synw쎯	-10.323
uqv쎯wx쎯	-10.3234
ftbt쎯rep쎯zzbd쎯	-10.3235
pei쎯n쎯nh쎯ty쎯y쎯s쎯	-10.3239
dn쎯w쎯	-10.3241
mq쎯kfi쎯	-10.3244
ipwk쎯iyw쎯	-10.3244
ujfj쎯wug쎯.	-10.3246
kb쎯	-10.3252
ta쎯pv쎯	-10.3252
fay쎯	-10.3253
fgh쎯ag쎯	-10.3255
rv쎯	-10.3255
bs쎯qiu쎯	-10.3256
vkb쎯	-10.3258
a쎯wf쎯	-10.3259
cm쎯ipkm쎯	-10.3261
쎆)	-10.3262
dcg쎯udi쎯	-10.3263
iytb쎯fmk쎯hka쎯qv쎯	-10.3264
ngkg쎯	-10.3264
pfq쎯gkih쎯r쎯	-10.3264
tg쎯gj쎯	-10.3266
cm쎯imj쎯	-10.3268
tkm쎯	-10.3268
rt쎯if쎯	-10.3268
ovt쎯rpw쎯	-10.327
k쎯ih쎯whf쎯og쎯	-10.3272
j쎯ugdu쎯l쎯	-10.3275
iawn쎯kkkk쎯	-10.3276
gk쎯,	-10.3278
tu쎯uo쎯	-10.3281
wt쎯bm쎯	-10.3283
wg쎯jjjj쎯rmhj쎯	-10.3288
kht쎯xg쎯	-10.3288
uff쎯ytyh쎯	-10.3289
ige쎯fje쎯	-10.329
rvk쎯bmg쎯	-10.3291
k쎯l쎯aw쎯u쎯ipk쎯.	-10.3294
uu쎯khu쎯	-10.3294
ii쎯k쎯	-10.3302
tk쎯xe쎯	-10.3306
.ige쎯	-10.3306
qq쎯w쎯	-10.3306
ukh쎯fmk쎯	-10.3307
tfn쎯icf쎯ai쎯	-10.3308
xy쎯	-10.3309
dd쎯isgg쎯yhk쎯	-10.331
sc쎯tjh쎯	-10.3311
riv쎯	-10.3319
,vk쎯js쎯	-10.3319
rwb쎯	-10.3324
bm쎯thgc쎯py쎯:	-10.3326
쎁쎉쎄쎅rh쎯	-10.3327
khtd쎯	-10.3328
.zzts쎯	-10.3329
sy쎯ygk쎯	-10.3333
lk쎯nnw쎯	-10.3335
tmo쎯fcp쎯wf쎯	-10.3336
fny쎯og쎯ww쎯gk쎯	-10.3346
bn쎯sk쎯	-10.3348
j쎯g쎯qk쎯	-10.3348
g쎯od쎯	-10.3348
쎁쎉쎃쎈rh쎯	-10.335
.gm쎯o쎯	-10.3351
aqky쎯pwfi쎯	-10.3353
tfqp쎯et쎯	-10.3353
g쎯fnw쎯	-10.3355
ght쎯fl쎯tv쎯km쎯	-10.3355
de쎯alq쎯hhy쎯	-10.336
“k쎯l쎯	-10.3362
xw쎯cbj쎯	-10.3363
zzbd쎯ith쎯	-10.3364
dd쎯lt쎯	-10.3365
ps쎯dht쎯	-10.3367
wtl쎯pd쎯	-10.3367
wv쎯ybf쎯	-10.3368
sj쎯yqj쎯	-10.3368
.rg쎯	-10.3369
k쎯sghg쎯atd쎯xf쎯wg	-10.3373
tr쎯kkk쎯	-10.3374
ogbn쎯	-10.3375
(dr쎯	-10.3377
fc쎯bw쎯	-10.3378
iat쎯	-10.338
xnn쎯	-10.3384
utu쎯uce쎯	-10.3388
itm쎯uyh쎯	-10.3391
e쎯dif쎯f쎯	-10.3393
hv쎯hg쎯	-10.3394
qevj쎯	-10.3394
ym쎯ftg쎯	-10.3396
rb쎯fjh쎯	-10.3399
().	-10.34
rh쎯u쎯	-10.3404
wuh쎯	-10.3404
rno쎯	-10.3406
fgh쎯vt쎯	-10.3411
:쎄	-10.3414
dqe쎯wk쎯	-10.3414
qci쎯	-10.3415
쎁쎉쎄쎁rh쎯	-10.3415
“”	-10.3418
hx쎯qh쎯	-10.3419
y쎯sm쎯	-10.342
if쎯rmhj쎯	-10.3425
iyc쎯wfny쎯	-10.3431
gae쎯dn쎯r쎯	-10.3432
fwyc쎯wyk쎯	-10.3433
(.)	-10.3434
zzbd쎯ih쎯	-10.3434
ai쎯apfq쎯ymhj쎯	-10.3437
cbj쎯	-10.344
tuk쎯nh쎯	-10.3441
uqwv쎯	-10.3446
riq쎯	-10.3447
xfm쎯tavn쎯rvy쎯tf쎯	-10.345
xte쎯sf쎯	-10.3457
ob쎯	-10.3461
qc쎯icf쎯	-10.3462
gg쎯wh쎯	-10.347
hl쎯	-10.3472
ps쎯egc쎯	-10.3474
qqw쎯	-10.3477
tol쎯	-10.3479
wx쎯r쎯	-10.348
fd쎯xte쎯	-10.3481
ajj쎯dr쎯	-10.3483
xan쎯nu쎯	-10.3485
aigy쎯	-10.3489
mqu쎯.	-10.3489
ndn쎯	-10.3493
uq쎯cep쎯dd쎯ip쎯	-10.3493
gkih쎯gae쎯	-10.3493
dm쎯tkw쎯xq쎯	-10.3494
kg쎯gm쎯	-10.3494
uda쎯naj쎯	-10.3494
tuk쎯tl쎯	-10.3495
mqq쎯dc쎯	-10.3496
쎀.쎃	-10.3498
ugdu쎯cm쎯	-10.35
.쎁쎀	-10.3503
쎁쎈쎈	-10.3503
uth쎯pe쎯	-10.3508
dj쎯wtu쎯	-10.3509
.”ige쎯	-10.3512
usr쎯wxf쎯	-10.3513
ud쎯qvfp쎯	-10.3515
lfod쎯	-10.3517
.쎂쎀쎀쎆rh쎯	-10.3518
ge쎯uje쎯	-10.3521
i쎯gmf쎯	-10.3522
psu쎯wa쎯	-10.3522
mhj쎯	-10.3522
xk쎯ymf쎯	-10.3524
zzbd쎯sghg쎯	-10.3525
qmk쎯	-10.3525
tu쎯ip쎯bpf쎯	-10.3526
cnh쎯tqt쎯	-10.3527
uwb쎯	-10.3527
egc쎯w쎯,	-10.3529
pfq쎯dn쎯b쎯	-10.353
쎁쎉쎄쎂rh쎯	-10.3533
bip쎯	-10.3533
mq쎯iq쎯	-10.3535
ipe쎯ya쎯	-10.3536
ytey쎯tf쎯	-10.3536
em쎯efw쎯	-10.354
,ip쎯suq쎯	-10.3542
nae쎯gm쎯	-10.3543
rrk쎯	-10.3545
wfny쎯uxhp쎯	-10.3546
jo쎯hhu쎯	-10.3548
yygt쎯itp쎯yid쎯et쎯	-10.3548
pwl쎯	-10.3548
dl쎯wa쎯	-10.355
vt쎯rh쎯	-10.3552
imk쎯itx쎯	-10.3555
pwat쎯fha쎯	-10.3557
tu쎯tu쎯ta쎯	-10.3558
ipw쎯epc쎯	-10.3558
iw쎯vfhp쎯	-10.3558
jb쎯vb쎯r쎯	-10.3562
cnh쎯sghg쎯	-10.3564
puf쎯	-10.3566
wc쎯uq쎯	-10.3566
kyn쎯	-10.3566
af	-10.3567
apl쎯fcl쎯saj쎯aib쎯	-10.3567
.sve쎯rnd쎯	-10.3567
epv쎯	-10.3567
sm쎯,	-10.3572
ihg쎯	-10.3573
p쎯su쎯r쎯	-10.3575
.hhhh쎯ue쎯,	-10.3579
pyj쎯tn쎯	-10.358
do쎯qc쎯	-10.3581
r쎯ujn쎯ln쎯	-10.3583
.쎃.	-10.3591
dd쎯xq쎯	-10.3594
rjq쎯	-10.3594
mf쎯pgk쎯	-10.3595
tu쎯dga쎯adm쎯hhhh쎯	-10.3598
wy쎯thn쎯rfc쎯sy쎯	-10.3612
,uq쎯cep쎯wgj쎯tjh쎯	-10.3612
iytb쎯pt쎯	-10.3613
wsg쎯tgj쎯	-10.3613
nyp쎯	-10.3613
rqa쎯	-10.3615
wt쎯ma쎯	-10.3621
쎄.쎅	-10.3622
ubk쎯uqt쎯	-10.3626
〔	-10.3626
is쎯	-10.363
gtu쎯dq쎯mq쎯	-10.3633
vd쎯	-10.3634
cbn쎯	-10.3635
wxf쎯ux쎯	-10.3635
ca쎯ma쎯	-10.364
scf쎯uu쎯	-10.3641
x쎯cwg쎯,	-10.3643
nnk쎯uk쎯	-10.3644
ujf쎯qi쎯ip쎯bpf쎯	-10.3644
ftbt쎯dga쎯	-10.3648
yeu쎯	-10.3654
ipg쎯dwg쎯	-10.3656
se쎯o쎯	-10.3657
x쎯iyj쎯tp쎯gj쎯	-10.3659
rdf쎯fcl쎯	-10.366
tp쎯gj쎯wsg쎯txi쎯	-10.3662
dlf쎯	-10.3665
wsg쎯mw쎯	-10.3665
nfd쎯	-10.3667
pynn쎯kkk쎯	-10.3674
a쎯wt쎯w쎯km쎯	-10.3674
r쎯gae쎯aa쎯	-10.3674
ip쎯zzbd쎯	-10.368
wxf쎯fm쎯	-10.3683
sym쎯	-10.3686
vah쎯	-10.3688
igk쎯	-10.3688
dyt쎯tr쎯	-10.369
lwj쎯dm쎯	-10.3691
ll쎯ic쎯ytt쎯	-10.3691
nf쎯xuj쎯	-10.3691
쎇eee쎯cd쎯lk쎯a쎯wt쎯	-10.3692
etj쎯uk쎯	-10.3693
fm쎯jj쎯	-10.3693
dy쎯bb쎯	-10.3695
ai쎯ux쎯uk쎯	-10.3695
dtf쎯wgkb쎯	-10.3697
rufh쎯qu쎯	-10.3699
xt쎯)	-10.3702
bk쎯og쎯rfc쎯sy쎯	-10.3703
ijl쎯fnm쎯	-10.3703
dn쎯uu쎯b쎯	-10.3704
a쎯wt쎯pgc쎯	-10.3717
dg쎯xe쎯	-10.3719
geh쎯	-10.372
oa쎯dyt쎯	-10.3721
쎅zzts쎯	-10.3722
kw쎯s쎯	-10.3724
sg쎯wc쎯ngk쎯	-10.3726
uxh쎯bb쎯	-10.3729
k쎯dr쎯	-10.373
mq쎯nge쎯	-10.3734
w쎯adw쎯k쎯	-10.3736
uq쎯cep쎯wgj쎯tjh쎯	-10.3737
nck쎯	-10.3738
,trf쎯klj쎯j쎯	-10.3744
apk쎯tfkp쎯	-10.3746
oge쎯tfqp쎯	-10.3746
wc쎯uwl쎯	-10.3746
쎅wc쎯jfd쎯	-10.3748
pwd쎯qd쎯	-10.3751
r쎯m쎯jf쎯,	-10.3752
rj쎯bm쎯b쎯	-10.376
ftbt쎯yce쎯nnk쎯	-10.376
oge쎯fhl쎯	-10.3762
maw쎯gajf쎯r쎯	-10.3764
r쎯rfc쎯sy쎯	-10.3767
,es쎯et쎯	-10.3769
yuv쎯	-10.3782
ajdn쎯	-10.3783
pe쎯fl쎯wf쎯	-10.3783
gjq쎯o쎯	-10.3784
.zzy쎯	-10.3784
wt쎯ftj쎯:	-10.3785
fpb쎯	-10.3788
tyna쎯,	-10.3788
ggg쎯fje쎯	-10.3789
mj쎯j쎯	-10.3791
fcp쎯fcl쎯km쎯,	-10.3792
vte쎯	-10.3795
jb쎯ih쎯	-10.3798
eb쎯tl쎯r쎯	-10.3798
hhy쎯	-10.3799
nnu쎯	-10.3802
kkd쎯zzbd쎯	-10.3805
xmw쎯oy쎯	-10.3805
쎁쎉쎄쎄rh쎯	-10.3807
(쎁	-10.3809
rnr쎯ytyh쎯	-10.381
wkh쎯	-10.3811
gm쎯nnnn쎯	-10.3813
l쎯ggg쎯	-10.3815
y쎯s쎯et쎯gf쎯	-10.3817
wtf쎯bk쎯	-10.3821
iq쎯ime쎯	-10.3821
ynky쎯tj쎯	-10.3821
gu쎯oy쎯	-10.3821
bm쎯th쎯	-10.3822
tue쎯	-10.3825
bw쎯ta쎯	-10.383
hxx쎯qc쎯	-10.3831
mw쎯e쎯	-10.3833
%,	-10.3837
egc쎯w쎯.	-10.3843
ukn쎯rmc쎯uqwm쎯	-10.3844
tuj쎯wj쎯	-10.3847
xxf쎯og쎯tg쎯	-10.3852
dgj쎯wrh쎯	-10.3853
r쎯xp쎯wgk쎯ntg쎯	-10.3858
rtf쎯sgmj쎯	-10.3862
fghg쎯tg쎯nf쎯jgm쎯.	-10.3863
r쎯ud쎯txi쎯	-10.3863
rvk쎯tg쎯	-10.3864
qtjh쎯	-10.3864
tr쎯tkh쎯	-10.3865
pp쎯th쎯	-10.3865
gmww쎯w쎯	-10.3865
jtyl쎯tp쎯	-10.3866
awx쎯tg쎯	-10.3869
etn쎯gcf쎯	-10.3869
쎁zzsx쎯	-10.3872
qdt쎯tfkp쎯	-10.3873
djb쎯ya쎯	-10.3876
ggi쎯ab쎯	-10.3878
qyv쎯	-10.3878
khgp쎯wfny쎯	-10.3878
jb쎯rp쎯	-10.3883
whf쎯og쎯.wc쎯ngk쎯	-10.3883
dr쎯go쎯	-10.3885
sghg쎯fm쎯uk쎯	-10.3887
dy쎯bj쎯ce쎯	-10.3888
k쎯md쎯ipk쎯suq쎯	-10.3889
wtfm쎯	-10.3889
tu쎯pgc쎯	-10.389
xng쎯	-10.3893
ukn쎯nnk쎯	-10.3899
ipkh쎯tv쎯	-10.3902
usr쎯iw쎯	-10.3904
wg쎯usr쎯r쎯	-10.3906
w쎯vtk쎯	-10.3908
ai쎯apfq쎯	-10.3913
,sve쎯rnd쎯	-10.3913
lk쎯gkip쎯	-10.3913
wyq쎯ge쎯	-10.3915
dg쎯l쎯	-10.3916
쎁쎃쎀	-10.3917
kwgj쎯	-10.3918
xuj쎯ntg쎯	-10.3918
toc쎯yt쎯	-10.3919
lu쎯qq쎯	-10.392
wk쎯qyvl쎯	-10.392
da쎯dk쎯,	-10.3921
cm쎯hko쎯	-10.3921
txgi쎯gqf쎯	-10.3922
qdb쎯sm쎯	-10.3923
jo쎯fi쎯nua쎯	-10.393
yx쎯tfq쎯	-10.3932
isk쎯iyc쎯	-10.3938
yygy쎯bu쎯	-10.394
fny쎯iy쎯gf쎯	-10.3943
dyc쎯	-10.3943
,i쎯on쎯	-10.3944
t쎯adw쎯wb쎯	-10.3946
iyv쎯ijlc쎯	-10.3947
fhl쎯og쎯	-10.3949
vcag쎯	-10.3949
nnh쎯k쎯	-10.3951
et쎯f쎯	-10.3953
w쎯uj쎯	-10.3954
qyvl쎯gh쎯	-10.3954
hhhh쎯vi쎯	-10.3954
wvn쎯	-10.3954
”;	-10.3958
gef쎯qynm쎯ymhj쎯	-10.3961
rtfp쎯	-10.3961
kq쎯h쎯	-10.3963
xtd쎯	-10.3964
ou쎯isgg쎯	-10.3965
h쎯b쎯	-10.3967
xad쎯	-10.3968
》vs쎯fn쎯	-10.3968
ipk쎯xeg쎯xkw쎯	-10.3968
w쎯n쎯tmh쎯	-10.3973
)t쎯	-10.3976
vnn쎯	-10.3977
iie쎯thn쎯	-10.3979
,jb쎯rg쎯	-10.3979
sk쎯tfkd쎯	-10.3982
fw쎯w쎯	-10.3982
yi쎯yfn쎯gf쎯	-10.3984
jlx쎯ytn쎯	-10.3986
쎀zzts쎯	-10.3987
zzbd쎯rrr쎯	-10.3988
wycm쎯tfq쎯	-10.3989
lge쎯	-10.3993
쎁쎉쎄쎈rh쎯	-10.3997
》g쎯nnh쎯	-10.3998
vjs쎯	-10.3999
gg쎯fgh쎯	-10.4
쎂wc쎯jfd쎯	-10.4004
tqf쎯	-10.4005
.쎂쎀쎀쎈rh쎯	-10.4008
.쎁쎁	-10.4009
xtu쎯umd쎯	-10.401
wvp쎯	-10.4011
ya쎯wnh쎯	-10.4014
gkl쎯suq쎯ta쎯	-10.4016
,j쎯k쎯l쎯	-10.4017
kkkk쎯kfi쎯	-10.4023
k쎯ih쎯ip쎯	-10.4029
sh쎯ud쎯r쎯	-10.403
,쎀쎀쎀	-10.403
wye쎯tfkd쎯	-10.4034
pp쎯kht쎯	-10.4034
thfn쎯tc쎯	-10.4039
e쎯uqt쎯r쎯	-10.4039
mw쎯r쎯	-10.404
vfb쎯tc쎯	-10.404
rfh쎯	-10.4041
.쎄zzbd쎯	-10.4042
tx쎯wty쎯	-10.4042
cq쎯ytf쎯	-10.4043
fhw쎯pw쎯	-10.4045
fq쎯qjq쎯	-10.4045
gq	-10.4047
ooo쎯mmm쎯	-10.4049
bm쎯r쎯	-10.4049
aw쎯t쎯l쎯	-10.4051
eaj쎯	-10.4054
puh쎯yc쎯	-10.4055
h쎯tak쎯	-10.4056
th쎯,	-10.4057
쎅dq쎯	-10.4061
fhn쎯,	-10.4062
ssyx쎯	-10.4065
쎁.쎆	-10.4065
iann쎯	-10.407
ta쎯dw쎯	-10.4071
y쎯wtf쎯zzbd쎯	-10.4072
qkm쎯mw쎯	-10.4074
dg쎯tkh쎯	-10.4077
wsg쎯tkw쎯	-10.4082
mmm쎯f쎯	-10.4082
af쎯wgkb쎯ufk쎯qv쎯	-10.4084
nku쎯	-10.4084
ruv쎯kkkk쎯:	-10.4086
tem쎯	-10.4087
oge쎯ugdu쎯	-10.4091
gv쎯bb쎯	-10.4092
qkm쎯k쎯	-10.4094
xyc쎯ick쎯	-10.4097
bk쎯gmu쎯	-10.4098
xl쎯alt쎯	-10.4098
tg쎯itd쎯k쎯	-10.4102
pyk쎯	-10.4102
yjj쎯wg쎯	-10.4103
sf쎯yfd쎯	-10.4109
wgkq쎯et쎯.	-10.411
dgt쎯pe쎯	-10.411
xqi쎯	-10.4111
uk쎯uk쎯ta쎯	-10.4112
rfc쎯sy쎯zzbd쎯	-10.4114
tp쎯gj쎯t쎯	-10.4115
-쎈	-10.4116
!”	-10.4118
.hx쎯qh쎯,	-10.4121
dn쎯gajf쎯	-10.4122
pt쎯yne쎯r쎯	-10.4122
yopy쎯	-10.4122
aw쎯u쎯ipk쎯km쎯	-10.4124
ymc쎯pg쎯	-10.4126
ybf쎯	-10.4127
t쎯v쎯nae쎯	-10.4129
쎃쎀dq쎯	-10.4129
tu쎯rfc쎯dn쎯js쎯	-10.413
ll쎯ntg쎯	-10.413
ldd쎯wsg쎯	-10.4134
fcu쎯an쎯	-10.4135
gip쎯sk쎯c쎯	-10.4136
rpd쎯	-10.414
,adwn쎯gcf쎯	-10.4142
kkkk쎯tca쎯	-10.4145
[	-10.415
fge쎯fghg쎯,	-10.4152
usr쎯u쎯kkk쎯	-10.4152
pei쎯og쎯w쎯kkkk쎯	-10.4153
r쎯mw쎯pww쎯	-10.4154
jo쎯dhb쎯	-10.4156
e쎯xte쎯sf쎯w쎯kkkk쎯	-10.4161
』	-10.4166
auk쎯abu쎯	-10.4171
rn쎯d쎯f쎯	-10.4175
dl쎯x쎯	-10.4176
yvi쎯ahko쎯	-10.4182
wgk쎯wt쎯wo쎯wuf쎯	-10.4182
jb쎯vb쎯	-10.4185
ls쎯	-10.419
l쎯e쎯	-10.4192
tg쎯tr쎯ip쎯	-10.4192
-쎅	-10.4198
yy쎯yyy쎯	-10.4198
,ccc쎯qk쎯	-10.42
ymc쎯yf쎯,	-10.4201
쎈eee쎯cd쎯lk쎯a쎯wt쎯	-10.4204
tffu쎯)	-10.4204
dd쎯sov쎯	-10.4205
pei쎯u쎯kkk쎯	-10.4206
qyt쎯gae쎯	-10.4207
sm쎯wf쎯	-10.4207
k쎯l쎯dgh쎯wa쎯	-10.4214
bu쎯dtb쎯	-10.4216
tjtl쎯gfi쎯	-10.4216
ue쎯tyg쎯	-10.4222
khij쎯	-10.4225
h쎯mqq쎯	-10.4226
x쎯iyj쎯uqt쎯uwl쎯	-10.4228
vs쎯uq쎯	-10.423
y쎯ick쎯	-10.4232
dwf쎯fmud쎯	-10.4232
ukn쎯ovt쎯	-10.4233
b쎯“	-10.4233
rvyo쎯ep쎯	-10.4234
i쎯wjg쎯	-10.4234
rgb쎯	-10.4238
,dl쎯wtf쎯	-10.4241
ait쎯pu쎯	-10.4241
thg쎯,	-10.4243
,ul쎯wtf쎯	-10.4244
by쎯ii쎯	-10.4245
pe쎯xte쎯	-10.4248
iv쎯qd쎯	-10.4248
쎂쎅쎆	-10.4249
r쎯x쎯apk쎯gj쎯wynn쎯	-10.4249
쎃.쎀	-10.4249
bpf쎯ta쎯	-10.425
dga쎯pwv쎯pgc쎯	-10.4253
쎁쎉쎃쎂rh쎯	-10.4256
ifn쎯	-10.4256
r쎯s쎯fiy쎯	-10.4258
fgh쎯wffg쎯	-10.4258
an쎯lwj쎯h쎯	-10.4261
l쎯ffff쎯dm쎯tkw쎯	-10.4263
g쎯uthp쎯	-10.427
es쎯wys쎯	-10.4271
wc쎯dmh쎯	-10.4273
v쎯udp쎯	-10.4277
dnv쎯fqb쎯.	-10.4277
itx쎯mw쎯qh쎯	-10.4286
vnu쎯sfi쎯	-10.4288
fge쎯fghg쎯rg쎯	-10.4292
쎉쎁	-10.4299
쎁쎉쎃쎁rh쎯	-10.4302
쎅wv쎯qkhh쎯	-10.4303
bdx쎯	-10.4303
nnh쎯bpf쎯	-10.4303
쎃)	-10.4304
l쎯gl쎯	-10.4306
zzbd쎯amw쎯	-10.4307
fm쎯itx쎯	-10.4308
y쎯tp쎯uk쎯uyh쎯	-10.431
txi쎯ovt쎯	-10.4311
쎀ylf쎯,	-10.4312
ygk쎯ujf쎯	-10.4315
txgi쎯aps쎯	-10.4315
iie쎯bwt쎯	-10.4316
xgm쎯	-10.4319
tg쎯.	-10.432
ibi쎯ugl쎯	-10.432
i쎯fp쎯	-10.432
aw	-10.4321
iyb쎯	-10.4322
iak쎯ssss쎯	-10.4323
,p쎯j쎯	-10.4326
ld쎯adw쎯	-10.433
so쎯bm쎯	-10.433
vvv쎯,	-10.4331
ssu쎯	-10.4332
l쎯pe쎯thd쎯qd쎯	-10.4334
.m쎯jf쎯	-10.4335
쎁쎂쎀쎀	-10.4338
wfny쎯bd쎯	-10.4338
,dmj쎯j쎯	-10.434
tjtl쎯	-10.4342
qq쎯it쎯	-10.4344
》k쎯r쎯	-10.4345
itx쎯fm쎯ith쎯	-10.4346
mmm쎯eyni쎯	-10.4352
jb쎯wqa쎯	-10.4353
rw쎯mty쎯	-10.4355
쎈zzbd쎯	-10.4355
ynnu쎯	-10.4356
sym쎯ytyh쎯ymhj쎯	-10.4356
tfqp쎯rt쎯	-10.4357
wsg쎯ta쎯	-10.4359
kl쎯e쎯	-10.4362
ntk쎯ntg쎯	-10.4363
w쎯n쎯wa쎯ge쎯dd쎯wf쎯	-10.4366
ynm쎯dmh쎯	-10.4366
ipgg쎯	-10.4367
uq쎯lwj쎯	-10.4371
jaj쎯	-10.4372
wdt쎯bm쎯b쎯	-10.4373
f쎯h쎯	-10.4378
tu쎯ip쎯pe쎯	-10.4388
j쎯jjjj쎯sg쎯	-10.4389
wv쎯suq쎯	-10.4392
dd쎯jg쎯r쎯	-10.4394
jhng쎯:‘	-10.4395
cm쎯ujf쎯	-10.4397
rkm쎯wtl쎯	-10.4397
iy쎯ty쎯	-10.4398
tey쎯gd쎯	-10.4408
rt쎯fcl쎯	-10.4408
ov쎯	-10.4409
%	-10.4412
ip쎯wug쎯	-10.4414
it쎯ovt쎯	-10.4415
ggi쎯fuj쎯wk쎯ryn쎯	-10.442
y쎯apk쎯	-10.442
,gm쎯o쎯	-10.4423
fy쎯	-10.4425
xfm쎯tavn쎯	-10.4425
mmgd쎯	-10.4426
fny쎯og쎯rfc쎯sy쎯	-10.4426
tmd쎯h쎯	-10.4429
rrr쎯oyvk쎯	-10.443
쎁쎉쎄쎃rh쎯	-10.4433
trf쎯qc쎯r쎯	-10.4434
pdhj쎯	-10.4438
ny쎯vo쎯	-10.4438
ywe쎯	-10.4438
》zzbd쎯《k쎯l쎯	-10.4441
ghg쎯	-10.4442
zzbd쎯xt쎯	-10.4443
r쎯g쎯uk쎯	-10.4443
ght쎯if쎯	-10.4444
rg쎯wtf쎯	-10.4447
cw쎯c쎯	-10.4447
.wt쎯o쎯	-10.4447
yh쎯wq쎯	-10.4447
zzbd쎯usr쎯	-10.4447
sdm쎯umd쎯	-10.4454
wygg쎯yny쎯	-10.4455
fhw쎯ydn쎯	-10.4457
xa쎯pl쎯	-10.4458
qgbn쎯	-10.4459
usr쎯qgu쎯	-10.4461
pei쎯fnrt쎯	-10.4461
efc쎯	-10.4461
xev쎯	-10.4462
pgj쎯dmh쎯	-10.4464
gu쎯ck쎯,	-10.4466
fcl쎯eyni쎯	-10.4466
tjf쎯avd쎯	-10.4476
lfn쎯yo쎯	-10.4478
tfl쎯zzbd쎯	-10.4479
rhk쎯mww쎯	-10.448
rnx쎯	-10.4483
ysj쎯	-10.4483
ssss쎯cn쎯	-10.4485
tfq쎯fj쎯wys쎯wsg쎯	-10.4485
lkc쎯ckq쎯	-10.4485
rvn쎯	-10.4486
ynky쎯	-10.449
rhyi쎯	-10.4493
e쎯w쎯	-10.4493
lfon쎯	-10.4498
gh쎯go쎯	-10.4498
tffu쎯tf쎯og쎯	-10.4501
fgh쎯pb쎯	-10.4501
qkm쎯oyn쎯	-10.4501
ukn쎯wsg쎯	-10.4501
lu쎯xk쎯	-10.4503
gj쎯shn쎯	-10.4504
쎄쎀쎀쎀	-10.4506
alq쎯hhy쎯	-10.4507
ythp쎯tg쎯	-10.4507
ga쎯ii쎯	-10.4508
gh쎯dm쎯	-10.4512
dga쎯pwv쎯》	-10.4516
gdj쎯	-10.4516
tjh쎯iugg쎯	-10.4517
tp쎯gj쎯w쎯km쎯	-10.4517
iy쎯:“	-10.4521
rcp쎯lkd쎯	-10.4521
u쎯gf쎯	-10.4522
nd쎯tv쎯wf쎯	-10.4522
gx쎯sh쎯	-10.4531
ggn쎯	-10.4531
gm쎯udy쎯	-10.4533
,p쎯tkh쎯	-10.4542
쎁쎉쎂쎉rh쎯	-10.4548
fnhp쎯	-10.4549
tkw쎯lx쎯	-10.455
yne쎯qh쎯	-10.4551
dnv쎯w쎯	-10.4551
쎁%	-10.4551
sw쎯pwfi쎯	-10.4554
ii쎯th쎯gj쎯	-10.4557
pe쎯fl쎯wf쎯wf쎯km쎯,	-10.4557
.gm쎯e쎯	-10.4558
ayn쎯	-10.4564
f쎯fakg쎯	-10.4565
jcu쎯	-10.4566
no쎯	-10.4567
tu쎯dga쎯a쎯wt쎯	-10.4569
fwf쎯	-10.457
dy쎯dr쎯	-10.4573
pujn쎯	-10.4576
it쎯jg쎯	-10.4579
ndj쎯nge쎯	-10.4579
tmg쎯tg쎯tr쎯	-10.458
xrc쎯	-10.4582
wg쎯qfhw쎯	-10.4583
,kha쎯yb쎯	-10.4584
qgf쎯od쎯	-10.4585
ndj쎯lft쎯	-10.4585
쎀.쎈	-10.4586
rx쎯v쎯	-10.4588
f쎯fhg쎯:	-10.4589
d쎯h쎯itx쎯	-10.4591
h쎯uk쎯	-10.4595
h쎯syp쎯	-10.4597
mh	-10.4599
um쎯fd쎯	-10.46
,qq쎯	-10.4602
cd쎯lk쎯a쎯wt쎯	-10.4602
(쎃)	-10.4603
wb쎯d쎯	-10.4606
ymhj쎯n쎯	-10.461
k쎯atd쎯ax쎯	-10.4612
nfh쎯	-10.4613
itd쎯khtd쎯	-10.4615
wgkb쎯fcp쎯	-10.4616
rjg쎯	-10.4618
thd쎯xln쎯	-10.4618
djdl쎯	-10.4627
ud	-10.4627
scf쎯ex쎯	-10.4628
lh쎯mfk쎯	-10.4628
uem쎯	-10.463
y쎯wtf쎯atd쎯jgm쎯,	-10.4633
쎃쎂쎀	-10.4634
qtw쎯	-10.4636
쎄wc쎯jfd쎯	-10.4638
tr쎯wsg쎯	-10.4639
uk쎯.	-10.4641
ndj쎯bpf쎯	-10.4643
egc쎯w쎯	-10.4645
wtp쎯tca쎯	-10.4647
쎅쎀dq쎯	-10.4647
aq쎯mw쎯	-10.4651
cbt쎯rfh쎯	-10.4655
r쎯yo쎯wx쎯	-10.4655
alp쎯awx쎯	-10.4657
wty쎯rh쎯	-10.4657
yyne쎯	-10.4658
ggg쎯l쎯	-10.4658
sce쎯	-10.4661
ap쎯yss쎯	-10.4661
(vcb쎯	-10.4663
tg쎯gqf쎯	-10.4668
tn쎯pnt쎯	-10.4669
skf쎯	-10.4669
fm쎯yiu쎯ymhj쎯	-10.4671
m쎯ip쎯	-10.4675
gu쎯ck쎯.	-10.4675
.je쎯	-10.4677
쎄)	-10.468
ep쎯l쎯	-10.4682
ta쎯fd쎯	-10.4688
쎂쎀an쎯xn쎯	-10.4688
rb쎯aqky쎯	-10.469
vcb쎯uqf쎯	-10.4691
(,)	-10.4694
sh쎯yid쎯r쎯	-10.4696
.gm쎯d쎯	-10.4698
wyp쎯lg쎯fnrt쎯	-10.4703
rhy쎯	-10.4706
qev쎯yt쎯pl쎯	-10.4707
saj쎯aib쎯	-10.4707
pe쎯lfq쎯	-10.4708
eb쎯tl쎯gf쎯	-10.4708
ymc쎯tlf쎯zzbd쎯	-10.4718
if쎯bpf쎯	-10.4718
gmd쎯fghg쎯	-10.4719
tjf쎯img쎯	-10.4722
iww쎯	-10.4723
vpe쎯	-10.4726
qdb쎯pd쎯	-10.4727
pj쎯udjh쎯	-10.4729
sagg쎯	-10.4729
o쎯y쎯s쎯	-10.4731
ynwy쎯	-10.4731
rnb쎯ijl쎯쎁	-10.4733
jjjj쎯adwe쎯	-10.4734
o쎯w쎯	-10.4735
,wq쎯	-10.4737
,uep쎯	-10.4738
xfm쎯	-10.4739
.쎂쎀쎀쎅rh쎯	-10.4739
wycm쎯tfq쎯r쎯	-10.474
dyt쎯mmm쎯	-10.4742
dd쎯fny쎯ip쎯dl쎯	-10.4742
쎁쎉쎃쎇rh쎯	-10.4744
yygt쎯itp쎯r쎯	-10.4746
tm쎯h쎯	-10.4753
wxm쎯fcp쎯	-10.4754
iq쎯jn쎯	-10.4755
jc쎯pnt쎯	-10.4756
zzzy쎯zzzy쎯zzzy쎯ˋ	-10.4756
qbn쎯	-10.4759
fqb쎯wrh쎯	-10.4759
xnh쎯qaj쎯	-10.476
xtf쎯	-10.4761
xl쎯eaf쎯	-10.4764
vfhp쎯tam쎯tr쎯	-10.4764
kjj쎯thg쎯	-10.4765
tffu쎯bk쎯	-10.4766
쎁쎅쎀쎀	-10.4768
iq쎯tel쎯	-10.4773
ftbt쎯xan쎯	-10.4773
pt쎯fcp쎯	-10.4774
ud쎯ny쎯	-10.4777
ton쎯	-10.4779
rnw쎯lfnh쎯	-10.4779
hgm쎯	-10.4786
ubk쎯	-10.4786
n쎯wwwk쎯	-10.4789
by쎯trh쎯	-10.479
og쎯lwj쎯	-10.4791
sf쎯w쎯	-10.4791
wtf쎯k쎯aw쎯	-10.4792
rgf쎯pe쎯	-10.4793
jf쎯adwe쎯r쎯	-10.4794
c쎯h쎯r쎯	-10.4794
if쎯tvfh쎯if쎯fwm쎯	-10.4795
,fm쎯	-10.4797
쎁쎀wv쎯qkhh쎯	-10.48
fl쎯wt쎯	-10.48
dcw쎯djb쎯r쎯	-10.4803
ito쎯	-10.4804
usgp쎯	-10.4807
ral쎯pgn쎯	-10.4808
ym쎯mmm쎯	-10.4808
uyu쎯	-10.4812
tu쎯dga쎯dn쎯js쎯	-10.4812
wx쎯zzbd쎯	-10.4814
qdm쎯eaj쎯	-10.4814
tdij쎯xfm쎯	-10.4815
lw쎯wc쎯pgc쎯zzbd쎯	-10.4817
adwr쎯fjg쎯	-10.4818
,o쎯b쎯	-10.4822
wgkq쎯tj쎯	-10.4823
smq쎯	-10.4833
x쎯iyj쎯ga쎯v쎯aq쎯	-10.4833
rnb쎯thn쎯	-10.4836
jjj쎯wsg쎯	-10.4836
.wjg쎯j쎯	-10.484
fnrt쎯f쎯	-10.484
yygy쎯wx쎯anb쎯sy쎯	-10.4841
tx쎯dg쎯nm쎯	-10.4842
pnt쎯av쎯	-10.4843
rwv쎯ipg쎯	-10.4844
oge쎯wxf쎯	-10.4846
ref쎯	-10.4847
y쎯qe쎯	-10.485
lk쎯c쎯	-10.4852
gkp쎯fcl쎯	-10.4853
dsh쎯	-10.4853
ym쎯kkk쎯rfm쎯	-10.4853
tr쎯uqwm쎯	-10.4855
vnx쎯	-10.4856
wvd쎯v쎯r쎯	-10.4857
ip쎯fghg쎯ip쎯wug쎯	-10.4859
g쎯cf쎯	-10.4859
tx쎯fg쎯uqw쎯	-10.4861
ul쎯aqt쎯	-10.4862
dga쎯pwv쎯dn쎯js쎯	-10.4862
oqdo쎯	-10.4864
qjf쎯jn쎯ib쎯	-10.4865
fny쎯adm쎯	-10.487
set쎯	-10.4873
thfn쎯su쎯	-10.4875
쎁쎉쎄쎇rh쎯	-10.4877
iv쎯wynb쎯	-10.4881
ubk쎯if쎯	-10.4885
pwv쎯tg쎯nf쎯jgm쎯	-10.4886
,uq쎯cep쎯	-10.4887
trf쎯pg쎯	-10.4887
dpr쎯	-10.4888
atdp쎯	-10.4889
pye쎯l쎯	-10.489
zzpj쎯zzpj쎯	-10.4894
dq쎯adwr쎯	-10.4894
anb쎯sy쎯ip쎯bpf쎯	-10.4894
wxf쎯wtd쎯	-10.4896
mf쎯x쎯	-10.4899
쎂.쎄	-10.4903
yaop쎯	-10.4903
rvh쎯	-10.4905
fn쎯》	-10.4907
pgc쎯y쎯wtf쎯	-10.4907
fhqv쎯rvyl쎯	-10.491
you쎯tq쎯	-10.4911
ukd쎯jghm쎯,	-10.4912
ifj쎯iyc쎯	-10.4912
t쎯py쎯wf쎯	-10.4914
-쎇	-10.4917
yxl쎯	-10.4918
whf쎯og쎯pe쎯	-10.4919
uxl쎯	-10.492
쎉wh쎯	-10.4924
rwyg쎯bm쎯r쎯	-10.4924
qi쎯kkd쎯	-10.4925
wjh쎯	-10.4926
cbd쎯tha쎯	-10.4938
rmhj쎯uwyc쎯	-10.494
avd쎯	-10.4948
》,《	-10.495
ad쎯dbm쎯ymc쎯ytb쎯	-10.4953
tx쎯쎄	-10.4954
pj쎯synw쎯	-10.4954
dl쎯tkgg쎯	-10.4955
wx쎯dgtg쎯	-10.4955
yjs쎯ipkf쎯	-10.4957
쎁쎄쎀	-10.4959
swgu쎯	-10.4959
e쎯lt쎯	-10.496
sqq쎯	-10.4963
r쎯ip쎯tg쎯	-10.4964
jn쎯uh쎯	-10.4965
jb쎯qq쎯	-10.4965
,gcft쎯lt쎯gf쎯	-10.4967
toc쎯yq쎯	-10.4968
rrr쎯fcu쎯	-10.4968
쎁/	-10.4968
lh쎯tb쎯	-10.4972
ymhj쎯fnrt쎯r쎯	-10.4977
e쎯b쎯	-10.4977
uvo쎯bk쎯	-10.498
itd쎯lt쎯	-10.4983
쎁쎈쎅	-10.4985
g쎯jsd쎯	-10.4988
afs쎯g쎯	-10.4989
.yynw쎯sf쎯	-10.4989
cwg쎯	-10.4991
lu쎯dd쎯r쎯	-10.4991
ylf쎯,adw쎯k쎯	-10.4992
elv쎯	-10.4992
dd쎯fw쎯	-10.5
ipkh쎯fwm쎯	-10.5002
nwgk쎯	-10.5004
.wg쎯sf쎯	-10.5004
wgk쎯wt쎯,	-10.5005
aynr쎯	-10.5008
쎁쎀dq쎯	-10.501
ngk쎯cn쎯	-10.5012
rum쎯	-10.5013
jb쎯jh쎯r쎯	-10.5028
rfc쎯sy쎯t쎯	-10.5029
km쎯,	-10.5029
afs쎯tkh쎯	-10.5031
----	-10.5032
iv쎯tfqp쎯o쎯	-10.5036
atgq쎯	-10.5036
km쎯zzbd쎯	-10.5036
maw쎯ahty쎯	-10.5036
ipk쎯tv쎯tv쎯km쎯	-10.5037
ii쎯wv쎯	-10.5037
qh쎯ygk쎯	-10.5038
jh쎯rh쎯	-10.5043
xe쎯klj쎯	-10.5049
um쎯pe쎯	-10.5051
oge쎯ya쎯	-10.5052
fny쎯bk쎯	-10.5052
af쎯wgkb쎯sve쎯rnd쎯	-10.5053
ftbt쎯ip쎯rfm쎯jg쎯	-10.5055
mhu쎯	-10.5058
tjgh쎯	-10.5058
ma쎯xg쎯	-10.5059
qtgw쎯	-10.5061
lv쎯uthp쎯	-10.5064
he쎯pg쎯	-10.5064
c쎯w쎯o쎯sg쎯	-10.5066
.n쎯l쎯	-10.5068
qq쎯fqb쎯wx쎯	-10.5073
pyj쎯ytd쎯	-10.5073
gk쎯yop쎯	-10.5073
,fc쎯rf쎯	-10.5073
uck쎯	-10.5075
qfhw쎯ght쎯ywf쎯	-10.5077
fg쎯uqw쎯	-10.5077
vij쎯	-10.5079
yy쎯if쎯.	-10.5081
ey쎯adw쎯wb쎯	-10.5081
ssss쎯sft쎯	-10.5081
bmg쎯	-10.5082
ymf쎯ty쎯	-10.5085
ght쎯ick쎯uk쎯	-10.5085
wv쎯qev쎯	-10.5087
xyna쎯kgn쎯	-10.5089
awx쎯shi쎯	-10.5091
n쎯apk쎯whf쎯og쎯	-10.5092
xte쎯ght쎯ywf쎯	-10.5092
gqjo쎯fghg쎯	-10.5093
uq쎯cyi쎯	-10.5094
tdtv쎯	-10.5097
wx쎯uv쎯kkk쎯	-10.51
mqq쎯dmu쎯	-10.51
쎁쎈쎇	-10.5102
bm쎯tmd쎯	-10.5102
ag쎯rh쎯	-10.5114
sk쎯wt쎯o쎯	-10.5118
ftbt쎯ip쎯sov쎯	-10.5119
gu쎯egc쎯	-10.5121
ue쎯imk쎯	-10.5123
rke쎯	-10.5124
ce쎯lt쎯,	-10.5125
go쎯yu쎯	-10.5125
alfj쎯	-10.5126
rhc쎯	-10.5129
qaj쎯ykg쎯	-10.513
wyq쎯aa쎯	-10.513
ipkh쎯mqb쎯r쎯	-10.5131
dmj쎯dn쎯r쎯	-10.5133
r쎯jf쎯whn쎯,	-10.5133
et쎯wt쎯	-10.5133
reh쎯	-10.5135
fcu쎯hc쎯	-10.5142
쎂쎇jjjj쎯	-10.5142
tvt쎯	-10.5144
dav쎯	-10.5144
쎁쎀wh쎯	-10.5146
cn쎯go쎯sghg쎯gog쎯	-10.5147
oqdo쎯oat쎯	-10.5148
wdn쎯te쎯ywx쎯yygy쎯	-10.5149
iwgj쎯	-10.5152
xfm쎯pwat쎯	-10.5153
쎆wc쎯jfd쎯	-10.5156
.isgg쎯yhk쎯	-10.5159
ajt쎯ah쎯	-10.5163
mqu쎯r쎯	-10.5164
wwx쎯ybt쎯	-10.5165
iie쎯rw쎯	-10.5166
xf쎯jjj쎯	-10.5166
kwn쎯	-10.5166
ta쎯adwe쎯ww쎯gk쎯	-10.5167
ttt쎯	-10.5168
ukn쎯j쎯	-10.5169
xox쎯	-10.5169
tv쎯xeg쎯xkw쎯uk쎯	-10.5169
ygu쎯pj쎯	-10.517
nh쎯xjm쎯	-10.517
bn쎯tq쎯	-10.517
a쎯og쎯lfq쎯aq쎯	-10.5171
rqw쎯ipkm쎯	-10.5172
,vcl쎯lt쎯	-10.5176
g쎯xt쎯	-10.5176
tj쎯c쎯	-10.5178
:쎁쎀	-10.5179
bue쎯uthp쎯	-10.518
isf쎯	-10.5182
vfi쎯	-10.5184
vfb쎯wh쎯	-10.5184
dr쎯e쎯	-10.5186
sqdy쎯	-10.5188
dyi쎯	-10.5192
jn쎯jyie쎯《	-10.5195
eee쎯쎈jjjj쎯	-10.5199
nf쎯jgm쎯	-10.5199
sgx쎯	-10.5201
wvm쎯ls쎯	-10.5202
pym쎯qe쎯	-10.5203
oge쎯xl쎯	-10.5204
jty쎯jf쎯	-10.5205
j쎯q쎯wu쎯	-10.5207
hko쎯fmk쎯	-10.5208
r쎯tg쎯u쎯	-10.5209
,wg쎯	-10.5211
dhb쎯d쎯r쎯	-10.5212
쎉zzbd쎯	-10.5214
ry쎯	-10.5218
쎃쎆쎀	-10.5219
sgjq쎯	-10.5221
e쎯jf쎯	-10.5223
fm쎯egc쎯	-10.5224
we쎯qd쎯	-10.5225
fq쎯ovt쎯	-10.5226
u쎯kkk쎯.	-10.5229
lr쎯	-10.523
dhv쎯	-10.5233
and쎯dd쎯r쎯	-10.5235
itd쎯fcl쎯r쎯	-10.5237
pyj쎯dskf쎯	-10.5237
bde쎯rg쎯	-10.5238
ga쎯og쎯	-10.5239
ovt쎯dj쎯	-10.5239
mf쎯u쎯	-10.5241
ybt쎯	-10.5243
,gm쎯d쎯	-10.5244
dd쎯qq쎯ovt쎯	-10.5245
zzbd쎯ggg쎯	-10.5245
wqa쎯ijl쎯	-10.5246
gh쎯bt쎯	-10.5246
uoo쎯	-10.5252
gfq쎯hw쎯	-10.5252
-쎁쎀	-10.5253
xyna쎯aft쎯	-10.5253
j쎯g쎯wug쎯	-10.5253
rxj쎯fm쎯	-10.5253
rpwi쎯	-10.5254
.g쎯tem쎯	-10.5256
k쎯l쎯dd쎯bfm쎯	-10.5258
wwwk쎯tq쎯	-10.5258
:쎅	-10.526
쎂쎄쎀	-10.5263
oge쎯gcft쎯	-10.5263
i쎯qy쎯	-10.5263
kd쎯tjh쎯	-10.527
ym쎯tffu쎯ip쎯suq쎯	-10.5273
yfy쎯	-10.5273
iytb쎯ca쎯k쎯	-10.5273
ktm쎯yid쎯	-10.5275
pg쎯adwe쎯	-10.5282
rc쎯cf쎯	-10.5283
iy	-10.5283
amyn쎯ndm쎯	-10.5286
jjjj쎯pl쎯	-10.529
fwm쎯aib쎯wx쎯	-10.5291
pa쎯ya쎯	-10.5291
yo쎯tkh쎯	-10.5293
ujq쎯	-10.5296
pu쎯wgq쎯	-10.5296
sh쎯yid쎯	-10.5297
rg쎯ccc쎯	-10.5299
pu쎯gm쎯b쎯	-10.5299
sdm쎯xe쎯	-10.53
,tkw쎯se쎯	-10.5308
wxf쎯k쎯	-10.531
xyna쎯ndj쎯	-10.5312
rcn쎯rng쎯	-10.5314
,ld쎯dmj쎯	-10.5317
zzzy쎯zzzy쎯ˊ	-10.532
ymc쎯tlf쎯,	-10.5323
itx쎯mdfj쎯	-10.5324
qna쎯	-10.5325
fwn쎯	-10.5327
pp쎯bb쎯	-10.5327
wv쎯qkhh쎯lg쎯tkgg쎯	-10.5328
g쎯gd쎯	-10.5329
yy쎯aa쎯:	-10.5331
tg쎯u쎯whf쎯og쎯	-10.5333
yo쎯tj쎯	-10.5334
gu쎯yy쎯wc쎯jfd쎯.	-10.5335
wdn쎯rvyl쎯,	-10.5336
쎂kgn쎯	-10.5337
sm쎯ysi쎯	-10.5337
dc쎯vb쎯	-10.5339
ddm쎯fghg쎯dga쎯	-10.534
lhj쎯	-10.534
,rg쎯go쎯	-10.534
o쎯ad쎯dbm쎯	-10.5342
i쎯et쎯	-10.5343
.쎂쎀쎀쎇rh쎯	-10.5344
dfff쎯	-10.5344
g쎯th쎯	-10.5346
kwyn쎯	-10.5347
um쎯wf쎯	-10.5348
aw쎯gef쎯lft쎯	-10.5353
쎂쎀쎀쎂	-10.5354
vq쎯vld쎯	-10.5355
r쎯hhhh쎯sfi쎯	-10.5355
qh쎯uk쎯	-10.5356
uqd쎯”	-10.5356
wg쎯tmd쎯	-10.5357
ftbt쎯ipkf쎯	-10.5358
tgv쎯bd쎯“	-10.5358
q쎯wc쎯ngk쎯	-10.5359
jf쎯wa쎯r쎯	-10.5362
vfhp쎯tam쎯a쎯tkgg쎯	-10.5362
thc쎯	-10.5368
,qm쎯gmu쎯	-10.537
wtc쎯	-10.5372
w쎯dd쎯	-10.5373
yveh쎯	-10.5374
cl쎯	-10.5375
sm쎯sq쎯.	-10.5375
wynb쎯rh쎯	-10.5378
y쎯w쎯	-10.5378
.m쎯rh쎯	-10.538
쎁/쎂	-10.5381
k쎯tffu쎯	-10.5383
iwf쎯lw쎯r쎯	-10.5384
iy쎯mm쎯uqwm쎯sg쎯	-10.5384
bm쎯tld쎯	-10.5384
wg쎯an쎯lwj쎯	-10.5386
pykw쎯	-10.5389
쎀.쎀쎀	-10.5395
wh쎯ntg쎯wx쎯	-10.5396
vi쎯》	-10.5397
rpwn쎯rnbm쎯	-10.5397
gh쎯iytb쎯	-10.5401
쎂zzsx쎯	-10.5401
uqd쎯adm쎯	-10.5405
udjh쎯on쎯	-10.5411
xh쎯wycm쎯	-10.5412
aqt쎯bc쎯	-10.5412
h쎯iytb쎯	-10.5413
l쎯bf쎯wx쎯	-10.5414
yny쎯u쎯	-10.542
dgtg쎯wx쎯	-10.5421
od쎯klj쎯	-10.5421
wnnf쎯	-10.5421
yn쎯zzbd쎯	-10.5421
vb쎯ygu쎯	-10.5427
pn쎯yy쎯	-10.543
spq쎯	-10.5433
pu쎯nu쎯	-10.5434
y쎯iyc쎯	-10.5434
g쎯jjjj쎯	-10.5434
oyvk쎯nii쎯ugm쎯	-10.5436
lfc쎯	-10.5436
쎁쎈쎆	-10.5437
쎂쎀dq쎯	-10.544
.쎂쎀쎀쎄rh쎯	-10.5441
.m쎯jf쎯,	-10.5444
v쎯sgfb쎯	-10.5445
쎁.쎄	-10.5445
hich쎯	-10.5446
fghg쎯tg쎯nf쎯jgm쎯	-10.5447
ym쎯ige쎯	-10.545
r쎯qk쎯pb쎯	-10.5451
ftjb쎯ce쎯	-10.5454
,j쎯g쎯wh쎯	-10.5455
nnh쎯if쎯pe쎯	-10.546
tavn쎯yqa쎯	-10.5462
yygy쎯wx쎯r쎯	-10.5465
gu쎯pv쎯	-10.5467
ip쎯qk쎯	-10.5468
ad쎯qqqq쎯wf쎯	-10.5469
쎂쎀rh쎯	-10.5471
.p쎯hxf쎯	-10.5471
r쎯g쎯rn쎯	-10.5472
uve쎯	-10.5473
gmd쎯maw쎯	-10.5477
g쎯ffi쎯	-10.5482
dlf쎯ufk쎯	-10.5483
wdn쎯yv쎯r쎯	-10.5483
tfqp쎯iwf쎯	-10.5486
qgq쎯	-10.5486
,j쎯g쎯rn쎯	-10.5487
tdp쎯iv쎯	-10.5489
dx쎯udi쎯	-10.549
(ak쎯	-10.549
bct쎯wys쎯	-10.549
pp쎯k쎯	-10.5491
j쎯q쎯l쎯	-10.5491
dyn쎯ya쎯	-10.5494
zzdw쎯	-10.5494
nnh쎯gl쎯pe쎯	-10.5495
jft쎯	-10.5495
at쎯yfn쎯	-10.5498
zzzy쎯zzzy쎯zzzy쎯ˊ	-10.5501
pu쎯bf쎯h쎯	-10.5501
쎁w쎯,	-10.5502
puv쎯xe쎯k쎯ip쎯	-10.5504
gkl쎯egc쎯ta쎯	-10.5504
ygu쎯tfqp쎯	-10.5505
bg쎯tg쎯uk쎯	-10.5505
tl쎯pu쎯	-10.5507
swgj쎯	-10.5508
y쎯xt쎯	-10.5509
vc쎯vc쎯	-10.551
trng쎯	-10.5513
dm쎯h쎯	-10.5519
kg	-10.552
qt쎯bb쎯	-10.5521
fh쎯uu쎯	-10.5522
wh쎯sf쎯n쎯ih쎯xeg쎯,	-10.5522
tf	-10.5522
ai쎯kht쎯	-10.5522
s쎯gxi쎯	-10.5527
g쎯xg쎯	-10.5528
uj쎯r쎯	-10.553
m쎯g쎯	-10.5531
o쎯sg쎯	-10.5534
ith쎯ftbt쎯yce쎯ds쎯	-10.5534
a쎯wt쎯k쎯	-10.5534
dd쎯ahn쎯	-10.5538
.bde쎯udh쎯	-10.5542
ssg쎯	-10.5542
ip쎯tg쎯r쎯	-10.5544
et쎯ii쎯	-10.5546
wa쎯fwf쎯	-10.5547
,dr쎯	-10.5548
쎁w쎯	-10.555
eu쎯gkh쎯	-10.5551
aq쎯ght쎯ywf쎯	-10.5551
tffu쎯yy쎯dm쎯r쎯	-10.5552
wk쎯ijl쎯	-10.5553
yy쎯if쎯,	-10.5554
zzbd쎯jjjj쎯sg쎯	-10.5555
cn쎯dq쎯ln쎯y쎯yq쎯	-10.5556
klj쎯qk쎯	-10.5558
og쎯wtu쎯	-10.5559
idr쎯gf쎯	-10.5559
dn쎯al쎯r쎯	-10.556
e쎯ud쎯uk쎯uyh쎯	-10.5563
ge쎯je쎯	-10.5564
mmm쎯qfhw쎯	-10.5565
icd쎯tep쎯	-10.5567
vijh쎯	-10.557
r쎯i쎯m쎯	-10.5571
ger쎯	-10.5571
,ccc쎯tq쎯	-10.5572
uxhp쎯	-10.5573
tqv쎯pg쎯ntg쎯	-10.5574
oge쎯pyj쎯,	-10.5574
eee쎯쎁쎆jjjj쎯	-10.5575
rn쎯rn쎯ta쎯	-10.5576
dd쎯uyh쎯	-10.5578
쎁쎉쎀	-10.5578
ykk쎯	-10.5583
yu쎯,	-10.5588
cd쎯xyna쎯	-10.559
wdn쎯te쎯uqd쎯	-10.5592
pt쎯w쎯	-10.5599
ua쎯d쎯	-10.5599
tx쎯g쎯nm쎯	-10.5601
efg쎯	-10.561
gh쎯uk쎯	-10.561
dd쎯gf쎯	-10.5612
je쎯fje쎯	-10.5612
ghd쎯j쎯	-10.5615
g쎯wwv쎯	-10.5616
fcln쎯	-10.562
itm쎯	-10.5623
xtu쎯gf쎯	-10.5624
cf쎯tq쎯	-10.5625
puv쎯xe쎯	-10.5629
gm쎯dhb쎯	-10.563
uqwm쎯egl쎯	-10.5631
.rp쎯rh쎯go쎯,	-10.5635
tffu쎯tffu쎯.	-10.5635
,sghg쎯	-10.5636
opf쎯	-10.5637
(qn쎯rtd쎯	-10.5639
r쎯pfi쎯xj쎯	-10.5643
k쎯aw쎯ipk쎯km쎯,	-10.5644
rc쎯“lfnh쎯vjsj쎯”	-10.5644
k쎯yygy쎯qk쎯:	-10.565
r쎯fp쎯tkgg쎯	-10.5651
pw쎯k쎯	-10.5652
j쎯x쎯	-10.5652
whf쎯gk쎯og쎯	-10.5653
kfi쎯oge쎯	-10.5658
lgm쎯	-10.5659
gmii쎯	-10.566
qqqq쎯mqj쎯	-10.5661
ftg쎯dgh쎯	-10.5664
tfh쎯	-10.5666
;쎂zzbd쎯	-10.5668
sk쎯wv쎯o쎯	-10.5671
,tuj쎯tq쎯	-10.5673
tfk쎯dq쎯	-10.5676
ux쎯psu쎯	-10.5676
qnq쎯ou쎯	-10.5679
,kw쎯	-10.568
el쎯	-10.5681
ym쎯nfc쎯	-10.5683
tk쎯l쎯	-10.5684
,dr쎯qk쎯	-10.5686
fm쎯kht쎯	-10.5693
ylf쎯.	-10.5697
pww쎯kkd쎯	-10.57
wg쎯xte쎯	-10.5701
w쎯.k쎯aw쎯ipk쎯km쎯.	-10.5702
fjg쎯dq쎯	-10.5703
lk쎯h쎯	-10.5705
xwy쎯rf쎯	-10.5705
vj쎯	-10.5706
vck쎯xtu쎯jcf쎯rf쎯	-10.5712
r쎯ad쎯dbm쎯	-10.5713
sk쎯et쎯	-10.5716
mhm쎯	-10.5716
aq쎯zzbd쎯	-10.5717
ibi쎯	-10.5718
rhyc쎯	-10.5722
mw쎯ymc쎯	-10.5722
ty쎯kkkk쎯	-10.5724
l쎯bf쎯sm쎯fnrt쎯	-10.5725
lrj쎯	-10.5736
fm쎯psu쎯	-10.5739
ta쎯xq쎯	-10.5741
atg쎯gk쎯	-10.5744
mht쎯	-10.5745
utd쎯ugm쎯r쎯	-10.5749
gk쎯adm쎯	-10.575
tjf쎯kfi쎯	-10.5752
adnt쎯nnh쎯	-10.5753
wg쎯thd쎯fcl쎯	-10.5756
v쎯nae쎯hka쎯ltk쎯	-10.5756
r쎯yid쎯et쎯	-10.5758
ght쎯ywf쎯rn쎯d쎯f쎯	-10.5759
ige쎯usr쎯	-10.5761
abe쎯	-10.5764
,rh쎯	-10.5771
al쎯ce쎯:	-10.5774
n쎯lw쎯	-10.5774
py쎯tu쎯	-10.5775
zzbd쎯tu쎯dga쎯	-10.5777
gef쎯itx쎯	-10.5777
uk쎯wrh쎯	-10.5782
ukq쎯	-10.5782
bqn쎯bb쎯	-10.5784
ucw쎯a쎯	-10.5784
”pp쎯	-10.5785
k쎯l쎯gl쎯	-10.5786
xa쎯qh쎯	-10.5791
rmc쎯uqwm쎯ftj쎯	-10.5793
쎁쎉쎃쎅rh쎯	-10.5795
쎅.	-10.5797
r쎯ad쎯dbm쎯h쎯,	-10.5806
tyna쎯.	-10.5806
wg쎯nnh쎯	-10.5807
ggi쎯xat쎯	-10.581
ybv쎯ton쎯	-10.5811
mh쎯k쎯l쎯	-10.5811
ynjh쎯	-10.5811
nty쎯af쎯ga쎯yt쎯	-10.5811
gmww쎯dd쎯	-10.5811
fqb쎯rh쎯	-10.5812
sgn쎯yy쎯	-10.5813
rh쎯go쎯,	-10.5814
aqv쎯	-10.5815
dd쎯f쎯	-10.5815
vb쎯,	-10.5817
wc쎯www쎯	-10.5818
sagg쎯lks쎯	-10.5822
cq쎯	-10.5824
kht쎯zzbd쎯	-10.5825
jhf쎯bwg쎯	-10.5825
쎁쎂쎅	-10.5827
ey쎯sh쎯ud쎯	-10.5828
tqq쎯n쎯	-10.5828
pg쎯rmhj쎯	-10.5829
dnv쎯ylf쎯	-10.5835
,wgj쎯	-10.5838
uym쎯	-10.5842
tve쎯nnw쎯	-10.5844
dn쎯kkk쎯	-10.5846
ral쎯xwf쎯	-10.585
tp쎯gj쎯txi쎯xyc쎯	-10.5852
kkd쎯,	-10.5856
쎈)	-10.5858
qq쎯o쎯	-10.5858
qn쎯rtd쎯:	-10.5862
wyp쎯hh쎯	-10.5863
,ipw쎯epc쎯	-10.5863
ip쎯fny쎯og쎯	-10.5867
th쎯.	-10.5868
,p쎯hxf쎯	-10.5868
wt쎯et쎯,	-10.587
de쎯shi쎯ow쎯	-10.587
rc쎯tmdf쎯	-10.5873
yu쎯:“	-10.5873
rep쎯cbj쎯“	-10.5873
yox쎯ma쎯	-10.5876
rh쎯xe쎯	-10.5877
trf쎯xq쎯	-10.5879
sm쎯tmd쎯	-10.5879
sg쎯w쎯	-10.5879
thdu쎯	-10.5881
tv쎯km쎯zzbd쎯	-10.5881
nf쎯tey쎯	-10.5883
wkso쎯	-10.5887
zzbd쎯ux쎯yiu쎯	-10.5889
cwg쎯nh쎯	-10.589
vo쎯fcr쎯	-10.589
dd쎯fny쎯	-10.5891
쎇)	-10.5892
lh쎯fgh쎯	-10.5894
tr쎯og쎯tp쎯gj쎯	-10.5896
,xxr쎯	-10.5898
쎁.쎃	-10.5898
fp쎯tkgg쎯k쎯,	-10.5899
j쎯g쎯uk쎯	-10.5903
r쎯vb쎯	-10.5904
r쎯ujf쎯qi쎯	-10.5905
bnn쎯bb쎯	-10.5906
x쎯apk쎯tp쎯gj쎯	-10.5907
nr쎯	-10.5907
eee쎯쎁쎂jjjj쎯	-10.5908
rnn쎯pu쎯	-10.591
fi쎯wgq쎯	-10.591
rpwn쎯	-10.591
qug쎯	-10.5911
g쎯dj쎯	-10.5911
rry쎯	-10.5913
y쎯wtf쎯.	-10.5914
g쎯dm쎯	-10.5915
thp쎯ta쎯	-10.5916
쎂.쎂	-10.5919
yt쎯tmdf쎯	-10.5919
ftj쎯r쎯	-10.5923
.”psu쎯	-10.5934
k쎯sghg쎯	-10.5934
wgkq쎯wgkb쎯	-10.5937
fjw쎯	-10.5937
uu쎯vcb쎯	-10.5938
oy쎯.	-10.594
wt쎯kkk쎯《	-10.5942
aww쎯	-10.5946
em쎯mww쎯	-10.5947
dg쎯jtg쎯	-10.5949
mmm쎯fhc쎯	-10.5953
tet쎯	-10.5953
ntg쎯xk쎯	-10.5954
.mh쎯	-10.5957
,etn쎯	-10.5963
,cep쎯ipkh쎯	-10.5963
bpx쎯	-10.5964
kkkk쎯dgkn쎯	-10.5964
fhv쎯fha쎯	-10.5964
wv쎯nnk쎯	-10.5964
.tfq쎯rg쎯	-10.5968
jge쎯	-10.5968
fqw쎯	-10.597
rmn쎯tpi쎯	-10.5972
sghg쎯kht쎯	-10.5977
ymc쎯yf쎯r쎯	-10.598
rdj쎯ii쎯	-10.5981
c쎯hx쎯	-10.5982
tx쎯vt쎯	-10.5984
lnn쎯	-10.5989
sh쎯iv쎯gf쎯	-10.5989
usgp쎯trfh쎯	-10.5995
쎁쎆쎀쎀	-10.5995
wx쎯wgk쎯tr쎯	-10.5998
rtol쎯bm쎯	-10.6001
pp쎯h쎯	-10.6002
ph쎯	-10.6006
lpk쎯fa쎯	-10.6012
"="	-10.6014
rxj쎯fi쎯	-10.6017
av쎯pdhj쎯	-10.6019
trfg쎯myd쎯	-10.602
mcw쎯	-10.6021
t쎯tp쎯gj쎯	-10.6025
teg쎯wtfm쎯	-10.6026
쎀.쎆	-10.6027
ubte쎯	-10.603
dd쎯qq쎯	-10.6031
mwwk쎯	-10.6032
pq쎯	-10.6032
gkl쎯y쎯wtf쎯,	-10.6034
udi쎯uk쎯	-10.6035
『	-10.6036
cm쎯iq쎯	-10.6037
ffff쎯ssss쎯	-10.6037
fj쎯bc쎯	-10.6047
,wv쎯klj쎯	-10.605
wh쎯ftbt쎯ip쎯gyt쎯,	-10.6051
ih쎯ktn쎯	-10.6055
쎈kgn쎯	-10.6057
fhqv쎯	-10.6058
,j쎯g쎯pe쎯	-10.606
v쎯rnbm쎯	-10.6061
ip쎯tu쎯gkp쎯udi쎯w쎯	-10.6062
rj쎯bc쎯	-10.6062
nge쎯ukq쎯gh쎯	-10.6063
tg쎯ugv쎯	-10.6068
jjjj쎯uwl쎯	-10.6069
bib쎯	-10.6069
wc쎯ngk쎯.	-10.6069
pynn쎯wyq쎯	-10.6069
쎁wc쎯jfd쎯	-10.6072
gkl쎯ftbt쎯rep쎯,	-10.6074
wi쎯	-10.6074
thd쎯tf쎯	-10.6084
wk쎯bg쎯	-10.6085
qj쎯	-10.6086
d쎯p쎯	-10.6086
rmhj쎯tlf쎯	-10.6087
adw쎯uj쎯	-10.6088
mqq쎯hhu쎯	-10.6088
pt쎯yne쎯rj쎯waw쎯	-10.6089
gt쎯grq쎯	-10.6091
dmj쎯dn쎯.	-10.6093
vvv쎯qt쎯	-10.6094
afd쎯ajj쎯	-10.6095
ymc쎯tlf쎯r쎯	-10.6095
ith쎯uk쎯xe쎯	-10.6095
bb쎯wc쎯ngk쎯	-10.6096
itx쎯ud쎯	-10.6098
dyt쎯og쎯	-10.61
fj쎯at쎯	-10.6102
쎁쎉쎃쎄rh쎯	-10.6103
hx쎯jf쎯	-10.6105
qvb쎯	-10.6105
kqr쎯	-10.6108
pv쎯wg쎯tg쎯u쎯	-10.6111
a쎯tkgg쎯rfc쎯sy쎯	-10.6111
mb쎯wrh쎯	-10.6112
qtfj쎯mww쎯	-10.6115
xh쎯ty쎯	-10.6118
ymf쎯dga쎯	-10.6118
r쎯v쎯nae쎯,	-10.6119
,j쎯rxj쎯	-10.6122
khgm쎯ytt쎯	-10.6125
wc쎯ngk쎯reh쎯e쎯	-10.6127
fc쎯uk쎯	-10.6129
iugi쎯	-10.613
iyc쎯wsg쎯	-10.613
,gf쎯j쎯	-10.6131
rxj쎯r쎯j쎯	-10.6132
dgt쎯zzbd쎯	-10.6134
agf쎯	-10.6139
tq쎯pp쎯o쎯	-10.614
rs쎯fmk쎯	-10.6141
xk쎯dd쎯	-10.6142
xww쎯sam쎯	-10.6142
itx쎯h쎯	-10.6144
quh쎯	-10.6145
vfhp쎯suq쎯	-10.6145
,vca쎯	-10.6147
xqc쎯xxe쎯	-10.6147
sghg쎯wmj쎯	-10.6147
bd쎯yad쎯	-10.6148
jgm쎯uqwm쎯	-10.6149
vfh쎯	-10.6149
wbj쎯wt쎯r쎯	-10.615
rawk쎯sgn쎯	-10.615
wat쎯	-10.6156
m쎯tf쎯	-10.6158
j쎯g쎯pe쎯fny쎯og쎯	-10.6159
ukn쎯gj쎯	-10.616
x쎯》	-10.6164
wygg쎯pwdj쎯	-10.6164
tf쎯ght쎯tp쎯gj쎯	-10.6167
ack쎯	-10.6167
yid쎯qvn쎯	-10.6168
ifw쎯lt쎯	-10.6168
g쎯wsg쎯	-10.6168
xl쎯ab쎯	-10.6169
gj쎯ywx쎯gn쎯	-10.617
eee쎯쎂쎃jjjj쎯	-10.6171
쎅쎁쎂	-10.6172
r쎯anb쎯sy쎯	-10.6174
wv쎯aet쎯	-10.6175
d쎯suq쎯ip쎯tg쎯	-10.6178
dga쎯pwv쎯a쎯wt쎯	-10.618
xfnh쎯	-10.6182
zzbd쎯if쎯fwm쎯	-10.6184
x쎯g쎯u쎯og쎯w쎯ovt쎯	-10.6185
u쎯kkk쎯od쎯gajf쎯:	-10.6186
쎂쎀쎀쎁	-10.6189
y쎯s쎯c쎯	-10.6189
ugdu쎯iyt쎯	-10.6189
dga쎯v쎯zzbd쎯tg쎯u쎯	-10.6194
fl쎯wf쎯gj쎯gk쎯	-10.6194
(쎁).	-10.6195
jy	-10.6196
qtny쎯	-10.6196
y쎯src쎯	-10.6197
fge쎯jtyq쎯wf쎯	-10.6197
쎂.쎁	-10.6198
eqn쎯	-10.6198
쎇.쎅	-10.6198
sg쎯tu쎯tg쎯	-10.6202
wf쎯yyq쎯pgc쎯	-10.6203
ayx쎯	-10.6204
ep쎯vb쎯	-10.6204
twgi쎯xq쎯	-10.6206
ny쎯eyf쎯	-10.621
wb쎯w쎯	-10.621
(쎄)	-10.6211
iyj쎯fm쎯ymhj쎯	-10.6215
tuj쎯wj쎯:	-10.6215
tv쎯nnh쎯yn쎯	-10.6215
gae쎯rvyl쎯	-10.6218
wg쎯ta쎯	-10.6219
rwye쎯rt쎯	-10.6221
igd쎯	-10.6224
uuk쎯	-10.6225
fq쎯tfn쎯	-10.6226
dmq쎯	-10.6226
g쎯hi쎯	-10.6227
ln쎯shn쎯ght쎯ick쎯	-10.6229
pp쎯gh쎯	-10.6229
l쎯pe쎯tgj쎯hko쎯	-10.6231
),pb쎯	-10.6232
vc쎯	-10.6234
dd쎯ooo쎯	-10.6235
쎁쎀rh쎯	-10.6241
fhn쎯b쎯	-10.6242
jcf쎯rf쎯“	-10.6244
ujfj쎯ma쎯	-10.6247
rvy쎯if쎯	-10.6247
ymf쎯kfi쎯	-10.6248
w쎯n쎯if쎯bpf쎯	-10.6249
dn쎯ygk쎯	-10.6261
ps쎯ihc쎯ymhj쎯	-10.6261
why쎯	-10.6265
ukd쎯jghm쎯r쎯	-10.6266
yygy쎯tr쎯wk쎯ryn쎯	-10.6269
sh쎯xo쎯	-10.627
epq쎯	-10.6272
wa쎯ytm쎯	-10.6274
f쎯gae쎯	-10.6275
wv쎯dmh쎯d쎯	-10.6275
쎁쎉쎃쎃rh쎯	-10.628
eee쎯쎂쎁jjjj쎯	-10.6281
rawk쎯	-10.6282
k쎯yygy쎯qk쎯tq쎯:	-10.6283
sff쎯ss쎯	-10.6284
gw쎯gr쎯	-10.6285
aft쎯e쎯	-10.6286
iv쎯k쎯	-10.6287
ujn쎯qh쎯	-10.6288
swy쎯	-10.6291
tg쎯itd쎯d쎯	-10.6291
nnk쎯zzbd쎯	-10.6291
pwtf쎯	-10.6294
ukn쎯jtyl쎯	-10.6296
gd쎯wgkq쎯	-10.6297
iwb쎯	-10.6299
iie쎯ditn쎯	-10.63
fghg쎯tg쎯nf쎯jgm쎯,	-10.6301
o쎯wqin쎯	-10.6303
j쎯l쎯pe쎯	-10.6303
usr쎯an쎯xn쎯	-10.6303
ggg쎯bb쎯	-10.6303
ubtf쎯tfkp쎯	-10.6305
wqb쎯	-10.6309
je쎯ige쎯	-10.6311
rt쎯mm쎯	-10.6313
py쎯wf쎯tk쎯lwj쎯	-10.6314
,bn쎯sk쎯	-10.6315
n쎯apk쎯	-10.6317
g쎯wrh쎯	-10.6317
fku쎯ndj쎯	-10.6319
kpt쎯	-10.6321
k쎯wxf쎯atd쎯ip쎯wf쎯	-10.6323
쎁쎈쎉	-10.6323
yygt쎯dd쎯pt쎯yne쎯	-10.6326
ru쎯adwr쎯	-10.6326
ad쎯dbm쎯h쎯	-10.6328
쎀쎀ylf쎯	-10.6329
pn쎯km쎯	-10.6332
wgkb쎯wyc쎯	-10.6334
xj쎯d쎯	-10.6335
쎁.쎁	-10.6335
쎁쎉쎂쎇rh쎯	-10.6337
ujf쎯tsh쎯	-10.634
qtgf쎯	-10.6341
쎃dq쎯	-10.6345
rym쎯	-10.6345
j쎯l쎯mw쎯	-10.6346
irr쎯ia쎯dd쎯ip쎯	-10.6347
gfi쎯fnrt쎯	-10.6347
kq쎯zzbd쎯	-10.6347
trf쎯hko쎯:	-10.6347
hak쎯	-10.6349
iytb쎯iyni쎯	-10.6349
qnw쎯	-10.6358
fnr쎯iwyf쎯	-10.6368
e쎯bv쎯	-10.6369
쎅)	-10.6371
puv쎯hi쎯	-10.6372
”,“	-10.6374
gjq쎯vb쎯r쎯	-10.6377
if쎯》	-10.6379
.쎂쎀쎀쎃rh쎯	-10.6381
cd쎯yaf쎯	-10.6382
.wb쎯wu쎯	-10.6387
xcy쎯rnr쎯	-10.6388
o쎯pfi쎯xj쎯	-10.6388
gkl쎯y쎯wtf쎯tv쎯km쎯	-10.6392
쎃쎅쎀	-10.6395
es쎯et쎯b쎯	-10.6397
tp쎯gj쎯,	-10.6397
tkh쎯,	-10.6397
.wug쎯gf쎯	-10.6398
ux쎯kht쎯	-10.6402
.ld쎯hx쎯,	-10.6404
tdjh쎯	-10.6405
ga쎯ynk쎯	-10.6406
jgm쎯,	-10.6406
jn쎯begg쎯	-10.6406
y쎯yfj쎯	-10.6407
zzbd쎯fm쎯	-10.6409
nh쎯mqc쎯	-10.6409
oja쎯oth쎯	-10.6411
tx쎯g쎯pe쎯	-10.6411
axj쎯	-10.6412
rc쎯tjt쎯	-10.6413
jy쎯qc쎯	-10.6415
yte쎯	-10.6415
see쎯	-10.642
쎂.쎈	-10.6421
.쎂쎀쎀쎉rh쎯	-10.6421
.et쎯gf쎯	-10.6423
mw쎯ibi쎯	-10.6423
.쎂쎀쎁쎀rh쎯	-10.643
dm쎯jty쎯	-10.6431
r쎯tx쎯g쎯	-10.6431
,j쎯g쎯tkh쎯	-10.6431
fggh쎯rdn쎯	-10.6433
vcy쎯	-10.6434
bda쎯	-10.6436
w쎯rnb쎯	-10.6436
rg쎯akgl쎯	-10.6438
sh쎯wfny쎯	-10.6438
ncd쎯	-10.6438
dm쎯src쎯	-10.6441
쎁쎉쎉쎉	-10.6441
rt쎯a쎯	-10.6443
ud쎯uft쎯	-10.6448
gkl쎯nnh쎯yn쎯zzbd쎯	-10.6449
dj쎯wxm쎯	-10.6449
wfny쎯fcl쎯	-10.6449
xf쎯vq쎯	-10.6451
rw쎯fcu쎯	-10.6456
zzbd쎯kfi쎯oge쎯	-10.6456
l쎯pe쎯g쎯xe쎯	-10.6456
,itx쎯rdc쎯	-10.6456
yfd쎯sf쎯	-10.6458
ugdu쎯kfi쎯	-10.6458
jhf쎯	-10.6459
zzbd쎯vkgd쎯qi쎯	-10.646
pu쎯jf쎯	-10.6465
mqu쎯jf쎯	-10.6466
gjq쎯ym쎯	-10.6466
rgf쎯rg쎯	-10.6468
.ld쎯o쎯	-10.6469
?”	-10.6469
cep쎯mq쎯	-10.6476
tfkf쎯yr쎯	-10.6476
pei쎯og쎯uk쎯	-10.6478
xyna쎯ty쎯	-10.6482
dn쎯o쎯b쎯	-10.6483
eee쎯쎂쎂jjjj쎯	-10.6484
,ugdu쎯l쎯	-10.6486
:쎁zzbd쎯	-10.6487
cbd쎯yf쎯	-10.649
srm쎯awx쎯	-10.6491
,wt쎯o쎯	-10.6492
j쎯o쎯b쎯	-10.6492
쎆.	-10.6494
,i쎯wcy쎯	-10.6495
wc쎯tl쎯km쎯	-10.6497
ghd쎯dqe쎯	-10.6498
쎀.쎄	-10.6499
dm쎯tkw쎯쎂	-10.6501
쎀wtu쎯w쎯	-10.6504
adjd쎯	-10.6505
ic쎯pb쎯	-10.651
qiu쎯zzbd쎯	-10.6511
,hk쎯f쎯dm쎯tkw쎯	-10.6512
qt쎯tu쎯	-10.6513
qh쎯gae쎯nyi쎯fghy쎯	-10.6514
esw쎯	-10.6514
xa쎯yta쎯	-10.6518
pyb쎯	-10.6519
iytb쎯fmk쎯bw쎯	-10.6519
쎂쎄ih쎯jf쎯	-10.6521
qnnk쎯udyj쎯	-10.6521
v쎯nae쎯fwm쎯aj쎯	-10.6523
sg쎯ffff쎯	-10.6525
rfc쎯sy쎯eb쎯tl쎯	-10.6534
,gae쎯dn쎯b쎯	-10.6535
fug쎯fe쎯	-10.6536
bu쎯xtk쎯	-10.6536
sgmk쎯	-10.6537
tp쎯gj쎯r쎯	-10.6538
icd쎯	-10.6539
kv쎯	-10.654
wdn쎯gjh쎯	-10.6541
nkuy쎯	-10.6547
qnj쎯	-10.6547
쎁쎇쎀	-10.6548
wsg쎯rmhj쎯	-10.6548
jjjj쎯rb쎯	-10.6548
mt쎯fgh쎯	-10.6548
pt쎯cm쎯	-10.6549
gkl쎯y쎯xyna쎯	-10.655
쎂쎀쎁쎄rh쎯	-10.6552
lu쎯ih쎯	-10.6553
iugg쎯ime쎯	-10.6554
uduk쎯gf쎯	-10.6555
(쎁쎈	-10.6555
tb쎯ab쎯	-10.6557
.쎂쎀쎀쎂rh쎯	-10.6558
zzbd쎯jn쎯bb쎯	-10.6561
pei쎯wt쎯tr쎯	-10.6562
tk쎯thd쎯	-10.6566
nynn쎯	-10.6567
ipkh쎯ipkh쎯	-10.6569
luf쎯	-10.6569
src쎯fnw쎯	-10.6573
y쎯w쎯wc쎯	-10.6575
eee쎯쎅jjjj쎯	-10.6579
y쎯lt쎯	-10.6582
yne쎯gajf쎯	-10.6582
bm쎯kkk쎯	-10.6583
,ww쎯gk쎯	-10.6583
-쎉	-10.6585
ta쎯dp쎯	-10.6586
ght쎯tl쎯	-10.6586
rb쎯xqa쎯	-10.6587
bn쎯wf쎯	-10.6588
y쎯rf쎯w쎯	-10.6594
ww쎯hx쎯	-10.6598
j쎯:	-10.6598
pp쎯wt쎯	-10.6599
gmf쎯tg쎯	-10.66
iyjh쎯jtyq쎯	-10.66
tdg쎯wy쎯	-10.6601
gf쎯hx쎯	-10.6602
dd쎯m쎯	-10.6603
uvo쎯pww쎯	-10.6603
oja쎯v쎯	-10.6605
wgqt쎯	-10.6605
hko쎯,	-10.6608
zzbd쎯cn쎯	-10.661
yngk쎯ian쎯	-10.6611
gfi쎯km쎯	-10.6612
ii쎯dm쎯	-10.6612
bm쎯ipg쎯	-10.6614
kld쎯	-10.6614
oo쎯zzbd쎯	-10.6616
cy쎯f쎯	-10.6619
jhk쎯rb쎯	-10.662
tjt쎯rmhj쎯	-10.6622
ugdu쎯vb쎯	-10.6623
ym쎯dr쎯	-10.6623
쎁쎀쎈	-10.6627
mb쎯ght쎯	-10.6627
pfqc쎯	-10.6636
qwy쎯	-10.6637
oj쎯	-10.6638
uqf쎯wf쎯	-10.6641
adwr쎯zzbd쎯	-10.6646
twt쎯ytyh쎯	-10.6647
ftbt쎯yce쎯a쎯wt쎯	-10.6647
dgkn쎯gc쎯	-10.6648
synw쎯siq쎯	-10.6651
,epc쎯gc쎯	-10.6656
vbn쎯wu쎯	-10.6656
pp쎯ujn쎯	-10.6659
aigh쎯	-10.666
mb쎯ght쎯xyna쎯dcg쎯	-10.6667
ujfj쎯wug쎯:	-10.6668
bm쎯wtf쎯	-10.667
/쎃	-10.6671
tt쎯gl쎯	-10.6673
bq쎯adnt쎯	-10.6673
bu쎯wgk쎯l쎯	-10.6674
fh쎯gc쎯	-10.6674
a쎯uqwm쎯	-10.6674
ev쎯	-10.6677
xtk쎯	-10.6679
bn쎯kn쎯	-10.668
yi쎯e쎯	-10.6681
khr쎯	-10.6682
ijl쎯ytyh쎯ymhj쎯	-10.6683
tve쎯vb쎯r쎯	-10.6684
pym쎯jfc쎯	-10.6685
ai쎯itx쎯	-10.6687
ix쎯	-10.6689
쎁uqw쎯	-10.6691
dq쎯,	-10.6692
yu쎯if쎯	-10.6693
wxf쎯dht쎯	-10.6694
d쎯l쎯mw쎯qh쎯	-10.6695
pgy쎯dgtg쎯	-10.6697
ymc쎯d쎯	-10.6699
ywe쎯ubk쎯	-10.67
bde쎯sm쎯	-10.67
wynm쎯	-10.6702
쎁쎉쎂쎈rh쎯	-10.6703
eb쎯tl쎯zzbd쎯	-10.6706
afw쎯	-10.6707
dgkf쎯	-10.6707
dnv쎯wtu쎯	-10.671
.cep쎯fp쎯	-10.6711
gklp쎯	-10.6713
qrn쎯	-10.6714
rer쎯iuc쎯	-10.6716
if쎯w쎯	-10.6718
ffff쎯gku쎯	-10.6721
rjg쎯wk쎯	-10.6723
uth쎯ywf쎯	-10.6724
aqg쎯aqr쎯isgg쎯	-10.6724
p쎯uk쎯	-10.673
rl쎯	-10.6732
ym쎯tffu쎯bpf쎯suq쎯	-10.6733
eee쎯쎂쎄jjjj쎯	-10.6733
rfc쎯sy쎯,	-10.6734
tuu쎯tb쎯	-10.6736
yny쎯zzbd쎯	-10.6737
ugdu쎯ip쎯	-10.6738
ybj쎯	-10.6739
eee쎯쎁쎉jjjj쎯	-10.6739
ipkh쎯rh쎯	-10.6741
tffu쎯w쎯	-10.6743
qev쎯toc쎯:	-10.675
sg쎯nnh쎯j쎯	-10.6751
lsh쎯	-10.6751
pp쎯uj쎯,	-10.6755
a쎯tkgg쎯txi쎯	-10.6755
o쎯adw쎯	-10.6756
qs쎯	-10.6759
txgt쎯dgkn쎯	-10.676
wdt쎯b쎯	-10.676
uv쎯	-10.6762
fhw쎯ghd쎯r쎯	-10.6765
god쎯st쎯r쎯	-10.6766
sghg쎯pv쎯ymhj쎯	-10.6768
ai쎯wmj쎯	-10.6772
bm쎯yam쎯	-10.6773
tevc쎯	-10.6775
uyh쎯yne쎯	-10.6779
khv쎯khp쎯	-10.6782
i쎯jqr쎯	-10.6782
oge쎯dqe쎯	-10.6782
pa쎯gkp쎯	-10.6783
dgkn쎯yid쎯	-10.6785
gqg쎯utd쎯w쎯	-10.6785
ubtf쎯eu쎯	-10.6785
mta쎯	-10.6788
jty쎯ysi쎯x쎯cwg쎯	-10.6792
ryl쎯	-10.6793
ija쎯dmh쎯	-10.6794
fhn쎯gc쎯	-10.6795
xk쎯gqjo쎯	-10.6795
ak	-10.6796
r쎯tf쎯o쎯	-10.6798
mqb쎯gf쎯	-10.6799
nh쎯uwl쎯	-10.6805
xeg쎯xkw쎯r쎯	-10.6806
dqe쎯yw쎯	-10.6806
vfhp쎯l쎯	-10.6807
hi쎯tf쎯	-10.681
nty쎯rmhj쎯	-10.6811
uqt쎯lt쎯gf쎯	-10.6811
fas쎯	-10.6813
dgj쎯wx쎯	-10.6817
tqq쎯sfhg쎯	-10.6821
ivp쎯iqn쎯	-10.6822
yjjh쎯zzbd쎯	-10.6823
jgm쎯aib쎯ip쎯suq쎯	-10.6826
tv쎯pgj쎯wfny쎯uk쎯	-10.6827
qq쎯rh쎯tg쎯ajj쎯sg쎯	-10.6827
r쎯an쎯lwj쎯	-10.6829
ukn쎯xg쎯	-10.6829
pwd쎯bm쎯am쎯fmud쎯	-10.6835
ntt쎯	-10.6835
bqn쎯	-10.6839
u쎯tr쎯	-10.6839
rn쎯wt쎯	-10.6843
rgd쎯bfw쎯	-10.6845
yfj쎯qev쎯	-10.6848
rtol쎯tkh쎯	-10.685
rvyo쎯ii쎯	-10.6853
rcf쎯	-10.6855
쎂adm쎯	-10.6856
tg쎯u쎯ymc쎯tlf쎯	-10.6857
px쎯j쎯	-10.6859
gkip쎯yx쎯	-10.6859
ymhj쎯ght쎯	-10.6859
pju쎯	-10.6861
rj쎯fi쎯	-10.6862
ym쎯tld쎯dfy쎯	-10.6862
xvk쎯iw쎯	-10.6865
zzbd쎯ba쎯	-10.6866
dht쎯tb쎯	-10.6868
lu쎯ym쎯r쎯	-10.6868
gip쎯dr쎯	-10.6869
trf쎯bmg쎯	-10.6872
xnf쎯	-10.6873
av쎯thg쎯	-10.6873
ijo쎯f쎯	-10.6874
mhk쎯	-10.6876
vv쎯u쎯tu쎯	-10.688
k쎯ny쎯ih쎯ip쎯	-10.6882
sfhg쎯sri쎯	-10.6882
sfh쎯alt쎯	-10.6883
xyna쎯tkgg쎯	-10.6883
fnrt쎯jy쎯	-10.6884
puhc쎯rep쎯cbj쎯	-10.6884
fkuc쎯ddnl쎯	-10.6885
tuj쎯ujfj쎯r쎯	-10.6886
qr쎯kht쎯nnk쎯	-10.6887
y쎯s쎯x쎯apk쎯	-10.6889
rgef쎯	-10.6891
gu쎯fqu쎯ylf쎯u쎯	-10.6895
.rg쎯go쎯	-10.6897
gm쎯e쎯km쎯a쎯	-10.6897
lu쎯vb쎯	-10.6898
tyna쎯ywx쎯yygy쎯	-10.6898
cd쎯yaf쎯ta쎯	-10.6905
txi쎯y쎯wtf쎯	-10.6907
쎉)	-10.6907
ta쎯iit쎯ymhj쎯	-10.6907
lfo쎯rrr쎯	-10.6907
ii쎯u쎯	-10.6909
snn쎯	-10.691
bde쎯jf쎯	-10.6914
gyt쎯y쎯wtf쎯	-10.6915
lhnh쎯ad쎯	-10.6918
tmd쎯lp쎯	-10.6922
uxe쎯dm쎯	-10.6925
ab쎯xq쎯	-10.6935
lfof쎯sghg쎯sks쎯	-10.6937
o쎯g쎯	-10.6937
bm쎯gm쎯d쎯	-10.694
mq쎯fghy쎯	-10.6941
yngk쎯maw쎯	-10.6945
zzsx쎯쎄	-10.6945
fqu쎯sk쎯	-10.6947
ynh쎯	-10.6949
tgj쎯tjt쎯	-10.695
ts쎯wgq쎯	-10.6951
bll쎯	-10.6953
wg쎯tq쎯	-10.6955
gkl쎯bpf쎯ta쎯	-10.6955
syf쎯	-10.6957
adm쎯hhhh쎯r쎯	-10.6957
kkdu쎯	-10.6959
nngt쎯	-10.696
geht쎯	-10.6962
wgnb쎯	-10.6963
ddn쎯	-10.6964
qh쎯,	-10.6966
ftbt쎯yce쎯ip쎯bpf쎯	-10.6968
oge쎯vo쎯	-10.6969
bg쎯pym쎯	-10.6971
sss쎯ss쎯wc쎯lfq쎯	-10.6971
ntt쎯tf쎯	-10.6972
wtf쎯ujn쎯	-10.6973
puhc쎯iwyf쎯o쎯	-10.6973
twf쎯kgn쎯	-10.6974
gkp쎯udh쎯	-10.6977
,xf쎯wgk쎯	-10.6977
sp쎯qc쎯	-10.6977
dg쎯xwy쎯	-10.698
쎃쎀rh쎯	-10.6981
gmww쎯dm쎯	-10.6985
qq쎯fqb쎯	-10.6987
qh쎯,gip쎯	-10.6987
an쎯lwj쎯tk쎯f쎯	-10.6988
y쎯s쎯dr쎯ou쎯	-10.699
rg쎯bg쎯	-10.6993
qi쎯lfq쎯	-10.6994
yi쎯ce쎯	-10.6997
ee쎯	-10.6997
쎁쎉쎃쎀rh쎯	-10.6998
zzbd쎯eb쎯tl쎯	-10.6999
thp쎯pv쎯	-10.7002
tt쎯qk쎯	-10.7003
lfn쎯gkip쎯	-10.7003
wbj쎯tfkp쎯b쎯	-10.7005
lj쎯	-10.7007
b쎯《	-10.7007
rdn쎯	-10.7008
jf쎯ynt쎯	-10.7011
ith쎯ght쎯ywf쎯	-10.7014
prh쎯	-10.7015
gajf쎯whf쎯og쎯	-10.7016
-쎂쎀	-10.7017
r쎯gm쎯wa쎯wx쎯	-10.7019
gkm쎯uqwm쎯	-10.7024
yce쎯w쎯	-10.7025
nnh쎯gl쎯anb쎯sy쎯	-10.7025
dd쎯fwm쎯saj쎯	-10.7028
dd쎯fny쎯yygy쎯wx쎯	-10.7031
ish쎯	-10.7033
,aqt쎯tj쎯	-10.7033
td쎯qk쎯ya쎯	-10.7034
mqq쎯xtk쎯iytb쎯ca쎯	-10.7034
an쎯pe쎯	-10.7034
rgs쎯	-10.7035
pgy쎯pgy쎯	-10.7036
gn쎯tp쎯gj쎯	-10.7036
ux쎯ugdu쎯	-10.7041
wt쎯b쎯	-10.7044
trf쎯gqr쎯r쎯	-10.7048
g쎯su쎯,	-10.7049
gxi쎯e쎯	-10.7049
ght쎯sc쎯	-10.7052
dq쎯zzbd쎯	-10.7052
jn쎯sux쎯	-10.7053
xxf쎯og쎯,	-10.7057
nge쎯jy쎯	-10.7059
eee쎯쎁쎇jjjj쎯	-10.7059
쎁qk쎯	-10.7059
tv쎯ipk쎯suq쎯	-10.7059
,aw쎯e쎯	-10.706
o쎯k쎯ny쎯	-10.7062
nge쎯ab쎯	-10.7062
rhc쎯qf쎯gae쎯	-10.7064
hk쎯f쎯dm쎯tkw쎯쎁	-10.7066
rrp쎯an쎯	-10.7066
wfhg쎯tj쎯	-10.7069
.lpdk쎯	-10.707
sk쎯c쎯d쎯	-10.7071
,hk쎯f쎯	-10.7073
fhn쎯wtf쎯	-10.7073
bd쎯ruv쎯	-10.7075
sk쎯et쎯gf쎯	-10.7076
zzbd쎯yj쎯	-10.7076
imj쎯xwf쎯	-10.7077
쎀.쎇	-10.7077
qdy쎯	-10.7078
afwt쎯	-10.7079
uni쎯	-10.708
gkl쎯y쎯wtf쎯.	-10.7081
txgi쎯wxf쎯	-10.7081
uthp쎯ftbt쎯	-10.7083
y쎯s쎯tg쎯u쎯	-10.7084
xyna쎯dcg쎯	-10.7084
ih쎯ooo쎯	-10.7084
(쎁쎈쎉	-10.7086
gmww쎯mdfj쎯	-10.7087
wgmy쎯	-10.7089
쎉eee쎯gcf쎯	-10.709
emc쎯wwv쎯rmhj쎯	-10.7093
g쎯wh쎯w쎯	-10.7093
odm쎯	-10.7097
pdx쎯	-10.7098
ow쎯gs쎯	-10.71
,cd쎯lk쎯b쎯	-10.71
,hw쎯	-10.7102
r쎯py쎯wf쎯	-10.7103
eee쎯쎆jjjj쎯	-10.7103
rvk쎯um쎯	-10.7104
trs쎯trtg쎯.	-10.7107
쎇wc쎯jfd쎯	-10.7108
dnv쎯adw쎯j쎯	-10.7108
k쎯gxgu쎯	-10.7109
eee쎯쎁쎁jjjj쎯	-10.7109
ihic쎯	-10.711
dmj쎯dn쎯,	-10.7117
쎆쎀쎀쎀	-10.712
ddi쎯	-10.7121
mq쎯fcu쎯	-10.7122
zzsx쎯zzsx쎯	-10.7124
sbd쎯lkmi쎯gae쎯	-10.7127
pu쎯hka쎯	-10.7129
,wg쎯sf쎯	-10.713
k쎯l쎯iv쎯wa쎯	-10.7131
edjn쎯	-10.7131
k쎯ny쎯y쎯wtf쎯	-10.7131
faw쎯hh쎯	-10.7133
k쎯l쎯nnh쎯gl쎯	-10.7133
gkm쎯ty쎯	-10.7137
trh쎯kq쎯	-10.714
ue쎯fj쎯	-10.7146
ipwk쎯qev쎯	-10.7148
kht쎯,	-10.7148
tdu쎯	-10.7149
ujfj쎯qtj쎯	-10.7155
bm쎯gm쎯r쎯	-10.7157
쎂w쎯	-10.7158
iy쎯tmdf쎯	-10.7161
okk쎯	-10.7162
riu쎯ytyh쎯	-10.7163
ugdu쎯vvv쎯	-10.7163
ol쎯ck쎯	-10.7164
gwy쎯	-10.7165
wvt쎯adwr쎯uff쎯	-10.7165
hx쎯rg쎯	-10.7166
rfc쎯if쎯	-10.7167
”)	-10.7167
qgj쎯nfp쎯	-10.7168
qfhw쎯wug쎯gf쎯	-10.7172
khh쎯	-10.7172
k쎯fm쎯	-10.7175
xl쎯gcft쎯	-10.7176
lx쎯yf쎯	-10.7176
r쎯g쎯uk쎯wv쎯	-10.7176
rrg쎯fnud쎯	-10.718
whw쎯qi쎯uk쎯.	-10.7181
iqgg쎯og쎯	-10.7181
puh쎯wi쎯	-10.7183
qq쎯qk쎯	-10.7185
ga쎯v쎯zzbd쎯	-10.7185
ipw쎯ynt쎯	-10.7186
,px쎯j쎯	-10.7188
(wynk쎯	-10.7191
sm쎯sq쎯,	-10.7191
m쎯qk쎯	-10.7192
tmd쎯ym쎯	-10.7195
oqdo쎯ou쎯	-10.7198
jjjj쎯ygk쎯	-10.7198
lkd쎯jv쎯	-10.72
ymc쎯yf쎯gn쎯	-10.72
ipk쎯ght쎯	-10.7203
jcf쎯rf쎯c쎯	-10.7205
puv쎯,	-10.7207
th쎯gkl쎯th쎯ta쎯	-10.7207
;쎁	-10.7209
qynm쎯mgn쎯	-10.721
fct쎯ey쎯	-10.7211
og쎯mw쎯	-10.7212
itx쎯ii쎯	-10.7213
tonu쎯	-10.7215
ru쎯sgh쎯	-10.7219
xpw쎯pgn쎯	-10.7219
vt쎯dx쎯	-10.7221
oat쎯rvyo쎯	-10.7222
tu쎯y쎯wtf쎯	-10.7223
wycm쎯nf쎯r쎯	-10.7226
tg쎯u쎯qie쎯wyk쎯	-10.7226
bqt쎯	-10.7226
yynw쎯wc쎯ngk쎯	-10.7227
ihc쎯uff쎯	-10.7228
kkd쎯pn쎯	-10.7231
geq쎯eyni쎯	-10.7231
wyf쎯dhb쎯	-10.7231
rxj쎯wyc쎯	-10.7232
pei쎯ax쎯	-10.7234
.쎁쎉쎉쎈rh쎯	-10.7236
saj쎯aa쎯,	-10.7236
xxm쎯lfod쎯	-10.7239
.px쎯j쎯	-10.724
bw쎯km쎯	-10.724
tx쎯lh쎯nm쎯	-10.7242
tjt쎯jgf쎯dd쎯ip쎯	-10.7245
ijq쎯	-10.7245
pg쎯hko쎯	-10.7251
l쎯n쎯	-10.7252
ipq쎯bj쎯ymhj쎯	-10.7253
쎀쎀gu쎯yy쎯oy쎯,	-10.7254
wgkg쎯	-10.7255
쎀)	-10.7257
tv쎯km쎯,	-10.726
yaa쎯hko쎯	-10.726
xry쎯	-10.7261
rrr쎯ae쎯	-10.7262
ipmq쎯tj쎯	-10.7263
zzbd쎯gkl쎯	-10.7265
wg	-10.7268
abi쎯irn쎯	-10.7271
o쎯wfh쎯tc쎯	-10.7272
.x쎯fp쎯	-10.7273
wg쎯tkgg쎯	-10.7277
ugdu쎯iwyf쎯	-10.7278
ccc쎯e쎯	-10.7282
ngk쎯wyc쎯uk쎯	-10.7283
se쎯adw쎯	-10.7284
kgn쎯xg쎯	-10.7286
rmc쎯jyie쎯	-10.7287
waw쎯ii쎯	-10.7288
)tffu쎯	-10.7289
r쎯x쎯apk쎯	-10.7292
tve쎯it쎯	-10.7293
lft쎯ta쎯	-10.7295
efw쎯	-10.7296
.쎂쎀쎁쎂rh쎯	-10.7296
wbb쎯wyf쎯	-10.7296
쎄쎈쎀	-10.7298
,cf쎯gf쎯	-10.7298
yi쎯d쎯	-10.7299
mww쎯rfm쎯	-10.7299
wf쎯ta쎯	-10.7299
ipkh쎯ytyh쎯	-10.7299
ul쎯qq쎯uqw쎯	-10.73
zzbd쎯h쎯itx쎯	-10.7303
ukd쎯jghm쎯.	-10.7303
ftg쎯tg쎯	-10.7303
eee쎯쎉jjjj쎯	-10.7303
nfp쎯	-10.7304
dyi쎯fw쎯	-10.7307
iu쎯aqrn쎯	-10.7308
ll쎯,ic쎯ytt쎯,	-10.7309
ijl쎯jef쎯	-10.731
knx쎯	-10.731
,rxj쎯	-10.7311
qlh쎯	-10.7319
qya쎯	-10.732
a쎯ip쎯bpf쎯	-10.732
rpf쎯	-10.732
wv쎯klj쎯o쎯	-10.7321
tffu쎯tk쎯tkh쎯	-10.7325
nae쎯bm쎯	-10.7326
c쎯rg쎯,	-10.7327
쎄쎅쎀	-10.7328
tffu쎯qq쎯wh쎯	-10.7328
ii쎯jjj쎯	-10.7332
wv쎯gqje쎯	-10.7333
a쎯og쎯lfq쎯	-10.7333
oge쎯pyj쎯yygy쎯je쎯	-10.7334
ftjb쎯sk쎯c쎯	-10.7335
abf쎯	-10.7337
yvw쎯	-10.734
ukn쎯fay쎯	-10.7341
pde쎯	-10.7344
쎃kgn쎯	-10.7344
uqw쎯wf쎯yyq쎯	-10.7346
fg쎯w쎯	-10.7346
wdk쎯	-10.7348
wc쎯ngk쎯d쎯	-10.7348
iq쎯icf쎯	-10.735
r쎯al쎯ce쎯	-10.7352
lw쎯wc쎯ds쎯	-10.7353
kl쎯g쎯wh쎯	-10.7354
us쎯thd쎯	-10.7354
rpw쎯rmhj쎯kkd쎯	-10.7354
fnrt쎯wgk쎯	-10.7354
dx쎯udi쎯whf쎯og쎯	-10.7356
wys쎯wgk쎯	-10.7357
al쎯ce쎯,	-10.7359
–	-10.736
fj쎯nae쎯	-10.7362
쎁adm쎯	-10.7362
ypm쎯ya쎯	-10.7365
r쎯m쎯jf쎯	-10.7366
iyni쎯	-10.7368
.”je쎯	-10.7369
tx쎯g쎯uk쎯	-10.737
쎅.쎅	-10.737
....	-10.7371
awx쎯ur쎯	-10.7374
eee쎯쎂쎆jjjj쎯	-10.7375
sg쎯tu쎯xxf쎯og쎯	-10.7376
fa쎯wsg쎯	-10.7382
cep쎯fp쎯b쎯	-10.7384
um	-10.7385
lkd쎯nh쎯	-10.7386
tmfk쎯	-10.7391
wdn쎯rfm쎯r쎯eb쎯tl쎯	-10.7393
o쎯:	-10.7397
,c쎯“	-10.7397
c쎯fm쎯	-10.7399
gqr쎯	-10.74
r쎯dgkn쎯ipmq쎯	-10.7403
ypt쎯	-10.7403
......	-10.7404
qk쎯jgm쎯	-10.7405
wc쎯xd쎯,	-10.7406
;쎃zzbd쎯	-10.7407
fu쎯lk쎯b쎯	-10.7414
i쎯yo쎯	-10.7415
ntg쎯.	-10.7416
gk쎯.	-10.7422
iffg쎯	-10.7422
fgf쎯	-10.7426
rnr쎯fnr쎯kkd쎯	-10.7427
pdx쎯tr쎯	-10.7429
r쎯svc쎯wynn쎯	-10.7431
yceh쎯	-10.7431
pp쎯f쎯	-10.7432
ry쎯vfhp쎯	-10.7432
,im쎯e쎯	-10.7433
쎈쎀%	-10.7434
fwf쎯wa쎯	-10.7435
eee쎯쎁쎄jjjj쎯	-10.7435
fuk쎯yk쎯k쎯ny쎯	-10.7439
gogj쎯tak쎯o쎯	-10.7441
(gm쎯	-10.7441
yr쎯ywc쎯	-10.7441
ddm쎯fghg쎯tg쎯nf쎯	-10.7443
,tm쎯	-10.7443
fq쎯ywx쎯	-10.7447
j쎯wys쎯	-10.7448
r쎯rfm쎯jg쎯	-10.7449
irh쎯	-10.7451
.p쎯j쎯	-10.7452
,,,,	-10.7453
쎂uqw쎯	-10.7453
fhn쎯hko쎯	-10.7454
tfqm쎯iwyf쎯	-10.7455
rdj쎯qk쎯	-10.7455
v쎯tg쎯d쎯	-10.7459
iie쎯gxgu쎯	-10.746
sgjg쎯	-10.7461
dd쎯ip쎯xxf쎯og쎯	-10.7461
.쎂쎀쎀쎀rh쎯	-10.7464
wbj쎯uu쎯gf쎯	-10.7464
pu쎯et쎯ntg쎯	-10.7468
x쎯qyv쎯	-10.7468
nyu쎯tp쎯	-10.7469
g쎯vtk쎯	-10.7469
wny쎯tuh쎯	-10.747
rhk쎯ve쎯	-10.7471
trf쎯u쎯	-10.748
aqt쎯wg쎯l쎯	-10.7481
suq쎯wfk쎯	-10.7481
se쎯hw쎯	-10.7484
isk쎯kkkk쎯	-10.7487
ep쎯r쎯	-10.7488
.p쎯jfd쎯	-10.7491
dga쎯pwv쎯t쎯	-10.7491
amyn쎯	-10.7494
kkd쎯wrh쎯	-10.7495
qgb쎯qje쎯	-10.7496
dgj쎯ya쎯	-10.7497
쎂쎁an쎯xn쎯	-10.7498
ipg쎯km쎯,	-10.7498
wgep쎯	-10.7499
whtn쎯	-10.75
uyh쎯yne쎯mqq쎯uh쎯	-10.7507
dc쎯ype쎯	-10.751
js쎯scf쎯	-10.751
mqu쎯,	-10.7515
et쎯c쎯	-10.7517
쎁쎀쎅	-10.7517
nfc쎯,	-10.7518
v쎯tg쎯r쎯	-10.7519
yga쎯	-10.7521
wv쎯sgn쎯gc쎯	-10.7522
,rh쎯bt쎯ii쎯jg쎯	-10.7523
gef쎯itx쎯ith쎯	-10.7523
ipg쎯yo쎯	-10.7524
g쎯k쎯	-10.7524
scf쎯ssss쎯	-10.7525
쎂.쎃	-10.7526
l쎯u쎯	-10.7529
wgkm쎯	-10.753
jqw쎯	-10.753
d쎯wynb쎯	-10.7531
kml쎯	-10.7533
itd쎯inty쎯	-10.7536
.p쎯wh쎯	-10.7537
j쎯g쎯yww쎯	-10.7539
r쎯xp쎯wgk쎯	-10.7539
tx쎯fgh쎯	-10.7539
쎃uqw쎯	-10.754
sm쎯tsh쎯	-10.7543
qyng쎯od쎯	-10.7544
fwyc쎯wrh쎯	-10.7544
xq쎯쎂	-10.7544
qh쎯uq쎯	-10.7545
iak쎯ivc쎯	-10.7545
nge쎯xft쎯	-10.7546
%.	-10.7546
i쎯yud쎯	-10.7547
tv쎯wf쎯	-10.7547
쎅zzsx쎯	-10.7551
e쎯tjh쎯gf쎯	-10.7554
maf쎯	-10.7555
ii쎯egc쎯	-10.7556
wgq쎯vk쎯	-10.7557
eeqy쎯	-10.7557
tjh쎯gog쎯	-10.7558
knx쎯?	-10.756
wdn쎯rfm쎯r쎯	-10.7567
zzbd쎯ytey쎯iytb쎯	-10.7567
eee쎯쎁쎃jjjj쎯	-10.7568
jf쎯adwe쎯,	-10.7568
쎁쎂wh쎯	-10.7569
)(	-10.7569
adu쎯	-10.7571
j쎯ww쎯	-10.7571
sov쎯ym쎯	-10.7573
wgku쎯fnrt쎯	-10.7573
tg쎯idf쎯	-10.7573
g쎯kht쎯	-10.7575
wgj쎯rgv쎯	-10.7582
wdn쎯ugdu쎯,	-10.7585
dd쎯nae쎯	-10.7587
fny쎯lkb쎯《	-10.7588
xh쎯v쎯	-10.759
lk쎯dd쎯	-10.759
mw쎯ny쎯	-10.7591
yle쎯pp쎯	-10.7592
rwye쎯gkp쎯	-10.7593
gu쎯tf쎯	-10.7595
.쎄.	-10.7595
jsg쎯	-10.7596
wgk쎯uqwm쎯	-10.7596
fjhh쎯	-10.7596
r쎯ln쎯shn쎯	-10.7599
iq쎯je쎯	-10.76
qh쎯qyv쎯	-10.7601
yiu쎯ndj쎯	-10.7601
in쎯	-10.7603
jb쎯tgj쎯s쎯r쎯	-10.7603
gg쎯dd쎯	-10.7604
,lxx쎯wycb쎯	-10.7606
,jb쎯xtu쎯	-10.7606
tmdf쎯fmk쎯	-10.7607
쎁쎀wtu쎯	-10.7607
ue쎯tmd쎯	-10.761
pr쎯pt쎯	-10.761
쎁쎉쎉쎆	-10.7614
wye쎯qd쎯	-10.7617
j쎯cf쎯	-10.7618
쎁쎀%	-10.7618
iyc쎯jhnr쎯	-10.762
,dnv쎯adw쎯j쎯	-10.7622
sf쎯.	-10.7624
jjjj쎯jvko쎯	-10.7625
jtyl쎯gj쎯	-10.7629
td쎯egc쎯	-10.763
mh쎯dr쎯	-10.7633
yy쎯aa쎯,	-10.7633
t쎯rfc쎯sy쎯	-10.7635
ab쎯dwg쎯	-10.7636
trw쎯ycb쎯	-10.7637
thd쎯qd쎯sf쎯	-10.7638
쎅oy쎯	-10.7641
ujfj쎯g쎯	-10.7641
k쎯md쎯jn쎯pym쎯ck쎯	-10.7646
x쎯xjm쎯	-10.7646
j쎯g쎯uthp쎯	-10.7648
dd쎯gku쎯	-10.7648
g쎯adwe쎯	-10.765
dgh쎯wynb쎯	-10.7651
km쎯.	-10.7652
tfk쎯dnv쎯	-10.7652
.쎅zzbd쎯	-10.766
ipkh쎯et쎯r쎯	-10.7661
,fqu쎯	-10.7662
aib쎯lfnh쎯:	-10.7662
.쎂쎀쎀쎁rh쎯	-10.7665
dg쎯uqw쎯	-10.7666
쎃w쎯	-10.7666
ip쎯rb쎯	-10.7667
xx쎯vk쎯	-10.7668
g쎯w쎯	-10.7674
um쎯tl쎯k쎯ny쎯	-10.7676
rj쎯bm쎯r쎯	-10.7677
hwb쎯lwx쎯	-10.7677
jf쎯r쎯	-10.7679
tr쎯ou쎯	-10.768
gcf쎯it쎯	-10.7682
rnd쎯yu쎯	-10.7683
ryi쎯	-10.7686
wv쎯fc쎯	-10.7687
pei쎯dl쎯	-10.769
gqr쎯ivfh쎯mhkg쎯	-10.7692
qmw쎯	-10.7694
gr쎯pgy쎯	-10.7694
pj쎯rx쎯	-10.7694
ivy쎯	-10.7695
pe쎯.	-10.7695
ryj쎯	-10.7699
iq쎯xtf쎯	-10.7702
ofd쎯oy쎯	-10.7703
rit쎯	-10.7704
bpf쎯fghg쎯	-10.7705
i쎯on쎯rj쎯ym쎯	-10.771
ftxu쎯	-10.771
py쎯wf쎯tu쎯ip쎯bpf쎯	-10.7711
jn쎯ck쎯	-10.7712
r쎯ce쎯lt쎯	-10.7713
je쎯gr쎯	-10.7716
ftbt쎯tv쎯	-10.7716
dqe쎯	-10.7716
(쎁쎉쎂	-10.7718
gj쎯ip쎯	-10.7718
ynw쎯	-10.7721
eee쎯쎇jjjj쎯	-10.7721
rwyg쎯tf쎯	-10.7723
tcy쎯w쎯	-10.7725
gd쎯qd쎯rnb쎯	-10.7726
nnh쎯gl쎯bpf쎯	-10.7726
tkh쎯.	-10.7727
mds쎯	-10.7732
ai쎯ic쎯	-10.7732
tffu쎯u쎯kkk쎯	-10.7735
egc쎯ta쎯	-10.7736
bm쎯v쎯	-10.774
sh쎯yneg쎯	-10.7741
dnv쎯fqb쎯,pei쎯n쎯	-10.7744
usr쎯g쎯wa쎯	-10.7744
ougo쎯	-10.7745
.ryl쎯ta쎯	-10.7746
wynb쎯jjjj쎯	-10.7748
ntk쎯gf쎯mmm쎯aq쎯	-10.7749
ral쎯syp쎯:	-10.7752
rfc쎯sy쎯ga쎯v쎯aq쎯	-10.7753
wf쎯wf쎯km쎯	-10.7753
yygy쎯wx쎯khgp쎯u쎯	-10.7756
dnv쎯pb쎯	-10.7756
ige쎯ssn쎯	-10.7759
iuj쎯	-10.7762
qrm쎯sfi쎯pfjm쎯	-10.7762
tx쎯쎅	-10.7768
imkf쎯nnh쎯	-10.777
veg쎯	-10.7771
쎂w쎯,	-10.7771
uq쎯cep쎯fcp쎯lwg쎯	-10.7771
jq쎯adwe쎯	-10.7772
uqt쎯js쎯.	-10.7772
a쎯um쎯tp쎯gj쎯	-10.7778
sghg쎯ide쎯	-10.7778
aj쎯wv쎯	-10.7779
jty쎯i	-10.7779
ga쎯fffy쎯	-10.7782
g쎯vt쎯vt쎯	-10.7782
,g쎯wh쎯	-10.7783
k쎯gef쎯rh쎯	-10.7784
i쎯fuf쎯	-10.7784
tx쎯gg쎯nm쎯	-10.7786
bwf쎯lk쎯	-10.7787
wh쎯tf쎯ght쎯sf쎯,	-10.7788
u쎯og쎯wx쎯	-10.7788
,p쎯jfd쎯	-10.7789
쎅쎀쎀dq쎯	-10.7789
akgl쎯dlf쎯	-10.7789
tffu쎯trf쎯hko쎯	-10.7791
dj쎯ya쎯	-10.7793
wds쎯	-10.7794
hka쎯l쎯	-10.7794
eee쎯쎃jjjj쎯	-10.7796
gd쎯rnb쎯	-10.78
r쎯ai쎯sghg쎯	-10.7801
r쎯dr쎯mj쎯	-10.7803
r쎯g쎯ffi쎯	-10.7803
bukn쎯	-10.7803
,쎁쎉쎈쎄rh쎯	-10.7807
mt쎯wsk쎯	-10.7808
w쎯ft쎯fuk쎯udyj쎯	-10.7809
et쎯ax쎯	-10.781
amw쎯rcy쎯	-10.7811
uqw쎯rh쎯	-10.7811
.txg쎯	-10.7815
f쎯wdm쎯	-10.7817
o쎯whf쎯og쎯	-10.782
ipm쎯tkw쎯	-10.782
th쎯ta쎯	-10.782
lkd쎯nn쎯	-10.7823
tda쎯	-10.7823
g쎯uk쎯wv쎯	-10.7825
mq쎯ijo쎯	-10.7828
《》	-10.7829
nxf쎯	-10.7829
rn	-10.7829
qk쎯yngk쎯	-10.7829
jn쎯a쎯	-10.783
yt쎯ny쎯	-10.7831
tg쎯jjjj쎯	-10.7831
iq쎯xft쎯	-10.7836
fje쎯tfpd쎯	-10.7837
iqr쎯	-10.7839
ukn쎯uk쎯wug쎯gf쎯	-10.7839
rpv쎯yssr쎯	-10.7839
ce쎯lt쎯r쎯	-10.784
j쎯et쎯	-10.7843
dh쎯pgk쎯,	-10.7847
u쎯f쎯	-10.7848
,j쎯mh쎯	-10.7848
sp쎯	-10.7849
v쎯nae쎯,	-10.7849
tif쎯	-10.7851
xtu쎯tmd쎯	-10.7851
pfjm쎯gk쎯	-10.7851
fp쎯r쎯	-10.7851
wynk쎯yq쎯	-10.7854
wk쎯pv쎯	-10.7855
zzbd쎯bs쎯	-10.7857
a쎯og쎯aq쎯	-10.7859
sri쎯ym쎯	-10.7861
qi쎯lft쎯	-10.7862
tv쎯km쎯wf쎯tv쎯km쎯,	-10.7862
ygu쎯pg쎯	-10.7862
w쎯,adw쎯k쎯ww쎯gk쎯t	-10.7863
fq쎯xg쎯jn쎯	-10.7864
ujf쎯ktm쎯	-10.7864
l쎯bf쎯sfi쎯uwy쎯	-10.7867
wt쎯bm쎯b쎯	-10.7868
쎀gu쎯yy쎯oy쎯,	-10.7869
ce쎯lt쎯.	-10.7872
dmj쎯ccc쎯	-10.7872
ih쎯veg쎯	-10.7876
fq쎯w쎯	-10.7877
uf쎯nf쎯wsg쎯	-10.788
dga쎯pwv쎯km쎯,	-10.7883
yxl쎯trt쎯	-10.7883
ih쎯gf쎯	-10.7885
zzbd쎯qqqq쎯	-10.7886
쎁쎄쎀쎀	-10.7887
vca쎯e쎯	-10.7889
w쎯d쎯	-10.789
wc쎯n쎯	-10.7892
gj쎯shn쎯r쎯	-10.7892
f쎯nfc쎯	-10.7892
,ggi쎯fuj쎯	-10.7894
cf쎯adw쎯	-10.7895
쎁쎅dq쎯	-10.7895
gajh쎯gk쎯	-10.7896
atd쎯ip쎯wf쎯	-10.7897
sds쎯	-10.79
yo쎯dfy쎯kkd쎯	-10.7901
ghd쎯dm쎯	-10.7902
kthh쎯egc쎯	-10.7904
kcg쎯?	-10.7905
pe쎯et쎯	-10.7907
wg쎯dm쎯r쎯	-10.7908
ywe쎯ick쎯	-10.7909
쎂%	-10.7911
bty쎯	-10.7912
uqt쎯lt쎯	-10.7912
yynw쎯nnh쎯	-10.7912
bk쎯og쎯ftbt쎯yce쎯	-10.7915
ck쎯ux쎯	-10.7915
ta쎯.	-10.7916
adwe쎯wxm쎯	-10.7916
k쎯xe쎯	-10.7918
wsg쎯gm쎯b쎯	-10.7919
fggh쎯uqv쎯	-10.7919
u쎯tg쎯b쎯	-10.7923
gu쎯yy쎯	-10.7923
bwf쎯wrh쎯	-10.7926
ad쎯hich쎯ftbt쎯	-10.7926
r쎯wwj쎯st쎯	-10.7927
ymf쎯ou쎯	-10.7929
qf쎯qyo쎯	-10.793
쎉%	-10.7931
yq쎯tl쎯	-10.7931
trf쎯ta쎯	-10.7932
qtj쎯uu쎯r쎯	-10.7933
j쎯ld쎯o쎯	-10.7935
vfhp쎯ymc쎯r쎯	-10.7936
yft쎯qq쎯	-10.7937
lfn쎯wx쎯	-10.7939
ab쎯jjjj쎯	-10.7939
wy쎯wtf쎯	-10.7943
wwj쎯wfhg쎯.	-10.7948
:쎉	-10.7948
yc쎯wv쎯v쎯rpl쎯	-10.7949
fgh쎯wtu쎯rh쎯	-10.7949
hhhh쎯ue쎯nnnn쎯	-10.7957
pwm쎯	-10.7957
ajf쎯	-10.7958
ipk쎯ukn쎯fc쎯	-10.7958
ipg쎯xcf쎯	-10.7958
ccf쎯	-10.7959
fhn쎯ajj쎯	-10.7963
aqt쎯l쎯pe쎯	-10.7964
k쎯ny쎯,	-10.7965
cf쎯xx쎯	-10.7966
l쎯bf쎯qyv쎯jqr쎯	-10.7969
(c쎯gh쎯tuj쎯tq쎯	-10.797
zzbd쎯ugdu쎯l쎯	-10.7973
uxxn쎯uduk쎯	-10.7973
쎄.쎀	-10.7976
ld쎯bb쎯	-10.7978
rvyl쎯lt쎯	-10.798
yygy쎯nnh쎯	-10.7981
v쎯ugm쎯	-10.7983
ujfj쎯wug쎯,	-10.7983
suh쎯	-10.7985
g쎯dd쎯	-10.7987
〉	-10.7988
udi쎯uce쎯	-10.7989
w쎯fqu쎯	-10.799
cbts쎯tfn쎯	-10.7991
vtdj쎯	-10.7993
pu쎯yk쎯	-10.7995
xg쎯h쎯	-10.7995
p쎯ffi쎯	-10.7998
tuj쎯ifk쎯	-10.7999
dmh쎯lfhf쎯	-10.8
iry쎯nge쎯	-10.8002
bu쎯shn쎯	-10.8003
.쎁쎉쎈쎂rh쎯	-10.8005
ybo쎯qntf쎯	-10.8006
qnqv쎯	-10.8008
ilg쎯	-10.8009
.wv쎯dmh쎯gf쎯	-10.8009
ada쎯	-10.801
wcy쎯e쎯	-10.8011
wvl쎯f쎯	-10.8018
fc쎯uk쎯nnh쎯yn쎯	-10.8018
yi쎯wqj쎯	-10.8023
r쎯ytd쎯	-10.8024
xeg쎯ta쎯	-10.8025
kd쎯ycb쎯	-10.8025
dg쎯qe쎯gae쎯	-10.8025
nh쎯xpw쎯	-10.8025
tqv쎯pg쎯r쎯	-10.8026
nat쎯	-10.8026
gj쎯ywx쎯dga쎯pwv쎯	-10.8026
ga쎯lw쎯	-10.8028
tkh쎯tkh쎯	-10.8029
udb쎯ytyh쎯ymhj쎯	-10.8029
ipg쎯anb쎯	-10.803
lkd쎯ytt쎯	-10.8032
fjh쎯tr쎯h쎯v쎯ge쎯	-10.8035
wh쎯eee쎯	-10.8036
,bn쎯e쎯	-10.8041
a쎯anb쎯kkk쎯	-10.8042
q쎯suq쎯	-10.8045
tffu쎯pei쎯wt쎯tr쎯	-10.8047
r쎯wy쎯thn쎯	-10.8048
gdk쎯	-10.8051
,jcf쎯rf쎯	-10.8052
쎁qg쎯	-10.8053
sk쎯rf쎯xfn쎯v쎯nae쎯	-10.8054
fh쎯xg쎯	-10.8054
tdtf쎯vfhp쎯	-10.8055
lfo쎯ju쎯	-10.8055
t쎯py쎯wf쎯wk쎯buj쎯	-10.8056
sc쎯lt쎯	-10.8057
.wgq쎯vk쎯	-10.8059
toln쎯oi쎯	-10.806
ccc쎯j쎯	-10.8064
dr쎯sg쎯	-10.8065
iytb쎯fmk쎯	-10.8066
vii쎯	-10.8066
jy쎯tfl쎯qfhw쎯	-10.8066
py쎯wf쎯r쎯	-10.8067
,f쎯gj쎯wug쎯lfhf쎯	-10.8069
.쎁쎉쎄쎉rh쎯	-10.8072
kgn쎯dcg쎯	-10.8076
img쎯lll쎯	-10.8079
.kl쎯qh쎯,	-10.8081
tjt쎯qgb쎯	-10.8083
y쎯lw쎯r쎯	-10.8084
bm쎯thgc쎯r쎯	-10.8085
ymhj쎯fnrt쎯h쎯	-10.8087
d쎯jjjj쎯sg쎯	-10.8087
w쎯ntg쎯wx쎯	-10.809
ssm쎯	-10.8092
pp쎯xte쎯	-10.8093
yff쎯yygy쎯	-10.8094
ax쎯et쎯	-10.8094
et쎯yne쎯r쎯	-10.8094
쎆.쎅	-10.8096
gkl쎯ukn쎯x쎯gj쎯	-10.8096
gyt쎯ta쎯	-10.8097
ia쎯ide쎯	-10.8098
wg쎯suq쎯	-10.8098
ntg쎯vb쎯	-10.8099
rnp쎯	-10.8101
sg쎯rfm쎯	-10.8101
uq쎯lwj쎯th쎯	-10.8102
qq쎯nfc쎯	-10.8105
tfl쎯yce쎯	-10.8106
t쎯eb쎯tl쎯	-10.8107
,i쎯fp쎯	-10.8109
udbb쎯,	-10.8109
ftbt쎯ip쎯t쎯	-10.811
ifhw쎯	-10.811
srq쎯	-10.811
xyj쎯	-10.8111
pj쎯sj쎯	-10.8111
g쎯jgf쎯	-10.8112
a쎯tkgg쎯vfhp쎯ymc쎯	-10.8112
gmww쎯ts쎯	-10.8114
qm쎯awsk쎯	-10.8118
ujn쎯ln쎯	-10.8121
puvk쎯	-10.8122
zzbd쎯wbj쎯usr쎯	-10.8125
kkk쎯wug쎯	-10.8126
sw쎯fpx쎯	-10.8126
dga쎯pwv쎯,	-10.8127
ntg쎯utd쎯ugm쎯	-10.8127
(쎂	-10.8128
tha쎯if쎯	-10.8129
,ic쎯ytt쎯,	-10.813
pe쎯w쎯	-10.8131
ymc쎯uu쎯r쎯	-10.8131
zzbd쎯wg쎯l쎯	-10.8133
dj쎯dnv쎯	-10.8134
ub쎯qk쎯	-10.8139
wt쎯mq쎯	-10.8142
doq쎯sgc쎯	-10.8143
fk쎯pyu쎯	-10.8143
vb쎯ygu쎯.	-10.8147
r쎯wug쎯lfhf쎯	-10.8148
me	-10.8148
pj쎯pg쎯	-10.815
qr쎯uthp쎯	-10.815
je쎯gd쎯	-10.815
,vck쎯vfhp쎯gf쎯	-10.8152
.쎁쎉쎉쎃rh쎯	-10.8152
dd쎯gj쎯	-10.8153
hi쎯cbc쎯	-10.8153
nnnn쎯x쎯dn쎯o쎯	-10.8155
/쎁	-10.8156
,wg쎯dm쎯	-10.8156
.쎁쎉쎉쎂rh쎯	-10.8156
qgo쎯thg쎯	-10.8157
lpdk쎯aq쎯mw쎯	-10.8157
rxj쎯bm쎯	-10.8157
쎀쎀ylf쎯,	-10.8158
쎅w쎯	-10.8159
wg쎯l쎯ntg쎯	-10.8159
nnh쎯pgn쎯	-10.816
zzbd쎯irn쎯lg쎯	-10.816
r쎯rn쎯e쎯	-10.8161
l쎯n쎯x쎯iyj쎯	-10.8163
,rh쎯bt쎯ii쎯jg쎯쎁	-10.8163
ipr쎯itx쎯	-10.8163
rqym쎯	-10.8164
qten쎯	-10.8166
wt쎯yygy쎯	-10.8167
iyc쎯fakg쎯	-10.817
uqwk쎯yqj쎯eb쎯tl쎯	-10.8172
flf쎯dp쎯	-10.8173
bc쎯wa쎯	-10.8173
〈	-10.8173
zzbd쎯l쎯pe쎯	-10.8175
rfc쎯anb쎯	-10.8175
ogu쎯	-10.8177
fc쎯iyc쎯	-10.8177
ugdu쎯sy쎯qnp쎯	-10.8177
rwgk쎯	-10.818
xh쎯aqkr쎯	-10.818
w쎯ny쎯	-10.8182
p쎯uqw쎯	-10.8182
sm쎯kkd쎯w쎯	-10.8184
aitl쎯	-10.8184
ihk쎯	-10.8185
fq쎯qc쎯	-10.8187
,kw쎯e쎯	-10.8187
:쎀쎀	-10.819
puhc쎯ygu쎯o쎯“	-10.8192
dr쎯o쎯	-10.8192
vfb쎯su쎯	-10.8194
쎀ypt쎯oy쎯	-10.8197
ad쎯dbm쎯td쎯ykw쎯	-10.8199
cqy쎯oge쎯	-10.8199
qqqq쎯thgf쎯	-10.8201
ipf쎯yaa쎯	-10.8201
tg쎯u쎯lk쎯a쎯	-10.8201
go쎯yu쎯,	-10.8201
sk쎯kkkk쎯	-10.8205
,ad쎯uk쎯	-10.8206
pgy쎯mhny쎯	-10.8208
tfq쎯qtd쎯	-10.8209
rxj쎯nf쎯gh쎯	-10.8209
qmq쎯tp쎯	-10.8212
st쎯nnk쎯	-10.8214
uuj쎯syp쎯	-10.8215
ukn쎯a쎯tkgg쎯jgm쎯	-10.8216
a쎯tkgg쎯zzbd쎯	-10.8226
ii쎯jn쎯	-10.8226
gq쎯lg쎯	-10.8227
pw	-10.8229
ep쎯ny쎯	-10.823
ygu쎯o쎯“	-10.8233
iex쎯egc쎯	-10.8234
zzzy쎯zzzy쎯zzbd쎯	-10.8234
gk쎯nge쎯	-10.8234
tmg쎯ihc쎯	-10.8236
쎁.쎇	-10.8236
w쎯tq쎯	-10.8238
gah쎯ic쎯dd쎯ip쎯	-10.8239
pei쎯sm쎯	-10.8241
sh쎯xx쎯	-10.8241
wdt쎯if쎯	-10.8243
rnp쎯ad쎯sgc쎯	-10.8243
dmjf쎯yssd쎯	-10.8243
ym쎯xe쎯k쎯ip쎯	-10.8247
ga쎯cep쎯	-10.8247
zzbd쎯yygy쎯wx쎯	-10.8249
xg쎯ts쎯	-10.8249
mmgj쎯bwt쎯	-10.8251
eee쎯쎂jjjj쎯	-10.8253
o쎯쎁	-10.8254
gd쎯ipkf쎯	-10.8255
pgc쎯qh쎯	-10.8255
fgjg쎯	-10.826
gn쎯v쎯nae쎯	-10.8261
kma쎯	-10.8262
.rn쎯c쎯	-10.8262
.쎁쎉쎉쎉rh쎯	-10.8263
쎁쎉쎂쎆rh쎯	-10.8266
wqa쎯gf쎯	-10.8266
amd쎯st쎯uff쎯	-10.8267
rte쎯	-10.8268
pwav쎯	-10.827
sm쎯wsg쎯	-10.827
eee쎯쎄jjjj쎯	-10.827
ipkh쎯wygg쎯	-10.8273
pei쎯sf쎯vfhp쎯ymc쎯	-10.8276
amd쎯yygy쎯qk쎯	-10.8281
nnh쎯if쎯pe쎯fl쎯wf쎯	-10.8281
aqq쎯bj쎯	-10.8282
krt쎯isgg쎯	-10.8283
tdkj쎯lt쎯	-10.8286
pyg쎯tjh쎯	-10.8286
sgi쎯”	-10.8287
ndj쎯sg쎯	-10.8287
fwm쎯pg쎯r쎯	-10.829
bm쎯fnrt쎯	-10.829
.쎁쎉쎈쎄rh쎯	-10.8291
svc쎯	-10.8295
.rxj쎯	-10.8296
gef쎯mmm쎯	-10.8297
,dt쎯egl쎯	-10.8297
by쎯ywfw쎯	-10.8302
io쎯ii쎯	-10.8303
iujg쎯	-10.8305
wy쎯wqbh쎯	-10.8308
qk쎯thgf쎯	-10.8309
ygk쎯:	-10.8309
kht쎯gn쎯	-10.8312
ii쎯jn쎯uh쎯	-10.8313
khd쎯fha쎯	-10.8313
kkkk쎯,	-10.8316
vb쎯dc쎯	-10.8316
.쎂쎀쎁쎁rh쎯	-10.8317
,p쎯wh쎯	-10.8319
쎈wc쎯jfd쎯	-10.8324
g쎯uth쎯	-10.8324
,rj쎯waw쎯	-10.833
r쎯qe쎯ya쎯	-10.833
qev쎯un쎯b쎯	-10.833
rmhj쎯tfkp쎯um쎯	-10.8331
iv쎯tfqp쎯	-10.8332
uk쎯y쎯wtf쎯	-10.8337
qwd쎯oanw쎯	-10.8339
bib쎯rep쎯	-10.8339
rymn쎯hka쎯	-10.8339
yqa쎯uk쎯	-10.8341
gcf쎯wynb쎯,	-10.8343
reh쎯e쎯g쎯fc쎯	-10.8345
tfqp쎯yce쎯	-10.8346
;《	-10.8348
cd쎯cm쎯	-10.8348
gqto쎯	-10.8348
ica쎯	-10.8349
khp쎯	-10.8349
ijfg쎯	-10.8351
isk쎯luf쎯	-10.8352
jn쎯pym쎯ndj쎯《	-10.8353
.쎂쎀쎁쎃rh쎯	-10.8357
dga쎯yfy쎯wf쎯	-10.8357
qh쎯fpm쎯	-10.8359
sh쎯sm쎯	-10.8359
rj쎯ym쎯b쎯	-10.8361
ccc쎯kn쎯	-10.8362
g쎯jf쎯	-10.8367
qajf쎯	-10.8369
wbb쎯ylk쎯	-10.8369
dm쎯ue쎯	-10.8369
i쎯epc쎯	-10.8369
awg쎯	-10.8369
ux쎯wmj쎯	-10.837
xq쎯o쎯	-10.837
g쎯xfm쎯	-10.8375
dwiu쎯mmm쎯	-10.8375
pb쎯xgu쎯	-10.8376
yygy쎯sg쎯	-10.8378
ga쎯wbj쎯	-10.8381
쎃.쎂	-10.8383
gkl쎯nnk쎯ta쎯	-10.8383
ytey쎯pt쎯	-10.8384
gq쎯ty쎯	-10.8389
uk쎯ait쎯	-10.8389
lfn쎯tm쎯	-10.8389
eudi쎯	-10.8389
.(쎂)	-10.8389
nty쎯qk쎯o쎯	-10.8391
of쎯	-10.8393
g쎯xeg쎯	-10.8394
v쎯rvyo쎯	-10.8394
oqd쎯	-10.8397
emc쎯ai쎯	-10.8399
sm쎯sa쎯ymc쎯tlf쎯	-10.8401
lp쎯lwj쎯	-10.8404
ynm쎯ey쎯	-10.8404
gj쎯ywx쎯t쎯	-10.8406
buk쎯	-10.8406
aw쎯yf쎯	-10.8407
fq쎯fdm쎯	-10.8407
wc쎯jfd쎯th쎯,	-10.8408
wgkb쎯qk쎯o쎯	-10.8408
itd쎯fcl쎯k쎯	-10.841
ght쎯tv쎯	-10.841
go쎯r쎯	-10.8411
tu쎯sfhg쎯tr쎯	-10.8412
jhnr쎯qie쎯	-10.8412
dwy쎯	-10.8413
wycm쎯pum쎯	-10.8413
ua쎯ty쎯	-10.8413
dmj쎯tj쎯qk쎯.	-10.8414
c쎯ux쎯	-10.8415
jgm쎯dd쎯	-10.8415
쎀쎀쎀쎀	-10.8415
gm쎯wa쎯wx쎯r쎯	-10.8418
.’”	-10.8418
trf쎯hko쎯j쎯	-10.8419
wgj쎯j쎯	-10.8419
usg쎯tgj쎯	-10.8421
wb쎯j쎯	-10.8422
q쎯ymhj쎯	-10.8423
siq쎯awx쎯	-10.8424
gik쎯	-10.8427
qtoy쎯	-10.8428
r쎯ym쎯tu쎯rfc쎯	-10.8431
pg쎯nd쎯	-10.8432
쎂쎀wv쎯qkhh쎯	-10.8436
pp쎯qh쎯	-10.8437
aig쎯eajd쎯	-10.8438
usr쎯w쎯	-10.8439
ftjb쎯d쎯	-10.8443
qq쎯uqw쎯cd쎯lk쎯	-10.8443
aqt쎯ith쎯	-10.8444
whf쎯og쎯yygy쎯wx쎯	-10.8446
sk쎯yle쎯	-10.8447
puj쎯	-10.845
wt쎯yngk쎯	-10.8451
trf쎯e쎯r쎯	-10.8451
um쎯lud쎯	-10.8451
tkh쎯sfhg쎯ii쎯tev쎯	-10.8452
r쎯ny쎯	-10.8453
fad쎯tq쎯	-10.8453
mee쎯	-10.8453
ruj쎯	-10.8454
xv쎯qc쎯,	-10.8465
h쎯jmd쎯	-10.8466
f쎯src쎯	-10.8467
akgn쎯	-10.8469
kw쎯fdm쎯	-10.8472
gn쎯adw쎯	-10.8473
wv쎯int쎯	-10.8475
fd쎯ud쎯	-10.8479
isf쎯ypm쎯	-10.8479
aqk쎯og쎯	-10.8483
쎁쎈쎄	-10.8483
ugm쎯zzbd쎯	-10.8484
txi쎯xyc쎯,	-10.8487
wxf쎯gmy쎯	-10.8489
rawk쎯vfhp쎯	-10.849
wdt쎯dn쎯	-10.8491
tgv쎯	-10.8493
dga쎯pwv쎯yy쎯tm쎯	-10.8497
rc쎯jmd쎯b쎯	-10.8498
fnrt쎯h쎯	-10.8498
h쎯an쎯xn쎯	-10.8501
wv쎯bb쎯jg쎯	-10.8501
mmm쎯h쎯	-10.8503
iit쎯iaj쎯	-10.8505
,bn쎯sk쎯c쎯	-10.8505
ngk쎯wyc쎯	-10.8506
y쎯s쎯qn쎯rtd쎯	-10.8507
yu쎯je쎯nnh쎯	-10.8507
suj쎯	-10.851
bwff쎯	-10.8518
jty쎯ysi쎯a쎯wt쎯	-10.8519
,e쎯jf쎯	-10.852
쎁쎉쎉쎅	-10.852
mmm쎯sdm쎯	-10.8521
gkl쎯ymhj쎯ta쎯	-10.8523
kha쎯yb쎯sf쎯tv쎯wf쎯	-10.8527
kht쎯dm쎯	-10.8529
ogm쎯	-10.8529
itx쎯fakg쎯	-10.8533
.쎁쎈	-10.8535
:‘	-10.8538
uy쎯fgh쎯	-10.8539
tfkp쎯xqa쎯	-10.8542
cds쎯fghg쎯	-10.8543
gk쎯pu쎯	-10.8543
isgg쎯kc쎯	-10.8543
pe쎯fl쎯wf쎯gj쎯gk쎯	-10.8544
j쎯wg쎯l쎯	-10.8546
mmm쎯sf쎯	-10.8552
.쎁쎉쎉쎅rh쎯	-10.8553
qmq쎯src쎯	-10.8553
kkkk쎯eb쎯	-10.8553
ymhj쎯fnrt쎯x쎯iyj쎯	-10.8555
hjj쎯fha쎯r쎯	-10.8555
쎉kgn쎯	-10.8557
fny쎯og쎯ip쎯nu쎯	-10.8557
jmhn쎯	-10.8559
sghg쎯ic쎯	-10.8559
sgn쎯ou쎯	-10.8561
zzbd쎯ws쎯usi쎯	-10.8561
waj쎯jtyq쎯	-10.8562
nfi쎯	-10.8564
pfq쎯tlf쎯	-10.8566
g쎯yy쎯	-10.8566
sbb쎯	-10.8568
쎃/	-10.8568
zzsx쎯쎃	-10.857
wgk쎯wt쎯py쎯	-10.8571
thgc쎯)	-10.8575
《kq쎯yn쎯	-10.8577
be쎯bj쎯	-10.8578
pe쎯jn쎯	-10.858
alw쎯ytyh쎯ymhj쎯	-10.858
,wgkq쎯tj쎯	-10.858
gj쎯mf쎯	-10.8581
dd쎯uqd쎯	-10.8581
mqq쎯j쎯	-10.8583
wgj쎯gf쎯	-10.8585
um쎯ip쎯bpf쎯	-10.8585
rrr쎯qc쎯,	-10.8587
쎉쎀%	-10.8589
yxt쎯	-10.8589
yao쎯	-10.859
wv쎯od쎯:ltu쎯nnh쎯>	-10.859
xx쎯pfjm쎯k쎯	-10.8595
waj쎯egl쎯	-10.8595
rkm쎯pd쎯	-10.8596
yi쎯yfn쎯	-10.8597
,ryl쎯ta쎯	-10.8598
ylf쎯;e쎯ss쎯f쎯	-10.8598
,bwt쎯	-10.8601
tg쎯u쎯ce쎯lt쎯	-10.8602
tfkd쎯rp쎯	-10.8603
rmhj쎯yjjh쎯	-10.8605
ue쎯adwe쎯	-10.8606
tmo쎯fcp쎯	-10.8606
yfj쎯rep쎯	-10.8608
fny쎯pe쎯,	-10.8609
s쎯hko쎯	-10.8611
hka쎯fnrt쎯	-10.8611
j쎯g쎯sg쎯	-10.8611
tkw쎯lx쎯b쎯dh쎯pgk쎯	-10.8612
ywfw쎯qnj쎯	-10.8612
rj쎯qk쎯	-10.8613
vtg쎯qk쎯	-10.8613
kftj쎯	-10.8613
jf쎯uj쎯mw쎯	-10.8615
e쎯g쎯pg쎯	-10.8615
synw쎯tha쎯	-10.8616
,dqe쎯wk쎯	-10.8616
r쎯kkk쎯thgf쎯	-10.8618
xn쎯vi쎯	-10.8619
qynm쎯h쎯	-10.8619
쎃.쎃	-10.862
yy쎯gae쎯	-10.862
saq쎯xnf쎯	-10.8621
m쎯tf쎯og쎯	-10.8622
gf쎯쎂쎀쎀쎉rh쎯	-10.8622
ygk쎯yyy쎯ip쎯	-10.8623
pw쎯rrr쎯	-10.8625
d쎯adw쎯	-10.8629
tgj쎯wht쎯	-10.8629
sksw쎯kjj쎯	-10.8629
”tq쎯kgn쎯.	-10.8632
nj쎯nj쎯	-10.8633
adj쎯tvfh쎯pr쎯	-10.8634
uqd쎯,	-10.8634
wy쎯thn쎯txi쎯xyc쎯	-10.8634
gg쎯wa쎯	-10.8635
i쎯yv쎯	-10.8636
(adw쎯k쎯	-10.8636
ta쎯r쎯	-10.8637
sf쎯mw쎯	-10.8638
쎁쎀쎆	-10.8639
udrc쎯	-10.8639
jgm쎯ww쎯	-10.864
afie쎯	-10.864
dm쎯qn쎯	-10.8644
epqh쎯	-10.8644
awx쎯xyy쎯	-10.8644
fk쎯wb쎯	-10.8647
쎁쎅wv쎯qkhh쎯	-10.8648
.쎁쎉쎈쎅rh쎯	-10.8649
쎈쎀rh쎯wa쎯	-10.8651
sm쎯sa쎯rmhj쎯tfkp쎯	-10.8653
awx쎯ycb쎯	-10.8655
adwe쎯tffy쎯	-10.8655
tmf쎯	-10.8658
hndm쎯	-10.8658
,rpv쎯	-10.8659
wf쎯rn쎯	-10.8659
oat쎯ga쎯	-10.8661
pwfd쎯	-10.8663
d쎯suq쎯	-10.8664
rdjn쎯	-10.8668
it쎯qt쎯	-10.8668
bukn쎯je쎯	-10.8668
go쎯idr쎯gf쎯	-10.8669
wy쎯yyn쎯	-10.867
mb쎯sfiu쎯	-10.8671
aqkf쎯	-10.8672
mfc쎯	-10.8672
jf쎯pw쎯	-10.8674
gn쎯adw쎯wb쎯	-10.8674
vcl쎯	-10.8675
xeg쎯xeg쎯ta쎯	-10.8678
it쎯uqf쎯	-10.8678
wgk쎯ec쎯ymhj쎯	-10.8678
ith쎯tv쎯ipk쎯suq쎯	-10.8682
ukn쎯wf쎯	-10.8682
tem쎯r쎯	-10.8683
rg쎯d쎯	-10.8683
thhh쎯	-10.8684
》)	-10.8685
r쎯wt쎯et쎯.	-10.8685
dd쎯ip쎯ip쎯dl쎯,	-10.8686
ddh쎯	-10.8687
ii쎯jg쎯	-10.8688
mm	-10.8688
fm쎯wmj쎯	-10.8689
wfl쎯	-10.869
쎀*	-10.8692
pp쎯uthp쎯	-10.8692
uuk쎯jtyq쎯pgc쎯	-10.8692
.쎁쎉쎉쎇rh쎯	-10.8693
eb쎯et쎯	-10.8693
vk쎯gh쎯	-10.8696
ajd쎯adwr쎯tu쎯	-10.8701
kuq쎯	-10.8701
qkk쎯wgk쎯qqqq쎯	-10.8702
rmn쎯bqv쎯	-10.8704
tgj쎯xeg쎯	-10.8706
ym쎯xe쎯bk쎯tq쎯	-10.8706
ukn쎯yne쎯ovt쎯	-10.8708
r쎯jb쎯wffg쎯	-10.8708
fq쎯sm쎯	-10.8709
.쎁.	-10.8711
bgu쎯	-10.8713
awj쎯	-10.8715
hv쎯tu쎯	-10.8717
.쎁쎉쎈쎈rh쎯	-10.8718
qo쎯	-10.872
ai쎯mq쎯	-10.8721
mfk쎯rh쎯	-10.8722
.쎁쎉쎉쎆rh쎯	-10.8724
ip쎯bpf쎯ftbt쎯rep쎯	-10.8724
jh쎯d쎯	-10.8726
sksw쎯yngk쎯	-10.8728
쎅쎀%	-10.8728
,tdp쎯wgk쎯	-10.8729
vfhp쎯ymc쎯,	-10.8729
lwx쎯eck쎯	-10.8729
ugm쎯yo쎯	-10.873
쎁쎉쎉쎈	-10.8731
pfq쎯ugdu쎯r쎯	-10.8731
dnv쎯adw쎯	-10.8732
r쎯wfny쎯xyc쎯	-10.8733
rvl쎯	-10.8733
,gm쎯nnnn쎯	-10.8735
ae쎯qde쎯	-10.8736
yid쎯iv쎯	-10.8737
tffu쎯qq쎯	-10.8738
rryf쎯	-10.8741
oqdo쎯rnb쎯	-10.8745
adwl쎯rpws쎯	-10.8746
tu쎯tv쎯	-10.8747
rua쎯ujf쎯	-10.8748
tve쎯ym쎯r쎯	-10.875
,쎂쎀쎀쎄rh쎯	-10.8751
yth쎯	-10.8752
ue쎯qtd쎯	-10.8754
qk쎯iwyf쎯	-10.8755
r쎯hhhh쎯r쎯	-10.8756
wht쎯ys쎯	-10.8757
,tq쎯o쎯	-10.8757
wycm쎯nf쎯gh쎯	-10.8762
.bm쎯th쎯:	-10.8762
r쎯mqq쎯xtk쎯	-10.8763
yoj쎯	-10.8765
쎂쎀wtu쎯	-10.8767
rfc쎯sy쎯r쎯	-10.8768
cf쎯rt쎯	-10.877
nudu쎯fnud쎯	-10.8771
ba쎯gq쎯	-10.8774
g쎯ya쎯	-10.878
l쎯ygk쎯	-10.8783
k쎯l쎯wfny쎯xyc쎯	-10.8783
r쎯dn쎯xgm쎯	-10.8785
,txg쎯rh쎯	-10.8787
qtjh쎯bb쎯	-10.8787
wfi쎯pynn쎯	-10.8789
wycm쎯nf쎯w쎯	-10.8792
an	-10.8794
ip쎯sy쎯uq쎯iyc쎯	-10.8795
dga쎯pwv쎯.	-10.8799
쎀.쎉	-10.8802
ux쎯dm쎯	-10.8802
tk쎯e쎯	-10.8804
m쎯jf쎯bn쎯	-10.8805
r쎯gj쎯ywx쎯	-10.8805
ybv쎯xan쎯	-10.8806
zzbd쎯um쎯tl쎯	-10.8807
gmap쎯gc쎯	-10.8808
ajdl쎯	-10.881
jfc쎯tg쎯	-10.8812
r쎯wgk쎯wt쎯ud쎯txi쎯	-10.8813
qq쎯uk쎯	-10.8822
nir쎯	-10.8823
ta쎯tgh쎯	-10.8824
x쎯qie쎯um쎯	-10.8827
g쎯mhg쎯	-10.8827
cep쎯wwwk쎯	-10.8827
rmhj쎯wt쎯r쎯	-10.8828
jo쎯tj쎯	-10.8832
xfg쎯	-10.8836
”pb쎯	-10.8837
rbcc쎯wqj쎯sm쎯	-10.8838
jo쎯fi쎯kkd쎯	-10.8839
gm쎯d쎯r쎯	-10.8839
tdkj쎯ce쎯wx쎯	-10.8841
p쎯od쎯	-10.8841
r쎯fdm쎯s쎯	-10.8843
ymc쎯yf쎯t쎯	-10.8843
lh쎯yy쎯	-10.8844
wk쎯wht쎯	-10.8852
sdy쎯	-10.8856
lwj쎯r쎯	-10.8858
yt쎯yca쎯	-10.8858
aft쎯tq쎯	-10.8859
ytyh쎯aq쎯	-10.886
rqcf쎯	-10.886
쎃djfd쎯oy쎯	-10.8862
rfm쎯jg쎯tx쎯g쎯	-10.8863
qit쎯	-10.8864
fp쎯txgt쎯	-10.8866
aa쎯r쎯	-10.8867
big쎯	-10.8868
rab쎯	-10.8869
wt쎯kkk쎯.	-10.8871
iy쎯mm쎯ge쎯	-10.8873
vtg쎯qa쎯	-10.8876
uy쎯wh쎯	-10.8876
stx쎯awx쎯	-10.8877
i쎯mqb쎯	-10.8878
ugm쎯gj쎯	-10.8879
mtr쎯	-10.888
lcc쎯	-10.8881
ghd쎯aa쎯dn쎯uu쎯	-10.8881
a쎯tkgg쎯ymc쎯yf쎯	-10.8884
adef쎯aynr쎯	-10.8885
alw쎯aq쎯	-10.8888
,vfb쎯	-10.8888
go쎯jn쎯	-10.8889
py쎯wf쎯ip쎯	-10.889
pwf쎯mqb쎯	-10.8892
fj쎯wx쎯	-10.8897
w쎯cd쎯	-10.8897
mt쎯rh쎯	-10.8898
udi쎯,	-10.8899
;qm쎯gmu쎯	-10.89
vfhp쎯ymc쎯t쎯	-10.89
k쎯adwe쎯	-10.8901
cw쎯ya쎯	-10.8902
da쎯dk쎯.	-10.8902
,bde쎯	-10.8905
wdn쎯fha쎯,	-10.8906
쎂.쎆	-10.8906
shn쎯s쎯	-10.8907
i쎯qaj쎯	-10.8908
m쎯ujn쎯	-10.8909
쎀oy쎯,rh쎯gu쎯fqu쎯	-10.8909
dd쎯dd쎯	-10.8909
tu쎯rfc쎯wbj쎯usr쎯	-10.8909
쎉쎅%	-10.891
ith쎯uthp쎯	-10.891
ooo쎯eve쎯	-10.8912
pum쎯	-10.8916
tp쎯gj쎯ip쎯bpf쎯	-10.8916
fnrt쎯h쎯wug쎯lfhf쎯	-10.8918
xe쎯a쎯tkgg쎯jgm쎯.	-10.8918
cbj쎯c쎯	-10.8922
puhc쎯tq쎯o쎯“	-10.8923
,p쎯su쎯	-10.8924
de쎯m쎯	-10.8925
trf쎯zzbd쎯	-10.8925
,vii쎯ntk쎯gf쎯	-10.8926
rnf쎯	-10.8928
uwyc쎯ii쎯	-10.8928
bs쎯ru쎯wr쎯	-10.8928
ytf쎯sk쎯ygh쎯	-10.8929
tx쎯g쎯qk쎯	-10.893
wxj쎯mmm쎯	-10.893
ukqb쎯rfc쎯	-10.8933
amw쎯mmm쎯	-10.8935
mq쎯sm쎯	-10.8935
u쎯wfhg쎯	-10.8936
jff쎯	-10.8939
gr쎯itx쎯	-10.894
rfw쎯wvm쎯	-10.894
i쎯peg쎯	-10.8941
n쎯www쎯	-10.8941
쎁-쎂	-10.8942
rrp쎯	-10.8944
p쎯wug쎯	-10.8944
wgej쎯	-10.8944
쎁쎁쎂	-10.8945
r쎯tp쎯gj쎯	-10.8945
j쎯g쎯pe쎯c쎯	-10.8946
wxj쎯mmm쎯ymhj쎯	-10.8948
쎈쎀쎀쎀	-10.8949
쎃w쎯,	-10.8953
me쎯tu쎯	-10.8953
jb쎯usr쎯r쎯	-10.8955
ny쎯k쎯	-10.8956
nty쎯tq쎯	-10.8958
gqx쎯rg쎯	-10.896
쎁gmww쎯,	-10.896
.”(쎂).	-10.8961
iry쎯v쎯	-10.8963
ile쎯	-10.8964
ga쎯es쎯	-10.8965
w쎯,k쎯aw쎯ipk쎯km쎯,	-10.8966
ww쎯ih쎯	-10.897
쎈%	-10.897
쎂쎀%	-10.8972
mw쎯pww쎯qn쎯rtd쎯	-10.8972
cbts쎯lqw쎯	-10.8973
ydx쎯	-10.8974
iry쎯gxi쎯	-10.8976
aje쎯	-10.8977
g쎯pg쎯s쎯	-10.8979
쎃adm쎯	-10.8981
.kj쎯qd쎯	-10.8981
(wys쎯lft쎯)	-10.8982
rn쎯et쎯	-10.8985
xte쎯wug쎯gf쎯	-10.8986
r쎯dga쎯v쎯	-10.8987
iyjh쎯jtyq쎯kkd쎯	-10.899
lft쎯mqc쎯	-10.8991
cf쎯ytd쎯	-10.8991
fwm쎯ujj쎯	-10.8994
wtc쎯syp쎯	-10.8995
udv쎯	-10.8996
eee쎯쎂쎉jjjj쎯	-10.8997
mgu쎯wwk쎯	-10.8997
age쎯lll쎯	-10.8997
xuq쎯	-10.8999
o쎯nf쎯tm쎯	-10.9003
uf쎯rh쎯	-10.9005
pv쎯lfhf쎯	-10.9008
rf쎯e쎯	-10.9008
k쎯l쎯w쎯n쎯dd쎯ip쎯	-10.9008
srg쎯ss쎯	-10.9008
xft쎯	-10.9009
gf쎯쎂쎀쎀쎅rh쎯	-10.9012
gf쎯쎂쎀쎀쎈rh쎯	-10.9014
iwg쎯yoo쎯	-10.9015
pnt쎯wys쎯	-10.9015
tg쎯dyn쎯ggi쎯fuj쎯	-10.9015
),pyg쎯vfhp쎯ith쎯	-10.9015
qv쎯bc쎯	-10.9018
dgtg쎯udi쎯	-10.9018
^	-10.9018
vq쎯pynn쎯	-10.9018
wf쎯wf쎯ta쎯	-10.9021
uwy쎯mj쎯	-10.9021
uqwm쎯idr쎯,	-10.9022
apw쎯	-10.9024
hk쎯f쎯쎁	-10.9026
o쎯hx쎯	-10.9026
rb쎯》zzbd쎯《	-10.9027
,sghg쎯gn쎯	-10.9028
cf쎯dm쎯	-10.9028
ovt쎯wfhg쎯	-10.9028
f쎯eerq쎯	-10.9029
ifp쎯itx쎯	-10.903
>>	-10.9031
ud쎯txi쎯.	-10.9031
,ux쎯gn쎯	-10.9034
sjx쎯	-10.9037
kml쎯ujj쎯	-10.9037
fajv쎯	-10.9038
,yge쎯	-10.9038
ak쎯j쎯	-10.9038
쎅kgn쎯	-10.9038
r쎯g쎯hxf쎯	-10.9043
쎂oy쎯	-10.9044
,m쎯jf쎯bn쎯	-10.9045
쎂쎀쎀dq쎯	-10.9047
tg쎯wx쎯	-10.9047
ujqn쎯	-10.9047
wycb쎯rp쎯	-10.9047
f쎯rvyl쎯	-10.9047
hhhh쎯r쎯j쎯	-10.9048
v쎯tf쎯r쎯	-10.9049
yc쎯jn쎯kkd쎯	-10.905
gm쎯adnt쎯	-10.905
fad쎯	-10.9052
sf쎯qfhw쎯	-10.9052
g쎯su쎯r쎯	-10.9053
sk쎯pww쎯xmw쎯	-10.9056
r쎯g쎯pe쎯	-10.9057
gog쎯rvyo쎯gkp쎯	-10.9057
adwl쎯	-10.9057
ux쎯dd쎯	-10.9059
pjm쎯	-10.9059
ywx쎯syp쎯	-10.9061
w쎯pe쎯	-10.9062
twik쎯	-10.9065
fffy쎯vfhp쎯	-10.9065
g쎯uyh쎯	-10.9066
thd쎯ick쎯ytyh쎯	-10.9068
qtr쎯	-10.9068
쎂/	-10.9069
vd쎯vyv쎯	-10.907
dr쎯ou쎯:	-10.9072
ll쎯bynw쎯	-10.9077
fku쎯cqw쎯r쎯	-10.9081
,tjh쎯et쎯	-10.9082
qgu쎯ugdu쎯	-10.9082
ry쎯xt쎯	-10.9086
yc쎯khu쎯	-10.9086
쎁/쎃	-10.9086
tfq쎯fj쎯ii쎯gu쎯	-10.909
d쎯p쎯wh쎯	-10.909
쎆kgn쎯	-10.909
vvv쎯y쎯qe쎯	-10.9092
쎂dq쎯	-10.9092
쎄w쎯	-10.9092
hpgh쎯	-10.9093
rfc쎯sy쎯dga쎯pwv쎯	-10.9097
sghg쎯gog쎯	-10.9099
gd쎯yygy쎯	-10.91
ip쎯txi쎯	-10.91
r쎯dr쎯ld쎯	-10.91
pp쎯tq쎯	-10.9101
iss쎯cnh쎯	-10.9102
쎁쎀wc쎯jfd쎯	-10.9104
,쎂쎀쎀쎅rh쎯	-10.9105
tfk쎯jfd쎯	-10.9105
,wgq쎯vk쎯	-10.9106
pp쎯k쎯,	-10.9108
sgn쎯udp쎯	-10.911
wsg쎯wf쎯	-10.911
ue쎯go쎯	-10.9112
ue쎯tmd쎯j쎯	-10.9114
,ftjb쎯	-10.9117
oge쎯yv쎯	-10.9118
.쎁쎉쎉쎄rh쎯	-10.912
,nty쎯	-10.9121
,e쎯r쎯	-10.9122
;d쎯	-10.9125
g쎯uf쎯	-10.9126
gkih쎯yjj쎯	-10.9126
ukh쎯pwd쎯	-10.9127
cf쎯yid쎯	-10.9132
ip쎯bpf쎯bpf쎯ta쎯	-10.9133
tcy쎯uu쎯	-10.9134
fm쎯cep쎯	-10.9136
xwv쎯	-10.9136
if쎯jgm쎯	-10.9137
.”yvh쎯	-10.9142
gf쎯쎂쎀쎁쎀rh쎯	-10.9144
thc쎯hx쎯	-10.9144
tffu쎯qq쎯adm쎯	-10.9144
쎁쎃쎅	-10.9145
wjm쎯wqj쎯	-10.9147
itf쎯fggh쎯uqv쎯	-10.9149
dg쎯mgu쎯	-10.9154
ddu쎯yny쎯	-10.9154
(xq쎯	-10.9155
rfc쎯sy쎯ga쎯v쎯	-10.9156
,쎁쎉쎉쎈rh쎯	-10.9159
xeg쎯dn쎯km쎯	-10.916
i쎯fdm쎯s쎯	-10.9166
dty쎯xte쎯	-10.9166
gip쎯s쎯	-10.9166
ck쎯,	-10.9168
쎇eee쎯xxf쎯og쎯gf쎯	-10.9169
rfc쎯sy쎯fc쎯rf쎯	-10.9169
umc쎯	-10.917
h쎯ymhj쎯wc쎯ngk쎯	-10.917
j쎯rxj쎯d쎯	-10.917
bn쎯ce쎯	-10.9172
sg쎯udh쎯“	-10.9178
alw쎯xwy쎯fct쎯	-10.9178
vi쎯rmhj쎯	-10.918
gq쎯o쎯	-10.9181
tffu쎯mw쎯pww쎯	-10.9181
mw쎯f쎯	-10.9181
gd쎯pw쎯	-10.9183
rcbs쎯	-10.9184
fny쎯wtf쎯	-10.9184
r쎯iytb쎯ca쎯	-10.9184
ip쎯dga쎯pwv쎯	-10.9185
ide쎯ir쎯	-10.9188
쎂.쎇	-10.9188
wc쎯ngk쎯wug쎯gf쎯	-10.9189
egi쎯	-10.9189
ii쎯rfm쎯	-10.9193
,쎂쎀쎀쎃rh쎯	-10.9193
dnv쎯jfd쎯	-10.9193
,tg쎯gf쎯	-10.9194
ycb쎯gq쎯	-10.9195
sf쎯n쎯ih쎯xeg쎯	-10.9195
l쎯pe쎯t쎯f쎯aq쎯	-10.9196
dd쎯lpk쎯ymhj쎯	-10.9196
ige쎯bwt쎯	-10.9197
rtfj쎯	-10.9198
wa쎯ge쎯dd쎯wf쎯	-10.9198
gkl쎯dga쎯pwv쎯km쎯	-10.92
pu쎯tl쎯	-10.9202
wa쎯ge쎯ntg쎯	-10.9203
uqwn쎯kkd쎯	-10.9203
mb쎯jn쎯	-10.9205
rg쎯ld쎯	-10.9206
f쎯qk쎯	-10.9208
wk쎯ryn쎯ujfj쎯wug쎯	-10.9208
쎁쎀쎂쎄	-10.9209
j쎯sve쎯rnd쎯	-10.9212
wvd쎯v쎯	-10.9214
yy쎯dm쎯,	-10.9216
tu쎯dga쎯yjs쎯jghm쎯	-10.922
dmj쎯yyy쎯	-10.9222
djfd쎯oy쎯.	-10.9223
ny쎯nge쎯	-10.9224
k쎯jb쎯	-10.9225
egc쎯tv쎯ipkh쎯tv쎯	-10.9227
b쎯ytf쎯qq쎯	-10.9228
dgv쎯elw쎯	-10.923
oug쎯bb쎯	-10.923
tnb쎯	-10.9231
yygy쎯kq쎯	-10.9231
tx쎯uy쎯nm쎯	-10.9233
,px쎯wu쎯	-10.9234
bm쎯gm쎯b쎯	-10.9234
,cd쎯gn쎯	-10.9235
,cd쎯lk쎯	-10.9235
ige쎯rvyo쎯	-10.9236
tg쎯u쎯dgt쎯pe쎯	-10.9237
lu쎯vb쎯r쎯	-10.9237
ymhj쎯tv쎯zzbd쎯	-10.9238
pfjm쎯tb쎯	-10.9241
()r쎯	-10.9242
rnb쎯rfm쎯	-10.9242
sgye쎯	-10.9242
r쎯x쎯cwg쎯	-10.9246
쎃.쎆	-10.925
쎀쎀wc쎯jfd쎯	-10.9254
fffy쎯uft쎯	-10.9254
sk쎯ep쎯	-10.9257
dr쎯sft쎯ou쎯	-10.9259
qtk쎯	-10.926
ywx쎯》	-10.9262
fuj쎯lwj쎯	-10.9263
qgu쎯je쎯	-10.9264
tr쎯gj쎯ip쎯	-10.9265
wyf쎯tlf쎯	-10.9268
sfi쎯uwy쎯r쎯	-10.9269
쎁gmww쎯	-10.9269
r쎯dty쎯gk쎯.	-10.927
kru쎯	-10.927
apl쎯tl쎯	-10.9271
a쎯ip쎯	-10.9273
yem쎯	-10.9274
bb쎯pk쎯	-10.9277
ua쎯djd쎯	-10.9278
pe쎯yfd쎯	-10.9278
gkp쎯go쎯r쎯	-10.928
ugm쎯rrp쎯	-10.928
ui쎯tsh쎯	-10.928
hhu쎯ru쎯	-10.9281
sdm쎯uk쎯	-10.9281
thg쎯zzbd쎯	-10.9281
쎅.쎀	-10.9282
.l쎯ffff쎯dm쎯tkw쎯	-10.9282
dga쎯pwv쎯yy쎯tm쎯o쎯	-10.9285
sksw쎯rlg쎯	-10.9285
;zzy쎯	-10.9286
xl쎯ta쎯	-10.9288
e쎯uqt쎯f쎯	-10.9289
usr쎯lh쎯pl쎯	-10.9289
.cf쎯gf쎯	-10.929
fq쎯ywx쎯j쎯	-10.9292
wye쎯gkim쎯	-10.9292
r쎯jb쎯usr쎯	-10.9293
쎄zzsx쎯	-10.9295
std쎯qfhw쎯	-10.9295
,fm쎯gn쎯	-10.9298
mqq쎯xtk쎯apk쎯qie쎯	-10.9301
yid쎯lt쎯	-10.9301
gkl쎯wf쎯ta쎯	-10.9303
rqb쎯	-10.9308
sk쎯pym쎯	-10.9308
ts쎯,	-10.9309
qmq쎯xf쎯sq쎯	-10.9309
g쎯uh쎯aa쎯	-10.931
isgg쎯yhk쎯wug쎯gf쎯	-10.931
d쎯g쎯wh쎯	-10.9311
g쎯lp쎯	-10.9312
an쎯lwj쎯dd쎯hka쎯	-10.9313
wgkq쎯adw쎯	-10.9314
lqw쎯wrh쎯ga쎯v쎯	-10.9314
tg쎯yce쎯adwe쎯	-10.9315
dmj쎯tj쎯qk쎯	-10.9316
dx쎯uyh쎯	-10.9318
ssss쎯rfm쎯	-10.9319
mmv쎯qt쎯	-10.932
pwf쎯	-10.9322
gkl쎯uk쎯ta쎯	-10.9322
txg쎯eb쎯	-10.9323
쎂djfd쎯oy쎯	-10.9325
wf쎯gkl쎯wf쎯ta쎯	-10.9325
scbk쎯	-10.9325
wc쎯rtt쎯,	-10.9326
thp쎯xfn쎯	-10.9329
rvy쎯og쎯	-10.933
rgw쎯lft쎯	-10.9331
sm쎯xeg쎯	-10.9333
bg쎯iww쎯	-10.9333
ii쎯uwy쎯	-10.9334
v쎯gm쎯b쎯	-10.9336
lk쎯ii쎯	-10.9337
wty쎯qe쎯	-10.9337
adh쎯	-10.9337
,ak쎯ftj쎯	-10.9338
rmhj쎯r쎯	-10.9338
lk쎯a쎯zzbd쎯	-10.9339
dl쎯kq쎯yygy쎯wx쎯	-10.9339
gad쎯	-10.934
pp쎯jtg쎯	-10.9341
rh쎯lc쎯w쎯	-10.9342
pp쎯rn쎯	-10.9344
tol쎯alkf쎯	-10.9345
dd쎯ej쎯	-10.9345
ux쎯itx쎯	-10.9345
tdg쎯adwe쎯	-10.9346
kkks쎯ujf쎯	-10.9347
ip쎯ipkf쎯	-10.935
sk쎯ce쎯j쎯	-10.935
ywwf쎯gf쎯	-10.9351
xyy쎯qnth쎯	-10.9351
rng쎯	-10.9353
qev쎯yt쎯rg쎯	-10.9354
(쎁쎉쎃	-10.9355
dl쎯kq쎯whtn쎯qy쎯	-10.9356
yw쎯td쎯	-10.9356
fgig쎯	-10.9357
iry쎯ddnl쎯	-10.9359
thd쎯qd쎯tu쎯ip쎯	-10.936
cf쎯jvko쎯	-10.936
sgn쎯ddu쎯ymc쎯ytb쎯	-10.9361
gjq쎯e쎯	-10.937
gu쎯jf쎯	-10.9373
cqy쎯mww쎯	-10.9373
tf쎯,	-10.9376
yygy쎯wys쎯	-10.9376
vpq쎯	-10.9379
쎁쎆쎈	-10.938
usgd쎯pg쎯b쎯	-10.938
jjjj쎯rb쎯》	-10.9382
,et쎯gf쎯	-10.9382
dm쎯tkw쎯쎃	-10.9383
sksw쎯ndj쎯	-10.9384
tjt쎯vs쎯r쎯	-10.9385
(g쎯)	-10.9386
dyt쎯ysi쎯	-10.9389
wyn쎯fhw쎯	-10.9389
bmg쎯yge쎯	-10.9391
wo쎯wuf쎯	-10.9393
qqqq쎯mmm쎯	-10.9393
wwf쎯sfi쎯	-10.9394
sjs쎯	-10.9396
,dnv쎯adw쎯	-10.9396
wup쎯	-10.9396
,gm쎯d쎯uqt쎯lt쎯gf쎯	-10.9396
kht쎯kkkk쎯	-10.9404
xn쎯tv쎯	-10.9404
uk쎯gkl쎯uk쎯ta쎯	-10.9405
pj쎯ugdu쎯	-10.9407
whf쎯og쎯wys쎯lft쎯	-10.9408
yss쎯sgy쎯	-10.9408
ooo쎯lg쎯	-10.941
mq쎯ii쎯	-10.941
dgkf쎯yny쎯	-10.9411
vfhp쎯tam쎯ymc쎯yf쎯	-10.9411
ee	-10.9411
you쎯e쎯	-10.9412
oqm쎯	-10.9413
wsg쎯gajf쎯	-10.9414
sx쎯	-10.9415
rajd쎯	-10.942
rh쎯uj쎯,	-10.942
wsg쎯txi쎯,	-10.9421
adnt쎯ytt쎯	-10.9422
쎁쎁쎅	-10.9422
tve쎯e쎯	-10.9424
m쎯jf쎯gip쎯	-10.9425
ajj쎯f쎯	-10.9425
rvk쎯nh쎯	-10.9425
r쎯lt쎯jg쎯	-10.9425
zzbd쎯gg쎯	-10.9427
wv쎯uyt쎯yx쎯:	-10.9428
ge쎯gm쎯bm쎯	-10.9428
쎃%	-10.9429
qqqq쎯amw쎯qc쎯	-10.943
uu쎯if쎯	-10.943
uji쎯ai쎯	-10.9431
쎁쎉쎉쎂	-10.9432
pl쎯pn쎯	-10.9433
uth쎯wbj쎯	-10.9433
,bde쎯udh쎯	-10.9436
amw쎯qc쎯,	-10.9437
쎁eee쎯쎁jjjj쎯	-10.9438
hv쎯quj쎯	-10.9438
k쎯l쎯nnh쎯if쎯	-10.944
ooo쎯tue쎯	-10.944
lw쎯y쎯wtf쎯	-10.9444
bfq쎯	-10.9445
쎂-쎃	-10.9447
tfk쎯wtu쎯	-10.9449
"zzbd쎯"	-10.945
tu쎯rfc쎯v쎯nae쎯	-10.9455
ujff쎯ytd쎯	-10.9455
(쎄	-10.9455
wsg쎯rmhj쎯nty쎯af쎯	-10.9457
cc쎯tgj쎯	-10.9457
v쎯nae쎯dn쎯o쎯	-10.9461
lxx쎯	-10.9461
rwb쎯fiyt쎯	-10.9464
iyc쎯ii쎯	-10.9465
trfh쎯	-10.9465
dm쎯eerq쎯	-10.9465
.sg쎯wc쎯ngk쎯	-10.9466
j쎯hhhh쎯ue쎯	-10.947
r쎯ywe쎯ick쎯	-10.9474
bm쎯thgc쎯v쎯tf쎯	-10.9474
pk쎯tfpd쎯	-10.9475
fg쎯adwe쎯	-10.9476
p쎯yww쎯	-10.9476
src쎯zzbd쎯	-10.9477
bm쎯tg쎯d쎯	-10.948
qgfj쎯	-10.9481
tj쎯qk쎯	-10.9481
ftbt쎯tkgg쎯	-10.9487
tm쎯ue쎯	-10.9488
fm쎯ps쎯ymhj쎯	-10.949
thd쎯ick쎯	-10.9491
aflf쎯	-10.9492
xyy쎯,	-10.9493
jb쎯ym쎯r쎯	-10.9493
tve쎯vb쎯	-10.9493
qsj쎯	-10.9493
jde쎯jan쎯	-10.9495
fqb쎯wa쎯	-10.9497
,adk쎯	-10.9497
gip쎯sk쎯	-10.9498
mq쎯st쎯r쎯	-10.9499
bfm쎯xfn쎯	-10.9499
:k쎯l쎯	-10.9501
i쎯fwm쎯mj쎯	-10.9501
ytn쎯tvfh쎯	-10.9502
qre쎯	-10.9503
ijo쎯ya쎯	-10.9503
쎃쎀wv쎯qkhh쎯	-10.9504
rpws쎯imj쎯	-10.9504
fq쎯rn쎯	-10.9505
pv쎯by쎯	-10.9506
bd쎯qn쎯	-10.9506
′′	-10.9507
yu쎯ytd쎯	-10.9508
r쎯uqt쎯js쎯	-10.9508
,ce쎯qkqq쎯	-10.9509
dnv쎯rh쎯	-10.9509
yqa쎯,	-10.951
dj쎯wgk쎯	-10.9512
.wt쎯kkk쎯	-10.9512
tffu쎯;	-10.9517
hep쎯uj쎯	-10.9518
쎁쎉쎉쎄	-10.9519
rg쎯ftj쎯	-10.952
sam쎯tm쎯	-10.9521
duo쎯	-10.9521
dx쎯mdf쎯	-10.9523
aq쎯tv쎯	-10.9525
qh쎯ge쎯	-10.9525
ishg쎯isj쎯	-10.9526
o쎯y쎯wsg쎯	-10.9527
wvf쎯wg쎯	-10.9528
epc쎯gc쎯b쎯	-10.9529
se쎯bv쎯	-10.9533
fn쎯drin쎯ftj쎯	-10.9534
pwdj쎯wfk쎯	-10.9536
fm쎯dm쎯	-10.9536
tfkp쎯yxj쎯	-10.9539
zzbd쎯tjf쎯iawn쎯	-10.954
c쎯h쎯,	-10.954
lw쎯wc쎯sov쎯	-10.9541
lkd쎯pe쎯	-10.9541
쎁쎉쎉쎇	-10.9546
m쎯od쎯	-10.9548
쎁wh쎯sf쎯n쎯ih쎯xeg쎯	-10.9548
lfq쎯anb쎯	-10.9548
fq쎯pwl쎯	-10.955
sgw쎯	-10.955
fwm쎯st쎯:	-10.9552
쎆w쎯	-10.9552
a쎯tkgg쎯fny쎯og쎯	-10.9553
ihi쎯qh쎯	-10.9557
g쎯fh쎯ww쎯gk쎯	-10.9557
쎇쎅쎀	-10.9558
svc쎯ywx쎯	-10.9559
ii쎯h쎯	-10.9559
dm쎯lft쎯	-10.9559
sfi쎯twgi쎯	-10.956
ty쎯ipk쎯,	-10.9561
ccw쎯	-10.9561
dn쎯uu쎯,	-10.9561
wy쎯gkim쎯	-10.9569
rnb쎯rnw쎯	-10.9572
yssr쎯rpwi쎯	-10.9573
dv쎯	-10.9576
uk쎯uth쎯:	-10.9576
tdj쎯ssss쎯	-10.9579
yyn쎯ukd쎯ip쎯ftj쎯	-10.958
쎉w쎯	-10.958
mmv쎯	-10.958
tgj쎯jg쎯:	-10.9582
rpl쎯	-10.9585
rcw쎯	-10.9588
pgc쎯,	-10.9589
yvh쎯fje쎯	-10.9591
yid쎯et쎯tkgg쎯ycb쎯	-10.9592
nnh쎯,	-10.9595
qnqn쎯	-10.9597
n쎯et쎯	-10.9597
yygy쎯wsg쎯	-10.9599
rs쎯dhc쎯	-10.96
gog쎯tkh쎯	-10.9603
wc쎯aa쎯	-10.9603
ip쎯ddm쎯fghg쎯	-10.9603
hw쎯e쎯g쎯pg쎯	-10.9605
fnr쎯qi쎯	-10.9606
tg쎯u쎯x쎯apk쎯	-10.9608
lgey쎯ou쎯	-10.9609
sk쎯tfkd쎯ntg쎯	-10.9612
dfn쎯	-10.9615
usr쎯sghg쎯uff쎯	-10.9617
ndj쎯《	-10.9618
o쎯wqin쎯rj쎯waw쎯	-10.9619
wc쎯jfd쎯,kha쎯	-10.962
rnp쎯sgc쎯	-10.9621
iwy쎯fm쎯	-10.9623
tavn쎯	-10.9624
hk쎯wycm쎯	-10.9625
idr쎯thd쎯	-10.9625
ujn쎯o쎯	-10.9626
sk쎯c쎯cep쎯fp쎯	-10.9626
k쎯mmm쎯dd쎯ip쎯	-10.9628
uq쎯tyg쎯	-10.963
,lpdk쎯	-10.9631
ftjb쎯s쎯	-10.9633
ftbt쎯yce쎯zzbd쎯	-10.9634
lfhf쎯gf쎯	-10.9636
tfq쎯rg쎯wtf쎯	-10.9637
ia쎯ymhj쎯	-10.9638
tey쎯pw쎯wc쎯ngk쎯	-10.9639
et쎯wtp쎯:	-10.9639
py쎯aq쎯wug쎯gf쎯	-10.964
,ghd쎯	-10.964
zzbd쎯ux쎯	-10.964
n쎯gk쎯	-10.9641
ip쎯suq쎯.	-10.9645
,쎂쎀쎀쎂rh쎯	-10.9647
,iv쎯jf쎯	-10.965
og쎯y쎯	-10.965
inr쎯jghx쎯	-10.965
vvv쎯tg쎯	-10.9651
ipk쎯suq쎯	-10.9654
ipw쎯wx쎯	-10.9655
aus쎯	-10.9656
ga쎯nku쎯	-10.9657
,k쎯aw쎯ipk쎯km쎯.	-10.9658
ufy쎯lhnh쎯	-10.9658
k쎯ai쎯	-10.9659
twgi쎯ys쎯	-10.9659
cccf쎯	-10.9659
wh쎯thd쎯qd쎯sf쎯	-10.9663
iv쎯jv쎯	-10.9664
ytt쎯thd쎯ick쎯egc쎯	-10.9666
uk쎯lftj쎯	-10.9669
e쎯uwl쎯	-10.967
atgn쎯	-10.9672
i쎯nb쎯	-10.9675
dga쎯pwv쎯yy쎯tm쎯:	-10.9676
r쎯ga쎯v쎯	-10.9677
dj쎯pe쎯	-10.9677
wtf쎯tl쎯.	-10.9678
vcb쎯dn쎯.	-10.9682
gh쎯b쎯	-10.9682
rhb쎯	-10.9685
zzbd쎯ftbt쎯ip쎯	-10.9685
hk쎯e쎯	-10.9685
vck쎯gf쎯	-10.9687
zzbd쎯xa쎯	-10.9688
-쎁쎆	-10.9689
y쎯s쎯mw쎯pww쎯	-10.9689
hka쎯qv쎯jf쎯adwe쎯	-10.969
xdmd쎯ql쎯	-10.9692
쎁쎀쎂	-10.9693
cep쎯fp쎯cf쎯	-10.9694
yx쎯wycm쎯	-10.9696
e쎯g쎯pg쎯r쎯	-10.9696
dgt쎯ta쎯	-10.9696
wgk쎯if쎯	-10.9696
dgkn쎯fcl쎯	-10.9697
쎂쎀wtu쎯tyna쎯	-10.9699
udg쎯lc쎯	-10.97
─	-10.97
,vfb쎯tc쎯	-10.9702
▁	-10.9703
gu쎯src쎯	-10.9704
ow쎯xxg쎯	-10.9704
yce쎯tkh쎯	-10.9704
tffy쎯et쎯	-10.9708
gd쎯y쎯ftbt쎯	-10.9708
tffu쎯tffy쎯	-10.971
e쎯ytf쎯qq쎯	-10.971
wn쎯fqb쎯.	-10.971
ymf쎯rmhj쎯	-10.9711
pgn쎯pb쎯sov쎯	-10.9711
쎇rh쎯)	-10.9711
쎅/	-10.9712
.ww쎯gk쎯	-10.9714
r쎯usr쎯gajf쎯	-10.9715
hfc쎯	-10.9716
.쎁쎉쎈쎃rh쎯	-10.9717
ith쎯mw쎯	-10.9718
xnh쎯xwv쎯	-10.9718
ptf쎯if쎯	-10.9718
cep쎯td쎯	-10.9719
쎅쎀쎀oy쎯	-10.9719
,kj쎯qd쎯	-10.9721
쎁쎉쎂쎅rh쎯	-10.9724
ul쎯tfq쎯rg쎯	-10.9724
ipe쎯deb쎯	-10.9724
tp쎯gj쎯ip쎯	-10.9725
xk쎯gqjo쎯r쎯	-10.9726
g쎯uthp쎯ugdu쎯wyv쎯	-10.9728
d쎯tjf쎯iawn쎯	-10.9728
ndj쎯hhhh쎯	-10.9728
ygu쎯tv쎯	-10.9733
wsg쎯r쎯	-10.9734
tgh쎯nh쎯	-10.9734
:쎆	-10.9736
tmdy쎯	-10.9737
mf쎯x쎯dd쎯ip쎯	-10.9738
ud쎯ng쎯	-10.9739
lu쎯wqa쎯	-10.9741
pp쎯pe쎯	-10.9744
jb쎯tfq쎯fj쎯r쎯	-10.9745
anf쎯	-10.9745
ghd쎯yq쎯	-10.9745
쎄rh쎯)	-10.9746
쎁쎉쎉쎃	-10.9751
r쎯gk쎯nge쎯	-10.9751
lll쎯tca쎯	-10.9751
mhny쎯qiu쎯	-10.9754
uyh쎯,	-10.9757
e쎯bv쎯wc쎯ngk쎯(	-10.9757
tp쎯tv쎯wf쎯	-10.9758
nt쎯s쎯	-10.9758
yfj쎯yww쎯	-10.9759
k쎯l쎯ugdu쎯sy쎯	-10.9759
qqug쎯	-10.9759
qmq쎯telb쎯	-10.976
rn쎯fdm쎯	-10.9762
rx쎯uwy쎯,	-10.9763
zzsx쎯쎁쎀	-10.9764
tt쎯yn쎯sg쎯	-10.9766
sh쎯m쎯r쎯	-10.9769
adm쎯hhhh쎯.	-10.977
pei쎯lll쎯	-10.9771
lkd쎯l쎯	-10.9771
yxxr쎯	-10.9774
k쎯atd쎯ip쎯bpf쎯	-10.9774
rdf쎯iw쎯	-10.9776
dd쎯ip쎯yygy쎯wx쎯	-10.9781
uywu쎯	-10.9784
xx쎯tjh쎯jf쎯	-10.9784
wbj쎯fjh쎯	-10.9786
kkk쎯thgf쎯r쎯	-10.9786
lks쎯sq쎯	-10.9787
r쎯ip쎯nu쎯	-10.9787
kht쎯h쎯	-10.9788
puy쎯	-10.9789
kdh쎯	-10.9789
ssg쎯thn쎯	-10.979
lt쎯fiy쎯	-10.979
fkuk쎯yd쎯	-10.9791
qnq쎯et쎯	-10.9792
(fg쎯)	-10.9792
-)	-10.9792
쎁쎉쎂	-10.9792
fcp쎯fcl쎯wf쎯	-10.9794
sm쎯jm쎯	-10.9795
r쎯trf쎯qc쎯	-10.9795
쎂쎀쎁	-10.9797
hhu쎯thg쎯	-10.9797
ugdu쎯r쎯	-10.9798
kynw쎯kgkw쎯	-10.9801
thd쎯qd쎯wk쎯ryn쎯	-10.9804
gf쎯쎂쎀쎀쎇rh쎯	-10.9805
gip쎯ce쎯	-10.9806
tmg쎯oy쎯	-10.9807
쎂쎀쎀oy쎯	-10.9808
tu쎯ip쎯r쎯	-10.9809
.ua쎯	-10.9812
k쎯ny쎯.	-10.9812
thd쎯ip쎯	-10.9816
wf	-10.9816
dq쎯ru쎯	-10.9818
gf쎯쎂쎀쎀쎆rh쎯	-10.9819
td쎯qk쎯kkk쎯thgf쎯	-10.9822
yygy쎯wx쎯uk쎯	-10.9822
g쎯kgn쎯	-10.9823
tv쎯km쎯.	-10.9823
ftx쎯rh쎯w쎯	-10.9823
,yt쎯	-10.9824
.쎁쎉쎈쎆rh쎯	-10.9824
rh쎯lc쎯r쎯	-10.9825
vfi쎯vfi쎯	-10.9825
rp쎯dj쎯	-10.9826
tx쎯쎆	-10.9826
by쎯oja쎯	-10.9827
tmo쎯f쎯tjh쎯	-10.9827
djfd쎯oy쎯,pa쎯	-10.9827
gu쎯ime쎯	-10.9833
dp쎯gc쎯b쎯	-10.9834
yni쎯qy쎯	-10.9834
d쎯bk쎯dga쎯pwv쎯tg쎯	-10.9834
ae쎯txi쎯	-10.9835
gl쎯bpf쎯	-10.9836
sou쎯	-10.9836
,쎁쎉쎉쎆rh쎯	-10.9837
tu쎯km쎯	-10.9838
,쎂쎀쎀쎆rh쎯	-10.984
쎅w쎯,	-10.9841
rfc쎯jgm쎯	-10.9842
nty쎯vfhp쎯	-10.9844
to쎯tb쎯	-10.9845
쎁쎈쎀쎀	-10.9845
uu쎯wsg쎯fnr쎯	-10.9847
gah쎯jj쎯	-10.9848
if쎯uff쎯	-10.985
jc쎯xt쎯	-10.985
cf쎯tgm쎯	-10.9852
,jjjj쎯sg쎯	-10.9855
쎅ypt쎯oy쎯	-10.9855
ipg쎯km쎯.	-10.9855
ws쎯thn쎯	-10.9855
utdk쎯	-10.9855
fg쎯tffu쎯uqd쎯.	-10.9856
in	-10.9856
sks쎯sks쎯	-10.9857
djde쎯	-10.9859
zzbd쎯py쎯wf쎯	-10.986
iux쎯	-10.986
qev쎯sr쎯	-10.986
.쎁쎉쎈쎇rh쎯	-10.986
fd쎯fm쎯	-10.9861
wg쎯dm쎯v쎯nae쎯	-10.9861
쎅쎀oy쎯	-10.9863
dd쎯yy쎯	-10.9863
-쎁쎂	-10.9864
ujfj쎯xgb쎯	-10.9865
,k쎯aw쎯	-10.9865
i쎯td쎯uthp쎯	-10.9867
ohj쎯	-10.9869
쎁쎂쎃	-10.9871
ugv쎯thg쎯	-10.9872
dp쎯sfi쎯	-10.9874
,wynb쎯	-10.9875
쎃oy쎯	-10.9875
vef쎯	-10.9878
eee쎯fjh쎯	-10.988
ynvf쎯	-10.988
xp쎯wgk쎯tgh쎯	-10.9882
a쎯um쎯tf쎯ght쎯	-10.9882
an쎯lwj쎯r쎯	-10.9884
kkk쎯thgf쎯.	-10.9884
k쎯mmm쎯ymhj쎯	-10.9884
py쎯wf쎯lft쎯wsg쎯	-10.9887
ran쎯xqc쎯	-10.9889
k쎯gajf쎯	-10.9891
gajf쎯kgn쎯:	-10.9891
lkp쎯	-10.9892
tg쎯rm쎯	-10.9893
w쎯st쎯	-10.9893
xn쎯wynn쎯qnp쎯	-10.9893
ymf쎯wtf쎯	-10.9894
pyg쎯ytyh쎯ymhj쎯	-10.9895
fp쎯iya쎯	-10.9895
qv쎯yyq쎯	-10.9896
r쎯hka쎯ltk쎯	-10.9898
qk쎯atd쎯	-10.9899
r쎯ee쎯dc쎯	-10.9899
o쎯l쎯pe쎯	-10.99
r쎯ymhj쎯fnrt쎯	-10.9903
k쎯l쎯wt쎯pe쎯fl쎯wf쎯	-10.9908
b쎯dd쎯jg쎯	-10.9908
nh쎯aqt쎯	-10.991
rs쎯qgb쎯sm쎯	-10.991
ii쎯fakg쎯	-10.9911
gn쎯yid쎯et쎯	-10.9912
img쎯,	-10.9912
dmh쎯ru쎯	-10.9914
qk쎯ip쎯tg쎯	-10.9914
n쎯ght쎯	-10.9914
pg쎯o쎯	-10.9915
쎆w쎯,	-10.9916
ukn쎯uqwm쎯u쎯	-10.9917
txi쎯xyc쎯k쎯	-10.9917
nnh쎯if쎯wt쎯kkk쎯	-10.9919
:쎈	-10.9919
ghd쎯fwm쎯	-10.992
v쎯iq쎯	-10.9923
w쎯k쎯aw쎯ipk쎯km쎯	-10.9923
,쎂쎀쎀쎀rh쎯	-10.9925
r쎯nge쎯ukq쎯	-10.9926
g쎯tffu쎯uqd쎯.	-10.9926
nty쎯yv쎯	-10.9926
uh쎯zzbd쎯	-10.9927
ue쎯bg쎯	-10.9927
idl쎯	-10.9929
gcft쎯pgk쎯	-10.9929
o쎯pt쎯yne쎯	-10.993
ieb쎯mfky쎯	-10.993
wgk쎯g쎯	-10.993
rxj쎯nf쎯km쎯	-10.9931
nt쎯tlf쎯	-10.9933
,wt쎯ftj쎯	-10.9933
w쎯n쎯sw쎯pwfi쎯bpf쎯	-10.9934
d쎯mw쎯r쎯	-10.9935
d쎯suq쎯tg쎯	-10.9937
jtr쎯	-10.9938
zzbd쎯lh쎯kthh쎯	-10.9938
uh쎯hko쎯	-10.9939
,xw쎯	-10.9939
쎅gu쎯yy쎯wc쎯jfd쎯,	-10.9939
itp쎯rxj쎯	-10.9941
gjq쎯rq쎯	-10.9941
tkh쎯sfhg쎯gy쎯oy쎯	-10.9941
쎁쎉쎉쎀	-10.9942
쎁쎇쎈	-10.9943
tep쎯fp쎯	-10.9943
fny쎯og쎯xxf쎯og쎯,	-10.9943
gcft쎯lt쎯	-10.9944
dyt쎯u쎯	-10.9946
pei쎯ss쎯	-10.9947
uce쎯adf쎯	-10.9947
ftbt쎯ip쎯gn쎯	-10.9951
udnb쎯	-10.9953
o쎯nng쎯wtf쎯	-10.9953
(쎁쎅	-10.9954
itx쎯mgu쎯	-10.9955
gjq쎯vb쎯f쎯	-10.9956
ym쎯uqt쎯r쎯	-10.9959
ftbt쎯km쎯	-10.996
rdj쎯yt쎯	-10.9961
.쎁쎉쎉쎀rh쎯	-10.9962
whtn쎯qy쎯	-10.9964
fg쎯fgh쎯rh쎯	-10.9964
nnnn쎯puhc쎯	-10.9966
쎁rh쎯)	-10.9968
zzbd쎯fhl쎯	-10.9969
》j쎯mh쎯	-10.997
tjf쎯ae쎯	-10.9972
wf쎯h쎯	-10.9972
wg쎯lt쎯	-10.9972
yww쎯ait쎯gf쎯	-10.9973
r쎯fnr쎯ujf쎯	-10.9979
jtyl쎯qtyd쎯	-10.9981
ige쎯fjt쎯btg쎯	-10.9981
wtp쎯k쎯	-10.9982
thd쎯tmd쎯r쎯	-10.9984
gmm쎯gde쎯	-10.9986
ym쎯gf쎯	-10.999
dd쎯oy쎯	-10.999
lkd쎯rb쎯	-10.9991
ucd쎯	-10.9992
bm쎯thgc쎯.	-10.9993
rfm쎯f쎯	-10.9993
pujs쎯	-10.9994
od쎯zzbd쎯	-10.9995
y쎯ick쎯atd쎯jgm쎯	-10.9995
hi쎯rgw쎯	-10.9995
jf쎯ufy쎯	-10.9995
xn쎯tv쎯nnh쎯yn쎯	-10.9996
gm쎯qqqq쎯	-10.9996
fny쎯tu쎯ip쎯suq쎯	-10.9998
k쎯l쎯l쎯bf쎯	-10.9999
dg쎯gog쎯	-11
fm쎯bj쎯	-11.0002
dm쎯ou쎯	-11.0003
dd쎯ds쎯	-11.0004
gf쎯g쎯wsg쎯	-11.0005
hko쎯.	-11.0007
pei쎯trt쎯	-11.0007
.aft쎯e쎯《	-11.0007
iv쎯jf쎯r쎯	-11.0008
w쎯fqu쎯nh쎯ty쎯	-11.0009
dga쎯pwv쎯km쎯.	-11.001
r쎯vfhp쎯ymc쎯	-11.0011
tf쎯og쎯fl쎯wf쎯	-11.0011
f쎯aq쎯.	-11.0014
ip쎯dl쎯,	-11.0015
rny쎯pg쎯	-11.0015
tew쎯	-11.0017
.’	-11.0017
ick쎯pv쎯	-11.0021
jp쎯	-11.0022
xxm쎯ahty쎯	-11.0024
-쎁쎅	-11.0026
ovt쎯pb쎯wx쎯	-11.0026
vff쎯	-11.0029
by쎯ooo쎯	-11.003
fcp쎯isk쎯	-11.0034
sh쎯ruv쎯	-11.0035
wgku쎯bfm쎯	-11.0035
dd쎯wgkq쎯	-11.0037
ta쎯쎁	-11.0039
um쎯tl쎯isgg쎯yhk쎯	-11.004
,wcy쎯	-11.004
k쎯wxf쎯n쎯ytt쎯	-11.0041
rfc쎯sy쎯wbj쎯usr쎯	-11.0041
bgk쎯yb쎯	-11.0041
aw쎯wv쎯	-11.0043
d쎯q쎯l쎯	-11.0045
fm쎯ps쎯	-11.0046
ntk쎯sfhg쎯tr쎯	-11.005
vfhp쎯uu쎯r쎯	-11.0051
tv쎯km쎯wf쎯y쎯wtf쎯	-11.0052
suq쎯xe쎯	-11.0053
쎅rh쎯)	-11.0053
쎂쎆쎀	-11.0055
fjn쎯	-11.0055
.ccc쎯	-11.0055
egcn쎯rffg쎯	-11.0058
eb쎯tmc쎯	-11.0058
jc쎯udw쎯	-11.0059
tg쎯u쎯a쎯anb쎯	-11.0059
mw쎯dhb쎯pww쎯jg쎯	-11.0061
ujn쎯ln쎯j쎯	-11.0061
jn쎯mqq쎯	-11.0061
yc쎯jn쎯	-11.0061
al쎯yx쎯:	-11.0061
wdn쎯rfm쎯eb쎯tl쎯	-11.0063
ss쎯f쎯	-11.0063
dg쎯nfc쎯	-11.0065
scw쎯	-11.0066
h쎯yy쎯	-11.0066
pgm쎯	-11.0066
,w쎯wu쎯	-11.0067
wv쎯dn쎯	-11.0068
yy쎯qf쎯,	-11.007
sse쎯	-11.0073
gf쎯쎂쎀쎁쎂rh쎯	-11.0074
ih쎯yu쎯《	-11.0074
mga쎯cbj쎯	-11.0074
ym쎯imkf쎯	-11.0075
wlk쎯	-11.0077
wvf쎯ert쎯	-11.0078
r쎯ym쎯usr쎯rfc쎯sy쎯	-11.0079
kkkk쎯drt쎯	-11.008
쎈.쎅	-11.0081
bn쎯ytf쎯	-11.0083
kkk쎯thgf쎯,	-11.0083
,fh쎯gc쎯	-11.0085
ukn쎯uk쎯ymc쎯d쎯	-11.0088
쎀djfd쎯oy쎯,	-11.0088
tfkp쎯dn쎯r쎯	-11.0088
yon쎯ep쎯	-11.0088
r쎯wgkq쎯et쎯	-11.0089
.wc쎯ngk쎯reh쎯e쎯	-11.0089
rwye쎯	-11.009
hhu쎯qiu쎯	-11.0091
mmqu쎯	-11.0091
r쎯g쎯uth쎯	-11.0093
puhc쎯l쎯pe쎯	-11.0098
sfi쎯rgw쎯	-11.0099
mmm쎯yfd쎯	-11.01
쎂쎅dq쎯	-11.0101
yh쎯q쎯wu쎯	-11.0101
ytyh쎯gmi쎯kq쎯	-11.0104
tmdq쎯	-11.0104
r쎯ep쎯nge쎯	-11.0105
qi쎯fhb쎯	-11.0106
ye쎯eb쎯	-11.0107
uh쎯d쎯	-11.0107
gf쎯쎂쎀쎀쎄rh쎯	-11.0109
usr쎯kkk쎯tkh쎯	-11.0109
yxl쎯trt쎯og쎯	-11.0112
khgp쎯yop쎯	-11.0114
ty쎯uyh쎯	-11.0115
py쎯wf쎯v쎯nae쎯	-11.0116
uwyc쎯uai쎯	-11.0118
rn쎯gcft쎯	-11.0118
wy쎯thn쎯eb쎯tl쎯	-11.0121
ty쎯ipk쎯	-11.0122
bm쎯uthp쎯	-11.0123
ua쎯i쎯j쎯	-11.0124
p쎯tc쎯	-11.0126
r쎯gj쎯wynn쎯	-11.0126
v쎯gm쎯r쎯	-11.0127
,kw쎯s쎯	-11.0129
wgd쎯	-11.013
rmhj쎯ys쎯	-11.0131
ftbt쎯tl쎯	-11.0131
aga쎯ytyh쎯	-11.0132
xwv쎯xwv쎯	-11.0133
ymc쎯tlf쎯t쎯	-11.0137
,y쎯s쎯ww쎯gk쎯	-11.0137
bpf쎯gkl쎯bpf쎯ta쎯	-11.0138
qyk쎯	-11.0143
r쎯yygy쎯wx쎯	-11.0143
e쎯tve쎯qq쎯	-11.0143
y쎯s쎯u쎯kkk쎯e쎯	-11.0144
rm	-11.0147
sov쎯zzbd쎯	-11.0148
:-	-11.0148
ftbt쎯wf쎯	-11.015
gf쎯쎂쎀쎁쎁rh쎯	-11.0153
x쎯xn쎯	-11.0156
”,j쎯	-11.0158
,쎁쎉쎉쎅rh쎯	-11.0158
de	-11.0159
fqu쎯tqdh쎯	-11.016
mqq쎯iytb쎯	-11.0162
wdt쎯r쎯	-11.0162
igd쎯lk쎯yjjh쎯	-11.0164
xwf쎯rmhj쎯	-11.0166
wg쎯yy쎯wug쎯r쎯	-11.0167
kxe쎯	-11.0167
fp	-11.0167
sk쎯tfqp쎯	-11.0168
ght쎯tgm쎯t쎯	-11.0168
khgm쎯bj쎯	-11.0169
gw쎯khgm쎯	-11.0169
hhu쎯cep쎯	-11.017
.쎁쎉쎉쎁rh쎯	-11.017
nhe쎯	-11.017
ce쎯lt쎯t쎯	-11.0172
tp쎯gj쎯saj쎯aa쎯	-11.0173
dny쎯	-11.0173
tmg쎯lqw쎯	-11.0175
tv쎯tv쎯km쎯	-11.0176
pu쎯khg쎯x쎯cwg쎯	-11.0176
mmm쎯ss쎯	-11.0178
umia쎯	-11.0178
gkl쎯ftbt쎯rep쎯.	-11.0178
awx쎯qyng쎯	-11.0179
wv쎯klj쎯j쎯	-11.0179
fh쎯dp쎯	-11.0181
wk쎯udyj쎯	-11.0184
fc쎯ref쎯	-11.0184
fny쎯iy쎯	-11.0186
l쎯pe쎯sfi쎯uwy쎯	-11.019
,s쎯	-11.019
rvk쎯sfi쎯	-11.0191
(쎁쎇	-11.0193
r쎯sh쎯ud쎯	-11.0194
v쎯tg쎯b쎯	-11.0194
쎈rh쎯)	-11.0195
쎃.쎁	-11.0195
dx쎯mmm쎯	-11.0196
k쎯tu쎯bpf쎯	-11.0196
fwm쎯aj쎯zzbd쎯	-11.0198
ic쎯wa쎯	-11.0198
ymhj쎯wc쎯pv쎯nnk쎯	-11.02
najg쎯	-11.0201
kq쎯ou쎯	-11.0201
kgb쎯,	-11.0202
wycm쎯nf쎯gh쎯,	-11.0202
r쎯ovt쎯rnd쎯	-11.0204
eyf쎯	-11.0205
qh쎯go쎯	-11.0207
tu쎯fl쎯	-11.0208
pf쎯ryn쎯	-11.0209
you쎯wt쎯“	-11.0212
fm쎯mmm쎯	-11.0213
쎀oy쎯,	-11.0216
umq쎯qtg쎯	-11.0221
ygk쎯if쎯	-11.0222
r쎯f쎯wug쎯	-11.0226
쎂쎁쎀	-11.0231
bo쎯	-11.0231
,쎁쎉쎈쎅rh쎯	-11.0233
rdfj쎯	-11.0234
ta쎯dd쎯	-11.0235
r쎯x쎯iyj쎯	-11.0237
rny쎯ys쎯	-11.0238
w쎯n쎯bm쎯thgc쎯py쎯	-11.024
rvyo쎯jg쎯	-11.0241
pu쎯khg쎯k쎯	-11.0241
dn쎯ybv쎯r쎯	-11.0242
dfef쎯	-11.0243
dd쎯maw쎯	-11.0243
,kg쎯	-11.0243
《usr쎯	-11.0249
ym쎯mtd쎯	-11.0254
wqa쎯dfy쎯	-11.0255
:쎃쎀	-11.0258
mqu쎯eee쎯	-11.026
dskf쎯trf쎯	-11.0261
wyv쎯yuo쎯	-11.0263
ndj쎯fnrt쎯	-11.0263
g쎯m쎯	-11.0264
ftbt쎯rep쎯,fge쎯	-11.0265
,쎁쎉쎉쎉rh쎯	-11.0265
쎇kgn쎯	-11.0266
dhc쎯dyw쎯	-11.0266
ytey쎯tf쎯py쎯	-11.0267
wc쎯gu쎯	-11.0268
usr쎯ub쎯bm쎯thgc쎯	-11.0268
w쎯;	-11.0269
wys쎯qfhw쎯	-11.0271
,sghg쎯wycb쎯	-11.0272
dgv쎯yuvo쎯	-11.0273
mym쎯	-11.0274
fdm쎯fiy쎯,	-11.0275
amw쎯pujn쎯qc쎯	-11.0276
ym쎯gxi쎯rfm쎯r쎯	-11.0276
eb쎯.	-11.0277
smm쎯	-11.0279
w쎯tfkp쎯	-11.0279
tgm쎯aj쎯zzbd쎯	-11.028
hka쎯ufk쎯k쎯	-11.0282
쎁쎀쎁	-11.0282
jujf쎯	-11.0285
u쎯sc쎯	-11.0286
aqrn쎯ugv쎯	-11.0287
.쎅%	-11.0287
,ua쎯uqf쎯	-11.0288
쎅oy쎯,	-11.0288
itx쎯ipr쎯	-11.0291
gcf쎯wynb쎯wtf쎯	-11.0292
-쎁쎈	-11.0293
hx쎯nnh쎯	-11.0293
afs쎯wh쎯	-11.0293
jq쎯rh쎯	-11.0294
w쎯tr쎯.	-11.0294
txi쎯xyc쎯wys쎯dn쎯	-11.0297
jt쎯	-11.0297
ss쎯k쎯	-11.0298
oge쎯cep쎯	-11.0298
han쎯	-11.0299
xfm쎯tavn쎯ait쎯pu쎯	-11.0299
ait쎯kf쎯	-11.03
sh쎯xf쎯wgk쎯	-11.03
rqkq쎯	-11.0301
bynw쎯bb쎯wu쎯	-11.0308
쎃rh쎯)	-11.0311
dd쎯afi쎯	-11.0312
.쎁쎉쎈쎉rh쎯	-11.0312
ghd쎯tu쎯xe쎯	-11.0314
imkf쎯fii쎯	-11.0314
c쎯rfm쎯jg쎯	-11.0317
fiy쎯pu쎯	-11.0319
xww쎯bw쎯	-11.0323
쎂쎀-	-11.0323
gs쎯,	-11.0324
pgn쎯r쎯	-11.0324
jn쎯dgt쎯	-11.0324
(쎁쎉쎄	-11.0324
xq쎯쎃	-11.0325
ajdj쎯	-11.0326
쎁쎂쎂	-11.0327
syl쎯	-11.033
nnh쎯》	-11.0334
sh쎯xf쎯wgk쎯r쎯	-11.0336
kgn쎯)	-11.0336
vtg쎯qk쎯:	-11.0338
rvy쎯nf쎯	-11.0338
yygt쎯rtol쎯jn쎯ck쎯	-11.034
bs쎯sve쎯tfpd쎯	-11.0342
uqwm쎯idr쎯dh쎯pgk쎯	-11.0344
jc쎯wycb쎯	-11.0344
nkuf쎯gl쎯	-11.0345
tmg쎯gajf쎯	-11.0346
tmo쎯ss쎯aqv쎯dq쎯	-11.0347
tig쎯	-11.0347
r쎯ftbt쎯yce쎯	-11.0349
pei쎯pe쎯	-11.035
gogj쎯tak쎯	-11.0351
wyq쎯zzbd쎯	-11.0351
r쎯ygk쎯yyy쎯	-11.0352
mpg쎯	-11.0352
vcb쎯wgkq쎯	-11.0352
쎈oy쎯	-11.0353
rgw쎯kkd쎯	-11.0354
od쎯klj쎯:	-11.0357
jb쎯xk쎯	-11.0357
yynw쎯kkk쎯tkh쎯	-11.0361
po쎯pd쎯	-11.0362
쎆oy쎯	-11.0365
.wb쎯r쎯	-11.0367
쎁쎀dq쎯,	-11.0369
atd쎯ubk쎯txi쎯	-11.037
fm쎯yiu쎯dd쎯ip쎯	-11.0371
,uvo쎯	-11.0372
jx쎯mmm쎯	-11.0373
yygy쎯si쎯	-11.0374
myd쎯gtu쎯	-11.0375
oun쎯	-11.0376
lt쎯qv쎯	-11.0378
ade쎯	-11.0381
al쎯ce쎯.	-11.0382
cd쎯mqb쎯	-11.0382
r쎯qe쎯qc쎯	-11.0383
a쎯tv쎯	-11.0383
wynb쎯rg쎯	-11.0384
mmm쎯kht쎯	-11.0385
ukn쎯bw쎯	-11.0386
rx쎯ygu쎯	-11.0389
(쎁쎆	-11.0389
pue쎯	-11.0391
tlf쎯pvs쎯	-11.0392
xnn쎯shn쎯	-11.0393
qhk쎯dgtg쎯	-11.0393
apk쎯udyj쎯dh쎯pgk쎯	-11.0394
j쎯cep쎯fp쎯	-11.0394
qsu쎯pd쎯	-11.0395
gf쎯쎂쎀쎀쎃rh쎯	-11.0396
ytt쎯thd쎯ick쎯aq쎯	-11.0397
+쎁	-11.0397
um쎯yhk쎯	-11.0398
fq쎯qjq쎯ymhj쎯	-11.0398
xe쎯c쎯h쎯	-11.0399
dx쎯riu쎯	-11.0399
rvyo쎯hko쎯	-11.04
()t쎯	-11.04
yxt쎯ghd쎯	-11.04
fhu쎯bm쎯	-11.0402
gef쎯awx쎯	-11.0403
쎁쎅쎀dq쎯	-11.0404
ipk쎯xeg쎯gkl쎯nnh쎯	-11.0406
jh쎯hq쎯	-11.0407
ajl쎯	-11.0407
ff쎯bpf쎯	-11.0407
dy쎯pw쎯	-11.0409
dnv쎯dl쎯	-11.0409
쎉rh쎯)	-11.0412
i쎯wynk쎯	-11.0413
ny쎯tld쎯tp쎯	-11.0415
tffu쎯uqd쎯쎁adm쎯	-11.0415
gfi쎯gae쎯	-11.0416
jtg쎯adwe쎯	-11.0417
,ukn쎯dm쎯tkw쎯	-11.0418
wqr쎯	-11.0418
dmh쎯qgj쎯	-11.042
q쎯wu쎯uqf쎯	-11.042
bb쎯vvv쎯	-11.0421
jtg쎯txi쎯	-11.0421
cyna쎯	-11.0422
alf쎯ytt쎯	-11.0425
쎁쎀쎀qq쎯	-11.0426
wg쎯n쎯	-11.0426
sft쎯ou쎯r쎯	-11.0427
ge쎯gm쎯o쎯	-11.0427
vcb쎯o쎯	-11.0427
ptkm쎯pg쎯	-11.0427
tyg쎯go쎯	-11.0428
쎂rh쎯)	-11.0431
av쎯rq쎯	-11.0432
ga쎯vck쎯b쎯	-11.0432
hk쎯rnd쎯	-11.0433
iaj쎯	-11.0434
쎁쎉an쎯xn쎯	-11.0435
qfhw쎯ipk쎯tv쎯	-11.0437
ytf쎯sk쎯	-11.0437
ym쎯ntg쎯ce쎯	-11.0438
ipkh쎯tl쎯tv쎯km쎯	-11.0439
cc쎯tm쎯	-11.044
jg쎯r쎯	-11.044
쎂쎈쎀	-11.0445
dd쎯hka쎯	-11.0446
쎅dq쎯,	-11.0446
hh쎯uce쎯	-11.0447
fm쎯aq쎯	-11.045
udh쎯lt쎯	-11.0456
tfq쎯fj쎯rfc쎯sy쎯	-11.0456
usgp쎯pf쎯	-11.0457
aqgn쎯	-11.0461
g쎯dd쎯rx쎯	-11.0461
thd쎯tf쎯lg쎯	-11.0462
usgp쎯yq쎯	-11.0466
wc쎯ghd쎯	-11.0467
gc쎯yqa쎯	-11.0467
zzbd쎯dgtg쎯	-11.0468
uqvd쎯	-11.0469
tmg쎯fge쎯	-11.047
wx쎯uv쎯	-11.0471
l쎯ffff쎯uqwm쎯idr쎯	-11.0471
gogn쎯ntg쎯	-11.0472
ixj쎯ii쎯	-11.0475
adm쎯hhhh쎯wug쎯gf쎯	-11.0475
glf쎯	-11.0476
쎀쎀dnv쎯fqb쎯,	-11.0477
tffu쎯fny쎯og쎯	-11.0479
yy쎯qf쎯ght쎯tgm쎯	-11.0479
sk쎯d쎯	-11.048
,쎁쎉쎉쎇rh쎯	-11.048
rh쎯gu쎯fqu쎯	-11.048
rg쎯puhc쎯	-11.0482
fgh쎯mt쎯	-11.0483
ty쎯wvp쎯	-11.0483
r쎯qt쎯bb쎯	-11.0485
th	-11.0487
uxe쎯rg쎯	-11.0488
je쎯jo쎯r쎯	-11.0488
alkf쎯	-11.0491
wcy쎯wcy쎯	-11.0492
ght쎯ywf쎯cy쎯f쎯	-11.0492
vs쎯fn쎯》	-11.0493
fhn쎯idr쎯	-11.0493
,쎁쎉쎉쎃rh쎯	-11.0495
rua쎯rgef쎯	-11.0497
gah쎯up쎯	-11.0497
쎆eee쎯lk쎯ty쎯	-11.0497
qsu쎯gqx쎯	-11.0497
ntg쎯udy쎯	-11.05
sso쎯	-11.05
yynw쎯adm쎯hhhh쎯	-11.0501
itl쎯	-11.0502
ifw쎯ny쎯	-11.0504
gu쎯tffu쎯	-11.0505
rck쎯	-11.0507
dga쎯pwv쎯zzbd쎯	-11.0507
wgmy쎯udv쎯	-11.0508
i쎯on쎯r쎯	-11.0509
ntx쎯	-11.0511
ffff쎯bgh쎯adw쎯	-11.0511
tffu쎯a쎯wt쎯	-11.0512
ipg쎯yfj쎯	-11.0513
fm쎯djd쎯	-11.0513
aguw쎯	-11.0513
yt쎯dd쎯	-11.0514
r쎯hw쎯wsg쎯	-11.0514
efk쎯eta쎯	-11.0516
,쎁쎉쎉쎂rh쎯	-11.0517
ahkm쎯	-11.0517
쎀쎀쎀gu쎯yy쎯oy쎯,	-11.0518
lg쎯tkgg쎯	-11.0519
kq쎯》	-11.0521
wdn쎯tfq쎯	-11.0524
bwf쎯ntk쎯atd쎯bpf쎯	-11.0527
fcb쎯j쎯	-11.0528
,xx쎯vk쎯	-11.0528
rp쎯rh쎯	-11.053
r쎯sfi쎯uwy쎯	-11.053
mqb쎯qev쎯	-11.0534
dgh쎯w쎯	-11.0538
n쎯tg쎯	-11.0538
,쎂쎀쎀쎁rh쎯	-11.0539
,쎂쎀쎀쎇rh쎯	-11.054
ks쎯	-11.0542
dga쎯pwv쎯gn쎯	-11.0542
yygt쎯sghg쎯ufg쎯	-11.0543
pgk쎯wynk쎯	-11.0546
rmhj쎯tfkp쎯og쎯	-11.0546
zzbd쎯kgd쎯	-11.0546
uub쎯	-11.0547
tffu쎯al쎯ce쎯	-11.0548
fwm쎯aj쎯ymc쎯yf쎯	-11.0548
www쎯tg쎯	-11.0549
ua쎯aqt쎯	-11.055
sm쎯tffu쎯	-11.0551
fhn쎯wdy쎯	-11.0552
um쎯og쎯qve쎯tf쎯	-11.0554
ryc쎯qie쎯	-11.0554
yt쎯lfhf쎯	-11.0554
ymf쎯ou쎯:	-11.0555
pei쎯ip쎯bpf쎯	-11.0555
lh쎯efc쎯	-11.0556
tp쎯gj쎯uqwk쎯yqj쎯	-11.0557
xln쎯jhny쎯	-11.056
p쎯j쎯g쎯wh쎯	-11.0563
ga쎯awx쎯	-11.0564
fak쎯	-11.0565
fwyc쎯uk쎯wrh쎯	-11.0567
gmww쎯ftj쎯	-11.0567
qa	-11.0569
rj쎯ue쎯	-11.0571
pn	-11.0573
w쎯wu쎯r쎯	-11.0574
tdtf쎯tlf쎯	-11.0575
xf쎯sq쎯,	-11.0575
c쎯h쎯.	-11.0575
쎃쎀qq쎯	-11.0576
rg쎯dm쎯	-11.0576
rg쎯gmf쎯	-11.0578
khgp쎯u쎯	-11.0579
bm쎯thgc쎯jf쎯uj쎯:	-11.058
py쎯aq쎯nd쎯tv쎯wf쎯	-11.0581
,ua쎯c쎯	-11.0582
itx쎯yqa쎯	-11.0583
쎁쎇쎆	-11.0585
쎉쎀쎀쎁	-11.0585
up쎯ggg쎯	-11.0591
,쎂쎀쎀쎈rh쎯	-11.0592
fhu쎯fj쎯	-11.0596
m쎯ick쎯	-11.0597
쎂쎀wc쎯jfd쎯	-11.0599
wa쎯gj쎯um쎯	-11.06
fakg쎯qk쎯	-11.0602
rn쎯ta쎯	-11.0602
wwj쎯wfhg쎯r쎯	-11.0604
hj쎯fhg쎯	-11.0604
dbv쎯	-11.0605
tfqp쎯rdc쎯	-11.0605
yni쎯qi쎯	-11.0608
dgtg쎯ynt쎯	-11.0609
쎂쎀qq쎯	-11.0612
wk쎯ryn쎯aq쎯	-11.0614
pye쎯tdij쎯	-11.0615
(-	-11.0616
ytd쎯ndj쎯	-11.0618
isk쎯uthp쎯	-11.0619
tffy쎯jm쎯	-11.0619
txe쎯ynt쎯	-11.0623
c쎯ai쎯	-11.0624
yny쎯gajf쎯	-11.0625
ymkc쎯	-11.0625
wnh쎯jjjj쎯	-11.0625
쎁쎅rh쎯	-11.063
ux쎯tvr쎯	-11.063
kmd쎯	-11.0633
ipw쎯djb쎯	-11.0634
%c쎯h쎯	-11.0636
rnwy쎯	-11.0636
;쎄zzbd쎯	-11.0637
u쎯kkk쎯tgj쎯jg쎯:	-11.0637
wj쎯ty쎯	-11.0638
hna쎯	-11.0639
usr쎯sf쎯	-11.0639
r쎯pv쎯wg쎯	-11.0641
uthp쎯iq쎯	-11.0642
xyc쎯tq쎯	-11.0643
rmhj쎯dn쎯r쎯	-11.0644
:쎀.	-11.0645
ssf쎯hh쎯	-11.0649
dn쎯rvyo쎯	-11.0651
fqp쎯qie쎯	-11.0652
cf쎯rymn쎯	-11.0652
fhw쎯r쎯	-11.0654
khu쎯qkqq쎯	-11.0655
iqr쎯pgy쎯	-11.0655
yygy쎯wx쎯uq쎯iyc쎯	-11.0656
쎁쎉쎈쎉	-11.0656
zzbd쎯hq쎯qnq쎯	-11.0656
gjq쎯vb쎯	-11.0658
tu쎯gkl쎯tu쎯ta쎯	-11.0659
cr쎯	-11.0659
sk쎯tfkd쎯r쎯	-11.0659
bw쎯wgg쎯,	-11.066
쎃쎀%	-11.0663
tx쎯wty쎯nm쎯	-11.0664
(zzpj쎯zzpj쎯zzpj쎯	-11.0665
xeg쎯wrh쎯	-11.0666
rrqc쎯	-11.0666
fhn쎯idr쎯gf쎯	-11.0668
yy쎯tkgg쎯	-11.0668
:"	-11.067
e쎯pd쎯	-11.067
egc쎯tv쎯nnh쎯yn쎯	-11.0675
bde쎯ujn쎯	-11.0675
ukn쎯hich쎯	-11.0675
ia쎯aq쎯	-11.0675
fh쎯iyc쎯	-11.0676
k쎯kht쎯	-11.0676
oyx쎯	-11.0677
r쎯pu쎯bf쎯	-11.0678
udg쎯ec쎯	-11.068
,tfq쎯	-11.068
g쎯tfk쎯	-11.0681
yfn쎯tr쎯	-11.0682
on쎯gqje쎯	-11.0682
sfi쎯sg쎯	-11.0685
ip쎯fge쎯fghg쎯	-11.0686
r쎯uk쎯wv쎯	-11.0687
rnb쎯fcl쎯	-11.0688
eyni쎯ukh쎯	-11.0688
qsu쎯alt쎯	-11.0688
jq쎯wf쎯	-11.0688
ntg쎯klj쎯	-11.0689
qvhc쎯	-11.069
mw쎯wv쎯int쎯	-11.069
uxe쎯iq쎯	-11.069
jf쎯wtf쎯	-11.069
tgj쎯hko쎯yygy쎯tr쎯	-11.0691
dm쎯uk쎯	-11.0692
dyc쎯sgc쎯	-11.0693
an쎯lwj쎯sgi쎯	-11.0694
puhc쎯rge쎯	-11.0696
쎂쎀쎁쎃	-11.0697
ab쎯ith쎯	-11.0698
rmc쎯u쎯	-11.0699
lw쎯gk쎯	-11.0704
쎆rh쎯)	-11.0704
ai쎯egc쎯	-11.0704
dw쎯gd쎯	-11.0706
ipwk쎯yjjh쎯	-11.0709
쎈w쎯,	-11.071
ue쎯gq쎯	-11.071
gj쎯gk쎯wf쎯	-11.0711
mmm쎯ax쎯	-11.0711
r쎯xf쎯sq쎯	-11.0714
rrr쎯isgg쎯	-11.0714
rp쎯mt쎯rh쎯	-11.0715
tg쎯tr쎯rfc쎯sy쎯	-11.0716
cm쎯rhf쎯	-11.0719
ufy쎯sgn쎯	-11.0719
dn쎯wwv쎯	-11.072
tgj쎯lt쎯	-11.0724
ua쎯im쎯e쎯	-11.0725
qie쎯wyk쎯o쎯g쎯wsg쎯	-11.0725
gyt쎯ip쎯nu쎯	-11.0726
kkks쎯fnr쎯	-11.0728
shn쎯qje쎯	-11.0731
e쎯qk쎯r쎯	-11.0734
mmm쎯xte쎯	-11.0736
k쎯aw쎯k쎯md쎯	-11.0737
hka쎯sy쎯	-11.0738
fuk쎯yk쎯zzbd쎯	-11.0739
ltu쎯nnh쎯pgc쎯	-11.0739
bm쎯wyk쎯	-11.074
uq쎯ian쎯th쎯	-11.0742
pl쎯wv쎯aq쎯	-11.0742
wc쎯wv쎯	-11.0745
dgh쎯ftx쎯r쎯	-11.0746
die쎯	-11.0753
c쎯qh쎯	-11.0756
ym쎯qiu쎯fw쎯	-11.0757
bpf쎯bpf쎯ta쎯	-11.0757
쎂eee쎯bm쎯tg쎯	-11.0758
il쎯il쎯	-11.0758
aft쎯e쎯《	-11.0759
e쎯ycb쎯	-11.0761
su쎯kkk쎯	-11.0761
vtkd쎯bb쎯	-11.0762
쎈w쎯	-11.0762
qtge쎯	-11.0765
wycm쎯nf쎯ih쎯xeg쎯	-11.0765
gip쎯d쎯	-11.0766
cw쎯jghm쎯	-11.0766
pqk쎯	-11.0766
“gg쎯	-11.0766
lft쎯bw쎯,	-11.0766
iytb쎯jtyq쎯	-11.0767
a쎯wt쎯uk쎯uyh쎯	-11.0768
,y쎯rf쎯	-11.077
ta쎯lkmi쎯gae쎯	-11.077
iagw쎯ujn쎯r쎯	-11.0771
cd쎯pfjm쎯	-11.0772
udy쎯fqb쎯	-11.0772
hcd쎯e쎯	-11.0773
r쎯tg쎯wgkb쎯	-11.0775
xtdh쎯cw쎯	-11.0775
ai쎯mmm쎯	-11.0776
wvmj쎯	-11.0776
vcb쎯jf쎯	-11.0777
wh쎯l쎯pe쎯t쎯f쎯aq쎯	-11.0777
jty쎯irh쎯	-11.0778
u쎯kkk쎯ga쎯v쎯	-11.0779
edy쎯	-11.078
쎃eee쎯bm쎯tg쎯	-11.0781
iq쎯yuo쎯	-11.0781
jq쎯h쎯	-11.0787
et쎯jg쎯	-11.0787
ce쎯d쎯	-11.079
rad쎯	-11.0791
tuj쎯xq쎯	-11.0792
ufg쎯cm쎯	-11.0792
qtj쎯pe쎯	-11.0792
tx쎯ag쎯nm쎯	-11.0796
ymc쎯ytb쎯yjj쎯wg쎯	-11.0796
yyq쎯wf쎯	-11.0796
jb쎯ta쎯	-11.0797
lfq쎯mw쎯	-11.0801
rdj쎯ta쎯	-11.0803
i쎯on쎯wbj쎯usr쎯	-11.0803
rnnw쎯pgn쎯r쎯	-11.0806
ip쎯yu쎯	-11.0806
hf쎯	-11.0808
xa쎯gmiu쎯	-11.0808
gcf쎯gf쎯	-11.081
쎈zzsx쎯	-11.0811
tu쎯ip쎯v쎯nae쎯cm쎯	-11.0814
zzbd쎯ck쎯iyo쎯	-11.0814
ovt쎯tfk쎯	-11.0815
ltu쎯》	-11.0815
ym쎯rfm쎯jg쎯	-11.0817
bm쎯thgc쎯py쎯:쎉쎇쎈쎇	-11.0818
dn쎯wqj쎯	-11.082
,tffy쎯	-11.082
dy쎯ide쎯	-11.082
mhhm쎯	-11.082
rg쎯w쎯	-11.0821
wc쎯lw쎯	-11.0821
ua쎯aqt쎯tj쎯	-11.0821
pfi쎯xj쎯,	-11.0825
qkql쎯	-11.0826
uq쎯cep쎯wgj쎯tjh쎯,	-11.0826
wu쎯r쎯	-11.083
sm쎯gj쎯	-11.083
쎃.쎈	-11.0831
ftjb쎯i쎯	-11.0832
dnv쎯gu쎯oy쎯	-11.0834
:쎇	-11.0835
kkk쎯kfi쎯	-11.0837
vk쎯m쎯	-11.0837
fgh쎯qq쎯rh쎯	-11.0837
k쎯yygy쎯qk쎯	-11.0838
fhv쎯fnr쎯	-11.0839
dgh쎯ftx쎯	-11.084
dgj쎯tt쎯nnh쎯if쎯	-11.0845
pei쎯og쎯tg쎯u쎯	-11.0845
o쎯g쎯wsg쎯	-11.0847
vv쎯bu쎯	-11.085
dd쎯gcft쎯	-11.0851
gd쎯bb쎯	-11.0851
oge쎯iad쎯	-11.0853
sm쎯fcl쎯	-11.0853
qev쎯yfn쎯	-11.0853
hi쎯swb쎯	-11.0854
xk쎯rmhj쎯	-11.0855
cep쎯tyg쎯	-11.0855
,xx쎯cf쎯jvko쎯	-11.0856
fcl쎯lt쎯ip쎯	-11.0858
mga쎯》:“	-11.0858
e쎯egl쎯gf쎯	-11.0858
dg쎯dj쎯	-11.0859
wty쎯kht쎯pl쎯	-11.0862
zzbd쎯yygt쎯sghg쎯	-11.0862
bd쎯epc쎯	-11.0863
쎁쎃쎃	-11.0863
itm쎯iyt쎯	-11.0865
nae쎯wf쎯	-11.0867
쎅쎀dq쎯,	-11.0867
wfn쎯dd쎯	-11.0867
ty쎯ip쎯	-11.0867
쎀쎀wtu쎯w쎯,	-11.0867
ly쎯	-11.0869
,dnv쎯	-11.0869
yo쎯jg쎯	-11.087
mmm쎯wwk쎯	-11.0874
zzbd쎯ym쎯uqt쎯	-11.0876
txgi쎯wxf쎯r쎯	-11.0876
uji쎯sghg쎯	-11.0877
lkmi쎯syg쎯gae쎯	-11.0877
쎁쎉쎈쎈	-11.0883
ufg쎯gqjo쎯	-11.0884
쎂쎃쎀	-11.0884
ad쎯f쎯.	-11.0885
pey쎯	-11.0886
puhc쎯iwyf쎯o쎯“	-11.0887
ige쎯gj쎯	-11.0888
oy쎯,pa쎯	-11.0889
ga쎯uit쎯	-11.0891
c쎯sghg쎯	-11.0891
g쎯fh쎯d쎯	-11.0892
tk쎯aa쎯	-11.0895
ym쎯ahty쎯	-11.0896
xxf쎯og쎯gf쎯h쎯itx쎯	-11.0899
sfm쎯	-11.09
nty쎯qk쎯	-11.0901
gs쎯umd쎯	-11.0904
ujf쎯uqt쎯	-11.0905
fd쎯wksf쎯	-11.0906
a쎯wt쎯tv쎯km쎯wf쎯	-11.0907
wv쎯bpf쎯	-11.0907
sk쎯sve쎯rnd쎯	-11.0908
mq쎯wwwk쎯	-11.0909
sdm쎯id쎯	-11.0909
k쎯atd쎯bpf쎯	-11.091
gu쎯my쎯	-11.0911
mqq쎯gfi쎯	-11.0911
wf쎯e쎯	-11.0912
xf쎯og쎯	-11.0914
zzbd쎯yygt쎯ai쎯	-11.0915
idg쎯	-11.0916
xjt쎯	-11.0918
fny쎯pe쎯.	-11.0918
tif쎯tg쎯	-11.0919
eyj쎯	-11.092
gqje쎯thg쎯	-11.092
i쎯je쎯	-11.0921
spwk쎯	-11.0921
sfi쎯ykw쎯	-11.0923
wb쎯gip쎯	-11.0924
yhk쎯)	-11.0925
,ai쎯jty쎯	-11.0925
sh쎯rc쎯	-11.0925
pds쎯tg쎯	-11.0927
xwy쎯qiu쎯	-11.0927
쎂qk쎯	-11.0929
pyfc쎯	-11.0932
dgtg쎯img쎯wx쎯a쎯	-11.0934
tdnj쎯	-11.0936
oe쎯ufg쎯	-11.0936
xt쎯fny쎯lkb쎯	-11.0937
usr쎯tg쎯	-11.0939
ip쎯sy쎯wf쎯yyq쎯	-11.094
av쎯pu쎯	-11.0941
,ua쎯e쎯	-11.0941
r쎯td쎯ykw쎯	-11.0942
wkhh쎯fay쎯	-11.0944
o쎯ad쎯dbm쎯,	-11.0945
x쎯iyj쎯jgm쎯	-11.0947
a쎯wt쎯ijl쎯ya쎯	-11.0948
tk쎯yy쎯dm쎯	-11.0949
dgtg쎯amd쎯	-11.095
qth쎯	-11.095
ih쎯fnw쎯	-11.0952
tffu쎯gf쎯	-11.0954
ide쎯aq쎯	-11.0954
um쎯et쎯	-11.0955
ukn쎯a쎯wf쎯	-11.0956
uqf쎯c쎯	-11.0958
sps쎯sap쎯	-11.0961
쎅eee쎯,	-11.0964
lu쎯it쎯	-11.0965
rgt쎯rgy쎯gfi쎯	-11.0966
itx쎯rdc쎯쎂	-11.0968
wv쎯od쎯:	-11.0969
qnth쎯)	-11.0969
un	-11.097
faw쎯gcf쎯	-11.0973
쎃zzsx쎯	-11.0973
r쎯su쎯bb쎯	-11.0974
,iy쎯tgj쎯	-11.0976
uyh쎯zzbd쎯	-11.0976
x쎯dl쎯b쎯	-11.0976
vfb쎯jfd쎯	-11.0976
ufg쎯dd쎯	-11.0977
thd쎯egl쎯	-11.0978
itf쎯uqv쎯av쎯	-11.0979
tffu쎯f쎯.	-11.098
dga쎯v쎯zzbd쎯	-11.098
gj쎯ntg쎯	-11.0981
c쎯tkh쎯sfhg쎯og쎯	-11.0982
r쎯wdn쎯rvyl쎯	-11.0983
yygt쎯itp쎯et쎯gf쎯	-11.0983
iwv쎯	-11.0984
pu쎯tr쎯	-11.0984
td쎯qk쎯r쎯	-11.0985
ga쎯og쎯jf쎯uj쎯	-11.0985
wf쎯gkl쎯gj쎯gk쎯ta쎯	-11.0987
쎅쎀zzts쎯	-11.0989
tffu쎯l쎯pe쎯	-11.0989
vfhp쎯ymc쎯zzbd쎯	-11.099
sov쎯tel쎯	-11.0992
yngk쎯ygk쎯	-11.0992
,lk쎯xk쎯	-11.0992
쎀rh쎯)	-11.0993
udyj쎯ryn쎯	-11.0993
k쎯wj쎯	-11.0994
py쎯wf쎯uqt쎯uwl쎯	-11.0994
mqb쎯gc쎯	-11.1
pe쎯jfd쎯	-11.1001
dnv쎯qq쎯	-11.1003
wud쎯	-11.1006
b쎯g쎯rx쎯	-11.1006
hjs쎯dm쎯	-11.1007
rfc쎯sy쎯km쎯	-11.1009
y쎯s쎯o쎯	-11.1009
.....	-11.1009
쎀mfk쎯rh쎯	-11.101
eb쎯tl쎯sm쎯sq쎯	-11.1011
uj쎯bgk쎯	-11.1012
,쎁쎉쎉쎄rh쎯	-11.1013
pah쎯	-11.1016
ld쎯dmj쎯	-11.102
iyc쎯tf쎯r쎯	-11.1021
pwat쎯fp쎯	-11.1021
bm쎯qc쎯r쎯	-11.1022
mftj쎯	-11.1023
vl쎯	-11.1023
――	-11.1024
》w쎯tr쎯pp쎯g쎯.	-11.1025
vfhp쎯dn쎯rg쎯	-11.1026
ige쎯gs쎯	-11.1026
qw쎯	-11.1028
rrhy쎯wygg쎯	-11.1029
ruv쎯udh쎯	-11.103
jn쎯bb쎯tu쎯rfc쎯	-11.103
gf쎯쎂쎀쎀쎂rh쎯	-11.1031
anb쎯sy쎯kkk쎯	-11.1032
qn쎯ufy쎯ige쎯ujfj쎯	-11.1032
y쎯s쎯dga쎯pwv쎯	-11.1034
fnrt쎯rn쎯.	-11.1034
jjjj쎯adwe쎯:	-11.1035
atd쎯ubk쎯kkd쎯sa쎯	-11.1035
ith쎯tv쎯	-11.1037
t쎯imkf쎯	-11.1038
jb쎯rg쎯g쎯	-11.1039
쎁쎀쎄	-11.104
sqqd쎯	-11.104
rmhj쎯tfkp쎯zzbd쎯	-11.1041
ii쎯uqwm쎯idr쎯	-11.1042
i쎯vk쎯	-11.1042
ts쎯wgq쎯》	-11.1046
쎁쎀쎀oy쎯	-11.1046
img쎯ae쎯	-11.1046
yh쎯wqin쎯	-11.1046
ftbt쎯yce쎯pe쎯	-11.1049
w쎯uqw쎯	-11.1049
wdyy쎯	-11.105
ywx쎯ygh쎯	-11.105
ixw쎯fyn쎯	-11.1052
geq쎯jn쎯	-11.1053
ddh쎯uyh쎯ymhj쎯	-11.1053
ga쎯rd쎯wbj쎯usr쎯	-11.1053
ta쎯yy쎯gae쎯	-11.1055
rvyo쎯th쎯gj쎯	-11.1055
txe쎯	-11.1057
whf쎯og쎯oge쎯pyj쎯	-11.1057
ma쎯rr쎯	-11.1058
ke쎯bwf쎯	-11.1059
sw쎯imj쎯ymc쎯tlf쎯	-11.1059
ftbt쎯ip쎯dn쎯js쎯	-11.1061
iagw쎯ytt쎯	-11.1062
sg쎯sf쎯	-11.1063
v쎯je쎯fny쎯tjh쎯	-11.1064
쎄w쎯,	-11.1065
쎃eee쎯,	-11.1067
xjh쎯	-11.1068
xf쎯sq쎯r쎯	-11.1069
rfm쎯wk쎯	-11.1069
tfq쎯rg쎯aqt쎯tj쎯	-11.1071
puhc쎯gq쎯o쎯	-11.1071
arj쎯	-11.1074
svc쎯syp쎯	-11.1076
.y쎯s쎯ww쎯gk쎯	-11.1078
lt쎯ya쎯	-11.1079
r쎯sm쎯wf쎯	-11.1079
pwv쎯	-11.108
r쎯dyn쎯ya쎯	-11.1082
hc쎯af쎯	-11.1082
agnn쎯vit쎯	-11.1085
쎁쎇쎅	-11.1085
lfn쎯gajf쎯	-11.1085
gmap쎯jm쎯	-11.1086
g쎯nnh쎯	-11.1088
adwl쎯pwfi쎯	-11.1088
tmd쎯ny쎯	-11.1089
ntg쎯wwj쎯xx쎯	-11.1089
wam쎯	-11.1092
r쎯xf쎯js쎯	-11.1092
txg쎯g쎯wug쎯	-11.1094
(쎁쎈쎈	-11.1094
r쎯fwm쎯pg쎯	-11.1095
ds쎯zzbd쎯	-11.1097
r쎯ud쎯qvfp쎯	-11.1098
zzbd쎯ai쎯	-11.1099
uuj쎯syp쎯b쎯	-11.11
tgl쎯	-11.1103
mqq쎯hko쎯	-11.1103
es쎯yyn쎯	-11.1105
gk쎯og쎯r쎯	-11.1106
.쎁쎉쎅쎈rh쎯	-11.1107
fiy쎯bk쎯	-11.1107
v쎯rnr쎯	-11.1109
ejt쎯	-11.111
,ux쎯yiu쎯	-11.111
dy쎯pye쎯	-11.1111
gog쎯dy쎯	-11.1112
쎇eee쎯bm쎯tg쎯	-11.1113
qgj쎯ssss쎯yjj쎯	-11.1114
aqrn쎯awx쎯	-11.1115
쎁eee쎯bm쎯tg쎯	-11.1115
bwf쎯rp쎯r쎯	-11.1116
df쎯tj쎯	-11.1116
o쎯hh쎯	-11.1116
g쎯tyna쎯	-11.1118
jb쎯e쎯	-11.1118
,쎁쎉쎈쎈rh쎯	-11.1119
wf쎯nae쎯	-11.1119
snb쎯sjtq쎯	-11.112
,tk쎯	-11.1121
rnb쎯,	-11.1124
,kj쎯	-11.1125
yss쎯img쎯	-11.1128
dr쎯go쎯r쎯	-11.1129
xv쎯f쎯	-11.1133
wty쎯dd쎯	-11.1133
dd쎯yd쎯	-11.1138
u쎯og쎯v쎯nae쎯	-11.1141
aqg쎯aqr쎯ah쎯	-11.1142
ywg쎯toc쎯	-11.1144
yo쎯o쎯	-11.1145
wfkb쎯tdp쎯r쎯	-11.1145
pt쎯yww쎯ftbt쎯rep쎯	-11.1145
jqr쎯gf쎯	-11.1145
,gip쎯j쎯	-11.1145
,yid쎯	-11.1147
,fm쎯wycb쎯	-11.1147
uce쎯,	-11.1147
쎁쎀eee쎯tg쎯,	-11.1149
rvk쎯um쎯xh쎯uqwm쎯	-11.1149
fny쎯og쎯xxf쎯og쎯	-11.115
sf쎯n쎯tv쎯km쎯wf쎯	-11.115
udh쎯tgj쎯	-11.115
wc쎯ngk쎯.wc쎯ngk쎯	-11.1151
vaf쎯wj쎯	-11.1152
bwf쎯vi쎯	-11.1154
st쎯qiu쎯	-11.1162
,vfhp쎯uu쎯	-11.1162
dnv쎯ylf쎯,	-11.1164
xxf쎯og쎯.	-11.1167
c쎯tyg쎯	-11.117
adww쎯	-11.117
tuxj쎯	-11.117
쎈djfd쎯oy쎯	-11.1171
puq쎯	-11.1173
iqn쎯igs쎯	-11.1173
tnp쎯wynb쎯	-11.1174
i쎯on쎯f쎯	-11.1176
lhnh쎯udy쎯eri쎯	-11.1177
wf쎯yf쎯jgm쎯	-11.1177
rwp쎯	-11.1177
atm쎯	-11.1179
cqw쎯qi쎯	-11.118
qnd쎯hwb쎯	-11.118
쎁쎉쎉쎁	-11.1181
쎁쎉쎈쎆	-11.1183
쎁쎀쎉	-11.1184
sf쎯xe쎯	-11.1186
igey쎯ai쎯	-11.1188
bct쎯wgk쎯	-11.1191
cbd쎯rb쎯	-11.1193
thd쎯bg쎯	-11.1193
jj쎯egc쎯	-11.1194
,wys쎯	-11.1194
l쎯tdij쎯	-11.1195
vfhp쎯ymc쎯a쎯tkgg쎯	-11.1196
t쎯k쎯l쎯	-11.1199
ym쎯wv쎯bb쎯	-11.12
eta쎯	-11.12
ikh쎯unr쎯	-11.1201
wsg쎯yce쎯fnrt쎯	-11.1202
zzbd쎯sn쎯	-11.1202
q쎯ith쎯	-11.1204
yssr쎯rta쎯lg쎯	-11.1204
amyn쎯dx쎯	-11.1206
fny쎯uyh쎯ww쎯gk쎯	-11.1206
xke쎯	-11.1206
wye쎯uqw쎯	-11.1207
쎈zzts쎯	-11.1207
bm쎯qkm쎯	-11.1209
jo쎯hhu쎯anu쎯thg쎯:	-11.1209
fhw쎯alt쎯	-11.1213
쎁쎀쎈쎀	-11.1213
ftx쎯src쎯	-11.1213
ahtg쎯	-11.1213
쎃.쎇	-11.1216
fiy쎯v쎯nae쎯	-11.1217
k쎯l쎯a쎯pei쎯xa쎯pl쎯	-11.1219
gmww쎯adm쎯	-11.1221
bk쎯ce쎯uk쎯uyh쎯	-11.1222
afwu쎯apw쎯	-11.1223
zzbd쎯ggi쎯fuj쎯	-11.1223
bd쎯yw쎯	-11.1223
r쎯gkip쎯ya쎯	-11.1224
pfjf쎯qiu쎯	-11.1224
ftbt쎯pgc쎯zzbd쎯	-11.1225
ol쎯ajj쎯	-11.1231
jtg쎯xe쎯	-11.1231
adw쎯wqu쎯	-11.1234
r쎯nge쎯ukq쎯gh쎯	-11.1235
fny쎯og쎯w쎯ft쎯	-11.1237
qh쎯ian쎯	-11.1239
x쎯iyj쎯vfhp쎯ymc쎯	-11.124
yni쎯ngj쎯	-11.124
i쎯tffu쎯	-11.1241
uqd쎯zzbd쎯	-11.1242
wxd쎯wtuf쎯	-11.1245
wv쎯tf쎯	-11.1245
khv쎯bde쎯	-11.1247
ynth쎯	-11.1247
apg쎯dgh쎯ytt쎯	-11.1247
ga쎯v쎯um쎯	-11.1247
gd쎯xg쎯	-11.1249
wq쎯wu쎯	-11.1249
쎄djfd쎯oy쎯	-11.125
nft쎯	-11.125
bb쎯uxh쎯	-11.1251
wa쎯kgn쎯	-11.1252
,px쎯r쎯	-11.1256
ripq쎯	-11.1257
dm쎯tkw쎯o쎯	-11.1257
a쎯tkgg쎯adm쎯hhhh쎯	-11.126
qtdn쎯vk쎯	-11.126
trf쎯rytp쎯	-11.1261
rqk쎯	-11.1264
trf쎯e쎯	-11.1264
e쎯ud쎯r쎯	-11.1265
yfd쎯qfhw쎯	-11.1265
tq쎯kt쎯	-11.1268
쎁zzbd쎯쎂	-11.1268
r쎯wqu쎯us쎯	-11.127
ftxu쎯gxi쎯	-11.127
ght쎯ick쎯tv쎯km쎯	-11.1272
aw쎯ynky쎯	-11.1273
uhc쎯apl쎯	-11.1275
mq쎯jy쎯te쎯gmy쎯r쎯	-11.1276
i쎯tp쎯	-11.1276
djdy쎯	-11.128
xuj쎯tamw쎯	-11.1281
tp쎯zzbd쎯	-11.1282
qie쎯wyk쎯zzbd쎯	-11.1282
adw쎯wb쎯ntg쎯ce쎯	-11.1283
k쎯l쎯w쎯n쎯	-11.1284
쎅쎅쎀	-11.1285
nnw쎯gkip쎯v쎯nae쎯	-11.1286
w쎯o쎯	-11.1287
fl쎯m쎯	-11.1291
pp쎯puv쎯	-11.1291
rfc쎯sy쎯lt쎯jg쎯	-11.1292
,wyc쎯	-11.1293
쎆%	-11.1293
fjh쎯wgku쎯	-11.1294
ymc쎯yf쎯bpf쎯	-11.1294
khd쎯l쎯	-11.1296
jf쎯qkhh쎯	-11.1296
ipe쎯xpw쎯	-11.1297
tx쎯g쎯wug쎯	-11.1299
ue쎯gq쎯eri쎯	-11.13
nied쎯	-11.13
《rg쎯ic쎯nnh쎯zzbd쎯	-11.13
eaf쎯	-11.1302
pt쎯pe쎯	-11.1303
khuh쎯	-11.1303
aqn쎯	-11.1304
쎀쎀kgb쎯	-11.1305
uxh쎯uxh쎯	-11.1305
qie쎯wyk쎯nh쎯ty쎯	-11.1308
thd쎯wy쎯	-11.1308
j쎯q쎯	-11.1309
g쎯yngk쎯	-11.131
dy쎯pf쎯	-11.131
lfn쎯yh쎯	-11.131
rdj쎯me쎯	-11.131
쎀쎀qq쎯dnv쎯fqb쎯	-11.131
ays쎯avd쎯	-11.1311
r쎯trf쎯gqr쎯	-11.1312
mq쎯ynnd쎯	-11.1316
whf쎯og쎯t쎯	-11.1316
fqb쎯rh쎯(	-11.1317
bynw쎯bb쎯r쎯	-11.1317
e쎯hko쎯	-11.1317
r쎯if쎯tvfh쎯	-11.1318
yft쎯wnt쎯	-11.1321
쎇쎂쎀	-11.1323
y쎯wtf쎯atd쎯jgm쎯.	-11.1326
fnv쎯	-11.1326
dmd쎯sgc쎯	-11.1327
lfo	-11.1327
《ud쎯gf쎯	-11.1328
qdw쎯	-11.1329
《k쎯wxf쎯	-11.133
xef쎯qev쎯	-11.1331
rdw쎯	-11.1331
amy쎯ldd쎯	-11.1335
wt쎯ma쎯pe쎯	-11.1337
jh쎯ybv쎯	-11.1337
r쎯ick쎯ubk쎯	-11.1337
dj쎯xk쎯	-11.134
qn쎯lfnh쎯	-11.1341
os쎯iq쎯	-11.1344
qmq쎯sft쎯	-11.1345
,wgkq쎯et쎯	-11.1345
dd쎯thd쎯qd쎯	-11.1346
wf쎯gj쎯gk쎯	-11.1346
qc쎯gxi쎯	-11.1346
ip쎯suq쎯zzbd쎯	-11.1346
ve쎯img쎯	-11.1347
y쎯s쎯mh쎯	-11.1347
dn쎯rh쎯	-11.1348
bm쎯tf쎯	-11.1349
fp쎯qq쎯	-11.135
fff쎯	-11.135
sc쎯uwl쎯	-11.1351
fu쎯dd쎯	-11.1351
bm쎯thgc쎯b쎯	-11.1351
ma쎯anb쎯	-11.1352
ymf쎯yaa쎯	-11.1354
wg쎯l쎯wdn쎯te쎯	-11.1356
wdn쎯rfm쎯r쎯u쎯kkk쎯	-11.1357
,쎁쎉쎈쎆rh쎯	-11.1357
qtj쎯hw쎯	-11.1358
sf쎯jfd쎯	-11.1359
tk쎯naj쎯	-11.1359
tp쎯gj쎯rmhj쎯ya쎯	-11.1359
qk쎯kn쎯	-11.1361
fgh쎯gg쎯rh쎯	-11.1362
thd쎯go쎯ii쎯	-11.1363
udy쎯.	-11.1364
xyna쎯pj쎯	-11.1365
qve쎯uqd쎯	-11.1365
gmww쎯umd쎯	-11.1367
fuk쎯yk쎯gyt쎯	-11.1368
ypt쎯dq쎯	-11.1369
fn쎯drin쎯	-11.1371
tffu쎯sh쎯ud쎯	-11.1371
you쎯sk쎯	-11.1373
aw쎯u쎯ipk쎯	-11.1373
xf쎯tha쎯	-11.1376
ef쎯oo쎯	-11.1377
cwg쎯ygh쎯	-11.1377
”yo쎯tkh쎯	-11.1379
spw쎯	-11.1381
쎁쎁wh쎯	-11.1382
dp쎯dn쎯	-11.1383
pl쎯lft쎯	-11.1383
ovt쎯rnd쎯xg쎯	-11.1384
rn쎯aft쎯	-11.1385
p쎯jf쎯	-11.1385
ggi쎯gfi쎯	-11.1387
nfa쎯	-11.1387
qnd쎯	-11.1387
fge쎯jtyq쎯	-11.1387
fny쎯pe쎯zzbd쎯	-11.1387
,j쎯g쎯pe쎯wys쎯	-11.139
ipkh쎯tl쎯gj쎯gk쎯,	-11.139
hx쎯f쎯	-11.1391
rytp쎯	-11.1391
ygu쎯xx쎯	-11.1391
pfq쎯uduk쎯,	-11.1392
yaa쎯ltu쎯	-11.1392
),j쎯	-11.1392
fge쎯pt쎯	-11.1393
bc쎯qk쎯	-11.1395
쎂쎀zzts쎯	-11.1395
jn쎯idr쎯tdp쎯sgn쎯	-11.1397
nh쎯gc쎯	-11.1398
tmdf쎯xg쎯	-11.1398
ghd쎯dqe쎯r쎯	-11.1399
afd쎯aya쎯	-11.1402
fg쎯fgh쎯lh쎯	-11.1404
fm쎯mdfj쎯	-11.1404
쎀쎀쎀	-11.1405
r쎯x쎯maw쎯	-11.1408
ggi쎯fuj쎯k쎯	-11.1411
elv쎯fghg쎯	-11.1412
ykg쎯uda쎯	-11.1415
ujn쎯fn쎯	-11.1416
ym쎯sfi쎯uwy쎯	-11.1416
tg쎯ow쎯	-11.1417
aet쎯rvyo쎯	-11.1417
nnk쎯dm쎯	-11.1418
,rpv쎯jvko쎯	-11.1418
idl쎯gef쎯	-11.142
nx쎯adwr쎯	-11.1422
oge쎯uwl쎯fiy쎯oge쎯	-11.1422
yf쎯tg쎯	-11.1426
mt쎯tkh쎯	-11.1426
ym쎯gxi쎯rfm쎯	-11.1427
gkl쎯ukn쎯	-11.1428
nnh쎯》:“	-11.1429
ue쎯dm쎯	-11.143
cd쎯ftg쎯nnh쎯	-11.1431
khdc쎯	-11.1431
ofd쎯	-11.1431
dq쎯eb쎯	-11.1432
vk쎯gh쎯:	-11.1433
fw쎯gv쎯	-11.1433
ht쎯hna쎯	-11.1434
dhi쎯	-11.1438
lh쎯dm쎯	-11.1439
tk쎯lwj쎯	-11.1439
kf쎯sgm쎯	-11.1441
opw쎯hko쎯	-11.1442
o쎯et쎯yne쎯rj쎯waw쎯	-11.1442
ry	-11.1445
dgh쎯qfhw쎯	-11.1446
jtd쎯pntj쎯	-11.1446
mnbm쎯fhn쎯	-11.1447
,쎁쎉쎈쎇rh쎯	-11.1453
i쎯fcl쎯	-11.1455
ue쎯jy쎯	-11.1456
yid쎯cf쎯	-11.1457
ax쎯sft쎯	-11.1458
iq쎯idr쎯	-11.1463
ih쎯iytb쎯ca쎯	-11.1465
gxgu쎯ntg쎯	-11.1466
gae쎯hhhh쎯	-11.1467
-쎁쎁	-11.1467
bm쎯qc쎯	-11.1468
ep쎯qiu쎯uff쎯	-11.1474
lk쎯pnt쎯	-11.1474
쎉wc쎯jfd쎯	-11.1474
pye쎯wqu쎯	-11.1478
qtfj쎯img쎯	-11.1478
lt쎯jg쎯dcw쎯djb쎯,	-11.1479
puhc쎯yw쎯o쎯j쎯	-11.1481
zzsx쎯쎅	-11.1482
dgk쎯dh쎯	-11.1484
ey쎯yid쎯et쎯	-11.1486
,dty쎯tq쎯	-11.1487
vu쎯	-11.1488
pg쎯jg쎯	-11.1488
gyg쎯hko쎯	-11.1489
,rs쎯tfkp쎯	-11.1491
쎁쎀dnv쎯	-11.1492
.y쎯rf쎯	-11.1493
쎁쎅wc쎯jfd쎯	-11.1493
,i쎯ce쎯	-11.1495
쎁쎉쎂쎄rh쎯	-11.1495
uth쎯v쎯	-11.1495
whm쎯pwfi쎯	-11.1496
rmn쎯hko쎯	-11.1497
,xj쎯d쎯	-11.1497
vfhp쎯rmhj쎯	-11.1497
,g쎯fh쎯	-11.1498
쎄oy쎯	-11.1498
)pb쎯	-11.1501
udj쎯mww쎯	-11.1501
tve쎯ym쎯	-11.1502
uqf쎯dn쎯o쎯	-11.1502
ytey쎯iytb쎯aq쎯	-11.1503
g쎯fg쎯	-11.1504
uqf쎯wycm쎯	-11.1507
xyna쎯pgn쎯r쎯	-11.1507
mq쎯es쎯	-11.1509
qve쎯skf쎯	-11.151
ifj쎯ytyh쎯	-11.1511
ipk쎯vfhp쎯	-11.1512
〗	-11.1512
drin쎯ujn쎯	-11.1512
bm쎯v쎯,	-11.1514
rfc쎯sy쎯gn쎯	-11.1514
ctdj쎯	-11.1515
ruv쎯ty쎯	-11.1515
dgtg쎯sft쎯	-11.1515
쎁쎉쎈쎅	-11.1515
aq쎯w쎯n쎯ght쎯ywf쎯	-11.1516
ooo쎯oqv쎯	-11.1517
〖	-11.1517
ih쎯qfhw쎯	-11.1518
.ic쎯	-11.152
frc쎯	-11.152
fghg쎯rgw쎯	-11.1521
xgm쎯uqt쎯	-11.1522
dht쎯gd쎯	-11.1524
zzbd쎯fcu쎯fm쎯	-11.1526
wx쎯egc쎯	-11.153
sm쎯gajf쎯	-11.1531
pp쎯ytey쎯	-11.1531
jtyq쎯ipkm쎯	-11.1533
adi쎯	-11.1533
ax쎯og쎯	-11.1534
".	-11.1534
mmm쎯ai쎯dd쎯ip쎯	-11.1535
쎁쎀쎃	-11.1535
qgl쎯	-11.1536
xyc쎯tdtf쎯	-11.1538
ukn쎯vfhp쎯tam쎯	-11.1538
de쎯shi쎯	-11.1539
al쎯fw쎯	-11.1539
zzzy쎯zzzy쎯	-11.154
쎆.쎀	-11.1541
uduk쎯yv쎯	-11.1542
g쎯ih쎯	-11.1543
ifk쎯uqv쎯	-11.1543
ss쎯fnrt쎯	-11.1544
.wg쎯nnh쎯	-11.1544
쎀w쎯,adw쎯k쎯	-11.1545
wxd쎯tm쎯	-11.1546
j쎯uqf쎯	-11.1549
ian쎯bct쎯	-11.1551
xmw쎯tuk쎯	-11.1551
ujfj쎯wug쎯zzbd쎯	-11.1551
쎆쎅쎀	-11.1552
toc쎯yygy쎯:	-11.1553
wk쎯pg쎯	-11.1557
jn쎯jyie쎯ab쎯	-11.1557
hk쎯f쎯dm쎯tkw쎯쎂	-11.1558
qsu쎯w쎯	-11.1558
쎁.쎉	-11.156
qbl쎯	-11.156
ip쎯wf쎯wf쎯km쎯,	-11.156
isk쎯egc쎯	-11.1561
ty쎯xyna쎯	-11.1561
wv쎯aq쎯	-11.1561
iuj쎯ytyh쎯	-11.1564
mmm쎯gh쎯	-11.1564
ip쎯rb쎯》	-11.1565
if쎯ygk쎯	-11.1566
wv쎯sr쎯zzbd쎯	-11.1566
쎂쎅쎀dq쎯	-11.1566
ftg쎯ygh쎯	-11.1567
gh쎯fcu쎯	-11.1568
yjjh쎯jg쎯	-11.1571
a쎯ycb쎯	-11.1571
tx쎯g쎯rx쎯	-11.1572
sm쎯sa쎯a쎯og쎯	-11.1573
쎄쎀wtu쎯	-11.1573
itf쎯its쎯	-11.1575
gkl쎯y쎯yam쎯zzbd쎯	-11.1579
img쎯rnb쎯	-11.158
ul쎯puhc쎯	-11.1583
ruv쎯udi쎯	-11.1583
,ai쎯gn쎯	-11.1584
dl쎯rh쎯	-11.1588
ta쎯dw쎯ymhj쎯	-11.1589
mf쎯tl쎯tp쎯gj쎯	-11.159
fq쎯qk쎯	-11.159
dmj쎯nnnn쎯	-11.1591
ccyj쎯	-11.1591
uqwv쎯dyn쎯	-11.1591
qvn쎯fiyt쎯	-11.1594
쎄쎀zzts쎯	-11.1594
se쎯dd쎯	-11.1595
,ua쎯gf쎯	-11.1596
img쎯ex쎯	-11.1597
ipkh쎯ybv쎯	-11.1597
yfd쎯bb쎯	-11.1599
fq쎯gxgu쎯	-11.1599
ian쎯wys쎯	-11.1599
vs쎯rfm쎯	-11.16
pb쎯wsg쎯	-11.16
wmw쎯	-11.1603
med쎯	-11.1604
l쎯e쎯uqwm쎯u쎯	-11.1604
hx쎯uqw쎯	-11.1609
cd쎯lk쎯fp쎯	-11.1609
sgtk쎯hpgh쎯	-11.1612
i쎯vb쎯	-11.1613
ipm쎯ipgh쎯	-11.1615
yo쎯fcl쎯	-11.1615
ywx쎯aft쎯	-11.1615
xyna쎯xkw쎯	-11.1616
tffu쎯tk쎯od쎯	-11.1616
px쎯wu쎯r쎯	-11.1621
wbj쎯lw쎯r쎯	-11.1622
pnt쎯puhc쎯	-11.1622
eb쎯tl쎯og쎯	-11.1623
dxy쎯fmk쎯	-11.1623
ymf쎯kfi쎯ou쎯	-11.1625
bm쎯tg쎯rh쎯eee쎯	-11.1626
ujn쎯yq쎯.	-11.1632
lq쎯adwr쎯	-11.1633
tt쎯kd쎯xyna쎯kgn쎯:	-11.1634
dgh쎯shy쎯	-11.1635
mgn쎯	-11.1635
dskf쎯yop쎯	-11.1636
ygl쎯	-11.1636
ud쎯txi쎯r쎯	-11.1637
쎂쎇쎀	-11.1637
ii쎯iyc쎯	-11.1638
usr쎯k쎯l쎯dn쎯uu쎯	-11.1638
.쎁쎉쎃쎄rh쎯	-11.1639
jyq쎯	-11.1641
dg쎯fgh쎯rh쎯	-11.1641
ymf쎯gj쎯	-11.1641
et쎯yne쎯rj쎯waw쎯	-11.1643
ryiy쎯	-11.1644
ad쎯sg쎯h쎯	-11.1645
fm쎯fje쎯	-11.1646
kynw쎯	-11.1647
jjjj쎯yn쎯	-11.1648
a쎯um쎯nnk쎯	-11.1649
dg쎯tffu쎯uqd쎯.	-11.165
uwe쎯	-11.1651
rhf쎯mqb쎯	-11.1651
rkh쎯	-11.1652
ycb쎯》:“	-11.1653
tffu쎯g쎯txi쎯gq쎯	-11.1657
uda쎯klj쎯	-11.1657
ovt쎯ip쎯txi쎯	-11.1658
qnqn쎯t쎯	-11.1658
ymhj쎯ta쎯	-11.166
xwy쎯dskf쎯	-11.1663
kcg쎯	-11.1664
zzbd쎯ggi쎯wk쎯	-11.1664
jfd쎯adwr쎯	-11.1665
jn쎯se쎯	-11.1665
쎃쎀wtu쎯	-11.1668
xe쎯uqwm쎯rfm쎯	-11.1668
ta쎯dtf쎯	-11.1669
fi쎯aib쎯ntg쎯	-11.167
hu쎯	-11.1671
쎂쎀wh쎯	-11.1672
wht쎯gj쎯	-11.1672
ffi쎯aa쎯	-11.1672
“dd쎯	-11.1672
y쎯rs쎯	-11.1672
lp쎯fuj쎯	-11.1673
ipwk쎯gf쎯	-11.1673
tg쎯gqx쎯	-11.1674
gd쎯ft쎯	-11.1676
쎉쎀쎀쎀	-11.1676
tx쎯fgh쎯dg쎯	-11.1677
yygt쎯dd쎯et쎯yne쎯	-11.1679
vnh쎯	-11.168
wg쎯wsg쎯km쎯a쎯	-11.168
쎀yne쎯,	-11.168
fg쎯fgh쎯an쎯xn쎯	-11.1681
x쎯apk쎯saj쎯aa쎯	-11.1682
g쎯ck쎯	-11.1684
veg쎯vfi쎯	-11.1685
pg쎯jf쎯	-11.1685
m쎯wfg쎯	-11.1688
tjh쎯tuk쎯	-11.1688
ggi쎯kht쎯	-11.1689
dga쎯rmhj쎯r쎯	-11.1689
tk쎯adm쎯a쎯wt쎯	-11.1689
,쎁쎉쎈쎂rh쎯	-11.169
x쎯apk쎯gj쎯wynn쎯,	-11.1691
ah쎯hwb쎯	-11.1691
bn쎯yi쎯	-11.1692
thgc쎯gl쎯	-11.1694
rwyg쎯bm쎯b쎯	-11.1694
qqqq쎯ptkm쎯	-11.1696
쎁쎂eee쎯tg쎯,	-11.1698
dh쎯egc쎯	-11.1701
tx쎯vt쎯nm쎯	-11.1702
쎆zzsx쎯	-11.1705
”thgf쎯	-11.1709
bm쎯uqwm쎯	-11.1712
》;	-11.1713
whf쎯og쎯rj쎯waw쎯	-11.1715
.adk쎯	-11.1715
thd쎯ick쎯egc쎯	-11.1715
rfw쎯rf쎯	-11.1716
fd쎯ffuk쎯	-11.1717
uyh쎯ywe쎯	-11.1718
yvh쎯mmm쎯	-11.1719
r쎯fd쎯ymhj쎯	-11.1719
lq쎯ic쎯	-11.172
g쎯xe쎯ftbt쎯jgm쎯	-11.172
wdn쎯hko쎯	-11.172
qie쎯tyg쎯	-11.1722
dqe쎯pg쎯o쎯	-11.1722
gm쎯e쎯bk쎯a쎯	-11.1722
dd쎯eyb쎯	-11.1723
ym쎯kkk쎯rfm쎯r쎯	-11.1724
fku쎯ep쎯r쎯	-11.1725
dl쎯jf쎯	-11.1725
r쎯w쎯tg쎯	-11.1727
awd쎯awyc쎯	-11.1728
ftbt쎯jgm쎯,	-11.1728
fft쎯	-11.1728
ixj쎯	-11.1728
fwm쎯saj쎯jb쎯dd쎯r쎯	-11.1728
gm쎯wynb쎯	-11.1729
ijo쎯iugg쎯	-11.173
zzbd쎯yf쎯tha쎯sm쎯	-11.1733
ty쎯wygg쎯	-11.1733
rn쎯fdm쎯r쎯	-11.1736
쎁쎉쎈쎇	-11.1736
쎄.쎂	-11.1737
r쎯wdt쎯if쎯	-11.1737
dga쎯pwv쎯ga쎯v쎯	-11.1739
fnw쎯,	-11.1739
isk쎯sghg쎯	-11.1739
mwyc쎯fm쎯	-11.1739
trf쎯aq쎯	-11.174
gef쎯qmgk쎯	-11.1742
img쎯zzbd쎯	-11.1742
qwd쎯	-11.1744
ftjo쎯ybv쎯	-11.1744
e쎯qc쎯qqqq쎯ntk쎯	-11.1744
dg쎯w쎯	-11.1744
jtyl쎯hich쎯sw쎯sj쎯	-11.1744
ul쎯rjg쎯wtf쎯	-11.1745
쎁쎉쎈쎄	-11.1747
ujv쎯	-11.1748
쎄.쎈	-11.1748
tve쎯cw쎯	-11.1749
yfn쎯hhu쎯kkd쎯	-11.175
,epc쎯	-11.1751
emc쎯ta쎯	-11.1751
oge쎯iad쎯r쎯	-11.1752
zzbd쎯tg쎯u쎯zzbd쎯	-11.1752
zzbd쎯dmjf쎯	-11.1753
dcw쎯ann쎯	-11.1754
쎂쎅쎀쎀	-11.1755
.쎁쎉쎈쎀rh쎯	-11.1757
ey쎯adw쎯px쎯	-11.1759
iit쎯icw쎯	-11.1759
sm쎯lg쎯	-11.1759
nwyc쎯	-11.1761
gr쎯ia쎯	-11.1761
nh쎯vi쎯b쎯	-11.1763
bk쎯og쎯rfc쎯ce쎯	-11.1764
ts쎯xyy쎯	-11.1765
awx쎯adwe쎯	-11.1765
쎁쎁eee쎯tg쎯,	-11.1765
odm쎯nyb쎯	-11.1768
vvv쎯pyj쎯	-11.1769
nu쎯ntg쎯	-11.1771
쎁쎉쎇쎈	-11.1773
r쎯jb쎯ym쎯	-11.1773
xeg쎯vfhp쎯r쎯	-11.1774
ii쎯idr쎯	-11.1776
uyh쎯qh쎯	-11.1777
rxj쎯pg쎯r쎯	-11.1778
qr쎯dyt쎯	-11.1779
yygt쎯jn쎯	-11.1779
rpv쎯qvfp쎯	-11.178
쎆zzts쎯	-11.1782
zzbd쎯x쎯iyj쎯zzbd쎯	-11.1783
isk쎯qfhw쎯	-11.1785
,ua쎯gn쎯	-11.1788
veg쎯veg쎯	-11.1789
fkuk쎯iw쎯	-11.1789
yd쎯pyk쎯	-11.1789
yge쎯fiy쎯	-11.179
zzbd쎯qqqq쎯gkm쎯	-11.179
ran쎯	-11.1792
ipkh쎯mqb쎯ugm쎯	-11.1793
쎁/쎄	-11.1795
yff쎯wys쎯	-11.1796
ian쎯xyna쎯	-11.1796
gk쎯tl쎯rn쎯	-11.18
ytd쎯jghm쎯	-11.1801
yww쎯ait쎯d쎯	-11.1801
lkd쎯go쎯	-11.1803
et쎯yny쎯	-11.1803
txi쎯gq쎯zzbd쎯	-11.1804
.cep쎯ipkh쎯	-11.1804
sks쎯wwx쎯xx쎯gog쎯	-11.1806
mt쎯rh쎯go쎯	-11.1807
uq쎯gx쎯	-11.1808
ytfp쎯bpf쎯	-11.1808
kq쎯ip쎯	-11.1809
,wgkq쎯adw쎯	-11.1809
:mw쎯lfhf쎯	-11.1809
uthp쎯hw쎯	-11.1812
ul쎯o쎯	-11.1812
fl쎯wf쎯gkl쎯wf쎯ta쎯	-11.1814
wg쎯rh쎯	-11.1815
yy쎯if쎯t쎯	-11.1816
peg쎯iw쎯	-11.1817
lfn쎯ty쎯	-11.1819
bs쎯ru쎯	-11.1819
gmww쎯wug쎯	-11.1819
waw쎯xw쎯	-11.182
wbj쎯wtl쎯	-11.1821
,wk쎯ygh쎯	-11.1822
yyq쎯km쎯	-11.1823
pdc쎯cm쎯	-11.1825
pv쎯wg쎯ntg쎯	-11.1825
zzbd쎯wyv쎯kkk쎯	-11.1826
.px쎯r쎯	-11.1827
uk쎯imkf쎯nnh쎯	-11.1827
dy쎯dr쎯ymhj쎯	-11.1828
kd쎯tfl쎯	-11.1828
hhhh쎯vi쎯gh쎯	-11.1828
ow쎯dyw쎯	-11.183
rgm쎯bj쎯	-11.1831
oo쎯ugh쎯	-11.1832
qo	-11.1832
vvv쎯fghg쎯	-11.1833
.ul쎯d쎯	-11.1834
rh쎯(wc쎯fqb쎯	-11.1834
awx쎯pfqf쎯	-11.1835
.gae쎯pww쎯	-11.1835
qe	-11.1838
(fcu쎯	-11.1838
zzxx쎯-	-11.1839
whm쎯rpws쎯	-11.1839
y쎯wtf쎯tv쎯km쎯	-11.184
gcf쎯wynb쎯d쎯	-11.1841
uqwk쎯yqj쎯zzbd쎯	-11.1841
dmj쎯yyy쎯,	-11.1844
쎁쎀w쎯	-11.1848
쎁쎉쎈쎀	-11.185
u쎯kkk쎯od쎯gajf쎯	-11.185
lu쎯ta쎯	-11.1852
pgk쎯fghg쎯	-11.1855
ta쎯jf쎯uj쎯	-11.1857
rae쎯h쎯	-11.1858
oe쎯otf쎯	-11.1858
쎁쎀쎇	-11.1859
ry쎯aet쎯	-11.186
pg쎯tm쎯	-11.1861
wv쎯ga쎯	-11.1861
mmm쎯ii쎯gl쎯	-11.1863
rvf쎯dgv쎯	-11.1868
qiu쎯adwr쎯	-11.1868
yc쎯wv쎯tjh쎯et쎯	-11.1868
cel쎯nb쎯	-11.1869
lkmi쎯syg쎯	-11.1871
xyna쎯thdi쎯	-11.1872
ld쎯ugm쎯	-11.1872
wys쎯mb쎯	-11.1873
sfhg쎯puhc쎯	-11.1873
adw쎯y쎯s쎯	-11.1874
vf쎯fiy쎯	-11.1874
bn쎯yi쎯j쎯	-11.1875
dxa쎯	-11.1878
bn쎯d쎯	-11.1879
mfk쎯fjh쎯	-11.1879
fny쎯ta쎯	-11.1882
yid쎯rytp쎯	-11.1885
“wg쎯l쎯	-11.1885
lpk쎯ta쎯	-11.1886
.reh쎯e쎯	-11.1887
nu쎯wwwk쎯	-11.1888
fss쎯	-11.1889
fm쎯rcy쎯	-11.1891
ak쎯adw쎯wb쎯	-11.1892
r쎯g쎯gcft쎯vb쎯ygu쎯	-11.1894
,tfq쎯umd쎯	-11.1894
wfny쎯udp쎯	-11.1897
i쎯ywx쎯	-11.1898
,j쎯l쎯mw쎯	-11.1899
쎄kgn쎯	-11.1902
yb쎯ny쎯	-11.1902
udi쎯v쎯	-11.1902
yy쎯aa쎯.	-11.1904
tf쎯ght쎯aq쎯	-11.1906
tk쎯ith쎯	-11.1906
k쎯r쎯yid쎯et쎯	-11.1907
udyj쎯gqf쎯og쎯	-11.1908
itf쎯ye쎯	-11.1909
쎈gu쎯yy쎯wc쎯jfd쎯,	-11.191
sfi쎯yn쎯	-11.1911
ykhe쎯	-11.1911
uxt쎯bct쎯	-11.1911
adw쎯wb쎯trf쎯hko쎯	-11.1911
zzf쎯	-11.1912
쎁oy쎯	-11.1912
lfn쎯fcl쎯	-11.1913
xa쎯shi쎯	-11.1914
fm쎯umd쎯	-11.1915
ga쎯nae쎯b쎯	-11.1917
,dty쎯qk쎯	-11.1917
pww쎯tkw쎯yx쎯	-11.1917
wd쎯yf쎯	-11.1917
쎁쎂쎁	-11.1917
rnb쎯rvyl쎯	-11.1918
,ux쎯wycb쎯	-11.1918
wtr쎯l쎯	-11.1919
ai쎯aq쎯	-11.1919
rg쎯wa쎯	-11.192
wsg쎯yce쎯qnp쎯	-11.192
sghg쎯rcy쎯	-11.1921
ym쎯wqa쎯	-11.1922
a쎯wt쎯ijo쎯ya쎯	-11.1924
tx쎯fgh쎯nm쎯	-11.1925
쎁쎀eee쎯bm쎯tg쎯,	-11.1926
tvfh쎯jgm쎯gk쎯tl쎯	-11.1926
uq쎯cep쎯yy쎯wgj쎯	-11.1927
xv쎯wx쎯yx쎯	-11.1928
puhc쎯rpd쎯	-11.1928
ipwk쎯gf쎯ii쎯	-11.1928
r쎯pw쎯uj쎯	-11.1929
pu쎯cwg쎯pgc쎯zzbd쎯	-11.1929
tv쎯lw쎯wc쎯pgc쎯	-11.1929
zzbd쎯l쎯bf쎯	-11.193
ipw쎯djb쎯r쎯	-11.1931
whf쎯og쎯wc쎯ngk쎯	-11.1931
emc쎯sc쎯	-11.1931
apo쎯iq쎯	-11.1932
wgkq쎯w쎯	-11.1933
wn쎯fqb쎯w쎯n쎯tmh쎯	-11.1937
jtg쎯xe쎯isgg쎯yhk쎯	-11.1938
ugdu쎯sy쎯pe쎯	-11.194
fny쎯o쎯	-11.1942
qqqq쎯qve쎯	-11.1942
ukn쎯dm쎯tkw쎯쎁	-11.1942
j쎯an쎯lwj쎯h쎯	-11.1943
쎅dnv쎯	-11.1946
y쎯hid쎯	-11.1946
ynma쎯gu쎯	-11.1947
tg쎯u쎯t쎯qie쎯wyk쎯	-11.195
vkf쎯kqm쎯	-11.1953
iq쎯xg쎯	-11.1954
sa쎯	-11.1954
d쎯dr쎯	-11.1955
mqq쎯uh쎯vfhp쎯ymc쎯	-11.1957
qk쎯suq쎯	-11.1959
e쎯gmww쎯wh쎯	-11.1961
쎉쎀rh쎯wa쎯	-11.1962
mq쎯jy쎯qk쎯etg쎯aq쎯	-11.1963
sqj쎯	-11.1963
qlp쎯ruv쎯	-11.1964
eee쎯쎃쎁jjjj쎯	-11.1965
gah쎯aqky쎯	-11.1965
dnv쎯uu쎯yy쎯oy쎯	-11.1966
qk쎯vi쎯	-11.1966
mhny쎯fpm쎯	-11.1966
tfq쎯rg쎯rjg쎯wtf쎯	-11.1968
yjse쎯	-11.1969
ww쎯og쎯w쎯km쎯	-11.197
xq쎯fjw쎯	-11.1971
rc쎯qnk쎯	-11.1974
tkw쎯wv쎯	-11.1974
ngj쎯jtg쎯	-11.1974
thd쎯ipmq쎯	-11.1975
쎅gu쎯yy쎯oy쎯	-11.1976
xg쎯zzbd쎯	-11.1977
xef쎯nj쎯	-11.1979
wvq쎯	-11.198
pei쎯og쎯u쎯og쎯wx쎯	-11.1982
gh쎯yy쎯	-11.1982
um쎯w쎯	-11.1984
dhb쎯yt쎯	-11.1985
ftbt쎯ip쎯dga쎯pwv쎯	-11.1986
o쎯py쎯wf쎯	-11.1987
dga쎯pwv쎯r쎯	-11.1987
jn쎯pww쎯	-11.1988
쎅wc쎯jfd쎯,	-11.1992
쎆djfd쎯oy쎯	-11.1992
aqo쎯awx쎯	-11.1992
tqv쎯hi쎯	-11.1993
bmg쎯o쎯	-11.1994
edjn쎯rmhj쎯	-11.1995
cep쎯lg쎯	-11.1995
gl쎯nae쎯	-11.1995
afqb쎯ide쎯	-11.1995
e쎯xg쎯jn쎯pym쎯	-11.1996
sft쎯ou쎯:	-11.1996
쎃.쎄	-11.1997
sbd쎯lkmi쎯gae쎯,	-11.1997
ymc쎯tlf쎯.	-11.1998
fggh쎯xg쎯	-11.1998
qh쎯qn쎯	-11.2001
kha쎯egc쎯fd쎯	-11.2002
,bn쎯yi쎯j쎯	-11.2002
a쎯tkgg쎯ytb쎯a쎯	-11.2003
qqqq쎯qg쎯	-11.2005
thd쎯drin쎯	-11.2005
.bm쎯th쎯	-11.2006
euk쎯ait쎯	-11.2008
yygy쎯wx쎯tkgg쎯ya쎯	-11.2008
gd쎯isk쎯	-11.2009
o쎯hhhh쎯sfi쎯	-11.201
rvyr쎯	-11.2011
쎀쎀zzts쎯	-11.2015
ipks쎯	-11.2015
gogn쎯yssc쎯	-11.2016
w쎯fqu쎯dif쎯f쎯쎀.	-11.202
lg쎯gajf쎯	-11.2021
jfd쎯gog쎯	-11.2021
kkkk쎯mdfj쎯	-11.2021
bqt쎯fd쎯	-11.2021
an쎯wa쎯	-11.2023
ss쎯ssss쎯	-11.2024
쎂gu쎯yy쎯wc쎯jfd쎯,	-11.2024
eb쎯tl쎯wsg쎯txi쎯	-11.2024
.ld쎯hx쎯	-11.2025
tgj쎯gajf쎯	-11.2026
tmg쎯wbj쎯	-11.2027
lft쎯tv쎯	-11.2028
uh쎯fhg쎯d쎯	-11.2028
sgn쎯c쎯	-11.2028
lfhf쎯og쎯	-11.2029
puhc쎯nh쎯ty쎯	-11.2029
rqa쎯rymn쎯	-11.203
gcf쎯wynb쎯.	-11.203
,lh쎯kthh쎯ith쎯	-11.2031
tuj쎯wgj쎯	-11.2031
,bc쎯tj쎯b쎯	-11.2032
wc쎯ngk쎯ukn쎯x쎯gj쎯	-11.2034
쎀쎀쎀qq쎯gu쎯yy쎯oy쎯	-11.2034
w쎯dd쎯wa쎯ge쎯	-11.2035
yqj쎯	-11.2035
at쎯ud쎯	-11.2035
f쎯fnw쎯	-11.2036
l쎯pe쎯bw쎯	-11.2037
,쎁쎉쎈쎃rh쎯	-11.2037
rt쎯xfn쎯	-11.2037
pe쎯sf쎯	-11.2037
jc쎯qvn쎯	-11.2038
qyt쎯lkmi쎯gae쎯	-11.2039
??	-11.2041
rwyg쎯gj쎯	-11.2041
e쎯bv쎯wc쎯ngk쎯j쎯g쎯	-11.2041
rj쎯wjjg쎯	-11.2042
.iv쎯jf쎯	-11.2042
wc쎯jfd쎯kha쎯yb쎯	-11.2043
pn쎯gcf쎯	-11.2044
pp쎯.”	-11.2045
(쎁쎀	-11.2047
bm쎯teg쎯	-11.2047
tu쎯ftbt쎯	-11.2048
ta쎯tyna쎯	-11.2048
y쎯ou쎯	-11.2049
aig쎯thg쎯	-11.2053
fhl쎯sgc쎯	-11.2055
(쎅)	-11.2059
ooo쎯qkm쎯	-11.2059
쎆gu쎯yy쎯wc쎯jfd쎯,	-11.2059
gf쎯쎂쎀쎀쎁rh쎯	-11.2061
wxf쎯mmm쎯	-11.2062
uhc쎯	-11.2063
,쎁쎉쎉쎁rh쎯	-11.2064
.쎁쎉쎇쎈rh쎯	-11.2065
쎀wc쎯jfd쎯,kha쎯yb쎯	-11.2068
ui쎯kthh쎯	-11.207
bb쎯bi쎯	-11.207
itd쎯tld쎯	-11.2071
ugdu쎯vb쎯r쎯	-11.2074
dd쎯k쎯gajf쎯	-11.2077
qtj쎯uqwm쎯	-11.2078
pp쎯hka쎯	-11.2079
bm쎯l쎯	-11.208
쎃쎈쎀	-11.2082
dgj쎯tel쎯pww쎯jg쎯:	-11.2082
wc쎯ud쎯	-11.2083
cbd쎯tlf쎯	-11.2083
쎃eee쎯wtf쎯	-11.2085
tffu쎯eb쎯tl쎯	-11.2085
rte쎯tfp쎯	-11.2086
pyg쎯hnd쎯	-11.2088
bcv쎯	-11.2088
,kha쎯egc쎯fd쎯	-11.2089
쎁쎉쎈쎁	-11.209
t쎯l쎯pe쎯	-11.2091
tf쎯og쎯k쎯	-11.2093
igmh쎯	-11.2094
akkn쎯	-11.2095
gg쎯dj쎯	-11.2095
r쎯vvv쎯qt쎯	-11.2095
fcu쎯bwt쎯	-11.2095
nc쎯tr쎯	-11.2096
f쎯ge쎯	-11.2096
rnb쎯kfi쎯	-11.2097
qejy쎯rajd쎯nua쎯	-11.2097
tjt쎯iw쎯	-11.21
tg쎯ujn쎯	-11.2105
쎈쎅쎀	-11.2105
u쎯og쎯lfq쎯	-11.2106
uu쎯khu쎯gf쎯	-11.2107
wtf쎯wgkb쎯	-11.2108
wfny쎯ivs쎯ugm쎯	-11.2109
yssc쎯sy쎯	-11.211
,쎂쎀쎀쎉rh쎯	-11.2113
gf쎯쎂쎀쎀쎀rh쎯	-11.2113
dm쎯tkw쎯쎄	-11.2113
fhn쎯go쎯,	-11.2115
lg쎯zzbd쎯	-11.2116
gae쎯wny쎯	-11.2116
fgey쎯	-11.2116
g쎯g쎯	-11.2117
ylf쎯.wg쎯sf쎯lpdk쎯	-11.2118
wt쎯“	-11.2118
쎇쎀rh쎯wa쎯	-11.2119
nnh쎯yhk쎯	-11.212
tjf쎯ou쎯	-11.212
ryn쎯efw쎯	-11.2121
g쎯an쎯	-11.2124
syc쎯	-11.2124
ukn쎯jg쎯	-11.2124
ygh쎯rnd쎯	-11.2126
aw쎯vfhp쎯	-11.2127
wgmy쎯tl쎯	-11.213
pi쎯	-11.2132
gmf쎯gm쎯	-11.2132
ae쎯ujfj쎯	-11.2135
.xx쎯kwgj쎯	-11.2135
ftbt쎯yce쎯fuk쎯yk쎯	-11.2135
ww쎯og쎯	-11.2136
r쎯tk쎯adm쎯	-11.2136
yygy쎯w쎯	-11.2137
imk쎯mdfj쎯	-11.2141
c쎯dy쎯mqq쎯	-11.2142
lwg쎯ty쎯if쎯	-11.2144
yfj쎯pwv쎯	-11.2145
iie쎯goi쎯	-11.2145
jfi쎯	-11.2146
fhwm쎯	-11.2147
wamj쎯	-11.2148
sgn쎯ujf쎯	-11.2149
kr쎯gc쎯	-11.2149
oyv쎯img쎯	-11.2149
e쎯wh쎯	-11.215
,ga쎯nae쎯	-11.2151
r쎯mq쎯st쎯	-11.2151
sfg쎯keq쎯	-11.2152
v쎯nae쎯gc쎯	-11.2152
r쎯dd쎯ih쎯	-11.2153
rn쎯tj쎯	-11.2154
쎅.쎆	-11.2154
w쎯fqu쎯dif쎯f쎯쎁.	-11.2154
ga쎯v쎯t쎯	-11.2156
jb쎯qq쎯r쎯	-11.2157
mf쎯ght쎯uk쎯	-11.216
qqqq쎯gkm쎯sm쎯sq쎯	-11.216
tffu쎯ujfj쎯wug쎯	-11.2161
》()	-11.2164
ym쎯usr쎯aq쎯	-11.2164
je쎯ypm쎯	-11.2164
all쎯	-11.2165
gmf쎯lk쎯	-11.2165
wal쎯	-11.2165
tg쎯u쎯rfc쎯sy쎯	-11.2166
p쎯xt쎯hhu쎯	-11.2166
dm쎯tkw쎯dp쎯	-11.2166
g쎯yid쎯whw쎯wg쎯	-11.2168
sfk쎯	-11.2169
whf쎯og쎯pp쎯g쎯	-11.217
gd쎯uyh쎯	-11.2172
xg쎯ntg쎯	-11.2174
awv쎯uff쎯	-11.2175
ey쎯tk쎯tkh쎯	-11.2178
y쎯ou쎯:	-11.2178
gmy쎯ia쎯	-11.2178
vk쎯ujn쎯	-11.2178
me쎯rr쎯	-11.2178
zzbd쎯vfhp쎯tam쎯	-11.2179
sq쎯wrh쎯	-11.2179
jja쎯iq쎯	-11.218
wc쎯uu쎯	-11.218
쎈쎆쎃	-11.218
ruv쎯kkkk쎯,	-11.218
du쎯fnrt쎯	-11.2181
jplh쎯	-11.2182
p쎯yi쎯j쎯	-11.2182
qh쎯lwj쎯	-11.2183
fwm쎯saj쎯jb쎯dd쎯	-11.2184
fd쎯ux쎯	-11.2184
쎁쎃쎄	-11.2185
.wt쎯ftj쎯	-11.2185
iet쎯	-11.2185
dd쎯ip쎯sg쎯tu쎯	-11.2185
iw쎯fhn쎯	-11.2187
쎃쎀wtu쎯tyna쎯	-11.2189
qgu쎯dhq쎯	-11.219
ym쎯rt쎯	-11.219
ux쎯aq쎯	-11.2191
wyv쎯fhl쎯	-11.2191
r쎯gef쎯hgo쎯	-11.2193
dn쎯o쎯k쎯l쎯	-11.2194
aqn쎯thg쎯	-11.2197
fpx쎯nx쎯	-11.2198
te쎯gmy쎯	-11.2199
iy쎯:	-11.22
wyw쎯	-11.22
oawu쎯	-11.22
rx쎯jg쎯	-11.2201
pt쎯yny쎯ukn쎯ovt쎯	-11.2203
ta쎯bb쎯	-11.2203
xq쎯fjw쎯zzbd쎯	-11.2204
qk쎯ujfj쎯	-11.2207
nge쎯w쎯	-11.2207
rb쎯py쎯	-11.221
xp쎯wgk쎯ick쎯gj쎯	-11.221
zzbd쎯ou쎯isgg쎯	-11.2211
tak쎯bt쎯	-11.2211
ftbt쎯yce쎯gk쎯og쎯	-11.2212
g쎯uj쎯	-11.2213
ce쎯lt쎯xk쎯	-11.2214
uth쎯wycm쎯	-11.2215
begg쎯hh쎯	-11.2215
fii쎯go쎯r쎯	-11.2215
r쎯g쎯adm쎯	-11.2216
rt쎯rxj쎯	-11.2217
쎁쎃쎆	-11.2217
qnq쎯ii쎯	-11.2218
k쎯atd쎯ax쎯dd쎯ip쎯	-11.2219
ftx쎯wx쎯	-11.2219
eq쎯uk쎯	-11.2219
g쎯fh쎯gcft쎯lt쎯gf쎯	-11.222
ybf쎯iwyf쎯	-11.2223
쎇쎀%	-11.2223
ipw쎯th쎯	-11.2224
wk쎯ygh쎯b쎯	-11.2224
wh쎯sf쎯n쎯xeg쎯	-11.2225
fyk쎯	-11.2225
mqc쎯tr쎯k쎯ny쎯	-11.2227
tux쎯wwf쎯	-11.223
jx쎯je쎯ymhj쎯	-11.2232
wk쎯pnt쎯	-11.2232
l쎯pe쎯r쎯	-11.2233
iq쎯aps쎯	-11.2233
k쎯jjjj쎯	-11.2234
ag쎯fgh쎯	-11.2236
hc쎯efw쎯ugm쎯	-11.2236
쎁eee쎯wtf쎯	-11.2237
kl쎯g쎯tkh쎯	-11.2239
gcft쎯lt쎯gf쎯o쎯	-11.2239
쎂쎀쎀쎃.쎀	-11.2239
g쎯wty쎯	-11.2242
.i쎯fp쎯	-11.2243
nt쎯qd쎯	-11.2245
ijl쎯cbts쎯	-11.2247
kht쎯tca쎯	-11.2248
swc쎯ia쎯	-11.2249
쎄쎀%	-11.2249
tv쎯km쎯wf쎯tv쎯km쎯.	-11.225
dma쎯	-11.225
r쎯gkih쎯wsg쎯	-11.2251
wt쎯kkk쎯nae쎯	-11.2254
tx쎯쎇	-11.2255
bn쎯tve쎯	-11.2256
tjf쎯rnb쎯	-11.2256
쎈gu쎯yy쎯oy쎯	-11.2257
yo쎯tfp쎯	-11.2258
adw쎯rn쎯	-11.2259
hx쎯od쎯	-11.226
tgj쎯hko쎯k쎯ip쎯	-11.226
》(쎁쎉	-11.2261
dy쎯se쎯	-11.2262
rpws쎯bwg쎯	-11.2262
x쎯l쎯pe쎯	-11.2262
raj쎯	-11.2262
jghy쎯wfg쎯	-11.2263
dd쎯ip쎯ftbt쎯rep쎯	-11.2266
iex쎯qfhw쎯	-11.2266
nny쎯tfn쎯	-11.2266
jghx쎯	-11.2266
vca쎯j쎯	-11.2266
yiu쎯ftjb쎯	-11.2267
.쎁쎉쎈쎁rh쎯	-11.2267
uvh쎯mww쎯	-11.2268
hcd쎯hw쎯	-11.2269
k쎯l쎯w쎯	-11.2269
fd쎯ymhj쎯fwm쎯aj쎯	-11.2269
nae쎯jtyq쎯wf쎯	-11.2269
jn쎯qev쎯	-11.2272
yygy쎯ip쎯bpf쎯	-11.2273
adwr쎯dq쎯	-11.2273
ff쎯ymd쎯	-11.2274
ajj쎯sg쎯	-11.2274
pyj쎯tn쎯r쎯	-11.2277
쎄.쎃	-11.2278
oqy쎯	-11.2279
쎀쎀쎀kgb쎯	-11.228
wwgi쎯	-11.2283
jty쎯ysi쎯atd쎯ip쎯	-11.2283
bwj쎯xe쎯	-11.2283
aqq쎯jel쎯	-11.2284
.vfhp쎯gf쎯	-11.2285
amd쎯yygy쎯qk쎯tq쎯:	-11.2286
yid쎯et쎯gu쎯ck쎯	-11.2288
쎁쎆쎅	-11.2289
ga쎯a쎯	-11.229
adwe쎯bv쎯	-11.2291
tv쎯ipkh쎯tv쎯zzbd쎯	-11.2296
wug쎯gf쎯k쎯l쎯	-11.2298
ss쎯og쎯nnk쎯	-11.2299
쎄%	-11.2302
tdp쎯k쎯	-11.2304
sk쎯c쎯et쎯	-11.2307
iv쎯gk쎯w쎯	-11.2308
wg쎯sf쎯aw쎯e쎯	-11.2308
yo쎯rq쎯	-11.2309
iyc쎯ire쎯	-11.2309
.쎁쎉쎅쎆rh쎯	-11.231
,rwyg쎯fcl쎯	-11.2311
-쎂-	-11.2311
wye쎯jvko쎯	-11.2312
ikm쎯	-11.2312
dmj쎯puhc쎯	-11.2312
rymn쎯alt쎯	-11.2316
ght쎯a쎯	-11.2319
ivs쎯qc쎯wsg쎯	-11.232
qyk쎯maf쎯	-11.2323
rmhj쎯fcl쎯	-11.2323
qfhw쎯ia쎯	-11.2325
dgh쎯tdij쎯	-11.2325
-쎀쎁	-11.2328
ftbt쎯jgm쎯bw쎯wgg쎯	-11.2328
.(쎃)	-11.2329
g쎯udbb쎯	-11.2329
ooo쎯po쎯	-11.233
쎁쎀쎀쎀쎀	-11.2332
ywx쎯yygy쎯《	-11.2332
gab쎯	-11.2333
xkw쎯tr쎯	-11.2333
쎇w쎯	-11.2334
,bwt쎯b쎯	-11.2334
rx쎯uwy쎯r쎯	-11.2335
쎅.쎁	-11.2336
yo쎯gjq쎯	-11.2338
uth쎯wh쎯	-11.2339
qytb쎯wx쎯	-11.234
쎉eee쎯cd쎯lk쎯a쎯wt쎯	-11.2341
zzbd쎯de쎯shi쎯ow쎯	-11.2341
zzbd쎯irr쎯ia쎯	-11.2342
dga쎯pwv쎯》zzbd쎯《	-11.2343
yoo쎯udjh쎯	-11.2343
nhw쎯	-11.2344
ftbt쎯yce쎯ip쎯	-11.2347
zzxe쎯	-11.2349
ym쎯u쎯	-11.2351
ccc쎯tq쎯“	-11.2355
tw쎯pvs쎯	-11.2359
:(	-11.236
ert쎯le쎯	-11.236
fqp쎯yb쎯	-11.2361
쎁쎁쎈	-11.2361
usgd쎯ad쎯	-11.2362
u쎯kkk쎯dga쎯v쎯	-11.2362
-쎄쎀	-11.2362
qtgw쎯pwtf쎯	-11.2363
wvp쎯ltk쎯	-11.2366
whm쎯	-11.2367
lt쎯jg쎯dcw쎯djb쎯	-11.2367
fd쎯ai쎯	-11.2367
tjh쎯yx쎯	-11.2367
wfny쎯fhw쎯	-11.2368
zzbd쎯rrr쎯oyvk쎯	-11.2368
nd쎯fghg쎯	-11.2369
ght쎯if쎯dd쎯ip쎯	-11.237
쎀ylf쎯.	-11.2371
b쎯dd쎯jg쎯r쎯	-11.2372
쎂zzbd쎯쎃	-11.2372
wwj쎯wfhg쎯cm쎯	-11.2374
itx쎯kkkk쎯	-11.2374
tffu쎯yjs쎯tkgg쎯	-11.2374
by쎯uqwl쎯	-11.2374
ukn쎯hk쎯f쎯dm쎯tkw쎯	-11.2376
쎂쎀쎀qq쎯	-11.2378
hqd쎯	-11.2379
kie쎯	-11.238
dj쎯awx쎯	-11.2381
zzbd쎯fjfh쎯l쎯	-11.2381
mq쎯eerq쎯	-11.2383
bfm쎯f쎯	-11.2384
an쎯w쎯	-11.2384
fob쎯	-11.2385
wxb쎯	-11.2387
ta쎯쎂	-11.2389
w쎯od쎯r쎯	-11.239
,wgc쎯ty쎯	-11.2393
ft쎯j쎯	-11.2395
.ta쎯adwe쎯ww쎯gk쎯	-11.2395
tdp쎯et쎯aib쎯lfnh쎯	-11.2395
jhng쎯:	-11.2396
쎁kw쎯	-11.2396
tu쎯ip쎯gn쎯a쎯tkgg쎯	-11.2398
fcp쎯lfn쎯	-11.2402
r쎯gae쎯qje쎯	-11.2403
yny쎯bb쎯	-11.2403
uyh쎯pwt쎯	-11.2403
쎀쎀oy쎯,rh쎯gu쎯fqu쎯	-11.2403
reh쎯e쎯g쎯rx쎯	-11.2404
dd쎯lt쎯v쎯nae쎯	-11.2405
쎃qk쎯	-11.2409
gh쎯ty쎯	-11.2409
jw쎯	-11.2409
itd쎯fcl쎯pgc쎯	-11.2412
.”쎂.	-11.2413
idr쎯egc쎯	-11.2414
o쎯《	-11.2415
gkl쎯y쎯yam쎯.	-11.242
ujl쎯	-11.242
wmw쎯wx쎯	-11.242
dyc쎯wx쎯	-11.2423
qvw쎯	-11.2423
adw쎯wt쎯kkk쎯	-11.2426
ipg쎯wx쎯	-11.2426
rf쎯qy쎯	-11.2427
om쎯	-11.2427
xh쎯et쎯	-11.2428
tk쎯uk쎯uyh쎯	-11.2431
,ukn쎯rmc쎯uqwm쎯	-11.2433
쎁쎀wtu쎯tyna쎯	-11.2433
rep쎯yjs쎯	-11.2435
wgk쎯aft쎯	-11.2435
puvc쎯	-11.2437
,쎁쎉쎉쎀rh쎯	-11.2437
쎀~	-11.2438
ymhj쎯ght쎯fl쎯	-11.2438
sx쎯nnh쎯	-11.2441
yygy쎯ip쎯anb쎯sy쎯	-11.2442
gim쎯	-11.2442
tqdh쎯bj쎯	-11.2443
ym쎯rfm쎯jg쎯r쎯	-11.2444
wht쎯ghd쎯	-11.2444
aq쎯wv쎯	-11.2445
ydn쎯wy쎯zzbd쎯	-11.2446
ibi쎯ugl쎯b쎯	-11.2446
fie쎯	-11.2447
vcb쎯j쎯	-11.2447
tx쎯dg쎯yy쎯	-11.2449
egc쎯fuj쎯mw쎯	-11.2451
,rnd쎯	-11.2452
puhc쎯k쎯l쎯	-11.2453
rfc쎯sy쎯w쎯ft쎯	-11.2455
yygt쎯yq쎯	-11.2456
ipw쎯tfkp쎯	-11.2456
um쎯og쎯tffh쎯	-11.2457
vaf쎯	-11.2457
x쎯cwg쎯.	-11.2458
aps쎯aqt쎯“	-11.2458
__	-11.2458
lds쎯gae쎯	-11.246
wgk쎯gj쎯r쎯	-11.2463
x쎯qie쎯	-11.2463
klg쎯	-11.2464
,dn쎯uu쎯gf쎯	-11.2467
tffu쎯og쎯tl쎯	-11.2469
gf쎯g쎯tmd쎯	-11.2469
rg쎯an쎯	-11.2469
쎁쎅wh쎯	-11.2469
eee쎯wwv쎯	-11.2473
kn쎯“	-11.2474
lkmi쎯gae쎯,	-11.2475
ipw쎯lk쎯a쎯	-11.248
fpg쎯	-11.248
ym쎯hid쎯	-11.2481
yu쎯j쎯	-11.2481
,lp쎯xxe쎯	-11.2481
wv쎯a쎯	-11.2482
mqq쎯xtk쎯tu쎯rfc쎯	-11.2482
hi쎯tf쎯tffh쎯	-11.2484
cd쎯lk쎯wg쎯l쎯	-11.2486
[...]
