[UNK]	0
[PAD]	0
[CLS]	0
[SEP]	0
[MASK]	0
,	-3.49268
r쎯	-3.72934
.	-3.93658
zzbd3쎯	-4.11768
t쎯	-5.06458
d쎯	-5.28228
o쎯	-5.36279
j쎯	-5.40677
w쎯	-5.47215
:	-5.49748
e쎯	-5.57073
k쎯	-5.5722
g쎯	-5.64332
dd쎯	-5.64819
(	-5.73564
gn쎯	-5.81235
b쎯	-5.82395
h쎯	-5.8664
tffu쎯	-5.87548
)	-5.96182
a	-5.96806
i	-6.00514
《	-6.01138
;	-6.02073
rh쎯	-6.02451
gf쎯	-6.03207
i쎯	-6.05611
쎯	-6.08272
f쎯	-6.10938
“	-6.14942
pp쎯	-6.15222
c쎯	-6.16415
ymhj0쎯	-6.18024
쎁	-6.18411
r	-6.20318
ii쎯	-6.21575
q	-6.24963
ym쎯	-6.25442
w	-6.27552
d	-6.28957
ta쎯	-6.3117
s	-6.34222
uk쎯	-6.34871
ey쎯	-6.35119
mmm쎯	-6.37593
”	-6.3892
pe쎯	-6.39401
ntg쎯	-6.39901
쎂	-6.39915
tg쎯	-6.40549
qq쎯	-6.41442
rg쎯	-6.41748
u	-6.42185
bb쎯	-6.42426
l쎯	-6.42934
egc쎯	-6.43348
qk쎯	-6.44285
aq쎯	-6.44973
bm쎯	-6.45922
ip쎯	-6.4626
t	-6.4655
k쎯l쎯	-6.4861
n	-6.5
cf쎯	-6.50169
usr쎯	-6.50222
et쎯	-6.50308
gh쎯	-6.51798
쎃	-6.52346
y	-6.52694
k	-6.57127
》	-6.57252
ih쎯	-6.58171
jf쎯	-6.59527
dg쎯	-6.60733
j	-6.61299
wf쎯	-6.62204
rn쎯	-6.62554
mw쎯	-6.6344
wx쎯	-6.64209
if쎯	-6.64276
gd쎯	-6.64437
sg쎯	-6.64438
jjjj0쎯	-6.64757
wc쎯ngk쎯	-6.66047
dm쎯	-6.66232
tp쎯gj쎯	-6.66365
wv쎯	-6.66431
gc쎯	-6.66561
fm쎯	-6.67334
f	-6.67354
qh쎯	-6.67676
sm쎯	-6.68967
m	-6.71779
-	-6.71784
zzbd10쎯	-6.7274
ue쎯	-6.73613
ak쎯	-6.73689
dmj1쎯	-6.74234
x	-6.75014
g	-6.75296
e	-6.75496
whf0쎯og쎯	-6.75502
dn쎯	-6.75904
wsg0쎯	-6.75979
v쎯	-6.76464
rfc쎯sy쎯	-6.77435
v	-6.78086
itx쎯	-6.80129
sk쎯	-6.80574
sf쎯	-6.815
gu쎯	-6.82548
puhc쎯	-6.82756
tu쎯	-6.83261
a쎯wt쎯	-6.85315
fq쎯	-6.85768
쎅	-6.85786
쎁쎉	-6.8648
yygy쎯	-6.86956
쎄	-6.86988
ai쎯	-6.87539
sghg1쎯	-6.88188
uqf쎯	-6.88294
eb쎯tl쎯	-6.88972
kht쎯	-6.90041
ny쎯	-6.91013
iq쎯	-6.9178
qfhw1쎯	-6.92367
lt쎯	-6.92774
y쎯	-6.9287
dd쎯ip쎯	-6.94014
wg쎯	-6.94308
gcf쎯	-6.94669
tf쎯	-6.94682
go쎯	-6.94981
awx쎯	-6.95064
쎁쎀	-6.96603
xg쎯	-6.96632
adw쎯	-6.97127
thd쎯	-6.97507
ty쎯	-6.97596
wtf쎯	-6.98841
uthp0쎯	-6.9931
a쎯	-6.9949
u쎯kkk쎯	-6.99636
qqqq1쎯	-7.00572
m쎯	-7.01019
jn쎯	-7.01052
mh쎯	-7.0136
ige쎯	-7.01765
o	-7.01801
ga쎯	-7.01817
쎈	-7.01999
dgtg0쎯	-7.02092
ya쎯	-7.02121
ww쎯	-7.02201
je쎯	-7.02221
/	-7.02672
mq쎯	-7.04186
fd쎯	-7.0431
fny0쎯og쎯	-7.04734
쎆	-7.04834
dq쎯	-7.05254
ukn쎯	-7.05357
pv쎯	-7.06838
dga쎯pwv쎯	-7.0691
tg쎯u쎯	-7.07094
hko쎯	-7.07098
ftbt쎯yce쎯	-7.08345
h	-7.08663
l쎯pe쎯	-7.08785
ce쎯	-7.0893
yy쎯	-7.09514
dr쎯	-7.09809
fg쎯	-7.1032
jb쎯	-7.10393
jfd쎯	-7.10483
xte쎯	-7.10711
ugdu쎯	-7.10774
x쎯	-7.11065
ux쎯	-7.11906
쎇	-7.12087
wt쎯	-7.1219
dx쎯	-7.1239
gmww쎯	-7.12906
kkd쎯	-7.14146
rmhj쎯	-7.14246
pg쎯	-7.14472
th쎯	-7.14507
l	-7.15528
v쎯nae0쎯	-7.15659
ggg0쎯	-7.15686
cep쎯	-7.15848
bn쎯	-7.16754
wh쎯	-7.17065
nnh쎯	-7.17244
lh쎯	-7.17273
pl쎯	-7.1732
nnk쎯	-7.17495
kkkk1쎯	-7.17545
udi0쎯	-7.17581
xe쎯	-7.17689
tr쎯	-7.18235
c	-7.19115
b	-7.19279
trf0쎯	-7.19336
ftj쎯	-7.19505
wxf쎯	-7.19644
g쎯wh쎯	-7.19871
sh쎯	-7.20486
k쎯ny쎯	-7.21007
txi쎯xyc쎯	-7.21322
uyh쎯	-7.21705
dnv0쎯	-7.22279
gk쎯	-7.22348
rt쎯	-7.22441
s쎯	-7.22469
vk쎯	-7.22485
()	-7.22528
tfl쎯	-7.2295
jgm쎯	-7.23011
rnb쎯	-7.23042
fhn쎯	-7.23418
adwe1쎯	-7.23585
n쎯	-7.23638
p	-7.23894
og쎯	-7.2398
e쎯bv쎯wc쎯ngk쎯	-7.24059
ua쎯	-7.24163
ovt쎯	-7.24228
yygy쎯wx쎯	-7.24513
qiu0쎯	-7.24922
wys쎯	-7.24989
kgn쎯	-7.25488
rrr쎯	-7.2569
쎂쎀	-7.25864
tj쎯	-7.25951
ymc쎯yf쎯	-7.25981
ss쎯	-7.26029
um쎯	-7.26272
fp쎯	-7.26485
lk쎯	-7.26682
p쎯	-7.26797
isk쎯	-7.26805
yi쎯	-7.27085
a쎯tkgg1쎯	-7.27431
u쎯	-7.27448
qc쎯	-7.27515
gajf0쎯	-7.27643
tm쎯	-7.28711
wug0쎯gf쎯	-7.2878
uj쎯	-7.28867
gg쎯	-7.2891
wb쎯	-7.29002
ip쎯bpf쎯	-7.29072
wc쎯	-7.29141
ip쎯suq쎯	-7.29157
1쎯	-7.29588
ck쎯	-7.29648
adwr0쎯	-7.29857
ftjb쎯	-7.29992
vb쎯	-7.31126
aa쎯	-7.31539
tk쎯	-7.32199
vfhp1쎯	-7.32435
cn쎯	-7.32496
iyc쎯	-7.32519
ugm쎯	-7.32764
tgj쎯	-7.32968
ia쎯	-7.33002
amw쎯	-7.33116
쎉	-7.33215
ytyh쎯	-7.33629
l쎯bf쎯	-7.3379
tkh쎯	-7.33802
jg쎯	-7.34013
fqb0쎯	-7.34215
gkl쎯	-7.34373
rvyo쎯	-7.34701
txi쎯	-7.34793
x쎯iyj쎯	-7.34803
oy쎯	-7.35012
w쎯,	-7.3504
tjh쎯	-7.356
fnrt쎯	-7.35671
ith쎯	-7.37159
thg1쎯	-7.37209
img쎯	-7.37564
ygk쎯	-7.38916
pb쎯	-7.39222
lg쎯	-7.39364
iv쎯	-7.39786
,j쎯	-7.40046
dgh쎯	-7.40249
dp쎯	-7.40687
xq쎯	-7.41265
xt쎯	-7.41646
nge쎯	-7.41707
mqq쎯	-7.42205
tp쎯	-7.42411
vvv쎯	-7.42589
gkp쎯	-7.42798
ghd1쎯	-7.42845
hx쎯	-7.42892
fcl쎯	-7.4312
pu쎯	-7.43141
wa쎯	-7.43304
an쎯	-7.43377
"	-7.43418
udh쎯	-7.43544
oge쎯	-7.43964
dj쎯	-7.4397
tq쎯	-7.441
y쎯s쎯	-7.44179
gae쎯	-7.44586
xa쎯	-7.4486
wg쎯l쎯	-7.45149
bpf쎯	-7.45206
쎁쎂	-7.45956
uqw쎯	-7.46584
ftbt쎯	-7.46622
》zzbd3쎯《	-7.46857
q쎯	-7.47618
gjq쎯	-7.47939
wug0쎯	-7.48644
tmd쎯	-7.49061
.”	-7.49645
rp쎯	-7.5019
vfhp1쎯ymc쎯	-7.50579
ep쎯	-7.50904
ru쎯	-7.51708
uq쎯	-7.52076
suq쎯	-7.52235
gl쎯	-7.52561
ftbt쎯ip쎯	-7.52611
od쎯	-7.52957
,ua쎯	-7.53901
),	-7.5434
cc쎯	-7.54528
yo쎯	-7.54725
wy쎯	-7.55079
wgk쎯	-7.55311
rxj쎯	-7.5538
an쎯lwj쎯	-7.55707
gj쎯	-7.56451
xk쎯	-7.56872
bj쎯	-7.57311
ab쎯	-7.57346
,d쎯	-7.57629
uu쎯	-7.57836
ssss0쎯	-7.58151
gm쎯	-7.58403
xx쎯	-7.58584
adm쎯hhhh쎯	-7.58777
tfqp쎯	-7.58912
fj쎯tf쎯	-7.59106
fcu1쎯	-7.59744
쎃쎀	-7.59767
sk쎯c쎯	-7.59864
km쎯	-7.5999
ymc쎯tlf0쎯	-7.6026
nfc쎯	-7.6047
ooo쎯	-7.6056
0쎯	-7.60604
ftx쎯	-7.60657
eee0쎯	-7.60671
uth쎯	-7.60832
kkk쎯	-7.6085
nh쎯	-7.61075
rj쎯waw쎯	-7.61131
py쎯wf쎯	-7.6114
td쎯	-7.61174
ipkh1쎯	-7.61331
tx쎯g쎯	-7.62175
vfhp1쎯tam쎯	-7.62309
uqd2쎯	-7.62394
tjf0쎯	-7.62465
nnnn0쎯	-7.62541
it쎯	-7.62544
wfny0쎯	-7.62782
w쎯.	-7.62926
ymf쎯	-7.63253
ad쎯	-7.63322
tu쎯rfc쎯	-7.63777
yu쎯	-7.63874
fj쎯	-7.6391
vt쎯	-7.64097
aw쎯	-7.64455
lkd쎯	-7.64758
f쎯aq쎯	-7.65186
aqt쎯	-7.65563
kq쎯	-7.65948
ntk쎯	-7.66015
쎁쎅	-7.66138
bc쎯	-7.66202
kf쎯	-7.66633
wtu쎯	-7.66684
wgkq0쎯	-7.66979
ujfj0쎯wug0쎯	-7.67302
ltu0쎯	-7.67754
dgkn0쎯	-7.67949
xyna1쎯	-7.68583
wdt쎯	-7.68882
anb0쎯sy쎯	-7.69333
yx쎯	-7.69664
ux쎯yiu0쎯	-7.69743
gef쎯	-7.70134
yid쎯	-7.70303
wgkq0쎯et쎯	-7.70578
xeg0쎯xkw쎯	-7.7063
fc쎯	-7.70706
wy쎯thn쎯	-7.70882
qi쎯	-7.70902
qd쎯	-7.71291
ipw쎯	-7.71313
ajj0쎯	-7.71397
jtg쎯	-7.71468
fggh쎯	-7.71578
ymhj0쎯fnrt쎯	-7.71664
uh쎯	-7.71778
tv쎯	-7.72188
ggi쎯fuj쎯	-7.72475
fgh쎯	-7.72692
mqq쎯xtk쎯	-7.73222
dy쎯	-7.73429
pyj쎯	-7.73815
ma쎯	-7.74114
yny0쎯	-7.74344
ipk쎯	-7.74379
lp쎯	-7.74429
쎁쎈	-7.74501
hw쎯e쎯	-7.74757
by쎯	-7.74921
rb쎯	-7.74975
lft쎯	-7.7503
ga쎯v쎯	-7.7507
ujfj0쎯	-7.75284
wt쎯kkk쎯	-7.75301
mqb쎯	-7.7563
cep쎯fp쎯	-7.75714
src쎯	-7.75803
ge쎯	-7.76015
tg쎯itd쎯	-7.7624
hhu0쎯	-7.7631
hc쎯	-7.76327
ccc쎯	-7.764
wk쎯	-7.76424
ruv쎯	-7.76425
gog쎯	-7.76761
dmh0쎯	-7.76803
yt쎯	-7.7708
yne쎯	-7.7714
mfk쎯	-7.77222
udy쎯	-7.77272
ujf0쎯	-7.77383
dgt1쎯	-7.77464
lfn쎯	-7.77554
ujn쎯	-7.7779
hka쎯	-7.77969
ll쎯	-7.78369
ld쎯	-7.78403
hw쎯	-7.78487
sov쎯	-7.78535
ffff1쎯	-7.78884
a쎯og쎯	-7.78887
pn쎯	-7.78996
puv쎯	-7.79198
cm쎯	-7.79567
uy쎯	-7.79735
rfm쎯	-7.79778
wty0쎯	-7.79887
,c쎯	-7.80025
ugdu쎯l쎯	-7.80163
al쎯ce쎯	-7.80443
쎅쎀	-7.81012
rfm쎯jg쎯	-7.81349
rcn0쎯	-7.81486
fghg쎯	-7.81525
pgc쎯	-7.81638
fh쎯	-7.81769
xeg0쎯	-7.82113
c쎯ey쎯	-7.82379
lq쎯	-7.8241
gah쎯	-7.82458
vcb쎯	-7.82609
pei쎯	-7.82736
ts쎯	-7.82886
js쎯	-7.83398
쎁쎆	-7.83504
ght쎯ywf쎯	-7.83689
wq쎯	-7.83893
ax쎯	-7.83965
h쎯itx쎯	-7.84084
pgy쎯	-7.84469
sfi쎯uwy0쎯	-7.84897
lfq쎯	-7.8491
fnr0쎯	-7.84996
ic쎯	-7.85189
yynw1쎯	-7.85257
tu쎯ip쎯	-7.85361
pw쎯	-7.85395
se쎯	-7.85544
fcu0쎯	-7.85604
bu쎯	-7.85695
gip쎯	-7.86046
iw쎯	-7.86318
ip쎯tg쎯	-7.86447
ylf0쎯	-7.86476
fhw쎯	-7.86719
2쎯	-7.86827
qev쎯	-7.87193
tve쎯	-7.87709
xl쎯	-7.87722
ud쎯	-7.87729
sb쎯	-7.87744
tfk0쎯	-7.87836
epc쎯	-7.87889
mj쎯	-7.87957
uf쎯	-7.87993
dm쎯tkw쎯	-7.88034
rc쎯	-7.88437
쎁쎁	-7.8871
yb쎯	-7.88987
yq쎯	-7.89007
ou쎯	-7.89276
zzbd15쎯	-7.89518
av쎯	-7.89546
%	-7.8971
fqu쎯	-7.89795
itd쎯fcl쎯	-7.89935
idr쎯	-7.89957
qt쎯	-7.9003
xf쎯	-7.90084
tx쎯	-7.90287
lu쎯	-7.90446
wrh1쎯	-7.9056
wht쎯	-7.91123
tf쎯og쎯	-7.91327
tmg1쎯	-7.91531
ndj쎯	-7.91602
kfi쎯	-7.91801
bw쎯	-7.92146
nd쎯	-7.92786
st쎯	-7.93012
nm쎯	-7.93086
fc쎯rf쎯	-7.93095
tl쎯	-7.93115
gq쎯	-7.93116
wdn쎯te쎯	-7.93218
scf쎯	-7.93286
mww쎯	-7.93352
lwj쎯	-7.93474
lll쎯	-7.94385
dw쎯	-7.94385
nf쎯	-7.94659
djd쎯	-7.94776
xw쎯	-7.95033
qgf쎯	-7.95107
ide쎯	-7.95357
ft쎯	-7.95383
rs쎯	-7.95434
fn쎯	-7.96108
vbn쎯	-7.96333
”.	-7.96452
yid쎯et쎯	-7.96475
fje쎯	-7.96549
fhl쎯	-7.96641
fw쎯	-7.96726
uff쎯	-7.96878
tld1쎯	-7.96882
tjt쎯	-7.96899
adm쎯	-7.97191
jy쎯	-7.97415
ght쎯	-7.97463
tfq쎯	-7.97464
nty0쎯	-7.97697
fqp쎯	-7.97925
ds쎯	-7.98295
wys쎯lft쎯	-7.98519
yff쎯	-7.98582
쎀	-7.98932
ip쎯nu쎯	-7.99263
gyt쎯	-7.9931
std쎯	-7.99532
wyv쎯	-7.99686
qn쎯	-7.9982
fd쎯ymhj0쎯	-8.00101
fny0쎯	-8.00206
》:“	-8.00243
tt쎯	-8.00471
wynb0쎯	-8.00556
gfi쎯	-8.00578
wqa쎯	-8.00639
yj쎯	-8.00834
dn쎯o쎯	-8.009
nx쎯	-8.01057
ae쎯	-8.01102
udbb쎯	-8.0114
ujj쎯	-8.01202
tk쎯tkh쎯	-8.01221
cd쎯	-8.01568
쎈쎀	-8.01805
aqt쎯tj쎯	-8.02111
pt쎯	-8.0241
ww쎯gk쎯	-8.02443
iytb0쎯	-8.02778
ufy쎯	-8.02847
jf쎯uj쎯	-8.02859
wt쎯o쎯	-8.02999
yqa쎯	-8.03284
pa쎯	-8.03306
yngk1쎯	-8.0399
qr쎯	-8.04119
sm쎯sq쎯	-8.04239
jty쎯	-8.04265
ick쎯	-8.0429
ag쎯	-8.04375
y쎯wtf쎯	-8.04468
kkk쎯thgf1쎯	-8.04515
isgg2쎯	-8.04712
ps쎯	-8.05465
iytb0쎯ca쎯	-8.0557
rdj쎯	-8.05629
jjjj0쎯sg쎯	-8.05652
cw쎯	-8.05825
lpk0쎯	-8.05844
cnh쎯	-8.06015
yvh쎯	-8.06171
klj쎯	-8.06269
q쎯wu쎯	-8.06506
thd쎯qd쎯	-8.06512
!	-8.06573
ytt쎯	-8.06597
cd쎯lk쎯	-8.06688
bk쎯	-8.06815
wgj쎯	-8.06893
lk쎯ty쎯	-8.07162
sc쎯	-8.0732
ijl쎯	-8.07359
psu0쎯	-8.0737
nae0쎯	-8.074
lw쎯	-8.07428
rj쎯	-8.07628
tfn쎯	-8.07782
iit쎯	-8.07797
pei쎯og쎯	-8.07938
fcp쎯	-8.0794
kw쎯	-8.08368
ftbt쎯jgm쎯	-8.08392
ihc쎯	-8.08569
쎂쎅	-8.08694
xxf쎯og쎯gf쎯	-8.08916
reh쎯e쎯	-8.09006
pv쎯wg쎯	-8.09038
dl쎯	-8.09157
yy쎯if쎯	-8.09268
쎂쎀쎀	-8.09442
ywx쎯	-8.09751
isgg2쎯yhk쎯	-8.09753
rmc쎯uqwm1쎯	-8.09876
qie쎯wyk쎯	-8.1018
ow쎯	-8.10378
ul쎯	-8.10405
x쎯apk쎯	-8.10711
xf쎯sq쎯	-8.10966
kh	-8.11276
rymn쎯	-8.11311
ujf0쎯qi쎯	-8.11575
쎁쎀쎀	-8.11707
sfi쎯	-8.11755
fhv쎯	-8.11823
ba쎯	-8.12119
pt쎯yne쎯	-8.12124
lfo쎯	-8.12334
쎁쎃	-8.12356
쎆쎀	-8.12414
dh쎯	-8.12428
sgn쎯	-8.12524
gj쎯ywx쎯	-8.12621
umd1쎯	-8.12676
qynm1쎯	-8.1278
dyt쎯	-8.12845
.d쎯	-8.13049
apk쎯	-8.13108
tv쎯km쎯wf쎯	-8.13127
mqu쎯	-8.13234
sgc쎯	-8.13245
쎄쎀	-8.13329
up쎯	-8.135
gs쎯	-8.13693
bs쎯	-8.13718
bde쎯	-8.1383
l쎯mw쎯	-8.13944
py쎯	-8.13974
uqwm1쎯	-8.14007
txg쎯	-8.14019
k쎯r쎯	-8.14058
hi쎯	-8.14065
atd쎯bpf쎯	-8.14148
쎁쎇	-8.14307
dn쎯uu쎯	-8.14337
sft쎯ou쎯	-8.14604
tx쎯fg쎯	-8.14873
qn쎯rtd쎯	-8.1497
yni1쎯	-8.15057
gcft0쎯	-8.15108
yjjh0쎯	-8.15231
rgw쎯	-8.15235
xmw쎯	-8.15638
yww쎯	-8.15686
qn	-8.15832
naj0쎯	-8.16193
uq쎯cep쎯	-8.16475
hv쎯	-8.16639
yyy쎯	-8.16697
vi쎯	-8.16709
k쎯ip쎯	-8.16711
jn쎯bb쎯	-8.17045
px쎯	-8.17047
ad쎯dbm쎯	-8.17059
,o쎯	-8.17517
sve쎯rnd1쎯	-8.17543
rpw쎯rmhj쎯	-8.17577
tyna2쎯	-8.17723
rhf0쎯	-8.17753
gy쎯	-8.1781
tffh1쎯	-8.17901
gxi쎯	-8.17991
yi쎯j쎯	-8.18029
ga쎯vck쎯	-8.18665
pym쎯	-8.18702
ait쎯	-8.19042
ytd쎯	-8.19075
ggi쎯	-8.19096
m쎯jf쎯	-8.1939
wdm쎯	-8.1945
qnp쎯	-8.19587
hhhh쎯	-8.19688
qm쎯gmu1쎯	-8.19754
adnt1쎯	-8.19799
uk쎯wv쎯	-8.19822
bwt쎯	-8.19836
dl쎯kq쎯	-8.1998
yh쎯	-8.20062
쎁쎄	-8.20172
ipkf0쎯	-8.20237
tel쎯	-8.20292
pgk쎯	-8.20317
thgc0쎯	-8.20481
es쎯et쎯	-8.20581
xxg0쎯	-8.20779
pgn쎯	-8.20784
zzbd9쎯	-8.21316
wa쎯ge쎯	-8.2143
eb쎯	-8.2143
lqw쎯wrh1쎯	-8.2149
qe쎯	-8.21668
w쎯km쎯	-8.21677
ce쎯lt쎯	-8.2169
쎂.	-8.21783
bm쎯thgc0쎯	-8.21919
adw쎯wb쎯	-8.22161
xp쎯wgk쎯	-8.22225
yygt쎯	-8.22256
yn쎯	-8.22326
dfy쎯	-8.22334
”r쎯	-8.22501
mdf0쎯	-8.22541
).	-8.22592
vtk쎯	-8.22834
ymc쎯	-8.22948
iy쎯	-8.23117
ytey0쎯iytb0쎯	-8.23238
sksw쎯	-8.23562
yfd쎯	-8.23676
wgk쎯wt쎯	-8.23715
uo쎯	-8.24032
yf쎯	-8.24093
gmf쎯	-8.24444
wqj쎯	-8.24462
u쎯og쎯	-8.24509
wbj쎯	-8.24605
yygy쎯ip쎯	-8.25249
rg쎯,	-8.25634
qyvl0쎯	-8.25738
tfkp0쎯	-8.2589
쎇eee0쎯	-8.26153
”,	-8.26369
txi쎯gq쎯	-8.26547
tffu쎯.	-8.26618
dskf쎯	-8.26698
sve쎯	-8.26737
uqwm1쎯idr쎯	-8.26802
pyg쎯	-8.2689
tkgg1쎯	-8.27049
bg쎯	-8.27055
mw쎯pww쎯	-8.27089
jqr쎯	-8.27452
synw쎯	-8.27507
zzbd9쎯zzbd9쎯	-8.27668
ddu1쎯	-8.27722
xeg0쎯dn쎯	-8.28063
gm쎯wa쎯	-8.28072
wc쎯jfd쎯	-8.28102
ygh쎯	-8.2811
py쎯aq쎯	-8.28213
vo쎯	-8.28463
tdg1쎯	-8.28574
al쎯	-8.28789
fmk쎯	-8.28791
vfb쎯	-8.28948
tu쎯dga쎯	-8.29097
sm쎯sa쎯	-8.29318
zzsx6쎯	-8.29361
ftg쎯	-8.29534
fa쎯	-8.29571
udyj쎯	-8.29766
fuk쎯yk쎯	-8.29768
pf쎯	-8.29817
pnt쎯	-8.30011
xwy0쎯	-8.30027
qa쎯	-8.30155
xh쎯	-8.30294
ftbt쎯rep쎯	-8.30311
g쎯tem쎯	-8.30343
yy쎯aa쎯	-8.30856
mt쎯	-8.3088
wbj쎯usr쎯	-8.30887
me쎯	-8.30888
fge쎯	-8.31023
rw쎯	-8.31104
ukd1쎯jghm1쎯	-8.31283
w쎯n쎯	-8.31347
tfq쎯fj쎯	-8.3139
og쎯tl쎯	-8.31404
fk쎯	-8.31631
fwm쎯aj쎯	-8.31906
ih쎯ip쎯	-8.3215
lhnh쎯	-8.32187
ire쎯	-8.32512
쎁.	-8.32532
jq쎯	-8.32713
fl쎯wf쎯	-8.33092
ynt0쎯	-8.3315
fawk0쎯	-8.33402
rj쎯ym쎯	-8.33496
fiy쎯	-8.33511
sfhg쎯tr쎯	-8.33663
kthh1쎯	-8.3374
wdn쎯	-8.34166
fny0쎯pe쎯	-8.34355
djfd쎯oy쎯	-8.34474
쎉eee0쎯	-8.34565
sdm쎯	-8.34702
khu쎯	-8.34768
wv쎯sr쎯	-8.34986
w쎯kkkk1쎯	-8.35388
tg쎯tr쎯	-8.35415
lk쎯a쎯	-8.35554
qmq쎯	-8.35596
swc쎯	-8.35612
,e쎯	-8.35731
fu쎯	-8.35944
qy쎯	-8.36136
ick쎯ubk1쎯	-8.36264
dnv0쎯fqb0쎯	-8.36321
qgb쎯	-8.36398
,adw쎯k쎯	-8.36618
sg	-8.36627
tgj쎯hko쎯	-8.36702
waw쎯	-8.36713
i쎯m쎯	-8.36736
rhk0쎯	-8.3679
k쎯md쎯	-8.37008
hk쎯	-8.37057
et쎯gf쎯	-8.37128
su쎯	-8.37429
tb쎯	-8.37513
zzsx1쎯	-8.37712
eu쎯	-8.37726
amd쎯	-8.37841
aws쎯	-8.37926
uwyc2쎯	-8.38104
,wjg쎯	-8.38117
tfq쎯rg쎯	-8.38177
i쎯on쎯	-8.38216
ahty0쎯	-8.38227
tlf0쎯	-8.38315
sj쎯	-8.38371
shn쎯	-8.38388
rmhj쎯tfkp0쎯	-8.38423
fha쎯	-8.38429
alw쎯	-8.38492
fii쎯	-8.38538
a쎯anb0쎯	-8.38586
im쎯e쎯	-8.38635
rmhj쎯wt쎯	-8.38677
yhk쎯	-8.38713
lkmi0쎯	-8.3895
wfny0쎯xyc쎯	-8.39175
uvo쎯	-8.39308
alt쎯	-8.39436
tak쎯	-8.39523
x쎯cwg쎯	-8.39567
wk쎯ryn1쎯	-8.39709
on쎯	-8.3972
bd쎯	-8.39753
쎁쎂eee0쎯	-8.3979
jh쎯	-8.39896
xn쎯	-8.39919
us쎯	-8.40007
pww쎯	-8.40077
you1쎯	-8.40198
bk쎯og쎯	-8.40293
dhb쎯	-8.40361
th쎯gj쎯	-8.40364
ff쎯	-8.40366
yv쎯	-8.40527
aet1쎯	-8.40622
wygg쎯	-8.4063
w쎯ft쎯	-8.40665
wycm1쎯fakg0쎯	-8.40723
et쎯yne쎯	-8.40739
djb쎯	-8.4087
wxj쎯	-8.40907
쎂쎄	-8.40996
adw쎯k쎯	-8.41116
wycm1쎯nf쎯	-8.41206
:“	-8.41278
dn쎯uu쎯gf쎯	-8.41452
thgf1쎯	-8.41509
쎈eee0쎯	-8.41728
jj쎯	-8.41868
hh쎯	-8.41896
wb쎯wu쎯	-8.41961
fnw쎯	-8.4208
wmj1쎯	-8.42139
gqx쎯	-8.42243
pfjm1쎯	-8.42272
ght쎯ick쎯	-8.42331
pfi쎯	-8.42369
pd쎯	-8.42483
bct쎯	-8.42644
qgu쎯	-8.42807
fhu쎯	-8.42881
”zzbd3쎯“	-8.4291
dnnl쎯	-8.42974
qkm쎯	-8.43456
dc쎯	-8.43697
bg쎯tg쎯	-8.4377
inr쎯	-8.43862
hj쎯	-8.43974
puh쎯	-8.44014
dwiu쎯	-8.44054
rxj쎯nf쎯	-8.44271
쎁쎀eee0쎯	-8.44418
fl쎯	-8.44523
:쎁	-8.44547
?	-8.4468
,adw쎯	-8.44797
dd쎯gajf0쎯	-8.44813
wfhg0쎯	-8.44827
iawn0쎯	-8.44859
be쎯	-8.45059
gae쎯dn쎯	-8.45092
jv쎯	-8.45204
te쎯	-8.45261
쎅쎀쎀	-8.45479
eg쎯	-8.45562
qg쎯	-8.45645
qve쎯	-8.45669
xyy1쎯	-8.4569
uk쎯uyh쎯	-8.45747
쎀쎀	-8.45758
gu쎯ck쎯	-8.45864
nnw쎯	-8.46102
gu쎯yy쎯oy쎯	-8.46113
qsu쎯	-8.4622
sft쎯	-8.46371
oo쎯	-8.46548
kn쎯	-8.46949
ruv쎯kkkk1쎯	-8.47009
ym쎯xe쎯	-8.47127
nui쎯	-8.47182
sg쎯nnh쎯	-8.47393
dht쎯	-8.47394
pu쎯gm쎯	-8.4744
aft쎯qk쎯	-8.47456
wt쎯et쎯	-8.47697
tf쎯ght쎯	-8.4777
ian1쎯	-8.47837
pynn0쎯	-8.47906
yaa쎯	-8.47997
sy쎯	-8.48006
ddm쎯fghg쎯	-8.48104
ln쎯	-8.48137
nnh쎯if쎯	-8.48228
pk쎯	-8.48456
cqy쎯	-8.48517
fcb쎯	-8.48589
jn쎯jyie쎯	-8.4862
khgm3쎯	-8.48786
qtj쎯	-8.48787
gm쎯e쎯	-8.48818
anb0쎯	-8.48834
yfn쎯	-8.49021
gmy0쎯	-8.49033
thd쎯nng쎯	-8.49096
cff0쎯	-8.49154
ffi쎯	-8.49178
tyg쎯	-8.49227
fdm쎯s쎯	-8.49264
wtl쎯	-8.494
atd쎯ip쎯	-8.49432
xxf쎯og쎯	-8.4947
tg쎯,	-8.49542
sh쎯ud쎯	-8.49722
wgkb0쎯	-8.49722
wycm1쎯	-8.4991
ugdu쎯sy쎯	-8.49969
xqa쎯	-8.4997
iie쎯	-8.50111
rpv쎯	-8.5016
fge쎯fghg쎯	-8.50211
pye쎯	-8.50433
lfhf쎯	-8.50565
k쎯,	-8.50774
.《	-8.50824
uwl쎯	-8.50963
gkl쎯y쎯wtf쎯	-8.51167
e쎯ud쎯	-8.51253
iex쎯	-8.51276
ese쎯	-8.51413
3쎯	-8.51702
irn쎯lg쎯	-8.51773
tjh쎯et쎯	-8.51895
aft쎯	-8.51905
ud쎯txi쎯	-8.51906
udp쎯	-8.52081
ywf쎯	-8.52119
.wc쎯ngk쎯	-8.52169
kd쎯	-8.52246
saj0쎯aa쎯	-8.52393
pw	-8.52537
gu쎯yy쎯wc쎯jfd쎯	-8.526
tffy0쎯	-8.526
tmo쎯	-8.5276
v쎯ge쎯	-8.52784
jfc쎯	-8.52889
yce쎯	-8.52914
bnn2쎯	-8.53236
ih쎯yu쎯	-8.53252
fffy0쎯	-8.5329
xqc쎯	-8.53295
jyie쎯ktm쎯	-8.53305
o쎯y쎯	-8.53352
wye쎯	-8.53503
c쎯h쎯	-8.53534
jf쎯,	-8.53581
www쎯	-8.53701
g0쎯	-8.53745
s쎯fiy쎯	-8.53764
to쎯	-8.53775
ytyh쎯ymhj0쎯	-8.53782
tjf0쎯iawn0쎯	-8.54107
gkip0쎯	-8.54199
bm쎯thgc0쎯py쎯	-8.54399
yneg0쎯	-8.54462
ipg쎯	-8.545
um쎯og쎯	-8.54533
oge쎯pyj쎯	-8.54672
ukh쎯	-8.5471
wx쎯ip쎯	-8.54856
yfj0쎯	-8.54908
쎆eee0쎯	-8.55017
uduk0쎯	-8.55108
gxgu쎯	-8.55129
ntk쎯gf쎯	-8.55304
qgj쎯	-8.55421
fcp쎯fcl쎯	-8.55456
pfq쎯dn쎯	-8.55483
egl쎯	-8.55636
riu0쎯	-8.55645
ip쎯sy쎯	-8.5575
ywx쎯yygy쎯	-8.55755
쎇쎀	-8.55983
ryn1쎯	-8.56292
sn쎯	-8.56375
de쎯	-8.56386
ymc쎯ytb쎯	-8.56477
maw쎯	-8.56564
ylk0쎯	-8.56569
xv쎯	-8.56575
qje쎯	-8.56721
trf0쎯qc쎯	-8.56751
lc쎯	-8.56801
쎂쎆	-8.56896
cbd쎯	-8.56896
p쎯wh쎯	-8.569
쎃eee0쎯	-8.56982
mtd쎯	-8.56994
td쎯ykw쎯	-8.57024
wwk쎯	-8.57089
an쎯xn쎯	-8.57339
kgd쎯	-8.57428
mmm쎯ai쎯	-8.57445
atd쎯	-8.5746
nnh쎯gl쎯	-8.57485
wycb쎯	-8.57521
yc쎯	-8.57683
tmdf1쎯	-8.57838
gk쎯og쎯	-8.57985
es쎯	-8.5799
》tffu쎯	-8.58011
zzzy	-8.58132
tey0쎯	-8.58174
ybv0쎯	-8.58214
g1쎯	-8.5834
q쎯l쎯	-8.5838
wynk쎯	-8.58423
qie쎯	-8.58768
flf1쎯	-8.58778
tx쎯dg쎯	-8.58893
kha쎯yb쎯	-8.58919
lwx쎯	-8.59011
itd쎯	-8.59192
쎂쎀쎀쎆rh쎯	-8.59222
oat쎯	-8.59256
yd쎯	-8.59339
jn쎯pym쎯	-8.59389
nyu0쎯	-8.59404
bt쎯	-8.59476
bi쎯	-8.5955
xf쎯wgk쎯	-8.596
gku쎯	-8.59624
geq쎯	-8.59762
trf0쎯hko쎯	-8.59892
eyni쎯	-8.59896
wvf0쎯yvi쎯	-8.59922
rq쎯	-8.60021
od쎯gajf0쎯	-8.60092
w쎯tr쎯	-8.60101
tgh쎯	-8.60259
wyv쎯kkk쎯	-8.60285
dn쎯js쎯	-8.60382
wqin쎯	-8.60404
v쎯tg쎯	-8.60421
nt쎯	-8.60565
pj쎯	-8.60834
g쎯tkh쎯	-8.6094
yiu0쎯	-8.61222
j쎯rxj쎯	-8.61329
gogj쎯	-8.61538
jghm1쎯	-8.61655
jb쎯dd쎯	-8.61692
,dmj1쎯	-8.61702
do쎯	-8.61757
ldd0쎯	-8.61802
ad쎯f쎯	-8.61873
yy쎯dm쎯	-8.62004
wcy0쎯	-8.62076
lks쎯	-8.62217
dgv쎯	-8.6232
pp쎯g쎯.	-8.62462
os쎯	-8.62484
wyc쎯	-8.62503
peg쎯	-8.62533
ip쎯wf쎯	-8.62586
bwf쎯	-8.62652
쎉쎀	-8.62708
쎅eee0쎯	-8.62891
4쎯	-8.6296
jty쎯ysi쎯	-8.62996
+	-8.63103
dga쎯pwv쎯tg쎯	-8.63127
f1쎯	-8.63131
mf쎯	-8.63338
쎂쎀쎀쎈rh쎯	-8.63351
yjj1쎯	-8.63477
--	-8.63503
ng쎯	-8.63656
ntg쎯ce쎯	-8.63658
gef쎯rh쎯	-8.63793
쎂쎀쎀쎇rh쎯	-8.63954
wg쎯dm쎯	-8.63978
ii쎯gu쎯	-8.64247
mqq쎯uh쎯	-8.64256
hhhh쎯ue쎯	-8.64295
fkuk2쎯	-8.64489
rjg1쎯wtf쎯	-8.64525
쎂쎀쎁쎀rh쎯	-8.64587
iagw쎯	-8.64625
rvyl0쎯	-8.64664
ri쎯	-8.64719
zzbd0쎯	-8.64738
tv쎯km쎯	-8.64754
stx쎯	-8.64758
ugh쎯	-8.64852
yn	-8.64854
f0쎯	-8.64892
wf쎯yyq쎯	-8.64908
)zzbd3쎯	-8.6499
xgu쎯	-8.65075
dty0쎯	-8.65081
yss쎯	-8.65105
ngk쎯	-8.65193
nnnn0쎯x쎯	-8.65222
wwj쎯	-8.65451
wfg0쎯	-8.65454
eajd쎯	-8.65542
ttg0쎯	-8.65603
oyvk1쎯	-8.65637
*	-8.65653
yw쎯	-8.65877
uxe쎯	-8.65886
wxm쎯	-8.66094
sgh쎯	-8.66162
n쎯ytt쎯	-8.66321
uda쎯	-8.66324
dcg쎯	-8.66403
dga쎯	-8.6645
iu쎯	-8.66496
sam쎯	-8.66512
irr쎯ia쎯	-8.66758
wbj쎯wt쎯	-8.66865
ovt쎯rnd1쎯	-8.66927
쎂쎀쎀쎉rh쎯	-8.66962
ygu쎯	-8.66981
쎁eee0쎯	-8.66989
ajt쎯	-8.67148
jc쎯	-8.67211
fuk쎯udyj쎯	-8.67261
쎂쎂	-8.67271
yft쎯	-8.67414
wjg쎯	-8.67574
ol쎯	-8.67625
gkih0쎯	-8.67658
jf쎯adwe1쎯	-8.67833
imkf1쎯	-8.67904
uq쎯iyc쎯	-8.67922
vfhp1쎯uu쎯	-8.67965
fuj쎯	-8.68062
j쎯g쎯wh쎯	-8.68108
rn쎯e쎯	-8.6813
wyq쎯	-8.68307
kha쎯	-8.68349
x쎯fp쎯	-8.68484
wt쎯ftj쎯	-8.68562
쎄eee0쎯	-8.68753
gr쎯	-8.68758
jhny쎯	-8.68807
nu쎯	-8.68921
pp쎯g쎯	-8.68994
쎂쎈	-8.69003
j쎯mh쎯	-8.69032
yvi쎯	-8.69043
쎁쎁eee0쎯	-8.69065
tg쎯gf쎯	-8.69203
uqt쎯	-8.69212
vn쎯	-8.69227
tsh1쎯	-8.69323
ad쎯sg쎯	-8.69415
rta쎯	-8.6943
synw쎯ny쎯	-8.69457
imgk쎯	-8.69498
dp쎯gc쎯	-8.69701
dn쎯al쎯	-8.69735
rnd1쎯	-8.69875
yf쎯tha쎯sm쎯	-8.6988
k쎯yygy쎯	-8.69948
쎃쎂	-8.69965
wc쎯jfd쎯,	-8.70157
쎂쎀쎀쎅rh쎯	-8.70176
bm쎯tg쎯	-8.70228
ck쎯iyo쎯	-8.70229
wsg0쎯yce쎯	-8.70234
ygk쎯yyy쎯	-8.70266
if쎯tvfh0쎯	-8.70373
xtu쎯	-8.70506
adk쎯	-8.70599
kkk쎯tkh쎯	-8.70664
u쎯tg쎯	-8.70725
qm쎯	-8.7077
qt	-8.70806
pwat0쎯	-8.70807
wffg쎯	-8.70975
ptkm1쎯	-8.70985
um쎯tl쎯	-8.71014
tkh쎯sfhg쎯	-8.71031
ln쎯shn쎯	-8.71078
yf쎯aj쎯	-8.71111
mdfj쎯	-8.71161
a쎯wt쎯.	-8.71561
kjj쎯	-8.71571
thd쎯fcl쎯	-8.71624
.yynw1쎯	-8.7176
wgku1쎯	-8.71997
mb쎯	-8.72003
bm쎯gm쎯	-8.72027
ypm쎯	-8.72086
lqw쎯	-8.72153
imk쎯	-8.72158
hxx쎯	-8.72164
,wgkq0쎯	-8.72253
gmd0쎯	-8.724
쎂쎁	-8.72468
ye쎯	-8.72476
d0쎯	-8.72545
rgf쎯	-8.7256
y0쎯	-8.72575
쎃쎅	-8.72594
wm쎯	-8.7267
-쎁	-8.72854
imj쎯	-8.72859
emc쎯	-8.73065
wsg0쎯txi쎯	-8.73139
aps쎯	-8.73147
dk쎯	-8.73189
wf쎯km쎯	-8.73272
,wb쎯	-8.73359
qnth쎯	-8.73433
wh쎯w쎯	-8.73449
,mh쎯	-8.73474
o쎯b쎯	-8.73545
v쎯gm쎯	-8.73602
ah쎯	-8.73754
atd쎯ubk1쎯	-8.73809
vs쎯	-8.73862
wdn쎯rfm쎯	-8.7395
g쎯pg쎯	-8.74111
xjm쎯	-8.74122
bgh쎯	-8.74155
fghy2쎯	-8.74452
tkw쎯	-8.74658
rmc쎯	-8.74658
ec쎯	-8.74685
bfw쎯	-8.74761
qq쎯uqw쎯	-8.74781
af쎯wgkb0쎯	-8.74793
etg쎯	-8.74816
hhhh쎯sfi쎯	-8.74851
jvko0쎯	-8.74918
wwj쎯wfhg0쎯	-8.74979
ca쎯	-8.75022
bv쎯	-8.75045
tk쎯od쎯	-8.75057
fcl쎯tr쎯	-8.75153
ght쎯tgm쎯	-8.75218
tuk쎯	-8.75295
kg쎯	-8.7554
tha쎯	-8.75638
g쎯hxf쎯	-8.75673
xuj쎯	-8.75735
qng1쎯	-8.75815
ywt쎯	-8.75823
wv쎯qkhh1쎯	-8.75833
cd쎯gn쎯	-8.75912
tuj0쎯	-8.75955
dga쎯v쎯	-8.75958
fm쎯yiu0쎯	-8.75962
쎂쎀쎀쎄rh쎯	-8.76446
gm쎯d쎯	-8.76448
wu쎯	-8.76477
y쎯rf쎯	-8.76575
thp쎯	-8.76601
thd쎯nng쎯r쎯	-8.76634
r쎯g쎯tkh쎯	-8.76706
k쎯aw쎯	-8.7674
tq쎯o쎯	-8.76835
jtyl쎯	-8.76846
jyie쎯	-8.76929
etj쎯	-8.76964
iy쎯mm쎯	-8.7709
dgj쎯	-8.77174
p쎯tkh쎯	-8.77209
iwf쎯	-8.77217
ijo쎯	-8.77231
gmww쎯wh쎯	-8.77462
jcf쎯rf쎯	-8.77483
ld쎯o쎯	-8.77741
fv쎯	-8.77763
kwg쎯	-8.77775
fg쎯fgh쎯	-8.77842
gcf쎯wynb0쎯	-8.77874
ga쎯nae0쎯	-8.77924
uce쎯	-8.77937
wv쎯klj쎯	-8.78347
qr쎯kht쎯	-8.78355
xgb쎯	-8.78366
yygt쎯dd쎯	-8.78371
wgq쎯	-8.78387
oug0쎯	-8.78399
ivw쎯	-8.78427
쎂쎃	-8.78429
ysi쎯	-8.78461
gx쎯	-8.78473
dmjf1쎯	-8.78477
yygy쎯wrh1쎯	-8.78594
ugv쎯	-8.78616
wvt쎯	-8.78624
sfc쎯	-8.78666
fi쎯	-8.78739
g쎯fh쎯	-8.78783
mm쎯	-8.78957
mhny1쎯	-8.79001
ytey0쎯	-8.79025
nh쎯ty쎯	-8.7903
n0쎯	-8.7904
qv쎯	-8.79117
icf쎯	-8.79146
tca쎯	-8.79181
w쎯r쎯	-8.79284
쎃쎀쎀	-8.79292
aqq쎯	-8.79302
쎃.	-8.79443
bfm쎯	-8.79464
,sk쎯	-8.79493
mh	-8.79707
aq쎯fakg0쎯	-8.80153
qtj쎯uu쎯	-8.80165
wsk쎯	-8.80253
yssc0쎯	-8.80445
,i쎯	-8.80722
qvn0쎯	-8.80806
oy쎯,	-8.80807
qmgk1쎯	-8.80809
fwm쎯saj0쎯	-8.8087
ntf쎯	-8.81151
aqky1쎯	-8.8122
n1쎯	-8.81322
qg	-8.81388
dcw쎯	-8.81525
yygt쎯sghg1쎯	-8.81536
yjs쎯tkgg1쎯	-8.81578
ghd1쎯aa쎯	-8.81684
p쎯hxf쎯	-8.81734
nty0쎯af쎯	-8.8181
rwyg0쎯	-8.81822
qve쎯tf쎯	-8.81875
쎂쎀쎀쎃rh쎯	-8.81891
gny쎯	-8.81892
ip쎯wug0쎯	-8.81986
em쎯	-8.82118
,ll쎯,	-8.82187
wg쎯sf쎯	-8.82206
쎄쎅	-8.82225
yjs쎯	-8.82275
dga쎯pwv쎯rn쎯	-8.82374
ef쎯	-8.82444
vb쎯r쎯	-8.82498
lh쎯kthh1쎯	-8.8258
oi쎯	-8.82599
y1쎯	-8.82652
k쎯l쎯aw쎯u쎯ipk쎯	-8.82665
da쎯	-8.82811
fiyt쎯	-8.82909
mh쎯gf쎯	-8.83006
uqwk0쎯yqj쎯	-8.83112
ugl쎯	-8.83218
dh쎯pgk쎯	-8.83255
tkw쎯se쎯	-8.83518
temk0쎯	-8.83637
lw쎯wc쎯pgc쎯	-8.83713
jf쎯wa쎯	-8.83905
qyng0쎯	-8.83944
uqv쎯	-8.83948
fjk쎯	-8.84176
xxe쎯	-8.84193
gjh2쎯	-8.8433
utd쎯ugm쎯	-8.84373
ts쎯wrh1쎯	-8.84391
da쎯dk쎯	-8.8441
qq쎯tkh쎯	-8.84639
vs쎯fn쎯	-8.84687
ui쎯	-8.84843
r쎯g쎯wh쎯	-8.84882
gj쎯wynn3쎯	-8.8502
ktn쎯	-8.85046
쎂쎀쎀쎀	-8.85075
xl쎯eqn쎯	-8.85292
h쎯r쎯	-8.85448
tfp쎯	-8.8545
tfqp쎯rcf쎯	-8.856
a쎯wt쎯,	-8.85686
and쎯	-8.85732
jm쎯	-8.85851
j쎯g쎯tkh쎯	-8.85991
mq쎯st쎯	-8.86174
》(	-8.86188
k쎯wxf쎯	-8.86201
mmm쎯ai쎯ith쎯	-8.86325
syg쎯	-8.86346
fpx쎯	-8.86441
pfjf1쎯	-8.86643
di쎯	-8.86709
aib쎯lfnh쎯	-8.86723
puhc쎯ygu쎯o쎯	-8.86804
rkk쎯wt쎯	-8.86811
pu쎯cwg쎯	-8.86846
쎂쎀쎀쎂rh쎯	-8.86885
myd0쎯	-8.86954
iyw쎯	-8.87032
tfkd쎯	-8.87211
gae쎯aa쎯	-8.87257
trf0쎯klj쎯	-8.87368
uqt쎯js쎯	-8.87545
djd쎯ipkh1쎯	-8.87573
rh쎯wa쎯	-8.87602
》,	-8.87683
sw쎯	-8.87732
쎄.	-8.87759
dhc쎯	-8.87784
ifj쎯	-8.87897
r쎯v쎯nae0쎯	-8.87993
pei쎯sf쎯	-8.88095
ltk쎯	-8.88189
fku쎯	-8.88246
af쎯	-8.88249
fjh0쎯	-8.88265
>	-8.88316
at쎯	-8.88333
e쎯uqt쎯	-8.88384
w쎯wu쎯	-8.88409
yyq쎯	-8.88418
cy쎯	-8.88549
vtkd0쎯	-8.88576
ufg쎯	-8.88628
itx쎯rdc쎯	-8.88739
pu쎯ytb쎯	-8.88805
jtyl쎯hich0쎯	-8.88879
usr쎯ub쎯	-8.88953
adf쎯	-8.89012
rfc쎯	-8.89029
w쎯n쎯ght쎯ywf쎯	-8.8906
qtfj0쎯	-8.89091
syp쎯	-8.89248
rvk쎯	-8.89395
1	-8.89397
fj쎯ty쎯	-8.89442
amd쎯ygk쎯	-8.89467
yygy쎯je쎯	-8.89588
eq쎯	-8.89621
k0쎯	-8.89654
quj쎯	-8.89662
tg쎯dyn쎯	-8.89701
nkuf쎯	-8.89791
g쎯uqw쎯	-8.89806
qqqq1쎯ntk쎯	-8.89844
bu쎯wgk쎯	-8.89853
aj쎯	-8.89934
ytb쎯	-8.89991
쎉쎈	-8.90008
ih쎯jf쎯	-8.90029
aw쎯m쎯	-8.90051
itf쎯	-8.90137
yad쎯	-8.90173
pu쎯khg0쎯	-8.90306
iaw쎯	-8.90435
we쎯	-8.90484
zzxe	-8.90527
rx쎯	-8.90531
yygt쎯ai쎯	-8.90811
efcb쎯	-8.90819
쎂eee0쎯	-8.90908
r쎯“	-8.90997
zzts1	-8.9101
wgi쎯	-8.9124
쎄쎀쎀	-8.91271
ai쎯ux쎯	-8.91461
f쎯th쎯	-8.91557
yygt쎯ytyh쎯	-8.91565
saj0쎯	-8.9167
lpdk1쎯	-8.91719
ago쎯	-8.91736
wkh0쎯fj쎯	-8.9179
ib쎯	-8.91973
bm쎯tg쎯,	-8.91994
rr쎯	-8.92123
km쎯a쎯	-8.9217
drin0쎯	-8.92211
bq쎯	-8.92213
twt쎯	-8.92217
thn쎯	-8.92229
wc쎯lfq쎯	-8.92334
f쎯yy쎯	-8.92368
i쎯ce쎯	-8.92428
kkk쎯rfm쎯	-8.92436
wwv쎯	-8.92468
aqrn1쎯	-8.92589
mwyc0쎯	-8.92622
vcl쎯lt쎯	-8.92661
zzbd8쎯zzbd8쎯	-8.92672
lfof3쎯	-8.92697
ebn0쎯	-8.92731
xv쎯qc쎯	-8.92734
yy쎯wgj쎯	-8.92735
qq쎯rh쎯	-8.92767
tuu0쎯	-8.92775
fakg0쎯	-8.92822
sghg1쎯fm쎯	-8.92873
euk쎯	-8.93012
amd쎯l쎯	-8.93015
vck쎯	-8.93026
pgj쎯	-8.93052
쎂쎀쎁쎁rh쎯	-8.93118
rvy쎯	-8.93181
fggh쎯uk쎯	-8.93254
.wb쎯	-8.93287
wg쎯gfi쎯	-8.93326
ldn쎯	-8.93344
sgi쎯	-8.93544
apk쎯qie쎯	-8.93558
rx쎯uwy0쎯	-8.93677
pvs쎯	-8.93789
쎃쎆	-8.93892
jhng0쎯	-8.93936
iyo쎯	-8.94064
gcft0쎯lt쎯gf쎯	-8.94142
itk쎯	-8.94203
pp쎯uj쎯	-8.94293
쎉쎉	-8.94361
udg2쎯	-8.94365
wc쎯kht쎯	-8.94556
wy	-8.94625
yt쎯ty쎯	-8.94818
ge쎯gm쎯	-8.94869
ycb쎯	-8.94891
uo쎯cep쎯	-8.94914
tj쎯gc쎯	-8.94915
tdkj0쎯	-8.95012
xln0쎯	-8.95048
rpws쎯	-8.95061
ime쎯	-8.95098
qqqq1쎯gkm쎯	-8.95119
rcy1쎯	-8.95235
wv쎯bb쎯	-8.95366
wg	-8.95416
gk	-8.95547
sw쎯imj쎯	-8.95561
,bn쎯	-8.95581
epc쎯gc쎯	-8.95687
du쎯	-8.95687
ia쎯alw쎯	-8.95828
yop쎯	-8.95941
gah쎯ic쎯	-8.95954
rlg0쎯	-8.95961
,vcb쎯	-8.95981
쎂쎀쎀쎀rh쎯	-8.96039
wv쎯o쎯	-8.96327
pei쎯n쎯	-8.96443
fdm쎯	-8.96449
ytf쎯	-8.96587
,px쎯	-8.96615
v쎯tf쎯	-8.96669
ugm쎯gxgu쎯	-8.96698
rf쎯	-8.96892
fpm쎯	-8.96952
쎂쎀쎀쎁rh쎯	-8.96985
rnr쎯	-8.96987
lud쎯	-8.97083
ifk0쎯	-8.97132
my쎯	-8.97142
vca쎯	-8.97164
gqje0쎯	-8.97188
iry쎯	-8.97217
bn쎯j쎯	-8.97242
wwwk0쎯	-8.97259
afd1쎯	-8.9726
gh쎯,	-8.97287
wn쎯	-8.97404
ide쎯fm쎯	-8.97406
iwyf1쎯	-8.97454
rpw쎯	-8.97583
aig쎯	-8.9765
tr쎯gj쎯	-8.97677
qkhh1쎯	-8.97678
yle쎯	-8.97855
pwd쎯	-8.97896
ssq쎯	-8.97915
eyb쎯	-8.9792
,cf쎯	-8.97937
id쎯	-8.9797
hk쎯f쎯dm쎯tkw쎯	-8.97983
l쎯mw쎯qh쎯	-8.98041
wb쎯r쎯	-8.98362
iugg0쎯	-8.98374
xx쎯lu쎯	-8.98383
ydn쎯	-8.98386
pu쎯bf쎯	-8.98436
dwt쎯	-8.98489
rs쎯tfkp0쎯	-8.98632
yygt쎯ai쎯ith쎯	-8.98787
,y쎯s쎯	-8.98852
ha쎯	-8.9898
ym쎯tffu쎯	-8.99011
tgj쎯s쎯	-8.99013
ipe쎯	-8.99168
td쎯qk쎯	-8.99262
lfnh쎯	-8.99301
toc쎯	-8.99321
ej쎯	-8.99354
gw쎯	-8.9937
g쎯fhn쎯	-8.99392
pe쎯ytfp0쎯	-8.99406
tdij0쎯	-8.99415
afs쎯	-8.99433
ajdf쎯	-8.99533
sghg1쎯ux쎯	-8.99562
yygt쎯itp쎯	-8.99562
py	-8.99628
tqq쎯	-8.99687
apl쎯fcl쎯	-8.99802
ys쎯	-8.99881
pw쎯uj쎯	-8.9989
rmhj쎯ya쎯	-9.00135
iqn쎯	-9.00222
bgk쎯	-9.00267
ymd쎯	-9.00284
fhq쎯	-9.0035
pv쎯ufy쎯	-9.00606
fdm쎯fiy쎯	-9.00656
vv쎯	-9.0091
abu쎯	-9.00973
rmn0쎯	-9.01044
tfq쎯tg쎯	-9.01046
pfj쎯	-9.01066
fp쎯tkgg1쎯	-9.0108
ub쎯	-9.01105
siq쎯	-9.01106
쎆쎀쎀	-9.01274
yk쎯	-9.013
drt쎯	-9.01385
tqv쎯pg쎯	-9.01515
mmm쎯aq쎯	-9.01605
udj쎯	-9.0163
fkhk쎯	-9.01652
gogn0쎯	-9.01661
isk쎯fm쎯	-9.01674
uwy0쎯	-9.01756
dq쎯,	-9.01775
ip쎯dl쎯	-9.01795
qq쎯wh쎯	-9.01836
bm쎯tg쎯gf쎯	-9.01918
jb쎯ym쎯	-9.01989
vq쎯	-9.02049
wqu쎯	-9.02059
jjj0쎯	-9.02086
zzts0쎯	-9.02126
iyt1쎯	-9.02191
ke쎯	-9.02302
btg쎯	-9.02362
ftbt쎯sft쎯	-9.02421
jo쎯fi쎯	-9.02439
쎁쎉쎉쎈rh쎯	-9.02509
sf쎯tv쎯wf쎯	-9.02599
pgj쎯wfny0쎯	-9.02641
wv쎯dmh0쎯	-9.02808
ytf쎯qq쎯	-9.02893
쎂쎇	-9.02926
jb쎯dd쎯r쎯	-9.03014
ip쎯tu쎯	-9.03217
adwe1쎯uj쎯	-9.03303
fh쎯ruv쎯	-9.03342
ipk쎯km쎯	-9.03418
dn쎯km쎯	-9.0342
yssr0쎯	-9.0364
tfl쎯l쎯	-9.03777
le쎯	-9.03823
dl쎯wtf쎯	-9.0389
wny1쎯	-9.03986
sk쎯ce쎯	-9.04017
vf쎯	-9.04141
khgp0쎯	-9.04151
ta쎯adwe1쎯	-9.04325
yta쎯	-9.04353
tf	-9.04359
uqwm1쎯ou쎯	-9.04446
wbj쎯tfkp0쎯	-9.04517
rwyg0쎯yygt쎯	-9.04522
jcf쎯	-9.0459
ffuk쎯	-9.04664
,k쎯l쎯	-9.04691
xxr쎯	-9.0482
5쎯	-9.04851
afl쎯	-9.04957
dd쎯jg쎯	-9.05015
ffff1쎯f쎯	-9.05019
dmj1쎯dn쎯	-9.05031
sff1쎯	-9.05133
sg쎯tu쎯	-9.05137
vep쎯	-9.05198
rtol0쎯	-9.05239
akgl쎯	-9.05255
nge쎯ukq쎯	-9.05262
mqj쎯	-9.05266
gip쎯e쎯	-9.05283
iqc쎯	-9.05307
lw쎯wc쎯	-9.05403
);	-9.05423
tkgg1쎯ycb쎯	-9.05464
ytb쎯a쎯	-9.05498
hka쎯ltk쎯	-9.05505
tcy0쎯	-9.05542
rj쎯bm쎯	-9.05558
vk쎯js쎯	-9.05738
wx쎯a쎯	-9.05742
wwf쎯	-9.05798
alf0쎯	-9.06017
jo쎯	-9.06091
enr쎯	-9.06163
ce쎯qkqq0쎯	-9.06185
pu	-9.06245
yo쎯wx쎯	-9.06281
yge쎯	-9.06285
xww쎯	-9.06345
pp쎯rg쎯	-9.06354
qyv쎯jqr쎯	-9.06393
ijl쎯ya쎯	-9.06596
od쎯gajf0쎯:	-9.0663
fwm쎯aib쎯	-9.06663
sri쎯	-9.06701
hwb쎯	-9.06712
ipm쎯	-9.0672
j0쎯	-9.06738
dtf쎯	-9.06761
ipwk0쎯	-9.06799
fkuc3쎯	-9.0685
jn쎯eyb쎯	-9.07059
yssd0쎯	-9.07078
apl쎯	-9.07106
ey쎯adw쎯	-9.07169
yy쎯tm쎯	-9.07179
ud쎯gf쎯	-9.07296
wwj쎯st쎯	-9.07392
sm쎯ud쎯	-9.07455
yw쎯o쎯	-9.07492
jn쎯idr쎯	-9.07519
pfi쎯xj쎯	-9.0777
qf쎯	-9.07794
ynk쎯	-9.07977
쎈쎀쎀	-9.08042
qt쎯ujff쎯	-9.08087
ia쎯alw쎯ith쎯	-9.08161
ral쎯syp쎯	-9.08165
ifw쎯	-9.08254
yygt쎯tfkf0쎯	-9.08268
ith쎯xe쎯	-9.08303
,vk쎯	-9.08342
nhy쎯	-9.08471
fhc쎯	-9.08531
.adw쎯	-9.08599
ycf쎯	-9.0862
ftjo1쎯	-9.08713
qk쎯:	-9.08723
dty0쎯gk쎯	-9.08786
xyc쎯	-9.08847
dhb쎯d쎯	-9.08921
pr쎯	-9.08959
gtu쎯	-9.09149
,wug0쎯gf쎯	-9.09209
ufy쎯qnth쎯	-9.09253
rvy쎯tf쎯	-9.09265
p쎯jfd쎯	-9.0931
vtg쎯	-9.09326
lpk0쎯xfn쎯	-9.09483
wwx쎯	-9.09506
o쎯“	-9.0954
hao쎯	-9.09573
dt쎯egl쎯	-9.09585
kr쎯	-9.09625
hid쎯	-9.09658
pym쎯hid쎯	-9.09711
fyv쎯	-9.09764
쎄쎈	-9.09805
tdp쎯	-9.09963
gmi쎯	-9.09979
hka쎯qv쎯	-9.10082
pp쎯g쎯,	-9.10186
쎁쎀쎀쎀	-9.10208
wfk쎯	-9.10238
fgh쎯wv쎯	-9.10275
vkgd쎯qi쎯	-9.10371
ywu쎯	-9.10439
oja쎯	-9.10494
ta쎯,	-9.10554
io쎯	-9.10621
k쎯atd쎯	-9.10667
begg쎯	-9.10785
xpw쎯	-9.1086
tuj0쎯tq쎯	-9.10912
fnud쎯	-9.11
wf쎯yf쎯	-9.11039
mhkg2쎯	-9.1105
gkm쎯	-9.11132
lft쎯bw쎯	-9.11271
etn쎯	-9.11296
adw쎯px쎯	-9.11357
fwm쎯pg쎯	-9.11426
kc쎯	-9.1149
쎃쎃	-9.11507
sgn쎯ddu1쎯	-9.11526
ftjb쎯j쎯	-9.11527
,uqf쎯	-9.11569
fwyc2쎯	-9.11677
wdn쎯rvyl0쎯	-9.11868
xyna1쎯lkb쎯	-9.11902
ufk0쎯	-9.11927
nua쎯ajdh쎯	-9.11941
rrr쎯qc쎯	-9.11955
iv쎯wa쎯	-9.11965
쎅.	-9.1209
,ccc쎯	-9.12121
.y쎯s쎯	-9.12266
nua쎯	-9.12279
yaa쎯cwg쎯	-9.12346
e0쎯	-9.12416
쎁쎉쎉쎇rh쎯	-9.12456
irr쎯ia쎯ith쎯	-9.12466
iyj쎯	-9.12471
h0쎯	-9.12564
apg쎯	-9.12585
nnl쎯	-9.12596
ge쎯dm쎯	-9.12602
mc쎯	-9.12625
ifh0쎯	-9.1277
쎀쎁	-9.12828
쎁쎉쎉쎉rh쎯	-9.13032
,ww쎯	-9.13071
pwdj쎯	-9.13101
usg쎯	-9.13104
ukd1쎯	-9.13122
g쎯xe쎯	-9.13276
y쎯yq쎯	-9.13435
aps쎯aqt쎯	-9.13496
if쎯l쎯	-9.13503
udjh쎯	-9.13531
,m쎯jf쎯	-9.13558
ytm쎯	-9.13603
ggi쎯wk쎯	-9.13612
dyn쎯	-9.13739
sfhg쎯	-9.13779
pfqf쎯	-9.13794
bpf쎯ta쎯	-9.13957
sfiu1쎯	-9.14023
wvf0쎯	-9.14024
ubtf0쎯	-9.14047
im쎯	-9.14047
txgt쎯	-9.1411
igt쎯	-9.14275
qnq쎯	-9.14319
wbj쎯lw쎯	-9.14369
nyi2쎯fghy1쎯	-9.14429
un쎯	-9.14449
wgc쎯	-9.14451
dr쎯ou쎯	-9.14463
쎁쎉쎉쎆rh쎯	-9.1449
tf쎯o쎯	-9.1457
2	-9.14582
dqe쎯	-9.14627
tx쎯lh쎯	-9.14671
wyp쎯	-9.14746
pv쎯tmgt3쎯	-9.14748
lm쎯	-9.14754
쎃쎈	-9.14814
ap쎯	-9.14891
ahn쎯	-9.14946
am쎯fmud쎯	-9.1495
dt쎯	-9.14963
jel쎯	-9.15037
wnnp0쎯	-9.15072
fcp쎯tf쎯	-9.15124
oa쎯	-9.1514
fwm쎯	-9.15248
nny1쎯	-9.15317
jgm쎯aib쎯dd쎯ip쎯	-9.15351
sfg쎯	-9.15576
cbts1쎯	-9.15731
fu쎯lk쎯	-9.15786
yoo쎯	-9.15819
oe쎯	-9.15891
ykw쎯	-9.15921
ymc쎯e쎯	-9.1596
a쎯hw쎯	-9.15967
p쎯g쎯	-9.15968
쎃쎁	-9.16033
vcb쎯sk쎯	-9.16087
fjfh1쎯	-9.16105
yjs쎯jghm1쎯	-9.16117
yw쎯ygh쎯	-9.16169
so쎯	-9.16181
mqc쎯	-9.16223
ju쎯	-9.16285
tffh1쎯uthp0쎯	-9.164
emc쎯wwv쎯	-9.16524
gyg0쎯	-9.1664
pfq쎯wg쎯	-9.16664
wtf쎯tl쎯	-9.16689
uw쎯	-9.16696
ipg쎯km쎯	-9.16753
uq쎯jqr쎯	-9.1678
sqt쎯	-9.16792
txgi5쎯	-9.16793
bqr쎯	-9.1681
wyo쎯	-9.16813
wj쎯xvk쎯	-9.16838
jf쎯imkf1쎯	-9.16935
lh쎯kthh1쎯ith쎯	-9.16986
r쎯dga쎯pwv쎯	-9.17004
yuo쎯	-9.17155
sym쎯ytyh쎯	-9.17235
gkip0쎯ya쎯	-9.17251
alp쎯	-9.17323
ovt쎯ip쎯	-9.1736
igey0쎯	-9.17366
ccc쎯tq쎯	-9.17494
ypt쎯oy쎯	-9.17506
abi쎯	-9.17782
hm쎯	-9.17865
쎇쎅	-9.17923
,dty0쎯	-9.17954
쎂쎀쎁쎂rh쎯	-9.18186
tep쎯	-9.18218
ex쎯	-9.18225
쎁쎉쎉쎅rh쎯	-9.18295
uqwm1쎯qqqq1쎯	-9.18426
wnh쎯	-9.18429
tr쎯rfm쎯	-9.18506
trf0쎯tgh쎯	-9.18522
qkd쎯	-9.1865
ak쎯ftj쎯	-9.18692
udb쎯	-9.18792
dgh쎯wa쎯	-9.18838
wa쎯gj쎯	-9.18987
mmq쎯	-9.1906
fgh쎯fg쎯	-9.19065
swb쎯	-9.19079
.px쎯	-9.1913
f쎯rfm쎯	-9.19278
ad쎯qqqq1쎯	-9.19296
dh쎯pgk쎯r쎯	-9.19304
xfn쎯	-9.19358
fcp쎯lwg쎯	-9.19449
rffg0쎯	-9.19661
oyn쎯	-9.19663
w쎯od쎯	-9.19685
sks쎯	-9.19788
ta쎯zzbd3쎯	-9.1983
fo쎯	-9.20006
ws쎯usi1쎯	-9.20014
isk쎯fm쎯ith쎯	-9.20049
h쎯,	-9.20171
xo쎯	-9.20233
iagw쎯khu쎯	-9.20269
jb쎯rg쎯	-9.20274
ic쎯ytt쎯	-9.20349
rtf쎯	-9.20354
iv쎯jf쎯	-9.20369
isk쎯ux쎯	-9.20398
ieb쎯	-9.20415
wn쎯fqb0쎯	-9.20521
apk쎯udyj쎯	-9.20522
trh0쎯	-9.20547
mhg쎯	-9.2058
naw쎯	-9.20595
qn쎯ufy쎯	-9.20608
yvcb0쎯	-9.20637
aib쎯	-9.20741
ovt쎯pb쎯	-9.20751
tvfh0쎯	-9.20847
lw쎯ip쎯	-9.21008
ide쎯ux쎯	-9.21017
j쎯g쎯pe쎯	-9.21084
aqq쎯iyt1쎯	-9.21087
gm쎯o쎯	-9.2115
쎃쎄	-9.21306
쎁쎉쎉쎃rh쎯	-9.21337
mp쎯	-9.21354
rep쎯cbj쎯	-9.21486
xu쎯	-9.21503
i0쎯	-9.21505
inx쎯	-9.2157
쎁wh쎯	-9.2169
wug0쎯lfhf쎯	-9.21695
lwg쎯ty쎯	-9.21796
쎉쎇	-9.2181
yv쎯vb쎯r쎯	-9.21836
kwyg0쎯g쎯	-9.22275
gxi쎯rfm쎯	-9.22314
oqdo쎯	-9.2232
gm쎯wa쎯wx쎯	-9.22337
xh쎯fhn쎯	-9.22363
pdc쎯	-9.22363
gd쎯ivfh1쎯	-9.22439
aw쎯e쎯	-9.22522
》.	-9.22632
pfq쎯	-9.22644
fi쎯aib쎯	-9.22673
쎂쎉	-9.22706
wfny0쎯rtol0쎯	-9.22714
op쎯	-9.22751
nnw쎯gkip0쎯	-9.22862
wyf0쎯	-9.22879
qev쎯un쎯	-9.22924
쎁쎉쎉쎂rh쎯	-9.23009
wg쎯uk쎯	-9.23024
khd쎯	-9.2306
hhhh쎯r쎯	-9.23133
yps쎯	-9.23247
am쎯	-9.23439
qrm쎯	-9.23567
ajd0쎯	-9.23582
dn쎯ftjb쎯	-9.23636
uxh쎯	-9.23704
wv쎯od쎯	-9.23728
l쎯pe쎯xe쎯	-9.23744
j쎯k쎯l쎯	-9.23777
ym쎯k쎯	-9.23843
쎀쎉	-9.23989
rbcc쎯jyie쎯	-9.24002
iy	-9.24087
ltu0쎯nnh쎯	-9.24148
bm쎯b쎯	-9.24289
cep쎯ipkh1쎯	-9.2429
dmu1쎯	-9.24312
tdkj0쎯ce쎯	-9.24363
wk쎯ygh쎯	-9.24396
mfky쎯	-9.24498
gae쎯qje쎯	-9.24531
pyg쎯vfhp1쎯ith쎯	-9.24533
tvr쎯	-9.24727
hk쎯f쎯	-9.24781
bj쎯ymhj0쎯	-9.24825
ipmq쎯	-9.2488
ulg쎯	-9.24959
쎂-	-9.24994
쎉쎆	-9.25046
ktm쎯	-9.25063
vtk쎯www쎯	-9.25197
ai쎯fm쎯	-9.25285
》j쎯	-9.2533
n쎯uj쎯	-9.25383
cf쎯gf쎯	-9.25433
h쎯itx쎯ymhj0쎯	-9.25462
쎀쎇	-9.25534
wfh0쎯tc쎯	-9.25619
i쎯wcy0쎯	-9.2562
tux쎯	-9.25643
ux쎯yiu0쎯ymhj0쎯	-9.25647
jlc쎯	-9.25697
ngj쎯	-9.25711
쎈쎆	-9.25768
wksf쎯	-9.25783
uyiy0쎯	-9.25825
qev쎯yt쎯	-9.25857
쎁쎉쎈쎄rh쎯	-9.25876
wtp쎯	-9.26001
ie쎯	-9.26131
god쎯	-9.26182
sf쎯vii쎯ntk쎯gf쎯	-9.2628
oq쎯	-9.26291
쎃쎇	-9.26438
j쎯d쎯	-9.26471
,p쎯	-9.26548
dd쎯ih쎯	-9.26595
tuj0쎯ujfj0쎯	-9.26597
쎉쎅	-9.26606
jce쎯	-9.26615
vx쎯	-9.26656
wbb0쎯	-9.26658
trf0쎯gqr쎯	-9.26705
bynw0쎯bb쎯	-9.2671
p쎯su쎯	-9.26761
qk쎯.	-9.26778
-쎂	-9.26805
waj0쎯	-9.2682
uwa쎯	-9.26865
fcu0쎯fm쎯	-9.26891
gv쎯	-9.27004
wfy0쎯	-9.27052
po쎯	-9.27092
thd쎯ick쎯aq쎯	-9.27098
ry쎯	-9.27215
r쎯fny0쎯og쎯	-9.27277
sq쎯	-9.27304
egc쎯fd쎯	-9.27311
lpk0쎯ruv쎯	-9.2733
ynky6쎯	-9.27331
gbnm1쎯	-9.27444
fp쎯tkgg1쎯k쎯	-9.27445
aps쎯iwyf1쎯	-9.27459
y쎯xyna1쎯	-9.27472
suq쎯lfq쎯	-9.27484
ytfp0쎯	-9.27498
gqg0쎯	-9.27763
pyj쎯x쎯	-9.27768
쎁쎉쎉쎄rh쎯	-9.27768
tdp쎯wgk쎯	-9.27795
.gm쎯wtf쎯	-9.27824
pu쎯cwg쎯pgc쎯	-9.27833
쎆쎅	-9.27857
tg쎯wgkb0쎯	-9.27871
ge쎯fi쎯	-9.2789
fcu0쎯fm쎯ith쎯	-9.2803
ssn쎯	-9.28074
a쎯um쎯	-9.2808
wk쎯bwg쎯	-9.28081
aca쎯	-9.28086
i쎯sk쎯	-9.28091
pu쎯et쎯	-9.281
(wynb0쎯	-9.2815
tgj쎯yd쎯	-9.28156
쎀쎈	-9.28177
mpf쎯	-9.28212
cel쎯	-9.28257
mty1쎯	-9.28406
wfn쎯	-9.2853
bk쎯a쎯	-9.28536
dyw쎯	-9.28588
tve쎯qq쎯	-9.28654
jn쎯lt쎯	-9.28701
wr쎯	-9.28706
g쎯ts쎯	-9.28719
sghg1쎯pv쎯	-9.28833
kj쎯	-9.2885
pwd쎯bm쎯	-9.28999
qh쎯tu쎯	-9.29082
r쎯tgj쎯s쎯	-9.29085
hq쎯	-9.29213
xtdh0쎯	-9.29238
cd쎯ovt쎯	-9.29269
nd쎯n쎯	-9.29322
y쎯yam쎯	-9.29329
km쎯,	-9.29407
c쎯go쎯	-9.29427
gkh0쎯	-9.29455
rc쎯yid쎯	-9.29495
tdn쎯	-9.29583
gb쎯	-9.29588
g쎯rh쎯	-9.29597
lwg쎯bm쎯	-9.29619
fku쎯cqw쎯	-9.29622
qdb쎯	-9.29627
uygh1쎯	-9.29688
dg쎯wh쎯	-9.29755
khn쎯	-9.29762
ftg쎯yaa쎯	-9.2982
fhg1쎯	-9.29872
yygt쎯fnrt쎯	-9.29924
tfq쎯fj쎯r쎯	-9.30048
dwf쎯	-9.30076
xx쎯pfjm1쎯	-9.30121
fjfh1쎯l쎯	-9.3015
wk쎯buj쎯	-9.3022
rny1쎯	-9.30255
rep쎯	-9.30294
쎆쎄	-9.30296
gm쎯wtf쎯	-9.30351
pyg쎯vfhp1쎯	-9.30441
uft쎯	-9.30459
toln1쎯	-9.30489
pyu쎯	-9.30522
kk쎯	-9.30529
anu0쎯thg1쎯	-9.30649
,ld쎯	-9.30685
쎈쎅	-9.30785
je쎯jo쎯	-9.30812
ntg쎯r쎯	-9.30815
...	-9.30832
uk쎯ta쎯	-9.30849
,txg쎯	-9.30934
fhn쎯go쎯	-9.30998
xyc쎯g쎯	-9.31069
,hw쎯e쎯	-9.3109
kl쎯	-9.3112
ivs쎯	-9.31361
gd쎯qd쎯	-9.31435
pq쎯	-9.31555
nh쎯adnt1쎯	-9.3157
gqjo0쎯	-9.3167
amw쎯qc쎯	-9.31836
fd쎯aq쎯	-9.31844
wt쎯pe쎯	-9.31957
khv쎯	-9.31974
kfa쎯	-9.32043
yygt쎯rtol0쎯	-9.32235
tdaf0쎯	-9.32275
lftj쎯	-9.32337
rt쎯sm쎯	-9.32337
tg쎯ta쎯	-9.32341
ymc쎯uu쎯	-9.3238
un쎯pg쎯	-9.32391
gj쎯gk쎯	-9.32396
ig쎯	-9.32449
o쎯g쎯wsg0쎯r쎯	-9.32516
um쎯kkk쎯	-9.32529
gfq쎯	-9.32545
goi쎯	-9.32561
xef쎯	-9.32572
yam쎯	-9.32597
tfkf0쎯	-9.32617
gq	-9.32629
,ux쎯	-9.32672
qlp쎯	-9.32688
쎁쎉쎈쎅rh쎯	-9.32698
fhv쎯fp쎯	-9.32774
tq쎯kgn쎯	-9.32776
g쎯su쎯	-9.32828
jb쎯wffg쎯	-9.32843
rpv쎯jvko0쎯	-9.32861
xm쎯	-9.32936
eerq쎯	-9.32975
,rg쎯	-9.33008
th	-9.33097
uqwm1쎯u쎯	-9.33106
wk쎯rf쎯	-9.33215
wbj쎯vfhp1쎯	-9.33278
bde쎯udh쎯	-9.33285
tdt쎯	-9.33324
wuk쎯	-9.33471
awsk쎯	-9.33499
hn쎯	-9.33523
fny0쎯lkb쎯	-9.33581
nnh쎯yn쎯	-9.33705
dg쎯rh쎯	-9.33716
twgi쎯	-9.33778
ynty0쎯	-9.33834
ivfh1쎯	-9.33862
gkl쎯ftbt쎯rep쎯	-9.33923
쎈쎈	-9.33943
kw쎯e쎯	-9.33954
rgd0쎯	-9.33956
yxu쎯	-9.34024
pv쎯tmgt3쎯ith쎯	-9.34242
fmy0쎯	-9.34301
yc쎯wv쎯	-9.34321
rrk쎯ip쎯	-9.34344
ide쎯ux쎯ith쎯	-9.34378
qk쎯tq쎯	-9.34392
kt쎯	-9.3444
jtyq1쎯	-9.34447
ia쎯sghg1쎯	-9.34499
쎅쎆	-9.34569
fg쎯tffu쎯uqd2쎯	-9.34715
pww쎯jg쎯	-9.34752
tfqm1쎯	-9.34774
bd쎯rjg1쎯	-9.34816
tey0쎯pw쎯	-9.34842
ee쎯dc쎯	-9.34843
rdf0쎯	-9.34854
쎁쎉쎈쎈rh쎯	-9.34873
sss쎯	-9.34999
쎅쎅	-9.35043
ipr쎯	-9.35069
e쎯g쎯	-9.35158
,yh쎯	-9.35159
iwy2쎯	-9.35187
lk쎯xk쎯	-9.35241
yfn쎯ftj쎯	-9.3525
ipw쎯fkh쎯	-9.35263
sm쎯fnrt쎯	-9.35271
bl쎯	-9.35278
bw쎯wgg1쎯	-9.3538
itf쎯uqv쎯	-9.35421
iwf쎯lw쎯	-9.35441
www쎯qq쎯	-9.35499
gu쎯fqu쎯	-9.35566
pujn0쎯qc쎯	-9.35597
ybf0쎯epc쎯	-9.35614
af	-9.3562
amd쎯yygy쎯	-9.35688
ny쎯gj쎯	-9.35725
wyna0쎯	-9.35756
tf쎯ght쎯sf쎯	-9.35765
uthp0쎯kht쎯	-9.35873
,gip쎯	-9.35877
imj쎯yaa쎯	-9.35883
tdj쎯	-9.35915
ttd쎯	-9.35938
a쎯tkgg1쎯jgm쎯	-9.35993
tdp쎯yid쎯	-9.36062
쎁-	-9.36116
tx쎯fgh쎯	-9.36198
lt쎯jg쎯	-9.36342
xwf쎯	-9.36374
:쎂	-9.36384
wwkw0쎯	-9.36407
gajh쎯	-9.36453
wuf쎯	-9.36471
ymf쎯sj쎯	-9.36494
go쎯thd쎯	-9.365
dn쎯xgm쎯	-9.36504
db쎯	-9.36535
udy쎯dyn쎯	-9.36576
qaj0쎯	-9.36622
ubk1쎯	-9.36632
ga쎯yt쎯	-9.3665
vfhp1쎯dn쎯	-9.36756
wc쎯aw쎯	-9.36874
.p쎯	-9.36898
bmg쎯	-9.36902
쎁쎉쎉쎀rh쎯	-9.36967
8쎯	-9.36972
yk쎯xan쎯	-9.37035
vaf쎯wsg0쎯	-9.37108
shi쎯	-9.37189
oanw쎯	-9.37307
zzbd3쎯k쎯l쎯	-9.37324
jf쎯uj쎯:	-9.37365
db쎯ukd1쎯	-9.37447
dif쎯f쎯	-9.37465
fhb쎯	-9.37499
gkih0쎯wh쎯	-9.37836
쎆.	-9.37866
dga쎯pwv쎯km쎯	-9.37912
xyc쎯yf쎯	-9.37916
ta쎯.	-9.37957
xa쎯qc쎯	-9.37981
wdy1쎯	-9.38044
rwyg0쎯bm쎯	-9.38151
dga쎯pwv쎯bpf쎯	-9.38172
thd쎯mh쎯	-9.38207
dtb쎯	-9.38234
ghc쎯gyb쎯	-9.38248
yvc쎯	-9.38386
pfjs쎯	-9.38394
fuj쎯mw쎯	-9.38402
tqq쎯fcl쎯	-9.38445
ve쎯	-9.3846
uji2쎯	-9.3852
ide쎯fm쎯ith쎯	-9.38728
tgm쎯aj쎯	-9.3873
xn쎯wynn3쎯	-9.38764
ftj쎯,	-9.38807
oh쎯	-9.38808
tqdh0쎯	-9.3882
wk쎯wvf0쎯	-9.38913
dnv0쎯gu쎯yy쎯oy쎯	-9.38983
xfm쎯	-9.38984
cd쎯ftg쎯	-9.39031
tv쎯gkl쎯nnh쎯yn쎯	-9.39097
tr쎯iyc쎯	-9.39124
,puhc쎯	-9.39151
sksw쎯ma쎯	-9.39188
ai쎯sghg1쎯	-9.3919
nyiy0쎯	-9.39209
sfh쎯	-9.3921
xxm쎯	-9.39228
sf쎯n쎯	-9.39242
yf쎯tha쎯	-9.39329
cccs3쎯	-9.39344
wj쎯	-9.39357
ishg쎯	-9.39406
ymc쎯lfhf쎯	-9.39435
쎅-	-9.39554
쎁쎉쎈쎆rh쎯	-9.3968
ym쎯gkip0쎯	-9.39683
쎆쎈	-9.39779
》《	-9.40009
vck쎯vfhp1쎯gf쎯	-9.40076
ga쎯v쎯aq쎯	-9.40117
gy쎯oy쎯	-9.40152
i쎯m쎯r쎯	-9.40168
《k쎯l쎯	-9.40176
xnn1쎯	-9.4021
whn쎯	-9.40217
쎀쎆	-9.40224
cep쎯wy쎯	-9.40298
쎁쎉쎈쎇rh쎯	-9.40317
ip쎯ftj쎯	-9.404
suq쎯ta쎯	-9.4042
qtdn1쎯	-9.40501
rrg1쎯	-9.40534
mga쎯	-9.40588
iuc쎯	-9.40761
qge쎯	-9.40773
iv쎯f쎯	-9.40911
ujff쎯	-9.40987
qkq쎯	-9.4099
mf쎯ght쎯	-9.41043
rdfh0쎯	-9.41083
》k쎯	-9.41115
jb쎯usr쎯	-9.41155
wyq쎯kkd쎯	-9.41177
쎄쎂	-9.41219
tgj쎯s쎯r쎯	-9.41238
nt쎯ed쎯	-9.41578
ay쎯	-9.41598
gip쎯j쎯	-9.41667
tdtf0쎯	-9.41695
,fm쎯	-9.41916
hka쎯ufk0쎯	-9.4193
nhj쎯	-9.42025
ld쎯hx쎯	-9.4208
atd쎯ip쎯bpf쎯	-9.42086
gef쎯qynm1쎯	-9.42282
guw쎯	-9.4231
wnt쎯	-9.42417
ym쎯ya쎯	-9.42443
uxt쎯	-9.42454
xp쎯wgk쎯ntg쎯	-9.4249
fm쎯uk쎯	-9.42562
(쎁	-9.42611
fdf1쎯	-9.42683
mmm쎯sghg1쎯	-9.42728
aft쎯qk쎯r쎯	-9.42754
oth쎯	-9.42754
pfq쎯uduk0쎯	-9.42779
,et쎯	-9.42815
ydn쎯wy쎯	-9.42927
dd쎯fny0쎯	-9.43002
sh쎯cf쎯	-9.43012
fii쎯go쎯	-9.43027
tgj쎯dd쎯	-9.43093
tgj쎯jg쎯	-9.431
qyv쎯	-9.43143
bc쎯tj쎯	-9.43215
쎄쎄	-9.43221
,yynw1쎯	-9.43245
yjj1쎯wg쎯	-9.43385
wtf쎯wsk쎯	-9.43454
.hhhh쎯ue쎯	-9.43474
jaw쎯	-9.43528
dd쎯bfm쎯	-9.43537
g쎯tffu쎯uqd2쎯	-9.43545
fcp쎯apk쎯	-9.43547
ja쎯	-9.43588
,ul쎯	-9.43597
aqk쎯	-9.43657
falw쎯	-9.4369
b0쎯	-9.43734
usr쎯xfg0쎯	-9.43792
cbj쎯	-9.43816
fcn쎯	-9.43821
r쎯u쎯kkk쎯	-9.43908
vk쎯wsk쎯	-9.44034
dgtg0쎯img쎯	-9.44068
ryl쎯ta쎯	-9.44075
aqu0쎯	-9.44086
iyv쎯	-9.44087
fwm쎯st쎯	-9.44164
rnn0쎯	-9.44186
vtkb0쎯	-9.442
v쎯dmh0쎯	-9.44206
hc쎯efw쎯	-9.44228
,gmf쎯	-9.44323
jcm쎯	-9.44358
fge쎯tr쎯qnp쎯	-9.44416
yygy쎯anb0쎯	-9.44416
jn쎯ytd쎯	-9.44492
ybf0쎯	-9.44503
rkm쎯	-9.44533
ul쎯wtf쎯	-9.44572
,kha쎯	-9.44601
rfc쎯ce쎯	-9.44604
eri쎯	-9.44605
iyc쎯tf쎯	-9.44623
bgu쎯sghg1쎯	-9.44637
bwg쎯	-9.44655
e쎯sm쎯	-9.44668
upy쎯	-9.44735
쎁쎉쎈쎂rh쎯	-9.44797
aft쎯wt쎯	-9.44833
rj쎯tak쎯	-9.44881
ukn쎯dm쎯tkw쎯	-9.44922
ipkh1쎯mqb쎯	-9.44956
쎁쎉쎈쎉rh쎯	-9.44963
jghx쎯	-9.45024
dmd쎯	-9.45031
e쎯udh쎯	-9.45069
tduh0쎯	-9.45124
gc쎯b쎯	-9.45192
dga쎯rmhj쎯	-9.45343
ab쎯hhhh쎯	-9.45376
쎁.쎅	-9.45407
vp쎯	-9.45415
.ip쎯suq쎯	-9.45432
mf쎯tl쎯	-9.45442
쎃쎉	-9.45474
쎁쎉쎉쎁rh쎯	-9.45495
sss쎯ss쎯	-9.45519
fhh쎯	-9.45625
r쎯y쎯s쎯	-9.45629
k쎯aw쎯ipk쎯km쎯	-9.45632
,c쎯ey쎯	-9.45651
,sghg1쎯	-9.45661
uit쎯	-9.45721
쎁쎅쎀	-9.4577
fcp쎯et쎯	-9.45797
jn쎯ib쎯	-9.458
gcg쎯	-9.45858
qdt쎯	-9.45884
y쎯jghm1쎯	-9.45984
hw쎯wsg0쎯	-9.45994
g쎯wug0쎯	-9.4611
dr쎯mj쎯	-9.46117
쎆쎆	-9.46212
ggw쎯	-9.46218
v쎯nae0쎯r쎯	-9.46245
mw쎯lfhf쎯	-9.4631
fgh쎯rh쎯	-9.46387
imj쎯jg쎯	-9.46447
ngc쎯	-9.46464
g쎯av쎯	-9.46499
.hx쎯	-9.46568
ditn1쎯	-9.46605
fay쎯	-9.4661
c쎯gh쎯	-9.46611
pgf1쎯	-9.46695
쎄쎆	-9.46707
c쎯go쎯,	-9.46743
wys쎯dn쎯	-9.4678
p쎯j쎯	-9.46817
bn쎯e쎯	-9.4684
b쎯qev쎯	-9.46884
iwt쎯	-9.46891
gkih0쎯wsg0쎯	-9.46935
g쎯pe쎯	-9.47009
ih쎯aq쎯	-9.47026
pwfi0쎯	-9.47101
쎈쎇	-9.47148
,rn쎯c쎯	-9.47283
tkgg1쎯ya쎯	-9.47296
xeg0쎯wgk쎯	-9.47297
jy쎯cm쎯	-9.47334
tgjn2쎯	-9.47338
쎇쎈	-9.47351
mw쎯uk쎯	-9.4737
svc쎯	-9.47421
rmhj쎯pg쎯	-9.47503
egm쎯	-9.47512
xkw쎯	-9.47839
wnnp0쎯fiy쎯	-9.47857
wgk쎯gj쎯	-9.47894
gma쎯	-9.47962
thl쎯	-9.47975
isk쎯ux쎯ith쎯	-9.48004
g쎯yww쎯	-9.48008
bpf쎯suq쎯	-9.481
쎇쎆	-9.48123
qk쎯tq쎯:	-9.48205
rmhj쎯kkk쎯	-9.48303
x쎯maw쎯	-9.48365
srm쎯	-9.4846
if쎯fwm쎯	-9.48531
fct쎯	-9.48567
n쎯l쎯	-9.48609
sw쎯sj쎯	-9.48646
ws쎯	-9.48662
ufy쎯lfhf쎯	-9.48672
쎁/	-9.48706
bwj쎯	-9.48713
amd쎯fghy1쎯	-9.48756
pu쎯lt쎯	-9.48807
lx쎯	-9.48824
xyna1쎯pgn쎯	-9.48828
쎀쎅	-9.48864
쎄쎃	-9.4896
dfy쎯lt쎯	-9.4901
ymhj0쎯ght쎯ywf쎯	-9.49012
qtd쎯	-9.4903
wynn3쎯	-9.49045
eyf쎯	-9.49048
hnd쎯	-9.49066
ukk쎯	-9.49195
쎂.쎀	-9.49205
fny0쎯uyh쎯	-9.49349
c쎯“	-9.49409
dn쎯ta쎯	-9.49421
yyn2쎯	-9.4947
yy쎯pvs쎯	-9.49699
ybb쎯	-9.49705
%,	-9.49729
(쎁쎈	-9.49795
waw쎯yid쎯	-9.49882
ajdh쎯	-9.49885
au쎯	-9.49887
vnu1쎯	-9.4995
dhb쎯wyf0쎯	-9.49967
lfo쎯qc쎯	-9.4998
temq0쎯	-9.50023
jef1쎯	-9.50027
ufk0쎯qv쎯	-9.50093
ym쎯suq쎯	-9.50112
agnn1쎯	-9.50114
nf쎯ipg쎯	-9.50174
qhk쎯	-9.50179
jx쎯	-9.50306
srg쎯	-9.50347
rnu0쎯	-9.50393
pl쎯gk쎯	-9.50435
bm쎯kkkk1쎯	-9.50439
hid쎯yx쎯	-9.50443
nudu쎯	-9.50518
y쎯tp쎯	-9.50537
쎉쎄	-9.50542
ipkr쎯	-9.50566
bu쎯txi쎯	-9.50566
ugdu쎯gmy0쎯	-9.5061
hich0쎯	-9.50651
uk쎯bw쎯	-9.50667
qkq쎯xjm쎯	-9.50769
pds쎯	-9.50927
iya쎯	-9.50967
rg쎯go쎯	-9.50972
rrhy쎯	-9.51031
alw쎯ytyh쎯	-9.51079
cep쎯ynf쎯	-9.5109
tfhy쎯	-9.51104
tw쎯	-9.5112
fq쎯xg쎯	-9.51133
qgb쎯ya쎯	-9.51173
utem1쎯qc쎯	-9.512
ijx쎯	-9.51229
sw쎯cwg쎯	-9.513
ygu쎯o쎯	-9.51302
7쎯	-9.51342
쎃-	-9.51345
xo쎯xfn쎯	-9.51416
,gm쎯	-9.51422
dg쎯tffu쎯uqd2쎯	-9.51563
nae0쎯fi쎯	-9.5161
,bn쎯j쎯	-9.51627
쎁쎉쎈쎃rh쎯	-9.51655
ufy쎯tlf0쎯	-9.51669
xwy0쎯ryn1쎯	-9.51723
wc쎯rtt0쎯	-9.5175
tdp쎯jg쎯	-9.5181
ux쎯uk쎯	-9.51829
tfj0쎯	-9.51908
쎀쎂	-9.51992
usr쎯r쎯	-9.52041
rge쎯	-9.52049
trt쎯	-9.52067
ytn쎯	-9.52086
6쎯	-9.52167
mw쎯apg쎯dgh쎯	-9.52168
vit쎯	-9.52179
tx쎯gg쎯	-9.52218
ujn쎯yq쎯	-9.52218
qk쎯,	-9.52226
rb쎯tfkf0쎯	-9.52258
eb쎯tl쎯.	-9.52269
i쎯j쎯	-9.52294
eb쎯ufy쎯	-9.5233
쎀쎃	-9.52338
qev쎯toc쎯	-9.52354
ftb쎯	-9.52379
bm쎯go쎯	-9.52415
쎄쎇	-9.52551
ccc쎯qk쎯	-9.52571
d쎯k쎯l쎯	-9.52572
ym쎯uqt쎯	-9.5264
tffu쎯f쎯	-9.52654
tqd쎯	-9.52693
fny0쎯tjh쎯	-9.52754
yygy쎯pb쎯	-9.52815
dgk쎯	-9.5287
waye쎯	-9.52871
iie쎯xjm쎯ftj쎯	-9.52899
vck쎯xtu쎯	-9.52954
dr쎯qk쎯	-9.52954
쎂wh쎯	-9.5297
//	-9.52977
dgkn0쎯ivs쎯	-9.53191
usr쎯gajf0쎯	-9.53208
eck쎯	-9.53247
dga쎯pwv쎯wf쎯	-9.53253
gkim1쎯	-9.53256
xan쎯	-9.53282
nc쎯	-9.53314
,sk쎯c쎯	-9.53426
pgc쎯zzbd3쎯	-9.53445
qyt쎯	-9.53458
qkk쎯	-9.53557
wjm쎯	-9.53599
rjg1쎯	-9.53608
uqi0쎯	-9.53621
ymf쎯gkih0쎯	-9.53625
px쎯wu쎯	-9.53713
cwg쎯	-9.53721
tu쎯rfc쎯fj쎯hi쎯	-9.53843
cd쎯lk쎯a쎯wt쎯,	-9.53879
me	-9.53968
ipw쎯ty쎯	-9.54024
xtf쎯xwy0쎯	-9.54109
wyn쎯	-9.54178
ssf쎯	-9.54306
eud쎯	-9.54332
itx쎯fm쎯	-9.54332
sghg1쎯uk쎯	-9.54363
ujn쎯dd쎯tjh쎯	-9.5438
dy쎯bj쎯	-9.54445
xf쎯js쎯	-9.5446
pe쎯fl쎯wf쎯wf쎯km쎯	-9.54466
wvp쎯	-9.54515
rb쎯》	-9.54617
f쎯gj쎯	-9.54622
y쎯wtf쎯atd쎯jgm쎯	-9.54625
wc쎯fqb0쎯	-9.54634
mnm쎯	-9.54662
qc쎯ese쎯	-9.54669
wycm1쎯tfq쎯	-9.54701
ynm쎯	-9.54812
ai쎯yy쎯	-9.5495
aqg쎯aqr쎯	-9.5503
lft쎯wsg0쎯	-9.55036
nnh쎯zzbd10쎯	-9.5509
god쎯st쎯	-9.55107
esv쎯	-9.5513
wxd쎯	-9.55218
wtuf1쎯	-9.55246
rm쎯	-9.55299
dwg쎯	-9.55359
w쎯fghg쎯	-9.55375
jo쎯hhu0쎯	-9.55379
yu쎯je쎯	-9.55436
qdm쎯	-9.55519
jb쎯jh쎯	-9.55558
atd쎯ax쎯	-9.55562
dr쎯gj쎯	-9.55562
쎀쎄	-9.55583
rgm쎯	-9.55654
nyi2쎯	-9.55691
ge쎯ipg쎯	-9.55742
ipg쎯bm쎯	-9.55772
rf쎯xfn쎯	-9.5589
f쎯gh쎯	-9.55912
쎅쎇	-9.56081
ymc쎯yf쎯zzbd3쎯	-9.56187
ypeu쎯	-9.56201
,reh쎯e쎯	-9.56206
ujqu쎯	-9.56344
qf쎯cf쎯	-9.56364
fny0쎯og쎯r쎯	-9.56446
tv쎯km쎯wf쎯tv쎯km쎯	-9.5646
jn쎯pym쎯ck쎯	-9.56463
lkmi0쎯gae쎯	-9.56483
)j쎯	-9.56532
wy쎯kgn쎯	-9.56639
utk쎯	-9.56654
deb쎯	-9.56676
쎅쎈	-9.56676
yn쎯vi쎯	-9.56833
gm쎯qje쎯	-9.56924
fwf쎯	-9.57043
fg쎯xe쎯	-9.57081
rnu0쎯wx쎯	-9.57104
fgu쎯	-9.57109
fcl쎯lt쎯	-9.57152
ijlc쎯gl쎯	-9.5726
dd쎯pfjm1쎯	-9.5732
trf0쎯ntg쎯	-9.57402
rrg1쎯rbcc쎯	-9.57445
il쎯	-9.57521
sgtk1쎯	-9.5755
ffc쎯	-9.57551
j1쎯	-9.57563
txg쎯rh쎯	-9.57664
caq쎯	-9.57764
qwyc1쎯	-9.57791
oft쎯	-9.57851
ovt쎯jg쎯	-9.57907
yuvo1쎯	-9.57936
gx쎯bu쎯mqq쎯	-9.57975
udyj쎯gqf쎯	-9.58002
al쎯yx쎯	-9.58024
sh쎯iv쎯	-9.5805
dqe쎯pg쎯	-9.58094
cqw쎯qbp쎯	-9.58109
,dn쎯o쎯	-9.58158
jlx쎯	-9.58189
vkf0쎯	-9.58198
yygy쎯ujj쎯	-9.58228
dn쎯sg쎯	-9.5823
go쎯idr쎯	-9.58314
ywe쎯	-9.58315
tn쎯	-9.58352
wys쎯wsg0쎯	-9.58387
qk쎯o쎯	-9.58391
pw쎯rnb쎯	-9.58429
ftbt쎯rep쎯,	-9.58432
lfod0쎯	-9.5845
vvv쎯ntg쎯	-9.58502
rj쎯waw쎯b쎯	-9.58518
wvm쎯	-9.58581
dnv2쎯adw쎯	-9.58624
svc쎯wynn3쎯	-9.58659
wtf쎯ftbt쎯	-9.58662
rdc쎯	-9.58672
f쎯fdf1쎯	-9.58714
sq쎯dn쎯	-9.58729
tq쎯kgn쎯.	-9.58749
dn쎯ybv0쎯	-9.58801
r쎯jf쎯whn쎯	-9.5882
9쎯	-9.58827
sgyb0쎯	-9.58849
lgey2쎯	-9.58903
uep쎯	-9.59056
ek쎯uqyl쎯	-9.59209
rqc쎯	-9.59209
nd쎯wygg쎯	-9.59251
wgkr1쎯	-9.59282
faw쎯	-9.59332
,gm쎯wtf쎯	-9.59378
iff1쎯	-9.59523
uqwm1쎯st쎯	-9.59531
wyk쎯	-9.59586
txg쎯wh쎯	-9.59617
f쎯gfi쎯	-9.59617
ed쎯	-9.59635
lfq쎯aq쎯	-9.59653
k쎯mmm쎯	-9.59703
ym쎯usr쎯rfc쎯sy쎯	-9.5972
wbj쎯og쎯	-9.59746
egcn쎯	-9.59889
fl쎯ymf쎯	-9.59897
tdp쎯et쎯gf쎯	-9.59902
tfkp0쎯dn쎯	-9.59905
bk쎯tq쎯	-9.59916
rn쎯ntk쎯	-9.59932
j쎯c쎯	-9.5994
ll쎯,	-9.59943
cd쎯lk쎯b쎯	-9.5999
wg쎯egc쎯	-9.59999
rt쎯sy쎯	-9.60116
xh쎯fj쎯	-9.6015
nk쎯	-9.60157
쎃wh쎯	-9.60192
쎅쎂	-9.60202
u쎯kkk쎯r쎯	-9.60237
.wjg쎯	-9.6034
,aqt쎯	-9.60371
nty0쎯yo쎯	-9.60532
gkl쎯y쎯yam쎯	-9.60614
jn쎯kkd쎯	-9.60632
tie쎯	-9.60679
r쎯usr쎯	-9.60714
쎄쎉	-9.60717
xln0쎯qt쎯lfq쎯	-9.60759
wkhh쎯	-9.60797
gk쎯tl쎯	-9.60832
,dmj1쎯eg쎯	-9.60882
jmd쎯	-9.60999
w쎯tg쎯	-9.61037
e쎯bv쎯wc쎯ngk쎯j쎯	-9.61057
iww쎯	-9.61061
ynv쎯	-9.6107
wygg쎯pta쎯	-9.61134
yon쎯	-9.61138
l쎯tl쎯bpf쎯	-9.61181
fny0쎯tu쎯	-9.61227
rkk쎯	-9.61294
ygu쎯wwj쎯	-9.61308
gmap쎯	-9.61314
fk	-9.61383
uqt쎯uwl쎯	-9.61449
sgm쎯	-9.6146
z	-9.61474
ruv쎯epc쎯	-9.61497
fcl쎯gl쎯	-9.6155
afi쎯	-9.61579
awx쎯lfq쎯	-9.6166
qdm쎯yneg0쎯	-9.61687
wys쎯k쎯	-9.61777
sm쎯zzbd3쎯	-9.61779
v쎯rpl쎯	-9.61816
yaf쎯	-9.61821
ugdu쎯pww쎯	-9.61827
fj쎯tf쎯b쎯	-9.6184
bqv쎯	-9.61962
t쎯yxxr1쎯	-9.62019
wdn쎯ugdu쎯	-9.62112
nae0쎯jtyq0쎯	-9.6214
jhk1쎯	-9.62181
tffu쎯yy쎯dm쎯	-9.62249
twf쎯	-9.62272
gd쎯gh쎯	-9.62311
fm쎯ux쎯	-9.62353
utem1쎯	-9.62473
xwy0쎯wht쎯	-9.62474
ywwf0쎯	-9.62488
f쎯wug0쎯	-9.62519
wgkb0쎯qk쎯	-9.62559
wvl쎯	-9.62582
쎁쎂쎀	-9.6262
ipq쎯bj쎯	-9.62644
avd쎯	-9.6271
rymn쎯jjjj0쎯	-9.62739
쎈쎉	-9.62757
b1쎯	-9.62809
yy쎯qf쎯	-9.62829
mmv0쎯	-9.62856
rawk쎯	-9.62871
gj쎯shn쎯	-9.62948
t0쎯	-9.62963
dnv2쎯	-9.63
,cep쎯fp쎯	-9.63041
쎄-	-9.63073
fgh쎯g쎯	-9.63089
gjq쎯qq쎯	-9.63187
tv쎯nnh쎯yn쎯	-9.63276
rn쎯c쎯	-9.63303
ia쎯sghg1쎯ith쎯	-9.63339
jyie쎯pym쎯	-9.63364
iss쎯	-9.63368
dgj쎯tel쎯	-9.63399
tld1쎯tp쎯	-9.634
gk쎯wrh1쎯	-9.63407
tfpd0쎯	-9.63454
kkhn쎯ftj쎯	-9.63525
rxj쎯rpl쎯	-9.63532
쎀zzts0쎯	-9.63586
ipw쎯fkh쎯ymhj0쎯	-9.63601
쎅쎄	-9.63675
kj쎯qd쎯	-9.63679
ywe쎯on쎯	-9.63688
wff0쎯	-9.63809
pp쎯uj쎯r쎯	-9.63826
ax쎯tr쎯	-9.63828
vfi쎯	-9.63865
cf쎯qje쎯	-9.63919
stt쎯ugl쎯	-9.63938
yfj0쎯syp쎯	-9.63945
u0쎯	-9.63951
dg쎯fgh쎯	-9.63973
km쎯.	-9.63984
tqv쎯	-9.64046
kgb쎯	-9.64067
vb쎯ygu쎯	-9.64163
bf쎯	-9.64179
mmm쎯sghg1쎯ith쎯	-9.6419
xeg0쎯vfhp1쎯	-9.64245
vyi0쎯	-9.64276
rmc쎯ty쎯	-9.64411
jghy0쎯	-9.64427
bwj쎯wdm쎯	-9.64496
udr0쎯	-9.64609
yud1쎯xl쎯	-9.64658
qq쎯adm쎯	-9.64759
rtol0쎯yt쎯	-9.6481
c쎯rg쎯	-9.64869
oyv쎯	-9.64876
eve쎯	-9.64884
nfp쎯gkip0쎯	-9.64896
ref쎯	-9.649
h쎯ymhj0쎯	-9.65017
wg쎯ymhj0쎯	-9.65057
blf0쎯	-9.6513
,ll쎯,ic쎯ytt쎯,	-9.6516
shy0쎯	-9.65174
m0쎯	-9.6518
iqgg쎯	-9.65213
uag1쎯	-9.6535
ght쎯fl쎯	-9.65407
쎅쎁	-9.65413
gmu1쎯wtf쎯	-9.65422
icw쎯	-9.65444
,wc쎯ngk쎯	-9.65458
fof쎯	-9.65461
mfk쎯lp쎯	-9.65604
bwf쎯rp쎯	-9.65783
쎅쎃	-9.65828
wyv쎯et쎯	-9.65938
(쎂)	-9.65949
qvfp1쎯	-9.65954
쎄wh쎯	-9.66068
fny0쎯et쎯	-9.66262
vgk쎯	-9.66317
pfqf쎯pl쎯	-9.66325
hcd쎯	-9.66372
ek쎯	-9.66459
oge쎯kkk쎯	-9.66508
iy쎯ujn쎯	-9.6653
gf0쎯	-9.6654
r쎯dl쎯kq쎯	-9.66542
mw쎯dhb쎯	-9.66548
ghd1쎯ipkh1쎯	-9.66565
쎈쎄	-9.66571
epw쎯	-9.66582
st쎯aa쎯	-9.66585
gjq쎯lk쎯	-9.66611
ti쎯	-9.66662
a쎯wt쎯ftj쎯	-9.66688
,qn쎯rtd쎯	-9.667
lm쎯bd쎯	-9.66774
.“	-9.66778
kqy쎯	-9.66793
ukn쎯x쎯gj쎯	-9.66821
rp쎯rh쎯go쎯	-9.66824
sai쎯	-9.66858
ipkr쎯rng2쎯	-9.6688
jat쎯	-9.66931
wwg쎯	-9.66941
yynw1쎯sf쎯	-9.66966
x쎯iyj쎯ip쎯	-9.66985
yud1쎯	-9.66991
쎆쎇	-9.67056
iyj쎯fm쎯	-9.6719
ubtf0쎯ou쎯	-9.67324
tmd쎯wsg0쎯	-9.67455
gl쎯pe쎯	-9.67456
ymf쎯ab쎯	-9.6749
itx쎯iu쎯	-9.67606
쎇쎉	-9.67632
kl쎯g쎯	-9.67665
mqc쎯tr쎯	-9.67692
rwye1쎯	-9.67769
쎈쎂	-9.67822
zzxx	-9.67867
pt쎯yny0쎯	-9.67885
wv쎯dmh0쎯gf쎯	-9.67899
fj쎯g쎯hi쎯	-9.679
(쎁)	-9.67905
,ld쎯hx쎯	-9.67938
.ul쎯	-9.67954
nla쎯	-9.67975
,ww쎯dmj1쎯	-9.68032
rh쎯lc쎯	-9.68151
jtyq1쎯pg쎯	-9.68247
dfny1쎯	-9.6826
fjg0쎯	-9.68337
tk쎯adm쎯	-9.68399
iqpl1쎯	-9.68411
cb쎯	-9.68529
xjk쎯	-9.68556
ivp쎯	-9.68578
쎁쎉쎅쎈rh쎯	-9.68587
fyn쎯	-9.68658
wv쎯uyt1쎯yx쎯	-9.68671
wc쎯pv쎯	-9.68741
uqf쎯pl쎯	-9.6879
쎀-	-9.68837
hq쎯qnq쎯	-9.68845
gog쎯iyt1쎯	-9.68882
cad쎯	-9.68936
n쎯y쎯	-9.68958
pe쎯fl쎯wf쎯	-9.68983
ffh0쎯	-9.68991
av쎯dn쎯	-9.68992
ipkh1쎯et쎯	-9.6901
uq쎯cep쎯wgj쎯tjh쎯	-9.69025
df쎯	-9.69096
aup쎯	-9.69134
cds쎯	-9.69152
쎅wc쎯jfd쎯	-9.6921
wqj쎯gxi쎯	-9.69281
rc쎯jmd쎯	-9.6931
iwf쎯tf쎯	-9.69341
qejy쎯	-9.69361
yta쎯gh쎯	-9.69446
xv쎯wx쎯	-9.69461
sux쎯	-9.69513
nh쎯vi쎯	-9.69546
ce쎯idr쎯	-9.69563
w쎯wsg0쎯	-9.69569
쎂.쎅	-9.69644
bgu쎯sghg1쎯ith쎯	-9.6965
teg1쎯	-9.69669
uqsg쎯	-9.69694
gkp쎯go쎯	-9.6975
ii쎯tjh쎯	-9.6981
rwyg0쎯fcl쎯	-9.69813
vfhp1쎯uu쎯b쎯	-9.69835
ipkm1쎯	-9.69895
ta쎯iit쎯	-9.69896
”tffu쎯	-9.69938
sgn쎯lfhf쎯	-9.70049
itdy쎯	-9.70087
khi쎯	-9.70107
atd쎯jgm쎯	-9.70119
isj쎯	-9.70127
pu쎯tf쎯	-9.70147
sty0쎯	-9.70172
iie쎯xjm쎯	-9.70179
jb쎯xtu쎯	-9.70219
yox쎯	-9.70283
wtr쎯lq쎯adwr0쎯	-9.70285
lw쎯gj쎯	-9.70494
pgc쎯mw쎯	-9.70512
kl쎯qh쎯	-9.7056
qe쎯qc쎯	-9.70587
wbj쎯vfhp1쎯gf쎯	-9.70619
e쎯bv쎯gmu1쎯wtf쎯	-9.70644
sad쎯	-9.70673
ud쎯iy쎯	-9.70716
thd쎯fcl쎯wx쎯	-9.70755
lw쎯gk쎯th쎯	-9.70788
at쎯fmk쎯	-9.70825
wynk쎯jg쎯	-9.70859
쎇쎂	-9.70869
tgj쎯yd쎯ymhj0쎯	-9.70907
wtr쎯	-9.70954
ihi쎯ey쎯	-9.71039
h1쎯	-9.71053
ftjb쎯e쎯	-9.71071
ep쎯nge쎯	-9.71077
xat0쎯	-9.71097
gf쎯g쎯wsg0쎯r쎯	-9.71155
rcp쎯	-9.71185
ftbt쎯yce쎯uk쎯	-9.71211
lu쎯dd쎯	-9.71285
q쎯wu쎯r쎯	-9.71292
dg쎯qe쎯	-9.713
vfhp1쎯gf쎯	-9.71306
bp쎯	-9.71313
dm쎯tm쎯	-9.71365
uqwn2쎯	-9.71375
sksw쎯rt쎯	-9.71377
by쎯ick쎯	-9.71423
iwe쎯	-9.71435
thd쎯tmd쎯	-9.71438
adwn4쎯	-9.71626
fhw쎯ghd1쎯	-9.7164
gmww쎯tkh쎯	-9.71647
wbj쎯uu쎯	-9.71682
ykge쎯	-9.71857
uuk1쎯yfn쎯	-9.71968
fgh쎯gg쎯	-9.72005
diu1쎯	-9.72041
fnrt쎯rn쎯	-9.72043
ltu0쎯thg1쎯	-9.72078
fas쎯fuk쎯	-9.72078
adwn4쎯gcf쎯	-9.72085
ipq쎯	-9.72128
rh쎯uj쎯	-9.72148
gae쎯dn쎯b쎯	-9.72259
pfq쎯gkih0쎯	-9.7227
wwf쎯ait쎯gf쎯	-9.72358
ukn쎯uk쎯	-9.7237
쎄쎁	-9.72584
qq쎯rh쎯go쎯	-9.72707
ymhj0쎯tv쎯	-9.7276
bn쎯sk쎯	-9.73082
qgb쎯nmh쎯	-9.73084
쎅%	-9.73088
쎆쎂	-9.73113
y쎯s쎯ww쎯gk쎯	-9.73156
쎀wtu쎯tyna2쎯	-9.73379
khgp0쎯fhg1쎯	-9.7339
yca쎯	-9.73396
khtd2쎯	-9.73401
ms쎯	-9.73449
쎁쎉쎀	-9.73511
fg쎯rh쎯	-9.73798
qjq쎯	-9.73912
rfw쎯	-9.73936
쎆쎃	-9.73949
qtj쎯trf0쎯r쎯	-9.74056
w쎯yygy쎯	-9.7409
gfq쎯pe쎯	-9.74098
lqy쎯	-9.74105
j쎯g쎯rn쎯	-9.74126
yy쎯dm쎯r쎯	-9.74186
w쎯gk쎯	-9.74259
.mh쎯gf쎯	-9.74315
ipk쎯tv쎯nnh쎯yn쎯	-9.74323
vii쎯ntk쎯	-9.74326
ldj쎯	-9.74343
qim쎯	-9.74345
dd쎯uthp0쎯	-9.74353
쎁쎉쎈쎀rh쎯	-9.74358
쎉쎃	-9.74381
uqb쎯	-9.74381
ujf0쎯hid쎯	-9.74382
bt쎯wqa쎯	-9.74502
dd쎯wf쎯	-9.74536
g쎯fc쎯	-9.74579
tk쎯f쎯	-9.74704
ghd1쎯d쎯	-9.74726
,k쎯aw쎯ipk쎯km쎯,	-9.75132
qbp쎯	-9.75178
ym쎯gkip0쎯wc쎯kht쎯	-9.75186
cbd쎯by쎯	-9.75233
qq쎯pe쎯	-9.75238
adn쎯	-9.75239
wdn쎯yv쎯	-9.75244
rpws쎯fpx쎯	-9.75244
v쎯ge쎯ywx쎯yygy쎯	-9.7528
pg쎯wug0쎯	-9.75281
lu쎯ym쎯	-9.75282
maw쎯gajf0쎯	-9.75303
it쎯rh쎯	-9.75318
adwe1쎯fjh0쎯	-9.75449
yff쎯w쎯	-9.7545
ltu0쎯nnh쎯qnp쎯	-9.75479
bn쎯.”	-9.75499
xtdp1쎯	-9.75508
tfkp0쎯gajf0쎯	-9.75528
쎂쎀쎁쎃rh쎯	-9.75649
wdn쎯fha쎯	-9.75737
gkih0쎯wgk쎯	-9.75834
x쎯gj쎯	-9.75929
쎇쎇	-9.75931
nty0쎯uduk0쎯	-9.75959
afff2쎯	-9.75974
mu쎯	-9.76068
a쎯dgt1쎯	-9.76068
gki쎯	-9.76077
dd쎯lpk0쎯	-9.76087
epi쎯il쎯	-9.76198
r쎯ad쎯sg쎯	-9.76255
uge쎯	-9.76261
dmj1쎯i쎯	-9.76363
쎁쎉쎇쎈rh쎯	-9.76495
sf쎯wug0쎯gf쎯	-9.76501
xyna1쎯rmhj쎯	-9.76574
uxxn0쎯	-9.76594
ipg쎯kjj쎯	-9.76602
쎁쎉쎈쎁rh쎯	-9.7662
cf쎯qh쎯	-9.76687
dr쎯ld쎯	-9.76699
si쎯pvs쎯	-9.767
khu쎯gfi쎯	-9.76798
ndo쎯tjt쎯	-9.76822
ddh쎯uyh쎯	-9.76919
tu쎯ip쎯rfc쎯sy쎯	-9.76924
mfk쎯lfnh쎯	-9.76935
twf쎯wgk쎯	-9.76937
isw쎯	-9.76971
쎀wtu쎯w쎯	-9.77
pntj0쎯	-9.77036
tgv쎯bd쎯	-9.77093
pwt쎯	-9.77145
ga쎯rd쎯	-9.7727
fcl쎯dyn쎯	-9.77289
ygh쎯nnh쎯	-9.77334
gmiu쎯	-9.77336
dlf0쎯	-9.77383
xyx쎯	-9.7739
ijx쎯wgk쎯	-9.77429
l쎯qh쎯	-9.7743
wh쎯sf쎯n쎯ih쎯xeg0쎯	-9.77441
rfc쎯sy쎯w쎯km쎯	-9.77489
fq쎯if쎯	-9.77495
,qd쎯rg쎯	-9.77574
ymhj0쎯aq쎯	-9.77618
x쎯ipkh1쎯	-9.77662
ty쎯tfqp쎯	-9.77731
aqb0쎯	-9.77752
uejo0쎯	-9.77979
tuh0쎯	-9.77991
fcr쎯	-9.78007
udb쎯ytyh쎯	-9.78024
trs쎯trtg쎯	-9.78106
gajf0쎯kgn쎯	-9.78174
쎀.쎅	-9.78219
fqu쎯qu쎯	-9.78247
uxe쎯jy쎯	-9.78269
lfq쎯ss쎯	-9.78276
ifn쎯ivs쎯	-9.7831
ftx쎯jgm쎯	-9.78389
ywfw0쎯	-9.7843
rer쎯	-9.78431
ke쎯nh쎯	-9.78468
dga쎯pwv쎯k쎯ny쎯	-9.78496
rlg0쎯khev0쎯	-9.78506
rwyg0쎯fj쎯	-9.78506
dif쎯f쎯dm쎯tkw쎯	-9.78516
rua쎯	-9.78542
ipkh1쎯tl쎯	-9.78581
ldd0쎯pg쎯	-9.78623
pw쎯ymf쎯	-9.78625
fh쎯tca쎯	-9.78644
dfa쎯	-9.78805
wgk쎯qqqq1쎯	-9.78827
yc쎯iagw쎯	-9.78837
dpq쎯	-9.78845
telb쎯	-9.78904
pl쎯aq쎯	-9.7895
hic쎯	-9.78965
rhj쎯	-9.78975
uqwl쎯	-9.79053
udg2쎯it쎯	-9.79054
rt쎯wdm쎯	-9.79115
bp쎯ps쎯ith쎯	-9.79168
g쎯rx쎯	-9.79179
tjt쎯vs쎯	-9.7928
xk쎯ya쎯	-9.79284
pfq쎯ugdu쎯	-9.79311
x쎯dl쎯	-9.79313
td쎯uthp0쎯	-9.79313
wfi쎯	-9.79339
jn쎯bb쎯um쎯tl쎯	-9.79356
ddg1쎯	-9.79452
ihi쎯	-9.79456
wfny0쎯lwg쎯	-9.79509
tym쎯	-9.79573
iy쎯tgj쎯	-9.79659
khq쎯	-9.79792
wgen1쎯	-9.79792
thd쎯y쎯	-9.79905
wqu쎯us쎯	-9.79925
ym쎯tu쎯rfc쎯	-9.79943
r쎯ad쎯dbm쎯h쎯	-9.79955
lw쎯if쎯	-9.8001
ta쎯ia쎯	-9.80084
wfny0쎯yu쎯	-9.80113
wgk쎯ua쎯	-9.8016
쎃rh쎯	-9.80241
jo쎯aft쎯	-9.80249
jgg0쎯	-9.80265
sk쎯tfkd쎯	-9.80283
ps쎯ihc쎯	-9.80328
ipw쎯epc쎯	-9.80429
k쎯uj쎯	-9.80529
hw쎯tlf0쎯	-9.8058
tjt쎯wgk쎯	-9.80622
uqt쎯yx쎯	-9.80722
fd쎯qfhw1쎯	-9.8075
ynj쎯	-9.80775
vvv쎯bb쎯	-9.80846
wul쎯	-9.80856
anh쎯ae쎯	-9.80866
g쎯adm쎯	-9.80882
iaqg쎯	-9.80925
yygy쎯tr쎯	-9.80939
vyv쎯	-9.80958
ykg0쎯	-9.80972
te	-9.811
쎈쎃	-9.81124
wt쎯et쎯.	-9.81149
,hhhh쎯ue쎯	-9.81176
fu쎯xk쎯	-9.81191
qq쎯vaf쎯wsg0쎯	-9.8122
py쎯wf쎯tu쎯ip쎯	-9.8128
wj쎯xvk쎯b쎯	-9.81296
wgk쎯m쎯	-9.81325
쎃쎀쎀쎀	-9.81387
m쎯fn쎯	-9.81401
tol쎯	-9.8149
wgk쎯dn쎯	-9.81546
gae쎯dyn쎯	-9.81584
dd쎯pe쎯	-9.81596
ftjb쎯ymhj0쎯	-9.81605
쎁쎉쎇쎉rh쎯	-9.81668
ydm쎯	-9.8167
ca쎯ndj쎯	-9.81707
dm쎯tkw쎯쎁	-9.81778
sh쎯m쎯	-9.81828
pfq쎯uduk0쎯r쎯	-9.8183
si쎯	-9.81869
nb쎯	-9.81872
rnb쎯whn쎯	-9.82013
wfkb0쎯tdp쎯	-9.82048
ufy쎯wht쎯	-9.82096
dyc쎯	-9.82118
ab쎯ce쎯	-9.82123
tp쎯gj쎯nnk쎯	-9.82237
vii쎯ntk쎯gf쎯	-9.82255
tuj0쎯wj쎯	-9.82271
toln1쎯ycf쎯	-9.82292
fqb0쎯gxi쎯	-9.82293
mmm쎯ii쎯	-9.82301
pg쎯yq쎯	-9.82304
jvk쎯	-9.82316
bwt쎯b쎯	-9.82317
ovt쎯dcg쎯	-9.82329
r쎯dty0쎯gk쎯	-9.82333
pyuf0쎯	-9.82344
쎀.쎀	-9.82347
ss쎯og쎯	-9.82394
ujn쎯ln쎯	-9.8243
khx쎯	-9.82465
jy쎯aq쎯	-9.82538
tn쎯nnh쎯	-9.82559
lxx쎯wycb쎯	-9.82699
ywx쎯ffc쎯	-9.82705
fnhc0쎯	-9.82728
v쎯je쎯	-9.82751
ul쎯d쎯	-9.8277
grd쎯	-9.82774
i쎯fp쎯	-9.82807
qu쎯	-9.82825
dd쎯jgm쎯	-9.8292
tx쎯uy쎯	-9.82942
tmgk2쎯	-9.82948
wg쎯usr쎯	-9.82967
jn쎯dfy쎯	-9.83074
bqr쎯uqwn2쎯	-9.83109
쎆쎉	-9.83117
,ic쎯ytt쎯,	-9.83192
ftx쎯rh쎯	-9.83207
r쎯f쎯yy쎯	-9.83213
fjw쎯	-9.83215
jpx쎯	-9.83237
wsg0쎯cwg쎯	-9.83247
oyv쎯wyv쎯	-9.83346
pwy쎯	-9.8336
tam쎯	-9.8341
rjq쎯	-9.83451
zzxx1	-9.83479
ynma쎯	-9.83503
sm쎯rmhj쎯	-9.83529
쎁쎉쎄쎉rh쎯	-9.83587
tv쎯wf쎯	-9.83614
ipk쎯xeg0쎯dn쎯km쎯	-9.83626
ih쎯xeg0쎯	-9.83652
nhj쎯rrr쎯	-9.83676
dff2쎯	-9.83695
wy쎯et쎯	-9.83736
qh쎯gae쎯	-9.83757
iak쎯	-9.83764
ifn쎯	-9.83788
awb쎯	-9.83844
epi쎯	-9.8389
wsg0쎯gm쎯	-9.83934
aynq쎯	-9.83966
sh쎯gx쎯	-9.83986
khgm3쎯ytyh쎯	-9.83988
쎁쎉쎅쎆rh쎯	-9.84024
ul쎯x쎯	-9.84156
pww쎯jqr쎯	-9.84188
ukqb2쎯qv쎯	-9.84195
u쎯jg쎯	-9.84249
rqa쎯	-9.84274
ymhj0쎯xe쎯	-9.84283
fuf0쎯	-9.84458
tk쎯wh쎯	-9.84462
iqp쎯	-9.84467
tdp쎯et쎯	-9.8449
pei쎯yne쎯	-9.84495
yi쎯og쎯	-9.84534
xcy0쎯	-9.846
lv쎯	-9.84603
fgh쎯wty0쎯	-9.84738
uejv0쎯	-9.84789
jhnr쎯	-9.84816
yny0쎯f쎯u쎯	-9.84849
pdhj0쎯	-9.84968
nty0쎯tfkp0쎯	-9.84969
fke쎯	-9.84986
bu쎯jel쎯	-9.85033
쎂쎀쎀쎆	-9.8504
xy쎯xkw쎯	-9.85182
ra쎯	-9.85276
,vvv쎯,	-9.85296
it쎯ytf쎯	-9.85336
nng쎯	-9.85357
rfq쎯	-9.85366
ntg쎯rfm쎯	-9.85382
bj쎯egc쎯	-9.85392
bp쎯ps쎯	-9.85453
quk쎯	-9.85484
쎅쎉	-9.85486
me쎯fggh쎯	-9.85505
wfny0쎯》:“	-9.85513
adj쎯	-9.85533
et쎯kkk쎯	-9.85569
kwg쎯qiu0쎯ipr쎯	-9.85625
fwyf0쎯	-9.85665
mqq쎯hhu0쎯	-9.85696
ixj쎯	-9.85703
hwbc쎯	-9.85721
bk쎯tl쎯	-9.858
fhw쎯pu쎯	-9.85839
xxf쎯og쎯rg쎯	-9.85849
fgh쎯uy쎯	-9.85878
qtj쎯trf0쎯	-9.85895
o쎯y쎯,	-9.85921
wjh쎯	-9.85945
lpk0쎯qim쎯	-9.85966
nbm쎯	-9.86015
uxhp쎯	-9.86043
yned쎯	-9.86085
pr쎯qnp쎯	-9.86205
nx쎯gog쎯	-9.86232
쎂쎀쎀쎈	-9.8625
fmud쎯	-9.86279
wc쎯ga쎯	-9.86284
cccg0쎯	-9.86305
py쎯wf쎯y쎯yq쎯	-9.8639
iagw쎯ujn쎯	-9.86407
uqt쎯lt쎯gf쎯	-9.86447
amd쎯dcw쎯	-9.86542
tffu쎯xe쎯	-9.8656
쎇쎀쎀	-9.86599
g쎯iyc쎯r쎯	-9.86674
ipf쎯	-9.86686
sfi쎯fn쎯	-9.86696
fku쎯ep쎯	-9.86701
쎇쎃	-9.86707
xx쎯wgq쎯	-9.86707
qgo쎯	-9.86724
lpdk1쎯aq쎯	-9.86739
wg쎯nnh쎯	-9.8674
pwu0쎯	-9.86812
qe쎯ya쎯	-9.86874
infy쎯	-9.86907
bc쎯tj쎯b쎯	-9.86937
ypt쎯	-9.87013
쎁쎉쎆쎃rh쎯	-9.87053
qq쎯tyna2쎯	-9.87091
zzpj3	-9.87135
.adw쎯k쎯	-9.87139
,ua쎯eg쎯	-9.87158
kkhn쎯	-9.87159
ipgh0쎯ow쎯	-9.87176
yv쎯vb쎯	-9.87208
th쎯gf쎯	-9.87246
vfhp1쎯yyq쎯	-9.87286
wg쎯ith쎯	-9.87413
g쎯txi쎯gq쎯	-9.87422
gg쎯rh쎯	-9.87435
qh쎯cm쎯	-9.87537
ywyg1쎯	-9.87592
ey쎯jf쎯	-9.87707
nyi2쎯fghy1쎯:	-9.87773
aqt쎯uqd2쎯	-9.87789
wv쎯wf쎯	-9.87891
xte쎯qfhw1쎯	-9.87941
tmc쎯	-9.87964
nii0쎯	-9.87989
va쎯	-9.88011
wv쎯sgn쎯	-9.88025
god쎯tgj쎯	-9.88072
trfh1쎯ggi쎯	-9.88078
fgh쎯wtu쎯	-9.88112
egc쎯tv쎯	-9.88133
ad쎯gf쎯	-9.88178
fj쎯kkkk1쎯	-9.88181
yn쎯fa쎯	-9.88182
ifh1쎯	-9.88198
nnnn0쎯e쎯	-9.88198
sgn쎯wgk쎯	-9.88251
wgkl2쎯	-9.88257
ynnd쎯	-9.88277
쎆wh쎯	-9.88306
ddnl쎯	-9.8834
ipkh1쎯tl쎯gj쎯gk쎯	-9.88457
wgmy2쎯	-9.88463
awf쎯	-9.88482
pnt쎯ya쎯	-9.88674
al쎯uqt쎯	-9.88679
hka쎯fghg쎯	-9.88754
tdp쎯peg쎯	-9.88755
xtf쎯	-9.88918
yb쎯bb쎯	-9.88979
jn쎯rnb쎯	-9.89007
jh쎯adwe1쎯	-9.89052
sgtu0쎯	-9.89146
ebf0쎯	-9.89157
쎅rh쎯	-9.89169
fk쎯ss쎯	-9.89175
bk쎯ce쎯	-9.89195
wxj쎯ftbt쎯	-9.89198
nf쎯gcft0쎯	-9.89227
ft쎯ce쎯	-9.89293
ynnu쎯	-9.89389
yfj0쎯jgm쎯	-9.89433
ap	-9.89458
wmg1쎯	-9.89493
egl쎯gj쎯	-9.89495
v쎯jn쎯	-9.89537
tgj쎯usr쎯	-9.89561
qev쎯un쎯yy쎯pvs쎯	-9.89622
gqt	-9.89673
suf쎯	-9.89838
efc쎯	-9.89846
ygh쎯udv쎯	-9.89905
adwl쎯	-9.89935
um쎯sfi쎯	-9.89968
tga쎯	-9.90009
쎂쎀쎀쎇	-9.90048
wgg1쎯	-9.90059
nnk쎯nnk쎯ta쎯	-9.90185
-쎄	-9.90189
lft쎯xf쎯	-9.90202
rs쎯qgb쎯	-9.9028
uth쎯nm쎯	-9.9029
u쎯kkk쎯rfm쎯jg쎯	-9.90389
aeu쎯	-9.90442
ythp1쎯	-9.90491
ry쎯nae0쎯	-9.90536
atd쎯tu쎯dd쎯ip쎯	-9.90558
ip쎯fge쎯fghg쎯	-9.90561
쎁쎉쎆쎄rh쎯	-9.90576
d쎯hx쎯	-9.90604
ad쎯uk쎯	-9.9062
쎅쎀쎀쎀	-9.90629
pj쎯yf쎯	-9.90642
ruv쎯qejy쎯	-9.90655
ld쎯gxi쎯	-9.9067
vv쎯vvv쎯	-9.90696
wwf쎯ait쎯d쎯	-9.90738
rnp쎯	-9.90826
ih쎯gajf0쎯	-9.9086
wfny0쎯vaf쎯	-9.90874
cqw쎯	-9.90919
aah0쎯	-9.90947
wt쎯hka쎯	-9.90983
iux쎯	-9.9103
agq쎯	-9.91033
whw쎯qi쎯uk쎯	-9.91056
fnh쎯	-9.911
mw쎯tu쎯	-9.91185
rgv쎯	-9.91202
ai쎯apfq쎯	-9.91206
ert쎯	-9.91225
dxy쎯	-9.91244
wfd0쎯	-9.91283
saj0쎯gajf0쎯	-9.91355
wfkb0쎯	-9.91381
qtyd0쎯	-9.91409
dn쎯wv쎯	-9.91411
djdn3쎯	-9.91505
dn쎯yi쎯	-9.91517
gd쎯ivfh1쎯ymhj0쎯	-9.91523
doq쎯	-9.91548
yyn2쎯ukd1쎯	-9.91576
d쎯bk쎯	-9.91578
wynk쎯e쎯	-9.91791
yygy쎯fmud쎯	-9.91901
fcl쎯wt쎯	-9.91905
l쎯ffff1쎯dm쎯tkw쎯	-9.9192
쎇쎄	-9.91939
jhf1쎯	-9.91962
wye쎯rta쎯	-9.91994
rn쎯yle쎯	-9.92033
》yff쎯:“	-9.92102
ai쎯uk쎯	-9.9211
tei쎯	-9.92122
tqt쎯	-9.92192
fwy0쎯	-9.92222
qtal1쎯	-9.92252
i쎯qten1쎯qmq쎯	-9.9227
,wjg쎯j쎯	-9.92296
nywf1쎯	-9.92299
sgn쎯wrh1쎯	-9.92306
lh쎯rh쎯	-9.92395
tx쎯쎁	-9.92513
j쎯gik쎯	-9.92526
rpd1쎯	-9.92592
qnu1쎯	-9.92641
gm쎯fnrt쎯	-9.92646
yyv쎯	-9.9267
san쎯	-9.92688
tkh쎯od쎯	-9.92719
fl쎯egl쎯	-9.92736
jtyq0쎯	-9.9276
jsd쎯	-9.92774
ngk쎯wyc쎯	-9.92783
pfi쎯ftbt쎯	-9.92795
tri쎯	-9.92803
쎂쎀쎁쎀	-9.92835
tev쎯	-9.92852
rqn쎯	-9.92966
uwy0쎯tlf0쎯	-9.92999
ya쎯wnh쎯	-9.92999
th쎯gj쎯kkd쎯	-9.93038
rnnw0쎯pgn쎯	-9.93108
wgk쎯ec쎯	-9.9314
uvo쎯wtf쎯	-9.93237
ry쎯dd쎯	-9.93351
.ul쎯wtf쎯	-9.93445
kfi쎯oge쎯	-9.93474
amw쎯qqqq1쎯	-9.93484
mhr쎯	-9.93495
ud쎯qvfp1쎯	-9.93509
wdn쎯wx쎯	-9.93512
yw쎯ykw쎯	-9.93646
raj쎯ytb쎯	-9.93649
lf쎯	-9.93665
jgm쎯aib쎯	-9.93683
ige쎯ii쎯	-9.93765
y쎯qe쎯	-9.93848
nfc쎯uqw쎯	-9.93958
gu쎯oy쎯	-9.93975
fgh쎯dg쎯	-9.94016
txg쎯g쎯	-9.94017
tgm쎯	-9.94018
dnp쎯	-9.94042
쎅쎀dq쎯	-9.94174
gmw쎯	-9.94193
wk쎯dhb쎯	-9.94217
jtg쎯xe쎯	-9.94226
uai0쎯	-9.94295
fu쎯ta쎯	-9.94304
fl쎯yyq쎯	-9.94313
adwr0쎯trf0쎯	-9.94315
sgj쎯	-9.94364
쎉쎁	-9.94434
qq쎯rh쎯r쎯	-9.94473
fj쎯wht쎯	-9.94628
gu쎯tqdh0쎯	-9.94704
yygt쎯ytyh쎯ymhj0쎯	-9.94754
ubt쎯	-9.94823
tlo쎯	-9.94895
sm쎯kkd쎯	-9.9491
hq쎯ds쎯	-9.94961
lk쎯wgkr1쎯dd쎯	-9.94966
thc쎯	-9.94967
rvyo쎯gkp쎯	-9.94996
kw쎯j쎯	-9.95103
j쎯g쎯qk쎯	-9.95166
saj0쎯aib쎯	-9.95243
qqk쎯	-9.95248
ahtb0쎯	-9.95249
hxs쎯	-9.95282
jn쎯pym쎯ndj쎯	-9.95298
rhf0쎯gc쎯	-9.95319
jjjj0쎯ipkh1쎯	-9.9532
ukn쎯w쎯kkkk1쎯	-9.95365
xeg0쎯ta쎯	-9.95376
wda쎯	-9.95378
bbh0쎯	-9.95396
aga쎯	-9.95402
tv쎯ipkh1쎯tv쎯	-9.95493
dfi쎯	-9.95502
쎁쎀-	-9.95531
rxj쎯sfi쎯	-9.95626
thgc0쎯sg쎯	-9.95661
dhq쎯	-9.9575
qtvb0쎯	-9.95753
saj0쎯rny1쎯	-9.95938
wkh0쎯	-9.95944
zzpj1	-9.95979
쎁쎉쎆쎂rh쎯	-9.96066
smu1쎯	-9.96107
gm쎯pu쎯	-9.96172
avi쎯	-9.96217
wgq쎯vk쎯	-9.96389
쎃.쎅	-9.96416
rlf0쎯	-9.96426
쎂쎀쎀쎃	-9.96432
qn쎯wynk쎯	-9.96455
atg쎯gk쎯ta쎯	-9.96467
pe쎯ytt쎯	-9.96494
wtfm1쎯	-9.96554
pe쎯hw쎯	-9.96561
tjh쎯gog쎯	-9.96577
egc쎯ght쎯ywf쎯	-9.96647
fj쎯hi쎯	-9.96737
rmhj쎯dn쎯	-9.9674
eee0쎯cd쎯lk쎯a쎯wt쎯	-9.96782
fgi쎯	-9.96966
smgk쎯	-9.97101
a쎯wf쎯	-9.97111
thd쎯q쎯	-9.9715
ooo쎯lg쎯uh쎯	-9.97164
lh쎯wh쎯	-9.97183
rnt쎯	-9.97186
pgn쎯wt쎯	-9.97196
dd쎯uk쎯wv쎯	-9.97213
xt쎯)	-9.97233
ii쎯tev쎯	-9.97234
et쎯go쎯	-9.97275
dd쎯ip쎯tg쎯	-9.97382
wgj쎯rgv쎯	-9.97539
dgkn0쎯ipmq쎯	-9.97565
wy쎯thn쎯wx쎯	-9.97588
y쎯lw쎯	-9.97667
jtd쎯	-9.97764
dd쎯bw쎯	-9.97775
wcw쎯	-9.97804
ujn쎯ykw쎯	-9.97808
udng0쎯	-9.97808
쎂쎅쎀	-9.97871
mq쎯bwg쎯	-9.97895
k쎯ax쎯	-9.98038
fny0쎯aft쎯	-9.98084
ftbt쎯pgc쎯	-9.98146
y쎯wsg0쎯	-9.9815
bwf쎯ntk쎯	-9.9825
ige쎯wa쎯	-9.98257
tvfh0쎯jgm쎯	-9.98267
wye쎯rnd1쎯	-9.98336
rnnw0쎯	-9.98354
zzpj4	-9.98405
gjq쎯qk쎯o쎯	-9.98425
anb0쎯sy쎯pe쎯	-9.98429
ad쎯ld쎯	-9.98433
ujt쎯	-9.98486
ypeu쎯wxf쎯	-9.98545
uqwm1쎯sg쎯	-9.9856
ijlc쎯	-9.98567
kkh0쎯	-9.98567
jb쎯hw쎯	-9.98576
gm쎯nnnn0쎯	-9.98615
dnv0쎯w쎯	-9.98637
rgf쎯up쎯	-9.98643
ob쎯	-9.98693
uth쎯uqw쎯	-9.98834
ge쎯dp쎯	-9.98841
apl쎯fcl쎯lt쎯	-9.98855
db쎯pt쎯	-9.98857
rh쎯bt쎯ii쎯jg쎯	-9.98866
wgku1쎯yn쎯	-9.98928
l쎯uthp0쎯	-9.98964
puv쎯k쎯	-9.98994
yn쎯》	-9.99106
쎁쎉쎆쎅rh쎯	-9.99135
tuk쎯tl쎯	-9.99162
khu쎯gfi쎯whw쎯qi쎯	-9.99253
쎅wh쎯	-9.99275
oufg쎯	-9.99277
쎁쎈쎀	-9.99343
cexo0쎯	-9.99354
wbj쎯ujn쎯	-9.99358
qkqp0쎯	-9.99368
ii쎯ylk0쎯	-9.99401
gah쎯kkd쎯	-9.99447
mqi0쎯	-9.99508
kqb0쎯	-9.99533
ngk쎯if쎯	-9.99578
ls쎯	-9.99741
ii쎯inx쎯	-9.99768
y쎯ick쎯	-9.99775
utd쎯	-9.99792
tqf0쎯	-9.99835
w쎯n쎯tmh0쎯	-9.99843
sc쎯dgv쎯	-9.99893
lgk쎯tmdf1쎯	-9.99976
ajq쎯	-10
wtfm1쎯waj0쎯	-10
wat쎯	-10.0001
tg쎯dhb쎯	-10.0004
l쎯n쎯ipk쎯	-10.0006
쎉쎀쎀	-10.0006
cal쎯	-10.0009
wgc쎯ty쎯	-10.0011
puhc쎯tq쎯o쎯	-10.0017
jtyl쎯imj쎯	-10.0021
bn쎯sk쎯c쎯	-10.0022
f쎯gj쎯wug0쎯lfhf쎯	-10.0031
lp쎯xxe쎯	-10.0035
i쎯tj쎯	-10.0035
fwm쎯mj쎯	-10.0036
qtgw1쎯	-10.0039
fjt쎯btg쎯	-10.0045
jtyl쎯pwfi0쎯	-10.0055
aw쎯ybf0쎯	-10.0064
f쎯fhg1쎯	-10.0065
jo쎯dhb쎯	-10.0071
fpo쎯	-10.0078
wqbh0쎯	-10.0082
ua쎯i쎯	-10.0083
----------------	-10.0084
qtb쎯	-10.0085
aqo쎯	-10.0086
jyie쎯thg1쎯	-10.0097
et쎯wtp쎯	-10.0107
afd1쎯vij쎯	-10.0108
lfo쎯dx쎯ia쎯ith쎯	-10.0109
ip쎯fghg쎯ip쎯wug0쎯	-10.0111
sg쎯kkk쎯	-10.0119
u쎯wfhg0쎯	-10.0124
xwf쎯gl쎯	-10.0125
k쎯wxf쎯w쎯n쎯aw쎯t쎯l	-10.0139
쎂쎀쎀쎉	-10.0139
fnhp0쎯	-10.0141
mq쎯jy쎯	-10.0148
qtjh0쎯	-10.0148
lkm쎯	-10.0151
pwl쎯	-10.0153
acbt1쎯	-10.0154
vvf1쎯	-10.0158
ia쎯fm쎯	-10.0165
sup쎯	-10.0167
fkue0쎯	-10.0174
rae쎯	-10.0177
wfh0쎯	-10.0179
tgj쎯pym쎯	-10.0185
wc쎯xd쎯	-10.0186
tf쎯fcl쎯	-10.0188
dhc쎯fgi쎯	-10.019
luf0쎯	-10.0192
rfc쎯agnn1쎯	-10.0193
whf0쎯	-10.02
dd쎯ip쎯ip쎯dl쎯	-10.0203
j쎯g쎯ffi쎯	-10.0205
tkh쎯bb쎯	-10.0212
gae쎯pww쎯	-10.0215
rb쎯uthp0쎯	-10.0216
xln0쎯qt쎯	-10.0245
ahnh2쎯	-10.0251
uqwv쎯	-10.0252
tx쎯ag쎯	-10.0255
khu쎯gfi쎯fcp쎯fcl쎯	-10.0255
wyc쎯w쎯	-10.0265
zzjp7	-10.0267
sghg1쎯gyt쎯ah쎯	-10.0272
usgp1쎯	-10.0277
tmh0쎯	-10.0278
rnv0쎯	-10.0288
ium쎯	-10.0288
mt쎯wh쎯	-10.0295
fh쎯ntk쎯	-10.0297
gj쎯qev쎯	-10.0299
cqy쎯nhj쎯	-10.0302
dga쎯pwv쎯yy쎯tm쎯	-10.0302
mqq쎯h쎯	-10.0308
gh쎯ymc쎯	-10.0312
iyc쎯fcl쎯	-10.0317
ygu쎯wd쎯	-10.0317
쎉쎀쎀쎁	-10.0321
nnw쎯qi쎯	-10.0326
rmay쎯	-10.0332
fjh0쎯tr쎯	-10.0334
ftl쎯	-10.0342
fje쎯qgu쎯	-10.0354
sghg1쎯adnt1쎯	-10.0356
wy쎯iwyf1쎯	-10.036
rfh1쎯	-10.036
wyl쎯	-10.0362
nui쎯sm쎯	-10.0362
apg쎯dgh쎯	-10.0362
itx쎯pl쎯	-10.0367
awn쎯	-10.0371
tom쎯	-10.0388
jn쎯kht쎯	-10.0392
rwyg0쎯adh쎯	-10.0399
jtyl쎯rpw쎯	-10.0404
ovt쎯rnd1쎯go쎯idr쎯	-10.0411
rbcc쎯	-10.0415
dd쎯ddh쎯	-10.0419
opw쎯	-10.0424
tdkj0쎯dhd쎯	-10.0427
dfe쎯	-10.0429
fym쎯	-10.0429
xfnh쎯	-10.043
hjj쎯	-10.0432
yn쎯ftj쎯	-10.0438
w쎯lt쎯uqwm1쎯idr쎯	-10.0448
rxj쎯pg쎯	-10.0451
uxx쎯	-10.0454
sghg1쎯yy쎯	-10.0457
(쎁쎀쎀쎀	-10.0459
nnk쎯gkl쎯nnk쎯ta쎯	-10.0459
tx쎯g쎯wh쎯	-10.0478
ujq쎯	-10.0478
jn쎯uh쎯	-10.048
sgy쎯	-10.0486
zzzy22쎯	-10.0492
ltu0쎯wqj쎯	-10.0502
ga쎯ymc쎯	-10.0519
sw쎯pwfi0쎯	-10.0524
skf쎯	-10.0525
sft쎯rfm쎯	-10.0526
zzts10쎯	-10.0531
tjs쎯	-10.0534
hjj쎯fha쎯	-10.0536
ain쎯	-10.0537
hjs쎯	-10.0543
fnr0쎯ujf0쎯	-10.0548
wys쎯lft쎯wc쎯ngk쎯	-10.0558
fj쎯tkgg1쎯	-10.0559
쎁쎉쎇쎀rh쎯	-10.0563
dj쎯ya쎯f쎯ltu0쎯	-10.0566
xxf쎯	-10.0566
lg쎯lgm쎯	-10.0569
.쎂zzbd3쎯	-10.057
wv쎯yb쎯	-10.0572
uwy0쎯dqe쎯	-10.0575
whtn0쎯	-10.0577
sdw쎯	-10.0581
tem쎯	-10.0596
sagg0쎯	-10.0598
fk쎯ss쎯ith쎯	-10.0601
쎁쎆쎀	-10.0618
gl쎯dm쎯	-10.0619
ovt쎯rnd1쎯o쎯uwy0쎯	-10.0621
ftbt쎯bk쎯a쎯	-10.0621
,jb쎯xtu쎯xf쎯js쎯c쎯	-10.063
gkp쎯wycm1쎯	-10.0635
.",()	-10.0636
.("/////	-10.0637
nui쎯tf쎯	-10.0638
x쎯apk쎯gj쎯wynn3쎯	-10.0639
쎀쎈쎀쎁);	-10.064
go쎯yu쎯	-10.0642
tfq쎯rg쎯d쎯	-10.0645
gef쎯it쎯rh쎯	-10.0646
ujn쎯mqb쎯	-10.0648
elv쎯	-10.065
gf쎯dj쎯ya쎯f쎯ltu0쎯	-10.0651
dgt1쎯pe쎯	-10.0652
zzjp3	-10.0657
wyk쎯rg쎯eb쎯tl쎯	-10.0659
faf1쎯	-10.066
yo쎯dn쎯	-10.0669
qkq쎯umc쎯	-10.0669
iha쎯	-10.0671
kt쎯ke쎯	-10.0675
xg쎯kht쎯	-10.0675
ode쎯	-10.0677
umc쎯	-10.068
rwb쎯	-10.0699
jfj쎯	-10.07
ip쎯wf쎯wf쎯km쎯	-10.0704
uu쎯wsg0쎯	-10.0704
lrj쎯	-10.0709
wtc쎯	-10.071
agnt0쎯	-10.072
x쎯iyj쎯v쎯nae0쎯	-10.0722
kml쎯	-10.073
mdff3쎯	-10.0735
jhk1쎯yge쎯	-10.0741
ufw쎯	-10.0763
dmj1쎯eg쎯	-10.0765
dnv0쎯kgb쎯	-10.0766
qi쎯bw쎯	-10.0771
epi쎯hi쎯	-10.0772
쎁쎉쎇쎆rh쎯	-10.0773
쎁.쎀	-10.0774
uqwm1쎯ynf쎯	-10.0774
mt쎯tuh0쎯	-10.0778
v쎯dp쎯	-10.0782
cd쎯lk쎯af쎯wgkb0쎯	-10.0789
y쎯ipg쎯	-10.079
kf쎯thg1쎯	-10.0799
ax쎯kkk쎯	-10.081
wc쎯ngk쎯reh쎯e쎯	-10.081
e쎯hxf쎯	-10.0811
rke쎯	-10.0812
ffff1쎯fyk쎯	-10.0827
fpb쎯	-10.0828
lk쎯rvyo쎯	-10.0833
aet1쎯yygy쎯	-10.0835
bj쎯iq쎯	-10.0842
lgey2쎯egl쎯	-10.0843
sgmj쎯	-10.0844
itp쎯	-10.085
fwm쎯tvfh0쎯	-10.0862
tep쎯je쎯	-10.0865
j쎯g쎯pe쎯wys쎯	-10.0868
itol쎯	-10.087
cm쎯pwfi0쎯	-10.088
ud쎯ab쎯	-10.088
nnw쎯rgv쎯	-10.0884
kfg쎯	-10.0886
yfn쎯nnh쎯	-10.0888
kwn쎯	-10.0889
tmd쎯wwv쎯	-10.0893
amyn1쎯	-10.0904
lgey2쎯nf쎯	-10.0905
dmh0쎯nnk쎯	-10.0914
ugk쎯shi쎯	-10.0915
nj쎯ntg쎯	-10.0925
qtq쎯	-10.0925
ugk쎯	-10.0926
afd1쎯vij쎯ith쎯	-10.0928
rb쎯fjh0쎯	-10.0929
ux쎯yiu0쎯dd쎯ip쎯	-10.0934
itm쎯dd쎯tjh쎯gog쎯	-10.0939
xk쎯dd쎯r쎯	-10.094
ua쎯eg쎯	-10.094
kcb0쎯	-10.0943
wfny0쎯》	-10.0946
gkm쎯wgk쎯	-10.0949
mf쎯x쎯	-10.095
itfk0쎯	-10.0951
iie쎯wx쎯	-10.0957
fgh쎯lh쎯	-10.0975
viq쎯	-10.0979
rry쎯	-10.0981
nnnn0쎯dn쎯o쎯	-10.0981
ijl쎯ytyh쎯	-10.0985
쎂쎀쎁쎁	-10.0987
w쎯fqu쎯xgb쎯nh쎯ty쎯	-10.0988
ovt쎯fgh쎯	-10.0988
xgu쎯us쎯	-10.0993
xfm쎯tavn쎯	-10.1011
jn쎯fcl쎯	-10.1011
od쎯wny1쎯	-10.1012
bu쎯wgk쎯wf쎯	-10.1014
rlg0쎯ck쎯	-10.1025
nge쎯ukq쎯gh쎯	-10.1028
usr쎯lk쎯fhc쎯	-10.1029
kqb0쎯uxh쎯	-10.1036
vfhp1쎯tfkp0쎯	-10.1042
쎁.쎂	-10.1043
쎁쎉쎆쎀rh쎯	-10.1054
ipk쎯tv쎯	-10.106
od쎯klj쎯	-10.1061
zzsx	-10.1061
iqv쎯	-10.1063
tj쎯gc쎯b쎯	-10.1064
fp쎯fcu1쎯	-10.1065
pl쎯bw쎯	-10.1093
gik쎯	-10.1102
pjv쎯	-10.1102
쎁쎉쎅쎅rh쎯	-10.1114
bw쎯ta쎯	-10.1114
tk쎯xe쎯	-10.1116
xa쎯pl쎯	-10.1119
wxm쎯tr쎯	-10.112
쎂쎀쎀쎅	-10.1121
stt쎯	-10.1124
ymf쎯kfi쎯	-10.1128
tp쎯lpdk1쎯	-10.1131
lq쎯cn쎯	-10.1138
ym쎯ijl쎯	-10.115
fggh쎯okk쎯	-10.1153
v쎯tmdf1쎯	-10.116
adw쎯pu쎯	-10.1163
sgx쎯	-10.117
pyg쎯ytyh쎯	-10.1171
----	-10.1173
ynk쎯fcl쎯	-10.1175
wvf0쎯tmd쎯	-10.1175
fuf0쎯pyg쎯	-10.1181
xqi쎯	-10.1186
cbq쎯	-10.1189
khgm3쎯ytyh쎯ith쎯	-10.1199
kmh0쎯	-10.12
gh쎯fa쎯	-10.1215
쎁쎉쎇쎅rh쎯	-10.1222
쎂쎀an쎯xn쎯	-10.1222
dqe쎯wk쎯	-10.1226
i쎯khu쎯	-10.1232
xten1쎯	-10.1236
uq쎯rq쎯	-10.1237
uck쎯qqqq1쎯	-10.1248
kqw쎯	-10.1249
sg쎯udh쎯	-10.1252
,ntk쎯gf쎯mmm쎯aq쎯.	-10.1255
쎁쎉쎅쎀rh쎯	-10.1258
fh1쎯	-10.1261
nuk1쎯	-10.1269
wwg쎯nnh쎯	-10.1269
usi1쎯	-10.1276
wxf쎯ai쎯	-10.1281
yid쎯yynw1쎯	-10.1285
wc쎯pjm쎯	-10.13
un쎯tgm쎯	-10.13
vynu쎯	-10.1305
gmww쎯wmj1쎯	-10.1306
sk쎯dp쎯	-10.1307
yw쎯sk쎯	-10.1307
ny쎯gj쎯ip쎯	-10.1316
uvh쎯	-10.1317
쎁쎉쎆쎈rh쎯	-10.1326
igd쎯lk쎯	-10.1328
yw쎯fhw쎯	-10.133
ym쎯si쎯	-10.1331
by쎯hh쎯	-10.1332
fq쎯ywx쎯	-10.1338
k쎯atd쎯ax쎯	-10.1349
fq쎯qjq쎯	-10.135
ngkg쎯	-10.1355
lg쎯uh쎯	-10.1356
lwg쎯	-10.1365
pyk쎯	-10.137
pynk0쎯	-10.1385
ypk쎯	-10.1397
wsg0쎯txi쎯yw쎯ygh쎯	-10.14
wqu쎯xgu쎯	-10.1414
gkf0쎯	-10.1415
ruv쎯fyk쎯	-10.1416
uyt1쎯	-10.1417
iqny쎯	-10.1418
xe쎯a쎯tkgg1쎯jgm쎯	-10.1419
hxw쎯	-10.1421
qtbl쎯	-10.1422
ghd1쎯dqe쎯	-10.1422
ynf쎯	-10.1422
gqx쎯ynv쎯	-10.1428
wbg0쎯	-10.143
ujqn1쎯	-10.1434
ad쎯nfc쎯	-10.1435
쎁쎉쎅쎇rh쎯	-10.144
ecl쎯	-10.144
ym쎯umd1쎯	-10.1442
ptf쎯	-10.1458
ip쎯wf쎯gj쎯gk쎯	-10.1459
uq쎯lwj쎯	-10.1462
j쎯g쎯pe쎯fny0쎯og쎯	-10.1471
ftbt쎯dga쎯pgc쎯	-10.1472
쎂쎀쎀쎄	-10.1472
wg쎯yy쎯wug0쎯	-10.148
og쎯xgm쎯	-10.1482
pu쎯og쎯	-10.1484
ov쎯	-10.1484
dw쎯to쎯	-10.1494
dgkf1쎯	-10.1495
dj쎯vtg쎯	-10.151
tu쎯rfc쎯dd쎯ip쎯	-10.1512
xf쎯gki쎯	-10.1514
gx쎯fcl쎯	-10.1519
sgn쎯tlf0쎯	-10.1522
jn쎯iyc쎯	-10.1531
ic쎯ygk쎯	-10.1543
lc쎯swc쎯	-10.1545
sqj쎯eu쎯	-10.1545
fn쎯》	-10.1561
rnb쎯qje쎯	-10.1577
je쎯wa쎯	-10.1581
wc쎯uwl쎯	-10.1583
ryc쎯	-10.1588
tpi쎯	-10.1593
eqd쎯	-10.1596
iry쎯iq쎯	-10.16
kkks1쎯	-10.1605
쎀.쎁	-10.1607
tfq쎯fj쎯a쎯wt쎯ftj쎯	-10.1608
vjs쎯	-10.1609
caq쎯fcl쎯	-10.1632
wyv쎯tr쎯	-10.1633
kwyg0쎯	-10.1637
jx쎯je쎯	-10.1641
uth쎯ftjb쎯	-10.1642
tlf0쎯et쎯	-10.1643
dhd쎯	-10.1646
ym쎯xe쎯ftbt쎯jgm쎯	-10.1649
wye쎯if쎯	-10.165
anu0쎯	-10.1652
saj0쎯hw쎯	-10.1654
쎁쎉쎅쎂rh쎯	-10.1659
gh쎯lpdk1쎯	-10.166
kkfb1쎯	-10.166
gj쎯a쎯dd쎯ip쎯	-10.1661
alkf0쎯	-10.1665
gfi쎯bw쎯	-10.1665
qgfj쎯	-10.1667
ukn쎯vfhp1쎯tam쎯	-10.1678
gku쎯ywfw0쎯	-10.169
sq쎯tfkp0쎯	-10.1695
yff쎯sksw쎯	-10.1709
쎀.쎂	-10.1715
lfn쎯rq쎯	-10.1716
iyn1쎯	-10.1725
ke쎯xh쎯	-10.1736
fgh쎯ag쎯	-10.174
irh0쎯	-10.1743
nhd0쎯	-10.1747
ige쎯jsr쎯	-10.1748
pwd쎯dhc쎯	-10.1751
rytp1쎯	-10.1763
fcl쎯ijlc쎯	-10.1768
tvt쎯	-10.1771
kw쎯s쎯	-10.1778
ykk쎯	-10.178
wnnf0쎯	-10.1787
r쎯g쎯uk쎯	-10.1788
tduh0쎯maw쎯	-10.1801
py쎯lft쎯	-10.1802
쎀ylf0쎯,	-10.1803
yfy2쎯	-10.1813
ujfj0쎯fqb0쎯	-10.1814
atdp쎯	-10.1815
uqsg쎯img쎯	-10.1816
egc쎯w쎯n쎯ght쎯ywf쎯	-10.1819
쎂쎄쎀	-10.1821
쎀gu쎯yy쎯oy쎯,	-10.1822
ukqb2쎯	-10.1825
gyiy쎯	-10.183
ybf0쎯e쎯	-10.1832
rnc쎯	-10.1833
xx쎯kwgj0쎯	-10.185
mjq쎯	-10.1853
wgk쎯st쎯	-10.1857
yny0쎯ngc쎯	-10.1861
sh쎯lpk0쎯	-10.1863
axj쎯	-10.1864
aik쎯	-10.1869
dm쎯tkw쎯xq쎯	-10.1872
puw쎯	-10.1872
rbcc쎯wqj쎯udi0쎯	-10.1878
쎁쎉쎅쎉rh쎯	-10.1879
atd쎯tg쎯	-10.1882
uth쎯rx쎯	-10.1886
vfb쎯tc쎯	-10.1887
dgty쎯	-10.1891
qci쎯	-10.1891
es쎯bc쎯	-10.1896
rvh쎯fpx쎯	-10.19
bg쎯jtg쎯	-10.1902
ick쎯gj쎯	-10.1903
n쎯ght쎯	-10.1905
ryn1쎯gj쎯	-10.192
쎁쎉쎆쎉rh쎯	-10.1922
rkk쎯wt쎯txi쎯xyc쎯	-10.1936
iq쎯xft쎯	-10.1938
zzy	-10.1938
tx쎯wty0쎯	-10.1942
쎁쎂쎈	-10.1956
lw쎯wc쎯pgc쎯y쎯wtf쎯	-10.1957
ght쎯if쎯	-10.1958
wf쎯gkl쎯wf쎯ta쎯	-10.196
lfnh쎯xat0쎯	-10.1967
tdt쎯w쎯	-10.1968
nku쎯	-10.1972
tavn쎯	-10.1973
bgh쎯sm쎯	-10.1985
vep쎯ws쎯	-10.1986
rh쎯hwbc쎯	-10.1987
yn쎯nn쎯	-10.1989
tgm쎯ltk쎯	-10.1998
txi쎯gq쎯u쎯kkk쎯	-10.2003
cbn1쎯	-10.2004
yff쎯yngk1쎯	-10.2005
ra쎯gc쎯	-10.201
hid쎯uthp0쎯	-10.2011
tn쎯nnh쎯ta쎯	-10.2013
dgh쎯maw쎯	-10.2015
bib쎯ovt쎯	-10.2021
cm쎯www쎯	-10.2026
khij쎯	-10.2029
cd쎯yaf쎯	-10.2035
쎅wv쎯qkhh1쎯	-10.2035
uqwm1쎯rfm쎯	-10.205
gxw쎯	-10.2053
쎁쎉쎆쎆rh쎯	-10.2061
vfhp1쎯sft쎯	-10.2063
etg쎯tjh쎯	-10.2072
쎁쎉쎇쎂rh쎯	-10.2074
nae0쎯ga쎯	-10.2076
itd쎯ntg쎯	-10.2076
ese쎯qc쎯	-10.2079
xo쎯bd쎯	-10.2097
wdt쎯vb쎯	-10.2106
iyc쎯jg쎯	-10.2131
uu쎯khu쎯	-10.2132
dr쎯vck쎯	-10.214
ykw쎯klj쎯	-10.214
쎁쎉쎅쎃rh쎯	-10.2144
jvko0쎯thg1쎯	-10.2145
ipk쎯fc쎯uk쎯	-10.2147
nu쎯nxf쎯	-10.2148
ftg쎯ty쎯	-10.2151
hna쎯	-10.2153
dd쎯ipkh1쎯tv쎯wf쎯	-10.2153
wt쎯ma쎯	-10.2164
vcn1쎯	-10.2171
alfj1쎯	-10.2177
gk쎯dty0쎯	-10.2179
쎁쎉쎅쎄rh쎯	-10.2181
alw쎯bu쎯	-10.2185
ywwg2쎯	-10.2185
tjh쎯uwl쎯	-10.2188
dpr쎯	-10.2191
pj쎯pg쎯	-10.2196
maf1쎯	-10.2198
so쎯bm쎯	-10.22
wgkq0쎯tj쎯	-10.2201
uqd2쎯ddnl쎯	-10.2203
djdl2쎯	-10.2203
jqb쎯	-10.2203
yxl쎯trt쎯	-10.221
qvfp1쎯tel쎯	-10.2215
tx쎯g쎯uqw쎯	-10.2219
lfn쎯tqq쎯	-10.2228
m쎯su쎯	-10.223
uuk1쎯	-10.2239
vfb쎯hxf쎯	-10.2242
gae쎯udy쎯	-10.2245
afs쎯hxf쎯	-10.2246
qwy1쎯	-10.2248
aigy쎯	-10.225
ijo쎯ya쎯	-10.2254
wvd쎯v쎯	-10.226
fj쎯fghg쎯	-10.226
gg쎯fgh쎯	-10.2263
ln쎯xwy0쎯	-10.2279
ukn쎯xf쎯	-10.2282
jsd쎯oug0쎯	-10.2288
cf쎯jvko0쎯	-10.2291
udy쎯ukq쎯	-10.2294
v쎯yce쎯	-10.2296
ait쎯pu쎯	-10.2305
pvs쎯wgq쎯	-10.231
tda쎯	-10.2318
bfm쎯pl쎯	-10.2319
nat0쎯	-10.2323
tg쎯nf쎯jgm쎯.	-10.2324
bu쎯pfjm1쎯	-10.2335
f쎯fhg1쎯:	-10.2337
zzjp1	-10.234
bs쎯qiu0쎯	-10.234
xwy0쎯tg쎯gxi쎯	-10.2343
iyw쎯wsg0쎯	-10.2354
ex쎯eyn쎯	-10.237
fp쎯iha쎯	-10.2381
nh쎯wys쎯	-10.2382
uff쎯ytyh쎯	-10.2391
gkih0쎯gj쎯	-10.2403
ugh쎯udy쎯	-10.2405
gah쎯ufy쎯	-10.2405
iwyf2쎯	-10.2407
xyna1쎯tv쎯	-10.2407
wc쎯py쎯	-10.2412
쎁쎉쎆쎁rh쎯	-10.2437
tak쎯xe쎯	-10.2439
ssyx쎯	-10.2443
ga쎯ud쎯	-10.2452
umd1쎯kkkk1쎯	-10.2457
쎁쎉쎃쎈rh쎯	-10.2459
rng2쎯	-10.246
iw쎯fhb쎯	-10.2464
pyj쎯tn쎯	-10.2473
tet0쎯	-10.2478
ls쎯cw쎯	-10.2484
zzpj7	-10.2488
xjm쎯et쎯	-10.249
mqc쎯nudu쎯	-10.2494
lqj쎯	-10.2495
hhhh쎯vi쎯	-10.2503
fghy1쎯	-10.2504
vi쎯ujf0쎯	-10.2505
ip쎯sy쎯ywx쎯yygy쎯	-10.2517
gaj쎯	-10.2524
qdb쎯bwg쎯	-10.2528
nku	-10.2529
swy2쎯	-10.2534
awx쎯ycb쎯	-10.2549
yte쎯	-10.2558
itk쎯bj쎯	-10.2573
buj쎯djg쎯	-10.2575
vtk쎯wsg0쎯	-10.2575
쎁쎉쎇쎄rh쎯	-10.2585
fny0쎯jghm1쎯	-10.2588
쎁쎉쎇쎇rh쎯	-10.2592
쎁쎉쎄쎅rh쎯	-10.2593
geh0쎯	-10.2597
wcn0쎯	-10.2601
ou쎯isgg2쎯	-10.2619
lwg쎯udp쎯	-10.2621
nty0쎯fj쎯	-10.2626
zzjp2	-10.2627
w쎯n쎯qev쎯yt쎯pl쎯	-10.2628
nhj쎯rrr쎯rfm쎯	-10.2631
ukn쎯rmc쎯uqwm1쎯	-10.2633
rvh쎯	-10.2636
wfny0쎯dskf쎯	-10.2638
pt쎯fcp쎯	-10.2639
zzts8쎯	-10.264
fl쎯wf쎯gj쎯gk쎯	-10.2644
ga쎯v쎯zzbd3쎯tg쎯u쎯	-10.2645
nf쎯jgm쎯	-10.2645
uqyl쎯	-10.2651
ub쎯qk쎯	-10.2653
jyie쎯ktm쎯lt쎯	-10.2657
ians0쎯	-10.2657
ugdu쎯sy쎯ip쎯bpf쎯	-10.2661
tyg쎯tyg쎯	-10.2665
nd쎯tv쎯wf쎯	-10.2667
fcp쎯fcl쎯km쎯	-10.267
uth쎯tfq쎯	-10.2672
adwr0쎯fjg0쎯	-10.2678
ripq0쎯rufh1쎯	-10.2679
ovt쎯rnd1쎯ylk0쎯	-10.2684
dfek쎯	-10.2693
ai쎯yiu0쎯	-10.2698
es쎯mqc쎯	-10.2707
quj쎯udi0쎯	-10.2713
쎁쎀쎀%	-10.2715
rpwi쎯	-10.2719
tffu쎯bk쎯.	-10.2722
dgj쎯wrh1쎯	-10.2728
aib쎯lfnh쎯mw쎯	-10.2751
ajdn0쎯	-10.2753
dgt1쎯yny0쎯	-10.2754
emc쎯sfiu1쎯	-10.2756
jn쎯xjt쎯	-10.2759
ijx쎯uxt쎯ffff1쎯	-10.2774
fcp쎯wt쎯	-10.2781
j쎯g쎯uk쎯	-10.2784
fhu쎯tm쎯	-10.2785
sfiq0쎯	-10.2795
wsg0쎯tkw쎯	-10.2802
lkc쎯ckq쎯	-10.2804
rx쎯v쎯	-10.2814
sh쎯xf쎯wgk쎯	-10.2821
tdg1쎯wy쎯	-10.2849
dfy쎯xpw쎯	-10.2857
apk쎯og쎯	-10.2864
ihcv쎯	-10.2867
sbd쎯lkmi0쎯gae쎯	-10.289
ukn쎯xyc쎯	-10.289
lkc쎯	-10.2898
lfo쎯dx쎯ia쎯	-10.2905
rvyf0쎯	-10.291
nk쎯qkq쎯	-10.2911
xnf쎯xq쎯	-10.2915
”t쎯“	-10.2915
oge쎯pnt쎯	-10.292
txgi5쎯wxf쎯	-10.2922
lkb쎯	-10.2927
jvko0쎯je쎯	-10.2927
iyc쎯tkgg1쎯	-10.2933
ep쎯vb쎯ftj쎯	-10.2934
tmgt3쎯	-10.2939
ul쎯aqt쎯	-10.2939
o쎯pt쎯yne쎯rj쎯waw쎯	-10.2942
um쎯qyv쎯	-10.2953
jgm쎯aib쎯ip쎯bpf쎯	-10.2956
쎀.쎀쎀	-10.2962
xkjn1쎯	-10.2966
ygu쎯ywx쎯	-10.2968
kg쎯gm쎯	-10.2972
std쎯ivw쎯	-10.2973
vkb쎯	-10.2979
reh쎯	-10.2982
aynr쎯	-10.2987
pei쎯wt쎯tr쎯	-10.2989
ih쎯gtu쎯	-10.299
rrr쎯oyvk1쎯	-10.3001
qmq쎯qr쎯	-10.3002
iann0쎯	-10.3007
ians0쎯uthp0쎯	-10.3019
iyjh쎯jtyq0쎯	-10.3019
wdn쎯te쎯ftbt쎯jgm쎯	-10.3019
yvh쎯wa쎯	-10.303
iqc쎯cep쎯	-10.3034
bk쎯gmu1쎯	-10.3034
gmi쎯iry쎯	-10.3038
ijl쎯riu0쎯	-10.3041
fhv쎯xe쎯	-10.3051
yygt쎯itp쎯yid쎯et쎯	-10.3057
qty2쎯	-10.3058
ibi쎯ugl쎯	-10.3059
쎁쎉쎇쎃rh쎯	-10.306
lg쎯tkgg1쎯	-10.3065
sg쎯tu쎯ip쎯dl쎯	-10.3067
wht쎯nty0쎯	-10.3067
rep쎯sc쎯	-10.3068
tffu쎯pei쎯wt쎯tr쎯.	-10.3069
gmf쎯uqw쎯	-10.3072
ipk쎯xeg0쎯nnh쎯yn쎯	-10.3085
bv쎯rmhj쎯	-10.3105
gef쎯dw쎯	-10.3105
iie쎯by쎯	-10.3109
tu쎯ip쎯ad쎯qqqq1쎯	-10.3116
rpws쎯yfy2쎯	-10.3122
rpw쎯emc쎯	-10.3124
v쎯fcl쎯sm쎯	-10.3127
iaj0쎯	-10.313
pwkw쎯	-10.3146
nae0쎯gm쎯	-10.3147
쎄쎀쎀쎀	-10.3147
fqp쎯tkgg1쎯	-10.3147
klj쎯jfcf쎯	-10.3149
nnh쎯tdij0쎯	-10.3158
w쎯n쎯atd쎯bpf쎯	-10.3165
qnqn쎯	-10.3165
qnq쎯wyv쎯	-10.3169
xh쎯nf쎯	-10.3181
djd쎯iyt1쎯	-10.3193
쎁쎉쎄쎈rh쎯	-10.3201
uqt쎯yid쎯	-10.3204
rdj쎯gq쎯	-10.3222
madt2쎯	-10.3232
vij쎯	-10.3232
tv쎯ipk쎯suq쎯	-10.3233
yvi쎯ahko0쎯	-10.324
(쎃)	-10.3242
wfg1쎯	-10.3252
yygy쎯tr쎯wk쎯ryn1쎯	-10.3268
fghg쎯tg쎯nf쎯jgm쎯	-10.3269
wyq쎯ge쎯	-10.3271
tn쎯pnt쎯	-10.3277
ltu0쎯pvs쎯	-10.3279
vcy0쎯	-10.328
쎁쎉쎅쎁rh쎯	-10.3286
qtny1쎯	-10.329
fha쎯go쎯fha쎯	-10.3301
qkqy0쎯	-10.3321
ftxu1쎯	-10.3323
aws쎯kf쎯	-10.3327
tfq쎯fj쎯wh쎯w쎯	-10.3329
ydjn1쎯	-10.3345
gqjo0쎯fghg쎯	-10.3352
vf쎯ra쎯	-10.3361
epv0쎯	-10.3373
ftg쎯pwfi0쎯	-10.3373
rd쎯nae0쎯	-10.3379
bpx쎯	-10.3389
uve쎯	-10.3406
eb쎯qnth쎯	-10.3412
wk쎯wht쎯	-10.3414
pnt쎯fffy0쎯	-10.3434
amd쎯yygy쎯qk쎯	-10.3437
쎀쎀쎀쎀	-10.3438
ipgh0쎯	-10.3439
edjn쎯	-10.3446
nkue0쎯	-10.3446
sh쎯wny1쎯	-10.3447
xk쎯gqjo0쎯	-10.3461
fj쎯bm쎯kkkk1쎯	-10.3464
dyn쎯ya쎯	-10.3467
sq쎯vfhp1쎯	-10.3469
ssq쎯shn쎯	-10.347
ta쎯adwe1쎯ww쎯gk쎯	-10.3474
k쎯l쎯tu쎯ip쎯bpf쎯	-10.3489
hka쎯tmc쎯	-10.3492
iqpl1쎯or쎯	-10.3495
tga쎯fh쎯	-10.3509
mmgd0쎯	-10.3515
pyv쎯	-10.3518
bda쎯	-10.3527
(쎁쎉쎁	-10.3534
ad쎯sg쎯cd쎯ovt쎯	-10.3536
nngt쎯	-10.3538
mq쎯jy쎯aq쎯	-10.3569
tld1쎯iyw쎯	-10.3592
k쎯yygy쎯txi쎯	-10.3606
ftbt쎯xan쎯	-10.3609
lkd쎯:“	-10.3615
쎃wc쎯jfd쎯	-10.3616
tjtl쎯gfi쎯	-10.3621
ugdu쎯iyt1쎯	-10.3624
ougo0쎯	-10.3646
imj쎯pg쎯	-10.3646
uo쎯ynm쎯	-10.3653
qdm쎯eaj쎯	-10.3658
dtf쎯wgkb0쎯	-10.3658
wam쎯ffi쎯	-10.3664
khgp1쎯	-10.3674
ipgg0쎯	-10.3676
wwwk0쎯tq쎯	-10.3693
klk쎯kdj쎯	-10.3694
k쎯sghg1쎯atd쎯	-10.3695
bukn0쎯	-10.3705
ue쎯tmd쎯j쎯	-10.3706
riq쎯hka쎯	-10.3706
pvs쎯wrh1쎯	-10.3714
yvi쎯tjt쎯	-10.3714
쎁쎉쎃쎇rh쎯	-10.3719
trng쎯	-10.3722
iyw쎯dfy쎯	-10.3726
pym쎯ipmq쎯	-10.3726
oge쎯amd쎯	-10.3735
zzdw5쎯	-10.3743
qtb쎯ldj쎯	-10.3744
pjm쎯	-10.3747
ai쎯fm쎯gog쎯	-10.3753
rrk쎯	-10.3759
hao쎯rny1쎯	-10.3774
wuh0쎯	-10.3777
iyc쎯fakg0쎯	-10.3788
쎁쎉쎇쎁rh쎯	-10.379
vo쎯itd쎯	-10.3793
쎀.쎃	-10.3798
qyt쎯gae쎯	-10.3805
saj0쎯fnw쎯	-10.381
쎁쎉쎃쎄rh쎯	-10.3811
jx쎯jhny쎯	-10.3811
ivg쎯	-10.3826
vjsj쎯	-10.3827
ukqb2쎯pfjm1쎯	-10.3843
god쎯yak쎯	-10.3849
zzpj6	-10.3856
qmq쎯ggw쎯	-10.3864
ith쎯zzbd3쎯ymhj0쎯	-10.3887
oa쎯mdo쎯	-10.3893
쎁쎉쎄쎆rh쎯	-10.3901
zzpj2	-10.391
ywe쎯ick쎯	-10.3925
wbj쎯vck쎯w쎯	-10.3927
ovt쎯rpw쎯	-10.3928
ln쎯ftg쎯	-10.393
zzxl	-10.3932
pnt쎯dcg쎯	-10.3938
tkw쎯lx쎯	-10.3942
xj쎯d쎯	-10.3942
fjt쎯	-10.3943
de쎯shi쎯ow쎯	-10.3943
iy쎯mm쎯uqwm1쎯sg쎯	-10.3965
》t쎯《	-10.3969
ps쎯dht쎯	-10.3969
hpgh0쎯	-10.3979
sgye0쎯	-10.3985
gkih0쎯gae쎯	-10.399
x쎯iyj쎯ukn쎯nh쎯ty쎯	-10.3992
uvo쎯bk쎯	-10.3998
mwy0쎯	-10.4
lv쎯uthp0쎯	-10.4016
td쎯ykw쎯u쎯sc쎯	-10.4028
qyi0쎯	-10.4053
puhc쎯iwyf1쎯o쎯	-10.4067
xeg0쎯xkw쎯pu쎯ytb쎯	-10.4072
ipg쎯dwg쎯	-10.4076
tjgh3쎯	-10.4076
temk0쎯ter1쎯	-10.4085
wj쎯rfm쎯	-10.4086
쎁쎉쎄쎇rh쎯	-10.4097
fhqv0쎯rvyl0쎯	-10.4098
ruj0쎯	-10.41
3	-10.4101
nfh1쎯	-10.4106
쎁쎉쎃쎅rh쎯	-10.413
gey0쎯	-10.4133
iak쎯ssss0쎯	-10.4137
ulk3쎯	-10.4151
khgp0쎯wfny0쎯	-10.4153
aqv1쎯	-10.4158
dmj1쎯tj쎯qk쎯	-10.4167
wfny0쎯dgkn0쎯kkd쎯	-10.4178
yyne0쎯	-10.4183
bij쎯	-10.4185
쎀쎀dnv0쎯fqb0쎯,	-10.4186
qqw쎯	-10.4191
kkkk1쎯epw쎯	-10.4195
nyp쎯	-10.4196
tv쎯rta쎯	-10.421
ts쎯wgq쎯	-10.421
xyc쎯ick쎯	-10.4217
ige쎯wxf쎯dd쎯ip쎯	-10.4218
c쎯w쎯o쎯sg쎯	-10.422
cnh쎯tqt쎯	-10.4224
uqwm1쎯ipw쎯	-10.4228
iyw쎯jjj0쎯	-10.4231
toc쎯yq쎯	-10.4232
rqb0쎯rmhj쎯	-10.4235
qevj쎯	-10.425
mc쎯mrg0쎯	-10.4271
pwt쎯kkkk1쎯	-10.4273
pwtf1쎯	-10.4277
g쎯wsg0쎯wx쎯	-10.4282
bynw0쎯	-10.4283
wxm쎯tmh0쎯	-10.4285
jyie쎯wqj쎯	-10.4293
mhu쎯	-10.4297
mfky쎯ynt0쎯	-10.4299
wvm쎯ls쎯	-10.4302
ojf쎯ruv쎯	-10.4307
awx쎯faj쎯	-10.4319
ukqb2쎯qv쎯lt쎯	-10.433
ihg1쎯	-10.4359
zzsx5쎯	-10.4359
tt쎯yn쎯sg쎯	-10.4361
awsk쎯uff쎯	-10.4366
uter쎯	-10.4375
qkqq0쎯	-10.4392
najg쎯	-10.4397
qnr쎯yhk쎯	-10.4418
mmq쎯wug0쎯	-10.4422
rytp1쎯yge쎯	-10.4424
gu쎯fqu쎯rnb쎯ijl쎯	-10.4425
yny0쎯f쎯u쎯ga쎯v쎯	-10.4425
쎁쎉쎃쎆rh쎯	-10.4426
yt쎯tmdf1쎯	-10.4427
rh쎯go쎯,	-10.4439
vvv쎯bynw0쎯	-10.444
dgtg0쎯pe쎯yfd쎯	-10.4454
bd쎯qn쎯	-10.4454
rnr쎯ytyh쎯	-10.4475
rdf0쎯fcl쎯	-10.4479
vcag쎯	-10.4538
th쎯th쎯ta쎯	-10.4544
rvl쎯	-10.4545
rtfp0쎯	-10.4546
agu쎯js쎯	-10.4553
xvk쎯iw쎯	-10.4561
rqci0쎯lt쎯	-10.4562
fjgh0쎯	-10.4582
(-)	-10.4585
tuxj쎯	-10.4586
tdij0쎯xfm쎯	-10.4597
fyb0쎯	-10.4605
yfy2쎯ywx쎯	-10.4616
wqb1쎯	-10.4651
rufh1쎯	-10.4655
ldd0쎯pg쎯uqwm1쎯u쎯	-10.4655
ytn쎯lfn쎯	-10.4658
쎃.쎀	-10.4666
쎁쎉쎃쎃rh쎯	-10.4681
ypt쎯oy쎯,tdp쎯peg쎯	-10.4684
wg쎯l쎯tk쎯f쎯	-10.4701
쎁쎉쎃쎉rh쎯	-10.4703
suf쎯hhhh쎯	-10.4704
atg쎯gk쎯	-10.4705
쎁쎈쎉	-10.4722
zzy0쎯	-10.4737
mfky쎯ubtf0쎯	-10.4739
rtf쎯sgmj쎯	-10.474
gkl쎯tn쎯nnh쎯ta쎯	-10.4748
iy쎯:“	-10.4759
bib쎯rep쎯	-10.4772
vnn0쎯	-10.4775
wv쎯int쎯	-10.4785
ftg쎯han쎯	-10.4797
rv쎯ral쎯	-10.4798
kwgj0쎯	-10.4814
vff0쎯	-10.4818
rqw쎯	-10.4826
yf쎯aj쎯tg쎯yce쎯	-10.4845
thp쎯wjh쎯	-10.4865
nfif0쎯	-10.4876
quh1쎯	-10.4889
jhnr쎯qie쎯	-10.489
zzbd12쎯	-10.4893
nf쎯xuj쎯	-10.4896
fny0쎯iy쎯gf쎯	-10.4899
ue쎯tmd쎯o쎯	-10.4907
uuj쎯syp쎯	-10.4912
pgf1쎯pm쎯	-10.4913
ytt쎯thd쎯ick쎯egc쎯	-10.4918
rwv쎯ipg쎯	-10.4938
fhfk1쎯	-10.4943
,쎀쎀쎀	-10.4949
awnu1쎯	-10.495
udrc쎯	-10.4957
쎁쎉쎄쎀rh쎯	-10.4968
wwgj0쎯	-10.4971
iwt쎯ou쎯	-10.4972
j쎯g쎯sg쎯	-10.5006
fuk쎯yce쎯	-10.5045
tq쎯pp쎯o쎯	-10.5049
jc쎯pnt쎯	-10.506
uu쎯yy쎯oy쎯	-10.5085
jghm1쎯sft쎯	-10.5096
쎂쎀쎁쎄rh쎯	-10.5102
aft쎯e쎯《	-10.5106
dy쎯gu쎯iu쎯	-10.5109
swgj0쎯	-10.5121
zzy1쎯	-10.5124
dty0쎯buj쎯	-10.514
fc쎯rip쎯	-10.5142
ahko0쎯	-10.5152
쎀쎀ylf0쎯,	-10.5167
jo쎯fi쎯nua쎯	-10.5172
(ip쎯qk쎯:)	-10.5173
fgey쎯	-10.52
see쎯	-10.5228
rtt0쎯	-10.5231
aw쎯t쎯l쎯	-10.5239
qnnk2쎯ou쎯	-10.5241
iytb0쎯fmk쎯bw쎯	-10.5242
udv쎯	-10.5256
yuv쎯	-10.5263
lqp쎯lkb쎯	-10.5289
nc쎯ulg쎯	-10.5295
쎀.쎈	-10.5307
trfg0쎯myd0쎯	-10.5311
쎀oy쎯,rh쎯gu쎯fqu쎯	-10.5312
》g쎯nnh쎯	-10.5319
isjg쎯	-10.5328
쎀쎀쎀gu쎯yy쎯oy쎯,	-10.5341
tgj쎯s쎯cd쎯ovt쎯	-10.5345
iytb0쎯iyni1쎯	-10.536
rkm쎯rw쎯	-10.5379
rap쎯bm쎯	-10.5398
uq쎯cyi쎯	-10.541
wjjg쎯nf쎯	-10.5411
ght쎯fl쎯tv쎯km쎯	-10.5413
ger쎯	-10.5413
rkm쎯wtl쎯	-10.5424
bqn쎯bb쎯	-10.543
dwf쎯fmud쎯	-10.5447
it쎯ovt쎯n쎯ytt쎯	-10.5448
cm쎯wynn3쎯	-10.5455
cbd쎯imj쎯	-10.5491
thdu0쎯	-10.5504
cm쎯ipkm1쎯	-10.5521
wwx쎯ybt쎯	-10.5524
ywfw0쎯qnj쎯	-10.5529
o쎯g쎯wsg0쎯	-10.5529
kcy0쎯	-10.5546
pei쎯n쎯nh쎯ty쎯y쎯s쎯	-10.5549
ygu쎯pj쎯	-10.5554
쎁쎉쎃쎀rh쎯	-10.5558
usr쎯xtd쎯	-10.5561
w쎯dd쎯wa쎯ge쎯	-10.5566
aqky1쎯pwfi0쎯	-10.5575
fhqv0쎯	-10.558
rdjn0쎯	-10.5591
쎁쎉쎆쎇rh쎯	-10.5595
dwy0쎯	-10.5595
ipwk0쎯iyw쎯	-10.5598
de쎯alq쎯hhy0쎯	-10.5607
kha쎯yb쎯sf쎯tv쎯wf쎯	-10.5631
rhyi0쎯	-10.5635
tfn쎯icf쎯ai쎯	-10.5643
nynn0쎯	-10.5643
itm쎯uyh쎯	-10.5644
rno쎯	-10.5659
wg쎯jjjj0쎯rmhj쎯	-10.566
쎀zzts1쎯	-10.5661
sj쎯yqj쎯	-10.567
ytb0쎯fmk쎯hka쎯qv쎯	-10.5673
qnqv0쎯	-10.5673
utu쎯uce쎯	-10.5682
xan쎯nu쎯	-10.5682
iat1쎯	-10.5684
kha쎯egc쎯fd쎯	-10.5687
tmo쎯fcp쎯wf쎯	-10.5697
hv쎯hg쎯	-10.5702
k쎯ih쎯whf0쎯og쎯	-10.5715
쎁쎉쎄쎁rh쎯	-10.5715
akgn0쎯	-10.5717
xh쎯aqkr쎯	-10.5723
kyn1쎯	-10.5729
rvk쎯bmg쎯	-10.573
iugg0쎯ime쎯	-10.5739
tdnj0쎯	-10.5741
zzjp6	-10.5742
w쎯n쎯if쎯bpf쎯	-10.5759
쎁쎉쎄쎂rh쎯	-10.5786
4	-12.6274
8	-13.3251
6	-17.534
5	-18.08
0	-18.8631
7	-19.362
9	-20.3637
