[UNK]	0
[PAD]	0
[CLS]	0
[SEP]	0
[MASK]	0
,	-3.56227
r쎯	-3.92397
.	-4.02017
zzbd3쎯	-4.06678
t쎯	-5.01095
d쎯	-5.42495
o쎯	-5.51436
j쎯	-5.62657
k쎯	-5.72501
gn쎯	-5.76608
:	-5.76898
(	-5.80078
e쎯	-5.8683
tffu쎯	-5.9436
;	-5.96291
w쎯	-5.98782
dd쎯	-6.0491
)	-6.0627
《	-6.06769
h쎯	-6.14108
b쎯	-6.20431
“	-6.21443
ey쎯	-6.2214
c쎯	-6.25727
pp쎯	-6.29304
g쎯	-6.3071
i쎯	-6.41311
gf쎯	-6.44011
”	-6.46192
ymhj0쎯	-6.56157
ii쎯	-6.58348
rg쎯	-6.64818
egc쎯	-6.6517
cf쎯	-6.65179
k쎯l쎯	-6.67577
ym쎯	-6.68972
쎂	-6.69254
ak쎯	-6.69462
dg쎯	-6.71377
mmm쎯	-6.71381
쎁	-6.7204
f쎯	-6.7322
ih쎯	-6.7338
bb쎯	-6.73737
》	-6.75661
wc쎯ngk쎯	-6.75765
zzbd10쎯	-6.75895
쎃	-6.76026
aq쎯	-6.76183
dmj1쎯	-6.76436
ntg쎯	-6.79531
jf쎯	-6.81543
usr쎯	-6.82517
et쎯	-6.83442
gh쎯	-6.83802
gc쎯	-6.84197
qq쎯	-6.8594
pe쎯	-6.86968
uqf쎯	-6.88917
ta쎯	-6.90187
rn쎯	-6.90912
puhc쎯	-6.9174
gd쎯	-6.95289
gcf쎯	-6.97351
bm쎯	-6.97627
mw쎯	-6.97854
tg쎯	-7.01481
whf0쎯og쎯	-7.0219
sk쎯	-7.03103
쎄	-7.03744
mh쎯	-7.04008
-	-7.04237
qk쎯	-7.0435
qfhw1쎯	-7.07268
uk쎯	-7.07811
dn쎯	-7.08779
wf쎯	-7.08901
fq쎯	-7.09479
a쎯wt쎯	-7.09823
sghg1쎯	-7.10386
adw쎯	-7.10749
ww쎯	-7.11015
fm쎯	-7.1218
go쎯	-7.12278
sf쎯	-7.1249
e쎯bv쎯wc쎯ngk쎯	-7.13073
sg쎯	-7.13515
qqqq1쎯	-7.13717
/	-7.14518
yygy쎯	-7.14698
rfc쎯sy쎯	-7.14771
쎅	-7.15144
jjjj0쎯	-7.15317
ggg0쎯	-7.15917
ip쎯	-7.16148
u쎯kkk쎯	-7.16515
ua쎯	-7.167
fg쎯	-7.16787
tp쎯gj쎯	-7.17652
ftbt쎯yce쎯	-7.19182
fny0쎯og쎯	-7.19327
if쎯	-7.20443
kht쎯	-7.20645
wv쎯	-7.21243
ai쎯	-7.21989
rh쎯	-7.22621
itx쎯	-7.229
xte쎯	-7.24319
dga쎯pwv쎯	-7.24422
dgtg0쎯	-7.24847
l쎯	-7.26202
wug0쎯gf쎯	-7.26246
ftj쎯	-7.26809
ue쎯	-7.26924
fd쎯	-7.27446
dd쎯ip쎯	-7.27834
eb쎯tl쎯	-7.27949
wx쎯	-7.28181
awx쎯	-7.28845
tfl쎯	-7.30689
txi쎯xyc쎯	-7.30776
g쎯wh쎯	-7.31291
ny쎯	-7.31483
bn쎯	-7.31654
sm쎯	-7.34066
wtf쎯	-7.34121
jfd쎯	-7.34145
lh쎯	-7.34446
l쎯pe쎯	-7.34506
udi0쎯	-7.34821
thd쎯	-7.35118
,j쎯	-7.35192
ftjb쎯	-7.35491
dx쎯	-7.35901
쎈	-7.36158
fj쎯tf쎯	-7.36411
wsg0쎯	-7.36761
쎆	-7.37927
tf쎯	-7.37937
》zzbd3쎯《	-7.38022
wb쎯	-7.38235
tu쎯	-7.38253
l쎯bf쎯	-7.38313
uthp0쎯	-7.38645
a쎯tkgg1쎯	-7.39201
ce쎯	-7.39422
()	-7.39575
gg쎯	-7.39745
v쎯nae0쎯	-7.39847
ip쎯suq쎯	-7.40072
gu쎯	-7.40982
cn쎯	-7.42093
x쎯	-7.42111
aa쎯	-7.42511
쎇	-7.42583
rrr쎯	-7.42979
,d쎯	-7.43017
pv쎯	-7.44696
ymc쎯yf쎯	-7.44743
fp쎯	-7.4521
yygy쎯wx쎯	-7.45542
qh쎯	-7.4563
gajf0쎯	-7.45759
je쎯	-7.46473
mq쎯	-7.47134
uyh쎯	-7.47243
iq쎯	-7.47268
쎁쎀	-7.47704
dm쎯	-7.478
ty쎯	-7.47924
isk쎯	-7.4804
ige쎯	-7.48555
gmww쎯	-7.49
xg쎯	-7.49007
a	-7.49114
"	-7.49544
k쎯ny쎯	-7.49679
lt쎯	-7.50286
i	-7.50583
kkkk1쎯	-7.50733
ux쎯	-7.50962
wxf쎯	-7.51014
udh쎯	-7.51224
vfhp1쎯ymc쎯	-7.534
amw쎯	-7.53631
fqb0쎯	-7.53857
pl쎯	-7.5416
txi쎯	-7.54779
ghd1쎯	-7.55005
ss쎯	-7.55266
adm쎯hhhh쎯	-7.55321
ugdu쎯	-7.55908
tm쎯	-7.56037
jb쎯	-7.56553
ga쎯	-7.56937
wg쎯l쎯	-7.57056
xa쎯	-7.57638
cep쎯	-7.57909
x쎯iyj쎯	-7.58141
dq쎯	-7.58359
tgj쎯	-7.58513
ck쎯	-7.58688
xeg0쎯xkw쎯	-7.58712
.”	-7.59183
v쎯	-7.59496
trf0쎯	-7.6113
m쎯	-7.61276
k	-7.61316
mqq쎯	-7.61325
ia쎯	-7.61355
,ua쎯	-7.61429
dp쎯	-7.61432
hw쎯e쎯	-7.61855
s쎯	-7.62037
c쎯ey쎯	-7.62123
dgh쎯	-7.62212
ytyh쎯	-7.62416
rt쎯	-7.6249
wt쎯	-7.62602
ya쎯	-7.62737
tj쎯	-7.62823
xt쎯	-7.62966
wg쎯	-7.6305
tg쎯u쎯	-7.63287
hko쎯	-7.63449
kf쎯	-7.6364
f쎯aq쎯	-7.63962
tk쎯	-7.63984
dnv0쎯	-7.6415
vfhp1쎯tam쎯	-7.64409
wys쎯	-7.64458
th쎯	-7.65211
dr쎯	-7.65513
vk쎯	-7.65541
yi쎯	-7.65725
sh쎯	-7.65846
ux쎯yiu0쎯	-7.65964
ip쎯bpf쎯	-7.66112
쎉	-7.66294
nnh쎯	-7.66575
ymhj0쎯fnrt쎯	-7.66775
a쎯	-7.67862
yy쎯	-7.68695
lk쎯	-7.68772
rnb쎯	-7.69152
adwr0쎯	-7.69181
,c쎯	-7.7041
jgm쎯	-7.70425
w쎯,	-7.70544
wgkq0쎯et쎯	-7.7082
rmhj쎯	-7.70895
t	-7.70982
rj쎯waw쎯	-7.71406
lg쎯	-7.71506
an쎯lwj쎯	-7.72607
vb쎯	-7.72731
),	-7.72801
cc쎯	-7.73317
fhn쎯	-7.7343
od쎯	-7.73518
y쎯s쎯	-7.73656
kkd쎯	-7.73805
nnnn0쎯	-7.73983
qiu0쎯	-7.74117
img쎯	-7.74204
nnk쎯	-7.74219
wc쎯	-7.74252
쎂쎀	-7.74751
tu쎯rfc쎯	-7.75341
mqq쎯xtk쎯	-7.75372
y쎯	-7.75591
q쎯	-7.75642
xe쎯	-7.76024
tp쎯	-7.76182
ujfj0쎯wug0쎯	-7.76198
pyj쎯	-7.76867
rvyo쎯	-7.77085
sk쎯c쎯	-7.77194
ntk쎯	-7.77717
h쎯itx쎯	-7.78225
tjh쎯	-7.78615
gkp쎯	-7.78655
oy쎯	-7.79317
j	-7.79452
sb쎯	-7.79683
fcu1쎯	-7.79832
ith쎯	-7.79945
쎁쎂	-7.80043
wy쎯thn쎯	-7.80222
thg1쎯	-7.80326
ovt쎯	-7.80511
ukn쎯	-7.81474
”.	-7.81576
cep쎯fp쎯	-7.82577
ltu0쎯	-7.82899
wug0쎯	-7.82986
fcu0쎯	-7.83143
ftx쎯	-7.83168
ymc쎯tlf0쎯	-7.83436
qc쎯	-7.83474
ftbt쎯ip쎯	-7.83659
ggi쎯fuj쎯	-7.83799
iyc쎯	-7.83991
aqt쎯	-7.84069
rcn0쎯	-7.84189
tkh쎯	-7.84383
q	-7.84792
hhu0쎯	-7.84852
ssss0쎯	-7.85154
fd쎯ymhj0쎯	-7.85404
vfhp1쎯	-7.85572
ugm쎯	-7.85641
rp쎯	-7.85654
ccc쎯	-7.8578
xx쎯	-7.85895
bj쎯	-7.86061
lq쎯	-7.86631
y	-7.86891
pb쎯	-7.87027
tx쎯g쎯	-7.87169
g	-7.87274
an쎯	-7.87373
yynw1쎯	-7.88115
kgn쎯	-7.88116
w쎯.	-7.8833
ep쎯	-7.88416
jn쎯	-7.886
anb0쎯sy쎯	-7.88853
s	-7.89057
ru쎯	-7.89335
tg쎯itd쎯	-7.90104
uh쎯	-7.9011
ugdu쎯l쎯	-7.90213
wgk쎯	-7.9024
jg쎯	-7.9024
vvv쎯	-7.90645
fggh쎯	-7.90759
uj쎯	-7.9092
wgkq0쎯	-7.90968
ftbt쎯	-7.91021
rxj쎯	-7.91028
qgf쎯	-7.91128
ip쎯tg쎯	-7.91252
tjf0쎯	-7.91276
ip쎯nu쎯	-7.91327
tmd쎯	-7.92175
w	-7.92188
ld쎯	-7.9232
uy쎯	-7.92446
gk쎯	-7.92631
gef쎯	-7.92744
쎁쎅	-7.92834
r	-7.93353
pn쎯	-7.9369
wys쎯lft쎯	-7.94476
fj쎯	-7.94936
py쎯wf쎯	-7.95212
yu쎯	-7.9533
uu쎯	-7.9565
.d쎯	-7.95755
iv쎯	-7.95807
adwe1쎯	-7.95868
ad쎯	-7.96269
hc쎯	-7.96438
qi쎯	-7.96642
hx쎯	-7.9665
tr쎯	-7.9769
sfi쎯uwy0쎯	-7.98298
rmc쎯uqwm1쎯	-7.98649
ujfj0쎯	-7.98685
》:“	-7.98868
reh쎯e쎯	-7.99042
f	-7.99104
ic쎯	-7.99118
lll쎯	-7.99231
pgy쎯	-7.99629
fc쎯rf쎯	-8.00038
m	-8.00463
gl쎯	-8.00492
!	-8.00748
쎃쎀	-8.00841
ftbt쎯jgm쎯	-8.00967
mfk쎯	-8.01021
xxf쎯og쎯gf쎯	-8.0126
pg쎯	-8.015
a쎯og쎯	-8.0157
nfc쎯	-8.02008
fnrt쎯	-8.02589
ipw쎯	-8.02675
ygk쎯	-8.02852
al쎯ce쎯	-8.02914
ga쎯v쎯	-8.02992
ga쎯vck쎯	-8.03107
gog쎯	-8.03153
d	-8.03396
n쎯	-8.03429
tk쎯tkh쎯	-8.03441
eee0쎯	-8.04057
rpw쎯rmhj쎯	-8.04259
std쎯	-8.04271
yff쎯	-8.04298
gip쎯	-8.04451
dgt1쎯	-8.04513
udy쎯	-8.04518
ab쎯	-8.0475
,o쎯	-8.04905
udbb쎯	-8.05247
n	-8.05741
mqb쎯	-8.05783
aw쎯	-8.05855
쎁쎉	-8.05889
ba쎯	-8.05901
iytb0쎯ca쎯	-8.06034
lpk0쎯	-8.06424
ts쎯	-8.06542
gy쎯	-8.06597
lkd쎯	-8.06642
gah쎯	-8.06914
dn쎯o쎯	-8.0725
gjq쎯	-8.07384
zzbd9쎯zzbd9쎯	-8.07448
xq쎯	-8.07694
wfny0쎯	-8.07695
wq쎯	-8.07821
ide쎯	-8.08194
fnr0쎯	-8.08263
itd쎯fcl쎯	-8.08273
xk쎯	-8.08375
kkk쎯thgf1쎯	-8.08567
vcb쎯	-8.08654
gae쎯	-8.08696
puv쎯	-8.0877
wty0쎯	-8.0908
ajj0쎯	-8.09296
suq쎯	-8.09485
rs쎯	-8.0962
um쎯	-8.09647
jjjj0쎯sg쎯	-8.09649
jtg쎯	-8.09733
wt쎯o쎯	-8.09999
ul쎯	-8.10182
lp쎯	-8.10273
dmh0쎯	-8.104
wa쎯	-8.10579
wdt쎯	-8.10668
vt쎯	-8.10691
uth쎯	-8.10987
lft쎯	-8.11085
u	-8.11098
wy쎯	-8.11298
ooo쎯	-8.11385
tq쎯	-8.11513
atd쎯bpf쎯	-8.11604
uf쎯	-8.11697
ag쎯	-8.11739
yj쎯	-8.11757
rfm쎯jg쎯	-8.11812
tf쎯og쎯	-8.11867
og쎯	-8.11887
ytey0쎯iytb0쎯	-8.1195
dj쎯	-8.12324
kq쎯	-8.12396
p쎯	-8.1246
xeg0쎯	-8.12463
djd쎯	-8.12731
src쎯	-8.12828
bs쎯	-8.12859
gkl쎯	-8.13082
fqp쎯	-8.13122
txi쎯gq쎯	-8.13406
yid쎯et쎯	-8.13677
yx쎯	-8.13708
lfo쎯	-8.13816
쎁쎈	-8.14054
ujf0쎯qi쎯	-8.14137
epc쎯	-8.14457
uqw쎯	-8.14476
wh쎯	-8.14585
nge쎯	-8.14618
lfq쎯	-8.14769
dw쎯	-8.14951
scf쎯	-8.14959
uff쎯	-8.15005
kkk쎯	-8.15174
sft쎯ou쎯	-8.15244
쎁쎆	-8.15343
es쎯et쎯	-8.1538
k쎯r쎯	-8.1571
iit쎯	-8.15737
bpf쎯	-8.15801
xf쎯sq쎯	-8.16
gm쎯wa쎯	-8.16197
bu쎯	-8.16299
wt쎯kkk쎯	-8.16425
idr쎯	-8.16497
쎁쎁	-8.17141
mj쎯	-8.17222
yny0쎯	-8.17229
ffff1쎯	-8.17314
tffu쎯.	-8.17365
yne쎯	-8.17396
xw쎯	-8.17401
cd쎯lk쎯	-8.17427
pv쎯wg쎯	-8.17507
rfm쎯	-8.1773
bw쎯	-8.18095
fawk0쎯	-8.18515
isgg2쎯yhk쎯	-8.18687
ipkh1쎯	-8.18951
uqwm1쎯idr쎯	-8.18961
wyv쎯	-8.19146
wdn쎯te쎯	-8.19169
”r쎯	-8.19316
py쎯aq쎯	-8.19406
tfn쎯	-8.19615
lqw쎯wrh1쎯	-8.19959
ymf쎯	-8.19967
fn쎯	-8.20021
yid쎯	-8.20128
ght쎯ywf쎯	-8.20142
sov쎯	-8.2056
”zzbd3쎯“	-8.20839
jf쎯uj쎯	-8.21265
ww쎯gk쎯	-8.21522
,wjg쎯	-8.21633
ps쎯	-8.21707
lfn쎯	-8.2173
tu쎯ip쎯	-8.21797
cnh쎯	-8.22011
aqt쎯tj쎯	-8.22097
hka쎯	-8.22129
fhv쎯	-8.22237
st쎯	-8.2226
og쎯tl쎯	-8.22444
js쎯	-8.22556
hw쎯	-8.22616
thd쎯qd쎯	-8.22716
qe쎯	-8.2287
isgg2쎯	-8.23047
fcl쎯	-8.23271
쎅쎀	-8.23539
jn쎯bb쎯	-8.23745
ujj쎯	-8.2375
ax쎯	-8.23804
쎄쎀	-8.23854
tmg1쎯	-8.24394
ae쎯	-8.24447
yygt쎯	-8.2451
tfqp쎯	-8.24815
ma쎯	-8.24968
pgc쎯	-8.25053
fhw쎯	-8.25434
tv쎯km쎯wf쎯	-8.25533
gyt쎯	-8.25552
ujn쎯	-8.25651
bc쎯	-8.25875
”,	-8.2591
iw쎯	-8.26032
lk쎯ty쎯	-8.26136
k쎯ip쎯	-8.26177
oge쎯	-8.26511
thd쎯nng쎯	-8.26515
mww쎯	-8.26793
nd쎯	-8.26919
wqa쎯	-8.2707
yq쎯	-8.27206
px쎯	-8.27444
tffh1쎯	-8.27746
x쎯apk쎯	-8.27746
).	-8.27818
yi쎯j쎯	-8.27877
dl쎯kq쎯	-8.28135
ick쎯ubk1쎯	-8.2822
tfq쎯	-8.2852
wv쎯sr쎯	-8.28876
tld1쎯	-8.29016
e	-8.29038
yqa쎯	-8.29044
swc쎯	-8.29097
fl쎯wf쎯	-8.29248
uqd2쎯	-8.29345
qn쎯	-8.29345
qn쎯rtd쎯	-8.29478
ihc쎯	-8.29493
qa쎯	-8.29531
rhf0쎯	-8.29991
pei쎯og쎯	-8.30016
thgc0쎯	-8.30019
ud쎯	-8.30066
sve쎯	-8.30161
jy쎯	-8.30231
tel쎯	-8.30391
kthh1쎯	-8.30548
uk쎯wv쎯	-8.30621
i쎯m쎯	-8.30665
rgw쎯	-8.30787
rc쎯	-8.30821
fqu쎯	-8.30981
ick쎯	-8.31048
u쎯	-8.31144
xxg0쎯	-8.31201
pyg쎯	-8.3128
,adw쎯	-8.31342
ywx쎯	-8.31344
yy쎯if쎯	-8.3154
qr쎯	-8.31701
pw쎯	-8.31747
qynm1쎯	-8.31794
lwj쎯	-8.32207
ujf0쎯	-8.32254
aws쎯	-8.32254
rg쎯,	-8.3251
fhl쎯	-8.32609
yyy쎯	-8.32618
tjt쎯	-8.3275
ft쎯	-8.3292
ge쎯	-8.32935
nui쎯	-8.32946
vbn쎯	-8.32993
yt쎯	-8.3311
rb쎯	-8.33233
ire쎯	-8.33732
l쎯mw쎯	-8.33775
w쎯km쎯	-8.34342
ff쎯	-8.34636
sm쎯sa쎯	-8.34645
fh쎯	-8.34866
gfi쎯	-8.34913
yo쎯	-8.35066
q쎯wu쎯	-8.35208
gj쎯ywx쎯	-8.35392
jf쎯,	-8.35417
dy쎯	-8.35435
pfi쎯	-8.35449
hv쎯	-8.35579
wgk쎯wt쎯	-8.35853
fny0쎯pe쎯	-8.36187
ow쎯	-8.36224
rmhj쎯tfkp0쎯	-8.36289
yh쎯	-8.36719
쎁쎄	-8.37053
tx쎯fg쎯	-8.37224
쎂쎅	-8.37294
se쎯	-8.37429
sm쎯sq쎯	-8.37469
wk쎯	-8.37657
fge쎯	-8.3769
fghg쎯	-8.37758
x	-8.37785
gmf쎯	-8.37951
ll쎯	-8.38038
qie쎯wyk쎯	-8.38246
xl쎯	-8.38957
amd쎯	-8.39188
ggi쎯	-8.39226
sc쎯	-8.3955
km쎯	-8.39694
wdm쎯	-8.39776
uq쎯	-8.39891
rmhj쎯wt쎯	-8.40209
sn쎯	-8.40437
dgkn0쎯	-8.4077
pu쎯	-8.411
tfk0쎯	-8.41119
aft쎯qk쎯	-8.41253
ruv쎯	-8.41536
wk쎯ryn1쎯	-8.41641
,e쎯	-8.42124
im쎯e쎯	-8.42189
yygy쎯ip쎯	-8.42408
th쎯gj쎯	-8.42461
mdf0쎯	-8.42624
td쎯	-8.42649
ipk쎯	-8.42759
ih쎯ip쎯	-8.42813
rxj쎯nf쎯	-8.42953
kw쎯	-8.42958
pgn쎯	-8.4297
irn쎯lg쎯	-8.43178
kgd쎯	-8.43233
zzsx1쎯	-8.43373
gm쎯	-8.43382
nh쎯	-8.43455
qev쎯	-8.43543
fwm쎯aj쎯	-8.43676
xp쎯wgk쎯	-8.43687
ufy쎯	-8.43915
fcp쎯fcl쎯	-8.44079
tgj쎯hko쎯	-8.44229
qm쎯gmu1쎯	-8.44332
yvh쎯	-8.44462
쎆쎀	-8.44524
mqq쎯uh쎯	-8.4461
pa쎯	-8.44706
zzbd15쎯	-8.44715
rj쎯ym쎯	-8.44864
wht쎯	-8.44877
xmw쎯	-8.44914
tfq쎯fj쎯	-8.45214
yww쎯	-8.45281
w쎯ft쎯	-8.45299
ipkf0쎯	-8.45365
dd쎯gajf0쎯	-8.45396
rhk0쎯	-8.45781
iex쎯	-8.45891
쎁쎃	-8.45904
yni1쎯	-8.45979
pei쎯	-8.46063
lk쎯a쎯	-8.46073
iytb0쎯	-8.46212
mmm쎯ai쎯	-8.46227
et쎯yne쎯	-8.46297
쎁쎀쎀	-8.46417
fhu쎯	-8.46594
uvo쎯	-8.46775
alw쎯	-8.46878
bm쎯thgc0쎯	-8.46881
lw쎯	-8.47048
g쎯tkh쎯	-8.47241
tt쎯	-8.47268
tjf0쎯iawn0쎯	-8.47289
adw쎯k쎯	-8.4748
ijl쎯	-8.47511
jqr쎯	-8.47799
xwy0쎯	-8.47837
yhk쎯	-8.4784
yjjh0쎯	-8.47889
vfb쎯	-8.47892
yb쎯	-8.4812
sfhg쎯tr쎯	-8.48172
쎁쎇	-8.48429
yf쎯aj쎯	-8.4848
yngk1쎯	-8.4854
wfhg0쎯	-8.48626
it쎯	-8.48645
naj0쎯	-8.487
,dmj1쎯	-8.48767
u쎯og쎯	-8.49097
hhhh쎯	-8.49226
xf쎯	-8.49508
dfy쎯	-8.49602
fii쎯	-8.49602
vtk쎯	-8.49691
s쎯fiy쎯	-8.50006
jn쎯jyie쎯	-8.50051
fgh쎯	-8.50096
tve쎯	-8.5011
k쎯md쎯	-8.502
atd쎯ip쎯	-8.50225
me쎯	-8.5047
wycm1쎯fakg0쎯	-8.50888
dskf쎯	-8.50913
fje쎯	-8.50939
gj쎯	-8.51036
khu쎯	-8.51186
ait쎯	-8.51215
cff0쎯	-8.51284
wa쎯ge쎯	-8.51761
pfq쎯dn쎯	-8.51821
adw쎯wb쎯	-8.51913
lkmi0쎯	-8.51969
lu쎯	-8.52019
fdm쎯s쎯	-8.52232
inr쎯	-8.52285
wvf0쎯yvi쎯	-8.52327
wbj쎯usr쎯	-8.52359
pp쎯g쎯.	-8.5243
by쎯	-8.52838
lhnh쎯	-8.52849
g쎯tem쎯	-8.53041
a쎯anb0쎯	-8.5315
ttg0쎯	-8.53503
zzbd9쎯	-8.53508
mw쎯pww쎯	-8.53705
us쎯	-8.53953
vo쎯	-8.54088
yy쎯aa쎯	-8.54144
bnn2쎯	-8.54144
w쎯kkkk1쎯	-8.54187
dnnl쎯	-8.54539
pk쎯	-8.54576
e쎯ud쎯	-8.54595
um쎯og쎯	-8.54772
pp쎯g쎯	-8.54872
sksw쎯	-8.54879
ym쎯xe쎯	-8.54894
pt쎯yne쎯	-8.55019
nx쎯	-8.55033
ymc쎯	-8.55056
sgc쎯	-8.5507
wtu쎯	-8.55092
fw쎯	-8.55133
pu쎯gm쎯	-8.55391
ln쎯	-8.55467
qnp쎯	-8.55804
mqu쎯	-8.55809
pnt쎯	-8.55839
jty쎯	-8.55918
fuk쎯yk쎯	-8.55924
쎀	-8.56003
ruv쎯kkkk1쎯	-8.56033
ip쎯wf쎯	-8.5608
wfny0쎯xyc쎯	-8.56255
rymn쎯	-8.56291
stx쎯	-8.56433
rpv쎯	-8.56611
nnnn0쎯x쎯	-8.56828
.《	-8.56914
nae0쎯	-8.56937
uq쎯cep쎯	-8.57055
av쎯	-8.57098
kfi쎯	-8.57131
py쎯	-8.57149
dn쎯uu쎯	-8.57236
tjh쎯et쎯	-8.57321
flf1쎯	-8.57347
:“	-8.57396
mtd쎯	-8.57701
n쎯ytt쎯	-8.57798
xyna1쎯	-8.57862
+	-8.57937
yf쎯tha쎯sm쎯	-8.57943
qgb쎯	-8.58129
fk쎯	-8.58498
v	-8.5866
ukd1쎯jghm1쎯	-8.58691
uo쎯	-8.58727
gqx쎯	-8.58924
ywf쎯	-8.58957
wwk쎯	-8.59013
fcp쎯	-8.59292
yfd쎯	-8.59329
w쎯n쎯	-8.59382
?	-8.5943
shn쎯	-8.59643
쎈eee0쎯	-8.59652
ylk0쎯	-8.59665
adnt1쎯	-8.59708
ck쎯iyo쎯	-8.59778
o	-8.59793
apk쎯	-8.59903
to쎯	-8.59962
sve쎯rnd1쎯	-8.5998
ovt쎯rnd1쎯	-8.60122
rjg1쎯wtf쎯	-8.60128
psu0쎯	-8.60252
iawn0쎯	-8.60254
ce쎯lt쎯	-8.60378
cqy쎯	-8.60381
kg쎯	-8.60403
ght쎯	-8.6051
xqa쎯	-8.6067
aet1쎯	-8.60737
wh쎯w쎯	-8.60752
쎈쎀	-8.60856
ytt쎯	-8.6091
dh쎯	-8.61222
yygy쎯wrh1쎯	-8.6132
yvi쎯	-8.61447
dht쎯	-8.61474
thd쎯fcl쎯	-8.61529
.wc쎯ngk쎯	-8.61656
p쎯wh쎯	-8.61857
c	-8.61871
tdg1쎯	-8.61976
tv쎯	-8.61993
bg쎯tg쎯	-8.62031
쎂쎄	-8.62223
,ll쎯,	-8.62241
xl쎯eqn쎯	-8.6229
imgk쎯	-8.62469
xf쎯wgk쎯	-8.62513
wfg0쎯	-8.6254
gae쎯dn쎯	-8.62609
qgj쎯	-8.62637
tfqp쎯rcf쎯	-8.62683
ih쎯yu쎯	-8.62689
tyna2쎯	-8.62784
uduk0쎯	-8.62928
dwiu쎯	-8.62994
,mh쎯	-8.63022
q쎯l쎯	-8.6319
j쎯rxj쎯	-8.63192
jyie쎯ktm쎯	-8.6323
tk쎯od쎯	-8.63246
fc쎯	-8.63247
qmq쎯	-8.6331
ri쎯	-8.63314
wqj쎯	-8.63325
xv쎯	-8.635
wbj쎯wt쎯	-8.63531
sgh쎯	-8.63655
wxj쎯	-8.63989
qd쎯	-8.64029
saj0쎯aa쎯	-8.64445
bwt쎯	-8.65216
bm쎯thgc0쎯py쎯	-8.65228
gxi쎯	-8.6525
xgu쎯	-8.65312
,wb쎯	-8.65345
cm쎯	-8.65374
af쎯wgkb0쎯	-8.65375
qve쎯	-8.65542
w쎯tr쎯	-8.65708
od쎯gajf0쎯	-8.65838
ftbt쎯rep쎯	-8.65841
ahty0쎯	-8.65879
jb쎯dd쎯	-8.65957
mmm쎯ai쎯ith쎯	-8.65959
쎁쎀eee0쎯	-8.66264
v쎯tg쎯	-8.66268
ugl쎯	-8.66293
fj쎯ty쎯	-8.6651
dga쎯pwv쎯rn쎯	-8.66522
umd1쎯	-8.66526
*	-8.66542
qt쎯	-8.66965
rkk쎯wt쎯	-8.66993
wrh1쎯	-8.67025
ntg쎯ce쎯	-8.67093
,wgkq0쎯	-8.67111
wsk쎯	-8.67128
txg쎯	-8.67237
dp쎯gc쎯	-8.67257
ou쎯	-8.6748
yygt쎯sghg1쎯	-8.67498
lwx쎯	-8.67577
m쎯jf쎯	-8.67577
ywt쎯	-8.67651
temk0쎯	-8.67745
pgk쎯	-8.67761
r쎯g쎯tkh쎯	-8.67822
쎂쎀쎀	-8.67936
jfc쎯	-8.68069
tg쎯tr쎯	-8.68175
irr쎯ia쎯	-8.68202
qg쎯	-8.68295
uq쎯iyc쎯	-8.68385
yfn쎯	-8.68415
xh쎯	-8.68493
gk쎯og쎯	-8.68504
ddm쎯fghg쎯	-8.68505
wyv쎯kkk쎯	-8.68571
al쎯	-8.6859
k쎯,	-8.68611
gmww쎯wh쎯	-8.68644
ad쎯sg쎯	-8.68655
v쎯gm쎯	-8.68683
vfhp1쎯uu쎯	-8.68723
fuk쎯udyj쎯	-8.68763
djd쎯ipkh1쎯	-8.68782
ga쎯nae0쎯	-8.68832
tak쎯	-8.68846
rdj쎯	-8.68947
tu쎯dga쎯	-8.69076
nty0쎯	-8.69078
fghy2쎯	-8.69205
tmo쎯	-8.69401
j쎯g쎯wh쎯	-8.69634
thd쎯nng쎯r쎯	-8.69893
wgj쎯	-8.69976
zzbd8쎯zzbd8쎯	-8.69983
wx쎯ip쎯	-8.70069
jn쎯pym쎯	-8.70208
fge쎯fghg쎯	-8.70235
g쎯hxf쎯	-8.70504
oyvk1쎯	-8.70635
wycm1쎯nf쎯	-8.70693
fa쎯	-8.70745
쎄eee0쎯	-8.70747
yjs쎯tkgg1쎯	-8.71005
ye쎯	-8.71022
eb쎯	-8.71195
if쎯tvfh0쎯	-8.71252
ywx쎯yygy쎯	-8.71317
fv쎯	-8.71438
ymc쎯ytb쎯	-8.71711
fha쎯	-8.7173
trf0쎯qc쎯	-8.71732
jv쎯	-8.71761
thgf1쎯	-8.71774
bi쎯	-8.71777
wb쎯wu쎯	-8.71868
mt쎯	-8.71917
ghd1쎯aa쎯	-8.71935
ivw쎯	-8.71946
ddu1쎯	-8.71967
fffy0쎯	-8.71987
et쎯gf쎯	-8.72022
쎂쎂	-8.72121
riu0쎯	-8.72147
hk쎯	-8.72228
kd쎯	-8.72446
gq쎯	-8.7253
djb쎯	-8.72538
bg쎯	-8.72538
pym쎯	-8.72556
ad쎯dbm쎯	-8.72621
wc쎯kht쎯	-8.72725
rta쎯	-8.72765
pfjm1쎯	-8.72768
rn쎯e쎯	-8.72805
gef쎯rh쎯	-8.72813
eu쎯	-8.73015
sg쎯nnh쎯	-8.73034
gu쎯ck쎯	-8.73147
td쎯ykw쎯	-8.73187
tf쎯ght쎯	-8.73243
bde쎯	-8.73255
adm쎯	-8.73467
ntf쎯	-8.73536
)zzbd3쎯	-8.7355
hhhh쎯ue쎯	-8.73645
jj쎯	-8.73647
,adw쎯k쎯	-8.73977
dn쎯al쎯	-8.74257
dm쎯tkw쎯	-8.74369
wsg0쎯yce쎯	-8.74474
wvt쎯	-8.7455
wyc쎯	-8.74578
iagw쎯	-8.74604
synw쎯	-8.74667
fjk쎯	-8.74734
쎇쎀	-8.74842
fiy쎯	-8.74944
yygt쎯ai쎯	-8.74956
쎉eee0쎯	-8.74989
gs쎯	-8.74997
lh쎯kthh1쎯	-8.75091
yy쎯dm쎯	-8.75124
aq쎯fakg0쎯	-8.75143
w쎯n쎯ght쎯ywf쎯	-8.75153
iyw쎯	-8.75183
tx쎯dg쎯	-8.75477
wt쎯et쎯	-8.75529
hj쎯	-8.7554
cw쎯	-8.75632
nm쎯	-8.75765
j쎯mh쎯	-8.75816
yn쎯	-8.75823
ii쎯gu쎯	-8.75846
pu쎯ytb쎯	-8.75858
ylf0쎯	-8.75995
tj쎯gc쎯	-8.75998
yygt쎯ytyh쎯	-8.76046
wynb0쎯	-8.76189
eajd쎯	-8.76307
usr쎯ub쎯	-8.7638
pf쎯	-8.76428
up쎯	-8.76493
wynk쎯	-8.76559
i쎯on쎯	-8.76608
gny쎯	-8.76616
pe쎯ytfp0쎯	-8.76762
qtj쎯uu쎯	-8.76926
pt쎯	-8.77006
ktn쎯	-8.7709
yjj1쎯	-8.77302
ide쎯fm쎯	-8.77404
ght쎯ick쎯	-8.77521
qve쎯tf쎯	-8.77615
udyj쎯	-8.77924
yneg0쎯	-8.78144
쎆eee0쎯	-8.78181
vn쎯	-8.78202
tg쎯gf쎯	-8.78211
tfq쎯tg쎯	-8.78238
ght쎯tgm쎯	-8.78264
yygt쎯ai쎯ith쎯	-8.78346
be쎯	-8.78502
ugdu쎯sy쎯	-8.78521
wg쎯dm쎯	-8.78671
xx쎯lu쎯	-8.78702
ia쎯alw쎯	-8.7872
쎃쎅	-8.78744
os쎯	-8.78757
you1쎯	-8.78893
sdm쎯	-8.78952
de쎯	-8.7912
pynn0쎯	-8.79162
fm쎯yiu0쎯	-8.79174
fhq쎯	-8.79262
jtyl쎯hich0쎯	-8.79377
isk쎯fm쎯	-8.79435
kha쎯	-8.79483
,cf쎯	-8.79528
qr쎯kht쎯	-8.79539
fcb쎯	-8.79628
yiu0쎯	-8.79724
쎃쎂	-8.79765
wjg쎯	-8.79861
yygy쎯je쎯	-8.79873
h	-8.79913
amd쎯l쎯	-8.80077
alt쎯	-8.80131
--	-8.80194
ynt0쎯	-8.80201
fcl쎯tr쎯	-8.80225
qng1쎯	-8.8034
wm쎯	-8.80359
qmgk1쎯	-8.80459
gmy0쎯	-8.80467
bu쎯wgk쎯	-8.80622
yft쎯	-8.80623
sf쎯tv쎯wf쎯	-8.80639
ukh쎯	-8.80651
sh쎯ud쎯	-8.80694
qy쎯	-8.80927
dnv0쎯fqb0쎯	-8.80964
te쎯	-8.81084
.yynw1쎯	-8.81096
sfi쎯	-8.81143
uwyc2쎯	-8.81194
pv쎯ufy쎯	-8.81443
dga쎯pwv쎯tg쎯	-8.81453
etg쎯	-8.81467
iqc쎯	-8.81518
nf쎯	-8.81528
uqwm1쎯ou쎯	-8.81562
sam쎯	-8.81626
rwyg0쎯yygt쎯	-8.8182
um쎯tl쎯	-8.81839
f쎯yy쎯	-8.82084
pgj쎯wfny0쎯	-8.82124
rw쎯	-8.82128
gogj쎯	-8.82128
myd0쎯	-8.82148
fnw쎯	-8.82168
ugm쎯gxgu쎯	-8.82278
dhb쎯	-8.82318
jyie쎯	-8.82438
xyy1쎯	-8.82524
ng쎯	-8.82537
kwg쎯	-8.82575
dty0쎯	-8.8267
xjm쎯	-8.82677
tkgg1쎯ycb쎯	-8.82729
atd쎯	-8.82787
jty쎯ysi쎯	-8.82845
iyo쎯	-8.82856
pei쎯n쎯	-8.83173
jf쎯wa쎯	-8.83196
j쎯g쎯tkh쎯	-8.83208
ese쎯	-8.83319
r쎯g쎯wh쎯	-8.83502
i쎯ce쎯	-8.83507
fggh쎯uk쎯	-8.8352
ds쎯	-8.8356
,vcb쎯	-8.83633
rj쎯	-8.83678
vtkd0쎯	-8.83688
qyvl0쎯	-8.83705
l	-8.83809
ln쎯shn쎯	-8.83828
vi쎯	-8.84018
쎅eee0쎯	-8.84045
lc쎯	-8.84048
kkk쎯tkh쎯	-8.84071
쎃eee0쎯	-8.84092
xxe쎯	-8.84099
amd쎯ygk쎯	-8.84134
da쎯	-8.84238
udp쎯	-8.84333
jhny쎯	-8.84347
tkh쎯sfhg쎯	-8.84388
wgi쎯	-8.84568
klj쎯	-8.8458
fny0쎯	-8.84709
wg쎯gfi쎯	-8.84729
bm쎯tg쎯gf쎯	-8.84889
sgn쎯	-8.84906
2쎯	-8.85046
ygk쎯yyy쎯	-8.85148
ip쎯sy쎯	-8.85166
nkuf쎯	-8.85222
,wug0쎯gf쎯	-8.85354
wtl쎯	-8.85478
쎂쎈	-8.85487
yv쎯	-8.8559
yygt쎯tfkf0쎯	-8.85598
aw쎯m쎯	-8.8563
g쎯uqw쎯	-8.8571
qqqq1쎯ntk쎯	-8.85805
mwyc0쎯	-8.85897
쎂쎃	-8.85961
wf쎯yyq쎯	-8.85984
v쎯ge쎯	-8.85984
ajt쎯	-8.85987
pw쎯uj쎯	-8.86033
pp쎯uj쎯	-8.86037
apl쎯fcl쎯	-8.86143
wbj쎯	-8.86217
c쎯h쎯	-8.86241
lks쎯	-8.86248
rvy쎯tf쎯	-8.86293
쎁쎂eee0쎯	-8.86294
fu쎯	-8.86317
dc쎯	-8.86458
dn쎯km쎯	-8.86584
h쎯r쎯	-8.86646
,sk쎯	-8.86662
ntk쎯gf쎯	-8.86714
》tffu쎯	-8.86771
ufy쎯qnth쎯	-8.86871
ia쎯alw쎯ith쎯	-8.86889
cd쎯gn쎯	-8.86914
yf쎯	-8.87032
oug0쎯	-8.87131
ygh쎯	-8.87254
ai쎯ux쎯	-8.87281
ad쎯f쎯	-8.87298
fh쎯ruv쎯	-8.87303
wf쎯km쎯	-8.87395
lw쎯wc쎯pgc쎯	-8.87672
pu쎯cwg쎯	-8.87744
ta쎯adwe1쎯	-8.87804
ha쎯	-8.87836
ngk쎯	-8.87875
lqw쎯	-8.88133
uo쎯cep쎯	-8.88172
wwj쎯wfhg0쎯	-8.88185
xqc쎯	-8.88204
nyu0쎯	-8.88216
bm쎯gm쎯	-8.88239
ldn쎯	-8.88365
gkip0쎯	-8.88389
ey쎯adw쎯	-8.88502
oge쎯pyj쎯	-8.88503
kha쎯yb쎯	-8.88514
jghm1쎯	-8.88546
nnh쎯if쎯	-8.88808
dty0쎯gk쎯	-8.8882
ol쎯	-8.88839
~	-8.88903
mc쎯	-8.88939
r쎯“	-8.88941
jh쎯	-8.89044
uda쎯	-8.89056
apk쎯qie쎯	-8.89303
tfl쎯l쎯	-8.89329
gmd0쎯	-8.89403
qq쎯tkh쎯	-8.89542
bgh쎯	-8.89554
dgv쎯	-8.89585
uqt쎯js쎯	-8.89625
yaa쎯	-8.89822
jn쎯eyb쎯	-8.89855
puhc쎯ygu쎯o쎯	-8.89863
qsu쎯	-8.89929
hhhh쎯sfi쎯	-8.9022
wc쎯lfq쎯	-8.9023
쎉쎀	-8.90249
hxx쎯	-8.90421
ftg쎯	-8.9044
ts쎯wrh1쎯	-8.90495
itk쎯	-8.90519
pei쎯sf쎯	-8.90615
bk쎯	-8.9072
gcft0쎯	-8.9073
ftjb쎯j쎯	-8.90841
a쎯wt쎯.	-8.90875
wffg쎯	-8.90972
ndj쎯	-8.91
ltk쎯	-8.91051
irr쎯ia쎯ith쎯	-8.91319
aps쎯	-8.91371
yy쎯tm쎯	-8.91402
zzbd0쎯	-8.91489
on쎯	-8.9151
pv쎯tmgt3쎯	-8.91526
ib쎯	-8.91578
puh쎯	-8.91579
bk쎯og쎯	-8.91584
mq쎯st쎯	-8.91719
wr쎯	-8.91882
lfhf쎯	-8.92051
fcp쎯tf쎯	-8.92167
efcb쎯	-8.92209
synw쎯ny쎯	-8.92211
p쎯hxf쎯	-8.9234
wt쎯ftj쎯	-8.92361
yd쎯	-8.92365
adk쎯	-8.92409
tg쎯dyn쎯	-8.92414
yy쎯wgj쎯	-8.9252
xn쎯	-8.92638
iaw쎯	-8.92673
쎂쎁	-8.92747
anb0쎯	-8.92809
x쎯fp쎯	-8.9283
쎄쎅	-8.92861
hi쎯	-8.92946
dcw쎯	-8.93083
,vk쎯	-8.93196
dyt쎯	-8.93284
yss쎯	-8.93369
쎂쎆	-8.93464
w쎯wu쎯	-8.93583
adf쎯	-8.93604
ud쎯txi쎯	-8.93607
u쎯tg쎯	-8.93647
tffh1쎯uthp0쎯	-8.93648
gm쎯e쎯	-8.9369
ftbt쎯sft쎯	-8.93776
sgn쎯ddu1쎯	-8.93785
xeg0쎯dn쎯	-8.93835
ge쎯dm쎯	-8.939
rmhj쎯ya쎯	-8.93903
if쎯l쎯	-8.94071
lft쎯bw쎯	-8.94212
eyb쎯	-8.94281
l쎯mw쎯qh쎯	-8.9434
jf쎯imkf1쎯	-8.94445
mh쎯gf쎯	-8.94512
atd쎯ubk1쎯	-8.9453
p쎯tkh쎯	-8.94643
pww쎯	-8.94833
twt쎯	-8.94844
ywu쎯	-8.94965
qyng0쎯	-8.95115
wgkb0쎯	-8.95123
k쎯wxf쎯	-8.95357
wsg0쎯txi쎯	-8.95464
xuj쎯	-8.95507
iwf쎯	-8.95585
ytd쎯	-8.95626
jgm쎯aib쎯dd쎯ip쎯	-8.95655
xgb쎯	-8.95718
ytb쎯	-8.95822
sghg1쎯fm쎯	-8.95838
》(	-8.95888
yjs쎯	-8.95923
wwj쎯	-8.95962
ith쎯xe쎯	-8.96089
tyg쎯	-8.96253
nty0쎯af쎯	-8.96295
tl쎯	-8.96306
pye쎯	-8.96342
wyq쎯	-8.96383
.adw쎯	-8.96408
ce쎯qkqq0쎯	-8.96428
.wb쎯	-8.9654
qqqq1쎯gkm쎯	-8.96697
lh쎯kthh1쎯ith쎯	-8.96975
wu쎯	-8.97084
sgi쎯	-8.97241
g쎯fh쎯	-8.97326
jb쎯dd쎯r쎯	-8.97363
ytb쎯a쎯	-8.97363
ui쎯	-8.97417
wgc쎯	-8.97492
,uqf쎯	-8.97519
iu쎯	-8.9752
yjs쎯jghm1쎯	-8.97551
gae쎯aa쎯	-8.97676
uxe쎯	-8.97729
iy쎯	-8.97779
pvs쎯	-8.9779
ufk0쎯	-8.97861
bfm쎯	-8.97895
vs쎯	-8.97896
sghg1쎯ux쎯	-8.98017
qgu쎯	-8.98059
pfjf1쎯	-8.98084
wgq쎯	-8.98334
yw쎯ygh쎯	-8.9835
geq쎯	-8.98361
ybv0쎯	-8.985
qje쎯	-8.98716
kkk쎯rfm쎯	-8.9872
nnw쎯	-8.98754
isk쎯fm쎯ith쎯	-8.98892
isk쎯ux쎯	-8.98957
dl쎯	-8.99
k쎯atd쎯	-8.99007
sw쎯imj쎯	-8.99168
wg쎯uk쎯	-8.99236
ymc쎯e쎯	-8.99258
ip쎯tu쎯	-8.99283
lfof3쎯	-8.99381
》,	-8.99452
cd쎯	-8.9954
p쎯g쎯	-8.99605
qkhh1쎯	-8.99607
pfj쎯	-8.99659
wfny0쎯rtol0쎯	-8.99774
wv쎯o쎯	-8.99782
udj쎯	-8.9985
yw쎯o쎯	-8.99987
wdn쎯	-9.00092
wgku1쎯	-9.00138
yps쎯	-9.0014
wye쎯	-9.002
w쎯r쎯	-9.0037
ide쎯ux쎯	-9.00449
nnw쎯gkip0쎯	-9.00484
bct쎯	-9.00504
qt쎯ujff쎯	-9.00603
gcft0쎯lt쎯gf쎯	-9.00711
ymd쎯	-9.00819
jn쎯idr쎯	-9.00863
fku쎯	-9.01007
jf쎯adwe1쎯	-9.01012
tdkj0쎯	-9.01086
a쎯hw쎯	-9.01181
wygg쎯	-9.01193
jq쎯	-9.01315
gku쎯	-9.01366
쎃쎆	-9.01395
ec쎯	-9.01588
pfq쎯wg쎯	-9.0168
ssq쎯	-9.01731
aqq쎯iyt1쎯	-9.01768
sy쎯	-9.01813
cy쎯	-9.01868
tq쎯o쎯	-9.01912
yaa쎯cwg쎯	-9.02006
kn쎯	-9.02025
bn쎯j쎯	-9.02109
ugh쎯	-9.02122
sfc쎯	-9.02328
fmk쎯	-9.02379
wcy0쎯	-9.024
aib쎯lfnh쎯	-9.02412
quj쎯	-9.02475
bfw쎯	-9.02526
1쎯	-9.02663
apg쎯	-9.02671
yad쎯	-9.02674
nyi2쎯fghy1쎯	-9.02754
ajd0쎯	-9.02959
km쎯a쎯	-9.03007
pym쎯hid쎯	-9.03012
tgj쎯s쎯	-9.03042
dtf쎯	-9.03046
xv쎯qc쎯	-9.03083
b	-9.03282
fpx쎯	-9.03283
xxr쎯	-9.03407
tkgg1쎯	-9.03517
bt쎯	-9.0354
jb쎯ym쎯	-9.03597
qtj쎯	-9.03756
w쎯od쎯	-9.03761
rlg0쎯	-9.03833
waw쎯	-9.0384
dwt쎯	-9.03844
ux쎯yiu0쎯ymhj0쎯	-9.03849
lpk0쎯ruv쎯	-9.03857
tx쎯	-9.03892
lud쎯	-9.03926
sm쎯ud쎯	-9.03984
ebn0쎯	-9.03985
mhny1쎯	-9.04011
uk쎯uyh쎯	-9.04093
쎁eee0쎯	-9.04117
utd쎯ugm쎯	-9.04139
peg쎯	-9.04169
sf쎯vii쎯ntk쎯gf쎯	-9.04228
yo쎯wx쎯	-9.04523
eg쎯	-9.0462
afl쎯	-9.04654
ge쎯fi쎯	-9.04657
io쎯	-9.04668
쎁.	-9.04693
fp쎯tkgg1쎯	-9.04733
wj쎯xvk쎯	-9.04935
ffi쎯	-9.04958
qtfj0쎯	-9.0497
itd쎯	-9.05044
h쎯itx쎯ymhj0쎯	-9.05142
hao쎯	-9.05146
쎂쎀쎀쎈rh쎯	-9.05152
fkuk2쎯	-9.05185
uqwk0쎯yqj쎯	-9.0534
r쎯v쎯nae0쎯	-9.05456
,ww쎯	-9.05493
gd쎯ivfh1쎯	-9.05591
fcu0쎯fm쎯ith쎯	-9.058
emc쎯	-9.05818
pyg쎯vfhp1쎯	-9.05885
qn쎯ufy쎯	-9.0595
eyni쎯	-9.0606
nh쎯ty쎯	-9.06062
fyv쎯	-9.06087
tkw쎯se쎯	-9.06114
tgh쎯	-9.06132
euk쎯	-9.06241
dt쎯egl쎯	-9.06332
kr쎯	-9.06381
ud쎯gf쎯	-9.06452
ca쎯	-9.06458
pp쎯g쎯,	-9.06473
쎂eee0쎯	-9.06476
udb쎯	-9.06502
ijl쎯ya쎯	-9.0668
pgj쎯	-9.06739
ytf쎯qq쎯	-9.06822
aig쎯	-9.06933
oat쎯	-9.06999
tfq쎯rg쎯	-9.07044
gm쎯wtf쎯	-9.07075
ovt쎯ip쎯	-9.07111
xu쎯	-9.07161
y쎯rf쎯	-9.07194
ryn1쎯	-9.0739
lpk0쎯xfn쎯	-9.07427
wv쎯dmh0쎯	-9.07491
쎂쎇	-9.07643
fjfh1쎯	-9.07681
쎁쎁eee0쎯	-9.07798
lm쎯	-9.07822
,i쎯	-9.07885
wb쎯r쎯	-9.07928
pu쎯cwg쎯pgc쎯	-9.08033
,px쎯	-9.08201
rgf쎯	-9.08252
ajdf쎯	-9.08353
k쎯aw쎯	-9.08361
a쎯wt쎯,	-9.0846
igt쎯	-9.08601
gkih0쎯	-9.08776
wuk쎯	-9.08794
yfj0쎯	-9.08816
iy쎯mm쎯	-9.08964
imkf1쎯	-9.09123
inx쎯	-9.09176
ago쎯	-9.09228
um쎯kkk쎯	-9.09266
rs쎯tfkp0쎯	-9.09272
ipk쎯km쎯	-9.09301
oi쎯	-9.09488
ffff1쎯f쎯	-9.09492
uqwm1쎯qqqq1쎯	-9.0954
un쎯pg쎯	-9.09557
gxgu쎯	-9.09625
rvyl0쎯	-9.09667
o쎯b쎯	-9.09676
tfkp0쎯	-9.09685
ia쎯sghg1쎯	-9.09897
wv쎯klj쎯	-9.09907
khgm3쎯	-9.0996
wmj1쎯	-9.10029
wycm1쎯	-9.10155
gr쎯	-9.10206
l쎯pe쎯xe쎯	-9.10285
쎅쎀쎀	-9.10377
mm쎯	-9.10427
쎂쎀쎀쎉rh쎯	-9.10541
yv쎯vb쎯r쎯	-9.1059
adwe1쎯uj쎯	-9.10667
r쎯tgj쎯s쎯	-9.10688
rpw쎯	-9.107
ak쎯ftj쎯	-9.10742
ub쎯	-9.10786
uwl쎯	-9.10845
g쎯fhn쎯	-9.10945
yle쎯	-9.1105
fo쎯	-9.11062
fgh쎯wv쎯	-9.11135
uq쎯jqr쎯	-9.11145
trf0쎯tgh쎯	-9.11157
bqr쎯	-9.11158
btg쎯	-9.11198
dk쎯	-9.1123
tgj쎯yd쎯	-9.11254
gjh2쎯	-9.11444
jlc쎯	-9.11478
fu쎯lk쎯	-9.11487
쎂쎀쎀쎀	-9.11535
trf0쎯klj쎯	-9.11536
jvko0쎯	-9.11607
wkh0쎯fj쎯	-9.11628
rnr쎯	-9.11879
mp쎯	-9.11896
,ccc쎯	-9.12
etj쎯	-9.12006
fwm쎯aib쎯	-9.12126
ovt쎯pb쎯	-9.1221
jo쎯fi쎯	-9.12221
ipw쎯fkh쎯	-9.12483
wtf쎯tl쎯	-9.12551
im쎯	-9.12573
v쎯tf쎯	-9.12611
쎃쎀쎀	-9.12794
fd쎯aq쎯	-9.12826
pfqf쎯	-9.12832
vtk쎯www쎯	-9.13017
fwm쎯saj0쎯	-9.13136
sfg쎯	-9.13142
rwyg0쎯	-9.13169
es쎯	-9.13242
pv쎯tmgt3쎯ith쎯	-9.13293
dg쎯wh쎯	-9.1336
yt쎯ty쎯	-9.13391
fpm쎯	-9.13397
ian1쎯	-9.134
yygt쎯itp쎯	-9.13418
qyv쎯jqr쎯	-9.1345
sss쎯	-9.13497
ftjo1쎯	-9.13593
rrr쎯qc쎯	-9.13748
yssd0쎯	-9.13803
ju쎯	-9.1402
tuu0쎯	-9.14078
wwx쎯	-9.14088
ide쎯ux쎯ith쎯	-9.14253
fhc쎯	-9.14289
jo쎯	-9.14317
wdn쎯rfm쎯	-9.14403
ifj쎯	-9.14413
pu쎯khg0쎯	-9.14482
tf쎯o쎯	-9.14553
yk쎯xan쎯	-9.1456
syg쎯	-9.14598
vaf쎯wsg0쎯	-9.14684
fcp쎯lwg쎯	-9.14785
dgj쎯	-9.1479
gkih0쎯wh쎯	-9.14809
e쎯uqt쎯	-9.14907
,k쎯l쎯	-9.14913
fuj쎯	-9.14923
an쎯xn쎯	-9.15018
tr쎯rfm쎯	-9.15035
wbj쎯vfhp1쎯	-9.15174
wwj쎯st쎯	-9.15202
wnh쎯	-9.1521
쎂쎀쎀쎆rh쎯	-9.15355
bgk쎯	-9.1538
tqv쎯pg쎯	-9.15407
hka쎯qv쎯	-9.15524
wa쎯gj쎯	-9.15539
ggi쎯wk쎯	-9.15608
yta쎯	-9.15613
nge쎯ukq쎯	-9.15644
rt쎯sm쎯	-9.15728
qkd쎯	-9.1573
uce쎯	-9.15772
fcu0쎯fm쎯	-9.15776
o쎯y쎯	-9.15796
쎂쎀쎀쎇rh쎯	-9.15895
wx쎯a쎯	-9.15936
yygt쎯dd쎯	-9.15989
gkip0쎯ya쎯	-9.16065
wbj쎯tfkp0쎯	-9.16099
nt쎯	-9.16128
pu쎯bf쎯	-9.16168
mmq쎯	-9.16199
bd쎯	-9.16201
쎂쎀쎁쎀rh쎯	-9.16276
nua쎯ajdh쎯	-9.16303
xyc쎯g쎯	-9.16319
tr쎯gj쎯	-9.1636
,gn쎯	-9.16387
tuj0쎯	-9.16406
and쎯	-9.16611
icf쎯	-9.16792
gah쎯ic쎯	-9.16803
쎂쎀쎀쎅rh쎯	-9.16808
iqn쎯	-9.16901
ymc쎯lfhf쎯	-9.1691
ah쎯	-9.16932
imj쎯	-9.16997
hka쎯ltk쎯	-9.17004
ge쎯gm쎯	-9.17021
ym쎯gkip0쎯	-9.17167
iyt1쎯	-9.17179
apl쎯	-9.17205
gip쎯e쎯	-9.17228
thd쎯mh쎯	-9.17265
rq쎯	-9.17274
ptkm1쎯	-9.1738
qev쎯un쎯	-9.17419
qf쎯	-9.17461
do쎯	-9.17464
ip쎯wug0쎯	-9.17673
epc쎯gc쎯	-9.17703
id쎯	-9.17785
fjh0쎯	-9.17797
aqq쎯	-9.17822
gmi쎯	-9.17825
vep쎯	-9.17857
dga쎯v쎯	-9.17868
fkuc3쎯	-9.1794
쎂쎉	-9.17976
iv쎯f쎯	-9.17997
f쎯th쎯	-9.18
ide쎯fm쎯ith쎯	-9.18017
uyiy0쎯	-9.18242
ftg쎯yaa쎯	-9.18283
da쎯dk쎯	-9.1842
rbcc쎯jyie쎯	-9.18467
dhc쎯	-9.18506
xo쎯	-9.18607
dmjf1쎯	-9.18649
xyna1쎯lkb쎯	-9.18672
oe쎯	-9.18698
yygt쎯fnrt쎯	-9.18701
nt쎯ed쎯	-9.18754
oo쎯	-9.18758
ytf쎯	-9.18758
wt쎯pe쎯	-9.18768
rr쎯	-9.18815
ifh0쎯	-9.18892
nnh쎯gl쎯	-9.18951
bd쎯rjg1쎯	-9.18983
nd쎯n쎯	-9.19086
wwf쎯	-9.19128
,m쎯jf쎯	-9.19165
n쎯uj쎯	-9.19191
쎁wh쎯	-9.19273
pp쎯rg쎯	-9.1928
wyna0쎯	-9.19286
bq쎯	-9.19384
xxf쎯og쎯	-9.19416
thd쎯ick쎯aq쎯	-9.19475
mmm쎯sghg1쎯	-9.19491
bwf쎯	-9.19548
vkgd쎯qi쎯	-9.196
pyg쎯vfhp1쎯ith쎯	-9.19611
ahn쎯	-9.19683
》《	-9.197
sqt쎯	-9.198
bc쎯tj쎯	-9.19883
gtu쎯	-9.19893
wxm쎯	-9.20056
pfjs쎯	-9.20077
ugv쎯	-9.20113
tffy0쎯	-9.20126
sym쎯ytyh쎯	-9.20157
fhv쎯fp쎯	-9.20162
o쎯g쎯wsg0쎯r쎯	-9.20219
fjfh1쎯l쎯	-9.20235
p	-9.20243
thp쎯	-9.20314
rc쎯yid쎯	-9.20345
yf쎯tha쎯	-9.2039
tr쎯iyc쎯	-9.20597
www쎯	-9.20669
f쎯rfm쎯	-9.20687
iugg0쎯	-9.20768
bgu쎯sghg1쎯	-9.20769
vk쎯wsk쎯	-9.21086
suq쎯lfq쎯	-9.21105
쎆쎀쎀	-9.21145
vtkb0쎯	-9.2115
tsh1쎯	-9.21163
apk쎯udyj쎯	-9.21181
tmdf1쎯	-9.21192
usr쎯xfg0쎯	-9.21318
ldd0쎯	-9.21364
tx쎯lh쎯	-9.21365
jcm쎯	-9.21399
》j쎯	-9.214
fge쎯tr쎯qnp쎯	-9.21442
iagw쎯khu쎯	-9.21495
쎂쎀쎀쎄rh쎯	-9.21524
ukd1쎯	-9.216
tuk쎯	-9.21666
ym쎯k쎯	-9.21675
so쎯	-9.21683
sksw쎯ma쎯	-9.21782
ybf0쎯epc쎯	-9.21978
》.	-9.2211
wn쎯	-9.22263
qnth쎯	-9.22351
bm쎯tg쎯	-9.22438
dgh쎯wa쎯	-9.22441
fcp쎯et쎯	-9.22476
udy쎯dyn쎯	-9.22487
쎇eee0쎯	-9.22581
nh쎯adnt1쎯	-9.22645
ieb쎯	-9.22678
cbd쎯	-9.22702
imj쎯yaa쎯	-9.22792
gae쎯qje쎯	-9.22834
mw쎯uk쎯	-9.22836
jcf쎯rf쎯	-9.22941
oyn쎯	-9.23018
ad쎯qqqq1쎯	-9.23156
rmc쎯	-9.23182
e쎯udh쎯	-9.23228
,rn쎯c쎯	-9.23318
eq쎯	-9.23319
,bn쎯	-9.23353
gcf쎯wynb0쎯	-9.23505
su쎯	-9.23527
mmm쎯aq쎯	-9.23583
ld쎯o쎯	-9.23646
iyj쎯	-9.23696
imj쎯jg쎯	-9.23865
쎃쎈	-9.23939
tkgg1쎯ya쎯	-9.23975
tkw쎯	-9.24025
go쎯thd쎯	-9.24039
rpv쎯jvko0쎯	-9.24042
wf쎯yf쎯	-9.241
mqj쎯	-9.24108
wqin쎯	-9.24159
god쎯	-9.24168
qrm쎯	-9.24214
adw쎯px쎯	-9.24334
fmy0쎯	-9.24381
yygt쎯rtol0쎯	-9.24403
sff1쎯	-9.24487
my쎯	-9.24499
xeg0쎯wgk쎯	-9.24566
vck쎯	-9.2468
쎃쎁	-9.24709
b쎯qev쎯	-9.24739
wdn쎯rvyl0쎯	-9.24763
sj쎯	-9.24795
=	-9.24825
tg쎯,	-9.24855
ytm쎯	-9.24992
yge쎯	-9.25038
rj쎯bm쎯	-9.25038
wk쎯rf쎯	-9.25056
egc쎯fd쎯	-9.25057
tdn쎯	-9.25123
wnnp0쎯fiy쎯	-9.2517
naw쎯	-9.25218
i쎯m쎯r쎯	-9.25278
au쎯	-9.25345
qm쎯	-9.25476
tdt쎯	-9.25514
쎂쎀쎀쎀rh쎯	-9.25525
tdkj0쎯ce쎯	-9.25528
hwb쎯	-9.2557
cep쎯wy쎯	-9.25574
yvcb0쎯	-9.25644
dd쎯ih쎯	-9.25758
ymf쎯sj쎯	-9.25781
aft쎯	-9.25923
khn쎯	-9.2596
qk쎯tq쎯	-9.2596
ufy쎯lfhf쎯	-9.2598
rmhj쎯kkk쎯	-9.25996
wug0쎯lfhf쎯	-9.26081
>	-9.26134
kjj쎯	-9.26195
dga쎯pwv쎯bpf쎯	-9.26208
abu쎯	-9.26245
rnd1쎯	-9.2625
drt쎯	-9.26299
nhy쎯	-9.26489
uqt쎯	-9.26548
qq쎯wh쎯	-9.26604
isk쎯ux쎯ith쎯	-9.26635
wfk쎯	-9.2664
쎄쎈	-9.26686
db쎯ukd1쎯	-9.26752
usg쎯	-9.26794
yssc0쎯	-9.26823
fwm쎯pg쎯	-9.26921
ym쎯suq쎯	-9.26955
k쎯yygy쎯	-9.2708
yfn쎯ftj쎯	-9.27144
nf쎯ipg쎯	-9.27234
jn쎯lt쎯	-9.27278
vx쎯	-9.27298
wksf쎯	-9.27325
쎃쎄	-9.27391
tvr쎯	-9.27516
qg	-9.27562
sghg1쎯pv쎯	-9.27604
,c쎯ey쎯	-9.27631
afd1쎯	-9.27676
swb쎯	-9.27676
dh쎯pgk쎯	-9.27717
tb쎯	-9.27751
ipm쎯	-9.27753
fdm쎯fiy쎯	-9.27754
bu쎯txi쎯	-9.27756
,gmf쎯	-9.27784
ral쎯syp쎯	-9.27794
ipkr쎯	-9.27878
trf0쎯hko쎯	-9.28006
xx쎯pfjm1쎯	-9.28157
dr쎯ou쎯	-9.28196
rj쎯tak쎯	-9.2826
yygy쎯anb0쎯	-9.28267
rrk쎯ip쎯	-9.28333
ygu쎯	-9.2834
pl쎯gk쎯	-9.28401
aps쎯aqt쎯	-9.2846
mhkg2쎯	-9.28502
쎂쎀쎀쎃rh쎯	-9.28576
aqu0쎯	-9.287
fp쎯tkgg1쎯k쎯	-9.28705
bk쎯a쎯	-9.28755
aft쎯wt쎯	-9.28809
,dty0쎯	-9.28848
xwy0쎯ryn1쎯	-9.28857
ufy쎯tlf0쎯	-9.28877
lk쎯xk쎯	-9.28916
v쎯dmh0쎯	-9.28974
jb쎯wffg쎯	-9.28982
ysi쎯	-9.29
ypm쎯	-9.29029
k쎯l쎯aw쎯u쎯ipk쎯	-9.29099
itf쎯	-9.29234
fuj쎯mw쎯	-9.293
uk쎯bw쎯	-9.29314
gqje0쎯	-9.29371
ftj쎯,	-9.2938
ime쎯	-9.29384
rb쎯tfkf0쎯	-9.29449
wtf쎯wsk쎯	-9.29482
dn쎯ftjb쎯	-9.29613
ll쎯,	-9.29616
eb쎯ufy쎯	-9.29665
lwg쎯ty쎯	-9.29712
tux쎯	-9.2975
lfnh쎯	-9.29765
mw쎯apg쎯dgh쎯	-9.29853
ghc쎯gyb쎯	-9.29862
vs쎯fn쎯	-9.29871
g쎯rh쎯	-9.29901
gqg0쎯	-9.29901
fhh쎯	-9.29978
dn쎯js쎯	-9.3002
tqq쎯fcl쎯	-9.3002
,rg쎯	-9.30022
r쎯dga쎯pwv쎯	-9.30052
qkm쎯	-9.30153
.gm쎯wtf쎯	-9.30187
iie쎯xjm쎯ftj쎯	-9.30262
쎃쎇	-9.30299
od쎯gajf0쎯:	-9.30325
op쎯	-9.3052
bw쎯wgg1쎯	-9.30696
쎄쎀쎀	-9.30709
ijo쎯	-9.308
dd쎯jg쎯	-9.30807
lw쎯wc쎯	-9.3085
zzbd3쎯k쎯l쎯	-9.30985
fwyc2쎯	-9.31053
sghg1쎯uk쎯	-9.31114
qv쎯	-9.31149
vtg쎯	-9.31229
imk쎯	-9.31249
ai쎯yy쎯	-9.31276
tfp쎯	-9.31379
bm쎯kkkk1쎯	-9.31431
oa쎯	-9.31462
’	-9.31542
,et쎯	-9.31548
tu쎯rfc쎯fj쎯hi쎯	-9.31564
쎆쎄	-9.3165
쎇쎅	-9.31658
iv쎯wa쎯	-9.31674
'	-9.31676
aca쎯	-9.31769
kw쎯e쎯	-9.31789
y쎯wtf쎯	-9.31832
qh쎯tu쎯	-9.31989
kh	-9.32074
쎁쎉쎉쎆rh쎯	-9.32091
tgj쎯dd쎯	-9.32098
xyc쎯yf쎯	-9.32099
ttd쎯	-9.32259
pyu쎯	-9.32285
,bn쎯j쎯	-9.32359
e쎯sm쎯	-9.32368
saj0쎯	-9.32415
fiyt쎯	-9.32459
ipg쎯bm쎯	-9.32462
ujn쎯dd쎯tjh쎯	-9.32463
,y쎯s쎯	-9.32467
(wynb0쎯	-9.32469
tca쎯	-9.32726
fkhk쎯	-9.32731
c쎯go쎯	-9.32817
gyg0쎯	-9.32939
pu쎯et쎯	-9.32951
vcb쎯sk쎯	-9.33018
쎂쎀쎀쎂rh쎯	-9.33068
alp쎯	-9.33094
nny1쎯	-9.33184
wqu쎯	-9.33467
ke쎯	-9.33535
fgh쎯fg쎯	-9.33553
g쎯ts쎯	-9.33731
ycf쎯	-9.3384
tey0쎯	-9.34127
udg2쎯	-9.34353
tdp쎯wgk쎯	-9.34435
di쎯	-9.3445
dfy쎯lt쎯	-9.34563
mhg쎯	-9.34636
쎃쎃	-9.3469
wy쎯kgn쎯	-9.34702
wnt쎯	-9.34723
.px쎯	-9.34831
alf0쎯	-9.34837
enr쎯	-9.34859
ih쎯aq쎯	-9.34865
fii쎯go쎯	-9.34888
uthp0쎯kht쎯	-9.34973
pwd쎯bm쎯	-9.34984
dwf쎯	-9.35002
wny1쎯	-9.35009
vcl쎯lt쎯	-9.35049
,puhc쎯	-9.35057
tep쎯	-9.35093
vvv쎯ntg쎯	-9.35153
dn쎯ta쎯	-9.35264
rrg1쎯rbcc쎯	-9.35306
itx쎯rdc쎯	-9.35393
gogn0쎯	-9.35431
gip쎯j쎯	-9.35441
wnnp0쎯	-9.35467
dhb쎯d쎯	-9.35476
qkq쎯xjm쎯	-9.35613
ih쎯jf쎯	-9.35618
ip쎯ftj쎯	-9.35624
g쎯av쎯	-9.35689
aft쎯qk쎯r쎯	-9.35755
pwat0쎯	-9.35811
qq쎯rh쎯	-9.35872
pyj쎯x쎯	-9.35884
,hw쎯e쎯	-9.35931
i쎯j쎯	-9.35963
a쎯tkgg1쎯jgm쎯	-9.36011
i쎯sk쎯	-9.36018
쎁쎉쎉쎇rh쎯	-9.36147
tha쎯	-9.36234
:쎁	-9.36238
ybb쎯	-9.36238
sk쎯ce쎯	-9.36261
atd쎯ip쎯bpf쎯	-9.36273
ws쎯usi1쎯	-9.36296
3쎯	-9.36388
uygh1쎯	-9.36469
nua쎯	-9.36521
xtu쎯	-9.36527
ek쎯uqyl쎯	-9.36528
y쎯yam쎯	-9.36547
쎁쎀쎀쎀	-9.36551
ytfp0쎯	-9.36562
uqi0쎯	-9.36596
fku쎯cqw쎯	-9.36728
gx쎯bu쎯mqq쎯	-9.36775
aqky1쎯	-9.3679
rfc쎯ce쎯	-9.368
tdp쎯et쎯gf쎯	-9.36809
쎁쎉쎉쎅rh쎯	-9.36843
);	-9.36854
gm쎯d쎯	-9.36856
gd쎯qd쎯	-9.36866
쎆쎅	-9.3695
falw쎯	-9.36962
aib쎯	-9.36971
we쎯	-9.36985
cd쎯lk쎯a쎯wt쎯,	-9.36986
o쎯“	-9.36987
ngc쎯	-9.36996
uqv쎯	-9.37032
sm쎯fnrt쎯	-9.37049
www쎯qq쎯	-9.37054
vfhp1쎯dn쎯	-9.37135
wwkw0쎯	-9.37149
mnm쎯	-9.37166
쎁쎉쎉쎈rh쎯	-9.3724
xh쎯fj쎯	-9.37314
vca쎯	-9.37372
쎄쎂	-9.37446
qvn0쎯	-9.37451
amd쎯yygy쎯	-9.37491
qc쎯ese쎯	-9.37613
gu쎯fqu쎯	-9.37785
hn쎯	-9.37825
jn쎯ytd쎯	-9.37865
ftb쎯	-9.3799
wvf0쎯	-9.381
igey0쎯	-9.38176
yy쎯pvs쎯	-9.38266
ffuk쎯	-9.38284
qdm쎯	-9.38285
쎁쎉쎉쎀rh쎯	-9.38362
ydn쎯	-9.38393
쎁쎉쎉쎂rh쎯	-9.38409
ipg쎯	-9.38412
fcp쎯apk쎯	-9.38427
x쎯cwg쎯	-9.38464
wk쎯buj쎯	-9.38475
wyq쎯kkd쎯	-9.3849
wys쎯k쎯	-9.38494
ltu0쎯nnh쎯	-9.38514
xln0쎯qt쎯lfq쎯	-9.38562
r쎯y쎯s쎯	-9.38636
pj쎯	-9.38699
gkih0쎯wsg0쎯	-9.38702
ggw쎯	-9.38734
yc쎯	-9.38885
tdaf0쎯	-9.38896
qk쎯.	-9.38918
ruv쎯epc쎯	-9.38945
vck쎯vfhp1쎯gf쎯	-9.39033
ngj쎯	-9.39035
qdm쎯yneg0쎯	-9.39067
ymhj0쎯ght쎯ywf쎯	-9.39113
gxi쎯rfm쎯	-9.39152
wc쎯aw쎯	-9.39182
ab쎯hhhh쎯	-9.39269
yoo쎯	-9.39397
cep쎯ipkh1쎯	-9.39426
etn쎯	-9.39471
xwy0쎯wht쎯	-9.39557
쎅쎅	-9.39587
rdfh0쎯	-9.39685
hh쎯	-9.397
tg쎯wgkb0쎯	-9.39703
쎈쎀쎀	-9.39732
usr쎯r쎯	-9.39741
yxu쎯	-9.39874
atd쎯ax쎯	-9.39879
fj쎯tf쎯b쎯	-9.39933
dn쎯uu쎯gf쎯	-9.39956
gma쎯	-9.3996
sh쎯cf쎯	-9.40002
gk쎯wrh1쎯	-9.4004
rcy1쎯	-9.40093
ed쎯	-9.40169
fnud쎯	-9.40186
gm쎯wa쎯wx쎯	-9.40189
0쎯	-9.40204
oq쎯	-9.40212
gd쎯gh쎯	-9.40241
sw쎯cwg쎯	-9.40335
c쎯gh쎯	-9.4037
ai쎯fm쎯	-9.40707
amd쎯fghy1쎯	-9.40778
gh쎯,	-9.40821
nyiy0쎯	-9.40841
trf0쎯gqr쎯	-9.40846
rdf0쎯	-9.40944
ivfh1쎯	-9.40971
wg쎯ymhj0쎯	-9.40997
xtf쎯xwy0쎯	-9.41036
ic쎯ytt쎯	-9.4105
쎂쎀쎀쎁rh쎯	-9.41146
j쎯d쎯	-9.41188
ujqu쎯	-9.41189
y쎯jghm1쎯	-9.41206
cf쎯qje쎯	-9.41243
ipw쎯fkh쎯ymhj0쎯	-9.41249
쎁쎉쎉쎉rh쎯	-9.41253
ym쎯tffu쎯	-9.41402
wk쎯ygh쎯	-9.41413
ymf쎯gkih0쎯	-9.41463
wv쎯bb쎯	-9.41468
tv쎯gkl쎯nnh쎯yn쎯	-9.41532
ulg쎯	-9.41538
kkhn쎯ftj쎯	-9.41546
.y쎯s쎯	-9.41617
bwj쎯wdm쎯	-9.41624
dn쎯sg쎯	-9.41627
jhng0쎯	-9.4164
ssn쎯	-9.41657
waye쎯	-9.41663
ipg쎯km쎯	-9.41681
lwg쎯bm쎯	-9.41689
iie쎯	-9.41724
tfkd쎯	-9.41748
ge쎯ipg쎯	-9.41765
ccc쎯tq쎯	-9.41766
tuj0쎯ujfj0쎯	-9.41815
rpws쎯	-9.41827
x쎯maw쎯	-9.41858
y쎯yq쎯	-9.41889
gfq쎯	-9.41893
.“	-9.41926
lfo쎯qc쎯	-9.4194
ia쎯sghg1쎯ith쎯	-9.41963
kfa쎯	-9.41967
tve쎯qq쎯	-9.41978
yygy쎯pb쎯	-9.42
쎁쎉쎉쎃rh쎯	-9.42008
dgkn0쎯ivs쎯	-9.42027
toln1쎯	-9.4224
gjq쎯lk쎯	-9.42281
jb쎯rg쎯	-9.42313
nfp쎯gkip0쎯	-9.42443
fny0쎯et쎯	-9.42478
afs쎯	-9.42487
쎂쎀쎁쎂rh쎯	-9.42493
tlf0쎯	-9.42509
tqq쎯	-9.42563
fm쎯uk쎯	-9.42653
uag1쎯	-9.42683
pdc쎯	-9.42874
uqwm1쎯	-9.42954
siq쎯	-9.43059
ghd1쎯ipkh1쎯	-9.43096
aw쎯e쎯	-9.43192
lpdk1쎯	-9.43313
pfqf쎯pl쎯	-9.43372
yyq쎯	-9.43382
jc쎯	-9.43409
쎂wh쎯	-9.43448
y쎯xyna1쎯	-9.43485
nae0쎯fi쎯	-9.43494
cf쎯gf쎯	-9.43727
tey0쎯pw쎯	-9.43796
itx쎯iu쎯	-9.43806
rtf쎯	-9.43808
ay쎯	-9.43832
ytyh쎯ymhj0쎯	-9.43842
,ld쎯hx쎯	-9.43862
mmm쎯sghg1쎯ith쎯	-9.43913
rj쎯waw쎯b쎯	-9.43942
ipkr쎯rng2쎯	-9.43942
r쎯w쎯	-9.43955
oge쎯kkk쎯	-9.43985
,dn쎯o쎯	-9.44047
tgm쎯aj쎯	-9.44057
mf쎯	-9.44081
쎄쎃	-9.44091
,ll쎯,ic쎯ytt쎯,	-9.44094
wdy1쎯	-9.44112
nu쎯	-9.442
fl쎯	-9.44267
sft쎯	-9.44274
esv쎯	-9.44312
ef쎯	-9.44336
쎂쎀쎁쎁rh쎯	-9.44354
ymc쎯yf쎯zzbd3쎯	-9.44355
ypeu쎯	-9.44439
dga쎯	-9.44454
ymf쎯ab쎯	-9.44609
j쎯k쎯l쎯	-9.44658
wbj쎯og쎯	-9.4469
tfq쎯fj쎯r쎯	-9.44755
tmd쎯wsg0쎯	-9.44802
tfhy쎯	-9.44833
,sk쎯c쎯	-9.44981
dcg쎯	-9.45117
gj쎯wynn3쎯	-9.45148
tg쎯ta쎯	-9.45221
nla쎯	-9.45273
rtol0쎯	-9.45293
ubtf0쎯ou쎯	-9.45312
《k쎯l쎯	-9.45455
thl쎯	-9.45496
srg쎯	-9.45501
rffg0쎯	-9.45602
rymn쎯jjjj0쎯	-9.45609
sw쎯sj쎯	-9.45637
jtyq1쎯pg쎯	-9.45686
fj쎯g쎯hi쎯	-9.45694
maw쎯	-9.45696
tie쎯	-9.45731
iv쎯jf쎯	-9.45763
wg쎯sf쎯	-9.45799
<	-9.45808
fl쎯ymf쎯	-9.4595
cccs3쎯	-9.46003
wc쎯jfd쎯	-9.46014
wk쎯bwg쎯	-9.46014
qq쎯uqw쎯	-9.46111
pfq쎯uduk0쎯	-9.46129
rmhj쎯pg쎯	-9.46274
utem1쎯qc쎯	-9.46313
f쎯fdf1쎯	-9.46382
kqy쎯	-9.46386
xww쎯	-9.46449
,qn쎯rtd쎯	-9.46475
cd쎯ftg쎯	-9.46481
gog쎯iyt1쎯	-9.46516
h쎯,	-9.46579
bm쎯tg쎯,	-9.46591
r쎯fny0쎯og쎯	-9.46634
stt쎯ugl쎯	-9.46724
f쎯gh쎯	-9.46744
du쎯	-9.4683
쎁쎉쎉쎁rh쎯	-9.46858
gcg쎯	-9.46862
ynty0쎯	-9.46882
쎄쎄	-9.46983
yygy쎯ujj쎯	-9.46996
yn쎯vi쎯	-9.4706
」	-9.47065
ygu쎯wwj쎯	-9.47108
rgd0쎯	-9.47236
gkl쎯y쎯wtf쎯	-9.47249
tcy0쎯	-9.47287
쎁쎉쎈쎉rh쎯	-9.47288
wtr쎯lq쎯adwr0쎯	-9.47292
dh쎯pgk쎯r쎯	-9.47307
ufk0쎯qv쎯	-9.47325
yvc쎯	-9.47342
tdp쎯yid쎯	-9.47413
tgjn2쎯	-9.47448
dtb쎯	-9.47494
xln0쎯	-9.47516
rt쎯sy쎯	-9.47569
,yh쎯	-9.47705
vfhp1쎯uu쎯b쎯	-9.47813
sq쎯dn쎯	-9.47822
ycb쎯	-9.47886
iie쎯xjm쎯	-9.47917
pr쎯	-9.47966
rgm쎯	-9.48036
uqwm1쎯st쎯	-9.48083
thd쎯fcl쎯wx쎯	-9.48092
sss쎯ss쎯	-9.48093
쎁쎉쎉쎄rh쎯	-9.48123
lw쎯gk쎯th쎯	-9.4815
쎁.쎅	-9.48216
pu쎯lt쎯	-9.48217
le쎯	-9.48243
trf0쎯ntg쎯	-9.48281
nd쎯wygg쎯	-9.48324
rvk쎯	-9.48391
,dmj1쎯eg쎯	-9.48404
iwf쎯lw쎯	-9.48428
aqrn1쎯	-9.48428
dmu1쎯	-9.4843
wynk쎯jg쎯	-9.48454
ijlc쎯gl쎯	-9.48474
tgj쎯yd쎯ymhj0쎯	-9.48489
ee쎯dc쎯	-9.48548
ux쎯uk쎯	-9.48594
ud쎯iy쎯	-9.48599
sf쎯n쎯	-9.48609
ytey0쎯	-9.48689
g쎯xe쎯	-9.48714
by쎯ick쎯	-9.4874
bgu쎯sghg1쎯ith쎯	-9.48809
dd쎯uthp0쎯	-9.48854
adwn4쎯	-9.48907
qkq쎯	-9.48909
fgu쎯	-9.48928
mpf쎯	-9.49043
at쎯	-9.49051
c쎯go쎯,	-9.49051
hw쎯wsg0쎯	-9.4907
dg쎯rh쎯	-9.49305
wg쎯egc쎯	-9.49333
vf쎯	-9.49343
pg쎯wug0쎯	-9.4935
uuk1쎯yfn쎯	-9.49384
wtuf1쎯	-9.49387
.ip쎯suq쎯	-9.49547
ax쎯tr쎯	-9.4959
nudu쎯	-9.49639
qgb쎯ya쎯	-9.49697
i쎯wcy0쎯	-9.49713
xf쎯js쎯	-9.49721
,reh쎯e쎯	-9.49788
jat쎯	-9.49791
쎃쎉	-9.49809
ytn쎯	-9.49812
xm쎯	-9.49848
qf쎯cf쎯	-9.49997
g쎯pg쎯	-9.50004
ywe쎯on쎯	-9.50042
guw쎯	-9.50064
ny쎯gj쎯	-9.50081
fwm쎯st쎯	-9.50097
wfh0쎯tc쎯	-9.5016
pp쎯uj쎯r쎯	-9.50172
jyie쎯pym쎯	-9.50179
「	-9.50195
bn쎯e쎯	-9.50236
wyp쎯	-9.50286
hc쎯efw쎯	-9.50291
td쎯qk쎯	-9.50337
wv쎯qkhh1쎯	-9.50368
쎄쎆	-9.50396
ugdu쎯pww쎯	-9.5043
waj0쎯	-9.50447
ovt쎯jg쎯	-9.50492
hid쎯	-9.5059
gb쎯	-9.50597
t쎯yxxr1쎯	-9.50601
kc쎯	-9.5063
tdp쎯jg쎯	-9.50711
khgp0쎯fhg1쎯	-9.50719
xa쎯qc쎯	-9.50732
fcl쎯gl쎯	-9.50784
rqc쎯	-9.50794
qgb쎯nmh쎯	-9.50797
aqk쎯	-9.50809
fg쎯fgh쎯	-9.5081
am쎯	-9.50856
lqy쎯	-9.50893
nty0쎯yo쎯	-9.50904
tf쎯ght쎯sf쎯	-9.50916
pgf1쎯	-9.50939
qge쎯	-9.50962
ffc쎯	-9.51036
akgl쎯	-9.51043
yce쎯	-9.51062
,ld쎯	-9.51088
gkm쎯	-9.51119
xo쎯xfn쎯	-9.51168
,cep쎯fp쎯	-9.51169
mfk쎯lp쎯	-9.51192
dgtg0쎯img쎯	-9.51215
wv쎯od쎯	-9.51239
mfky쎯	-9.5124
kk쎯	-9.51244
cep쎯ynf쎯	-9.5129
qk쎯,	-9.51412
fof쎯	-9.51438
gfq쎯pe쎯	-9.51508
쎉쎈	-9.51521
ipmq쎯	-9.51523
rep쎯	-9.51641
ishg쎯	-9.51709
-쎁	-9.51782
wbj쎯vfhp1쎯gf쎯	-9.51929
awx쎯lfq쎯	-9.52029
rmn0쎯	-9.52085
xan쎯	-9.52137
egm쎯	-9.52143
w쎯fghg쎯	-9.52191
d쎯k쎯l쎯	-9.52196
bv쎯	-9.52225
qaj0쎯	-9.52231
ujff쎯	-9.5226
cd쎯ovt쎯	-9.52281
fg쎯tffu쎯uqd2쎯	-9.52288
쎄쎇	-9.52291
xh쎯fhn쎯	-9.52373
ykw쎯	-9.52377
fcl쎯lt쎯	-9.52458
adwe1쎯fjh0쎯	-9.52478
gmu1쎯wtf쎯	-9.5249
bt쎯wqa쎯	-9.52493
ym쎯gkip0쎯wc쎯kht쎯	-9.52807
fdm쎯	-9.52888
khgp0쎯	-9.52928
st쎯aa쎯	-9.52984
blf0쎯	-9.53012
qtj쎯trf0쎯r쎯	-9.53016
쎁쎉쎈쎂rh쎯	-9.53029
gkih0쎯wgk쎯	-9.53106
afff2쎯	-9.53162
yssr0쎯	-9.53168
bynw0쎯bb쎯	-9.53185
,yynw1쎯	-9.53208
w쎯tg쎯	-9.53225
nty0쎯uduk0쎯	-9.53253
sfh쎯	-9.53297
gm쎯qje쎯	-9.53331
xyna1쎯rmhj쎯	-9.5336
wk쎯wvf0쎯	-9.53368
ltu0쎯nnh쎯qnp쎯	-9.53368
dfny1쎯	-9.53399
,p쎯	-9.53414
kwyg0쎯g쎯	-9.53439
ftbt쎯yce쎯uk쎯	-9.53442
fhn쎯go쎯	-9.53444
e쎯bv쎯wc쎯ngk쎯j쎯	-9.53652
ipq쎯	-9.53657
epi쎯il쎯	-9.53662
tfkp0쎯gajf0쎯	-9.53668
tffu쎯f쎯	-9.53684
yuo쎯	-9.53685
srm쎯	-9.53788
qjq쎯	-9.53879
ipk쎯tv쎯nnh쎯yn쎯	-9.539
thn쎯	-9.53948
ipw쎯ty쎯	-9.54059
rrg1쎯	-9.5407
dqe쎯pg쎯	-9.54139
.mh쎯gf쎯	-9.54147
egl쎯	-9.54174
dyw쎯	-9.54199
,kha쎯	-9.54203
qkk쎯	-9.5421
iya쎯	-9.5423
쎅쎂	-9.54301
sfiu1쎯	-9.54325
dr쎯gj쎯	-9.54513
twf쎯wgk쎯	-9.5455
pd쎯	-9.54556
쎁쎅쎀	-9.546
ndo쎯tjt쎯	-9.54652
쎅-	-9.54664
ftjb쎯e쎯	-9.54699
tu쎯ip쎯rfc쎯sy쎯	-9.54699
wh쎯sf쎯n쎯ih쎯xeg0쎯	-9.54731
vyi0쎯	-9.54738
tduh0쎯	-9.54746
cbts1쎯	-9.54804
(),	-9.54808
sg쎯tu쎯	-9.5483
ai쎯sghg1쎯	-9.54836
vgk쎯	-9.54844
ygh쎯nnh쎯	-9.54859
sgn쎯lfhf쎯	-9.55007
jy쎯cm쎯	-9.55024
utk쎯	-9.55081
wbj쎯lw쎯	-9.55114
,wtf쎯	-9.55149
dd쎯pe쎯	-9.55157
aqb0쎯	-9.55226
je쎯jo쎯	-9.55289
tdij0쎯	-9.55333
x쎯ipkh1쎯	-9.55339
sai쎯	-9.55391
upy쎯	-9.55438
oh쎯	-9.55484
alw쎯ytyh쎯	-9.55496
ftx쎯jgm쎯	-9.55504
fny0쎯uyh쎯	-9.55522
ntg쎯r쎯	-9.55591
sm쎯zzbd3쎯	-9.55604
eb쎯tl쎯.	-9.5561
쎁쎉쎈쎅rh쎯	-9.55612
ke쎯nh쎯	-9.55641
rwyg0쎯fj쎯	-9.55643
c쎯“	-9.55702
xp쎯wgk쎯ntg쎯	-9.55718
ssf쎯	-9.55826
mdfj쎯	-9.5597
rx쎯uwy0쎯	-9.55976
lt쎯jg쎯	-9.56004
xfn쎯	-9.56014
gef쎯qynm1쎯	-9.56071
ijx쎯	-9.5612
udg2쎯it쎯	-9.56183
.sg쎯	-9.56215
ihi쎯ey쎯	-9.56226
iy쎯ujn쎯	-9.5627
rlg0쎯khev0쎯	-9.5628
e쎯bv쎯gmu1쎯wtf쎯	-9.56303
ldd0쎯pg쎯	-9.56311
uwa쎯	-9.56349
,txg쎯	-9.56485
쎄wh쎯	-9.56491
rnn0쎯	-9.56569
ynj쎯	-9.56658
nnl쎯	-9.56743
trh0쎯	-9.56777
dn쎯xgm쎯	-9.56793
ym쎯ya쎯	-9.5684
w쎯gk쎯	-9.56843
jn쎯bb쎯um쎯tl쎯	-9.56968
yff쎯w쎯	-9.56993
.hx쎯	-9.57114
sf쎯wug0쎯gf쎯	-9.57131
dn쎯ybv0쎯	-9.57147
쎅쎆	-9.57172
txg쎯rh쎯	-9.57209
mf쎯tl쎯	-9.57225
zzsx6쎯	-9.57277
vvv쎯bb쎯	-9.57325
aup쎯	-9.57441
ip쎯dl쎯	-9.57472
yygy쎯tr쎯	-9.57473
쎃wh쎯	-9.57546
wyv쎯et쎯	-9.57555
,qd쎯rg쎯	-9.57593
gbnm1쎯	-9.57694
tn쎯	-9.57723
rmc쎯ty쎯	-9.57764
rtol0쎯yt쎯	-9.5779
hw쎯tlf0쎯	-9.57827
ydn쎯wy쎯	-9.5783
j쎯g쎯pe쎯	-9.5788
anh쎯ae쎯	-9.57993
vk쎯js쎯	-9.58012
rxj쎯rpl쎯	-9.58023
bp쎯ps쎯ith쎯	-9.58035
쎁쎉쎈쎈rh쎯	-9.58042
jtyl쎯	-9.58097
av쎯dn쎯	-9.58142
,mj쎯	-9.58161
쎆쎆	-9.58299
gae쎯dyn쎯	-9.5839
yc쎯wv쎯	-9.58422
-쎂	-9.58422
l쎯tl쎯bpf쎯	-9.58433
jm쎯	-9.58439
,ww쎯dmj1쎯	-9.5847
fq쎯if쎯	-9.5854
wynn3쎯	-9.58544
》k쎯	-9.58551
ldj쎯	-9.58577
sw쎯	-9.58589
uwy0쎯	-9.58595
toln1쎯ycf쎯	-9.58624
khgm3쎯ytyh쎯	-9.58669
pw쎯rnb쎯	-9.5867
khv쎯	-9.58679
txg쎯wh쎯	-9.58725
l쎯qh쎯	-9.58731
wgk쎯dn쎯	-9.58745
쎅쎈	-9.58752
쎁쎉쎈쎄rh쎯	-9.58754
dd쎯jgm쎯	-9.58787
qq쎯vaf쎯wsg0쎯	-9.58802
qlp쎯	-9.58854
awb쎯	-9.58877
ym쎯usr쎯rfc쎯sy쎯	-9.58909
k쎯uk쎯	-9.58985
fny0쎯og쎯r쎯	-9.58989
p쎯su쎯	-9.59015
hnd쎯	-9.59023
pwr쎯	-9.59058
trt쎯	-9.59119
m쎯fn쎯	-9.59246
qtdn1쎯	-9.59266
pwdj쎯	-9.59393
ghd1쎯d쎯	-9.59397
mfk쎯lfnh쎯	-9.59479
sksw쎯rt쎯	-9.59538
fny0쎯lkb쎯	-9.59541
fqb0쎯gxi쎯	-9.59631
dd쎯pfjm1쎯	-9.59758
am쎯fmud쎯	-9.59791
grd쎯	-9.59807
nc쎯	-9.59813
jpx쎯	-9.59821
ufy쎯wht쎯	-9.59852
ywx쎯ffc쎯	-9.59864
drin0쎯	-9.59914
w쎯wsg0쎯	-9.60001
hid쎯yx쎯	-9.60031
sks쎯	-9.60039
pwy쎯	-9.60056
f쎯gj쎯	-9.60071
jghy0쎯	-9.60083
iff1쎯	-9.60099
ymc쎯uu쎯	-9.60105
pfq쎯uduk0쎯r쎯	-9.60117
fi쎯	-9.60121
ygu쎯o쎯	-9.60246
tmgk2쎯	-9.60302
pl쎯aq쎯	-9.60333
ynk쎯	-9.60347
vb쎯r쎯	-9.60379
jy쎯aq쎯	-9.60428
fi쎯aib쎯	-9.60509
ul쎯x쎯	-9.60579
sm쎯rmhj쎯	-9.60632
dg쎯tffu쎯uqd2쎯	-9.60702
iwt쎯	-9.60714
bqr쎯uqwn2쎯	-9.60716
r쎯dl쎯kq쎯	-9.60842
ipk쎯xeg0쎯dn쎯km쎯	-9.60919
tuj0쎯tq쎯	-9.6093
rpws쎯fpx쎯	-9.60985
god쎯st쎯	-9.60994
wsg0쎯cwg쎯	-9.61059
rfc쎯sy쎯w쎯km쎯	-9.61092
ta쎯ia쎯	-9.61177
쎅쎄	-9.61178
xyc쎯	-9.61224
fcl쎯dyn쎯	-9.61268
a쎯dgt1쎯	-9.61375
bp쎯ps쎯	-9.61377
rf쎯	-9.61381
xn쎯wynn3쎯	-9.61387
rnu0쎯	-9.61413
jce쎯	-9.61423
dyn쎯	-9.61449
ukqb2쎯qv쎯	-9.61482
tffu쎯xe쎯	-9.6158
pfq쎯	-9.61634
,ul쎯	-9.61634
o쎯y쎯,	-9.61716
uqwm1쎯u쎯	-9.61732
wwv쎯	-9.61738
tgj쎯s쎯r쎯	-9.61742
yi쎯og쎯	-9.618
bu쎯jel쎯	-9.61816
qnr쎯	-9.61864
fqu쎯qu쎯	-9.62004
,gm쎯	-9.62107
‘	-9.62194
nty0쎯tfkp0쎯	-9.62265
at쎯fmk쎯	-9.62425
gkh0쎯	-9.62452
lft쎯wsg0쎯	-9.62481
mf쎯ght쎯	-9.62483
g쎯su쎯	-9.62533
wkhh쎯	-9.6255
yny0쎯f쎯u쎯	-9.62551
qvfp1쎯	-9.62559
dm쎯tm쎯	-9.62656
xjk쎯	-9.62658
it쎯ytf쎯	-9.62662
sty0쎯	-9.62675
쎂.	-9.6275
awf쎯	-9.6279
mqc쎯tr쎯	-9.62833
ntg쎯rfm쎯	-9.62842
mw쎯lfhf쎯	-9.62844
tq쎯kgn쎯	-9.62913
wfny0쎯lwg쎯	-9.62923
gkl쎯ftbt쎯rep쎯	-9.6297
fdf1쎯	-9.63
pt쎯yny0쎯	-9.63036
쎁쎉쎈쎆rh쎯	-9.63059
쎁쎂쎀	-9.63076
nhj쎯	-9.63131
ul쎯wtf쎯	-9.63148
tfkf0쎯	-9.63222
mqc쎯	-9.6324
lw쎯ip쎯	-9.63262
qev쎯toc쎯	-9.63302
lpk0쎯qim쎯	-9.63336
jjj0쎯	-9.63422
bwf쎯rp쎯	-9.63438
khu쎯gfi쎯	-9.63596
cqw쎯qbp쎯	-9.63643
쎁쎉쎈쎇rh쎯	-9.63669
gw쎯	-9.63683
kwg쎯qiu0쎯ipr쎯	-9.63687
rwyg0쎯bm쎯	-9.63691
khd쎯	-9.63693
khx쎯	-9.63695
diu1쎯	-9.63702
iwf쎯tf쎯	-9.63715
bn쎯.”	-9.63836
fwyf0쎯	-9.63844
jn쎯pym쎯ck쎯	-9.63845
dd쎯bfm쎯	-9.6385
gf쎯g쎯wsg0쎯r쎯	-9.63862
ipe쎯	-9.63874
jn쎯ib쎯	-9.63883
pr쎯qnp쎯	-9.63893
wg쎯ith쎯	-9.63898
tym쎯	-9.63899
쎂-	-9.63999
anu0쎯thg1쎯	-9.64007
iqpl1쎯	-9.64019
gmww쎯tkh쎯	-9.64019
qie쎯	-9.64098
ey쎯jf쎯	-9.6411
jvk쎯	-9.64113
xyna1쎯pgn쎯	-9.64116
jb쎯usr쎯	-9.64158
...	-9.64173
vfhp1쎯yyq쎯	-9.6428
ltu0쎯thg1쎯	-9.64348
g쎯pe쎯	-9.64482
whw쎯qi쎯uk쎯	-9.64554
ccc쎯qk쎯	-9.64571
j쎯c쎯	-9.64655
ufg쎯	-9.64697
tvfh0쎯	-9.64842
ce쎯idr쎯	-9.64842
v쎯nae0쎯r쎯	-9.6485
,ua쎯eg쎯	-9.6489
ijx쎯wgk쎯	-9.64895
dga쎯pwv쎯k쎯ny쎯	-9.64916
fh쎯tca쎯	-9.64926
g쎯tffu쎯uqd2쎯	-9.64928
hka쎯ufk0쎯	-9.64937
ywyg1쎯	-9.64963
sfhg쎯	-9.64964
pu쎯tf쎯	-9.65244
fj쎯kkkk1쎯	-9.65263
it쎯rh쎯	-9.6531
qh쎯gae쎯	-9.65314
isw쎯	-9.65322
sgn쎯wgk쎯	-9.65346
w쎯yygy쎯	-9.65381
yk쎯	-9.65441
rwyg0쎯fcl쎯	-9.65549
trfh1쎯ggi쎯	-9.65618
wgkl2쎯	-9.65627
쎂.쎀	-9.65649
wbb0쎯	-9.65697
wys쎯dn쎯	-9.65723
쎁쎉쎈쎃rh쎯	-9.65778
iuc쎯	-9.65799
abi쎯	-9.65814
bl쎯	-9.65861
lgey2쎯	-9.65882
wygg쎯pta쎯	-9.65891
qev쎯yt쎯	-9.65893
amw쎯qc쎯	-9.65971
쎆쎈	-9.66062
,gm쎯wtf쎯	-9.66084
yned쎯	-9.66139
iaqg쎯	-9.66152
fd쎯qfhw1쎯	-9.66197
jh쎯adwe1쎯	-9.66206
em쎯	-9.66234
y쎯tp쎯	-9.6626
oy쎯,	-9.66388
ujf0쎯hid쎯	-9.66418
rfc쎯	-9.66423
ydm쎯	-9.6643
dt쎯	-9.66477
ga쎯yt쎯	-9.6648
tgj쎯usr쎯	-9.66483
yon쎯	-9.66509
r쎯f쎯yy쎯	-9.66542
ft쎯ce쎯	-9.66549
aeu쎯	-9.66702
hq쎯	-9.66765
nae0쎯jtyq0쎯	-9.66778
wyo쎯	-9.66784
sgtu0쎯	-9.6679
uqsg쎯	-9.66885
khi쎯	-9.66978
fyn쎯	-9.67035
qq쎯adm쎯	-9.67086
4쎯	-9.67094
쎉쎆	-9.67137
쎁쎉쎅쎈rh쎯	-9.67193
tx쎯gg쎯	-9.67245
쎄-	-9.67265
toc쎯	-9.67285
fakg0쎯	-9.67315
v쎯rpl쎯	-9.67321
sgm쎯	-9.67349
wwf쎯ait쎯gf쎯	-9.67396
uth쎯nm쎯	-9.67406
yaf쎯	-9.67431
gc쎯b쎯	-9.67434
ruv쎯qejy쎯	-9.6745
wt쎯hka쎯	-9.67486
,vvv쎯,	-9.67497
dn쎯yi쎯	-9.67535
lft쎯xf쎯	-9.67591
uxe쎯jy쎯	-9.67657
ld쎯gxi쎯	-9.67758
rep쎯cbj쎯	-9.67786
qim쎯	-9.67806
n쎯y쎯	-9.67849
x쎯iyj쎯ip쎯	-9.67914
rt쎯wdm쎯	-9.67924
si쎯pvs쎯	-9.67941
nhj쎯rrr쎯	-9.6796
bwg쎯	-9.67967
et쎯kkk쎯	-9.68007
xte쎯qfhw1쎯	-9.68024
aps쎯iwyf1쎯	-9.68112
쎁쎉쎆쎄rh쎯	-9.68178
wfny0쎯vaf쎯	-9.68189
wfkb0쎯	-9.68266
vv쎯vvv쎯	-9.68327
pj쎯yf쎯	-9.68331
ai쎯uk쎯	-9.68467
쎂.쎅	-9.68475
gy쎯oy쎯	-9.68482
wul쎯	-9.68502
r쎯ih쎯	-9.68535
쎈쎈	-9.68536
y쎯wsg0쎯	-9.68555
f쎯gfi쎯	-9.68597
fct쎯	-9.68621
g0쎯	-9.68668
pfi쎯ftbt쎯	-9.68687
gm쎯fnrt쎯	-9.68688
,vbn쎯	-9.68726
suq쎯ta쎯	-9.68747
kj쎯	-9.6877
hq쎯qnq쎯	-9.68813
rf쎯xfn쎯	-9.68829
ej쎯	-9.6885
dl쎯wtf쎯	-9.68998
saj0쎯gajf0쎯	-9.69009
gd쎯ivfh1쎯ymhj0쎯	-9.69045
》yff쎯:“	-9.69048
i쎯qten1쎯qmq쎯	-9.69071
fke쎯	-9.69091
amd쎯dcw쎯	-9.69128
sh쎯iv쎯	-9.6916
sri쎯	-9.69205
mhr쎯	-9.69258
ws쎯	-9.69289
fcl쎯wt쎯	-9.69316
yygy쎯fmud쎯	-9.69471
쎅쎃	-9.69603
iyc쎯tf쎯	-9.69613
iqp쎯	-9.69669
.hhhh쎯ue쎯	-9.69678
yyn2쎯ukd1쎯	-9.69687
sgn쎯wrh1쎯	-9.69728
gl쎯pe쎯	-9.69776
th쎯gf쎯	-9.69789
vq쎯	-9.6981
goi쎯	-9.6989
tp쎯gj쎯nnk쎯	-9.69928
oyv쎯	-9.69969
itf쎯uqv쎯	-9.69979
jb쎯jh쎯	-9.7008
uk쎯zzbd3쎯	-9.70122
nywf1쎯	-9.70141
fcn쎯	-9.70174
atd쎯tu쎯dd쎯ip쎯	-9.70291
k쎯uj쎯	-9.7032
c쎯rg쎯	-9.70385
,q쎯wu쎯	-9.70391
oth쎯	-9.70448
.ww쎯	-9.70458
aynq쎯	-9.70499
wfny0쎯yu쎯	-9.70505
qnu1쎯	-9.70543
udyj쎯gqf쎯	-9.70605
fl쎯egl쎯	-9.70632
ex쎯	-9.70666
tx쎯쎁	-9.70685
aj쎯	-9.70702
f0쎯	-9.70752
txgt쎯	-9.70772
ubt쎯	-9.70772
rhj쎯	-9.70875
쎄쎉	-9.70907
itx쎯fm쎯	-9.70918
ti쎯	-9.70978
g쎯yww쎯	-9.70984
쎈쎅	-9.70994
쎉쎉	-9.71016
uwy0쎯tlf0쎯	-9.71029
raj쎯ytb쎯	-9.71107
whf0쎯og쎯.	-9.71195
cad쎯	-9.71208
al쎯uqt쎯	-9.71261
wgkr1쎯	-9.71278
a쎯wt쎯r쎯	-9.7131
ubtf0쎯	-9.715
ifw쎯	-9.71546
wdn쎯wx쎯	-9.71593
dr쎯qk쎯	-9.71603
lm쎯bd쎯	-9.71629
yw쎯ykw쎯	-9.71644
tn쎯nnh쎯	-9.7167
yud1쎯xl쎯	-9.71752
afi쎯	-9.71754
kl쎯	-9.71763
ujn쎯yq쎯	-9.71801
lk쎯wgkr1쎯dd쎯	-9.71871
rnu0쎯wx쎯	-9.71875
p쎯jfd쎯	-9.71934
jjjj0쎯ipkh1쎯	-9.71947
pe쎯hw쎯	-9.72077
쎃rh쎯	-9.72128
dmd쎯	-9.72144
jhk1쎯	-9.72219
u쎯kkk쎯rfm쎯jg쎯	-9.72228
쎅쎇	-9.7229
thd쎯tmd쎯	-9.72291
bpf쎯suq쎯	-9.72354
wxj쎯ftbt쎯	-9.72372
,thd쎯	-9.72542
dga쎯pwv쎯wf쎯	-9.72563
tv쎯km쎯	-9.72563
쎆쎂	-9.72583
tk쎯wh쎯	-9.72599
nk쎯	-9.72675
dy쎯bj쎯	-9.727
wda쎯	-9.72756
w쎯a쎯	-9.7277
wgk쎯m쎯	-9.72888
yygt쎯ytyh쎯ymhj0쎯	-9.72932
ii쎯tjh쎯	-9.72961
rrhy쎯	-9.73039
gu쎯tqdh0쎯	-9.73053
rxj쎯sfi쎯	-9.73101
g쎯iyc쎯r쎯	-9.73124
eerq쎯	-9.73351
쎁쎉쎆쎂rh쎯	-9.7339
vit쎯	-9.73417
wwwk0쎯	-9.73447
dd쎯ip쎯tg쎯	-9.73585
thgc0쎯sg쎯	-9.73593
saj0쎯rny1쎯	-9.73602
smu1쎯	-9.73635
xk쎯ya쎯	-9.73659
py쎯wf쎯y쎯yq쎯	-9.73673
uqf쎯pl쎯	-9.73747
쎅%	-9.73757
khu쎯gfi쎯whw쎯qi쎯	-9.73826
epw쎯	-9.73837
,wjg쎯j쎯	-9.73926
q쎯wu쎯r쎯	-9.73963
nh쎯vi쎯	-9.73971
usr쎯gajf0쎯	-9.74008
fg쎯xe쎯	-9.74044
fj쎯hi쎯	-9.74056
qq쎯pe쎯	-9.74143
bde쎯udh쎯	-9.74144
쎁쎉쎈쎀rh쎯	-9.74149
mq쎯bwg쎯	-9.74168
pnt쎯ya쎯	-9.7417
쎁쎉쎈쎁rh쎯	-9.74229
wcw쎯	-9.74285
ca쎯ndj쎯	-9.74314
xeg0쎯vfhp1쎯	-9.74322
fny0쎯tjh쎯	-9.74333
》tffu쎯.	-9.74376
쎁쎉쎇쎈rh쎯	-9.74401
adj쎯	-9.74411
tfqm1쎯	-9.74414
쎁쎉쎆쎃rh쎯	-9.74437
iqgg쎯	-9.74513
uep쎯	-9.7457
pgn쎯wt쎯	-9.74587
tffu쎯yy쎯dm쎯	-9.74588
go쎯idr쎯	-9.7459
cel쎯	-9.746
ooo쎯lg쎯uh쎯	-9.74604
vck쎯xtu쎯	-9.74639
쎀쎀	-9.74681
db쎯	-9.74686
ftjb쎯ymhj0쎯	-9.74691
:쎂	-9.74715
g쎯qk쎯	-9.74765
wfny0쎯》:“	-9.74896
wq쎯r쎯	-9.74927
쎇쎂	-9.75025
tp쎯gj쎯zzbd3쎯	-9.75096
wye쎯rnd1쎯	-9.75115
ym쎯uqt쎯	-9.75159
uth쎯uqw쎯	-9.75262
ujn쎯ykw쎯	-9.75325
&	-9.75417
fm쎯ux쎯	-9.75492
g쎯wug0쎯	-9.75529
wfn쎯	-9.75567
pgc쎯zzbd3쎯	-9.75599
ipq쎯bj쎯	-9.75618
ypeu쎯wxf쎯	-9.75638
jlx쎯	-9.75649
wc쎯jfd쎯,	-9.75661
ige쎯wa쎯	-9.75675
rc쎯jmd쎯	-9.75718
wxf쎯w쎯n쎯aw쎯t쎯l쎯	-9.75729
jn쎯rnb쎯	-9.75793
rnb쎯whn쎯	-9.75808
et쎯go쎯	-9.75833
icw쎯	-9.75835
nnk쎯nnk쎯ta쎯	-9.75873
svc쎯wynn3쎯	-9.75886
8쎯	-9.75922
쎁쎉쎆쎅rh쎯	-9.75938
afd1쎯vij쎯	-9.75951
txgi5쎯	-9.75989
ii쎯ylk0쎯	-9.75997
gah쎯kkd쎯	-9.76065
px쎯wu쎯	-9.76108
lh쎯wh쎯	-9.76112
adn쎯	-9.76114
,aqt쎯	-9.76219
temq0쎯	-9.7623
yb쎯bb쎯	-9.76238
u쎯kkk쎯r쎯	-9.76238
dmj1쎯i쎯	-9.76304
d쎯xg쎯	-9.76321
atd쎯jgm쎯	-9.7647
rgf쎯up쎯	-9.76475
bp쎯	-9.76503
iyv쎯	-9.76521
lfq쎯ss쎯	-9.76535
a쎯wt쎯ftj쎯	-9.76588
yv쎯vb쎯	-9.76593
v쎯ge쎯ywx쎯yygy쎯	-9.76606
uqwn2쎯	-9.76655
gqjo0쎯	-9.76678
khq쎯	-9.76703
wtfm1쎯waj0쎯	-9.76712
wgk쎯ua쎯	-9.76748
fu쎯xk쎯	-9.76897
r쎯u쎯kkk쎯	-9.76907
wbj쎯ujn쎯	-9.76913
fmud쎯	-9.76966
puv쎯k쎯	-9.77039
fym쎯	-9.77046
jo쎯aft쎯	-9.77073
r쎯jf쎯whn쎯	-9.77111
un쎯	-9.77174
ymhj0쎯xe쎯	-9.77177
vfhp1쎯gf쎯	-9.77215
udr0쎯	-9.77267
jo쎯hhu0쎯	-9.77331
qk쎯w쎯	-9.77342
mw쎯dhb쎯	-9.7737
lgk쎯tmdf1쎯	-9.77376
lp쎯xxe쎯	-9.77385
lkm쎯	-9.77419
tdp쎯	-9.77555
----------------	-9.77645
jef1쎯	-9.77671
.wjg쎯	-9.777
jyie쎯thg1쎯	-9.77717
wfy0쎯	-9.77719
jel쎯	-9.77757
yy쎯dm쎯r쎯	-9.77814
qnq쎯	-9.77845
begg쎯	-9.77846
tkh쎯od쎯	-9.77868
kl쎯qh쎯	-9.77878
amw쎯qqqq1쎯	-9.77923
tu쎯zzbd3쎯	-9.7794
ab쎯ce쎯	-9.77949
fkue0쎯	-9.78033
fas쎯fuk쎯	-9.78042
jtyl쎯imj쎯	-9.78076
gx쎯	-9.78094
jaw쎯	-9.78114
ep쎯nge쎯	-9.78148
쎆쎃	-9.78247
fpo쎯	-9.78248
f쎯fhg1쎯	-9.78299
xy쎯xkw쎯	-9.78319
pww쎯jqr쎯	-9.78337
ld쎯hx쎯	-9.78394
mty1쎯	-9.78408
dhc쎯fgi쎯	-9.78444
tf쎯fcl쎯	-9.78445
xwf쎯gl쎯	-9.78565
tkh쎯bb쎯	-9.78662
gmiu쎯	-9.78778
.ul쎯wtf쎯	-9.78831
ad쎯gf쎯	-9.78838
jn쎯dfy쎯	-9.78976
rfc쎯agnn1쎯	-9.79154
fh쎯ntk쎯	-9.7921
mga쎯	-9.7923
쎃.	-9.79292
쎁쎉쎇쎉rh쎯	-9.79308
oyv쎯wyv쎯	-9.79309
rb쎯uthp0쎯	-9.79321
gh쎯ymc쎯	-9.79322
al쎯yx쎯	-9.79379
sghg1쎯yy쎯	-9.79381
uft쎯	-9.79409
pw쎯ymf쎯	-9.79496
sgyb0쎯	-9.79527
)j쎯	-9.79577
qbp쎯	-9.79592
rvy쎯	-9.79618
wk쎯dhb쎯	-9.79652
wc쎯ga쎯	-9.79689
mmm쎯ii쎯	-9.79693
egc쎯ght쎯ywf쎯	-9.797
,hhhh쎯ue쎯	-9.79702
qtvb0쎯	-9.79733
x쎯gj쎯	-9.79816
pwt쎯	-9.79832
cb쎯	-9.79845
sghg1쎯adnt1쎯	-9.7986
jb쎯xtu쎯	-9.7986
ahnh2쎯	-9.7993
ivp쎯	-9.79962
txi쎯xyc쎯r쎯	-9.80037
iy쎯tgj쎯	-9.80065
sghg1쎯gyt쎯ah쎯	-9.80071
sh쎯gx쎯	-9.80128
tfkp0쎯dn쎯	-9.80184
yfj0쎯jgm쎯	-9.80228
rm쎯	-9.80258
wyc쎯w쎯	-9.80279
pgc쎯mw쎯	-9.80305
i쎯wf쎯	-9.80318
iyj쎯fm쎯	-9.80337
ygu쎯wd쎯	-9.80351
r쎯usr쎯	-9.80422
ipkh1쎯et쎯	-9.80431
lfo쎯dx쎯ia쎯ith쎯	-9.80477
쎄쎁	-9.80542
mqq쎯h쎯	-9.80588
x쎯dl쎯	-9.80635
gj쎯qev쎯	-9.80707
uqt쎯yx쎯	-9.80715
rwyg0쎯adh쎯	-9.80855
dr쎯mj쎯	-9.80864
awn쎯	-9.8087
쎃-	-9.80904
wqu쎯us쎯	-9.80969
uejo0쎯	-9.80978
쎅쎁	-9.80984
a쎯w쎯	-9.81112
dd쎯ddh쎯	-9.81125
ss쎯og쎯	-9.81185
fq쎯xg쎯	-9.81216
vnu1쎯	-9.81224
n쎯l쎯	-9.81318
j쎯gik쎯	-9.81335
dnv2쎯	-9.81356
wbj쎯uu쎯	-9.81436
cbd쎯by쎯	-9.81456
san쎯	-9.81462
bj쎯egc쎯	-9.81484
tdkj0쎯dhd쎯	-9.81486
wgk쎯gj쎯	-9.81514
ymhj0쎯aq쎯	-9.81519
dd쎯lpk0쎯	-9.81536
fl쎯yyq쎯	-9.81589
itx쎯pl쎯	-9.81708
qe쎯qc쎯	-9.81715
tx쎯g쎯wh쎯	-9.81743
yn쎯ftj쎯	-9.81758
zzts10쎯	-9.81786
atg쎯	-9.8184
ovt쎯rnd1쎯go쎯idr쎯	-9.81894
w쎯lt쎯uqwm1쎯idr쎯	-9.81909
tdd쎯	-9.81917
f쎯wug0쎯	-9.81928
thd쎯q쎯	-9.81962
wv쎯yb쎯	-9.81987
ykg0쎯	-9.81992
,wc쎯ngk쎯	-9.82146
ykge쎯	-9.82162
ry쎯nae0쎯	-9.82207
saj0쎯aib쎯	-9.82241
cqy쎯nhj쎯	-9.82335
fj쎯tkgg1쎯	-9.82352
k쎯l쎯aw쎯u쎯ipk쎯,	-9.82358
ovt쎯dcg쎯	-9.82392
lftj쎯	-9.82417
쎉쎅	-9.82425
vbn쎯r쎯	-9.82492
nui쎯sm쎯	-9.82516
,yi쎯	-9.8252
,fq쎯	-9.82528
wxd쎯	-9.82543
fgh쎯g쎯	-9.82611
yyn2쎯	-9.82631
tev쎯	-9.82639
tom쎯	-9.82708
wye쎯rta쎯	-9.82727
rp쎯rh쎯go쎯	-9.82734
rn쎯ntk쎯	-9.82739
fgh쎯rh쎯	-9.82784
kgb쎯	-9.82887
g쎯fc쎯	-9.82898
쎅쎉	-9.82909
wfkb0쎯tdp쎯	-9.8298
xxm쎯	-9.83006
gl쎯dm쎯	-9.8311
uwy0쎯dqe쎯	-9.83154
lx쎯	-9.83194
ktm쎯	-9.83228
yu쎯je쎯	-9.83271
dga쎯pwv쎯km쎯	-9.83271
wc쎯rtt0쎯	-9.83272
쎁-	-9.83278
udb쎯ytyh쎯	-9.83315
lg쎯lgm쎯	-9.83331
whn쎯	-9.83389
wycm1쎯fakg0쎯r쎯	-9.83432
jn쎯kkd쎯	-9.83462
ifh1쎯	-9.83488
dmj1쎯eg쎯	-9.83507
utem1쎯	-9.83534
dff2쎯	-9.83537
eck쎯	-9.83603
emc쎯wwv쎯	-9.83631
r쎯tg쎯itd쎯	-9.83637
쎀.쎅	-9.83638
쎁쎉쎅쎆rh쎯	-9.8364
dgk쎯	-9.83648
tq쎯kgn쎯.	-9.83702
qtq쎯	-9.83752
dr쎯ld쎯	-9.83754
,rcn0쎯	-9.83777
ium쎯	-9.83784
yam쎯	-9.83845
fhw쎯ghd1쎯	-9.8388
tx쎯쎂	-9.8388
쎇쎈	-9.83896
쎈쎆	-9.83935
teg1쎯	-9.83944
쎁쎉쎇쎀rh쎯	-9.83953
tqdh0쎯	-9.83969
”tffu쎯	-9.83979
yc쎯iagw쎯	-9.83994
vt쎯rnd1쎯o쎯uwy0쎯	-9.84009
rny1쎯	-9.8401
ynv쎯	-9.84013
wv쎯uyt1쎯yx쎯	-9.8402
agnt0쎯	-9.84027
gf쎯dj쎯ya쎯f쎯ltu0쎯	-9.84056
dj쎯ya쎯f쎯ltu0쎯o	-9.84058
xg쎯kht쎯	-9.84062
,jb쎯xtu쎯xf쎯js쎯c쎯	-9.84081
ipr쎯	-9.84114
wyk쎯rg쎯eb쎯tl쎯	-9.84116
///.",(){(	-9.84141
d쎯hx쎯	-9.84152
ygh쎯udv쎯	-9.84157
fny0쎯aft쎯	-9.8416
..("//	-9.84174
쎁쎀쎀쎀쎀쎈쎀쎁);});	-9.84178
ipkh1쎯tl쎯	-9.8422
ryl쎯ta쎯	-9.8423
td쎯uthp0쎯	-9.8428
h쎯gh쎯	-9.8432
qtd쎯	-9.84331
ms쎯	-9.84398
ty쎯tfqp쎯	-9.84469
fnh쎯	-9.84584
god쎯tgj쎯	-9.8459
wc쎯fqb0쎯	-9.846
mw쎯tu쎯	-9.84625
egl쎯gj쎯	-9.84648
gef쎯it쎯rh쎯	-9.84682
jhk1쎯yge쎯	-9.84721
gm쎯pu쎯	-9.84813
cd쎯lk쎯af쎯wgkb0쎯	-9.84877
sgmj쎯	-9.84907
djfd쎯oy쎯	-9.84907
ih쎯xeg0쎯	-9.84914
쎁쎉쎇쎆rh쎯	-9.84929
wynk쎯e쎯	-9.84975
qejy쎯	-9.84987
itfk0쎯	-9.85032
dd쎯wf쎯	-9.85037
.sg쎯nnh쎯	-9.85044
ajdh쎯	-9.85056
,eg쎯	-9.8508
eve쎯	-9.85086
hka쎯fghg쎯	-9.85187
쎇쎆	-9.85206
qtal1쎯	-9.85217
hm쎯	-9.85243
ffff1쎯fyk쎯	-9.85253
쎁rh쎯	-9.85289
wfi쎯	-9.85316
yfn쎯nnh쎯	-9.8534
,x쎯	-9.85362
쎈쎂	-9.85369
f쎯dm쎯	-9.85408
kf쎯thg1쎯	-9.85422
wys쎯lft쎯wc쎯ngk쎯	-9.85455
px쎯r쎯	-9.85496
e쎯g쎯	-9.85525
qev쎯un쎯yy쎯pvs쎯	-9.85529
uqwm1쎯ynf쎯	-9.85558
qta쎯	-9.85567
mt쎯tuh0쎯	-9.85654
pe쎯fl쎯wf쎯wf쎯km쎯	-9.85661
fk쎯ss쎯ith쎯	-9.85681
쎅wh쎯	-9.85757
ua쎯eg쎯	-9.85789
uc쎯	-9.85806
.p쎯	-9.85903
dg쎯dd쎯	-9.85924
tv쎯km쎯wf쎯tv쎯km쎯	-9.8593
lgey2쎯egl쎯	-9.8594
xxf쎯og쎯rg쎯	-9.85971
lk쎯rvyo쎯	-9.85976
gk쎯tl쎯	-9.85991
rx쎯	-9.86026
cm쎯pwfi0쎯	-9.86033
ry쎯dd쎯	-9.86083
uvo쎯wtf쎯	-9.86097
fwm쎯tvfh0쎯	-9.8611
dga쎯rmhj쎯	-9.86132
tep쎯je쎯	-9.86143
xkw쎯	-9.86162
qkqp0쎯	-9.86179
uxx쎯	-9.86217
dpq쎯	-9.86343
bj쎯iq쎯	-9.864
nty0쎯o쎯	-9.86408
ew쎯	-9.86425
yn쎯fa쎯	-9.86429
gkm쎯wgk쎯	-9.86441
wgk쎯qqqq1쎯	-9.86446
rh쎯wa쎯	-9.86504
tqt쎯	-9.86512
oanw쎯	-9.86517
xwf쎯	-9.86534
qi쎯bw쎯	-9.86546
wy쎯thn쎯wx쎯	-9.86612
uxxn0쎯	-9.86639
yop쎯	-9.86688
atg쎯gk쎯ta쎯	-9.86714
tjs쎯	-9.8674
쎉쎇	-9.86743
itol쎯	-9.86804
ia쎯fm쎯	-9.86869
yox쎯	-9.86887
쎆쎉	-9.86893
gajh쎯	-9.86919
nnw쎯qi쎯	-9.86924
vfhp1쎯tfkp0쎯	-9.86938
wj쎯xvk쎯b쎯	-9.86989
ujfj0쎯wug0쎯.	-9.87003
xtdh0쎯	-9.87025
,gip쎯	-9.87033
ad쎯ld쎯	-9.87044
dd쎯bw쎯	-9.87045
qh쎯cm쎯	-9.8705
kqb0쎯uxh쎯	-9.87159
v쎯je쎯	-9.872
qdt쎯	-9.87265
rlg0쎯ck쎯	-9.87268
itm쎯dd쎯tjh쎯gog쎯	-9.87324
gu쎯yy쎯oy쎯	-9.87324
iqv쎯	-9.87355
cd쎯lk쎯b쎯	-9.87357
w쎯fqu쎯xgb쎯nh쎯ty쎯	-9.87358
,ak쎯	-9.87365
usr쎯lk쎯fhc쎯	-9.87376
hcd쎯	-9.87414
vp쎯	-9.87432
5쎯	-9.8747
bm쎯b쎯	-9.8758
wdn쎯fha쎯	-9.87588
fu쎯ta쎯	-9.87594
nf쎯gcft0쎯	-9.87608
xeg0쎯dn쎯r쎯	-9.87683
tk쎯f쎯	-9.87708
rn쎯c쎯	-9.87735
va쎯	-9.87791
xgu쎯us쎯	-9.87806
.adw쎯k쎯	-9.87811
ta쎯ya쎯	-9.87823
bwt쎯b쎯	-9.87854
pds쎯	-9.87856
adwr0쎯trf0쎯	-9.87878
rhf0쎯gc쎯	-9.87884
sh쎯m쎯	-9.87885
wmg1쎯	-9.88049
tk쎯adm쎯	-9.88056
nyi2쎯fghy1쎯:	-9.88098
jx쎯	-9.88098
aw쎯ybf0쎯	-9.88125
dwg쎯	-9.88152
vii쎯ntk쎯gf쎯	-9.88282
ipg쎯kjj쎯	-9.88286
pyuf0쎯	-9.88354
fhg1쎯	-9.88365
iak쎯	-9.88407
pta쎯	-9.88407
wwf쎯ait쎯d쎯	-9.88505
fp쎯fcu1쎯	-9.88521
tdp쎯peg쎯	-9.88589
fggh쎯okk쎯	-9.88615
쎂쎀쎁쎀	-9.88616
eud쎯	-9.88624
쎆쎇	-9.88695
dd쎯uk쎯wv쎯	-9.88715
u쎯jg쎯	-9.88744
tj쎯gc쎯b쎯	-9.88798
dhb쎯wyf0쎯	-9.88798
tg쎯u쎯xg쎯	-9.88958
fuf0쎯pyg쎯	-9.88999
pujn0쎯qc쎯	-9.89071
,ce쎯	-9.89072
uqwm1쎯sg쎯	-9.8909
anb0쎯sy쎯pe쎯	-9.89108
e쎯hxf쎯	-9.8915
mu쎯	-9.89158
wvl쎯	-9.89203
쎅rh쎯	-9.89239
tw쎯	-9.89298
wxf쎯ai쎯	-9.8936
v쎯tmdf1쎯	-9.89401
un쎯tgm쎯	-9.8942
,ntk쎯gf쎯mmm쎯aq쎯.	-9.89444
aw	-9.89447
gh쎯fa쎯	-9.8952
쎁쎉쎇쎅rh쎯	-9.89524
kmh0쎯	-9.89529
g쎯gkp쎯	-9.89542
ipwk0쎯	-9.89573
usi1쎯	-9.89582
bu쎯wgk쎯wf쎯	-9.89612
쎆wh쎯	-9.89651
afd1쎯vij쎯ith쎯	-9.89678
wv쎯wc쎯ngk쎯	-9.89731
n0쎯	-9.89744
g쎯ddu1쎯	-9.89865
gki쎯	-9.89867
fku쎯ep쎯	-9.89957
kt쎯	-9.90014
qtj쎯trf0쎯	-9.90041
br쎯	-9.90131
thd쎯y쎯	-9.90131
pl쎯bw쎯	-9.90139
yt쎯d쎯	-9.90159
qk쎯tq쎯:	-9.90185
tjt쎯vs쎯	-9.90283
ynk쎯fcl쎯	-9.90326
jjjj0쎯,	-9.90339
쎁쎉쎆쎈rh쎯	-9.90418
fgh쎯gg쎯	-9.90424
.쎂zzbd3쎯	-9.90425
ddg1쎯	-9.90458
uck쎯qqqq1쎯	-9.90465
bn쎯.	-9.905
jtyl쎯rpw쎯	-9.90512
gmww쎯wmj1쎯	-9.9057
pe쎯ytt쎯	-9.90586
쎀쎅	-9.90726
tei쎯	-9.90727
uejv0쎯	-9.90739
6쎯	-9.90753
nng쎯	-9.90814
bk쎯tl쎯	-9.90851
aak쎯	-9.90858
rh쎯ya쎯	-9.90885
mmm쎯egc쎯	-9.90919
yw쎯fhw쎯	-9.90924
wc쎯pjm쎯	-9.90931
g쎯iyc쎯	-9.90952
wh쎯ntg쎯	-9.90955
khgm3쎯ytyh쎯ith쎯	-9.91009
ny쎯gj쎯ip쎯	-9.91039
df쎯	-9.91114
kkhn쎯	-9.91117
rnb쎯wsg0쎯	-9.91174
쎇쎃	-9.91181
ii쎯inx쎯	-9.91213
ym쎯umd1쎯	-9.91257
tuh0쎯	-9.91272
dfa쎯	-9.91319
ad쎯nfc쎯	-9.91411
iqny쎯	-9.91422
,iv쎯	-9.91422
xef쎯	-9.91433
ipkh1쎯tl쎯gj쎯gk쎯	-9.91455
.ul쎯	-9.915
avi쎯	-9.9151
쎁쎉쎅쎇rh쎯	-9.91522
gg쎯rh쎯	-9.91653
mq쎯jy쎯	-9.91709
,ntk쎯	-9.91719
gqx쎯ynv쎯	-9.91736
쎀쎁	-9.91771
fwy0쎯	-9.91789
gkf0쎯	-9.91794
eqd쎯	-9.91834
y쎯ipg쎯	-9.9194
itdy쎯	-9.91949
wjm쎯	-9.92034
i쎯khu쎯	-9.92058
agnn1쎯	-9.92076
uji2쎯	-9.92086
gx쎯fcl쎯	-9.921
wfh0쎯	-9.92121
ux쎯yy쎯	-9.92153
qhk쎯	-9.9216
waw쎯yid쎯	-9.92184
qn쎯wynk쎯	-9.92188
ra쎯	-9.92226
tam쎯	-9.92226
j0쎯	-9.9224
sk쎯dp쎯	-9.92385
cexo0쎯	-9.92388
th쎯gj쎯kkd쎯	-9.92397
wwg쎯	-9.92409
je쎯wa쎯	-9.9245
wqu쎯xgu쎯	-9.92506
fnrt쎯rn쎯	-9.92532
ftbt쎯rep쎯,	-9.92539
,ld쎯o쎯	-9.92554
rlf0쎯	-9.92612
lw쎯gj쎯	-9.92638
vvf1쎯	-9.92673
ipkh1쎯mqb쎯	-9.92693
bbh0쎯	-9.92695
wv쎯tp쎯	-9.92728
sqj쎯eu쎯	-9.92758
w쎯n쎯tmh0쎯	-9.92862
po쎯	-9.92868
hwbc쎯	-9.92921
hhhh쎯r쎯	-9.92953
g1쎯	-9.92955
tfq쎯fj쎯a쎯wt쎯ftj쎯	-9.92978
wyv쎯tr쎯	-9.93051
uth쎯ftjb쎯	-9.93056
e쎯《	-9.93066
iha쎯	-9.93095
wys쎯wsg0쎯	-9.93133
bk쎯ce쎯	-9.93139
yn	-9.93165
pwfi0쎯	-9.93172
dfi쎯	-9.93194
ym쎯si쎯	-9.93202
lfq쎯aq쎯	-9.93239
hic쎯	-9.93243
sq쎯tfkp0쎯	-9.93259
gh쎯lpdk1쎯	-9.93279
tx쎯uy쎯	-9.93336
ip쎯fghg쎯ip쎯wug0쎯	-9.93338
iry쎯iq쎯	-9.93346
lg쎯uh쎯	-9.93419
dhd쎯	-9.93494
r쎯ad쎯sg쎯	-9.93503
ym쎯xe쎯ftbt쎯jgm쎯	-9.93521
uqd2쎯.	-9.93541
rqn쎯	-9.93578
wsg0쎯txi쎯yw쎯ygh쎯	-9.93594
xx쎯wgq쎯	-9.93596
”o쎯	-9.93608
cep쎯uthp0쎯	-9.9366
ge쎯dp쎯	-9.93679
쎁쎉쎅쎂rh쎯	-9.93682
tdj쎯	-9.93696
ukn쎯dm쎯tkw쎯	-9.93703
y쎯wtf쎯atd쎯jgm쎯	-9.93709
l쎯n쎯ipk쎯	-9.93741
acbt1쎯	-9.93759
yynw1쎯sf쎯	-9.93759
tjt쎯wgk쎯	-9.9376
rb쎯》	-9.93795
ta쎯iit쎯	-9.93797
ux쎯yiu0쎯dd쎯ip쎯	-9.93845
vv쎯	-9.93854
lc쎯swc쎯	-9.93877
ym쎯tu쎯rfc쎯	-9.93915
dnv0쎯kgb쎯	-9.93925
g쎯adm쎯	-9.9398
nnk쎯gkl쎯nnk쎯ta쎯	-9.93991
xk쎯dd쎯r쎯	-9.94002
,wb쎯wu쎯	-9.94011
ih쎯gajf0쎯	-9.94034
ltu0쎯wqj쎯	-9.94047
tg쎯dhb쎯	-9.94053
jb쎯hw쎯	-9.9408
dgj쎯tel쎯	-9.94127
y0쎯	-9.94159
pg쎯yq쎯	-9.94184
y1쎯	-9.94206
uw쎯	-9.94222
cf쎯qh쎯	-9.94289
k쎯ax쎯	-9.94358
j쎯g쎯ffi쎯	-9.94411
gku쎯ywfw0쎯	-9.94413
dm쎯tkw쎯쎁	-9.94416
kkh0쎯	-9.94462
saj0쎯hw쎯	-9.94465
mt쎯wh쎯	-9.94472
fje쎯qgu쎯	-9.94485
pwu0쎯	-9.9449
fm쎯yy쎯	-9.94546
pwd쎯dhc쎯	-9.94552
mjq쎯	-9.94565
gjq쎯usr쎯	-9.94598
ujfj0쎯fqb0쎯	-9.94636
ahtb0쎯	-9.94698
ic쎯ygk쎯	-9.94755
qt	-9.9477
dxy쎯	-9.9485
lfn쎯rq쎯	-9.94881
nbm쎯	-9.94888
lt쎯ip쎯	-9.94915
ajq쎯	-9.9493
&;	-9.94951
jn쎯sm쎯	-9.94996
uxh쎯	-9.95035
wye쎯if쎯	-9.9504
tga쎯	-9.9505
cqw쎯	-9.95058
ght쎯fl쎯	-9.95076
쎆-	-9.95094
ur쎯	-9.95109
′	-9.95123
,pb쎯	-9.95123
sdw쎯	-9.95144
ywwf0쎯	-9.95186
tgj쎯pym쎯	-9.95187
yff쎯sksw쎯	-9.95223
infy쎯	-9.95228
isj쎯	-9.95235
ga쎯rd쎯	-9.95243
hjj쎯	-9.95249
,gjq쎯	-9.95252
lw쎯if쎯	-9.95301
oja쎯	-9.95324
.쎂.	-9.95339
p쎯j쎯	-9.95373
ftbt쎯dga쎯pgc쎯	-9.95381
udy쎯,	-9.95403
itx쎯qh쎯	-9.95432
fwm쎯	-9.95443
atd쎯tg쎯	-9.95449
d쎯bk쎯	-9.95471
kl쎯g쎯	-9.95489
db쎯pt쎯	-9.95498
fj쎯wht쎯	-9.95552
uth쎯rx쎯	-9.95573
ybf0쎯e쎯	-9.9565
wgk쎯st쎯	-9.95669
uge쎯	-9.95698
쎇쎉	-9.95708
wo쎯	-9.95752
dj쎯rh쎯	-9.95792
adw쎯pu쎯	-9.95851
ipkm1쎯	-9.95923
ynma쎯	-9.95932
rbcc쎯wqj쎯udi0쎯	-9.95951
rfq쎯	-9.95978
dgty쎯	-9.9598
쎀쎈	-9.95984
tri쎯	-9.96054
es쎯bc쎯	-9.96057
ryn1쎯gj쎯	-9.96068
쎁쎉쎆쎉rh쎯	-9.96082
hid쎯uthp0쎯	-9.96082
k쎯aw쎯ipk쎯km쎯	-9.96173
쎁쎉쎅쎉rh쎯	-9.9619
aet1쎯yygy쎯	-9.9625
yny0쎯ngc쎯	-9.96284
쎇쎇	-9.96338
fuk쎯	-9.9638
tfj0쎯	-9.9638
tdt쎯w쎯	-9.96472
sga쎯	-9.96478
쎀쎂	-9.96498
qtg쎯	-9.96513
x쎯iyj쎯v쎯nae0쎯	-9.96578
nyi2쎯	-9.96581
py쎯lft쎯	-9.96582
ap쎯	-9.96591
gkl쎯nnh쎯yn쎯	-9.96597
pu	-9.96608
.rnd1쎯	-9.96617
ivs쎯	-9.96713
vynu쎯	-9.96714
쎃쎀쎀쎀	-9.96861
bib쎯ovt쎯	-9.96864
dnp쎯	-9.96868
dm쎯tkw쎯쎂	-9.96876
r쎯wt쎯et쎯	-9.96894
qjn쎯	-9.96915
lxx쎯wycb쎯	-9.96949
yn쎯nn쎯	-9.96956
qm쎯gmu1쎯w쎯	-9.96994
dd쎯www쎯	-9.97009
쎁쎉쎄쎉rh쎯	-9.97044
gkp쎯go쎯	-9.9708
yff쎯yngk1쎯	-9.97098
ga쎯v쎯aq쎯	-9.97104
쎁쎈쎀	-9.97126
ukk쎯	-9.97141
uit쎯	-9.97169
wdn쎯yv쎯	-9.97242
fnhc0쎯	-9.97276
tgm쎯ltk쎯	-9.97277
쎀.쎀	-9.97306
r쎯dty0쎯gk쎯	-9.97318
wy쎯et쎯	-9.9732
ufw쎯	-9.97332
gjq쎯qk쎯o쎯	-9.97345
dgh쎯maw쎯	-9.97353
cm쎯www쎯	-9.97373
ojf쎯	-9.97403
ra쎯gc쎯	-9.97416
ce쎯jg쎯	-9.97452
aqt쎯uqd2쎯	-9.9749
vfhp1쎯sft쎯	-9.97523
rmay쎯	-9.97534
-쎃	-9.97562
cal쎯	-9.97601
lwg쎯	-9.9761
pwd쎯	-9.97622
wj쎯	-9.9763
,f쎯th쎯	-9.97648
wdt쎯vb쎯	-9.97729
rs쎯qgb쎯	-9.97736
py쎯wf쎯tu쎯ip쎯	-9.97738
jgg0쎯	-9.97778
nui쎯tf쎯	-9.97807
ifn쎯ivs쎯	-9.97813
y쎯s쎯j쎯	-9.97855
쎁쎉쎆쎆rh쎯	-9.97902
fcr쎯	-9.97934
yy쎯qf쎯	-9.97989
jvko0쎯thg1쎯	-9.98063
cd쎯lk쎯a쎯wt쎯	-9.9815
rh쎯uj쎯	-9.98172
xln0쎯qt쎯	-9.98197
r쎯yy쎯if쎯	-9.98201
lu쎯o쎯	-9.98219
jtyq1쎯	-9.98249
g쎯hko쎯	-9.98268
pu쎯og쎯	-9.98309
kj쎯qd쎯	-9.98314
dm쎯cf쎯	-9.98324
ffh0쎯	-9.98372
iyc쎯jg쎯	-9.98376
nae0쎯ga쎯	-9.98401
.gm쎯	-9.98428
tjh쎯uwl쎯	-9.9844
jn쎯kht쎯	-9.98541
dr쎯vck쎯	-9.98548
qd쎯rg쎯	-9.98551
ukn쎯x쎯gj쎯	-9.98603
qkq쎯umc쎯	-9.98645
쎁쎉쎅쎄rh쎯	-9.98653
oufg쎯	-9.98669
ugdu쎯gmy0쎯r쎯	-9.9868
sc쎯dgv쎯	-9.98694
lw쎯wc쎯pgc쎯y쎯wtf쎯	-9.98711
ftg쎯ty쎯	-9.98717
쎁쎉쎇쎂rh쎯	-9.98717
r쎯《	-9.98767
kw쎯j쎯	-9.98781
wc쎯ngk쎯r쎯	-9.98848
f쎯aq쎯r쎯	-9.98857
if쎯ip쎯	-9.98884
ain쎯	-9.98964
fgh쎯dg쎯	-9.98976
쎇-	-9.98978
ue쎯rg쎯	-9.98986
nu쎯nxf쎯	-9.99029
qdb쎯	-9.99072
ln쎯xwy0쎯	-9.99087
jn쎯iyc쎯	-9.99118
,g쎯tem쎯	-9.99123
쎃.쎅	-9.99137
쎁쎉쎅쎃rh쎯	-9.99137
b쎯g쎯wh쎯	-9.99173
ddh쎯uyh쎯	-9.99257
mb쎯	-9.99273
cds쎯	-9.99288
j쎯g쎯rn쎯	-9.99345
afs쎯hxf쎯	-9.994
dif쎯f쎯	-9.99401
xv쎯wx쎯	-9.9941
쎈쎇	-9.99414
qvfp1쎯tel쎯	-9.99431
gae쎯dn쎯b쎯	-9.99456
stt쎯	-9.99481
uqd2쎯ddnl쎯	-9.99523
gae쎯udy쎯	-9.9954
adwn4쎯gcf쎯	-9.99564
wvm쎯	-9.99577
ukn쎯xf쎯	-9.99608
gu쎯dm쎯	-9.99621
쎇쎀쎀	-9.99658
d쎯g쎯fhn쎯	-9.99713
pvs쎯wgq쎯	-9.99828
sup쎯	-9.9983
rnnw0쎯pgn쎯	-9.99862
d쎯wg쎯l쎯	-9.99937
pp쎯rg쎯,	-9.9995
ym쎯dfy쎯	-10.0002
n1쎯	-10.0011
ywwg2쎯	-10.0016
vfb쎯hxf쎯	-10.0018
w쎯ovt쎯	-10.0029
i쎯tj쎯	-10.0035
hk쎯f쎯	-10.0035
gv쎯	-10.0036
fgh쎯wty0쎯	-10.0037
jsd쎯oug0쎯	-10.0037
ip쎯km쎯	-10.0038
,mh쎯gf쎯	-10.004
m쎯su쎯	-10.0045
ngk쎯if쎯	-10.0047
wynb0쎯gd쎯	-10.0052
syp쎯	-10.0052
yi쎯wf쎯	-10.0052
txi쎯gq쎯u쎯kkk쎯	-10.0054
tgj쎯jg쎯	-10.0055
udy쎯ukq쎯	-10.0059
ugdu쎯gmy0쎯	-10.006
gj쎯a쎯dd쎯ip쎯	-10.0065
wyl쎯	-10.0068
rn쎯d쎯	-10.0071
epi쎯	-10.0072
he쎯	-10.0073
쎀쎆	-10.008
rdc쎯	-10.0082
vfhp1쎯e쎯	-10.0087
qtb쎯	-10.0094
bfm쎯pl쎯	-10.0095
d쎯ux쎯yiu0쎯	-10.0095
nh쎯wys쎯	-10.0098
iyw쎯wsg0쎯	-10.0098
()j쎯	-10.0099
xwy0쎯tg쎯gxi쎯	-10.01
rnnw0쎯	-10.01
yjj1쎯wg쎯	-10.01
ith쎯ymhj0쎯	-10.0107
qq쎯rh쎯go쎯	-10.0109
쎂쎀쎀쎈	-10.0113
쎂쎀쎁쎃rh쎯	-10.0114
epi쎯hi쎯	-10.0117
bb쎯,	-10.0117
oft쎯	-10.0118
nj쎯	-10.0119
ie쎯	-10.012
fk쎯ss쎯	-10.0125
umd1쎯kkkk1쎯	-10.0133
ga쎯ud쎯	-10.0136
jf쎯uj쎯:	-10.0138
쎁쎉쎆쎁rh쎯	-10.0139
ys쎯	-10.015
nnh쎯yn쎯	-10.0154
egc쎯w쎯n쎯ght쎯ywf쎯	-10.0156
ex쎯eyn쎯	-10.0156
je쎯jtg쎯	-10.0157
af쎯	-10.0157
j쎯wh쎯	-10.0158
yta쎯gh쎯	-10.0161
,kgn쎯	-10.0165
telb쎯	-10.0166
iw쎯fhb쎯	-10.017
r쎯dd쎯gajf0쎯	-10.0173
sfi쎯uwy0쎯wx쎯	-10.0174
gu쎯dr쎯	-10.0174
ipgh0쎯ow쎯	-10.0175
rg쎯go쎯	-10.0178
ige쎯ii쎯	-10.0178
y쎯s쎯ww쎯gk쎯	-10.018
gkih0쎯gj쎯	-10.018
ga쎯ymc쎯	-10.0182
h쎯xe쎯	-10.0188
xpw쎯	-10.0192
ugh쎯udy쎯	-10.0192
gaj쎯	-10.0193
aah0쎯	-10.0203
bc쎯tj쎯b쎯	-10.0204
tak쎯xe쎯	-10.0204
wtf쎯ftbt쎯	-10.0205
ssk쎯	-10.0206
쎇쎄	-10.0207
wy쎯iwyf1쎯	-10.0208
sfi쎯fn쎯	-10.0214
me쎯fggh쎯	-10.0214
wvf0쎯tmd쎯	-10.022
tgv쎯bd쎯	-10.0221
tvfh0쎯jgm쎯	-10.0224
wsg0쎯gm쎯	-10.0232
gah쎯ufy쎯	-10.0235
ˋ	-10.0238
ax쎯kkk쎯	-10.0241
ifk0쎯	-10.0241
쎂쎀쎀쎆	-10.0246
tx쎯g쎯uqw쎯	-10.0247
lqj쎯	-10.025
amw쎯isk쎯	-10.025
wgkb0쎯qk쎯	-10.025
wcn0쎯	-10.0257
gmww쎯rh쎯	-10.0259
tf쎯og쎯r쎯	-10.0261
fd쎯egc쎯	-10.0265
qe쎯ya쎯	-10.0267
k0쎯	-10.0267
cep쎯et쎯	-10.027
ip쎯sy쎯ywx쎯yygy쎯	-10.0274
lh쎯rh쎯	-10.0277
e쎯“	-10.0279
ftbt쎯pgc쎯	-10.0281
gmw쎯	-10.0281
qgh쎯	-10.0282
ymhj0쎯tv쎯	-10.0284
ipk쎯fc쎯uk쎯	-10.0285
ls쎯cw쎯	-10.0289
fghy1쎯	-10.0289
g쎯tg쎯	-10.029
pntj0쎯	-10.0294
qdb쎯bwg쎯	-10.0297
rh쎯lc쎯	-10.0297
mqc쎯nudu쎯	-10.03
sg쎯kkk쎯	-10.0302
쎁쎉쎇쎄rh쎯	-10.0302
nnnn0쎯e쎯	-10.0304
,tfq쎯rg쎯	-10.0311
anu0쎯	-10.0314
t쎯gu쎯	-10.0322
c쎯ue쎯	-10.0326
,fcb쎯	-10.0331
쎄rh쎯	-10.0332
xjm쎯et쎯	-10.0334
gajf0쎯kgn쎯	-10.0337
fny0쎯jghm1쎯	-10.0347
nty0쎯fj쎯	-10.0351
rae쎯	-10.0351
vtk쎯wsg0쎯	-10.0352
twf쎯	-10.0353
uth쎯tfq쎯	-10.0358
쎁.쎂	-10.0362
r쎯a쎯wt쎯	-10.0366
tfpd0쎯	-10.0367
wwg쎯nnh쎯	-10.0368
쎁쎉쎇쎇rh쎯	-10.0368
kt쎯ke쎯	-10.0371
쎆쎁	-10.0372
w쎯n쎯qev쎯yt쎯pl쎯	-10.0372
ynnd쎯	-10.0374
djdn3쎯	-10.0374
fgh쎯uy쎯	-10.0377
nii0쎯	-10.0378
dfek쎯	-10.038
agq쎯	-10.0382
wgc쎯ty쎯	-10.0385
cbq쎯	-10.0388
tmh0쎯	-10.0388
dfe쎯	-10.0391
ripq0쎯rufh1쎯	-10.0393
asg쎯	-10.0394
uai0쎯	-10.0397
rnc쎯	-10.0402
wfny0쎯dskf쎯	-10.0403
udng0쎯	-10.0407
r쎯ftbt쎯ip쎯	-10.0408
gae쎯,	-10.0409
rge쎯	-10.041
vk쎯hx쎯	-10.0411
bf쎯	-10.0416
nhj쎯rrr쎯rfm쎯	-10.0418
tyg쎯tyg쎯	-10.0419
jtyl쎯pwfi0쎯	-10.0419
ntg쎯st쎯	-10.0425
〕	-10.0426
um쎯sfi쎯	-10.0426
쎈쎄	-10.0428
txg쎯gd쎯	-10.0429
tdp쎯et쎯	-10.0429
g쎯gcft0쎯	-10.0437
lfo쎯dx쎯ia쎯	-10.0439
lwg쎯udp쎯	-10.0447
(쎁)	-10.0449
eb쎯tl쎯kkd쎯	-10.046
,aw쎯	-10.0462
kcb0쎯	-10.0463
aib쎯lfnh쎯mw쎯	-10.0463
il쎯	-10.0465
ians0쎯	-10.0467
tg쎯fcl쎯	-10.0468
ovt쎯rnd1쎯ylk0쎯	-10.0468
tp쎯uthp0쎯	-10.0468
쎂쎀쎀쎇	-10.0469
dn쎯wv쎯	-10.047
vvv쎯w쎯	-10.0473
ta쎯,	-10.0474
ftl쎯	-10.0479
r쎯ad쎯dbm쎯h쎯	-10.0479
gjq쎯qq쎯	-10.0485
nfc쎯uqw쎯	-10.0493
pv쎯rdj쎯	-10.0493
fcp쎯wt쎯	-10.0497
egcn쎯	-10.0499
ddm쎯	-10.05
xyx쎯	-10.0502
kqw쎯	-10.0524
quj쎯udi0쎯	-10.0527
uj쎯,	-10.0527
fhu쎯tm쎯	-10.0529
fny0쎯og쎯wx쎯	-10.0536
dg쎯fgh쎯	-10.0539
wv쎯sgn쎯	-10.054
dd쎯tffh1쎯	-10.054
//	-10.054
ftx쎯rh쎯	-10.0548
ykw쎯klj쎯	-10.0551
jmd쎯	-10.0552
emc쎯sfiu1쎯	-10.0553
dd쎯std쎯	-10.0555
lkc쎯	-10.0562
pfq쎯gkih0쎯	-10.0563
dif쎯	-10.0565
ijx쎯uxt쎯ffff1쎯	-10.0567
qgo쎯	-10.057
qqq쎯	-10.0571
tq쎯“	-10.0573
viq쎯	-10.0577
쎂쎀쎀쎃	-10.058
xcy0쎯	-10.0581
yuvo1쎯	-10.0584
jfd쎯,	-10.0587
iyc쎯tkgg1쎯	-10.059
iyc쎯fcl쎯	-10.0591
pgk쎯e쎯	-10.0592
qyt쎯	-10.0593
f쎯qr쎯	-10.0599
rk쎯	-10.06
wfd0쎯	-10.0601
쎈쎃	-10.0605
dn쎯b쎯	-10.0606
rgv쎯	-10.0606
,you1쎯	-10.0607
dmh0쎯nnk쎯	-10.0607
sg쎯f쎯	-10.0608
ukn쎯xyc쎯	-10.0609
,ua쎯d쎯	-10.061
dl쎯kq쎯h쎯	-10.061
rfw쎯	-10.0614
egc쎯xe쎯	-10.0614
bwf쎯ntk쎯	-10.0615
dgt1쎯yny0쎯	-10.0616
ihcv쎯	-10.0621
ve쎯	-10.0621
쎁쎆쎀	-10.0622
ep쎯vb쎯ftj쎯	-10.0629
aqt쎯tj쎯b쎯	-10.0634
nk쎯qkq쎯	-10.0641
jb쎯o쎯	-10.0645
fhn쎯yq쎯	-10.0646
(쎂)	-10.0647
q쎯r쎯	-10.065
hk쎯f쎯dm쎯tkw쎯	-10.0654
hq쎯ds쎯	-10.0654
oge쎯pnt쎯	-10.0655
egc쎯tv쎯	-10.0659
lh쎯dd쎯	-10.0663
wv쎯dmh0쎯gf쎯	-10.0666
pfq쎯ugdu쎯	-10.0668
rvyf0쎯	-10.0669
쎈wh쎯	-10.0669
ul쎯d쎯	-10.0671
xkjn1쎯	-10.0672
lgey2쎯nf쎯	-10.0674
wqj쎯gxi쎯	-10.068
h쎯ymhj0쎯	-10.0681
ygu쎯ywx쎯	-10.0683
쎁쎉쎇쎃rh쎯	-10.0684
쎀-	-10.0687
sgtk1쎯	-10.069
jvko0쎯je쎯	-10.0692
쎂rh쎯	-10.0694
d0쎯	-10.0698
um쎯qyv쎯	-10.0701
uqwl쎯	-10.0703
tqv쎯	-10.0705
ugk쎯	-10.0707
:쎃	-10.0707
ygk쎯yygy쎯	-10.0712
pe쎯nd쎯	-10.0715
f쎯ltu0쎯	-10.0716
tffu쎯qq쎯tkh쎯	-10.0717
,lk쎯	-10.0724
lg쎯tkgg1쎯	-10.0725
wb쎯wu쎯r쎯	-10.0726
qq쎯tyna2쎯	-10.0726
etg쎯tjh쎯	-10.0726
jcf쎯	-10.0728
deb쎯	-10.0729
a쎯wt쎯;	-10.073
wtr쎯	-10.0733
():	-10.0736
r쎯eb쎯tl쎯	-10.074
fhv쎯xe쎯	-10.0741
gef쎯dw쎯	-10.0743
gae쎯pww쎯	-10.0745
h0쎯	-10.0746
irr쎯	-10.0747
nnh쎯tdij0쎯	-10.0748
nj쎯ntg쎯	-10.0748
pei쎯og쎯dd쎯ip쎯	-10.0754
iagw쎯ujn쎯	-10.0754
ym쎯ijl쎯	-10.0756
ynm쎯	-10.0759
wff0쎯	-10.0759
vi쎯ujf0쎯	-10.0759
wyn쎯	-10.0762
uxt쎯	-10.0768
.q쎯wu쎯	-10.077
xxf쎯	-10.0772
o쎯y쎯r쎯	-10.0774
lkb쎯	-10.0775
wht쎯nty0쎯	-10.0776
iqc쎯cep쎯	-10.0777
awv쎯	-10.0782
qu쎯	-10.0782
qmq쎯qr쎯	-10.0784
sad쎯	-10.0785
”t쎯“	-10.0785
tp쎯gj쎯a쎯wt쎯	-10.0788
wgk쎯ec쎯	-10.079
jgm쎯aib쎯ip쎯bpf쎯	-10.0792
쎉쎄	-10.0792
fny0쎯tu쎯	-10.0794
gmf쎯uqw쎯	-10.0795
rpws쎯yfy2쎯	-10.0797
gmi쎯iry쎯	-10.0797
iie쎯by쎯	-10.0799
k쎯qh쎯	-10.08
v쎯fhn쎯	-10.0803
rep쎯sc쎯	-10.0804
ians0쎯uthp0쎯	-10.081
caq쎯fcl쎯	-10.0815
rma쎯	-10.0817
raw쎯	-10.0818
ijl쎯riu0쎯	-10.0818
nnnn0쎯dn쎯o쎯	-10.082
o쎯pt쎯yne쎯rj쎯waw쎯	-10.0822
tlf0쎯et쎯	-10.0822
ijlc쎯	-10.0823
l쎯uthp0쎯	-10.0837
c쎯adw쎯	-10.0839
rpw쎯emc쎯	-10.0841
v쎯fcl쎯sm쎯	-10.0842
:《	-10.0843
maw쎯gajf0쎯	-10.0843
fcl쎯ijlc쎯	-10.0845
ipk쎯xeg0쎯nnh쎯yn쎯	-10.0845
쎈쎉	-10.0847
djd쎯iyt1쎯	-10.0851
쎀쎉	-10.0854
ftj쎯.	-10.0856
i쎯s쎯	-10.0857
ig쎯	-10.0861
k쎯e쎯	-10.0862
rg쎯adwe1쎯	-10.0863
fqu쎯o쎯	-10.0865
fqp쎯tkgg1쎯	-10.0867
sux쎯	-10.0876
ap	-10.0876
lf쎯	-10.0876
h쎯dm쎯	-10.0881
ige쎯jsr쎯	-10.0882
qnq쎯wyv쎯	-10.0882
od쎯wny1쎯	-10.0885
rvyo쎯gkp쎯	-10.0885
qh쎯l쎯	-10.0886
xh쎯nf쎯	-10.0887
jfd쎯r쎯	-10.0888
pv쎯egc쎯	-10.0889
)zzbd3쎯《	-10.089
bg쎯jtg쎯	-10.0891
.iv쎯	-10.0893
ywfw0쎯	-10.0904
uthp0쎯tfl쎯	-10.0908
fhb쎯	-10.0912
-쎄	-10.0913
itd쎯fcl쎯,	-10.0916
qqk쎯	-10.0918
jy쎯hko쎯	-10.092
pww쎯jg쎯	-10.0921
madt2쎯	-10.0923
yid쎯yynw1쎯	-10.0924
』『	-10.0925
apk쎯og쎯	-10.0926
rdj쎯gq쎯	-10.0932
ua쎯i쎯	-10.0937
bm쎯thd쎯	-10.0938
wt쎯og쎯	-10.094
쎂쎅쎀	-10.0941
uqt쎯yid쎯	-10.0942
rn쎯yle쎯	-10.0955
d쎯《	-10.0959
wfg1쎯	-10.096
xh쎯fhn쎯r쎯	-10.0966
ymc쎯yf쎯jgm쎯	-10.0967
쎀쎃	-10.0968
ruv쎯fyk쎯	-10.097
fg쎯rh쎯	-10.0974
klj쎯jfcf쎯	-10.0975
pp쎯ue쎯	-10.0978
iw쎯vfhp1쎯	-10.0979
tk쎯dd쎯	-10.0985
yygy쎯tr쎯wk쎯ryn1쎯	-10.0988
shi쎯	-10.0989
r쎯ymc쎯yf쎯	-10.099
iv쎯rh쎯	-10.0996
uk쎯wug0쎯	-10.1
dnv0쎯gu쎯yy쎯oy쎯,	-10.1001
쎉쎃	-10.1004
uyt1쎯	-10.1004
qkqy0쎯	-10.1005
tgm쎯	-10.1009
wdn쎯te쎯ftbt쎯jgm쎯	-10.101
fhw쎯pu쎯	-10.1015
wgku1쎯yn쎯	-10.1028
ese쎯qc쎯	-10.1032
sgj쎯	-10.1036
af	-10.104
wn쎯fqb0쎯	-10.1044
ltu0쎯pvs쎯	-10.1045
wgen1쎯	-10.1047
gkim1쎯	-10.1049
xt쎯)	-10.1051
ntg쎯t쎯	-10.1051
ip쎯fghg쎯	-10.1051
tg쎯u쎯r쎯	-10.1052
쎁쎉쎅쎁rh쎯	-10.1054
fha쎯go쎯fha쎯	-10.1057
bv쎯rmhj쎯	-10.1057
r쎯yy쎯aa쎯	-10.1058
rxj쎯pg쎯	-10.106
쎅쎀쎀쎀	-10.1065
sf쎯zzbd3쎯	-10.1066
쎉쎂	-10.1068
emc쎯wwv쎯e쎯bv쎯	-10.1069
cccg0쎯	-10.107
si쎯	-10.1072
h쎯e쎯	-10.1072
w쎯n쎯atd쎯bpf쎯	-10.1075
r쎯dd쎯	-10.108
a쎯um쎯	-10.1085
rmhj쎯dn쎯	-10.1086
sh쎯wny1쎯	-10.1088
ugdu쎯sy쎯ip쎯bpf쎯	-10.109
aws쎯kf쎯	-10.1095
jn쎯fcl쎯	-10.1102
vf쎯ra쎯	-10.1102
sm쎯kkd쎯	-10.111
jan쎯	-10.1114
i쎯it쎯	-10.1118
wt쎯et쎯.	-10.1122
g쎯gh쎯	-10.1123
o쎯y쎯.	-10.1123
ydjn1쎯	-10.1124
,nnnn0쎯	-10.113
.쎃zzbd3쎯	-10.1137
rd쎯nae0쎯	-10.1137
tffu쎯pei쎯wt쎯tr쎯.	-10.1138
wuf쎯	-10.1139
pnt쎯fffy0쎯	-10.1141
쎁쎉쎆쎀rh쎯	-10.1141
rnb쎯qje쎯	-10.1143
ukn쎯wc쎯ngk쎯	-10.1149
》r쎯	-10.1152
jqb쎯	-10.1153
wyk쎯	-10.1159
ftg쎯pwfi0쎯	-10.116
wfny0쎯xyc쎯r쎯	-10.1161
smgk쎯	-10.1168
caq쎯	-10.1169
tu쎯ip쎯ad쎯qqqq1쎯	-10.1169
wfny0쎯》	-10.117
bu쎯pfjm1쎯	-10.117
hka쎯tmc쎯	-10.1171
nhd0쎯	-10.1173
wdt쎯bm쎯	-10.1175
tfq쎯fj쎯wh쎯w쎯	-10.1177
vkf0쎯	-10.1178
udjh쎯	-10.1181
pyg쎯ytyh쎯	-10.1184
ygh쎯je쎯	-10.1188
uqyl쎯	-10.1189
eb쎯qnth쎯	-10.119
nkue0쎯	-10.1191
,yt쎯ty쎯	-10.1192
sq쎯vfhp1쎯	-10.1194
ssq쎯shn쎯	-10.1195
kfg쎯	-10.1199
trs쎯trtg쎯	-10.12
jgm쎯tg쎯	-10.1206
opw쎯	-10.1207
mdf0쎯dgtg0쎯	-10.1208
tg쎯dn쎯	-10.1209
쎂쎀쎀쎅	-10.1211
gkp쎯wycm1쎯	-10.1211
.thd쎯	-10.1211
쎁쎉쎅쎅rh쎯	-10.1214
xtdp1쎯	-10.1214
.쎁쎂	-10.1218
fj쎯bm쎯kkkk1쎯	-10.1219
atj쎯	-10.1228
nmh쎯	-10.1228
usr쎯vfhp1쎯	-10.1228
apg쎯dgh쎯	-10.1229
sk쎯mqb쎯	-10.1233
쎈rh쎯	-10.1237
ditn1쎯	-10.1238
ipk쎯tv쎯	-10.1242
rg쎯r쎯	-10.1244
whf0쎯og쎯r쎯	-10.1244
rh쎯hwbc쎯	-10.1246
tld1쎯iyw쎯	-10.1251
dn쎯ftjb쎯ymhj0쎯	-10.1251
iwe쎯	-10.1253
ihi쎯	-10.1255
m쎯hi쎯	-10.1257
qtbl쎯	-10.1257
ud쎯ab쎯	-10.1258
bm쎯go쎯	-10.126
yynw1쎯suq쎯	-10.1261
aik쎯	-10.1262
xr쎯	-10.1265
mqi0쎯	-10.1265
mdff3쎯	-10.1267
,ta쎯	-10.1268
tlo쎯	-10.1268
bgh쎯sm쎯	-10.1269
tga쎯fh쎯	-10.1271
k쎯l쎯tu쎯ip쎯bpf쎯	-10.1273
k쎯mmm쎯	-10.1274
ad쎯sg쎯cd쎯ovt쎯	-10.1282
k쎯fny0쎯	-10.1285
sg쎯tmd쎯	-10.1289
bwj쎯	-10.1292
nge쎯dgkn0쎯	-10.1293
hjs쎯	-10.1295
”j쎯	-10.1297
ll쎯bb쎯	-10.1298
awsk쎯	-10.1298
lkd쎯:“	-10.1299
uq쎯rq쎯	-10.1301
qty2쎯	-10.1301
kw쎯ce쎯	-10.1304
auqw쎯	-10.1311
ynf쎯	-10.1314
aqg쎯aqr쎯	-10.1316
a쎯og쎯dd쎯ip쎯	-10.1321
xf쎯gki쎯	-10.1322
qk쎯:	-10.1329
tffu쎯tffu쎯	-10.1332
wc쎯py쎯	-10.1336
adwe1쎯uj쎯,	-10.1337
yw쎯	-10.1342
irn쎯	-10.1348
.vbn쎯	-10.1349
sq쎯	-10.1352
tld1쎯tp쎯	-10.1353
jn쎯pym쎯ndj쎯	-10.1353
iyn1쎯	-10.1365
ukn쎯uk쎯	-10.1365
r쎯wt쎯kkk쎯	-10.1365
wam쎯ffi쎯	-10.1366
ymhj0쎯k쎯ny쎯	-10.1368
rs쎯ga쎯	-10.1368
gk쎯dty0쎯	-10.1369
a쎯tkgg1쎯ip쎯bpf쎯	-10.137
wgu쎯	-10.1374
쎁쎀쎀%	-10.1379
imj쎯pg쎯	-10.138
utd쎯	-10.1381
hxw쎯	-10.1385
fcp쎯fcl쎯km쎯	-10.1386
uo쎯ynm쎯	-10.1388
wbj쎯lw쎯gf쎯	-10.1389
.dl쎯wtf쎯	-10.1391
gyiy쎯	-10.1392
riq쎯hka쎯	-10.1394
oge쎯ny쎯	-10.1394
쎁kgn쎯	-10.1398
gjq쎯qq쎯r쎯	-10.1399
aga쎯	-10.1399
wycb쎯	-10.1409
nwy쎯	-10.1417
g쎯txi쎯gq쎯	-10.1417
wh쎯wsg0쎯	-10.1421
fgh쎯dd쎯	-10.1423
dy쎯gu쎯	-10.1429
uqt쎯uwl쎯	-10.1439
bj쎯ymhj0쎯	-10.1442
nnw쎯rgv쎯	-10.1444
fwm쎯mj쎯	-10.1446
e쎯g쎯wh쎯	-10.1447
pym쎯ipmq쎯	-10.145
j쎯“	-10.1451
,ym쎯	-10.1452
yvi쎯tjt쎯	-10.1454
,rj쎯ym쎯	-10.1455
yssc0쎯if쎯	-10.1456
ovt쎯fgh쎯	-10.1458
qq쎯al쎯ce쎯	-10.1458
.”《	-10.1458
ugdu쎯wyv쎯	-10.1459
pvs쎯wrh1쎯	-10.1463
k쎯sghg1쎯atd쎯	-10.1464
fgi쎯	-10.147
ps쎯ihc쎯	-10.1472
lkmi0쎯gae쎯	-10.1473
og쎯e쎯bv쎯wc쎯ngk쎯	-10.1474
fhv쎯ymhj0쎯	-10.1478
f1쎯	-10.1479
bm쎯ffff1쎯	-10.1481
oge쎯amd쎯	-10.1482
쎈-	-10.1483
쎂쎀쎀쎉	-10.1485
c쎯o쎯	-10.1491
lfnh쎯xat0쎯	-10.1493
lu쎯ym쎯	-10.1493
et쎯wtp쎯	-10.1496
r쎯jf쎯uj쎯	-10.1501
saj0쎯fnw쎯	-10.1502
쎁쎉쎇쎁rh쎯	-10.1507
ai쎯fm쎯gog쎯	-10.1507
....	-10.1509
zzbd3쎯ym쎯	-10.151
vo쎯itd쎯	-10.1513
iyw쎯dfy쎯	-10.1519
ukqb2쎯pfjm1쎯	-10.1519
v쎯yce쎯	-10.152
tqd쎯	-10.1525
wxm쎯tr쎯	-10.1526
gj쎯gk쎯	-10.1527
vcn1쎯	-10.1535
qtb쎯ldj쎯	-10.1535
gh쎯go쎯	-10.1537
jgf쎯	-10.154
ii쎯tev쎯	-10.154
ltu0쎯gae쎯	-10.1545
쎀쎇	-10.1547
eb쎯tl쎯,	-10.1548
cyi쎯	-10.1549
xk쎯wx쎯	-10.1551
쎉쎀쎀	-10.1552
jx쎯jhny쎯	-10.1553
rcp쎯	-10.1555
tx쎯ag쎯	-10.1563
qmq쎯ggw쎯	-10.1566
god쎯yak쎯	-10.1566
fuf0쎯	-10.1568
k쎯yygy쎯txi쎯	-10.1569
og쎯xgm쎯	-10.1573
yi쎯sk쎯c쎯	-10.1574
쎁쎂쎈	-10.1576
ivg쎯	-10.1577
wg쎯usr쎯	-10.1585
qk쎯o쎯	-10.159
wc쎯pv쎯	-10.1591
wgg1쎯	-10.1592
fjf쎯	-10.1594
gmww쎯uqw쎯	-10.1594
yvh쎯wa쎯	-10.1605
gq	-10.1613
gmap쎯	-10.1614
oa쎯mdo쎯	-10.1615
qyi0쎯	-10.1619
g쎯fnrt쎯	-10.1621
d쎯p쎯jfd쎯	-10.1621
xi쎯	-10.1622
ruv쎯kkkk1쎯:	-10.1622
wbj쎯vck쎯w쎯	-10.1627
gh쎯r쎯	-10.1627
dnv0쎯gu쎯yy쎯oy쎯	-10.1628
mwy0쎯	-10.163
ynky6쎯tj쎯b쎯	-10.163
쎁.쎀	-10.163
쎀zzts0쎯	-10.1634
wv쎯wf쎯	-10.1641
js쎯pu쎯	-10.1645
fqu쎯e쎯	-10.1652
iry쎯	-10.1654
tffu쎯bk쎯.	-10.1655
dj쎯vtg쎯	-10.1662
쎁쎉쎄쎆rh쎯	-10.1669
iq쎯ip쎯	-10.1676
ip쎯pe쎯	-10.1678
rkk쎯wt쎯txi쎯xyc쎯	-10.1679
x쎯iyj쎯ukn쎯nh쎯ty쎯	-10.1686
uk쎯,	-10.169
ke쎯xh쎯	-10.169
ln쎯ftg쎯	-10.1691
%,	-10.1693
puv쎯adwe1쎯	-10.1703
dhq쎯	-10.1707
pnt쎯dcg쎯	-10.1711
rfm쎯jg쎯tp쎯gj쎯	-10.1714
vep쎯ws쎯	-10.1717
qqc쎯	-10.1721
fhqv0쎯rvyl0쎯	-10.1723
pynk0쎯	-10.1724
ice쎯	-10.173
eri쎯	-10.1733
zzzy	-10.1741
g쎯uk쎯	-10.1745
ypk쎯	-10.1751
yca쎯	-10.1755
xo쎯bd쎯	-10.1761
ipw쎯ya쎯	-10.1767
rer쎯	-10.1772
iie쎯wx쎯	-10.1773
쎉-	-10.1774
쎄.	-10.1779
):	-10.1792
shy0쎯	-10.1794
,wkh0쎯fj쎯	-10.1796
y쎯lw쎯	-10.1796
ijl쎯ytyh쎯	-10.1797
/쎂	-10.1808
rnt쎯	-10.1811
ja쎯	-10.1811
rkm쎯	-10.1811
.rg쎯	-10.1814
qyvl0쎯ip쎯	-10.1815
쎀쎄	-10.1817
td쎯ykw쎯u쎯sc쎯	-10.1818
jgm쎯aib쎯	-10.1819
quk쎯	-10.1824
i쎯qy쎯	-10.1825
,lk쎯ty쎯	-10.1825
puhc쎯tq쎯o쎯	-10.1829
,q쎯	-10.1829
puhc쎯iwyf1쎯o쎯	-10.1831
xeg0쎯xkw쎯pu쎯ytb쎯	-10.1831
sfw쎯	-10.1833
sgn쎯tlf0쎯	-10.1834
tn쎯nnh쎯ta쎯	-10.1848
iwgu쎯	-10.1849
쎁쎉쎄쎇rh쎯	-10.185
sfiq0쎯	-10.185
xqc쎯cf쎯	-10.1853
faf1쎯	-10.1854
i쎯gc쎯	-10.1857
wycm1쎯tfq쎯	-10.1857
,hx쎯	-10.186
fl쎯wf쎯wf쎯km쎯	-10.1862
ruv쎯nh쎯	-10.1862
temk0쎯ter1쎯	-10.1863
sgy쎯	-10.1863
쎀.쎁	-10.1866
wfny0쎯dgkn0쎯kkd쎯	-10.1875
qb쎯	-10.1876
txg쎯jjjj0쎯	-10.1876
by쎯hh쎯	-10.1876
pyv쎯	-10.1876
yf쎯jg쎯	-10.1878
es쎯mqc쎯	-10.1879
v쎯jn쎯	-10.1879
twgi쎯	-10.188
kkkk1쎯epw쎯	-10.1881
m쎯rh쎯	-10.1881
jn쎯wy쎯	-10.1881
ih쎯qt쎯	-10.1882
qqw쎯	-10.1886
khtd2쎯	-10.1886
wht쎯vfhp1쎯	-10.1887
gm쎯o쎯	-10.1888
uqwm1쎯ipw쎯	-10.189
ct쎯	-10.1891
g쎯wdm쎯	-10.1892
dr쎯bb쎯	-10.1896
fggh쎯gk쎯	-10.1897
sgty쎯	-10.1906
kfi쎯uthp0쎯	-10.1911
gd쎯f쎯	-10.1913
ip쎯wug0쎯.	-10.1913
buj쎯djg쎯	-10.1915
kqb0쎯	-10.1917
alw쎯bu쎯	-10.1919
er쎯	-10.1919
sf쎯,	-10.192
ulk3쎯	-10.1921
wc쎯y쎯	-10.1923
쎁쎉쎅쎀rh쎯	-10.1924
tv쎯rta쎯	-10.1929
:쎁.	-10.1932
xnn1쎯	-10.1932
kwyg0쎯	-10.1935
》aqt쎯	-10.1937
whf0쎯og쎯,	-10.1938
vii쎯ntk쎯	-10.1942
nx쎯gog쎯	-10.1952
,ntk쎯gf쎯	-10.1953
nty0쎯xyna1쎯	-10.1954
o쎯k쎯l쎯	-10.1959
udyj쎯tg쎯	-10.1961
,k쎯aw쎯ipk쎯km쎯,	-10.1962
rqb0쎯rmhj쎯	-10.1963
std쎯ivw쎯	-10.1966
rua쎯	-10.1969
mc쎯mrg0쎯	-10.197
vvv쎯bynw0쎯	-10.1971
wdn쎯ugdu쎯	-10.1983
wxm쎯tmh0쎯	-10.1983
ojf쎯ruv쎯	-10.1989
itd쎯fcl쎯.	-10.199
gc쎯dp쎯	-10.199
yvk쎯	-10.1991
sr쎯	-10.1993
ip쎯wf쎯wf쎯km쎯	-10.1998
xq쎯쎁	-10.1998
tffu쎯bk쎯	-10.2003
gah쎯ic쎯ymhj0쎯	-10.2003
fjt쎯btg쎯	-10.2009
.dmj1쎯	-10.201
awx쎯faj쎯	-10.2012
dw쎯to쎯	-10.2012
awsk쎯uff쎯	-10.2013
gh쎯ntk쎯	-10.2016
jf쎯whn쎯	-10.2017
쎂쎂쎀	-10.2018
uqf쎯adw쎯	-10.2019
ukqb2쎯qv쎯lt쎯	-10.2023
yid쎯et쎯gf쎯	-10.2023
jhnr쎯	-10.2024
txi쎯xyc쎯zzbd3쎯	-10.2027
ftjb쎯wf쎯	-10.2029
ai쎯yiu0쎯	-10.2033
tu쎯ip쎯dga쎯pwv쎯	-10.2035
ugm쎯w쎯	-10.2036
pwt쎯kkkk1쎯	-10.2037
mfk쎯adwe1쎯	-10.2037
yo쎯dn쎯	-10.204
jn쎯xjt쎯	-10.2041
ajt쎯qc쎯	-10.2042
fjh0쎯tr쎯	-10.2043
wk쎯qyvl0쎯	-10.2044
ga쎯v쎯r쎯	-10.2046
mhh쎯	-10.2047
ad쎯uk쎯	-10.2047
trf0쎯tkh쎯	-10.2049
jd쎯	-10.205
jyie쎯wqj쎯	-10.205
tfk0쎯rh쎯	-10.205
lq쎯cn쎯	-10.2051
doq쎯	-10.2051
ipf쎯	-10.2053
fny0쎯og쎯ww쎯gk쎯	-10.2056
쎂쎀쎁쎁	-10.2059
itp쎯	-10.206
.p쎯tkh쎯	-10.2062
f쎯gkp쎯	-10.2069
---	-10.2069
qq쎯rh쎯r쎯	-10.2074
wqbh0쎯	-10.2075
ipk쎯r쎯	-10.2076
》t쎯《	-10.2077
d쎯l쎯mw쎯	-10.2078
ih쎯gtu쎯	-10.2081
rv쎯	-10.2082
qwyc1쎯	-10.2082
vcb쎯sk쎯.	-10.2083
rkk쎯	-10.2093
ip쎯zzbd3쎯	-10.2094
ujt쎯	-10.2095
ugk쎯shi쎯	-10.2099
쎇rh쎯	-10.21
gkp쎯e쎯	-10.2102
g쎯pg쎯r쎯	-10.2102
aq쎯klj쎯	-10.2102
tg쎯u쎯ad쎯f쎯	-10.2108
ftbt쎯bk쎯a쎯	-10.2109
xeg0쎯dn쎯.	-10.2111
wv쎯sfc쎯	-10.2113
j쎯g쎯pe쎯wys쎯	-10.2116
(쎁쎉쎁	-10.212
mfky쎯ynt0쎯	-10.2123
go쎯gc쎯	-10.2129
ige쎯wxf쎯dd쎯ip쎯	-10.2131
gk쎯tr쎯	-10.2131
dm쎯ow쎯	-10.2136
,gae쎯dn쎯	-10.2138
xat0쎯	-10.2139
wgkq0쎯et쎯r쎯	-10.2142
rytp1쎯yge쎯	-10.2143
wtd쎯	-10.215
dr쎯wbj쎯	-10.2152
ecl쎯	-10.2155
jb쎯puv쎯	-10.2155
wht쎯tjt쎯	-10.2159
tx쎯쎃	-10.217
qnr쎯yhk쎯	-10.217
uvh쎯	-10.217
dgkn0쎯ipmq쎯	-10.2171
bn쎯i쎯	-10.2171
sf쎯w쎯.	-10.2176
yny0쎯f쎯u쎯ga쎯v쎯	-10.2176
xyna1쎯tv쎯	-10.2178
nv쎯	-10.2181
eee0쎯cd쎯lk쎯a쎯wt쎯	-10.2186
uu쎯wsg0쎯	-10.2189
naj0쎯ipkh1쎯	-10.2192
txg쎯g쎯	-10.2198
쎂쎀쎀쎄	-10.22
iyc쎯cep쎯	-10.2203
agu쎯js쎯	-10.2205
tq쎯o쎯“	-10.2206
dgt1쎯um쎯	-10.2207
,ux쎯	-10.2207
mmq쎯wug0쎯	-10.2211
e쎯:	-10.2211
rjq쎯	-10.2218
dgtg0쎯pe쎯yfd쎯	-10.2223
f쎯gj쎯wug0쎯lfhf쎯	-10.2227
idt쎯	-10.2229
g쎯rx쎯	-10.2229
l쎯uu쎯	-10.2236
auq쎯	-10.2237
wa쎯dcg쎯	-10.2239
aqo쎯	-10.2243
suq쎯aq쎯	-10.2245
bm쎯go쎯r쎯	-10.2247
puw쎯	-10.2247
쎁)	-10.2247
wdt쎯gc쎯	-10.2247
pwkw쎯	-10.225
d쎯ugdu쎯l쎯	-10.2252
bs쎯qiu0쎯	-10.2258
,ipkh1쎯	-10.226
it쎯vvv쎯	-10.226
rp쎯wa쎯	-10.2261
-쎆	-10.2262
tx쎯fg쎯nm쎯	-10.2267
faw쎯	-10.2272
img쎯gl쎯	-10.2273
wgj쎯tjh쎯	-10.2277
쎁쎉쎃쎆rh쎯	-10.2279
dgj쎯wrh1쎯	-10.228
rqci0쎯lt쎯	-10.2281
fjgh0쎯	-10.2284
pw쎯pl쎯	-10.2291
쎁쎁쎀	-10.2295
wys쎯》	-10.2295
”(	-10.2302
wt쎯tr쎯	-10.2305
iwyf1쎯	-10.2309
txg쎯g쎯wh쎯	-10.2309
yud1쎯	-10.231
gkq쎯	-10.2311
yfj0쎯syp쎯b쎯	-10.2313
whf0쎯	-10.2314
th쎯th쎯ta쎯	-10.2316
sh쎯wycb쎯	-10.2319
sm쎯jn쎯	-10.2326
pjv쎯	-10.2327
rxj쎯ovt쎯	-10.2331
xten1쎯	-10.2332
g쎯wa쎯	-10.2337
uqsg쎯img쎯	-10.234
wdn쎯te쎯r쎯	-10.2341
lpdk1쎯aq쎯	-10.2345
qn	-10.2346
fyb0쎯	-10.2348
fha쎯fm쎯	-10.2348
iuw쎯	-10.2352
dgh쎯fd쎯	-10.2353
,x쎯fp쎯	-10.2358
iwyf2쎯	-10.2363
ts쎯wrh1쎯gh쎯	-10.2365
yo쎯gae쎯	-10.2369
yny0쎯uj쎯	-10.2371
gah쎯sy쎯	-10.2376
e쎯rn쎯	-10.2386
suf쎯	-10.2387
dg쎯l쎯	-10.2389
rufh1쎯	-10.2391
ip쎯wf쎯gj쎯gk쎯	-10.2397
,m쎯rh쎯	-10.2401
yfy2쎯ywx쎯	-10.2404
rmhj쎯ax쎯	-10.2405
qq쎯ovt쎯	-10.2409
dyc쎯	-10.241
ytn쎯lfn쎯	-10.241
(-)	-10.2411
.yvh쎯	-10.2414
vtk쎯qynm1쎯	-10.2416
xeg0쎯dn쎯,	-10.2423
,gip쎯e쎯	-10.2429
ntg쎯zzbd3쎯	-10.2431
by쎯ryn1쎯	-10.2431
tve쎯dd쎯	-10.2432
py	-10.2432
tu쎯rfc쎯dd쎯ip쎯	-10.2434
eb쎯tl쎯k쎯ny쎯	-10.2435
eeq쎯	-10.2438
tmc쎯	-10.2441
g쎯kw쎯	-10.2442
ldd0쎯pg쎯uqwm1쎯u쎯	-10.2443
wa쎯ge쎯wt쎯	-10.2444
wcd쎯	-10.2453
ftg쎯han쎯	-10.2456
wg쎯l쎯tk쎯f쎯	-10.2459
쎀.쎂	-10.2463
yb쎯ga쎯	-10.2464
wn쎯fqb0쎯,	-10.2464
apl쎯fcl쎯lt쎯	-10.2466
mw쎯qh쎯	-10.2469
k쎯l쎯dd쎯bfm쎯	-10.2469
sg쎯tu쎯ip쎯dl쎯	-10.2469
suf쎯hhhh쎯	-10.2471
ftx쎯w쎯	-10.2473
whf0쎯og쎯tp쎯gj쎯	-10.2474
ww쎯dmj1쎯	-10.2477
tf	-10.2478
yfj0쎯syp쎯	-10.248
zzbd3쎯ith쎯	-10.2484
yw쎯pg쎯	-10.249
rqw쎯	-10.2491
sgn쎯e쎯	-10.2494
zzbd3쎯qie쎯wyk쎯	-10.2496
if쎯w쎯	-10.2496
lfn쎯tqq쎯	-10.2497
쎈쎁	-10.2497
nuk1쎯	-10.2498
:fc쎯rf쎯	-10.2498
r쎯jyie쎯ktm쎯	-10.2498
egc쎯w쎯	-10.2499
dd쎯isgg2쎯yhk쎯	-10.2499
mfky쎯ubtf0쎯	-10.25
dmj1쎯dn쎯	-10.2501
r쎯trf0쎯hko쎯	-10.2501
rvyo쎯nge쎯	-10.2502
ruv쎯tffy0쎯	-10.2502
rnv0쎯	-10.2508
kn쎯wdt쎯	-10.2512
gkl쎯tn쎯nnh쎯ta쎯	-10.2512
jx쎯je쎯	-10.2514
dgkn0쎯nge쎯	-10.2514
lu쎯dd쎯	-10.2516
rv쎯ral쎯	-10.2518
tgj쎯vfhp1쎯	-10.2518
(쎁쎉쎀	-10.2521
je쎯dqe쎯	-10.2524
쎂)	-10.2525
bn쎯sk쎯c쎯	-10.2533
tmgt3쎯	-10.2535
nfif0쎯	-10.2535
,gm쎯e쎯	-10.2536
wyf0쎯	-10.2537
rvh쎯fpx쎯	-10.2542
쎅wv쎯qkhh1쎯	-10.255
fq쎯bv쎯	-10.255
tmd쎯wwv쎯	-10.2551
f쎯u쎯	-10.2553
""	-10.2555
r쎯tk쎯tkh쎯	-10.2556
ngkg쎯	-10.2558
b쎯.	-10.2565
r쎯fdm쎯fiy쎯	-10.2566
fd쎯xte쎯	-10.2567
e0쎯	-10.257
fu쎯u쎯	-10.2572
thp쎯wjh쎯	-10.2572
wtp쎯	-10.2577
wg쎯aq쎯	-10.2577
ythp1쎯tg쎯	-10.2578
anb0쎯w쎯	-10.258
sh쎯lpk0쎯	-10.2584
iv쎯ue쎯	-10.2585
yw쎯sk쎯	-10.2589
.o쎯b쎯	-10.2596
ywe쎯	-10.2598
\	-10.2601
vkf0쎯ga쎯	-10.2605
iwy2쎯	-10.2606
yf쎯aj쎯tg쎯yce쎯	-10.2607
trf0쎯klj쎯j쎯	-10.2608
쎁쎉쎃쎉rh쎯	-10.2608
tem쎯	-10.2609
whw쎯	-10.2611
pei쎯yne쎯	-10.2618
ode쎯	-10.2622
k쎯l쎯aw쎯u쎯ipk쎯.	-10.2623
dgkn0쎯epc쎯	-10.2623
i쎯fp쎯	-10.2627
uy쎯rh쎯	-10.2628
쎇쎁	-10.2628
dqq쎯	-10.263
ujfj0쎯wug0쎯,	-10.2634
wy	-10.2634
、	-10.2638
v쎯dp쎯	-10.264
hxs쎯	-10.264
ue쎯tmd쎯o쎯	-10.2643
itd쎯ntg쎯	-10.2645
f쎯hko쎯	-10.2647
fhfk1쎯	-10.2649
wc쎯xd쎯	-10.265
jfd쎯dm쎯	-10.265
fue쎯	-10.2654
ypt쎯oy쎯	-10.2656
cf쎯yy쎯	-10.2666
wycm1쎯nf쎯gh쎯	-10.2667
tvt쎯	-10.2672
pgf1쎯pm쎯	-10.2673
lkd쎯gc쎯	-10.2674
dn쎯uu쎯r쎯	-10.2679
jm쎯gc쎯	-10.2682
awnu1쎯	-10.2682
um쎯fnrt쎯	-10.2682
pu쎯wsg0쎯	-10.2684
wxf쎯w쎯	-10.2688
쎆rh쎯	-10.2688
g쎯thg1쎯	-10.269
hao쎯rny1쎯	-10.2697
yn쎯》	-10.2698
adk쎯fggh쎯	-10.2698
yh쎯w쎯	-10.2699
xvk쎯	-10.27
wjg쎯j쎯	-10.2701
qqqq1쎯uqd2쎯	-10.2704
tr	-10.2706
tg쎯itd쎯r쎯	-10.271
wbg0쎯	-10.2713
dm쎯tkw쎯xq쎯	-10.2715
ybf0쎯	-10.2716
fs쎯	-10.2716
i쎯td쎯	-10.2717
qq쎯w쎯	-10.2722
waw쎯yid쎯um쎯	-10.2729
y쎯s쎯e쎯	-10.2732
aqq쎯ugdu쎯	-10.2732
bk쎯tq쎯	-10.2733
sg	-10.2733
()zzbd3쎯	-10.2733
dd쎯rnb쎯	-10.2739
adwr0쎯fjg0쎯	-10.274
mdo쎯	-10.2745
f쎯fhg1쎯:	-10.2748
xnf쎯xq쎯	-10.2749
쎁쎀-	-10.275
o쎯synw쎯ny쎯	-10.2756
tu쎯ta쎯	-10.2757
tfk0쎯oy쎯	-10.2758
쎁쎉쎄쎀rh쎯	-10.2766
gxw쎯	-10.2769
jmh쎯	-10.2771
iwt쎯ou쎯	-10.2773
qk쎯pe쎯	-10.2774
wwgj0쎯	-10.2775
uqb쎯	-10.2776
qd쎯dmj1쎯	-10.278
mh	-10.2781
fjg0쎯	-10.2783
fuk쎯yce쎯	-10.2783
jghm1쎯sft쎯	-10.2787
iqpl1쎯or쎯	-10.2788
“k쎯l쎯	-10.2792
“dg쎯	-10.2793
,vfhp1쎯tam쎯	-10.2794
ruv쎯rp쎯	-10.2797
wc쎯fqb0쎯ue쎯	-10.2798
hjj쎯fha쎯	-10.2798
g쎯rn쎯	-10.2804
sk쎯waw쎯	-10.2804
vk쎯wynb0쎯	-10.2806
uter쎯	-10.2807
gkl쎯y쎯yam쎯	-10.281
fp쎯iha쎯	-10.2811
tfq쎯rg쎯d쎯	-10.2814
dif쎯f쎯dm쎯tkw쎯	-10.2814
쎁쎀쎀dq쎯	-10.2815
y쎯wtf쎯,	-10.2818
jn쎯du쎯	-10.2821
kkd쎯sft쎯	-10.2829
gjq쎯j쎯	-10.284
vv쎯tu쎯	-10.2844
:쎄	-10.2847
ahko0쎯	-10.285
dty0쎯buj쎯	-10.2852
ssyx쎯	-10.2852
ipl쎯	-10.2858
xx쎯kwgj0쎯	-10.2859
.vk쎯	-10.2861
jyie쎯ktm쎯lt쎯	-10.2861
gqjo0쎯fghg쎯	-10.2862
pw	-10.2863
usr쎯fd쎯	-10.2863
ige쎯ifk0쎯	-10.2866
.ld쎯	-10.2873
riv쎯	-10.2876
itk쎯bj쎯	-10.2877
l쎯by쎯	-10.2881
tr쎯og쎯	-10.2888
pwl쎯	-10.2889
wge쎯	-10.2892
ick쎯gj쎯	-10.2893
dy쎯gu쎯iu쎯	-10.2895
qtyd0쎯	-10.2896
wc쎯jfd쎯,kha쎯yb쎯	-10.2899
ftbt쎯rep쎯.	-10.2901
,ul쎯wtf쎯	-10.2911
waw쎯jn쎯	-10.2912
.psu0쎯	-10.2918
lg쎯uj쎯	-10.2919
ym쎯dp쎯	-10.292
fnr0쎯ujf0쎯	-10.2922
fc쎯rip쎯	-10.293
pe쎯fl쎯wf쎯	-10.2931
fgh쎯lh쎯	-10.2932
k쎯ny쎯zzbd3쎯	-10.2933
9쎯	-10.2937
.쎁쎁	-10.2938
ujn쎯mqb쎯	-10.2941
qvn0쎯ntg쎯	-10.2942
ll쎯vvv쎯	-10.2943
txt쎯	-10.2947
wyb쎯	-10.2952
qnnk2쎯ou쎯	-10.2955
gfi쎯bw쎯	-10.2958
cbj쎯	-10.2962
ht쎯	-10.2962
jhng0쎯:“	-10.2964
jsd쎯	-10.2964
sh쎯wfny0쎯	-10.2969
gss쎯	-10.2969
lqp쎯lkb쎯	-10.2969
tdh쎯	-10.2977
dwiu쎯l쎯	-10.2984
tp쎯lpdk1쎯	-10.2988
h1쎯	-10.2991
aiit쎯	-10.2993
if쎯fwm쎯	-10.2994
iss쎯	-10.2998
and쎯dd쎯	-10.2999
r쎯synw쎯ny쎯	-10.3
mqq쎯hhu0쎯	-10.3001
cc쎯yy쎯	-10.3001
dww쎯	-10.3004
yuv쎯	-10.3008
igd쎯lk쎯	-10.3009
sh쎯wy쎯	-10.301
rbcc쎯	-10.3011
l쎯ffff1쎯dm쎯tkw쎯	-10.3013
uo쎯ey쎯	-10.3013
wdn쎯ahty0쎯	-10.3028
iww쎯	-10.3031
usr쎯rfc쎯sy쎯	-10.3033
쎁zzbd3쎯	-10.3034
(tuj0쎯tq쎯	-10.3043
bmg쎯	-10.3046
kgn쎯:	-10.3049
nc쎯ulg쎯	-10.3049
ftbt쎯ip쎯a쎯wt쎯	-10.3053
.k쎯l쎯	-10.3054
mqq쎯dmu1쎯	-10.3055
ukn쎯w쎯kkkk1쎯	-10.3058
r쎯oge쎯pyj쎯	-10.3059
kwyg0쎯g쎯r쎯	-10.3059
쎇wh쎯	-10.3065
aw쎯t쎯l쎯	-10.3069
ai쎯fm쎯uk쎯	-10.3069
dpr쎯	-10.307
ptf쎯	-10.3073
kkfb1쎯	-10.3073
ige쎯itf쎯	-10.3074
wj쎯rfm쎯	-10.3076
tgj쎯s쎯cd쎯ovt쎯	-10.3078
rtt0쎯	-10.3089
yni1쎯fqp쎯	-10.309
-쎅	-10.309
usr쎯aq쎯	-10.3092
rd쎯	-10.3095
cbd쎯imj쎯	-10.3097
(vk쎯	-10.3101
ln쎯kht쎯	-10.3106
rap쎯bm쎯	-10.3107
nge쎯rb쎯	-10.3107
tdtf0쎯	-10.3109
ftbt쎯rep쎯zzbd3쎯	-10.3111
mmgd0쎯	-10.3111
.쎁쎀	-10.3112
ryc쎯	-10.3112
isjg쎯	-10.3116
쎅wc쎯jfd쎯	-10.3117
sghg1쎯ux쎯uk쎯	-10.3118
gg쎯qqqq1쎯	-10.3118
a쎯anb0쎯ugdu쎯sy쎯	-10.312
rkm쎯rw쎯	-10.3121
”“	-10.3123
up쎯l쎯	-10.3125
d쎯gf쎯	-10.313
sd쎯	-10.3132
)w쎯.	-10.3133
쎁쎉쎅	-10.3136
fje쎯bj쎯	-10.3138
gu쎯yy쎯wc쎯jfd쎯	-10.3141
qyv쎯	-10.3142
,j쎯k쎯l쎯	-10.3143
mh쎯hx쎯	-10.3144
wg쎯yy쎯wug0쎯	-10.3145
v쎯bm쎯	-10.3149
_	-10.3149
,qq쎯	-10.315
hxf쎯	-10.315
bqv쎯	-10.3156
rtb쎯	-10.3156
dwf쎯fmud쎯	-10.3158
bc쎯bm쎯	-10.3158
wjjg쎯nf쎯	-10.3158
rn쎯e쎯r쎯	-10.3163
u쎯tg쎯r쎯	-10.3165
klj쎯w쎯	-10.3171
lv쎯	-10.3173
kjq쎯	-10.3173
uf쎯qynm1쎯	-10.3173
fjt쎯	-10.3176
it쎯ovt쎯n쎯ytt쎯	-10.3177
ert쎯	-10.318
xj쎯	-10.3183
txg쎯uqw쎯	-10.3184
uth쎯yam쎯	-10.3187
xte쎯sf쎯	-10.3189
lk쎯jel쎯	-10.3196
,yi쎯j쎯	-10.3197
y쎯fcl쎯	-10.3198
sve쎯sg쎯	-10.3199
wqin쎯r쎯	-10.32
eb쎯tl쎯r쎯	-10.3201
tdx쎯	-10.3202
mq쎯jy쎯aq쎯	-10.3203
klk쎯kdj쎯	-10.3209
ypt쎯oy쎯,tdp쎯peg쎯	-10.3213
vtd쎯	-10.3214
uk쎯ta쎯	-10.3215
sg쎯udh쎯	-10.3215
uwa쎯uyh쎯	-10.3216
itf쎯uqv쎯,	-10.3217
|	-10.3218
qnth쎯ipg쎯	-10.322
cm쎯ipkm1쎯	-10.3222
ii쎯js쎯	-10.3222
]	-10.3227
rfh1쎯	-10.3229
kcy0쎯	-10.3229
iej쎯	-10.3231
saj0쎯trf0쎯	-10.3235
e쎯uqt쎯r쎯	-10.3236
jtd쎯	-10.3237
m0쎯	-10.3238
rt쎯if쎯	-10.3239
쎁쎀wv쎯qkhh1쎯	-10.3243
vyv쎯	-10.3245
,pu쎯gm쎯	-10.3247
쎁쎉쎆쎇rh쎯	-10.325
ige쎯fje쎯	-10.3251
gk쎯,	-10.3252
cm쎯imj쎯	-10.3254
dg쎯qe쎯	-10.3256
cm쎯wynn3쎯	-10.3259
ta쎯pv쎯	-10.3259
ia쎯egc쎯	-10.326
g쎯wsg0쎯wx쎯	-10.3261
oge쎯ese쎯	-10.3262
j쎯g쎯qk쎯	-10.3263
qh쎯ygk쎯	-10.3264
pe쎯ta쎯	-10.3266
j쎯ugdu쎯l쎯	-10.3267
.vk쎯js쎯	-10.3268
wx쎯r쎯	-10.3272
tt쎯qk쎯	-10.3279
ql쎯	-10.3284
mq쎯kfi쎯	-10.3286
mb쎯ght쎯	-10.3286
fc쎯wfy0쎯	-10.3286
v쎯fcl쎯	-10.3288
g쎯nfc쎯	-10.3292
wg쎯wsg0쎯	-10.33
ii쎯k쎯	-10.3303
ght쎯fl쎯tv쎯km쎯	-10.3304
uqwm1쎯rfm쎯	-10.3308
bd쎯lw쎯	-10.3309
fny0쎯og쎯tg쎯u쎯	-10.331
().	-10.3311
jgm쎯uqwm1쎯	-10.3313
usr쎯xtd쎯	-10.3314
ogbn0쎯	-10.3316
pnt쎯av쎯	-10.3321
bn쎯sk쎯	-10.3322
쎁쎉쎄쎅rh쎯	-10.3322
qk쎯pb쎯	-10.3324
xy쎯	-10.3324
ovt쎯rpw쎯	-10.3325
#	-10.333
ipwk0쎯iyw쎯	-10.333
uff쎯ytyh쎯	-10.3332
fay쎯	-10.3333
de쎯alq쎯hhy0쎯	-10.3336
hv쎯hg쎯	-10.3338
ll쎯w쎯	-10.3338
tg쎯gj쎯	-10.3339
sft쎯rfm쎯	-10.3339
gm쎯nnnn0쎯	-10.3344
itm쎯uyh쎯	-10.3344
o쎯yygt쎯dd쎯	-10.3347
fgh쎯ag쎯	-10.3348
sy쎯ygk쎯	-10.3349
lgm쎯	-10.3351
sc쎯tjh쎯	-10.3352
uqv쎯wx쎯	-10.3353
rvk쎯bmg쎯	-10.3354
uu쎯khu쎯	-10.3357
aqky1쎯pwfi0쎯	-10.3361
wg쎯jjjj0쎯rmhj쎯	-10.3362
tfn쎯icf쎯ai쎯	-10.3365
inro쎯	-10.3365
kht쎯xg쎯	-10.337
dan쎯	-10.3373
fgh쎯wtu쎯	-10.3374
pfq쎯gkih0쎯r쎯	-10.3377
tu쎯uo쎯	-10.3379
r쎯ukd1쎯jghm1쎯	-10.3381
,vk쎯js쎯	-10.3385
tkm쎯	-10.3385
쎁쎉쎃쎈rh쎯	-10.3387
ifn쎯	-10.3392
쎀zzts1쎯	-10.3393
qevj쎯	-10.3397
qci쎯	-10.3398
fnrt쎯h쎯	-10.3399
te	-10.34
쎃wc쎯jfd쎯	-10.3411
ukh쎯fmk쎯	-10.3413
rwb쎯	-10.3417
dm쎯tkw쎯쎃	-10.3417
y쎯sm쎯	-10.342
“”	-10.3421
kyn1쎯	-10.3421
rno쎯	-10.3422
bm쎯thgc0쎯py쎯:	-10.3422
uwyc2쎯fcb쎯	-10.3424
uth쎯pe쎯	-10.3425
dfy쎯xpw쎯	-10.3425
쎂쎀쎁쎂	-10.3426
utu쎯uce쎯	-10.3427
ps쎯dht쎯	-10.343
vkb쎯	-10.3431
쎂쎀an쎯xn쎯	-10.3433
iyc쎯wfny0쎯	-10.3434
dcg쎯udi0쎯	-10.3435
iat1쎯	-10.3436
dd쎯ip쎯ip쎯dl쎯	-10.3436
sh쎯ud쎯r쎯	-10.3437
fgh쎯vt쎯	-10.3443
iawn0쎯kkkk1쎯	-10.3443
gkl쎯nnk쎯ta쎯	-10.3445
tmo쎯fcp쎯wf쎯	-10.3447
sj쎯yqj쎯	-10.3447
g쎯od쎯	-10.345
dn쎯w쎯	-10.3453
ym쎯ftg쎯	-10.3453
(.)	-10.3458
k쎯ih쎯whf0쎯og쎯	-10.346
tk쎯xe쎯	-10.3462
gg쎯wh쎯	-10.3462
a쎯wf쎯	-10.3471
egc쎯w쎯,	-10.3472
(쎁	-10.3478
mqu쎯.	-10.3479
(dr쎯	-10.3486
fwyc2쎯wyk쎯	-10.3488
dd쎯xq쎯	-10.349
tuk쎯nh쎯	-10.349
쎁쎉쎄쎁rh쎯	-10.3491
xw쎯cbj쎯	-10.3492
ftg쎯synw쎯	-10.3492
lk쎯nnw쎯	-10.3493
wv쎯ybf0쎯	-10.3496
tfqp쎯et쎯	-10.35
ipe쎯ya쎯	-10.3502
g쎯fnw쎯	-10.3502
wtl쎯pd쎯	-10.3502
gkih0쎯gae쎯	-10.3503
gae쎯dn쎯r쎯	-10.3506
xe쎯a쎯tkgg1쎯jgm쎯	-10.351
tp쎯gj쎯t쎯	-10.3514
aigy쎯	-10.3515
wt쎯bm쎯	-10.3516
ek쎯	-10.3516
fc쎯bw쎯	-10.3518
tr쎯kkk쎯	-10.3518
ajj0쎯dr쎯	-10.3519
rb쎯fjh0쎯	-10.3522
ytey0쎯tf쎯	-10.3522
gtu쎯dq쎯mq쎯	-10.3525
hl쎯	-10.3527
.gm쎯o쎯	-10.3528
nf쎯xuj쎯	-10.3529
uqt쎯lt쎯gf쎯	-10.3531
xfm쎯tavn쎯rvy쎯tf쎯	-10.3536
uq쎯cep쎯dd쎯ip쎯	-10.3539
tol쎯	-10.3543
rhy쎯	-10.3543
w쎯adw쎯k쎯	-10.3547
riq쎯	-10.3547
kkd쎯zzbd3쎯	-10.3549
쎁쎉쎄쎂rh쎯	-10.3551
r쎯gae쎯aa쎯	-10.3554
tuk쎯tl쎯	-10.3559
jb쎯vb쎯r쎯	-10.356
xan쎯nu쎯	-10.3561
uwb쎯	-10.3561
tu쎯ip쎯bpf쎯	-10.3567
kg쎯gm쎯	-10.3569
imk쎯itx쎯	-10.357
am쎯fmud쎯.	-10.3577
ag쎯rh쎯	-10.358
if쎯rmhj쎯	-10.3581
쎁.쎈	-10.3582
ndn쎯	-10.3585
r쎯rfc쎯sy쎯	-10.3586
ith쎯zzbd3쎯ymhj0쎯	-10.3587
dl쎯wa쎯	-10.3587
mqq쎯dc쎯	-10.3588
dqe쎯wk쎯	-10.359
ps쎯egc쎯	-10.3593
rh쎯u쎯	-10.3594
e쎯dif쎯f쎯	-10.3595
tffu쎯)	-10.3597
dj쎯wtu쎯	-10.3598
iq	-10.3598
ai쎯apfq쎯ymhj0쎯	-10.3599
epv0쎯	-10.3601
do쎯qc쎯	-10.3603
igk쎯	-10.3605
cnh쎯sghg1쎯	-10.3606
xyna1쎯dcg쎯	-10.3607
,ip쎯suq쎯	-10.3608
psu0쎯wa쎯	-10.3608
ge쎯uje쎯	-10.3609
wy쎯thn쎯rfc쎯sy쎯	-10.3614
ipw쎯epc쎯	-10.3615
ud쎯qvfp1쎯	-10.3617
em쎯efw쎯	-10.3618
mhj쎯	-10.3618
tu쎯tu쎯ta쎯	-10.362
wc쎯uq쎯	-10.362
is쎯	-10.362
lrj쎯	-10.3621
i쎯gmf쎯	-10.3621
fj쎯fghg쎯	-10.3622
hgm쎯	-10.3623
rrk쎯	-10.3623
vnu1쎯sfi쎯	-10.3625
reh쎯	-10.3627
.”ige쎯	-10.3627
yygt쎯itp쎯yid쎯et쎯	-10.3631
nyp쎯	-10.3633
puf0쎯	-10.3634
pfq쎯dn쎯b쎯	-10.3634
ubk1쎯uqt쎯	-10.3634
쎀.쎃	-10.3646
r쎯ujn쎯ln쎯	-10.3646
yeu쎯	-10.3651
vs쎯uq쎯	-10.3651
ugdu쎯cm쎯	-10.3651
p쎯su쎯r쎯	-10.3652
쎂쎀쎀쎂	-10.3653
bip쎯	-10.3654
fq쎯ywx쎯	-10.3655
wsg0쎯tgj쎯	-10.3656
nae0쎯gm쎯	-10.3656
zzj0쎯	-10.3661
pyj쎯tn쎯	-10.3662
uda쎯naj0쎯	-10.3664
nfd0쎯	-10.3665
dg쎯xe쎯	-10.3667
ob쎯	-10.3667
hak쎯	-10.3671
se쎯o쎯	-10.3673
jfj쎯	-10.3674
pyj쎯ytd쎯	-10.3676
qdm쎯eaj쎯	-10.3678
ll쎯ic쎯ytt쎯	-10.3685
wc쎯dmh0쎯	-10.3685
lh쎯tb쎯	-10.3685
sgjq쎯	-10.3687
cnh쎯tqt쎯	-10.3689
usr쎯wxf쎯	-10.3692
j1쎯	-10.3693
ujf0쎯qi쎯ip쎯bpf쎯	-10.3696
qgq쎯	-10.3697
khu쎯gfi쎯fcp쎯fcl쎯	-10.3703
da쎯dk쎯,	-10.3704
xk쎯ymf쎯	-10.3708
bk쎯og쎯rfc쎯sy쎯	-10.371
wt쎯ma쎯	-10.3711
wxf쎯ux쎯	-10.3712
nnk쎯uk쎯	-10.3714
rufh1쎯qu쎯	-10.3717
pwat0쎯fha쎯	-10.3717
tyna2쎯,	-10.3717
tu쎯dga쎯adm쎯hhhh쎯	-10.3718
kw쎯s쎯	-10.3718
fm쎯jj쎯	-10.372
xmw쎯oy쎯	-10.3724
dlf0쎯	-10.3725
x쎯iyj쎯tp쎯gj쎯	-10.3726
ca쎯ma쎯	-10.3726
rqa쎯	-10.3727
iytb0쎯pt쎯	-10.3729
etj쎯uk쎯	-10.3729
a쎯wt쎯pgc쎯	-10.3731
wfny0쎯uxhp쎯	-10.3735
.hhhh쎯ue쎯,	-10.3739
mf쎯pgk쎯	-10.3739
sym쎯	-10.3741
b쎯“	-10.3743
oge쎯fhl쎯	-10.3743
,trf0쎯klj쎯j쎯	-10.3747
ymhj0쎯w쎯	-10.3747
zzbd3쎯h쎯itx쎯	-10.3748
wsg0쎯mw쎯	-10.375
,sve쎯rnd1쎯	-10.3752
ftbt쎯yce쎯nnk쎯	-10.3752
x쎯cwg쎯,	-10.3753
pwd쎯qd쎯	-10.3755
qmk쎯	-10.3755
ry쎯	-10.3756
nck쎯	-10.3757
uxh쎯bb쎯	-10.3758
wxf쎯fm쎯	-10.376
ipg쎯dwg쎯	-10.3762
wuh0쎯	-10.3762
vah쎯	-10.3763
ai쎯ux쎯uk쎯	-10.3763
k쎯dr쎯	-10.3764
rdf0쎯fcl쎯	-10.3768
djdl2쎯	-10.3772
wc쎯uwl쎯	-10.3773
mw쎯r쎯	-10.3774
mq쎯nge쎯	-10.3776
》zzbd3쎯《k쎯l쎯	-10.3777
geh0쎯	-10.3778
쎁쎉쎄쎄rh쎯	-10.3781
egc쎯w쎯.	-10.3784
gjq쎯o쎯	-10.3787
bw쎯ta쎯	-10.3787
fpb쎯	-10.3792
maw쎯gajf0쎯r쎯	-10.3793
ihg1쎯	-10.3795
,dr쎯qk쎯	-10.3795
km쎯,	-10.3797
lfod0쎯	-10.3797
.쎃.	-10.3799
r쎯ud쎯txi쎯	-10.3805
ym쎯nfc쎯	-10.381
dyt쎯tr쎯	-10.3811
ggg0쎯fje쎯	-10.3811
lwj쎯dm쎯	-10.3812
pynn0쎯kkk쎯	-10.3816
dtf쎯wgkb0쎯	-10.3817
bm쎯th쎯	-10.3819
oge쎯tfqp쎯	-10.382
ooo쎯mmm쎯	-10.3821
rj쎯bm쎯b쎯	-10.3821
tp쎯gj쎯wsg0쎯txi쎯	-10.3823
,uq쎯cep쎯wgj쎯tjh쎯	-10.3823
ijl쎯fnm쎯	-10.3824
.gm쎯e쎯	-10.3825
pt쎯yne쎯r쎯	-10.3834
thg1쎯,	-10.3835
ton쎯	-10.3835
jb쎯rp쎯	-10.384
scf쎯uu쎯	-10.3842
y쎯wtf쎯zzbd3쎯	-10.3843
sghg1쎯fm쎯uk쎯	-10.3844
쎄쎀쎀쎀	-10.3845
dn쎯uu쎯b쎯	-10.3845
khgp0쎯wfny0쎯	-10.3846
qtjh0쎯	-10.3847
hich0쎯	-10.3849
gj쎯wynn3쎯,	-10.3854
whf0쎯og쎯.wc쎯ngk쎯	-10.3864
jb쎯ih쎯	-10.3866
uq쎯cep쎯wgj쎯tjh쎯	-10.3866
a쎯wt쎯w쎯km쎯	-10.3867
쎄.쎅	-10.3867
rfc쎯sy쎯zzbd3쎯	-10.3868
oa쎯dyt쎯	-10.3869
r쎯xp쎯wgk쎯ntg쎯	-10.3871
bm쎯r쎯	-10.3874
pp쎯th쎯	-10.3874
fhn쎯,	-10.3874
vd쎯	-10.3874
apk쎯tfkp0쎯	-10.3876
sg쎯wc쎯ngk쎯	-10.3876
nnu쎯	-10.3879
iq쎯ime쎯	-10.3879
wt쎯ftj쎯:	-10.3881
adwr0쎯zzbd10쎯	-10.3884
wtf쎯bk쎯	-10.3884
x쎯apk쎯gj쎯wynn3쎯	-10.3894
wg쎯usr쎯r쎯	-10.3895
mw쎯e쎯	-10.3898
mj쎯j쎯	-10.3905
y쎯s쎯et쎯gf쎯	-10.3906
,es쎯et쎯	-10.3907
ajdn0쎯	-10.3916
dy쎯bb쎯	-10.3917
nnh쎯k쎯	-10.3919
.sve쎯rnd1쎯	-10.3924
gqr쎯ivfh1쎯mhkg2쎯	-10.3927
r쎯m쎯jf쎯,	-10.3929
wkh0쎯	-10.393
ymc쎯yf쎯,	-10.3932
th쎯,	-10.3936
vcag쎯	-10.3937
-쎈	-10.3939
tuj0쎯wj쎯	-10.3939
tr쎯tkh쎯	-10.394
jo쎯fi쎯nua쎯	-10.3943
toc쎯yt쎯	-10.3946
tue쎯	-10.3949
l쎯ggg0쎯	-10.395
dd쎯lt쎯	-10.3951
fhl쎯og쎯	-10.3952
vte쎯	-10.3953
rvk쎯tg쎯	-10.3959
kwgj0쎯	-10.3963
쎅dq쎯	-10.3965
w쎯vtk쎯	-10.3965
ggi쎯ab쎯	-10.397
etn쎯gcf쎯	-10.3973
j쎯g쎯pe쎯fny0쎯og쎯	-10.3975
wgkq0쎯et쎯.	-10.3978
lu쎯qq쎯	-10.398
jtyl쎯tp쎯	-10.3983
ynky6쎯tj쎯	-10.3984
tu쎯pgc쎯	-10.3984
,ai쎯	-10.3984
》vs쎯fn쎯	-10.3984
xxf쎯og쎯tg쎯	-10.3984
qdb쎯sm쎯	-10.3986
ai쎯apfq쎯	-10.3986
qdt쎯tfkp0쎯	-10.3987
wyq쎯ge쎯	-10.3987
xng2쎯	-10.3987
isk쎯iyc쎯	-10.3988
dr쎯go쎯	-10.3989
yygy쎯bu쎯	-10.399
ito쎯	-10.3991
hxx쎯qc쎯	-10.3993
)t쎯	-10.3996
cm쎯hko쎯	-10.3997
jlx쎯ytn쎯	-10.3998
fny0쎯iy쎯gf쎯	-10.4003
rnr쎯ytyh쎯	-10.4003
w쎯uj쎯	-10.4003
wvp쎯	-10.4004
m쎯ip쎯	-10.4004
whf0쎯gk쎯og쎯	-10.4006
usr쎯iw쎯	-10.4015
ya쎯wnh쎯	-10.4017
ta쎯dw쎯	-10.4017
dlf0쎯ufk0쎯	-10.4018
yopy1쎯	-10.4019
gmww쎯w쎯	-10.402
ukn쎯nnk쎯	-10.4021
awx쎯tg쎯	-10.4021
kq쎯h쎯	-10.4024
tg쎯.	-10.4025
txgi5쎯gqf쎯	-10.4025
k쎯md쎯ipk쎯suq쎯	-10.4026
,jb쎯rg쎯	-10.4028
djb쎯ya쎯	-10.403
h쎯b쎯	-10.4031
rtfp0쎯	-10.4031
zzbd3쎯ih쎯	-10.4034
t쎯adw쎯wb쎯	-10.4035
rpd1쎯	-10.4035
,i쎯on쎯	-10.4035
ou쎯isgg2쎯	-10.4038
iyv쎯ijlc쎯	-10.4041
wf쎯gj쎯gk쎯	-10.4042
fw쎯w쎯	-10.4042
qkm쎯mw쎯	-10.4044
tg쎯itd쎯k쎯	-10.4046
dy쎯bj쎯ce쎯	-10.4048
kkkk1쎯kfi쎯	-10.4048
hhhh쎯vi쎯	-10.4048
rpwn0쎯	-10.4053
t쎯v쎯nae0쎯	-10.4054
yi쎯yfn쎯gf쎯	-10.4056
jjjj0쎯adwe1쎯	-10.4057
eaj쎯	-10.4057
vjs쎯	-10.406
.쎂쎀쎀쎈rh쎯	-10.4062
iann0쎯	-10.4063
xuj쎯ntg쎯	-10.4066
쎁쎉쎄쎈rh쎯	-10.4068
sk쎯tfkd쎯	-10.4071
ll쎯ntg쎯	-10.4071
lk쎯gkip0쎯	-10.4075
yx쎯tfq쎯	-10.4077
k쎯ih쎯ip쎯	-10.408
zzbd3쎯rrr쎯	-10.4081
cq쎯ytf쎯	-10.4082
》g쎯nnh쎯	-10.4089
gv쎯bb쎯	-10.4093
mmm쎯f쎯	-10.4095
쎃쎀dq쎯	-10.4096
gkl쎯suq쎯ta쎯	-10.4097
tx쎯wty0쎯	-10.4097
vfb쎯tc쎯	-10.4097
.isgg2쎯yhk쎯	-10.4099
wye쎯tfkd쎯	-10.4099
ipk쎯xeg0쎯xkw쎯	-10.4101
r쎯dr쎯mj쎯	-10.4101
vnn0쎯	-10.4104
wsg0쎯tkw쎯	-10.4104
xtu쎯umd1쎯	-10.4108
gef쎯qynm1쎯ymhj0쎯	-10.4109
.ige쎯	-10.4115
xad쎯	-10.4115
gkl쎯bpf쎯ta쎯	-10.4116
ip쎯fny0쎯og쎯	-10.4121
thfn쎯tc쎯	-10.4125
jb쎯vb쎯	-10.4128
』	-10.4129
sf쎯yfd쎯	-10.413
cm쎯iq쎯	-10.4133
wtfm1쎯	-10.4133
oge쎯ugdu쎯	-10.4139
,쎀쎀쎀	-10.414
uk쎯uk쎯ta쎯	-10.414
go쎯yu쎯	-10.4143
fhw쎯pw쎯	-10.4144
qkm쎯k쎯	-10.4144
dg쎯tkh쎯	-10.4144
fcu1쎯an쎯	-10.4145
vvv쎯,	-10.4148
fq쎯qjq쎯	-10.4149
.hx쎯qh쎯,	-10.4151
aq	-10.4151
nku쎯	-10.4156
yy쎯yyy쎯	-10.4156
r쎯mw쎯pww쎯	-10.4156
gkl쎯y쎯wtf쎯zzbd3쎯	-10.4157
쎂쎆jjjj0쎯	-10.416
kqr쎯	-10.4161
wvn쎯	-10.4164
pyk쎯	-10.4165
쎁쎈쎈	-10.4165
kb쎯	-10.4169
iie쎯thn쎯	-10.4169
g쎯uthp0쎯	-10.4173
xyc쎯ick쎯	-10.4175
gg쎯fgh쎯	-10.4177
h쎯tak쎯	-10.4186
쎅zzbd15쎯	-10.4186
yvi쎯ahko0쎯	-10.4186
aw쎯u쎯ipk쎯km쎯	-10.4188
qyvl0쎯gh쎯	-10.4196
!”	-10.4201
k쎯l쎯dgh쎯wa쎯	-10.4202
,ccc쎯qk쎯	-10.4203
ukn쎯rmc쎯uqwm1쎯	-10.4204
qyt쎯gae쎯	-10.4206
tu쎯rfc쎯dn쎯js쎯	-10.4207
rdj쎯ii쎯	-10.4208
dl쎯x쎯	-10.4215
ymc쎯pg쎯	-10.4215
by쎯ii쎯	-10.4216
xl쎯alt쎯	-10.4218
pp쎯kht쎯	-10.4219
,adwn4쎯gcf쎯	-10.422
7쎯	-10.4223
puh쎯yc쎯	-10.4232
쎀zzbd15쎯	-10.4234
rn쎯d쎯f쎯	-10.4234
xqi쎯	-10.424
ipkh1쎯ytyh쎯	-10.4242
h쎯mqq쎯	-10.4246
%	-10.4247
pe쎯fl쎯wf쎯wf쎯km쎯,	-10.4247
[	-10.4251
rvyo쎯ep쎯	-10.4256
,ukn쎯	-10.4257
auk쎯abu쎯	-10.4262
bpf쎯ta쎯	-10.4266
bk쎯gmu1쎯	-10.4267
sm쎯wf쎯	-10.4267
kkkk1쎯tca쎯	-10.427
〔	-10.4271
쎁쎃쎀	-10.4274
iie쎯bwt쎯	-10.4275
ldd0쎯wsg0쎯	-10.4276
fn쎯》	-10.4277
bdx쎯	-10.4281
zzsx6쎯쎂	-10.4284
iv쎯qd쎯	-10.4284
ls쎯	-10.4286
ue쎯tyg쎯	-10.4291
쎁.쎆	-10.4311
.g쎯tem쎯	-10.4313
gmu1쎯	-10.4314
r쎯s쎯fiy쎯	-10.4314
dga쎯pwv쎯pgc쎯	-10.4316
jjjj0쎯rb쎯	-10.4316
bu쎯dtb쎯	-10.4316
nnh쎯bpf쎯	-10.4322
.쎁zzbd3쎯	-10.4326
l쎯e쎯	-10.4327
khij쎯	-10.4327
wgk쎯wt쎯wo쎯wuf쎯	-10.4331
pe쎯xte쎯	-10.4331
dd쎯sov쎯	-10.4338
쎂wc쎯jfd쎯	-10.4338
mw쎯ibi쎯	-10.4339
ygk쎯ujf0쎯	-10.434
tg쎯tr쎯ip쎯	-10.4342
v쎯nae0쎯,	-10.4344
i쎯wjg쎯	-10.4346
es쎯wys쎯	-10.4347
pei쎯u쎯kkk쎯	-10.4347
hhy0쎯	-10.4353
sym쎯ytyh쎯ymhj0쎯	-10.4355
v쎯udp쎯	-10.4359
쎁쎉쎃쎂rh쎯	-10.436
tfqp쎯rt쎯	-10.4362
쎃.쎀	-10.4362
dn쎯gajf0쎯	-10.4362
kl쎯e쎯	-10.4369
wdt쎯bm쎯b쎯	-10.4371
ukd1쎯jghm1쎯,	-10.4373
jhng0쎯:‘	-10.4374
x쎯iyj쎯uqt쎯uwl쎯	-10.4375
r쎯whf0쎯og쎯	-10.4378
(vcb쎯	-10.4378
sm쎯,	-10.4381
iyb쎯	-10.4382
mmm쎯eyni쎯	-10.4384
iy쎯ty쎯	-10.4392
xgm쎯	-10.4393
ld쎯adw쎯	-10.4394
gip쎯sk쎯c쎯	-10.4396
mhk쎯	-10.4396
wvm쎯ls쎯	-10.4396
쎃)	-10.4399
uq쎯lwj쎯	-10.44
wx쎯zzbd3쎯	-10.4402
tey0쎯gd쎯	-10.4402
jaj1쎯	-10.4402
usr쎯u쎯kkk쎯	-10.4403
,p쎯j쎯	-10.4404
ynnu쎯	-10.4407
ntk쎯ntg쎯	-10.4408
j쎯jjjj0쎯sg쎯	-10.4408
wv쎯suq쎯	-10.4413
ssu쎯	-10.4413
txgi5쎯aps쎯	-10.4414
nb쎯	-10.4416
xte쎯ght쎯ywf쎯	-10.4423
mq쎯iq쎯	-10.4423
tmg1쎯tg쎯tr쎯	-10.4423
f쎯h쎯	-10.4424
쎉쎁	-10.4425
jb쎯wqa쎯	-10.4428
tmd쎯h쎯	-10.4429
itx쎯mw쎯qh쎯	-10.4429
ymhj0쎯ght쎯	-10.4431
gu쎯ck쎯,	-10.4431
r쎯g쎯uk쎯	-10.4435
l쎯gl쎯	-10.4436
wsg0쎯ta쎯	-10.4436
rg쎯wtf쎯	-10.4437
qq쎯it쎯	-10.4438
y쎯tp쎯uk쎯uyh쎯	-10.444
sdm쎯umd1쎯	-10.4441
fgh쎯wffg쎯	-10.4442
ysj쎯	-10.4443
usr쎯qgu쎯	-10.4444
tjf0쎯avd쎯	-10.4446
,dmj1쎯j쎯	-10.4447
tjf0쎯kfi쎯	-10.4448
rrr쎯oyvk1쎯	-10.4448
fm쎯itx쎯	-10.4451
awnu0쎯	-10.4451
tjtl쎯gfi쎯	-10.4452
ait쎯pu쎯	-10.4452
rvn2쎯	-10.4453
xev쎯	-10.4454
쎅zzts0쎯	-10.4455
wygg쎯yny0쎯	-10.4456
wfny0쎯bd쎯	-10.4457
rkm쎯wtl쎯	-10.4458
so쎯bm쎯	-10.4458
ibi쎯ugl쎯	-10.4458
mht쎯	-10.4459
it쎯ovt쎯	-10.4459
l쎯pe쎯thd쎯qd쎯	-10.4464
쎁쎉쎄쎃rh쎯	-10.4466
rw쎯mty1쎯	-10.4467
ssss0쎯cn쎯	-10.4468
.m쎯jf쎯	-10.4471
,fm쎯	-10.4475
tu쎯ip쎯pe쎯	-10.4478
an쎯lwj쎯h쎯	-10.4487
mhm쎯	-10.4488
itx쎯fm쎯ith쎯	-10.4492
sf쎯w쎯	-10.4493
ghg1쎯	-10.4496
tn쎯pnt쎯	-10.4498
”;	-10.4499
whf0쎯og쎯pe쎯	-10.4499
dd쎯jg쎯r쎯	-10.45
cm쎯ujf0쎯	-10.4501
fcl쎯eyni쎯	-10.4504
pei쎯fnrt쎯	-10.4504
txi쎯ovt쎯	-10.4506
tjh쎯iugg0쎯	-10.4506
trf0쎯qc쎯r쎯	-10.4507
ynm쎯dmh0쎯	-10.4507
qgbn1쎯	-10.4508
ny쎯vo쎯	-10.4508
xfm쎯tavn쎯	-10.4514
u쎯gf쎯	-10.4514
쎁쎉쎂쎉rh쎯	-10.4517
ggi쎯fuj쎯wk쎯ryn1쎯	-10.4518
rx쎯v쎯	-10.4519
ga쎯ii쎯	-10.4519
gx쎯sh쎯	-10.4524
tg쎯u쎯zzbd3쎯	-10.4525
cw쎯c쎯	-10.4527
ymc쎯tlf0쎯zzbd3쎯	-10.4527
xrc쎯	-10.4527
fwf쎯	-10.4531
pdhj0쎯	-10.4531
dgt1쎯pe쎯	-10.4535
qbn1쎯	-10.4539
alq쎯hhy0쎯	-10.4543
ipgg0쎯	-10.4544
qc쎯icf쎯	-10.4547
w쎯n쎯wa쎯ge쎯dd쎯wf쎯	-10.4548
dga쎯pwv쎯》	-10.455
,gm쎯o쎯	-10.455
f쎯fakg0쎯	-10.4553
et쎯if쎯	-10.4553
fgh쎯pb쎯	-10.4554
i0쎯	-10.4555
쎄)	-10.4555
lfon1쎯	-10.4556
qgf쎯od쎯	-10.4557
ndj쎯nge쎯	-10.4558
pgj쎯dmh0쎯	-10.4559
,dl쎯wtf쎯	-10.4561
ukn쎯vfhp1쎯tam쎯	-10.4562
xf쎯jjj0쎯	-10.4565
fm쎯yiu0쎯ymhj0쎯	-10.4567
gh쎯dm쎯	-10.4568
lfn쎯yo쎯	-10.4574
ght쎯if쎯	-10.4583
rjg1쎯	-10.4585
,o쎯b쎯	-10.4586
wgkb0쎯fcp쎯	-10.4589
yh쎯wq쎯	-10.4591
쎂쎄쎀	-10.4591
qkm쎯oyn쎯	-10.4593
,p쎯tkh쎯	-10.4595
um쎯fd쎯	-10.4595
d쎯h쎯itx쎯	-10.4596
fny0쎯og쎯rfc쎯sy쎯	-10.4599
쎅쎀dq쎯	-10.46
쎆)	-10.4602
iy쎯:“	-10.4605
jcu쎯	-10.4607
ov쎯	-10.4607
gm쎯udy쎯	-10.4608
pujn0쎯	-10.4612
lu쎯xk쎯	-10.4614
thd쎯xln0쎯	-10.4614
yne쎯qh쎯	-10.4618
tffu쎯tf쎯og쎯	-10.4619
sw쎯pwfi0쎯	-10.462
fhw쎯ydn쎯	-10.4621
fge쎯fghg쎯rg쎯	-10.4622
wb쎯d쎯	-10.4623
mgu쎯	-10.4623
tu쎯dga쎯a쎯wt쎯	-10.4625
nfh1쎯	-10.4627
rhyi0쎯	-10.4629
y쎯wtf쎯atd쎯jgm쎯,	-10.4629
rhk0쎯mww쎯	-10.4632
uem쎯	-10.4634
ukqb2쎯	-10.4636
itd쎯khtd2쎯	-10.4638
fnhp0쎯	-10.4638
sagg0쎯	-10.4639
rnx쎯	-10.464
it쎯jg쎯	-10.4641
rb쎯aqky1쎯	-10.4644
tr쎯wsg0쎯	-10.4645
yu쎯,	-10.4647
k쎯atd쎯ax쎯	-10.4648
e쎯b쎯	-10.4651
wtf쎯k쎯aw쎯	-10.4652
ii쎯th쎯gj쎯	-10.4652
tg쎯gqf쎯	-10.4653
lh쎯mfk쎯	-10.4655
ukn쎯wsg0쎯	-10.4659
xnh쎯qaj0쎯	-10.466
h쎯uk쎯	-10.4661
ymhj0쎯n쎯	-10.4665
uoo쎯	-10.4668
rfc쎯sy쎯t쎯	-10.4672
쎂쎅쎆	-10.4679
wx쎯dgtg0쎯	-10.4693
tkw쎯lx쎯	-10.4694
wtp쎯tca쎯	-10.4695
iyc쎯fakg0쎯	-10.4695
alp쎯awx쎯	-10.4696
if쎯bpf쎯	-10.4696
쎁쎉쎃쎇rh쎯	-10.4696
o쎯y쎯s쎯	-10.4698
dd쎯fny0쎯ip쎯dl쎯	-10.4699
oge쎯pyj쎯,	-10.4699
ta쎯fd쎯	-10.4702
rcp쎯lkd쎯	-10.4703
yyne0쎯	-10.4704
efc쎯	-10.4704
,wq쎯	-10.4705
(쎃)	-10.4706
ˊ	-10.4708
dy쎯dr쎯	-10.4709
gj쎯shn쎯	-10.4709
rep쎯cbj쎯“	-10.4709
tp쎯gj쎯w쎯km쎯	-10.4717
h쎯syp쎯	-10.4723
sce쎯	-10.4725
scf쎯ex쎯	-10.4725
xfm쎯	-10.4726
gu쎯ck쎯.	-10.4726
jqw쎯	-10.4726
rt쎯fcl쎯	-10.473
qi쎯kkd쎯	-10.4732
gdj쎯	-10.4732
.l쎯ffff1쎯dm쎯tkw쎯	-10.4733
ggg0쎯l쎯	-10.4734
zzsx6쎯쎁	-10.4735
wg	-10.4736
dmj1쎯dn쎯.	-10.4737
zzbd3쎯usr쎯	-10.4737
vcb쎯uqf쎯	-10.4739
qev쎯yt쎯pl쎯	-10.4742
.wt쎯o쎯	-10.4742
kjj쎯thg1쎯	-10.4744
쎃쎂쎀	-10.4745
ndj쎯bpf쎯	-10.4749
ep쎯l쎯	-10.475
tx쎯dg쎯nm쎯	-10.475
,fc쎯rf쎯	-10.4752
by쎯trh0쎯	-10.4753
cbn1쎯	-10.4754
set쎯	-10.4759
pj쎯udjh쎯	-10.4759
dmj1쎯dn쎯r쎯	-10.4761
ubk1쎯if쎯	-10.4762
skf쎯	-10.4764
if쎯tvfh0쎯if쎯fwm쎯	-10.4766
ap쎯yss쎯	-10.4766
ukn쎯xg쎯	-10.4768
iak쎯ssss0쎯	-10.4768
tfq쎯fj쎯wys쎯wsg0쎯	-10.4768
r쎯yo쎯wx쎯	-10.4771
쎀.쎈	-10.4772
tdij0쎯xfm쎯	-10.4773
aq쎯mw쎯	-10.4773
wxm쎯fcp쎯	-10.4773
ayn쎯	-10.478
,uq쎯cep쎯	-10.478
c쎯h쎯r쎯	-10.4781
ym쎯mmm쎯	-10.4781
wyp쎯lg쎯fnrt쎯	-10.4781
wty0쎯rh쎯	-10.4784
,uep쎯	-10.4786
e쎯w쎯	-10.4788
bqn쎯bb쎯	-10.4791
qdb쎯pd쎯	-10.4796
tr쎯uqwm1쎯	-10.4796
쎂.쎄	-10.4798
ndj쎯lft쎯	-10.4805
xa쎯pl쎯	-10.4806
jn쎯ck쎯	-10.4808
n쎯wwwk0쎯	-10.4809
tjf0쎯img쎯	-10.4813
xl쎯eaf쎯	-10.4814
mn쎯	-10.4814
b0쎯	-10.4817
vfhp1쎯tam쎯tr쎯	-10.4827
trf0쎯pg쎯	-10.4828
ref쎯	-10.4828
(,)	-10.483
ftbt쎯xan쎯	-10.4831
xtf쎯	-10.4832
k쎯aw쎯ipk쎯km쎯,	-10.4833
yy쎯aa쎯:	-10.4835
tp쎯gj쎯,	-10.4836
lw쎯wc쎯pgc쎯zzbd3쎯	-10.484
rwv쎯ipg쎯	-10.4843
dh쎯pgk쎯,	-10.4844
ukd1쎯jghm1쎯r쎯	-10.4845
tm쎯h쎯	-10.4847
rgf쎯pe쎯	-10.485
pe쎯lfq쎯	-10.4851
xfnh쎯	-10.4851
uyu쎯	-10.4853
sh쎯yid쎯r쎯	-10.4854
tu쎯dga쎯dn쎯js쎯	-10.4855
wgkq0쎯tj쎯	-10.4857
t쎯py쎯wf쎯	-10.4859
wg쎯qfhw1쎯	-10.486
.gm쎯d쎯	-10.4862
?”	-10.4865
y쎯qe쎯	-10.4865
qjf쎯jn쎯ib쎯	-10.4866
anb0쎯sy쎯ip쎯bpf쎯	-10.4867
iq쎯tel쎯	-10.487
x쎯iyj쎯ga쎯v쎯aq쎯	-10.4871
fqb0쎯wrh1쎯	-10.4871
ral쎯pgn쎯	-10.4872
jf쎯adwe1쎯r쎯	-10.4873
eb쎯tl쎯gf쎯	-10.4874
oge쎯wxf쎯	-10.4874
g쎯cf쎯	-10.4876
r쎯ip쎯tg쎯	-10.4877
smq쎯	-10.4878
lk쎯c쎯	-10.488
fl쎯wt쎯	-10.4881
dcw쎯djb쎯r쎯	-10.4882
ylf0쎯,adw쎯k쎯	-10.4884
rnw쎯lfnh쎯	-10.4886
itx쎯mdfj쎯	-10.4887
dga쎯pwv쎯dn쎯js쎯	-10.4887
rvh쎯	-10.4889
pt쎯fcp쎯	-10.4889
.쎂쎀쎀쎆rh쎯	-10.4889
vpe쎯	-10.489
ud쎯ny쎯	-10.4891
ul쎯aqt쎯	-10.4895
-쎇	-10.4897
gmd0쎯fghg쎯	-10.4897
.wjg쎯j쎯	-10.4898
쎁%	-10.4901
ftbt쎯dga쎯	-10.4902
rnb쎯ijl쎯쎁	-10.4903
jjj0쎯wsg0쎯	-10.4905
iv쎯wynb0쎯	-10.4905
avd쎯	-10.4906
dyt쎯mmm쎯	-10.4906
jc쎯pnt쎯	-10.4908
iq쎯jn쎯	-10.4908
og쎯lwj쎯	-10.4909
wjh쎯	-10.491
nwgk0쎯	-10.4912
oqdo쎯	-10.4914
ii쎯wv쎯	-10.4914
you1쎯tq쎯	-10.4914
ith쎯ght쎯ywf쎯	-10.4918
,j쎯g쎯rn쎯	-10.4918
qiu0쎯zzbd10쎯	-10.4921
wycm1쎯tfq쎯r쎯	-10.493
cwg쎯	-10.4932
no쎯	-10.4935
tx쎯fg쎯uqw쎯	-10.4937
r쎯yid쎯et쎯	-10.4939
nnh쎯zzbd10쎯	-10.4939
r쎯gj쎯shn쎯	-10.4942
thfn쎯su쎯	-10.4942
,rh쎯	-10.4947
rgb쎯	-10.4949
rnb쎯thn쎯	-10.4952
l쎯ffff1쎯	-10.4956
yygy쎯wx쎯anb0쎯sy쎯	-10.4958
km쎯zzbd3쎯	-10.4959
zzbd3쎯amw쎯	-10.4961
aqv1쎯	-10.4964
yygt쎯itp쎯r쎯	-10.4967
gkp쎯fcl쎯	-10.4969
yxl쎯	-10.4969
pe쎯,	-10.4977
uxl쎯	-10.4977
swgu쎯	-10.4982
쎁쎀dq쎯	-10.4985
toc쎯yq쎯	-10.4985
fnrt쎯f쎯	-10.4986
gj쎯ywx쎯gn쎯	-10.4988
ym쎯kkk쎯rfm쎯	-10.4989
lkc쎯ckq쎯	-10.499
wxf쎯wtd쎯	-10.4991
ght쎯ick쎯uk쎯	-10.4992
wc쎯ngk쎯.	-10.4995
ifj쎯iyc쎯	-10.4997
pye쎯l쎯	-10.4997
mf쎯x쎯	-10.4998
,qm쎯gmu1쎯	-10.5005
afs쎯g쎯	-10.5009
rwyg0쎯bm쎯r쎯	-10.501
wvd쎯v쎯r쎯	-10.5011
ma쎯xg쎯	-10.5013
ymc쎯tlf0쎯,	-10.5013
afs쎯tkh쎯	-10.5013
rrr쎯fcu0쎯	-10.5014
ad쎯dbm쎯ymc쎯ytb쎯	-10.5018
yy쎯if쎯.	-10.5019
,vcl쎯lt쎯	-10.5023
vnx쎯	-10.5031
yaop0쎯	-10.5031
khgp1쎯	-10.5035
wv쎯dmh0쎯d쎯	-10.5037
,kw쎯	-10.5042
vt쎯rh쎯	-10.5046
----	-10.5047
》,《	-10.5047
쎈wc쎯jfd쎯	-10.5048
atdp쎯	-10.505
g쎯jsd쎯	-10.505
um쎯pe쎯	-10.5055
iytb0쎯ca쎯k쎯	-10.5056
atgq쎯	-10.5058
lv쎯uthp0쎯	-10.5059
lr쎯	-10.5061
xe쎯klj쎯	-10.5062
rmc쎯jyie쎯	-10.5069
ukn쎯j쎯	-10.507
jb쎯qq쎯	-10.5071
ipk쎯tv쎯tv쎯km쎯	-10.5072
jn쎯uh쎯	-10.5075
fny0쎯adm쎯	-10.5076
elv쎯	-10.5077
ugdu쎯vb쎯	-10.5083
yjs쎯ipkf0쎯	-10.5087
dnv0쎯w쎯	-10.5087
pj쎯synw쎯	-10.509
fcu1쎯hc쎯	-10.5091
rum쎯	-10.5092
:쎅	-10.5095
qtgw1쎯	-10.5097
cbd쎯tha쎯	-10.5097
uuk1쎯	-10.5098
jh쎯rh쎯	-10.5098
.n쎯l쎯	-10.51
uvo쎯bk쎯	-10.51
qfhw1쎯ght쎯ywf쎯	-10.5103
iv쎯tfqp쎯o쎯	-10.5104
sve쎯rnd1쎯f쎯	-10.5108
ipkh1쎯fwm쎯	-10.5109
jb쎯jh쎯r쎯	-10.5111
wx쎯uv쎯kkk쎯	-10.5111
uck쎯	-10.5112
itd쎯lt쎯	-10.5113
rmhj쎯uwyc2쎯	-10.512
maw쎯ahty0쎯	-10.512
vfi쎯	-10.512
wwx쎯ybt쎯	-10.5122
쎀gu쎯yy쎯oy쎯,	-10.5125
tdtv0쎯	-10.5126
ymf쎯ty쎯	-10.5127
awx쎯shi쎯	-10.5127
oge쎯ya쎯	-10.513
de	-10.513
mhu쎯	-10.5132
tx쎯쎄	-10.5133
ngk쎯cn쎯	-10.5133
wdn쎯rvyl0쎯,	-10.5136
e쎯lt쎯	-10.5136
쎁/	-10.5138
zzbd12쎯	-10.5138
쎁쎂쎀쎀	-10.5139
dd쎯fw쎯	-10.5141
ipkh1쎯mqb쎯r쎯	-10.5144
he쎯pg쎯	-10.5146
aynr쎯	-10.5147
ey쎯adw쎯wb쎯	-10.5148
pym쎯qe쎯	-10.515
kwn쎯	-10.5153
ue쎯imk쎯	-10.5154
r쎯jf쎯whn쎯,	-10.5157
ta쎯xq쎯	-10.5159
itd쎯fcl쎯r쎯	-10.5162
kht쎯zzbd3쎯	-10.5163
et쎯wt쎯	-10.5163
ue쎯tmd쎯j쎯	-10.5164
rtf쎯sgmj쎯	-10.5168
cn쎯go쎯sghg1쎯gog쎯	-10.5168
rn쎯rn쎯ta쎯	-10.5172
g쎯gd쎯	-10.5172
wdn쎯te쎯ywx쎯yygy쎯	-10.5174
tqf0쎯	-10.5174
ssss0쎯sft쎯	-10.5182
qq쎯fqb0쎯wx쎯	-10.5184
ta쎯adwe1쎯ww쎯gk쎯	-10.5185
sqq쎯	-10.5186
bm쎯tmd쎯	-10.5187
g쎯wsg0쎯	-10.5188
g쎯xt쎯	-10.5192
a쎯wt쎯k쎯	-10.5193
ntk쎯gf쎯mmm쎯aq쎯	-10.5193
j쎯g쎯wug0쎯	-10.5195
쎂kgn쎯	-10.5195
xyna1쎯aft쎯	-10.5198
iwgj0쎯	-10.5199
bde쎯rg쎯	-10.5201
ttt쎯	-10.5202
쎁쎄쎀	-10.5203
a쎯og쎯lfq쎯aq쎯	-10.5203
u쎯kkk쎯.	-10.5208
bn쎯tq쎯	-10.5209
fghg쎯tg쎯nf쎯jgm쎯	-10.5212
qaj0쎯ykg0쎯	-10.5214
,gm쎯d쎯	-10.5214
wv쎯qev쎯	-10.5216
xox쎯	-10.5216
r쎯g쎯rn쎯	-10.5216
n쎯apk쎯whf0쎯og쎯	-10.5218
tfq쎯rg쎯wtf쎯	-10.5218
fny0쎯bk쎯	-10.5219
oqdo쎯oat쎯	-10.5219
alfj1쎯	-10.522
vij쎯	-10.522
tgv쎯bd쎯“	-10.5221
fg쎯uqw쎯	-10.5222
jn쎯jyie쎯《	-10.5222
tj쎯c쎯	-10.5223
gu쎯egc쎯	-10.5224
rke쎯	-10.5224
rhc쎯qf쎯gae쎯	-10.5226
isf쎯	-10.5226
rhc쎯	-10.5228
wyq쎯aa쎯	-10.523
rqw쎯ipkm1쎯	-10.5232
ftbt쎯ip쎯rfm쎯jg쎯	-10.5234
ftbt쎯ip쎯sov쎯	-10.5235
mmm쎯fhc쎯	-10.5235
vi쎯》	-10.5237
sqdy쎯	-10.5239
sgx쎯	-10.5241
e쎯jf쎯	-10.5243
dd쎯qq쎯ovt쎯	-10.5247
mqu쎯r쎯	-10.5251
pp쎯k쎯	-10.5253
ajt쎯ah쎯	-10.5254
dyi쎯	-10.526
dr쎯e쎯	-10.5261
yyv쎯	-10.5262
dav쎯	-10.5263
ybt쎯	-10.5264
qtw쎯	-10.5266
ygu쎯pj쎯	-10.5267
and쎯dd쎯r쎯	-10.5267
bue쎯uthp0쎯	-10.5271
oge쎯xl쎯	-10.5272
dq쎯adwr0쎯	-10.5274
fm쎯egc쎯	-10.5275
hko쎯fmk쎯	-10.5276
jty쎯jf쎯	-10.5277
ga쎯og쎯	-10.5279
rxj쎯fm쎯	-10.528
iie쎯rw쎯	-10.5282
vfb쎯wh쎯	-10.5286
mf쎯u쎯	-10.5288
c쎯w쎯o쎯sg쎯	-10.529
we쎯qd쎯	-10.5291
ym쎯tffu쎯ip쎯suq쎯	-10.5292
wwwk0쎯tq쎯	-10.5292
amyn1쎯	-10.5298
y쎯src쎯	-10.5299
쎁쎈쎅	-10.53
zzxx11쎯	-10.5303
jjjj0쎯pl쎯	-10.5306
aigh쎯	-10.5306
tjgh3쎯	-10.5307
쎁.쎄	-10.5307
pyj쎯dskf쎯	-10.5307
pa쎯ya쎯	-10.5309
(쎁쎉쎂	-10.5312
pg쎯adwe1쎯	-10.5314
gh쎯bt쎯	-10.5315
,dr쎯	-10.5316
lhj쎯	-10.5319
,ld쎯dmj1쎯	-10.532
sk쎯rf쎯xfn쎯	-10.5321
.쎄zzbd3쎯	-10.5321
oyvk1쎯nii0쎯ugm쎯	-10.5322
쎁쎅쎀쎀	-10.5326
쎂쎀rh쎯	-10.5327
fwm쎯saj0쎯jb쎯dd쎯	-10.5327
dfff0쎯	-10.5329
xyna1쎯ndj쎯	-10.5335
fq쎯ovt쎯	-10.5335
yo쎯tkh쎯	-10.5337
tx쎯g쎯nm쎯	-10.534
oy쎯.	-10.5341
g쎯th쎯	-10.5341
쎀ylf0쎯,	-10.5342
,rg쎯go쎯	-10.5343
tv쎯xeg0쎯xkw쎯uk쎯	-10.5343
yo쎯tj쎯	-10.5344
yy쎯if쎯,	-10.5346
ce쎯lt쎯,	-10.5347
pu쎯wgq쎯	-10.5347
nnk쎯ta쎯	-10.5349
ujq쎯	-10.535
zzbd3쎯sghg1쎯	-10.535
oge쎯gcft0쎯	-10.5351
쎂쎀dq쎯	-10.5356
wxf쎯k쎯	-10.5362
j쎯q쎯l쎯	-10.5368
ktm쎯yid쎯	-10.5368
tv쎯ipkh1쎯tv쎯	-10.5368
aw쎯gef쎯lft쎯	-10.5371
.쎂쎀쎀쎅rh쎯	-10.5373
.쎂쎀쎀쎇rh쎯	-10.5373
rg쎯ccc쎯	-10.5376
kwyn1쎯	-10.5378
rpwi쎯	-10.5379
rc쎯cf쎯	-10.5387
ymhj0쎯fnrt쎯r쎯	-10.5393
wqa쎯ijl쎯	-10.5393
bm쎯tld1쎯	-10.5394
쎉wh쎯	-10.5398
amyn1쎯ndm쎯	-10.5401
fwn쎯	-10.5401
pykw쎯	-10.5401
ovt쎯dj쎯	-10.5404
puv쎯xe쎯k쎯ip쎯	-10.5407
o쎯ad쎯dbm쎯	-10.5407
yveh쎯	-10.5414
,gcft0쎯lt쎯gf쎯	-10.5414
jf쎯wa쎯r쎯	-10.5415
yfy2쎯	-10.5419
ebf0쎯	-10.5422
fwm쎯aib쎯wx쎯	-10.5424
vq쎯vld0쎯	-10.5427
qna쎯	-10.5429
pp쎯bb쎯	-10.5429
쎁쎀wh쎯	-10.5429
kd쎯tjh쎯	-10.5431
,j쎯g쎯wh쎯	-10.5432
qh쎯uk쎯	-10.5432
,tkw쎯se쎯	-10.5434
sh쎯yid쎯	-10.5436
i쎯et쎯	-10.5438
k쎯tffu쎯	-10.5439
cl쎯	-10.544
v쎯nae0쎯hka쎯ltk쎯	-10.5445
wg쎯an쎯lwj쎯	-10.5447
쎁쎈쎇	-10.5447
y쎯iyc쎯	-10.545
wg쎯tmd쎯	-10.545
sm쎯ysi쎯	-10.545
y쎯w쎯	-10.5451
rcn0쎯rng2쎯	-10.5456
pgc쎯y쎯wtf쎯	-10.5457
thc쎯	-10.5457
ymc쎯ytb쎯yjj1쎯wg쎯	-10.5458
qt쎯bb쎯	-10.5461
ai쎯kht쎯	-10.5462
spq쎯	-10.5464
udjh쎯on쎯	-10.5465
pwv쎯tg쎯nf쎯jgm쎯	-10.5465
sdm쎯xe쎯	-10.5469
pu쎯gm쎯b쎯	-10.5471
dc쎯vb쎯	-10.5471
sm쎯sq쎯.	-10.5471
et쎯f쎯	-10.5471
efg1쎯	-10.5475
r쎯hhhh쎯sfi쎯	-10.5476
gfq쎯hw쎯	-10.5476
v쎯nae0쎯dn쎯o쎯	-10.5478
zzbd3쎯jjjj0쎯sg쎯	-10.5479
(ak쎯	-10.5479
wynb0쎯rh쎯	-10.548
wfhg0쎯tj쎯	-10.5481
wgk쎯wt쎯,	-10.5484
aqt쎯bc쎯	-10.5485
bda쎯	-10.5485
quh1쎯	-10.5486
iwf쎯lw쎯r쎯	-10.5488
v쎯sgfb쎯	-10.5489
wnnf0쎯	-10.5489
pu쎯bf쎯h쎯	-10.5491
klj쎯qk쎯	-10.5491
j쎯q쎯wu쎯	-10.5492
lu쎯ym쎯r쎯	-10.5493
uve쎯	-10.5499
.m쎯rh쎯	-10.5499
lge쎯	-10.5501
vijh쎯	-10.5505
nh쎯xjm쎯	-10.5505
wdn쎯yv쎯r쎯	-10.5511
ad쎯qqqq1쎯wf쎯	-10.5512
uj쎯r쎯	-10.5517
fh쎯uu쎯	-10.5518
ygu쎯tfqp쎯	-10.5518
tg쎯u쎯whf0쎯og쎯	-10.5519
.wg쎯sf쎯	-10.5523
g쎯ffi쎯	-10.5523
ftjb쎯ce쎯	-10.5525
tavn쎯yqa쎯	-10.5525
uqd2쎯”	-10.5526
zzbd3쎯tu쎯dga쎯	-10.5527
ftbt쎯ipkf0쎯	-10.553
o쎯sg쎯	-10.5531
tfqp쎯iwf쎯	-10.5534
lfc쎯	-10.5537
,itx쎯rdc쎯	-10.5538
g쎯jjjj0쎯	-10.5539
jft쎯	-10.554
gkl쎯egc쎯ta쎯	-10.554
gu쎯oy쎯	-10.5541
dx쎯udi0쎯	-10.5545
쎁w쎯	-10.5545
.m쎯jf쎯,	-10.5545
dm쎯h쎯	-10.5546
쎁/쎂	-10.5548
bct쎯wys쎯	-10.5548
l쎯bf쎯wx쎯	-10.5549
wa쎯fwf쎯	-10.5552
ghd1쎯j쎯	-10.5552
쎁w쎯,	-10.5553
g쎯xg쎯	-10.5554
ddm쎯fghg쎯dga쎯	-10.5555
je쎯fje쎯	-10.5557
puhc쎯rep쎯cbj쎯	-10.5557
xh쎯wycm1쎯	-10.5559
m쎯g쎯	-10.5564
aq쎯ght쎯ywf쎯	-10.5566
iy쎯mm쎯uqwm1쎯sg쎯	-10.5566
vc쎯vc쎯	-10.5573
kg	-10.5575
idr쎯gf쎯	-10.5576
tet0쎯	-10.5576
pu쎯nu쎯	-10.5579
gh쎯iytb0쎯	-10.5579
tfl쎯yce쎯	-10.5583
wh쎯ntg쎯wx쎯	-10.5584
h쎯iytb0쎯	-10.5585
fm쎯kht쎯	-10.5586
uqd2쎯adm쎯	-10.5588
al쎯ce쎯:	-10.5588
t쎯tp쎯gj쎯	-10.5591
gu쎯pv쎯	-10.5592
dyn쎯ya쎯	-10.5593
ip쎯tg쎯r쎯	-10.5602
cn쎯dq쎯ln쎯y쎯yq쎯	-10.5604
swgj0쎯	-10.5605
pn쎯yy쎯	-10.561
dgtg0쎯wx쎯	-10.5611
ykk쎯	-10.5612
trng쎯	-10.5612
cd쎯xyna1쎯	-10.5617
dd쎯ahn쎯	-10.5618
wf쎯wf쎯km쎯	-10.5619
tqv쎯pg쎯ntg쎯	-10.5622
y쎯xt쎯	-10.5623
dd쎯uyh쎯	-10.5623
icd쎯tep쎯	-10.5626
yygy쎯wx쎯r쎯	-10.5627
gmd0쎯maw쎯	-10.5628
fcln쎯	-10.5629
tdp쎯iv쎯	-10.563
ymc쎯tlf0쎯r쎯	-10.5634
ger쎯	-10.5637
iy	-10.5639
pt쎯w쎯	-10.5639
》k쎯r쎯	-10.564
ith쎯ftbt쎯yce쎯ds쎯	-10.5641
ux쎯psu0쎯	-10.5642
q쎯wc쎯ngk쎯	-10.5643
rpwn0쎯rnbm쎯	-10.5645
,ccc쎯tq쎯	-10.5645
g쎯wwv쎯	-10.5649
tl쎯pu쎯	-10.565
.p쎯hxf쎯	-10.5655
gh쎯uk쎯	-10.5657
og쎯wtu쎯	-10.5658
gmii2쎯	-10.5658
sbd쎯lkmi0쎯gae쎯	-10.5662
ssg쎯	-10.5662
iak쎯ivc쎯	-10.5663
ym쎯ige쎯	-10.5664
uxhp쎯	-10.5665
qqqq1쎯mqj쎯	-10.5665
ge쎯je쎯	-10.5668
tv쎯nnh쎯yn쎯	-10.5669
yny0쎯u쎯	-10.567
ua쎯d쎯	-10.5673
bg쎯tg쎯uk쎯	-10.5677
opf쎯	-10.5678
qgj쎯nfp쎯	-10.568
k쎯yygy쎯qk쎯:	-10.5682
um쎯wf쎯	-10.5683
.mh쎯	-10.5685
ymc쎯yf쎯r쎯	-10.5686
s쎯gxi쎯	-10.569
tfk0쎯dq쎯	-10.569
,tuj0쎯tq쎯	-10.5692
kfi쎯oge쎯	-10.5692
쎅.	-10.5697
gm쎯dhb쎯	-10.5698
tffu쎯tffu쎯.	-10.5698
sk쎯et쎯	-10.5698
.쎂쎀쎀쎄rh쎯	-10.5699
wynm1쎯	-10.5701
eu쎯gkh0쎯	-10.5704
zzbd3쎯ux쎯yiu0쎯	-10.5707
wk쎯ijl쎯	-10.5713
odm쎯	-10.5713
dd쎯gf쎯	-10.5718
fjg0쎯dq쎯	-10.5719
.bde쎯udh쎯	-10.572
ftg쎯dgh쎯	-10.5721
pw쎯k쎯	-10.5721
xtu쎯gf쎯	-10.5726
gef쎯itx쎯	-10.5726
tffu쎯yy쎯dm쎯r쎯	-10.5728
wdn쎯te쎯uqd2쎯	-10.5729
ile쎯	-10.5731
dn쎯al쎯r쎯	-10.5732
sk쎯wv쎯o쎯	-10.5739
mmm쎯qfhw1쎯	-10.574
ibi쎯	-10.5745
puv쎯xe쎯	-10.5745
icd쎯	-10.5746
yr쎯ywc쎯	-10.5751
mw쎯,	-10.5755
itm쎯	-10.5756
(qn쎯rtd쎯	-10.5761
ght쎯ywf쎯rn쎯d쎯f쎯	-10.5765
tfqp쎯yce쎯	-10.5768
lk쎯h쎯	-10.5769
bib쎯rep쎯	-10.5769
xtd쎯	-10.5771
ynjh1쎯	-10.5772
쎁쎉쎃쎅rh쎯	-10.5772
qnq쎯ou쎯	-10.5773
uqwm1쎯egl쎯	-10.5774
tt쎯gl쎯	-10.5775
nnh쎯gl쎯pe쎯	-10.5776
x쎯》	-10.5778
kkd쎯,	-10.5779
e쎯ud쎯uk쎯uyh쎯	-10.5779
fm쎯psu0쎯	-10.578
gkl쎯ftbt쎯rep쎯,	-10.578
l쎯bf쎯sm쎯fnrt쎯	-10.578
fy쎯	-10.5782
cf쎯tq쎯	-10.5783
utd쎯ugm쎯r쎯	-10.5783
xa쎯qh쎯	-10.5786
ngk쎯wyc쎯	-10.5786
k쎯l쎯gl쎯	-10.5787
abe쎯	-10.5787
r쎯ujf0쎯qi쎯	-10.5788
atg쎯gk쎯	-10.579
py쎯tu쎯	-10.579
mh쎯k쎯l쎯	-10.5792
gw쎯khgm3쎯	-10.5798
qajf0쎯	-10.5798
xwy0쎯rf쎯	-10.5798
,wgj쎯	-10.5799
y쎯wtf쎯.	-10.58
j쎯:	-10.5803
w쎯.k쎯aw쎯ipk쎯km쎯.	-10.5806
ige쎯usr쎯	-10.5808
mw쎯ymc쎯	-10.5809
pww쎯kkd쎯	-10.5812
tk쎯l쎯	-10.5813
zzxe	-10.5817
ybv0쎯ton쎯	-10.5817
tmfk1쎯	-10.5818
n쎯lw쎯	-10.5822
rhyc1쎯	-10.5824
쎁쎉쎀	-10.5826
gmww쎯dd쎯	-10.5828
tyna2쎯.	-10.5829
.rp쎯rh쎯go쎯,	-10.5831
ral쎯xwf쎯	-10.5832
r쎯i쎯m쎯	-10.5833
adnt1쎯nnh쎯	-10.5838
,sghg1쎯	-10.5838
jhf1쎯bwg쎯	-10.5839
ucw쎯a쎯	-10.5849
ggi쎯xat0쎯	-10.585
jtyq0쎯	-10.5851
sagg0쎯lks쎯	-10.5853
pj쎯rx쎯	-10.5855
a쎯tkgg1쎯txi쎯	-10.5857
.쎂쎀쎀쎉rh쎯	-10.5859
pei쎯n쎯nh쎯ty쎯y쎯s쎯	-10.5861
qq쎯o쎯	-10.5863
ce쎯lt쎯.	-10.5865
nn쎯	-10.5866
tqq쎯n쎯	-10.5869
r쎯fp쎯tkgg1쎯	-10.5873
dd쎯f쎯	-10.5873
fqb0쎯rh쎯	-10.5873
rmc쎯uqwm1쎯ftj쎯	-10.5874
el쎯	-10.5875
dhb쎯d쎯r쎯	-10.5877
bnn2쎯bb쎯	-10.588
sgn쎯yy쎯	-10.5883
-쎁쎀	-10.5883
nf쎯jgm쎯	-10.5883
vck쎯xtu쎯jcf쎯rf쎯	-10.5893
j쎯g쎯uk쎯	-10.5895
ubk1쎯	-10.5895
rh쎯xe쎯	-10.5896
de쎯shi쎯ow쎯	-10.59
r쎯ad쎯dbm쎯h쎯,	-10.5908
tp쎯gj쎯txi쎯xyc쎯	-10.5909
tve쎯nnw쎯	-10.5916
dg쎯jtg쎯	-10.5916
sghg1쎯kht쎯	-10.5917
m1쎯	-10.5917
쎁쎈쎆	-10.5917
j쎯o쎯b쎯	-10.5918
wyp쎯hh쎯	-10.5921
yox쎯ma쎯	-10.5922
ntg쎯xk쎯	-10.5923
쎃쎆쎀	-10.5925
wkso2쎯	-10.5927
qn쎯rtd쎯:	-10.593
wg쎯thd쎯fcl쎯	-10.5931
,cep쎯ipkh1쎯	-10.5934
jhnr쎯qie쎯	-10.5934
wg쎯xte쎯	-10.5934
sm쎯tmd쎯	-10.5934
wc쎯www쎯	-10.5935
vo쎯fcr쎯	-10.5936
rc쎯tmdf1쎯	-10.5937
vb쎯,	-10.5937
yn쎯zzbd10쎯	-10.5941
dn쎯kkk쎯	-10.5942
uym쎯	-10.5942
uk쎯wrh1쎯	-10.5944
itx쎯ud쎯	-10.5944
gk쎯yop쎯	-10.5947
trf0쎯xq쎯	-10.5947
gk쎯adm쎯	-10.5947
r쎯ce쎯lt쎯	-10.5948
zzbd3쎯yygy쎯wx쎯	-10.5949
,p쎯hxf쎯	-10.595
fi쎯wgq쎯	-10.595
thdu0쎯	-10.5951
aww쎯	-10.5956
a쎯tkgg1쎯rfc쎯sy쎯	-10.5958
thp쎯ta쎯	-10.5958
dd쎯qq쎯	-10.5961
rfc쎯sy쎯,	-10.5962
pg쎯rmhj쎯	-10.5963
ftj쎯r쎯	-10.5964
,ipw쎯epc쎯	-10.597
uk쎯.	-10.5972
uu쎯vcb쎯	-10.5972
g쎯dj쎯	-10.5972
fjw쎯	-10.5972
ukq쎯	-10.5972
x쎯apk쎯tp쎯gj쎯	-10.5973
nf쎯tey0쎯	-10.5977
ty쎯kkkk1쎯	-10.5977
rry쎯	-10.5979
,j쎯g쎯pe쎯	-10.598
g쎯dm쎯	-10.598
,etn쎯	-10.5981
wv쎯nnk쎯	-10.5987
j쎯x쎯	-10.5988
zzbd3쎯ii쎯	-10.5989
rh쎯go쎯,	-10.5995
쎈kgn쎯	-10.5995
rnn0쎯pu쎯	-10.5996
쎇)	-10.5999
em쎯mww쎯	-10.5999
iq쎯je쎯	-10.6003
kkkk1쎯dgkn0쎯	-10.6004
nty0쎯af쎯ga쎯yt쎯	-10.6008
o쎯w쎯	-10.6009
wt쎯et쎯,	-10.6009
『	-10.6012
rxj쎯fi쎯	-10.6014
r쎯tx쎯g쎯	-10.6019
ywfw0쎯qnj쎯	-10.6024
ddn쎯	-10.6024
,xxr쎯	-10.6024
lpk0쎯fa쎯	-10.6028
bpx쎯	-10.6031
쎈)	-10.6032
rtol0쎯bm쎯	-10.6034
qug2쎯	-10.6038
yu쎯:“	-10.6038
jge쎯	-10.6039
yt쎯tmdf1쎯	-10.6042
uqwv쎯	-10.6042
cwg쎯nh쎯	-10.6047
d쎯p쎯	-10.6049
wt쎯kkk쎯《	-10.6049
v쎯rnbm쎯	-10.605
.tfq쎯rg쎯	-10.6051
rmn0쎯tpi쎯	-10.6051
vvv쎯qt쎯	-10.6053
ffff1쎯ssss0쎯	-10.6055
,j쎯rxj쎯	-10.6057
dnv0쎯ylf0쎯	-10.6058
fhqv0쎯	-10.6059
tg쎯ugv쎯	-10.6059
tx쎯vt쎯	-10.6062
sk쎯wt쎯o쎯	-10.6063
dm쎯tkw쎯쎄	-10.6065
”pp쎯	-10.6069
fp쎯tkgg1쎯k쎯,	-10.6069
qvb쎯	-10.6069
fj쎯at쎯	-10.6069
zzsx5쎯	-10.6072
et쎯ii쎯	-10.6072
tp쎯gj쎯r쎯	-10.6075
fhv쎯fha쎯	-10.6081
fqw쎯	-10.6087
c쎯hx쎯	-10.6091
fghg쎯tg쎯nf쎯jgm쎯,	-10.6093
pp쎯h쎯	-10.6093
"="	-10.6094
adw쎯uj쎯	-10.6097
쎃%	-10.6101
sh쎯iv쎯gf쎯	-10.6101
bib쎯	-10.6102
usgp1쎯trfh1쎯	-10.6102
wgkq0쎯wgkb0쎯	-10.6107
,wv쎯klj쎯	-10.6111
zzbd3쎯vkgd쎯qi쎯	-10.6111
aq쎯zzbd3쎯	-10.6113
qtfj0쎯mww쎯	-10.6113
,wg쎯	-10.6116
mb쎯wrh1쎯	-10.6117
쎁쎉쎃쎄rh쎯	-10.6121
쎁쎀rh쎯	-10.6125
쎂.쎂	-10.6125
wbj쎯wt쎯r쎯	-10.6129
mcw쎯	-10.6131
sg쎯w쎯	-10.6131
mwwk0쎯	-10.6132
teg1쎯wtfm3쎯	-10.6137
qlh1쎯	-10.6138
rxj쎯r쎯j쎯	-10.614
zzpj45쎯	-10.6144
ubte쎯	-10.6145
lh쎯fgh쎯	-10.6148
nge쎯ukq쎯gh쎯	-10.6152
쎄wc쎯jfd쎯	-10.6152
쎁.쎃	-10.6153
ack쎯	-10.6155
lnn2쎯	-10.6157
쎃dq쎯	-10.6158
trfg0쎯myd0쎯	-10.6159
wx쎯wgk쎯tr쎯	-10.6163
pynn0쎯wyq쎯	-10.6164
rawk쎯sgn쎯	-10.6164
ral쎯syp쎯:	-10.6166
h쎯jmd쎯	-10.6168
r쎯anb0쎯sy쎯	-10.617
ny쎯eyf쎯	-10.617
fl쎯wf쎯gj쎯gk쎯	-10.6173
tuj0쎯wj쎯:	-10.6174
ymf쎯dga쎯	-10.6178
cq쎯	-10.6181
d쎯suq쎯ip쎯tg쎯	-10.6182
%.	-10.6183
afd1쎯ajj0쎯	-10.6184
dyt쎯og쎯	-10.6187
av쎯pdhj0쎯	-10.6188
ith쎯uk쎯xe쎯	-10.6188
,gf쎯j쎯	-10.6189
fj쎯bc쎯	-10.619
iwb쎯	-10.619
r쎯vb쎯	-10.6191
tq쎯pp쎯o쎯	-10.6191
dd쎯fny0쎯	-10.6192
l쎯pe쎯tgj쎯hko쎯	-10.6194
ih쎯ktn쎯	-10.6195
wc쎯ngk쎯reh쎯e쎯	-10.6195
tr쎯og쎯tp쎯gj쎯	-10.6195
fge쎯fghg쎯,	-10.6196
(쎁).	-10.62
zzbd3쎯eb쎯tl쎯	-10.6204
rj쎯fi쎯	-10.6204
qq쎯su쎯	-10.6206
ylf0쎯.	-10.6211
ps쎯ihc쎯ymhj0쎯	-10.6212
u쎯kkk쎯od쎯gajf0쎯:	-10.6216
hx쎯jf쎯	-10.6217
ifw쎯lt쎯	-10.6217
y쎯s쎯c쎯	-10.6218
.je쎯	-10.6218
jjjj0쎯uwl쎯	-10.6219
xqc쎯xxe쎯	-10.622
usr쎯pei쎯sf쎯	-10.6222
iyc쎯wsg0쎯	-10.6223
쎂쎀쎀쎁	-10.6224
zzy0쎯	-10.6224
irr쎯ia쎯dd쎯ip쎯	-10.6226
),pb쎯	-10.6226
쎅쎁쎂	-10.6227
vfh쎯	-10.6227
vfhp1쎯suq쎯	-10.6229
x쎯g쎯u쎯og쎯w쎯ovt쎯	-10.623
xh쎯ty쎯	-10.623
yh쎯wqin쎯	-10.623
thd쎯tf쎯	-10.6231
zzbd3쎯jn쎯bb쎯	-10.6238
khgm3쎯ytt쎯	-10.6238
twgi쎯xq쎯	-10.6239
wa쎯ytm쎯	-10.624
쎁쎉쎂쎇rh쎯	-10.624
dd쎯ooo쎯	-10.6241
wygg쎯pwdj쎯	-10.6245
,aw쎯e쎯	-10.6252
tg쎯itd쎯d쎯	-10.6256
xl쎯ab쎯	-10.6256
ep쎯vb쎯	-10.6258
udi0쎯uk쎯	-10.6258
gw쎯gr쎯	-10.6259
igd쎯	-10.626
wk쎯bg쎯	-10.626
sg쎯tu쎯tg쎯	-10.626
itx쎯h쎯	-10.626
fku쎯ndj쎯	-10.6263
wat쎯	-10.6263
rs쎯fmk쎯	-10.6266
gt쎯grq쎯	-10.6266
ujfj0쎯ma쎯	-10.6268
pfi쎯xj쎯	-10.627
qtny1쎯	-10.627
ukn쎯gj쎯	-10.6273
tfl쎯zzbd10쎯	-10.6273
m쎯tf쎯	-10.6277
wv쎯aet1쎯	-10.6277
.wug0쎯gf쎯	-10.6281
jghx쎯	-10.6282
wf쎯yyq쎯pgc쎯	-10.6283
sghg1쎯wmj1쎯	-10.6284
쎁zzbd0쎯	-10.6285
pp쎯gh쎯	-10.6285
bd쎯yad쎯	-10.6288
wg쎯ta쎯	-10.6288
yid쎯qvn0쎯	-10.6288
ln쎯shn쎯ght쎯ick쎯	-10.6289
k쎯yygy쎯qk쎯tq쎯:	-10.6289
쎁쎂쎅	-10.6292
pq쎯	-10.6292
xww쎯sam쎯	-10.6292
wg쎯nnh쎯	-10.6293
w쎯n쎯if쎯bpf쎯	-10.6294
ymf쎯kfi쎯	-10.6294
vj쎯	-10.6297
bb쎯wc쎯ngk쎯	-10.6298
je쎯ige쎯	-10.6299
,vca쎯	-10.6301
gajh쎯gk쎯	-10.6302
쎆.	-10.6303
eqn쎯	-10.6303
fge쎯jtyq0쎯wf쎯	-10.6303
eb쎯tl쎯zzbd3쎯	-10.6304
zzbd3쎯if쎯fwm쎯	-10.6304
pn쎯km쎯	-10.6305
swy2쎯	-10.6307
ayx쎯	-10.6309
ow쎯gs쎯	-10.631
dmq쎯	-10.6311
rj쎯bc쎯	-10.6312
ujn쎯qh쎯	-10.6313
ad쎯dbm쎯h쎯	-10.6314
k쎯wxf쎯atd쎯ip쎯wf쎯	-10.6317
iytb0쎯iyni1쎯	-10.6323
sff1쎯ss쎯	-10.6326
trf0쎯hko쎯:	-10.6329
ggg0쎯bb쎯	-10.6333
jn쎯begg쎯	-10.6336
fc쎯uk쎯	-10.6336
쎀.쎆	-10.6337
es쎯et쎯b쎯	-10.6339
f쎯gae쎯	-10.634
wqb1쎯	-10.6341
쎁쎉쎃쎃rh쎯	-10.6342
쎆wc쎯jfd쎯	-10.6343
qnw쎯	-10.6345
why쎯	-10.6347
kpt쎯	-10.6347
ip쎯tu쎯gkp쎯udi0쎯	-10.6348
쎅)	-10.635
gae쎯rvyl0쎯	-10.635
fhn쎯b쎯	-10.635
pv쎯wg쎯tg쎯u쎯	-10.6351
dnv0쎯fqb0쎯.	-10.6352
pwtf1쎯	-10.6354
dgt1쎯zzbd3쎯	-10.6356
usr쎯an쎯xn쎯	-10.6357
rwye1쎯rt쎯	-10.6358
-쎉	-10.6358
rt쎯mm쎯	-10.636
uq쎯cyi쎯	-10.636
gajf0쎯whf0쎯og쎯	-10.636
(쎄)	-10.6361
fq쎯tfn쎯	-10.6363
dga쎯pwv쎯a쎯wt쎯	-10.6363
쎀.쎄	-10.6363
xj쎯d쎯	-10.6365
sh쎯xo쎯	-10.6367
;쎂zzbd3쎯	-10.637
fk	-10.6371
”,“	-10.6373
wb쎯w쎯	-10.6374
rawk쎯	-10.6377
hko쎯,	-10.6377
ip쎯qk쎯	-10.6378
vb쎯ygu쎯	-10.6379
dn쎯ygk쎯	-10.6381
dm쎯tkw쎯o쎯	-10.6383
dsh0쎯	-10.6387
qje쎯tgh쎯	-10.6392
qq쎯uk쎯	-10.6393
iyj쎯fm쎯ymhj0쎯	-10.6395
wgkb0쎯wyc쎯	-10.6395
zzbd3쎯kfi쎯oge쎯	-10.6396
쎇.쎅	-10.64
ubtf0쎯tfkp0쎯	-10.6401
j쎯l쎯mw쎯	-10.6403
usgp1쎯	-10.6405
r쎯v쎯nae0쎯,	-10.6406
ey쎯sh쎯ud쎯	-10.6407
pt쎯yne쎯rj쎯waw쎯	-10.6407
xk쎯dd쎯	-10.6408
tf쎯ght쎯tp쎯gj쎯	-10.641
puv쎯hi쎯	-10.6413
o쎯pfi쎯xj쎯	-10.6417
n쎯apk쎯	-10.6419
wh쎯ftbt쎯ip쎯gyt쎯,	-10.642
rfc쎯sy쎯eb쎯tl쎯	-10.642
du	-10.6422
kkkk1쎯eb쎯	-10.6423
fggh쎯rdn쎯	-10.6423
tx쎯g쎯pe쎯	-10.6423
w쎯rnb쎯	-10.6427
e쎯bv쎯	-10.6427
gu쎯yy쎯wc쎯jfd쎯.	-10.6428
ux쎯kht쎯	-10.6432
iv쎯k쎯	-10.6433
.et쎯gf쎯	-10.6434
g쎯wrh1쎯	-10.6435
yygt쎯dd쎯pt쎯yne쎯	-10.6436
ghd1쎯dqe쎯	-10.6438
dj쎯wxm쎯	-10.644
axj쎯	-10.6441
vc쎯	-10.6444
.ld쎯hx쎯,	-10.6445
rym쎯	-10.645
iie쎯ditn1쎯	-10.6451
zzbd3쎯sb쎯	-10.6453
.ld쎯o쎯	-10.6453
ukn쎯jtyl쎯	-10.6453
fug0쎯fe쎯	-10.6455
ip쎯wug0쎯,	-10.6455
xf쎯vq쎯	-10.6455
dn쎯o쎯b쎯	-10.6458
gd쎯wgkq0쎯	-10.6462
tdjh1쎯	-10.6464
쎁wc쎯jfd쎯	-10.6464
bb쎯zzbd3쎯	-10.6465
,ugdu쎯l쎯	-10.6466
o쎯wqin쎯	-10.6467
aft쎯e쎯	-10.6469
adm쎯hhhh쎯r쎯	-10.6472
r쎯tg쎯u쎯	-10.6474
y쎯yfj0쎯	-10.6475
oja쎯oth쎯	-10.6477
yfd쎯sf쎯	-10.6479
cbd쎯yf쎯	-10.6479
j쎯l쎯pe쎯	-10.648
vcy0쎯	-10.6481
pyb1쎯	-10.6483
,j쎯g쎯tkh쎯	-10.6485
쎂.쎁	-10.6486
ggn쎯	-10.6487
rw쎯fcu1쎯	-10.6488
tfkf0쎯yr쎯	-10.6489
srm쎯awx쎯	-10.649
ga쎯ynk쎯	-10.6492
쎁.쎁	-10.6494
tg쎯u쎯qie쎯wyk쎯	-10.6498
if쎯》	-10.6498
/쎃	-10.6501
쎂쎀쎁쎄rh쎯	-10.6501
adjd쎯	-10.6502
l쎯pe쎯g쎯xe쎯	-10.6509
rgf쎯rg쎯	-10.6512
g쎯sg쎯	-10.6515
,wt쎯o쎯	-10.6517
jcf쎯rf쎯“	-10.6517
nh쎯mqc쎯	-10.6517
jhf1쎯	-10.6521
mqu쎯jf쎯	-10.6522
esw쎯	-10.6522
fny0쎯lkb쎯《	-10.6523
ic쎯pb쎯	-10.6524
dm쎯src쎯	-10.6525
gjq쎯vb쎯r쎯	-10.6525
ud쎯uft쎯	-10.6525
jy쎯qc쎯	-10.6526
rc쎯tjt쎯	-10.653
zzbd3쎯fm쎯	-10.6531
yte쎯	-10.6532
tv쎯km쎯zzbd3쎯	-10.6535
xa쎯yta쎯	-10.6536
o쎯adw쎯	-10.6539
yngk1쎯ian1쎯	-10.6541
fnr0쎯iwyf1쎯	-10.6541
tkh쎯,	-10.6543
kv쎯	-10.6543
luf0쎯	-10.6546
ncd쎯	-10.6548
ipkh1쎯ipkh1쎯	-10.6549
cd쎯yaf쎯	-10.6552
dm쎯jty쎯	-10.6552
qnj쎯	-10.6554
jjjj0쎯adwe1쎯:	-10.6554
xcy0쎯rnr쎯	-10.6555
cbt쎯rfh1쎯	-10.6555
qnnk2쎯udyj쎯	-10.6557
rg쎯akgl쎯	-10.6557
.wb쎯wu쎯	-10.6561
u쎯f쎯	-10.6563
y쎯lt쎯	-10.6564
xyna1쎯ty쎯	-10.6565
ta쎯dp쎯	-10.6567
gjq쎯ym쎯	-10.6571
gf쎯hx쎯	-10.6573
,ww쎯gk쎯	-10.6573
kht쎯,	-10.6575
r쎯ad쎯dbm쎯	-10.6579
bm쎯ipg쎯	-10.6584
rvy쎯if쎯	-10.6584
y쎯ick쎯	-10.6585
km쎯.	-10.659
,gae쎯dn쎯b쎯	-10.6592
쎂.쎈	-10.6594
nynn0쎯	-10.6594
r쎯qk쎯pb쎯	-10.6597
qt쎯tu쎯	-10.66
wwj쎯wfhg0쎯.	-10.6601
tb쎯ab쎯	-10.6602
,hk쎯f쎯dm쎯tkw쎯	-10.6603
y쎯w쎯wc쎯	-10.6604
ii쎯dm쎯	-10.6605
see쎯	-10.6605
wgqt쎯	-10.6606
adef1쎯aynr쎯	-10.6607
oja쎯v쎯	-10.6608
tk쎯thd쎯	-10.6609
zzts11쎯	-10.6617
ght쎯tl쎯	-10.6618
wc쎯tl쎯km쎯	-10.662
pei쎯wt쎯tr쎯	-10.6624
pp쎯ujn쎯	-10.6625
v쎯nae0쎯fwm쎯aj쎯	-10.6625
pt쎯cm쎯	-10.6627
pym쎯jfc쎯	-10.6628
쎁쎉쎂쎈rh쎯	-10.6632
yne쎯gajf0쎯	-10.6633
bm쎯kkk쎯	-10.6634
쎃zzbd15쎯	-10.6635
wdn쎯gjh2쎯	-10.6639
gmf쎯tg쎯	-10.6641
pu쎯jf쎯	-10.6641
mt쎯fgh쎯	-10.6643
uduk0쎯gf쎯	-10.6643
pj쎯pg쎯	-10.6644
xeg0쎯xkw쎯r쎯	-10.6646
iyjh쎯jtyq0쎯	-10.6647
uvo쎯pww쎯	-10.6649
bu쎯xtk쎯	-10.6651
ix쎯	-10.6652
wi쎯	-10.6654
쎁쎉쎉쎉	-10.6655
qh쎯,	-10.6655
pei쎯og쎯uk쎯	-10.6657
rt쎯a쎯	-10.6658
d쎯l쎯mw쎯qh쎯	-10.6659
gkl쎯y쎯xyna1쎯	-10.666
lu쎯dd쎯r쎯	-10.6662
pp쎯wt쎯	-10.6664
y쎯rf쎯w쎯	-10.6665
jty쎯ysi쎯x쎯cwg쎯	-10.6668
dd쎯m쎯	-10.6669
tdg1쎯wy쎯	-10.6674
sg쎯ffff1쎯	-10.6674
.쎂쎀쎀쎃rh쎯	-10.6674
tjt쎯rmhj쎯	-10.6675
qwy1쎯	-10.6675
vbn쎯wu쎯	-10.6675
dgkn0쎯gc쎯	-10.6677
rb쎯xqa쎯	-10.6677
wfny0쎯fcl쎯	-10.6678
twt쎯ytyh쎯	-10.6679
src쎯fnw쎯	-10.6679
k쎯fm쎯	-10.668
ywe쎯ubk1쎯	-10.6681
cy쎯f쎯	-10.6684
cf쎯rt쎯	-10.6685
kld쎯	-10.6685
,i쎯wcy0쎯	-10.6686
.”psu0쎯	-10.6686
gfi쎯km쎯	-10.6692
ugdu쎯kfi쎯	-10.6692
o쎯g쎯	-10.6693
lsh0쎯	-10.6697
nnk쎯zzbd3쎯	-10.6698
ngk쎯wyc쎯uk쎯	-10.6698
dd쎯ipkh1쎯tv쎯wf쎯	-10.6699
yu쎯if쎯	-10.6699
ww쎯hx쎯	-10.67
aqg쎯aqr쎯isgg2쎯	-10.6701
ynky6쎯	-10.6702
wxf쎯dht쎯	-10.6705
sgmk0쎯	-10.6706
ym쎯dr쎯	-10.6708
쎃쎅쎀	-10.6709
yjjh0쎯zzbd3쎯	-10.6714
amw쎯mmm쎯	-10.6718
wgnb0쎯	-10.6724
ym쎯tld1쎯dfy쎯	-10.6724
쎁쎇쎀	-10.6724
lu쎯ih쎯	-10.6729
,epc쎯gc쎯	-10.6729
cep쎯mq쎯	-10.6731
tg쎯u쎯ymc쎯tlf0쎯	-10.6733
.cep쎯fp쎯	-10.6735
pfqc1쎯	-10.6735
rer쎯iuc쎯	-10.6741
쎁쎆쎀쎀	-10.6743
qev쎯toc쎯:	-10.6744
쎂쎄ih쎯jf쎯	-10.6746
hx쎯qh쎯	-10.6746
p쎯uk쎯	-10.675
ru쎯adwr0쎯	-10.6752
bn쎯wf쎯	-10.6753
xk쎯gqjo0쎯	-10.6753
av쎯thg1쎯	-10.6755
ymc쎯d쎯	-10.6759
tffu쎯w쎯	-10.6759
uqf쎯wf쎯	-10.676
uth쎯ywf쎯	-10.6763
px쎯j쎯	-10.6764
jhk1쎯rb쎯	-10.6765
iugg0쎯ime쎯	-10.6765
jo쎯dhb쎯	-10.6766
gklp쎯	-10.6768
ym쎯tffu쎯bpf쎯suq쎯	-10.6771
synw쎯siq쎯	-10.6773
xtk쎯	-10.6775
bm쎯wtf쎯	-10.6775
tve쎯vb쎯r쎯	-10.6775
,kha쎯yb쎯	-10.6778
ta쎯zzbd3쎯	-10.6779
wsg0쎯rmhj쎯	-10.678
pp쎯uj쎯,	-10.6781
fghg쎯tg쎯nf쎯jgm쎯.	-10.6782
tuu0쎯tb쎯	-10.6787
ubtf0쎯eu쎯	-10.6788
dmj1쎯dn쎯,	-10.6789
jgm쎯,	-10.679
dgkf1쎯	-10.6792
r쎯py쎯wf쎯	-10.6795
bq쎯adnt1쎯	-10.6798
r쎯pfi쎯xj쎯	-10.6799
ynh쎯	-10.6803
uv쎯	-10.6804
gkl쎯y쎯wtf쎯tv쎯km쎯	-10.6804
gqg0쎯utd쎯w쎯	-10.6805
ic쎯nnh쎯zzbd10쎯	-10.6807
afw쎯	-10.6808
bde쎯sm쎯	-10.6809
dgj쎯wx쎯	-10.6811
dqe쎯yw쎯	-10.6812
r쎯an쎯lwj쎯	-10.6814
ujfj0쎯wug0쎯:	-10.6815
.쎅djfd쎯oy쎯	-10.6817
qq쎯qk쎯	-10.6817
dgkn0쎯yid쎯	-10.6817
go쎯yu쎯,	-10.6818
wdt쎯b쎯	-10.6821
ugdu쎯ip쎯	-10.6822
qs쎯	-10.6822
ai쎯itx쎯	-10.6823
bu쎯wgk쎯l쎯	-10.6825
ajdl0쎯	-10.6826
txgt쎯dgkn0쎯	-10.6828
gfi쎯fnrt쎯	-10.6829
ipkh1쎯rh쎯	-10.6829
ukd1쎯jghm1쎯.	-10.6829
rgd0쎯bfw쎯	-10.6833
a쎯uqwm1쎯	-10.6839
khv쎯khp쎯	-10.6842
vfhp1쎯ymc쎯r쎯	-10.6842
r쎯tf쎯o쎯	-10.6842
nh쎯uwl쎯	-10.6843
tevc쎯	-10.6843
yfj0쎯qev쎯	-10.6844
rjg1쎯wk쎯	-10.6845
bn쎯kn쎯	-10.6845
hi쎯tf쎯	-10.6846
mqb쎯gf쎯	-10.6846
dd쎯fny0쎯yygy쎯wx쎯	-10.6847
tuj0쎯ujfj0쎯r쎯	-10.6849
k쎯ny쎯ih쎯ip쎯	-10.6849
i쎯jqr쎯	-10.6849
ige쎯zzbd10쎯	-10.685
oge쎯dqe쎯	-10.6851
bqn쎯	-10.6852
pgy쎯dgtg0쎯	-10.6856
fh쎯gc쎯	-10.6862
xvk쎯iw쎯	-10.6867
ijo쎯f쎯	-10.6871
cd쎯yaf쎯ta쎯	-10.6874
쎁쎀쎈	-10.6877
tu쎯ip쎯r쎯	-10.6878
fhn쎯gc쎯	-10.6883
rn쎯wt쎯	-10.6886
kml쎯ujj쎯	-10.6887
ybj쎯	-10.6888
sghg1쎯pv쎯ymhj0쎯	-10.6889
fhw쎯ghd1쎯r쎯	-10.6889
ijl쎯ytyh쎯ymhj0쎯	-10.6889
pwd쎯bm쎯am쎯fmud쎯	-10.6891
mta쎯	-10.6893
ffff1쎯gku쎯	-10.6894
sfhg쎯sri쎯	-10.6896
tv쎯pgj쎯wfny0쎯uk쎯	-10.6896
qrn쎯	-10.69
k쎯l쎯nnh쎯gl쎯	-10.6901
vv쎯u쎯tu쎯	-10.6901
sfh쎯alt쎯	-10.6902
쎁uqw쎯	-10.6905
je쎯jo쎯r쎯	-10.6905
yi쎯e쎯	-10.6908
sg쎯nnh쎯j쎯	-10.6908
tyna2쎯ywx쎯yygy쎯	-10.6909
wg쎯tq쎯	-10.6909
pei쎯og쎯w쎯kkkk1쎯	-10.6911
bm쎯yam쎯	-10.6913
fnrt쎯jy쎯	-10.6914
ai쎯wmj1쎯	-10.6916
fqu쎯sk쎯	-10.6917
gip쎯dr쎯	-10.6917
쎅djfd쎯oy쎯	-10.692
,hk쎯f쎯	-10.692
xyna1쎯kgn쎯	-10.6923
ryl쎯	-10.6924
od쎯klj쎯	-10.6925
dd쎯fwm쎯saj0쎯	-10.6926
dnv0쎯wtu쎯	-10.693
fas쎯	-10.6931
u쎯tr쎯	-10.6932
qr쎯kht쎯nnk쎯	-10.6933
jgm쎯aib쎯ip쎯suq쎯	-10.6934
ivp쎯iqn쎯	-10.6936
ftbt쎯yce쎯ip쎯bpf쎯	-10.6938
rn	-10.6943
oo쎯zzbd3쎯	-10.6944
tv쎯wf쎯	-10.6946
ija쎯dmh0쎯	-10.6948
rgef쎯	-10.6948
uyh쎯yne쎯	-10.695
zzbd3쎯gkl쎯	-10.6952
b쎯《	-10.6955
bd쎯qn쎯	-10.6956
qfhw1쎯wug0쎯gf쎯	-10.6956
lfof3쎯sghg1쎯sks쎯	-10.6957
쎂adm쎯	-10.6957
y쎯s쎯x쎯apk쎯	-10.6958
rl쎯	-10.6959
u쎯zzbd3쎯qie쎯wyk쎯	-10.6961
eee0쎯쎁쎇jjjj0쎯	-10.6962
bde쎯jf쎯	-10.6964
xnf쎯	-10.6964
tqq쎯sfhg쎯	-10.6965
syf쎯	-10.6967
.rg쎯go쎯	-10.6969
ltu0쎯nnh쎯>	-10.6971
ii쎯u쎯	-10.6971
vfhp1쎯l쎯	-10.6971
lu쎯vb쎯	-10.6971
bm쎯gm쎯d쎯	-10.6973
k쎯gxgu쎯	-10.6976
nnh쎯if쎯pe쎯	-10.6977
kf쎯sgm쎯	-10.6979
.yynw1쎯sf쎯	-10.698
tmd쎯lp쎯	-10.6981
sf쎯.	-10.6981
xyna1쎯tkgg1쎯	-10.6981
gyt쎯y쎯wtf쎯	-10.6981
qh쎯,gip쎯	-10.6983
l쎯u쎯	-10.6985
trf0쎯bmg쎯	-10.6986
tgj쎯tjt쎯	-10.6992
rtol0쎯tkh쎯	-10.6996
an쎯lwj쎯tk쎯f쎯	-10.6996
......	-10.6997
rg쎯bg쎯	-10.6997
wt쎯b쎯	-10.7
쎀)	-10.7007
an쎯pe쎯	-10.7009
sk쎯et쎯gf쎯	-10.7009
uxe쎯dm쎯	-10.7012
rgs쎯	-10.7013
.lpdk1쎯	-10.7014
lfo쎯rrr쎯	-10.7015
gm쎯e쎯km쎯a쎯	-10.7016
kkdu쎯	-10.7022
ga쎯v쎯zzbd3쎯	-10.7022
lhnh쎯ad쎯	-10.7026
wtf쎯ujn쎯	-10.7026
x쎯apk쎯gj쎯wynn3쎯,	-10.7027
bll쎯	-10.7029
-쎀쎁	-10.7031
xfm쎯pwat0쎯	-10.7031
ytt쎯thd쎯ick쎯egc쎯	-10.7032
fkuc3쎯ddnl쎯	-10.7033
toln1쎯oi쎯	-10.7035
(쎁쎈쎉	-10.7037
nty0쎯rmhj쎯	-10.7037
dn	-10.7037
sk쎯c쎯d쎯	-10.7039
zzbd3쎯ymhj0쎯	-10.7041
dht쎯tb쎯	-10.7041
nge쎯ab쎯	-10.7042
iytb0쎯fmk쎯bw쎯	-10.7043
ntt쎯tf쎯	-10.7044
jf쎯ynt0쎯	-10.7044
ta쎯iit쎯ymhj0쎯	-10.7044
qi쎯lfq쎯	-10.7046
dg쎯xwy0쎯	-10.7049
yi쎯ce쎯	-10.7049
apw쎯	-10.705
sp쎯qc쎯	-10.7051
jf쎯r쎯	-10.7053
쎀.쎇	-10.7053
gkp쎯udh쎯	-10.7054
rvyo쎯ii쎯	-10.7054
txi쎯y쎯wtf쎯	-10.7058
bg쎯pym쎯	-10.7061
tv쎯ipk쎯suq쎯	-10.7062
ght쎯sc쎯	-10.7062
nngt쎯	-10.7064
lfn쎯gkip0쎯	-10.7067
sk쎯tfqp쎯	-10.707
쎂쎀wv쎯qkhh1쎯	-10.707
ab쎯xq쎯	-10.7071
”)	-10.7073
uthp0쎯ftbt쎯	-10.7074
ih쎯ooo쎯	-10.7075
rdn쎯	-10.7076
gmww쎯mdfj쎯	-10.7079
yngk1쎯maw쎯	-10.7081
twf쎯kgn쎯	-10.7082
.px쎯j쎯	-10.7085
edjn쎯	-10.7085
ymc쎯yf쎯gn쎯	-10.7086
qq쎯fqb0쎯	-10.7086
gu쎯fqu쎯ylf0쎯u쎯	-10.7087
ep쎯r쎯	-10.709
,px쎯j쎯	-10.7093
,aqt쎯tj쎯	-10.7093
td쎯qk쎯ya쎯	-10.7094
qynm1쎯mgn쎯	-10.7097
prh쎯	-10.7098
najg쎯	-10.7098
ta쎯.	-10.7101
ftbt쎯yce쎯a쎯wt쎯	-10.7102
쎉)	-10.7104
ip쎯fge쎯fghg쎯	-10.7106
tx쎯lh쎯nm쎯	-10.7106
쎁쎅wv쎯qkhh1쎯	-10.7107
;쎁	-10.7109
tonu0쎯	-10.711
dyi쎯fw쎯	-10.7114
emc쎯wwv쎯rmhj쎯	-10.7114
imj쎯xwf쎯	-10.7115
g쎯wh쎯w쎯	-10.7116
txgi5쎯wxf쎯	-10.7116
m쎯qk쎯	-10.7117
hk쎯f쎯dm쎯tkw쎯쎁	-10.7118
eee0쎯쎆jjjj0쎯	-10.7119
oge쎯vo쎯	-10.712
saj0쎯aa쎯,	-10.7122
geht0쎯	-10.7122
.wv쎯dmh0쎯gf쎯	-10.7125
nnh쎯gl쎯anb0쎯sy쎯	-10.7126
gmww쎯dm쎯	-10.7126
wbj쎯tfkp0쎯b쎯	-10.7126
y쎯apk쎯	-10.7127
pu쎯hka쎯	-10.7129
wvf0쎯wg쎯	-10.7131
.쎂쎀쎀쎂rh쎯	-10.7131
rrp쎯an쎯	-10.7132
qgfj쎯	-10.7134
fgf0쎯	-10.7134
gwy1쎯	-10.7135
ux쎯ugdu쎯	-10.7136
sss쎯ss쎯wc쎯lfq쎯	-10.7138
rb쎯》zzbd3쎯《	-10.7138
uni1쎯	-10.7139
r쎯g쎯uk쎯wv쎯	-10.714
쎃kgn쎯	-10.7141
rg	-10.7143
thp쎯pv쎯	-10.7144
ddi쎯	-10.7147
oat쎯rvyo쎯	-10.7147
쎁쎉쎃쎀rh쎯	-10.7149
ugdu쎯vvv쎯	-10.7155
ts쎯wgq쎯	-10.716
abi쎯irn쎯	-10.7162
ish쎯	-10.7163
jn쎯sux쎯	-10.7167
zzsx35쎯	-10.717
faw쎯hh쎯	-10.7171
puv쎯,	-10.7172
fhn쎯wtf쎯	-10.7174
gkm쎯uqwm1쎯	-10.7175
pgy쎯pgy쎯	-10.7177
l쎯n쎯	-10.7177
rfc쎯if쎯	-10.7179
gkl쎯y쎯wtf쎯,	-10.7182
tdu0쎯	-10.7183
wvt쎯adwr0쎯uff쎯	-10.7185
eee0쎯쎁쎁jjjj0쎯	-10.7188
r쎯gm쎯wa쎯wx쎯	-10.7188
trh0쎯kq쎯	-10.719
gxi쎯e쎯	-10.7194
xl쎯gcft0쎯	-10.7196
afwt1쎯	-10.7196
쎉eee0쎯gcf쎯	-10.7196
ugdu쎯iyt1쎯	-10.7198
an	-10.7199
al쎯ce쎯,	-10.7202
god쎯st쎯r쎯	-10.7204
ujfj0쎯qtj쎯	-10.7206
okk쎯	-10.7207
wgkg1쎯	-10.7208
,rxj쎯	-10.7209
tmd쎯ym쎯	-10.721
pdx쎯	-10.721
gkm쎯ty쎯	-10.7211
wc쎯ngk쎯d쎯	-10.7211
tjt쎯jgf쎯dd쎯ip쎯	-10.7211
wv쎯uyt1쎯yx쎯:	-10.7215
gn쎯tp쎯gj쎯	-10.7217
ijo쎯ya쎯	-10.7217
,wg쎯sf쎯	-10.7219
yce쎯w쎯	-10.722
gk	-10.7221
yny0쎯zzbd3쎯	-10.7222
bm쎯gm쎯r쎯	-10.7226
ue쎯fj쎯	-10.7227
j쎯wys쎯	-10.7231
k쎯ny쎯y쎯wtf쎯	-10.7233
ipq쎯bj쎯ymhj0쎯	-10.7233
trf0쎯gqr쎯r쎯	-10.7234
lx쎯yf쎯	-10.7235
dnv2쎯adw쎯j쎯	-10.7236
vt쎯dx쎯	-10.7237
lkd쎯jv쎯	-10.7239
bw쎯km쎯	-10.724
iy쎯tmdf1쎯	-10.7241
rrr쎯ae쎯	-10.7243
qya쎯	-10.7244
ujf0쎯tsh1쎯	-10.7245
iytb0쎯fmk쎯	-10.7246
riu0쎯ytyh쎯	-10.7246
geq쎯eyni쎯	-10.7247
irh0쎯	-10.7247
rrg1쎯fnud쎯	-10.7253
yceh1쎯	-10.7253
kkd쎯pn쎯	-10.7253
tu쎯y쎯wtf쎯	-10.7256
dga쎯v쎯zzbd3쎯	-10.7256
itx쎯ii쎯	-10.7256
o쎯k쎯ny쎯	-10.7258
yvw쎯	-10.7258
ccc쎯e쎯	-10.726
쎁qk쎯	-10.7261
ihic쎯	-10.7261
eee0쎯쎉jjjj0쎯	-10.7261
iqgg쎯og쎯	-10.7261
wv쎯gqje0쎯	-10.7265
wwf쎯sfi쎯	-10.7265
t쎯rfc쎯sy쎯	-10.727
xpw쎯pgn쎯	-10.7271
o쎯pt쎯yne쎯	-10.7274
jy	-10.7276
pei쎯ax쎯	-10.7276
eee0쎯쎁쎄jjjj0쎯	-10.7283
th쎯gkl쎯th쎯ta쎯	-10.7283
o쎯:	-10.7284
ol쎯ck쎯	-10.7284
(쎂	-10.7284
bd쎯ruv쎯	-10.7284
(wynk쎯	-10.7286
awx쎯ur쎯	-10.7296
ipw쎯ynt0쎯	-10.7298
쎈쎀%	-10.7299
hx쎯rg쎯	-10.73
jjjj0쎯ygk쎯	-10.7302
ipwk0쎯qev쎯	-10.7302
jtg쎯xe쎯	-10.7302
oqdo쎯ou쎯	-10.7303
wyf0쎯dhb쎯	-10.7303
iyni1쎯	-10.7304
wg쎯tkgg1쎯	-10.7304
pp쎯f쎯	-10.7304
fu쎯lk쎯b쎯	-10.7304
쎆쎀쎀쎀	-10.7306
lft쎯ta쎯	-10.7308
tve쎯it쎯	-10.7309
fct쎯ey쎯	-10.7309
rvk쎯um쎯	-10.7311
wv쎯klj쎯o쎯	-10.7311
rtfj0쎯	-10.7313
ntg쎯.	-10.7314
-쎂쎀	-10.7315
eyf쎯	-10.7323
,cf쎯gf쎯	-10.7324
ipmq쎯tj쎯	-10.7325
쎂w쎯	-10.7325
go	-10.7328
쎀ypt쎯oy쎯	-10.7329
og쎯mw쎯	-10.7331
xxm쎯lfod0쎯	-10.7334
mmv0쎯	-10.7334
gcf쎯wynb0쎯,	-10.7334
nae0쎯bm쎯	-10.734
c쎯rg쎯,	-10.7342
,g쎯wh쎯	-10.7345
ijq쎯	-10.7345
ugdu쎯iwyf1쎯	-10.7346
yaa쎯hko쎯	-10.7349
o쎯wfh0쎯tc쎯	-10.7349
ii쎯jjj0쎯	-10.735
iu쎯aqrn1쎯	-10.7351
y쎯s쎯tg쎯u쎯	-10.7354
ijl쎯jef1쎯	-10.7356
tffu쎯tk쎯tkh쎯	-10.7356
qmw쎯	-10.7356
ll쎯,ic쎯ytt쎯,	-10.7358
xry쎯	-10.7359
rxj쎯wyc쎯	-10.736
(쎁쎈	-10.7361
pa쎯gkp쎯	-10.7364
a쎯tv쎯	-10.7364
lkd쎯nh쎯	-10.7366
dd쎯ip쎯xxf쎯og쎯	-10.7366
ipk쎯ght쎯	-10.7369
us쎯thd쎯	-10.737
mqu쎯,	-10.7373
tx쎯g쎯uk쎯	-10.7375
se쎯adw쎯	-10.7376
fj쎯nae0쎯	-10.7377
fh쎯iyc쎯	-10.7379
waw쎯ii쎯	-10.7379
ihc쎯uff쎯	-10.7379
yi쎯d쎯	-10.738
ypm쎯ya쎯	-10.7381
ip쎯txi쎯	-10.7382
wbb0쎯wyf0쎯	-10.7383
kl쎯g쎯wh쎯	-10.7385
cccf1쎯	-10.7386
iffg쎯	-10.7386
kgn쎯xg쎯	-10.7389
ukn쎯fay쎯	-10.7395
abf1쎯	-10.7396
pg쎯hko쎯	-10.74
쎁쎀wtu쎯	-10.7402
isk쎯kkkk1쎯	-10.7403
,hw쎯	-10.7404
wys쎯wgk쎯	-10.741
mww쎯rfm쎯	-10.7413
,c쎯“	-10.7413
a쎯ip쎯bpf쎯	-10.7414
.쎂쎀쎁쎂rh쎯	-10.7417
wdk쎯	-10.7421
:쎁쎀	-10.7422
g쎯k쎯	-10.7423
pju0쎯	-10.7423
fp쎯r쎯	-10.7424
fg쎯w쎯	-10.7429
puh쎯wi쎯	-10.7429
gs쎯,	-10.7429
ftg쎯tg쎯	-10.7435
lw쎯wc쎯ds쎯	-10.7436
ddu1쎯yny0쎯	-10.7436
knx쎯	-10.7437
yynw1쎯wc쎯ngk쎯	-10.7438
rpw쎯rmhj쎯kkd쎯	-10.7439
,tm쎯	-10.7441
nr쎯	-10.7442
gk쎯.	-10.7442
dd쎯ip쎯yygy쎯wx쎯	-10.7443
ntt쎯	-10.7443
rnr쎯fnr0쎯kkd쎯	-10.7444
wc쎯jfd쎯th쎯,	-10.7444
d쎯jjjj0쎯sg쎯	-10.7444
쎁zzsx6쎯	-10.7444
kha쎯yb쎯sf쎯tv쎯wf쎯	-10.7445
v쎯tg쎯d쎯	-10.7448
.p쎯jfd쎯	-10.7449
sg쎯tu쎯xxf쎯og쎯	-10.7451
dp쎯sfi쎯	-10.7453
pe쎯.	-10.7453
g쎯vtk쎯	-10.7455
khh0쎯	-10.7458
r쎯al쎯ce쎯	-10.7458
rpf쎯	-10.746
rdj쎯qk쎯	-10.7462
쎅oy쎯	-10.7463
k쎯l쎯iv쎯wa쎯	-10.7463
go쎯r쎯	-10.7465
fhn쎯hko쎯	-10.7465
c쎯fm쎯	-10.7465
.x쎯fp쎯	-10.7466
wy쎯gkim1쎯	-10.7471
ytey0쎯tf쎯py쎯	-10.7471
wv쎯sgn쎯gc쎯	-10.7473
pde쎯	-10.7474
ul쎯qq쎯uqw쎯	-10.7474
wny1쎯tuh0쎯	-10.7475
oge쎯pyj쎯yygy쎯je쎯	-10.7475
,xf쎯wgk쎯	-10.7475
.p쎯j쎯	-10.7477
t0쎯	-10.7477
ipg쎯yo쎯	-10.7481
r쎯m쎯jf쎯	-10.7482
k1쎯	-10.7483
ght쎯ywf쎯trf0쎯	-10.7483
fwf쎯wa쎯	-10.7484
tffu쎯qq쎯wh쎯	-10.7484
d쎯wynb0쎯	-10.7485
,im쎯e쎯	-10.7485
x쎯qyv쎯	-10.7487
ftjb쎯sk쎯c쎯	-10.7487
cep쎯fp쎯b쎯	-10.7488
g쎯kht쎯	-10.749
i쎯yud1쎯	-10.749
a쎯og쎯lfq쎯	-10.7493
fuk쎯yk쎯k쎯ny쎯	-10.7493
qyng0쎯od쎯	-10.7494
vfhp1쎯ymc쎯zzbd3쎯	-10.7497
gu쎯tf쎯	-10.7499
ypt쎯	-10.7502
pdx쎯tr쎯	-10.7503
i쎯yo쎯	-10.7504
rnp쎯sgc쎯	-10.7505
쎅.쎅	-10.7506
xfg0쎯	-10.7509
efw쎯	-10.751
yne쎯,e쎯xte쎯sf쎯	-10.7511
rhk0쎯ve쎯	-10.7512
dx쎯udi0쎯whf0쎯og쎯	-10.7512
쎁adm쎯	-10.7513
sgjg0쎯	-10.7513
w쎯d쎯	-10.7515
zzbd3쎯xt쎯	-10.7517
wf쎯ta쎯	-10.7517
j쎯cf쎯	-10.7518
–	-10.7519
a쎯tkgg1쎯zzbd3쎯	-10.752
js쎯scf쎯	-10.7521
gqr쎯	-10.7522
gef쎯itx쎯ith쎯	-10.7524
suq쎯wfk쎯	-10.7525
uqw쎯wf쎯yyq쎯	-10.7528
fa쎯wsg0쎯	-10.7534
tv쎯km쎯,	-10.7534
mw쎯ny쎯	-10.7536
ipg쎯km쎯,	-10.7536
qh쎯uq쎯	-10.7539
wgep쎯	-10.7539
r쎯xp쎯wgk쎯	-10.7543
tjh쎯gog쎯	-10.7543
qk쎯jgm쎯	-10.7545
gogj쎯tak쎯o쎯	-10.7549
쎂uqw쎯	-10.755
v쎯tg쎯r쎯	-10.755
r쎯svc쎯wynn3쎯	-10.7552
th쎯.	-10.7554
et쎯c쎯	-10.7556
wgq쎯vk쎯	-10.7558
iq쎯icf쎯	-10.7559
)(	-10.756
thd쎯qd쎯sf쎯	-10.7562
sm쎯tsh1쎯	-10.7565
qgb쎯qje쎯	-10.7566
ry쎯vfhp1쎯	-10.7569
uyh쎯yne쎯mqq쎯uh쎯	-10.7569
nyu0쎯tp쎯	-10.757
쎁쎉쎉쎆	-10.757
sm쎯sq쎯,	-10.7571
wycm1쎯nf쎯r쎯	-10.7571
ip쎯rb쎯	-10.7573
r쎯dgkn0쎯ipmq쎯	-10.7574
jb쎯tgj쎯s쎯r쎯	-10.7575
jf쎯adwe1쎯,	-10.7575
uqwk0쎯yqj쎯eb쎯tl쎯	-10.7581
xeg0쎯xeg0쎯ta쎯	-10.7582
se쎯hw쎯	-10.7582
dl쎯tkgg1쎯	-10.7583
zzy1쎯	-10.7583
tfqm1쎯iwyf1쎯	-10.7583
zzbd3쎯l쎯pe쎯	-10.7584
dc쎯ype쎯	-10.7584
knx쎯?	-10.7584
쎁쎉쎉쎇	-10.7585
trf0쎯u쎯	-10.7585
kml쎯	-10.7585
scf쎯ssss0쎯	-10.7588
eeqy쎯	-10.7588
j쎯g쎯yww쎯	-10.7589
ougo0쎯	-10.7589
nge쎯xft쎯	-10.7593
xh쎯v쎯	-10.7595
sov쎯ym쎯	-10.7597
tg쎯idf1쎯	-10.7598
쎂w쎯,	-10.7598
쎄쎅쎀	-10.7599
ii쎯egc쎯	-10.7599
쎁쎀쎅	-10.76
g쎯w쎯	-10.7601
adu1쎯	-10.7601
aqt쎯wg쎯l쎯	-10.7602
(gm쎯	-10.7602
whtn0쎯	-10.7603
ue쎯tmd쎯	-10.7603
pu쎯et쎯ntg쎯	-10.7605
wdn쎯rfm쎯r쎯eb쎯tl쎯	-10.7605
rqcf1쎯	-10.7605
bs쎯ru쎯wr쎯	-10.7606
zzdw5쎯	-10.7609
fwyc2쎯wrh1쎯	-10.7611
zzsx6쎯쎄	-10.7613
ajf1쎯	-10.7614
jcf쎯rf쎯c쎯	-10.7615
iie쎯gxgu쎯	-10.7616
eee0쎯쎁쎃jjjj0쎯	-10.7624
.쎁쎈	-10.7625
th쎯ta쎯	-10.7627
qh쎯qyv쎯	-10.7629
ab쎯dwg쎯	-10.7631
g쎯uk쎯wv쎯	-10.7631
po쎯pd쎯	-10.7631
,rh쎯bt쎯ii쎯jg쎯	-10.7634
j쎯ww쎯	-10.7637
쎂쎁an쎯xn쎯	-10.7637
iyc쎯jhnr쎯	-10.7643
wbj쎯uu쎯gf쎯	-10.7644
yjj1쎯wg쎯,	-10.7646
gcf쎯wynb0쎯nnnn0쎯	-10.7647
wye쎯qd쎯	-10.7647
hhhh쎯ue쎯nnnn0쎯	-10.765
e쎯tjh쎯gf쎯	-10.7652
ugm쎯zzbd3쎯	-10.7653
rwye1쎯gkp쎯	-10.7657
dd쎯nae0쎯	-10.7659
pr쎯pt쎯	-10.7663
.p쎯wh쎯	-10.7663
)tffu쎯	-10.7664
yle쎯pp쎯	-10.7664
yga쎯	-10.7665
xx쎯pfjm1쎯k쎯	-10.7666
tjtl쎯	-10.7667
tfk0쎯dnv0쎯	-10.7668
dj쎯ya쎯	-10.767
,jb쎯xtu쎯	-10.7671
nfc쎯,	-10.7672
maf1쎯	-10.7673
gg쎯dd쎯	-10.7674
dg쎯uqw쎯	-10.7678
쎅쎀쎀dq쎯	-10.7678
fjhh쎯	-10.7679
ujfj0쎯g쎯	-10.7682
itd쎯inty쎯	-10.7689
쎃w쎯	-10.769
ftxu1쎯	-10.7691
kkd쎯wrh1쎯	-10.7691
mq쎯ynnd쎯	-10.7694
ofd쎯oy쎯	-10.7694
jq쎯adwe1쎯	-10.7695
yiu0쎯ndj쎯	-10.7697
et쎯yne쎯r쎯	-10.7699
,dnv2쎯adw쎯j쎯	-10.77
.ryl쎯ta쎯	-10.77
yt쎯dd쎯	-10.77
tx쎯fgh쎯	-10.7706
ipkh1쎯et쎯r쎯	-10.7707
x쎯xjm쎯	-10.771
쎄쎈쎀	-10.7711
wc쎯xd쎯,	-10.7711
uq쎯cep쎯wgj쎯rgv쎯	-10.7712
tqv쎯pg쎯r쎯	-10.7712
pei쎯dl쎯	-10.7712
xx쎯vk쎯	-10.7714
.쎂쎀쎀쎀rh쎯	-10.7715
tffu쎯aps쎯iwyf1쎯	-10.7715
mh쎯dr쎯	-10.7716
.쎄.	-10.7717
wdn쎯rfm쎯r쎯	-10.7719
ih쎯yu쎯《	-10.7721
o쎯whf0쎯og쎯	-10.7721
ivy쎯	-10.7722
wgj쎯rgv쎯	-10.7723
ipm쎯tkw쎯	-10.7724
ipkh1쎯tv쎯	-10.7725
tmdf1쎯fmk쎯	-10.7728
eee0쎯쎇jjjj0쎯	-10.7729
wgk쎯uqwm1쎯	-10.773
ai쎯ic쎯	-10.773
thd쎯ick쎯ytyh쎯	-10.7731
r쎯ln쎯shn쎯	-10.7733
zzbd3쎯wg쎯l쎯	-10.7734
wv쎯fc쎯	-10.7735
dd쎯gku쎯	-10.7736
ryj쎯	-10.7738
lk쎯dd쎯	-10.7738
mq쎯ijo쎯	-10.7738
tv쎯km쎯wf쎯tv쎯km쎯,	-10.7742
mt쎯wsk쎯	-10.7742
dgj쎯ya쎯	-10.7743
jn쎯a쎯	-10.7745
egc쎯ta쎯	-10.7748
iuj쎯	-10.775
bpf쎯fghg쎯	-10.7751
rnd1쎯yu쎯	-10.7751
g쎯su쎯,	-10.7753
k쎯md쎯jn쎯pym쎯ck쎯	-10.7753
,lxx쎯wycb쎯	-10.7754
dgh쎯wynb0쎯	-10.7755
ytb0쎯fmk쎯hka쎯qv쎯	-10.7757
ftbt쎯tv쎯	-10.7758
jtyl쎯gj쎯	-10.7758
g쎯vt쎯vt쎯	-10.7762
aib쎯lfnh쎯:	-10.7763
f쎯wdm쎯	-10.7763
k쎯gef쎯rh쎯	-10.7767
ryi쎯	-10.7767
tkh쎯.	-10.7768
td쎯egc쎯	-10.7772
rpv쎯yssr0쎯	-10.7773
,j쎯mh쎯	-10.7776
tr쎯ou쎯	-10.7777
rfc쎯sy쎯ga쎯v쎯aq쎯	-10.7778
wds쎯	-10.778
uqt쎯js쎯.	-10.7781
fp	-10.7782
gd쎯rnb쎯	-10.7786
amw쎯rcy1쎯	-10.7786
쎃uqw쎯	-10.7787
sh쎯yneg0쎯	-10.7791
trw쎯ycb쎯	-10.7791
shn쎯qje쎯	-10.7792
qi쎯lft쎯	-10.7793
쎂.쎃	-10.7797
trs쎯trtg쎯.	-10.7798
dm쎯tkw쎯쎅	-10.7798
jjjj0쎯jvko0쎯	-10.7798
vfhp1쎯ymc쎯,	-10.78
r쎯ai쎯sghg1쎯	-10.7802
imkf1쎯nnh쎯	-10.7807
tda쎯	-10.7807
wg쎯dm쎯r쎯	-10.7808
je쎯gr쎯	-10.781
qk쎯yngk1쎯	-10.7811
k쎯ny쎯,	-10.7812
ygk쎯:	-10.7813
wynb0쎯jjjj0쎯	-10.7814
pfjm1쎯gk쎯	-10.7818
bty0쎯	-10.7818
eee0쎯쎃jjjj0쎯	-10.7826
ph쎯	-10.7826
um쎯tl쎯k쎯ny쎯	-10.783
txi쎯xyc쎯,	-10.7831
i쎯fuf0쎯	-10.7832
uq쎯cep쎯fcp쎯lwg쎯	-10.7832
yynw1쎯nnh쎯	-10.7836
r쎯g쎯ffi쎯	-10.7838
wh쎯tf쎯ght쎯sf쎯,	-10.7838
fq쎯w쎯	-10.7838
rj쎯bm쎯r쎯	-10.7839
r쎯gj쎯ywx쎯	-10.784
usr쎯g쎯wa쎯	-10.7842
.쎂쎀쎀쎁rh쎯	-10.7843
쎃쎀rh쎯	-10.7847
tcy0쎯w쎯	-10.7847
me	-10.7853
iq쎯xft쎯	-10.7854
ga쎯fffy0쎯	-10.7854
py쎯wf쎯tu쎯ip쎯bpf쎯	-10.7855
w쎯,adw쎯k쎯ww쎯gk쎯t	-10.7856
쎀dnv0쎯fqb0쎯,	-10.7857
tx쎯gg쎯nm쎯	-10.7862
ige쎯ssn쎯	-10.7863
u쎯og쎯wx쎯	-10.7864
mmm쎯ymhj0쎯	-10.7867
gcf쎯it쎯	-10.787
nd쎯tv쎯wf쎯	-10.7871
a쎯um쎯tp쎯gj쎯	-10.7871
bukn0쎯	-10.7872
mq쎯fghy2쎯	-10.7873
dga쎯pwv쎯t쎯	-10.7874
r쎯mqq쎯xtk쎯	-10.7874
zzy2쎯	-10.7875
쎁쎅dq쎯	-10.7878
i쎯on쎯rj쎯ym쎯	-10.7878
hwb쎯lwx쎯	-10.7879
wdn쎯fha쎯,	-10.788
.쎁쎉쎉쎈rh쎯	-10.7883
쎁쎂wh쎯	-10.7884
w쎯ft쎯fuk쎯udyj쎯	-10.7884
akgl쎯dlf0쎯	-10.7885
a쎯og쎯aq쎯	-10.7886
ih쎯veg쎯	-10.7887
,gm쎯nnnn0쎯	-10.7888
rit쎯	-10.7889
dqe쎯	-10.7889
fje쎯tfpd0쎯	-10.7889
ipk쎯ukn쎯fc쎯	-10.7889
rwyg0쎯tf쎯	-10.789
j쎯et쎯	-10.789
g쎯hi쎯	-10.789
bwf쎯lk쎯	-10.7893
ukn쎯uk쎯wug0쎯gf쎯	-10.7897
xeg0쎯dn쎯uk쎯wv쎯	-10.7899
bwf쎯wrh1쎯	-10.79
uqd2쎯,	-10.79
dmj1쎯ccc쎯	-10.7901
g쎯adwe1쎯	-10.7902
qrm쎯sfi쎯pfjm1쎯	-10.7903
aj쎯wv쎯	-10.7903
yygy쎯wx쎯khgp0쎯u쎯	-10.7903
iugi1쎯	-10.7903
sri쎯ym쎯	-10.7904
,p쎯jfd쎯	-10.7905
rcf쎯	-10.7906
ce쎯lt쎯r쎯	-10.7909
ck쎯ux쎯	-10.791
gj쎯shn쎯r쎯	-10.7911
qf쎯qyo쎯	-10.7916
ipwk0쎯yjjh0쎯	-10.7917
wt쎯bm쎯b쎯	-10.7917
ujf0쎯ktm쎯	-10.7918
vca쎯e쎯	-10.7918
sp쎯	-10.7919
ab쎯jjjj0쎯	-10.792
tx쎯쎅	-10.792
mds쎯	-10.7921
uqw쎯rh쎯	-10.7925
tif쎯	-10.7925
uqt쎯lt쎯	-10.7926
ymf쎯ou쎯	-10.793
fggh쎯uqv쎯	-10.7931
f쎯nfc쎯	-10.7931
veg쎯	-10.7932
ywe쎯ick쎯	-10.7933
cf쎯adw쎯	-10.7935
(c쎯gh쎯tuj0쎯tq쎯	-10.7938
,fqu쎯	-10.7938
ld	-10.794
sghg1쎯ide쎯	-10.7943
wk쎯pv쎯	-10.7944
fhn쎯ajj0쎯	-10.7945
aet1쎯rvyo쎯	-10.7945
egc쎯tv쎯ipkh1쎯tv쎯	-10.7946
ad쎯hich0쎯ftbt쎯	-10.7949
r쎯rfm쎯jg쎯	-10.7949
bk쎯og쎯ftbt쎯yce쎯	-10.7951
iq쎯xtf쎯	-10.7952
zzbd3쎯irn쎯lg쎯	-10.7955
twik0쎯	-10.7958
tffu쎯trf0쎯hko쎯	-10.7959
gd쎯qd쎯rnb쎯	-10.7961
tg쎯jjjj0쎯	-10.7962
r쎯wwj쎯st쎯	-10.7962
adwe1쎯wxm쎯	-10.7963
dnv0쎯pb쎯	-10.7963
l쎯bf쎯sfi쎯uwy0쎯	-10.7964
g쎯uth쎯	-10.7965
cbts1쎯tfn쎯	-10.7965
ld쎯bb쎯	-10.7967
tffu쎯u쎯kkk쎯	-10.7967
yq쎯tl쎯	-10.7969
쎂zzbd0쎯	-10.797
lfo쎯ju쎯	-10.797
k쎯xe쎯	-10.797
wynk쎯yq쎯	-10.7973
xtu쎯tmd쎯	-10.7974
ybo쎯qntf쎯	-10.7975
pe쎯et쎯	-10.7975
mmm쎯zzbd3쎯	-10.7978
r쎯ytd쎯	-10.7978
udbb쎯,	-10.798
yxl쎯trt쎯	-10.798
.쎁쎉쎄쎉rh쎯	-10.7981
fgh쎯wtu쎯rh쎯	-10.7981
gr쎯pgy쎯	-10.7983
dmh0쎯lfhf쎯	-10.7984
jsg쎯	-10.7984
vtdj0쎯	-10.7985
vyi1쎯	-10.7988
zzjp86쎯	-10.7992
ee쎯	-10.7993
ih쎯gf쎯	-10.7996
lkd쎯nn쎯	-10.7996
u쎯tg쎯b쎯	-10.7999
yygy쎯nnh쎯	-10.8
yi쎯wqj쎯	-10.8002
l쎯bf쎯qyv쎯jqr쎯	-10.8004
kcg쎯?	-10.8007
lfn쎯wx쎯	-10.8008
j쎯g쎯uthp0쎯	-10.8011
c0쎯	-10.8012
j쎯ld쎯o쎯	-10.8013
o쎯쎁	-10.8014
cf쎯xx쎯	-10.8015
ip쎯ddm쎯fghg쎯	-10.8016
,f쎯gj쎯wug0쎯lfhf쎯	-10.8016
yy쎯aa쎯,	-10.8017
〉	-10.8018
ifhw쎯	-10.8025
suh쎯	-10.8025
tkh쎯tkh쎯	-10.8026
uf쎯nf쎯wsg0쎯	-10.8027
ynw쎯	-10.8027
.”je쎯	-10.8028
.txg쎯	-10.8029
fq쎯xg쎯jn쎯	-10.8029
uxxn0쎯uduk0쎯	-10.8031
xeg0쎯ta쎯	-10.8033
gj쎯ywx쎯dga쎯pwv쎯	-10.8033
v쎯ugm쎯	-10.8034
uqd2쎯ujj쎯	-10.8036
ipg쎯xcf쎯	-10.8037
wtc쎯	-10.8039
ghd1쎯dm쎯	-10.804
dj쎯dnv0쎯	-10.804
ilg2쎯	-10.8041
vfhp1쎯ymc쎯t쎯	-10.8043
rnp쎯	-10.8044
yft쎯qq쎯	-10.8046
dl쎯kq쎯r쎯	-10.8048
wy쎯wtf쎯	-10.8048
,rh쎯bt쎯ii쎯jg쎯쎁	-10.805
gu쎯yy쎯tfk0쎯oy쎯	-10.805
tuj0쎯ifk0쎯	-10.8054
nnh쎯gl쎯bpf쎯	-10.8055
tffu쎯pei쎯wt쎯tr쎯	-10.8058
sds쎯	-10.8058
.rxj쎯	-10.8059
wc쎯n쎯	-10.8062
trf0쎯ta쎯	-10.8064
ygu쎯pg쎯	-10.8065
wcy0쎯e쎯	-10.8065
dg쎯qe쎯gae쎯	-10.8067
rvyl0쎯lt쎯	-10.8068
n쎯et쎯	-10.8071
hka쎯l쎯	-10.8075
lkd쎯ytt쎯	-10.8077
qtj쎯uu쎯r쎯	-10.808
xyj쎯	-10.808
;쎃zzbd3쎯	-10.808
dd쎯dd쎯	-10.8084
aqt쎯l쎯pe쎯	-10.8084
쎁qg쎯	-10.8085
udi0쎯uce쎯	-10.8088
p쎯ffi쎯	-10.8088
qnqv0쎯	-10.8089
tjt쎯qgb쎯	-10.8089
iry쎯nge쎯	-10.8091
kthh1쎯egc쎯	-10.8092
puvk2쎯	-10.8095
쎄%	-10.8095
yt쎯ny쎯	-10.8096
kd쎯ycb쎯	-10.8098
nh쎯xpw쎯	-10.8099
ica쎯	-10.81
쎇wc쎯jfd쎯	-10.8104
jy쎯tfl쎯qfhw1쎯	-10.8107
atd쎯ip쎯wf쎯	-10.8108
ugdu쎯sy쎯qnp쎯	-10.8109
yc쎯wv쎯v쎯rpl쎯	-10.811
ntg쎯utd쎯ugm쎯	-10.8111
sc쎯lt쎯	-10.8117
gn쎯v쎯nae0쎯	-10.8118
ga쎯lw쎯	-10.812
,bn쎯e쎯	-10.812
tg쎯u쎯lk쎯a쎯	-10.8121
gdk쎯	-10.8122
,vck쎯vfhp1쎯gf쎯	-10.8123
w쎯dd쎯	-10.8123
gmww쎯ts쎯	-10.8127
zzbd3쎯ugdu쎯l쎯	-10.8129
w쎯ny쎯	-10.813
ty쎯wgg1쎯	-10.8131
img쎯lll쎯	-10.8135
dr쎯o쎯	-10.8138
wh쎯eee0쎯	-10.8141
tdtf0쎯vfhp1쎯	-10.8142
dr쎯sg쎯	-10.8142
y쎯lw쎯r쎯	-10.8143
쎀쎀쎀쎀	-10.8143
kgn쎯dcg쎯	-10.8143
pe쎯w쎯	-10.8145
qq쎯nfc쎯	-10.8145
fh쎯xg쎯	-10.8146
py쎯wf쎯r쎯	-10.8148
pu쎯yk쎯	-10.8149
sw쎯fpx쎯	-10.815
bu쎯shn쎯	-10.815
khr쎯	-10.8151
uq쎯lwj쎯th쎯	-10.8151
gu쎯yy쎯	-10.8152
aitl쎯	-10.8154
쎅w쎯	-10.8155
ntg쎯vb쎯	-10.8155
pwm쎯	-10.8159
amd쎯st쎯uff쎯	-10.8159
q쎯suq쎯	-10.8159
,ad쎯uk쎯	-10.816
ogu쎯	-10.8161
wvl쎯f쎯	-10.8164
gkl쎯ukn쎯x쎯gj쎯	-10.8169
yo쎯dfy쎯kkd쎯	-10.8169
pyfc1쎯	-10.8169
lpdk1쎯aq쎯mw쎯	-10.817
wdt쎯if쎯	-10.817
ccc쎯j쎯	-10.8172
krt쎯isgg2쎯	-10.8177
.wgq쎯vk쎯	-10.8178
쎄.쎀	-10.8179
rwgk쎯	-10.8179
ssm쎯	-10.818
udb쎯ytyh쎯ymhj0쎯	-10.8181
whf0쎯og쎯rj쎯waw쎯	-10.8181
〈	-10.8182
쎉%	-10.8183
xq쎯쎂	-10.8184
dga쎯pwv쎯km쎯,	-10.8187
,jcf쎯rf쎯	-10.8187
rqym쎯	-10.8189
aflf0쎯	-10.8189
ujn쎯ln쎯	-10.819
nat0쎯	-10.8193
w쎯tq쎯	-10.8194
gyt쎯ta쎯	-10.8195
ipr쎯itx쎯	-10.8197
ipf쎯yaa쎯	-10.8197
qr쎯uthp0쎯	-10.8197
rxj쎯bm쎯	-10.8198
eee0쎯쎂쎇jjjj0쎯	-10.8198
ee	-10.8201
et쎯r쎯	-10.8202
xg쎯h쎯	-10.8202
ymhj0쎯fnrt쎯h쎯	-10.8203
gah쎯ic쎯dd쎯ip쎯	-10.8208
.쎂쎀쎁쎀rh쎯	-10.821
쎃쎀wv쎯qkhh1쎯	-10.8213
g쎯jgf쎯	-10.8214
qj쎯	-10.8214
bc쎯wa쎯	-10.8215
yff쎯yygy쎯	-10.8216
qtgf3쎯	-10.8218
a쎯tkgg1쎯fny0쎯og쎯	-10.8218
qm쎯awsk쎯	-10.8219
ub쎯qk쎯	-10.822
t쎯eb쎯tl쎯	-10.822
hi쎯cbc쎯	-10.8221
vfb쎯su쎯	-10.8223
uuj쎯syp쎯	-10.8224
《》	-10.8226
fc쎯iyc쎯	-10.8226
nnh쎯pgn쎯	-10.8227
p쎯uqw쎯	-10.8228
w쎯ntg쎯wx쎯	-10.8231
gfi쎯whw쎯qi쎯uk쎯.	-10.8232
tdg1쎯tyna2쎯	-10.8234
wg쎯l쎯ntg쎯	-10.8235
r쎯rn쎯e쎯	-10.8235
:쎁zzbd3쎯	-10.8236
rfc쎯anb0쎯	-10.8237
eee0쎯쎂쎃jjjj0쎯	-10.8239
ax쎯et쎯	-10.824
ipg쎯anb0쎯	-10.824
t쎯py쎯wf쎯wk쎯buj쎯	-10.8241
pp쎯xte쎯	-10.8242
.kl쎯qh쎯,	-10.8245
쎁쎉쎂쎆rh쎯	-10.8245
epq쎯	-10.8246
gk쎯nge쎯	-10.8246
ad쎯dbm쎯td쎯ykw쎯	-10.8247
ige쎯rvyo쎯	-10.8247
xte쎯wug0쎯gf쎯	-10.8248
kma쎯	-10.8248
r쎯ny쎯	-10.8249
qv	-10.8249
amd쎯yygy쎯qk쎯	-10.8249
doq쎯sgc쎯	-10.8249
srq쎯	-10.825
xh쎯aqkr쎯	-10.8251
dd쎯gj쎯	-10.8254
sm쎯kkd쎯w쎯	-10.8255
ihk쎯	-10.8255
eee0쎯쎂jjjj0쎯	-10.8258
a쎯tkgg1쎯ymc쎯yf쎯	-10.8259
ia쎯ide쎯	-10.8261
쎃/	-10.8263
fk쎯pyu쎯	-10.8269
tfq쎯qtd쎯	-10.827
vii쎯	-10.8271
:쎉	-10.8271
,i쎯fp쎯	-10.8271
fq쎯qc쎯	-10.8273
mmgj0쎯bwt쎯	-10.8274
:쎀쎀	-10.8274
qo쎯	-10.8275
fgjg쎯	-10.8276
ccf쎯	-10.8278
쎇%	-10.8279
쎀쎀ylf0쎯,	-10.8279
gq쎯lg쎯	-10.8282
l쎯n쎯x쎯iyj쎯	-10.8285
wt쎯mq쎯	-10.8287
r쎯wy쎯thn쎯	-10.829
pgy쎯mhny1쎯	-10.829
.rn쎯c쎯	-10.8291
dga쎯yfy2쎯wf쎯	-10.8291
wg쎯suq쎯	-10.8293
gef쎯mmm쎯	-10.8294
khd쎯fha쎯	-10.8294
sg쎯rfm쎯	-10.8294
ae쎯ujfj0쎯	-10.8295
gd쎯ipkf0쎯	-10.8298
pwav쎯	-10.8298
eee0쎯쎄jjjj0쎯	-10.8298
dhv쎯	-10.8299
a쎯anb0쎯kkk쎯	-10.83
ndj쎯sg쎯	-10.8305
flf1쎯dp쎯	-10.8305
,kw쎯e쎯	-10.8305
sm쎯wsg0쎯	-10.8307
eee0쎯쎂쎁jjjj0쎯	-10.8307
qgo쎯thg1쎯	-10.8309
,wg쎯dm쎯	-10.8311
st쎯nnk쎯	-10.8312
wf쎯yf쎯jgm쎯	-10.8313
ii쎯jn쎯uh쎯	-10.8315
rte쎯	-10.8316
cqy쎯oge쎯	-10.8317
쎁.쎇	-10.8318
wy쎯wqbh0쎯	-10.8319
,rj쎯waw쎯	-10.832
.’”	-10.8321
ru쎯sgh쎯	-10.8322
,vfb쎯	-10.8322
wb쎯j쎯	-10.8323
쎂%	-10.8326
kkk쎯wug0쎯	-10.8327
zzbd3쎯ftbt쎯ip쎯	-10.8327
isk쎯luf0쎯	-10.8328
xg쎯ts쎯	-10.8328
tdkj0쎯lt쎯	-10.833
lp쎯lwj쎯	-10.833
pgc쎯qh쎯	-10.8331
eee0쎯쎂쎂jjjj0쎯	-10.8334
ym쎯xe쎯k쎯ip쎯	-10.8335
쎀.쎀쎀	-10.8337
dwy0쎯	-10.8337
kht쎯gn쎯	-10.834
dd쎯ip쎯ip쎯dl쎯,	-10.834
nnnn0쎯x쎯dn쎯o쎯	-10.8344
zzts9쎯	-10.8345
iex쎯egc쎯	-10.8346
.쎂쎀쎁쎁rh쎯	-10.8348
wt쎯yygy쎯	-10.8348
vb쎯dc쎯	-10.8348
c쎯ux쎯	-10.8348
g쎯xeg0쎯	-10.8349
ccc쎯kn쎯	-10.8352
fc쎯uk쎯nnh쎯yn쎯	-10.8352
yqa쎯uk쎯	-10.8356
.쎁쎉쎈쎂rh쎯	-10.8358
rymn쎯hka쎯	-10.8358
sm쎯sa쎯ymc쎯tlf0쎯	-10.836
ipkh1쎯wygg쎯	-10.836
ukn쎯a쎯tkgg1쎯jgm쎯	-10.8361
of쎯	-10.8363
.쎂쎀쎁쎃rh쎯	-10.8363
aqt쎯ith쎯	-10.8363
r쎯wug0쎯lfhf쎯	-10.8366
rmhj쎯tfkp0쎯um쎯	-10.8369
r쎯dga쎯v쎯	-10.8369
dyc쎯sgc쎯	-10.837
awg쎯	-10.837
ygu쎯o쎯“	-10.837
,p쎯wh쎯	-10.8372
rnp쎯ad쎯sgc쎯	-10.8372
ux쎯wmj1쎯	-10.8374
쎆.쎅	-10.8375
kht쎯dm쎯	-10.8376
tdj쎯ssss0쎯	-10.8377
tmg1쎯ihc쎯	-10.8377
pj쎯sj쎯	-10.8379
je쎯gd쎯	-10.8379
sgi쎯”	-10.838
r쎯qe쎯ya쎯	-10.8381
rxj쎯nf쎯gh쎯	-10.8381
qq쎯uqw쎯cd쎯lk쎯	-10.8384
ep쎯ny쎯	-10.8384
qmq쎯tp쎯	-10.8386
usr쎯w쎯	-10.8388
yygy쎯kq쎯	-10.839
fwm쎯pg쎯r쎯	-10.8391
qqqq1쎯thgf1쎯	-10.8392
svc쎯	-10.8392
puhc쎯ygu쎯o쎯“	-10.8392
ytey0쎯pt쎯	-10.8394
ii쎯jn쎯	-10.8394
ua쎯ty쎯	-10.8395
by쎯ywfw0쎯	-10.8398
j쎯g쎯sg쎯	-10.8398
iqr쎯	-10.8403
ga쎯cep쎯	-10.8403
wsg0쎯r쎯	-10.8407
wycm1쎯pum쎯	-10.8407
udi0쎯,	-10.8408
xv쎯qc쎯,	-10.8408
qwd쎯oanw쎯	-10.8409
tu쎯sfhg쎯tr쎯	-10.8409
쎇쎅쎀	-10.8412
v쎯rvyo쎯	-10.8413
rn쎯ta쎯	-10.8417
iujg0쎯	-10.8417
th	-10.8423
tha쎯if쎯	-10.8428
.쎀쎀wc쎯jfd쎯	-10.8428
jn쎯pym쎯ndj쎯《	-10.8428
agf0쎯	-10.843
rj쎯ym쎯b쎯	-10.8431
쎉kgn쎯	-10.8433
wv쎯int쎯	-10.8436
pg쎯nd쎯	-10.8436
qmq쎯src쎯	-10.8437
pp쎯qh쎯	-10.844
tkh쎯sfhg쎯ii쎯tev쎯	-10.8443
ruj0쎯	-10.8444
akgn0쎯	-10.8445
yygy쎯sg쎯	-10.8445
nty0쎯qk쎯o쎯	-10.8446
dmj1쎯tj쎯qk쎯.	-10.8447
wbb0쎯ylk0쎯	-10.8447
wqa쎯gf쎯	-10.8448
emc쎯ai쎯	-10.8448
ymc쎯uu쎯r쎯	-10.8449
mmm쎯h쎯	-10.8449
puj쎯	-10.8451
sk쎯yle쎯	-10.8452
jgm쎯dd쎯	-10.8452
io쎯ii쎯	-10.8452
gik쎯	-10.8455
iv쎯tfqp쎯	-10.8456
dwiu쎯mmm쎯	-10.8459
eee0쎯쎂쎄jjjj0쎯	-10.8459
cds쎯fghg쎯	-10.8461
iit쎯iaj0쎯	-10.8462
fny0쎯pe쎯,	-10.8462
sh쎯sm쎯	-10.8463
eee0쎯쎅jjjj0쎯	-10.8464
aw쎯yf쎯	-10.8466
yny0쎯gajf0쎯	-10.8466
tjt쎯iw쎯	-10.8467
dq쎯ru쎯	-10.8467
trf0쎯hko쎯j쎯	-10.8468
gm쎯wa쎯wx쎯r쎯	-10.8473
go쎯jn쎯	-10.8473
wgk쎯wt쎯ud쎯txi쎯	-10.8474
pyg쎯tjh쎯	-10.8474
vkf0쎯kqm쎯	-10.8475
쎁쎉쎃쎁rh쎯	-10.8475
sh쎯xx쎯	-10.8476
ev쎯	-10.8477
zzbd3쎯wx쎯a쎯	-10.8479
pb쎯xgu쎯	-10.848
nnh쎯if쎯pe쎯fl쎯wf쎯	-10.848
qev쎯un쎯b쎯	-10.8482
gn쎯adw쎯	-10.8483
dga쎯pwv쎯yy쎯tm쎯	-10.8483
쎂쎀wtu쎯	-10.8484
g쎯xfm쎯	-10.8484
wt쎯yngk1쎯	-10.8485
aig쎯eajd쎯	-10.8486
in쎯	-10.8487
g쎯jf쎯	-10.8488
xwy0쎯gkf0쎯qiu0쎯	-10.8488
dm쎯ue쎯	-10.849
.쎁쎉쎉쎉rh쎯	-10.849
uk쎯ait쎯	-10.8492
fad쎯tq쎯	-10.8492
reh쎯e쎯g쎯fc쎯	-10.8493
zzsx34쎯	-10.8494
ght쎯tv쎯	-10.8497
qh쎯fpm쎯	-10.8499
kw쎯fdm쎯	-10.85
gh쎯b쎯	-10.85
f쎯src쎯	-10.8501
xn쎯vi쎯	-10.8501
,e쎯jf쎯	-10.8502
qtoy0쎯	-10.8505
siq쎯awx쎯	-10.8506
wgkb0쎯qk쎯o쎯	-10.8507
rfc쎯sy쎯r쎯	-10.8507
qten1쎯	-10.8508
oqd쎯	-10.8509
hjj쎯fha쎯r쎯	-10.851
uk쎯y쎯wtf쎯	-10.8511
q쎯ymhj0쎯	-10.8513
itd쎯fcl쎯k쎯	-10.8515
gn쎯pu쎯khg0쎯	-10.8515
mfk쎯rh쎯	-10.8516
bn쎯yi쎯j쎯	-10.852
eee0쎯쎁쎉jjjj0쎯	-10.8525
gq쎯ty쎯	-10.8526
itx쎯fakg0쎯	-10.8528
xn쎯sw쎯	-10.8528
tgv쎯	-10.8528
zzbd8쎯	-10.8532
,dt쎯egl쎯	-10.8532
ftjb쎯d쎯	-10.8532
rrr쎯qc쎯,	-10.8534
awx쎯xyy1쎯	-10.8535
wdt쎯dn쎯	-10.8537
ylf0쎯;e쎯ss쎯f쎯	-10.8539
rytp1쎯	-10.854
ga쎯wbj쎯	-10.8541
sghg1쎯ic쎯	-10.8541
gqto0쎯	-10.8543
usg쎯tgj쎯	-10.8543
쎁쎈쎄	-10.8544
ith쎯tv쎯	-10.8545
h쎯an쎯xn쎯	-10.8551
fq쎯fdm쎯	-10.8552
yi쎯yfn쎯	-10.8553
wgj쎯j쎯	-10.8553
buk쎯	-10.8553
rc쎯jmd쎯b쎯	-10.8558
cd쎯cm쎯	-10.8559
pe쎯fl쎯wf쎯gj쎯gk쎯	-10.8559
wxf쎯gmy0쎯	-10.856
kkkk1쎯,	-10.8562
.쎁쎉쎉쎃rh쎯	-10.8563
be쎯bj쎯	-10.8563
isgg2쎯kc쎯	-10.8564
pei쎯sm쎯	-10.8565
mmm쎯sdm쎯	-10.8566
qsu쎯pd쎯	-10.8567
dmjf1쎯yssd0쎯	-10.8569
yu쎯je쎯nnh쎯	-10.8569
zzts13쎯	-10.857
쎁쎉쎉쎈	-10.8573
um쎯ip쎯bpf쎯	-10.8573
쎀쎀쎀gu쎯yy쎯oy쎯,	-10.8575
aa쎯r쎯	-10.8577
bwff0쎯	-10.858
쎁쎉쎉쎅	-10.8582
sbb쎯	-10.8584
qk쎯thgf1쎯	-10.8584
jty쎯ysi쎯a쎯wt쎯	-10.8585
sgn쎯ou쎯	-10.8585
ynm쎯ey쎯	-10.8587
alw쎯ytyh쎯ymhj0쎯	-10.8593
ijfg1쎯	-10.8594
,bwt쎯	-10.8595
mm	-10.8595
d쎯adw쎯	-10.8597
jgm쎯ww쎯	-10.86
gkl쎯ymhj0쎯ta쎯	-10.8601
tg쎯u쎯ce쎯lt쎯	-10.8603
zzbd3쎯um쎯tl쎯	-10.8604
i쎯epc쎯	-10.8604
,ukn쎯vfhp1쎯tam쎯	-10.8604
bh쎯	-10.8605
nfi1쎯	-10.8606
zzbd3쎯ws쎯usi1쎯	-10.8607
ip쎯dga쎯pwv쎯	-10.861
hv쎯tu쎯	-10.8611
um쎯lud쎯	-10.8611
.쎁쎉쎉쎂rh쎯	-10.8613
rawk쎯vfhp1쎯	-10.8613
r쎯g쎯pe쎯	-10.8613
,bn쎯sk쎯c쎯	-10.8614
vcl쎯	-10.8615
pwfd쎯	-10.8615
uy쎯fgh쎯	-10.8615
oat쎯ga쎯	-10.862
trf0쎯e쎯r쎯	-10.8621
g쎯yy쎯	-10.8621
mqq쎯j쎯	-10.8622
waj0쎯egl쎯	-10.8624
sdy1쎯	-10.8626
kftj1쎯	-10.8627
쎀.쎉	-10.8628
wgk쎯wt쎯py쎯	-10.8629
쎁gmww쎯,	-10.8629
.(쎂)	-10.863
mee0쎯	-10.8633
kuq쎯	-10.8636
ddm쎯fghg쎯tg쎯nf쎯	-10.8636
isf쎯ypm쎯	-10.8637
ugm쎯yo쎯	-10.8638
rg쎯d쎯	-10.8638
ogm쎯	-10.8639
ue쎯adwe1쎯	-10.864
qit쎯	-10.8641
yoj쎯	-10.8642
,ryl쎯ta쎯	-10.8642
tfkd쎯rp쎯	-10.8645
qfhw1쎯ipk쎯tv쎯	-10.8648
wgmy2쎯	-10.8648
yy쎯gae쎯	-10.8649
rkm쎯pd쎯	-10.865
;《	-10.8651
thd쎯drin0쎯	-10.8652
vtg쎯qk쎯	-10.8652
dd쎯uqd2쎯	-10.8653
쎁zzbd15쎯	-10.8658
dnv2쎯adw쎯	-10.8659
gk쎯pu쎯	-10.8661
wgj쎯gf쎯	-10.8662
yxt쎯	-10.8663
dhi쎯	-10.8665
nj쎯nj쎯	-10.8665
tkw쎯lx쎯b쎯dh쎯pgk쎯	-10.867
tfkp0쎯xqa쎯	-10.867
fm쎯wmj1쎯	-10.867
rj쎯qk쎯	-10.867
thgc0쎯)	-10.8671
쎃.쎃	-10.8672
pfq쎯tlf0쎯	-10.8673
xxf쎯og쎯,	-10.8673
qynm1쎯h쎯	-10.8674
adj쎯tvfh0쎯pr쎯	-10.8675
tem쎯r쎯	-10.8675
jmhn1쎯	-10.8676
,wgkq0쎯tj쎯	-10.8677
rdjn0쎯	-10.8678
y쎯s쎯qn쎯rtd쎯	-10.8678
ux쎯dm쎯	-10.8679
gg쎯wa쎯	-10.868
awj0쎯	-10.8685
udrc쎯	-10.8686
ymc쎯yf쎯t쎯	-10.8687
mb쎯sfiu1쎯	-10.8689
r쎯ym쎯tu쎯rfc쎯	-10.869
tn0쎯	-10.869
ukn쎯yne쎯ovt쎯	-10.869
adwe1쎯tffy0쎯	-10.8692
yao쎯	-10.8693
mfc쎯	-10.8693
tmf쎯	-10.8697
suj쎯	-10.8699
alf0쎯ytt쎯	-10.8699
sksw쎯kjj쎯	-10.87
rmhj쎯yjjh0쎯	-10.87
jf쎯pw쎯	-10.8702
yfj0쎯rep쎯	-10.8702
mmm쎯sf쎯	-10.8703
pe쎯jn쎯	-10.8704
wgk쎯ec쎯ymhj0쎯	-10.8705
,rpv쎯	-10.8708
rua쎯ujf0쎯	-10.8709
gn쎯adw쎯wb쎯	-10.871
it쎯uqf쎯	-10.8711
da쎯dk쎯.	-10.8712
e쎯g쎯pg쎯	-10.8714
dm쎯qn쎯	-10.8714
hndm0쎯	-10.8716
zzxx0쎯	-10.8716
lfn쎯tm쎯	-10.8716
go쎯idr쎯gf쎯	-10.8717
.bm쎯th쎯:	-10.8718
khuh0쎯	-10.8718
gj쎯mf쎯	-10.8718
,ftjb쎯	-10.8719
zzjp82쎯	-10.8721
qqqq1쎯qve쎯	-10.8722
jjjj0쎯rb쎯》	-10.8728
,tg쎯gf쎯	-10.8729
pp쎯uthp0쎯	-10.8729
tu쎯tv쎯	-10.8729
쎈쎀rh쎯wa쎯	-10.873
wk쎯wht쎯	-10.8731
i쎯yv쎯	-10.8733
epqh쎯	-10.8735
tp쎯gj쎯tv쎯km쎯wf쎯	-10.8735
lwj쎯r쎯	-10.8736
ygk쎯yyy쎯ip쎯	-10.8737
aqk쎯og쎯	-10.8738
xe쎯a쎯tkgg1쎯jgm쎯.	-10.8739
qtr쎯	-10.8742
afie0쎯	-10.8743
bb쎯.	-10.8743
ajd0쎯adwr0쎯tu쎯	-10.8743
eb쎯et쎯	-10.8744
pw쎯rrr쎯	-10.8746
wy쎯thn쎯txi쎯xyc쎯	-10.8747
ybv0쎯xan쎯	-10.8749
ue쎯qtd쎯	-10.8749
yid쎯iv쎯	-10.875
hka쎯fnrt쎯	-10.8752
rryf쎯	-10.8752
r쎯hhhh쎯r쎯	-10.8755
waj0쎯jtyq1쎯	-10.8756
rbcc쎯wqj쎯sm쎯	-10.8756
(adw쎯k쎯	-10.8762
쎁쎀쎆	-10.8763
sf쎯mw쎯	-10.8765
xeg0쎯dn쎯km쎯	-10.877
ai쎯mq쎯	-10.8773
g쎯ya쎯	-10.8774
”pb쎯	-10.8775
stx쎯awx쎯	-10.8776
tmo쎯fcp쎯	-10.8778
”tq쎯kgn쎯.	-10.8779
ukn쎯ovt쎯	-10.8779
k쎯sghg1쎯	-10.8779
rmhj쎯wt쎯r쎯	-10.8779
it쎯qt쎯	-10.8781
saq쎯xnf쎯	-10.8782
ukn쎯wf쎯	-10.8782
jfc쎯tg쎯	-10.8784
rab쎯	-10.8784
r쎯wfny0쎯xyc쎯	-10.8785
ip쎯sy쎯uq쎯iyc쎯	-10.8787
r쎯ga쎯v쎯	-10.8787
gf쎯쎂쎀쎀쎉rh쎯	-10.879
tve쎯ym쎯r쎯	-10.879
ddh쎯	-10.8791
wf쎯rn쎯	-10.8793
tgj쎯wht쎯	-10.8793
fq쎯sm쎯	-10.8797
ii쎯jg쎯	-10.8797
bukn0쎯je쎯	-10.8797
쎁쎉쎂	-10.8797
synw쎯tha쎯	-10.8798
;qm쎯gmu1쎯	-10.8798
wht쎯ys쎯	-10.8801
ym쎯xe쎯bk쎯tq쎯	-10.8804
ujf0쎯uqt쎯	-10.8805
:-	-10.8807
qtjh0쎯bb쎯	-10.8807
d쎯suq쎯	-10.8807
uuk1쎯jtyq0쎯pgc쎯	-10.8811
(xq쎯	-10.8816
/쎁	-10.8818
pfq쎯ugdu쎯r쎯	-10.8819
r쎯kkk쎯thgf1쎯	-10.8819
jo쎯tj쎯	-10.8822
쎉쎀%	-10.8823
qk쎯iwyf1쎯	-10.8823
k쎯l쎯wfny0쎯xyc쎯	-10.8828
rvl쎯	-10.883
gm쎯d쎯r쎯	-10.8831
jh쎯d쎯	-10.8831
ba쎯gq쎯	-10.8832
whf0쎯og쎯yygy쎯wx쎯	-10.8833
,tq쎯o쎯	-10.8834
adwl쎯rpws쎯	-10.8835
rmn0쎯bqv쎯	-10.8837
쎄w쎯	-10.8839
,lpdk1쎯	-10.8842
.쎁쎉쎈쎈rh쎯	-10.8844
l쎯ygk쎯	-10.8845
xt쎯fny0쎯lkb쎯	-10.8845
r쎯wt쎯et쎯.	-10.8847
fjh0쎯tr쎯h쎯v쎯ge쎯	-10.8849
cw쎯ya쎯	-10.885
yt쎯yca쎯	-10.8851
r쎯jb쎯wffg쎯	-10.8851
.쎁쎉쎉쎇rh쎯	-10.8851
쎃.쎂	-10.8854
jo쎯fi쎯kkd쎯	-10.8854
vk쎯gh쎯	-10.8855
dm쎯tkw쎯dp쎯	-10.8856
p쎯od쎯	-10.8857
zzbd3쎯gy쎯oy쎯	-10.8857
.쎁쎉쎈쎅rh쎯	-10.8857
i쎯mqb쎯	-10.8858
puhc쎯tq쎯o쎯“	-10.8858
m쎯tf쎯og쎯	-10.8858
》)	-10.8859
lh쎯yy쎯	-10.8859
,tdp쎯wgk쎯	-10.886
lcc쎯	-10.8862
m쎯jf쎯bn쎯	-10.8866
de쎯m쎯	-10.8866
.wt쎯kkk쎯	-10.8868
,dqe쎯wk쎯	-10.8871
jb쎯usr쎯r쎯	-10.8873
ith쎯tv쎯ipk쎯suq쎯	-10.8875
gf쎯쎂쎀쎀쎈rh쎯	-10.8875
^	-10.8877
oqdo쎯rnb쎯	-10.8877
iry쎯v쎯	-10.8881
whf0쎯og쎯wys쎯lft쎯	-10.8881
sksw쎯yngk1쎯	-10.8885
.쎁쎉쎈쎄rh쎯	-10.8886
tgj쎯xeg0쎯	-10.8888
thg1쎯zzbd3쎯	-10.8888
uwyc2쎯ii쎯	-10.8888
wy쎯yyn2쎯	-10.8891
srg쎯ss쎯	-10.8896
gmap쎯gc쎯	-10.8897
fny0쎯og쎯ip쎯nu쎯	-10.89
gqx쎯rg쎯	-10.89
g쎯mhg쎯	-10.8903
u쎯kkk쎯,	-10.8905
shn쎯s쎯	-10.8906
nty0쎯tq쎯	-10.8906
ydx쎯	-10.8906
qkk쎯wgk쎯qqqq1쎯	-10.8907
bm쎯thgc0쎯r쎯	-10.8908
tffu쎯;	-10.8908
mgu쎯wwk쎯	-10.891
ooo쎯eve쎯	-10.8914
iyjh쎯jtyq0쎯kkd쎯	-10.8915
ukqb2쎯rfc쎯	-10.8916
ith쎯uthp0쎯	-10.8916
k쎯adwe1쎯	-10.8918
쎃w쎯,	-10.8921
ww	-10.8922
pum쎯	-10.8923
ck쎯,	-10.8927
vtg쎯qa쎯	-10.8928
tk쎯e쎯	-10.8928
pwf쎯mqb쎯	-10.8929
ghd1쎯aa쎯dn쎯uu쎯	-10.893
cep쎯wwwk0쎯	-10.8933
i쎯qaj0쎯	-10.8934
wf쎯gkl쎯wf쎯ta쎯	-10.8935
쎂/	-10.8937
cbj쎯c쎯	-10.8938
nudu쎯fnud쎯	-10.8939
jff1쎯	-10.8941
fk쎯wb쎯	-10.8941
tve쎯dd쎯r쎯	-10.8942
tdkj0쎯ce쎯wx쎯	-10.8942
rx쎯uwy0쎯,	-10.8946
iy쎯mm쎯ge쎯	-10.8946
쎂dq쎯	-10.8947
.kj쎯qd쎯	-10.8949
쎅kgn쎯	-10.8952
je쎯zzbd10쎯	-10.8955
,bde쎯	-10.8955
xgo쎯ytt쎯	-10.8956
,txg쎯rh쎯	-10.8957
.쎁.	-10.896
mw쎯pww쎯qn쎯rtd쎯	-10.8964
fp쎯txgt쎯	-10.8964
wf쎯wf쎯ta쎯	-10.8965
p쎯wug0쎯	-10.8965
nir쎯	-10.8966
k쎯l쎯w쎯n쎯dd쎯ip쎯	-10.8972
aje쎯	-10.8975
r쎯dn쎯xgm쎯	-10.8977
wgej1쎯	-10.8978
rfm쎯jg쎯tx쎯g쎯	-10.8979
xq쎯o쎯	-10.898
big쎯	-10.8981
ip쎯bpf쎯ftbt쎯rep쎯	-10.8982
ww쎯ih쎯	-10.8982
쎁eee0쎯쎁jjjj0쎯	-10.8984
.”(쎂).	-10.8985
mq쎯sm쎯	-10.8985
tp쎯gj쎯ip쎯bpf쎯	-10.8985
uy쎯wh쎯	-10.899
wtc쎯syp쎯	-10.899
tffu쎯qq쎯	-10.8991
w쎯cd쎯	-10.8993
vq쎯pynn0쎯	-10.8993
ytf쎯sk쎯ygh쎯	-10.8994
쎅zzts1쎯	-10.8994
wycm1쎯nf쎯w쎯	-10.8997
n쎯www쎯	-10.8997
.쎁쎉쎉쎅rh쎯	-10.8998
iry쎯gxi쎯	-10.8998
yy쎯qf쎯ght쎯tgm쎯	-10.9
rrp쎯	-10.9005
wdn쎯ugdu쎯,	-10.9006
x쎯qie쎯um쎯	-10.9006
쎆kgn쎯	-10.9008
ak쎯j쎯	-10.9008
alw쎯aq쎯	-10.9009
me쎯tu쎯	-10.901
trf0쎯xe쎯	-10.9013
mt쎯rh쎯	-10.9015
xft쎯	-10.9015
fm쎯cep쎯	-10.9017
m쎯ujn쎯	-10.9017
fq쎯ywx쎯j쎯	-10.9017
gkip0쎯yx쎯	-10.902
aft쎯tq쎯	-10.902
,쎂쎀쎀쎄rh쎯	-10.9021
,p쎯su쎯	-10.9023
gd쎯yygy쎯	-10.9025
쎈%	-10.9025
ytyh쎯aq쎯	-10.9028
,vii쎯ntk쎯gf쎯	-10.9028
,쎁쎉쎈쎄rh쎯	-10.9028
xf쎯synw쎯	-10.903
lft쎯mqc쎯	-10.903
쎅ypt쎯oy쎯	-10.9031
r쎯fdm쎯s쎯	-10.9033
dr쎯ou쎯:	-10.9033
yc쎯jn쎯kkd쎯	-10.9034
g쎯uf쎯	-10.9034
,dnv2쎯	-10.9035
(wys쎯lft쎯)	-10.9037
,sghg1쎯gn쎯	-10.9037
w쎯,k쎯aw쎯ipk쎯km쎯,	-10.9037
vd쎯vyv쎯	-10.9038
dl쎯kq쎯yygy쎯wx쎯	-10.9039
eee0쎯쎂쎉jjjj0쎯	-10.904
xw쎯w쎯	-10.9042
dn쎯ddu1쎯	-10.9044
wxj쎯mmm쎯ymhj0쎯	-10.9047
sf쎯qfhw1쎯	-10.9048
j쎯g쎯pe쎯c쎯	-10.9048
ny쎯k쎯	-10.9057
쎁-쎂	-10.9058
mb쎯jn쎯	-10.9058
fffy0쎯vfhp1쎯	-10.9059
g쎯pg쎯s쎯	-10.9063
gr쎯itx쎯	-10.9063
쎁쎁쎂	-10.9064
pp쎯k쎯,	-10.9065
k쎯jb쎯	-10.9065
o쎯hx쎯	-10.9066
rf쎯e쎯	-10.9066
vb쎯ygu쎯.	-10.9068
,ux쎯gn쎯	-10.9069
tg쎯dyn쎯ggi쎯fuj쎯	-10.9069
gm쎯adnt1쎯	-10.9069
zzts8쎯	-10.9071
mw쎯f쎯	-10.9072
쎂쎀쎀dq쎯	-10.9072
wt쎯kkk쎯.	-10.9073
fj쎯wx쎯	-10.9075
ol쎯ajj0쎯	-10.9078
bpf쎯gkl쎯bpf쎯ta쎯	-10.9079
tx쎯g쎯qk쎯	-10.9079
hpgh0쎯	-10.9079
age쎯lll쎯	-10.908
f쎯rvyl0쎯	-10.9081
ga쎯es쎯	-10.9081
r쎯g쎯hxf쎯	-10.9085
,ic쎯ytt쎯,	-10.9085
zzbd3쎯qqqq1쎯	-10.9086
cf쎯dm쎯	-10.9087
uf쎯rh쎯	-10.9088
pnt쎯wys쎯	-10.909
ta쎯쎁	-10.9091
cbts1쎯lqw쎯	-10.9092
,e쎯r쎯	-10.9093
ywx쎯syp쎯	-10.9093
pjm쎯	-10.9096
u쎯wfhg0쎯	-10.9097
,bn쎯sk쎯	-10.9099
dga쎯pwv쎯.	-10.9099
fwm쎯ujj쎯	-10.91
ovt쎯wfhg0쎯	-10.91
wxj쎯mmm쎯	-10.9102
qgu쎯ugdu쎯	-10.9103
i쎯peg쎯	-10.9103
ll쎯bynw0쎯	-10.9104
tu쎯rfc쎯wbj쎯usr쎯	-10.9104
tfk0쎯jfd쎯	-10.9105
쎁쎀쎂쎄	-10.9107
ip쎯bpf쎯bpf쎯ta쎯	-10.9107
tf쎯,	-10.9107
쎂oy쎯	-10.9108
i쎯fdm쎯s쎯	-10.911
rmhj쎯r쎯	-10.911
ugm쎯gj쎯	-10.9111
),pyg쎯vfhp1쎯ith쎯	-10.9111
v쎯tf쎯r쎯	-10.9114
cf쎯ytd쎯	-10.9115
et쎯ax쎯	-10.9118
rfw쎯wvm쎯	-10.9119
.쎁쎉쎉쎆rh쎯	-10.9124
f쎯eerq쎯	-10.9125
if쎯jgm쎯	-10.9126
hhhh쎯r쎯j쎯	-10.9127
dgtg0쎯udi0쎯	-10.9127
dd쎯lpk0쎯ymhj0쎯	-10.9128
adwl쎯	-10.9128
uwy0쎯mj쎯	-10.9129
ftbt쎯yce쎯zzbd3쎯	-10.913
ipwk0쎯gf쎯	-10.913
pu쎯tl쎯	-10.913
fajv쎯	-10.9132
ifp쎯itx쎯	-10.9134
wycb쎯rp쎯	-10.9135
tg쎯wx쎯	-10.9137
ide쎯ir쎯	-10.9138
f쎯qk쎯	-10.914
iss쎯cnh쎯	-10.9141
ujqn1쎯	-10.9142
sfi쎯uwy0쎯r쎯	-10.9142
,yge쎯	-10.9143
쎅쎀%	-10.9144
yc쎯khu쎯	-10.9144
egi쎯	-10.9144
,tjh쎯et쎯	-10.9146
bm쎯thgc0쎯jf쎯uj쎯:	-10.9148
fhw쎯alt쎯	-10.915
sjx쎯	-10.9152
nnh쎯,	-10.9154
′′	-10.9154
,m쎯jf쎯bn쎯	-10.9156
cf쎯yid쎯	-10.9158
tnb0쎯	-10.9158
gkih0쎯yjj1쎯	-10.9162
xwv쎯	-10.9162
zzbd3쎯py쎯wf쎯	-10.9165
r쎯dr쎯ld쎯	-10.9165
rng2쎯	-10.9166
gog쎯rvyo쎯gkp쎯	-10.9166
쎁gmww쎯	-10.9166
d쎯p쎯wh쎯	-10.9166
qv쎯bc쎯	-10.9168
쎈쎀쎀쎀	-10.917
pv쎯lfhf쎯	-10.917
iwg쎯yoo쎯	-10.9173
;d쎯	-10.9173
udv쎯	-10.9173
쎂.쎇	-10.9176
tcy0쎯uu쎯	-10.9177
dg쎯mgu쎯	-10.9178
()r쎯	-10.9182
a쎯wt쎯ijl쎯ya쎯	-10.9182
thc쎯hx쎯	-10.9182
umc쎯	-10.9183
mq쎯fcu0쎯	-10.9183
wa쎯ge쎯ntg쎯	-10.9188
ue쎯go쎯	-10.9189
rcbs쎯	-10.919
rfc쎯sy쎯fc쎯rf쎯	-10.9191
dgv쎯elw쎯	-10.9192
in	-10.9197
fad쎯	-10.9198
g쎯uyh쎯	-10.9199
tfq쎯fj쎯ii쎯gu쎯	-10.92
쎀oy쎯,rh쎯gu쎯fqu쎯	-10.9205
kru쎯	-10.9209
rn쎯et쎯	-10.9212
rfc쎯sy쎯dga쎯pwv쎯	-10.9212
lwx쎯eck쎯	-10.9213
zzbd3쎯ggg0쎯	-10.9214
bn쎯ce쎯	-10.9215
gip쎯s쎯	-10.9215
itf쎯fggh쎯uqv쎯	-10.9217
src쎯zzbd3쎯	-10.922
쎁쎀wc쎯jfd쎯	-10.9221
pp쎯tq쎯	-10.9223
ux쎯dd쎯	-10.9225
ry쎯xt쎯	-10.9225
py쎯wf쎯ip쎯	-10.9226
wsg0쎯wf쎯	-10.9227
ni쎯	-10.9228
qdy1쎯	-10.9228
ukh쎯pwd쎯	-10.9231
d쎯g쎯wh쎯	-10.9232
ii쎯rfm쎯	-10.9233
쎁쎈쎉	-10.9234
td쎯qk쎯kkk쎯thgf1쎯	-10.9234
j쎯rxj쎯d쎯	-10.9237
gkl쎯dga쎯pwv쎯km쎯	-10.924
zzbd3쎯ba쎯	-10.9243
fku쎯cqw쎯r쎯	-10.9244
r쎯dty0쎯gk쎯.	-10.9244
vvv쎯y쎯qe쎯	-10.9244
쎄zzbd15쎯	-10.9245
wjm쎯wqj쎯	-10.925
,fm쎯gn쎯	-10.9252
o쎯nf쎯tm쎯	-10.9253
tffu쎯mw쎯pww쎯	-10.9253
ymhj0쎯tv쎯zzbd3쎯	-10.9254
o0쎯	-10.9254
ooo쎯lg쎯	-10.9254
,wgq쎯vk쎯	-10.9257
dn쎯uu쎯,	-10.9259
g쎯lp쎯	-10.9259
,cd쎯gn쎯	-10.926
w쎯pe쎯	-10.9263
oge쎯yv쎯	-10.9263
h쎯ymhj0쎯wc쎯ngk쎯	-10.9263
xl쎯ta쎯	-10.9264
sgn쎯udp쎯	-10.9266
pfjm1쎯tb쎯	-10.9266
yid쎯lt쎯	-10.9267
k쎯l쎯nnh쎯if쎯	-10.9268
dty0쎯xte쎯	-10.9269
ae쎯qde0쎯	-10.927
sk쎯pww쎯xmw쎯	-10.9274
tx쎯uy쎯nm쎯	-10.9275
b쎯ytf쎯qq쎯	-10.9276
yem쎯	-10.9277
bw쎯wgg1쎯,	-10.9277
쎃djfd쎯oy쎯	-10.9277
etg쎯f쎯	-10.9277
wgkq0쎯adw쎯	-10.9278
dmj1쎯yyy쎯	-10.9278
sk쎯ep쎯	-10.9281
uqwn2쎯kkd쎯	-10.9282
tffu쎯qq쎯adm쎯	-10.9284
rgw쎯lft쎯	-10.9284
tve쎯vb쎯	-10.9285
y2쎯	-10.9286
yy쎯dm쎯,	-10.9286
ukn쎯ptkm1쎯	-10.9287
khdc0쎯	-10.9288
dga쎯pwv쎯yy쎯tm쎯o쎯	-10.9289
sksw쎯rlg0쎯	-10.929
dmj1쎯tj쎯qk쎯	-10.9291
g쎯gcft0쎯vb쎯ygu쎯	-10.9292
fffy0쎯uft쎯	-10.9293
tu쎯ip쎯gn쎯	-10.9294
qgu쎯je쎯	-10.9294
rfc쎯sy쎯ga쎯v쎯	-10.9294
wfi쎯pynn1쎯	-10.9295
tol쎯alkf0쎯	-10.9296
w0쎯	-10.9296
gd쎯pw쎯	-10.9297
ip쎯ipkf0쎯	-10.9297
pp쎯jtg쎯	-10.9305
fny0쎯wtf쎯	-10.9309
ywx쎯》	-10.931
,gm쎯d쎯uqt쎯lt쎯gf쎯	-10.9312
zzbd3쎯xa쎯	-10.9313
j쎯sve쎯rnd1쎯	-10.9314
wa쎯ge쎯dd쎯wf쎯	-10.9315
ige쎯bwt쎯	-10.9318
r쎯ywe쎯ick쎯	-10.9319
lu쎯vb쎯r쎯	-10.932
v쎯gm쎯b쎯	-10.9323
,xw쎯	-10.9325
vi쎯rmhj쎯	-10.9326
alw쎯xwy0쎯fct쎯	-10.9332
bgu쎯	-10.9333
txg쎯eb쎯	-10.9334
sgye0쎯	-10.9334
bm쎯gm쎯b쎯	-10.9335
:k쎯l쎯	-10.9337
gq쎯o쎯	-10.9338
쎁/쎃	-10.9341
r쎯ip쎯nu쎯	-10.9341
ajj0쎯f쎯	-10.9343
pp쎯bf쎯	-10.9345
wug0쎯,	-10.9345
쎂.쎆	-10.9346
vpq쎯	-10.9346
wvd쎯v쎯	-10.9351
an쎯lwj쎯dd쎯hka쎯	-10.9351
ua쎯djd쎯	-10.9352
scbk쎯	-10.9353
oug0쎯bb쎯	-10.9354
sk쎯pym쎯	-10.9354
wv쎯dn쎯	-10.9355
sg쎯udh쎯“	-10.9359
tg쎯u쎯dgt1쎯pe쎯	-10.9359
hhu0쎯ru쎯	-10.9359
rnb쎯rfm쎯	-10.9359
fuj쎯lwj쎯	-10.936
xyy1쎯qnth쎯	-10.936
rvy쎯og쎯	-10.936
std쎯qfhw1쎯	-10.9362
gkl쎯y쎯wtf쎯.	-10.9364
wc쎯ngk쎯wug0쎯gf쎯	-10.9364
dgkf1쎯yny0쎯	-10.9364
qg쎯,	-10.9365
tr쎯gj쎯ip쎯	-10.9366
쎅쎀oy쎯	-10.9366
쎅쎀쎀oy쎯	-10.9368
adnt1쎯ytt쎯	-10.9369
xyna1쎯kgn쎯:	-10.9369
r쎯jb쎯usr쎯	-10.9369
(쎁쎉쎃	-10.9371
wye쎯gkim1쎯	-10.9373
,dnv2쎯adw쎯	-10.9376
tve쎯e쎯	-10.9376
ym쎯mtd쎯	-10.9376
zzbd3쎯ux쎯	-10.9377
ssss0쎯rfm쎯	-10.9377
hko쎯.	-10.9377
gad쎯	-10.9378
yy쎯qf쎯,	-10.9379
yygy쎯wys쎯	-10.9379
ny쎯nge쎯	-10.9382
tdg1쎯adwe1쎯	-10.9382
-)	-10.9382
bfq쎯	-10.9385
qev쎯yt쎯rg쎯	-10.9385
쎀쎀dnv0쎯fqb0쎯,	-10.9385
sdm쎯uk쎯	-10.9389
쎆w쎯	-10.9389
(쎆	-10.9391
usr쎯lh쎯pl쎯	-10.9392
wc쎯rtt0쎯,	-10.9392
lk쎯a쎯zzbd3쎯	-10.9395
nxf쎯	-10.9395
rajd쎯	-10.9395
wty0쎯qe쎯	-10.9397
ii쎯uwy0쎯	-10.9397
ts쎯,	-10.94
xf쎯sq쎯,	-10.94
uyh쎯,	-10.9401
thd쎯qd쎯tu쎯ip쎯	-10.9402
fm쎯dm쎯	-10.9403
ycb쎯gq쎯	-10.9403
amw쎯qc쎯,	-10.9403
uk쎯gkl쎯uk쎯ta쎯	-10.9406
sk쎯ce쎯j쎯	-10.9408
ty쎯ipk쎯,	-10.941
ugm쎯rrp쎯	-10.9411
ywwf0쎯gf쎯	-10.9411
.쎅zzbd3쎯	-10.9413
k쎯l쎯l쎯bf쎯	-10.9413
mq쎯st쎯r쎯	-10.9414
gu쎯jf쎯	-10.9414
lk쎯ii쎯	-10.9417
gkp쎯go쎯r쎯	-10.9417
yss쎯sgy쎯	-10.9417
xyy1쎯,	-10.9419
qqqq1쎯amw쎯qc쎯	-10.9419
iry쎯ddnl쎯	-10.942
fgig쎯	-10.9421
bg쎯iww쎯	-10.9422
ooo쎯tue쎯	-10.9425
rh쎯lc쎯w쎯	-10.9427
tjt쎯vs쎯r쎯	-10.9427
wyf0쎯tlf0쎯	-10.9427
v쎯nae0쎯.	-10.9427
mqq쎯xtk쎯apk쎯qie쎯	-10.9428
ujff쎯ytd쎯	-10.9429
rvk쎯nh쎯	-10.9431
.cf쎯gf쎯	-10.9432
wyn쎯fhw쎯	-10.9432
itx쎯rdc쎯쎂	-10.9435
gjq쎯e쎯	-10.9435
trf0쎯e쎯	-10.9436
g쎯uh쎯aa쎯	-10.9436
adh쎯	-10.9437
쎂djfd쎯oy쎯	-10.9441
cqy쎯mww쎯	-10.9442
,ak쎯ftj쎯	-10.9443
쎁쎉쎉쎂	-10.9443
ux쎯itx쎯	-10.9443
ghd1쎯tu쎯xe쎯	-10.9446
v쎯rnr쎯	-10.9446
cd쎯lk쎯b쎯uji2쎯	-10.9449
r쎯lw쎯ip쎯	-10.945
r쎯lt쎯jg쎯	-10.9452
hka쎯qv쎯jf쎯adwe1쎯	-10.9452
dl쎯kq쎯whtn0쎯qy쎯	-10.9453
mq쎯ii쎯	-10.9453
.쎁쎉쎉쎄rh쎯	-10.9453
rg쎯ftj쎯	-10.9453
tv쎯km쎯wf쎯y쎯wtf쎯	-10.9456
dd쎯ej쎯	-10.9457
ishg쎯isj쎯	-10.9459
pp쎯rn쎯	-10.946
fqb0쎯wa쎯	-10.9461
kkks1쎯ujf0쎯	-10.9461
dyt쎯ysi쎯	-10.9462
lqw쎯wrh1쎯ga쎯v쎯	-10.9462
cc쎯tgj쎯	-10.9464
apl쎯tl쎯	-10.9464
sksw쎯ndj쎯	-10.9467
쎁쎃쎅	-10.9467
jf쎯wtf쎯	-10.9469
tu쎯rfc쎯v쎯nae0쎯	-10.947
pl쎯pn쎯	-10.9472
uth쎯wbj쎯	-10.9472
wug0쎯.	-10.9473
r쎯yygy쎯wx쎯	-10.9473
.”yvh쎯	-10.9475
awx쎯ycb쎯	-10.9476
yu쎯ytd쎯	-10.9476
yqa쎯,	-10.9477
rrqc0쎯	-10.9479
▁	-10.948
zzsx1쎯zzsx1쎯	-10.9481
"zzbd3쎯"	-10.9481
fm쎯ps쎯ymhj0쎯	-10.9483
e쎯uqt쎯f쎯	-10.9485
dx쎯uyh쎯	-10.9485
uu쎯if쎯	-10.9486
lw쎯y쎯wtf쎯	-10.9486
m쎯jf쎯gip쎯	-10.9488
pk쎯tfpd0쎯	-10.9488
lxx쎯	-10.949
duo쎯	-10.9491
gkl쎯uk쎯ta쎯	-10.9491
,et쎯gf쎯	-10.9492
j쎯g쎯uthp0쎯ugdu쎯	-10.9493
uk쎯uth쎯:	-10.9494
,px쎯wu쎯	-10.9496
pei쎯trt쎯	-10.9498
zzbd3쎯fhl쎯	-10.9499
tm쎯ue쎯	-10.95
rwb쎯fiyt쎯	-10.95
dr쎯sft쎯ou쎯	-10.95
dj쎯wgk쎯	-10.9501
you1쎯e쎯	-10.9502
tj쎯qk쎯	-10.9502
(쎄	-10.9503
wo쎯wuf쎯	-10.9503
쎁쎆쎈	-10.9503
pdc쎯cm쎯	-10.9504
tfkp0쎯yxj쎯	-10.9507
bm쎯tg쎯d쎯	-10.9509
rpws쎯imj쎯	-10.951
pj쎯ugdu쎯	-10.9513
cf쎯jvko0쎯	-10.9514
thp쎯xfn쎯	-10.9521
ip쎯suq쎯.	-10.9522
r쎯x쎯cwg쎯	-10.9522
usgd1쎯pg쎯b쎯	-10.9527
rqb0쎯	-10.9528
iyc쎯ii쎯	-10.9532
k쎯ny쎯.	-10.9535
wsg0쎯gajf0쎯	-10.9536
r쎯uqt쎯js쎯	-10.9536
ui쎯tsh1쎯	-10.9537
dm쎯eerq쎯	-10.9538
bfm쎯xfn쎯	-10.954
dx쎯mdf0쎯	-10.9541
gn쎯yid쎯et쎯	-10.9544
wup쎯	-10.9544
ght쎯ywf쎯cy쎯f쎯	-10.9547
pgc쎯,	-10.9548
pwf쎯	-10.9548
lfq쎯anb0쎯	-10.9552
ftbt쎯tkgg1쎯	-10.9553
tpi쎯	-10.9555
mmv0쎯qt쎯	-10.9556
-쎁쎂	-10.9556
fcp쎯fcl쎯wf쎯	-10.9561
od쎯zzbd3쎯	-10.9562
yw쎯td쎯	-10.9565
pv쎯by쎯	-10.9566
qnqn쎯	-10.9567
쎁쎀쎂	-10.9567
hep쎯uj쎯	-10.9568
qqqq1쎯mmm쎯	-10.9568
e1쎯	-10.9568
,adk쎯	-10.9569
fq쎯rn쎯	-10.9571
uqwm1쎯idr쎯,	-10.9571
sjs쎯	-10.9572
rcw쎯	-10.9575
pe쎯yfd쎯	-10.9577
bmg쎯yge쎯	-10.9578
i쎯fwm쎯mj쎯	-10.9579
,uvo쎯	-10.9581
ssss0쎯bgh쎯	-10.9581
l쎯pe쎯t쎯f쎯aq쎯	-10.9582
ufy쎯lhnh쎯	-10.9583
y쎯s쎯mw쎯pww쎯	-10.9583
thd쎯ick쎯	-10.9584
,nty0쎯	-10.9585
rmhj쎯fcl쎯	-10.9587
trfh1쎯	-10.9589
tgj쎯jg쎯:	-10.9591
,bde쎯udh쎯	-10.9592
wh쎯thd쎯qd쎯sf쎯	-10.9593
fg쎯adwe1쎯	-10.9594
ge쎯gm쎯bm쎯	-10.9597
-쎁쎆	-10.9598
zzxx	-10.9598
tyt쎯	-10.9599
uywu0쎯	-10.9601
,ce쎯qkqq0쎯	-10.9602
sh쎯m쎯r쎯	-10.9603
rpl쎯	-10.9604
쎂zzbd15쎯	-10.9607
(g쎯)	-10.9608
tfk0쎯wtu쎯	-10.9608
쎅/	-10.9608
adm쎯hhhh쎯.	-10.9609
dm쎯lft쎯	-10.9609
sft쎯ou쎯r쎯	-10.9611
쎁쎁쎅	-10.9611
svc쎯ywx쎯	-10.9613
쎂쎀-	-10.9613
bm쎯v쎯	-10.9618
oqm쎯	-10.9618
,iv쎯jf쎯	-10.962
ia쎯ymhj0쎯	-10.9621
psu0쎯zzbd10쎯	-10.9622
gog쎯tkh쎯	-10.9623
yvh쎯fje쎯	-10.9624
qh쎯ge쎯	-10.9625
zzbd3쎯x쎯iyj쎯	-10.9627
gip쎯sk쎯	-10.9627
g쎯fh쎯ww쎯gk쎯	-10.9628
qre쎯	-10.9628
j쎯hhhh쎯ue쎯	-10.9629
trf0쎯zzbd10쎯	-10.963
쎅.쎀	-10.9631
ihi쎯qh쎯	-10.9633
wsg0쎯txi쎯,	-10.9635
kht쎯kkkk1쎯	-10.9636
lkd쎯pe쎯	-10.9636
py쎯aq쎯wug0쎯gf쎯	-10.9636
vcb쎯dn쎯.	-10.9637
k쎯ai쎯	-10.9637
lgey2쎯ou쎯	-10.9639
쎀쎀zzts0쎯	-10.9641
qmq쎯xf쎯sq쎯	-10.9642
r쎯iytb0쎯ca쎯	-10.9643
dm쎯tkw쎯쎆	-10.9645
ahtg0쎯	-10.9646
idr쎯thd쎯	-10.9647
n쎯gk쎯	-10.9647
p쎯yww쎯	-10.9649
ytn쎯tvfh0쎯	-10.965
sam쎯tm쎯	-10.965
“gg쎯	-10.9652
,쎂쎀쎀쎃rh쎯	-10.9653
qq쎯rh쎯tg쎯	-10.9653
xdmd2쎯ql쎯	-10.9656
td쎯qk쎯r쎯	-10.9657
hv쎯quj쎯	-10.9659
tavn쎯	-10.966
qsj쎯	-10.9661
rs쎯dhc쎯	-10.9663
gf쎯쎂쎀쎀쎅rh쎯	-10.9663
r쎯g쎯uth쎯	-10.9663
kkk쎯.	-10.9666
iv쎯jv쎯	-10.9666
fn쎯drin0쎯ftj쎯	-10.9669
yt	-10.9671
ipk쎯suq쎯	-10.9672
m쎯od쎯	-10.9672
et쎯wtp쎯:	-10.9674
ndj쎯《	-10.9674
inr쎯jghx쎯	-10.9675
anf0쎯	-10.9677
pwdj쎯wfk쎯	-10.968
sx쎯	-10.9681
o쎯wqin쎯rj쎯waw쎯	-10.9683
sm쎯xeg0쎯	-10.9687
jb쎯ym쎯r쎯	-10.9688
k쎯mmm쎯dd쎯ip쎯	-10.9689
,kj쎯qd쎯	-10.969
ftjb쎯s쎯	-10.969
ujn쎯o쎯	-10.9694
쎂-쎃	-10.9695
fnr0쎯qi쎯	-10.9696
rnb쎯rnw쎯	-10.9697
th쎯yy쎯	-10.9698
fn쎯zzbd10쎯	-10.9698
ow쎯xxg0쎯	-10.9698
쎂쎀wtu쎯tyna2쎯	-10.9698
ii쎯h쎯	-10.9699
wh쎯ftbt쎯ip쎯gyt쎯	-10.9699
쎂쎀쎀oy쎯	-10.97
─	-10.9701
쎁쎉쎂쎅rh쎯	-10.9703
djfd쎯oy쎯,pa쎯	-10.9703
vck쎯gf쎯	-10.9709
wc쎯aa쎯	-10.971
ccw쎯	-10.9711
sk쎯c쎯cep쎯fp쎯	-10.9711
tffu쎯tffy0쎯	-10.9713
sqk쎯snn1쎯	-10.9713
ss쎯k쎯	-10.9715
i쎯nb쎯	-10.9715
rn쎯ntk쎯wv쎯od쎯:	-10.9716
lw쎯wc쎯sov쎯	-10.9718
sfi쎯twgi쎯	-10.9719
qmq쎯telb쎯	-10.972
쎃oy쎯	-10.9721
dj쎯pe쎯	-10.9721
yx쎯wycm1쎯	-10.9721
c1쎯	-10.9724
sgw쎯	-10.9724
tgh쎯nh쎯	-10.9726
yfj0쎯yww쎯	-10.9729
.sg쎯wc쎯ngk쎯	-10.9729
e쎯ytf쎯qq쎯	-10.9729
쎅w쎯,	-10.9729
uq쎯tyg쎯	-10.9732
rhb쎯	-10.9732
,wynb0쎯	-10.9733
fq쎯pwl쎯	-10.9735
aus쎯	-10.9736
ptf쎯if쎯	-10.9737
dfn쎯	-10.9742
r쎯trf0쎯qc쎯	-10.9743
w쎯;	-10.9743
dgkn0쎯fcl쎯	-10.9743
jb쎯tfq쎯fj쎯r쎯	-10.9743
ipe쎯deb쎯	-10.9745
cep쎯fp쎯cf쎯	-10.9745
e쎯g쎯pg쎯r쎯	-10.9745
atgn쎯	-10.9747
쎁쎉쎉쎄	-10.9749
tg쎯u쎯x쎯apk쎯	-10.9749
(쎁쎅	-10.9749
epc쎯gc쎯b쎯	-10.9751
tffy0쎯et쎯	-10.9752
lkd쎯l쎯	-10.9754
k쎯atd쎯ip쎯bpf쎯	-10.9754
xnh쎯xwv쎯	-10.9755
twgi쎯ys쎯	-10.9758
djfd쎯oy쎯.	-10.9759
wgk쎯if쎯	-10.9761
l쎯pe쎯bw쎯	-10.9763
kdh쎯	-10.9763
,k쎯aw쎯ipk쎯km쎯.	-10.9764
fwm쎯st쎯:	-10.9764
lu쎯wqa쎯	-10.9764
,쎂쎀쎀쎅rh쎯	-10.9764
ndj쎯hhhh쎯	-10.9765
tey0쎯pw쎯wc쎯ngk쎯	-10.9765
jde쎯jan쎯	-10.9766
k쎯l쎯wt쎯pe쎯fl쎯wf쎯	-10.9767
r쎯ee쎯dc쎯	-10.9769
gf쎯쎂쎀쎀쎇rh쎯	-10.9769
wtf쎯tl쎯.	-10.9771
ghd1쎯yq쎯	-10.9772
qqug1쎯	-10.9772
dga쎯pwv쎯yy쎯tm쎯:	-10.9773
ujfj0쎯xgb쎯	-10.9773
fg쎯tffu쎯uqd2쎯.	-10.9774
pgn쎯pb쎯sov쎯	-10.9776
qnq쎯et쎯	-10.9777
tt쎯yn쎯sg쎯	-10.9782
ujfj0쎯wug0쎯”	-10.9782
sk쎯tfkd쎯ntg쎯	-10.9785
dnv0쎯rh쎯	-10.9786
nnh쎯yn쎯zzbd3쎯	-10.9786
vvv쎯tg쎯	-10.9787
e쎯uwl쎯	-10.9787
쎇rh쎯)	-10.9788
wbj쎯fjh0쎯	-10.9789
ssg쎯thn쎯	-10.9789
tv쎯tv쎯km쎯	-10.9793
쎄rh쎯)	-10.9794
cf쎯tgm쎯	-10.9795
yssr0쎯rpwi쎯	-10.9796
xg쎯,	-10.9796
mf쎯x쎯dd쎯ip쎯	-10.9797
an쎯lwj쎯r쎯	-10.9797
ipw쎯wx쎯	-10.9798
uu쎯wsg0쎯fnr0쎯	-10.98
tmo쎯f쎯tjh쎯	-10.9803
ith쎯mw쎯	-10.9804
xk쎯gqjo0쎯r쎯	-10.9807
쎃.쎆	-10.9809
jc쎯xt쎯	-10.981
ymf쎯rmhj쎯	-10.981
g쎯kgn쎯	-10.981
kht쎯h쎯	-10.9816
lfhf쎯gf쎯	-10.9819
t1쎯	-10.9819
udg2쎯lc쎯	-10.982
nt쎯s쎯	-10.982
lll쎯tca쎯	-10.9821
ae쎯txi쎯	-10.9822
lks쎯sq쎯	-10.9822
.ww쎯gk쎯	-10.9822
vfi쎯vfi쎯	-10.9822
rfc쎯jgm쎯	-10.9824
usr쎯sghg1쎯uff쎯	-10.9826
uk쎯lftj쎯	-10.9827
rn쎯fdm쎯	-10.9828
ipg쎯km쎯.	-10.9828
r쎯usr쎯gajf0쎯	-10.983
hw쎯e쎯g쎯pg쎯	-10.9831
,vfb쎯tc쎯	-10.9834
쎁zzbd9쎯	-10.9839
,yt쎯	-10.9839
zzxx1	-10.984
yce쎯tkh쎯	-10.9841
xp쎯wgk쎯tgh쎯	-10.9842
puy쎯	-10.9845
hhu0쎯thg1쎯	-10.9846
kynw0쎯kgkw쎯	-10.9846
to쎯tb쎯	-10.9847
ga쎯nku쎯	-10.9849
yni1쎯qy쎯	-10.985
dd쎯yy쎯	-10.9851
tg쎯u쎯a쎯anb0쎯	-10.9851
쎅gu쎯yy쎯wc쎯jfd쎯,	-10.9851
itx쎯mgu쎯	-10.9852
yygy쎯wsg0쎯	-10.9852
쎁쎉쎉쎃	-10.9853
쎁쎀%	-10.9855
hk쎯wycm1쎯	-10.9856
nty0쎯vfhp1쎯	-10.9858
sks쎯sks쎯	-10.9861
itp쎯rxj쎯	-10.9861
py쎯wf쎯lft쎯wsg0쎯	-10.9861
txi쎯xyc쎯k쎯	-10.9862
og쎯y쎯	-10.9863
gl쎯bpf쎯	-10.9864
pei쎯lll쎯	-10.9868
r쎯gk쎯nge쎯	-10.9871
lhnh쎯xe쎯	-10.9871
zzbd3쎯vfhp1쎯tam쎯	-10.9872
jtr쎯	-10.9872
xx쎯tjh쎯jf쎯	-10.9873
wgku1쎯fnrt쎯	-10.9875
zzbd17쎯	-10.9875
qk쎯atd쎯	-10.9876
tl	-10.9877
ul쎯tfq쎯rg쎯	-10.9877
d1쎯	-10.9878
thd쎯ip쎯	-10.9881
um쎯tl쎯isgg2쎯yhk쎯	-10.9881
ud쎯ng쎯	-10.9881
fkuk2쎯yd쎯	-10.9883
tjf0쎯ae쎯	-10.9884
gajf0쎯kgn쎯:	-10.9885
ugv쎯thg1쎯	-10.9886
kkk쎯thgf1쎯r쎯	-10.9886
rh쎯lc쎯r쎯	-10.9887
,wt쎯ftj쎯	-10.9889
cep쎯td쎯	-10.989
ta쎯tgh쎯	-10.9891
gu쎯yy쎯oy쎯.	-10.9892
,g쎯fh쎯	-10.9892
wsg0쎯gm쎯b쎯	-10.9892
eee0쎯fjh0쎯	-10.9893
ftbt쎯ip쎯gyt쎯	-10.9894
gu쎯ime쎯	-10.9895
ymc쎯tlf0쎯t쎯	-10.9897
rh쎯uj쎯,	-10.9897
d쎯bk쎯dga쎯pwv쎯tg쎯	-10.9901
dg쎯gog쎯	-10.9901
by쎯oja쎯	-10.9902
nkuy0쎯	-10.9902
r쎯x쎯apk쎯	-10.9903
yxxr1쎯	-10.9905
:쎀.	-10.9906
xn쎯wynn3쎯qnp쎯	-10.9906
ohj쎯	-10.9909
ynvf쎯	-10.9912
tep쎯fp쎯	-10.9913
gcft0쎯pgk쎯	-10.9914
gkl쎯wf쎯ta쎯	-10.9914
i1쎯	-10.9916
쎁rh쎯)	-10.9918
nnh쎯》	-10.9918
dmh0쎯ru쎯	-10.992
sou1쎯	-10.9923
fm쎯bj쎯	-10.9924
ygu쎯tv쎯	-10.9924
fcp쎯isk쎯	-10.9924
tu쎯km쎯	-10.9924
gj쎯ywx쎯t쎯	-10.9926
wgk쎯g쎯	-10.9926
qev쎯sr쎯	-10.9927
nnnn0쎯puhc쎯	-10.9931
gd쎯y쎯ftbt쎯	-10.9931
gip쎯ce쎯	-10.9931
adw	-10.9931
bij쎯	-10.9932
hfc쎯	-10.9932
tkh쎯sfhg쎯gy쎯oy쎯	-10.9932
r쎯nge쎯ukq쎯	-10.9934
,kg쎯	-10.9935
djde0쎯	-10.9935
ws쎯thn쎯	-10.9935
hk쎯f쎯쎁	-10.9935
r쎯ymhj0쎯fnrt쎯	-10.994
rdf0쎯iw쎯	-10.9941
c쎯h쎯,	-10.9944
쎂쎅dq쎯	-10.9947
fwm쎯aj쎯zzbd3쎯	-10.9951
utdk쎯	-10.9953
qv쎯yyq쎯	-10.9953
gf쎯쎂쎀쎁쎀rh쎯	-10.9954
d쎯tjf0쎯iawn0쎯	-10.9954
sm쎯jm쎯	-10.9955
tmg1쎯oy쎯	-10.9956
ue쎯bg쎯	-10.9956
vef쎯	-10.996
v쎯iq쎯	-10.9961
,bn쎯yi쎯j쎯	-10.9962
wg쎯dm쎯v쎯nae0쎯	-10.9963
ii쎯fakg0쎯	-10.9964
mhny1쎯qiu0쎯	-10.9964
yygy쎯wx쎯uk쎯	-10.9965
gmm쎯gde쎯	-10.9965
dp쎯gc쎯b쎯	-10.9966
》j쎯mh쎯	-10.9966
al쎯ce쎯.	-10.9967
ovt쎯pb쎯wx쎯	-10.9967
ftbt쎯km쎯	-10.9968
idl쎯	-10.997
ftx쎯rh쎯w쎯	-10.9974
gu쎯src쎯	-10.9975
pg쎯o쎯	-10.9976
ran쎯xqc쎯	-10.9977
iux쎯	-10.9979
lt쎯fiy쎯	-10.9979
ghd1쎯fwm쎯	-10.9981
oj쎯	-10.9981
r쎯gj쎯wynn3쎯	-10.9982
(fg쎯)	-10.9982
b쎯dd쎯jg쎯	-10.9984
.쎁쎉쎈쎆rh쎯	-10.9988
i쎯td쎯uthp0쎯	-10.999
rfm쎯f쎯	-10.999
,jjjj0쎯sg쎯	-10.999
쎅oy쎯,	-10.9991
w쎯k쎯aw쎯ipk쎯km쎯	-10.9991
쎆w쎯,	-10.9991
gah쎯jj쎯	-10.9991
k쎯l쎯ugdu쎯sy쎯	-10.9991
ieb쎯mfky쎯	-10.9992
nh쎯aqt쎯	-10.9992
쎅dq쎯,	-10.9994
gcft0쎯lt쎯	-10.9995
쎅eee0쎯,	-10.9995
k쎯gajf0쎯	-10.9995
kq쎯》	-10.9996
tp쎯gj쎯saj0쎯aa쎯	-10.9996
fm쎯ps쎯	-11.0001
w쎯st쎯	-11.0001
wc쎯ngk쎯c쎯	-11.0003
a쎯um쎯tf쎯ght쎯	-11.0004
fp쎯iya쎯	-11.0005
wgku1쎯bfm쎯	-11.0006
iv쎯jf쎯r쎯	-11.0006
gm쎯qqqq1쎯	-11.0007
쎁쎉쎉쎀	-11.0009
uce쎯adf쎯	-11.0009
qk쎯ip쎯tg쎯	-11.0011
thd쎯qd쎯wk쎯ryn1쎯	-11.0013
d쎯suq쎯tg쎯	-11.0015
.’	-11.0015
pei쎯ss쎯	-11.0017
gf쎯쎂쎀쎁쎁rh쎯	-11.002
fm쎯mmm쎯	-11.0022
.쎁쎉쎈쎇rh쎯	-11.0023
wc쎯jfd쎯,kha쎯	-11.0028
rxj쎯nf쎯km쎯	-11.0029
if쎯uff쎯	-11.003
fg쎯fgh쎯rh쎯	-11.0031
dd쎯ds쎯	-11.0033
gkl쎯ftbt쎯rep쎯.	-11.0033
nt쎯tlf0쎯	-11.0033
ss쎯f쎯	-11.0033
ntk쎯sfhg쎯tr쎯	-11.0035
.aft쎯e쎯《	-11.0036
쎉쎅%	-11.0037
n쎯ght쎯	-11.0038
rs쎯qgb쎯sm쎯	-11.0038
ick쎯pv쎯	-11.004
f쎯aq쎯.	-11.0042
ym쎯uqt쎯r쎯	-11.0042
mw쎯dhb쎯pww쎯jg쎯	-11.0043
xn쎯tv쎯nnh쎯yn쎯	-11.0046
o쎯nng쎯wtf쎯	-11.0047
ukn쎯uqwm1쎯u쎯	-11.0049
쎁쎈쎀쎀	-11.0055
d쎯mw쎯r쎯	-11.0055
tg쎯rm쎯	-11.0056
tmdy0쎯	-11.0056
kkk쎯thgf1쎯.	-11.0057
al쎯yx쎯:	-11.0058
nty0쎯yv쎯	-11.0058
o쎯l쎯pe쎯	-11.0058
uqwk0쎯yqj쎯zzbd3쎯	-11.0061
y쎯s쎯dr쎯ou쎯	-11.0062
,k쎯aw쎯	-11.0063
dd쎯wgkq0쎯	-11.0064
tx쎯쎆	-11.0068
,wcy0쎯	-11.0069
,w쎯wu쎯	-11.0069
wvf0쎯ert쎯	-11.0071
na쎯	-11.0071
dg쎯nfc쎯	-11.0072
nnh쎯if쎯wt쎯kkk쎯	-11.0074
쎁쎂쎃	-11.0076
mmm쎯yfd쎯	-11.0077
w쎯fqu쎯	-11.0077
aq쎯wug0쎯	-11.0079
ucd쎯	-11.0079
rjq쎯fi쎯	-11.0084
gjq쎯vb쎯f쎯	-11.0084
pp쎯pe쎯	-11.0086
e쎯bv쎯wc쎯ngk쎯(	-11.0087
-쎁쎅	-11.0088
fd쎯ud쎯	-11.0088
sbd쎯lkmi0쎯gae쎯,	-11.0088
xxm쎯ahty0쎯	-11.009
fdm쎯fiy쎯,	-11.0091
y쎯ick쎯atd쎯jgm쎯	-11.0092
eb쎯tmc쎯	-11.0093
dga쎯pwv쎯zzbd3쎯	-11.0093
d쎯q쎯l쎯	-11.0094
jtyl쎯qtyd0쎯	-11.0095
e쎯tve쎯qq쎯	-11.0096
sh쎯ruv쎯	-11.0099
ikh1쎯unr0쎯	-11.0099
r쎯fnr0쎯ujf0쎯	-11.0101
rn쎯gcft0쎯	-11.0101
yww쎯ait쎯gf쎯	-11.0102
fqu쎯tqdh0쎯	-11.0102
lkd쎯rb쎯	-11.0103
rwye1쎯	-11.0105
gjq쎯rq쎯	-11.0106
ymhj0쎯wc쎯pv쎯nnk쎯	-11.0106
hi쎯rgw쎯	-11.0106
img쎯,	-11.0106
,fh쎯gc쎯	-11.0107
,s쎯	-11.0107
tew쎯	-11.0108
,cd쎯lk쎯	-11.0109
ymf쎯wtf쎯	-11.0109
w쎯n쎯bm쎯thgc0쎯py쎯	-11.011
쎂쎀qq쎯	-11.0113
.ua쎯	-11.0117
vfhp1쎯uu쎯r쎯	-11.0117
r쎯wgkq0쎯et쎯	-11.0118
yon쎯ep쎯	-11.0119
fny0쎯og쎯xxf쎯og쎯,	-11.012
쎉w쎯	-11.0122
vfhp1쎯rmhj쎯	-11.0122
wg쎯lt쎯	-11.0124
aq쎯tv쎯	-11.0124
o1쎯	-11.0124
h쎯yy쎯	-11.0127
ty쎯uyh쎯	-11.0128
fny0쎯tu쎯ip쎯suq쎯	-11.0128
ic쎯wa쎯	-11.0129
쎂쎀쎁	-11.013
fm쎯yiu0쎯dd쎯ip쎯	-11.0131
.ccc쎯	-11.0135
wlk쎯	-11.0135
bm쎯uthp0쎯	-11.0136
쎇kgn쎯	-11.0136
qi쎯fhb쎯	-11.0136
uh쎯hko쎯	-11.0138
scw쎯	-11.0138
ym쎯imkf1쎯	-11.014
pujs쎯	-11.014
zzbd3쎯lh쎯kthh1쎯	-11.0141
pyg쎯ytyh쎯ymhj0쎯	-11.0142
bn쎯ytf쎯	-11.0145
uh쎯zzbd3쎯	-11.0145
ujn쎯ln쎯j쎯	-11.0148
tfkp0쎯dn쎯r쎯	-11.0149
dd쎯afi쎯	-11.0151
thd쎯tmd쎯r쎯	-11.0152
wyv쎯yuo쎯	-11.0155
ym쎯gf쎯	-11.0158
suq쎯xe쎯	-11.016
%%*/	-11.0162
,쎂쎀쎀쎆rh쎯	-11.0163
k쎯wxf쎯n쎯ytt쎯	-11.0165
mqq쎯iytb0쎯	-11.0166
rp쎯dj쎯	-11.0167
yynw1쎯adm쎯hhhh쎯	-11.0167
v쎯gm쎯r쎯	-11.0168
wtp쎯k쎯	-11.0169
kkkk1쎯drt쎯	-11.017
p쎯tc쎯	-11.0172
zzbd3쎯dgtg0쎯	-11.0173
sfi쎯rgw쎯	-11.0174
yh쎯q쎯wu쎯	-11.0174
mga쎯cbj쎯	-11.0174
dx쎯mmm쎯	-11.0174
usr쎯kkk쎯tkh쎯	-11.0175
쎁쎇쎆	-11.0175
rny1쎯pg쎯	-11.0179
w쎯fqu쎯nh쎯ty쎯	-11.0181
mmm쎯ss쎯	-11.0182
by쎯ooo쎯	-11.0182
jf쎯ufy쎯	-11.0183
-쎁쎈	-11.0184
awx쎯qyng0쎯	-11.0186
xww쎯bw쎯	-11.0187
rfc쎯sy쎯wbj쎯usr쎯	-11.0189
gf쎯쎂쎀쎁쎂rh쎯	-11.0192
yxl쎯trt쎯og쎯	-11.0193
《usr쎯	-11.0193
iwy2쎯fm쎯	-11.0194
쎈쎀쎂.쎃	-11.0194
mtp쎯	-11.0194
wwj쎯wfhg0쎯r쎯	-11.0194
v쎯tg쎯b쎯	-11.0197
ftbt쎯tl쎯	-11.0199
bgk쎯yb쎯	-11.0203
you1쎯wt쎯“	-11.0205
kgb쎯,	-11.0205
>>	-11.0206
lkp쎯	-11.0208
wf쎯e쎯	-11.021
dd쎯oy쎯	-11.021
wf쎯h쎯	-11.0211
,sghg1쎯wycb쎯	-11.0212
r쎯vcl쎯lt쎯	-11.0212
ftbt쎯wf쎯	-11.0215
xuq쎯	-11.0216
쎃adm쎯	-11.0218
wdn쎯rfm쎯eb쎯tl쎯	-11.0219
쎁쎇쎈	-11.0221
dyt쎯u쎯	-11.0226
ukn쎯uk쎯ymc쎯d쎯	-11.0227
kxe쎯	-11.0229
ytyh쎯gmi쎯kq쎯	-11.0229
jn쎯mqq쎯	-11.0231
aw쎯wv쎯	-11.0231
bynw0쎯bb쎯wu쎯	-11.0233
gf쎯쎂쎀쎀쎄rh쎯	-11.0234
igd쎯lk쎯yjjh0쎯	-11.0238
ftbt쎯rep쎯,fge쎯	-11.024
dny쎯	-11.0243
wy쎯thn쎯eb쎯tl쎯	-11.0243
jc쎯udw쎯	-11.0243
s쎯hko쎯	-11.0245
amw쎯pujn0쎯qc쎯	-11.0247
wqa쎯dfy쎯	-11.0247
dm쎯ou쎯	-11.0247
”,j쎯	-11.0249
hhu0쎯cep쎯	-11.025
,kw쎯s쎯	-11.025
wv쎯klj쎯j쎯	-11.0251
fjn쎯	-11.0252
ua쎯i쎯j쎯	-11.0252
rvyo쎯jg쎯	-11.0253
tv쎯km쎯.	-11.0253
pynn1쎯	-11.0255
pu쎯khg0쎯k쎯	-11.0256
bmg쎯o쎯	-11.0257
pgm쎯	-11.0257
fh쎯dp쎯	-11.0258
fd쎯fm쎯	-11.0261
쎁쎀쎁	-11.0264
wk쎯udyj쎯	-11.0265
ytt쎯thd쎯ick쎯aq쎯	-11.0265
fny0쎯iy쎯	-11.0266
kq쎯ou쎯	-11.0269
bm쎯thgc0쎯v쎯tf쎯	-11.0269
ymf쎯rpw쎯	-11.0271
mmqu쎯	-11.0272
,y쎯s쎯ww쎯gk쎯	-11.0272
uh쎯d쎯	-11.0274
dn쎯ybv0쎯r쎯	-11.0276
ygk쎯if쎯	-11.0276
g쎯m쎯	-11.028
zzjp5	-11.028
tu쎯fl쎯	-11.0283
py쎯wf쎯v쎯nae0쎯	-11.0283
nkuf쎯gl쎯	-11.0283
fc쎯ref쎯	-11.0283
l쎯pe쎯sfi쎯uwy0쎯	-11.0286
aga쎯ytyh쎯	-11.0286
khgp0쎯yop쎯	-11.0287
dgv쎯yuvo1쎯	-11.0287
rmhj쎯tfkp0쎯og쎯	-11.029
wc쎯gu쎯	-11.0291
ye쎯eb쎯	-11.0292
pfi쎯xj쎯j쎯	-11.0293
y쎯s쎯u쎯kkk쎯e쎯	-11.0295
pu쎯khg0쎯x쎯cwg쎯	-11.0296
gogj쎯tak쎯	-11.0297
.wc쎯ngk쎯reh쎯e쎯	-11.0297
bm쎯thgc0쎯.	-11.0298
jc쎯wycb쎯	-11.0298
rmhj쎯ys쎯	-11.0299
khgm3쎯bj쎯	-11.0299
쎅rh쎯)	-11.0299
sov쎯zzbd3쎯	-11.0303
df1쎯	-11.0305
uwyc2쎯uai0쎯	-11.0305
h쎯v쎯ge쎯	-11.0305
r쎯pv쎯wg쎯	-11.0308
g쎯tffu쎯uqd2쎯.	-11.0308
)pb쎯	-11.031
eb쎯.	-11.031
,cd쎯lk쎯b쎯	-11.031
at쎯yfn쎯	-11.0312
r쎯ygk쎯yyy쎯	-11.0313
gf쎯쎂쎀쎀쎆rh쎯	-11.0313
hka쎯ufk0쎯k쎯	-11.0313
쎁쎅rh쎯	-11.0314
쎆oy쎯	-11.0314
ftbt쎯jgm쎯,	-11.0317
smm쎯	-11.0319
wys쎯qfhw1쎯	-11.032
itx쎯ipr쎯	-11.032
udnb1쎯	-11.0321
dskf쎯trf0쎯	-11.0321
rdfj1쎯	-11.0322
쎀쎀쎀	-11.0322
ga쎯vck쎯b쎯	-11.0323
,vfhp1쎯uu쎯	-11.0324
yc쎯jn쎯	-11.0324
umia0쎯	-11.0325
쎃rh쎯)	-11.0326
쎈rh쎯)	-11.0326
vtg쎯qk쎯:	-11.0329
xn쎯tv쎯	-11.0336
tmg1쎯lqw쎯	-11.0338
yxt쎯ghd1쎯	-11.0341
dfef0쎯	-11.0341
gf쎯g쎯wsg0쎯	-11.0341
r쎯hka쎯ltk쎯	-11.0342
hx쎯nnh쎯	-11.0343
tmdq2쎯	-11.0344
kkk쎯thgf1쎯,	-11.0345
atd쎯ubk1쎯txi쎯	-11.0347
r쎯ftbt쎯yce쎯	-11.0347
ce쎯lt쎯t쎯	-11.0349
k쎯tu쎯bpf쎯	-11.0349
txi쎯xyc쎯wys쎯dn쎯	-11.0349
gyt쎯ip쎯nu쎯	-11.035
qnm쎯	-11.035
,쎂쎀쎀쎂rh쎯	-11.035
ait쎯kf쎯	-11.0351
dnv0쎯jfd쎯	-11.0356
.wb쎯r쎯	-11.0356
qh쎯go쎯	-11.0357
usr쎯ub쎯bm쎯thgc0쎯	-11.0357
gcf쎯wynb0쎯wtf쎯	-11.0359
od쎯klj쎯:	-11.0359
fge쎯jtyq0쎯	-11.0361
rdj쎯yt쎯	-11.0361
,ua쎯uqf쎯	-11.0363
(쎁쎉쎄	-11.0365
qyk쎯	-11.0365
bs쎯sve쎯tfpd0쎯	-11.0365
,쎁쎉쎉쎈rh쎯	-11.0366
sh쎯xf쎯wgk쎯r쎯	-11.0368
쎂zzsx6쎯	-11.0368
imkf1쎯fii쎯	-11.0369
ge쎯gm쎯o쎯	-11.0369
dy쎯pw쎯	-11.037
wg쎯yy쎯wug0쎯r쎯	-11.0373
dd쎯maw쎯	-11.0374
ym쎯gxi쎯rfm쎯r쎯	-11.0374
dv쎯	-11.0374
r쎯sh쎯ud쎯	-11.0374
xwv쎯xwv쎯	-11.0375
xwf쎯rmhj쎯	-11.0375
,tfq쎯	-11.0376
ndj쎯fnrt쎯	-11.0377
afs쎯wh쎯	-11.0379
oge쎯cep쎯	-11.038
jtg쎯txi쎯	-11.0383
pf쎯ryn1쎯	-11.0383
쎃.쎁	-11.0385
gef쎯awx쎯	-11.0387
rvk쎯sfi쎯	-11.0387
쎁쎀쎀qq쎯	-11.0389
jq쎯rh쎯	-11.0391
x쎯xn쎯	-11.0391
w쎯tfkp0쎯	-11.0392
oun쎯	-11.0394
wfl쎯	-11.0394
puhc쎯l쎯pe쎯	-11.0394
ny쎯tld1쎯tp쎯	-11.0395
()t쎯	-11.0395
mqu쎯eee0쎯	-11.0396
bo쎯	-11.0396
pue쎯	-11.0397
쎈.쎅	-11.0397
jh쎯hq쎯	-11.0399
r쎯ovt쎯rnd1쎯	-11.0399
xfm쎯tavn쎯ait쎯pu쎯	-11.0401
ynwy1쎯	-11.0404
umq쎯qtg쎯	-11.0405
r쎯ym쎯usr쎯rfc쎯sy쎯	-11.0405
hk쎯e쎯	-11.0405
ukn쎯bw쎯	-11.0406
.쎁쎉쎉쎀rh쎯	-11.0407
ade쎯	-11.0408
myd0쎯gtu쎯	-11.0409
쎁쎀dq쎯,	-11.0409
vcb쎯wgkq0쎯	-11.0409
tgm쎯aj쎯zzbd3쎯	-11.0412
usgp1쎯yq쎯	-11.0413
mw쎯wv쎯int쎯	-11.0413
rqkq쎯	-11.0414
n쎯sw쎯pwfi0쎯bpf쎯	-11.0414
mpg쎯	-11.0416
u쎯sc쎯	-11.0416
jg쎯r쎯	-11.0417
tffu쎯uqd2쎯쎁adm쎯	-11.0419
qtk쎯	-11.0419
rx쎯ygu쎯	-11.0421
ii쎯uqwm1쎯idr쎯	-11.0422
rvy쎯nf쎯	-11.0423
dd쎯hka쎯	-11.0425
dnv0쎯dl쎯	-11.0425
rgw쎯kkd쎯	-11.0428
tig쎯	-11.0428
dga쎯v쎯zzbd3쎯tg쎯	-11.043
gj쎯gk쎯wf쎯	-11.0433
xnn1쎯shn쎯	-11.0433
.쎁쎉쎈쎃rh쎯	-11.0434
ajdj0쎯	-11.0435
dhc쎯dyw쎯	-11.0436
yb쎯ws쎯	-11.0437
gc쎯yqa쎯	-11.0439
ta쎯dd쎯	-11.0439
jb쎯xk쎯	-11.044
cyna1쎯	-11.044
wx쎯uv쎯	-11.0442
gogn0쎯ntg쎯	-11.0446
jtg쎯adwe1쎯	-11.0446
jn쎯dgt1쎯	-11.0446
dmh0쎯qgj쎯	-11.0448
kgn쎯)	-11.0449
yygy쎯si쎯	-11.0452
ym쎯ntg쎯ce쎯	-11.0455
thd쎯tf쎯lg쎯	-11.0457
ua쎯im쎯e쎯	-11.0459
쎁쎅쎀dq쎯	-11.046
vcb쎯o쎯	-11.046
jujf1쎯	-11.0461
av쎯rq쎯	-11.0464
r쎯qt쎯bb쎯	-11.0465
r쎯uk쎯wv쎯	-11.0465
wf쎯gkl쎯gj쎯gk쎯ta쎯	-11.0465
gkl쎯ukn쎯	-11.0466
rny1쎯ys쎯	-11.0466
fny0쎯og쎯tv쎯km쎯	-11.0467
wyq쎯zzbd3쎯	-11.0468
ixj쎯ii쎯	-11.0469
fiy쎯pu쎯	-11.047
sh쎯xf쎯wgk쎯	-11.0471
sso쎯	-11.0471
f쎯wug0쎯.	-11.0471
,lk쎯xk쎯	-11.0473
yygt쎯sghg1쎯ufg쎯	-11.0474
wfn쎯dd쎯r쎯	-11.0476
wg쎯n쎯	-11.0478
gfi쎯gae쎯	-11.0479
cd쎯mqb쎯	-11.0481
lfq쎯mw쎯	-11.0482
uqvd1쎯	-11.0485
rvyo쎯hko쎯	-11.0486
f쎯wgkb0쎯ufk0쎯qv쎯	-11.0486
egcn쎯rffg0쎯	-11.0487
ytf쎯sk쎯	-11.0489
zzts0쎯	-11.049
쎂쎀%	-11.0491
ajl쎯	-11.0491
tmg1쎯gajf0쎯	-11.0492
yynw1쎯kkk쎯tkh쎯	-11.0492
uxe쎯rg쎯	-11.0493
fq쎯qjq쎯ymhj0쎯	-11.0493
,쎂쎀쎀쎀rh쎯	-11.0496
hk쎯rnd1쎯	-11.0498
ff쎯bpf쎯	-11.0499
fhn쎯idr쎯	-11.05
mmm쎯kht쎯	-11.05
tmo쎯ss쎯aqv1쎯dq쎯	-11.0501
aqrn1쎯ugv쎯	-11.0501
ffff1쎯bgh쎯adw쎯	-11.0501
syl쎯	-11.0502
bb쎯vvv쎯	-11.0502
fhw쎯r쎯	-11.0503
tf쎯og쎯fl쎯wf쎯	-11.0505
apk쎯udyj쎯dh쎯pgk쎯	-11.0507
wycm1쎯fakg0쎯.	-11.0507
tyg쎯go쎯	-11.0507
um쎯yhk쎯	-11.0508
iaj0쎯	-11.0508
dx쎯riu0쎯	-11.0509
zzxl1쎯	-11.0509
dga쎯pwv쎯km쎯.	-11.0509
sk쎯d쎯	-11.051
r쎯x쎯iyj쎯	-11.051
bm쎯fnrt쎯	-11.0514
aguw쎯	-11.0514
r쎯hw쎯wsg0쎯	-11.0516
gqt	-11.0519
wc쎯ghd1쎯	-11.0522
eyni쎯ukh쎯	-11.0524
jx쎯mmm쎯	-11.0525
쎂rh쎯)	-11.0528
efk쎯eta쎯	-11.053
q쎯wu쎯uqf쎯	-11.0531
i쎯wynk쎯	-11.0531
쎁쎉an쎯xn쎯	-11.0535
hh쎯uce쎯	-11.0535
ty쎯ipk쎯	-11.0535
pgn쎯r쎯	-11.0535
up쎯ggg0쎯	-11.0536
qhk쎯dgtg0쎯	-11.0536
fwyc2쎯uk쎯wrh1쎯	-11.0542
sghg1쎯gog쎯	-11.0546
iytb0쎯ca쎯《	-11.0546
rp쎯rh쎯	-11.0547
www쎯tg쎯	-11.0553
gu쎯tffu쎯	-11.0554
txe쎯ynt0쎯	-11.0554
cc쎯tm쎯	-11.0554
쎉rh쎯)	-11.0555
uq쎯cep쎯wgj쎯tjh쎯,	-11.0556
on쎯gqje0쎯	-11.0558
ai쎯gcf쎯	-11.0558
wk쎯ryn1쎯aq쎯	-11.0559
(-	-11.0561
et쎯nnh쎯	-11.0561
tffu쎯a쎯wt쎯	-11.0564
fgh쎯mt쎯	-11.0565
bwf쎯ntk쎯atd쎯bpf쎯	-11.0566
tffu쎯fny0쎯og쎯	-11.0569
,wys쎯	-11.057
xf쎯sq쎯r쎯	-11.0572
w쎯uqw쎯	-11.0573
ifw쎯ny쎯	-11.0573
wcy0쎯wcy0쎯	-11.0573
vff0쎯	-11.0577
ntx쎯	-11.0577
wqr쎯	-11.0578
sm쎯tffu쎯	-11.058
pgk쎯wynk쎯	-11.0581
mqb쎯qev쎯	-11.0581
ipg쎯yfj0쎯	-11.0582
wynb0쎯rg쎯	-11.0584
ntg쎯udy쎯	-11.0584
,xx쎯vk쎯	-11.0584
fhn쎯wdy1쎯	-11.0586
gah쎯up쎯	-11.0587
sse쎯	-11.0587
dgtg0쎯ynt0쎯	-11.0588
c쎯ai쎯	-11.0589
+쎁	-11.0591
qsu쎯gqx쎯	-11.0591
w쎯dd쎯ipkh1쎯tv쎯	-11.0591
hna쎯	-11.0593
gf쎯쎂쎀쎀쎃rh쎯	-11.0593
pwd쎯fhn쎯	-11.0593
aqgn0쎯	-11.0595
uub쎯	-11.0598
wj쎯ty쎯	-11.0598
rua쎯rgef쎯	-11.06
zzbd3쎯ck쎯iyo쎯	-11.0602
ymf쎯ou쎯:	-11.0604
dgh쎯w쎯	-11.0607
lh쎯efc쎯	-11.0607
udh쎯lt쎯	-11.0609
xln0쎯jhny쎯	-11.0609
yyq쎯wf쎯	-11.061
j쎯cep쎯fp쎯	-11.061
egc쎯tv쎯nnh쎯yn쎯	-11.0611
ty쎯wvp쎯	-11.0614
rg쎯puhc쎯	-11.0614
쎅dnv0쎯	-11.0615
fcb쎯j쎯	-11.0619
pei쎯ip쎯bpf쎯	-11.0619
vs쎯fn쎯》	-11.0621
쎈w쎯	-11.0621
tlf0쎯pvs쎯	-11.0621
mym쎯	-11.0622
ymc쎯yf쎯bpf쎯	-11.0622
nty0쎯qk쎯	-11.0624
udg2쎯ec쎯	-11.0624
ptkm1쎯pg쎯	-11.0626
r쎯sfi쎯uwy0쎯	-11.0627
yy쎯tkgg1쎯	-11.0628
tg쎯u쎯t쎯qie쎯wyk쎯	-11.0629
w1쎯	-11.063
glf쎯	-11.0631
ryc쎯qie쎯	-11.0633
쎆eee0쎯lk쎯ty쎯	-11.0633
쎂쎁쎀	-11.0633
cf쎯rymn쎯	-11.0634
fm쎯aq쎯	-11.0635
rg쎯gmf쎯	-11.0635
ukn쎯hich0쎯	-11.0635
pei쎯pe쎯	-11.0636
kmd쎯	-11.0637
(쎁쎇	-11.0637
rg쎯dm쎯	-11.0637
qw쎯	-11.0637
fak쎯	-11.064
ytd쎯ndj쎯	-11.064
fm쎯djd쎯	-11.064
utem1쎯qc쎯:	-11.064
tffu쎯al쎯ce쎯	-11.0641
iqr쎯pgy쎯	-11.0642
itx쎯yqa쎯	-11.0642
ux쎯tvr쎯	-11.0644
usgp1쎯pf쎯	-11.0644
r쎯pu쎯bf쎯	-11.0648
xyc쎯tq쎯	-11.0649
itl쎯	-11.0652
sk쎯tfkd쎯r쎯	-11.0653
rffg0쎯thgf1쎯	-11.0653
:"	-11.0657
jb쎯ta쎯	-11.0658
wgmy2쎯udv쎯	-11.0659
khu쎯qkqq0쎯	-11.066
tcy0쎯apk쎯	-11.066
fhu쎯fj쎯	-11.066
fhn쎯idr쎯gf쎯	-11.0662
ds쎯zzbd3쎯	-11.0663
,tffy0쎯	-11.0663
쎈w쎯,	-11.0663
g쎯dd쎯rx쎯	-11.0663
rh쎯gu쎯fqu쎯	-11.0665
mmm쎯xte쎯	-11.0668
n쎯tg쎯	-11.0668
pye쎯tdij0쎯	-11.0669
u쎯kkk쎯tgj쎯jg쎯:	-11.0669
yfn쎯tr쎯	-11.0669
m쎯ick쎯	-11.0671
zzbd3쎯hq쎯qnq쎯	-11.0671
xtdh0쎯cw쎯	-11.0673
uxe쎯iq쎯	-11.0675
tx쎯wty0쎯nm쎯	-11.0675
fuk쎯yk쎯zzbd3쎯	-11.0676
tmg1쎯fge쎯	-11.0678
lt쎯qv쎯	-11.0678
wh쎯l쎯pe쎯t쎯f쎯aq쎯	-11.068
od쎯r쎯	-11.068
aft쎯e쎯《	-11.0681
usr쎯sf쎯	-11.0684
쎁쎉쎈쎉	-11.0686
k쎯kht쎯	-11.0686
.쎁쎉쎈쎉rh쎯	-11.0687
r쎯qe쎯qc쎯	-11.0688
ga쎯awx쎯	-11.0688
yni1쎯qi쎯	-11.0688
,ua쎯c쎯	-11.069
,ukn쎯dm쎯tkw쎯	-11.069
rmhj쎯dn쎯r쎯	-11.0691
hcd쎯e쎯	-11.0693
ymkc1쎯	-11.0695
ua쎯aqt쎯	-11.0698
j쎯q쎯	-11.0698
rck쎯	-11.0701
cv쎯adf쎯	-11.0701
tu쎯gkl쎯tu쎯ta쎯	-11.0702
uyh쎯zzbd3쎯	-11.0702
ipw쎯djb쎯	-11.0703
wnh쎯jjjj0쎯	-11.0704
tffu쎯gf쎯	-11.0706
dm쎯uk쎯	-11.0707
pl쎯wv쎯aq쎯	-11.0711
tdtf0쎯tlf0쎯	-11.0712
hka쎯sy쎯	-11.0713
rnb쎯rvyl0쎯	-11.0713
gjq쎯vb쎯	-11.0714
,쎂쎀쎀쎇rh쎯	-11.0717
wvmj쎯	-11.0717
ntg쎯klj쎯	-11.0717
p쎯j쎯g쎯wh쎯	-11.0718
ai쎯egc쎯	-11.0718
n2쎯	-11.072
tx쎯ag쎯nm쎯	-11.0729
bde쎯ujn쎯	-11.0732
fhu쎯bm쎯	-11.0735
쎁쎂쎂	-11.0735
qvhc0쎯	-11.0738
qnth쎯)	-11.074
jq쎯wf쎯	-11.0743
dgh쎯ftx쎯r쎯	-11.0744
dd	-11.0744
nx쎯adwr0쎯	-11.0745
k쎯aw쎯k쎯md쎯	-11.0745
tfq쎯fj쎯rfc쎯sy쎯	-11.0746
eyj쎯	-11.0747
isk쎯uthp0쎯	-11.075
nge쎯jy쎯	-11.075
fff1쎯	-11.075
dbv0쎯	-11.0752
ssf쎯hh쎯	-11.0752
tgj쎯lt쎯	-11.0752
lj쎯	-11.0753
,쎂쎀쎀쎈rh쎯	-11.0753
rrr쎯isgg2쎯	-11.0757
dw쎯gd쎯	-11.0759
yt쎯lfhf쎯	-11.0759
vcb쎯jf쎯	-11.0759
쎀djfd쎯oy쎯,	-11.076
e쎯pd쎯	-11.076
tfqp쎯rdc쎯	-11.076
wc쎯lw쎯	-11.076
iagw쎯ujn쎯r쎯	-11.0763
fakg0쎯qk쎯	-11.0765
a쎯wt쎯uk쎯uyh쎯	-11.0765
fny0쎯pe쎯.	-11.0766
tffy0쎯jm쎯	-11.0767
et쎯jg쎯	-11.077
dy쎯ide쎯	-11.0772
gey0쎯	-11.0773
iq쎯yuo쎯	-11.0773
rt쎯,	-11.0774
wa쎯gj쎯um쎯	-11.0775
tg쎯tr쎯rfc쎯sy쎯	-11.0775
r쎯td쎯ykw쎯	-11.0777
wdn쎯tfq쎯	-11.0779
txgi5쎯wxf쎯r쎯	-11.078
p0쎯	-11.078
rj쎯ue쎯	-11.078
qtge쎯	-11.0781
udy쎯fqb0쎯	-11.0783
han쎯	-11.0783
gmww쎯ftj쎯	-11.0784
tp쎯zzbd3쎯	-11.0784
dgj쎯tt쎯nnh쎯if쎯	-11.0786
su쎯kkk쎯	-11.0788
dn쎯wwv쎯	-11.0788
mmm쎯ax쎯	-11.079
e쎯qk쎯r쎯	-11.0791
r쎯gm쎯qje쎯	-11.0791
:쎈	-11.0793
cm쎯rhf0쎯	-11.0795
yygy쎯wx쎯uq쎯iyc쎯	-11.0795
ce쎯d쎯	-11.0796
rad쎯	-11.0797
rmc쎯u쎯	-11.0798
hhu0쎯qiu0쎯	-11.0799
vk쎯m쎯	-11.08
ab쎯ith쎯	-11.0801
k쎯yygy쎯qk쎯	-11.0801
:쎆	-11.0801
rp쎯mt쎯rh쎯	-11.0803
jty쎯irh0쎯	-11.0804
qsu쎯alt쎯	-11.0806
mhhm0쎯	-11.0807
rnb쎯fcl쎯	-11.0808
mga쎯》:“	-11.081
c쎯qh쎯	-11.0814
g쎯tfk0쎯	-11.0814
u쎯kkk쎯ga쎯v쎯	-11.0815
an쎯lwj쎯sgi쎯	-11.0817
e쎯ycb쎯	-11.0818
py쎯aq쎯nd쎯tv쎯wf쎯	-11.0819
쎁쎃쎃	-11.0823
lfo	-11.0824
ud쎯txi쎯.	-11.0826
r쎯xf쎯sq쎯	-11.083
il쎯il쎯	-11.0831
jq쎯h쎯	-11.0832
xxf쎯og쎯gf쎯h쎯itx쎯	-11.0833
lhnh쎯udy쎯eri쎯	-11.0833
ia쎯aq쎯	-11.0834
wc쎯wv쎯	-11.0835
hjs쎯dm쎯	-11.0835
vtkd0쎯bb쎯	-11.0835
lw쎯gk쎯	-11.0836
rdj쎯ta쎯	-11.0836
쎅쎀dq쎯,	-11.0838
ta쎯lkmi0쎯gae쎯	-11.0841
ip쎯yu쎯	-11.0841
gcf쎯gf쎯	-11.0845
dnv0쎯gu쎯oy쎯	-11.0846
qth쎯	-11.0847
xd	-11.0848
sm쎯fcl쎯	-11.0848
sghg1쎯lp쎯	-11.0848
hj쎯fhg1쎯	-11.0849
ufg쎯cm쎯	-11.085
ltu0쎯nnh쎯pgc쎯	-11.0852
wc쎯ngk쎯.wc쎯ngk쎯	-11.0854
uthp0쎯iq쎯	-11.086
,epc쎯	-11.086
xeg0쎯wrh1쎯	-11.0863
e쎯egl쎯gf쎯	-11.087
bm쎯wyk쎯	-11.087
bpf쎯bpf쎯ta쎯	-11.0871
c쎯sghg1쎯	-11.0873
qkql0쎯	-11.0873
uq쎯ian1쎯th쎯	-11.0875
xa쎯gmiu쎯	-11.0875
쎂쎆쎀	-11.0875
,y쎯rf쎯	-11.0876
,ige쎯	-11.0877
tp쎯gj쎯uqwk0쎯yqj쎯	-11.0877
ua쎯aqt쎯tj쎯	-11.0877
se쎯bv쎯	-11.0878
iwv쎯	-11.0878
cd쎯pfjm1쎯	-11.0879
dg쎯tffu쎯uqd2쎯.	-11.0882
r쎯vfhp1쎯ymc쎯	-11.0882
rnnw0쎯pgn쎯r쎯	-11.0885
o쎯g쎯wsg0쎯	-11.0887
fwm쎯aj쎯ymc쎯yf쎯	-11.0888
oyx쎯	-11.089
sm쎯gj쎯	-11.089
i쎯vk쎯	-11.0891
ai쎯mmm쎯	-11.0892
쎁쎉쎈쎈	-11.0894
sfm쎯	-11.0894
aq쎯w쎯n쎯ght쎯ywf쎯	-11.0894
gd쎯bb쎯	-11.0895
gs쎯umd1쎯	-11.0896
dd쎯gcft0쎯	-11.0898
,쎁쎉쎉쎉rh쎯	-11.09
die쎯	-11.0901
쎃zzbd9쎯	-11.0901
dgh쎯ftx쎯	-11.0902
um쎯og쎯qve쎯tf쎯	-11.0902
쎇eee0쎯xxf쎯og쎯gf쎯	-11.0903
ty쎯ip쎯	-11.0905
wty0쎯kht쎯pl쎯	-11.0905
gh쎯tfj0쎯	-11.0905
.쎁쎉쎉쎁rh쎯	-11.0905
wb쎯gip쎯	-11.0906
sk쎯sve쎯rnd1쎯	-11.0909
qtj쎯pe쎯	-11.0909
fgh쎯qq쎯rh쎯	-11.0909
gu쎯my쎯	-11.0909
a쎯wt쎯tv쎯km쎯wf쎯	-11.0912
ly쎯	-11.0913
sw쎯imj쎯ymc쎯tlf0쎯	-11.0915
yhk쎯)	-11.0916
쎆zzbd15쎯	-11.0918
iytb0쎯jtyq0쎯	-11.092
gqje0쎯thg1쎯	-11.092
쎁쎀쎀oy쎯	-11.0922
ltu0쎯》	-11.0922
ga쎯uit쎯	-11.0923
ahkm3쎯	-11.0924
gip쎯d쎯	-11.0925
jb쎯rg쎯g쎯	-11.0927
sfi쎯sg쎯	-11.0928
pqk쎯	-11.0929
ufy쎯sgn쎯	-11.0929
ue쎯gq쎯	-11.093
ymf쎯dga쎯km쎯	-11.093
ip쎯sy쎯wf쎯yyq쎯	-11.093
xx쎯gog쎯	-11.0931
oge쎯iad쎯	-11.0932
쎆rh쎯)	-11.0933
nnl쎯sgyb0쎯	-11.0935
snn0쎯	-11.0936
vv쎯bu쎯	-11.0937
ih쎯fnw쎯	-11.0938
wv쎯je쎯	-11.0938
,ux쎯yiu0쎯	-11.0939
dn쎯wqj쎯	-11.094
usr쎯tg쎯	-11.0942
sdm쎯id쎯	-11.0942
cw쎯jghm1쎯	-11.0943
fqp쎯qie쎯	-11.0944
y쎯s쎯dga쎯pwv쎯	-11.0944
w쎯tr쎯.	-11.0945
ukn쎯a쎯wf쎯	-11.0947
쎃eee0쎯bm쎯tg쎯	-11.0947
pei쎯og쎯tg쎯u쎯	-11.0952
ga쎯og쎯jf쎯uj쎯	-11.0954
dd쎯yd쎯	-11.0954
tuj0쎯xq쎯	-11.0955
mq쎯wwwk0쎯	-11.0956
,xx쎯cf쎯jvko0쎯	-11.0957
쎄w쎯,	-11.0959
cep쎯tyg쎯	-11.0959
fhv쎯fnr0쎯	-11.096
tu쎯ip쎯v쎯nae0쎯cm쎯	-11.0963
thd쎯egl쎯	-11.0963
mftj1쎯	-11.0964
yo쎯jg쎯	-11.0965
rmhj쎯tlf0쎯	-11.0966
zzbd3쎯pv쎯wg쎯	-11.0966
oe쎯ufg쎯	-11.0967
:쎃쎀	-11.0968
,ua쎯e쎯	-11.097
sh쎯rc쎯	-11.097
r쎯yw쎯sk쎯	-11.097
wfn쎯dd쎯	-11.097
xf쎯og쎯	-11.0971
c쎯h쎯.	-11.0972
tk쎯aa쎯	-11.0972
쎂qk쎯	-11.0974
on	-11.0974
쎂eee0쎯bm쎯tg쎯	-11.0975
sps쎯sap쎯	-11.0975
mqb쎯gc쎯	-11.0975
ad쎯f쎯.	-11.0976
,wyc쎯	-11.0976
fd쎯wksf쎯	-11.0977
pds쎯tg쎯	-11.0978
spwk0쎯	-11.098
x쎯iyj쎯jgm쎯	-11.0981
》w쎯tr쎯pp쎯g쎯.	-11.0982
i쎯on쎯wbj쎯usr쎯	-11.0982
tif쎯tg쎯	-11.0985
uuj쎯syp쎯b쎯	-11.0988
gj쎯ntg쎯	-11.0989
r쎯su쎯bb쎯	-11.0989
bm쎯qc쎯r쎯	-11.099
mmm쎯wwk쎯	-11.0993
쎈ylf0쎯	-11.0995
ym쎯rfm쎯jg쎯	-11.0995
ma쎯rr쎯	-11.0996
wkhh쎯fay쎯	-11.0997
i쎯je쎯	-11.0997
tp쎯tv쎯wf쎯	-11.0999
lkmi0쎯syg쎯gae쎯	-11.0999
itm쎯iyt1쎯	-11.1002
um쎯et쎯	-11.1004
hi쎯swb쎯	-11.1006
u0쎯	-11.1007
,ai쎯jty쎯	-11.1009
쎁쎇쎅	-11.1013
(쎁쎆	-11.1014
쎂쎀wc쎯jfd쎯	-11.1015
i쎯on쎯r쎯	-11.1015
r쎯sm쎯wf쎯	-11.1017
rfm쎯wk쎯	-11.1017
dg쎯dj쎯	-11.1017
ym쎯ahty0쎯	-11.1018
zzbd3쎯mqq쎯xtk쎯	-11.1019
,e쎯pei쎯yne쎯	-11.102
qc쎯,	-11.102
qev쎯yfn쎯	-11.1022
wgkm5쎯	-11.1022
ywx쎯ygh쎯	-11.1022
r쎯tg쎯wgkb0쎯	-11.1023
ide쎯aq쎯	-11.1027
pe쎯jfd쎯	-11.1027
udyj쎯ryn1쎯	-11.1027
.쎁쎉쎅쎈rh쎯	-11.1029
tdnj0쎯	-11.1029
px쎯wu쎯r쎯	-11.103
bd쎯epc쎯	-11.1032
fiy쎯bk쎯	-11.1032
wn쎯fqb0쎯.	-11.1032
tgl쎯	-11.1034
rrhy쎯wygg쎯	-11.1036
ftbt쎯pgc쎯zzbd3쎯	-11.1036
ipkh1쎯xv쎯	-11.1037
x쎯dl쎯b쎯	-11.1037
ta쎯yy쎯gae쎯	-11.1038
dn쎯uqt쎯	-11.1039
anb0쎯sy쎯kkk쎯	-11.104
zzbd3쎯yygt쎯ai쎯	-11.1041
xk쎯rmhj쎯	-11.1042
쎃쎀%	-11.1042
y쎯s쎯o쎯	-11.1044
ftbt쎯yce쎯pe쎯	-11.1045
ts쎯wgq쎯》	-11.1046
,iy쎯mm쎯uqwm1쎯	-11.1048
aqg쎯aqr쎯ah쎯	-11.1048
vfb쎯jfd쎯	-11.1049
cbt	-11.1053
ddh쎯uyh쎯ymhj0쎯	-11.1054
sg쎯sf쎯	-11.1055
g쎯fh쎯d쎯	-11.1057
bct쎯wgk쎯	-11.1058
arj쎯	-11.1058
,j쎯g쎯pe쎯wys쎯	-11.106
av쎯pu쎯	-11.1061
,쎁쎉쎉쎆rh쎯	-11.1061
pwat0쎯fp쎯	-11.1062
sfi쎯ykw쎯	-11.1063
dgtg0쎯img쎯wx쎯a쎯	-11.1063
bynw0쎯bb쎯r쎯	-11.1064
xjt쎯	-11.1064
uj0쎯wsg0쎯k쎯yygy쎯	-11.1065
ige쎯gj쎯	-11.1066
zzbd3쎯ym쎯uqt쎯	-11.1074
wu쎯r쎯	-11.1076
yss쎯img쎯	-11.1077
kkk쎯kfi쎯	-11.1077
ejt쎯	-11.1079
lu쎯it쎯	-11.1079
vfhp1쎯dn쎯rg쎯	-11.1079
pu쎯tr쎯	-11.108
edy1쎯	-11.1081
ak	-11.1081
,kj쎯	-11.1082
o쎯ad쎯dbm쎯,	-11.1082
sqqd0쎯	-11.1084
mw쎯dhb쎯od쎯gajf0쎯	-11.1084
zzbd3쎯yj쎯	-11.1084
ftx쎯src쎯	-11.1085
jn쎯bb쎯tu쎯rfc쎯	-11.1086
tk쎯yy쎯dm쎯	-11.1087
yngk1쎯ygk쎯	-11.1087
tduh0쎯maw쎯	-11.1087
lfn쎯gajf0쎯	-11.1089
r쎯fwm쎯pg쎯	-11.1091
rfc쎯sy쎯km쎯	-11.1092
thd쎯bg쎯	-11.1093
tmdf1쎯xg쎯	-11.1093
;쎄zzbd3쎯	-11.1094
ovt쎯tfk0쎯	-11.1095
fcl쎯lt쎯ip쎯	-11.1097
zzbd3쎯ggi쎯fuj쎯	-11.1098
jqr쎯gf쎯	-11.1101
sov쎯tel쎯	-11.1101
gcft0쎯lt쎯gf쎯o쎯	-11.1102
xq쎯쎃	-11.1102
puhc쎯gq쎯o쎯	-11.1103
oy쎯,pa쎯	-11.1104
dm	-11.1106
svc쎯syp쎯	-11.1106
udh쎯tgj쎯	-11.1107
l쎯tdij0쎯	-11.1107
tffu쎯f쎯.	-11.1107
w쎯o쎯	-11.1108
r쎯if쎯tvfh0쎯	-11.1109
hc쎯af쎯	-11.1109
쎁쎀eee0쎯tg쎯,	-11.1109
xwy0쎯qiu0쎯	-11.1112
ixw쎯fyn쎯	-11.1113
iagw쎯ytt쎯	-11.1114
,쎂쎀쎀쎁rh쎯	-11.1114
dy쎯pye쎯	-11.1115
lt쎯ya쎯	-11.1115
ovt쎯rnd1쎯xg쎯	-11.1115
gg쎯jtg쎯xe쎯	-11.1117
uj쎯bgk쎯	-11.1118
fny0쎯uyh쎯ww쎯gk쎯	-11.1119
wud쎯	-11.1119
e쎯ud쎯r쎯	-11.112
eb쎯tl쎯sm쎯sq쎯	-11.1122
tmd쎯ny쎯	-11.1122
w쎯kkkk1쎯쎂	-11.1122
faw쎯gcf쎯	-11.1122
nae0쎯wf쎯	-11.1122
,tk쎯	-11.1124
《k쎯wxf쎯w쎯n쎯aw쎯t쎯	-11.1125
kkks1쎯fnr0쎯	-11.1125
sf쎯n쎯tv쎯km쎯wf쎯	-11.1126
tffu쎯l쎯pe쎯	-11.1128
-쎁쎁	-11.1131
bm쎯qkm쎯	-11.1136
qtfj0쎯img쎯	-11.1137
uqf쎯c쎯	-11.1137
rvyo쎯th쎯gj쎯	-11.1137
yyq쎯km쎯	-11.1138
gmap쎯jm쎯	-11.1138
iyc쎯tf쎯r쎯	-11.1139
g쎯tyna2쎯	-11.1139
txe쎯	-11.1141
qnd쎯hwb쎯	-11.1141
쎅zzbd9쎯	-11.1142
rnf쎯	-11.1144
zzbd3쎯fq쎯	-11.1144
rgt쎯rgy쎯gfi쎯	-11.1145
".	-11.1146
,gip쎯j쎯	-11.1147
,fm쎯wycb쎯	-11.1147
w쎯wu쎯r쎯	-11.1149
bqt쎯	-11.115
wdyy1쎯	-11.115
yygt쎯itp쎯et쎯gf쎯	-11.115
),j쎯	-11.1151
wam쎯	-11.1151
g쎯nnh쎯	-11.1151
ige쎯gs쎯	-11.1151
――	-11.1151
zzbd10쎯bs쎯	-11.1157
《k쎯wxf쎯	-11.1158
i쎯tffu쎯	-11.1163
jb쎯e쎯	-11.1163
,px쎯r쎯	-11.1164
ha	-11.1164
,gmww쎯	-11.1164
yfd쎯qfhw1쎯	-11.1164
xke쎯	-11.1164
zzbd3쎯l쎯bf쎯	-11.1165
r쎯ick쎯ubk1쎯	-11.1167
qng1쎯qgj쎯ssss0쎯	-11.1167
aqrn1쎯awx쎯	-11.117
c쎯tyg쎯	-11.1171
g쎯ih쎯	-11.1172
afwu0쎯apw쎯	-11.1172
agnn1쎯vit쎯	-11.1173
pt쎯yww쎯ftbt쎯rep쎯	-11.1173
ruv쎯udh쎯	-11.1174
쎁쎉쎉쎁	-11.1176
rnb쎯,	-11.1178
es쎯yyn2쎯	-11.1178
rg쎯w쎯	-11.118
쎁쎀쎄	-11.118
adww2쎯	-11.1182
o쎯hh쎯	-11.1183
wv쎯bpf쎯	-11.1184
py쎯wf쎯uqt쎯uwl쎯	-11.1184
r쎯dyn쎯ya쎯	-11.1184
ufg쎯dd쎯	-11.1186
ftbt쎯ip쎯dn쎯js쎯	-11.1187
dgtg0쎯amd쎯	-11.1188
,yid쎯	-11.1189
img쎯ae쎯	-11.1189
xv쎯f쎯	-11.1189
yssr0쎯rta쎯lg쎯	-11.1189
wfkb0쎯tdp쎯r쎯	-11.1191
ripq0쎯	-11.1195
쎇eee0쎯bm쎯tg쎯	-11.1197
쎃쎂.	-11.1197
xg쎯zzbd3쎯	-11.12
,iy쎯tgj쎯	-11.12
zzbd3쎯wyv쎯kkk쎯	-11.1201
쎃쎀qq쎯	-11.1202
,,,,	-11.1203
fnv0쎯	-11.1203
쎇쎆쎈	-11.1204
쎂쎈쎀	-11.1204
tp쎯gj쎯rmhj쎯ya쎯	-11.1205
yo쎯o쎯	-11.1205
r쎯ud쎯qvfp1쎯	-11.1206
snb2쎯sjtq쎯	-11.1206
pah쎯	-11.1207
sf쎯xe쎯	-11.1207
r쎯xf쎯js쎯	-11.1208
v쎯je쎯fny0쎯tjh쎯	-11.1208
mqq쎯hko쎯	-11.1208
쎂쎃쎀	-11.1209
bwf쎯rp쎯r쎯	-11.1211
ntg쎯wwj쎯xx쎯	-11.1211
vaf쎯wj쎯	-11.1211
ftjb쎯i쎯	-11.1214
adw쎯wb쎯ntg쎯ce쎯	-11.1214
amyn1쎯dx쎯	-11.1214
u쎯og쎯v쎯nae0쎯	-11.1215
ld쎯dmj1쎯	-11.1217
puq쎯	-11.1217
bm쎯tf쎯	-11.1218
tfq쎯rg쎯aqt쎯tj쎯	-11.1219
쎈djfd쎯oy쎯	-11.1219
fny0쎯og쎯xxf쎯og쎯	-11.1219
t쎯imkf1쎯	-11.122
eta쎯	-11.1222
ga쎯rd쎯wbj쎯usr쎯	-11.1226
qdw쎯	-11.1226
trf0쎯rytp1쎯	-11.1228
pwv쎯	-11.1232
tuxj쎯	-11.1233
쎃쎀wtu쎯	-11.1234
ght쎯ick쎯tv쎯km쎯	-11.1235
(쎁쎈쎈	-11.1237
cqw쎯qi쎯	-11.1237
t쎯k쎯l쎯	-11.1238
cbd쎯rb쎯	-11.1239
쎀rh쎯)	-11.124
geq쎯jn쎯	-11.124
bd쎯yw쎯	-11.1241
쎁쎉쎈쎆	-11.1241
qn쎯lfnh쎯	-11.1241
ays쎯avd쎯	-11.1243
dr쎯go쎯r쎯	-11.1243
wv쎯sr쎯zzbd3쎯	-11.1243
bm쎯v쎯,	-11.1245
atd쎯ubk1쎯kkd쎯sa쎯	-11.1246
rwp쎯	-11.1247
tuj0쎯ujfj0쎯,	-11.1249
rh쎯(wc쎯fqb0쎯	-11.125
wty0쎯dd쎯	-11.125
wf쎯nae0쎯	-11.1251
k쎯wj쎯	-11.1251
wye쎯uqw쎯	-11.1252
ukn쎯dm쎯tkw쎯쎁	-11.1253
ym쎯wv쎯bb쎯	-11.1255
ige쎯fjt쎯btg쎯	-11.1256
ip쎯suq쎯zzbd3쎯	-11.1259
atm쎯	-11.1259
txg쎯g쎯wug0쎯	-11.1259
nied쎯	-11.1259
dd쎯thd쎯qd쎯	-11.126
pl쎯lft쎯	-11.1261
ywg쎯toc쎯	-11.1264
igey0쎯ai쎯	-11.1265
gmww쎯adm쎯	-11.1266
fg쎯fgh쎯lh쎯	-11.1268
ue쎯gq쎯eri쎯	-11.1271
dmd쎯sgc쎯	-11.1273
r쎯gkip0쎯ya쎯	-11.1274
cn쎯qiu0쎯	-11.1276
i쎯on쎯f쎯	-11.1277
u1쎯	-11.1281
gog쎯dy쎯	-11.1283
wa쎯kgn쎯	-11.1284
ke쎯bwf쎯	-11.1284
i쎯tp쎯	-11.1284
pg쎯wwj쎯	-11.1285
mq쎯jy쎯te쎯gmy0쎯r쎯	-11.1286
tq쎯kt쎯	-11.1287
pey쎯	-11.1287
ijl쎯t쎯	-11.1294
r쎯fku쎯ep쎯	-11.1295
pt쎯pe쎯	-11.1298
fnhy쎯	-11.1299
zzbd3쎯rfc쎯sy쎯	-11.1301
yni1쎯ngj쎯	-11.1303
df쎯tj쎯	-11.1303
ynj	-11.1304
jj쎯egc쎯	-11.1305
r쎯wqu쎯us쎯	-11.1306
pfjf1쎯qiu0쎯	-11.1306
ey쎯yid쎯et쎯	-11.1307
qh쎯ian1쎯	-11.1308
p쎯jf쎯	-11.1309
yft쎯wnt쎯	-11.131
rn쎯aft쎯	-11.1311
qnd쎯	-11.1311
,쎁쎉쎉쎇rh쎯	-11.1315
.쎅%	-11.1315
bk쎯ce쎯uk쎯uyh쎯	-11.1315
jh쎯ybv0쎯	-11.1316
fn	-11.1316
uhc쎯apl쎯	-11.1317
img쎯rnb쎯	-11.1317
st쎯qiu0쎯	-11.1317
wq쎯wu쎯	-11.1318
mq	-11.1321
udy쎯.	-11.1321
쎇쎂쎀	-11.1324
umd1쎯bb쎯	-11.1324
sg쎯qk쎯	-11.1327
ynth1쎯	-11.133
apg쎯dgh쎯ytt쎯	-11.1331
alkf0쎯	-11.1332
(/)	-11.1333
uxh쎯uxh쎯	-11.1333
ga쎯v쎯um쎯	-11.1339
k쎯l쎯a쎯pei쎯xa쎯pl쎯	-11.1341
쎂쎀쎁쎃	-11.1341
qtdn1쎯vk쎯	-11.1342
k쎯l쎯w쎯n쎯	-11.1344
gqt쎯	-11.1345
uy	-11.1346
sf쎯jfd쎯	-11.1347
gmww쎯umd1쎯	-11.1348
ipe쎯xpw쎯	-11.1348
rqk쎯	-11.135
nft쎯	-11.1352
y쎯s쎯mh쎯	-11.1352
ef쎯oo쎯	-11.1353
,ua쎯gf쎯	-11.1354
tve쎯xk쎯	-11.1355
xjh0쎯	-11.1357
wg쎯l쎯wdn쎯te쎯	-11.1357
wxd쎯wtuf1쎯	-11.1358
fl쎯m쎯	-11.1358
쎃.쎈	-11.136
dq쎯eb쎯	-11.1361
q쎯ith쎯	-11.1362
tx쎯g쎯wug0쎯	-11.1362
eaf쎯	-11.1363
fqb0쎯rh쎯(	-11.1363
i쎯vb쎯	-11.1364
x쎯iyj쎯vfhp1쎯ymc쎯	-11.1365
dn쎯rh쎯	-11.1365
ujn쎯fn쎯	-11.1366
khv쎯bde쎯	-11.1367
adwl쎯pwfi0쎯	-11.1367
mqq쎯gfi쎯	-11.1372
djdy1쎯	-11.1373
pp쎯puv쎯	-11.1375
s0쎯	-11.1375
gd쎯xg쎯	-11.1375
qbl쎯	-11.1378
geq쎯dyn쎯	-11.138
hx쎯f쎯	-11.1381
r쎯nge쎯ukq쎯gh쎯	-11.1382
fny0쎯pe쎯zzbd3쎯	-11.1386
xyna1쎯pj쎯	-11.1387
xef쎯qev쎯	-11.1387
쎄쎀wtu쎯	-11.1391
《ud쎯gf쎯	-11.1391
e쎯hko쎯	-11.1391
fu쎯dd쎯	-11.1393
adw쎯wqu쎯	-11.1395
puhc쎯rge쎯	-11.1396
aw쎯u쎯ipk쎯	-11.1396
fm쎯mdfj쎯	-11.1401
itf쎯uqv쎯av쎯	-11.1402
jf쎯qkhh1쎯	-11.1402
udj쎯mww쎯	-11.1405
a쎯tkgg1쎯ytb쎯a쎯	-11.1405
sc쎯uwl쎯	-11.1407
thd쎯go쎯ii쎯	-11.1408
py쎯wf쎯tk쎯lwj쎯	-11.1409
fjh0쎯wgku1쎯	-11.1412
쎆ylf0쎯	-11.1413
rvk쎯um쎯xh쎯uqwm1쎯	-11.1413
ipkh1쎯tl쎯gj쎯gk쎯,	-11.1415
you1쎯sk쎯	-11.1417
dj쎯xk쎯	-11.1417
ih쎯qfhw1쎯	-11.1418
쎁쎁wh쎯	-11.1419
thd쎯wy쎯	-11.142
al쎯fw쎯	-11.1421
qk쎯kn쎯	-11.1422
spw쎯	-11.1422
bb쎯uxh쎯	-11.1428
opw쎯hko쎯	-11.143
〗	-11.1431
ruv쎯kkkk1쎯,	-11.1432
fn쎯drin0쎯	-11.1434
nfp쎯	-11.1435
elv쎯fghg쎯	-11.1435
”yo쎯tkh쎯	-11.1435
rfc쎯sy쎯lt쎯jg쎯	-11.1435
nfa쎯	-11.1435
쎁쎀쎃	-11.1437
ip쎯wf쎯wf쎯km쎯,	-11.1438
lfn쎯yh쎯	-11.1438
afd1쎯aya쎯	-11.1438
〖	-11.1439
tk쎯naj0쎯	-11.144
,i쎯ce쎯	-11.1441
fuk쎯yk쎯gyt쎯	-11.1442
amy쎯ldd0쎯	-11.1442
,rs쎯tfkp0쎯	-11.1444
os쎯iq쎯	-11.1445
pfq쎯uduk0쎯,	-11.1447
k쎯mmm쎯ymhj0쎯	-11.1447
wt쎯ma쎯pe쎯	-11.1447
saq쎯	-11.1449
yth쎯	-11.1449
ygu쎯xx쎯	-11.1451
da	-11.1451
gae쎯hhhh쎯	-11.1453
mmm쎯gh쎯	-11.1453
ep쎯qiu0쎯uff쎯	-11.1457
.y쎯s쎯ww쎯gk쎯	-11.1458
wsg0쎯yce쎯fnrt쎯	-11.1459
dy쎯pf쎯	-11.1459
fny0쎯og쎯w쎯ft쎯	-11.146
ypt쎯dq쎯	-11.146
fge쎯pt쎯	-11.1461
qc쎯gxi쎯	-11.1462
rdj쎯me쎯	-11.1463
idl쎯gef쎯	-11.1465
ada쎯	-11.1465
ggi쎯gfi쎯	-11.1466
nnh쎯》:“	-11.1466
r쎯x쎯maw쎯	-11.1467
쎃.쎇	-11.1468
sm쎯sa쎯a쎯og쎯	-11.147
iqn쎯igs쎯	-11.1471
jqrj쎯	-11.1472
aqn쎯	-11.1472
mnbm0쎯fhn쎯	-11.1476
쎀mfk쎯rh쎯	-11.1477
ugdu쎯vb쎯r쎯	-11.1477
ih쎯iytb0쎯ca쎯	-11.1479
gf쎯쎂쎀쎀쎂rh쎯	-11.148
khd쎯l쎯	-11.1482
bm쎯thgc0쎯b쎯	-11.1483
쎁쎀dnv0쎯	-11.1484
qgl쎯	-11.1485
dp쎯dn쎯	-11.1488
ul쎯puhc쎯	-11.149
ykg0쎯uda쎯	-11.149
,dty0쎯tq쎯	-11.1491
lp쎯fuj쎯	-11.1493
wdn쎯rfm쎯r쎯u쎯kkk쎯	-11.1493
mt쎯tkh쎯	-11.1494
toc쎯yygy쎯:	-11.1496
yjjh0쎯jg쎯	-11.1496
tk쎯lwj쎯	-11.1501
sgtk1쎯hpgh0쎯	-11.1501
uqf쎯wycm1쎯	-11.1503
rx쎯uwy0쎯r쎯	-11.1505
ofd쎯	-11.1506
wv쎯tf쎯	-11.1508
,ai쎯gn쎯	-11.151
zzbd3쎯ggi쎯wk쎯	-11.151
dgh쎯qfhw1쎯	-11.151
uth쎯v쎯	-11.151
r쎯trf0쎯gqr쎯	-11.1511
nh쎯gc쎯	-11.1511
qmq쎯sft쎯	-11.1512
ccyj1쎯	-11.1516
fghg쎯rgw쎯	-11.1516
aw쎯ynky6쎯	-11.1517
cwg쎯ygh쎯	-11.1517
ve쎯img쎯	-11.1517
tg쎯ow쎯	-11.1519
rdw쎯	-11.152
쎁쎅wc쎯jfd쎯	-11.1521
pyr쎯	-11.1522
(fcu1쎯	-11.1522
쎅쎅쎀	-11.1522
qie쎯wyk쎯nh쎯ty쎯	-11.1523
fp쎯qq쎯	-11.1523
,bc쎯tj쎯b쎯	-11.1524
r쎯jb쎯ym쎯	-11.1525
yf쎯tg쎯	-11.1525
ymc쎯tlf0쎯.	-11.1526
쎆%	-11.1526
g쎯fg쎯	-11.1528
xuj쎯tamw2쎯	-11.1529
bwf쎯vi쎯	-11.1529
nnk쎯dm쎯	-11.153
ud쎯txi쎯r쎯	-11.1532
fnw쎯,	-11.1532
《kq쎯yn쎯zzbd10쎯	-11.1533
pp쎯ytey0쎯	-11.1535
rmn0쎯hko쎯	-11.1536
쎀쎀kgb쎯	-11.1536
go쎯b쎯	-11.1536
qve쎯uqd2쎯	-11.1537
ax쎯og쎯	-11.1537
vu쎯	-11.154
ipk쎯vfhp1쎯	-11.154
ym쎯sfi쎯uwy0쎯	-11.1541
yaa쎯ltu0쎯	-11.1542
cd쎯ftg쎯nnh쎯	-11.1543
fw쎯gv쎯	-11.1545
쎁쎉쎂쎄rh쎯	-11.1546
jtd쎯pntj0쎯	-11.1547
oge쎯uwl쎯fiy쎯oge쎯	-11.1548
ue쎯dm쎯	-11.1549
xyc쎯tdtf0쎯	-11.155
xgm쎯uqt쎯	-11.1552
lh쎯dm쎯	-11.1554
de쎯shi쎯	-11.1555
dnv0쎯ylf0쎯,	-11.1556
ggi쎯fuj쎯k쎯	-11.1557
,tfq쎯umd1쎯	-11.1558
xf쎯tha쎯	-11.1558
2	-11.156
ftxu1쎯gxi쎯	-11.1561
dmj1쎯fp쎯	-11.1561
pg쎯jg쎯	-11.1562
yfd쎯bb쎯	-11.1563
pye쎯wqu쎯	-11.1563
bm쎯qc쎯	-11.1564
gyg0쎯hko쎯	-11.1566
쎂zzbd9쎯	-11.1566
dxy쎯fmk쎯	-11.1566
.wg쎯nnh쎯	-11.1566
쎁쎉쎈쎅	-11.1568
ugdu쎯sy쎯pe쎯	-11.1568
ue쎯jy쎯	-11.1569
cd쎯lk쎯fp쎯	-11.157
tve쎯ym쎯	-11.1573
gxgu쎯ntg쎯	-11.1574
mmm쎯ai쎯dd쎯ip쎯	-11.1574
uqwv쎯dyn쎯	-11.1576
tx쎯g쎯rx쎯	-11.1576
puhc쎯yw쎯o쎯j쎯	-11.1577
py쎯ta쎯	-11.1579
zzzy11쎯zzzy21쎯	-11.158
ycb쎯》:“	-11.158
jtyq1쎯ipkm1쎯	-11.1583
wx쎯egc쎯	-11.1584
ymf쎯yaa쎯	-11.1586
ht쎯hna쎯	-11.1587
1	-11.1589
y쎯wtf쎯atd쎯jgm쎯.	-11.159
ukqb0쎯	-11.1591
dg1쎯	-11.1595
rkh쎯	-11.1595
xmw쎯tuk쎯	-11.1596
.y쎯rf쎯	-11.1597
rfc쎯sy쎯gn쎯	-11.1598
ipkh1쎯tl쎯tv쎯km쎯	-11.1599
wxd쎯tm쎯	-11.16
ta쎯dw쎯ymhj0쎯	-11.16
,xj쎯d쎯	-11.1601
ftbt쎯ip쎯dga쎯pwv쎯	-11.1601
“wg쎯l쎯	-11.1601
wbj쎯lw쎯r쎯	-11.1602
o쎯et쎯yne쎯rj쎯waw쎯	-11.1603
r쎯wdn쎯rvyl0쎯	-11.1603
iq쎯idr쎯	-11.1604
frc쎯	-11.1604
ywx쎯aft쎯	-11.1606
ghd1쎯dqe쎯r쎯	-11.1606
dgk쎯dh쎯	-11.1607
쎂쎅쎀dq쎯	-11.1608
r쎯w쎯tg쎯	-11.1608
iuj쎯ytyh쎯	-11.1609
,쎁쎉쎉쎅rh쎯	-11.1609
쎄djfd쎯oy쎯	-11.1613
j쎯uqf쎯	-11.1613
tp쎯gj쎯ip쎯	-11.1613
vs쎯rfm쎯	-11.1614
se쎯dd쎯	-11.1616
iet0쎯	-11.1621
xwy0쎯dskf쎯	-11.1622
lt쎯jg쎯dcw쎯djb쎯,	-11.1624
vk쎯gh쎯:	-11.1625
ipm쎯ipgh0쎯	-11.1626
fm쎯fje쎯	-11.1628
i쎯fcl쎯	-11.1629
ifj쎯ytyh쎯	-11.163
adi쎯	-11.1631
whm쎯pwfi0쎯	-11.1631
oq	-11.1632
r쎯wdt쎯if쎯	-11.1634
tfkp0쎯wwj쎯	-11.1635
zzjp6	-11.1636
uduk0쎯yv쎯	-11.1636
fq쎯gxgu쎯	-11.1637
xyna1쎯pgn쎯r쎯	-11.1637
ymhj0쎯ta쎯	-11.1638
dm쎯tkw쎯쎈	-11.1639
zzbd3쎯qqqq1쎯gkm쎯	-11.1639
ta쎯dtf쎯	-11.1639
쎁쎀쎉	-11.164
qnqn쎯t쎯	-11.1641
usr쎯k쎯l쎯dn쎯uu쎯	-11.1641
k쎯atd쎯bpf쎯	-11.1643
bc쎯qk쎯	-11.1643
hk쎯f쎯dm쎯tkw쎯쎂	-11.1643
yid쎯cf쎯	-11.1645
vnh쎯	-11.1647
》;	-11.1648
wk쎯pg쎯	-11.1649
dl쎯rh쎯	-11.1649
dht쎯gd쎯	-11.1649
y쎯rs쎯	-11.1649
mf쎯tl쎯tp쎯gj쎯	-11.1651
ad쎯sg쎯h쎯	-11.1652
ooo쎯oqv쎯	-11.1652
sm쎯lg쎯	-11.1653
drin0쎯ujn쎯	-11.1653
쎄kgn쎯	-11.1654
ax쎯sft쎯	-11.1656
eb쎯tl쎯og쎯	-11.1656
ss쎯fnrt쎯	-11.1658
dg쎯w쎯	-11.1658
ygl쎯	-11.1661
dd쎯ip쎯sg쎯tu쎯	-11.1663
jyq쎯	-11.1663
.tg쎯gf쎯	-11.1665
ty쎯xyna1쎯	-11.1666
wv쎯aq쎯	-11.1667
uqf쎯dn쎯o쎯	-11.1668
pnt쎯puhc쎯	-11.167
xg쎯tkgg1쎯	-11.167
ym쎯gxi쎯rfm쎯	-11.1671
gkl쎯y쎯yam쎯zzbd3쎯	-11.1674
tffu쎯tk쎯od쎯	-11.1675
,rpv쎯jvko0쎯	-11.1677
sm쎯gajf0쎯	-11.1679
fi쎯aib쎯ntg쎯	-11.1679
ovt쎯ip쎯txi쎯	-11.1679
qsu쎯w쎯	-11.1681
.쎁쎉쎈쎀rh쎯	-11.1681
gd쎯ft쎯	-11.1682
vvv쎯pyj쎯	-11.1683
dmj1쎯nnnn0쎯	-11.1685
ggi쎯kht쎯	-11.1687
dgh쎯shy0쎯	-11.1687
ryiy쎯	-11.1688
fg쎯fgh쎯an쎯xn쎯	-11.1689
dg쎯fgh쎯rh쎯	-11.169
if쎯ygk쎯	-11.169
ran쎯	-11.1691
.px쎯r쎯	-11.1695
ftg쎯ygh쎯	-11.1697
.쎁쎉쎃쎄rh쎯	-11.1698
aw쎯wbj쎯	-11.1699
ma쎯anb0쎯	-11.17
zzbd10쎯zzbd10쎯	-11.1702
ruv쎯udi0쎯	-11.1704
g쎯xe쎯ftbt쎯jgm쎯	-11.1705
ytey0쎯iytb0쎯aq쎯	-11.1706
,쎁쎉쎈쎅rh쎯	-11.1707
rny1쎯wtf쎯	-11.1708
uwe쎯	-11.1708
fd쎯ffuk쎯	-11.1711
,쎁쎉쎉쎃rh쎯	-11.1711
dh쎯egc쎯	-11.1715
zzbd9쎯)	-11.1716
uqd2쎯zzbd3쎯	-11.1717
thgc0쎯gl쎯	-11.1717
ymf쎯gj쎯	-11.1717
ctdj쎯	-11.1718
ixj쎯	-11.1718
쎁쎉쎈쎄	-11.1718
pg쎯jf쎯	-11.1718
dgtg0쎯sft쎯	-11.1721
sks쎯wwx쎯xx쎯gog쎯	-11.1721
rn쎯fdm쎯r쎯	-11.1722
awx쎯adwe1쎯	-11.1722
쎀oy쎯,	-11.1723
khgp0쎯u쎯	-11.1723
wmw쎯	-11.1723
tx쎯fgh쎯dg쎯	-11.1723
ymf쎯kfi쎯ou쎯	-11.1724
lg쎯zzbd3쎯	-11.1724
qvn0쎯fiyt쎯	-11.1724
lq쎯adwr0쎯	-11.1728
쎈zzbd15쎯	-11.1728
ts쎯xyy1쎯	-11.1728
img쎯ex쎯	-11.1729
쎅쎀zzts0쎯	-11.1729
쎉쎀쎀쎀	-11.173
쎁쎂eee0쎯tg쎯,	-11.173
mq쎯es쎯	-11.1731
ian1쎯bct쎯	-11.1731
txi쎯gq쎯zzbd3쎯	-11.1732
yfn쎯hhu0쎯kkd쎯	-11.1732
d쎯g쎯pg쎯	-11.1733
yo쎯fcl쎯	-11.1734
itf쎯its쎯	-11.1735
a쎯um쎯nnk쎯	-11.1735
g쎯ck쎯	-11.1738
med쎯	-11.1738
kynw0쎯	-11.1739
gh쎯fcu1쎯	-11.1739
rwyg0쎯bm쎯b쎯	-11.174
lk쎯pnt쎯	-11.174
쎁.쎉	-11.1743
nwyc2쎯	-11.1743
ian1쎯wys쎯	-11.1743
mwyc0쎯fm쎯	-11.1745
fkuk2쎯iw쎯	-11.1746
ffi쎯aa쎯	-11.1748
dga쎯wht쎯	-11.1748
쎁쎉쎈쎇	-11.1749
tx쎯vt쎯nm쎯	-11.1751
pb쎯wsg0쎯	-11.1752
ruv쎯ty쎯	-11.1753
ujv쎯	-11.1753
uyh쎯ywe쎯	-11.1754
tg쎯gqx쎯	-11.1754
dskf쎯yop쎯	-11.1754
tffu쎯g쎯txi쎯gq쎯	-11.1755
zzbd3쎯fcu0쎯fm쎯	-11.1756
dcw쎯ann0쎯	-11.1758
uyh쎯qh쎯	-11.1758
nu쎯ntg쎯	-11.1758
ga쎯nae0쎯b쎯	-11.1759
dd쎯eyb쎯	-11.1761
jn쎯jyie쎯ab쎯	-11.1762
rm	-11.1763
dga쎯pwv쎯ga쎯v쎯	-11.1763
쎁쎀w쎯	-11.1764
wg쎯wsg0쎯km쎯a쎯	-11.1764
ipkh1쎯ybv0쎯	-11.1765
emc쎯ta쎯	-11.1767
kcg쎯	-11.1768
lq쎯ic쎯	-11.1768
gmww쎯wug0쎯	-11.1769
ftjo1쎯ybv0쎯	-11.177
jp쎯	-11.177
veg쎯vfi쎯	-11.1771
pp쎯.”	-11.1771
ii쎯iyc쎯	-11.1772
,mb쎯ght쎯xyna1쎯	-11.1772
.cep쎯ipkh1쎯	-11.1774
쎁쎀eee0쎯bm쎯tg쎯,	-11.1775
l쎯e쎯uqwm1쎯u쎯	-11.1777
xq쎯fjw쎯	-11.1778
쎁oy쎯	-11.1779
x쎯apk쎯saj0쎯aa쎯	-11.1779
itx쎯rdc쎯쎁,	-11.1779
jn쎯idr쎯tdp쎯sgn쎯	-11.178
tve쎯cw쎯	-11.1782
rhf0쎯mqb쎯	-11.1784
tdg1쎯,	-11.1785
uda쎯klj쎯	-11.1786
ipkh1쎯mqb쎯ugm쎯	-11.1787
wdn쎯hko쎯	-11.179
dga쎯rmhj쎯r쎯	-11.1791
kd쎯tfl쎯	-11.1791
awd쎯awyc0쎯	-11.1793
pv쎯tfl쎯	-11.1793
u쎯kkk쎯od쎯gajf0쎯	-11.1794
isk쎯sghg1쎯	-11.1797
qwd쎯	-11.1799
isk쎯egc쎯	-11.1799
bs쎯ru쎯	-11.18
yge쎯fiy쎯	-11.1803
yvh쎯mmm쎯	-11.1806
gm쎯e쎯bk쎯a쎯	-11.1807
쎁쎃쎆	-11.1809
jn쎯se쎯	-11.1812
쎁쎁eee0쎯tg쎯,	-11.1812
a쎯ycb쎯	-11.1813
uq쎯gx쎯	-11.1813
hx쎯uqw쎯	-11.1814
fft쎯	-11.1814
ah쎯hwb쎯	-11.1815
yygt쎯dd쎯et쎯yne쎯	-11.1816
a쎯wt쎯ijo쎯ya쎯	-11.1817
zzbd3쎯jb쎯	-11.1817
쎆.쎀	-11.1819
bm쎯uqwm1쎯	-11.1819
ul쎯o쎯	-11.182
xyna1쎯xkw쎯	-11.1823
ip쎯rb쎯》	-11.1824
uthp0쎯hw쎯	-11.1826
dqe쎯pg쎯o쎯	-11.1826
wht쎯gj쎯	-11.1829
dl쎯jf쎯	-11.1831
gr쎯ia쎯	-11.1831
qqqq1쎯ptkm1쎯	-11.1832
wys쎯mb쎯	-11.1833
fl쎯wf쎯gkl쎯wf쎯ta쎯	-11.1833
ym쎯kkk쎯rfm쎯r쎯	-11.1835
qie쎯tyg쎯	-11.1838
yd쎯pyk쎯	-11.1839
dm쎯tkw쎯쎇	-11.1839
b1쎯	-11.184
rae쎯h쎯	-11.1841
qve쎯skf쎯	-11.1841
trf0쎯aq쎯	-11.1843
.adk쎯	-11.1845
zzbd3쎯gef쎯	-11.1846
,wgkq0쎯adw쎯	-11.1846
nh쎯vi쎯b쎯	-11.1847
ijo쎯iugg0쎯	-11.1847
쎅wc쎯jfd쎯,	-11.1848
wfny0쎯udp쎯	-11.1849
odm쎯nyb쎯	-11.185
e쎯qc쎯qqqq1쎯ntk쎯	-11.1851
ul쎯rjg1쎯wtf쎯	-11.1851
.ul쎯d쎯	-11.1852
gef쎯qmgk1쎯	-11.1853
udyj쎯gqf쎯og쎯	-11.1853
ld쎯ugm쎯	-11.1853
sd	-11.1856
ifk0쎯uqv쎯	-11.1857
rxj쎯pg쎯r쎯	-11.1858
tfh쎯	-11.1858
ytfp0쎯bpf쎯	-11.1858
uf쎯gmww쎯	-11.1861
wbj쎯wtl쎯	-11.1863
k쎯r쎯yid쎯et쎯	-11.1863
isk쎯qfhw1쎯	-11.1865
bn쎯yi쎯	-11.1865
ytd쎯jghm1쎯	-11.1866
awx쎯pfqf쎯	-11.1867
:‘	-11.1867
ak쎯adw쎯wb쎯	-11.1867
whm쎯rpws쎯	-11.1867
fm쎯rcy1쎯	-11.1869
gcf쎯wynb0쎯d쎯	-11.1869
rgm쎯bj쎯	-11.187
rpv쎯qvfp1쎯	-11.1872
gk쎯tl쎯rn쎯	-11.1873
veg쎯veg쎯	-11.1873
zzbd3쎯yf쎯tha쎯sm쎯	-11.1874
ipwk0쎯gf쎯ii쎯	-11.1874
pgk쎯fghg쎯	-11.1874
ngj쎯jtg쎯	-11.1875
iit쎯icw쎯	-11.1875
쎄.쎈	-11.1876
,ukn쎯rmc쎯uqwm1쎯	-11.1879
”thgf1쎯	-11.1879
gm쎯wynb0쎯	-11.188
yx쎯ym쎯	-11.188
fm쎯umd1쎯	-11.1881
,쎁쎉쎈쎈rh쎯	-11.1882
,dty0쎯qk쎯	-11.1882
ynma쎯gu쎯	-11.1883
ks쎯	-11.1883
uq쎯cep쎯yy쎯wgj쎯	-11.1884
hu쎯	-11.1884
쎄.쎂	-11.1885
ii쎯idr쎯	-11.1886
,bc쎯	-11.1886
rfw쎯rf쎯	-11.1887
.gae쎯pww쎯	-11.1887
ian1쎯xyna1쎯	-11.1888
d쎯dr쎯	-11.1889
wyv쎯fhl쎯	-11.1892
쎁/쎄	-11.1892
waw쎯xw쎯	-11.1892
et쎯yne쎯rj쎯waw쎯	-11.1893
peg쎯iw쎯	-11.1895
wd쎯yf쎯	-11.1895
qk쎯suq쎯	-11.1897
lw쎯ip쎯gj쎯wynn3쎯	-11.1898
,kha쎯egc쎯fd쎯	-11.1899
yy쎯if쎯t쎯	-11.19
.zzts8쎯	-11.19
m쎯wfg0쎯	-11.19
쎂쎇쎀	-11.1901
tf쎯ght쎯aq쎯	-11.1901
tv쎯lw쎯wc쎯pgc쎯	-11.1903
uxt쎯bct쎯	-11.1905
bk쎯og쎯rfc쎯ce쎯	-11.1906
,쎁쎉쎉쎂rh쎯	-11.1906
fss쎯	-11.1907
쎁쎉쎇쎈	-11.1908
,ua쎯gn쎯	-11.191
ry쎯aet1쎯	-11.191
u쎯kkk쎯dga쎯v쎯	-11.1912
yww쎯ait쎯d쎯	-11.1913
ykhe쎯	-11.1913
zzdw5쎯,	-11.1913
k쎯xe쎯bk쎯tq쎯	-11.1914
fj쎯fghg쎯,	-11.1916
qejy쎯rajd쎯nua쎯	-11.1917
oe쎯otf쎯	-11.1923
qp쎯	-11.1923
aqo쎯awx쎯	-11.1925
yff쎯wys쎯	-11.1925
fgh쎯ag쎯rh쎯	-11.1926
adw쎯wb쎯trf0쎯hko쎯	-11.1926
쎅gu쎯yy쎯oy쎯	-11.1926
ow쎯dyw쎯	-11.1927
gh쎯yy쎯	-11.1929
lfn쎯ty쎯	-11.1929
sfhg쎯puhc쎯	-11.193
tk쎯adm쎯a쎯wt쎯	-11.193
kkkk1쎯mdfj쎯	-11.1932
whf0쎯og쎯wc쎯ngk쎯	-11.1936
wfny0쎯ltk쎯	-11.1937
lkmi0쎯syg쎯	-11.1938
vvv쎯fghg쎯	-11.1939
apo쎯iq쎯	-11.1939
,wk쎯ygh쎯	-11.1939
lwg쎯ty쎯if쎯	-11.1941
dy쎯dr쎯ymhj0쎯	-11.1943
qo	-11.1944
mmm쎯ii쎯gl쎯	-11.1953
j쎯an쎯lwj쎯h쎯	-11.1956
xyna1쎯thdi0쎯	-11.1956
wgkq0쎯w쎯	-11.1957
ey쎯adw쎯px쎯	-11.1958
et쎯yny0쎯	-11.196
wsg0쎯yce쎯qnp쎯	-11.196
yc쎯wv쎯tjh쎯et쎯	-11.1962
pg쎯tm쎯	-11.1962
sfk쎯	-11.1962
fg쎯rt쎯	-11.1963
g쎯g쎯	-11.1963
aqq쎯bj쎯	-11.1963
dmj1쎯yyy쎯,	-11.1964
y쎯ou쎯	-11.1965
ujn쎯yq쎯.	-11.1967
쎀쎀쎀qq쎯gu쎯yy쎯oy쎯	-11.1968
cel쎯nb쎯	-11.197
*쎂	-11.1973
wg쎯rh쎯	-11.1973
쎈gu쎯yy쎯wc쎯jfd쎯,	-11.1975
lu쎯ta쎯	-11.1975
rg쎯wa쎯	-11.1976
kq쎯ip쎯	-11.1977
tjh쎯tuk쎯	-11.1979
ty쎯wygg쎯	-11.1979
fny0쎯o쎯	-11.198
nc쎯tr쎯	-11.1981
pww쎯tkw쎯yx쎯	-11.1982
wv쎯ga쎯	-11.1982
쎃zzbd0쎯	-11.1985
wgk쎯if쎯sc쎯uwl쎯	-11.1985
wug0쎯gf쎯k쎯l쎯	-11.1987
iq쎯xg쎯	-11.1989
du쎯fnrt쎯	-11.1989
vf쎯fiy쎯	-11.1991
hhhh쎯vi쎯gh쎯	-11.1992
??	-11.1993
lpk0쎯ta쎯	-11.1993
yx쎯o쎯	-11.1996
ai쎯aq쎯	-11.1996
tffu쎯eb쎯tl쎯	-11.1998
i쎯ywx쎯	-11.1999
oo쎯ugh쎯	-11.1999
jjjj0쎯yn쎯	-11.1999
y쎯hid쎯	-11.2
uh쎯fhg1쎯d쎯	-11.2
ta쎯jf쎯uj쎯	-11.2
itd쎯tld1쎯	-11.2003
ipw쎯djb쎯r쎯	-11.2003
,ux쎯wycb쎯	-11.2004
uk쎯imkf1쎯nnh쎯	-11.2004
ym쎯usr쎯aq쎯	-11.2008
tvfh0쎯jgm쎯gk쎯tl쎯	-11.2009
gkih0쎯ifk0쎯	-11.201
qtdn1쎯dy쎯	-11.201
tgj쎯gajf0쎯	-11.2011
sfi쎯yn쎯	-11.2011
wc쎯ngk쎯ukn쎯x쎯gj쎯	-11.2012
um쎯w쎯	-11.2013
emc쎯sc쎯	-11.2015
.bm쎯th쎯	-11.2016
wgmy2쎯tl쎯	-11.2017
xa쎯shi쎯	-11.2017
tr쎯gj쎯txi쎯	-11.2017
gah쎯aqky1쎯	-11.2018
sghg1쎯rcy1쎯	-11.2018
lfhf쎯og쎯	-11.2019
wxf쎯mmm쎯	-11.2021
puhc쎯rpd1쎯	-11.2023
rvf쎯dgv쎯	-11.2025
xv쎯wx쎯yx쎯	-11.2026
r쎯vvv쎯qt쎯	-11.2026
fny0쎯ta쎯	-11.2028
rqa쎯rymn쎯	-11.2029
fcp쎯fcl쎯km쎯,	-11.2032
e쎯gmww쎯wh쎯	-11.2032
xq쎯fjw쎯zzbd10쎯	-11.2033
fcu1쎯bwt쎯	-11.2033
qlp쎯ruv쎯	-11.2033
쎃eee0쎯wtf쎯	-11.2035
tu쎯ftbt쎯	-11.2037
edjn쎯rmhj쎯	-11.2038
g쎯uj쎯	-11.2038
jc쎯qvn0쎯	-11.2039
nu쎯wwwk0쎯	-11.2039
wvq쎯	-11.2041
wtr쎯l쎯	-11.2042
bqt쎯fd쎯	-11.2043
imk쎯mdfj쎯	-11.2043
xef쎯nj쎯	-11.2043
mf쎯ght쎯uk쎯	-11.2046
xeg0쎯vfhp1쎯r쎯	-11.2046
gcf쎯wynb0쎯.	-11.2047
awv쎯uff쎯	-11.2049
sm쎯sq쎯nty0쎯af쎯	-11.2049
qqqq1쎯qg쎯	-11.2049
쎃.쎄	-11.205
쎉쎀rh쎯wa쎯	-11.205
mf쎯ght쎯nnk쎯	-11.2053
oge쎯iad쎯r쎯	-11.2054
eudi0쎯	-11.2054
lfn쎯fcl쎯	-11.2055
ym쎯wqa쎯	-11.2055
if쎯zzbd3쎯	-11.2055
e쎯wh쎯	-11.2056
kha쎯egc쎯fd쎯	-11.2056
r쎯pw쎯uj쎯	-11.2057
gg쎯dj쎯	-11.2057
mt쎯rh쎯go쎯	-11.2061
a쎯wt쎯tfq쎯fj쎯	-11.2061
mq쎯jy쎯qk쎯etg쎯aq쎯	-11.2061
f쎯ge쎯	-11.2062
쎆쎅쎀	-11.2062
w쎯fqu쎯dif쎯f쎯쎀.	-11.2062
dnv0쎯uu쎯yy쎯oy쎯	-11.2063
yygt쎯jn쎯	-11.2065
쎇쎀rh쎯wa쎯	-11.2066
udi0쎯v쎯	-11.2066
whf0쎯og쎯pp쎯g쎯	-11.2068
cbd쎯tlf0쎯	-11.2068
lkd쎯go쎯	-11.2069
ivs쎯qc쎯wsg0쎯	-11.2069
rb쎯py쎯	-11.2069
wdn쎯te쎯dn쎯js쎯	-11.207
yygy쎯w쎯	-11.2071
wbj쎯usr쎯r쎯	-11.2071
an쎯wa쎯	-11.2072
wfny0쎯ivs쎯ugm쎯	-11.2072
mfk쎯fjh0쎯	-11.2074
ym쎯rt쎯	-11.2074
qtj쎯uqwm1쎯	-11.2076
dhb쎯yt쎯	-11.2076
pyg쎯hnd쎯	-11.2076
tx쎯fgh쎯nm쎯	-11.208
xe쎯uqwm1쎯rfm쎯	-11.208
w쎯dd쎯wa쎯ge쎯	-11.2081
afqb1쎯ide쎯	-11.2082
me쎯rr쎯	-11.2083
yid쎯rytp1쎯	-11.2083
.쎁쎉쎇쎈rh쎯	-11.2083
euk쎯ait쎯	-11.2083
itf쎯ye쎯	-11.2083
pn쎯gcf쎯	-11.2084
whf0쎯og쎯t쎯	-11.2084
tfq쎯rg쎯rjg1쎯wtf쎯	-11.2086
,j쎯l쎯mw쎯	-11.2086
tffu쎯sh쎯ud쎯	-11.2088
ugdu쎯fl쎯	-11.2088
rn쎯tj쎯	-11.2088
um	-11.2088
t쎯yid쎯et쎯	-11.2089
dgj쎯tel쎯pww쎯jg쎯:	-11.2089
gk쎯og쎯r쎯	-11.209
sft쎯ou쎯:	-11.2092
qr쎯dyt쎯	-11.2092
pv쎯wg쎯ntg쎯	-11.2092
pp쎯hka쎯	-11.2093
uu쎯khu쎯gf쎯	-11.2094
jn쎯pww쎯	-11.2095
쎅쎀wtu쎯	-11.2097
wc쎯uu쎯	-11.2098
zzjp74쎯	-11.2098
bb쎯bi쎯	-11.2099
ipks쎯	-11.21
gl쎯nae0쎯	-11.2103
jb쎯qq쎯r쎯	-11.2104
tqvh쎯	-11.2104
rc쎯qnk쎯	-11.2106
bm쎯teg1쎯	-11.2106
ooo쎯qkm쎯	-11.2106
ww쎯og쎯w쎯km쎯	-11.2107
xe쎯c쎯h쎯	-11.2107
,ukn쎯w쎯kkkk1쎯	-11.2108
nyi2쎯fghy1쎯:쎁	-11.2108
쎆gu쎯yy쎯wc쎯jfd쎯,	-11.2108
xg쎯ntg쎯	-11.2109
쎁쎀쎇	-11.2109
begg쎯hh쎯	-11.2109
f쎯fnw쎯	-11.2111
ygh쎯rnd1쎯	-11.2115
gd쎯isk쎯	-11.2116
u쎯og쎯lfq쎯	-11.2117
eee0쎯wwv쎯	-11.2118
zzxx23쎯	-11.2118
쎁쎃쎄	-11.2119
raj쎯	-11.2119
쎂gu쎯yy쎯wc쎯jfd쎯,	-11.2122
tq쎯kgn쎯,	-11.2123
k쎯atd쎯ax쎯dd쎯ip쎯	-11.2125
tqv쎯hi쎯	-11.2125
tk쎯ith쎯	-11.2126
pe쎯sf쎯	-11.2126
yjse쎯	-11.2126
e쎯xg쎯jn쎯pym쎯	-11.2128
rj쎯wjjg쎯	-11.2128
fii쎯go쎯r쎯	-11.2131
gd쎯uyh쎯	-11.2134
iie쎯goi쎯	-11.2135
sgn쎯c쎯	-11.2135
thd쎯ipmq쎯	-11.2138
g쎯an쎯	-11.214
kht쎯tca쎯	-11.214
ss쎯ssss0쎯	-11.2141
bn쎯d쎯	-11.2142
fhl쎯sgc쎯	-11.2144
.wt쎯ftj쎯	-11.2147
eb쎯tl쎯wsg0쎯txi쎯	-11.2148
yb쎯ny쎯	-11.2149
tux쎯wwf쎯	-11.215
aig쎯thg1쎯	-11.215
mhny1쎯fpm쎯	-11.2153
쎅.쎆	-11.2154
tv쎯km쎯wf쎯tv쎯km쎯.	-11.2155
쎁쎉쎈쎀	-11.2155
nnh쎯yn쎯.	-11.2158
.iv쎯jf쎯	-11.2159
ui쎯kthh1쎯	-11.216
ny쎯em쎯	-11.2163
pt쎯yny0쎯ukn쎯ovt쎯	-11.2164
tjf0쎯ou쎯	-11.2166
pei쎯og쎯u쎯og쎯wx쎯	-11.2167
gf쎯쎂쎀쎀쎀rh쎯	-11.2167
g쎯su쎯r쎯	-11.2168
iu0쎯	-11.2168
tg쎯u쎯rfc쎯sy쎯	-11.2168
wbj쎯usr쎯zzbd3쎯	-11.2169
wc쎯ud쎯	-11.217
wk쎯pnt쎯	-11.2171
wamj쎯	-11.2171
쎇w쎯	-11.2173
at쎯ud쎯	-11.2173
tmg1쎯wbj쎯	-11.2173
ey쎯tk쎯tkh쎯	-11.2178
cep쎯lg쎯	-11.2179
o쎯py쎯wf쎯	-11.2179
wal쎯	-11.218
iw쎯fhn쎯	-11.218
.ld쎯hx쎯	-11.2181
r쎯g쎯adm쎯	-11.2181
bcv쎯	-11.2182
sfg쎯keq쎯	-11.2184
rvyr쎯	-11.2185
qh쎯qn쎯	-11.2186
qh쎯lwj쎯	-11.2187
aqn쎯thg1쎯	-11.2187
yssc0쎯sy쎯	-11.2187
sa쎯	-11.2188
yfj0쎯pwv쎯	-11.2189
ftbt쎯yce쎯fuk쎯yk쎯	-11.219
qqqq1쎯gkm쎯sm쎯sq쎯	-11.219
쎀yne쎯,	-11.2192
w쎯fqu쎯dif쎯f쎯쎁.	-11.2194
o쎯hhhh쎯sfi쎯	-11.2195
zzf	-11.2196
dd쎯ip쎯ftbt쎯rep쎯	-11.2196
ryn1쎯efw쎯	-11.2196
zzbd3쎯ou쎯isgg2쎯	-11.2198
rnb쎯kfi쎯	-11.2199
r쎯mq쎯st쎯	-11.22
nge쎯w쎯	-11.22
zzbd3쎯jn쎯lt쎯	-11.22
wt쎯“	-11.2201
fm쎯fje쎯ivw쎯	-11.2202
gmf쎯gm쎯	-11.2202
gf쎯쎂쎀쎀쎁rh쎯	-11.2202
sqj쎯	-11.2203
yqj쎯	-11.2204
gogn0쎯yssc0쎯	-11.2204
qnq쎯ii쎯	-11.2204
jl쎯	-11.2204
쎈gu쎯yy쎯oy쎯	-11.2205
jja쎯iq쎯	-11.2206
rt쎯rxj쎯	-11.2208
pi쎯	-11.221
rte쎯tfp쎯	-11.2211
je쎯ypm쎯	-11.2212
ta쎯tyna2쎯	-11.2213
:(	-11.2214
uth쎯wycm1쎯	-11.2215
vl쎯	-11.2215
.xx쎯kwgj0쎯	-11.2216
nt쎯qd쎯	-11.2223
쎂쎀wh쎯	-11.2225
c쎯dy쎯mqq쎯	-11.2227
tf쎯og쎯k쎯	-11.2231
k쎯jjjj0쎯	-11.2231
eq쎯uk쎯	-11.2231
uhc쎯	-11.2232
pe쎯k쎯	-11.2233
yo쎯rq쎯	-11.2233
zzts12쎯	-11.2234
쎆djfd쎯oy쎯	-11.2235
fggh쎯xg쎯	-11.2236
fpx쎯nx쎯	-11.2238
lkmi0쎯gae쎯,	-11.2238
jf쎯uj쎯mw쎯	-11.2239
atd쎯ip쎯fge쎯fghg쎯	-11.2239
fhwm1쎯	-11.2239
tg쎯ujn쎯	-11.224
y쎯ou쎯:	-11.2241
쎀~	-11.2242
yssc0쎯ulg쎯	-11.2243
쎀쎀oy쎯,rh쎯gu쎯fqu쎯	-11.2245
it쎯ss쎯	-11.2245
jyt0쎯	-11.2246
qyt쎯lkmi0쎯gae쎯	-11.2246
amd쎯trf0쎯qiu0쎯	-11.2246
쎀쎀쎀kgb쎯	-11.2247
dmj1쎯puhc쎯	-11.2247
쎉쎀쎀쎁	-11.2249
tkw쎯wv쎯	-11.225
wtf쎯wgkb0쎯	-11.225
eb쎯tl쎯gj쎯wynn3쎯	-11.2251
t쎯l쎯pe쎯	-11.2251
dd쎯k쎯gajf0쎯	-11.2252
yid쎯et쎯gu쎯ck쎯	-11.2252
jcf쎯pu쎯	-11.2252
ss쎯og쎯nnk쎯	-11.2253
akkn1쎯	-11.2255
sgn쎯ujf0쎯	-11.2257
p쎯xt쎯hhu0쎯	-11.2257
쎈쎆쎃	-11.2257
쎁쎀쎀쎀쎀	-11.2257
amy쎯	-11.226
wg쎯sf쎯aw쎯e쎯	-11.2261
rwyg0쎯gj쎯	-11.2261
p쎯yi쎯j쎯	-11.2265
.쎁쎉쎅쎆rh쎯	-11.2266
g쎯yid쎯whw쎯wg쎯	-11.2266
vk쎯ujn쎯	-11.2266
kr쎯gc쎯	-11.2266
nny1쎯tfn쎯	-11.2268
aps쎯iwyf1쎯tq쎯k	-11.2269
iyc쎯ire쎯	-11.227
qgu쎯dhq쎯	-11.227
sq쎯wrh1쎯	-11.227
tuj0쎯wgj쎯	-11.2271
uvh쎯mww쎯	-11.2272
dga쎯pwv쎯》zzbd3쎯《	-11.2273
lg쎯gajf0쎯	-11.2273
fgey쎯	-11.2274
dn쎯o쎯k쎯l쎯	-11.2276
-쎂-	-11.2276
igmh0쎯	-11.2278
[...]
