[UNK]	0
[PAD]	0
[CLS]	0
[SEP]	0
[MASK]	0
,	-3.51661
d쎯	-3.81873
.	-3.97862
、	-4.09224
mfj쎯	-5.09811
g쎯	-5.36245
u쎯	-5.41054
k쎯	-5.52487
j쎯	-5.60708
:	-5.62633
(	-5.73382
od쎯	-5.74042
az쎯	-5.77085
gdq쎯	-5.79048
gd쎯	-5.79416
mbds쎯	-5.86377
y쎯	-5.93948
;	-5.98905
)	-6.00019
a쎯	-6.00303
《	-6.04537
i쎯	-6.08539
wa쎯	-6.16691
ad쎯	-6.21079
gi쎯	-6.25077
zo쎯	-6.28042
“	-6.28042
yms쎯	-6.29146
kv쎯	-6.32396
sli쎯	-6.34921
ll쎯	-6.38945
쎁	-6.43398
”	-6.4482
x쎯	-6.45106
b쎯	-6.46888
l쎯	-6.4779
sjl쎯	-6.49958
r쎯	-6.50984
쎂	-6.52027
ho쎯	-6.52448
paj0쎯	-6.53847
j쎯jc쎯	-6.5442
um쎯	-6.55241
ya쎯	-6.55921
lczs쎯	-6.58109
wdgq0쎯	-6.61608
》	-6.61946
쎃	-6.6236
ko쎯	-6.65093
ch쎯	-6.65338
mamb쎯	-6.66454
cd쎯	-6.67436
sf쎯	-6.67559
rsj쎯	-6.67574
ai1쎯	-6.71911
gd쎯vdwy쎯	-6.72447
kd쎯	-6.7342
ob쎯	-6.73508
hj쎯	-6.73637
·	-6.73906
zizi쎯	-6.73951
gl쎯	-6.74396
agd쎯	-6.75208
wtxi쎯	-6.76248
p쎯	-6.76341
so쎯	-6.77466
-	-6.78603
hbkd쎯	-6.79714
oz쎯yaj1쎯	-6.80519
mc쎯	-6.8205
dex쎯fsv쎯	-6.82928
tird쎯	-6.83197
ldod쎯	-6.83422
sjy0쎯	-6.84062
h쎯	-6.84577
fav쎯	-6.85817
vdwy쎯	-6.86578
edl쎯	-6.90271
sug쎯jjj쎯	-6.90466
hdko쎯	-6.91411
fj쎯	-6.91736
hb쎯	-6.92013
ag쎯	-6.93047
쎄	-6.9338
oy쎯	-6.9408
e	-6.9413
odii쎯ku쎯	-6.94183
mw쎯ckb쎯	-6.94688
pe쎯	-6.95041
wz쎯	-6.95435
ga쎯	-6.95865
vb쎯	-6.97228
aij쎯	-6.97971
j	-6.98204
vm쎯	-6.99048
v	-6.99284
bd쎯	-6.99681
ec쎯	-6.99714
fds쎯	-7.00096
fq쎯	-7.01054
z쎯	-7.01657
jirj쎯	-7.01951
gj쎯	-7.02088
pa쎯	-7.02449
쎅	-7.02702
uaqk쎯	-7.02975
nr0쎯	-7.02981
qyx쎯rsym쎯	-7.03198
gdq쎯yxo쎯oz쎯yaj1쎯	-7.03713
bmm쎯szq쎯	-7.03963
en쎯	-7.04331
gae쎯woqy쎯	-7.04508
/	-7.05068
kia쎯	-7.06088
kb쎯	-7.06422
bdzs1쎯ku쎯	-7.06581
ri쎯	-7.07507
nfa쎯	-7.08752
bdkv쎯	-7.08853
jc쎯wdgq0쎯	-7.09139
bi쎯nmi쎯	-7.09944
oi쎯	-7.11211
ym쎯	-7.11857
jc쎯	-7.12396
ka쎯	-7.12845
zhm쎯	-7.13452
vdwy쎯ywb쎯	-7.14529
bm쎯	-7.1493
쎆	-7.15137
ca쎯	-7.1529
nmb쎯	-7.16329
uae쎯	-7.16703
kg쎯	-7.17618
bhv쎯	-7.18533
al쎯	-7.18818
oda쎯	-7.18978
uanw쎯	-7.19354
lk쎯	-7.1949
f	-7.19521
au쎯	-7.19858
nl쎯	-7.19982
odod쎯	-7.20293
쎈	-7.21173
yi쎯	-7.21278
wdz쎯	-7.21336
tl쎯	-7.21682
kq쎯	-7.21695
z쎯xe쎯	-7.22219
edjr2쎯	-7.22707
쎁쎀	-7.22731
쎇	-7.22749
vdwy쎯fs쎯	-7.2295
mfte쎯	-7.2353
bix쎯	-7.24738
uf쎯	-7.24753
tdgd쎯	-7.24943
zzm쎯	-7.24963
n쎯	-7.25825
oel쎯	-7.25983
vcq쎯	-7.2619
d	-7.26516
nk쎯	-7.27157
tirr쎯	-7.27429
qdos쎯	-7.28032
so쎯nr0쎯	-7.28073
a쎯o쎯	-7.28436
ffv쎯	-7.28808
sy쎯	-7.29153
zq쎯	-7.29282
bi쎯mfjc쎯	-7.2936
bmy쎯	-7.29385
nsu쎯ad쎯	-7.29415
hbi쎯	-7.29602
rko쎯	-7.29704
aeb쎯	-7.29925
xyis쎯	-7.30321
vbi쎯	-7.31035
mzv쎯zs쎯	-7.31364
idju쎯	-7.31484
gm쎯	-7.31771
ja쎯	-7.32006
sq쎯sed쎯	-7.32203
q쎯	-7.32375
bi쎯	-7.32402
xa쎯	-7.32424
쎉	-7.33223
my쎯	-7.33635
zx쎯vsnd쎯	-7.33655
va쎯	-7.33849
jc쎯ybk쎯	-7.34475
o쎯	-7.34539
ae쎯	-7.34866
wh쎯	-7.35547
z	-7.35642
dsw쎯	-7.35684
nmi쎯	-7.36098
ucl쎯	-7.36496
oc쎯	-7.36912
mbbd쎯	-7.37125
ucgd쎯	-7.37154
kcx쎯	-7.3726
mfte쎯dex쎯	-7.37666
,k쎯	-7.37712
wxl쎯	-7.37766
vdnd쎯	-7.38095
mekb쎯	-7.38343
ay쎯	-7.38714
nre쎯	-7.38901
rid쎯	-7.39376
he쎯	-7.39851
u	-7.39869
vki쎯	-7.40102
ld쎯	-7.40105
()	-7.40257
bdrd쎯	-7.40818
nlj쎯	-7.40845
j쎯wz쎯	-7.40917
md쎯	-7.41086
mzv쎯	-7.41812
kal쎯	-7.41929
fl쎯	-7.42271
xbby쎯sq쎯	-7.42546
t쎯	-7.42704
xmyj쎯	-7.42749
ecp쎯	-7.43021
eako쎯	-7.43159
mc쎯sug쎯	-7.43213
nif쎯	-7.43787
aii쎯	-7.44029
oz쎯	-7.44181
mblk쎯	-7.44515
zx쎯	-7.44526
》、《	-7.44617
o	-7.44801
kz쎯	-7.45301
jjg쎯	-7.45865
p	-7.45948
dq쎯	-7.46846
ta쎯	-7.47253
kak쎯	-7.47256
wd쎯	-7.47703
bdnw쎯oi쎯	-7.47879
e쎯	-7.47914
nsu쎯	-7.4815
ggnk쎯	-7.48337
oc쎯jc쎯	-7.48694
rj쎯	-7.4881
nx쎯	-7.49043
edj쎯	-7.49335
ldo쎯	-7.49418
f쎯	-7.49421
zj쎯	-7.49519
od쎯,	-7.49548
boy쎯	-7.49649
yj쎯	-7.50047
m쎯	-7.50094
zsj쎯	-7.50112
zmya쎯	-7.50424
oiad쎯	-7.50731
km쎯	-7.51018
zym쎯	-7.5117
,uae쎯	-7.51256
udjw쎯	-7.51854
xb쎯	-7.51899
,g쎯	-7.519
쎁쎉	-7.51971
jaz쎯	-7.52093
zb쎯	-7.5283
sj쎯	-7.52929
gdw쎯	-7.53004
sc쎯	-7.53854
g	-7.54122
m	-7.54425
"	-7.5517
dsu쎯	-7.55405
ryi쎯	-7.55672
bg쎯la쎯	-7.56599
tirr쎯sjk쎯	-7.57505
oaj쎯	-7.57658
wsb쎯ob쎯	-7.58009
zm쎯	-7.58791
mfte쎯vdwy쎯	-7.58967
dk쎯neo쎯	-7.59014
jed쎯	-7.59399
),	-7.59644
mfji쎯	-7.60006
yc쎯	-7.60598
쎂쎀	-7.60734
r	-7.60961
vs쎯	-7.6123
bzs쎯	-7.61316
su쎯	-7.61529
zl쎯zjo쎯	-7.61589
ecq1쎯	-7.61592
yji쎯	-7.61681
xsxs쎯	-7.6176
zrs쎯	-7.61927
ufzm쎯	-7.61948
sq쎯rki쎯	-7.62164
xbby쎯mbq쎯	-7.62591
쎁쎂	-7.62657
yya쎯	-7.62797
lco쎯gdq쎯	-7.63053
ufgd쎯	-7.6313
mfkd쎯	-7.63214
myz쎯a쎯	-7.63384
bmrr쎯	-7.63485
eyd쎯fsv쎯	-7.63549
s쎯	-7.64032
cgi쎯bskr쎯	-7.64311
yh쎯	-7.64371
iai쎯	-7.64434
i	-7.64444
mw쎯	-7.64959
yk쎯	-7.65137
ku쎯	-7.65406
mbro쎯	-7.65478
bmm쎯vdwy쎯	-7.65812
ajx쎯	-7.65867
e쎯kion쎯	-7.65951
.”	-7.66079
aij쎯zo쎯	-7.66091
b	-7.6771
byo쎯	-7.68127
rr쎯	-7.68204
ew쎯	-7.68524
sc쎯f쎯	-7.69
xs쎯	-7.69113
b쎯ho쎯	-7.69132
q	-7.69157
pdw쎯	-7.69205
sul쎯	-7.69225
tk쎯	-7.69443
aku쎯	-7.69692
ldo쎯zrj쎯	-7.69906
sli쎯byo쎯	-7.70032
tdro쎯	-7.70082
sij쎯	-7.70223
drk1쎯	-7.70464
n	-7.7058
bmm쎯	-7.70619
uo쎯	-7.70908
pdel쎯kak쎯	-7.70918
ns쎯nlwz쎯	-7.70933
ae쎯z쎯	-7.70974
jdrt쎯	-7.71167
nc쎯	-7.71632
wdya쎯	-7.71674
bdzy쎯	-7.71738
,zo쎯	-7.7181
ak쎯	-7.71906
kmc쎯	-7.72092
mfk쎯	-7.72154
wxl쎯dsw쎯	-7.72271
zo쎯yms쎯	-7.72429
木	-7.72482
na쎯l쎯	-7.72618
l	-7.72804
xbby쎯	-7.72843
wsk쎯	-7.7326
pdel쎯	-7.73687
s	-7.73756
sbx쎯	-7.73881
ywb쎯	-7.73969
t	-7.74267
rf쎯	-7.75057
na쎯	-7.7553
xi쎯	-7.75841
ajk쎯	-7.76971
xmi쎯	-7.77382
jjj쎯	-7.77892
ucq쎯	-7.78167
biym쎯zq쎯	-7.78222
y	-7.78327
쎁쎅	-7.78419
an쎯	-7.7849
skx쎯	-7.78582
bdnw쎯	-7.78802
vwo쎯	-7.78906
nif쎯jddm쎯	-7.79131
fya쎯	-7.79155
lr쎯	-7.7928
쎃쎀	-7.79693
akz쎯	-7.79931
sm쎯	-7.80281
udke쎯	-7.80436
aep쎯	-7.80534
gg쎯	-7.80563
iirr쎯	-7.8067
pvgx쎯	-7.8079
udke쎯nsu쎯	-7.80841
eqg쎯	-7.80965
lkrs쎯	-7.81487
giw쎯	-7.81544
nb쎯	-7.81594
lbj쎯	-7.82395
ey쎯	-7.8263
ciq쎯	-7.82666
k	-7.82848
쎅쎀	-7.83009
nmi쎯jjj쎯	-7.83194
ss쎯	-7.83439
x	-7.83615
aed쎯	-7.83668
fpx쎯	-7.83763
ucgd쎯jc쎯	-7.83888
vdwy쎯mc쎯	-7.84063
sl쎯	-7.84173
fs쎯	-7.84322
pvwx쎯	-7.84341
skw쎯	-7.84428
sv쎯	-7.84659
kk쎯	-7.84672
oa쎯	-7.84761
wm쎯	-7.85412
nh쎯	-7.8572
uanl쎯	-7.8581
wdtg쎯	-7.86376
i쎯vm쎯	-7.86774
ahi쎯	-7.87159
rhko쎯	-7.87187
mfz쎯jl쎯ob쎯	-7.87355
bdzs0쎯	-7.87374
fb쎯tdni쎯	-7.87513
ezr쎯	-7.882
wdy쎯	-7.88265
tgva쎯l쎯	-7.88273
dy쎯	-7.88299
kc쎯	-7.88331
jd쎯	-7.88334
c	-7.8839
wym쎯	-7.88525
od쎯.	-7.88888
jdj쎯	-7.88939
mfrk0쎯	-7.89136
”.	-7.89149
ba쎯	-7.893
bhv쎯sli쎯	-7.89412
fr쎯	-7.8954
vx쎯	-7.89748
쎁쎁	-7.89821
ecb쎯	-7.9067
ki쎯	-7.90674
ckb쎯	-7.90717
gdli쎯	-7.90866
zoa쎯	-7.91172
bi쎯ku쎯	-7.91186
hbz쎯	-7.91335
jddm쎯	-7.91569
ubyy쎯	-7.91578
vg쎯	-7.91726
soo쎯	-7.92163
dsz쎯	-7.92401
odod쎯ajx쎯	-7.92501
sov쎯	-7.92725
vdwy쎯yt쎯	-7.92879
ra쎯	-7.92994
jbr쎯	-7.93119
》:“	-7.93222
zl쎯	-7.93229
wtyd쎯	-7.93715
bmm쎯kal쎯	-7.93783
eked쎯	-7.93989
bxm쎯	-7.94056
jos쎯	-7.94189
xe쎯	-7.94348
jl쎯	-7.94876
mc쎯vmi쎯	-7.95011
fuz쎯	-7.95217
tgs1쎯	-7.95433
vzj1쎯	-7.9564
mlka쎯	-7.9574
koxb쎯	-7.95784
gds1쎯	-7.95813
쎁쎆	-7.95961
ys쎯	-7.96053
baa쎯	-7.96148
ub쎯	-7.96296
ne쎯	-7.96613
hd쎯	-7.96966
idjh쎯	-7.96993
kojl0쎯	-7.97027
oiqm쎯	-7.9726
w	-7.97308
nr1쎯	-7.9761
vmi쎯bdzy쎯	-7.97662
jjj쎯nne쎯	-7.97798
sbd쎯	-7.97919
xoy쎯	-7.9803
fmg쎯	-7.98057
qy쎯	-7.98068
vejq쎯	-7.98236
cexs쎯	-7.98267
ske쎯	-7.98692
lco쎯	-7.99292
dld쎯gdq쎯	-7.99426
wr쎯	-7.99477
ngr쎯mfym쎯	-7.99899
suk쎯rhko쎯	-8.00285
mbrd쎯	-8.00579
edx쎯db쎯	-8.0104
mbrw쎯	-8.01077
fy쎯	-8.01212
wms쎯	-8.01256
haw쎯	-8.01392
ka쎯fav쎯	-8.01507
kf쎯	-8.01607
ns쎯	-8.0165
rj쎯mfji쎯	-8.01713
mh쎯	-8.01784
zgp쎯yj쎯	-8.01836
wcs쎯	-8.01922
tgrs쎯	-8.01955
xej쎯	-8.02247
eqg쎯oiad쎯	-8.02315
eao쎯	-8.02335
ry쎯	-8.02503
tb쎯	-8.02621
!	-8.02652
lb쎯	-8.02669
oi쎯ku쎯	-8.02753
sos쎯	-8.02787
fdm쎯ufte쎯	-8.02967
da쎯	-8.03224
yia쎯	-8.03643
bdrw쎯	-8.03668
hma1쎯ywb쎯	-8.03794
ufc쎯	-8.03819
wdz쎯oc쎯	-8.03975
hew쎯	-8.03981
rl쎯	-8.0402
zbj쎯frz쎯	-8.04245
vao쎯	-8.04352
.g쎯	-8.04356
udlk쎯	-8.04366
rre쎯ku쎯ad쎯	-8.04554
suk쎯	-8.04912
rly쎯	-8.05406
yhk쎯	-8.05423
dqx쎯tdrl1쎯	-8.05478
ski1쎯	-8.05539
edlo쎯	-8.05791
me쎯	-8.05835
mdl쎯	-8.0604
bo쎯	-8.06686
vsm쎯xhm쎯	-8.07013
sow쎯	-8.07028
h쎯u쎯	-8.07155
ae쎯zmzj쎯	-8.07164
cs쎯	-8.07181
epf쎯	-8.07293
yaj0쎯	-8.07464
nir쎯	-8.07491
ox쎯	-8.07543
yod쎯	-8.07585
쎁쎃	-8.07586
tirg쎯	-8.07695
tgva쎯	-8.07984
vxi쎯	-8.08133
nmi쎯u쎯	-8.08238
sug쎯	-8.08275
tg쎯	-8.0847
j쎯vdwy쎯	-8.08907
vfd쎯	-8.09066
nrs쎯	-8.0911
sor쎯	-8.09251
—	-8.09293
co쎯	-8.09413
ceug쎯	-8.09741
fq쎯frz쎯	-8.09819
mbrd쎯bdnw쎯	-8.1048
gj쎯mfjo쎯	-8.10595
uabd쎯	-8.10719
cdv쎯	-8.10809
wai쎯	-8.10837
,u쎯	-8.10878
c쎯	-8.10881
uag쎯	-8.11101
wdhb쎯	-8.11182
smr쎯vsm쎯	-8.11409
j쎯d쎯	-8.11412
sjy0쎯oy쎯	-8.11428
쎁쎈	-8.12028
ldoo쎯	-8.12051
kd쎯tk쎯	-8.12057
fxd쎯	-8.12088
edlc쎯	-8.12407
cirh쎯	-8.1246
vkm쎯	-8.12751
sy쎯vb쎯	-8.1291
쎄쎀	-8.13269
yom쎯	-8.13552
bil쎯	-8.1369
lok쎯	-8.14009
zx쎯ewj쎯	-8.14023
aim쎯tgnd쎯	-8.14031
kz쎯ya쎯	-8.14094
mzv쎯ark쎯	-8.14309
wbi쎯	-8.1456
～	-8.1456
dsq쎯	-8.14577
njf쎯	-8.1462
c쎯nh쎯	-8.15285
——	-8.15356
dyx쎯	-8.15505
bwz쎯	-8.15563
zbj쎯	-8.16273
zwb쎯oaj쎯	-8.16284
cuc쎯	-8.16659
la쎯	-8.16668
plk쎯	-8.1679
wsb쎯ho쎯	-8.16917
ev쎯	-8.17239
odmf쎯	-8.17348
쎆쎀	-8.17577
”d쎯	-8.17662
edy쎯ob쎯	-8.17774
kom쎯	-8.17832
edfd쎯	-8.17862
zza쎯	-8.18039
kion쎯	-8.18092
pkq쎯nij쎯	-8.18136
ufte쎯	-8.18585
ckb쎯sor쎯	-8.18797
slg쎯	-8.18903
so쎯vdwy쎯	-8.19115
boyj쎯	-8.19142
쎁쎄	-8.1917
fx쎯	-8.19247
ggym쎯jos쎯	-8.19647
owy쎯	-8.19721
heoo쎯	-8.19878
hdyd쎯	-8.19992
skd쎯	-8.20014
ku쎯rsym쎯	-8.20085
dwb쎯mblk쎯	-8.20155
jb쎯	-8.20231
lw쎯	-8.20271
brt쎯	-8.20273
nl쎯rgs쎯	-8.20327
ufoy쎯	-8.20677
tgxj쎯	-8.20698
beaj쎯	-8.20727
snk쎯	-8.20805
ed쎯	-8.20979
hero쎯nm쎯	-8.21047
vkl쎯	-8.21295
pdao쎯	-8.21325
wr쎯ku쎯	-8.21479
nd쎯	-8.21647
zk쎯	-8.21738
).	-8.21747
nak쎯	-8.21921
af쎯	-8.22265
oixo쎯	-8.22771
np쎯	-8.22889
vfd쎯tgij쎯	-8.23194
bdzs1쎯wdgq0쎯	-8.23303
oy쎯fpd1쎯	-8.23335
myz쎯bd쎯	-8.23409
pdxs쎯	-8.23414
쎁쎇	-8.23432
obb쎯	-8.23775
maj쎯	-8.23965
wbk쎯	-8.24044
fq쎯fhe쎯	-8.24113
wdel쎯	-8.24243
pm쎯	-8.24257
sa쎯	-8.24279
ji쎯	-8.24369
hl쎯	-8.24381
sj쎯k쎯	-8.24427
gaj쎯	-8.24454
jk쎯	-8.24491
vzj1쎯ty쎯	-8.24499
gbs쎯	-8.24536
fdor쎯	-8.24594
gi쎯ld쎯	-8.2504
nrj1쎯	-8.2509
cgi쎯	-8.25135
odyk쎯sf쎯	-8.25137
sug쎯ku쎯	-8.25151
ks쎯	-8.2517
vp쎯	-8.25201
,nka쎯	-8.25344
vsm쎯	-8.25482
mekb쎯idju쎯	-8.25606
yybe쎯	-8.25678
sya쎯	-8.26002
paj0쎯,	-8.26012
foz쎯	-8.26166
bsj쎯snd쎯	-8.26227
bdzw쎯	-8.26228
bdzs1쎯	-8.26259
tdrl1쎯vg쎯	-8.26382
쎁쎀쎀	-8.26454
kojr쎯	-8.26475
zw쎯	-8.26604
zimo쎯	-8.26915
tgij쎯	-8.27012
v쎯gdq쎯	-8.27025
mblk쎯nmi쎯	-8.27043
wsa쎯	-8.27238
pvf쎯l쎯	-8.2729
kdmk쎯	-8.27342
ark쎯	-8.27368
”,	-8.27426
tgb쎯	-8.27528
mbds쎯.	-8.27529
waz쎯	-8.27691
rh쎯	-8.27699
maa쎯	-8.27723
lx쎯	-8.27744
dkc쎯	-8.27951
sk쎯	-8.27981
kro쎯	-8.28465
l쎯wm쎯	-8.28527
jc쎯ldod쎯	-8.28724
xl쎯	-8.28947
bdol쎯hkd쎯	-8.29158
dm쎯	-8.2984
makr쎯	-8.29963
zq쎯ym쎯	-8.30079
mwl쎯	-8.30103
oaj쎯nmi쎯	-8.30192
xmrr0쎯	-8.30326
sol쎯	-8.3033
zlo쎯	-8.30506
쎂쎅	-8.30614
yj쎯bi쎯	-8.30684
alb쎯	-8.30801
”、“	-8.30968
sjl쎯zym쎯	-8.3098
elgd쎯	-8.31058
fxo쎯	-8.31112
gai쎯	-8.31862
kojb쎯	-8.31864
,ec쎯j쎯	-8.31876
smm쎯	-8.32059
,gdq쎯	-8.32159
bb쎯	-8.32211
쎇q쎯	-8.32321
zizi쎯np쎯	-8.32333
ncq0쎯	-8.32434
wdrr쎯	-8.32492
ar쎯	-8.32799
bds쎯	-8.329
쎀	-8.32905
eof쎯	-8.33442
ec쎯n쎯	-8.33567
bu쎯	-8.33846
mblk쎯mbjw쎯	-8.33847
wlr쎯	-8.33907
,ec쎯	-8.33918
bdko쎯	-8.34029
fel쎯mbro쎯	-8.34212
ry쎯dmi쎯	-8.34327
saii쎯	-8.34426
rlo쎯cilo쎯	-8.34642
nh쎯cirh쎯	-8.34657
쎈쎀	-8.34773
si쎯	-8.34893
wsb쎯	-8.35054
tgob1쎯	-8.35079
kiym쎯	-8.35268
aks쎯	-8.35516
ydat쎯	-8.35565
ph쎯	-8.35624
ebm쎯rsj쎯	-8.35645
llrs쎯	-8.35664
mfz쎯	-8.35743
njf쎯dwm쎯	-8.3575
rll쎯	-8.35815
qd쎯	-8.35892
wdml쎯	-8.36018
edeq쎯	-8.36203
uaxk쎯	-8.36477
bg쎯	-8.36546
ehz쎯	-8.36617
ciz쎯	-8.36823
ucnd쎯	-8.36917
soo쎯wxl쎯	-8.36944
nl쎯yy쎯	-8.36978
kib쎯	-8.3715
jo쎯	-8.37328
jdjl쎯	-8.37343
xsb쎯	-8.37426
yb쎯	-8.37505
nm쎯	-8.37825
nyn쎯	-8.37861
j쎯ldgd쎯	-8.37891
ygqw쎯	-8.38183
fg쎯f쎯	-8.3871
mb쎯	-8.3888
od쎯jl쎯	-8.38924
od쎯ja쎯	-8.38962
ecb쎯fav쎯	-8.39317
fxo쎯dx쎯	-8.39367
ymo1쎯	-8.39453
xn쎯	-8.39548
zmyi쎯	-8.39747
drk1쎯yybd쎯	-8.39766
od쎯yh쎯	-8.39834
h쎯su쎯ad쎯	-8.39881
fdyy쎯	-8.40043
bdzw쎯bdzy쎯	-8.40078
vmy쎯he쎯	-8.40152
gc쎯	-8.40274
llg쎯	-8.40306
mfkd쎯l쎯	-8.40519
od쎯dm쎯	-8.40574
ymo0쎯	-8.40586
xju쎯	-8.4066
aim쎯	-8.40704
fekg쎯hbi쎯	-8.40841
ldod쎯woj쎯	-8.4143
mc쎯,	-8.41459
fb쎯	-8.41485
cejo쎯	-8.4151
ewj쎯	-8.41524
vyo쎯	-8.41635
쎈q쎯	-8.41667
smi쎯	-8.41748
ko쎯vdwy쎯	-8.418
h	-8.4184
zni쎯	-8.41928
rgs쎯	-8.41942
wdrj쎯wm쎯	-8.42046
biym쎯	-8.42177
쎁쎂q쎯	-8.42192
mmh쎯	-8.42581
mfk쎯ve쎯	-8.42767
aijr쎯	-8.42949
qyx쎯	-8.43115
ec쎯j쎯	-8.43143
uakk쎯	-8.43176
dw쎯	-8.43271
syy1쎯	-8.4328
h쎯su쎯	-8.43334
z쎯cirh쎯	-8.43681
ci쎯	-8.44079
fyo쎯	-8.44213
?	-8.44344
ckv쎯	-8.44373
ehe쎯	-8.44405
쎉q쎯	-8.44455
.oz쎯yaj1쎯	-8.44493
odsx쎯	-8.4474
sq쎯	-8.4477
mazy쎯	-8.44779
bdod쎯	-8.44789
m쎯nt쎯	-8.44804
llrc쎯	-8.44812
jag쎯	-8.44944
nr0쎯vdwy쎯	-8.45013
kd쎯,	-8.45287
sow쎯o쎯	-8.45398
ll쎯hdko쎯	-8.45444
wdjj쎯	-8.45484
tj쎯kag쎯	-8.45497
pl쎯	-8.45578
rid쎯ckb쎯	-8.45858
waj쎯	-8.45952
쎁쎀q쎯	-8.46054
kal쎯evyy쎯	-8.46692
ke쎯	-8.46841
pxo쎯	-8.47115
zgp쎯	-8.47147
hma1쎯vdwy쎯	-8.47199
yav쎯mc쎯	-8.47224
gdiy쎯	-8.47476
odwg쎯yybd쎯	-8.47693
sjk쎯	-8.48007
vpz쎯	-8.4802
.《	-8.48427
wdrj쎯	-8.48512
z쎯mc쎯	-8.48678
ago쎯	-8.48719
nxby쎯tgxk쎯	-8.48761
sul쎯ku쎯	-8.48789
sy쎯hbi쎯	-8.48888
le쎯	-8.4911
edx쎯	-8.49133
wdf쎯	-8.49274
ox쎯jjj쎯	-8.49294
sy쎯gj쎯	-8.49362
ux쎯	-8.49376
쎂쎀쎀	-8.49505
a쎯pq쎯	-8.49605
yybd쎯	-8.49867
zso쎯	-8.4989
aim쎯vzj1쎯	-8.49896
ray쎯	-8.49926
snr쎯	-8.5012
k쎯drk1쎯	-8.50626
mc쎯mbro쎯	-8.50693
nmy쎯	-8.50862
wdlc쎯	-8.50922
dk쎯	-8.50931
qm쎯	-8.51188
a쎯mfji쎯	-8.51404
sok쎯	-8.51417
wi쎯	-8.5151
kz쎯kskp쎯	-8.51518
um쎯zq쎯	-8.51558
xrz쎯	-8.51824
+	-8.5194
xbuo쎯	-8.52009
hexb쎯	-8.52078
zo쎯i쎯	-8.52083
yzi쎯	-8.52157
hma1쎯	-8.52207
gi쎯ufzp쎯	-8.52229
mfte쎯gae쎯	-8.52251
oc쎯gj쎯	-8.52388
cexg0쎯	-8.52508
wa쎯a쎯	-8.52529
bxgd쎯	-8.52645
xek쎯	-8.52754
tgnd쎯	-8.52756
ooj쎯	-8.53041
fk쎯	-8.53054
kr쎯	-8.53056
ldo쎯sij쎯	-8.53101
dka쎯nmb쎯	-8.53386
suf쎯	-8.53501
ruc쎯	-8.53511
eyo쎯	-8.53605
cejo쎯ku쎯	-8.53648
ufxj쎯	-8.53779
zy쎯	-8.53786
l쎯ad쎯	-8.53787
odyk쎯	-8.53925
tgh쎯	-8.53941
rkv쎯	-8.5398
ld쎯kd쎯	-8.54002
od쎯yh쎯aim쎯tgnd쎯	-8.54003
gd쎯aeb쎯	-8.54051
gdq쎯uag쎯	-8.54349
dsz쎯ja쎯	-8.54359
maj쎯sjo쎯	-8.54442
nbd쎯	-8.54473
jhx쎯	-8.5448
yaz쎯	-8.54551
ufgd쎯aeb쎯	-8.54669
au쎯sy쎯oz쎯kb쎯	-8.54759
ko쎯s쎯	-8.54856
osf쎯	-8.54927
od쎯mbro쎯	-8.55189
dk쎯sjl쎯	-8.55219
fki쎯	-8.55404
ufzm쎯dx쎯	-8.55575
bmm쎯dpw1쎯	-8.55664
zxk쎯	-8.55831
nne쎯	-8.55989
zrh쎯	-8.55999
odyk쎯nmi쎯	-8.56201
yq쎯	-8.56342
nkkv쎯	-8.56402
mbod쎯	-8.56456
setg쎯	-8.56586
xbby쎯su쎯	-8.56868
kiw쎯	-8.569
tdow쎯	-8.5691
mbjw쎯	-8.56913
nel쎯	-8.56968
tgxk쎯	-8.57237
fu쎯	-8.57242
all쎯	-8.57375
bjv쎯	-8.57515
uoai쎯	-8.57523
kag쎯	-8.57542
flw쎯	-8.57547
nmi쎯l쎯	-8.57604
anr쎯	-8.57677
:“	-8.57732
xki쎯	-8.57847
mami쎯	-8.57928
xmst쎯	-8.57972
ik쎯	-8.58177
aju쎯	-8.58239
vld쎯	-8.5829
cizy쎯	-8.58335
wdtg쎯symy쎯	-8.58499
zsj쎯vsyz쎯	-8.58562
nb쎯zs쎯	-8.58563
jal쎯	-8.58678
sed쎯mle쎯fq쎯	-8.58697
jjj쎯mfji쎯	-8.5892
ii쎯	-8.59078
eaqm쎯	-8.59216
sor쎯so쎯	-8.59238
nfa쎯szq쎯	-8.59331
pfp쎯	-8.59341
wb쎯h쎯	-8.59387
wa쎯a쎯.	-8.5943
쎃q쎯	-8.59456
yav쎯	-8.59542
hini쎯	-8.59556
dmh쎯	-8.59777
kiw쎯flw쎯	-8.5996
kdxb0쎯	-8.59976
a	-8.60134
zizi쎯mc쎯	-8.60236
ve쎯	-8.6033
sed쎯hkd쎯	-8.60376
myz쎯cd쎯	-8.60385
kv쎯au쎯	-8.60391
rsym쎯	-8.60416
tgg쎯	-8.60421
mev쎯	-8.60433
non쎯	-8.6051
ngr쎯	-8.6055
ggo쎯baa쎯	-8.60565
shqc쎯	-8.60605
au쎯sy쎯uf쎯	-8.60715
vdwy쎯fsv쎯	-8.60758
fmzy쎯	-8.60882
rd쎯	-8.60895
uagw0쎯	-8.61057
vea쎯	-8.61109
mfjc쎯	-8.6116
,gl쎯	-8.61234
qi쎯	-8.61306
hbmo쎯	-8.61434
ggkb쎯uf쎯	-8.61469
ndgo쎯	-8.61541
oisc쎯	-8.61574
wdd쎯	-8.6159
bi쎯eyd쎯	-8.61594
z쎯c쎯	-8.61648
kcx쎯gd쎯	-8.61903
f쎯aks쎯	-8.61944
ejmf쎯	-8.61979
쎂쎄	-8.62004
gae쎯z쎯	-8.62081
mc쎯ad쎯	-8.62172
gdw쎯hbkd쎯	-8.62338
sn쎯	-8.62366
vdwy쎯ob쎯	-8.6237
uo	-8.62474
nlug쎯	-8.62666
j쎯,	-8.62807
k쎯a쎯o쎯	-8.62811
kkv쎯	-8.62822
qe쎯	-8.62826
fsz쎯	-8.62955
o쎯od쎯	-8.63062
wsl쎯	-8.63068
mbbd쎯ryi쎯	-8.63115
fjw쎯	-8.63273
neo쎯	-8.63356
k쎯kia쎯	-8.63383
non쎯nel쎯	-8.63623
zbj쎯oaj쎯	-8.63677
bdzy쎯mbro쎯	-8.637
ucu쎯	-8.63735
shb쎯	-8.638
ecb쎯gzz쎯	-8.63878
ucgd쎯fsv쎯	-8.6399
fv쎯	-8.64058
gtg쎯	-8.64073
ciq쎯mamb쎯	-8.64087
odwg쎯bhj쎯	-8.64102
rj쎯ufgd쎯	-8.64132
tirq쎯	-8.64142
ymo0쎯oz쎯wdhb쎯	-8.64191
fl쎯uag쎯	-8.64197
yya쎯zx쎯	-8.64459
baz쎯	-8.64515
yh쎯smm쎯	-8.64588
taii쎯	-8.64707
rza쎯	-8.6476
qsoo쎯	-8.64769
쎆q쎯	-8.64878
xbkv1쎯	-8.6495
edjm쎯	-8.65079
vdnd쎯sli쎯	-8.65113
a쎯ib쎯	-8.65128
zgp쎯az쎯	-8.65146
ky쎯	-8.65183
쎂쎀쎀쎆mamb쎯	-8.65248
zh쎯	-8.65361
nll쎯	-8.65397
odwg쎯	-8.65399
nxm쎯	-8.65509
woj쎯	-8.65565
gae쎯woqy쎯mc쎯	-8.65599
yako쎯	-8.65649
ce쎯	-8.65714
al쎯o쎯	-8.65929
,na쎯	-8.66075
au쎯zsj쎯	-8.66109
soo쎯vs쎯	-8.66137
azy쎯	-8.66176
nl쎯yy쎯d쎯	-8.66347
nxs쎯	-8.66367
xj쎯	-8.66597
oi쎯aim쎯	-8.66644
so쎯nm쎯	-8.66808
bsj쎯ucnd쎯	-8.66869
hb쎯odsx쎯	-8.66928
ufsu쎯	-8.67082
aep쎯h쎯	-8.67138
idj쎯	-8.67284
vdp쎯vbi쎯	-8.67328
rhyk쎯	-8.67398
nlk쎯	-8.67515
d쎯a쎯mfji쎯	-8.67602
uaol쎯	-8.67603
ae쎯xe쎯	-8.67684
wdtg쎯c쎯	-8.67837
suwl쎯	-8.67982
,n쎯	-8.68126
쎂쎀쎁쎀mamb쎯	-8.68185
jcv쎯	-8.68194
m쎯jc쎯	-8.68353
쎃쎂	-8.68384
qi쎯su쎯	-8.68446
xmh쎯	-8.68583
ecb쎯b쎯	-8.68608
ch쎯ecq1쎯	-8.68625
쎂쎀쎀쎇mamb쎯	-8.68641
gdxs쎯	-8.68648
sjy0쎯tl쎯	-8.68673
쎂쎀쎀쎈mamb쎯	-8.68681
쎇쎀	-8.68728
wdol쎯	-8.68802
ho쎯bhj쎯	-8.68856
zizi쎯c쎯	-8.68876
fvxb쎯	-8.68953
ai0쎯	-8.69102
nsc쎯	-8.69113
yn쎯	-8.69147
sno쎯	-8.69218
kskp쎯jnj쎯	-8.69249
bskr쎯	-8.69251
cirx쎯	-8.69277
xsig쎯	-8.69328
vhv쎯	-8.69335
wsz쎯	-8.69417
sul쎯rsym쎯	-8.69476
uc쎯	-8.69639
bbd쎯	-8.69705
lk쎯nd쎯	-8.69871
zizi쎯np쎯wsb쎯	-8.69897
ggky쎯	-8.70247
gdzn쎯	-8.70281
,kiym쎯,	-8.7029
skf0쎯mfjc쎯	-8.70385
uclk쎯	-8.70408
hma1쎯ty쎯	-8.70438
rly쎯tdxg쎯	-8.7051
yaj1쎯	-8.70565
sr쎯	-8.70677
akk쎯	-8.70736
heor쎯	-8.70757
쎂쎀쎀쎃mamb쎯	-8.70813
fds쎯mfz쎯ob쎯	-8.70821
wdjg쎯	-8.70929
ajx쎯ku쎯	-8.71013
kbx쎯	-8.71262
......	-8.71341
yjf쎯	-8.71428
n쎯nt쎯	-8.71442
eb쎯	-8.71517
uag쎯mzv쎯	-8.71522
wzm쎯	-8.71543
fdm쎯	-8.71574
쎂쎂	-8.71618
yj쎯oda쎯	-8.71644
ia쎯	-8.7166
no쎯	-8.71692
vsc쎯	-8.71839
,kia쎯	-8.71984
pyqj쎯	-8.72048
sbx쎯sa쎯	-8.72053
tdrj쎯srk0쎯	-8.72146
fav쎯xyis쎯	-8.72223
qqx쎯	-8.72289
nl쎯bdzy쎯	-8.72297
mfym쎯	-8.72313
h쎯biym쎯	-8.7235
bdn쎯	-8.72385
kdmk쎯tgf쎯	-8.72495
--	-8.72551
nmi쎯bm쎯	-8.72635
zm	-8.72645
쎄q쎯	-8.72702
ubi쎯	-8.72866
p쎯gdq쎯	-8.72917
lcym쎯	-8.72998
fsv쎯	-8.73097
v쎯	-8.73316
.ss쎯	-8.73319
쎃쎅	-8.73364
odjy쎯	-8.73452
odw쎯	-8.7346
zk쎯qry쎯	-8.73553
ggym쎯	-8.73678
vsn쎯	-8.73835
d쎯a쎯o쎯	-8.73848
mbrw쎯dxbi쎯	-8.73901
bzy1쎯	-8.74103
sxo쎯	-8.74108
fe쎯	-8.74163
kld쎯	-8.74187
mfji쎯fel쎯	-8.74339
nbb쎯	-8.74445
ebm쎯	-8.74458
쎁쎁q쎯	-8.74481
tdj쎯	-8.74484
rjg쎯	-8.74589
e쎯zyy쎯	-8.74617
ybor쎯	-8.74685
bizi쎯	-8.7479
쎂쎀쎀쎅mamb쎯	-8.74853
qdos쎯fr쎯	-8.74874
wdo쎯	-8.74941
uouo쎯	-8.74953
vyf쎯	-8.75096
odxj쎯	-8.7513
dpd쎯	-8.75204
djj쎯nmi쎯	-8.75243
dwm쎯	-8.75389
쎁q쎯	-8.7546
mtk쎯	-8.75483
wdtg쎯xo쎯	-8.75555
쎂쎀쎀쎂mamb쎯	-8.75611
zl쎯h쎯	-8.75656
k쎯a쎯mfji쎯	-8.75706
쎄쎅	-8.75714
쎅쎀쎀	-8.75857
쎅q쎯	-8.75859
kirj쎯	-8.75945
ll쎯hdko쎯km쎯	-8.76096
som쎯kf쎯	-8.76111
kd쎯nh쎯	-8.76235
kz쎯wlr쎯	-8.76337
joa쎯	-8.76361
bh쎯	-8.76392
gae쎯woqy쎯p쎯	-8.76401
tff쎯	-8.76409
kc쎯kojl0쎯	-8.76445
yd쎯	-8.76509
naj쎯	-8.76536
》mbds쎯	-8.7664
rz쎯	-8.76723
-쎁	-8.76778
jdej쎯	-8.76801
jp쎯	-8.76827
gb쎯	-8.76947
la쎯uaqk쎯	-8.77322
jhx쎯sol쎯	-8.77475
)、	-8.77518
od쎯nt쎯	-8.77603
쎂쎃	-8.77636
glds쎯	-8.77642
sc쎯db쎯	-8.77726
vab쎯	-8.7774
쎂쎆	-8.77879
bdnw쎯oda쎯	-8.78055
mc쎯gdsw쎯	-8.78066
ewf쎯	-8.7809
vsc쎯qq쎯	-8.78119
bdol쎯fekg쎯	-8.78133
veo쎯	-8.78189
mbko쎯	-8.78308
tg쎯hdko쎯	-8.78329
nsr쎯	-8.78362
ufzp쎯	-8.78404
kdml0쎯iak쎯	-8.78458
zx쎯xo쎯	-8.78524
haz쎯	-8.78541
hero쎯	-8.78622
fjai쎯	-8.78638
sme쎯	-8.78731
qyi쎯	-8.78732
tg쎯fj쎯	-8.78739
eao쎯ld쎯	-8.78881
oy쎯jk쎯	-8.79311
zry쎯	-8.79321
pxo쎯oi쎯	-8.79376
qf쎯	-8.79399
myz쎯	-8.79594
som쎯	-8.79641
tg쎯vdnd쎯	-8.79648
pvf쎯	-8.79707
0쎯	-8.79732
la쎯fb쎯	-8.79817
sq쎯symy쎯	-8.79901
zimo쎯oda쎯	-8.80015
edl쎯sjk쎯	-8.80156
kskp쎯	-8.8034
mfuo쎯	-8.80344
vu쎯	-8.80426
vsyz쎯	-8.80428
rki쎯	-8.80452
쎃쎀쎀	-8.80469
vb쎯oixb1쎯	-8.80597
ldeo쎯	-8.80644
nfa쎯mzv쎯	-8.80649
llow쎯	-8.80649
sed쎯	-8.80899
aii쎯hbi쎯	-8.80946
dn쎯	-8.80961
edy쎯	-8.8097
쎂쎀쎀쎄mamb쎯	-8.81042
pld쎯	-8.81043
iiko쎯	-8.81064
sy쎯nak쎯	-8.8125
lbb0쎯	-8.81283
eg쎯	-8.81338
wa쎯tk쎯	-8.81344
b쎯sy쎯	-8.81469
elgd쎯jc쎯	-8.81477
zxk쎯ryi쎯	-8.81491
zmxy1쎯ym쎯	-8.81603
oc쎯cdv쎯	-8.81606
iirz쎯	-8.81643
pm쎯jirj쎯	-8.81738
edfd쎯baa쎯	-8.81784
bi쎯nmi쎯.	-8.81895
vrj쎯	-8.81908
쎂쎀쎁쎁mamb쎯	-8.81911
xyis쎯akz쎯	-8.81921
nt쎯	-8.82041
aed쎯sjy0쎯	-8.8205
xyis쎯vb쎯	-8.82185
》(	-8.82192
mew쎯	-8.82212
uhg쎯	-8.82367
bjj쎯	-8.82626
,aij쎯	-8.82831
oz쎯jirj쎯	-8.83179
uakk쎯wxl쎯	-8.8327
er쎯	-8.8331
fjr쎯	-8.83319
pa쎯ajl쎯	-8.83474
nsos쎯	-8.83536
vbi쎯eyo쎯	-8.83726
sbm쎯	-8.83968
aim쎯mfld쎯	-8.84034
fsc쎯	-8.84098
pjl쎯	-8.84253
쎂쎀쎀쎀mamb쎯	-8.84339
fob쎯vl쎯	-8.84348
eyd쎯	-8.84379
ncds1쎯	-8.845
elgd쎯sbx쎯	-8.84597
qsv쎯	-8.84713
zizi쎯mc쎯,	-8.84754
gi쎯zq쎯	-8.84761
ugi쎯	-8.8481
ta쎯cizy쎯	-8.84919
zzg쎯	-8.84983
*	-8.85001
vejq쎯edl쎯	-8.85007
symy쎯	-8.85027
qu쎯	-8.85077
tdkv쎯	-8.85095
tma쎯ta쎯	-8.85218
jz쎯	-8.8538
obd쎯	-8.85525
psq쎯	-8.85534
sjqu쎯	-8.8557
tdrl1쎯	-8.85608
j쎯nre쎯	-8.85654
쎂쎀쎀쎁mamb쎯	-8.85758
mekb쎯f쎯	-8.85802
odoo쎯	-8.85927
ji쎯cdv쎯	-8.86115
쎁.	-8.8616
xmi쎯ad쎯	-8.86172
pa쎯xmi쎯	-8.86235
j쎯so쎯	-8.86348
ob쎯sso쎯	-8.86349
쎂쎁	-8.86392
d쎯“	-8.86612
nnk쎯	-8.86624
ybz쎯	-8.86661
fkwz쎯	-8.86697
xaj쎯	-8.86716
qbz0쎯	-8.86874
skf0쎯	-8.86911
쎂쎈	-8.86923
sso쎯	-8.86927
edwz쎯	-8.86947
da쎯mbjw쎯	-8.86973
sod쎯saii쎯	-8.87023
qmk쎯	-8.87152
.n쎯	-8.87187
od쎯d쎯	-8.8724
bi쎯mfjc쎯kal쎯	-8.87373
zgp쎯ufzm쎯	-8.87397
sy쎯wdzf쎯	-8.87406
yu쎯	-8.87468
sf쎯tc쎯	-8.87491
eej쎯	-8.87538
jm쎯	-8.87683
a쎯edlc쎯	-8.8769
wdgq0쎯tgby쎯	-8.87861
jdw쎯	-8.87902
oos쎯	-8.8791
fex쎯	-8.87935
rsv쎯	-8.87963
wbi쎯tk쎯	-8.88104
sow쎯ib쎯	-8.88192
i쎯d쎯	-8.88197
vmi쎯	-8.88212
tg쎯hdko쎯km쎯	-8.88237
wtxi쎯sau쎯u쎯	-8.88249
xjb쎯	-8.88304
n쎯d쎯	-8.88321
pvwx쎯hbkd쎯	-8.88375
쎂쎀쎀쎉mamb쎯	-8.88427
wdot쎯	-8.88508
ay쎯bdrd쎯	-8.88556
wdz쎯tb쎯	-8.88569
ewy1쎯bdzy쎯	-8.88651
boos쎯	-8.8869
pkq쎯	-8.88715
r쎯tdro쎯	-8.88725
tgki쎯	-8.88734
gne쎯	-8.8875
mbrd쎯paj0쎯	-8.88828
ebkv쎯	-8.89184
oiad쎯hbkd쎯	-8.89187
yrm쎯	-8.89191
vyi쎯	-8.89211
mblk쎯t쎯	-8.89251
edjq쎯	-8.89434
ufc쎯wsk쎯	-8.89453
kcx쎯sjl쎯	-8.89455
rr쎯heoo쎯	-8.89481
yj쎯oda쎯j쎯jc쎯	-8.89496
kd쎯ecq1쎯	-8.89527
a쎯tdro쎯	-8.89544
gx쎯	-8.89643
vdwy쎯mfte쎯	-8.89725
dsw쎯mfjc쎯	-8.89845
:쎁	-8.89853
yra쎯	-8.89876
mbrd쎯mc쎯	-8.90046
va쎯edl쎯	-8.90188
,x쎯	-8.90207
akw쎯	-8.90241
,wdrr쎯	-8.9025
dqx쎯	-8.90264
~	-8.9038
zizi쎯mc쎯ad쎯	-8.90589
rre쎯ku쎯	-8.90618
clg쎯	-8.90871
ekm쎯	-8.90875
쎁쎉쎉쎈mamb쎯	-8.90881
mfrk0쎯u쎯	-8.90895
,gi쎯	-8.90905
xkc쎯	-8.90926
qso쎯	-8.90941
bmm쎯fdm쎯	-8.91079
wdb쎯nb쎯	-8.91081
pji쎯	-8.91192
hbmo쎯ym쎯ad쎯	-8.91209
,xoy쎯	-8.91258
oml쎯	-8.91313
kdxb1쎯	-8.91628
gduo쎯	-8.91818
edlc쎯dsz쎯	-8.91932
txl쎯	-8.92049
lga쎯	-8.92078
qb쎯	-8.92162
evyy쎯jby1쎯	-8.92187
jkk쎯	-8.92259
vrz쎯	-8.92277
zyy쎯	-8.92308
veeq쎯	-8.92364
oel쎯jc쎯	-8.92461
1쎯	-8.92531
쎂q쎯	-8.92634
vdwy쎯ggym쎯	-8.92704
qq쎯	-8.92814
ekgb쎯	-8.92816
aij쎯zq쎯	-8.92908
nka쎯	-8.92951
eey쎯	-8.93059
tdrl1쎯ufte쎯	-8.93079
hx쎯	-8.93101
c쎯gdq쎯	-8.93164
seg쎯	-8.9317
vv쎯	-8.9327
dn쎯tg쎯	-8.9328
bbjj쎯	-8.93326
wxo쎯	-8.93363
ffr쎯	-8.93418
쎂쎀쎀쎀	-8.93478
jby1쎯	-8.93489
oai쎯	-8.93556
nkc0쎯	-8.93658
mfjc쎯tgxi쎯	-8.93801
sjw쎯	-8.93815
mfjr0쎯	-8.94005
kku쎯	-8.94057
cirh쎯c쎯	-8.94088
bju쎯	-8.94111
ucq쎯tdjr쎯	-8.94127
lczs쎯bhv쎯	-8.94232
vqj쎯	-8.94268
h쎯jl쎯	-8.9437
oz쎯jbr쎯	-8.94623
cds쎯	-8.94756
mfjo쎯	-8.94763
kcx쎯gd쎯d쎯	-8.94784
fgi쎯	-8.949
rf쎯nm쎯	-8.94913
ukm쎯	-8.94935
kz쎯vg쎯	-8.94995
sxb쎯	-8.95053
kz쎯qso쎯	-8.95145
zq쎯rjr쎯	-8.95175
drr쎯	-8.95396
ceug쎯oaj쎯	-8.95571
,nsu쎯ad쎯	-8.95593
miy쎯	-8.95684
aep쎯hbi쎯	-8.95741
mfjo쎯fy쎯	-8.9576
hdko쎯tirr쎯	-8.95789
lc쎯	-8.95793
rstd쎯	-8.95887
tg쎯mbj쎯	-8.95915
sy쎯nlj쎯	-8.96005
rrn쎯	-8.96025
edjm쎯ajx쎯	-8.96036
cmf쎯	-8.96058
sc쎯sos쎯	-8.96105
eys쎯	-8.962
obk쎯	-8.96721
gdj쎯	-8.96857
qae쎯	-8.96874
fq쎯uag쎯	-8.9701
rd쎯skb쎯	-8.97076
majk쎯	-8.97141
ymo1쎯ee쎯	-8.97169
nar쎯	-8.97204
vbi쎯eyo쎯km쎯	-8.97323
drr쎯tdni쎯	-8.97356
ps쎯	-8.97369
ajk쎯sc쎯nmb쎯	-8.97466
btx쎯	-8.97505
ed쎯oy쎯	-8.97509
km쎯zym쎯	-8.97538
sot쎯	-8.97547
tb쎯oml쎯	-8.97561
zx쎯dsw쎯	-8.97621
kia쎯ad쎯	-8.97678
non쎯fr쎯	-8.97717
tfn쎯	-8.97729
jduy쎯	-8.97801
oiom쎯	-8.9782
dqs쎯oi쎯	-8.97892
whi쎯	-8.97949
ihku쎯	-8.98003
gb쎯gdj쎯	-8.98039
bi쎯nmi쎯,	-8.98126
rx쎯	-8.98162
fj쎯edl쎯	-8.98233
wlr쎯iikg쎯	-8.9836
ciyl쎯lcym쎯	-8.9844
tj쎯	-8.98443
쎃쎆	-8.98484
zja쎯rhko쎯	-8.98599
yms쎯ec쎯	-8.98611
ih쎯	-8.98627
evfd쎯	-8.98647
.ec쎯	-8.98806
z쎯oi쎯	-8.98844
ewa0쎯	-8.98929
r쎯mfji쎯	-8.98968
yajl쎯	-8.99165
bimo쎯	-8.99224
lij쎯	-8.99434
d쎯z쎯xe쎯	-8.99591
ec쎯wdrr쎯	-8.99606
gdq쎯som쎯	-8.99658
,zj쎯	-8.99712
nhk쎯	-8.99729
nrl쎯	-8.99797
odwy쎯	-8.99834
loa쎯	-8.99842
yi쎯k쎯	-8.99946
ynd쎯	-8.99987
nk쎯ryi쎯	-9.00053
bdol쎯wd쎯	-9.00062
쎉쎀	-9.0007
marm쎯	-9.0009
zw쎯hejc쎯	-9.00092
jddm쎯yod쎯	-9.00111
tded쎯	-9.00277
ujd쎯	-9.0035
bmy쎯k쎯	-9.00429
,yi쎯	-9.00439
sug쎯mc쎯	-9.00525
쎂쎇	-9.00647
shb쎯xo쎯	-9.00687
wr쎯fds쎯	-9.00741
ha쎯	-9.00793
ko쎯kd쎯	-9.00798
kgd쎯	-9.00844
rs쎯	-9.0087
쎁쎉쎉쎇mamb쎯	-9.0099
cirh쎯gj쎯	-9.01058
oz쎯kb쎯	-9.01078
vb쎯jc쎯	-9.01096
myw쎯	-9.01116
qda쎯	-9.01209
mfl쎯	-9.01263
ee쎯odjy쎯	-9.01283
wdb쎯	-9.01298
vdp쎯vbi쎯km쎯	-9.01298
szq쎯	-9.01609
hecj쎯	-9.01617
eki쎯	-9.01711
쎁쎉쎉쎉mamb쎯	-9.01717
wdzf쎯	-9.01767
r쎯mamb쎯	-9.01943
,j쎯jc쎯	-9.01977
wa쎯a쎯,	-9.01982
nmi쎯wdgq0쎯	-9.01994
cgi쎯njf쎯	-9.02063
pvyz쎯	-9.02208
ved쎯	-9.02248
sau쎯	-9.02282
j쎯hma1쎯	-9.0235
wdtg쎯jhm쎯	-9.02366
vhm쎯	-9.02427
kdxb1쎯db쎯	-9.0248
ci쎯waj쎯d쎯	-9.0249
qs쎯	-9.02543
wb쎯	-9.02575
vwa쎯	-9.02725
qdxs쎯	-9.0275
》,	-9.02798
mbro쎯ckb쎯	-9.02799
heki쎯	-9.02899
쎁쎉쎉쎆mamb쎯	-9.02978
bwq쎯	-9.03033
zmzj쎯	-9.0304
ewf쎯eqg쎯	-9.03176
tgf쎯	-9.03231
xsc쎯	-9.03318
wdz쎯oizm쎯	-9.03323
bdzw쎯oi쎯	-9.03426
oi쎯u쎯	-9.03427
j쎯eao쎯	-9.03452
vuu쎯	-9.03605
rlo쎯	-9.0369
sjl쎯mbds쎯	-9.03723
ngr쎯pdel쎯	-9.03868
uczm쎯	-9.04049
hew쎯ze쎯	-9.0407
nr0쎯bi쎯	-9.04071
vkk쎯	-9.04103
jc쎯ldod쎯ri쎯	-9.04132
gkm쎯	-9.04196
frm쎯	-9.0436
edby쎯	-9.04402
obb쎯uanw쎯	-9.04424
qf쎯bwz쎯	-9.0448
yrez쎯	-9.04552
dqsy쎯	-9.04557
xmue쎯ekgl쎯	-9.04599
ba쎯b쎯	-9.0469
odnd쎯zyj쎯	-9.04819
vwa쎯jl쎯	-9.04903
ped쎯	-9.05028
mle쎯	-9.05045
쎁o쎯	-9.05079
skf0쎯kag쎯	-9.05161
kd쎯kld쎯	-9.05234
tdaj쎯	-9.05254
bi쎯lco쎯	-9.05258
csc쎯	-9.05279
tfg쎯	-9.05368
wb쎯oc쎯	-9.05404
ekg쎯	-9.05424
vfb0쎯	-9.05485
nmb쎯rsym쎯	-9.05565
ytyt쎯	-9.05727
wdtg쎯ybk쎯	-9.05774
psk쎯	-9.05882
xeo쎯	-9.05895
ufgd쎯aeb쎯:	-9.05898
,edjm쎯	-9.05965
scq쎯	-9.06027
fjw쎯t쎯	-9.06085
sb쎯	-9.06154
nxb쎯	-9.06216
fj쎯tirr쎯	-9.06236
horo쎯	-9.06238
oy쎯u쎯	-9.06283
mbbd쎯oai쎯	-9.06431
쎂쎀쎁쎂mamb쎯	-9.06511
yt쎯	-9.06586
tdrl1쎯sug쎯	-9.06657
uag쎯ad쎯	-9.06719
sme쎯r쎯	-9.06751
drl쎯	-9.06804
쎁쎉쎉쎅mamb쎯	-9.06806
blo쎯	-9.06862
ryj쎯	-9.06885
bmu쎯	-9.06889
sxy쎯	-9.06937
lk쎯nd쎯km쎯	-9.06987
dmn쎯	-9.06995
sq쎯gdq쎯	-9.07124
,tird쎯	-9.07206
=	-9.07238
u쎯sc쎯	-9.07243
gae쎯	-9.07247
vsnd쎯	-9.07421
sow쎯mfji쎯	-9.07516
vdwy쎯nsu쎯	-9.07541
ersw쎯	-9.07604
hj쎯bm쎯	-9.07634
symy쎯bi쎯	-9.07644
dvm쎯	-9.07961
mcek쎯	-9.07963
cirs쎯	-9.08029
nh쎯ckb쎯	-9.08044
laj쎯	-9.08048
nf쎯tlf쎯	-9.08052
nrkw쎯	-9.08121
쎄쎈	-9.08138
ob쎯jl쎯	-9.08143
쎃쎃	-9.08351
bdzw쎯heqk쎯	-9.08387
ry쎯tb쎯	-9.0841
va쎯tirr쎯	-9.08445
nz쎯	-9.08537
mbjk쎯	-9.08696
dwb쎯	-9.08731
kiaw쎯	-9.08813
mfxw1쎯wd쎯	-9.08897
sow쎯a쎯	-9.08924
va쎯edl쎯km쎯	-9.08924
bno쎯	-9.0901
vxr쎯	-9.09049
ufzm쎯wdya쎯	-9.0913
nor쎯	-9.09173
odyk쎯mbjw쎯	-9.09196
horo쎯vv쎯	-9.093
vea쎯ji쎯	-9.09335
nji0쎯bdnw쎯	-9.0941
aek쎯	-9.09435
rhyl쎯kro쎯	-9.09597
쎁쎉쎉쎃mamb쎯	-9.09603
od쎯ufgd쎯	-9.09609
bi쎯nmi쎯bm쎯	-9.09637
uagy쎯	-9.09661
ci쎯waj쎯	-9.09665
ufzm쎯vdwy쎯	-9.09713
tgxi쎯	-9.09813
ewj쎯pkq쎯	-9.09825
heqk쎯oda쎯	-9.099
dx쎯	-9.09989
cmk쎯	-9.10006
akm쎯	-9.10019
kku쎯bk쎯	-9.10059
gak쎯	-9.10065
sod쎯u쎯	-9.10084
sc쎯nmb쎯	-9.10143
jjj쎯pdel쎯	-9.10203
xmue쎯	-9.10229
fav쎯mfte쎯	-9.10239
koxb쎯kd쎯	-9.10306
fsz쎯wz쎯	-9.10319
tdni쎯	-9.10331
miwa쎯	-9.10331
wcj쎯	-9.10424
agd쎯vxbd쎯	-9.10436
vkl쎯t쎯	-9.10477
쎁쎀쎀쎀	-9.1056
db쎯	-9.10594
so쎯kq쎯	-9.10597
mbro쎯pdel쎯	-9.10627
,odod쎯	-9.10643
zs쎯	-9.10674
bd쎯ed쎯	-9.10707
sxo쎯zmya쎯d쎯	-9.10744
ymo0쎯vdwy쎯	-9.10787
쎇쎅	-9.10887
oc쎯sjy0쎯	-9.1089
c쎯nh쎯nr0쎯	-9.10958
mbbd쎯idju쎯	-9.10962
flkd쎯	-9.10967
sjwa쎯	-9.11025
ufw쎯	-9.11181
cb쎯	-9.11212
sm쎯oda쎯	-9.11492
ux쎯fjw쎯	-9.11501
ciz쎯pdel쎯	-9.11511
쎁쎉쎉쎂mamb쎯	-9.11561
bk쎯evyy쎯	-9.11586
ckb쎯odxw쎯	-9.11732
wwrd쎯	-9.11911
smr쎯	-9.11941
iikg쎯	-9.1201
wxl쎯kojl0쎯	-9.12049
h쎯kf쎯	-9.12061
arsr쎯	-9.12164
bjex쎯	-9.1219
yrx쎯	-9.12468
zrt쎯	-9.12503
>	-9.12606
b쎯rid쎯	-9.12661
tib쎯	-9.12769
ldkd쎯	-9.12783
vl쎯	-9.12844
gdsw쎯	-9.12848
aep쎯rjg쎯	-9.12933
jc쎯wdgq0쎯zym쎯	-9.13
%	-9.13048
dcx쎯kskp쎯	-9.1317
pnl쎯	-9.13268
wsa쎯xbby쎯km쎯	-9.13268
kojr쎯jl쎯	-9.13328
njb쎯	-9.13519
bdzm쎯	-9.13584
x쎯ad쎯	-9.13627
xju쎯odoo쎯	-9.13671
kdxq쎯	-9.13787
klx쎯	-9.13851
tg쎯vmw쎯	-9.14033
쎁쎉쎈쎄mamb쎯	-9.14037
ecb쎯pa쎯	-9.1405
idjh쎯kirj쎯	-9.14051
fdyy쎯gc쎯	-9.1416
a쎯wd쎯	-9.14238
tdjk쎯	-9.14257
tg쎯gd쎯	-9.14304
vejq쎯tirr쎯	-9.14423
tirr쎯sjk쎯sli쎯	-9.14462
jl쎯bi쎯	-9.14628
쎂쎉	-9.14827
》k쎯	-9.14841
mtk쎯udke쎯	-9.14845
bdzs0쎯edl쎯	-9.14862
쎃쎈	-9.14903
b쎯pdel쎯	-9.14931
hew쎯dsz쎯	-9.14947
qroz쎯	-9.14974
dyo쎯	-9.14982
wj쎯	-9.15044
c쎯nmb쎯	-9.15062
쎈쎀쎀	-9.1521
qyod쎯	-9.15212
mbbd쎯armk쎯	-9.15267
udfd1쎯	-9.15287
i쎯vm쎯sli쎯	-9.15414
guz쎯	-9.15464
mfzn쎯	-9.1561
c쎯g쎯	-9.15676
tgby쎯	-9.15712
miz쎯	-9.15729
,xs쎯	-9.15737
nl쎯vzj1쎯ho쎯	-9.15743
xh쎯	-9.15756
skq1쎯	-9.15838
쎁쎉쎉쎄mamb쎯	-9.1605
mekb쎯tgg쎯	-9.16161
(odsx쎯	-9.16193
njf쎯yobv쎯	-9.16288
llld1쎯	-9.16393
bdol쎯evyy쎯	-9.16397
nj쎯	-9.16399
oy쎯ya쎯	-9.16424
wsk쎯zx쎯	-9.16498
kz쎯ym쎯	-9.16514
fs쎯jbr쎯	-9.16601
vry쎯	-9.16701
fjb쎯	-9.16718
bxi쎯	-9.1673
jilw쎯	-9.16775
fg쎯aks쎯	-9.16879
se쎯	-9.17004
arh쎯	-9.17046
sjl쎯j쎯	-9.17172
jiw쎯	-9.17177
zo쎯bdkv쎯	-9.17283
cirh쎯bk쎯	-9.17301
miwa쎯oaj쎯	-9.17348
(쎁	-9.17352
oixo쎯r쎯	-9.17457
tdrx쎯	-9.17462
wgs쎯zizi쎯	-9.17479
vlw쎯	-9.1752
vmr쎯	-9.17544
oixb0쎯	-9.17606
heqk쎯zizi쎯	-9.17609
dk쎯zizi쎯	-9.17613
syme쎯	-9.17639
sc쎯tel쎯	-9.17688
xej쎯yh쎯	-9.17704
wdtg쎯xo쎯wdhb쎯	-9.17847
wsa쎯xbby쎯	-9.17851
oz쎯kb쎯,	-9.17877
pdxs쎯tgva쎯	-9.17936
tg쎯byo쎯	-9.18023
mc쎯odjy쎯	-9.18228
ai1쎯,	-9.1831
xhm쎯	-9.18359
yty쎯	-9.18375
ny쎯	-9.18386
niuo쎯	-9.18426
d쎯mekb쎯f쎯	-9.18426
sukk쎯	-9.18572
nsj쎯	-9.18608
oy쎯gdli쎯	-9.18636
baz쎯shb쎯	-9.18732
skx쎯nr0쎯	-9.18776
yh쎯tk쎯	-9.18789
ylc쎯	-9.18807
sjwm쎯uf쎯	-9.18876
edby쎯jc쎯	-9.1895
u쎯“	-9.18973
odob쎯	-9.18974
njf쎯saii쎯	-9.18979
vtc쎯	-9.19037
rr쎯wdol쎯	-9.19093
maj쎯rsj쎯	-9.19105
gdiy쎯g쎯	-9.19106
udaj쎯	-9.19116
fbb쎯	-9.19131
bdnw쎯iiko쎯	-9.19217
mfmw쎯	-9.19372
jee쎯	-9.19479
evyy쎯	-9.19692
vk쎯	-9.19801
ri쎯mfte쎯	-9.19831
fvr쎯	-9.19883
boy쎯bdkv쎯	-9.20249
shv쎯	-9.20308
wr쎯yh쎯	-9.20373
zimo쎯ehz쎯	-9.20486
쎄쎀쎀	-9.20504
soo쎯kro쎯	-9.20542
a쎯fu쎯	-9.20576
idjh쎯rx쎯	-9.20578
×	-9.20589
쎁쎉쎈쎅mamb쎯	-9.2059
mie쎯	-9.20608
md쎯fq쎯	-9.20673
phw쎯	-9.20787
sul쎯jjj쎯	-9.2082
zzym쎯	-9.20916
fuo쎯	-9.21032
boyj쎯dsw쎯	-9.21116
ewy1쎯	-9.21156
skb쎯	-9.2118
tdxg쎯wd쎯	-9.21187
sq쎯su쎯	-9.21191
mimo쎯	-9.21207
vbi쎯fj쎯	-9.21238
ggkw쎯	-9.21304
,lco쎯gdq쎯	-9.21307
yxo쎯	-9.21395
ed쎯bd쎯	-9.21405
foy쎯	-9.21497
deki쎯fsw쎯	-9.21525
kcx쎯nbb쎯	-9.21676
odyk쎯xbby쎯	-9.21705
ggnk쎯ufte쎯	-9.21719
gi쎯nxs쎯	-9.21726
dw쎯ky쎯	-9.21771
ewj쎯ucnd쎯	-9.21777
fff쎯	-9.21897
njf쎯db쎯	-9.21948
szzs쎯	-9.22039
tgxs쎯	-9.22074
rsj쎯mfrk0쎯	-9.22156
vxbd쎯	-9.22195
elgd쎯so쎯	-9.2246
hi쎯	-9.22539
mfr쎯	-9.22616
u쎯y쎯	-9.22641
giw쎯gdq쎯	-9.22651
gd쎯ko쎯	-9.22797
maxg쎯	-9.22828
cd쎯o쎯	-9.22863
mbbd쎯jk쎯	-9.22882
vpy쎯	-9.22885
쎃쎄	-9.22899
fekg쎯	-9.22919
uory쎯	-9.22931
jyms쎯	-9.22939
myz쎯lk쎯	-9.22985
,jhx쎯	-9.2303
mmg쎯	-9.23034
bu쎯yj쎯	-9.23037
qqv쎯gdxs쎯	-9.23047
szr쎯	-9.23126
쎁쎉쎈쎈mamb쎯	-9.23285
,ld쎯kd쎯	-9.23326
zuz쎯	-9.2336
a쎯boy쎯	-9.2341
ecq1쎯tk쎯	-9.23439
qqx쎯no쎯	-9.2357
ufij쎯	-9.23678
tc쎯	-9.23685
odoo쎯r쎯	-9.23743
wdz쎯oizm쎯km쎯	-9.23761
jo쎯gdq쎯	-9.23783
vxb쎯	-9.23859
vwo쎯bnd쎯	-9.23894
bd쎯mbds쎯tirg쎯	-9.23907
dpj쎯vdwy쎯	-9.23953
setg쎯bm쎯	-9.23955
》.	-9.2396
nswa쎯	-9.23975
bhv쎯ho쎯	-9.23976
fg쎯	-9.23977
wz쎯ckb쎯	-9.24012
mfya쎯	-9.24084
ymv쎯	-9.24123
kojr쎯mfz쎯	-9.2415
au쎯brt쎯	-9.24173
vl쎯shb쎯	-9.24249
xkc쎯dka쎯	-9.24287
nwl쎯	-9.24321
mftr쎯	-9.24364
bdkv쎯nl쎯	-9.24429
rsj쎯.	-9.24492
vejq쎯tirr쎯km쎯	-9.24527
gi쎯aij쎯	-9.24684
uanw쎯jirj쎯	-9.24697
a쎯rf쎯	-9.24735
bhj쎯	-9.24748
,sc쎯f쎯	-9.24797
yod쎯nbx쎯	-9.24829
tgs1쎯gdsw쎯	-9.24862
쎆쎄	-9.24874
he	-9.24879
oojr0쎯	-9.24969
uflc쎯	-9.25024
yj쎯yji쎯	-9.25089
oy쎯pji쎯	-9.2515
쎀쎀	-9.25233
sl쎯fk쎯	-9.25486
’	-9.25501
oz쎯eao쎯	-9.25508
llwb0쎯	-9.25559
쎁쎉쎉쎀mamb쎯	-9.25658
r쎯o쎯	-9.25695
쎆쎅	-9.25702
zef쎯nfa쎯	-9.25715
,az쎯	-9.2573
wdpo쎯	-9.25733
zoo쎯	-9.25788
mamb쎯nh쎯	-9.25814
h쎯zcl쎯	-9.25831
ngs쎯	-9.2587
snds쎯	-9.25962
hdzg쎯	-9.25981
zs쎯sed쎯	-9.2599
snd쎯zhy쎯	-9.25992
ksk쎯	-9.25993
vbo쎯	-9.26019
k쎯a쎯wdgq0쎯	-9.26055
fjai쎯o쎯	-9.26091
nl쎯kia쎯	-9.26144
nb쎯dpk쎯	-9.2616
eao쎯mfj쎯jc쎯	-9.26293
zb쎯ryi쎯	-9.26302
nsu쎯le쎯	-9.26358
jdej쎯wd쎯	-9.26381
cxi쎯cslz쎯	-9.26481
lkb쎯	-9.26551
ubk쎯	-9.2657
ggyg쎯tj쎯	-9.26619
xbby쎯h쎯	-9.26624
pfb쎯	-9.26783
°	-9.2684
xms쎯ds쎯	-9.26848
fbv쎯	-9.26935
myz쎯ed쎯	-9.27014
bskr쎯ldod쎯	-9.27041
d쎯gae쎯woqy쎯	-9.27056
exb쎯	-9.27117
mfr쎯bdzy쎯	-9.27119
mfld쎯hkd쎯	-9.2714
vwq쎯	-9.27182
sxq쎯	-9.27227
,tirr쎯	-9.2725
jgb쎯	-9.27546
쎆쎀쎀	-9.27555
ob쎯sed쎯	-9.2757
mbro쎯vs쎯	-9.27611
mfz쎯jl쎯	-9.27617
njf쎯nxby쎯	-9.27643
zs쎯a쎯	-9.27717
idj쎯b쎯gj쎯mfjo쎯	-9.27734
usj쎯	-9.27789
qgr쎯	-9.27845
vejq쎯edl쎯km쎯	-9.27918
zgp쎯baz쎯	-9.27959
ldjn쎯	-9.28051
sjl쎯fjw쎯	-9.28098
xsxf쎯	-9.28141
sq쎯le쎯	-9.28147
》《	-9.28163
ll쎯ho쎯	-9.28278
xyis쎯syy1쎯	-9.28279
쎁쎉쎈쎆mamb쎯	-9.28317
.sc쎯f쎯	-9.28353
쎅쎅	-9.28353
kq쎯kku쎯	-9.28463
zmzj쎯xbby쎯ad쎯	-9.28505
lo	-9.28511
bju쎯xro쎯	-9.28655
cd쎯mamb쎯	-9.28689
um쎯d쎯	-9.287
쎁쎉쎈쎇mamb쎯	-9.28779
cs쎯uf쎯	-9.2882
wxl쎯ns쎯	-9.29015
kdml0쎯	-9.29028
mc쎯ch쎯	-9.29052
ehw쎯	-9.29091
ym쎯kak쎯	-9.29114
hdko쎯fj쎯	-9.29171
majk쎯zq쎯	-9.29176
.c쎯nmb쎯	-9.29186
mac쎯	-9.29228
쎃쎇	-9.29261
nsos쎯jjg쎯	-9.29305
xly쎯	-9.29327
koxb쎯b쎯	-9.29483
xhb쎯	-9.29534
bm쎯,	-9.29648
xis쎯	-9.29659
rxw쎯	-9.29661
vwj쎯	-9.29672
zmzy쎯	-9.29716
kaa쎯	-9.29771
ldm쎯aim쎯	-9.29777
gi쎯ld쎯d쎯	-9.29843
wa쎯paj0쎯	-9.30104
pek쎯	-9.3017
sjl쎯t쎯	-9.30192
cejo쎯bi쎯	-9.30201
mamz1쎯	-9.30202
wzm쎯pdgo1쎯	-9.30323
a쎯mamb쎯	-9.30387
,paj0쎯	-9.30486
kcx쎯sf쎯	-9.30508
u쎯a쎯nfa쎯d쎯	-9.30549
ji	-9.30583
mekb쎯gd쎯	-9.30586
giw쎯k쎯	-9.30604
vsx쎯	-9.30688
wb쎯ucu쎯	-9.30766
ll쎯fj쎯	-9.30794
fmk쎯	-9.30855
eao쎯sug쎯kojr쎯	-9.30872
eheo쎯	-9.30919
wdof쎯	-9.30945
keo쎯	-9.30962
koxb쎯nh쎯	-9.31001
쎂.	-9.31168
fow1쎯	-9.312
suu쎯	-9.3129
ebm쎯rsj쎯d쎯	-9.31387
fsq쎯vdnd쎯	-9.31471
gso쎯	-9.3151
a쎯zym쎯	-9.31606
vom쎯	-9.31681
exau쎯	-9.31698
,alb쎯	-9.31714
xmay쎯	-9.3182
vqf쎯	-9.31822
yazo쎯ya쎯	-9.31856
go쎯	-9.31867
sed쎯mle쎯	-9.31902
sow쎯kb쎯	-9.31936
wdgz쎯	-9.31971
cexs쎯oiad쎯	-9.31996
yk쎯sli쎯	-9.32024
shv쎯ns쎯	-9.32063
bdko쎯bdkv쎯	-9.32071
d쎯bdzs1쎯ku쎯	-9.32094
edfd쎯mbro쎯owy쎯	-9.32096
nmb쎯naj쎯	-9.32137
bdol쎯fr쎯	-9.32176
hma1쎯vdwy쎯ywb쎯	-9.32237
ahi쎯vx쎯	-9.32239
.wdrr쎯	-9.32309
kdxl쎯	-9.32321
zj쎯naj쎯	-9.32375
dpk쎯	-9.32495
so쎯eyd쎯	-9.3256
zld쎯	-9.32607
dska쎯ch쎯	-9.32639
ajl쎯	-9.32664
ybu쎯fj쎯	-9.32708
sjo쎯	-9.32726
kz쎯smi쎯	-9.32778
ey쎯la쎯	-9.32796
vs쎯oi쎯	-9.32882
sz쎯	-9.32962
z쎯gdli쎯	-9.32982
ngr쎯dqsy쎯	-9.33023
vdwl쎯	-9.33102
cop쎯	-9.33206
ggyg쎯	-9.33238
xi쎯qbo쎯	-9.33266
sjya쎯pvwx쎯	-9.33274
쎁쎉쎈쎂mamb쎯	-9.33303
edj쎯nh쎯	-9.33392
쎁쎉쎈쎉mamb쎯	-9.33394
dk쎯mev쎯	-9.33418
sc쎯kag쎯	-9.33423
ebm쎯nmi쎯	-9.33432
dex쎯zq쎯	-9.33501
auo쎯	-9.33604
xs쎯mfrk0쎯	-9.33654
'	-9.33668
,l쎯	-9.33675
mise쎯	-9.33712
쎁쎉쎉쎁mamb쎯	-9.33797
boid쎯	-9.33858
nds쎯	-9.33882
,wtxi쎯	-9.33967
tli쎯	-9.3401
gae쎯mblk쎯	-9.34127
zzy쎯	-9.34129
ldod쎯le쎯	-9.3421
fl쎯x쎯	-9.34227
hkd쎯	-9.34261
uowm쎯	-9.34292
bdzw쎯l쎯	-9.34311
io쎯	-9.34325
lco쎯nfa쎯	-9.3433
edtg쎯	-9.34391
cxv쎯	-9.34427
kdxz쎯	-9.34507
udjw쎯gj쎯mfjo쎯	-9.34608
yy쎯	-9.34618
vl쎯kak쎯	-9.3468
yi쎯gdq쎯	-9.34741
,edl쎯	-9.34758
ldm쎯rsym쎯	-9.34861
ned쎯mzs쎯	-9.3487
ldod쎯sjy0쎯	-9.34907
aijr쎯kk쎯	-9.34962
wda쎯	-9.34978
dpw1쎯	-9.35012
fds쎯xbkv0쎯xmi쎯a	-9.35021
uef쎯	-9.35134
쎁.쎅	-9.35147
qal쎯	-9.35176
ee쎯	-9.35197
,sow쎯	-9.35207
,p쎯zo쎯	-9.35267
mfrk0쎯jaz쎯	-9.35302
ks쎯xl쎯	-9.35314
fjai쎯nfa쎯	-9.35325
ldm쎯	-9.35331
jd쎯u쎯	-9.35382
y쎯rly쎯	-9.3548
dgh쎯	-9.35483
zl쎯oaj쎯	-9.35485
mf	-9.35544
gae쎯woqy쎯ywb쎯	-9.35593
ekk0쎯	-9.35629
zo쎯ai1쎯	-9.3571
、j쎯jc쎯	-9.35715
ffx쎯	-9.35732
ll	-9.35741
suw1쎯	-9.3575
,zo쎯yms쎯	-9.35824
qrk쎯	-9.35873
ymo0쎯oz쎯	-9.35887
kcx쎯paj0쎯	-9.35936
bdzw쎯ewj쎯	-9.35955
earu쎯	-9.36036
dbb쎯	-9.36066
yda쎯	-9.36205
ko쎯ho쎯	-9.36211
a쎯hdyd쎯	-9.36215
oy쎯ufgd쎯	-9.36273
vm쎯dgx쎯	-9.36306
ajk쎯xyis쎯syy1쎯	-9.36315
oaj쎯ckb쎯	-9.36335
hdko쎯edl쎯	-9.36388
mffw쎯	-9.36421
mblk쎯wd쎯	-9.36463
lzn쎯	-9.36482
tb쎯le쎯	-9.36532
h쎯ch쎯	-9.36569
myw쎯aks쎯	-9.3664
eos쎯	-9.36724
elgd쎯ds쎯	-9.36747
gdq쎯ucl쎯	-9.36748
fob쎯	-9.36895
mblk쎯jjj쎯	-9.36965
va쎯tirr쎯km쎯	-9.36967
wdtg쎯ym쎯	-9.36987
wdtg쎯l쎯	-9.37015
.vdwy쎯fs쎯	-9.37042
bk쎯	-9.37245
nxby쎯	-9.37291
eako쎯ryi쎯	-9.37407
zw쎯waz쎯	-9.37433
tdrl1쎯pa쎯	-9.37523
odxw쎯	-9.37577
tjj쎯	-9.3766
mfjc쎯t쎯	-9.37679
a쎯wdgq0쎯	-9.37753
쎉쎈	-9.3776
쎀쎉	-9.37773
mbrd쎯bdnw쎯d쎯	-9.37784
lb쎯ryi쎯	-9.37811
ekgl쎯	-9.3792
gbs쎯ym쎯	-9.37958
bdzs1쎯tl쎯	-9.38033
wgs쎯	-9.38038
kiq쎯	-9.3806
plr쎯	-9.3806
yybd쎯vwa쎯	-9.38113
k쎯g쎯	-9.38162
-쎂	-9.38188
fob쎯fk쎯	-9.38249
wsuc쎯	-9.38269
hm쎯	-9.38283
muc쎯	-9.38433
rjrd쎯yn쎯	-9.38465
gdq쎯fq쎯	-9.38484
sjl쎯fs쎯	-9.38562
mbds쎯b쎯	-9.38632
쎄쎂	-9.38658
zx쎯ldeo쎯	-9.38693
zizi쎯ja쎯	-9.38772
qka쎯	-9.388
xoy쎯aij쎯	-9.38847
smp쎯ryi쎯	-9.38871
쎅-	-9.38918
kojm쎯	-9.38994
fj쎯wdz쎯	-9.39055
oixb1쎯	-9.39111
mfte쎯vdwy쎯ywb쎯	-9.392
odyk쎯ymo0쎯	-9.39393
obo쎯	-9.39416
ceug쎯mzv쎯	-9.39439
wh쎯ajx쎯	-9.39468
sjy0쎯yod쎯	-9.39499
jy쎯	-9.39541
eacy0쎯	-9.39566
miwa쎯kak쎯	-9.39572
yhe쎯	-9.39603
xbds쎯	-9.39635
agd쎯rgs쎯	-9.39682
nyd쎯	-9.39723
xe쎯bk쎯	-9.39777
,yi쎯k쎯	-9.39838
ch쎯,	-9.40023
i쎯,	-9.40062
.iirr쎯	-9.40082
wkr쎯ryi쎯	-9.4012
tb쎯rki쎯	-9.40172
vx쎯smm쎯	-9.40233
,aij쎯zo쎯	-9.40248
쎁쎉쎈쎃mamb쎯	-9.40265
h쎯bmy쎯	-9.40293
oro쎯	-9.40319
zo쎯bdkv쎯,	-9.40407
zni쎯dwm쎯	-9.40497
tfm쎯	-9.40566
ogl쎯	-9.40589
zuz쎯ze쎯	-9.40608
mfgl1쎯	-9.4071
dqs쎯	-9.40774
sf쎯d쎯	-9.40802
k쎯j쎯jc쎯	-9.40821
skw쎯sos쎯	-9.40836
dsw쎯mfjc쎯j쎯	-9.4085
qyx쎯tb쎯	-9.40913
bilo쎯edgs쎯	-9.40948
odm쎯	-9.41008
ldod쎯ewa0쎯edj쎯	-9.41051
dyx쎯mbj쎯	-9.41084
jyi0쎯	-9.41109
gr쎯	-9.41149
haw쎯vqf쎯	-9.41174
tirk쎯	-9.41321
xbkv0쎯xmi쎯ad쎯	-9.41429
vk쎯yn쎯bm쎯	-9.41471
sc쎯nmb쎯hma1쎯kal쎯	-9.41474
kiym쎯,	-9.41597
쎆쎆	-9.41601
d쎯sc쎯f쎯	-9.41617
fgh쎯	-9.41629
lm쎯	-9.41715
fj쎯sjy0쎯	-9.41742
gdiy쎯nsb쎯	-9.41819
lorz쎯	-9.41886
sjl쎯som쎯	-9.41929
rsj쎯,	-9.42007
idj쎯b쎯	-9.42092
vwo쎯oda쎯	-9.42129
sf쎯aeb쎯	-9.42163
pdal쎯	-9.42191
zme쎯zni쎯	-9.42204
zmzj쎯zrt쎯	-9.4228
jni쎯a쎯	-9.42322
wdrr쎯nt쎯	-9.42468
cbr쎯	-9.42535
vwp쎯	-9.42562
vkr쎯	-9.42575
xii0쎯	-9.42589
ajer쎯	-9.42606
sf쎯ybc쎯	-9.42608
sl쎯fjai쎯	-9.42638
fel쎯	-9.42712
edyy1쎯	-9.42726
noo쎯	-9.42786
so쎯wdya쎯	-9.42859
hdko쎯sy쎯	-9.4287
);	-9.42997
dwo쎯	-9.43114
ryi쎯pfp쎯	-9.43186
zmc쎯	-9.43207
bdzs1쎯ku쎯d쎯	-9.43242
.sow쎯	-9.43249
pda쎯	-9.4326
llyq쎯	-9.43279
zbj쎯kf쎯	-9.43295
qfv쎯	-9.43296
쎃쎉	-9.43329
tlrj쎯	-9.43444
gi쎯k쎯	-9.43484
skw쎯gd쎯mfkd쎯	-9.43541
szr쎯oy쎯	-9.43588
...	-9.43635
zo쎯“	-9.43703
ggnk쎯ckb쎯	-9.43752
vwa쎯zizi쎯	-9.43764
surt쎯	-9.43806
bau쎯	-9.43837
miwa쎯tgva쎯	-9.43845
esy쎯	-9.43867
ggo쎯	-9.43915
hma1쎯ezr쎯	-9.43952
bmya쎯	-9.43963
edy쎯ob쎯ob쎯jl쎯	-9.43977
sc쎯zw쎯	-9.43996
od쎯baa쎯	-9.44065
gae쎯woqy쎯jl쎯	-9.44164
uxb쎯	-9.44179
bdol쎯	-9.4419
,udlk쎯	-9.44217
b쎯ai1쎯	-9.44223
쎂-	-9.44294
akm쎯fr쎯	-9.44324
<	-9.44333
mazy쎯mamb쎯	-9.44392
vni쎯	-9.44446
cirh쎯vwa쎯	-9.44448
pfxb쎯	-9.44497
zgp쎯yj쎯bi쎯nmi쎯,	-9.44596
bbz0쎯	-9.44631
frz쎯	-9.44634
zyy쎯odxw쎯	-9.44638
sjyy쎯	-9.4466
쎄쎄	-9.44664
sjwg쎯	-9.44735
wdan쎯	-9.44845
enaj쎯	-9.45043
mbrl쎯	-9.45077
c쎯rjg쎯	-9.4508
mbj쎯	-9.45141
mbbd쎯um쎯	-9.45191
bii쎯	-9.45196
vklx쎯akz쎯	-9.45234
h쎯sjqu쎯	-9.45244
cd쎯mbds쎯tirg쎯	-9.45247
《j쎯jc쎯	-9.4528
oi쎯aim쎯fds쎯	-9.45323
syy1쎯xbkv1쎯	-9.45349
gd쎯wdol쎯	-9.45407
쎃쎁	-9.45417
쎄쎃	-9.45461
ped쎯x쎯	-9.45469
uaqb쎯	-9.45492
biym쎯sv쎯	-9.45628
h쎯fav쎯	-9.45778
b쎯ckb쎯	-9.4581
nxma쎯	-9.45853
ns쎯jaz쎯	-9.45929
ufzm쎯kak쎯	-9.45953
nu쎯	-9.45996
dnk쎯dcx쎯	-9.46017
gd쎯kak쎯	-9.46019
ccsx쎯	-9.46151
wduo쎯	-9.46174
쎁-	-9.46196
xg쎯	-9.46211
djj쎯	-9.46219
so쎯ske쎯	-9.46237
bdzm쎯ceug쎯ldo쎯	-9.46423
xo쎯	-9.4644
qyx쎯rsym쎯.	-9.46452
nby쎯	-9.46498
w쎯	-9.46642
ikz쎯	-9.46653
wbi쎯my쎯	-9.46667
dyj쎯	-9.46684
xro쎯rhyw쎯	-9.46714
fds쎯yh쎯	-9.46723
쎃-	-9.46794
zm쎯um쎯	-9.46808
pfyy쎯	-9.46817
b쎯fgh쎯	-9.4685
쎄쎆	-9.47053
fxh쎯odxw쎯	-9.47067
nif쎯nfa쎯	-9.47128
d쎯sug쎯jjj쎯	-9.47152
odjm쎯	-9.47154
tdxg쎯	-9.47159
nhsr쎯	-9.47217
xej쎯nsc쎯	-9.47293
‘	-9.47306
fsw쎯	-9.47339
쎀°C	-9.47373
tlnh쎯	-9.47455
miwa쎯l쎯ad쎯	-9.47585
tl	-9.47624
frz쎯h쎯	-9.47651
bd쎯zym쎯	-9.47657
쎉쎉	-9.47674
uh쎯	-9.47688
.fav쎯	-9.47751
nlwz쎯	-9.47791
grl쎯wd쎯	-9.47815
쎀쎇	-9.47881
mazy쎯o쎯	-9.47919
qj쎯tryk쎯	-9.48009
wdki0쎯	-9.48146
vdwy쎯bm쎯	-9.48176
md쎯fsv쎯	-9.48224
oc쎯lczs쎯	-9.48227
klzw쎯	-9.483
sq쎯sed쎯、	-9.48352
kob쎯	-9.48382
ygqw쎯ucl쎯	-9.4842
쎃o쎯	-9.48435
ajk쎯sc쎯tel쎯	-9.48489
dex쎯	-9.48579
nub쎯	-9.486
vfl쎯	-9.48635
ga쎯vki쎯	-9.48701
idxo쎯	-9.4872
쎀쎈	-9.48734
fq쎯byo쎯	-9.48781
sh쎯	-9.48848
xsmf쎯	-9.48883
bdzy쎯ym쎯	-9.48892
a쎯mbds쎯tirg쎯	-9.48912
sjl쎯sf쎯dex쎯fsv쎯	-9.49014
ymo1쎯skx쎯	-9.49031
yzi쎯bdnw쎯	-9.4905
.“	-9.49053
mfkq쎯	-9.49102
ebf쎯	-9.49137
ze쎯	-9.49307
ebbk쎯	-9.49338
edy쎯sl쎯	-9.49364
,ss쎯	-9.49404
sow쎯fu쎯	-9.49472
쎅.	-9.49536
nsc쎯wdmh쎯	-9.4954
nif쎯j쎯	-9.49552
mbjw쎯h쎯	-9.49578
,gl쎯lc쎯	-9.49591
tdrl1쎯fr쎯	-9.49597
fmo쎯	-9.49676
ldod쎯gdiy쎯	-9.49676
zzym쎯rd쎯jbr쎯	-9.49743
bdzy쎯akz쎯	-9.49785
jc쎯rsym쎯ywb쎯	-9.49802
snow쎯	-9.4983
,h쎯u쎯	-9.4991
wxl쎯sye쎯	-9.4994
bduo쎯	-9.49959
en쎯jbr쎯	-9.49971
njf쎯ysk쎯	-9.50047
mi쎯	-9.50108
nyd쎯bdrd쎯	-9.50126
xe쎯kdml1쎯	-9.50182
aiaj쎯	-9.50239
aekd쎯	-9.50313
쎂.쎀	-9.50327
dsz쎯pvwx쎯	-9.50382
od쎯mc쎯	-9.50436
ogl쎯shqc쎯	-9.50503
pdgo1쎯	-9.50547
쎂o쎯	-9.50561
erjm쎯	-9.50574
sef1쎯	-9.50602
som쎯uaol쎯	-9.5063
smp쎯	-9.50638
mfzs쎯	-9.50657
쎃.	-9.50717
nlan쎯	-9.50724
la쎯d쎯	-9.50786
bdnw쎯oi쎯y쎯	-9.50792
yzi쎯boy쎯	-9.50899
mfkm1쎯	-9.5091
lczs쎯mfz쎯	-9.50916
zni쎯nir쎯	-9.50967
z쎯xe쎯d쎯	-9.50986
sau쎯non쎯	-9.50994
agd쎯ai1쎯	-9.5102
fq쎯、	-9.51125
zwan쎯	-9.51189
zpa쎯	-9.51222
쎁쎉쎀	-9.51256
edl쎯tirr쎯	-9.51256
faed쎯	-9.51338
mfj쎯srr쎯	-9.514
,mazy쎯	-9.51427
zjo쎯	-9.51447
p쎯zo쎯	-9.51497
djl쎯	-9.5151
vab쎯ymo0쎯	-9.51512
ae쎯sm쎯	-9.51544
ajx쎯nm쎯	-9.51549
rjrd쎯	-9.51616
jjiw쎯bm쎯	-9.51665
ezr쎯mbro쎯	-9.51896
vxn쎯	-9.51898
bdzs1쎯mfte쎯	-9.51951
fob쎯xo쎯	-9.51955
fjkr쎯uclk쎯	-9.51969
zmym쎯	-9.52
,hdko쎯	-9.52026
vbi쎯fj쎯km쎯	-9.5203
kskp쎯wlr쎯	-9.5207
mfz쎯xyis쎯syy1쎯	-9.52072
xbg쎯	-9.52081
x쎯rjg쎯	-9.52124
jiv쎯rgs쎯	-9.52197
vwo쎯bnd쎯sli쎯	-9.52235
gxv쎯	-9.52279
mfwm쎯xyis쎯ch쎯	-9.52299
fhk쎯	-9.52339
dk쎯neo쎯y쎯	-9.52364
b쎯cdv쎯	-9.52373
rmx쎯	-9.52381
ajk쎯bmm쎯dpw1쎯	-9.52451
oz쎯pd쎯	-9.52452
drk1쎯dwh쎯	-9.52463
sop쎯ufzp쎯	-9.52472
g쎯j쎯jc쎯	-9.52481
odoa쎯	-9.52614
,si쎯	-9.52614
arku쎯	-9.52656
쎄o쎯	-9.52704
쎄-	-9.52786
ss쎯fds쎯	-9.52791
dqx쎯oda쎯	-9.5284
iaid쎯	-9.52925
jdrt쎯xyis쎯	-9.53011
pi쎯	-9.53032
,dld쎯gdq쎯	-9.53066
xms쎯	-9.53104
ray쎯t쎯	-9.53112
r쎯bg쎯	-9.53116
dpk쎯sm쎯	-9.53215
쎃mamb쎯	-9.5327
yon쎯ncq0쎯	-9.53312
yalk쎯	-9.53327
idjh쎯tded쎯	-9.53328
쎁쎅쎀	-9.53378
zl쎯xbby쎯	-9.53384
oc쎯sli쎯	-9.53388
moa쎯	-9.53458
meb쎯	-9.5346
ybk쎯	-9.53475
dnk쎯	-9.53488
fid쎯	-9.53609
lbj쎯wym쎯	-9.53667
uays쎯	-9.53693
쎅쎈	-9.53694
wye쎯fjw쎯	-9.53725
kic쎯	-9.53731
bnno쎯	-9.53738
ajk쎯xmyj쎯ch쎯	-9.53862
ak쎯yj쎯	-9.53899
nek쎯	-9.53916
qya쎯	-9.5395
di쎯	-9.53976
bdzs1쎯l쎯	-9.5399
cilo쎯nmb쎯	-9.5403
쎅쎆	-9.54044
쎉쎇	-9.54056
ll쎯fj쎯km쎯	-9.54075
nif쎯h쎯	-9.54089
ynd쎯pdw쎯	-9.54094
ufsx쎯	-9.54185
zmxb쎯	-9.54191
edl쎯sjy0쎯	-9.54193
sl쎯ey쎯	-9.54248
aii쎯kojl0쎯	-9.54269
snd쎯	-9.54294
zo쎯paj0쎯	-9.54311
fn쎯	-9.54321
zfj쎯	-9.54383
,eqg쎯	-9.54386
fnk쎯	-9.54486
wwrd쎯wh쎯	-9.54498
aim쎯edy쎯	-9.54558
ni쎯	-9.54591
wa쎯tk쎯d쎯	-9.54641
쎀쎆	-9.5466
,kiym쎯,vx쎯smm쎯,	-9.54662
쎄쎇	-9.54695
khg쎯	-9.54702
psq쎯wbi쎯	-9.54717
heki쎯xkc쎯	-9.54728
vsc쎯skw쎯	-9.5476
ox쎯l쎯	-9.54897
fr쎯hbi쎯	-9.54914
vm쎯vu쎯	-9.54991
jrz쎯	-9.55004
dn쎯zizi쎯	-9.5505
wdrj쎯wms쎯	-9.55183
vszr쎯	-9.55273
ufc쎯jjj쎯	-9.5528
muc쎯nr0쎯	-9.55312
,jd쎯iirr쎯	-9.5538
lorz쎯mbro쎯	-9.55408
kojm쎯dxh쎯	-9.55451
mekb쎯f쎯d쎯	-9.55655
k쎯zo쎯	-9.55733
eao쎯gdq쎯	-9.5577
gbz쎯	-9.55795
nc쎯nfa쎯	-9.55798
bdrd쎯ciz쎯	-9.55799
jmua쎯	-9.55837
jivr쎯	-9.55848
oy쎯gdli쎯ad쎯	-9.55942
vt쎯	-9.55951
,ry쎯dmi쎯	-9.56127
ffb쎯	-9.56184
haj쎯	-9.56253
uaqb쎯ufte쎯	-9.56264
esu쎯	-9.56324
쎇쎈	-9.56334
yteo쎯	-9.56383
odyk쎯ku쎯	-9.56434
ㄧ	-9.56582
mamb쎯hexb쎯	-9.56587
』『	-9.56588
dki쎯	-9.56609
kgw쎯	-9.56629
bsy쎯	-9.56629
yznd쎯	-9.56652
kv쎯mfkd쎯	-9.56728
bi쎯sul쎯	-9.56813
쎁쎉쎅쎈mamb쎯	-9.56818
쎁mamb쎯	-9.56827
fdyy쎯le쎯	-9.56885
,c쎯	-9.56892
쎂.쎅	-9.5693
uomi쎯	-9.56946
zmkm쎯	-9.57132
「	-9.5717
kdmp쎯wd쎯	-9.572
idxo쎯oro쎯	-9.57216
ew쎯bdkv쎯	-9.57216
(),	-9.57229
idxm쎯	-9.57263
zxk쎯nr0쎯	-9.57333
」	-9.57341
mflc쎯	-9.57343
rj쎯bg쎯	-9.57432
,wxl쎯dsw쎯	-9.57447
tird쎯wh쎯	-9.57453
eyo쎯vdnd쎯	-9.57514
쎅mamb쎯	-9.5753
dpv쎯	-9.5757
bdnw쎯a쎯iiko쎯	-9.5758
aku쎯vv쎯	-9.57596
zgp쎯yj쎯y쎯	-9.57603
gdd쎯	-9.57743
vbj쎯	-9.57754
vab쎯oi쎯	-9.57828
z쎯cirh쎯sor쎯so쎯	-9.57831
쎄쎉	-9.57872
tirf1쎯	-9.57969
pnr쎯	-9.58008
syme쎯ai1쎯	-9.58028
ve	-9.58042
zimo쎯xbkv1쎯	-9.58091
rl쎯ryi쎯	-9.58104
nmh쎯lkrs쎯ecp쎯	-9.58118
yh쎯sc쎯	-9.58151
iak쎯	-9.58208
be쎯	-9.5822
mazm쎯	-9.58265
rli쎯	-9.58409
kojl0쎯l쎯	-9.58413
fec쎯	-9.58451
,odod쎯gl쎯	-9.58479
xho쎯	-9.58489
vmg쎯	-9.58505
쎅쎂	-9.58514
ehm쎯	-9.58586
쎄.	-9.58613
ciy0쎯	-9.58714
od쎯nfa쎯	-9.58754
ybu쎯fj쎯km쎯	-9.58846
zq쎯vg쎯	-9.58861
쎀쎃	-9.58868
vk쎯yn쎯	-9.59009
dn쎯bdzy쎯	-9.5906
bimo쎯bizi쎯	-9.59152
kcx쎯zrt쎯	-9.5917
sli쎯aim쎯tgnd쎯	-9.59173
wdtg쎯oi쎯	-9.59177
ymo0쎯ajx쎯rid쎯	-9.5927
bmm쎯szq쎯sjy0쎯	-9.59327
odyk쎯xbby쎯ad쎯	-9.5934
bdzs1쎯mfkd쎯	-9.59351
fff쎯ffv쎯	-9.59355
nl쎯bdzy쎯nr0쎯	-9.59362
gdq쎯yxo쎯cilo쎯	-9.5942
aijr쎯md쎯	-9.59431
odxj쎯kak쎯	-9.59487
mekb쎯tgg쎯sli쎯	-9.59499
xbby쎯su쎯y쎯	-9.59507
,jd쎯	-9.5961
smx쎯	-9.59621
:쎂	-9.59658
edlo쎯aii쎯	-9.59663
tirr쎯sjy0쎯	-9.59689
vik쎯yms쎯	-9.59696
pvgx쎯ucq쎯	-9.59719
bmy쎯gdq쎯	-9.59736
jixo쎯	-9.59747
al쎯mfji쎯	-9.59756
j쎯eao쎯kojr쎯jl쎯	-9.59777
ys쎯vzj1쎯	-9.59858
ecz1쎯	-9.59881
nl쎯nc쎯	-9.59891
uag쎯vsc쎯	-9.59958
wml쎯	-9.60009
opx쎯	-9.60143
tdxi쎯	-9.60219
skrh쎯	-9.60229
odte쎯	-9.60236
gkv쎯	-9.60244
jd쎯iirr쎯	-9.60286
mbmo쎯	-9.60291
qqd쎯	-9.60292
oiiy쎯	-9.60343
byo쎯p쎯	-9.60347
tljr쎯setg쎯	-9.60382
suc쎯zk쎯	-9.60411
,fj쎯	-9.60435
gdq쎯a쎯	-9.60453
gd쎯uanw쎯	-9.60477
wdhb쎯ldod쎯	-9.60506
qux쎯	-9.60582
odob쎯ev쎯ad쎯	-9.60616
jdjl쎯aep쎯	-9.60687
akz쎯wdgq0쎯	-9.60749
sug쎯jjj쎯d쎯	-9.60779
sn쎯oc쎯	-9.60785
gj쎯nlj쎯	-9.61039
dzv쎯	-9.61051
qj쎯	-9.61068
쎈쎅	-9.61086
pkl쎯	-9.61087
xt쎯	-9.61107
nrg쎯	-9.61112
zj쎯kf쎯	-9.61129
fs쎯ch쎯	-9.61214
kkk쎯	-9.61263
d쎯od쎯	-9.61283
jilw쎯bii쎯	-9.61318
mtk쎯mfrk0쎯	-9.61352
sau쎯u쎯	-9.61386
sc쎯f쎯odod쎯ajx쎯	-9.61412
ucgd쎯woj쎯	-9.61496
jiv쎯	-9.61517
glg쎯	-9.61517
wd쎯nsu쎯	-9.61571
r쎯wdgq0쎯	-9.61587
nij쎯	-9.61732
ray쎯xlk0쎯	-9.61777
zmrk쎯	-9.61861
ckb쎯ajx쎯	-9.61935
nxw쎯	-9.62071
.kia쎯ad쎯	-9.62118
d쎯qyx쎯rsym쎯	-9.6214
,oz쎯yaj1쎯	-9.62165
sooy쎯	-9.62168
°C	-9.62168
mfjl쎯	-9.62195
odii쎯ku쎯.	-9.62393
ed쎯mamb쎯	-9.62426
lkc쎯	-9.62458
suk쎯iikg쎯	-9.62463
xkv쎯	-9.62466
쎀쎅	-9.62565
쎀-	-9.62585
kom쎯mamb쎯	-9.62705
nmb쎯oz쎯yaj1쎯	-9.62739
pkr쎯	-9.62746
a쎯tgob1쎯	-9.62764
cbr쎯wdgq0쎯	-9.62909
sbd쎯od쎯	-9.62912
kz쎯vyi쎯	-9.62917
bzma쎯	-9.62982
aii쎯g쎯	-9.62988
hbkd쎯y쎯	-9.62993
qi쎯mbbd쎯d쎯	-9.63049
wnr쎯	-9.63069
쎁쎂쎀	-9.63083
rhyw쎯	-9.63087
ckmh쎯	-9.63114
rly쎯sm쎯	-9.63151
kiay쎯	-9.63216
nklz쎯	-9.6327
qzj쎯	-9.63289
yrm쎯nrs쎯	-9.633
xbkv0쎯xmi쎯	-9.63332
cbn쎯b쎯	-9.63339
myz쎯쎁	-9.63365
qwb쎯	-9.6337
ad쎯a쎯nfa쎯d쎯	-9.63397
vfo쎯	-9.63408
lah쎯	-9.63482
pjj쎯	-9.63526
쎂쎀쎁쎃mamb쎯	-9.6358
r쎯mamb쎯bdkv쎯	-9.63606
tx쎯	-9.63668
sjl쎯fjw쎯oz쎯jirj쎯	-9.63709
mamb쎯tk쎯	-9.63732
쎅쎃	-9.63833
zhy쎯	-9.63839
xbby쎯ad쎯	-9.63878
쎁쎉쎈쎀mamb쎯	-9.63905
쎈쎇	-9.63915
쎆쎈	-9.63938
zmya쎯d쎯	-9.64049
ebb쎯	-9.64126
jdrt쎯xyis쎯owy쎯	-9.6416
vwrd쎯	-9.64173
dwo쎯edwz쎯	-9.64205
xsig쎯ys쎯	-9.64291
sjy0쎯、	-9.64298
bcx쎯	-9.64337
쎀쎂	-9.64424
znl쎯	-9.64439
쎉쎆	-9.64452
fjai쎯oaj쎯	-9.64453
,c쎯nmb쎯	-9.64503
jddm쎯nfa쎯	-9.64514
mfwm쎯	-9.6462
쎁쎉쎇쎈mamb쎯	-9.64642
쎉쎅	-9.64652
mbjw쎯aeb쎯	-9.64684
ymo1쎯ucu쎯	-9.64724
ywb쎯fs쎯	-9.64745
쎅쎄	-9.64749
fkx쎯	-9.64838
aep쎯h쎯y쎯	-9.64853
gqw쎯vhp쎯	-9.64955
kpa쎯	-9.65009
,nmb쎯	-9.65029
kibr쎯	-9.65057
//	-9.65078
zw쎯mblk쎯	-9.65119
wdhb쎯、	-9.65134
gan쎯tl쎯	-9.65157
쎅%	-9.65214
x쎯ri쎯	-9.65238
j쎯nre쎯od쎯yh쎯	-9.65271
ngr쎯ucgd쎯	-9.65331
rsj쎯mfrk0쎯:	-9.65458
jbr쎯ffv쎯	-9.6551
쎁쎉쎈쎁mamb쎯	-9.6552
쎀쎁	-9.65526
jc쎯ri쎯	-9.65554
ed쎯bix쎯	-9.6563
쎆mamb쎯	-9.65642
lbj쎯jby1쎯	-9.65643
.udlk쎯	-9.65651
wh쎯ho쎯	-9.6567
쎈쎆	-9.65727
mnd쎯oaj쎯	-9.65806
fkx쎯wdzf쎯	-9.65809
miwa쎯wdlc쎯	-9.65814
ggnk쎯jd쎯	-9.65866
yji쎯t쎯	-9.65873
ugu쎯makr쎯	-9.65893
쎇쎂	-9.65921
zx쎯vsnd쎯vdwy쎯	-9.66025
uke쎯	-9.66117
ody쎯	-9.66118
uaku쎯	-9.66143
eryy쎯	-9.66147
mw쎯ckb쎯xmyj쎯	-9.66173
vkr쎯oaj쎯	-9.66235
wbi쎯sl쎯	-9.66304
,j쎯eao쎯kojr쎯jl쎯,	-9.66369
fds쎯nsu쎯ad쎯	-9.66382
zob쎯	-9.66455
vejn쎯	-9.66512
oda쎯mbrw쎯	-9.66549
iikg쎯sv쎯	-9.66553
gbb쎯	-9.6656
od쎯so쎯	-9.66562
bdzy쎯gdsw쎯	-9.66608
wyv쎯	-9.66627
bmm쎯dpw1쎯,	-9.66669
wxj쎯	-9.66681
wdaj쎯	-9.66724
edlc쎯oixb0쎯	-9.66728
tirq쎯ks쎯	-9.66802
hdyd쎯h쎯	-9.66825
yon쎯	-9.66894
zx쎯kojl0쎯	-9.66928
tgux쎯	-9.67031
bmrr쎯kal쎯	-9.67048
saii쎯xyis쎯	-9.67055
jyms쎯zimo쎯	-9.67121
sli쎯mfz쎯	-9.67122
쎄mamb쎯	-9.67135
vbz쎯vqf쎯	-9.67142
d쎯ko쎯	-9.67197
kdmp쎯	-9.67209
nak쎯mfkd쎯	-9.67215
,ag쎯	-9.6722
cbn쎯b쎯gj쎯mfjo쎯	-9.67229
gha쎯	-9.67238
zwb쎯oaj쎯um쎯	-9.67276
b쎯nsu쎯	-9.67295
marm쎯jipn쎯	-9.67314
ciq쎯rll쎯	-9.67348
odmw쎯	-9.67373
j쎯tk쎯	-9.67446
ch쎯vbi쎯	-9.67462
dh쎯	-9.67471
tdrl0쎯	-9.67473
tdaj쎯kom쎯	-9.67489
woj쎯kak쎯	-9.67513
u쎯sc쎯,	-9.67514
nmb쎯bmm쎯	-9.67528
gwr쎯	-9.6754
dn쎯bdnw쎯	-9.67597
jjvv쎯	-9.67651
zm쎯ya쎯	-9.67665
gdq쎯《	-9.67743
makr쎯oaj쎯	-9.67798
lolk쎯	-9.6782
md쎯ncq0쎯	-9.67824
wd	-9.67846
nb쎯heqk쎯	-9.67859
nul쎯	-9.67887
szr쎯vea쎯	-9.67916
makr쎯qf쎯	-9.67964
zx쎯ggym쎯	-9.68033
쎀쎄	-9.68049
nb쎯s쎯	-9.68058
wb쎯ucgd쎯	-9.68129
oaw쎯	-9.68198
jir쎯	-9.68242
oos쎯suf쎯	-9.68262
vsc쎯mekb쎯	-9.68262
wyv쎯wai쎯km쎯	-9.68297
nl쎯sc쎯	-9.68349
odnd쎯	-9.68384
myz쎯bix쎯	-9.68388
qm	-9.68411
,rgs쎯paj0쎯	-9.68494
ewz0쎯nx쎯	-9.68503
cag쎯	-9.68516
gd쎯wdgq0쎯	-9.68548
dex쎯fsv쎯od쎯jl쎯	-9.68601
bjr쎯	-9.68675
ggym쎯nmb쎯	-9.6869
kcv쎯	-9.68772
woez쎯	-9.68787
som쎯sv쎯	-9.68789
so쎯mbro쎯	-9.68807
,giw쎯	-9.68813
nji1쎯	-9.68834
sk	-9.68854
kz쎯ya쎯sul쎯rsym쎯	-9.68861
ymo0쎯vb쎯	-9.68878
tdrl1쎯fav쎯	-9.68916
d쎯ecb쎯fav쎯	-9.68944
exi쎯epf쎯	-9.68999
lczw쎯	-9.69044
kku쎯ebm쎯	-9.69073
eoyy0쎯	-9.69093
ll쎯kv쎯	-9.69105
uba쎯	-9.69175
jil쎯	-9.69214
odnd쎯zyj쎯y쎯	-9.69269
bi쎯gg쎯	-9.69278
oaj쎯ld쎯	-9.69321
nrj1쎯ciz쎯	-9.69322
bu쎯yji쎯	-9.69346
sjl쎯mfte쎯dex쎯	-9.6937
aep쎯gdsw쎯	-9.6943
ufzm쎯gxv쎯	-9.69449
py쎯	-9.69458
ch쎯、	-9.69465
odxi쎯miwa쎯	-9.69505
oyl쎯	-9.69521
ar	-9.69547
vbr쎯	-9.6955
oaj쎯h쎯	-9.69564
gl쎯gi쎯	-9.69627
bdzs0쎯edl쎯km쎯	-9.6963
wzd쎯	-9.69639
kae쎯	-9.69655
쎀.쎅	-9.697
wske쎯	-9.69718
pfyy쎯sxb쎯	-9.69769
》j쎯	-9.69777
erb쎯	-9.69791
lco쎯rki쎯	-9.69905
ucnd쎯are쎯	-9.69973
sy쎯gj쎯d쎯	-9.69985
fl쎯ld쎯	-9.70011
db쎯ze쎯	-9.70011
dfb쎯	-9.70014
a쎯drr쎯	-9.70055
ag쎯vb쎯	-9.70183
,lok쎯	-9.7022
my쎯ni쎯	-9.70233
쎁쎉쎇쎉mamb쎯	-9.70242
jal쎯vdnd쎯	-9.70242
hma1쎯mfte쎯	-9.70262
ld쎯bwz쎯	-9.7027
,nl쎯	-9.70271
iwr쎯	-9.70271
쎆쎃	-9.70305
fvxx쎯	-9.70306
yaps쎯	-9.70368
mld쎯	-9.70396
kyj쎯	-9.70397
kz쎯gbs쎯	-9.70479
dpw1쎯xsxi쎯	-9.70521
jy쎯a쎯	-9.70571
xhm쎯xek쎯	-9.70646
ey쎯zq쎯	-9.70745
skwz쎯	-9.7078
bmrr쎯mamb쎯	-9.70794
wwnr쎯	-9.7081
cng쎯	-9.70834
gd쎯kal쎯	-9.70873
kirr쎯odwy쎯	-9.70892
tb쎯nir쎯	-9.70908
,m쎯nt쎯	-9.70919
쎈mamb쎯	-9.71036
mfxw1쎯	-9.71041
wdrb쎯	-9.7117
ekc쎯	-9.7118
ks쎯ho쎯	-9.71194
edyy2쎯	-9.71239
gae쎯woqy쎯j쎯wz쎯	-9.71264
ewf쎯vas쎯	-9.71339
bix쎯mamb쎯	-9.71349
bdzs1쎯hejc쎯	-9.71402
bi쎯nmi쎯d쎯	-9.71422
sor쎯bbz0쎯	-9.71509
mfwm쎯xyis쎯	-9.71606
zx쎯ckb쎯	-9.71615
wdgq0쎯edy쎯ob쎯	-9.71676
biaz쎯	-9.71685
yrez쎯tdys쎯	-9.71709
s쎯kq쎯	-9.71718
ffv쎯ku쎯	-9.71759
j쎯sjy0쎯	-9.71764
cd쎯ed쎯	-9.71796
jdrt쎯nx쎯	-9.71799
쎈쎈	-9.71805
쎁쎉쎄쎉mamb쎯	-9.71808
j쎯ll쎯	-9.71872
oirg쎯	-9.71915
tlod쎯	-9.71919
udlk쎯zx쎯	-9.71937
쎇쎆	-9.71963
)k쎯	-9.71996
wb쎯ucu쎯d쎯	-9.72079
miwa쎯l쎯	-9.72144
yh쎯jc쎯	-9.72211
sjwm쎯	-9.72314
fdmj쎯	-9.7233
쎅oz쎯kb쎯	-9.72339
ufsx쎯ox쎯	-9.72349
esn쎯	-9.7235
paj0쎯bdkv쎯	-9.72358
rly쎯pfxb쎯	-9.72358
ns쎯l쎯	-9.7239
nfa쎯xo쎯	-9.72396
쎁쎉쎅쎆mamb쎯	-9.72481
woj쎯kro쎯	-9.72534
vrw쎯	-9.72556
d쎯sf쎯	-9.72573
pcd쎯	-9.72601
gi쎯dsw쎯	-9.72629
쎂mamb쎯	-9.72629
kd쎯tk쎯:	-9.72646
fl쎯bdzm쎯	-9.72657
d쎯edjm쎯ajx쎯	-9.7266
dka쎯	-9.72689
nf쎯	-9.72689
wdrr쎯d쎯	-9.7274
fq쎯mblk쎯	-9.72757
xii0쎯nk쎯	-9.7281
dag쎯	-9.72876
uaky쎯	-9.72885
gj쎯mfjo쎯쎁	-9.72912
sli쎯ho쎯	-9.72945
maj쎯uanw쎯	-9.73012
rj쎯o쎯	-9.73052
gqw쎯	-9.73088
uc	-9.73105
ceaz쎯	-9.73111
kql쎯	-9.7312
sujr쎯rx쎯	-9.73181
ceug쎯kql쎯	-9.73226
vwa쎯jkk쎯	-9.73233
yom쎯y쎯	-9.73247
pxby쎯	-9.73263
mw쎯ckb쎯、	-9.73396
d쎯b쎯sy쎯	-9.73399
bd쎯mamb쎯	-9.73403
wyv쎯wai쎯	-9.73502
nb쎯》:“	-9.73527
kom쎯sme쎯	-9.7356
l쎯jjj쎯	-9.7356
hefb쎯	-9.73615
qi쎯mbbd쎯	-9.7362
sow쎯k쎯	-9.73638
zsy쎯zjo쎯	-9.73652
sgl쎯	-9.73662
fia쎯	-9.73706
um쎯pdel쎯	-9.73728
sai쎯	-9.73892
wms쎯b쎯sug쎯	-9.73973
nbbq쎯	-9.73987
zzl쎯	-9.74006
ayw쎯	-9.74054
lo쎯	-9.74063
wmq쎯	-9.74078
sj쎯ku쎯	-9.74088
kojr쎯edx쎯sjy0쎯	-9.74127
mbds쎯zym쎯	-9.74145
ymo1쎯mbjw쎯	-9.7417
zrcw쎯	-9.74197
hew쎯pkl쎯	-9.74223
kz쎯jjg쎯	-9.74317
edlo쎯wdtg쎯	-9.74362
vwr쎯	-9.74363
a쎯bg쎯	-9.74402
wdpo쎯owy쎯	-9.74482
xswl쎯	-9.74499
yi쎯.”	-9.7454
kz쎯wlr쎯zsj쎯	-9.74626
nkic쎯	-9.74641
vxf쎯	-9.74647
.la쎯uaqk쎯	-9.74706
fb쎯bwz쎯	-9.74718
link쎯	-9.74727
ned쎯	-9.74764
joa쎯rko쎯vwp쎯	-9.74808
oz쎯ae쎯	-9.74828
쎆o쎯	-9.74833
eh쎯bsj쎯	-9.74885
fvni쎯	-9.74887
rid쎯ad쎯	-9.74928
edgs쎯	-9.74929
ew	-9.7504
elgd쎯gdzn쎯	-9.75063
cejo쎯rsym쎯	-9.7509
nij쎯paj0쎯	-9.75107
gd쎯ybz쎯	-9.75152
sxo쎯zmya쎯	-9.75153
d쎯mc쎯vmi쎯	-9.75192
쎅쎇	-9.75227
zizi쎯y쎯	-9.75237
fjv쎯	-9.75273
rhys쎯	-9.75283
xs쎯rsj쎯	-9.75306
bju쎯pvgx쎯	-9.75327
jjiw쎯	-9.75327
wo쎯	-9.75427
,uae쎯lc쎯	-9.75523
ri쎯xl쎯	-9.7554
mqy쎯	-9.75557
wsb쎯ob쎯sc쎯sos쎯	-9.75572
vwd쎯ufoy쎯	-9.75693
vea쎯skw쎯	-9.75781
ds쎯	-9.75787
쎁쎉쎆쎃mamb쎯	-9.7579
lbg쎯	-9.75794
쎆쎇	-9.75802
i쎯sli쎯	-9.7585
oc쎯km쎯	-9.75883
kku쎯iai쎯	-9.75891
a쎯wd쎯d쎯	-9.75927
tded쎯rx쎯	-9.75968
a쎯nfa쎯	-9.76049
vas쎯	-9.76094
yms쎯kd쎯	-9.76153
”mbds쎯	-9.76178
sni쎯	-9.76188
-쎄	-9.76194
sug쎯kak쎯	-9.76233
sli쎯zym쎯	-9.76267
r쎯mwl쎯	-9.76283
ˋ	-9.7631
cexs쎯oiad쎯y쎯	-9.76321
idjh쎯baa쎯	-9.76395
xbby쎯sso쎯	-9.76431
ehn쎯	-9.76439
ecb쎯ad쎯	-9.76484
bdnw쎯ja쎯	-9.7649
biym쎯som쎯	-9.76558
nyn쎯bmm쎯	-9.76591
kojl0쎯rsym쎯	-9.76622
xby쎯	-9.76622
syy1쎯ehe쎯	-9.76638
mekb쎯kak쎯	-9.76658
udlk쎯nmb쎯	-9.76678
akm쎯mekb쎯	-9.76689
xyis쎯·	-9.76698
fubd쎯	-9.76719
oiel쎯cgi쎯	-9.76829
fdyy쎯oaj쎯	-9.76888
wdml쎯t쎯	-9.76895
쎇쎇	-9.76897
drs쎯	-9.77067
kojl0쎯lr쎯	-9.77097
,zmyi쎯	-9.77156
aep쎯,	-9.7724
ke쎯ecq1쎯	-9.77286
zzm쎯pe쎯	-9.77375
oal쎯	-9.77435
nqa쎯	-9.77454
equ쎯	-9.77481
dm쎯zq쎯	-9.77482
kz쎯my쎯	-9.77507
bu쎯ch쎯	-9.77538
bjv쎯ffv쎯	-9.77555
nmh쎯	-9.77585
od쎯ajx쎯	-9.77633
fdmz쎯	-9.77732
dgx쎯	-9.77734
yybd쎯hbmo쎯	-9.77755
shwz쎯	-9.77801
.ec쎯j쎯	-9.77815
fhx쎯	-9.77872
c쎯byo쎯	-9.7807
ciyl쎯	-9.78071
sb쎯kal쎯	-9.78078
lcym쎯ckb쎯	-9.78084
dsz쎯rli쎯	-9.78085
mekb쎯sf쎯	-9.78092
.odod쎯	-9.78106
saii쎯uby쎯	-9.78155
h쎯oy쎯	-9.78188
oylk쎯	-9.78207
qwx쎯	-9.7821
nbzd쎯	-9.7828
ear쎯	-9.78309
bhv쎯pe쎯	-9.78364
g쎯iirr쎯	-9.78369
voq쎯	-9.7841
vae쎯	-9.78421
hdzi쎯	-9.78434
ehi쎯	-9.78446
sc쎯mw쎯	-9.78508
su	-9.78518
ubmd쎯	-9.78585
yobv쎯	-9.78611
h쎯sj쎯	-9.78684
hdko쎯sjy0쎯	-9.78724
gi쎯pmy쎯pl쎯	-9.7875
odob쎯ev쎯g쎯	-9.78763
xyis쎯vb쎯wdgq0쎯	-9.78778
uanl쎯xki쎯	-9.78811
fdk쎯	-9.78829
kojl1쎯	-9.78838
udlk쎯g쎯	-9.78873
nb쎯zef쎯	-9.78894
yya쎯gdq쎯	-9.78948
fal쎯	-9.79008
nmi쎯idjh쎯	-9.79039
jd쎯ciz쎯	-9.79045
nhm쎯	-9.79074
odxi쎯	-9.79107
z쎯dwh쎯	-9.79132
a쎯vs쎯d쎯	-9.79144
쎂쎀쎁쎀	-9.79165
kojr쎯zl쎯	-9.79166
dtg쎯xe쎯	-9.79224
쎁쎉쎆쎄mamb쎯	-9.79229
dax쎯	-9.79247
sod쎯	-9.79248
hma1쎯kal쎯	-9.7932
eru쎯	-9.79393
jddm쎯zbj쎯	-9.79483
,zm쎯,	-9.79487
tgxy쎯	-9.79541
.쎁쎂	-9.79552
udyz쎯	-9.79555
sc쎯nfa쎯	-9.79575
a쎯nsu쎯	-9.79576
mfrk0쎯jaz쎯.	-9.79579
a쎯mzv쎯ark쎯	-9.7958
sul쎯fb쎯	-9.79656
mfok0쎯	-9.79711
gae쎯woqy쎯ob쎯	-9.7979
kcwz쎯	-9.79794
nr1쎯d쎯	-9.79856
nfg쎯	-9.79887
》sbd쎯:“	-9.79888
maed1쎯	-9.79914
agd쎯vxbd쎯sli쎯	-9.79914
alo쎯	-9.79993
krrr쎯	-9.80001
zmxb쎯zm쎯	-9.80041
쎆쎂	-9.8007
(쎂)	-9.80119
wdki0쎯sed쎯	-9.8014
wbk쎯bmm쎯	-9.80148
nbds쎯	-9.8027
odxj쎯gdq쎯	-9.80311
jnj쎯	-9.80316
ㄨ	-9.80343
dry0쎯	-9.80373
wr쎯nmi쎯mbro쎯	-9.80393
xmyj쎯xmyj쎯ch쎯	-9.80455
fekg쎯aeb쎯	-9.80497
fdyy쎯nm쎯	-9.80534
qmek쎯	-9.80555
t쎯nxb쎯	-9.80556
p쎯skq1쎯	-9.80573
eqg쎯tirg쎯	-9.80575
fdjy쎯	-9.80593
ioow쎯	-9.80726
yk쎯lczs쎯	-9.80746
so쎯edgs쎯	-9.80756
bdzy쎯nmi쎯	-9.80798
klg쎯	-9.80886
nsr쎯dmh쎯	-9.80903
tirg쎯.	-9.80908
vcq쎯kv쎯	-9.80916
mfji쎯ufgd쎯	-9.80929
ytoe쎯	-9.80962
쎇쎃	-9.81025
ch쎯.	-9.81039
vwrd쎯yk쎯	-9.81124
쎆쎉	-9.8128
ko쎯aeb쎯	-9.81315
nkw쎯	-9.81324
vns쎯	-9.81332
d쎯ggym쎯jos쎯	-9.81374
쎂쎀쎀쎆	-9.81376
eako쎯pa쎯	-9.81387
mfpn쎯	-9.814
rid쎯ckb쎯jjg쎯	-9.81405
oue쎯	-9.81428
kcx쎯ke쎯	-9.81445
쎂쎀쎀쎈	-9.81449
쎅쎉	-9.81464
puj쎯	-9.81472
rre쎯ku쎯paj0쎯	-9.81518
nlo쎯rhko쎯sjy0쎯	-9.81533
yzzz쎯	-9.81567
ggnk쎯lok쎯	-9.81646
쎀.쎀	-9.81652
,la쎯uaqk쎯	-9.81658
ecb쎯sjy0쎯	-9.81665
njf쎯gdiy쎯	-9.81685
wdgq0쎯smm쎯	-9.81699
nsb쎯	-9.81714
odii쎯	-9.81723
eyd쎯fsv쎯wdgq0쎯	-9.81758
rl쎯t쎯	-9.818
jh쎯	-9.81861
uazw1쎯	-9.81862
bni쎯	-9.81873
wdrj쎯wm쎯dk쎯neo쎯	-9.81896
ed쎯a쎯	-9.81915
k쎯gij쎯	-9.8193
gdqy쎯	-9.81997
d쎯nmi쎯l쎯	-9.82095
dyeo쎯waz쎯	-9.82175
dtg쎯gd쎯	-9.82184
tdni쎯rki쎯	-9.82214
ngr쎯nr0쎯	-9.82305
mb	-9.82316
》mbds쎯.	-9.8238
uaxk쎯nmb쎯	-9.82469
fl쎯koxb쎯	-9.82502
edy쎯lcym쎯	-9.82523
l쎯bdkv쎯	-9.8256
nsy쎯	-9.82565
rr쎯nar쎯	-9.82597
vm쎯edl쎯	-9.82605
lk쎯mamb쎯	-9.82605
d쎯《	-9.82609
uag쎯pxby쎯	-9.82612
vhp쎯	-9.82635
gi쎯ob쎯	-9.82686
쎉쎄	-9.82691
qdf쎯	-9.8285
dek쎯symy쎯	-9.82868
edy쎯sso쎯	-9.82998
쎄쎁	-9.83047
yj쎯odjm쎯gd쎯	-9.83071
njaz쎯	-9.83077
sod쎯sjo쎯	-9.83112
exn쎯	-9.83223
ebm쎯gdq쎯	-9.83233
idxo쎯gai쎯	-9.83296
bdnw쎯nir쎯	-9.83331
vfk쎯	-9.83364
ry쎯odxj쎯	-9.83375
ag쎯zhm쎯	-9.83435
tlvm쎯	-9.83498
mdl쎯hbkd쎯	-9.83615
tg쎯vdnd쎯sli쎯	-9.83659
ngb쎯	-9.83706
,mbrd쎯paj0쎯	-9.83725
wdgq0쎯lco쎯	-9.83726
ssy쎯	-9.83728
c쎯wdtg쎯	-9.83769
xm	-9.83809
ka쎯ecq1쎯	-9.83816
ldod쎯mfte쎯	-9.83869
fekg쎯evyy쎯	-9.83876
hiy쎯	-9.83895
wd쎯sos쎯	-9.83916
ggnk쎯rsj쎯	-9.83943
udjw쎯zx쎯ckb쎯	-9.84019
vmr쎯tdrx쎯	-9.84036
.쎂.	-9.84081
ngr쎯bh쎯	-9.84096
gds1쎯yk쎯	-9.84129
prj쎯	-9.84143
rhxy쎯	-9.84146
au쎯oirg쎯	-9.84168
,nka쎯k쎯	-9.8418
nar쎯zj쎯	-9.84218
rsj쎯u쎯	-9.84219
z쎯kz쎯	-9.84234
brt쎯ryt쎯	-9.84237
ay쎯od쎯	-9.84238
rsj쎯:	-9.8425
rgy쎯	-9.84294
iirf쎯	-9.84306
nji0쎯	-9.84381
쎁쎉쎆쎂mamb쎯	-9.8439
gak쎯plk쎯	-9.8441
ekr쎯	-9.84447
np쎯fav쎯	-9.84455
td쎯	-9.84521
drk1쎯fb쎯	-9.84583
k쎯a쎯rsj쎯	-9.84616
fekg쎯dzo쎯	-9.84691
ibi쎯	-9.84747
ed쎯oa쎯	-9.84772
fjlo쎯	-9.84801
r쎯zef쎯nfa쎯	-9.84809
neo쎯tgva쎯	-9.84827
쎃.쎅	-9.84838
bdzs1쎯ebm쎯	-9.8492
qt쎯	-9.84921
dlb쎯	-9.85013
nzor쎯	-9.8508
mgn쎯	-9.85098
oz쎯wdz쎯	-9.85133
”u쎯	-9.85155
-쎃	-9.85177
tdx쎯	-9.8519
emkb쎯ajx쎯ch쎯	-9.85197
vrv쎯	-9.85209
uo쎯he쎯sij쎯	-9.85316
nmbq쎯	-9.85379
ay쎯au쎯sy쎯uf쎯	-9.85395
쎅o쎯	-9.85395
m쎯nt쎯d쎯	-9.85418
xb쎯tdro쎯	-9.8542
bilo쎯	-9.85438
쎈-	-9.85441
oc쎯fds쎯	-9.85464
gd쎯vdwy쎯mc쎯	-9.85501
●	-9.85516
쎅쎁	-9.857
p쎯xmi쎯	-9.85737
bmy쎯sli쎯	-9.85751
ucyy쎯	-9.85765
쎇-	-9.85819
seps쎯	-9.85831
d쎯kskp쎯jnj쎯	-9.85902
kv쎯mfpn쎯	-9.85957
qdos쎯yobv쎯	-9.85974
sjwg쎯nre쎯	-9.86014
nl쎯m쎯	-9.86032
mfrk0쎯“	-9.86032
uagw1쎯	-9.86056
ynd쎯xmi쎯	-9.86087
xga쎯	-9.86149
lk쎯o쎯	-9.86156
,eao쎯	-9.86256
od쎯bi쎯	-9.86269
waz쎯nmi쎯	-9.86271
ed쎯sov쎯	-9.86356
nsr쎯dx쎯	-9.86428
ns쎯nlwz쎯nr0쎯	-9.8645
mfte쎯、	-9.86461
baa쎯mc쎯yybd쎯kal쎯	-9.86469
kv쎯tgh쎯	-9.86483
subl쎯	-9.86594
tma쎯	-9.86634
ak쎯rsj쎯u쎯	-9.86676
쎆-	-9.86685
deq쎯	-9.86713
vuz쎯	-9.86721
fld쎯	-9.86726
&	-9.8674
oc쎯xyis쎯	-9.868
uanl쎯tdro쎯	-9.86815
jbr쎯ho쎯	-9.86829
vcq쎯nh쎯	-9.86839
쎁쎈쎀	-9.86845
dyx쎯》	-9.86896
haw쎯vdwl쎯	-9.86899
ewy1쎯bdzy쎯ym쎯	-9.8691
zqr쎯	-9.86929
vklx쎯	-9.86937
.c쎯	-9.86946
oz쎯bdrd쎯	-9.86951
쎁쎉쎆쎅mamb쎯	-9.86955
nmi쎯l쎯.	-9.86971
gd쎯yod쎯	-9.86984
skw쎯sjo쎯	-9.87025
sc쎯ymo0쎯	-9.87055
oixb1쎯kal쎯	-9.87076
kcx쎯lco쎯	-9.87085
dyeo쎯	-9.87091
pdxs쎯klg쎯	-9.87095
kiz쎯	-9.87141
jc쎯uanw쎯	-9.87171
bsq쎯	-9.87191
jji쎯	-9.87194
,sj쎯	-9.87198
mbds쎯sy쎯gj쎯	-9.8727
zmyi쎯d쎯	-9.87276
qmyy쎯	-9.87307
쎂쎀쎀쎇	-9.87313
nkc0쎯suwl쎯	-9.87323
ahi쎯jjg쎯	-9.87413
gd쎯sjy0쎯oy쎯	-9.87443
ea	-9.87498
xms쎯ds쎯:	-9.87505
bgi쎯	-9.87507
mblk쎯h쎯	-9.87559
쎇쎀쎀	-9.87593
rjsw쎯	-9.87618
ecb쎯jd쎯	-9.87658
tdys쎯	-9.87668
쎇쎉	-9.87677
a쎯rsj쎯	-9.87691
ldos쎯	-9.87715
fx쎯haz쎯	-9.87728
.nka쎯	-9.87884
odyk쎯skw쎯	-9.87914
eb쎯xbno쎯	-9.87922
.udlk쎯nmb쎯	-9.87947
kv쎯vxr쎯	-9.87984
oaj쎯uae쎯	-9.88013
nmbq쎯nek쎯	-9.88047
ggyg쎯wdrj쎯	-9.88055
jo쎯k쎯	-9.88102
쎃쎀쎀쎀	-9.88132
cirh쎯gdw쎯	-9.88156
sol쎯ya쎯	-9.88162
nhk쎯oda쎯	-9.88217
----------------	-9.88249
ecp쎯mbbd쎯	-9.88257
bdzw쎯bdzy쎯jl쎯	-9.88267
wdmi쎯	-9.88295
xaj쎯syy1쎯	-9.88315
wym쎯zzg쎯	-9.8833
oip쎯	-9.8834
쎁쎀-	-9.88442
gbk쎯	-9.88454
gd쎯ob쎯	-9.8846
hejk쎯ncds1쎯	-9.8859
od쎯yh쎯mli쎯	-9.88603
fuy쎯	-9.88606
rsym쎯ckb쎯ajx쎯	-9.88621
yjl쎯	-9.88628
ckb쎯odxw쎯,	-9.88703
kskp쎯nx쎯	-9.88703
b쎯ckb쎯nsu쎯le쎯	-9.88723
wtyd쎯j쎯	-9.88743
mc쎯gdiy쎯	-9.88796
d쎯kd쎯ni쎯	-9.88884
xmrr0쎯aku쎯	-9.88904
ae쎯dgv쎯	-9.88923
ai1쎯d쎯	-9.88969
ecq1쎯aek쎯	-9.8899
jc쎯yh쎯kojr쎯	-9.89028
bwk쎯	-9.89054
bjp쎯	-9.89055
lczs쎯aim쎯tgnd쎯	-9.89056
l쎯odmw쎯	-9.89111
vsl쎯	-9.89114
vdwy쎯wdgq0쎯	-9.89117
yaj1쎯vb쎯	-9.89129
,hj쎯	-9.89196
yrn쎯	-9.89256
g쎯zhm쎯	-9.89266
jy쎯ri쎯	-9.89297
gx쎯bgi쎯	-9.89427
mli쎯	-9.89448
,dy쎯	-9.89469
ˊ	-9.8947
,ak쎯	-9.89529
syy1쎯》	-9.89542
kdml0쎯vl쎯	-9.89561
zob쎯akz쎯	-9.89583
fav쎯jjj쎯	-9.89607
kdml0쎯wdrb쎯	-9.89618
uosu쎯	-9.89624
gh쎯	-9.89625
flt쎯	-9.89667
zmby쎯	-9.89732
eao쎯sug쎯kojr쎯,	-9.89877
k쎯a쎯bb쎯	-9.89959
aep쎯woj쎯	-9.89961
oz쎯rgo쎯	-9.90002
gi쎯oiad쎯	-9.90012
,vm쎯dgx쎯	-9.90024
ajx쎯ku쎯udke쎯nsu쎯	-9.90059
fvry1쎯	-9.90163
,zx쎯	-9.90166
yi쎯aij쎯zo쎯	-9.90188
mfji쎯ya쎯	-9.90191
heqy쎯	-9.90247
dex쎯biaz쎯	-9.90265
,xmi쎯ad쎯	-9.90328
tg쎯dpk쎯	-9.90354
odw쎯od쎯	-9.90471
tg	-9.9052
zzym쎯rd쎯	-9.90555
tel쎯	-9.90609
mzv쎯zs쎯d쎯	-9.90642
、sjl쎯	-9.9065
y쎯a쎯o쎯	-9.90668
mbq쎯	-9.90682
gdee쎯	-9.90708
dyx쎯uanw쎯	-9.9071
hid쎯	-9.90739
oi쎯bdzy쎯	-9.90822
ty쎯	-9.90841
uae쎯gi쎯	-9.90843
fj쎯ehz쎯	-9.90908
lb쎯gm쎯vbi쎯km쎯	-9.90927
ai1쎯sq쎯	-9.90929
cd쎯gd쎯	-9.9093
vxw쎯	-9.9096
edlc쎯xmi쎯	-9.90972
vs쎯bdzy쎯	-9.90975
,zq쎯	-9.91018
vbz쎯	-9.91024
쎇쎄	-9.91024
fj쎯cuc쎯hi쎯	-9.91139
ucgd쎯ox쎯	-9.91156
pq쎯	-9.91183
쎉-	-9.91251
gae쎯woqy쎯sy쎯nlj쎯	-9.91261
vbi쎯edl쎯	-9.91317
qd쎯o쎯	-9.91322
vb쎯bdol쎯	-9.91365
쎀uf쎯,	-9.91416
쎅쎀edjr2쎯	-9.91433
ae쎯z쎯ho쎯	-9.91452
쎁쎂쎈	-9.915
emkb쎯	-9.91511
,yj쎯	-9.91519
.fav쎯xyis쎯	-9.91521
myz쎯쎂	-9.91607
ldo쎯i쎯	-9.91619
edeq쎯ruc쎯	-9.91634
i쎯ai1쎯	-9.91647
uazz쎯	-9.91649
ubkd쎯	-9.91653
:쎃	-9.91685
zyl쎯	-9.91775
dzo쎯	-9.91823
ckb쎯rly쎯	-9.91834
쎈쎂	-9.91898
mekb쎯wlr쎯	-9.91902
eoy쎯	-9.91962
kz쎯jirj쎯	-9.91973
vwo쎯pvwx쎯	-9.91976
eaoy쎯	-9.91992
ns쎯vas쎯	-9.92008
fj쎯sy쎯	-9.92042
xrz쎯xii0쎯	-9.92042
gd쎯gan쎯	-9.92046
sau쎯nej쎯	-9.92054
vsnd쎯edl쎯	-9.92116
ryt쎯	-9.92134
uf	-9.92199
mfkf1쎯	-9.92212
majn쎯	-9.92237
idke쎯	-9.92277
uooj쎯	-9.92375
ux쎯rhko쎯	-9.9241
dn쎯egiy쎯	-9.92438
drk1쎯wd쎯	-9.92648
ydat쎯fq쎯	-9.92713
fcb쎯	-9.92718
rre쎯	-9.92742
majk쎯ccx쎯	-9.92745
vm쎯wh쎯	-9.92748
ae쎯sq쎯	-9.92753
mfz쎯jl쎯,	-9.92762
(쎁)	-9.92793
vff1쎯	-9.92796
dkr쎯	-9.92797
fdm쎯pdel쎯	-9.92937
myz쎯a쎯o쎯	-9.92962
kdml0쎯dwb쎯	-9.92987
gd쎯hew쎯	-9.93016
dcx쎯	-9.9312
쎁쎈쎈	-9.93169
ufzm쎯dx쎯bdkv쎯vg쎯	-9.93179
xed쎯	-9.93212
sf쎯ho쎯	-9.93288
oy쎯sol쎯	-9.9333
syy1쎯bm쎯	-9.93363
쎀×	-9.93386
efa쎯	-9.9348
yi쎯.	-9.93543
bdnw쎯mfjc쎯	-9.93634
pfki1쎯	-9.93634
.쎂、	-9.9366
oixo쎯gd쎯	-9.93677
b쎯bii쎯	-9.93697
jdrt쎯nrj1쎯	-9.937
djv쎯	-9.93715
fds쎯,	-9.93754
ch쎯vkm쎯	-9.93788
d쎯sy쎯vb쎯	-9.93789
sjya쎯	-9.93849
evy쎯	-9.93861
od쎯ym쎯tdrl1쎯vg쎯	-9.93884
he쎯hal쎯	-9.93896
xmzz쎯	-9.94043
ya쎯,	-9.94106
sja쎯	-9.94195
sefj쎯	-9.94196
jl쎯,	-9.94219
e쎯kion쎯i쎯	-9.94318
hepk쎯	-9.94348
zizi쎯bdkv쎯	-9.9439
qmrj쎯	-9.94425
tdni쎯grl쎯	-9.94461
uagy쎯vdnd쎯	-9.94481
fdek쎯	-9.94617
qdos쎯ks쎯	-9.94644
djq쎯	-9.94695
pdw쎯mamb쎯bdkv쎯	-9.94698
prc쎯	-9.94721
mw쎯ckb쎯nfa쎯mzv쎯	-9.94774
쎂쎅쎀	-9.94781
쎀odmf쎯mwl쎯	-9.94811
idke쎯bh쎯	-9.94826
쎅쎀쎀쎀	-9.94827
rjrd쎯tqx쎯	-9.94857
bmm쎯cejo쎯bi쎯	-9.94901
ll쎯lczs쎯	-9.94919
oy쎯seus쎯sv쎯	-9.94922
akz쎯gj쎯	-9.94923
jmua쎯jyms쎯	-9.94931
mxm쎯	-9.94988
zhm쎯jirj쎯	-9.95014
qyx쎯rsym쎯,	-9.95065
tbo쎯	-9.95096
dz쎯	-9.95162
ce	-9.95167
,kcx쎯zrt쎯zbj쎯kf쎯	-9.95265
ew쎯odwg쎯	-9.95265
feq쎯	-9.95317
llbb쎯	-9.95331
쎁쎉쎇쎀mamb쎯	-9.95341
ad쎯an쎯t쎯b쎯jdrt쎯	-9.95343
zo쎯an쎯t쎯b쎯jdrt쎯u	-9.95346
bi쎯od쎯	-9.95354
fzm쎯dx쎯u쎯tdni쎯.	-9.95364
.",(){(	-9.95431
.("/////	-9.95432
skw쎯lr쎯	-9.9546
쎁쎀쎀쎀쎀쎈쎀쎁);});	-9.95468
biy1쎯	-9.95499
jc쎯gdq쎯	-9.95502
ciq쎯kom쎯mamb쎯	-9.95534
d쎯sq쎯sed쎯	-9.95537
wbk쎯rrk쎯	-9.95543
ydat쎯oi쎯	-9.95578
fekk쎯	-9.95671
,sjl쎯	-9.95677
vik쎯	-9.95696
pvzw쎯	-9.95769
nbu쎯	-9.95795
ba쎯bser쎯	-9.95799
qme쎯	-9.95809
a쎯edx쎯	-9.95845
vmj쎯	-9.95884
gd쎯bdzs1쎯	-9.9589
zmvr쎯	-9.959
쎁쎉쎇쎆mamb쎯	-9.95912
gdoo쎯	-9.95942
zx쎯ewj쎯ckb쎯odxw쎯	-9.96009
gl쎯lc쎯	-9.96011
,lc쎯	-9.96045
z쎯gdw쎯	-9.96194
yj쎯dq쎯	-9.96226
jed쎯nx쎯	-9.96249
rhko쎯yod쎯	-9.96322
sucq쎯	-9.96333
ay쎯jh쎯	-9.96342
sc쎯vwa쎯	-9.96389
yk쎯kg쎯	-9.96415
bjv쎯ffv쎯km쎯	-9.96458
tdrl1쎯sye쎯	-9.96541
dsq쎯ka쎯	-9.96543
ezr쎯jjj쎯	-9.96593
hefb쎯lcym쎯	-9.96639
kic쎯scq쎯	-9.96672
,iirr쎯	-9.96681
rhyl쎯	-9.96734
setg쎯xyis쎯	-9.96742
xxx쎯	-9.96767
yb쎯ib쎯	-9.96786
uag쎯ey쎯	-9.96808
mfkp쎯	-9.96855
qd쎯mua쎯	-9.96959
a쎯vs쎯	-9.96978
wa쎯uaqk쎯	-9.96983
aij쎯mbjk쎯	-9.96993
sefj쎯fia쎯	-9.97001
odyk쎯su쎯	-9.97059
vmy쎯	-9.9707
bka쎯	-9.9707
kz쎯fq쎯	-9.97074
au쎯gj쎯	-9.97078
ymo1쎯u쎯	-9.97102
sov쎯mamb쎯	-9.97185
mfmw쎯kq쎯	-9.97209
gqw쎯iiko쎯	-9.97236
eaqm쎯so쎯	-9.97252
d쎯odii쎯ku쎯	-9.97311
oaj쎯pa쎯	-9.97318
,jd쎯u쎯	-9.97334
bdol쎯oixb1쎯	-9.97417
gdli쎯xmyj쎯	-9.97454
ajl쎯oaj쎯	-9.97473
xl쎯wdrb쎯	-9.97497
nc쎯no쎯	-9.97528
r쎯mamb쎯d쎯	-9.97535
쎉쎂	-9.9761
sm쎯g쎯	-9.9761
un쎯	-9.9763
koq쎯	-9.97706
vrd쎯	-9.97716
k쎯a쎯wdgq0쎯nif쎯	-9.97725
xbby쎯mbjw쎯	-9.97742
ux쎯dax쎯	-9.9776
aeb쎯jaz쎯	-9.97803
fjkr쎯	-9.97887
hefb쎯yybd쎯	-9.97889
uazw0쎯	-9.97907
vpk쎯	-9.97967
yrk쎯	-9.97978
uae쎯lc쎯	-9.98036
ufgd쎯nz쎯	-9.98116
qob쎯	-9.98167
ufzm쎯ed쎯	-9.98168
oy쎯oz쎯yaj1쎯	-9.98169
cey쎯	-9.98209
cejo쎯mfrk0쎯	-9.98245
vdwy쎯ob쎯ob쎯jl쎯	-9.98293
udjw쎯zimo쎯oda쎯	-9.98328
vk쎯nr0쎯	-9.98335
jyia쎯	-9.98401
jrd쎯udyz쎯	-9.98461
b쎯gj쎯	-9.98549
dyx쎯aek쎯	-9.98569
쎁쎉쎆쎀mamb쎯	-9.98583
p쎯g쎯	-9.98647
wsa쎯vdnd쎯	-9.98661
wa쎯j쎯	-9.98673
′	-9.98679
sf쎯yj쎯bxi쎯	-9.98686
ucq쎯tdjr쎯ai1쎯	-9.98687
idlo쎯	-9.98727
nim쎯rsv쎯	-9.98785
fxh쎯	-9.98803
marm쎯zsj쎯	-9.9882
jl쎯、	-9.98821
,a쎯pq쎯	-9.98828
uf쎯.	-9.98831
rbk쎯	-9.98838
zy쎯suf쎯	-9.98856
erf쎯erez쎯	-9.98859
vg쎯ad쎯	-9.98884
ufgd쎯jk쎯	-9.98897
ec쎯wdtg쎯	-9.98955
ymo0쎯ckb쎯	-9.98955
ji쎯cdv쎯nlo쎯rhko쎯	-9.98977
ajx쎯rsym쎯	-9.99056
쎂쎀쎁쎁	-9.99085
쎇mamb쎯	-9.99091
wdkz쎯	-9.9913
q쎯zgp쎯yj쎯bi쎯nmi쎯	-9.9916
mcd쎯	-9.99188
():	-9.9922
um쎯mfj쎯	-9.99225
mob쎯	-9.99229
sky쎯	-9.99274
dsw쎯bzs쎯	-9.99336
tgoo쎯	-9.9936
sjl쎯vkl쎯	-9.99394
z쎯kq쎯	-9.99407
zmsx1쎯	-9.99422
ch쎯t쎯	-9.99429
gij쎯	-9.99475
rj쎯b쎯	-9.99487
jbv쎯	-9.99525
eao쎯sjya쎯	-9.99594
aed쎯uojf쎯	-9.99607
wh쎯yod쎯	-9.99617
eb쎯xbno쎯km쎯	-9.99642
쎁쎉쎅쎅mamb쎯	-9.9976
g쎯cejo쎯	-9.9978
bmm쎯dpw1쎯.	-9.9983
bxm쎯suk쎯	-9.99834
dp쎯	-9.99868
xsjg쎯	-9.99886
,sno쎯	-9.99902
mw쎯hecj쎯	-9.99907
r쎯od쎯	-9.99929
,koxb쎯	-9.9994
쎅edjr2쎯	-9.99949
jro쎯	-9.99968
yji쎯gd쎯d쎯	-10.0002
ym쎯vdwy쎯	-10.0004
wj쎯bdzy쎯	-10.0005
heqk쎯	-10.0009
bub쎯wsa쎯	-10.0014
vdwy쎯、	-10.0024
nxby쎯nc쎯	-10.0032
,xmi쎯ad쎯ll쎯ho쎯.	-10.0034
bm쎯.	-10.0037
oy쎯mw쎯	-10.0039
qnk쎯	-10.0039
oiad쎯hbkd쎯y쎯	-10.0044
fq쎯kz쎯	-10.0054
mc쎯sug쎯zhm쎯	-10.0056
zl쎯h쎯d쎯	-10.0056
쎁쎉쎇쎅mamb쎯	-10.0059
쎂쎀e쎯zyy쎯	-10.0061
heoo쎯gd쎯	-10.0062
sye쎯	-10.0066
vb쎯vdwy쎯	-10.0068
tlf쎯	-10.0072
nre쎯hdko쎯	-10.0083
,ch쎯	-10.0084
gdq쎯ib쎯	-10.0085
hme쎯	-10.0085
al쎯nlk쎯	-10.0087
gdki쎯	-10.009
rj쎯zym쎯	-10.0091
zhg쎯	-10.0094
voo쎯	-10.0094
he쎯sij쎯	-10.0094
vyn쎯	-10.0099
jal쎯vdnd쎯km쎯	-10.0104
ekkw쎯	-10.0108
쎁.쎂	-10.0109
쎁쎉쎅쎀mamb쎯	-10.0112
odoa쎯xyis쎯	-10.0117
tdxg쎯mfld쎯	-10.0118
vi쎯	-10.0119
.dx쎯	-10.0122
mazy쎯a쎯	-10.0123
aek쎯mbro쎯	-10.0124
ceug쎯oaj쎯ob쎯	-10.0125
km쎯sli쎯	-10.0129
grl쎯njf쎯	-10.0135
soo쎯drl쎯	-10.0135
tdzj쎯pa쎯	-10.0147
쎁쎉쎆쎈mamb쎯	-10.0148
cd쎯jc쎯	-10.015
iirn쎯	-10.0151
mlka쎯mw쎯	-10.0152
od쎯ufzm쎯	-10.0159
ubx쎯	-10.0163
a쎯ew쎯	-10.0164
tgva쎯ss쎯	-10.0165
ys쎯ii쎯	-10.0168
sjl쎯fkx쎯	-10.0168
ag쎯pkr쎯	-10.0174
):	-10.0177
yi쎯gi쎯	-10.0181
sod쎯aij쎯	-10.0186
wsaj쎯	-10.019
ai1쎯ehe쎯	-10.0192
xml쎯	-10.0196
j쎯ezr쎯	-10.0202
my쎯nfa쎯	-10.0202
ag쎯sor쎯	-10.0202
oz쎯wdk쎯	-10.0202
z쎯ncds1쎯	-10.0207
d쎯bi쎯nmi쎯	-10.021
jk쎯rsj쎯	-10.0213
쎈o쎯	-10.0214
an쎯mamb쎯	-10.0214
mua쎯	-10.0224
쎁/	-10.0228
dsz쎯bser쎯	-10.0231
sjjq쎯	-10.0233
tnx쎯	-10.0234
ugr쎯	-10.0235
wdtg쎯ku쎯	-10.0238
udjw쎯od쎯ja쎯	-10.024
aii쎯grl쎯	-10.0242
kz쎯bdzy쎯	-10.0242
kgy쎯	-10.0244
qrg쎯	-10.0244
----	-10.0246
seus쎯	-10.0248
wz쎯ckb쎯vdwy쎯	-10.0251
oos쎯zy쎯	-10.0258
쎁쎉쎅쎇mamb쎯	-10.0269
zmy쎯	-10.0276
ar쎯sh쎯	-10.0277
ymx쎯	-10.0279
xm쎯	-10.0283
j쎯hma1쎯ezr쎯	-10.0286
ldod쎯ri쎯	-10.0287
sod쎯edlo쎯	-10.0289
a쎯gc쎯	-10.0289
ydsw쎯	-10.029
gi쎯ji쎯	-10.0292
odjy쎯rsj쎯	-10.0297
co쎯mfuo쎯	-10.0303
o쎯um쎯	-10.031
ckb쎯flw쎯	-10.0316
qmyl쎯	-10.0317
.c쎯u쎯	-10.0318
〕	-10.032
tgs1쎯,	-10.0322
uaqk쎯paj0쎯	-10.0323
ecb쎯xb쎯	-10.0328
oc쎯sy쎯nsu쎯	-10.0331
bdzm쎯bdzy쎯	-10.0332
쎈쎉	-10.0337
kgh쎯	-10.0339
my쎯rjg쎯	-10.0343
kz쎯vs쎯	-10.0344
sjl쎯slg쎯	-10.0345
frjg쎯qsoo쎯	-10.0348
an쎯zmc쎯	-10.0352
mfz쎯jl쎯、	-10.0353
%,	-10.0357
ajk쎯xyis쎯syy1쎯、	-10.0358
wdmh쎯	-10.0361
zbj쎯fjv쎯	-10.0366
woo쎯	-10.0366
bmm쎯wdhb쎯	-10.0369
zdkf쎯	-10.0371
fdyy쎯rki쎯	-10.0375
〔	-10.0376
odwg쎯bhj쎯d쎯	-10.038
fb	-10.0391
gdq쎯kd쎯	-10.0403
oz쎯uaol쎯	-10.0406
ox쎯mbro쎯	-10.041
myz쎯sov쎯	-10.0411
hexb쎯foz쎯	-10.0414
d쎯bmm쎯vdwy쎯	-10.0417
mc쎯sug쎯d쎯	-10.042
ci	-10.0424
yod쎯ch쎯	-10.0428
vns쎯kg쎯	-10.0435
j쎯ri쎯	-10.0435
uanl쎯bmy쎯	-10.0437
rki쎯l쎯	-10.0441
vwm0쎯	-10.0443
frz쎯mbjw쎯	-10.0445
ai1쎯hecj쎯	-10.0445
krrr쎯kq쎯	-10.0449
nya쎯	-10.0451
gi쎯kom쎯	-10.0454
쎂쎀쎀쎉	-10.0457
tirr쎯sy쎯	-10.0458
ewz0쎯	-10.0465
cejo쎯zq쎯	-10.0465
ckb쎯bi쎯gd쎯vdwy쎯	-10.0467
xho쎯bdzy쎯	-10.0474
g쎯tirr쎯sjk쎯	-10.0475
쎁쎉쎅쎂mamb쎯	-10.0477
쎂쎀쎀쎅	-10.0486
d쎯bdzs0쎯edl쎯km쎯	-10.0491
bixj쎯	-10.0492
bwz쎯》	-10.0495
gsz쎯	-10.0496
jni쎯	-10.0496
rur쎯	-10.0498
mamb쎯t쎯	-10.0504
sooe쎯	-10.0505
i쎯gdq쎯	-10.0505
sjl쎯zym쎯bmm쎯kal쎯	-10.051
uanw쎯oel쎯	-10.0515
exim쎯	-10.0517
a쎯ncq0쎯	-10.0517
aju쎯tgoo쎯	-10.0518
fekg쎯lco쎯	-10.0524
b쎯ho쎯d쎯	-10.0528
odii쎯ku쎯,	-10.053
sbx쎯so쎯	-10.0533
wxl쎯uanw쎯	-10.0535
bdzy쎯vklx쎯	-10.0537
gdq쎯“	-10.0538
zx쎯vsnd쎯z쎯xe쎯	-10.054
u쎯j쎯jc쎯	-10.0547
rlo쎯cilo쎯od쎯	-10.0549
xsy쎯	-10.0551
kq쎯nh쎯	-10.0551
oiqx쎯	-10.0552
udjw쎯xbby쎯mbq쎯	-10.0555
,bzy1쎯	-10.0564
ed쎯cd쎯	-10.0573
vcq쎯kfp쎯	-10.0582
aij쎯gdw쎯	-10.0584
쎁쎆쎀	-10.0586
pdxw쎯	-10.0589
k쎯“	-10.0589
gmsr쎯	-10.0592
sjer쎯	-10.0592
lkr쎯	-10.0593
udke쎯bdrd쎯	-10.0593
wgs쎯gx쎯	-10.0593
swl쎯	-10.0599
sbd쎯aijr쎯	-10.06
쎀쎀쎀쎀	-10.0601
jyms쎯yzi쎯	-10.0603
mise쎯ldeo쎯	-10.0605
esz쎯	-10.0608
vx쎯sbx쎯	-10.0612
hbz쎯drl쎯	-10.0614
csjk쎯	-10.0615
xro쎯	-10.0615
ucgd쎯all쎯	-10.0619
,yya쎯	-10.062
kb쎯,	-10.0621
skx쎯h쎯	-10.0621
rr쎯joqk쎯	-10.0628
.tgxj쎯	-10.0629
xbkv0쎯	-10.0629
&;	-10.063
ydj쎯	-10.0632
yya쎯h쎯u쎯	-10.0636
nsr쎯vb쎯	-10.0638
ak쎯sf쎯	-10.0638
bdkv쎯vg쎯	-10.0638
,n쎯nt쎯	-10.0642
jdf쎯	-10.0642
bmm쎯gae쎯wdhb쎯	-10.0642
sjya쎯gdq쎯	-10.0654
tirf1쎯vki쎯	-10.0656
g쎯oc쎯jc쎯	-10.0659
vdwy쎯ob쎯ckb쎯ajx쎯	-10.0667
dpez쎯	-10.0679
sds쎯	-10.0682
mye쎯	-10.0683
ryzs쎯	-10.0683
eaek쎯	-10.0684
dcx쎯nrj1쎯tdgd쎯	-10.0687
nfa쎯c쎯	-10.069
ce쎯fq쎯	-10.0694
fl쎯hew쎯	-10.0695
gds0쎯	-10.0699
()k쎯	-10.07
jli쎯	-10.0701
sjy0쎯ch쎯	-10.0706
iikg쎯uanw쎯	-10.0706
jo쎯f쎯	-10.071
ccx쎯	-10.071
uanl쎯drr쎯	-10.071
som쎯ym쎯ad쎯	-10.0711
djj쎯nmi쎯mzv쎯zs쎯	-10.0713
d쎯gd쎯aeb쎯	-10.0714
yc쎯)	-10.0717
쎁쎉쎆쎉mamb쎯	-10.0717
ukl쎯um쎯	-10.072
evj쎯	-10.0721
edl쎯sy쎯	-10.0721
wms쎯xhb쎯	-10.0722
fav쎯oz쎯yaj1쎯	-10.0723
쎁쎉쎅쎉mamb쎯	-10.0724
.”《	-10.0724
bi쎯nmi쎯;	-10.0728
mxb쎯	-10.0731
oz쎯kb쎯,jhx쎯sol쎯	-10.0732
kg쎯zbm쎯	-10.0742
idkx쎯	-10.0744
el	-10.0744
,kia쎯ad쎯	-10.0746
h쎯y쎯	-10.0746
쎉쎃	-10.0749
vdwy쎯edfd쎯baa쎯	-10.0749
paj0쎯d쎯	-10.075
uoae쎯	-10.0754
cdv쎯yod쎯	-10.0759
쎁쎈쎉	-10.0762
sbd쎯sya쎯	-10.0763
qmc쎯	-10.077
gj쎯mfjo쎯zrs쎯	-10.0772
oaj쎯fr쎯	-10.0772
sc쎯f쎯k쎯	-10.0772
dsz쎯ja쎯:	-10.0773
yb쎯mzs쎯	-10.0774
pvf쎯cexs쎯	-10.0777
dwm쎯ckb쎯	-10.0778
vm쎯ri쎯	-10.0778
yav쎯kmc쎯	-10.0781
.m쎯nt쎯	-10.0783
-쎅	-10.0784
dnxs쎯edwz쎯	-10.0786
jb쎯ufc쎯	-10.0789
syy1쎯uyd1쎯	-10.0789
xkzi쎯ufzm쎯	-10.0791
oz쎯yaj1쎯dld쎯gdq쎯	-10.0793
wsb쎯jddm쎯	-10.0793
vzj1쎯ckb쎯	-10.0799
g쎯《	-10.0804
rgs쎯paj0쎯	-10.0808
xl쎯odoo쎯	-10.0818
sjl쎯xb쎯	-10.082
fej쎯	-10.0821
sy쎯ped쎯	-10.0823
ucgd쎯fsv쎯wdgq0쎯	-10.0825
da쎯ray쎯	-10.0827
ciry쎯	-10.0829
cbn쎯	-10.0829
wa쎯paj0쎯,	-10.083
gd쎯odoo쎯	-10.0834
rkz쎯	-10.0835
hma1쎯mc쎯	-10.0836
sc쎯nmb쎯,	-10.0836
mamb쎯ioow쎯	-10.0838
gj쎯x쎯	-10.084
bsj쎯	-10.0851
dh쎯hbkd쎯	-10.0853
mnd쎯	-10.0858
ngr쎯sxo쎯	-10.0863
xbby쎯fdm쎯	-10.0864
j쎯jc쎯od쎯yh쎯	-10.0866
edj쎯ldeo쎯	-10.0869
mfld쎯kirj쎯	-10.087
bhv쎯lczs쎯	-10.0873
ky쎯nx쎯	-10.0875
mimo쎯od쎯	-10.088
jby1쎯zhg쎯	-10.088
hgr쎯	-10.0881
bdzn쎯	-10.0882
kb쎯d쎯	-10.0884
zw쎯mfz쎯	-10.0887
qy쎯mamb쎯	-10.0889
wxo쎯nf쎯	-10.089
xe쎯ae쎯	-10.0891
aim쎯vb쎯	-10.0894
pfp쎯ryi쎯	-10.0895
jikk쎯	-10.0903
쎁쎉쎆쎆mamb쎯	-10.0903
vs쎯kak쎯	-10.0913
nmi쎯mbro쎯	-10.0913
zq쎯kak쎯	-10.0918
au쎯uf쎯	-10.0919
nb쎯zs쎯d쎯	-10.0926
zmxw쎯	-10.0928
vmi쎯um쎯	-10.0931
sj쎯ob쎯	-10.0934
hae쎯	-10.0936
qm쎯mfkd쎯	-10.0937
mzv쎯ark쎯sug쎯jjj쎯	-10.0938
xyi쎯	-10.0942
emkd쎯	-10.0945
ucgd쎯all쎯d쎯	-10.096
ggnk쎯zmzj쎯	-10.0966
uoub쎯	-10.0967
ajo쎯	-10.0969
,b쎯rid쎯	-10.0971
suc쎯	-10.0972
쎁쎉쎅쎄mamb쎯	-10.0972
eyo쎯ceug쎯	-10.0976
쎁쎉쎇쎂mamb쎯	-10.098
sjo쎯jk쎯	-10.0987
d쎯mbbd쎯idju쎯	-10.0989
qmgs쎯	-10.0991
g쎯a쎯boy쎯	-10.0991
ukl쎯	-10.0997
zuz쎯xkc쎯	-10.1004
ngr쎯pdel쎯d쎯	-10.1005
kdli쎯	-10.1005
ufc쎯wz쎯	-10.1006
faj쎯	-10.1007
na쎯oiad쎯	-10.1011
yt쎯uzl쎯	-10.1018
wr쎯ku쎯od쎯ja쎯	-10.102
bub쎯	-10.102
ne쎯zmya쎯	-10.102
aep쎯tgs1쎯	-10.1021
d쎯nmi쎯jjj쎯	-10.1022
rko쎯·	-10.1023
쎁쎉쎅쎃mamb쎯	-10.1025
paiz쎯	-10.1028
sn	-10.1029
zby쎯	-10.1035
baz쎯oda쎯	-10.1037
c쎯u쎯	-10.1039
su쎯ji쎯	-10.1039
pxby쎯plk쎯	-10.1039
zw쎯jaz쎯	-10.1041
jimg쎯	-10.1046
gu쎯	-10.1046
hbz쎯mfr쎯	-10.1047
sb쎯fsw쎯	-10.1048
mfkd쎯uaol쎯	-10.1048
etr쎯	-10.105
heoo쎯u쎯	-10.1054
n쎯nt쎯d쎯	-10.1056
쎂쎂쎀	-10.1057
ebf쎯ib쎯	-10.1058
k쎯a쎯p쎯	-10.1061
gdwm쎯	-10.1063
ymy쎯	-10.1063
kobz쎯	-10.1067
gdq쎯:	-10.1069
tljr쎯	-10.107
kiw쎯zni쎯	-10.107
r쎯biym쎯zq쎯	-10.107
je	-10.1071
kche쎯	-10.1073
b쎯pm쎯	-10.1076
,xmi쎯	-10.1079
xyis쎯j쎯	-10.108
ay쎯au쎯sy쎯uf쎯,	-10.1081
fsws쎯	-10.1083
uabd쎯vdnd쎯	-10.1085
ldod쎯d쎯	-10.1087
pni쎯	-10.1092
z쎯szq쎯	-10.1094
wdzf쎯nar쎯	-10.1095
wdz쎯lczs쎯	-10.1095
dsw쎯vi쎯	-10.1096
nmi쎯kk쎯	-10.1099
tgnr쎯	-10.11
bdnw쎯baa쎯	-10.1101
wdki0쎯wd쎯	-10.1109
kry0쎯	-10.1111
b쎯bii쎯:	-10.1117
,udjw쎯	-10.1121
tlsl쎯	-10.1123
fuo쎯zizi쎯	-10.1129
sjl쎯gbs쎯	-10.113
ecz1쎯hb쎯	-10.1131
odii쎯ku쎯d쎯	-10.1132
tirg쎯ggyy1쎯	-10.1136
udjw쎯zbj쎯	-10.1137
ajx쎯edjm쎯	-10.1141
udke쎯nsu쎯.	-10.1143
d쎯kd쎯tk쎯	-10.1143
eako쎯va쎯	-10.1147
wc쎯	-10.1149
au쎯brt쎯my쎯vkl쎯쎁	-10.1149
oz쎯wsb쎯	-10.1151
kico쎯	-10.1153
fak쎯	-10.1155
zizi쎯ba쎯	-10.1158
lczs쎯zym쎯	-10.1159
b쎯ew쎯	-10.116
voyy쎯	-10.116
kfg쎯ufsu쎯	-10.116
a쎯idju쎯	-10.1179
쎂쎀쎀쎄	-10.1184
baa쎯vdwy쎯nsu쎯.	-10.1185
vsn쎯nfa쎯	-10.1187
zni쎯mc쎯ciz쎯	-10.1191
skr쎯	-10.1198
tgs1쎯tdjr쎯	-10.1203
rsj쎯od쎯	-10.1207
gdzn쎯ggky쎯	-10.1207
kni쎯	-10.1212
yaj0쎯rko쎯	-10.1212
oz쎯yaj1쎯d쎯	-10.1216
tk쎯,	-10.1219
ed쎯gd쎯	-10.1224
slg쎯ja쎯	-10.1224
:쎄	-10.1226
eqg쎯oiad쎯y쎯	-10.1228
ceug쎯wdol쎯	-10.1228
sp쎯	-10.1228
쎉쎀쎀	-10.1229
m쎯d쎯	-10.123
oy쎯ob쎯	-10.123
nif쎯》	-10.1236
ybz쎯wh쎯	-10.1236
odwg쎯mbrd쎯	-10.1237
nug쎯gd쎯mfkd쎯aku쎯	-10.1237
rbr쎯	-10.1239
odsx쎯agd쎯	-10.1241
쎁쎉쎆쎁mamb쎯	-10.1242
taii쎯tgs1쎯	-10.1247
xbby쎯gdq쎯	-10.1249
wsk쎯mfwm쎯	-10.1251
hecj쎯ho쎯	-10.1251
ewv쎯	-10.1253
ozy쎯	-10.1257
,wdya쎯	-10.1264
au쎯ggnk쎯	-10.1269
,uae쎯g쎯	-10.1273
odlz쎯	-10.1274
edy쎯ob쎯ckb쎯ajx쎯	-10.1278
qrk쎯qsy쎯	-10.128
:《	-10.1284
vdwy쎯jl쎯	-10.1288
z쎯bdzy쎯fq쎯	-10.1288
irc쎯	-10.1289
gds1쎯au쎯	-10.129
j쎯gdq쎯	-10.1294
fb쎯tdni쎯nr0쎯	-10.1295
lczs쎯od쎯	-10.1295
al쎯mamb쎯	-10.1297
oi쎯ku쎯d쎯	-10.1299
쎆쎁	-10.13
쎀.쎂	-10.1302
ae쎯uag쎯	-10.1302
kq쎯kmc쎯	-10.1303
cev쎯	-10.1311
ch쎯co쎯	-10.1314
yjx쎯xjo쎯	-10.1317
vao쎯bcx쎯	-10.1317
fjai쎯ckb쎯	-10.1323
fft쎯	-10.1335
zizi쎯rid쎯	-10.1335
mev쎯zym쎯	-10.1338
mc쎯bdzy쎯	-10.134
iiq쎯	-10.1341
쎁쎀edjr2쎯	-10.1351
wai쎯vxi쎯	-10.1352
lbu쎯	-10.1353
rgs쎯gl쎯	-10.1355
vrj쎯yk쎯	-10.1357
gur쎯	-10.1358
쎁쎉쎃쎈mamb쎯	-10.1359
vdp쎯	-10.1361
쎀쎀ay쎯bdrd쎯	-10.1369
lkri쎯	-10.1369
ssy쎯tj쎯	-10.1372
yh쎯aim쎯	-10.1374
fds쎯、	-10.1391
mfj쎯au쎯	-10.1392
ahi쎯tb쎯	-10.1396
쎁쎃쎀	-10.14
쎁쎉쎇쎄mamb쎯	-10.1404
la쎯xbkv1쎯	-10.1408
jc쎯ys쎯	-10.141
zsy쎯	-10.141
vdwy쎯fsv쎯sor쎯so쎯	-10.1414
ewj쎯ku쎯	-10.1415
mfld쎯	-10.1416
u쎯sc쎯d쎯	-10.1416
smy쎯	-10.1416
dpa쎯	-10.1417
eduh쎯	-10.1417
zma쎯	-10.1418
li쎯	-10.1419
xbkv1쎯suk쎯	-10.1419
fq쎯ob쎯	-10.1423
ufte쎯vfd쎯	-10.1426
rgy쎯yobv쎯	-10.1429
zimo쎯nif쎯	-10.1432
lorz쎯xt쎯	-10.1432
쎁쎉쎄쎅mamb쎯	-10.1433
pd쎯	-10.1434
gd쎯ym쎯	-10.1435
myz쎯a쎯tdro쎯	-10.1436
wmyy쎯	-10.1436
zj쎯iirr쎯	-10.1443
쎀.쎁	-10.1445
uujr쎯	-10.1445
kojr쎯d쎯	-10.1446
ka쎯kojl0쎯	-10.1447
xju쎯nfa쎯	-10.145
jdf쎯xn쎯	-10.145
jjg쎯、	-10.145
sc쎯nmb쎯、	-10.1455
odii쎯ku쎯mw쎯ckb쎯	-10.1466
wxl쎯l쎯	-10.1466
tc쎯rsj쎯	-10.1468
mf쎯	-10.1468
mw쎯ckb쎯bi쎯nmi쎯	-10.1469
쎁쎉쎇쎇mamb쎯	-10.147
xej쎯mfz쎯ob쎯	-10.1475
fni쎯	-10.1477
yn쎯l쎯	-10.1478
gj쎯mfjo쎯쎂	-10.148
mfkd쎯aku쎯	-10.1481
mby1쎯	-10.1482
쎈쎄	-10.1485
xii0쎯nk쎯pdel쎯	-10.1485
ri쎯aep쎯	-10.1488
orn쎯	-10.1488
sop쎯	-10.1489
bdzs1쎯kag쎯	-10.149
gg	-10.1491
tryk쎯	-10.1491
zrs쎯쎁	-10.1492
nb	-10.1494
tdhk쎯	-10.1496
oa쎯mamb쎯	-10.1497
uanl쎯mbrd쎯	-10.1499
,mamb쎯	-10.1504
waj쎯gdq쎯	-10.1504
j쎯mbds쎯	-10.1505
dnxs쎯	-10.1506
kskp쎯jnj쎯ym쎯	-10.1507
d쎯dex쎯fsv쎯	-10.1508
hdko쎯sjk쎯	-10.151
mfxb쎯xkc쎯	-10.1516
ymo1쎯bdnw쎯	-10.1518
nb쎯gaj쎯	-10.1518
ysk쎯gka쎯	-10.1521
kz쎯zkml쎯	-10.1521
sli쎯j쎯wz쎯	-10.1522
udjw쎯dqx쎯tdrl1쎯	-10.1525
ak쎯k쎯	-10.1527
:쎁.	-10.153
j쎯wz쎯、	-10.1532
ko쎯zl쎯	-10.1544
um쎯、	-10.1547
dvr쎯	-10.1548
zhgd쎯	-10.1551
fdrk쎯	-10.1553
oisc쎯oisc쎯	-10.1555
vhxf쎯	-10.1558
nr0쎯d쎯	-10.1558
kg쎯vdwy쎯	-10.156
zo쎯uaqk쎯	-10.156
nre쎯od쎯	-10.1561
a쎯hbmo쎯	-10.1562
---	-10.1568
mw쎯uanw쎯	-10.1568
gd쎯obb쎯	-10.1571
edl쎯kkv쎯	-10.1573
kmc쎯zym쎯	-10.1576
od쎯yh쎯rly쎯sm쎯wh쎯	-10.1577
evyy쎯jby1쎯ldod쎯	-10.1586
)、《	-10.1586
um쎯fr쎯	-10.1586
dx	-10.1586
dxb쎯	-10.1587
heqk쎯uagw0쎯	-10.1589
gak쎯nm쎯	-10.1589
gi쎯rsv쎯	-10.1592
ufzm쎯dx쎯tgh쎯	-10.1593
d쎯sy쎯hbi쎯	-10.1599
tqx쎯	-10.1599
bmm쎯dpw1쎯、	-10.16
쎁쎀쎀%	-10.1601
gd쎯fmg쎯	-10.1602
maa쎯ns쎯	-10.1604
psk쎯tdgd쎯	-10.1606
mbrd쎯paj0쎯g쎯	-10.1606
nfds쎯	-10.1606
ekgu쎯	-10.1609
oz쎯soo쎯	-10.161
sc쎯vzj1쎯	-10.1618
gg쎯wms쎯	-10.162
ghj쎯	-10.1621
kcx쎯u쎯	-10.1627
bdzs1쎯ku쎯nr0쎯	-10.1627
mazy쎯agd쎯	-10.1636
uni쎯	-10.1642
nb쎯》	-10.1643
oy쎯fdyy쎯	-10.1646
lwbq쎯	-10.1647
gr쎯ec쎯	-10.165
suwl쎯jc쎯	-10.1652
lb쎯gm쎯vbi쎯	-10.1655
o쎯nfa쎯	-10.1657
qqx쎯fjb쎯	-10.1657
sug쎯mc쎯d쎯	-10.1657
drr쎯z쎯	-10.1664
zyj쎯	-10.1664
fbq쎯	-10.1666
bo쎯nlj쎯	-10.167
쎇쎁	-10.1672
gr쎯ec쎯k쎯	-10.1673
쎁.쎀	-10.1674
qyx쎯rsym쎯jjg쎯	-10.1677
i쎯zym쎯	-10.168
ldo쎯iai쎯	-10.1683
hd쎯mamb쎯	-10.1684
yjx쎯	-10.1687
.zj쎯	-10.169
xyis쎯syy1쎯、	-10.169
bdzw쎯nmi쎯	-10.1696
udjw쎯zs쎯	-10.1697
pfki0쎯	-10.1697
sq쎯sed쎯kal쎯	-10.1698
wdz쎯dkc쎯	-10.1701
pvf쎯lorz쎯	-10.1702
.koxb쎯	-10.1707
kojr쎯zl쎯h쎯jl쎯	-10.171
vxz쎯	-10.1712
zrj쎯	-10.1714
wxl쎯maj쎯	-10.1717
zxe쎯zrs쎯	-10.1718
wb쎯fjai쎯	-10.1719
vcv쎯	-10.172
쎂쎀쎀쎃	-10.1729
zm쎯od쎯	-10.1736
kom쎯zm쎯	-10.174
zjk쎯	-10.1746
ed쎯lk쎯	-10.1748
ggnk쎯bdkv쎯	-10.175
vs쎯mfjc쎯	-10.175
udjw쎯ufzm쎯	-10.1751
b쎯jdrt쎯	-10.1752
.wdf쎯	-10.1754
gbs쎯zwan쎯	-10.1755
1	-10.1756
fl쎯zbj쎯oaj쎯	-10.1759
pvgx쎯zmya쎯bm쎯	-10.176
》d쎯	-10.1763
ky쎯kq쎯	-10.1763
wxj쎯rjrd쎯	-10.1765
vdwy쎯ggym쎯,	-10.1765
ggym쎯jos쎯i쎯	-10.1768
.j쎯jc쎯	-10.1769
nl쎯rgs쎯fds쎯	-10.177
d쎯f쎯aks쎯	-10.1774
jcv쎯c쎯	-10.1776
mamz1쎯nre쎯	-10.1777
dbo쎯	-10.178
sau쎯sor쎯	-10.1785
ufc쎯wdml쎯	-10.1786
oizm쎯	-10.1787
fyg쎯jdjl쎯aep쎯	-10.1789
boy쎯sos쎯	-10.179
nln쎯	-10.1793
rd쎯ya쎯	-10.1796
쎁쎉쎇쎃mamb쎯	-10.1797
dqb쎯	-10.1799
row쎯	-10.1803
nk쎯ufxj쎯	-10.1804
wr쎯ku쎯gd쎯vdwy쎯	-10.181
sul쎯rhyl쎯	-10.1811
mazb쎯	-10.1813
tgxj쎯nh쎯	-10.1814
”mfj쎯“	-10.1819
mbds쎯r쎯mfji쎯	-10.182
qmsx쎯	-10.1821
lkrs쎯xa쎯	-10.1821
dsjl쎯	-10.1824
iaya쎯	-10.1827
ak쎯r쎯	-10.1828
d쎯ecb쎯gzz쎯i쎯	-10.1833
wdgq0쎯xej쎯	-10.1836
r쎯fu쎯	-10.1837
ydjy1쎯	-10.1838
xyis쎯mcek쎯	-10.1839
uouo쎯、	-10.1839
vkl쎯nkkv쎯	-10.1839
wdrj쎯wm쎯d쎯	-10.1844
vmi쎯bdzy쎯,	-10.1844
koqk쎯	-10.1845
....	-10.1845
pl쎯pm쎯	-10.1847
ciq쎯co쎯	-10.1847
udjw쎯oz쎯yaj1쎯	-10.1852
,gi쎯ufzp쎯	-10.1855
bdok쎯	-10.1856
a쎯mc쎯	-10.1858
boyj쎯zym쎯	-10.1858
dsl쎯	-10.1863
evfb쎯	-10.1868
deo쎯	-10.1872
wlw쎯	-10.1872
vxkz쎯uclk쎯	-10.1872
ko쎯cirs쎯	-10.1874
fmg쎯vyf쎯	-10.1877
vev쎯	-10.188
cd쎯rl쎯	-10.1887
hejc쎯	-10.1889
nir쎯ymo1쎯	-10.1889
nmg쎯	-10.189
h쎯od쎯	-10.1898
.쎁쎁	-10.1898
y쎯“	-10.19
gds1쎯ggnk쎯	-10.1903
rhyk쎯vdwy쎯	-10.1903
jjzy쎯	-10.1905
oixi쎯	-10.1908
flkd쎯vns쎯	-10.1908
wolo쎯	-10.1908
edyy0쎯	-10.191
k쎯o쎯	-10.1915
brt쎯u쎯	-10.1916
fav쎯b쎯	-10.1918
dwo쎯sds쎯	-10.1918
z쎯boy쎯	-10.1921
nyd쎯bdrd쎯,	-10.1922
vrz쎯wxl쎯	-10.1923
ld쎯fu쎯	-10.1928
vb쎯od쎯	-10.1933
vk쎯ys쎯	-10.1935
alb쎯tdro쎯	-10.1939
.zmyi쎯	-10.194
dq쎯ew쎯	-10.1945
ewm쎯	-10.1949
zkm쎯	-10.1951
kc쎯vv쎯	-10.1952
rj쎯gd쎯	-10.1952
xe쎯c쎯	-10.1959
쎀～	-10.1962
vhxf쎯uanw쎯	-10.1963
dpw1쎯fx쎯	-10.197
―	-10.1971
oro쎯ox쎯	-10.1973
lk쎯gd쎯	-10.1974
dwb쎯qqx쎯	-10.1977
ohg쎯	-10.1979
ldeo쎯aeb쎯	-10.1981
kair쎯	-10.1985
hpd쎯	-10.1985
ks쎯idju쎯	-10.1989
dld쎯	-10.1991
,soo쎯wxl쎯	-10.1993
au쎯sy쎯uf쎯.	-10.1996
ngr쎯mfym쎯d쎯	-10.1998
zo쎯ec쎯	-10.2001
bdrw쎯mfjc쎯	-10.2005
tdrz쎯	-10.201
rhyk쎯ai1쎯	-10.201
nsos쎯cirh쎯	-10.2012
/쎂	-10.2017
,zx쎯dsw쎯	-10.2017
rsj쎯wdgq0쎯	-10.2019
dkc쎯ark쎯	-10.2024
u쎯ecb쎯gzz쎯	-10.2024
lhg쎯	-10.2026
so	-10.2029
.paj0쎯	-10.203
,nji0쎯bdnw쎯	-10.2033
쎀ski1쎯,	-10.2033
od쎯yh쎯hma1쎯ywb쎯	-10.2036
cejo쎯cilo쎯	-10.2036
xjs쎯	-10.204
(쎃)	-10.2045
cemy쎯	-10.2046
sjl쎯jjj쎯pdel쎯	-10.2047
,sm쎯oda쎯	-10.2048
oaj쎯qyi쎯	-10.205
som쎯tgva쎯	-10.2053
ufjq쎯	-10.2058
jk쎯kbib쎯	-10.2058
zizi쎯nl쎯	-10.2059
pte쎯	-10.2061
nbv쎯	-10.2062
paj0쎯ecq1쎯	-10.2063
yzi쎯yybd쎯	-10.2064
yj쎯i쎯	-10.2067
so쎯mbro쎯njf쎯dwm쎯	-10.2071
쎁쎉쎄쎈mamb쎯	-10.2076
(쎁쎉쎀	-10.2086
oz쎯gdli쎯	-10.2086
rjrs쎯	-10.2087
skx쎯mfji쎯	-10.2087
,oc쎯	-10.2089
bdzs1쎯ku쎯mc쎯sug쎯	-10.2091
.쎃、	-10.2096
i쎯ldo쎯	-10.2099
k쎯jc쎯ldod쎯	-10.2105
gi쎯f쎯	-10.2107
tgxk쎯hyu쎯	-10.2114
yzi쎯boy쎯d쎯	-10.2114
qbu쎯	-10.2117
gb쎯gdj쎯,	-10.2119
.vcq쎯	-10.212
evk쎯	-10.2123
쎈쎃	-10.2124
vao쎯xbby쎯	-10.2124
k쎯a쎯sjy0쎯	-10.2124
jdrt쎯wdzf쎯	-10.2138
nmi쎯ku쎯	-10.214
ay쎯ski1쎯	-10.214
qd쎯mamb쎯	-10.2146
l쎯vb쎯	-10.2152
bilo쎯edgs쎯.	-10.2156
ief쎯	-10.2158
wdml쎯bbd쎯	-10.216
쎁쎉쎅쎁mamb쎯	-10.2161
odyk쎯ymo0쎯ad쎯	-10.2164
fjrl쎯	-10.2165
ucgd쎯zmya쎯	-10.217
ywr쎯	-10.2171
,yj쎯oda쎯	-10.2172
yxo쎯mblk쎯	-10.2172
ob쎯ob쎯jl쎯	-10.2174
o쎯fds쎯yh쎯ko쎯zl쎯,	-10.2175
mfwm쎯wdml쎯	-10.2176
aij쎯lr쎯	-10.2177
wsxk쎯	-10.2178
haw쎯pvwx쎯	-10.2179
eof쎯jed쎯	-10.2181
koxb쎯mamb쎯	-10.2183
fds쎯od쎯.	-10.2187
fsq쎯	-10.2187
mbbd쎯wd쎯	-10.2189
jc쎯yh쎯	-10.219
fl쎯nz쎯	-10.2192
,jaz쎯	-10.2196
txo쎯	-10.2196
llg쎯ga쎯	-10.2198
esh쎯	-10.2203
ercw쎯	-10.2206
bh쎯bdkv쎯bh쎯	-10.2207
he쎯tk쎯	-10.2209
mbds쎯cejo쎯.	-10.2209
mbrd쎯bdnw쎯o쎯od쎯	-10.221
bmm쎯szq쎯xmyj쎯	-10.2212
zx쎯xo쎯,	-10.2215
edlc쎯hbkd쎯	-10.2219
i쎯gj쎯	-10.2223
ecq1쎯tk쎯,	-10.2224
qwz쎯	-10.2225
tg쎯dpk쎯kz쎯wlr쎯	-10.2227
kcx쎯r쎯	-10.2229
tgkz쎯	-10.2237
xbds쎯dh쎯	-10.2237
쎁쎁쎀	-10.2239
mfz쎯jl쎯.	-10.2241
gdsw쎯t쎯	-10.2241
fjvv쎯	-10.2241
gi쎯maj쎯	-10.2242
xlk0쎯	-10.2247
h쎯bmy쎯sli쎯	-10.2252
zzm쎯fds쎯	-10.2255
ed쎯hd쎯	-10.2258
sjy0쎯nsu쎯	-10.2262
,dk쎯sjl쎯	-10.2262
ecp쎯·	-10.2263
fq쎯jjg쎯	-10.2268
njf쎯nir쎯	-10.2271
xjq쎯	-10.228
saii쎯kq쎯	-10.2286
qyx쎯oml쎯	-10.2286
쎁jaz쎯	-10.2293
udjw쎯sjy0쎯	-10.2295
dgv쎯xe쎯	-10.2298
nim쎯	-10.2306
d쎯rj쎯mfji쎯	-10.2307
idjh쎯oiqx쎯	-10.2312
qgk쎯	-10.2314
gdq쎯a쎯o쎯	-10.2318
vdwy쎯ggo쎯baa쎯	-10.2323
baz쎯wdrb쎯	-10.2331
edmy쎯yra쎯	-10.2337
myxk쎯	-10.2338
gl쎯h쎯	-10.2339
ffr쎯flw쎯	-10.2342
bi쎯ob쎯	-10.2345
bdnw쎯zizi쎯ja쎯	-10.2348
hb쎯i쎯	-10.2349
ygb쎯	-10.2349
kgw쎯uonc쎯	-10.2351
gg쎯sul쎯	-10.2353
ucq쎯haw쎯	-10.2356
zme쎯	-10.2358
yji쎯arku쎯	-10.236
bi쎯ku쎯gd쎯vdwy쎯	-10.236
qdos쎯ks쎯ho쎯	-10.2361
dmy쎯	-10.2361
zs쎯vzj1쎯	-10.2361
ew쎯gdq쎯	-10.2365
ne쎯zizi쎯	-10.2366
mbfj쎯mbmc쎯	-10.2366
meb쎯edlc쎯	-10.2371
etro쎯	-10.2374
kz쎯wlr쎯xek쎯	-10.2375
2	-10.2376
dq쎯kv쎯	-10.2377
a쎯ai1쎯	-10.2378
dgv쎯	-10.2383
ak쎯r쎯d쎯	-10.2384
frz쎯xbby쎯	-10.2384
mlka쎯vsn쎯	-10.2387
jdj쎯:“	-10.2387
sj쎯aij쎯zo쎯	-10.2391
zl쎯h쎯.	-10.2392
ob쎯ckb쎯ajx쎯	-10.2393
g쎯ucgd쎯jc쎯	-10.2394
lgu쎯	-10.2398
sm	-10.2399
yzs쎯	-10.2399
nl쎯vzj1쎯lczs쎯	-10.2403
sf쎯xbby쎯	-10.2404
ri쎯sbx쎯	-10.2404
udlk쎯eqg쎯	-10.2406
쎁쎈쎇	-10.2406
mc쎯h쎯	-10.2407
fq쎯frz쎯.	-10.2408
eao쎯sug쎯kojr쎯.	-10.2408
ciyg쎯	-10.2415
jo쎯zq쎯	-10.2416
ld쎯iiko쎯	-10.2421
kal쎯mc쎯	-10.2423
,ggnk쎯	-10.2426
ss쎯fs쎯	-10.2429
mdhr쎯	-10.2429
,ggym쎯nmb쎯	-10.2433
gdyz쎯	-10.2434
heoo쎯zmya쎯	-10.2435
bhv쎯zzm쎯	-10.2441
tfn쎯vb쎯	-10.2442
en쎯mc쎯	-10.2443
ogl쎯qek쎯	-10.2443
brt쎯gdq쎯	-10.2444
-쎆	-10.2445
kiym쎯ya쎯	-10.2448
bm쎯d쎯	-10.2451
”k쎯	-10.2452
jy	-10.2457
bmm쎯zhy쎯	-10.2459
cds쎯odjy쎯	-10.246
jyj쎯jkc쎯	-10.2463
sc쎯rl쎯	-10.2464
aep쎯h쎯d쎯	-10.2464
mbds쎯mbds쎯	-10.2469
gi쎯hbkd쎯	-10.247
da쎯ae쎯	-10.2473
zj쎯odsx쎯	-10.2475
vl쎯wd쎯	-10.2476
,aep쎯h쎯	-10.2494
mahx쎯	-10.2501
bix쎯ed쎯	-10.2502
gj쎯ufoy쎯	-10.2511
nhl쎯bb쎯	-10.2511
d쎯tj쎯kag쎯	-10.2516
nlo쎯	-10.2524
a쎯sjy0쎯	-10.2526
jaz쎯:	-10.2526
vdwy쎯rsj쎯	-10.2527
elgd쎯so쎯rsj쎯	-10.2531
,c쎯gdq쎯	-10.2532
ahi쎯vx쎯sli쎯	-10.2532
uakk쎯wlw쎯	-10.2533
.ggym쎯nmb쎯	-10.2534
vwza쎯	-10.2534
ufya쎯	-10.2534
myz쎯hd쎯	-10.2541
sc쎯nmb쎯.	-10.2543
wlr쎯vdwl쎯	-10.2552
j쎯so쎯mzv쎯	-10.2557
m2	-10.2558
dvr쎯idjh쎯	-10.2559
쎅ggkb쎯uf쎯	-10.2564
eze쎯	-10.2566
jiyw1쎯	-10.2567
dpj쎯	-10.2567
sli쎯od쎯	-10.257
ih	-10.2573
kojl0쎯mfz쎯	-10.2574
vdwy쎯dyx쎯	-10.2574
j쎯ko쎯vdwy쎯	-10.2576
bdkv쎯d쎯	-10.2576
dqs쎯vb쎯	-10.2588
sbx쎯suk쎯	-10.2594
bdol쎯lok쎯	-10.2596
tgxk쎯makr쎯	-10.2597
vsn쎯gbs쎯	-10.2598
fekg쎯bxgd쎯	-10.2604
쎀odmf쎯od쎯	-10.2604
쎁쎉쎇쎁mamb쎯	-10.2607
ufc쎯elgd쎯	-10.2607
boyj쎯sli쎯	-10.2608
pjl쎯j쎯	-10.2609
ucgd쎯vv쎯	-10.261
plx쎯	-10.2616
odua쎯	-10.2617
mfz쎯ob쎯	-10.2618
nak쎯dax쎯	-10.2623
mkml쎯cdv쎯	-10.2623
쎁쎉쎃쎄mamb쎯	-10.2623
nm	-10.2628
heoo쎯sjl쎯	-10.2636
hdko쎯edl쎯aku쎯	-10.2639
xss쎯	-10.2639
jdrt쎯aep쎯	-10.264
ewa0쎯edj쎯	-10.2641
ne쎯vb쎯	-10.2642
fav쎯nc쎯	-10.2643
vnu쎯	-10.2646
uaqk쎯nc쎯k쎯	-10.2646
krrr쎯ia쎯	-10.2648
z쎯ta쎯	-10.2648
mc쎯.	-10.2648
nrl쎯mbro쎯	-10.2648
쎁쎉쎃쎇mamb쎯	-10.2649
ri쎯jc쎯	-10.2652
.nl쎯	-10.2661
yps쎯	-10.2662
rhys쎯aep쎯	-10.2665
mbbd쎯ryi쎯d쎯	-10.2672
lch쎯	-10.2674
ehsr쎯	-10.2677
wdk쎯	-10.2678
qmyy쎯lkc쎯	-10.268
xbuo쎯vmi쎯	-10.268
ihku쎯dzo쎯	-10.2681
wdzf쎯nm쎯	-10.2682
ufc쎯t쎯	-10.2685
iy쎯	-10.2687
쎇o쎯	-10.2687
deaj쎯	-10.2691
ckb쎯vdwy쎯	-10.2692
noo쎯mfrk0쎯	-10.2693
sujr쎯wdol쎯	-10.2694
zo쎯u쎯	-10.2695
likl쎯	-10.2697
rys1쎯	-10.2704
ajk쎯sc쎯nmb쎯、	-10.2706
ib쎯	-10.2707
pl쎯ccsx쎯	-10.2719
ta쎯od쎯	-10.2721
ku쎯zcl쎯	-10.2727
akm쎯sejc쎯	-10.273
fdsx쎯	-10.2732
woy쎯	-10.2736
edj쎯bmrr쎯	-10.2738
al쎯tdro쎯	-10.2739
nbx쎯	-10.2739
odyk쎯zmzj쎯od쎯	-10.2741
bkb쎯	-10.2745
uef쎯lgu쎯	-10.2749
ufzm쎯dwb쎯	-10.2752
k쎯m쎯jc쎯	-10.2752
axz쎯	-10.2754
vxl1쎯	-10.2756
쎁쎉쎄쎆mamb쎯	-10.2761
ka쎯dyx쎯	-10.2765
kf쎯wdtg쎯	-10.2765
qyx쎯rsym쎯d쎯	-10.2765
me쎯mamb쎯	-10.2767
odnd쎯pdel쎯	-10.2767
shlq쎯oiad쎯y쎯	-10.2767
rscw쎯	-10.277
ffl쎯	-10.2773
쎂쎈ka쎯	-10.2774
yji쎯nr0쎯	-10.2776
zm쎯rd쎯	-10.2777
zzi쎯	-10.2778
sop쎯vzj1쎯	-10.2779
yaj1쎯odw쎯	-10.2783
쎂쎀쎀쎂	-10.2784
nk	-10.2784
fogm쎯	-10.2785
g쎯sow쎯kb쎯	-10.2787
mc쎯yybd쎯kal쎯.	-10.2793
mc쎯ckb쎯	-10.2796
fjai쎯aep쎯	-10.2799
prz쎯	-10.2801
s쎯,	-10.2802
wdml쎯gxv쎯	-10.2803
pvgx쎯jc쎯	-10.2809
xoy쎯aij쎯.	-10.281
udjw쎯nfa쎯	-10.2811
kiw쎯baz쎯	-10.2815
쎂쎀mamb쎯	-10.2819
”(	-10.2826
edjq쎯fia쎯ufoy쎯	-10.2831
a쎯nh쎯	-10.2837
bmy쎯ob쎯	-10.2839
mfj쎯wsb쎯ob쎯	-10.2842
ygqw쎯fq쎯	-10.2843
agi쎯	-10.2844
wtyd쎯ecq1쎯	-10.2845
ae쎯z쎯d쎯	-10.2845
tird쎯ec쎯	-10.2846
a쎯p쎯	-10.2846
borx쎯dqsy쎯	-10.2847
(쎁쎉쎁	-10.2849
쎂쎀쎀쎁	-10.2853
km쎯、sli쎯	-10.2854
lk	-10.2858
llni쎯	-10.2859
vcd쎯	-10.286
a쎯byo쎯	-10.2861
edmy쎯	-10.2862
idkf쎯	-10.2862
fpd1쎯	-10.2864
쎁쎈쎆	-10.2869
rrk쎯g쎯	-10.2875
kal쎯tdrl1쎯	-10.2877
qyx쎯rsym쎯j쎯wz쎯	-10.2877
uaxk쎯cejo쎯	-10.2882
vmi쎯bdzy쎯.	-10.2882
sc쎯ewj쎯	-10.2883
vwo쎯t쎯	-10.2884
biyw쎯	-10.2885
wai쎯anr쎯	-10.2885
》mfj쎯《	-10.2886
vs쎯bhj쎯	-10.2891
ffj쎯	-10.2896
fdoe쎯	-10.2899
qex쎯	-10.2905
.쎃.	-10.2907
pro쎯	-10.2909
wtxi쎯mfrk0쎯u쎯	-10.2909
g쎯jc쎯ldod쎯	-10.2912
:edx쎯db쎯	-10.2919
zgp쎯yj쎯ee쎯odjy쎯	-10.2924
wtxi쎯vas쎯u쎯	-10.2925
、eako쎯	-10.2927
nb쎯haw쎯jjg쎯	-10.2927
oc쎯sf쎯	-10.293
k쎯a쎯uanw쎯	-10.2932
》eqg쎯	-10.2936
쎁bg쎯	-10.294
vwa쎯cag쎯	-10.294
edj쎯bhv쎯	-10.2941
mfrk0쎯u쎯“	-10.2942
jilw쎯nb쎯	-10.2943
vkl쎯vdnd쎯	-10.2946
heqy쎯uanw쎯	-10.295
ppp쎯	-10.2951
、km쎯	-10.2952
쎁쎉쎄쎇mamb쎯	-10.2954
wai쎯lczs쎯	-10.2955
sjl쎯gdw쎯	-10.2955
mazy쎯ka쎯	-10.296
)mfj쎯	-10.296
pfxb쎯sos쎯	-10.2965
pyqj쎯pynk쎯	-10.2967
bdrd쎯mamb쎯	-10.2968
、nk쎯	-10.2969
na쎯l쎯d쎯	-10.2974
dsz쎯zimo쎯	-10.2974
fdmf쎯	-10.2975
gl쎯oiad쎯rsj쎯	-10.2978
“j쎯jc쎯	-10.2978
pfwz쎯	-10.2978
fbo쎯	-10.2978
sjy0쎯,	-10.298
aij쎯neo쎯	-10.2983
due쎯	-10.2984
ywb쎯ch쎯	-10.2987
maj쎯sjo쎯sug쎯fx쎯	-10.299
쎁쎉쎃쎅mamb쎯	-10.2992
ko쎯rd쎯	-10.2996
,kojl0쎯	-10.2997
myz쎯쎃	-10.2998
.sow쎯mfji쎯	-10.3
a쎯nfa쎯nr0쎯	-10.3001
zry쎯x쎯	-10.3001
gae쎯woqy쎯bi쎯nmi쎯	-10.3007
±	-10.3009
nr0쎯、	-10.3009
od쎯ec쎯j쎯	-10.3013
mkal쎯	-10.3014
kku쎯gdiy쎯	-10.3016
mc쎯mbro쎯vdwy쎯	-10.3016
xbby쎯jc쎯	-10.3017
uel쎯	-10.3018
ld쎯mamb쎯	-10.3019
aed쎯ajx쎯	-10.302
tdrl1쎯vwo쎯	-10.3026
ja쎯qwb쎯	-10.3029
nir쎯xbby쎯	-10.3034
g쎯ad쎯	-10.3034
쎄.쎅	-10.3035
jb쎯uanw쎯	-10.3038
szz쎯	-10.3041
(-)	-10.3041
vkq쎯	-10.3047
sess쎯	-10.305
tki쎯	-10.3053
tgwm쎯	-10.3055
oz쎯sc쎯	-10.3056
sf쎯nre쎯	-10.3056
qmal쎯	-10.3056
qdos쎯jb쎯	-10.3059
ykk쎯	-10.3062
ymo1쎯zw쎯	-10.3065
uoae쎯dsz쎯	-10.3065
kz쎯ns쎯	-10.3065
dry1쎯mblk쎯	-10.3068
ucnd쎯mc쎯	-10.307
zmg쎯	-10.3074
nh쎯cirh쎯nmi쎯	-10.3077
nx쎯,	-10.3077
쎂쎀쎁쎂	-10.3079
vkk쎯t쎯	-10.3082
sed쎯kak쎯	-10.3083
★	-10.3087
qdxs쎯qdnc쎯	-10.3087
ld쎯vdwy쎯	-10.3089
tdzj쎯	-10.3091
nrl쎯mli쎯	-10.3093
id쎯	-10.3101
fjf쎯	-10.3103
ywz쎯	-10.3106
fob쎯wdrb쎯	-10.3107
,m쎯	-10.311
wxs쎯	-10.3111
en쎯ede쎯	-10.3114
llz쎯	-10.312
enaj쎯uabd쎯	-10.312
zm쎯yazo쎯	-10.3121
liij쎯	-10.3123
mfz쎯dmh쎯	-10.3123
sl쎯jb쎯	-10.3126
vxa쎯	-10.3126
likb쎯	-10.3127
rf쎯nar쎯	-10.3128
vr쎯	-10.313
zl쎯h쎯,	-10.313
lw쎯aed쎯	-10.3132
sy쎯hbi쎯:	-10.3133
hbkd쎯gdw쎯	-10.3134
edy쎯ob쎯ob쎯jl쎯,	-10.3135
ggnk쎯ya쎯	-10.3139
wjr쎯	-10.314
.jd쎯	-10.314
sc쎯yybd쎯	-10.3142
vcq쎯nre쎯gd쎯vdwy쎯	-10.3142
nfa쎯mfjo쎯	-10.3144
ekm쎯ryi쎯	-10.3145
oyl쎯jdf쎯	-10.3147
j쎯bdzs1쎯	-10.3148
soo쎯wxl쎯nak쎯mfk	-10.315
.쎂쎀쎀쎆mamb쎯	-10.3153
epd쎯	-10.3153
oy쎯fex쎯	-10.3154
wnr쎯ja쎯	-10.3155
쎁.쎈	-10.3157
yia쎯mfok0쎯	-10.3159
rlmi쎯	-10.3162
lbj쎯ecq1쎯	-10.3163
jkk쎯nx쎯	-10.3166
nqy쎯	-10.3166
zo쎯od쎯u쎯fav쎯	-10.3166
ai1쎯xmi쎯	-10.3166
u쎯j쎯wz쎯	-10.3169
jrd쎯	-10.317
wa쎯mfrk0쎯	-10.3174
》、《j쎯jc쎯	-10.3175
oy쎯gdli쎯g쎯	-10.3175
ldjn쎯sok쎯	-10.3176
zizi쎯d쎯	-10.3176
dsn쎯	-10.3177
mekb쎯kak쎯:	-10.3185
nfa쎯mblk쎯	-10.3186
mmh쎯syy1쎯fav쎯	-10.3186
njf쎯rhyk쎯	-10.3187
m쎯oz쎯yaj1쎯	-10.319
tuu쎯	-10.3192
sump쎯	-10.3195
lme쎯	-10.3197
su쎯nfa쎯	-10.3197
kav쎯	-10.3201
ai1쎯bdkv쎯	-10.3209
vki쎯akz쎯	-10.3211
ryki쎯	-10.3211
sujr쎯rx쎯ym쎯	-10.3213
vlv쎯	-10.3214
kskp쎯nrj1쎯	-10.3214
nry쎯	-10.3224
,mfjo쎯fy쎯	-10.3229
agd쎯b쎯	-10.3234
ch쎯zrs쎯	-10.3235
opx쎯tgij쎯	-10.3235
dgh쎯bdzy쎯	-10.3236
mbbd쎯mfji쎯	-10.3236
zrt쎯ad쎯	-10.3243
mc쎯sug쎯ecb쎯b쎯	-10.3247
k쎯nif쎯	-10.3248
au쎯zsj쎯,	-10.3251
쎈쎁	-10.3254
bdkv쎯hbkd쎯	-10.3254
쎀.쎃	-10.3255
vmw쎯	-10.3263
rr쎯zj쎯	-10.3266
qry쎯	-10.3268
vag쎯	-10.3268
u쎯sc쎯.	-10.3269
k쎯zx쎯	-10.3269
》qf쎯bwz쎯	-10.327
fxo쎯fav쎯	-10.3271
ldod쎯gdq쎯	-10.3271
uek쎯	-10.3274
vbi쎯lczs쎯	-10.3275
h쎯su쎯d쎯	-10.3277
fwb쎯	-10.3281
klv쎯	-10.3282
z쎯zizi쎯	-10.3282
,giw쎯gdq쎯	-10.3283
kcx쎯wtyd쎯	-10.3284
eau쎯kf쎯	-10.3284
ggnk쎯odyk쎯	-10.3285
wms쎯b쎯sug쎯ae쎯z쎯	-10.3285
doy쎯	-10.3286
ho쎯jk쎯	-10.3288
tggm쎯	-10.3291
j쎯jc쎯koxb쎯nh쎯	-10.3294
vzm쎯	-10.3294
gi쎯sxo쎯	-10.3296
nkmw쎯scq쎯	-10.3296
sm쎯ncds1쎯	-10.3297
myz쎯bd쎯xki쎯	-10.3298
kd쎯ni쎯	-10.33
쎅od쎯	-10.33
rrk쎯	-10.3301
nir쎯makr쎯	-10.3304
yybe쎯kojl0쎯	-10.3305
dyo쎯vdnd쎯	-10.3306
vnk쎯	-10.3307
gdq쎯p쎯	-10.331
쎁쎉쎃쎆mamb쎯	-10.3311
d쎯fg쎯aks쎯	-10.3313
xkc쎯ry쎯	-10.3316
baa쎯vdwy쎯nsu쎯	-10.3322
ga쎯wdgq0쎯tgb쎯	-10.3324
tieo쎯	-10.3325
sc쎯f쎯zo쎯	-10.3328
mgm쎯	-10.3332
wdrj쎯bdzw쎯	-10.3334
sl쎯ufte쎯	-10.3337
toy쎯	-10.3339
d쎯ggnk쎯lok쎯	-10.3341
xyis쎯syy1쎯.	-10.3346
nh쎯gxv쎯	-10.3351
:쎅	-10.3354
쎉쎁	-10.3358
zizi쎯bdkv쎯d쎯	-10.3361
bkai쎯	-10.3363
bix쎯o쎯	-10.3365
u쎯tg쎯gd쎯	-10.3366
vs쎯wxl쎯	-10.3367
sug쎯ad쎯	-10.3369
mbbd쎯idju쎯:	-10.3373
()、	-10.3375
ajx쎯,	-10.3376
dymb쎯	-10.3377
mcek쎯zyl쎯	-10.3379
cd쎯zym쎯	-10.338
“cd쎯	-10.3385
wa쎯jirj쎯	-10.3386
wms쎯tk쎯	-10.3386
vdwy쎯bdzs1쎯ku쎯	-10.3388
nbk쎯ym쎯	-10.3388
.zj쎯kf쎯	-10.3388
llld1쎯nsu쎯	-10.3389
n쎯g쎯	-10.3391
,ld쎯mamb쎯	-10.3391
rid쎯rid쎯ch쎯	-10.3394
ajx쎯mbro쎯	-10.3394
wbi쎯wh쎯	-10.3396
pdw쎯nh쎯	-10.3413
vkr쎯tdxi쎯ba쎯	-10.342
fl쎯odwy쎯	-10.342
skx쎯aep쎯	-10.3423
gg쎯wdgq0쎯	-10.3424
fd	-10.3425
ne쎯hbkd쎯	-10.3427
xhk쎯	-10.343
bsym쎯	-10.3432
mazy쎯a쎯o쎯	-10.3432
dmn쎯fekk쎯	-10.3432
dqy쎯	-10.3436
,k쎯j쎯jc쎯	-10.3437
bh쎯edl쎯	-10.3438
fs쎯ho쎯	-10.3438
sb쎯fsw쎯y쎯	-10.3439
zyj쎯vao쎯	-10.3441
dub쎯	-10.3447
ezk쎯	-10.3452
wz쎯qt쎯	-10.3459
wdel쎯ew쎯	-10.3463
kiub쎯	-10.3465
wyk쎯	-10.3476
qdos쎯kg쎯	-10.348
rsj쎯wdya쎯	-10.3481
drk1쎯ufzm쎯	-10.3482
boy쎯,	-10.3487
rf쎯nm쎯ai1쎯	-10.3492
mfz쎯kojl0쎯mfz쎯、	-10.3497
xju쎯rll쎯	-10.3499
kv쎯j쎯	-10.35
ya	-10.35
d쎯ecb쎯gzz쎯	-10.3501
mblk쎯ezr쎯	-10.3505
ys쎯dwm쎯	-10.3508
vwh쎯	-10.3514
ahi쎯fsv쎯	-10.3519
c쎯yya쎯	-10.352
wa쎯ri쎯	-10.3522
sds쎯sor쎯	-10.3529
grl쎯	-10.353
smx쎯hbz쎯	-10.353
쎁쎉쎃쎃mamb쎯	-10.3533
qqr쎯	-10.3537
,k쎯a쎯wdgq0쎯	-10.3538
ozg쎯	-10.3539
ngr쎯idju쎯	-10.3541
.u쎯y쎯	-10.3544
r쎯ufzm쎯	-10.3544
mzv쎯zs쎯、	-10.3548
b쎯idju쎯	-10.3549
hbz쎯nr0쎯	-10.3553
ed쎯wdya쎯	-10.3554
fubd쎯la쎯	-10.3555
k쎯la쎯uaqk쎯	-10.3556
rsj쎯vas쎯	-10.3556
fds쎯yh쎯ko쎯zl쎯	-10.3558
×쎁	-10.3558
vuo쎯	-10.356
vs쎯nb쎯	-10.356
zmyy쎯	-10.3561
zmya쎯sau쎯	-10.3561
jc쎯su쎯	-10.3564
hrd쎯	-10.3568
nrkw쎯d쎯	-10.3569
vsc쎯:“	-10.3571
j쎯jc쎯gd쎯ybz쎯	-10.3574
쎅oy쎯pji쎯	-10.3575
\	-10.3578
oc쎯jc쎯rj쎯b쎯	-10.3579
fy쎯u쎯	-10.3581
wdtg쎯c쎯y쎯	-10.3586
lich쎯	-10.3587
,wdtg쎯c쎯	-10.3588
sol쎯ae쎯	-10.359
baz쎯ihwz쎯	-10.3594
ldjn쎯uaqb쎯	-10.3598
pa쎯tirg쎯	-10.3604
haw쎯ucq쎯	-10.3607
mtk쎯odnd쎯	-10.3607
mfj쎯qyx쎯rsym쎯	-10.3609
""	-10.3612
jz쎯ne쎯	-10.3615
vfbk쎯	-10.3622
dxb쎯deki쎯	-10.3622
gtg쎯mbro쎯	-10.3622
joqk쎯	-10.3627
kz쎯guz쎯	-10.3628
heoo쎯sjl쎯d쎯	-10.363
fdyy쎯gdq쎯	-10.3631
bu쎯sug쎯	-10.3632
ajk쎯sjy0쎯ch쎯	-10.3633
sgq쎯	-10.3636
a쎯jo쎯	-10.3638
ed쎯qy쎯	-10.3638
.oc쎯fds쎯	-10.3639
ˇ	-10.3644
dsz쎯obd쎯	-10.3651
ncl쎯	-10.3653
dq쎯ucq쎯	-10.3654
mbro쎯jjj쎯	-10.3654
mbds쎯cejo쎯	-10.3657
eaqm쎯dq쎯	-10.3663
쎄쎀쎀쎀	-10.3664
miy쎯nkic쎯	-10.3665
sod쎯wd쎯	-10.367
,udlk쎯nmb쎯	-10.3673
,zj쎯kf쎯	-10.3674
ag쎯mh쎯	-10.3677
쎁쎉쎃쎉mamb쎯	-10.3678
tlke쎯fsw쎯	-10.368
dsu쎯ai0쎯	-10.3683
.mbrd쎯paj0쎯	-10.3683
nre쎯edl쎯	-10.3686
wdmr쎯	-10.3687
ooy쎯	-10.369
xbd쎯	-10.3695
boy쎯idju쎯	-10.3696
emkb쎯ajx쎯	-10.3696
wdse쎯	-10.3697
kq쎯grl쎯	-10.3701
mekb쎯xbby쎯	-10.3701
().	-10.3702
kico쎯pkq쎯	-10.3704
ag쎯yxo쎯	-10.3704
gd쎯r쎯ufzm쎯	-10.3709
pdro쎯	-10.3711
xkzi쎯dpw1쎯	-10.3712
bmm쎯gae쎯	-10.3715
pse쎯	-10.3715
.gl쎯	-10.372
dex쎯fsv쎯、	-10.3722
pow쎯	-10.3726
쎁쎈쎅	-10.373
bdzs1쎯vsc쎯ad쎯	-10.3731
zyl쎯ohy쎯	-10.3732
doyd쎯vwa쎯	-10.3735
gd쎯my쎯	-10.3738
”“	-10.3739
lk쎯ed쎯	-10.3742
ugo쎯	-10.3747
ubpx쎯	-10.3748
odod쎯iirr쎯	-10.3749
vm쎯lga쎯	-10.3751
uxo쎯	-10.3752
nl쎯zzym쎯	-10.3758
b쎯sug쎯	-10.3758
.vfd쎯tgij쎯	-10.376
kb쎯gj쎯	-10.3765
yybd쎯yu쎯	-10.3765
쎃oz쎯kb쎯	-10.3769
ed쎯odmf쎯	-10.3773
koxb쎯uaqk쎯	-10.3773
uaqk쎯nc쎯u쎯	-10.3773
smiy쎯mc쎯	-10.3775
sed쎯hkd쎯mc쎯szq쎯	-10.3777
wda쎯wdki1쎯	-10.378
쎂oz쎯kb쎯	-10.3783
emys쎯	-10.3783
sul쎯byo쎯	-10.3786
zmc쎯rsj쎯	-10.3787
ydj쎯ae쎯	-10.3792
x쎯ky쎯	-10.3795
odod쎯gl쎯	-10.3796
eyd쎯od쎯	-10.3798
쎁쎀쎀edjr2쎯	-10.3804
ob쎯ajk쎯ob쎯ch쎯	-10.3807
cejo쎯ku쎯dex쎯fsv쎯	-10.3808
mbbd쎯jk쎯k쎯	-10.3813
odjy쎯rsj쎯u쎯	-10.3814
zizi쎯z쎯	-10.3816
ldod쎯sq쎯	-10.3816
xbno쎯	-10.3819
klzw쎯hbkd쎯	-10.3819
gm쎯llg쎯	-10.382
sc쎯f쎯gdq쎯	-10.3824
oc쎯ch쎯	-10.3827
.쎁쎀	-10.3828
au쎯zsj쎯.	-10.3828
rj쎯jc쎯	-10.383
d쎯fsz쎯wz쎯	-10.3834
eg쎯aed쎯	-10.3835
plod쎯	-10.3836
oy쎯edx쎯	-10.3836
yybd쎯kal쎯	-10.384
kz쎯sij쎯	-10.3845
wdtg쎯nfa쎯	-10.3846
mmh쎯akz쎯	-10.3855
mfrk0쎯wa쎯u쎯	-10.3856
-쎈	-10.3856
bmrr쎯od쎯	-10.3857
zb쎯ri쎯	-10.3857
me쎯uf쎯	-10.386
horo쎯ucgd쎯	-10.3861
mc쎯vmi쎯d쎯	-10.3866
oszi쎯	-10.3867
dkx쎯	-10.3869
쎁쎉쎄쎀mamb쎯	-10.3869
kld쎯xyis쎯	-10.3872
ecp쎯bka쎯	-10.3872
x쎯sy쎯	-10.3875
jdj쎯hbkd쎯	-10.3876
bae쎯	-10.3879
kag쎯fdm쎯	-10.388
:쎉	-10.3883
gef쎯	-10.3883
》j쎯d쎯	-10.3885
wa쎯rid쎯	-10.3891
d쎯uag쎯mzv쎯	-10.3892
u쎯fsz쎯wz쎯	-10.3896
na쎯l쎯.	-10.3899
neo쎯tgva쎯sul쎯	-10.3899
sli쎯aim쎯	-10.3901
.nsu쎯ad쎯	-10.3905
nka쎯k쎯	-10.3908
si쎯od쎯	-10.3908
dsz쎯pdw쎯	-10.3911
vom쎯ufte쎯	-10.3913
edx쎯sjy0쎯	-10.3913
fq쎯,	-10.392
zxe쎯	-10.3922
d쎯skw쎯kiw쎯	-10.3923
mamb쎯sug쎯	-10.3925
uekb쎯	-10.3927
ajx쎯bg쎯	-10.3927
qyx쎯rsym쎯、	-10.3928
mfte쎯vdwy쎯az쎯	-10.3931
noa쎯	-10.3932
“”	-10.3935
sc쎯fq쎯	-10.3936
syj쎯	-10.3936
vdwy쎯mc쎯d쎯	-10.3936
woj쎯jjg쎯	-10.3937
zmwg쎯	-10.3941
odmx쎯	-10.3943
sf쎯bhv쎯	-10.3944
쎂쎄쎀	-10.3947
vejn쎯木	-10.3948
oizr쎯	-10.3948
bsj쎯szq쎯	-10.3949
edjm쎯ysk쎯	-10.3956
kojl0쎯lr쎯d쎯	-10.3957
gak쎯nr0쎯	-10.3957
jjg쎯fdm쎯	-10.3957
쎆od쎯	-10.3958
d쎯ufc쎯wsk쎯	-10.3959
bi쎯eyd쎯ucgd쎯fsv쎯	-10.396
쎂쎀쎁쎄mamb쎯	-10.3962
gd쎯fuz쎯	-10.3964
a쎯nx쎯	-10.3965
ho쎯mfz쎯	-10.3966
uzj쎯	-10.3968
hyu쎯	-10.397
gdq쎯wr쎯wm쎯	-10.3971
k쎯ucgd쎯jc쎯	-10.3976
se	-10.3981
shlq쎯	-10.3981
kdxz쎯wdml쎯	-10.3983
oc쎯ho쎯	-10.3983
(vdwy쎯rsj쎯:)	-10.3984
xmyj쎯、	-10.3984
cdv쎯byo쎯	-10.3985
vcq쎯vbj쎯	-10.3987
ld쎯a쎯	-10.3989
gds1쎯au쎯vu쎯	-10.3989
kiym쎯zm쎯	-10.3991
neo쎯kz쎯	-10.3998
oy쎯xmyj쎯	-10.3999
kfg쎯	-10.4
zmxb쎯mfte쎯	-10.4004
°C,mamb쎯yrm쎯kv쎯	-10.4005
xw쎯	-10.4008
udyw쎯	-10.4008
hdko쎯edl쎯sjy0쎯	-10.4009
ajkw쎯	-10.401
wa쎯b쎯	-10.4011
fj쎯tirr쎯sjy0쎯	-10.4013
k쎯:	-10.4014
쎃쎂쎀	-10.4017
、sf쎯	-10.4018
ggnn쎯	-10.4019
cff쎯	-10.4021
mbro쎯ku쎯	-10.4025
lczs쎯od쎯.	-10.4027
nsc쎯wms쎯	-10.4028
bdzy쎯qs쎯	-10.403
mbb쎯qsv쎯	-10.4034
ski1쎯,ec쎯j쎯	-10.4037
zbk쎯	-10.4039
xsxi쎯	-10.4041
ay쎯odmf쎯	-10.4047
edx쎯dkjm쎯	-10.4048
kaa쎯:“	-10.4049
,idj쎯b쎯gj쎯mfjo쎯	-10.4051
zizi쎯nc쎯	-10.4051
쎄od쎯	-10.4053
,쎀쎀쎀	-10.4054
sf쎯dex쎯fsv쎯	-10.4057
q쎯쎁쎈ka쎯	-10.4058
wbk쎯rrk쎯,	-10.4062
zb쎯wh쎯	-10.4062
×쎂	-10.4063
kbm쎯	-10.4066
,fxo쎯dx쎯	-10.4069
sf쎯sug쎯jjj쎯	-10.4069
ztk쎯	-10.4069
foa쎯	-10.4074
yj쎯kql쎯	-10.4075
vsm쎯vsk쎯	-10.4076
bmm쎯vdwy쎯bi쎯nmi쎯	-10.4079
.”vcq쎯	-10.4079
(.)	-10.408
skw쎯kiw쎯	-10.4081
fl쎯nb쎯	-10.4083
uxb쎯udaj쎯	-10.4087
lkrw쎯hejc쎯	-10.4087
→	-10.4087
.쎂쎀쎀쎈mamb쎯	-10.4089
eh쎯	-10.4094
rxw쎯um쎯	-10.4094
zx쎯vsnd쎯mw쎯ckb쎯	-10.4098
sug쎯ku쎯nr0쎯	-10.4098
vag쎯yj쎯	-10.4099
ckv쎯jc쎯	-10.4099
tdjr쎯	-10.4101
,sj쎯k쎯	-10.4104
oxaj쎯ufte쎯	-10.4108
elbm쎯	-10.4108
yary쎯ya쎯	-10.4119
yi쎯aij쎯	-10.4119
fqq쎯	-10.4119
(mtk쎯mfrk0쎯	-10.4122
rjg쎯oai쎯	-10.4123
p쎯gdq쎯d쎯	-10.4123
d쎯la쎯d쎯	-10.4124
cpez쎯	-10.4126
,soo쎯wxl쎯nak쎯mfk	-10.4126
edjr2쎯ecp쎯	-10.4127
ufc쎯zk쎯	-10.4132
(ggnk쎯	-10.414
jni쎯a쎯d쎯	-10.4141
ufc쎯wsk쎯,	-10.4142
edlc쎯su쎯	-10.4146
idjh쎯jc쎯	-10.4147
|	-10.4148
、kv쎯	-10.415
mekb쎯f쎯zgp쎯ufzm쎯	-10.4153
sow쎯fu쎯d쎯	-10.4156
q쎯쎁쎅ka쎯	-10.416
brt쎯zh쎯zimo쎯oda쎯	-10.4161
z쎯bdzy쎯	-10.4165
ldo쎯go쎯	-10.4166
lczs쎯od쎯,	-10.4167
dew쎯zizi쎯	-10.4167
uakk쎯yms쎯	-10.417
fl쎯ns쎯	-10.4171
bdnw쎯cexs쎯	-10.4174
cexs쎯zizi쎯	-10.418
i쎯y쎯	-10.4183
,pvf쎯l쎯	-10.4192
vcq쎯vmr쎯	-10.4194
jwr쎯	-10.4195
vsc쎯qq쎯tdrl1쎯pa쎯	-10.4196
vdwy쎯mzv쎯	-10.4197
vfka쎯	-10.4201
dsu쎯ecp쎯	-10.4202
wb쎯h쎯y쎯	-10.4205
edeq쎯yk쎯	-10.4205
tgoo쎯oxi쎯	-10.4206
vcq쎯sf쎯	-10.4211
쎂)	-10.4213
_	-10.4214
bmm쎯vdwy쎯cuc쎯	-10.4216
a쎯fav쎯	-10.4216
dsqm쎯	-10.4218
ueo쎯	-10.4221
sux쎯	-10.4222
fxa쎯	-10.4225
pe쎯kojr쎯mfz쎯	-10.4226
vmr쎯tdrx쎯,	-10.4228
uag쎯wz쎯	-10.423
ldm쎯zx쎯	-10.4231
.쎂쎀쎀쎉mamb쎯	-10.4233
fxd쎯qrk쎯	-10.4234
sk쎯bdrw쎯	-10.4235
djl쎯nmy쎯	-10.4237
bix쎯pa쎯	-10.4237
.쎁、	-10.4238
gae쎯woqy쎯wdhb쎯	-10.424
ow쎯	-10.4241
ujd쎯zsj쎯	-10.4242
fl쎯uag쎯d쎯	-10.4242
p쎯g쎯b쎯	-10.4246
xsxs쎯sy쎯	-10.4251
djl쎯mbod쎯	-10.4251
cb쎯edgs쎯	-10.4255
(zj쎯	-10.4256
udjw쎯zhm쎯	-10.4256
aim쎯edy쎯mfz쎯jl쎯	-10.4257
gd쎯kak쎯d쎯	-10.4257
-쎂쎀	-10.4258
qne쎯	-10.4265
hx쎯gd쎯	-10.4266
ub쎯rll쎯	-10.4267
mfte쎯ch쎯	-10.4267
oxi쎯	-10.4268
)od쎯.	-10.4268
쎁)	-10.4268
jkr쎯	-10.4273
qek쎯	-10.4276
x쎯rr쎯	-10.4279
kia쎯iirr쎯	-10.428
kiw쎯jirj쎯	-10.4282
쎂쎅쎆	-10.4287
mfk쎯jb쎯	-10.4289
md쎯qq쎯	-10.4291
》a쎯xyis쎯	-10.4293
ucq쎯dyx쎯	-10.4293
ngr쎯hini쎯	-10.4295
loa쎯rko쎯	-10.4296
fj쎯hma1쎯zbj쎯oaj쎯	-10.4297
dex쎯fsv쎯mfj쎯	-10.4298
nkk쎯yybd쎯	-10.4298
d쎯ld쎯kd쎯,	-10.4301
xl쎯odxw쎯	-10.4302
xsig쎯vl쎯	-10.4302
tlnh쎯tl쎯	-10.4305
fbb쎯ffv쎯	-10.4306
pv쎯	-10.4307
]	-10.4307
vmi쎯ym쎯	-10.4308
xl쎯kojl1쎯	-10.4312
gi쎯suc쎯	-10.4313
uanl쎯tel쎯	-10.4316
oml쎯vwa쎯	-10.4317
au쎯sy쎯oz쎯kb쎯.	-10.432
soo쎯xss쎯	-10.4321
gd쎯vfd쎯tgij쎯	-10.4321
fekg쎯mbbd쎯	-10.4322
xa쎯edjr2쎯kiw쎯	-10.4324
kom쎯ufzm쎯yh쎯smm쎯	-10.4324
lyh쎯	-10.4325
nlg쎯	-10.4326
ak쎯u쎯	-10.4333
baz쎯edj쎯	-10.4333
mbds쎯odwg쎯bhj쎯	-10.4336
qmxm쎯	-10.4338
gl쎯h쎯.	-10.4339
-쎀쎁	-10.4339
d쎯ckb쎯flw쎯	-10.4339
oz쎯bdrd쎯uaqk쎯	-10.4341
vsjy쎯	-10.4341
deki쎯fsw쎯:	-10.4352
oc쎯nfa쎯	-10.4352
kcx쎯nrs쎯	-10.4352
mazy쎯tdro쎯	-10.4354
vzg쎯	-10.4356
lksk1쎯	-10.4357
xbkv1쎯》	-10.4359
쎁쎉쎆쎇mamb쎯	-10.4362
oz쎯yaj1쎯.	-10.4364
nor쎯sjym쎯	-10.4368
ufc쎯pfp쎯	-10.4369
od쎯gd쎯nh쎯cirh쎯	-10.4371
,jo쎯	-10.4375
zym쎯cejo쎯mfrk0쎯	-10.4376
pde쎯	-10.4377
vcq쎯edeq쎯	-10.4381
g쎯sow쎯	-10.4383
paj0쎯eacy0쎯	-10.4384
xl쎯vl쎯	-10.4388
mfte쎯wdhb쎯	-10.4389
mbod쎯bzs쎯	-10.4394
wym쎯,jhx쎯sol쎯	-10.4396
uohz쎯	-10.4399
borx쎯	-10.44
쎁쎅edjr2쎯	-10.4401
vwj쎯vsn쎯	-10.4402
md쎯vb쎯	-10.4407
kv쎯kf쎯	-10.4418
gd쎯zrs쎯	-10.4418
dgk쎯	-10.442
zmxs쎯	-10.4421
zizi쎯np쎯wsb쎯:	-10.4423
kv쎯oy쎯	-10.4425
vtc쎯vlw쎯	-10.4429
mmh쎯rsj쎯	-10.4431
edjq쎯elrs쎯id쎯	-10.4432
bzs쎯xi쎯	-10.4432
jiwb쎯	-10.4432
sf쎯rmg쎯	-10.4434
muu쎯	-10.4434
dex쎯fsv쎯ym쎯kak쎯	-10.4434
쎁쎉쎃쎀mamb쎯	-10.4434
edx쎯yod쎯	-10.4436
xc쎯	-10.4438
#	-10.444
sau쎯wdki0쎯	-10.4441
dwy쎯	-10.4442
mw쎯ckb쎯mfj쎯	-10.4442
vyou1쎯	-10.4443
、fj쎯	-10.4445
wb쎯fjai쎯d쎯	-10.445
ch쎯wdz쎯	-10.445
lx쎯lcq쎯	-10.4456
mfj쎯mw쎯ckb쎯	-10.4457
edx쎯nds쎯	-10.4459
ho쎯ldod쎯	-10.4461
ush쎯	-10.4464
jk쎯od쎯	-10.4464
쎁.쎆	-10.4465
ve쎯ja쎯	-10.4466
쎁od쎯,	-10.4472
ns쎯nlwz쎯dex쎯fsv쎯	-10.4473
er쎯wdrb쎯	-10.4473
vkry쎯	-10.448
a쎯ufgd쎯	-10.448
edfd쎯baa쎯paj0쎯	-10.4481
b쎯i쎯	-10.4481
mil쎯	-10.4481
kiay쎯nm쎯	-10.4482
mh쎯vxb쎯hdko쎯	-10.4485
gxv쎯tdgd쎯	-10.4486
oc쎯ka쎯mblk쎯	-10.4495
ob쎯sed쎯kal쎯	-10.4498
vhg쎯	-10.45
yod쎯jl쎯	-10.4501
tdj쎯bizi쎯	-10.4507
wdml쎯hdyd쎯	-10.4508
tdrx쎯nr0쎯	-10.4511
dyj쎯ceaz쎯	-10.4512
jsk1쎯	-10.4513
llrs쎯.	-10.4514
vnug쎯tl쎯	-10.4516
mwz쎯	-10.4516
kcx쎯zmya쎯d쎯	-10.4516
bdzw쎯bdzy쎯jl쎯,	-10.4523
q쎯쎂쎀ka쎯	-10.4523
mamb쎯bdkv쎯,	-10.4524
a쎯bxgd쎯	-10.4524
an쎯odmf쎯	-10.4527
mfj쎯z쎯xe쎯	-10.4527
mtk쎯odnd쎯:	-10.4528
tdow쎯bzy1쎯	-10.4528
trt쎯txl쎯	-10.453
ndgo쎯mfkd쎯	-10.4532
pvf쎯nif쎯	-10.4532
vwo쎯sok쎯	-10.4534
fx쎯mfkd쎯	-10.4534
gdq쎯som쎯d쎯	-10.4536
va쎯vs쎯	-10.4538
fq쎯tgf쎯	-10.4539
%.	-10.454
xkc쎯ymo0쎯	-10.4542
kdmk쎯v	-10.4551
쎁쎉쎄쎁mamb쎯	-10.4554
zizi쎯byo쎯	-10.4555
k쎯a쎯fav쎯	-10.4556
jxs쎯	-10.4562
pkb쎯kz쎯vyi쎯	-10.4563
nlug쎯bdzw쎯ob쎯	-10.4566
tg쎯vmw쎯tgva쎯l쎯a	-10.4567
sc쎯fpx쎯	-10.4569
mfte쎯uakk쎯	-10.457
zhy쎯yt쎯	-10.4571
dk쎯cexs쎯	-10.4571
fow1쎯nij쎯	-10.4581
wr쎯wm쎯	-10.4581
armk쎯	-10.4591
gl쎯h쎯d쎯	-10.4591
xs쎯gdq쎯	-10.4591
jirj쎯zhm쎯	-10.4592
ho쎯aim쎯tgnd쎯	-10.4595
mfrk1쎯	-10.4595
ns쎯fjrl쎯	-10.4596
fk쎯srk0쎯	-10.4597
vwr쎯t쎯	-10.4598
dkib쎯	-10.4598
,nr1쎯	-10.4599
kiym쎯od쎯	-10.46
ob쎯ch쎯	-10.4602
li	-10.4605
bdzs1쎯ku쎯rre쎯ku쎯	-10.4606
baa쎯vdwy쎯nsu쎯,	-10.4608
smr쎯oi쎯	-10.4608
soo쎯wxl쎯gd쎯vdwy쎯	-10.4609
cirs쎯edjr2쎯qdos쎯	-10.4609
wdy쎯sy쎯	-10.4613
ay쎯bdrd쎯.	-10.4615
vqj쎯vm쎯	-10.4616
oy쎯sjya쎯	-10.4618
hja쎯	-10.4618
쎁쎀mamb쎯	-10.462
eked쎯ggnk쎯	-10.4623
aim쎯vzj1쎯sjy0쎯	-10.4625
ryi쎯vxb쎯	-10.4625
uanl쎯wdgq0쎯	-10.4628
fl쎯rr쎯	-10.4628
d쎯aep쎯hbi쎯	-10.4631
jos쎯i쎯	-10.4631
.ld쎯kd쎯	-10.4634
pmb쎯	-10.4639
ho쎯、	-10.464
쎀.쎈	-10.4643
쎁、	-10.4646
a쎯xb쎯	-10.4646
쎁쎉쎄쎂mamb쎯	-10.465
mai쎯	-10.4651
ihag쎯	-10.4652
ajx쎯rsym쎯p쎯	-10.4653
zoa쎯xsxi쎯	-10.4654
fav쎯ucl쎯	-10.4654
j쎯ko쎯odii쎯ku쎯	-10.4656
pjl쎯ldod쎯	-10.4658
ー	-10.4661
nmy쎯wcj쎯	-10.4663
did쎯	-10.4667
,eao쎯gdq쎯	-10.467
hdko쎯tirr쎯sjy0쎯	-10.4671
yi쎯mfrk0쎯	-10.4676
hal쎯	-10.4677
mfj쎯b쎯ho쎯	-10.4677
yj쎯ux쎯	-10.4679
qd쎯ed쎯	-10.468
ty쎯som쎯	-10.4685
sc쎯bdzy쎯	-10.4689
gduo쎯ryi쎯	-10.4693
ldo쎯gdxs쎯	-10.4694
hdko쎯ewbr쎯sli쎯	-10.4695
mbrw쎯l쎯	-10.4695
bi쎯mfz쎯	-10.4695
oaj쎯nmi쎯uag쎯mzv쎯	-10.4695
sjr쎯	-10.4695
fj쎯edl쎯sjy0쎯	-10.4698
wdmb쎯	-10.4701
yzi쎯ermm쎯	-10.4703
wdf쎯nh쎯	-10.4703
kdxb1쎯db쎯“	-10.4706
쎁쎂쎀쎀	-10.4707
gl쎯sa쎯	-10.4713
ggym쎯nh쎯	-10.4713
mfte쎯mfte쎯ch쎯	-10.4714
baz쎯fsz쎯	-10.4715
zyl쎯ohy쎯dqs쎯oi쎯	-10.4717
odwg쎯mbrd쎯d쎯	-10.4717
ggud쎯	-10.4718
rre쎯ku쎯mc쎯	-10.4719
mfte쎯gae쎯bg쎯la쎯	-10.472
wtds쎯	-10.4721
nbzd쎯fb쎯	-10.4724
mwl쎯,	-10.4727
dvw쎯dub쎯	-10.4729
sos쎯rsym쎯	-10.473
○	-10.4735
sjl쎯baz쎯	-10.4739
rsyw쎯	-10.4742
vew쎯	-10.4743
.kq쎯	-10.4743
ajk쎯ywb쎯ch쎯	-10.4747
qqd쎯qbo쎯	-10.4748
syy1쎯·	-10.4748
nlo쎯rhko쎯sjy0쎯.	-10.4749
yia쎯fj쎯	-10.4749
mfjr0쎯zimo쎯	-10.4753
.j쎯eao쎯kojr쎯jl쎯.	-10.4754
dxi쎯	-10.4758
lk쎯mfya쎯	-10.4762
nre쎯tirr쎯	-10.4762
a쎯uanl쎯	-10.4763
.a쎯pq쎯	-10.4765
쎁쎅쎀쎀	-10.4765
aij쎯mbrw쎯	-10.4765
aeb쎯odii쎯ku쎯	-10.4765
nfa쎯mekb쎯	-10.4767
.쎂쎀쎀쎇mamb쎯	-10.477
ucgd쎯xl쎯	-10.4774
qf쎯soo쎯	-10.4775
odod쎯ajx쎯myz쎯a쎯	-10.4778
gdq쎯uag쎯sjy0쎯tl쎯	-10.4779
、cd쎯	-10.478
dub쎯ryt쎯	-10.4781
ubi쎯yybe쎯	-10.4786
mfjr0쎯rsym쎯	-10.4787
,mbbd쎯jk쎯k쎯	-10.4789
,xs쎯mfrk0쎯	-10.4789
,ggnk쎯rsj쎯	-10.4796
kiym쎯vx쎯smm쎯	-10.4796
myyn쎯	-10.4797
ecb쎯gzz쎯i쎯	-10.4799
p쎯fg쎯	-10.4802
vsm쎯wdrj쎯	-10.4802
kd쎯ecq1쎯d쎯	-10.4803
nfa쎯ldod쎯	-10.4805
wsk쎯smi쎯	-10.4806
mc쎯vgb쎯	-10.4806
vb쎯mblk쎯	-10.4807
eekq쎯	-10.4808
whi쎯bh쎯	-10.4809
cirh쎯suep쎯	-10.481
wdgq0쎯ch쎯	-10.481
rry쎯	-10.4811
xbkk쎯	-10.4813
,c쎯u쎯	-10.4819
bil쎯、	-10.4821
zzm쎯aim쎯tgnd쎯	-10.4822
xhm쎯kk쎯	-10.4829
pm	-10.4829
pqj쎯	-10.4829
a쎯agd쎯	-10.4831
jnj쎯tgva쎯	-10.4833
krr쎯	-10.4834
kbx쎯mc쎯	-10.4835
wo	-10.4839
oc쎯sf쎯d쎯	-10.4841
sug쎯ku쎯od쎯ufzm쎯	-10.4842
mzg쎯sok쎯	-10.4843
.nmi쎯u쎯	-10.4845
nmi쎯zizi쎯	-10.4847
giw쎯aij쎯zo쎯	-10.4848
lok쎯k쎯	-10.4851
bi쎯nmi쎯wdhb쎯	-10.4854
qmk쎯sjy0쎯	-10.4857
sm쎯bizi쎯idjh쎯rx쎯	-10.4858
iirr쎯ri쎯	-10.4858
gi쎯alb쎯	-10.486
쎁쎉쎄쎄mamb쎯	-10.4862
pek쎯sja쎯	-10.4863
wgs쎯rgs쎯	-10.4864
ob쎯ajk쎯sc쎯nmb쎯	-10.4865
al쎯od쎯	-10.4867
al쎯gd쎯	-10.4868
kcx쎯ko쎯	-10.4868
nb쎯udyw쎯	-10.4871
udyz쎯ya쎯	-10.4872
udjw쎯xmyj쎯	-10.4874
yji쎯sl쎯	-10.4876
kku쎯bk쎯xmue쎯	-10.4877
ldeo쎯aeb쎯d쎯	-10.488
sc쎯f쎯l쎯ad쎯	-10.4881
ufc쎯mbrw쎯	-10.4883
.fxo쎯dx쎯	-10.4883
tdrl1쎯pdel쎯	-10.4883
zl쎯ch쎯	-10.4884
ldm쎯waj쎯	-10.4886
mbfj쎯mbmc쎯.	-10.4887
nby쎯gd쎯	-10.4891
dxi쎯ped쎯aep쎯	-10.4895
sjy1쎯	-10.4895
nkbr쎯	-10.4898
wsz쎯jjj쎯	-10.4898
sbm쎯r쎯	-10.4898
q쎯쎂쎅ka쎯	-10.4899
dk쎯zizi쎯y쎯	-10.4899
、i쎯vm쎯	-10.4904
ca쎯edeq쎯	-10.4907
wxl쎯dsw쎯y쎯	-10.4912
d쎯zq쎯ym쎯	-10.4912
muq쎯	-10.4914
.c쎯gdq쎯	-10.4917
qdos쎯ucq쎯	-10.4918
쎂쎄ko쎯kd쎯	-10.4919
.la쎯uaqk쎯,	-10.492
xmyj쎯sjy0쎯	-10.4921
bmm쎯mfz쎯	-10.4922
vkl쎯bxmk쎯	-10.4923
zlo쎯uf쎯	-10.4924
sq쎯sed쎯,	-10.4925
nmi쎯jjj쎯《	-10.4925
ch	-10.4931
llrs쎯d쎯	-10.4933
uef쎯gtg쎯	-10.4934
nmb쎯j쎯eao쎯	-10.4938
nak쎯ad쎯	-10.4938
d쎯zwb쎯oaj쎯um쎯	-10.4945
nmi쎯bm쎯:	-10.4947
fl쎯shqc쎯	-10.4957
ygqw쎯paj0쎯	-10.496
d쎯a쎯sjy0쎯	-10.4962
kion쎯gj쎯	-10.4963
a쎯an쎯	-10.4972
kv쎯rid쎯ckb쎯	-10.4973
ko쎯uo쎯	-10.4975
zej쎯	-10.4979
!”	-10.4979
.쎂쎀쎁쎀mamb쎯	-10.4981
h쎯su쎯y쎯	-10.4982
ob쎯mfz쎯jl쎯	-10.4985
、ko쎯	-10.4987
j쎯edl쎯	-10.4988
z쎯uagw0쎯	-10.4988
dkc쎯kv쎯	-10.4992
쎀쎀au쎯sy쎯uf쎯,	-10.4993
kcx쎯pdw쎯	-10.4998
mfte쎯dex쎯h쎯kf쎯	-10.4999
uo쎯ll쎯	-10.5002
bil쎯ku쎯	-10.5002
mbds쎯ewf쎯vas쎯	-10.5003
kg쎯vlw쎯	-10.5003
biys쎯	-10.5011
kfj쎯	-10.5015
ewj쎯mbjw쎯	-10.502
paj0쎯nmb쎯	-10.5022
”;	-10.5024
쎁쎄쎀	-10.5024
drk1쎯bk쎯	-10.5029
sli쎯byo쎯d쎯	-10.503
ss쎯xyis쎯	-10.5033
ckb쎯sor쎯az쎯	-10.5034
zyy쎯xbkv1쎯	-10.5035
u쎯sc쎯f쎯	-10.5038
fxd쎯su쎯	-10.5038
-쎇	-10.5039
gj쎯mfjo쎯쎃	-10.5039
na쎯ec쎯	-10.5039
b쎯ncq0쎯	-10.5043
.”wdf쎯	-10.5043
armk쎯vxbd쎯lij쎯	-10.5044
mfjo쎯kiz쎯y쎯	-10.5045
zmh쎯	-10.5046
szz쎯mbmo쎯	-10.5046
j쎯ggnk쎯	-10.505
nmb쎯cejo쎯	-10.5053
bi쎯nmi쎯od쎯jl쎯	-10.5053
pfxb쎯sm쎯	-10.5053
wsb쎯mfte쎯	-10.5054
ii	-10.5056
aij쎯pvgx쎯	-10.5064
frrn쎯	-10.5065
wa쎯zzm쎯	-10.5072
he쎯mfjc쎯	-10.5075
gay쎯	-10.508
,kcx쎯paj0쎯	-10.5081
yza쎯	-10.5083
iirz쎯ryi쎯	-10.5086
z쎯xe쎯h쎯u쎯	-10.5086
gd쎯b쎯	-10.5087
ymv쎯hb쎯	-10.5087
gds1쎯ya쎯	-10.5088
rjr쎯	-10.5089
wr쎯sug쎯jjj쎯	-10.509
zm쎯,	-10.5091
myz쎯oa쎯	-10.5096
gdzn쎯ggky쎯d쎯	-10.5098
od쎯tk쎯	-10.5099
suw0쎯	-10.5101
mbro쎯mfji쎯	-10.5102
쎃.쎀	-10.5103
bzym쎯	-10.5106
pcd쎯mbjw쎯	-10.5107
bdzs1쎯ku쎯mfz쎯jl쎯	-10.5109
wsb쎯ob쎯njf쎯ysk쎯	-10.5109
jc쎯ca쎯	-10.5111
ikz쎯smx쎯	-10.5112
udjw쎯ehsr쎯	-10.5113
ejbz쎯	-10.5113
j쎯ldgd쎯kojr쎯fs쎯	-10.5113
ggky쎯t쎯	-10.5116
ncy쎯	-10.5119
fba쎯	-10.512
so쎯ceug쎯	-10.512
-)	-10.5122
hdko쎯ewbr쎯	-10.5124
srl쎯	-10.5124
』	-10.5129
xl쎯idju쎯	-10.5129
hez쎯	-10.5129
쎁/쎂	-10.5131
mamz1쎯are쎯	-10.5132
xma쎯	-10.5135
vf쎯	-10.5137
yms쎯ec쎯n쎯	-10.5139
mfte쎯gae쎯bi쎯nmi쎯	-10.514
sf쎯vao쎯	-10.5141
kia쎯j쎯jc쎯	-10.5147
od쎯xju쎯	-10.5147
cgi쎯ey쎯	-10.5148
vsx쎯vklx쎯	-10.5149
c쎯tgs1쎯	-10.5149
zo쎯i쎯d쎯	-10.515
heoo쎯r쎯	-10.5152
,idj쎯b쎯	-10.5153
rgy쎯fq쎯	-10.5153
ja쎯jb쎯	-10.5157
eao쎯sug쎯kojr쎯jl쎯	-10.5157
dyj쎯mc쎯	-10.5157
km쎯aim쎯tgnd쎯	-10.5159
fllz쎯	-10.516
rhk쎯	-10.516
a쎯uanw쎯	-10.5165
jimo쎯	-10.5169
kdml0쎯mw쎯	-10.5173
shlq쎯oiad쎯	-10.5174
uogl쎯	-10.5175
sj쎯setg쎯ad쎯	-10.5175
tg쎯vmw쎯d쎯	-10.5176
jjg쎯nm쎯	-10.5178
쎃쎀edjr2쎯	-10.5178
yaj1쎯xa쎯	-10.5179
yu쎯um쎯	-10.5182
gds1쎯yk쎯zq쎯	-10.5182
ll쎯qs쎯	-10.519
gae쎯woqy쎯》	-10.5191
kdml1쎯	-10.5192
쎀sjwm쎯uf쎯	-10.52
ajx쎯snow쎯	-10.5204
dny쎯	-10.5205
jrod쎯	-10.5209
zrd쎯sme쎯	-10.521
gj쎯i쎯	-10.521
jlym쎯	-10.521
ajk쎯fs쎯ch쎯	-10.5214
ghy쎯	-10.5214
kg쎯vxb쎯	-10.5215
gdki쎯tded쎯	-10.5215
ago쎯slg쎯	-10.5217
gae쎯woqy쎯mfj쎯	-10.5217
zx쎯》	-10.5219
prs쎯	-10.522
mc쎯yybd쎯kal쎯,	-10.5222
wlr쎯rl쎯	-10.5223
yb쎯kb쎯	-10.5224
hepd쎯	-10.5226
ciq쎯rll쎯sli쎯	-10.5228
yj쎯fjw쎯	-10.5231
xl쎯kg쎯	-10.5234
som쎯ym쎯	-10.5237
gggs쎯	-10.524
zrt쎯slg쎯	-10.5243
ufc쎯ucgd쎯	-10.5246
kiym쎯um쎯	-10.5246
maiw1쎯mzs쎯	-10.525
kd쎯ecq1쎯,	-10.5251
sjy0쎯sjy0쎯ch쎯	-10.5253
kojr쎯zl쎯zjo쎯	-10.5254
gd쎯bdod쎯	-10.5254
ajk쎯sc쎯nmb쎯,	-10.5255
nsr쎯mbjk쎯	-10.5266
axz쎯ya쎯	-10.5267
ㄢ	-10.5269
d쎯ldod쎯woj쎯	-10.5269
fds쎯tgb쎯	-10.527
mfj쎯ec쎯n쎯	-10.5271
mc쎯sug쎯zq쎯ym쎯	-10.5277
edlo쎯wbi쎯	-10.5277
mbds쎯)	-10.5281
vdwy쎯baa쎯	-10.5282
vk쎯nlwz쎯	-10.5282
.쎂쎀쎀쎅mamb쎯	-10.5282
sv쎯mbrd쎯	-10.5283
cd쎯mfji쎯	-10.5283
.iirr쎯ri쎯,	-10.5287
gg쎯、	-10.5287
,ecz1쎯hb쎯	-10.5289
uke쎯z쎯	-10.529
ebor쎯	-10.5291
wdgq0쎯zzm쎯	-10.5292
g쎯i쎯vm쎯	-10.5293
쎂.쎄	-10.5294
q쎯쎈ka쎯	-10.53
bdod쎯od쎯	-10.5303
쎁쎀o쎯	-10.5303
rsym쎯wdtg쎯	-10.5305
nuo쎯	-10.5309
zk쎯ejmf쎯	-10.5311
ad쎯a쎯nfa쎯	-10.5312
bdkv쎯s쎯	-10.5315
vsc쎯ncds1쎯	-10.5316
sy쎯sa쎯	-10.5317
j쎯jc쎯edj쎯nh쎯	-10.5317
sq쎯wd쎯	-10.5318
q쎯쎁쎀ka쎯	-10.5321
bzs쎯e쎯	-10.5322
mkml쎯	-10.5324
paj0쎯yav쎯	-10.5325
qmps쎯	-10.5326
쎁쎉쎃쎁mamb쎯	-10.5331
[	-10.5333
nel쎯oiad쎯	-10.5339
xsmf쎯mh쎯	-10.5341
ri쎯soo쎯	-10.5348
sbx쎯:	-10.5349
d쎯skx쎯nr0쎯	-10.5353
mfz쎯zl쎯zjo쎯sjy0쎯	-10.5353
edfd쎯baa쎯,	-10.5355
ggym쎯zx쎯	-10.5358
k쎯ka쎯fav쎯	-10.5358
fmz쎯	-10.536
kcx쎯zmya쎯	-10.5362
,mtk쎯mfrk0쎯	-10.5363
쎁쎀쎅	-10.5363
l쎯b쎯	-10.5363
ll쎯b쎯	-10.5367
,gl쎯k쎯	-10.5369
ja쎯oixb0쎯	-10.5369
wi쎯szr쎯	-10.537
zgp쎯yj쎯bi쎯nmi쎯	-10.5372
ccw쎯	-10.5372
xyis쎯akz쎯wdgq0쎯	-10.5373
kom쎯ufzm쎯	-10.5373
esj쎯eys쎯	-10.5373
쎁쎉쎃쎂mamb쎯	-10.5375
wdgq0쎯.	-10.5377
쎅～	-10.5378
jc쎯wdgq0쎯nl쎯rgs쎯	-10.5379
en쎯tgxi쎯	-10.5379
,xs쎯rsj쎯	-10.5381
ngr쎯dqsy쎯,	-10.5383
vk쎯yom쎯	-10.5394
sli쎯yh쎯	-10.5395
nh쎯snds쎯	-10.5397
i쎯mev쎯	-10.5403
dsq쎯ka쎯idjh쎯rx쎯	-10.5408
kal쎯odod쎯	-10.5413
fdld쎯	-10.5413
fsq쎯vdnd쎯sli쎯	-10.5415
,vdwy쎯fs쎯	-10.5415
jdej쎯nfa쎯	-10.5417
sq쎯rki쎯、	-10.5418
jc쎯ba쎯gj쎯mfjo쎯	-10.5421
oiom쎯vdnd쎯	-10.5422
쎁쎂쎅	-10.5426
dq쎯pvgx쎯	-10.5426
zcl쎯	-10.5427
vm쎯edl쎯km쎯	-10.5432
uaqk쎯oisc쎯	-10.5434
yb쎯o쎯	-10.5442
fsv쎯sbx쎯	-10.5443
ynd쎯nm쎯	-10.5445
,sow쎯mfji쎯	-10.5445
xek쎯jddm쎯	-10.5447
xyis쎯ywb쎯	-10.5455
ygm쎯	-10.5457
쎀쎀ski1쎯,	-10.5458
ae쎯odyk쎯	-10.546
,xbby쎯mbq쎯	-10.546
kaa쎯:‘	-10.5461
ys쎯kv쎯	-10.5463
koxb쎯rgs쎯	-10.5466
ry쎯dmi쎯:	-10.5466
ceug쎯ciy0쎯	-10.5469
ldod쎯vxkz쎯	-10.5474
soo쎯kion쎯	-10.5479
cilo쎯	-10.5479
jd쎯ec쎯	-10.548
vwo쎯ggky쎯	-10.5481
sc쎯ym쎯	-10.5485
.c쎯g쎯	-10.5488
tj쎯kag쎯d쎯	-10.5489
zyy쎯mfz쎯	-10.5491
mbrw쎯md쎯	-10.5491
sug쎯b쎯	-10.5494
iek쎯	-10.5494
mc쎯sug쎯sq쎯rki쎯	-10.5499
eczy쎯	-10.55
myoy쎯jby1쎯	-10.55
h쎯aeb쎯	-10.5505
d쎯la쎯fb쎯	-10.5505
mzv쎯ufzm쎯	-10.5505
xl쎯suk쎯	-10.5508
jy쎯gdq쎯	-10.5509
mfk쎯eze쎯	-10.5511
vsc쎯oda쎯	-10.5512
r쎯kom쎯	-10.5513
ezj1쎯	-10.5515
mb쎯ldoo쎯	-10.5517
oaj쎯nmi쎯nuo쎯nub쎯	-10.5519
ae쎯kv쎯	-10.5524
쎁쎀쎈	-10.5525
(xoy쎯	-10.5534
쎁쎀oy쎯pji쎯	-10.5534
uoa쎯	-10.5535
gi쎯nka쎯	-10.5537
ne쎯zizi쎯y쎯	-10.5538
hkd쎯oy쎯	-10.5539
wdb쎯gdli쎯	-10.554
mamz1쎯ewf쎯	-10.5544
eaou쎯	-10.5546
byo쎯b쎯	-10.5546
쎁쎉쎄쎃mamb쎯	-10.5552
woqy쎯	-10.5555
psq쎯agd쎯	-10.5556
쎆)	-10.5558
lr쎯ad쎯	-10.556
sc쎯mw쎯sjy0쎯tl쎯	-10.5561
xmi쎯um쎯	-10.5562
wz쎯xbuo쎯	-10.5563
nr0쎯oaj쎯mbro쎯	-10.5565
,edx쎯db쎯	-10.5566
d쎯a쎯p쎯	-10.5566
oy쎯fs쎯	-10.557
mfte쎯vdwy쎯wdgq0쎯	-10.557
liqd쎯	-10.5571
pdyq쎯	-10.5571
木xa쎯	-10.5572
hkc쎯	-10.5572
vm쎯ldod쎯ri쎯	-10.5572
bhk쎯	-10.5575
zpz쎯	-10.5575
쎈oz쎯kb쎯	-10.5581
nb쎯xkc쎯	-10.5584
ed쎯nbb쎯	-10.5586
쎀쎀쎀au쎯sy쎯uf쎯,	-10.5589
phzi쎯	-10.5589
vl	-10.559
aim쎯tgnd쎯p쎯g쎯b쎯	-10.5594
edl쎯vm쎯	-10.5597
ya쎯、	-10.5598
wdel쎯t쎯	-10.5598
jc쎯akz쎯	-10.5601
nfa쎯ch쎯	-10.5605
oel쎯·	-10.5606
、kz쎯ya쎯	-10.5606
sfk쎯	-10.5608
nc쎯i쎯	-10.5608
sf쎯ruc쎯	-10.561
aij쎯nmi쎯u쎯	-10.5612
mbod쎯lm쎯	-10.5613
a쎯ka쎯	-10.5614
dxe쎯	-10.5616
elrs쎯id쎯	-10.5624
쎁쎉쎂쎉mamb쎯	-10.5624
xek쎯ucq쎯	-10.5635
dgr쎯	-10.5637
si쎯nr1쎯	-10.5641
pjl쎯uowm쎯	-10.5642
wr쎯byo쎯	-10.5644
ra쎯ufgd쎯	-10.5645
kdxz쎯odwy쎯	-10.5646
wlw쎯gdli쎯	-10.5647
lksx쎯	-10.5647
ruc쎯kq쎯	-10.5649
oiqm쎯mc쎯mbro쎯	-10.5649
dyx쎯er쎯	-10.5653
q쎯쎃쎀ka쎯	-10.5655
rsj쎯nne쎯	-10.5655
dpw1쎯xsxi쎯“	-10.5658
xn쎯zo쎯	-10.5663
,sow쎯k쎯	-10.5664
edl쎯sjk쎯sli쎯	-10.5667
zbj쎯kkk쎯	-10.5668
rid쎯ch쎯	-10.5672
ufc쎯vez쎯	-10.5677
sukr0쎯	-10.5677
hbz쎯skx쎯	-10.5678
mbds쎯oi쎯ku쎯	-10.5682
dyx쎯》、《	-10.5682
odxl쎯	-10.5687
q쎯쎂쎆ka쎯	-10.5688
mfkd쎯vtc쎯	-10.5689
,u쎯y쎯	-10.569
so쎯nr0쎯eyd쎯fsv쎯	-10.5694
쎁%	-10.5694
cow쎯	-10.5694
ev쎯wdtg쎯	-10.5697
odjy쎯bdzw쎯	-10.57
fpd0쎯	-10.5701
odii쎯ku쎯wdgq0쎯	-10.5702
lw쎯aed쎯bmm쎯kal쎯	-10.5704
ee쎯odjy쎯tded쎯rx쎯	-10.5706
kdxs쎯	-10.5706
eak쎯	-10.5707
al쎯lga쎯	-10.5707
,yi쎯aij쎯	-10.5708
mc쎯ka쎯	-10.571
pm쎯uanw쎯	-10.5711
boy쎯hbkd쎯	-10.5716
rly쎯sm쎯wh쎯	-10.5716
fxld쎯	-10.5717
쎉o쎯	-10.5718
;쎁	-10.5721
쎇.쎅	-10.5721
wkr쎯	-10.5723
mc쎯are쎯	-10.5727
kom쎯kak쎯	-10.5729
wm쎯ri쎯	-10.573
md쎯bdzy쎯	-10.5731
wdhb쎯sc쎯nmb쎯	-10.5738
oop쎯	-10.5739
zzi쎯pek쎯	-10.5739
fhc쎯	-10.574
bdzm쎯fl쎯	-10.5743
kwh쎯	-10.5745
srr쎯	-10.5745
tur쎯	-10.5745
vmi쎯jimg쎯	-10.5749
xoy쎯tird쎯	-10.575
mfk쎯vki쎯	-10.5751
wd쎯mblk쎯	-10.5756
,ld쎯kd쎯yi쎯	-10.5756
ymo0쎯oz쎯wdhb쎯、	-10.5761
rhko쎯jjg쎯	-10.5761
o쎯nl쎯rgs쎯fds쎯	-10.5761
sul쎯bhv쎯	-10.5766
eklm쎯	-10.5766
kai쎯	-10.5767
edlo쎯shv쎯	-10.5768
,xh쎯	-10.5773
ewv쎯tff쎯	-10.5775
sujr쎯	-10.5776
lk쎯lbj쎯	-10.578
:쎆	-10.5782
sc쎯f쎯sug쎯jjj쎯	-10.5783
drj쎯	-10.5787
ehw쎯en쎯	-10.579
쎀.쎆	-10.579
mc쎯sug쎯、pkq쎯nij쎯	-10.5793
ajk쎯bmm쎯dpw1쎯,	-10.5796
nkkv쎯vdnd쎯	-10.5797
fqo쎯	-10.5797
wdlc쎯mfji쎯fel쎯	-10.5801
oaj쎯tdrl1쎯	-10.5802
sc쎯db쎯od쎯	-10.5805
gae쎯woqy쎯h쎯kf쎯	-10.5805
xyis쎯syy1쎯,	-10.5818
쎁쎇쎀	-10.5821
rxx쎯	-10.5822
쎁.쎄	-10.5823
ybc쎯	-10.5825
pdxw쎯jdj쎯	-10.5825
dpw0쎯e쎯	-10.5826
ca쎯jc쎯	-10.5828
xmuz1쎯	-10.5836
odmw쎯oixb0쎯	-10.5836
ebf쎯a쎯	-10.5839
myz쎯cd쎯xki쎯	-10.5842
d쎯wbk쎯rrk쎯	-10.5843
wdki0쎯ubkd쎯	-10.5844
ai1쎯gj쎯	-10.5846
mw쎯ckb쎯od쎯jl쎯	-10.585
nswa쎯he쎯byo쎯	-10.5853
mbro쎯nfa쎯	-10.5854
oc쎯pe쎯	-10.5855
,vx쎯smm쎯,	-10.5862
ty쎯vb쎯	-10.5863
ceug쎯oaj쎯jc쎯	-10.5866
.nka쎯k쎯	-10.5867
cdv쎯aep쎯	-10.5867
,uagw1쎯	-10.5869
u쎯wdrj쎯wm쎯	-10.587
쎂bg쎯	-10.5875
xmyj쎯ch쎯	-10.5878
nrl쎯bdzw쎯	-10.5878
/쎃	-10.5879
mc쎯sug쎯odii쎯ku쎯	-10.5881
gd쎯ckb쎯	-10.5893
k쎯u쎯y쎯	-10.5894
mbro쎯tdrl1쎯	-10.5894
ch쎯bhv쎯	-10.5895
ys쎯oiiy쎯	-10.59
?”	-10.59
ym쎯aks쎯	-10.59
zk쎯qh쎯	-10.5903
jiwl1쎯	-10.591
i쎯sjy0쎯	-10.5911
aizu쎯	-10.5915
evyy쎯jby1쎯:	-10.5915
.쎂쎀쎀쎄mamb쎯	-10.5916
rgy쎯wcj쎯	-10.5922
pow쎯bxm쎯	-10.5926
ffj쎯nlwz쎯	-10.5926
fl쎯tgva쎯d쎯	-10.5926
xbby쎯mbq쎯mbro쎯	-10.593
쎈%	-10.5932
kg쎯plk쎯	-10.5932
vb쎯ywb쎯	-10.5934
edl쎯wxl쎯	-10.5936
gtg쎯sug쎯	-10.5939
쎂쎀odmf쎯	-10.5941
yh쎯noo쎯	-10.5942
y쎯gd쎯kak쎯	-10.5943
agj쎯	-10.5949
nr0쎯ga쎯	-10.5952
wsl쎯mcek쎯	-10.5954
wsbz쎯	-10.5957
xek쎯ywb쎯	-10.596
sug쎯nel쎯	-10.5961
dpq쎯	-10.5963
쎃쎅쎀	-10.5968
ymo0쎯oz쎯gai쎯	-10.5969
vdwy쎯vdwy쎯baa쎯	-10.5969
yj쎯zo쎯	-10.597
deki쎯waz쎯	-10.5971
nlj쎯i쎯	-10.5971
쎅쎁쎂	-10.5975
l쎯kv쎯	-10.5981
gtg쎯ll쎯	-10.5981
kv쎯sug쎯	-10.5981
zx쎯vsnd쎯ae쎯z쎯ho쎯	-10.5985
bdrd쎯nm쎯	-10.5987
h쎯biym쎯d쎯	-10.5989
b쎯bhj쎯	-10.5992
,k쎯a쎯p쎯	-10.5994
wdgq0쎯jbr쎯	-10.5996
nkc0쎯wdgq0쎯	-10.5997
gw쎯	-10.5997
》,《	-10.5999
l쎯nmi쎯	-10.6001
ufc쎯nre쎯	-10.6004
pday쎯	-10.6009
k쎯a쎯nsu쎯	-10.6011
a쎯ecq1쎯	-10.6014
の	-10.6015
wdtg쎯kd쎯	-10.6016
oc쎯fds쎯zx쎯vsnd쎯	-10.6017
idjo쎯	-10.6017
k쎯m쎯nt쎯	-10.6017
kkk쎯nfa쎯	-10.6017
ajx쎯wdtg쎯	-10.6017
ngr쎯mfym쎯sor쎯so쎯	-10.602
(,)	-10.6024
wsb쎯ob쎯z쎯xe쎯	-10.6025
pe쎯aim쎯tgnd쎯	-10.6025
j쎯jc쎯xyis쎯akz쎯	-10.6028
ark쎯oda쎯	-10.6028
pfyy쎯ukm쎯	-10.6031
qdos쎯vkk쎯	-10.6032
clg쎯baa쎯	-10.6033
vwr쎯gdqy쎯	-10.6034
zmxr쎯	-10.604
ku쎯kion쎯	-10.6041
d쎯kd쎯ni쎯,	-10.6042
kg쎯kz쎯	-10.6043
sl쎯oda쎯	-10.6044
mfte쎯gae쎯h쎯kf쎯	-10.6046
my쎯nlwz쎯	-10.6055
ll쎯pe쎯	-10.6057
koxb쎯odsx쎯	-10.606
d쎯z쎯xe쎯,	-10.606
zw쎯ebm쎯	-10.6061
xka쎯	-10.6061
maiw1쎯fu쎯	-10.6064
wbi쎯j쎯	-10.6072
q쎯쎁쎆ka쎯	-10.6073
i쎯fsw쎯	-10.6074
.yh쎯jc쎯	-10.6074
makr쎯mblk쎯	-10.608
qc쎯	-10.6085
.zx쎯dsw쎯	-10.6085
zmya쎯sau쎯.	-10.6085
wzm쎯f쎯	-10.6086
nk쎯bdzs0쎯	-10.6086
smiy쎯	-10.6086
bd쎯tdro쎯	-10.6087
;rlo쎯cilo쎯	-10.6089
ckb쎯sor쎯mfj쎯	-10.609
myz쎯bd쎯tdro쎯	-10.6094
veeq쎯vs쎯	-10.6097
zb쎯syme쎯	-10.6101
bw쎯	-10.6104
nre쎯nmg쎯	-10.6105
fho쎯zxe쎯	-10.6107
edy쎯nmi쎯	-10.6109
tguw쎯	-10.611
myz쎯쎄	-10.6117
gi쎯urym쎯	-10.6119
yaj0쎯dsu쎯nnk쎯	-10.612
ucgd쎯jb쎯	-10.6123
ufc쎯bil쎯	-10.6124
mw쎯ckb쎯,	-10.6126
bdzs1쎯vdwy쎯ggym쎯	-10.6128
쎂%	-10.6128
mfxb쎯xkc쎯“	-10.613
zx쎯ewj쎯mw쎯ckb쎯	-10.613
ebf쎯mfji쎯	-10.6132
ajl쎯tdrl1쎯	-10.6134
dwr쎯	-10.6135
mbds쎯sy쎯gj쎯d쎯	-10.6136
daf쎯	-10.6143
dny쎯md쎯	-10.6147
mfjo쎯kiz쎯	-10.6149
kcx쎯ke쎯d쎯	-10.6151
gd쎯tl쎯	-10.6151
ew쎯bdzy쎯	-10.6157
cd쎯kmc쎯	-10.6158
jaz쎯zhm쎯	-10.616
ygqw쎯kd쎯	-10.6161
pdel쎯kak쎯n	-10.6162
vsm쎯xhm쎯j쎯	-10.6165
쎀.쎄	-10.6166
kk쎯zhm쎯	-10.6172
dtg쎯	-10.6175
x쎯tgva쎯	-10.6177
qyx쎯rsym쎯ad쎯	-10.618
ecb쎯gzz쎯sq쎯symy쎯	-10.618
d쎯rsj쎯wdya쎯	-10.618
dqx쎯kskp쎯	-10.6183
sno쎯mfrk0쎯	-10.6184
oyg쎯z쎯d쎯	-10.6188
gfl쎯	-10.6188
쎂.쎂	-10.6192
wsl쎯jc쎯	-10.6194
en쎯fia쎯	-10.6196
ggym쎯mfjc쎯	-10.6196
,jd쎯gl쎯	-10.6196
u쎯wbk쎯rrk쎯	-10.62
ldeo쎯hini쎯	-10.6202
q쎯쎁쎂ka쎯	-10.6205
sjl쎯ggnk쎯	-10.6205
gl쎯h쎯,	-10.6206
hdko쎯jirj쎯	-10.6207
zns쎯	-10.6209
jdj쎯smm쎯	-10.6214
bdrg쎯	-10.6215
.쎄、	-10.6219
쎀쎀ay쎯bdrd쎯,	-10.622
hx쎯gd쎯d쎯	-10.6227
ybu쎯	-10.6229
nr0쎯tizm쎯jjj쎯	-10.623
jirj쎯、	-10.6231
heoo쎯gd쎯d쎯	-10.6232
mamz0쎯	-10.6234
vsc쎯qq쎯tdrl1쎯	-10.6241
zx쎯rhyl쎯	-10.6242
a쎯kfg쎯	-10.6243
mblk쎯tdow쎯	-10.6245
koxb쎯mbrw쎯u쎯	-10.6245
쎂jaz쎯	-10.6246
xmi쎯ad쎯ll쎯ho쎯	-10.6248
mamb쎯(oz쎯bdrd쎯	-10.6252
nr쎯	-10.6257
쎄oz쎯kb쎯	-10.626
skf0쎯kojb쎯	-10.6272
yh쎯ewj쎯odii쎯ku쎯	-10.6274
kojl0쎯vdnd쎯	-10.6276
au쎯lczs쎯	-10.6278
xa쎯bdkv쎯fj쎯aku쎯	-10.628
wd쎯ecq1쎯	-10.6281
木fdm쎯	-10.6282
ke쎯mamb쎯	-10.6286
kojl0쎯bdol쎯	-10.6286
jc쎯sug쎯	-10.6287
voqk쎯	-10.6288
slz쎯	-10.6292
sul쎯wdgq0쎯	-10.6296
xsig쎯mle쎯	-10.63
ekm쎯hi쎯	-10.6303
yuy쎯	-10.6306
sov쎯ed쎯	-10.6307
ll쎯bxi쎯	-10.6308
yji쎯gd쎯	-10.6309
np쎯)	-10.631
ggnk쎯gdq쎯	-10.6311
bdzs1쎯bg쎯	-10.6312
쎃)	-10.6313
r쎯bdrd쎯nr0쎯	-10.6314
kz쎯kskp쎯《	-10.6314
ny쎯rgs쎯	-10.6316
bi쎯ku쎯jbr쎯ho쎯	-10.6318
쎆쎀쎀쎀	-10.6318
,c쎯g쎯	-10.632
μ	-10.6321
wdki0쎯fsz쎯	-10.6326
zym쎯jk쎯	-10.6326
uaqk쎯vqj쎯	-10.6329
zyl쎯whi쎯	-10.6329
wsb쎯ob쎯rj쎯kion쎯	-10.6331
frg쎯	-10.6335
yugw쎯uanw쎯	-10.6336
wduo쎯wcj쎯	-10.6337
iiq쎯wd쎯	-10.6338
aek쎯mbro쎯i쎯	-10.6338
pdro쎯kojl1쎯	-10.6339
rj쎯kion쎯	-10.634
p쎯hbmo쎯	-10.6341
myz쎯a쎯xki쎯	-10.6345
oc쎯nc쎯	-10.6347
ka쎯wh쎯	-10.6354
dwo쎯vl쎯	-10.6357
tirg쎯”	-10.6362
j쎯jc쎯akz쎯	-10.6365
wtxi쎯dpw1쎯xsxi쎯	-10.6365
ywb쎯ajk쎯ywb쎯ch쎯	-10.6366
ufzm쎯an쎯	-10.6369
uosu쎯uhg쎯	-10.637
a쎯yc쎯	-10.6371
sjym쎯	-10.6374
mbrd쎯paj0쎯nmb쎯	-10.6375
ldm쎯sug쎯	-10.6376
edl쎯lczs쎯	-10.6378
zrs쎯쎂	-10.6378
bmy쎯zq쎯	-10.6381
vk쎯mbod쎯	-10.6381
zw쎯xek쎯	-10.6396
nrs쎯vkl쎯	-10.6397
oy쎯rly쎯	-10.6397
쎂.쎈	-10.6399
idju쎯bizi쎯	-10.64
ri쎯bwq쎯	-10.64
bdzs1쎯cejo쎯	-10.6401
wye쎯	-10.6401
쎃쎆쎀	-10.6406
ajk쎯ob쎯ch쎯	-10.6406
bmm쎯vdwy쎯fuz쎯	-10.6407
biqw쎯	-10.6408
wsk쎯gaj쎯	-10.6412
oiad쎯zo쎯	-10.6414
쎀*	-10.6417
cmk쎯vm쎯	-10.6423
drk1쎯edl쎯	-10.6424
ao쎯	-10.6426
nsos쎯hbi쎯	-10.6428
pdel쎯kak쎯mw쎯ckb쎯	-10.6428
zsj쎯tirr쎯	-10.6429
쎉쎀쎀쎁	-10.6432
aii쎯k쎯	-10.6432
vsn쎯kkk쎯	-10.6435
xsym쎯	-10.6438
bi쎯mfjc쎯mzv쎯	-10.6442
jnx쎯	-10.6447
odsx쎯mamb쎯	-10.6448
bi쎯nmi쎯j쎯	-10.6451
(쎁쎉쎂	-10.6452
ufxj쎯xkv쎯ta쎯	-10.6452
josx쎯	-10.6457
bi쎯mfjc쎯dex쎯fsv쎯	-10.6457
i쎯vsm쎯	-10.6458
ai1쎯yrm쎯	-10.646
ld쎯kd쎯yi쎯	-10.646
dn쎯zizi쎯d쎯	-10.646
kdmk쎯kd쎯	-10.6464
ufc쎯hbmo쎯	-10.6464
ufu쎯	-10.6465
gdbb쎯	-10.6467
쎁～	-10.6471
wdtg쎯nar쎯	-10.6475
eked쎯fav쎯	-10.6482
ggym쎯jos쎯so쎯nr0쎯	-10.6483
klz쎯	-10.6483
lik쎯	-10.6485
ae쎯ku쎯	-10.6486
bmye쎯	-10.6494
biqw쎯ugl쎯	-10.6495
ad쎯쎂쎀쎀쎉mamb쎯	-10.6499
ag쎯ufzm쎯	-10.6499
dwh쎯	-10.65
eao쎯ciq쎯jddm쎯	-10.6501
쎂쎀edjr2쎯	-10.6502
zizi쎯mlka쎯	-10.6505
skx쎯oiad쎯	-10.651
arku쎯baa쎯	-10.6513
bmm쎯mfjc쎯	-10.6515
vwq쎯mfjo쎯	-10.6517
zyy쎯fob쎯	-10.652
wtyd쎯zym쎯j쎯vdwy쎯	-10.6523
vzn쎯bsy쎯	-10.6525
bdrw쎯pkq쎯	-10.6528
oc쎯e쎯kion쎯	-10.6532
ecb쎯pa쎯ob쎯	-10.6533
쎀.쎀쎀	-10.6535
mw쎯ckb쎯mzv쎯zs쎯	-10.6537
dskb쎯	-10.6539
쎁.쎃	-10.6542
cbr쎯lco쎯	-10.6542
um쎯.	-10.655
tgxl쎯	-10.6552
d쎯a쎯uanl쎯	-10.6553
а	-10.6554
paj0쎯xs쎯	-10.6555
wjl쎯	-10.6559
wd쎯idju쎯	-10.656
tgva쎯l쎯ad쎯	-10.6562
zmrk쎯zjd쎯	-10.6566
qbv쎯	-10.6569
bez쎯	-10.6569
edl쎯jirj쎯	-10.6571
a쎯rid쎯	-10.6572
kdxb1쎯db쎯zo쎯	-10.6573
qfo쎯	-10.6573
쎁쎆쎀쎀	-10.6574
gdiy쎯g쎯d쎯	-10.6575
pdxs쎯x쎯	-10.6585
xoy쎯na쎯	-10.6586
z쎯fby쎯	-10.6586
oda쎯ja쎯	-10.6589
ン	-10.6595
ubkd쎯ufzp쎯	-10.6599
ngr쎯sxo쎯d쎯	-10.6601
ago쎯zym쎯	-10.6602
dy쎯dxh쎯	-10.6606
pm쎯jirj쎯xmyj쎯	-10.6607
so쎯kq쎯udke쎯nsu쎯	-10.6613
r쎯sjy0쎯	-10.6615
hma1쎯vdwy쎯ob쎯	-10.6619
.ld쎯mamb쎯	-10.662
km쎯bmm쎯szq쎯gai쎯	-10.6624
mbds쎯mbds쎯.	-10.6629
oiv쎯	-10.6633
ajk쎯lczs쎯ch쎯	-10.6634
쎁쎈쎄	-10.6637
mfxb쎯	-10.6637
mfxw1쎯wd쎯um쎯	-10.6642
ai1쎯vsm쎯	-10.6645
lbz쎯	-10.6647
sjl쎯ll쎯	-10.6648
ohy쎯tgrs쎯	-10.665
bmm쎯kojb쎯	-10.665
gdxs쎯zmya쎯	-10.6651
sc쎯vs쎯	-10.6651
c쎯gdiy쎯	-10.6651
ryk쎯	-10.6651
q쎯쎂쎇ka쎯	-10.6652
bdol쎯evyy쎯nr0쎯	-10.6653
sau쎯mbrw쎯	-10.6654
fl쎯tgva쎯	-10.6656
wdgq0쎯l쎯	-10.6657
fwr쎯	-10.6658
udjw쎯k쎯	-10.6663
쎈쎀mamb쎯nh쎯	-10.6663
eva쎯	-10.6664
,oc쎯fds쎯	-10.6665
wdtg쎯ybk쎯i쎯	-10.6667
zo쎯iirr쎯	-10.6673
fj쎯jirj쎯	-10.6678
nh쎯bdok쎯	-10.6679
eqg쎯cexs쎯	-10.6679
dsw쎯mfjc쎯j쎯,	-10.6681
bki쎯	-10.6684
vab쎯ymo0쎯d쎯	-10.6688
zmx쎯zmx쎯	-10.6689
nh쎯cirh쎯gd쎯ob쎯	-10.6689
yzi쎯odwg쎯	-10.669
j쎯so쎯rsj쎯:	-10.6691
mbrw쎯vab쎯	-10.6693
bimo쎯setg쎯	-10.6695
〉	-10.6699
mc쎯uczm쎯	-10.6701
z쎯xe쎯idjh쎯kirj쎯	-10.6702
top쎯	-10.6704
rmx쎯xn쎯	-10.6709
.sow쎯ib쎯	-10.6709
o쎯um쎯nr0쎯	-10.671
ri쎯sjy0쎯	-10.6713
yda쎯uogl쎯	-10.6716
kdmk쎯vpd쎯	-10.6716
clg쎯ldeo쎯	-10.6718
vzg쎯mfmw쎯	-10.6721
zimo쎯yn쎯	-10.6725
cexg0쎯nif쎯	-10.6726
dwy쎯dxz쎯	-10.6727
pa쎯ldkd쎯	-10.6727
쎂～	-10.6727
q쎯쎂쎃ka쎯	-10.6728
tirg쎯bg쎯	-10.6728
tdrl1쎯lcym쎯	-10.6729
idj쎯gdq쎯	-10.673
.ld쎯kd쎯,	-10.6731
,paj0쎯bdkv쎯	-10.6731
llrs쎯kd쎯	-10.6733
yav쎯mc쎯sjy0쎯	-10.6734
hex쎯	-10.6738
d쎯ecb쎯gzz쎯i쎯,	-10.6739
쎃%	-10.6743
wa쎯ya쎯	-10.6743
kq쎯edeq쎯	-10.6743
dry1쎯	-10.6749
vnug쎯	-10.675
uobr쎯	-10.6751
flf쎯	-10.6755
tirr쎯wdf쎯	-10.6755
oi	-10.6758
vejn쎯vxh쎯	-10.676
wms쎯sug쎯	-10.6761
njf쎯vkl쎯	-10.6761
gm쎯tdgd쎯	-10.6763
),wdya쎯	-10.6764
wdtg쎯yt쎯	-10.6766
miwa쎯koxb쎯	-10.6766
zgp쎯zw쎯	-10.6766
gd쎯kojl0쎯mfz쎯ob쎯	-10.6768
rkv쎯wye쎯	-10.6774
mbbd쎯idju쎯k쎯	-10.6777
yamo쎯	-10.6778
jc쎯ybk쎯nr0쎯	-10.6783
bioo쎯	-10.6783
vxkz쎯	-10.6785
gnu쎯	-10.6792
fbj쎯	-10.6794
fdmr쎯	-10.6795
d쎯a쎯bb쎯	-10.6796
eyj0쎯	-10.6798
x쎯mfrk0쎯	-10.6801
pmy쎯	-10.6803
mfjr0쎯rsym쎯xmyj쎯	-10.6804
sc쎯yc쎯	-10.6804
gd쎯ha쎯	-10.681
q쎯쎅ka쎯	-10.6815
gj쎯mfjo쎯u쎯	-10.6816
ku쎯odmf쎯	-10.6817
xbm쎯	-10.6821
〈	-10.6823
oel쎯szq쎯	-10.6826
au쎯wdz쎯	-10.6827
aij쎯oy쎯u쎯	-10.6827
rmg쎯	-10.6829
『	-10.683
kojr쎯mfz쎯mfz쎯jl쎯	-10.683
jyb쎯	-10.6831
me쎯edjr2쎯	-10.6831
mbrw쎯szq쎯	-10.6844
ad쎯iirr쎯	-10.6845
쎆oz쎯kb쎯	-10.6845
ngr쎯mfym쎯tirg쎯	-10.6845
ga쎯nr0쎯	-10.6846
eyq쎯	-10.6847
f쎯ciz쎯	-10.685
jc쎯ybk쎯fq쎯byo쎯	-10.6852
qsoo쎯ajer쎯	-10.6857
tgb쎯fds쎯	-10.6861
z쎯xe쎯bdol쎯hkd쎯	-10.6876
ffq쎯	-10.6877
쎃edjr2쎯	-10.6877
edl쎯wdf쎯	-10.6882
mfij쎯	-10.6883
qb쎯ldoo쎯	-10.6888
bka쎯edjr2쎯	-10.6891
.pdw쎯mamb쎯bdkv쎯,	-10.69
mfbj0쎯	-10.69
,c쎯yya쎯	-10.69
cop쎯jal쎯	-10.6903
q쎯쎂쎁ka쎯	-10.6906
쎅°C	-10.6908
aim쎯mfz쎯	-10.691
oro쎯ufte쎯	-10.691
pe쎯nsu쎯ad쎯	-10.6911
쎁oz쎯kb쎯	-10.6914
(ry쎯dmi쎯	-10.6915
cejo쎯ku쎯bmm쎯szq쎯	-10.6916
doa쎯	-10.6918
au쎯brt쎯my쎯vkl쎯	-10.692
ehz쎯xyis쎯	-10.692
eewz쎯	-10.6926
deki쎯zob쎯	-10.6926
sjl쎯vcq쎯	-10.6926
oi쎯aim쎯mw쎯ckb쎯	-10.6929
ufoe쎯	-10.6931
sul쎯ob쎯	-10.6931
eako쎯ll쎯	-10.6934
eww쎯	-10.6936
x쎯md쎯	-10.6937
sor쎯fsw쎯	-10.6938
klv쎯yobv쎯	-10.6938
쎉q쎯hb쎯	-10.6939
zni쎯db쎯	-10.6942
cgi쎯zhg쎯	-10.6948
ciq쎯vm쎯	-10.6949
suor쎯bi쎯	-10.6954
jdj쎯jc쎯	-10.6956
pvyi쎯	-10.6957
mfz쎯wdb쎯nb쎯sjy0쎯	-10.696
sq쎯symy쎯sn쎯oc쎯	-10.6961
vyo쎯kair쎯	-10.6961
sp쎯sozs쎯	-10.6966
ajk쎯ckb쎯ajx쎯ch쎯	-10.6966
쎆.쎅	-10.6967
ai1쎯sjy0쎯	-10.6972
fhc쎯yjf쎯	-10.6973
sjqu쎯pfwz쎯	-10.6974
zx쎯xo쎯ci쎯waj쎯	-10.6975
쎄)	-10.6975
oc쎯zzm쎯	-10.6983
dzo쎯nmb쎯	-10.6984
mbro쎯ckb쎯vdwy쎯	-10.6984
en쎯rz쎯	-10.6989
쎂.쎁	-10.6995
kcq쎯	-10.6997
eqg쎯jc쎯wdgq0쎯	-10.7005
.ygqw쎯ucl쎯	-10.7006
쎁쎂o쎯	-10.7008
yaz쎯ya쎯	-10.7011
njfu쎯	-10.7012
.jd쎯iirr쎯,	-10.7014
sky쎯kk쎯	-10.7014
fdyy쎯sy쎯	-10.7016
j쎯nre쎯hma1쎯vdwy쎯	-10.7022
쎅.쎅	-10.7025
dqx쎯tdrl1쎯bm쎯	-10.7028
q쎯쎂쎉ka쎯	-10.7029
fds쎯od쎯	-10.7032
q쎯쎂쎂ka쎯	-10.7032
쎁쎅mamb쎯	-10.7033
udjw쎯ckb쎯	-10.7035
ya쎯oz쎯yaj1쎯	-10.7036
bk쎯nar쎯	-10.7041
.쎄.	-10.7053
fq쎯nc쎯	-10.7055
xbuo쎯bdzn쎯	-10.7056
mfr쎯yh쎯	-10.7057
nswa쎯ii쎯	-10.7059
oixo쎯ux쎯	-10.7059
oc쎯nl쎯bdzy쎯	-10.706
rxy1쎯	-10.706
zau쎯smm쎯	-10.7063
wmx쎯	-10.7064
wli쎯	-10.7066
uzl쎯	-10.7076
쎃쎀odmf쎯	-10.708
miy쎯ch쎯	-10.7081
kih쎯	-10.7082
wdki0쎯drr쎯	-10.7085
sjy0쎯nm쎯	-10.7086
쎁.쎁	-10.7087
myz쎯qy쎯	-10.7088
qqd쎯ldoo쎯	-10.7089
.jd쎯u쎯	-10.7092
eyo쎯ho쎯	-10.7093
km쎯sjy0쎯zym쎯	-10.7094
wdrj쎯od쎯	-10.7096
yybd쎯psq쎯	-10.7098
a쎯no쎯	-10.7098
q쎯쎁쎉ka쎯	-10.7099
pdw쎯qd쎯mamb쎯	-10.7102
oz쎯odoo쎯	-10.7104
z쎯dxz쎯	-10.7105
cirh쎯kq쎯	-10.7106
pdxs쎯ncds1쎯	-10.7106
kku쎯iai쎯ewz0쎯nx쎯	-10.7106
bno	-10.7109
pug쎯	-10.7109
vdp쎯vbi쎯gd쎯vdwy쎯	-10.7114
fq쎯zl쎯	-10.7115
gtg쎯ku쎯	-10.7117
yms쎯fl쎯uag쎯	-10.7122
hew쎯ehe쎯	-10.7123
gd쎯uo쎯	-10.7129
ja쎯haw쎯	-10.713
vm쎯uag쎯	-10.7131
su쎯xoy쎯	-10.7138
dpk쎯zizi쎯	-10.714
jdrt쎯xyis쎯>	-10.7142
rly쎯pfxb쎯:	-10.7142
mbbd쎯zrs쎯	-10.7143
ldod쎯b쎯	-10.7145
epf쎯mzv쎯	-10.7149
udlk쎯r쎯tdro쎯	-10.7154
sc쎯od쎯	-10.7167
o쎯bmm쎯vdwy쎯cuc쎯,	-10.7167
j쎯ciq쎯mamb쎯	-10.7171
maxg쎯mwv쎯	-10.7171
dzv쎯wdtg쎯	-10.7174
s쎯:“	-10.7174
ymo1쎯ee쎯ae쎯sm쎯	-10.7175
dk쎯bk쎯	-10.7175
ay쎯ggym쎯	-10.7184
(쎁).	-10.7188
wsa쎯mfkd쎯	-10.7189
wai쎯vxi쎯sli쎯	-10.7194
makr쎯kav쎯	-10.7198
wdz쎯oc쎯mc쎯sug쎯	-10.7199
lloj쎯	-10.7199
kg쎯kq쎯	-10.72
yh쎯ymo0쎯	-10.7201
mc쎯sug쎯pkq쎯nij쎯	-10.7206
xo쎯zimo쎯	-10.7208
llor쎯	-10.7209
h쎯jjj쎯	-10.721
fl쎯koxb쎯ad쎯	-10.7217
wsz쎯nsos쎯	-10.7219
kojr쎯udjw쎯edx쎯	-10.7224
hbz쎯fjw쎯	-10.7225
boyj쎯bh쎯	-10.7226
u쎯nrkw쎯	-10.7229
oy쎯seus쎯sv쎯:	-10.723
pkib쎯	-10.7231
a쎯zhm쎯	-10.7232
drk1쎯d쎯k쎯	-10.7233
gae쎯sds쎯ob쎯	-10.7235
vzk쎯edfd쎯	-10.7237
a쎯zyl쎯	-10.7238
ay쎯wdya쎯	-10.7238
bdnw쎯bimo쎯	-10.724
쎇q쎯rre쎯ku쎯ad쎯	-10.7241
mflc쎯nmbl쎯	-10.7246
aey1쎯	-10.7247
q쎯쎆ka쎯	-10.7248
uazq쎯	-10.7251
쎀.쎇	-10.7255
uddw쎯oiel쎯	-10.7256
mblk쎯rki쎯	-10.7258
bbd쎯td쎯	-10.7259
hdyd쎯wc쎯	-10.7261
ko쎯jm쎯	-10.7263
oy쎯ya쎯kak쎯	-10.7265
eb쎯eked쎯	-10.7265
ld쎯ufgd쎯	-10.7266
q쎯쎂쎄ka쎯	-10.7269
쎈jaz쎯	-10.7269
vll쎯tdgd쎯	-10.7271
"="	-10.7272
nd쎯lczs쎯	-10.7273
deaj쎯fdyy쎯	-10.7275
sj쎯gdq쎯	-10.7276
kojr쎯zl쎯h쎯jl쎯、	-10.7276
na쎯odjy쎯	-10.7278
ec쎯tk쎯	-10.7284
odod쎯ko쎯	-10.7285
tirr쎯jirj쎯	-10.729
ri쎯jc쎯sbx쎯	-10.7292
zry쎯zzg쎯	-10.7292
xob쎯	-10.7296
bro쎯	-10.7296
fq쎯bdzy쎯	-10.7298
bmm쎯yybd쎯	-10.7299
tirr쎯vm쎯	-10.73
qyk1쎯	-10.7301
쎄쎈쎀	-10.7305
si쎯nrkw쎯	-10.7307
쎁쎉쎉쎉	-10.7308
bju쎯xek쎯	-10.7308
ajk쎯mfte쎯ch쎯	-10.731
oro쎯l쎯	-10.7311
vsk쎯	-10.7319
efk쎯	-10.7328
oda쎯nbx쎯	-10.733
oxom쎯	-10.7333
kz쎯ylc쎯	-10.7336
j쎯so쎯rsj쎯mfrk0쎯:	-10.7336
g쎯fs쎯vdwy쎯mc쎯	-10.7336
nsc쎯wdan쎯	-10.7344
jal쎯smm쎯	-10.7345
”,“	-10.7348
fofg쎯	-10.7349
suk쎯mfl쎯	-10.7357
yon쎯zym쎯	-10.7358
mbro쎯ku쎯mw쎯ckb쎯	-10.7359
xbby쎯fs쎯	-10.736
쎁쎉쎂쎇mamb쎯	-10.7363
mob쎯zrs쎯	-10.7365
wxl쎯qdos쎯	-10.7366
sl쎯gae쎯	-10.7367
vs쎯nfa쎯	-10.7367
cop쎯cmk쎯	-10.7367
ob쎯sso쎯wdhb쎯	-10.7368
vbo쎯ym쎯	-10.7371
cmo쎯cnj쎯	-10.7373
,ad쎯k쎯	-10.7373
wz쎯mlka쎯mw쎯	-10.7374
od쎯yh쎯vb쎯ywb쎯	-10.7375
oy쎯eaqm쎯	-10.7377
fav쎯mfte쎯mc쎯	-10.7381
gd쎯vdwy쎯rre쎯ku쎯	-10.7382
udke쎯kk쎯	-10.7383
쎁쎉쎉쎈	-10.7383
ka쎯uaol쎯	-10.7385
aij쎯l쎯ad쎯	-10.7389
yzi쎯oda쎯	-10.739
wdy쎯jl쎯	-10.7392
zoo쎯fe쎯	-10.7394
skw쎯ri쎯	-10.7397
uaqk쎯prc쎯	-10.7397
sme쎯aij쎯saii쎯	-10.7398
pvgx쎯zmya쎯	-10.7399
gj쎯kdmk쎯	-10.74
ak쎯zmya쎯d쎯	-10.7402
tdgd쎯sjy0쎯	-10.7403
edfd쎯kdml1쎯ob쎯	-10.7406
nil쎯	-10.7407
zk쎯ey쎯	-10.7407
nid쎯	-10.7407
glr쎯	-10.7411
njf쎯yav쎯	-10.7411
ri쎯,giw쎯	-10.7418
fj쎯nlk쎯	-10.7421
;쎂、	-10.7423
jal쎯yk쎯	-10.7423
n쎯od쎯	-10.7425
da쎯bizi쎯	-10.7432
jyaj쎯	-10.7432
vsnd쎯edl쎯sli쎯	-10.7433
rsj쎯sya쎯	-10.7438
g쎯jc쎯ldod쎯ri쎯	-10.7439
(쎄)	-10.7442
ufoy쎯af쎯	-10.7443
a쎯iiko쎯	-10.7443
q쎯쎉ka쎯	-10.7447
nl쎯oi쎯	-10.7449
ca쎯ya쎯	-10.745
womi쎯	-10.745
ciq쎯lbkv쎯	-10.7451
kq쎯vcq쎯	-10.7454
obv쎯	-10.7455
ja쎯qyx쎯	-10.7457
yi쎯ob쎯	-10.7461
nbho쎯	-10.7461
.”tgxj쎯	-10.7465
h쎯sbx쎯	-10.7466
vtf쎯	-10.7467
3	-10.7472
teu쎯	-10.7476
tg쎯tlvm쎯	-10.7478
pvf쎯l쎯y쎯	-10.7482
aekd쎯ajx쎯	-10.7487
xkc쎯seg쎯	-10.7488
q쎯쎁쎇ka쎯	-10.7489
dwb쎯mblk쎯mzv쎯zs쎯	-10.7495
mwv쎯	-10.7507
(쎁쎈쎉	-10.7513
la쎯uaqk쎯yya쎯	-10.7513
b쎯aep쎯	-10.7513
odjy쎯odw쎯	-10.7516
udjw쎯kdml0쎯	-10.7517
쎃～	-10.7518
ch쎯gdw쎯	-10.7521
bjv쎯n쎯	-10.7522
aed쎯dgr쎯	-10.7528
an쎯nrl쎯	-10.7529
egu쎯	-10.7536
aep쎯dqsy쎯	-10.7542
oz쎯yaj1쎯h쎯su쎯ad쎯	-10.7542
tgva쎯rxw쎯	-10.7543
fl쎯zuz쎯	-10.7547
uddw쎯	-10.7548
uaqb쎯mbjw쎯	-10.7548
ri쎯aep쎯xms쎯ds쎯	-10.7549
wa쎯skw쎯	-10.7549
llqq쎯	-10.7552
xkzi쎯	-10.7554
bsu쎯byms쎯	-10.7556
fn쎯en쎯	-10.7557
b쎯dqsy쎯	-10.7557
evp쎯	-10.7558
zae쎯	-10.7561
gdq쎯yxo쎯	-10.7562
ne쎯y쎯	-10.7566
d쎯a쎯sjy0쎯oy쎯	-10.7569
q쎯쎁쎁ka쎯	-10.7569
gj쎯fpx쎯	-10.757
oz쎯kb쎯rid쎯,	-10.7574
agd쎯na쎯	-10.7575
wdan쎯odm쎯	-10.7575
odii쎯ajx쎯ku쎯	-10.7577
ysj쎯	-10.7578
uke쎯uomi쎯	-10.7579
sf쎯e쎯zyy쎯	-10.7585
wtyd쎯iiko쎯	-10.7587
hdyd쎯nx쎯	-10.7588
aijr쎯marm쎯	-10.7593
udf	-10.7596
ld쎯oi쎯	-10.7599
ae쎯wj쎯	-10.7601
mc쎯vmi쎯j쎯	-10.7601
wdgz쎯xl쎯	-10.7605
xsig쎯sed쎯	-10.7606
why쎯	-10.7611
mik쎯	-10.7618
nkc0쎯paj0쎯	-10.762
jc쎯wdgq0쎯a쎯zym쎯	-10.7621
k쎯jd쎯u쎯	-10.7621
rd쎯mfte쎯	-10.7621
xkq쎯	-10.7623
sc쎯sb쎯	-10.7624
vk쎯ckmh쎯	-10.7626
zbj쎯zmrk쎯	-10.7627
suep쎯	-10.7629
ks쎯ryi쎯	-10.763
ldod쎯woj쎯ry쎯dmi쎯	-10.763
mbj쎯sp쎯	-10.7632
vx쎯wdya쎯	-10.7632
◎	-10.7634
쎁×	-10.7638
sya쎯vhv쎯	-10.7639
aij쎯ja쎯	-10.764
.wdrr쎯k쎯	-10.7641
dsq쎯idjh쎯	-10.7643
edog쎯	-10.7643
uzg쎯	-10.7648
pdxs쎯makr쎯	-10.765
fav쎯xyis쎯k쎯	-10.7651
쎁쎉쎂쎈mamb쎯	-10.7651
myz쎯a쎯wdgq0쎯	-10.7652
oxaj쎯ucnd쎯	-10.7654
yi쎯jz쎯	-10.7656
tird쎯ob쎯	-10.7657
koxb쎯j쎯	-10.7664
vkb쎯	-10.7666
eejq쎯ewm쎯	-10.7671
wsy쎯	-10.7673
njf쎯wd쎯	-10.7674
zizi쎯vwa쎯	-10.7677
an쎯ay쎯	-10.7677
sc쎯f쎯zx쎯ewj쎯	-10.7677
wt	-10.7681
zgp쎯sef1쎯	-10.7689
gj쎯mfjo쎯쎄	-10.769
sc쎯od쎯oz쎯	-10.7692
pmeb쎯	-10.7692
ngr쎯fkwz쎯	-10.7697
s쎯vb쎯	-10.7699
iirr쎯kd쎯	-10.7699
zimo쎯lorz쎯	-10.7699
kojl0쎯kojl0쎯	-10.7699
bxm쎯vas쎯	-10.7701
bdkv쎯kz쎯	-10.7702
yzs쎯dyo쎯	-10.7703
zw쎯oda쎯	-10.7706
zmyi쎯nt쎯	-10.7712
bmy쎯aij쎯zo쎯	-10.7712
rhko쎯jbr쎯	-10.7713
j쎯wz쎯ko쎯vdwy쎯	-10.7713
cdv쎯jl쎯	-10.7716
sq쎯g쎯	-10.7717
eki쎯smm쎯	-10.7721
xsim쎯pde쎯	-10.7725
r쎯mamb쎯mc쎯eked쎯	-10.7726
wm쎯aeb쎯	-10.773
ysk쎯	-10.7735
odyk쎯su쎯ad쎯	-10.7736
쎁쎉쎈쎈	-10.7736
kiay쎯aim쎯zw쎯gxv쎯	-10.7737
sow쎯sj쎯k쎯	-10.7739
h쎯u쎯y쎯	-10.7739
tg쎯gd쎯wdrj쎯wm쎯	-10.7742
od쎯gd쎯kojl0쎯mfz쎯	-10.7744
vskd쎯kdml1쎯	-10.775
zx쎯zyy쎯	-10.7752
oz쎯rsym쎯jl쎯	-10.7754
uaxk쎯woj쎯	-10.7755
wlr쎯kbx쎯	-10.7756
쎁쎉쎉쎁	-10.7757
uag쎯td쎯	-10.7758
쎁쎀odmf쎯	-10.7759
rj쎯nl쎯	-10.7764
q쎯쎃ka쎯	-10.7764
gae쎯z쎯、mc쎯sug쎯	-10.7765
eyyy쎯	-10.7767
ma쎯	-10.7769
쎀쎀oz쎯kb쎯	-10.7773
ggyy1쎯	-10.7776
nl쎯vzj1쎯vdnd쎯	-10.7777
ajk쎯sc쎯zw쎯	-10.7778
erjm쎯ku쎯	-10.7779
aim쎯rsym쎯	-10.7782
vkk쎯b쎯	-10.7782
vm쎯lbu쎯	-10.7783
bdnw쎯iiko쎯tirg쎯	-10.7784
alb쎯mc쎯	-10.7784
oixo쎯zmya쎯d쎯	-10.7785
fpx쎯bxgd쎯	-10.7785
erf쎯erez쎯vfd쎯	-10.7788
wdrj쎯xl쎯	-10.7792
zizi쎯jjj쎯	-10.7792
zo쎯gds1쎯ldo쎯	-10.7798
mfya쎯ey쎯	-10.7799
sop쎯ty쎯	-10.78
faed쎯ejmf쎯	-10.7804
a쎯nm쎯	-10.7806
bu쎯nel쎯	-10.7806
eeko쎯	-10.7807
dyx쎯zrh쎯	-10.7809
sc쎯f쎯mc쎯sug쎯	-10.7809
ucu쎯ad쎯	-10.7811
bdkv쎯s쎯,	-10.7818
kiay쎯aim쎯	-10.7818
vyc쎯	-10.7819
kia쎯ggnk쎯	-10.7819
ofk쎯	-10.782
akk쎯mev쎯u쎯	-10.7823
ceug쎯zrj쎯	-10.7824
sjl쎯mlka쎯gbs쎯	-10.7825
쎆%	-10.7826
nb쎯bdzy쎯	-10.7827
s쎯kq쎯xyis쎯	-10.7828
쎂.쎃	-10.7829
yaj1쎯odw쎯sjy0쎯	-10.7831
wdix쎯	-10.7833
gak쎯plk쎯woj쎯kak쎯	-10.7835
q쎯쎁쎄ka쎯	-10.7836
wr쎯ku쎯sjy0쎯	-10.7838
md쎯bi쎯	-10.7844
rlo쎯enaj쎯	-10.7847
fsz쎯fvr쎯	-10.7847
yh쎯ewj쎯	-10.7851
nre쎯anr쎯	-10.7853
sjl쎯mbds쎯ywb쎯fs쎯	-10.7853
tgva쎯ym쎯	-10.7858
vwm1쎯xkv쎯	-10.786
uanl쎯tgnd쎯	-10.7863
jjd쎯	-10.7864
fav쎯ba쎯	-10.7866
쎈쎀%	-10.7867
mzv쎯sc쎯nmb쎯	-10.7868
haw쎯tgva쎯	-10.7872
uaqb쎯qsoo쎯	-10.7879
brt쎯aij쎯	-10.788
dvw쎯	-10.788
rstd쎯mfya쎯	-10.7883
dpez쎯vszr쎯	-10.7885
haw쎯hbkd쎯	-10.7886
shl쎯	-10.7887
xoo쎯	-10.7892
yrx쎯ehz쎯	-10.7895
rgos쎯	-10.7897
fxml쎯	-10.7897
heoo쎯ko쎯	-10.7901
xaj쎯byo쎯	-10.7903
i쎯klg쎯	-10.7906
ta쎯ckb쎯	-10.7909
о	-10.791
arh쎯tma쎯od쎯	-10.7915
q쎯쎇ka쎯	-10.7916
fdvn쎯	-10.7919
pda쎯ybor쎯	-10.7923
mazm쎯haw쎯	-10.7928
drr쎯tdni쎯h쎯su쎯	-10.7931
yary쎯	-10.7931
sc쎯f쎯ggnk쎯ufte쎯	-10.7935
iiko쎯oi쎯	-10.7937
iikg쎯sv쎯:	-10.7937
fj쎯wdz쎯sli쎯	-10.7938
(쎁쎉쎃	-10.7941
쎄.쎀	-10.7943
sb쎯rly쎯	-10.7943
쎁쎉쎈쎉	-10.7946
쎁쎅oy쎯pji쎯	-10.7951
gd쎯bdzs1쎯so쎯nr0쎯	-10.7952
쎀ay쎯bdrd쎯,	-10.7957
gdiy쎯woj쎯kak쎯:	-10.7965
fel쎯fmk쎯	-10.7967
vns쎯arku쎯	-10.7968
boy쎯nmb쎯	-10.7971
zizi쎯c쎯g쎯	-10.7972
szo	-10.7973
wcs쎯ga쎯	-10.7974
pai쎯	-10.7975
ekgy쎯	-10.7977
쎈쎀쎀쎀	-10.798
so쎯nr0쎯jilw쎯sug쎯	-10.798
ba쎯aju쎯	-10.7982
ufc쎯grl쎯	-10.7982
ch쎯vkm쎯sli쎯	-10.7983
dxbi쎯	-10.7983
dska쎯	-10.7983
mfrk2쎯	-10.7986
fa쎯mzv쎯sod쎯saii쎯	-10.799
grl쎯sod쎯	-10.7992
cqq쎯cej쎯	-10.7996
kic쎯dyx쎯	-10.7998
fav쎯mfte쎯rre쎯ku쎯	-10.7998
obz쎯	-10.8003
zgp쎯sef1쎯ch쎯	-10.8004
vkl쎯vdnd쎯sli쎯	-10.8005
jlym쎯ske쎯	-10.801
jixo쎯jiwb쎯	-10.8014
vke쎯gdli쎯	-10.8015
giw쎯ggnk쎯	-10.8018
zimo쎯uaol쎯	-10.8018
bdzs1쎯hejc쎯《	-10.802
myz쎯lk쎯xki쎯	-10.8021
jed쎯fal쎯	-10.8022
vxw쎯vry쎯	-10.8026
byo쎯ks쎯	-10.8027
mgn쎯木	-10.8028
쎁쎉쎈쎅	-10.8031
zmxb쎯sug쎯mfte쎯	-10.8032
p쎯nmi쎯	-10.8032
wwae쎯	-10.8036
pds쎯	-10.8036
f쎯idju쎯	-10.8037
ymo1쎯mblk쎯	-10.8037
wdaj쎯mc쎯	-10.8041
anr쎯mfya쎯	-10.8042
fxcm쎯fkml1쎯	-10.8044
sj쎯zq쎯	-10.8046
ekq쎯	-10.8051
mebu쎯	-10.8055
hdko쎯nlk쎯	-10.8058
me쎯ay쎯	-10.8058
exau쎯vmy쎯	-10.8059
mbds쎯wr쎯nmi쎯	-10.806
kdmk쎯tgf쎯zx쎯xo쎯	-10.8062
qi쎯lco쎯	-10.8063
vjl쎯	-10.8063
vsm쎯bizi쎯yod쎯	-10.8063
dka쎯njf쎯	-10.8064
fuz쎯sjl쎯	-10.8069
odjg1쎯	-10.807
vhv쎯nif쎯	-10.8072
lbb0쎯fj쎯aiaj쎯	-10.8073
oy쎯jk쎯u쎯	-10.8073
kojl0쎯mamb쎯	-10.8077
ucgd쎯vdwy쎯	-10.8079
dpk쎯mfji쎯	-10.8083
ahi쎯suwl쎯	-10.8086
zw쎯mfjc쎯	-10.8087
vai쎯	-10.8089
jii쎯	-10.8091
쎇)	-10.8094
e쎯kion쎯rj쎯b쎯	-10.8095
pfki0쎯eyj0쎯	-10.8096
ck	-10.8097
ewoj쎯	-10.8099
xsc쎯b쎯	-10.81
쎁쎀%	-10.8101
zizi쎯tel쎯	-10.8101
bi쎯tdrl1쎯	-10.8102
yaly쎯	-10.8104
wr쎯yh쎯zimo쎯oda쎯	-10.8109
gi쎯kro쎯	-10.8109
zizi쎯np쎯kd쎯tk쎯:	-10.8109
e쎯wdgq0쎯	-10.811
tirr쎯ucgd쎯	-10.8111
ecb쎯pa쎯bg쎯la쎯	-10.8113
pnx쎯	-10.8114
nc쎯wym쎯	-10.8118
exa쎯	-10.812
ftb쎯	-10.812
va쎯ja쎯	-10.8121
kib쎯ecb쎯	-10.8121
q쎯쎁쎃ka쎯	-10.8123
mbbd쎯ceaz쎯	-10.8125
jjgs쎯	-10.8126
sug쎯mbro쎯	-10.8128
qdos쎯fv쎯	-10.8129
uhg쎯dq쎯	-10.8132
fwb쎯ryi쎯	-10.8133
lb쎯nk쎯	-10.8136
bsj쎯snd쎯j쎯wz쎯	-10.8137
mfr쎯fel쎯	-10.8139
mekb쎯makr쎯	-10.8142
cuc쎯sc쎯nmb쎯	-10.8145
≥	-10.8147
c쎯gdq쎯jl쎯bi쎯	-10.815
dk쎯sjl쎯y쎯	-10.8151
fdyy쎯uagw0쎯	-10.8154
mfte쎯sc쎯nmb쎯	-10.8156
kd쎯sok쎯	-10.8158
tirq쎯gj쎯	-10.8159
ezr쎯fdm쎯	-10.816
nl쎯vdwy쎯	-10.8164
ss쎯oz쎯yaj1쎯	-10.8169
tl쎯wm쎯	-10.8171
ucq쎯ey쎯	-10.8175
wan쎯	-10.8176
rll쎯laz쎯	-10.8177
ew쎯ucl쎯	-10.8177
mnd쎯jaz쎯	-10.8178
au쎯brt쎯ski1쎯sug쎯	-10.818
jc쎯wdgq0쎯yod쎯	-10.818
ucq쎯ks쎯	-10.8183
llm쎯	-10.8184
ucgd쎯zm쎯	-10.8184
yav쎯wlr쎯	-10.8184
aim쎯fx쎯	-10.8186
nmb쎯skw쎯	-10.8186
ldo쎯zrj쎯vsm쎯xhm쎯	-10.8193
oiel쎯	-10.8195
mfuw쎯	-10.8195
쎁-쎂	-10.8197
cd쎯zni쎯	-10.8198
fff쎯ffv쎯oz쎯jbr쎯	-10.8202
oc쎯ym쎯	-10.8205
uanw쎯bmm쎯	-10.8205
fzor쎯	-10.8209
fbsm쎯	-10.8211
bjex쎯ggyy1쎯	-10.8212
sya쎯ldeo쎯	-10.8214
쎁쎉쎈쎆	-10.8215
df쎯	-10.8215
ch쎯odmw쎯	-10.8222
oixo쎯kom쎯	-10.8222
qy쎯gm쎯	-10.8225
ao쎯bdod쎯	-10.8225
mzg쎯	-10.8229
cirx쎯kz쎯	-10.823
xmkr쎯oi쎯	-10.8231
maj쎯rsj쎯t쎯	-10.8242
q쎯쎂ka쎯	-10.8242
fj쎯vejq쎯	-10.8243
ufc쎯xbuo쎯	-10.8243
ihwz쎯	-10.8247
.”kq쎯	-10.8248
и	-10.8249
vl쎯zob쎯	-10.8253
nxm쎯ecp쎯uabd쎯	-10.8255
zw쎯gxv쎯	-10.8255
eqg쎯oc쎯jc쎯	-10.8258
bjj쎯vao쎯	-10.8267
sjy0쎯sc쎯nmb쎯	-10.827
dex쎯vb쎯	-10.827
wcs쎯wcs쎯	-10.8272
oi쎯aim쎯ho쎯	-10.8275
miy쎯wdz쎯	-10.8276
tlwz쎯	-10.8276
odjr쎯	-10.8278
rhko쎯jddm쎯	-10.8278
ey쎯zrs쎯	-10.828
쎀au쎯sy쎯uf쎯,	-10.8281
en쎯seps쎯	-10.8282
uojf쎯	-10.8283
wdtg쎯l쎯um쎯	-10.8284
mfz쎯kojl0쎯mfz쎯	-10.8293
oiiy쎯jos쎯	-10.8295
mfte쎯ew쎯tdgd쎯od쎯	-10.8296
ld쎯rsj쎯	-10.83
wdtg쎯idjh쎯	-10.8307
ehn쎯ii쎯	-10.831
qqx쎯no쎯mblk쎯	-10.8312
zk쎯hbmo쎯	-10.8314
odyk쎯mbjw쎯y쎯	-10.8315
sow쎯sjy0쎯	-10.8323
bu쎯yj쎯y쎯	-10.8324
xmrr0쎯ecp쎯	-10.8328
eof쎯kair쎯	-10.833
qu	-10.8331
qdos쎯bdzs0쎯	-10.8332
nxby쎯oc쎯	-10.8332
쎀)	-10.8335
wdgm쎯	-10.8336
.jc쎯ba쎯gj쎯mfjo쎯	-10.8339
al쎯gj쎯	-10.834
zdfk쎯	-10.8344
vu쎯ersw쎯	-10.8346
쎁쎉쎉쎆	-10.8348
dk쎯neo쎯ngr쎯pdel쎯	-10.8351
wtyd쎯zym쎯	-10.8351
kv쎯kkk쎯	-10.8351
ajl쎯oda쎯	-10.8354
udke쎯qi쎯	-10.8355
쎁쎀쎇	-10.8355
vwrd쎯yk쎯sli쎯	-10.8356
kz쎯fuy쎯	-10.8358
cirx쎯qs쎯	-10.8358
rid쎯ajk쎯rid쎯ch쎯	-10.8361
쎄%	-10.8362
u쎯ned쎯mzs쎯	-10.8363
wms쎯aeb쎯	-10.8363
odob쎯fb쎯	-10.8364
bi쎯nmi쎯vkl쎯t쎯	-10.8365
vpd쎯	-10.8365
nk쎯epf쎯	-10.8367
tgxo쎯	-10.8375
jdj쎯kdxb0쎯	-10.8376
zwan쎯waz쎯	-10.8377
bi쎯ku쎯jbr쎯	-10.8379
km쎯mfz쎯	-10.8379
ed쎯odmf쎯mamb쎯	-10.8381
oy쎯arsr쎯	-10.8381
wr쎯ezr쎯	-10.8381
sjw쎯t쎯	-10.8382
쎁쎉쎉쎇	-10.8385
vrv쎯ku쎯	-10.8386
쎁쎈쎃	-10.8387
쎇oz쎯kb쎯	-10.8387
쎁tdro쎯	-10.8389
vwj쎯rly쎯	-10.8393
ahi쎯vx쎯gd쎯vdwy쎯	-10.8394
mfz쎯kojr쎯fs쎯	-10.8396
쎉%	-10.8397
ns쎯nlwz쎯mzv쎯zs쎯	-10.8404
jjg쎯wdy쎯	-10.8405
kiz쎯sed쎯	-10.8407
vwz쎯	-10.8408
wotg쎯	-10.8409
uaqk쎯bdnw쎯	-10.8413
dnk쎯edtg쎯	-10.8414
zrd쎯	-10.8415
uanw쎯kg쎯	-10.8415
ka쎯sbx쎯	-10.842
vekg쎯	-10.842
uosu쎯ufte쎯	-10.8421
xkc쎯dsz쎯	-10.8421
-쎁쎆	-10.8427
via쎯	-10.8427
nsb쎯gdiy쎯	-10.8428
gc쎯wms쎯	-10.8429
bzma쎯yms쎯	-10.8431
zzl쎯lbg쎯	-10.8435
mbds쎯r쎯o쎯	-10.8437
(odxj쎯	-10.8438
ldoo쎯pdel쎯	-10.8439
ku쎯ldod쎯	-10.844
tdro쎯ob쎯sso쎯	-10.8452
oaj쎯nmi쎯wsb쎯	-10.8453
edlc쎯vs쎯	-10.8453
bi쎯wr쎯zb쎯wh쎯	-10.8454
zsoo쎯	-10.8458
vdwl쎯oiad쎯	-10.8459
dk쎯rsj쎯	-10.846
neo쎯kv쎯	-10.8464
uee쎯	-10.8468
vkl쎯kpa쎯	-10.8472
ka쎯dyx쎯》	-10.8476
tmj쎯	-10.8479
zszb쎯	-10.8481
ual쎯	-10.8481
vikg쎯	-10.8481
drk1쎯odw쎯	-10.8481
kojr쎯aim쎯	-10.8484
q쎯쎄ka쎯	-10.8485
wdry쎯	-10.8486
vxi쎯uabd쎯	-10.8487
dyo쎯bxm쎯jjg쎯	-10.8488
oc쎯mfjc쎯	-10.8492
shb쎯idju쎯	-10.8497
ody쎯nsb쎯	-10.8508
sxl쎯	-10.8508
jxr쎯	-10.8509
wi쎯nkbz쎯	-10.8509
xe쎯zizi쎯	-10.8513
ciq쎯vm쎯km쎯	-10.8514
njed쎯	-10.8515
쎅쎀쎀edjr2쎯	-10.8515
wtkf쎯	-10.8516
oc쎯mfrk0쎯	-10.8518
dwb쎯mblk쎯jjg쎯	-10.8519
rl	-10.8523
rz쎯ufgd쎯	-10.8523
suf쎯nl쎯	-10.853
smr쎯oi쎯wsb쎯	-10.8535
a쎯xju쎯	-10.8535
dyj쎯sul쎯	-10.8535
suyj쎯	-10.8537
maj쎯lczs쎯	-10.8539
mwz쎯fdor쎯	-10.8539
mb쎯zmym쎯	-10.8546
oirg쎯yk쎯	-10.8547
ag쎯fg쎯	-10.8554
bbvv쎯	-10.8555
쎉쎀%	-10.8556
jy쎯a쎯o쎯	-10.8558
fy쎯ec쎯	-10.856
jdj쎯zimo쎯	-10.8561
vwa쎯skx쎯	-10.8562
ece쎯	-10.8563
k쎯a쎯tgob1쎯	-10.8573
kf쎯fxd쎯	-10.8573
zlo쎯mfjr0쎯	-10.8575
aj	-10.8576
kiym쎯,vx쎯smm쎯,	-10.8579
c쎯f쎯zo쎯mfji쎯fel쎯	-10.8584
nif쎯oaj쎯	-10.8585
dw쎯tfm쎯	-10.8586
bdnw쎯xe쎯	-10.8587
kmy쎯	-10.8591
vbb쎯	-10.8596
fbk0쎯	-10.8598
aim쎯tgnd쎯mbbd쎯	-10.8601
nz쎯mua쎯	-10.8602
nkbz쎯	-10.8603
oy쎯fdyy쎯hbkd쎯	-10.8607
wm쎯,gdq쎯zzm쎯fds쎯	-10.8607
eag쎯vejq쎯	-10.8608
gm쎯tdgd쎯odii쎯ku쎯	-10.861
쎂.쎆	-10.8613
bdok쎯nh쎯	-10.8618
vdwy쎯ob쎯kojl0쎯	-10.8626
szq쎯od쎯	-10.8626
–	-10.865
≤	-10.899
◆	-10.918
い	-10.948
▁	-10.9789
α	-10.9799
^	-10.9939
н	-11.038
ㄐ	-11.0764
∶	-11.0877
е	-11.0975
─	-11.1025
р	-11.1072
ㄣ	-11.123
с	-11.1456
ㄥ	-11.1456
β	-11.1902
ス	-11.1989
う	-11.2047
¥	-11.2112
ル	-11.2179
к	-11.2445
し	-11.2463
в	-11.2463
〗	-11.2505
〖	-11.2512
か	-11.2715
ㄒ	-11.2771
イ	-11.2832
◇	-11.2968
4	-11.3029
ω	-11.308
ㄌ	-11.3222
φ	-11.372
ㄙ	-11.3773
ㄠ	-11.3877
た	-11.4264
な	-11.4271
ん	-11.4493
祐	-11.4579
л	-11.4709
@	-11.4882
ㄏ	-11.5065
ト	-11.515
リ	-11.5202
と	-11.5214
}	-11.5227
т	-11.527
{	-11.5354
ㄤ	-11.5359
•	-11.5387
・	-11.5463
ラ	-11.5526
き	-11.5558
ア	-11.571
ㄕ	-11.5724
ㄉ	-11.5968
ク	-11.6094
ま	-11.6137
ㄟ	-11.6349
ㄚ	-11.654
$	-11.6714
□	-11.6721
り	-11.6974
ㄑ	-11.7072
ㄓ	-11.7223
ㄩ	-11.7272
み	-11.7302
る	-11.734
ㄛ	-11.7373
ㄍ	-11.7684
ㄅ	-11.7687
ッ	-11.7827
こ	-11.7939
ㄊ	-11.7972
に	-11.8099
く	-11.8122
さ	-11.821
ㄇ	-11.8241
м	-11.8417
〇	-11.8496
ㄝ	-11.8542
☆	-11.8568
5	-11.8756
ら	-11.8879
ド	-11.8968
羣	-11.9319
д	-11.9334
は	-11.9376
シ	-11.9389
γ	-11.951
ㄔ	-11.9527
あ	-11.9576
レ	-11.9692
δ	-11.9854
σ	-11.9925
て	-11.9953
お	-12.0107
■	-12.0143
が	-12.0293
タ	-12.0337
`	-12.0431
ロ	-12.0437
マ	-12.0529
ち	-12.0749
у	-12.0815
ジ	-12.0848
呎	-12.0945
г	-12.0965
フ	-12.1087
й	-12.1258
ㄡ	-12.1379
も	-12.1417
ا	-12.143
ㄜ	-12.1584
ㄗ	-12.1646
カ	-12.1972
п	-12.2015
つ	-12.2182
ㄞ	-12.2475
テ	-12.2526
б	-12.2551
す	-12.2669
ィ	-12.2938
を	-12.2956
じ	-12.3058
ㄈ	-12.3217
や	-12.3273
で	-12.3511
△	-12.3542
∼	-12.3863
6	-12.3865
ч	-12.391
λ	-12.3982
だ	-12.3983
я	-12.4026
れ	-12.4056
コ	-12.4091
ㄆ	-12.411
キ	-12.4225
祇	-12.4257
エ	-12.436
オ	-12.4441
え	-12.4545
デ	-12.4557
け	-12.4608
π	-12.462
槃	-12.4729
バ	-12.4805
ウ	-12.4949
っ	-12.5047
ل	-12.5063
サ	-12.5103
ㄎ	-12.5444
ρ	-12.547
ミ	-12.5498
わ	-12.5507
グ	-12.5513
ナ	-12.5519
T	-12.5703
ニ	-12.576
M	-12.5767
ひ	-12.5783
よ	-12.579
吋	-12.5817
ム	-12.5932
‧	-12.5999
プ	-12.6116
ャ	-12.6191
モ	-12.6199
ь	-12.6206
ㄘ	-12.6207
ε	-12.6296
ガ	-12.6304
ブ	-12.6394
ф	-12.6401
※	-12.6406
ㄖ	-12.6441
ゆ	-12.6464
‰	-12.6509
́	-12.651
ょ	-12.6572
珪	-12.6674
ろ	-12.6705
⊙	-12.6735
≈	-12.6872
メ	-12.6887
邨	-12.6894
ュ	-12.6919
ο	-12.7064
チ	-12.7096
鲉	-12.7338
ダ	-12.7677
脩	-12.78
頫	-12.8048
焗	-12.8284
ビ	-12.8284
θ	-12.8357
め	-12.8386
7	-12.8452
ズ	-12.8535
х	-12.8579
巖	-12.8738
ェ	-12.8989
ㄋ	-12.917
せ	-12.9292
ي	-12.9518
τ	-12.96
з	-12.96
م	-12.9675
ы	-12.9705
昉	-12.9738
そ	-12.9916
録	-12.9987
闇	-13.0119
箇	-13.0365
ハ	-13.0409
ر	-13.0421
璟	-13.0512
ョ	-13.0639
ど	-13.0701
鲀	-13.071
啰	-13.0727
鸮	-13.0756
パ	-13.0781
ず	-13.0794
ν	-13.085
滘	-13.0887
η	-13.0996
ι	-13.1006
瞭	-13.1007
疎	-13.1093
ネ	-13.1093
ノ	-13.1141
咲	-13.1165
釐	-13.124
ば	-13.1265
稜	-13.1265
ς	-13.1314
潟	-13.1364
峯	-13.1453
彊	-13.1669
이	-13.1793
ن	-13.18
8	-13.1866
囧	-13.1984
§	-13.2038
و	-13.2065
寳	-13.2065
旻	-13.2119
牀	-13.2119
®	-13.2198
セ	-13.2294
禛	-13.2378
喆	-13.2518
埼	-13.2589
ァ	-13.2603
ゅ	-13.2617
阇	-13.2618
偁	-13.266
ワ	-13.2762
κ	-13.2802
瑄	-13.2802
鹟	-13.289
戦	-13.3037
闿	-13.3201
ほ	-13.3202
鬭	-13.3202
ц	-13.3474
ツ	-13.3491
ふ	-13.36
ب	-13.3601
麼	-13.3663
璠	-13.3711
粿	-13.3727
濬	-13.3743
〞	-13.3966
浄	-13.3969
ね	-13.3989
ш	-13.4047
د	-13.4049
ケ	-13.413
↓	-13.413
垟	-13.4147
ゃ	-13.4148
ゴ	-13.4148
÷	-13.423
蹠	-13.4313
ψ	-13.4334
沢	-13.4364
濛	-13.4468
惇	-13.4691
ぎ	-13.4692
←	-13.4785
鹀	-13.485
む	-13.4852
琇	-13.4868
朓	-13.4958
ボ	-13.501
ヴ	-13.5047
镕	-13.5065
碁	-13.512
ザ	-13.5228
俶	-13.5231
乂	-13.5285
	-13.5374
ソ	-13.5548
đ	-13.5587
9	-13.5664
ぐ	-13.5684
ぶ	-13.5721
ж	-13.5757
彧	-13.5761
琯	-13.5936
顗	-13.6118
郤	-13.6136
↑	-13.6159
磡	-13.6217
ヒ	-13.6218
ة	-13.6238
√	-13.6278
ご	-13.6319
栱	-13.6358
ベ	-13.6401
囯	-13.6402
黒	-13.6444
箓	-13.6464
ヤ	-13.6611
徧	-13.6634
楯	-13.6696
ㄦ	-13.674
県	-13.676
卍	-13.6868
佺	-13.6913
玥	-13.6934
竜	-13.6956
璘	-13.698
▲	-13.704
硚	-13.7043
翚	-13.7065
س	-13.7133
漈	-13.7176
ピ	-13.7177
า	-13.7187
纔	-13.7336
ギ	-13.7358
̇	-13.7475
━	-13.7493
ォ	-13.7706
櫆	-13.7755
盦	-13.7777
菴	-13.7801
晞	-13.7921
鼩	-13.7921
ポ	-13.7945
堃	-13.7968
∈	-13.7995
邠	-13.8043
ɡ	-13.8091
ع	-13.8091
駅	-13.8166
び	-13.8168
ร	-13.8194
旸	-13.8314
э	-13.8377
υ	-13.8414
げ	-13.8442
磻	-13.8467
瓘	-13.8673
瑀	-13.8676
鷟	-13.8725
駰	-13.8751
覩	-13.8751
拏	-13.8832
〜	-13.8909
ざ	-13.8963
嬛	-13.8963
ح	-13.899
0	-13.9016
裏	-13.9043
閤	-13.9044
玠	-13.907
へ	-13.9072
珣	-13.9099
姫	-13.9151
罍	-13.9316
徳	-13.9344
鰕	-13.9345
ユ	-13.94
浐	-13.9428
魟	-13.9571
∞	-13.9828
鋬	-13.9858
べ	-13.9859
埗	-13.9917
鮨	-13.9918
倞	-13.9947
ゲ	-13.9975
奭	-13.9976
寃	-14.0007
ت	-14.0036
淛	-14.0036
屌	-14.0125
儁	-14.0126
¢	-14.0155
遯	-14.0217
도	-14.0218
寔	-14.0246
垱	-14.0246
∠	-14.0251
대	-14.0279
鸰	-14.0307
戸	-14.0338
讎	-14.0339
颙	-14.034
〝	-14.0398
ю	-14.0401
น	-14.0411
지	-14.0428
絜	-14.0461
і	-14.0462
祎	-14.0462
廝	-14.0588
昺	-14.0618
嬅	-14.0659
아	-14.0659
ˉ	-14.0681
鳉	-14.0682
袴	-14.0683
洺	-14.0714
한	-14.0717
粧	-14.0746
榖	-14.0748
堌	-14.0774
瀬	-14.0776
蘇	-14.0778
̊	-14.0811
燊	-14.0812
煇	-14.0842
湜	-14.0842
垵	-14.0874
葖	-14.0907
ư	-14.094
亶	-14.094
∕	-14.1036
玕	-14.1039
藨	-14.1039
埵	-14.1042
碶	-14.107
甪	-14.107
蓇	-14.1071
−	-14.1169
χ	-14.1203
▪	-14.1206
鸻	-14.1237
烝	-14.1306
賸	-14.1306
竑	-14.1307
≠	-14.1339
訄	-14.134
鹡	-14.1372
愔	-14.1408
珅	-14.1408
ö	-14.1409
凪	-14.144
偓	-14.1545
김	-14.1579
ی	-14.158
ホ	-14.1583
覈	-14.1615
고	-14.1646
劼	-14.1649
ł	-14.1651
焜	-14.1755
梿	-14.1755
정	-14.176
ί	-14.179
∑	-14.1861
粄	-14.1862
나	-14.1873
珺	-14.1933
毬	-14.1933
埇	-14.197
氾	-14.197
鞮	-14.197
鍊	-14.197
袪	-14.1971
炁	-14.2043
ペ	-14.2043
사	-14.2079
어	-14.2089
弇	-14.2116
畊	-14.2117
ệ	-14.2189
ぼ	-14.2189
│	-14.219
棨	-14.219
弢	-14.2226
F	-14.2226
畑	-14.2227
齎	-14.2227
炆	-14.23
洸	-14.23
ف	-14.2301
鄜	-14.2301
喫	-14.2301
抃	-14.2303
가	-14.2307
棻	-14.2375
叡	-14.2414
蒾	-14.2452
瓌	-14.2489
鳚	-14.2526
毘	-14.2566
恵	-14.2603
楽	-14.2681
다	-14.2724
盉	-14.2759
蒐	-14.28
煖	-14.2838
々	-14.2878
襃	-14.2918
桯	-14.2918
鵟	-14.2919
劵	-14.2958
づ	-14.296
š	-14.2999
조	-14.3036
伝	-14.3038
慙	-14.3038
驩	-14.3119
ั	-14.3169
洩	-14.3201
리	-14.3204
翫	-14.3241
郃	-14.3243
ά	-14.3321
墘	-14.3322
脿	-14.3324
。	-14.3404
匜	-14.3406
氹	-14.3447
甗	-14.3449
ゼ	-14.3489
ه	-14.3491
籥	-14.3492
ζ	-14.3531
纍	-14.3535
ё	-14.3615
緜	-14.3618
啫	-14.3659
効	-14.366
赟	-14.3702
♂	-14.3702
巉	-14.3705
하	-14.3746
시	-14.3746
玦	-14.3746
의	-14.3757
ج	-14.3789
罽	-14.3789
ش	-14.3832
〃	-14.3832
萩	-14.3834
気	-14.3876
楩	-14.3877
鲃	-14.3877
燿	-14.3877
苾	-14.3878
暐	-14.3879
อ	-14.3891
군	-14.4009
垕	-14.4009
畠	-14.401
성	-14.4053
ヨ	-14.4098
薢	-14.4098
旂	-14.4098
孖	-14.4234
ä	-14.4234
♀	-14.4277
泚	-14.4279
ย	-14.4291
簕	-14.4324
実	-14.4326
艸	-14.437
瞋	-14.4371
蒟	-14.4414
牂	-14.4415
辻	-14.4415
勅	-14.4416
̈	-14.4417
ə	-14.4417
鴷	-14.4462
窣	-14.4463
ม	-14.447
ก	-14.4478
斝	-14.4509
窅	-14.4511
인	-14.4513
주	-14.4555
盤	-14.4555
扆	-14.4557
ق	-14.4557
浉	-14.4602
牋	-14.4602
蹻	-14.4606
饸	-14.4646
畤	-14.465
鲹	-14.4697
เ	-14.4709
≦	-14.4791
薙	-14.4794
č	-14.4794
ı	-14.4795
∮	-14.4832
י	-14.4839
선	-14.4839
饹	-14.4886
篠	-14.4887
璿	-14.4889
鵙	-14.489
扞	-14.489
寘	-14.4938
冏	-14.4939
憍	-14.494
祔	-14.4986
汧	-14.4986
栃	-14.4987
锜	-14.4989
鬘	-14.4989
ạ	-14.5035
壻	-14.5036
傒	-14.5036
復	-14.5036
ز	-14.5036
椪	-14.5036
瑠	-14.5036
発	-14.5037
閟	-14.5083
蒨	-14.5133
猇	-14.5133
様	-14.5136
屍	-14.5182
説	-14.5184
厓	-14.5184
ゾ	-14.5186
亹	-14.5232
晳	-14.5234
蒻	-14.5282
関	-14.5284
伋	-14.5285
는	-14.5293
沚	-14.5335
瀍	-14.5384
禋	-14.5387
ό	-14.5435
국	-14.5435
勑	-14.5436
炘	-14.5437
烜	-14.5437
서	-14.5437
ć	-14.5438
ิ	-14.5441
邽	-14.5486
ố	-14.5486
剣	-14.5487
일	-14.5487
鴈	-14.5488
龢	-14.5538
栒	-14.5591
衞	-14.5591
崀	-14.5591
勗	-14.5591
俛	-14.5592
靺	-14.5643
酺	-14.5643
ξ	-14.5644
민	-14.5746
団	-14.5746
豊	-14.5749
佉	-14.5751
廻	-14.5801
ơ	-14.5803
筼	-14.5854
桜	-14.5854
豨	-14.5855
溇	-14.5902
鞨	-14.5907
藦	-14.5907
梶	-14.5907
鉏	-14.5961
攟	-14.5963
斲	-14.6016
円	-14.6016
게	-14.6032
獣	-14.6069
峇	-14.607
珰	-14.607
髎	-14.6122
脷	-14.6124
腘	-14.6124
巿	-14.6124
翀	-14.6178
滉	-14.6179
茀	-14.618
ă	-14.6181
기	-14.6184
라	-14.6186
鉄	-14.6234
珽	-14.6236
皞	-14.6236
镠	-14.6236
纮	-14.6289
栢	-14.6291
査	-14.6292
을	-14.6345
신	-14.6347
영	-14.6401
鲌	-14.6401
讙	-14.6402
炤	-14.6403
菑	-14.6404
ş	-14.6407
囷	-14.6457
∽	-14.6457
溼	-14.6459
壎	-14.6459
倅	-14.646
澥	-14.6512
僰	-14.6513
鲊	-14.6513
翈	-14.6518
원	-14.6519
ぞ	-14.6573
゚	-14.6573
麤	-14.6573
歛	-14.6573
ヘ	-14.6574
妬	-14.6574
讌	-14.6575
ぬ	-14.663
脣	-14.6631
嶋	-14.6631
縠	-14.6685
対	-14.6688
笹	-14.6689
礽	-14.6689
薳	-14.6746
鑪	-14.6747
≧	-14.6804
擿	-14.6805
燋	-14.6805
郪	-14.6863
穂	-14.6921
塆	-14.6922
菉	-14.6923
巻	-14.6923
ế	-14.6923
수	-14.6924
鱇	-14.698
ط	-14.6981
ו	-14.6982
飏	-14.6982
搆	-14.6983
撝	-14.6983
纁	-14.6984
筜	-14.7041
ộ	-14.7042
闘	-14.7042
해	-14.7119
鮀	-14.7162
颺	-14.7163
摛	-14.7164
ว	-14.7171
〓	-14.7172
鹮	-14.7222
ả	-14.7223
遹	-14.7223
嫚	-14.7224
遶	-14.7225
貍	-14.7345
搢	-14.7348
∩	-14.7348
내	-14.737
ậ	-14.7407
甃	-14.7409
簠	-14.7409
皁	-14.741
ง	-14.742
鮟	-14.7469
豔	-14.747
栻	-14.7471
湉	-14.7472
柊	-14.7472
로	-14.7479
∧	-14.7501
暠	-14.7533
寖	-14.7535
隣	-14.7536
ô	-14.7597
愬	-14.7598
ส	-14.7603
絵	-14.7659
枹	-14.766
蔵	-14.766
ø	-14.766
濩	-14.7662
餘	-14.7662
昇	-14.7725
敍	-14.7726
̄	-14.7726
諡	-14.7727
우	-14.773
에	-14.7731
洑	-14.7789
鎓	-14.7789
跂	-14.7791
禘	-14.7792
鮰	-14.7852
藭	-14.7855
棊	-14.7856
紘	-14.7856
스	-14.7858
ท	-14.7859
郞	-14.7919
墻	-14.7921
沄	-14.7984
颋	-14.7986
ा	-14.8009
鎔	-14.8052
紵	-14.8053
보	-14.8054
芃	-14.8055
έ	-14.8119
은	-14.8119
菈	-14.8119
ç	-14.8119
ぽ	-14.8123
	-14.8184
籙	-14.8186
痠	-14.8187
侂	-14.8188
躄	-14.8254
ễ	-14.8254
竝	-14.8255
辺	-14.8255
磜	-14.8256
梣	-14.8317
広	-14.832
翃	-14.8322
洊	-14.8322
↘	-14.8386
絺	-14.8388
榊	-14.8389
纻	-14.839
廕	-14.8391
穉	-14.8459
瀼	-14.8459
䓖	-14.8527
犇	-14.8528
동	-14.8528
歩	-14.8528
呪	-14.8529
瑱	-14.8531
睺	-14.8534
너	-14.8544
垚	-14.8594
疍	-14.8596
鹖	-14.8598
塱	-14.8598
巘	-14.8599
燄	-14.8599
冴	-14.86
慥	-14.8601
唵	-14.8602
燐	-14.8667
槅	-14.8667
霊	-14.8668
瘖	-14.8668
衎	-14.8669
僇	-14.8672
仮	-14.8733
岞	-14.8734
櫂	-14.8736
筭	-14.8741
랑	-14.8741
鸊	-14.8741
≡	-14.8809
鳾	-14.8811
镈	-14.8812
焞	-14.8813
讬	-14.8814
ž	-14.8814
眞	-14.8816
吽	-14.8883
ầ	-14.8884
堽	-14.8953
勣	-14.8955
歳	-14.8956
ุ	-14.8961
ด	-14.8966
्	-14.8979
壸	-14.9028
경	-14.9029
躭	-14.9029
璫	-14.9029
구	-14.9029
倕	-14.903
祲	-14.9031
ล	-14.9035
안	-14.904
상	-14.9101
偲	-14.9101
晧	-14.9102
ك	-14.9102
譌	-14.9102
ś	-14.9106
ɑ	-14.9173
翙	-14.9175
铏	-14.9176
懽	-14.9177
麿	-14.9177
菓	-14.9177
鹓	-14.9177
ห	-14.9194
媿	-14.9251
鯙	-14.9253
진	-14.9253
∣	-14.9324
鼉	-14.9325
龕	-14.9326
闍	-14.9326
簃	-14.9326
輶	-14.9327
鮈	-14.9327
錡	-14.9404
〒	-14.9478
鷙	-14.9479
釒	-14.9479
餽	-14.948
자	-14.9493
خ	-14.9553
墬	-14.9556
현	-14.9557
卽	-14.9558
廆	-14.963
أ	-14.9632
ゥ	-14.9632
榦	-14.9633
祼	-14.9633
讐	-14.9633
鷉	-14.9634
汭	-14.971
蜺	-14.971
甿	-14.9711
鼱	-14.9711
ˈ	-14.9711
埶	-14.9711
飡	-14.9712
撃	-14.9712
馃	-14.9715
่	-14.9734
骃	-14.979
俤	-14.979
樫	-14.979
塅	-14.979
澪	-14.979
湣	-14.9866
槻	-14.9866
蕰	-14.9868
磾	-14.987
嵎	-14.987
礐	-14.9947
顒	-14.9948
ה	-14.9948
羶	-14.9949
沴	-14.9949
瑒	-14.9949
嶮	-14.995
盩	-14.9957
र	-14.997
藠	-15.0021
栿	-15.0026
朥	-15.0028
ή	-15.0028
俬	-15.0028
紬	-15.0029
왕	-15.0029
驤	-15.003
郿	-15.0031
秾	-15.011
窊	-15.0111
蝨	-15.0112
鄘	-15.0192
楙	-15.0193
讞	-15.0193
垞	-15.0193
諲	-15.0196
厔	-15.02
ี	-15.0206
佢	-15.0206
⁄	-15.0206
陁	-15.0273
暘	-15.0275
卬	-15.0275
爇	-15.0276
鷲	-15.0276
堉	-15.0276
ヌ	-15.0277
箠	-15.0359
晫	-15.0359
亜	-15.0359
変	-15.0365
焮	-15.0441
洿	-15.0443
ñ	-15.0443
鞞	-15.0444
獴	-15.0444
纚	-15.0449
榎	-15.0525
毎	-15.0526
寀	-15.0526
烺	-15.0527
繖	-15.0527
昪	-15.0527
囍	-15.0528
柟	-15.0528
舘	-15.0528
丏	-15.0529
筩	-15.0531
続	-15.0536
怳	-15.061
崐	-15.0611
א	-15.0612
제	-15.0613
臞	-15.0613
襜	-15.0614
蟌	-15.0614
訏	-15.0614
부	-15.0614
溍	-15.0698
박	-15.0699
鎌	-15.0699
増	-15.0699
橦	-15.0699
襕	-15.0699
飈	-15.0699
阯	-15.0699
尪	-15.0699
์	-15.0701
จ	-15.0715
滃	-15.0784
闉	-15.0784
琱	-15.0788
傕	-15.0872
喦	-15.0873
飇	-15.0873
巵	-15.0874
渟	-15.0875
堺	-15.0875
蜑	-15.0875
臑	-15.0875
ى	-15.0877
∙	-15.0958
璆	-15.0959
학	-15.0961
ј	-15.0962
嵒	-15.0962
咢	-15.0962
跼	-15.0963
踈	-15.0963
剗	-15.0963
樋	-15.0963
鶲	-15.0963
ช	-15.0964
미	-15.0976
釿	-15.1045
玙	-15.1051
鱲	-15.1051
翛	-15.1052
พ	-15.1057
요	-15.106
総	-15.1139
夬	-15.1139
晬	-15.1142
阨	-15.1143
▼	-15.1143
灊	-15.1144
유	-15.1146
経	-15.1146
餗	-15.1233
朏	-15.1234
만	-15.1238
滧	-15.1313
щ	-15.1318
醲	-15.1323
摽	-15.1325
刼	-15.1325
騃	-15.1325
嬾	-15.1325
鎗	-15.1326
韡	-15.1326
峩	-15.1326
蕡	-15.1326
ต	-15.1331
마	-15.1414
倓	-15.1416
霤	-15.1416
산	-15.1417
羇	-15.1417
夐	-15.1418
縢	-15.1418
髴	-15.142
泝	-15.142
廋	-15.1421
鳀	-15.151
祊	-15.151
悪	-15.151
擣	-15.1511
昰	-15.1512
晻	-15.1512
輈	-15.1512
飱	-15.1512
니	-15.1515
∨	-15.1556
鲘	-15.1603
â	-15.1604
絶	-15.1605
ύ	-15.1605
椀	-15.1606
崟	-15.1606
연	-15.1607
綝	-15.1699
é	-15.1699
畯	-15.1701
暱	-15.1701
鰲	-15.1701
曈	-15.1701
嘅	-15.1793
鼇	-15.1795
斎	-15.1796
ヶ	-15.1796
그	-15.1796
蟳	-15.1797
濆	-15.1797
眊	-15.1798
瓖	-15.1799
ص	-15.1893
鈇	-15.1893
鱓	-15.1893
濊	-15.1894
糹	-15.1894
歴	-15.1895
籓	-15.1895
강	-15.1896
쎯	-15.1984
교	-15.199
남	-15.1991
ר	-15.1991
悰	-15.1991
牁	-15.1991
褭	-15.1991
筯	-15.1991
歊	-15.1992
소	-15.1992
釭	-15.1993
鞶	-15.1994
筴	-15.209
旛	-15.209
檝	-15.2091
전	-15.2092
絰	-15.2093
筦	-15.2093
觿	-15.2093
髣	-15.2093
軿	-15.2094
้	-15.2109
♦	-15.2185
荘	-15.2187
ظ	-15.219
崁	-15.219
祏	-15.219
鋆	-15.2191
勔	-15.2191
舲	-15.2191
劒	-15.2191
湲	-15.2192
玘	-15.2193
骕	-15.2194
ぷ	-15.2194
褔	-15.229
専	-15.2291
澒	-15.2292
淜	-15.2292
‖	-15.2293
翬	-15.2293
坰	-15.2293
湴	-15.239
ぜ	-15.2392
棐	-15.2393
斾	-15.2393
尅	-15.2393
장	-15.2393
鵷	-15.2393
楤	-15.2394
¤	-15.2401
浿	-15.2494
奓	-15.2495
鮓	-15.2496
최	-15.2496
牻	-15.2496
倻	-15.2497
呴	-15.2497
鞬	-15.2497
売	-15.2498
洣	-15.2498
澣	-15.2498
惛	-15.2499
ğ	-15.2515
刓	-15.2597
伾	-15.26
弨	-15.26
화	-15.2601
蠔	-15.2601
雫	-15.2601
纘	-15.2601
埜	-15.2601
를	-15.2601
皦	-15.2602
淯	-15.2602
翣	-15.2606
ค	-15.262
皝	-15.2702
양	-15.2706
蓂	-15.2706
ị	-15.2706
礮	-15.2706
堦	-15.2706
厖	-15.2707
澔	-15.2707
천	-15.2707
牤	-15.2707
閈	-15.2707
寛	-15.2707
虓	-15.2708
枌	-15.271
髙	-15.2811
噉	-15.2811
粦	-15.2812
杻	-15.2812
倧	-15.2812
皐	-15.2812
蠧	-15.2812
岀	-15.2813
鄠	-15.2813
紥	-15.2814
烔	-15.2916
蔴	-15.2917
∫	-15.2918
曌	-15.2918
郕	-15.2919
蓺	-15.2919
浬	-15.2919
甦	-15.2919
錂	-15.292
敎	-15.292
巂	-15.2921
欒	-15.2921
牓	-15.2922
珝	-15.2927
湑	-15.3025
橚	-15.3026
ض	-15.3027
訢	-15.3027
褧	-15.3028
皃	-15.3029
鏐	-15.3029
辵	-15.3029
瀞	-15.303
胠	-15.303
勍	-15.303
憺	-15.303
込	-15.3033
บ	-15.3039
嫄	-15.3136
珌	-15.3137
穠	-15.3138
貙	-15.3138
毌	-15.3138
舺	-15.3138
琤	-15.3138
煣	-15.3139
耇	-15.3139
윤	-15.3139
秬	-15.314
邅	-15.3141
惣	-15.3247
籺	-15.3248
榃	-15.3248
攽	-15.3249
栴	-15.3249
錞	-15.3249
脇	-15.3249
茝	-15.325
畧	-15.325
麄	-15.325
詧	-15.325
琍	-15.325
煚	-15.325
희	-15.3251
隤	-15.3251
繻	-15.3251
為	-15.3253
惔	-15.336
ב	-15.336
鄩	-15.3362
痾	-15.3362
蹐	-15.3362
椇	-15.3363
捽	-15.3363
漷	-15.3365
榼	-15.3365
↙	-15.3472
廙	-15.3474
潏	-15.3474
鷁	-15.3475
骎	-15.3475
鄚	-15.3475
瓛	-15.3475
熲	-15.3476
薫	-15.3476
棫	-15.3476
耈	-15.3476
冇	-15.3479
ぃ	-15.3482
崚	-15.3484
ל	-15.359
岕	-15.359
鹍	-15.359
糵	-15.3591
瑊	-15.3591
満	-15.3592
暍	-15.3592
穽	-15.3592
頠	-15.3598
말	-15.3617
酂	-15.3705
宬	-15.3706
া	-15.3706
嚚	-15.3707
騑	-15.3707
蠋	-15.3707
睠	-15.3707
姱	-15.3708
児	-15.3708
ぱ	-15.371
槚	-15.371
媟	-15.371
喰	-15.3714
ि	-15.3741
鮄	-15.3819
埌	-15.3822
禔	-15.3823
鱵	-15.3824
幷	-15.3824
蝟	-15.3825
鋐	-15.3825
玡	-15.3825
騄	-15.3825
櫜	-15.3825
賫	-15.3826
鮠	-15.3826
熛	-15.3829
祫	-15.3829
오	-15.3832
涢	-15.3942
嘢	-15.3942
鬐	-15.3943
觭	-15.3943
樛	-15.3944
雝	-15.3944
鞾	-15.3944
斵	-15.3944
転	-15.3945
荄	-15.4062
勷	-15.4063
國	-15.4063
齧	-15.4064
頔	-15.4064
媞	-15.4064
轢	-15.4065
掞	-15.4065
収	-15.4067
嶒	-15.4076
堎	-15.4184
醂	-15.4185
ờ	-15.4185
æ	-15.4185
ә	-15.4185
盝	-15.4185
甡	-15.4186
緼	-15.4187
慴	-15.4187
髽	-15.4187
跱	-15.4187
鴞	-15.4188
廌	-15.4188
재	-15.4307
ћ	-15.4308
浥	-15.4308
咁	-15.4309
霅	-15.4309
憙	-15.431
糺	-15.431
钖	-15.431
琎	-15.431
麕	-15.431
晩	-15.4311
欵	-15.4311
∴	-15.4312
旐	-15.4313
鑊	-15.4432
絅	-15.4433
枲	-15.4434
渼	-15.4434
埑	-15.4434
공	-15.4434
蕗	-15.4434
犨	-15.4434
祅	-15.4434
犂	-15.4435
踭	-15.4435
脰	-15.4435
绹	-15.4435
淏	-15.4435
罥	-15.4435
儗	-15.4435
珵	-15.4435
崿	-15.4435
巇	-15.4435
郷	-15.4436
帨	-15.444
ã	-15.4558
虒	-15.4558
稲	-15.4559
嬿	-15.456
殢	-15.456
矞	-15.4561
غ	-15.4561
穨	-15.4561
鵩	-15.4561
璹	-15.4561
陜	-15.4561
尫	-15.4561
►	-15.4562
氊	-15.4562
隩	-15.4563
태	-15.4564
ะ	-15.4574
洨	-15.4685
N	-15.4685
雰	-15.4688
韘	-15.4688
髠	-15.4689
灋	-15.4689
搨	-15.4689
들	-15.469
峣	-15.469
賔	-15.4691
罃	-15.4691
盻	-15.4691
문	-15.4691
渋	-15.4817
犽	-15.4818
肸	-15.4818
颎	-15.4819
飜	-15.4819
訚	-15.4819
楛	-15.4819
宂	-15.4819
璈	-15.4819
鲙	-15.482
梼	-15.4821
荖	-15.4822
세	-15.4946
있	-15.4948
釆	-15.4949
谞	-15.4949
芶	-15.495
幰	-15.495
ą	-15.4951
珦	-15.4951
劘	-15.4951
臺	-15.4951
毐	-15.4952
睒	-15.4952
禩	-15.4953
塲	-15.4953
嶲	-15.4953
	-15.4954
儵	-15.4954
孼	-15.4956
棓	-15.5079
屃	-15.5079
暻	-15.5082
猋	-15.5082
逈	-15.5083
무	-15.5083
杧	-15.5083
瘈	-15.5084
鲿	-15.5084
㖞	-15.5085
鳣	-15.5085
弾	-15.5085
罝	-15.5085
憯	-15.5085
鲗	-15.5086
揜	-15.5087
臿	-15.5089
∪	-15.5091
铚	-15.5217
垍	-15.5218
矻	-15.5218
╳	-15.5218
玭	-15.5218
袵	-15.5219
仏	-15.5219
奡	-15.5219
嚬	-15.5219
鎞	-15.5219
澁	-15.522
驎	-15.522
朞	-15.522
氿	-15.522
磵	-15.522
旟	-15.5221
煴	-15.5221
呾	-15.5224
氷	-15.5353
踧	-15.5355
ɪ	-15.5355
稾	-15.5356
鶡	-15.5356
詔	-15.5356
虀	-15.5357
ъ	-15.5357
鵄	-15.5357
蚡	-15.5357
槖	-15.5357
幙	-15.5357
覊	-15.5358
圌	-15.5359
순	-15.5361
応	-15.5362
न	-15.5379
欬	-15.5492
虵	-15.5494
栟	-15.5494
敔	-15.5495
旼	-15.5495
壖	-15.5495
	-15.5495
翾	-15.5495
滝	-15.5495
澚	-15.5496
劻	-15.5496
迍	-15.5496
璵	-15.5496
惓	-15.5497
疢	-15.5498
铓	-15.5498
त	-15.5527
荅	-15.5631
阬	-15.5633
踦	-15.5635
裀	-15.5635
ː	-15.5635
塝	-15.5635
ồ	-15.5635
觔	-15.5635
瑢	-15.5635
鉨	-15.5635
ک	-15.5636
旳	-15.5636
猨	-15.5636
호	-15.5636
饘	-15.5636
滆	-15.5637
崒	-15.5638
袀	-15.5638
╱	-15.5774
▽	-15.5775
중	-15.5778
羑	-15.5778
熇	-15.5778
麪	-15.5778
מ	-15.5778
觱	-15.5779
砠	-15.5779
靦	-15.5779
饟	-15.5779
賨	-15.5779
야	-15.578
斿	-15.5781
嗛	-15.5781
挼	-15.5781
ż	-15.5782
斠	-15.5782
佽	-15.5918
려	-15.5922
鍱	-15.5922
鶒	-15.5922
ヲ	-15.5923
당	-15.5923
遡	-15.5923
囓	-15.5923
嵓	-15.5924
瓟	-15.5924
姮	-15.5924
疭	-15.5925
嫪	-15.5925
缊	-15.5927
ę	-15.5928
唎	-15.5936
ไ	-15.5948
鸂	-15.6068
袆	-15.6069
犛	-15.6069
종	-15.6069
沇	-15.6069
昬	-15.607
斁	-15.6071
砵	-15.6071
浡	-15.6071
剸	-15.6071
缾	-15.6071
炟	-15.6072
熜	-15.6072
輙	-15.6072
涘	-15.6072
禨	-15.6073
妘	-15.6073
모	-15.6074
ธ	-15.6078
赑	-15.6215
鬶	-15.6217
생	-15.6218
汫	-15.6218
燚	-15.6219
愒	-15.622
ώ	-15.622
帀	-15.622
蹏	-15.622
髩	-15.622
蠭	-15.622
筊	-15.6221
삼	-15.6221
鮡	-15.6221
歔	-15.6222
繸	-15.6222
闚	-15.6222
鲖	-15.6223
면	-15.6243
曽	-15.6369
盨	-15.6369
帯	-15.637
綖	-15.637
墕	-15.637
禖	-15.6371
袠	-15.6371
泂	-15.6371
溁	-15.6371
郚	-15.6372
靑	-15.6372
矰	-15.6372
蠙	-15.6372
葅	-15.6373
轘	-15.6373
袗	-15.6374
े	-15.641
銙	-15.6523
涖	-15.6523
罏	-15.6523
광	-15.6524
菼	-15.6524
ë	-15.6524
梈	-15.6525
佷	-15.6525
僎	-15.6526
╠	-15.6526
蹷	-15.6526
叚	-15.6526
踳	-15.6526
鷇	-15.6526
嚭	-15.6527
牕	-15.6527
璲	-15.6527
癎	-15.6527
髪	-15.6528
學	-15.6531
鷸	-15.6678
준	-15.6679
悮	-15.6679
麐	-15.668
榅	-15.668
蟜	-15.6681
諕	-15.6681
槙	-15.6681
諴	-15.6681
贠	-15.6681
尒	-15.6682
嶢	-15.6682
歷	-15.6682
噏	-15.6682
豭	-15.6682
鱚	-15.6683
逴	-15.6683
廼	-15.6683
刲	-15.6684
바	-15.6685
↔	-15.6692
여	-15.6694
क	-15.6721
婼	-15.6838
ề	-15.6839
ת	-15.6839
璪	-15.684
嗢	-15.684
虡	-15.684
舃	-15.684
遝	-15.6841
瑑	-15.6841
倢	-15.6841
窰	-15.6841
姉	-15.6841
朘	-15.6841
緌	-15.6841
麑	-15.6846
會	-15.6849
沍	-15.6849
명	-15.6999
攧	-15.6999
트	-15.7
逌	-15.7
灝	-15.7
卐	-15.7
時	-15.7
苳	-15.7001
惸	-15.7001
ი	-15.7001
輋	-15.7001
ა	-15.7001
蕚	-15.7002
鎛	-15.7002
頞	-15.7002
瀁	-15.7002
罇	-15.7002
蘂	-15.7002
膴	-15.7003
饦	-15.7003
螣	-15.7003
ד	-15.7004
窓	-15.7004
┄	-15.7005
麹	-15.7007
­	-15.7159
絓	-15.7161
旴	-15.7162
匽	-15.7163
滍	-15.7163
鷃	-15.7164
塩	-15.7164
거	-15.7164
镋	-15.7165
姞	-15.7165
ש	-15.7165
ա	-15.7165
丼	-15.7165
螘	-15.7165
蜋	-15.7165
鸝	-15.7165
昞	-15.7165
駸	-15.7166
粃	-15.7166
銛	-15.7166
窾	-15.7166
杙	-15.7166
贇	-15.7166
鑱	-15.7167
纆	-15.7167
尃	-15.7168
비	-15.7169
แ	-15.7183
є	-15.7315
嘒	-15.7322
»	-15.7328
敻	-15.733
熺	-15.7331
眥	-15.7331
渀	-15.7331
褕	-15.7332
嫋	-15.7332
壠	-15.7332
峧	-15.7332
蔕	-15.7333
啗	-15.7333
鮋	-15.7333
匄	-15.7333
철	-15.7334
貤	-15.7334
鍠	-15.7334
	-15.7334
帟	-15.7335
◢	-15.7338
葢	-15.7338
頵	-15.7342
없	-15.7343
ी	-15.7366
	-15.7495
宍	-15.7496
揾	-15.75
尓	-15.75
傉	-15.75
嚐	-15.75
伬	-15.75
송	-15.75
棁	-15.75
鳽	-15.7501
鍚	-15.7501
闓	-15.7501
鬬	-15.7501
粬	-15.7501
橿	-15.7501
暎	-15.7501
籩	-15.7502
臛	-15.7502
閦	-15.7502
丱	-15.7502
葎	-15.7503
鳑	-15.7503
鉟	-15.7503
魋	-15.7504
晊	-15.7505
ө	-15.7506
镃	-15.7508
┅	-15.7666
瑆	-15.767
垾	-15.7671
≮	-15.7671
蠵	-15.7673
鏁	-15.7673
癥	-15.7673
赪	-15.7673
蚖	-15.7673
箒	-15.7674
懃	-15.7674
搊	-15.7675
戣	-15.7675
涴	-15.7675
読	-15.7675
姤	-15.7675
憸	-15.7676
鄮	-15.7676
営	-15.7678
诇	-15.7678
鮍	-15.768
锽	-15.7683
ู	-15.7684
嘽	-15.7686
埆	-15.7839
נ	-15.7847
堨	-15.7847
塭	-15.7848
咗	-15.7848
圐	-15.7848
崱	-15.7849
씨	-15.7849
勦	-15.7849
戇	-15.785
沕	-15.785
戯	-15.785
伃	-15.785
尨	-15.785
皛	-15.785
禇	-15.785
謏	-15.785
籛	-15.785
嶔	-15.7851
咈	-15.7851
抔	-15.7852
黮	-15.7854
媢	-15.7854
속	-15.7858
위	-15.7858
瑨	-15.7865
ป	-15.7865
畇	-15.8024
晙	-15.8024
䴙	-15.8026
靸	-15.8026
謩	-15.8026
媮	-15.8027
栞	-15.8027
鄫	-15.8027
盫	-15.8027
慓	-15.8027
穀	-15.8027
년	-15.8027
喒	-15.8028
淸	-15.8028
崄	-15.8028
梾	-15.8028
籞	-15.8028
ɛ	-15.8028
鱠	-15.8029
踡	-15.8029
鼃	-15.8029
ぁ	-15.8029
矟	-15.8029
箎	-15.8029
鞚	-15.8029
繙	-15.8029
挏	-15.8031
唶	-15.8032
繦	-15.8032
眛	-15.8046
藋	-15.8205
ỉ	-15.8206
涙	-15.8207
晢	-15.8207
예	-15.8208
剅	-15.8208
ן	-15.8208
図	-15.8208
圏	-15.8208
ָ	-15.8208
敧	-15.8209
碕	-15.8209
琫	-15.8209
讁	-15.8209
綯	-15.8209
搥	-15.821
顇	-15.821
蒍	-15.821
灩	-15.821
戞	-15.821
청	-15.821
ศ	-15.8211
籤	-15.8211
赩	-15.8211
闒	-15.8211
藳	-15.8211
£	-15.8211
糶	-15.8211
飐	-15.8212
蔊	-15.8212
鳂	-15.8212
娀	-15.8212
槜	-15.8213
날	-15.8213
勲	-15.8214
挐	-15.8214
ぇ	-15.8215
珖	-15.8215
य	-15.8243
隠	-15.8387
	-15.839
蔘	-15.8391
ß	-15.8392
漼	-15.8394
砢	-15.8394
裛	-15.8394
苶	-15.8395
貮	-15.8395
襴	-15.8395
鸑	-15.8396
牸	-15.8396
鳡	-15.8397
울	-15.8397
藂	-15.8397
碏	-15.8397
ŋ	-15.8397
罣	-15.8398
乗	-15.8398
ĩ	-15.8404
운	-15.8576
抜	-15.8578
欸	-15.8579
捴	-15.858
棬	-15.858
浛	-15.858
鄀	-15.8581
嶓	-15.8581
滈	-15.8582
譞	-15.8582
ณ	-15.8582
痏	-15.8583
瞤	-15.8583
岨	-15.8583
枿	-15.8584
輴	-15.8584
柲	-15.8584
稊	-15.8584
湋	-15.8584
臠	-15.8584
ぴ	-15.8584
絪	-15.8585
璚	-15.8585
憇	-15.8585
鎚	-15.8586
耰	-15.8586
丂	-15.8587
鼕	-15.8587
용	-15.8588
暕	-15.8588
난	-15.8591
娭	-15.877
渰	-15.8773
ổ	-15.8774
ự	-15.8774
蒭	-15.8774
ắ	-15.8774
석	-15.8775
ứ	-15.8775
창	-15.8775
喣	-15.8776
ấ	-15.8776
斅	-15.8776
眴	-15.8776
朶	-15.8776
颻	-15.8776
揑	-15.8777
麞	-15.8777
輗	-15.8777
韁	-15.8777
亀	-15.8778
踆	-15.8779
捜	-15.8779
與	-15.8779
═	-15.878
蚘	-15.8783
व	-15.8796
म	-15.88
금	-15.8964
ئ	-15.8967
≯	-15.8968
آ	-15.8969
་	-15.897
두	-15.897
菫	-15.897
慆	-15.897
玚	-15.8971
圙	-15.8971
徯	-15.8971
銶	-15.8972
棃	-15.8972
å	-15.8972
昫	-15.8972
‚	-15.8972
飣	-15.8973
穟	-15.8973
氂	-15.8973
蹚	-15.8973
阸	-15.8973
惙	-15.8974
濈	-15.8974
壊	-15.8974
노	-15.8974
腯	-15.8974
沘	-15.8974
徬	-15.8978
래	-15.898
機	-15.9163
圧	-15.9168
鷫	-15.9168
鮎	-15.917
桱	-15.9171
璏	-15.9171
峠	-15.9171
寧	-15.9172
姁	-15.9172
禤	-15.9172
溞	-15.9172
狖	-15.9172
泆	-15.9172
栐	-15.9172
踘	-15.9172
漻	-15.9173
趍	-15.9173
齕	-15.9173
승	-15.9173
鲬	-15.9173
桲	-15.9173
箙	-15.9173
黐	-15.9173
홍	-15.9174
과	-15.9174
骭	-15.9174
형	-15.9175
缐	-15.9175
봐	-15.9175
鋹	-15.9175
焼	-15.9175
溎	-15.9177
楢	-15.9177
荈	-15.9178
鰌	-15.9187
攞	-15.9188
產	-15.937
‐	-15.9371
«	-15.9372
锳	-15.9372
蚳	-15.9372
ἀ	-15.9373
盭	-15.9374
扺	-15.9374
澨	-15.9374
단	-15.9374
蓴	-15.9375
揔	-15.9375
斮	-15.9375
珫	-15.9375
嘚	-15.9375
栄	-15.9375
泬	-15.9375
藟	-15.9376
赬	-15.9376
駞	-15.9376
淲	-15.9376
趲	-15.9376
咍	-15.9376
鷩	-15.9376
従	-15.9376
耎	-15.9377
糬	-15.9377
悁	-15.9377
琭	-15.9377
禫	-15.9377
埫	-15.9377
靬	-15.9377
闕	-15.9378
후	-15.9378
紞	-15.9378
媺	-15.9378
跕	-15.9378
달	-15.9378
鉷	-15.938
琲	-15.9381
盬	-15.9382
骦	-15.9384
द	-15.9398
음	-15.9571
慠	-15.9582
業	-15.9583
幪	-15.9583
鐏	-15.9584
嵖	-15.9584
歠	-15.9584
竻	-15.9584
鬅	-15.9584
讟	-15.9584
塉	-15.9584
旉	-15.9584
噭	-15.9584
胾	-15.9585
嵚	-15.9585
渞	-15.9585
硁	-15.9585
峃	-15.9585
轝	-15.9585
覇	-15.9585
虖	-15.9585
ɔ	-15.9586
闤	-15.9586
∵	-15.9586
枻	-15.9586
鶱	-15.9586
趫	-15.9586
䜣	-15.9587
泇	-15.9587
爚	-15.9587
騂	-15.9588
绖	-15.9596
帰	-15.9606
ब	-15.9624
嗞	-15.9792
莙	-15.9796
侘	-15.9796
愊	-15.9797
砮	-15.9797
窋	-15.9797
韝	-15.9797
枏	-15.9797
憹	-15.9797
濇	-15.9797
柎	-15.9798
棡	-15.9798
甎	-15.9798
鹢	-15.9798
瑇	-15.9798
琁	-15.9798
袿	-15.9798
栘	-15.9798
掤	-15.9798
綵	-15.9799
牣	-15.9799
迆	-15.9799
槱	-15.9799
諟	-15.9799
墠	-15.98
筰	-15.98
鯈	-15.9801
嫺	-15.9802
파	-15.9802
佀	-15.9808
ं	-15.984
靉	-16.0009
湳	-16.0012
淩	-16.0012
硠	-16.0013
璮	-16.0013
드	-16.0013
饾	-16.0013
嚥	-16.0013
険	-16.0014
鵾	-16.0014
橑	-16.0014
褘	-16.0014
황	-16.0014
捲	-16.0014
鹠	-16.0015
屧	-16.0015
龑	-16.0015
ぺ	-16.0015
柷	-16.0015
墝	-16.0015
疐	-16.0016
讋	-16.0016
矴	-16.0016
婞	-16.0016
椓	-16.0016
네	-16.0017
縗	-16.0017
簰	-16.0017
庁	-16.0017
گ	-16.0017
趯	-16.0017
來	-16.0018
燀	-16.0032
까	-16.0042
स	-16.0045
發	-16.0232
்	-16.0234
髃	-16.0234
ủ	-16.0234
қ	-16.0234
綍	-16.0235
魨	-16.0236
觝	-16.0236
☉	-16.0236
鳯	-16.0236
夨	-16.0236
鋩	-16.0236
冚	-16.0236
曀	-16.0236
噀	-16.0236
屩	-16.0236
巟	-16.0237
恓	-16.0237
ụ	-16.0237
厎	-16.0237
欻	-16.0237
玹	-16.0237
盌	-16.0237
珓	-16.0237
絙	-16.0237
儛	-16.0237
悢	-16.0238
胔	-16.0238
禡	-16.0238
輮	-16.0238
晄	-16.0238
치	-16.0238
檇	-16.0238
飠	-16.0238
鋋	-16.0239
♥	-16.024
驊	-16.024
仚	-16.0241
ũ	-16.0243
간	-16.0245
통	-16.0246
데	-16.0261
籐	-16.046
إ	-16.046
杅	-16.046
蘗	-16.0461
恇	-16.0462
≫	-16.0462
唫	-16.0462
♪	-16.0463
袛	-16.0463
玼	-16.0464
壼	-16.0464
羮	-16.0464
頮	-16.0464
회	-16.0464
∏	-16.0464
卲	-16.0464
髢	-16.0464
懞	-16.0465
託	-16.0465
鶬	-16.0465
방	-16.0465
驒	-16.0465
憀	-16.0465
舎	-16.0465
餵	-16.0466
歘	-16.0466
頼	-16.0467
罳	-16.0468
腨	-16.0469
鱬	-16.0693
刬	-16.0694
軃	-16.0695
ח	-16.0695
鋗	-16.0695
倶	-16.0695
権	-16.0695
燏	-16.0695
焌	-16.0696
蓨	-16.0696
骙	-16.0696
狌	-16.0696
謌	-16.0696
璅	-16.0696
煃	-16.0696
麃	-16.0696
糒	-16.0696
禜	-16.0697
旍	-16.0697
嚩	-16.0697
廞	-16.0697
骹	-16.0697
鴗	-16.0697
矱	-16.0697
恡	-16.0697
喤	-16.0697
枒	-16.0697
漖	-16.0697
欝	-16.0697
敺	-16.0697
沨	-16.0698
郳	-16.0698
繄	-16.0698
█	-16.0698
摐	-16.0698
迻	-16.0698
پ	-16.0698
鱣	-16.0699
牴	-16.07
祃	-16.0701
嵕	-16.0702
甕	-16.0721
↗	-16.0927
骍	-16.0931
坣	-16.0931
譓	-16.0933
ử	-16.0933
≪	-16.0933
瑮	-16.0934
芣	-16.0934
喎	-16.0934
泃	-16.0934
ƒ	-16.0934
嚲	-16.0934
ע	-16.0934
潄	-16.0934
醨	-16.0934
踶	-16.0935
蔀	-16.0935
檿	-16.0935
朅	-16.0935
豗	-16.0935
秏	-16.0935
건	-16.0935
葇	-16.0935
倐	-16.0935
澴	-16.0935
憕	-16.0935
鐍	-16.0935
剉	-16.0935
혜	-16.0935
揵	-16.0936
侻	-16.0936
瑳	-16.0936
礚	-16.0936
沺	-16.0936
曶	-16.0936
槀	-16.0936
鑨	-16.0936
羂	-16.0937
薬	-16.0938
疁	-16.0939
銍	-16.0939
⋯	-16.094
櫏	-16.0941
験	-16.0943
韂	-16.0947
ल	-16.0954
ث	-16.1171
鬰	-16.1171
坬	-16.1172
郈	-16.1175
璥	-16.1175
邲	-16.1175
嚈	-16.1176
誃	-16.1176
襆	-16.1177
蟫	-16.1177
함	-16.1177
ּ	-16.1177
雊	-16.1177
暸	-16.1177
鰤	-16.1178
晈	-16.1178
搧	-16.1178
蝯	-16.1178
鉥	-16.1178
恠	-16.1178
僕	-16.1178
輭	-16.1179
醁	-16.1179
藷	-16.1179
逷	-16.1179
婳	-16.1179
관	-16.1179
駃	-16.1179
搉	-16.1179
釴	-16.1179
魣	-16.1179
睟	-16.1179
嫲	-16.1179
隃	-16.1179
鴂	-16.1179
ð	-16.118
廵	-16.118
狥	-16.118
璡	-16.118
婣	-16.118
噂	-16.118
嗃	-16.1181
緫	-16.1181
⊕	-16.1181
眡	-16.1181
閒	-16.1181
偟	-16.1182
甖	-16.1182
痟	-16.1183
병	-16.1183
ぅ	-16.1184
와	-16.1185
더	-16.1196
渕	-16.1424
별	-16.1425
両	-16.1425
腍	-16.1426
亸	-16.1427
攲	-16.1427
暦	-16.1427
프	-16.1427
匼	-16.1427
ল	-16.1427
啯	-16.1428
喼	-16.1428
塽	-16.1428
鵞	-16.1429
厾	-16.1429
啲	-16.1429
鷦	-16.1429
齰	-16.1429
墯	-16.1429
襌	-16.1429
昳	-16.1429
澼	-16.1429
詖	-16.143
孮	-16.143
炰	-16.143
猒	-16.143
砆	-16.143
慇	-16.143
睎	-16.143
鹯	-16.143
骫	-16.143
猺	-16.1431
酖	-16.1431
動	-16.1431
謷	-16.1431
罒	-16.1432
箑	-16.1432
羕	-16.1432
愙	-16.1433
鸜	-16.1433
평	-16.1434
ţ	-16.1437
用	-16.1437
對	-16.1437
癿	-16.1443
ग	-16.1462
忳	-16.1666
➤	-16.1672
汚	-16.168
齢	-16.1681
苨	-16.1682
亊	-16.1682
製	-16.1682
書	-16.1682
차	-16.1683
銹	-16.1683
絁	-16.1683
轤	-16.1684
単	-16.1684
簑	-16.1684
┃	-16.1684
鏻	-16.1685
禪	-16.1685
월	-16.1685
薁	-16.1685
偰	-16.1685
擕	-16.1685
觽	-16.1685
簉	-16.1686
백	-16.1686
酓	-16.1686
덕	-16.1686
麏	-16.1686
瘝	-16.1686
聤	-16.1686
鬒	-16.1687
遟	-16.1687
叆	-16.1688
심	-16.1688
람	-16.1688
䊨	-16.1689
โ	-16.169
린	-16.17
ข	-16.1713
┋	-16.1931
脽	-16.1937
譲	-16.194
旿	-16.1943
蓢	-16.1945
铦	-16.1945
임	-16.1946
鱈	-16.1946
頳	-16.1946
계	-16.1947
酇	-16.1947
妺	-16.1947
昜	-16.1947
黈	-16.1947
ہ	-16.1947
개	-16.1947
靰	-16.1948
礧	-16.1948
娵	-16.1948
硿	-16.1948
⊥	-16.1948
縯	-16.1948
嫮	-16.1948
跡	-16.1948
熤	-16.1948
禵	-16.1949
鼂	-16.1949
墡	-16.1949
尙	-16.1949
頍	-16.1949
훈	-16.1949
愐	-16.1949
譊	-16.1949
検	-16.195
隮	-16.195
狝	-16.195
œ	-16.195
皷	-16.195
麛	-16.195
㙾	-16.195
敭	-16.195
済	-16.1951
籧	-16.1951
陿	-16.1951
凖	-16.1952
⇔	-16.1952
氀	-16.1955
ु	-16.1963
प	-16.1969
悕	-16.2195
東	-16.2198
	-16.2213
體	-16.2213
哋	-16.2214
獮	-16.2215
夲	-16.2215
煕	-16.2215
阤	-16.2215
務	-16.2216
稺	-16.2216
曧	-16.2217
褎	-16.2217
踖	-16.2218
壆	-16.2218
爌	-16.2218
蜎	-16.2219
苺	-16.2219
岧	-16.2219
霣	-16.2219
鷰	-16.2219
禕	-16.2219
軏	-16.222
餬	-16.222
賵	-16.222
煠	-16.222
ג	-16.222
鵶	-16.222
篯	-16.222
綷	-16.222
篔	-16.2221
豮	-16.2221
鳁	-16.2221
馺	-16.2222
韠	-16.2223
僣	-16.2223
ĝ	-16.2231
ใ	-16.2252
좋	-16.2255
設	-16.2482
燝	-16.2489
稙	-16.2492
凃	-16.2492
鬖	-16.2492
搰	-16.2493
菶	-16.2493
玁	-16.2493
矼	-16.2494
◣	-16.2494
脢	-16.2495
咥	-16.2495
俍	-16.2495
垯	-16.2495
蛣	-16.2495
鬪	-16.2495
爁	-16.2495
鞡	-16.2496
რ	-16.2496
跶	-16.2496
凊	-16.2496
軨	-16.2496
薆	-16.2496
蝘	-16.2497
牐	-16.2497
戹	-16.2497
釂	-16.2497
鞿	-16.2497
顦	-16.2497
忞	-16.2497
潾	-16.2497
诐	-16.2497
灧	-16.2497
尩	-16.2497
裲	-16.2497
膋	-16.2497
枼	-16.2497
臮	-16.2497
역	-16.2497
佹	-16.2497
鲏	-16.2498
齮	-16.2498
蓏	-16.2498
皕	-16.2498
ọ	-16.2498
諐	-16.2498
躧	-16.2499
袓	-16.2499
薾	-16.2499
呰	-16.2499
唅	-16.2499
鄗	-16.25
淟	-16.25
ภ	-16.25
辠	-16.2501
직	-16.2501
怱	-16.2501
伷	-16.2502
晸	-16.251
르	-16.2519
술	-16.2547
縄	-16.2776
観	-16.2776
侁	-16.2778
ִ	-16.2778
∥	-16.2779
枓	-16.2779
埈	-16.278
ỳ	-16.278
阛	-16.278
奫	-16.278
ְ	-16.2781
僴	-16.2781
弶	-16.2781
ე	-16.2781
†	-16.2781
蜼	-16.2781
楳	-16.2782
胕	-16.2782
楬	-16.2782
환	-16.2782
愞	-16.2782
灂	-16.2782
迵	-16.2782
塼	-16.2782
竢	-16.2782
蘘	-16.2782
皪	-16.2782
坱	-16.2782
朒	-16.2782
頟	-16.2782
塙	-16.2782
芐	-16.2782
浟	-16.2783
פ	-16.2783
尠	-16.2783
螾	-16.2783
嬢	-16.2783
汸	-16.2783
韔	-16.2783
柹	-16.2783
嫏	-16.2783
輒	-16.2783
搤	-16.2783
殣	-16.2783
琀	-16.2783
窞	-16.2783
鹥	-16.2784
犼	-16.2784
耏	-16.2784
嚟	-16.2785
徴	-16.2785
憖	-16.2785
扱	-16.2785
ኁ	-16.2787
눈	-16.2794
嚞	-16.2794
甁	-16.2802
걸	-16.2805
러	-16.2825
長	-16.3068
泜	-16.3068
棪	-16.3069
	-16.3071
巎	-16.3071
镮	-16.3072
타	-16.3072
鴳	-16.3073
抶	-16.3074
拑	-16.3074
濶	-16.3075
灺	-16.3075
渉	-16.3075
貛	-16.3075
鯵	-16.3075
루	-16.3075
┆	-16.3076
斶	-16.3076
蜨	-16.3076
啍	-16.3076
嶤	-16.3076
僝	-16.3076
滙	-16.3076
躒	-16.3076
狛	-16.3076
颩	-16.3076
鵺	-16.3076
虙	-16.3077
물	-16.3077
毚	-16.3077
縁	-16.3077
讚	-16.3077
행	-16.3077
賹	-16.3077
碔	-16.3077
漴	-16.3077
魮	-16.3077
壝	-16.3077
擥	-16.3077
轓	-16.3078
雘	-16.3078
噁	-16.3078
袾	-16.3078
獘	-16.3078
翏	-16.3079
昷	-16.308
儚	-16.308
ṇ	-16.3081
爟	-16.3082
駆	-16.3083
鰟	-16.3086
왜	-16.3092
鄃	-16.3363
བ	-16.3367
런	-16.3368
酘	-16.337
처	-16.3372
榑	-16.3373
鬹	-16.3375
罈	-16.3376
虣	-16.3376
辀	-16.3376
慅	-16.3377
鸘	-16.3378
廥	-16.3378
薉	-16.3378
	-16.3378
辿	-16.3378
呫	-16.3378
饤	-16.3378
慬	-16.3378
鐻	-16.3378
畷	-16.3379
ם	-16.3379
臝	-16.3379
誾	-16.3379
姦	-16.3379
刦	-16.3379
衺	-16.3379
ḥ	-16.3379
谿	-16.3379
詶	-16.3379
紒	-16.338
黡	-16.338
煿	-16.338
跧	-16.338
馹	-16.338
傜	-16.338
纕	-16.338
柂	-16.338
倴	-16.338
雟	-16.338
脤	-16.338
進	-16.338
鵖	-16.338
沬	-16.338
斸	-16.338
塨	-16.3381
岠	-16.3381
ṣ	-16.3381
鳲	-16.3381
軽	-16.3381
宧	-16.3382
╬	-16.3383
珤	-16.3682
間	-16.3683
玗	-16.3686
獚	-16.3686
瑸	-16.3688
洭	-16.3688
鷞	-16.3688
魌	-16.3689
檵	-16.3689
鹲	-16.369
颸	-16.369
褵	-16.369
洈	-16.369
佖	-16.369
鴴	-16.369
帬	-16.369
규	-16.3691
籝	-16.3691
충	-16.3691
扢	-16.3691
壱	-16.3691
屴	-16.3691
┐	-16.3691
জ	-16.3691
ї	-16.3691
鼒	-16.3691
蝀	-16.3691
祾	-16.3691
皥	-16.3691
踠	-16.3691
식	-16.3692
„	-16.3692
劚	-16.3692
簴	-16.3692
挻	-16.3692
醰	-16.3692
鄽	-16.3692
鬱	-16.3692
레	-16.3692
鶂	-16.3692
ษ	-16.3693
欑	-16.3693
嶪	-16.3693
柅	-16.3693
侜	-16.3693
鮸	-16.3693
洟	-16.3693
呬	-16.3693
耉	-16.3693
蒱	-16.3694
酅	-16.3694
효	-16.3694
潩	-16.3694
騧	-16.3694
襚	-16.3694
罛	-16.3695
槑	-16.3695
搒	-16.3695
莋	-16.3695
손	-16.3695
巑	-16.3696
龁	-16.3696
擡	-16.3696
噞	-16.3696
蕣	-16.3698
並	-16.37
腇	-16.37
昒	-16.3705
할	-16.3713
같	-16.3713
䂬	-16.3974
ད	-16.3999
質	-16.4003
矖	-16.4004
偊	-16.4006
行	-16.4009
焠	-16.4009
령	-16.401
悾	-16.4011
ն	-16.4012
◥	-16.4012
蝱	-16.4012
ṭ	-16.4013
檟	-16.4013
硋	-16.4013
鮊	-16.4013
屼	-16.4013
屲	-16.4013
菂	-16.4013
颷	-16.4013
咡	-16.4013
鴒	-16.4013
鞉	-16.4014
樠	-16.4014
笻	-16.4014
鶺	-16.4014
讔	-16.4014
碪	-16.4014
摵	-16.4014
椶	-16.4014
檮	-16.4014
渢	-16.4014
嘷	-16.4014
蓚	-16.4014
処	-16.4015
洴	-16.4015
迴	-16.4015
蟇	-16.4015
咅	-16.4015
窎	-16.4015
睆	-16.4015
韍	-16.4015
杕	-16.4015
悆	-16.4015
牜	-16.4015
酧	-16.4015
淈	-16.4015
䴓	-16.4015
椑	-16.4016
齾	-16.4016
緆	-16.4016
乸	-16.4016
梱	-16.4016
靁	-16.4016
裋	-16.4016
雑	-16.4016
愽	-16.4016
壄	-16.4016
裈	-16.4017
篨	-16.4018
跐	-16.4018
継	-16.4018
ถ	-16.4028
ื	-16.4045
ག	-16.4334
內	-16.434
크	-16.4343
鳠	-16.4343
傞	-16.4343
囲	-16.4344
舩	-16.4344
桮	-16.4345
芼	-16.4345
빈	-16.4345
暁	-16.4345
籯	-16.4345
љ	-16.4345
崪	-16.4346
柤	-16.4346
柸	-16.4346
咾	-16.4346
羃	-16.4346
潚	-16.4346
岺	-16.4346
詝	-16.4346
猄	-16.4346
卨	-16.4346
浰	-16.4346
猀	-16.4346
斉	-16.4346
褌	-16.4346
褾	-16.4346
항	-16.4346
禟	-16.4346
	-16.4346
薗	-16.4346
覼	-16.4347
齏	-16.4347
駉	-16.4347
絫	-16.4347
厰	-16.4347
僩	-16.4347
柾	-16.4347
窻	-16.4347
柈	-16.4348
彯	-16.4348
鰧	-16.4348
黶	-16.4348
ợ	-16.4348
반	-16.4348
奨	-16.4348
포	-16.4348
闬	-16.4348
韈	-16.4348
煑	-16.4348
嶰	-16.4348
∝	-16.4348
僄	-16.4348
郙	-16.4348
瑈	-16.4348
諫	-16.4348
피	-16.4348
轜	-16.4348
鲾	-16.4348
髈	-16.4348
佪	-16.4348
倈	-16.4348
諝	-16.4349
剟	-16.4349
汋	-16.4349
孅	-16.4349
媜	-16.4349
齁	-16.4349
墐	-16.4349
秔	-16.4349
埳	-16.435
蹔	-16.435
烱	-16.435
∂	-16.4352
硙	-16.4352
鸃	-16.4352
胷	-16.4352
ญ	-16.4353
㙡	-16.436
ř	-16.4363
अ	-16.4365
揺	-16.4369
ज	-16.4373
島	-16.4631
媖	-16.4679
覚	-16.4684
專	-16.4686
綌	-16.4689
萐	-16.4689
蹅	-16.4689
돌	-16.4689
暲	-16.469
馉	-16.4691
熿	-16.4691
齒	-16.4691
貒	-16.4691
皰	-16.4691
憃	-16.4691
廸	-16.4692
衕	-16.4692
駈	-16.4692
脁	-16.4692
浤	-16.4692
堮	-16.4692
準	-16.4692
滱	-16.4692
羖	-16.4692
刋	-16.4692
舠	-16.4692
暵	-16.4693
鷈	-16.4693
鞵	-16.4693
亷	-16.4693
鱂	-16.4693
琹	-16.4693
晼	-16.4693
檥	-16.4693
鼪	-16.4693
蓱	-16.4693
垜	-16.4694
曚	-16.4694
暅	-16.4694
楶	-16.4694
縡	-16.4694
嚫	-16.4694
貎	-16.4695
摂	-16.4695
諆	-16.4695
痎	-16.4695
雚	-16.4695
弐	-16.4696
玆	-16.4699
감	-16.4699
버	-16.47
燂	-16.4704
터	-16.4708
ő	-16.471
못	-16.4714
ह	-16.4727
瑔	-16.5033
ར	-16.5041
谼	-16.5044
磏	-16.5045
艎	-16.5046
過	-16.5047
騤	-16.5047
轪	-16.5047
ý	-16.5047
ո	-16.5047
昚	-16.5048
栭	-16.5048
姙	-16.5048
訑	-16.5048
檞	-16.5048
湝	-16.5048
爲	-16.5048
枬	-16.5049
厪	-16.5049
閲	-16.5049
梴	-16.5049
媕	-16.5049
雱	-16.5049
璝	-16.5049
鵼	-16.5049
磈	-16.5049
纎	-16.5049
擫	-16.5049
枊	-16.5049
蟢	-16.505
嵸	-16.505
纇	-16.505
髮	-16.505
◤	-16.505
旵	-16.505
胊	-16.505
繫	-16.505
î	-16.505
숙	-16.505
	-16.505
颭	-16.505
翐	-16.505
卭	-16.505
磑	-16.505
儳	-16.5051
嵂	-16.5051
胻	-16.5051
臜	-16.5051
闠	-16.5051
靿	-16.5051
旝	-16.5051
瞶	-16.5051
竚	-16.5051
獧	-16.5051
蠒	-16.5051
鷖	-16.5051
痌	-16.5051
鶵	-16.5051
賮	-16.5051
墦	-16.5051
簹	-16.5051
齗	-16.5052
緵	-16.5052
衊	-16.5052
椆	-16.5052
慭	-16.5052
薶	-16.5052
簨	-16.5052
忼	-16.5053
畟	-16.5053
涊	-16.5054
筤	-16.5055
値	-16.5055
ÿ	-16.5056
ė	-16.5064
널	-16.5069
掲	-16.5414
티	-16.5416
록	-16.5417
鱻	-16.5417
獏	-16.5417
蕅	-16.5417
無	-16.5417
약	-16.5417
瞷	-16.5417
盠	-16.5417
悤	-16.5417
騋	-16.5418
瑴	-16.5418
乛	-16.5418
苅	-16.5418
砫	-16.5419
豋	-16.5419
筳	-16.5419
猰	-16.5419
皜	-16.5419
姶	-16.5419
寠	-16.5419
涬	-16.5419
缻	-16.5419
鹴	-16.5419
絣	-16.5419
ে	-16.5419
림	-16.5419
복	-16.5419
匳	-16.5419
墈	-16.5419
䳭	-16.5419
耤	-16.5419
騞	-16.5419
瀜	-16.542
髆	-16.542
騕	-16.542
咶	-16.542
裯	-16.542
邆	-16.542
覰	-16.542
僽	-16.542
釃	-16.542
咮	-16.542
祤	-16.542
鉶	-16.542
硏	-16.542
ү	-16.542
혁	-16.542
饁	-16.5421
笭	-16.5421
র	-16.5421
鉌	-16.5421
寯	-16.5421
玅	-16.5421
채	-16.5421
啑	-16.5421
奤	-16.5421
訬	-16.5421
鉧	-16.5421
吚	-16.5421
凴	-16.5421
圞	-16.5421
胵	-16.5421
猯	-16.5421
鬋	-16.5421
惷	-16.5422
鮻	-16.5422
蚑	-16.5422
槇	-16.5422
傃	-16.5422
臯	-16.5423
번	-16.5423
铻	-16.5423
≒	-16.5424
掯	-16.5424
출	-16.5424
搘	-16.5425
晅	-16.5427
¦	-16.5434
것	-16.5434
저	-16.5444
種	-16.5782
싶	-16.5791
榰	-16.5793
변	-16.5796
џ	-16.5799
배	-16.5799
湼	-16.58
姌	-16.58
齘	-16.5801
근	-16.5801
熥	-16.5801
완	-16.5801
殑	-16.5801
芧	-16.5801
龂	-16.5802
酦	-16.5802
	-16.5802
儹	-16.5802
礲	-16.5802
縿	-16.5802
霨	-16.5802
熸	-16.5803
捄	-16.5803
歈	-16.5803
姧	-16.5803
钁	-16.5803
隟	-16.5804
巣	-16.5804
☞	-16.5804
襍	-16.5804
詗	-16.5804
咺	-16.5804
婬	-16.5804
枑	-16.5804
鑕	-16.5804
亯	-16.5804
櫑	-16.5804
詻	-16.5804
鍑	-16.5804
轒	-16.5804
蝝	-16.5804
䴕	-16.5804
娡	-16.5804
幨	-16.5804
綀	-16.5805
眎	-16.5805
鱥	-16.5805
彟	-16.5805
┼	-16.5805
鹔	-16.5805
恉	-16.5805
糓	-16.5805
焫	-16.5805
蹵	-16.5805
璂	-16.5805
紾	-16.5805
僶	-16.5805
秪	-16.5805
姽	-16.5805
賷	-16.5805
蔿	-16.5805
鷯	-16.5805
穄	-16.5805
黵	-16.5805
玃	-16.5805
巃	-16.5805
毉	-16.5805
歜	-16.5806
류	-16.5806
韲	-16.5806
當	-16.5806
刵	-16.5806
筸	-16.5806
澐	-16.5806
窌	-16.5806
甞	-16.5806
旣	-16.5806
剏	-16.5806
黙	-16.5806
嘑	-16.5806
애	-16.5807
棅	-16.5807
엔	-16.5808
誴	-16.5808
鬴	-16.5808
磎	-16.5809
洏	-16.5809
岏	-16.5809
頀	-16.5809
扥	-16.581
個	-16.581
茙	-16.5811
때	-16.5811
권	-16.5812
叾	-16.5812
겠	-16.5812
鏤	-16.5812
垔	-16.5823
숨	-16.5823
┬	-16.6194
桼	-16.6197
靆	-16.6198
摠	-16.6198
鎡	-16.6199
跩	-16.6199
ذ	-16.62
鱒	-16.62
禴	-16.6202
ể	-16.6202
鯷	-16.6202
磹	-16.6202
추	-16.6202
戠	-16.6202
旡	-16.6202
莿	-16.6202
歯	-16.6203
礿	-16.6203
傪	-16.6203
כ	-16.6203
臙	-16.6203
杮	-16.6203
焴	-16.6203
煐	-16.6203
醻	-16.6203
廣	-16.6203
蝍	-16.6203
霂	-16.6203
慺	-16.6203
䴘	-16.6204
菻	-16.6204
慜	-16.6204
槓	-16.6204
ր	-16.6204
肙	-16.6204
錬	-16.6204
鸎	-16.6204
┊	-16.6204
婠	-16.6204
鬾	-16.6204
鈊	-16.6204
蹍	-16.6204
霙	-16.6204
痁	-16.6204
圴	-16.6204
嵗	-16.6204
硜	-16.6205
韮	-16.6205
靧	-16.6205
膰	-16.6205
哱	-16.6205
壍	-16.6205
鑢	-16.6205
ס	-16.6205
瘄	-16.6205
駬	-16.6205
逹	-16.6205
襢	-16.6205
輠	-16.6205
á	-16.6206
曺	-16.6206
櫩	-16.6206
寽	-16.6206
鈲	-16.6206
醿	-16.6206
絻	-16.6206
북	-16.6206
閧	-16.6206
睍	-16.6206
帡	-16.6206
毼	-16.6206
襮	-16.6207
嶭	-16.6207
嘐	-16.6207
咘	-16.6207
驌	-16.6207
衝	-16.6208
堈	-16.6208
驲	-16.6209
藔	-16.6209
란	-16.621
않	-16.6211
็	-16.6215
僡	-16.6216
으	-16.6218
쎹	-16.6221
ķ	-16.6224
馂	-16.6226
입	-16.6272
娒	-16.6611
མ	-16.6612
각	-16.6614
鉎	-16.6614
蝑	-16.6614
冮	-16.6616
鱀	-16.6617
垇	-16.6617
騣	-16.6618
俫	-16.6619
鬙	-16.6619
梫	-16.6619
특	-16.6619
향	-16.6619
ü	-16.6619
靮	-16.662
讃	-16.662
螠	-16.662
惏	-16.662
鞓	-16.662
헌	-16.662
ʊ	-16.662
디	-16.6621
실	-16.6621
飂	-16.6621
鼛	-16.6621
劏	-16.6621
澙	-16.6621
	-16.6621
煟	-16.6621
冓	-16.6621
坉	-16.6621
螿	-16.6621
譸	-16.6621
倳	-16.6621
齓	-16.6621
唲	-16.6621
剚	-16.6621
忔	-16.6621
帢	-16.6621
槺	-16.6621
峿	-16.6621
駹	-16.6621
唃	-16.6621
衖	-16.6621
謁	-16.6621
鶗	-16.6621
靃	-16.6622
滮	-16.6622
菎	-16.6622
黇	-16.6622
靫	-16.6622
閴	-16.6622
峘	-16.6622
蹓	-16.6622
嚻	-16.6622
紝	-16.6622
厷	-16.6622
胐	-16.6622
琖	-16.6622
媠	-16.6622
鵎	-16.6623
坋	-16.6623
滻	-16.6623
畮	-16.6623
隲	-16.6623
冨	-16.6623
길	-16.6623
蠪	-16.6623
熯	-16.6623
侲	-16.6623
蚼	-16.6623
외	-16.6623
櫽	-16.6624
鞗	-16.6624
脳	-16.6624
惵	-16.6624
芔	-16.6624
價	-16.6625
闢	-16.6625
爓	-16.6627
數	-16.6627
猘	-16.6628
친	-16.6629
缞	-16.6629
燖	-16.663
į	-16.6633
髬	-16.6636
蹡	-16.664
ņ	-16.6643
ड	-16.6648
ང	-16.7047
妚	-16.7047
褉	-16.7049
椛	-16.7049
飀	-16.7052
塀	-16.7052
巭	-16.7052
蒢	-16.7052
電	-16.7052
灜	-16.7052
屻	-16.7053
║	-16.7053
鄌	-16.7053
ء	-16.7053
ʒ	-16.7053
⊿	-16.7053
燡	-16.7054
嗈	-16.7054
哫	-16.7054
倗	-16.7054
轇	-16.7054
麨	-16.7054
綎	-16.7055
濙	-16.7055
谽	-16.7055
爀	-16.7055
溠	-16.7055
鬑	-16.7055
缷	-16.7055
ゐ	-16.7055
鸌	-16.7055
麚	-16.7055
娖	-16.7055
谹	-16.7055
牗	-16.7055
鑛	-16.7055
皊	-16.7055
魾	-16.7055
枱	-16.7056
ぢ	-16.7056
檦	-16.7056
烎	-16.7056
羱	-16.7056
醽	-16.7056
蔔	-16.7056
袨	-16.7056
彆	-16.7056
嶅	-16.7056
渃	-16.7056
皭	-16.7056
鸇	-16.7056
豤	-16.7056
橅	-16.7056
潬	-16.7056
誖	-16.7056
嵲	-16.7057
倛	-16.7057
髾	-16.7057
捨	-16.7057
橜	-16.7057
鍧	-16.7057
ק	-16.7057
杬	-16.7057
謿	-16.7057
曵	-16.7057
淢	-16.7057
窸	-16.7057
緑	-16.7057
襀	-16.7057
鄅	-16.7057
疻	-16.7057
醟	-16.7057
烖	-16.7057
鎯	-16.7057
殥	-16.7057
祴	-16.7057
窐	-16.7057
্	-16.7057
埪	-16.7057
荗	-16.7057
俷	-16.7058
僾	-16.7058
衟	-16.7058
蒓	-16.7058
蟟	-16.7058
燫	-16.7059
鱊	-16.7059
勩	-16.7059
悽	-16.7059
僔	-16.7059
鍐	-16.7059
楪	-16.706
婎	-16.7061
裷	-16.7061
던	-16.7062
儸	-16.7062
◊	-16.7065
棯	-16.7065
抳	-16.7065
埰	-16.7068
玊	-16.7069
질	-16.7077
च	-16.7084
裝	-16.7485
狋	-16.7489
計	-16.7491
靘	-16.7494
毑	-16.7497
袚	-16.75
採	-16.7501
洢	-16.7501
戭	-16.7502
蔃	-16.7504
诪	-16.7506
篢	-16.7506
較	-16.7506
篴	-16.7507
锧	-16.7507
荙	-16.7507
騨	-16.7507
鯮	-16.7508
觺	-16.7508
嫇	-16.7508
熱	-16.7508
澭	-16.7508
痡	-16.7509
ט	-16.7509
罭	-16.7509
钘	-16.7509
鱅	-16.7509
ђ	-16.7509
夋	-16.7509
眜	-16.751
摎	-16.751
金	-16.751
餧	-16.751
峛	-16.751
悊	-16.751
ს	-16.751
虩	-16.751
鞆	-16.751
轔	-16.751
ฟ	-16.751
挒	-16.751
碝	-16.751
踰	-16.751
儜	-16.7511
沋	-16.7511
尞	-16.7511
鵽	-16.7511
涍	-16.7511
鄑	-16.7511
跅	-16.7511
榾	-16.7511
擭	-16.7511
貐	-16.7511
晜	-16.7511
睩	-16.7511
嚤	-16.7511
瀌	-16.7511
滪	-16.7511
毦	-16.7511
ï	-16.7511
豻	-16.7511
萮	-16.7511
♩	-16.7512
籋	-16.7512
翂	-16.7512
荵	-16.7512
斨	-16.7512
酳	-16.7512
饎	-16.7512
歕	-16.7512
鰶	-16.7512
皡	-16.7512
麀	-16.7512
薿	-16.7512
ṅ	-16.7512
즈	-16.7512
滛	-16.7512
寑	-16.7513
臢	-16.7513
訿	-16.7513
霿	-16.7513
齅	-16.7514
縆	-16.7514
語	-16.7514
鮧	-16.7514
犎	-16.7514
妠	-16.7515
했	-16.7515
鞌	-16.7515
穵	-16.7515
鐇	-16.7515
樂	-16.7516
吔	-16.7516
蹛	-16.7518
발	-16.7522
髵	-16.7522
ํ	-16.7527
蘆	-16.7536
줄	-16.756
떠	-16.7975
鯱	-16.7979
筶	-16.7981
카	-16.7982
瓻	-16.7983
ّ	-16.7983
咵	-16.7983
鬷	-16.7983
匊	-16.7983
硊	-16.7983
禑	-16.7983
❤	-16.7984
喺	-16.7984
沶	-16.7984
鍮	-16.7984
瓩	-16.7984
唝	-16.7984
檽	-16.7984
嫭	-16.7984
ҳ	-16.7984
樉	-16.7985
騶	-16.7985
ớ	-16.7985
淓	-16.7985
竂	-16.7985
	-16.7985
霡	-16.7985
繐	-16.7985
礌	-16.7986
褖	-16.7986
ʃ	-16.7986
糼	-16.7986
欐	-16.7986
醳	-16.7986
墫	-16.7986
鼫	-16.7986
輷	-16.7986
僜	-16.7986
嬝	-16.7986
註	-16.7986
토	-16.7986
╮	-16.7986
檖	-16.7986
碨	-16.7987
滵	-16.7987
觕	-16.7987
巠	-16.7987
傫	-16.7987
鮗	-16.7987
脡	-16.7987
筥	-16.7987
彴	-16.7987
饌	-16.7987
岒	-16.7987
槥	-16.7987
眀	-16.7987
〡	-16.7987
矹	-16.7987
禬	-16.7987
絇	-16.7987
偭	-16.7987
辒	-16.7988
膍	-16.7988
唭	-16.7988
篸	-16.7988
ُ	-16.7988
抆	-16.7988
鈡	-16.7988
祋	-16.7988
賑	-16.7988
鼖	-16.7988
猼	-16.7988
杄	-16.7988
礰	-16.7988
腷	-16.7988
독	-16.7988
炧	-16.7988
殜	-16.7988
蟧	-16.7988
錧	-16.7988
莚	-16.7988
饙	-16.7988
肈	-16.7988
牷	-16.7988
살	-16.7989
徦	-16.7989
屨	-16.7989
穅	-16.7989
葊	-16.7989
€	-16.7989
館	-16.7989
稌	-16.7989
鮃	-16.799
鹙	-16.799
導	-16.799
乣	-16.799
楅	-16.7992
坴	-16.7992
髲	-16.7992
豓	-16.7993
蓷	-16.7993
력	-16.7996
되	-16.8
∀	-16.8
ħ	-16.8005
온	-16.801
捘	-16.8014
ो	-16.8015
끝	-16.8016
場	-16.8478
跰	-16.8479
籾	-16.848
獛	-16.848
ས	-16.848
罙	-16.8481
澛	-16.8481
┓	-16.8483
買	-16.8483
竇	-16.8483
ữ	-16.8483
╰	-16.8484
艣	-16.8484
饳	-16.8485
媭	-16.8485
њ	-16.8485
萣	-16.8485
漋	-16.8485
嫰	-16.8485
仼	-16.8485
鈆	-16.8485
鋄	-16.8486
魫	-16.8486
礜	-16.8486
椞	-16.8486
춘	-16.8486
薴	-16.8486
嗰	-16.8486
圑	-16.8486
워	-16.8486
鮦	-16.8486
ব	-16.8486
ி	-16.8486
瞆	-16.8486
თ	-16.8486
ন	-16.8486
飊	-16.8486
黴	-16.8486
彄	-16.8486
焄	-16.8486
諭	-16.8486
駓	-16.8486
侹	-16.8486
醾	-16.8486
隷	-16.8486
족	-16.8486
憭	-16.8487
釪	-16.8487
抺	-16.8487
狶	-16.8487
醊	-16.8487
瑅	-16.8487
범	-16.8487
碻	-16.8487
窔	-16.8487
넌	-16.8487
ի	-16.8487
廱	-16.8487
ნ	-16.8487
녀	-16.8487
搵	-16.8487
饍	-16.8487
璕	-16.8487
猲	-16.8487
ヅ	-16.8487
梠	-16.8487
煻	-16.8487
蛃	-16.8487
漎	-16.8488
韨	-16.8488
鏦	-16.8488
黓	-16.8488
黕	-16.8488
譾	-16.8488
貆	-16.8488
廩	-16.8488
劖	-16.8488
ە	-16.8488
錍	-16.8488
薖	-16.8488
庲	-16.8489
黭	-16.8489
嬬	-16.8489
枟	-16.8489
ۇ	-16.8489
鈈	-16.8489
頖	-16.8489
棜	-16.8489
壒	-16.849
師	-16.849
諓	-16.849
噣	-16.849
腲	-16.849
罠	-16.8491
縰	-16.8491
門	-16.8493
礠	-16.8493
處	-16.8495
었	-16.8495
蘵	-16.8497
開	-16.8498
져	-16.8505
᩠	-16.8508
꾸	-16.8516
¬	-16.8517
沖	-16.9003
淔	-16.9005
欉	-16.9005
莝	-16.9006
剕	-16.9007
합	-16.9007
嶐	-16.9009
騢	-16.901
蝲	-16.901
侓	-16.901
蠁	-16.901
魖	-16.901
鱏	-16.901
蟉	-16.901
狫	-16.9011
櫍	-16.9011
陞	-16.9011
谺	-16.9011
苢	-16.9012
趷	-16.9012
敩	-16.9012
顕	-16.9012
齩	-16.9012
廔	-16.9012
嚘	-16.9012
鋙	-16.9012
甔	-16.9012
睱	-16.9012
菐	-16.9012
ֵ	-16.9012
珸	-16.9012
眘	-16.9012
ז	-16.9013
垹	-16.9013
奼	-16.9013
輵	-16.9013
봉	-16.9013
적	-16.9013
蟅	-16.9013
鴠	-16.9013
䶮	-16.9013
砅	-16.9013
絝	-16.9013
聡	-16.9013
窫	-16.9013
箣	-16.9013
贔	-16.9013
ო	-16.9013
竁	-16.9013
邘	-16.9013
娸	-16.9013
鞙	-16.9013
ლ	-16.9013
呿	-16.9013
絿	-16.9013
點	-16.9013
綪	-16.9013
幦	-16.9013
穣	-16.9013
鴃	-16.9013
鯓	-16.9013
僸	-16.9014
祘	-16.9014
鬺	-16.9014
貣	-16.9014
垺	-16.9014
獖	-16.9014
樕	-16.9014
怗	-16.9014
遬	-16.9014
鐼	-16.9014
흥	-16.9014
塈	-16.9014
鄡	-16.9014
礨	-16.9014
靷	-16.9014
柶	-16.9014
荍	-16.9014
渁	-16.9014
骉	-16.9014
喓	-16.9014
鑅	-16.9014
頲	-16.9014
劗	-16.9014
飖	-16.9014
慱	-16.9014
腶	-16.9014
霝	-16.9014
葴	-16.9014
蟷	-16.9014
庬	-16.9014
馌	-16.9014
琄	-16.9015
萚	-16.9015
黁	-16.9015
羭	-16.9015
撦	-16.9015
蹢	-16.9015
韎	-16.9015
曨	-16.9016
齍	-16.9016
镴	-16.9016
龍	-16.9016
餈	-16.9016
漀	-16.9016
冄	-16.9016
磞	-16.9016
鵻	-16.9016
鵕	-16.9017
집	-16.9017
취	-16.9017
婓	-16.9017
불	-16.9017
鵔	-16.9018
匂	-16.9018
衜	-16.9018
纴	-16.9019
蟺	-16.9019
昈	-16.9019
寊	-16.902
秺	-16.902
얼	-16.902
늘	-16.9021
隂	-16.9021
테	-16.9021
알	-16.9022
棽	-16.9027
ŭ	-16.9038
베	-16.9043
भ	-16.9047
蘋	-16.9556
択	-16.9559
└	-16.9559
氺	-16.9561
槩	-16.9563
槫	-16.9563
艅	-16.9564
襛	-16.9564
ե	-16.9564
籣	-16.9565
訔	-16.9565
一	-16.9565
க	-16.9565
傳	-16.9565
扜	-16.9566
礵	-16.9566
漦	-16.9566
癓	-16.9566
ʻ	-16.9566
撋	-16.9566
玏	-16.9567
不	-16.9567
嚜	-16.9567
♡	-16.9567
漥	-16.9567
窵	-16.9567
傱	-16.9567
輬	-16.9567
축	-16.9567
嫈	-16.9568
翯	-16.9568
論	-16.9568
鮆	-16.9568
誂	-16.9568
업	-16.9568
脃	-16.9568
鸕	-16.9568
偘	-16.9568
絖	-16.9568
讱	-16.9568
垿	-16.9568
紃	-16.9568
轕	-16.9568
釱	-16.9568
┏	-16.9568
墺	-16.9568
謑	-16.9568
粺	-16.9568
偆	-16.9568
鼌	-16.9568
罉	-16.9568
惄	-16.9569
篛	-16.9569
絏	-16.9569
릉	-16.9569
隥	-16.9569
甀	-16.9569
鸞	-16.9569
ἐ	-16.9569
嘡	-16.9569
烇	-16.9569
欂	-16.9569
鶖	-16.9569
犠	-16.9569
獦	-16.9569
簳	-16.9569
欃	-16.9569
噰	-16.9569
ַ	-16.9569
穋	-16.9569
赒	-16.9569
	-16.9569
ি	-16.9569
猳	-16.9569
痆	-16.9569
洤	-16.9569
傮	-16.9569
趹	-16.9569
晣	-16.9569
颿	-16.9569
團	-16.9569
將	-16.9569
汳	-16.957
葰	-16.957
昐	-16.957
蹝	-16.957
傔	-16.957
絃	-16.957
騊	-16.957
倰	-16.957
嶻	-16.957
黳	-16.957
甽	-16.957
擧	-16.957
湩	-16.957
冧	-16.957
嗸	-16.957
趂	-16.957
駴	-16.957
弆	-16.957
吷	-16.957
恆	-16.9571
呑	-16.9571
葹	-16.9571
晛	-16.9571
蕯	-16.9571
屇	-16.9571
َ	-16.9571
杘	-16.9571
餤	-16.9571
殗	-16.9571
嘠	-16.9571
從	-16.9572
圠	-16.9572
곳	-16.9572
啀	-16.9572
禥	-16.9572
湅	-16.9572
鏳	-16.9572
唻	-16.9572
罋	-16.9573
涷	-16.9574
작	-16.9575
媻	-16.9575
該	-16.9575
筈	-16.9576
⇒	-16.9576
組	-16.9577
ź	-16.958
빠	-16.9583
掟	-16.9583
표	-16.9584
매	-16.9605
鄾	-17.0136
筓	-17.0142
度	-17.0147
악	-17.0149
올	-17.015
ா	-17.0152
贙	-17.0152
峚	-17.0152
訩	-17.0153
邉	-17.0153
蚛	-17.0153
愻	-17.0153
緺	-17.0153
鐎	-17.0154
驔	-17.0154
蔄	-17.0154
斄	-17.0154
癧	-17.0154
鼏	-17.0154
맘	-17.0154
泙	-17.0154
橔	-17.0154
涳	-17.0154
ւ	-17.0155
眕	-17.0155
湻	-17.0155
踒	-17.0155
駜	-17.0155
岊	-17.0155
▇	-17.0155
緤	-17.0155
繝	-17.0155
姩	-17.0155
绤	-17.0155
撧	-17.0155
峱	-17.0155
崡	-17.0156
飤	-17.0156
獝	-17.0156
摰	-17.0156
眏	-17.0156
湢	-17.0156
飰	-17.0156
閭	-17.0156
皯	-17.0156
õ	-17.0156
ɣ	-17.0156
肶	-17.0156
葂	-17.0156
키	-17.0156
浵	-17.0156
畐	-17.0156
坮	-17.0156
渜	-17.0156
˧	-17.0157
渹	-17.0157
梐	-17.0157
誗	-17.0157
曏	-17.0157
▓	-17.0157
蕋	-17.0157
ɐ	-17.0157
槤	-17.0157
篲	-17.0157
絍	-17.0157
奰	-17.0157
崯	-17.0157
訽	-17.0157
참	-17.0157
㭎	-17.0157
蝂	-17.0157
滭	-17.0157
籹	-17.0157
鉁	-17.0157
佌	-17.0157
硾	-17.0157
磢	-17.0157
萯	-17.0157
罦	-17.0157
塿	-17.0157
僿	-17.0157
哢	-17.0157
ֹ	-17.0157
褠	-17.0157
緐	-17.0158
昻	-17.0158
駼	-17.0158
赸	-17.0158
骾	-17.0158
凉	-17.0158
係	-17.0158
袘	-17.0158
鶹	-17.0158
체	-17.0158
埢	-17.0158
桹	-17.0158
鍈	-17.0158
烋	-17.0158
茷	-17.0158
箘	-17.0158
嫳	-17.0158
韐	-17.0158
鼦	-17.0159
羗	-17.0159
菆	-17.0159
┉	-17.0159
眽	-17.0159
嵽	-17.0159
畾	-17.0159
輤	-17.0159
匵	-17.0159
煗	-17.0159
痗	-17.0159
輣	-17.0159
蚮	-17.016
鶄	-17.016
啇	-17.0161
尗	-17.0161
笴	-17.0161
經	-17.0161
痳	-17.0161
參	-17.0162
儞	-17.0162
⌒	-17.0163
繋	-17.0163
価	-17.0165
愼	-17.0165
應	-17.0167
습	-17.0169
머	-17.0184
먼	-17.0188
邿	-17.0764
術	-17.0766
꿈	-17.0768
≻	-17.077
총	-17.0772
鳩	-17.0773
琻	-17.0774
飗	-17.0774
羴	-17.0775
누	-17.0775
┌	-17.0775
讻	-17.0776
ῆ	-17.0776
詥	-17.0776
	-17.0777
刜	-17.0778
▶	-17.0778
柮	-17.0778
吿	-17.0778
夆	-17.0779
蓧	-17.0779
殹	-17.0779
戺	-17.0779
峜	-17.0779
呣	-17.0779
瘉	-17.0779
	-17.078
럼	-17.078
յ	-17.078
鴘	-17.078
瞾	-17.078
畳	-17.078
轥	-17.078
瑫	-17.078
撘	-17.078
鸧	-17.078
	-17.078
峏	-17.078
忺	-17.078
鯻	-17.078
橧	-17.078
육	-17.078
鳒	-17.0781
撆	-17.0781
蹜	-17.0781
泲	-17.0781
茍	-17.0781
풍	-17.0781
鑃	-17.0781
ˆ	-17.0781
肊	-17.0781
睊	-17.0781
陼	-17.0781
剺	-17.0781
庯	-17.0781
氒	-17.0781
ヱ	-17.0781
篹	-17.0781
衵	-17.0781
兟	-17.0782
豙	-17.0782
幇	-17.0782
縓	-17.0782
踸	-17.0782
輼	-17.0782
箄	-17.0782
禼	-17.0782
鉽	-17.0782
擩	-17.0782
臲	-17.0782
兎	-17.0782
ɾ	-17.0782
瀺	-17.0782
익	-17.0782
鯿	-17.0782
髤	-17.0782
翽	-17.0782
廏	-17.0782
堼	-17.0782
鰺	-17.0782
正	-17.0782
庼	-17.0782
樝	-17.0782
嵙	-17.0782
敳	-17.0782
緥	-17.0782
儌	-17.0782
肏	-17.0782
扐	-17.0782
暉	-17.0782
剎	-17.0782
痩	-17.0782
褀	-17.0782
褆	-17.0782
ฐ	-17.0782
椸	-17.0782
鰂	-17.0782
瓅	-17.0783
゙	-17.0783
蠏	-17.0783
侎	-17.0783
飢	-17.0783
䱻	-17.0783
穈	-17.0783
凟	-17.0783
歂	-17.0783
嶕	-17.0783
嗻	-17.0783
挍	-17.0783
祕	-17.0783
壈	-17.0783
ұ	-17.0783
泑	-17.0783
俴	-17.0783
摋	-17.0783
潖	-17.0783
華	-17.0783
儥	-17.0783
儴	-17.0783
嗏	-17.0783
揅	-17.0783
鄟	-17.0783
ῖ	-17.0783
堧	-17.0783
旤	-17.0783
氎	-17.0783
鄎	-17.0784
螉	-17.0784
澽	-17.0784
堁	-17.0784
ぉ	-17.0784
昢	-17.0784
茞	-17.0784
菭	-17.0784
楀	-17.0784
苽	-17.0784
陗	-17.0784
蝡	-17.0784
鉩	-17.0784
撏	-17.0785
泩	-17.0785
姺	-17.0785
∟	-17.0785
鲪	-17.0785
潪	-17.0786
抏	-17.0786
蠨	-17.0786
輹	-17.0786
瘲	-17.0786
墱	-17.0787
範	-17.0787
緖	-17.0788
紩	-17.0788
鱍	-17.0788
叇	-17.0789
刀	-17.0792
毨	-17.0792
ष	-17.0796
這	-17.0799
火	-17.0799
श	-17.0802
힘	-17.0803
겨	-17.0826
◦	-17.0838
긴	-17.1433
본	-17.1436
언	-17.1437
玍	-17.1439
새	-17.1441
鸤	-17.1442
硍	-17.1443
짓	-17.1443
慽	-17.1443
╯	-17.1444
淍	-17.1444
설	-17.1444
栆	-17.1444
牞	-17.1444
髼	-17.1444
ர	-17.1444
詪	-17.1445
歾	-17.1445
歺	-17.1445
鮣	-17.1446
觼	-17.1446
觷	-17.1446
駄	-17.1446
昄	-17.1446
鬔	-17.1446
怤	-17.1447
鼈	-17.1447
顋	-17.1447
潽	-17.1447
晽	-17.1447
瑽	-17.1447
韤	-17.1447
嫽	-17.1447
茢	-17.1447
姯	-17.1447
揃	-17.1448
菍	-17.1448
羾	-17.1448
鄷	-17.1448
俔	-17.1448
臈	-17.1448
ʌ	-17.1448
უ	-17.1448
煁	-17.1448
潕	-17.1448
勠	-17.1448
觴	-17.1448
篘	-17.1448
傎	-17.1448
悙	-17.1448
彠	-17.1448
躶	-17.1448
易	-17.1448
梽	-17.1448
纑	-17.1448
驥	-17.1448
栔	-17.1448
賛	-17.1448
ম	-17.1448
轡	-17.1448
琞	-17.1448
급	-17.1448
蝜	-17.1449
悗	-17.1449
魆	-17.1449
ў	-17.1449
毰	-17.1449
‵	-17.1449
喭	-17.1449
渓	-17.1449
畺	-17.1449
鐩	-17.1449
軥	-17.1449
岪	-17.1449
姕	-17.1449
懆	-17.1449
榠	-17.1449
鳈	-17.1449
琡	-17.1449
硉	-17.1449
蘙	-17.1449
窴	-17.1449
蘺	-17.1449
跙	-17.1449
嫶	-17.1449
夗	-17.1449
姵	-17.1449
睅	-17.1449
逤	-17.1449
彍	-17.1449
翿	-17.1449
烄	-17.1449
繶	-17.1449
蛼	-17.1449
雺	-17.1449
焾	-17.1449
媄	-17.1449
峗	-17.1449
盋	-17.1449
摴	-17.1449
僈	-17.145
籒	-17.145
槢	-17.145
掗	-17.145
罶	-17.145
胅	-17.145
醱	-17.145
鞸	-17.145
恛	-17.145
樴	-17.145
舝	-17.145
餖	-17.145
磥	-17.145
鰃	-17.145
♭	-17.145
驖	-17.145
肬	-17.145
剳	-17.145
弜	-17.145
迒	-17.145
縶	-17.1451
铇	-17.1451
판	-17.1451
洀	-17.1451
灟	-17.1451
鱤	-17.1451
牏	-17.1451
鴡	-17.1451
唦	-17.1452
啴	-17.1452
俌	-17.1452
陻	-17.1452
矕	-17.1452
∷	-17.1453
鱁	-17.1454
甹	-17.1454
箖	-17.1454
塟	-17.1454
ἰ	-17.1454
悩	-17.1454
黲	-17.1455
廠	-17.1455
樏	-17.1456
ṃ	-17.1456
苲	-17.1456
婋	-17.1457
ट	-17.146
렇	-17.1465
呏	-17.147
놓	-17.1472
極	-17.1475
燅	-17.1478
웃	-17.2144
躝	-17.2152
節	-17.2153
메	-17.2153
孋	-17.2153
類	-17.2153
騒	-17.2155
祂	-17.2155
磠	-17.2155
퍼	-17.2156
ன	-17.2157
巜	-17.2157
磿	-17.2157
衪	-17.2157
瑺	-17.2158
齻	-17.2158
痋	-17.2158
வ	-17.2158
赗	-17.2158
紑	-17.2159
澦	-17.2159
陾	-17.216
蜄	-17.216
鉾	-17.216
槷	-17.216
塂	-17.216
虁	-17.216
崷	-17.216
殰	-17.216
薝	-17.216
ా	-17.216
ལ	-17.2161
撁	-17.2161
甝	-17.2161
韺	-17.2161
ἱ	-17.2161
黱	-17.2161
钑	-17.2161
掿	-17.2161
瘆	-17.2161
現	-17.2161
幝	-17.2161
厳	-17.2161
砕	-17.2161
藊	-17.2161
拡	-17.2162
瑂	-17.2162
앙	-17.2162
朿	-17.2162
〆	-17.2162
糚	-17.2162
饐	-17.2162
櫰	-17.2162
覝	-17.2162
牚	-17.2162
	-17.2162
∉	-17.2162
漙	-17.2162
곡	-17.2162
楎	-17.2162
陊	-17.2162
朮	-17.2162
♯	-17.2162
獳	-17.2162
輢	-17.2162
蒀	-17.2162
轖	-17.2162
抝	-17.2162
氶	-17.2162
幠	-17.2162
枍	-17.2163
挙	-17.2163
蔇	-17.2163
勮	-17.2163
餶	-17.2163
ׁ	-17.2163
圂	-17.2163
嶃	-17.2163
澓	-17.2163
汃	-17.2163
莂	-17.2163
佋	-17.2163
楥	-17.2163
埿	-17.2163
鐘	-17.2163
崝	-17.2163
ˌ	-17.2163
桖	-17.2163
祩	-17.2163
잡	-17.2163
踁	-17.2163
婑	-17.2163
毸	-17.2163
蝃	-17.2163
暒	-17.2163
昑	-17.2163
磝	-17.2163
囃	-17.2163
屾	-17.2163
鹻	-17.2163
צ	-17.2163
桿	-17.2163
萂	-17.2163
莕	-17.2163
漘	-17.2163
謟	-17.2163
扊	-17.2163
趠	-17.2163
齶	-17.2163
尛	-17.2163
跦	-17.2163
坿	-17.2163
駵	-17.2163
蓲	-17.2163
絳	-17.2163
罼	-17.2163
猂	-17.2164
鑀	-17.2164
霫	-17.2164
磳	-17.2164
鱺	-17.2164
菾	-17.2164
淰	-17.2164
敚	-17.2164
詃	-17.2164
鄐	-17.2164
艑	-17.2164
喨	-17.2164
鐄	-17.2164
嵨	-17.2164
砯	-17.2164
ھ	-17.2164
馽	-17.2164
棷	-17.2164
躣	-17.2164
遰	-17.2164
蛚	-17.2164
蒧	-17.2164
轞	-17.2164
̋	-17.2164
鼟	-17.2164
ẩ	-17.2164
啅	-17.2164
姸	-17.2164
鐥	-17.2164
龎	-17.2164
嬭	-17.2164
嗁	-17.2164
腒	-17.2164
ҧ	-17.2164
剋	-17.2164
褷	-17.2164
鍉	-17.2164
戻	-17.2164
궁	-17.2164
塚	-17.2164
嚄	-17.2165
楘	-17.2165
鏩	-17.2165
濚	-17.2165
齆	-17.2165
榣	-17.2165
秌	-17.2165
鉖	-17.2165
駪	-17.2165
働	-17.2165
卝	-17.2165
檛	-17.2165
摃	-17.2165
鸓	-17.2165
迾	-17.2165
襏	-17.2166
朢	-17.2166
鳸	-17.2166
汍	-17.2166
浭	-17.2166
焅	-17.2166
躩	-17.2166
㑩	-17.2166
毣	-17.2166
갈	-17.2167
욱	-17.2167
懐	-17.2167
暤	-17.2167
禆	-17.2167
鸀	-17.2168
벌	-17.2168
稡	-17.2169
槵	-17.2169
극	-17.2169
烗	-17.217
癐	-17.2171
黂	-17.2172
뛰	-17.2172
襗	-17.2172
蛜	-17.2174
觙	-17.2174
침	-17.2174
곤	-17.2176
芺	-17.2178
ซ	-17.2181
잊	-17.219
	-17.2908
འ	-17.2912
丵	-17.2919
灉	-17.2921
伓	-17.2922
關	-17.2923
པ	-17.2924
卙	-17.2924
實	-17.2925
枦	-17.2925
衁	-17.2925
鶨	-17.2925
圀	-17.2925
晥	-17.2926
虨	-17.2926
ச	-17.2927
妌	-17.2927
巙	-17.2928
詾	-17.2928
阓	-17.2928
轊	-17.2928
锠	-17.2929
襈	-17.2929
ம	-17.2929
갑	-17.2929
鎁	-17.2929
슬	-17.2929
漰	-17.2929
偱	-17.2929
笵	-17.2929
厐	-17.293
銀	-17.293
鯶	-17.293
麷	-17.293
ོ	-17.293
㑇	-17.293
澟	-17.293
錩	-17.293
초	-17.293
艶	-17.293
拕	-17.293
狚	-17.293
掁	-17.2931
丆	-17.2931
≌	-17.2931
昽	-17.2931
瀓	-17.2931
臤	-17.2931
訸	-17.2931
讇	-17.2931
鄨	-17.2931
貭	-17.2931
ʁ	-17.2931
釚	-17.2931
袝	-17.2931
ბ	-17.2931
韣	-17.2931
帊	-17.2931
蟖	-17.2931
მ	-17.2931
闑	-17.2931
嚾	-17.2931
ヂ	-17.2931
罿	-17.2931
劔	-17.2931
鷚	-17.2931
멀	-17.2931
拲	-17.2932
玓	-17.2932
虉	-17.2932
隺	-17.2932
埧	-17.2932
გ	-17.2932
戉	-17.2932
犗	-17.2932
鉆	-17.2932
疈	-17.2932
朁	-17.2932
伈	-17.2932
鬚	-17.2932
峍	-17.2932
旽	-17.2932
輀	-17.2932
寱	-17.2932
軆	-17.2932
噝	-17.2932
輘	-17.2932
聴	-17.2932
併	-17.2932
瘣	-17.2932
甶	-17.2932
璱	-17.2932
闟	-17.2932
幐	-17.2932
挦	-17.2932
裩	-17.2932
楧	-17.2932
絚	-17.2932
崈	-17.2932
躚	-17.2932
篤	-17.2932
羓	-17.2932
弔	-17.2932
醼	-17.2932
偢	-17.2932
珎	-17.2932
潎	-17.2932
穏	-17.2933
謼	-17.2933
厈	-17.2933
懜	-17.2933
骔	-17.2933
伀	-17.2933
鄳	-17.2933
罸	-17.2933
ừ	-17.2933
樿	-17.2933
衋	-17.2933
鋢	-17.2933
駻	-17.2933
鱘	-17.2933
眬	-17.2933
耼	-17.2933
怸	-17.2933
隒	-17.2933
竫	-17.2933
跮	-17.2933
臡	-17.2933
詅	-17.2933
爔	-17.2933
찬	-17.2933
耡	-17.2933
趦	-17.2933
牘	-17.2933
瑎	-17.2933
飭	-17.2933
泭	-17.2933
磶	-17.2933
迿	-17.2933
跜	-17.2933
鰽	-17.2933
㰘	-17.2933
鈏	-17.2933
ằ	-17.2933
珔	-17.2933
煓	-17.2933
镚	-17.2933
譟	-17.2933
矦	-17.2933
汯	-17.2933
霱	-17.2934
倖	-17.2934
梡	-17.2934
餜	-17.2934
惉	-17.2934
蟏	-17.2934
緅	-17.2934
鹽	-17.2934
矑	-17.2934
餻	-17.2934
見	-17.2934
篣	-17.2934
錀	-17.2934
蛬	-17.2934
鞹	-17.2934
┡	-17.2934
麅	-17.2934
殀	-17.2934
奣	-17.2934
蚃	-17.2934
払	-17.2934
僢	-17.2934
贉	-17.2934
豀	-17.2934
餫	-17.2934
倂	-17.2934
攩	-17.2935
鋕	-17.2935
冋	-17.2935
汈	-17.2935
醹	-17.2935
嶟	-17.2935
孻	-17.2935
悺	-17.2935
梜	-17.2935
渳	-17.2936
璬	-17.2936
槪	-17.2936
蓘	-17.2936
罻	-17.2936
嬃	-17.2936
	-17.2936
錏	-17.2936
員	-17.2937
蜯	-17.2937
衂	-17.2937
چ	-17.2937
좌	-17.2937
箊	-17.2938
檃	-17.2938
蒃	-17.2939
찰	-17.2939
儦	-17.294
헤	-17.294
隨	-17.2941
䛐	-17.2941
빛	-17.2943
謞	-17.2943
運	-17.2945
達	-17.2945
帉	-17.2946
俙	-17.295
잠	-17.2951
큼	-17.2951
귀	-17.2954
ų	-17.2955
밀	-17.2956
쳐	-17.2958
ึ	-17.2961
ू	-17.2962
嚧	-17.2964
필	-17.2966
ै	-17.2988
뿐	-17.3734
風	-17.3736
獨	-17.3738
♬	-17.3742
瓪	-17.3746
♠	-17.3747
☺	-17.3748
ཁ	-17.3752
選	-17.3754
鷨	-17.3754
몰	-17.3755
洐	-17.3755
ན	-17.3755
히	-17.3756
잖	-17.3756
興	-17.3758
슈	-17.3758
糉	-17.3759
嫙	-17.3759
尌	-17.3759
鬊	-17.376
魚	-17.376
樒	-17.376
檊	-17.3761
璙	-17.3761
骳	-17.3761
踇	-17.3761
┤	-17.3761
燳	-17.3762
惢	-17.3762
膵	-17.3762
막	-17.3762
ὐ	-17.3762
鶃	-17.3762
媱	-17.3762
ҕ	-17.3762
灒	-17.3762
殠	-17.3762
秅	-17.3762
薀	-17.3762
忬	-17.3762
骪	-17.3763
酔	-17.3763
們	-17.3763
枙	-17.3763
ҟ	-17.3763
侢	-17.3763
脗	-17.3763
縚	-17.3763
ӡ	-17.3763
槮	-17.3763
碐	-17.3763
恌	-17.3763
蒪	-17.3763
篿	-17.3764
蓭	-17.3764
䌷	-17.3764
佁	-17.3764
滫	-17.3764
帗	-17.3764
矲	-17.3764
詟	-17.3764
鰳	-17.3764
旹	-17.3764
䗃	-17.3764
蟁	-17.3764
幧	-17.3764
褢	-17.3764
壌	-17.3764
壏	-17.3764
砳	-17.3764
荂	-17.3764
ѓ	-17.3764
տ	-17.3764
墭	-17.3765
炌	-17.3765
朳	-17.3765
爯	-17.3765
鮁	-17.3765
립	-17.3765
暊	-17.3765
嵁	-17.3765
詀	-17.3765
泿	-17.3765
爣	-17.3765
焆	-17.3765
冘	-17.3765
祹	-17.3765
踼	-17.3765
옥	-17.3765
髥	-17.3765
鮯	-17.3765
耲	-17.3765
証	-17.3765
մ	-17.3765
驫	-17.3765
胘	-17.3765
鞁	-17.3765
ɒ	-17.3765
艼	-17.3765
觵	-17.3765
辤	-17.3765
梌	-17.3765
ু	-17.3765
蹟	-17.3765
崺	-17.3765
跔	-17.3765
鮌	-17.3765
鶠	-17.3765
弖	-17.3765
투	-17.3765
堣	-17.3765
櫎	-17.3765
狓	-17.3765
肵	-17.3765
癕	-17.3765
曡	-17.3765
揢	-17.3766
輟	-17.3766
簭	-17.3766
趻	-17.3766
塠	-17.3766
赮	-17.3766
噷	-17.3766
ҵ	-17.3766
ฑ	-17.3766
蔆	-17.3766
瀫	-17.3766
埻	-17.3766
嶫	-17.3766
悷	-17.3766
গ	-17.3766
檨	-17.3766
烰	-17.3766
룡	-17.3766
브	-17.3766
吰	-17.3766
捒	-17.3766
欓	-17.3766
犵	-17.3766
瞚	-17.3766
허	-17.3766
挿	-17.3766
鵁	-17.3766
俀	-17.3766
衚	-17.3766
怭	-17.3766
缿	-17.3766
舥	-17.3766
鴐	-17.3766
軰	-17.3766
垙	-17.3766
庒	-17.3766
鈚	-17.3766
匱	-17.3766
霔	-17.3766
懮	-17.3766
嗱	-17.3766
殈	-17.3766
莃	-17.3766
轣	-17.3766
婥	-17.3766
尐	-17.3766
怲	-17.3766
覤	-17.3766
觡	-17.3766
噳	-17.3766
褃	-17.3766
撢	-17.3766
謭	-17.3766
閎	-17.3767
躨	-17.3767
呭	-17.3767
忲	-17.3767
墆	-17.3767
辥	-17.3767
侅	-17.3767
疕	-17.3767
秖	-17.3767
餂	-17.3767
椗	-17.3767
阘	-17.3767
嶞	-17.3767
枠	-17.3767
ҭ	-17.3767
ғ	-17.3767
瞓	-17.3767
穮	-17.3767
壃	-17.3767
螲	-17.3767
慁	-17.3767
腄	-17.3767
峞	-17.3767
薠	-17.3767
汏	-17.3767
肐	-17.3767
簜	-17.3767
轀	-17.3767
檍	-17.3767
琠	-17.3768
資	-17.3768
嶍	-17.3768
블	-17.3768
열	-17.3768
琈	-17.3768
穬	-17.3768
蒦	-17.3768
偫	-17.3768
爕	-17.3768
轑	-17.3768
瑬	-17.3768
訞	-17.3768
嫕	-17.3768
斚	-17.3768
揳	-17.3768
鱧	-17.3768
뷔	-17.3768
僙	-17.3768
垰	-17.3768
扠	-17.3769
鬀	-17.3769
襫	-17.3769
緍	-17.3769
齵	-17.3769
煔	-17.377
簔	-17.377
膠	-17.377
唓	-17.377
恊	-17.3771
怘	-17.3771
騩	-17.3771
ῦ	-17.3771
鐈	-17.3772
據	-17.3772
韻	-17.3772
枅	-17.3772
饠	-17.3772
膢	-17.3772
鞀	-17.3773
茖	-17.3774
ὁ	-17.3774
兩	-17.3774
軞	-17.3775
乚	-17.3776
屬	-17.3777
코	-17.3778
統	-17.3779
稭	-17.378
줘	-17.378
欥	-17.378
狧	-17.3785
ā	-17.3786
工	-17.3788
볼	-17.3808
싸	-17.382
돼	-17.3841
죠	-17.4652
飾	-17.4654
銷	-17.4655
際	-17.4656
秝	-17.4658
優	-17.466
畡	-17.466
ཕ	-17.4662
趌	-17.4664
槰	-17.4665
隇	-17.4665
欀	-17.4667
滀	-17.4667
觹	-17.4667
備	-17.4668
裿	-17.4668
邊	-17.4668
ـ	-17.4669
淂	-17.4669
蚹	-17.4669
汮	-17.4669
핑	-17.467
楡	-17.467
豷	-17.467
嶌	-17.467
誌	-17.467
挃	-17.467
熁	-17.467
蛍	-17.467
朂	-17.4671
䏰	-17.4671
搕	-17.4671
寋	-17.4671
濳	-17.4671
涚	-17.4671
억	-17.4671
潥	-17.4672
歅	-17.4672
魠	-17.4672
錶	-17.4672
朩	-17.4672
鬎	-17.4672
բ	-17.4672
점	-17.4672
髳	-17.4672
鱯	-17.4672
ở	-17.4672
胦	-17.4672
櫌	-17.4672
跴	-17.4672
氋	-17.4672
薑	-17.4672
灅	-17.4673
頭	-17.4673
矉	-17.4673
曕	-17.4673
蒄	-17.4673
鳷	-17.4673
결	-17.4673
께	-17.4673
铔	-17.4673
棆	-17.4673
蹎	-17.4673
醧	-17.4673
柣	-17.4673
囦	-17.4673
蔠	-17.4673
宭	-17.4673
毷	-17.4673
衱	-17.4673
薸	-17.4674
祦	-17.4674
妟	-17.4674
爞	-17.4674
隊	-17.4674
蘡	-17.4674
頴	-17.4674
眳	-17.4674
磦	-17.4674
欋	-17.4674
葠	-17.4674
惎	-17.4674
諂	-17.4674
箻	-17.4674
咉	-17.4674
珷	-17.4674
羵	-17.4674
腜	-17.4674
杣	-17.4674
ক	-17.4674
篖	-17.4674
椙	-17.4674
覂	-17.4674
鈤	-17.4674
裌	-17.4674
鷀	-17.4674
麰	-17.4674
卼	-17.4674
弮	-17.4674
獁	-17.4674
挵	-17.4674
漐	-17.4674
笘	-17.4674
婹	-17.4674
扅	-17.4674
膮	-17.4674
滽	-17.4674
欙	-17.4674
瑲	-17.4674
㷆	-17.4674
詰	-17.4674
梀	-17.4674
ვ	-17.4674
葍	-17.4674
蛅	-17.4675
溫	-17.4675
襺	-17.4675
邇	-17.4675
￘	-17.4675
僪	-17.4675
簒	-17.4675
挀	-17.4675
楖	-17.4675
穇	-17.4675
颬	-17.4675
E	-17.4675
冔	-17.4675
褏	-17.4675
玜	-17.4675
鳦	-17.4675
稑	-17.4675
鄤	-17.4675
鷮	-17.4675
痀	-17.4675
跲	-17.4675
鋭	-17.4675
俈	-17.4675
勌	-17.4675
悧	-17.4675
鉅	-17.4675
匑	-17.4675
飮	-17.4675
浕	-17.4675
憗	-17.4675
徛	-17.4675
桚	-17.4675
毱	-17.4675
痓	-17.4675
ট	-17.4675
稸	-17.4675
頽	-17.4675
囋	-17.4675
枃	-17.4675
簺	-17.4675
珮	-17.4675
L	-17.4675
曒	-17.4675
鍭	-17.4675
蠯	-17.4675
蹽	-17.4675
斆	-17.4675
鎻	-17.4675
峳	-17.4675
鯞	-17.4675
屭	-17.4675
敱	-17.4675
餸	-17.4675
夊	-17.4675
豵	-17.4675
軼	-17.4675
闝	-17.4675
餱	-17.4675
壛	-17.4675
惻	-17.4675
璊	-17.4675
嵾	-17.4675
歗	-17.4675
緾	-17.4675
醎	-17.4675
馡	-17.4675
掫	-17.4675
抯	-17.4676
螇	-17.4676
廍	-17.4676
總	-17.4676
鍫	-17.4676
鞳	-17.4676
彅	-17.4676
濜	-17.4676
犦	-17.4676
榥	-17.4676
龏	-17.4676
浲	-17.4676
暀	-17.4676
日	-17.4676
芚	-17.4676
軦	-17.4676
檡	-17.4676
橓	-17.4676
硃	-17.4676
鮬	-17.4676
鎭	-17.4676
沵	-17.4676
ҷ	-17.4676
眹	-17.4676
巏	-17.4676
捝	-17.4676
伹	-17.4676
巌	-17.4676
逿	-17.4676
鷕	-17.4676
奊	-17.4676
貜	-17.4676
漨	-17.4676
牉	-17.4676
兊	-17.4677
硵	-17.4677
詉	-17.4677
欿	-17.4677
財	-17.4677
彜	-17.4677
裡	-17.4677
婗	-17.4677
ฆ	-17.4677
蘷	-17.4678
蛯	-17.4678
宷	-17.4678
舑	-17.4678
鈃	-17.4678
鳻	-17.4678
鬤	-17.4678
裪	-17.4679
鄕	-17.4679
姏	-17.4679
莾	-17.4679
蠜	-17.468
顧	-17.468
椷	-17.468
倠	-17.468
蘟	-17.468
緎	-17.4681
蹹	-17.4682
調	-17.4683
饆	-17.4683
舗	-17.4683
軝	-17.4683
蟨	-17.4684
舉	-17.4686
則	-17.4688
蛗	-17.4688
ṛ	-17.4693
밤	-17.4694
高	-17.4694
ō	-17.4695
鯠	-17.4696
될	-17.47
ļ	-17.4718
ध	-17.4724
ŏ	-17.4725
짜	-17.4733
떻	-17.4744
維	-17.5634
蹞	-17.5644
眣	-17.5644
紀	-17.5654
끼	-17.5654
理	-17.5657
ؤ	-17.5659
ْ	-17.5659
標	-17.5661
詩	-17.5661
련	-17.5661
嬜	-17.5662
陳	-17.5663
픈	-17.5664
煵	-17.5664
름	-17.5665
三	-17.5665
∆	-17.5666
된	-17.5667
壔	-17.5667
哖	-17.5668
籇	-17.5668
亁	-17.5668
欎	-17.5668
厤	-17.5668
螱	-17.5669
閰	-17.5669
獡	-17.5669
畕	-17.5669
	-17.5669
邧	-17.5669
弎	-17.567
ʾ	-17.567
협	-17.567
啚	-17.567
潨	-17.567
萹	-17.567
軑	-17.567
帶	-17.567
滶	-17.5671
皩	-17.5671
殟	-17.5671
蚾	-17.5671
馣	-17.5671
嘥	-17.5671
軜	-17.5671
ப	-17.5671
馛	-17.5671
ḍ	-17.5671
繈	-17.5671
瘑	-17.5671
鎋	-17.5671
唹	-17.5671
囎	-17.5671
囬	-17.5671
昹	-17.5672
鬛	-17.5672
笯	-17.5672
欶	-17.5672
單	-17.5672
橞	-17.5672
萬	-17.5672
鄴	-17.5672
암	-17.5672
馬	-17.5672
溵	-17.5672
抮	-17.5672
ு	-17.5672
鏚	-17.5672
글	-17.5672
蟎	-17.5672
플	-17.5672
甒	-17.5672
蚆	-17.5672
噆	-17.5673
惪	-17.5673
蕌	-17.5673
雿	-17.5673
髐	-17.5673
卌	-17.5673
氃	-17.5673
ἑ	-17.5673
鮹	-17.5673
屛	-17.5673
餙	-17.5673
逎	-17.5673
壐	-17.5673
媌	-17.5673
氉	-17.5673
濓	-17.5673
騀	-17.5673
攋	-17.5673
û	-17.5673
逜	-17.5673
莤	-17.5673
挌	-17.5673
譻	-17.5673
焭	-17.5673
鳱	-17.5673
목	-17.5674
炡	-17.5674
賁	-17.5674
彃	-17.5674
ɨ	-17.5674
ல	-17.5674
麌	-17.5674
옹	-17.5674
膬	-17.5674
垬	-17.5674
洬	-17.5674
鬂	-17.5674
譁	-17.5674
剒	-17.5674
沝	-17.5674
囏	-17.5674
嶦	-17.5674
瓈	-17.5674
眑	-17.5674
嗐	-17.5674
屝	-17.5674
帩	-17.5674
錽	-17.5674
醄	-17.5674
熌	-17.5674
軮	-17.5674
揝	-17.5674
鯭	-17.5674
坢	-17.5674
筕	-17.5674
蝚	-17.5674
貽	-17.5674
椌	-17.5674
霢	-17.5674
奀	-17.5674
菵	-17.5674
錤	-17.5674
娙	-17.5674
䳍	-17.5674
詆	-17.5674
墹	-17.5674
罫	-17.5674
褦	-17.5674
©	-17.5675
櫼	-17.5675
踥	-17.5675
♣	-17.5675
攅	-17.5675
甆	-17.5675
粔	-17.5675
韛	-17.5675
腃	-17.5675
ভ	-17.5675
兿	-17.5675
俋	-17.5675
桵	-17.5675
黤	-17.5675
綺	-17.5675
瑹	-17.5675
ɲ	-17.5675
鴸	-17.5675
鷽	-17.5675
傛	-17.5675
汖	-17.5675
牼	-17.5675
謡	-17.5675
迋	-17.5675
侴	-17.5675
壦	-17.5675
涽	-17.5675
擸	-17.5675
椄	-17.5675
犮	-17.5675
瑧	-17.5675
痯	-17.5675
瞡	-17.5675
箯	-17.5675
軫	-17.5675
焢	-17.5675
唚	-17.5675
庌	-17.5675
儱	-17.5675
矝	-17.5675
驂	-17.5675
幓	-17.5675
瀔	-17.5675
銕	-17.5675
瞏	-17.5675
駑	-17.5675
鯥	-17.5675
慉	-17.5675
皶	-17.5675
矎	-17.5675
鏺	-17.5675
藪	-17.5675
阰	-17.5675
鯆	-17.5675
幏	-17.5675
玶	-17.5675
聲	-17.5675
蛁	-17.5675
鞧	-17.5675
坲	-17.5675
籦	-17.5675
膟	-17.5675
鈒	-17.5675
厫	-17.5676
潓	-17.5676
烻	-17.5676
羉	-17.5676
氄	-17.5676
咠	-17.5676
騠	-17.5676
掆	-17.5676
蔂	-17.5676
鬉	-17.5676
弸	-17.5676
棌	-17.5676
滎	-17.5676
犓	-17.5676
駍	-17.5676
橰	-17.5676
潗	-17.5676
悋	-17.5676
杇	-17.5676
瘯	-17.5676
堶	-17.5676
懅	-17.5676
玒	-17.5676
覜	-17.5676
狀	-17.5676
豯	-17.5676
竮	-17.5676
廧	-17.5676
霦	-17.5676
攦	-17.5676
灣	-17.5676
煝	-17.5676
肹	-17.5676
棶	-17.5676
葽	-17.5676
엠	-17.5676
葘	-17.5676
觗	-17.5676
瀇	-17.5676
ٹ	-17.5676
溾	-17.5676
蚿	-17.5676
賣	-17.5676
詄	-17.5676
厹	-17.5676
簙	-17.5676
簁	-17.5676
囘	-17.5677
龡	-17.5677
埊	-17.5677
瑝	-17.5677
懫	-17.5677
鼲	-17.5677
嗹	-17.5677
虆	-17.5677
衯	-17.5677
䓬	-17.5677
鼑	-17.5677
裶	-17.5677
拃	-17.5678
矅	-17.5678
狆	-17.5678
圍	-17.5678
崌	-17.5678
廯	-17.5678
泧	-17.5678
椝	-17.5678
┎	-17.5678
昖	-17.5678
訳	-17.5678
皀	-17.5679
訰	-17.5679
믿	-17.5679
델	-17.5679
狾	-17.568
魦	-17.568
噛	-17.5681
輨	-17.5681
襳	-17.5681
労	-17.5681
岹	-17.5682
片	-17.5683
ɕ	-17.5683
灴	-17.5683
貝	-17.5684
ण	-17.5684
闔	-17.5684
習	-17.5685
拠	-17.5685
紽	-17.5688
따	-17.5688
嗗	-17.5688
讀	-17.569
稱	-17.5692
駂	-17.5694
鱄	-17.5695
ů	-17.57
ĉ	-17.5711
	-17.6757
料	-17.6765
➢	-17.6766
느	-17.6766
분	-17.677
ꁰ	-17.677
量	-17.6773
冊	-17.6775
埲	-17.6775
ཀ	-17.6775
戶	-17.6776
畖	-17.6776
ཡ	-17.6777
든	-17.6777
遺	-17.6777
奍	-17.6778
畽	-17.6778
ѕ	-17.6778
꼭	-17.6779
匉	-17.6779
婾	-17.678
狘	-17.678
├	-17.678
ི	-17.678
宼	-17.6781
ు	-17.6781
瀀	-17.6781
ỹ	-17.6782
豽	-17.6782
伒	-17.6782
վ	-17.6782
姼	-17.6782
嶬	-17.6782
韗	-17.6782
등	-17.6782
媗	-17.6782
	-17.6782
聻	-17.6782
覧	-17.6782
嗙	-17.6782
貈	-17.6783
馼	-17.6783
㦕	-17.6783
捼	-17.6783
霶	-17.6783
線	-17.6783
俆	-17.6783
ী	-17.6783
徲	-17.6783
鱨	-17.6783
哅	-17.6783
銊	-17.6783
蟕	-17.6783
禂	-17.6783
杴	-17.6784
㳋	-17.6784
㵹	-17.6784
儧	-17.6784
弞	-17.6784
膹	-17.6784
鑌	-17.6784
肎	-17.6784
譽	-17.6784
鱎	-17.6784
幈	-17.6784
熀	-17.6784
ర	-17.6784
儽	-17.6784
垉	-17.6784
暋	-17.6784
妸	-17.6784
軧	-17.6784
洯	-17.6784
豲	-17.6784
품	-17.6784
俢	-17.6784
鶋	-17.6784
艓	-17.6784
證	-17.6784
迺	-17.6784
倫	-17.6784
灈	-17.6784
茋	-17.6784
緈	-17.6784
ხ	-17.6784
丳	-17.6784
挱	-17.6784
樲	-17.6784
萉	-17.6784
裻	-17.6784
醕	-17.6784
黦	-17.6784
嚮	-17.6785
죽	-17.6785
癈	-17.6785
鸏	-17.6785
夒	-17.6785
墋	-17.6785
呉	-17.6785
崘	-17.6785
虤	-17.6785
斒	-17.6785
╭	-17.6785
瀖	-17.6785
榝	-17.6785
咊	-17.6785
粻	-17.6785
糤	-17.6785
紼	-17.6785
婤	-17.6785
┴	-17.6785
踫	-17.6785
鞕	-17.6785
謨	-17.6785
愴	-17.6785
焻	-17.6785
珹	-17.6785
譕	-17.6785
穫	-17.6785
蚥	-17.6785
邟	-17.6785
湆	-17.6785
訒	-17.6785
顴	-17.6785
স	-17.6785
楲	-17.6785
鑞	-17.6785
俇	-17.6786
釬	-17.6786
塕	-17.6786
廮	-17.6786
竛	-17.6786
剬	-17.6786
廐	-17.6786
[...]
