[UNK]	0
[PAD]	0
[CLS]	0
[SEP]	0
[MASK]	0
,	-3.53333
▁̇ㄉㄜ1쎯	-3.63497
.	-3.98294
、	-4.16963
ㄏㄜˊ2쎯	-5.14502
ㄨㄟˊ0쎯	-5.4646
ㄗㄞˋ1쎯	-5.47843
ㄓㄨㄥ0쎯	-5.53518
ㄕˋ15쎯	-5.54678
ㄧㄡˇ1쎯	-5.65805
▁̇ㄌㄜ쎯	-5.67857
ㄖㄣˊ0쎯	-5.67908
:	-5.74928
(	-5.7914
▁̇ㄉㄜ0쎯	-5.81959
ㄩˇ0쎯	-5.86629
ㄉㄚˋ쎯	-5.87353
ㄉㄥˇ0쎯	-5.89552
《	-5.99658
;	-6.0423
)	-6.05209
ㄕㄤˇ0쎯	-6.08145
ㄧ0쎯	-6.12197
ㄓ0쎯	-6.13039
ㄅㄨˋ0쎯	-6.28769
ㄩˊ0쎯	-6.29551
ㄧˇ2쎯	-6.31824
ㄓㄨㄥ0쎯ㄍㄨㄛˊ0쎯	-6.33503
”	-6.37228
ㄐㄧˊ0쎯	-6.37675
“	-6.37854
ㄕˋ4쎯	-6.40122
ㄕㄨㄟˇ쎯	-6.43897
ㄉㄚˋ쎯ㄒㄩㄝˊ1쎯	-6.46851
ㄕㄢ0쎯	-6.48242
ㄒㄧㄥˋ2쎯	-6.48637
ㄍㄠ0쎯	-6.50636
ㄏㄡˋ0쎯	-6.51736
쎂	-6.56664
쎁	-6.57302
ㄗˇ0쎯	-6.58137
ㄒㄧㄢˋ0쎯	-6.59191
ㄡ0쎯	-6.5981
》	-6.59822
ㄒㄧㄠˇ0쎯	-6.61494
쎃	-6.62473
ㄒㄧㄚˋ0쎯	-6.63026
ㄩㄥˋ0쎯	-6.66079
ㄙㄢ0쎯	-6.67552
ㄐㄧㄚ3쎯	-6.67823
ㄔㄤˊ0쎯	-6.68053
ㄏㄨㄛˋ0쎯	-6.69437
ㄉㄨㄟˋ1쎯	-6.6944
·	-6.6958
ㄒㄧㄣ5쎯	-6.72553
ㄔㄨ0쎯	-6.73985
ㄊㄧㄢ0쎯	-6.7402
ㄦˊ1쎯	-6.7526
ㄕˊ1쎯	-6.76661
ㄇㄧㄥˊ0쎯	-6.77566
ㄍㄨㄢˇ1쎯ㄌㄧˇ3쎯	-6.78955
ㄉㄠˋ0쎯	-6.78995
ㄉㄨㄛ0쎯	-6.80067
ㄕㄥ1쎯	-6.81878
ㄍㄨㄥ2쎯ㄙ0쎯	-6.83297
ㄅㄟˋ5쎯	-6.83807
ㄋㄟˋ쎯	-6.83966
ㄏㄨㄟˋ2쎯	-6.8424
ㄙㄨㄛˇ0쎯	-6.86041
ㄨㄣˊ0쎯	-6.8634
ㄐㄧㄤ1쎯	-6.87361
ㄓˋ0쎯	-6.88203
ㄓㄣˋ3쎯	-6.88537
ㄐㄧˋ2쎯ㄕㄨˋ0쎯	-6.887
ㄔㄥˊ0쎯	-6.89823
ㄒㄧ1쎯	-6.90686
ㄏㄨㄚˋ0쎯	-6.91201
쎄	-6.91223
-	-6.91406
ㄍㄨㄥ0쎯ㄗㄨㄛ0쎯	-6.91837
ㄋㄧㄢˊ0쎯	-6.93293
ㄒㄩㄝˊ1쎯	-6.94176
ㄋㄚ1쎯	-6.94298
ㄌㄧˇ2쎯	-6.94327
ㄘㄨㄣ0쎯	-6.96664
ㄉㄨㄥ0쎯	-6.9672
4쎯	-6.97937
ㄅㄣˇ0쎯	-6.9857
ㄓㄨㄢ0쎯ㄧㄝˋ0쎯	-6.99323
ㄇㄛˊ0쎯	-6.99522
ㄅㄨˋ4쎯	-7.00162
ㄈㄚˇ0쎯	-7.01848
ㄒㄧㄣ0쎯	-7.01921
ㄧㄢˊ6쎯ㄐㄧㄡ1쎯	-7.01957
ㄐㄧㄣ3쎯	-7.02335
ㄈㄣ0쎯	-7.03604
ㄦˋ0쎯	-7.04264
ㄔㄢˇ0쎯ㄆㄧㄣˇ쎯	-7.05313
ㄑㄧˊ1쎯	-7.06314
ㄏㄨㄚ0쎯	-7.06447
쎅	-7.0672
ㄧㄡˊ1쎯	-7.06813
ㄏㄤˊ0쎯	-7.0731
ㄎㄜˇ0쎯	-7.07997
ㄉㄢˋ0쎯	-7.08273
ㄌㄞˊ0쎯	-7.08305
ㄏㄞˇ0쎯	-7.0835
ㄌㄨˋ5쎯	-7.08659
ㄑㄧㄢˊ0쎯	-7.09043
ㄨㄤˊ1쎯	-7.09389
/	-7.09679
ㄊㄧ0쎯	-7.10361
2쎯	-7.10965
ㄍㄨㄛˊ0쎯ㄐㄧㄚ3쎯	-7.11322
ㄐㄧ6쎯	-7.11633
ㄓㄜˇ0쎯	-7.11668
ㄑㄧˇ2쎯ㄧㄝˋ0쎯	-7.1169
ㄨㄞˋ쎯	-7.12967
ㄨㄟˋ2쎯ㄩˊ0쎯	-7.13072
ㄒㄩㄝˊ1쎯ㄩㄢˋ2쎯	-7.1319
ㄈㄚ쎯ㄓㄢˇ2쎯	-7.13544
ㄒㄧㄢˋ2쎯ㄍㄨㄥ2쎯ㄙ0쎯	-7.13798
ㄍㄨㄛˊ0쎯	-7.14728
ㄨㄣˊ0쎯ㄏㄨㄚˋ0쎯	-7.15485
쎆	-7.16444
ㄇㄧㄢˋ0쎯	-7.16681
ㄒㄧㄤ0쎯	-7.17375
ㄐㄧㄠ6쎯ㄩˋ3쎯	-7.17507
ㄐㄧˋ3쎯ㄊㄨㄥˇ0쎯	-7.1788
ㄢ0쎯	-7.18489
ㄔㄥˊ4쎯	-7.18903
ㄈㄨˊ5쎯ㄨˋ2쎯	-7.19318
ㄕㄥˇ0쎯	-7.20017
ㄊㄡˊ0쎯	-7.2072
ㄉㄠˋ3쎯	-7.20926
5쎯	-7.21013
ㄘㄨㄥˊ0쎯	-7.21181
ㄉㄜˊ1쎯	-7.21213
ㄒㄧㄢˋ3쎯	-7.21232
ㄖㄨˋ0쎯	-7.22889
ㄇㄚˇ0쎯	-7.23199
ㄅㄞˊ0쎯	-7.23975
ㄅㄟˇ쎯	-7.24415
,ㄕˋ15쎯	-7.24764
ㄇㄣˊ0쎯	-7.24815
ㄏㄜˊ3쎯	-7.2552
ㄨˇ0쎯	-7.25549
ㄎㄜ2쎯	-7.25699
ㄗˋ0쎯	-7.2633
ㄐㄧㄥ2쎯ㄐㄧˇ3쎯	-7.27005
ㄆㄧㄥˊ0쎯	-7.27158
ㄎㄜˋ0쎯	-7.28595
ㄌㄧˋ0쎯	-7.28847
쎁쎀	-7.28974
ㄐㄧㄤ0쎯	-7.29213
ㄖˋ0쎯	-7.29232
ㄖㄣˊ3쎯	-7.29561
ㄑㄧㄥ5쎯	-7.29705
()	-7.29712
ㄌㄧㄤˇ0쎯	-7.29967
ㄧㄝˇ0쎯	-7.30057
쎈	-7.30106
ㄍㄨㄤ0쎯	-7.30106
ㄇㄧㄥˊ1쎯	-7.30402
ㄈㄚ쎯	-7.30915
ㄊㄚ0쎯	-7.30928
ㄉㄡ0쎯	-7.30959
ㄙˋ1쎯	-7.31571
ㄌㄧㄣˊ1쎯	-7.32086
ㄍㄨㄛˊ0쎯ㄐㄧˋ5쎯	-7.32297
ㄓㄨㄥ0쎯ㄒㄧㄣ0쎯	-7.32313
ㄕㄥ1쎯ㄔㄢˇ0쎯	-7.32951
쎇	-7.33072
ㄍㄨㄥ0쎯ㄔㄥˊ7쎯	-7.33159
ㄇㄛˋ0쎯	-7.33864
ㄒㄧㄥˊ2쎯	-7.34163
ㄅㄧㄥ1쎯	-7.34175
ㄏㄨㄤˊ1쎯	-7.34343
ㄧ0쎯ㄍㄜˇ0쎯	-7.3542
3쎯	-7.36118
ㄕˋ5쎯	-7.3629
ㄈㄥ1쎯	-7.36439
ㄌㄨㄥˊ0쎯	-7.36444
ㄒㄩㄝˊ1쎯ㄐㄧㄠˋ2쎯	-7.3667
ㄋㄥˊ쎯	-7.36974
ㄓㄠ2쎯	-7.37198
ㄇㄟˇ1쎯	-7.37376
ㄍㄨㄛ0쎯	-7.38187
ㄎㄡˇ쎯	-7.38641
ㄦˇ0쎯	-7.38862
ㄕㄡˇ0쎯	-7.38879
ㄇㄧˇ0쎯	-7.38974
ㄙ4쎯	-7.39242
ㄕㄨ0쎯	-7.3953
ㄓㄡ1쎯	-7.40315
ㄗㄨㄛ0쎯	-7.40539
ㄗㄨㄥˇ0쎯	-7.40722
ㄏㄨㄚˊ1쎯	-7.40992
ㄕㄜˋ0쎯ㄐㄧˋ0쎯	-7.41004
ㄉㄧㄢˇ1쎯	-7.41121
ㄗㄨㄟˋ0쎯	-7.41256
ㄑㄩㄢˊ1쎯	-7.41494
ㄐㄧˊ8쎯	-7.42354
ㄎㄞ0쎯	-7.42362
ㄊㄜˋ0쎯	-7.42516
ㄈㄤ0쎯	-7.42746
ㄓㄨˇ0쎯ㄧㄠ4쎯	-7.42847
ㄐㄧˋ3쎯	-7.43159
ㄩㄢˊ0쎯	-7.43212
ㄐㄧㄣˋ0쎯ㄏㄤˊ0쎯	-7.43227
.”	-7.433
ㄍㄨˇ0쎯	-7.43423
1쎯	-7.43969
ㄊㄨㄥ0쎯	-7.44178
ㄐㄧㄥ2쎯	-7.44316
ㄑㄩㄢˊ1쎯ㄍㄨㄛˊ0쎯	-7.4498
ㄖㄣˊ0쎯,	-7.45387
ㄐㄩㄣ0쎯	-7.46289
ㄨㄟˋ2쎯	-7.46297
ㄔㄨㄥˊ2쎯	-7.46478
ㄏㄨㄥˊ1쎯	-7.46834
ㄕㄜˋ1쎯ㄏㄨㄟˋ2쎯	-7.47143
7쎯	-7.4751
ㄐㄧㄢˋ2쎯ㄓㄨˋ10쎯	-7.47525
6쎯	-7.4753
ㄧㄡˊ4쎯	-7.48304
ㄔㄨˇ0쎯	-7.48418
ㄍㄜˋ0쎯	-7.49163
ㄓㄥ0쎯	-7.49346
ㄏㄠˊ0쎯	-7.49525
ㄑㄧˋ0쎯	-7.49715
ㄩㄢˊ4쎯	-7.50312
ㄒㄧㄤ1쎯	-7.5041
,ㄗㄞˋ1쎯	-7.50834
ㄊㄨㄥˊ0쎯	-7.51314
ㄅㄧㄥˋ0쎯	-7.51423
ㄉㄨˋ2쎯	-7.51531
ㄏㄠˇ0쎯	-7.51537
ㄉㄧ2쎯ㄍㄨㄥ5쎯	-7.5193
ㄒㄧㄝˊ0쎯	-7.52647
ㄕ2쎯	-7.53463
ㄓˋ3쎯	-7.53619
ㄒㄧㄤˋ0쎯	-7.53821
ㄊㄞ0쎯	-7.54347
쎉	-7.54647
ㄐㄧ12쎯	-7.54912
ㄔㄜ0쎯	-7.55132
ㄉㄜˊ0쎯	-7.55603
ㄑㄧˇ4쎯	-7.55855
ㄍㄨㄥ2쎯	-7.55912
ㄌㄧˋ6쎯	-7.56335
ㄆㄧㄢ0쎯	-7.56382
ㄐㄧㄢˋ2쎯ㄕㄜˋ0쎯	-7.56503
ㄓㄤ0쎯	-7.57121
ㄖㄨˊ0쎯	-7.57279
ㄍㄨㄥ0쎯	-7.57373
ㄌㄟˋ2쎯	-7.57532
ㄉㄧㄥˋ1쎯	-7.57984
ㄖㄜˋ쎯	-7.57986
ㄉㄧㄢˋ0쎯	-7.58255
ㄑㄧˋ7쎯	-7.58375
ㄅㄟˇ쎯ㄐㄧㄥ1쎯	-7.58514
ㄩㄝˋ0쎯	-7.58889
ㄨㄤˇ0쎯	-7.58956
ㄓㄨˇ0쎯	-7.58961
ㄑㄩˋ0쎯	-7.59282
ㄓˇ4쎯	-7.60045
ㄧㄚˋ1쎯	-7.60053
》、《	-7.60371
ㄕˋ3쎯	-7.60969
ㄐㄧㄚ0쎯	-7.6117
쎁쎂	-7.61459
ㄉㄚˊ1쎯	-7.61521
▁̇ㄉㄜ0쎯ㄡ0쎯	-7.6187
ㄙㄜˋ0쎯	-7.62152
ㄌㄠˇ0쎯	-7.62209
,ㄅㄧㄥ1쎯	-7.62852
ㄐㄩˊ0쎯	-7.62922
"	-7.63266
ㄘㄨㄥˊ0쎯ㄕˋ8쎯	-7.64392
ㄋㄩˇ0쎯	-7.64568
ㄨㄛˇ쎯	-7.6458
ㄧㄠ2쎯	-7.64736
ㄕㄣˊ1쎯	-7.64988
ㄌㄚ1쎯	-7.6534
8쎯	-7.65783
ㄒㄧㄤˋ1쎯ㄇㄨˋ1쎯	-7.65978
ㄐㄧˊ2쎯	-7.66398
),	-7.66851
ㄐㄩˋ2쎯ㄧㄡˇ1쎯	-7.67088
ㄕㄨˇ5쎯	-7.67104
ㄧㄤˊ2쎯	-7.68055
ㄒㄧㄝˊ1쎯ㄏㄨㄟˋ2쎯	-7.6827
ㄕㄨˇ1쎯	-7.68395
ㄊㄨˊ0쎯	-7.68521
ㄕㄨㄤ0쎯	-7.68689
ㄐㄧㄠ6쎯ㄒㄩㄝˊ1쎯	-7.6871
ㄏㄨㄢˊ0쎯ㄐㄧㄥˋ7쎯	-7.68769
ㄎㄜ2쎯ㄐㄧˋ2쎯	-7.69078
ㄘㄥˊ0쎯	-7.69256
ㄌㄧㄤˊ3쎯	-7.69269
ㄐㄧㄡˋ4쎯	-7.69759
ㄧˇ1쎯	-7.70087
쎂쎀	-7.70192
ㄊㄨˇ0쎯	-7.70289
ㄌㄧㄡˊ3쎯	-7.70413
ㄌㄧˇ1쎯	-7.70739
ㄗˋ1쎯	-7.70912
ㄨㄤˇ0쎯ㄌㄠˋ0쎯	-7.71017
ㄧㄠ4쎯	-7.7113
ㄔㄨㄥˊ1쎯	-7.71215
ㄕˋ8쎯	-7.71758
ㄕˇ2쎯ㄩㄥˋ0쎯	-7.71941
ㄍㄨㄢˇ1쎯	-7.72082
ㄇㄧㄣˊ0쎯	-7.72907
ㄧˋ2쎯ㄕㄨˋ0쎯	-7.72916
ㄌㄨㄛˊ0쎯	-7.72962
ㄉㄤ0쎯	-7.7298
ㄌㄧˋ3쎯	-7.73246
ㄕˋ3쎯ㄐㄧㄝˋ3쎯	-7.73266
ㄐㄧㄣˋ1쎯	-7.73312
ㄨˋ3쎯	-7.73772
ㄎㄚˇ0쎯	-7.73843
ㄞˋ1쎯	-7.74197
ㄉㄞˋ1쎯	-7.74276
》:“	-7.74348
ㄒㄧㄥ1쎯	-7.7445
ㄒㄧㄣˋ0쎯ㄒㄧ7쎯	-7.74633
ㄎㄜˇ0쎯ㄧˇ2쎯	-7.74674
ㄧˇ2쎯ㄐㄧˊ0쎯	-7.74744
ㄔㄤˊ1쎯	-7.74783
ㄏㄨㄚˋ1쎯	-7.74897
ㄩˇ6쎯	-7.74969
ㄇㄨˋ0쎯	-7.75031
ㄒㄧㄤ2쎯	-7.75118
ㄎㄜ2쎯ㄒㄩㄝˊ1쎯	-7.75815
,ㄧˇ2쎯	-7.75943
ㄒㄧㄥˊ1쎯	-7.76135
ㄓㄢˋ2쎯	-7.76267
ㄈㄤˊ3쎯	-7.76404
0쎯	-7.76414
ㄕˇ2쎯	-7.76474
ㄘㄢ0쎯ㄐㄧㄚ0쎯	-7.76542
ㄊㄨㄥ0쎯ㄍㄨㄛ0쎯	-7.76734
ㄈㄨˋ8쎯	-7.76945
ㄍㄜˇ1쎯	-7.77094
ㄖㄣˊ0쎯.	-7.77246
ㄗㄨˇ1쎯ㄓ9쎯	-7.77633
ㄕㄣ5쎯	-7.77665
ㄐㄧㄢ4쎯	-7.77866
ㄉㄨㄥˋ0쎯	-7.77908
쎁쎉	-7.788
ㄉㄧˋ3쎯ㄧ0쎯	-7.793
ㄩㄣˊ0쎯	-7.7959
ㄓㄡ2쎯	-7.80371
ㄍㄢ0쎯	-7.80426
ㄘˇ0쎯	-7.80694
ㄕㄨㄟˋ0쎯	-7.80756
ㄨˇ3쎯	-7.81049
ㄇㄟˇ1쎯ㄍㄨㄛˊ0쎯	-7.81548
ㄩˊ3쎯	-7.81554
ㄕㄣ2쎯	-7.81557
ㄍㄨㄢ2쎯	-7.81783
ㄊㄧㄠˊ0쎯	-7.81842
ㄅㄧˇ1쎯	-7.81846
ㄕㄜˋ0쎯ㄅㄟˋ2쎯	-7.82402
ㄎㄞ0쎯ㄈㄚ쎯	-7.82465
ㄐㄧㄢˋ2쎯	-7.82695
”.	-7.82736
ㄐㄧ13쎯	-7.8304
ㄏㄢˋ0쎯	-7.83321
ㄅㄧㄠ0쎯ㄓㄨㄣˇ0쎯	-7.83549
ㄑㄧㄥˊ0쎯	-7.83577
9쎯	-7.83802
ㄋㄧˇ1쎯	-7.83835
ㄨㄟˇ5쎯ㄩㄢˊ2쎯ㄏㄨㄟˋ2쎯	-7.84097
ㄧㄡˋ0쎯	-7.84635
ㄏㄨㄛˇ0쎯	-7.84888
ㄐㄧㄤˋ2쎯	-7.8502
ㄑㄧㄥ0쎯	-7.85524
쎃쎀	-7.85666
ㄘㄠˇ쎯	-7.86104
ㄍㄜˇ0쎯	-7.86121
ㄓˋ4쎯	-7.8646
ㄓㄨㄤˋ1쎯	-7.86685
ㄐㄧㄠ6쎯	-7.8669
ㄕ3쎯	-7.86931
ㄅㄚ0쎯	-7.87119
ㄗˋ0쎯ㄐㄧˇ0쎯	-7.87292
ㄔㄨㄢˊ0쎯	-7.87309
ㄔㄢˊ0쎯	-7.87449
ㄕㄤˇ0쎯ㄏㄞˇ0쎯	-7.8787
ㄕˋ4쎯ㄔㄤˊ1쎯	-7.87977
ㄌ	-7.88051
ㄇㄨˋ1쎯	-7.88826
ㄧㄝˋ0쎯	-7.8899
ㄅㄧㄢ0쎯	-7.8902
ㄖㄣˊ0쎯ㄇㄧㄣˊ0쎯	-7.89201
ㄔㄨ1쎯	-7.89226
ㄅㄚˇ0쎯	-7.89571
ㄍㄞ0쎯	-7.89745
ㄐㄩㄢˇ0쎯	-7.90055
ㄅㄧˋ2쎯ㄧㄝˋ0쎯ㄩˊ0쎯	-7.90229
ㄧㄣ0쎯	-7.9051
ㄕㄤ1쎯	-7.90954
ㄐㄧˊ4쎯	-7.90991
ㄕㄡˇ2쎯	-7.91033
ㄒㄧㄢˋ1쎯ㄉㄞˋ0쎯	-7.91149
ㄧ3쎯ㄩㄢˋ2쎯	-7.91247
ㄩㄢˋ2쎯	-7.91254
ㄕㄥ1쎯ㄏㄨㄛˊ0쎯	-7.91289
ㄆㄧㄣˇ쎯	-7.91554
ㄉㄧㄠˋ2쎯	-7.91648
ㄏㄨㄛˋ2쎯	-7.91819
ㄌㄧㄡˋ0쎯	-7.92523
ㄐㄧㄢˋ0쎯	-7.92554
ㄏㄨㄟˊ0쎯	-7.92656
ㄔㄣˋ1쎯	-7.93046
ㄍㄨㄥ0쎯ㄧㄝˋ0쎯	-7.93156
ㄐㄧㄝ0쎯	-7.93967
ㄆㄧˊ0쎯	-7.94008
ㄔㄥˊ0쎯ㄨㄟˊ0쎯	-7.94223
ㄐㄧㄣˋ0쎯	-7.94352
ㄔㄥˊ4쎯ㄕˋ4쎯	-7.94481
ㄅㄢˇ0쎯	-7.94563
ㄍㄨㄥ3쎯ㄋㄥˊ쎯	-7.94619
ㄒㄧㄝˇ1쎯	-7.94788
쎁쎁	-7.94814
ㄊㄧㄢˊ0쎯	-7.95048
ㄌㄜˋ0쎯	-7.95221
ㄓㄨㄢˇ쎯	-7.95295
ㄐㄧˊ8쎯ㄊㄨㄢˊ0쎯	-7.95295
ㄓㄨˋ7쎯ㄇㄧㄥˊ0쎯	-7.95334
ㄐㄧㄠˋ2쎯	-7.95479
ㄩㄢˊ9쎯	-7.95681
ㄅㄨˋ0쎯ㄊㄨㄥˊ0쎯	-7.95682
ㄔㄤˇ0쎯	-7.95772
ㄧˋ18쎯	-7.96015
ㄅㄞˇ0쎯	-7.96034
ㄉㄤˇ1쎯	-7.96145
ㄅㄨˋ1쎯	-7.96219
ㄕㄥ2쎯	-7.96767
ㄑㄩˇ0쎯	-7.96884
ㄏㄞˊ0쎯	-7.96983
ㄕˊ3쎯	-7.97185
ㄩㄢˊ1쎯	-7.97585
ㄌㄡˊ1쎯	-7.97614
ㄘˋ0쎯	-7.97633
ㄓㄥˋ3쎯ㄈㄨˇ3쎯	-7.97634
ㄍㄟˇ쎯	-7.97704
ㄍㄜˋ0쎯ㄔㄨㄥˊ1쎯	-7.9773
ㄓㄨㄥ0쎯ㄒㄩㄝˊ1쎯	-7.97922
쎁쎅	-7.97971
ㄐㄧㄚ0쎯ㄖㄨˋ0쎯	-7.98103
ㄗㄨㄛ0쎯ㄆㄧㄣˇ쎯	-7.98242
ㄨㄟ3쎯	-7.98654
ㄚ0쎯	-7.98661
ㄗㄨㄟˋ0쎯ㄉㄚˋ쎯	-7.98671
ㄒㄩㄝˊ1쎯ㄕㄥ1쎯	-7.98676
ㄌㄢˊ0쎯	-7.98777
ㄌㄧㄢˊ0쎯	-7.98994
ㄅㄠˇ1쎯	-7.99344
ㄊㄨㄢˊ0쎯	-7.99414
ㄧㄡˊ5쎯ㄒㄧˋ0쎯	-7.99552
ㄑㄧ0쎯	-7.99584
ㄏㄨˊ5쎯	-7.99706
ㄧㄢˊ7쎯	-7.99764
ㄍㄜˊ2쎯	-7.99801
쎁쎆	-8.00006
ㄌㄧˇ3쎯	-8.00327
ㄓㄢˋ1쎯	-8.00489
ㄋㄨㄥˊ0쎯ㄧㄝˋ0쎯	-8.00491
ㄒㄩㄝˊ1쎯ㄒㄧˊ0쎯	-8.00568
ㄅㄚ1쎯	-8.00626
ㄐㄧㄡˇ0쎯	-8.00633
ㄉㄞˋ0쎯	-8.00688
ㄑㄧㄠˊ2쎯	-8.00906
ㄔㄢˊ0쎯ㄨㄟˋ2쎯	-8.01476
쎅쎀	-8.01572
ㄗㄨˇ1쎯	-8.01669
ㄔㄣˊ5쎯	-8.0172
ㄩㄥ1쎯ㄧㄡˇ1쎯	-8.01729
ㄘㄞˋ0쎯	-8.02026
ㄩㄢˇ쎯	-8.02032
ㄈㄤˋ쎯	-8.02198
ㄍㄨㄛˇ0쎯	-8.02934
ㄧㄠˋ0쎯	-8.02971
ㄖˋ0쎯ㄅㄣˇ0쎯	-8.03365
ㄉㄧㄢˋ0쎯ㄗˇ0쎯	-8.03567
ㄔㄥˊ0쎯ㄌㄧˋ3쎯	-8.03611
ㄩˋ0쎯	-8.03626
ㄈㄟ2쎯	-8.03952
ㄕˋ0쎯	-8.03955
ㄉㄨㄟˋ0쎯	-8.04023
ㄓㄣ4쎯	-8.04177
ㄧㄡ0쎯ㄒㄧㄡˋ0쎯	-8.04266
ㄅㄧㄢˋ0쎯	-8.04337
ㄑㄩ0쎯	-8.04449
ㄕㄡˋ1쎯	-8.04949
ㄏㄨˋ1쎯	-8.0521
ㄅㄛ1쎯	-8.0571
ㄗㄨㄛˋ2쎯	-8.05869
ㄘㄥˊ1쎯	-8.05941
!	-8.06061
ㄊㄞˋ0쎯	-8.06135
ㄐㄧㄝ4쎯	-8.06152
ㄍㄥ0쎯	-8.06575
ㄕˊ4쎯	-8.06636
ㄒㄧㄢ1쎯ㄐㄧㄣˋ0쎯	-8.06765
ㄧㄢˊ2쎯	-8.07003
ㄒㄧㄣˋ0쎯	-8.07249
ㄔㄢˇ0쎯	-8.07272
ㄓㄜˋ0쎯	-8.07573
ㄧˋ1쎯	-8.07717
ㄎㄞ0쎯ㄕˇ3쎯	-8.07731
ㄓ1쎯ㄔˊ4쎯	-8.07734
ㄗㄜˊ0쎯	-8.07747
ㄉㄚˊ0쎯	-8.08075
ㄕㄚ2쎯	-8.08203
ㄒ	-8.08419
ㄐㄩ1쎯	-8.08441
ㄕㄨˋ3쎯	-8.08469
ㄧㄥ0쎯ㄩㄥˋ0쎯	-8.08578
ㄔㄨㄣ0쎯	-8.08675
ㄘㄞˊ1쎯ㄌㄧㄠˋ0쎯	-8.0875
ㄕˇ0쎯	-8.08857
ㄐㄧㄠ0쎯ㄊㄨㄥ0쎯	-8.08904
ㄏㄤˊ0쎯ㄧㄝˋ0쎯	-8.08928
ㄆㄧㄣˇ쎯ㄆㄞˊ2쎯	-8.0897
ㄓˋ5쎯	-8.09561
ㄏㄨㄛˊ0쎯ㄉㄨㄥˋ0쎯	-8.09577
ㄓˋ4쎯ㄌㄧㄤˊ3쎯	-8.09616
ㄕˊ1쎯ㄐㄧㄢ4쎯	-8.10174
ㄍㄨㄥˋ0쎯	-8.10186
,ㄨㄟˊ0쎯	-8.102
ㄐㄧㄝ3쎯ㄍㄡˋ0쎯	-8.10219
ㄧㄥ0쎯	-8.10378
ㄖㄡˋ쎯	-8.104
ㄐㄩˋ2쎯	-8.10509
ㄅㄢˋ1쎯	-8.10548
ㄔㄤˊ4쎯	-8.10574
ㄒㄧㄥ0쎯	-8.10625
ㄒㄧㄡ1쎯	-8.1083
ㄙ1쎯	-8.10868
ㄍㄢˇ3쎯	-8.11113
쎄쎀	-8.11153
ㄢ0쎯ㄑㄩㄢˊ1쎯	-8.11334
ㄊㄡˊ1쎯ㄗ2쎯	-8.11486
ㄧㄤˇ1쎯	-8.11587
ㄇㄧㄢˋ0쎯ㄐㄧ11쎯	-8.11638
ㄌㄧˋ1쎯ㄕˇ0쎯	-8.11774
ㄧㄣ4쎯	-8.11895
ㄐㄧㄥ8쎯	-8.1194
ㄌㄧㄣˊ2쎯	-8.1223
ㄧㄢˇ2쎯	-8.12399
ㄐㄧㄠ0쎯	-8.12527
ㄐㄧㄡˇ5쎯	-8.12565
ㄒㄧㄢ1쎯	-8.12671
ㄊㄚ2쎯	-8.127
ㄐㄧˊ3쎯	-8.12702
ㄖㄨㄢˇ0쎯ㄐㄧㄢˋ1쎯	-8.13091
ㄧㄣ4쎯ㄌㄜˋ0쎯	-8.1329
ㄓㄤ1쎯	-8.13604
ㄏㄟ0쎯	-8.13973
ㄑㄧㄝ쎯	-8.14047
ㄌㄩˇ2쎯ㄧㄡˊ5쎯	-8.14061
ㄖㄣˊ0쎯ㄩㄢˊ2쎯	-8.14162
ㄌㄧㄡˊ0쎯	-8.14488
ㄌㄧㄢˊ4쎯	-8.14699
ㄅㄢˇ1쎯	-8.14731
.ㄗㄞˋ1쎯	-8.14899
ㄔㄨ0쎯ㄅㄢˇ1쎯	-8.1509
ㄎㄢ1쎯	-8.1511
ㄌㄨㄣˊ2쎯	-8.15253
ㄉㄞˋ0쎯ㄅㄧㄠˇ0쎯	-8.15304
ㄍㄨㄢ0쎯	-8.15435
ㄒㄩㄢˇ0쎯	-8.15446
ㄌㄩˋ2쎯	-8.15522
ㄊㄚˇ0쎯	-8.15597
ㄕˋ18쎯	-8.1578
ㄉㄧˇ1쎯	-8.15837
ㄓㄢ0쎯	-8.15965
ㄋㄧㄥˊ0쎯	-8.15999
ㄐㄧㄝˋ3쎯	-8.16152
ㄊㄚ1쎯	-8.17074
ㄓㄨㄤ3쎯	-8.17145
——	-8.17172
ㄅㄠˇ2쎯	-8.17253
ㄓˊ1쎯	-8.17315
).	-8.17389
ㄏㄨㄛˋ2쎯ㄉㄜˊ0쎯	-8.17527
ㄐㄧˋ3쎯ㄌㄧㄝˋ0쎯	-8.17745
ㄋㄟˋ쎯ㄖㄨㄥˊ4쎯	-8.17753
ㄐㄧㄠˇ0쎯	-8.17894
ㄇㄠˊ0쎯	-8.17959
ㄑㄧㄢ0쎯	-8.18286
쎆쎀	-8.18543
ㄅㄠ0쎯ㄎㄨㄛˋ1쎯	-8.18573
ㄐㄧㄡˇ5쎯ㄉㄧㄢˋ3쎯	-8.19195
ㄗㄨㄛ0쎯ㄨㄟˊ0쎯	-8.19387
ㄍㄨㄤˇ0쎯	-8.19473
ㄉ	-8.19523
ㄐㄧㄝˇ1쎯	-8.1954
ㄔㄨˊ0쎯	-8.19711
ㄐㄧㄝ7쎯	-8.19897
ㄅㄨˋ4쎯ㄈㄣ0쎯	-8.19935
ㄊㄤˊ0쎯	-8.20014
ㄐㄧㄤˇ1쎯	-8.20146
ㄎㄨㄢ0쎯	-8.20505
ㄓˋ1쎯	-8.20587
ㄔㄠ4쎯	-8.20601
ㄘˊ0쎯	-8.20712
ㄩˊ2쎯	-8.20751
ㄈㄤ0쎯ㄈㄚˇ0쎯	-8.21098
ㄒㄧㄝˇ0쎯	-8.21211
ˋ	-8.2123
ㄈㄤˊ0쎯	-8.21387
ㄍㄠ0쎯ㄐㄧˊ2쎯	-8.21561
ㄨㄣ0쎯	-8.21568
ㄨㄣˊ0쎯ㄒㄩㄝˊ1쎯	-8.21573
ㄙㄨㄥ0쎯	-8.21758
ㄐㄧㄥˇ1쎯	-8.22295
ㄐㄧㄠ6쎯ㄕ2쎯	-8.22309
ㄐㄧㄥ2쎯ㄧㄥˊ5쎯	-8.22454
,ㄉㄢˋ2쎯	-8.22706
ㄙㄨㄟˋ0쎯	-8.22796
ㄎㄨㄥˋ0쎯ㄓˋ3쎯	-8.22847
—	-8.22993
ㄓˊ5쎯ㄨˋ3쎯	-8.22997
ㄓˋ3쎯ㄗㄨㄛ0쎯	-8.23054
ㄌㄧˇ3쎯ㄌㄨㄣˊ2쎯	-8.23193
ㄍㄣ0쎯	-8.23354
쎁쎄	-8.23362
～	-8.23504
ㄑㄧㄡˊ2쎯	-8.23805
ㄈㄢˇ0쎯	-8.23863
ㄉㄧ0쎯	-8.23962
ㄍㄨㄢˇ0쎯	-8.24069
ㄒㄧㄤˋ3쎯	-8.24084
ㄉㄥˇ0쎯.	-8.24092
ㄐㄧㄝ3쎯	-8.24319
ㄈㄣˇ쎯	-8.24372
ㄉㄠˇ1쎯	-8.24419
ㄗㄨㄥ0쎯	-8.24479
ㄕㄠˇ쎯	-8.24533
ㄙㄨㄢ0쎯	-8.24636
ㄅㄧㄠˇ0쎯	-8.24885
ㄧㄡˊ5쎯	-8.24973
ㄒㄧㄠˇ0쎯ㄒㄩㄝˊ1쎯	-8.24975
ㄧㄥ1쎯	-8.25118
ㄕㄜˋ1쎯ㄡ0쎯	-8.25283
ㄉㄧˋ3쎯ㄦˋ0쎯	-8.25564
쎁쎈	-8.25784
ㄊ	-8.25912
ㄉㄨㄢˇ쎯	-8.26074
ㄗ2쎯ㄩㄢˊ9쎯	-8.26211
ㄐㄧㄚˇ0쎯	-8.26247
ㄍㄨㄟ2쎯ㄏㄨㄚˊ0쎯	-8.26527
ㄨㄟˋ3쎯	-8.26625
ㄓ7쎯	-8.2684
ㄧˋ12쎯	-8.27048
ㄖㄣˊ0쎯ㄎㄡˇ쎯	-8.27091
ㄐㄧ6쎯ㄍㄡˋ0쎯	-8.27238
ㄆㄢˊ1쎯	-8.27305
ㄈㄨˋ7쎯	-8.27535
ㄩㄣˋ1쎯	-8.27787
ㄌㄚˋ0쎯	-8.27918
ㄅㄢ1쎯	-8.27923
ㄎㄨㄥ0쎯	-8.27974
쎁쎃	-8.28274
ㄘㄞˊ0쎯	-8.2842
ㄘㄞˇ0쎯ㄩㄥˋ0쎯	-8.28449
ㄩㄢˊ5쎯	-8.28755
ㄋㄚˋ1쎯	-8.28781
ㄔㄨㄢˊ0쎯ㄊㄨㄥˇ0쎯	-8.28885
ㄋㄢˊ0쎯	-8.29001
ㄕˋ1쎯	-8.2901
ㄩㄢˊ2쎯	-8.29454
ㄈㄣ0쎯ㄒㄧ5쎯	-8.29572
ㄒㄧˋ1쎯	-8.2963
ㄗㄨˊ0쎯ㄑㄧㄡˊ2쎯	-8.29635
ㄊㄤ0쎯	-8.29735
ㄓㄥˋ3쎯	-8.29756
ㄑ	-8.2983
ㄐㄧ6쎯ㄒㄧㄝˋ4쎯	-8.29918
ㄙㄨˋ2쎯	-8.2997
ㄗˋ0쎯ㄖㄢˊ0쎯	-8.30024
ㄈㄨˊ12쎯	-8.30157
ㄅㄧㄥ2쎯	-8.30452
ㄆㄞˋ0쎯	-8.30594
ㄩㄥˇ0쎯	-8.30696
ㄍㄨ5쎯	-8.30855
ㄧˋ7쎯	-8.31141
ㄊㄤˊ1쎯	-8.31232
ㄈㄟ0쎯	-8.31369
ㄨㄟˇ5쎯	-8.31376
ㄠˋ2쎯	-8.31537
ㄉㄨㄢˋ0쎯	-8.31623
ㄔㄨㄢ0쎯	-8.31658
ㄒㄧㄠ6쎯ㄕㄡˋ3쎯	-8.31701
ㄔㄨㄥˊ2쎯ㄉㄧㄢˇ1쎯	-8.31797
ㄔㄠˊ1쎯	-8.31843
ㄗㄨㄛˋ1쎯	-8.31856
ㄨㄟˋ1쎯	-8.31894
ㄏㄨㄢˊ0쎯	-8.31929
,ㄑㄧˊ1쎯	-8.32049
ㄕㄤ1쎯ㄨˋ2쎯	-8.32363
ㄐㄧㄡˋ4쎯ㄕˋ15쎯	-8.32365
ㄋㄧˊ0쎯	-8.32626
ㄅㄠ0쎯	-8.32676
ㄕㄥˋ0쎯	-8.32681
ㄨˊ2쎯	-8.32702
ㄒㄩㄝˊ1쎯ㄏㄨㄟˋ2쎯	-8.32762
ㄊㄧㄝˇ쎯	-8.32853
ㄓ7쎯ㄕˊ2쎯	-8.32859
ㄓˋ5쎯ㄌㄧㄠˊ1쎯	-8.32916
ㄓㄢˇ2쎯	-8.32981
ㄘㄤˊ쎯	-8.33078
쎁쎀쎀	-8.33088
ㄐㄩㄣ1쎯	-8.33363
ㄈㄤ0쎯ㄇㄧㄢˋ0쎯	-8.3346
ㄓㄨㄥ0쎯ㄧㄤ0쎯	-8.33485
ㄅㄧㄢ1쎯	-8.33588
ㄒㄧㄥˊ1쎯ㄔㄥˊ0쎯	-8.33595
ㄇㄟˊ0쎯ㄧㄡˇ1쎯	-8.33759
ㄍㄣ0쎯ㄐㄩ4쎯	-8.3379
쎁쎇	-8.33892
ㄔㄚˊ1쎯	-8.34051
ㄆㄟˊ1쎯ㄒㄩㄣˋ0쎯	-8.34069
ㄅㄠˋ0쎯	-8.3412
쎇ㄩㄝˋ0쎯	-8.34121
ㄉㄨㄢ0쎯	-8.34552
ㄑㄧˊ1쎯ㄊㄚ0쎯	-8.35139
ㄓㄨㄢ0쎯ㄐㄧㄚ3쎯	-8.35346
ㄑㄩㄢˊ0쎯	-8.35375
ㄧㄤˊ3쎯	-8.35388
ㄕˊ0쎯	-8.35413
ㄔㄥˊ6쎯	-8.35483
ㄐㄧˋ8쎯	-8.35857
ㄋㄚ0쎯	-8.35919
ㄏㄤˊ0쎯ㄓㄥˋ3쎯	-8.35931
ㄋㄨㄥˊ0쎯	-8.36038
ㄓ0쎯ㄐㄧㄢ4쎯	-8.36121
ㄐㄧㄠˋ4쎯	-8.36197
쎈쎀	-8.36222
ㄏㄡˋ0쎯,	-8.36302
ㄧㄢˊ3쎯	-8.36331
ㄗㄨˊ1쎯	-8.36414
ㄧㄝˋ0쎯ㄨˋ2쎯	-8.3642
ㄧㄚ1쎯	-8.36451
쎂쎅	-8.36487
ㄓㄨㄢ0쎯	-8.36522
ㄇㄧˋ1쎯	-8.36714
ㄢˋ1쎯	-8.36725
.《	-8.36751
ㄑㄧˊ1쎯ㄓㄨㄥ0쎯	-8.36798
ㄓㄨㄤ1쎯	-8.36923
ㄋㄧㄡˊ쎯	-8.37011
ㄕㄡ쎯	-8.37198
ㄍㄨㄢ1쎯	-8.37362
ㄔㄨㄥˊ2쎯ㄧㄠ4쎯	-8.37397
ㄐㄧㄢ8쎯	-8.37429
ㄒㄧㄠˇ0쎯ㄕㄨㄟˋ0쎯	-8.37439
ㄑㄩㄣˊ1쎯	-8.37521
ㄍㄜ7쎯	-8.37638
ㄊㄧㄥ0쎯	-8.37922
ㄩㄥˋ0쎯ㄩˊ0쎯	-8.37952
ㄅㄧˇ3쎯	-8.37977
ㄕㄜˋ1쎯	-8.37983
ㄐㄧ9쎯	-8.3837
ㄒㄧ14쎯	-8.38616
ㄗㄥˋ0쎯ㄍㄜˇ1쎯	-8.38644
ㄌㄧˊ3쎯	-8.38712
ㄧㄥˊ5쎯	-8.38948
ㄌㄧㄝˋ0쎯	-8.39067
ㄩㄣˋ1쎯ㄉㄨㄥˋ0쎯	-8.39158
ㄗㄡˇ쎯	-8.39248
ㄎㄤˋ1쎯	-8.39328
ㄏㄣˇ0쎯	-8.39368
ㄑㄧㄢˊ1쎯	-8.39475
ㄍㄨㄥ0쎯ㄗㄨㄛ0쎯,	-8.3949
ㄕㄨㄛˋ1쎯ㄕˋ0쎯	-8.39619
ㄐㄧ8쎯	-8.39624
ㄌㄟˋ2쎯ㄒㄧㄥˊ2쎯	-8.39727
ㄒㄧㄢˋ1쎯	-8.3981
ㄙㄨ0쎯	-8.39898
ㄔㄥˊ0쎯ㄌㄧˋ3쎯ㄩˊ0쎯	-8.39916
ㄉㄧㄢˋ3쎯	-8.40074
ㄐㄧㄚ0쎯ㄍㄨㄥ0쎯	-8.40095
ㄒㄧㄤ2쎯ㄍㄤˇ쎯	-8.40139
ㄗㄨˇ1쎯ㄔㄥˊ0쎯	-8.40149
ㄍㄨㄥˋ0쎯ㄔㄢˇ0쎯ㄉㄤˇ1쎯	-8.40237
ㄈㄥ0쎯ㄈㄨˋ11쎯	-8.40302
ㄓˊ4쎯ㄧㄝˋ0쎯	-8.40508
ㄆㄨˇ2쎯	-8.40619
ㄉㄧㄢˋ0쎯ㄧㄥˇ1쎯	-8.40632
”,	-8.40662
ㄖㄤˋ쎯	-8.40678
ㄍㄜˇ1쎯ㄗㄨㄛ0쎯	-8.40679
,ㄧㄡˇ1쎯	-8.40683
ㄗㄞˋ0쎯	-8.40962
ㄆㄧㄢ2쎯	-8.41854
ㄈㄨ0쎯	-8.42036
ㄨㄣˋ0쎯ㄊㄧˊ1쎯	-8.42285
ㄋㄥˊ쎯ㄌㄧˋ0쎯	-8.42294
ㄙˇ쎯	-8.42653
ㄈㄨˇ3쎯	-8.42732
ㄗㄨˊ0쎯	-8.42782
▁̇ㄉㄜ1쎯ㄧ0쎯ㄔㄨㄥˊ1쎯	-8.43001
ㄅㄠˇ2쎯ㄏㄨˋ2쎯	-8.43109
ㄐㄧ12쎯ㄅㄣˇ0쎯	-8.43189
ㄘㄨㄣ0쎯ㄨㄟˇ5쎯ㄏㄨㄟˋ2쎯	-8.43211
ㄙˋ2쎯	-8.43248
ㄈㄥ5쎯	-8.43364
ㄨㄛˇ쎯ㄇㄣˊ1쎯	-8.43434
ㄎㄨㄞˋ0쎯	-8.43555
ㄌㄧㄠˋ0쎯	-8.43994
ㄒㄩㄝˊ1쎯ㄕㄨˋ0쎯	-8.44414
ㄓㄥˋ3쎯ㄓˋ5쎯	-8.44816
ㄌㄧㄥˊ2쎯	-8.44851
ㄇㄧㄣˊ0쎯ㄗㄨˊ1쎯	-8.45092
ㄕㄢ0쎯ㄉㄨㄥ0쎯	-8.45291
ㄧㄣˊ1쎯	-8.45417
ㄨㄣˊ1쎯	-8.45656
:“	-8.45689
ㄐㄧㄢˋ2쎯ㄌㄧˋ3쎯	-8.45777
ㄙㄨㄟˊ1쎯	-8.45971
ㄔㄢˇ0쎯ㄧㄝˋ0쎯	-8.45977
ㄏㄨㄚˋ0쎯ㄒㄩㄝˊ1쎯	-8.46049
ㄨㄟˊ6쎯	-8.46242
ㄗㄞˇ1쎯	-8.46283
ㄨㄤˇ0쎯ㄓㄢˋ2쎯	-8.46376
ㄌㄨˋ3쎯	-8.46443
ㄆㄞˊ0쎯	-8.46564
▁̇ㄉㄜ1쎯ㄧ0쎯ㄍㄜˇ0쎯	-8.46638
ㄧㄥˇ1쎯ㄒㄧㄤˇ1쎯	-8.46758
ㄙㄨㄥˋ1쎯	-8.468
ㄓㄥˋ0쎯	-8.46832
ㄌㄧㄥˇ1쎯ㄉㄠˇ0쎯	-8.4692
ㄕˋ12쎯	-8.46927
ㄅㄛˊ5쎯	-8.46965
ㄅㄧㄢˋ1쎯	-8.46993
ㄧ0쎯ㄅㄢ2쎯	-8.47045
ㄑㄧˋ3쎯ㄔㄜ0쎯	-8.47063
ㄕㄤ1쎯ㄧㄝˋ0쎯	-8.4712
ㄧㄚˇ쎯	-8.47228
ㄇㄛˋ1쎯	-8.47392
ㄌㄧˋ6쎯ㄩㄥˋ0쎯	-8.47454
ㄓ0쎯ㄧ0쎯.	-8.47489
ㄎㄨㄥˇ0쎯	-8.47564
ㄍㄨㄛˊ0쎯ㄋㄟˋ쎯	-8.47639
ㄊㄨㄛ0쎯	-8.47776
▁̇ㄇㄜ쎯	-8.47812
ㄌㄟˊ1쎯	-8.4814
ㄓㄨˊ0쎯	-8.4819
ㄍㄨㄥ6쎯	-8.48238
ㄐㄧㄝ4쎯ㄎㄡˇ쎯	-8.48303
ㄉㄧ2쎯	-8.48427
ㄧㄣˇ0쎯	-8.48461
ㄍㄨㄥ0쎯ㄧˋ2쎯	-8.48808
ㄅㄨˋ4쎯ㄇㄣˊ0쎯	-8.49248
ㄇㄛˊ3쎯ㄕˋ5쎯	-8.49446
ㄙ3쎯	-8.4945
ㄊㄞ0쎯ㄨㄢ1쎯	-8.49452
ㄒㄧㄚˋ1쎯	-8.4951
ㄈㄛˊ쎯	-8.49547
▁̇ㄉㄜ0쎯ㄈㄤ0쎯	-8.49609
ㄏ	-8.4971
ㄕˊ1쎯,	-8.49723
ㄦˊ0쎯	-8.49837
ㄐㄧˊ1쎯	-8.4984
ㄈㄥ0쎯	-8.49841
ㄓㄜˋ1쎯ㄐㄧㄤ0쎯	-8.50039
ㄅㄛˊ5쎯ㄕˋ0쎯	-8.50094
ㄈㄤ0쎯ㄕˋ5쎯	-8.5011
ㄑㄧㄥ1쎯	-8.50268
ㄧ0쎯ㄔㄨㄥˊ1쎯	-8.50315
ㄔ	-8.50405
ㄑㄧㄣ2쎯	-8.50451
ㄕㄜˋ0쎯	-8.50694
ㄧㄡˇ1쎯ㄍㄨㄢ0쎯	-8.50723
,ㄋㄢˊ0쎯,	-8.50761
ㄓㄨㄥ0쎯ㄏㄨㄚˊ1쎯	-8.50948
ㄅㄢˋ0쎯	-8.51047
ㄕ	-8.51064
ㄖㄣˊ0쎯ㄘㄞˊ0쎯	-8.51123
ㄖㄣˊ0쎯ㄨˋ3쎯	-8.51167
ㄊㄞˋ3쎯	-8.51255
”、“	-8.51328
?	-8.51331
ㄇㄟˊ4쎯	-8.51407
1	-8.51413
ㄕ2쎯ㄈㄢˋ3쎯	-8.5145
ㄓㄜˋ0쎯ㄍㄜˇ0쎯	-8.51477
ㄐㄧㄝˋ0쎯ㄕㄠˋ1쎯	-8.5163
ㄈㄨˊ12쎯ㄐㄧㄢˋ2쎯	-8.51671
쎈ㄩㄝˋ0쎯	-8.51673
ㄓ0쎯ㄧ0쎯	-8.51683
ㄒㄧㄤ1쎯ㄍㄨㄢ0쎯	-8.51722
ㄩㄥˋ0쎯ㄏㄨˋ1쎯	-8.51765
ㄕˋ15쎯ㄓˇ4쎯	-8.51792
ㄈㄨˊ5쎯	-8.51802
ㄎㄜˋ2쎯ㄏㄨˋ1쎯	-8.51918
ㄎㄜˋ1쎯	-8.52109
ㄌㄧㄥˇ1쎯ㄩˋ7쎯	-8.5235
ㄍㄨㄥ3쎯	-8.52374
ㄔㄨㄤ0쎯ㄒㄧㄣ5쎯	-8.52428
ㄓˋ3쎯ㄗㄠˋ2쎯	-8.52556
+	-8.5262
10쎯	-8.52651
ㄧㄣˋ0쎯	-8.52668
ㄓ2쎯	-8.52719
ㄍㄨㄟ0쎯	-8.52745
ㄙㄢˇ1쎯	-8.52763
ㄔㄨˇ0쎯ㄌㄧˇ3쎯	-8.52799
ㄎㄜ2쎯ㄧㄢˊ6쎯	-8.52888
쎉ㄩㄝˋ0쎯	-8.52901
ㄉㄧㄢˋ0쎯ㄕˋ12쎯	-8.52968
ㄍㄨˇ1쎯	-8.53044
ㄖㄢˊ0쎯	-8.53397
ㄊㄠˋ쎯	-8.53501
ㄉㄨㄥˋ0쎯ㄨˋ3쎯	-8.53517
ㄆㄟˋ2쎯	-8.53521
ㄕㄥ1쎯ㄨˋ3쎯	-8.53658
ㄐㄧㄝ3쎯ㄍㄜˇ1쎯	-8.53802
ㄐㄧˋ0쎯ㄏㄨㄚˊ0쎯	-8.53911
ㄍㄜˇ0쎯ㄖㄣˊ0쎯	-8.54189
ㄔㄨㄤ0쎯ㄗㄨㄛ0쎯	-8.5424
ㄒㄩ4쎯ㄧㄠ4쎯	-8.54263
ㄘㄠ0쎯ㄗㄨㄛ0쎯	-8.54293
ㄎㄤ0쎯	-8.54332
ㄧˇ2쎯ㄕㄤˇ0쎯	-8.54439
......	-8.54521
ㄨㄟˇ3쎯	-8.54541
ㄍㄜˊ0쎯ㄇㄧㄥˋ쎯	-8.54569
ㄓˇ3쎯	-8.54574
ㄌㄨˇ2쎯	-8.54688
ㄌㄨˋ0쎯	-8.54825
ㄒㄧㄢ0쎯	-8.5484
ㄅㄣˇ0쎯ㄕㄨ0쎯	-8.55048
ㄕㄥ1쎯,	-8.55098
ㄔㄥˊ1쎯	-8.55117
ㄈㄚ쎯ㄕㄥ1쎯	-8.55279
,ㄦˊ1쎯	-8.55346
ㄐㄧ12쎯ㄔㄨˇ1쎯	-8.55375
ㄧ3쎯ㄒㄩㄝˊ1쎯	-8.55423
ㄒㄧㄤˋ1쎯	-8.55459
ㄧˋ6쎯	-8.5562
ㄌㄧㄢˊ4쎯ㄍㄜˇ1쎯	-8.55654
ㄊㄜˋ0쎯ㄙㄜˋ0쎯	-8.55683
ㄍㄞˇ쎯	-8.55688
ㄕㄡ쎯ㄖㄨˋ0쎯	-8.55786
ㄅㄧㄝˊ0쎯	-8.5581
ㄔㄤ0쎯	-8.55876
ㄗㄨㄛ0쎯ㄓㄜˇ0쎯	-8.55897
ㄓㄨˇ0쎯ㄧˋ1쎯	-8.56034
ㄌㄧˋ9쎯ㄕㄨˇ1쎯ㄩˊ0쎯	-8.56068
ㄓ1쎯	-8.56103
ㄨˋ2쎯	-8.56182
ㄈㄨˋ11쎯	-8.56197
ˊ	-8.5633
ㄧㄣ1쎯	-8.56421
ㄧㄝˋ2쎯	-8.56425
ㄐㄧㄥ1쎯	-8.56473
ㄓˇ4쎯ㄉㄠˇ0쎯	-8.56591
ㄑㄧㄥˋ0쎯	-8.56705
ㄧㄢˊ6쎯ㄐㄧㄡ1쎯ㄕㄥ1쎯	-8.5671
ㄙㄨㄣ0쎯	-8.56731
ㄒㄧㄤˇ2쎯	-8.56917
ㄕˋ8쎯ㄧㄝˋ0쎯	-8.56971
ㄅ	-8.57026
ㄐㄧㄣ2쎯	-8.5749
ㄌㄧㄣˊ2쎯ㄔㄨㄤˊ0쎯	-8.57877
ㄇㄢˇ0쎯	-8.58072
ㄘㄜˋ2쎯	-8.58136
*	-8.58157
ㄈㄚ쎯ㄅㄧㄠˇ0쎯	-8.58296
ㄗㄥ0쎯	-8.58404
ㄉㄠˇ0쎯	-8.58425
ㄕㄚ0쎯	-8.58471
ㄉㄧㄥ0쎯	-8.58628
ㄓˋ7쎯	-8.5865
ㄎㄨˋ0쎯	-8.58684
ㄌㄧㄡˊ2쎯	-8.58776
ㄒㄧㄢ3쎯	-8.58788
ㄓˊ4쎯	-8.58819
ㄧㄡˇ0쎯	-8.5885
ㄕㄨㄣˋ0쎯	-8.5887
ㄌㄨㄣˊ2쎯ㄨㄣˊ0쎯	-8.58903
ㄕㄥˋ1쎯	-8.5892
쎀	-8.59189
ㄖㄣˊ2쎯	-8.59217
쎃ㄩㄝˋ0쎯	-8.59253
ㄕㄜˋ0쎯ㄕ5쎯	-8.59324
,ㄧㄡˊ1쎯	-8.59381
ㄐㄧㄠ6쎯ㄕㄡˋ2쎯	-8.59398
ㄇㄟˇ1쎯ㄕㄨˋ0쎯	-8.59423
ㄕㄥ0쎯	-8.59582
ㄐㄧㄢˋ6쎯ㄎㄤ0쎯	-8.59793
ㄙㄨㄛˇ0쎯ㄧㄡˇ1쎯	-8.5994
ㄎㄜˋ2쎯	-8.60197
ㄕˊ4쎯ㄆㄧㄣˇ쎯	-8.60259
ㄨㄚˇ0쎯	-8.60483
ㄐㄧㄢˋ1쎯	-8.60559
ㄧˇ1쎯ㄐㄧㄥ2쎯	-8.60563
ㄕˋ15쎯ㄧ0쎯ㄍㄜˇ0쎯	-8.60587
ㄌㄧˇ0쎯	-8.60644
ㄈㄚ쎯ㄒㄧㄢˋ1쎯	-8.60672
ㄊㄤˊ5쎯	-8.60766
ㄧ3쎯	-8.60847
ㄍㄞˋ3쎯	-8.60946
ㄉㄧ2쎯ㄍㄠ0쎯	-8.61045
ㄅㄢˋ0쎯ㄍㄨㄥ2쎯ㄕˋ18쎯	-8.61106
ㄧㄝˇ2쎯	-8.61407
ㄑㄩㄢˊ2쎯	-8.61625
ㄋ	-8.61996
ㄉㄨㄥˋ3쎯	-8.62242
ㄇㄟˇ0쎯	-8.62275
ㄋㄢˊ1쎯	-8.62283
ㄗㄨㄛ0쎯ㄩㄥˋ0쎯	-8.62365
ㄕㄨˇ1쎯ㄩˊ0쎯	-8.62398
ㄍㄤˇ쎯	-8.62483
쎂쎄	-8.62488
ㄇㄨˇ0쎯	-8.62569
ㄨㄣˊ0쎯ㄐㄧㄢˋ1쎯	-8.62643
ㄑㄧㄡˊ1쎯	-8.62736
쎆ㄩㄝˋ0쎯	-8.62827
ㄔㄢˇ0쎯ㄕㄥ1쎯	-8.62959
ㄕㄤ0쎯	-8.62971
ㄨㄢˊ1쎯ㄔㄥˊ0쎯	-8.63019
ㄕˊ1쎯ㄐㄧ13쎯	-8.63118
ㄐㄧˋ0쎯ㄙㄨㄢˋ1쎯ㄐㄧ6쎯	-8.63244
ㄉㄧˋ3쎯ㄙㄢ0쎯	-8.63321
ㄍ	-8.634
ㄉㄥ0쎯	-8.63416
ㄊㄚ0쎯ㄇㄣˊ1쎯	-8.63504
ㄈㄨˋ2쎯ㄗㄜˊ1쎯	-8.63544
ㄐㄧˋ1쎯	-8.63622
ㄐㄩˋ5쎯	-8.63891
ㄌㄧㄤˇ0쎯ㄍㄜˇ0쎯	-8.63901
ㄔㄥˊ7쎯	-8.63958
ˇ	-8.64048
ㄌㄧˊ0쎯	-8.64203
ㄔㄨㄥˊ0쎯	-8.64215
ㄕㄢˋ0쎯	-8.64544
ㄧˊ3쎯	-8.64614
ㄙˋ1쎯ㄔㄨㄢ0쎯	-8.64615
ㄏㄡˋ1쎯	-8.64623
ㄆㄞˊ2쎯	-8.64654
ㄕ1쎯	-8.64668
ㄏㄥˊ1쎯	-8.64683
ㄨㄟˋ0쎯ㄕㄥ1쎯	-8.64691
ㄑㄧˊ0쎯	-8.64724
ㄎㄨㄞˋ1쎯	-8.64734
ㄩˇ6쎯ㄧㄢˊ2쎯	-8.6477
ㄈㄥ3쎯	-8.64898
ㄐㄧㄥ2쎯ㄧㄢˋ5쎯	-8.64968
ㄉㄢ1쎯ㄖㄣˊ3쎯	-8.65003
ㄧ0쎯ㄒㄧㄝ0쎯	-8.65046
ㄒㄧㄥˋ2쎯ㄋㄥˊ쎯	-8.65103
ㄧ1쎯	-8.65416
ㄌㄧㄥˊ0쎯	-8.65488
ㄓㄥ0쎯ㄕˋ5쎯	-8.65494
ㄩˇ4쎯	-8.65505
ㄐㄧㄣˋ3쎯	-8.65603
ㄗㄠˋ2쎯	-8.65618
ㄓㄥ5쎯	-8.65682
ㄉㄡˋ0쎯	-8.65868
ㄒㄧㄡˋ0쎯	-8.65966
ㄨㄤˋ3쎯	-8.6604
쎃쎂	-8.66048
ㄑㄩㄢˊ1쎯ㄇㄧㄢˋ0쎯	-8.6607
ㄔㄨ0쎯ㄕㄥ1쎯	-8.66104
ㄓˋ13쎯	-8.66145
ㄓˊ3쎯	-8.66175
ㄅㄨˇ0쎯	-8.66195
ㄔㄨ0쎯ㄒㄧㄢˋ1쎯	-8.66399
ㄒㄩㄝˇ0쎯	-8.66421
ㄐㄧㄝˋ2쎯	-8.66429
ㄍㄨㄢ0쎯ㄐㄧˋ3쎯	-8.66461
쎂쎀쎀	-8.66787
ㄨㄟˋ0쎯	-8.66844
ㄑㄩㄝˋ0쎯	-8.66865
ㄧㄢˊ6쎯ㄐㄧㄡ1쎯ㄙㄨㄛˇ0쎯	-8.66973
ㄉㄧㄥˇ0쎯	-8.6703
ㄐㄧㄣˇ1쎯	-8.67052
ㄓㄨㄥ0쎯ㄨㄣˊ0쎯	-8.67077
ㄅㄧㄠ0쎯	-8.6717
ㄏㄜˊ1쎯	-8.67176
ㄢ	-8.67254
ㄉㄧˋ1쎯	-8.67378
ㄆ	-8.67401
ㄨㄢ1쎯	-8.67475
ㄨㄛˇ쎯ㄍㄨㄛˊ0쎯	-8.67779
ㄘㄨㄣˊ쎯	-8.67888
▁̇ㄉㄜ0쎯ㄔㄨˇ0쎯	-8.68101
ㄐㄩˋ4쎯	-8.68283
ㄕˋ15쎯ㄧㄡˊ1쎯	-8.68574
ㄕˊ1쎯ㄉㄞˋ0쎯	-8.686
ㄓㄡ1쎯ㄕˋ4쎯	-8.68631
쎁쎂ㄩㄝˋ0쎯	-8.68679
ㄌㄧㄤˊ2쎯	-8.68685
ㄉㄡˋ2쎯	-8.68758
ㄍㄨˋ1쎯	-8.68829
쎇쎀	-8.68971
ㄔㄨ0쎯ㄕㄥ1쎯ㄩˊ0쎯	-8.68991
ㄌㄥˇ쎯	-8.69064
쎁쎀ㄩㄝˋ0쎯	-8.69068
,ㄊㄚ0쎯	-8.69082
ㄘㄞˇ1쎯	-8.69093
ㄍㄤ6쎯	-8.69296
쎅ㄩㄝˋ0쎯	-8.69404
ㄏㄢˊ1쎯	-8.69568
ㄉㄨˊ1쎯	-8.69576
ㄓㄨˋ1쎯	-8.69834
ㄐㄧㄥˋ6쎯	-8.69912
ㄍㄨㄟˋ1쎯	-8.69914
ㄙㄨㄥˋ2쎯	-8.69988
ㄆㄧㄥˊ0쎯ㄊㄞ0쎯	-8.70525
ㄑㄧㄥ0쎯ㄋㄧㄢˊ0쎯	-8.70566
ㄍㄨㄥ0쎯ㄗㄨㄛ0쎯.	-8.7074
ㄨ0쎯	-8.70766
ㄙ0쎯	-8.70823
ㄕㄥ1쎯ㄩˊ0쎯	-8.71087
ㄉㄠ0쎯	-8.71096
ㄊㄧ0쎯ㄐㄧˋ3쎯	-8.71102
ㄕㄨˇ5쎯ㄐㄩ4쎯	-8.71269
ㄧㄤˋ0쎯	-8.71425
ㄔㄥˊ0쎯ㄩㄢˊ2쎯	-8.7149
ㄏㄨㄚˋ2쎯	-8.71558
ㄨㄟ1쎯	-8.71619
ㄉㄧˋ3쎯	-8.71626
ㄕㄡˇ1쎯	-8.7167
ㄉㄨˊ1쎯ㄌㄧˋ3쎯	-8.71694
ㄏㄜˊ5쎯	-8.71732
쎁ㄩㄝˋ0쎯	-8.71738
ㄔㄥˊ0쎯ㄍㄨㄥ3쎯	-8.71767
ㄐㄩㄣ4쎯	-8.71848
ㄆㄟˊ1쎯ㄧㄤˇ1쎯	-8.71851
ㄌㄧㄥˊ6쎯	-8.71876
ㄔㄨㄥ0쎯	-8.71892
ㄉㄨㄛ0쎯ㄋㄧㄢˊ0쎯	-8.71941
ㄒㄧˋ1쎯ㄅㄠ2쎯	-8.71989
ㄧㄤˊ4쎯	-8.71991
ㄩㄝˋ5쎯	-8.72062
ㄧ2쎯	-8.72115
ㄎㄠˇ0쎯	-8.72413
,ㄑㄧˊ1쎯ㄓㄨㄥ0쎯	-8.72542
ㄈㄥ1쎯ㄍㄜˊ2쎯	-8.72597
ㄐㄧㄠ5쎯	-8.72644
쎂쎂	-8.72743
ㄑㄧㄡ1쎯	-8.72793
ㄡ0쎯ㄩˋ7쎯	-8.7305
ㄐㄧ0쎯	-8.73106
ㄦˇ1쎯	-8.73151
ㄓㄨ0쎯	-8.73257
ㄨㄤˇ2쎯	-8.73359
--	-8.7338
ㄐㄩㄝˊ2쎯	-8.73394
ㄐ	-8.73399
ㄍㄨㄥ2쎯ㄩㄢˊ1쎯	-8.73438
▁̇ㄉㄜ1쎯“	-8.73488
ㄈㄟ2쎯ㄔㄤˊ4쎯	-8.73528
ㄕㄨㄟˇ쎯ㄆㄧㄥˊ0쎯	-8.73551
ㄔㄨㄢˊ1쎯	-8.73653
ㄆㄧㄥˊ0쎯ㄈㄤ0쎯ㄇㄧˇ0쎯,	-8.7373
ㄐㄧˊ6쎯ㄅㄧㄥˋ0쎯	-8.73731
ㄉㄨˊ0쎯	-8.73757
ㄌㄧㄥˇ0쎯	-8.73763
ㄐㄩˋ8쎯	-8.73822
ㄧㄣˊ1쎯ㄏㄤˊ0쎯	-8.73846
ㄧㄝˋ3쎯	-8.74181
ㄉㄚˋ쎯ㄒㄧㄥˊ2쎯	-8.74212
ㄧㄥˇ1쎯	-8.74308
ㄍㄨㄥ2쎯ㄌㄨˋ5쎯	-8.74336
ㄇㄛˊ4쎯	-8.74349
쎄ㄩㄝˋ0쎯	-8.74368
ㄕˊ3쎯ㄒㄧㄢˋ1쎯	-8.74549
ㄐㄧㄠ0쎯ㄌㄧㄡˊ3쎯	-8.74817
ㄌㄨㄣˊ4쎯	-8.74986
ㄖㄨㄢˇ0쎯	-8.75018
ㄔㄚˊ2쎯	-8.75048
ㄍㄨㄤˇ0쎯ㄉㄨㄥ0쎯	-8.7505
ㄅㄨˋ0쎯ㄉㄨㄢˋ1쎯	-8.75057
ㄌㄨㄛˋ0쎯	-8.75141
ㄖㄣˊ0쎯ㄇㄣˊ1쎯	-8.75295
ㄓㄢˋ1쎯ㄓㄥ1쎯	-8.75449
ㄗㄨㄛˇ0쎯	-8.75469
ㄐㄩˇ2쎯	-8.75505
ㄖㄨㄛˋ0쎯	-8.75564
ㄐㄧㄚˋ2쎯	-8.75579
ㄕㄢ0쎯ㄉㄨㄥ0쎯ㄕㄥˇ0쎯	-8.75782
쎁.	-8.75917
ㄊㄧˊ1쎯	-8.75939
ㄊㄧㄥ1쎯	-8.7598
ㄐㄧㄥˇ0쎯	-8.76032
ㄔㄨ0쎯ㄅㄢˇ1쎯ㄕㄜˋ1쎯	-8.76057
ㄒㄩㄝˊ1쎯ㄎㄜ2쎯	-8.76189
ㄐㄧㄡˋ0쎯	-8.76216
ㄙㄞˋ쎯	-8.76284
ㄅㄞˇ1쎯	-8.76453
ㄊㄨㄥˊ0쎯ㄕˊ1쎯	-8.7647
ㄇㄚˊ1쎯	-8.765
ㄕˋ15쎯ㄧ0쎯ㄔㄨㄥˊ1쎯	-8.7658
ㄏㄨㄞˊ0쎯	-8.76645
ㄧㄥ1쎯ㄍㄨㄛˊ0쎯	-8.76685
.ㄍㄞ0쎯	-8.76685
ㄏㄨㄥˊ4쎯	-8.76686
ㄓㄨ3쎯	-8.76786
ㄐㄧㄥ8쎯ㄕㄣˊ1쎯	-8.76916
ㄐㄧㄚ2쎯	-8.77021
ㄍㄨㄤˇ0쎯ㄒㄧ1쎯	-8.77282
ㄉㄢ0쎯	-8.77291
ㄌㄧㄡˋ1쎯	-8.77385
ㄍㄨˇ2쎯	-8.77396
쎂쎀쎀쎂ㄋㄧㄢˊ0쎯	-8.77614
ㄉㄚˊ1쎯ㄉㄠˋ0쎯	-8.77749
ㄌㄩㄝˋ1쎯	-8.77752
ㄗㄨㄛ0쎯ㄐㄧㄚ3쎯	-8.77789
ㄍㄥ2쎯	-8.77852
ㄣ0쎯	-8.77947
ㄅㄨˋ2쎯	-8.78003
ㄉㄜˊ0쎯ㄉㄠˋ0쎯	-8.78036
,ㄨㄟˋ2쎯ㄩˊ0쎯	-8.78037
ㄇㄛˋ8쎯	-8.78055
ㄍㄨㄤˇ0쎯ㄈㄢˋ2쎯	-8.78064
쎅쎀쎀	-8.78156
ㄔㄣˋ1쎯ㄨㄟˊ0쎯	-8.78263
ㄐㄧㄤˋ1쎯	-8.78273
ㄏㄚ0쎯	-8.78296
,ㄓㄨˇ0쎯ㄧㄠ4쎯	-8.78413
ㄕˋ11쎯	-8.78523
ㄧ0쎯ㄓˊ1쎯	-8.78525
ㄍㄨㄤˇ0쎯ㄓㄡ1쎯	-8.78642
ㄔㄥˊ0쎯ㄍㄨㄛˇ0쎯	-8.78684
ㄨㄟˊ0쎯ㄓㄨˇ0쎯	-8.78691
ㄓㄨˋ3쎯ㄘㄜˋ0쎯	-8.78809
ㄑㄧㄥˊ0쎯ㄎㄨㄤˋ1쎯	-8.78936
,ㄕˇ2쎯	-8.78946
ㄘㄢ0쎯	-8.78948
쎂쎀쎁쎀ㄋㄧㄢˊ0쎯	-8.78966
ㄐㄧㄚˋ0쎯	-8.78981
ㄧㄠ4쎯ㄑㄧㄡˊ1쎯	-8.78987
쎂쎃	-8.79088
ㄐㄧㄣˇ0쎯	-8.79178
ㄔㄨㄤ0쎯	-8.79199
ㄈㄨˋ12쎯	-8.7923
ㄍㄨˋ0쎯	-8.79254
ㄉㄨㄢˋ1쎯	-8.79277
ㄊㄧ0쎯ㄩˋ3쎯	-8.79286
ㄔㄨㄣˊ0쎯	-8.79448
ㄐㄧㄤ0쎯ㄙㄨ0쎯	-8.79539
ㄋㄚ1쎯ㄐㄧㄥ1쎯	-8.79541
ㄉㄥ1쎯	-8.79543
ㄒㄩㄝˊ1쎯ㄌㄧˋ1쎯	-8.79599
ㄨㄟˋ6쎯	-8.79646
ㄐㄧㄚ4쎯	-8.79759
)、	-8.79853
ㄓㄠˋ1쎯	-8.79879
ㄌㄧㄥˇ1쎯	-8.79957
ㄒㄩㄢˇ0쎯ㄗㄜˊ2쎯	-8.79981
ㄘㄢ0쎯ㄕㄨˇ5쎯	-8.80012
ㄘㄢ0쎯ㄩˇ0쎯	-8.80133
ㄎㄨㄤˋ2쎯	-8.80181
ㄅㄣˇ0쎯ㄎㄜ2쎯	-8.80262
ㄊㄧㄝˇ쎯ㄌㄨˋ5쎯	-8.80419
ㄐㄧˇ1쎯	-8.80486
ㄒㄧㄣ5쎯ㄨㄣˊ2쎯	-8.805
ㄖㄨㄥˊ4쎯	-8.80532
ㄏㄨˊ2쎯	-8.80539
ㄩㄢˊ7쎯	-8.80604
ㄔㄠˇ쎯	-8.80615
ㄈㄚˇ0쎯ㄌㄩˋ0쎯	-8.80721
ㄐㄩㄣ2쎯	-8.80764
ㄔ0쎯	-8.80871
ㄐㄩˋ5쎯ㄌㄧˊ3쎯	-8.80888
ㄐㄧㄠˇ5쎯	-8.81167
ㄅㄟ2쎯	-8.81221
ㄉㄧㄢˋ0쎯ㄩㄢˊ9쎯	-8.81342
쎂쎀쎀쎆ㄋㄧㄢˊ0쎯	-8.81381
ㄒㄩㄥˊ0쎯	-8.81422
ㄌㄧˋ1쎯	-8.81422
ㄏㄨㄟˋ2쎯ㄩㄢˊ2쎯	-8.81466
ㄆㄧㄣˇ쎯ㄔㄨㄥˊ1쎯	-8.81516
ㄐㄧㄣˋ0쎯ㄖㄨˋ0쎯	-8.81534
ㄏㄨˊ5쎯ㄋㄚ1쎯	-8.81629
ㄎㄜˋ3쎯ㄔㄥˊ7쎯	-8.8164
ㄏㄨㄤˊ0쎯	-8.81708
ㄓㄠˋ2쎯	-8.81776
쎄쎅	-8.81833
ㄕㄠ1쎯	-8.81843
ㄓㄥˋ3쎯ㄘㄜˋ4쎯	-8.81877
ㄏㄤˊ3쎯	-8.82214
ㄩ3쎯	-8.8238
ㄜˊ7쎯	-8.82407
ㄓㄨㄥ0쎯,	-8.82462
ㄧˋ2쎯	-8.82666
ㄎㄨˇ쎯	-8.82715
ㄔㄤˊ0쎯ㄐㄧ13쎯	-8.82815
ㄧㄥ1쎯ㄩˇ6쎯	-8.82955
ㄅㄨˋ0쎯ㄋㄥˊ쎯	-8.83075
쎂쎆	-8.83128
ㄍㄨˋ1쎯ㄕˋ8쎯	-8.83164
ㄊㄧㄠˊ0쎯ㄐㄧㄢˋ1쎯	-8.83183
ㄧ	-8.83183
ㄌㄞˊ1쎯	-8.83242
ㄌㄢˊ4쎯	-8.8341
ㄌㄡˋ2쎯	-8.83459
ㄕㄥ1쎯ㄊㄞˋ2쎯	-8.83461
ㄙ3쎯ㄒㄧㄤˇ2쎯	-8.83487
ㄘㄞˇ0쎯	-8.83494
ㄊㄨㄥˊ3쎯	-8.83639
ㄗˇ3쎯	-8.83876
ㄧㄢˊ4쎯	-8.83903
ㄐㄧㄥˋ7쎯	-8.83923
,ㄐㄧˊ4쎯	-8.83977
ㄈㄚ쎯ㄏㄤˊ0쎯	-8.84063
ㄓㄨˇ0쎯ㄖㄣˊ3쎯	-8.84131
ㄍㄡ2쎯	-8.84315
ㄐㄧㄚˋ0쎯ㄓˊ3쎯	-8.8445
ㄐㄧˋ0쎯	-8.84466
ㄋㄨㄥˊ0쎯ㄇㄧㄣˊ0쎯	-8.84493
ㄍㄜˋ0쎯ㄌㄟˋ2쎯	-8.84506
ㄙㄨˋ3쎯	-8.8467
ㄑㄩㄢˊ1쎯ㄑㄧㄡˊ2쎯	-8.84675
ㄧ3쎯ㄌㄧㄠˊ1쎯	-8.84684
쎃쎅	-8.84783
ㄌㄨㄥˊ5쎯	-8.84814
ㄙㄞ1쎯	-8.84887
ㄕㄣˊ0쎯	-8.84925
ㄓㄨㄥ0쎯ㄍㄨㄥˋ0쎯	-8.84966
쎂쎀쎀쎇ㄋㄧㄢˊ0쎯	-8.84991
ㄗㄚˊ0쎯	-8.85124
ㄐㄧㄢˋ5쎯	-8.85182
ㄋㄞˋ1쎯	-8.852
ㄌㄜˋ1쎯	-8.85202
ㄅㄧˋ13쎯	-8.85269
쎂쎀쎀쎀ㄋㄧㄢˊ0쎯	-8.85308
ㄏㄨㄟˋ9쎯	-8.85327
ㄓㄥˇ1쎯	-8.85348
ㄐㄧㄣ3쎯ㄕㄨˇ1쎯	-8.85392
ㄕˊ3쎯ㄧㄢˋ5쎯	-8.85546
ㄋㄠˇ1쎯	-8.85575
쎂쎀쎀쎈ㄋㄧㄢˊ0쎯	-8.8569
~	-8.85714
ㄍㄨㄛ3쎯	-8.8583
ㄌㄨˋ3쎯ㄙㄜˋ0쎯	-8.86027
ㄒㄧˇ2쎯	-8.8604
ㄇㄧㄥˋ쎯	-8.86156
ㄐㄧㄣ3쎯ㄖㄨㄥˊ9쎯	-8.86318
ㄧ4쎯	-8.86343
ㄍㄨㄤˇ0쎯ㄉㄨㄥ0쎯ㄕㄥˇ0쎯	-8.86395
ㄏㄢˊ5쎯	-8.86514
ㄌㄟˋ2쎯ㄒㄧㄥˊ2쎯:	-8.86555
ㄕㄨˋ0쎯	-8.86819
ㄑㄧㄣˊ1쎯	-8.86886
,ㄎㄜˇ0쎯	-8.87045
ㄗˋ0쎯ㄉㄨㄥˋ0쎯	-8.87073
ㄍㄨㄥ5쎯	-8.87108
ㄗㄨˇ2쎯	-8.87135
ㄏㄨㄛˊ0쎯	-8.87151
=	-8.87236
쎂쎀쎀쎃ㄋㄧㄢˊ0쎯	-8.87266
ㄇㄨˋ1쎯ㄑㄧㄢˊ0쎯	-8.87285
ㄋㄧㄠˇ0쎯	-8.87508
ㄅㄧˇ1쎯ㄐㄧㄠˋ4쎯	-8.87541
ㄕˋ3쎯ㄐㄧˇ1쎯	-8.87555
ㄐㄧㄢ0쎯	-8.87647
ㄕㄜˊ1쎯	-8.87662
ㄐㄧㄚ3쎯ㄊㄧㄥˊ2쎯	-8.87743
ㄊㄨㄥˋ0쎯	-8.87764
ㄧㄡˋ1쎯	-8.87858
ㄌㄧㄤˊ0쎯	-8.87878
ㄗㄨㄟˋ0쎯ㄍㄠ0쎯	-8.87907
ㄈㄨˋ4쎯	-8.87917
ㄧˋ15쎯	-8.87937
ㄐㄧㄥ2쎯ㄍㄨㄛ0쎯	-8.88155
ㄕˋ15쎯ㄧ0쎯ㄐㄧㄚ3쎯	-8.88175
ㄗㄠˇ0쎯	-8.88305
쎂쎀쎀쎁ㄋㄧㄢˊ0쎯	-8.88418
쎂ㄩㄝˋ0쎯	-8.88424
ㄊㄤˊ3쎯	-8.88437
ㄅㄧㄥˋ0쎯ㄉㄨˊ0쎯	-8.8846
ㄎㄨㄢˇ쎯	-8.88471
ㄓˋ0쎯ㄐㄧㄣ2쎯	-8.88474
ㄗ0쎯ㄒㄩㄣˊ3쎯	-8.88552
쎂쎀쎀쎉ㄋㄧㄢˊ0쎯	-8.88714
ㄐㄧㄝˇ1쎯ㄐㄩㄝˊ0쎯	-8.88788
ㄉㄨㄥ0쎯ㄅㄟˇ쎯	-8.88806
ㄒㄧㄢˋ1쎯ㄧㄡˇ1쎯	-8.88944
ㄩˋ6쎯	-8.88976
ㄖㄨㄟˋ1쎯	-8.88989
ㄏㄜˊ3쎯ㄋㄚ1쎯	-8.89049
ㄒㄧ1쎯ㄋㄚ1쎯	-8.89084
쎁쎁ㄩㄝˋ0쎯	-8.89107
ㄓㄨˋ3쎯	-8.89131
ㄌㄧˋ15쎯	-8.89257
ㄓㄨˋ7쎯	-8.89609
ㄙㄨㄛˇ1쎯	-8.89667
ㄐㄧ2쎯	-8.89713
ㄒㄧㄤˋ2쎯	-8.89777
ㄨㄢˇ2쎯	-8.89893
ㄒㄩˊ쎯	-8.90032
ㄉㄢˋ2쎯	-8.90153
ㄕㄡˊ쎯	-8.90287
ㄕㄤˋ0쎯	-8.90289
ㄒㄧㄢ1쎯ㄕㄥ1쎯	-8.90416
ㄏㄨˋ2쎯	-8.90423
ㄇㄛˋ0쎯ㄩㄢˊ0쎯	-8.90504
ㄨˇ7쎯	-8.90644
ㄈㄤˋ쎯ㄖㄨˋ0쎯	-8.90688
쎉쎀	-8.90708
ㄙㄚˋ0쎯	-8.90735
ㄉㄢˋ5쎯	-8.90908
ㄍㄨㄥˋ0쎯ㄊㄨㄥˊ0쎯	-8.90922
,ㄉㄨㄟˋ1쎯	-8.91004
ㄕㄜˋ3쎯	-8.91004
ㄍㄢ0쎯ㄅㄨˋ4쎯	-8.91043
.ㄍㄨㄥ2쎯ㄙ0쎯	-8.9109
ㄧㄥˊ5쎯ㄒㄧㄠ6쎯	-8.91236
ㄈㄨˋ8쎯ㄓㄨˇ0쎯ㄖㄣˊ3쎯	-8.91266
ㄇㄣˊ1쎯	-8.91334
ㄧㄤˊ1쎯	-8.9134
ㄍㄨㄢ0쎯ㄩˊ0쎯	-8.91411
ㄈㄤ0쎯ㄅㄧㄢˋ1쎯	-8.91413
ㄓ	-8.91513
ㄧㄡˇ1쎯ㄒㄧㄠˋ3쎯	-8.91589
ㄓ0쎯ㄧ0쎯,	-8.91592
ㄧˊ0쎯	-8.91643
쎂쎁	-8.91725
ㄈㄟˋ4쎯	-8.9177
ㄈㄥˋ0쎯	-8.91841
ㄔˊ0쎯	-8.91864
쎂쎈	-8.91874
ㄕ6쎯	-8.91948
ㄩˋ3쎯	-8.91989
ㄓ3쎯	-8.91991
ㄒㄩ2쎯	-8.92174
ㄅㄟ0쎯	-8.92236
》ㄕˋ15쎯	-8.92314
ㄍㄞˇ쎯ㄍㄜˊ0쎯	-8.92319
ㄧˋ11쎯	-8.92375
ㄕ5쎯	-8.92477
ㄧ0쎯ㄉㄧㄥˋ1쎯	-8.92486
ㄐㄧㄡˇ1쎯	-8.92491
ㄔㄥˊ7쎯ㄒㄩˋ1쎯	-8.92543
ㄧ0쎯ㄘˋ0쎯	-8.92612
ㄐㄧㄢ7쎯ㄉㄨ0쎯	-8.92743
ㄏㄨˇ0쎯	-8.9275
ㄓ6쎯	-8.92763
ㄏㄨㄟˋ2쎯ㄧˋ4쎯	-8.92769
,ㄅㄨˋ0쎯	-8.92785
ㄔㄜˇ0쎯ㄘㄨㄣˋ쎯	-8.9287
ㄎㄨㄥ0쎯ㄐㄧㄢ4쎯	-8.93029
ㄍㄨㄟ2쎯ㄇㄛˊ3쎯	-8.93145
ㄍㄨˇ0쎯ㄉㄞˋ0쎯	-8.93154
ㄅㄟˋ2쎯	-8.93273
ㄇㄥ쎯	-8.93332
ㄢˋ2쎯	-8.93351
ㄊㄜˋ0쎯ㄉㄧㄢˇ1쎯	-8.93462
쎂쎀쎀쎅ㄋㄧㄢˊ0쎯	-8.93496
ㄅㄧㄥˇ4쎯ㄇㄨˋ6쎯	-8.93498
ㄈㄤ0쎯ㄒㄧㄤˋ0쎯	-8.93537
ㄨㄟˇ5쎯ㄩㄢˊ2쎯	-8.93606
ㄖㄨㄥˊ2쎯	-8.93744
ㄑㄧㄢ1쎯	-8.94056
ㄅㄟ4쎯	-8.94128
ㄕˊ3쎯ㄕ5쎯	-8.94338
ㄓㄨˋ4쎯	-8.94423
ㄊㄨㄟ0쎯	-8.94451
》ㄉㄥˇ0쎯	-8.94468
,ㄊㄚ1쎯	-8.94524
.ㄊㄚ0쎯	-8.94556
ㄕˋ12쎯ㄆㄧㄣˊ1쎯	-8.94586
ㄔㄨ0쎯ㄕㄥ1쎯,	-8.9464
ㄐㄧㄠ6쎯ㄘㄞˊ1쎯	-8.94694
ㄨㄟˊ0쎯ㄧ0쎯ㄊㄧ0쎯	-8.94756
ㄇㄧㄠˋ1쎯	-8.94769
ㄅㄧㄠˇ0쎯ㄒㄧㄢˋ1쎯	-8.94891
ㄓㄨ4쎯	-8.94965
ㄍㄢ3쎯	-8.95024
ㄍㄡ1쎯	-8.95049
ㄊㄡˊ1쎯	-8.95094
ㄕㄡˋ0쎯	-8.95207
ㄕㄨ0쎯ㄈㄚˇ0쎯	-8.95211
ㄕㄨ0쎯ㄏㄨㄚˋ1쎯	-8.95222
ㄈㄚˇ0쎯ㄍㄨㄛˊ0쎯	-8.95321
ㄅㄧㄢˋ0쎯ㄏㄨㄚˋ0쎯	-8.95351
ㄓㄨㄥˋ1쎯	-8.95424
ㄐㄧㄝ7쎯ㄉㄠˋ3쎯	-8.95471
ㄈㄢˋ3쎯ㄨㄟˊ2쎯	-8.95496
ㄧㄥˋ1쎯	-8.9566
ㄉㄜˊ1쎯ㄍㄨㄛˊ0쎯	-8.9566
ㄐㄧㄢˇ8쎯	-8.95732
ㄆㄧ0쎯ㄓㄨㄣˇ0쎯	-8.95743
ㄢˋ3쎯	-8.95808
ㄆㄨˇ2쎯ㄊㄨㄥ0쎯	-8.95811
ㄩㄣˊ0쎯ㄋㄚ1쎯ㄕㄥˇ0쎯	-8.95819
ㄌㄧㄤˋ0쎯	-8.95874
쎃쎀쎀	-8.95977
ㄧㄡ0쎯ㄓˋ4쎯	-8.96133
ㄇ	-8.96157
ㄧㄢˊ0쎯	-8.96234
ㄇㄞˋ3쎯	-8.96246
ㄧㄝˇ0쎯ㄕˋ15쎯	-8.96263
ㄘㄨㄣˊ쎯ㄗㄞˋ1쎯	-8.96309
-쎁	-8.96365
ㄕㄨㄟˋ1쎯	-8.96479
ㄔㄚ1쎯	-8.96613
ㄓㄨㄥ3쎯	-8.96642
ㄩˊ4쎯ㄌㄜˋ0쎯	-8.96774
.ㄑㄧˊ1쎯	-8.968
ㄓˊ1쎯ㄐㄧㄝ4쎯	-8.96929
ㄒㄧㄠˋ3쎯ㄍㄨㄛˇ0쎯	-8.96949
ㄅㄧㄥ0쎯	-8.96953
ㄕˋ15쎯ㄓㄨㄥ0쎯ㄍㄨㄛˊ0쎯	-8.97025
ㄧㄢˊ6쎯ㄈㄚ쎯	-8.97065
ㄒㄧㄢˇ0쎯	-8.97074
ㄒㄩㄢ1쎯	-8.97078
ㄕˊ0쎯ㄈㄣ0쎯	-8.97132
ㄆㄛˋ0쎯	-8.97406
ㄖㄨˇ1쎯	-8.97543
쎁쎉쎉쎈ㄋㄧㄢˊ0쎯	-8.97551
ㄌㄠˊ0쎯ㄉㄨㄥˋ0쎯	-8.97772
ㄓㄨˇ0쎯ㄔˊ4쎯	-8.97849
ㄢˋ0쎯	-8.97882
ㄉㄧㄢˇ0쎯	-8.98013
▁̇ㄕ쎯	-8.98103
ㄇㄨˋ5쎯	-8.98145
ㄒㄧㄥˊ1쎯ㄕˋ5쎯	-8.98179
ㄗ2쎯ㄌㄧㄠˋ0쎯	-8.982
ㄨㄣˊ2쎯	-8.9823
ㄇㄠˋ2쎯ㄧˋ12쎯	-8.98245
ㄆㄧㄥˊ0쎯ㄈㄤ0쎯ㄇㄧˇ0쎯	-8.98272
ㄒㄧㄝˊ1쎯	-8.98274
ㄋㄨㄛˋ0쎯	-8.98364
ㄎㄞ0쎯ㄓㄢˇ2쎯	-8.98418
ㄌㄧㄡˇ0쎯	-8.98441
ㄧㄢˊ5쎯	-8.98479
쎂쎀쎀쎄ㄋㄧㄢˊ0쎯	-8.98512
ㄨㄣˋ0쎯	-8.98539
ㄒㄧ1쎯ㄅㄟˇ쎯	-8.98592
ㄧㄢˊ6쎯	-8.98644
.ㄓㄨˇ0쎯ㄧㄠ4쎯	-8.98745
ㄐㄧㄥˇ2쎯	-8.98787
ㄉㄨㄛ0쎯ㄘˋ0쎯	-8.98961
ㄌㄧˋ8쎯	-8.99126
ㄦˊ0쎯ㄊㄨㄥˊ4쎯	-8.99153
ㄓㄜˋ1쎯ㄐㄧㄤ0쎯ㄕㄥˇ0쎯	-8.99505
ㄓㄨˋ5쎯	-8.99517
ㄋㄥˊ쎯ㄍㄡˋ3쎯	-8.99697
ㄧㄢ2쎯	-8.99776
>	-8.99893
ㄉㄡ0쎯ㄕˋ15쎯	-8.9995
ㄔㄥˊ3쎯	-9.00005
ㄓˋ3쎯ㄉㄨˋ2쎯	-9.00027
ㄐㄧ6쎯ㄍㄨㄢ0쎯	-9.00082
ㄧㄡˊ1쎯ㄩˊ0쎯	-9.00229
ㄇㄥˋ1쎯	-9.00394
ㄌㄧㄠˊ0쎯ㄋㄧㄥˊ0쎯	-9.00397
ㄘ0쎯	-9.00409
ㄉㄡˇ0쎯	-9.00426
ㄈㄣ0쎯ㄨㄟˊ0쎯	-9.00461
ㄌㄨㄣˊ1쎯	-9.00482
ㄊㄠˊ2쎯	-9.00517
ㄈㄢˊ3쎯	-9.00546
쎃쎆	-9.0061
ㄎㄜˊ쎯	-9.00641
ㄉㄧㄢˋ0쎯ㄋㄠˇ1쎯	-9.00652
ㄇㄨˋ1쎯ㄅㄧㄠ0쎯	-9.00659
ㄓㄨㄟ0쎯	-9.007
,ㄖㄨˊ0쎯	-9.00791
ㄅㄧˋ1쎯	-9.00794
ㄓˊ0쎯ㄏㄤˊ0쎯	-9.00865
ㄨㄣˊ0쎯ㄇㄧㄥˊ1쎯	-9.01069
쎂쎇	-9.01095
ㄇㄛˋ5쎯	-9.01141
ㄐㄧㄤ0쎯ㄙㄨ0쎯ㄕㄥˇ0쎯	-9.01188
ㄐㄧㄤ2쎯	-9.01342
ㄏㄨㄛˋ0쎯ㄓㄜˇ0쎯	-9.01365
ㄅㄤ1쎯ㄓㄨˋ0쎯	-9.01399
ㄉㄨˊ1쎯ㄊㄜˋ0쎯	-9.01454
ㄒㄧㄠ6쎯	-9.01454
ㄐㄧˊ0쎯ㄑㄧˊ1쎯	-9.01538
ㄍㄨㄟ2쎯ㄉㄧㄥˋ1쎯	-9.01553
ㄉㄢˋ4쎯	-9.0175
ㄒㄩˇ0쎯	-9.01783
ㄓˋ11쎯	-9.01824
ㄨㄟˋ2쎯ㄓˋ13쎯	-9.0206
ㄏㄞˋ2쎯	-9.02174
ㄒㄧㄚˋ0쎯,	-9.02177
ㄜˇ쎯	-9.02215
ㄓㄣ1쎯	-9.02315
ㄅㄧㄠˇ0쎯ㄇㄧㄢˋ0쎯	-9.0232
ㄅㄧˋ2쎯ㄧㄝˋ0쎯	-9.02327
ㄋㄧˊ1쎯	-9.02395
ㄉㄧˊ0쎯	-9.02434
ㄓㄨ1쎯	-9.02436
ㄡ1쎯	-9.02474
ㄇㄧˊ1쎯	-9.02573
ㄑㄧˊ1쎯ㄊㄚ1쎯	-9.02583
ㄙˋ1쎯ㄔㄨㄢ0쎯ㄕㄥˇ0쎯	-9.02665
ㄑㄧㄢˇ0쎯	-9.02686
ㄏㄨㄛˋ1쎯	-9.02691
ㄉㄧ2쎯ㄔㄨ0쎯	-9.02705
ㄕㄡˋ1쎯ㄉㄠˋ0쎯	-9.0286
ㄊㄨㄟˋ0쎯	-9.02876
ㄍㄨㄤˇ0쎯ㄍㄠˋ0쎯	-9.03237
ㄧˊ8쎯	-9.03272
ㄐㄩㄢ2쎯	-9.03289
ㄐㄩ3쎯ㄌㄜˋ0쎯ㄅㄨˋ4쎯	-9.03312
ㄒㄧㄠˇ0쎯ㄕˊ1쎯	-9.03328
ㄍㄨㄥ0쎯ㄐㄩˋ2쎯	-9.03377
ㄏㄢˊ4쎯	-9.03386
ㄔˋ1쎯	-9.03542
ㄇㄢˋ0쎯	-9.03567
ㄘㄞˊ1쎯	-9.03577
ㄈㄨˋ2쎯	-9.03617
ㄧㄥˊ5쎯ㄧㄤˇ1쎯	-9.03658
ㄓㄨㄤ3쎯ㄕˋ10쎯	-9.03676
ㄏㄜˊ5쎯ㄒㄧㄣ0쎯	-9.03756
ㄉㄠˇ3쎯	-9.03757
ㄌㄧㄤˊ1쎯	-9.03764
ㄒㄧㄢˋ1쎯ㄖㄣˊ3쎯	-9.03839
ㄡ1쎯ㄓㄡ3쎯	-9.03856
:쎁	-9.03883
ㄉㄨㄥ1쎯	-9.03959
ㄏㄨˊ5쎯ㄅㄟˇ쎯	-9.03989
ㄗㄨㄛˋ0쎯	-9.04054
ㄕˊ3쎯ㄐㄧㄢˋ10쎯	-9.04068
ㄢ0쎯ㄏㄨㄟ4쎯	-9.04171
ㄧㄢˇ3쎯	-9.04189
ㄙ	-9.0434
쎁ㄍㄜˇ0쎯	-9.04379
ㄧㄤˊ0쎯	-9.04405
ㄓㄥˋ1쎯	-9.04506
ㄈㄨˋ0쎯	-9.04653
ㄋㄨㄥˊ0쎯ㄘㄨㄣ0쎯	-9.04738
ㄅㄟˋ0쎯	-9.04855
ㄔㄨㄢ1쎯	-9.04882
ㄕˋ7쎯	-9.04944
ㄐㄧㄠˋ0쎯	-9.04974
ㄊㄜˋ0쎯ㄓㄥ2쎯	-9.04978
ㄗ2쎯	-9.05159
▁̇ㄉㄜ0쎯ㄔㄢˇ0쎯	-9.05192
ㄐㄧ11쎯	-9.05306
ㄧㄣˇ0쎯ㄑㄧˇ4쎯	-9.05382
ㄏㄜˊ3쎯ㄅㄟˇ쎯	-9.05391
°	-9.05424
ㄔㄤˊ2쎯	-9.05688
ㄖㄣˊ0쎯ㄌㄟˋ2쎯	-9.05712
ㄕˋ10쎯	-9.05725
ㄓㄡˊ0쎯	-9.05822
ㄉㄨㄛ0쎯ㄔㄨㄥˊ1쎯	-9.0583
ㄕㄨ0쎯ㄐㄧˋ1쎯	-9.0585
쎄쎈	-9.05866
ㄩㄣˊ0쎯ㄋㄚ1쎯	-9.05897
쎁쎉쎉쎉ㄋㄧㄢˊ0쎯	-9.05935
ㄏㄜˊ3쎯ㄋㄚ1쎯ㄕㄥˇ0쎯	-9.05973
ㄧㄥ1쎯ㄨㄣˊ0쎯	-9.061
ㄅㄟˋ5쎯ㄆㄧㄥˊ1쎯ㄨㄟˊ0쎯	-9.06273
ㄑㄩˇ0쎯ㄉㄜˊ0쎯	-9.06311
ㄧˋ4쎯	-9.06346
ㄏㄨㄟˋ1쎯	-9.06347
》(	-9.06352
ㄔㄨㄥˊ1쎯ㄓˊ5쎯	-9.06381
ㄕˊ1쎯ㄕㄤˋ0쎯	-9.0642
ㄍㄢ1쎯	-9.06424
ㄊㄧㄥˊ1쎯	-9.06469
ㄐㄧㄝˊ1쎯	-9.0653
ㄆㄠ1쎯	-9.06532
ㄇㄞˋ1쎯	-9.06582
ㄔㄤˋ2쎯	-9.06596
ㄨㄢˊ1쎯ㄑㄩㄢˊ1쎯	-9.06686
ㄓㄥ2쎯	-9.06773
ㄨ	-9.06789
,ㄐㄧㄤ1쎯	-9.06877
》,	-9.0723
ㄩㄣˋ1쎯ㄏㄤˊ0쎯	-9.07303
ㄩㄝ0쎯	-9.07318
ㄢ0쎯ㄓㄨㄤ3쎯	-9.07517
ㄋㄢˊ0쎯,ㄏㄢˋ0쎯ㄗㄨˊ1쎯	-9.07646
ㄑㄧˇ3쎯	-9.07682
쎁쎉쎉쎇ㄋㄧㄢˊ0쎯	-9.07726
ㄑㄧㄤˊ0쎯	-9.07782
ㄉㄧㄢˋ9쎯	-9.08015
ㄈㄟˊ0쎯	-9.08036
ㄙㄨˋ3쎯ㄉㄨˋ2쎯	-9.08143
ㄒㄧㄢˋ0쎯ㄔㄥˊ4쎯	-9.08167
ㄩˋ8쎯	-9.08201
ㄔㄠˊ3쎯	-9.08307
ㄈㄣ0쎯ㄅㄨˋ1쎯	-9.08413
ㄒㄧㄢˇ0쎯ㄕˋ2쎯	-9.08471
ㄨㄣˇ2쎯ㄉㄧㄥˋ1쎯	-9.0858
ㄓㄢˋ1쎯ㄌㄩㄝˋ1쎯	-9.08585
ㄇㄧㄠˊ1쎯ㄕㄨˋ2쎯	-9.08615
쎁쎉쎉쎆ㄋㄧㄢˊ0쎯	-9.08695
ㄍㄨˇ4쎯	-9.08716
ㄆㄛ0쎯	-9.08807
ㄕˇ3쎯	-9.0895
ㄌㄨㄢˋ쎯	-9.08959
ㄅㄧㄥˇ4쎯	-9.08972
ㄊㄧㄢˊ2쎯	-9.09046
ㄧㄡˋ2쎯	-9.09051
ㄓㄜˋ0쎯ㄔㄨㄥˊ1쎯	-9.09157
ㄆㄟˋ2쎯ㄊㄠˋ쎯	-9.09224
ㄐㄧㄝ2쎯	-9.09246
ㄌㄧㄤˊ0쎯ㄏㄠˇ0쎯	-9.09267
ㄏㄨㄚˋ0쎯ㄍㄨㄥ0쎯	-9.09331
쎂쎀쎁쎁ㄋㄧㄢˊ0쎯	-9.09359
,ㄘㄨㄥˊ0쎯	-9.09365
ㄍㄨㄤˇ0쎯ㄉㄚˋ쎯	-9.09538
ㄅㄞˊ0쎯ㄙㄜˋ0쎯	-9.09569
,ㄧㄡˋ0쎯	-9.09585
ㄓㄨˋ0쎯	-9.09655
,ㄓㄨㄥ0쎯ㄍㄨㄛˊ0쎯	-9.0966
ㄨˇ3쎯ㄏㄢˋ0쎯	-9.09664
ㄐㄧㄤˇ0쎯	-9.09674
ㄎㄜˇ0쎯ㄋㄥˊ쎯	-9.09759
ㄓㄨˇ2쎯	-9.09773
ㄔㄨㄢˊ0쎯ㄅㄛ4쎯	-9.0989
ㄅㄠˊ1쎯	-9.09918
ㄔㄚ2쎯	-9.09933
ㄖㄣˋ1쎯ㄓㄥˋ0쎯	-9.0995
ㄊㄨㄛ2쎯	-9.10125
ㄉㄡˋ2쎯ㄓㄜˇ0쎯	-9.10187
ㄧㄢˊ1쎯	-9.10239
ㄍㄜˊ5쎯	-9.10259
ㄕˊ3쎯ㄐㄧˋ5쎯	-9.10499
ㄌㄩˇ2쎯	-9.10578
,ㄩˇ0쎯	-9.10616
ㄙㄨㄛˇ0쎯ㄗㄞˋ1쎯	-9.10622
》ㄓㄨㄥ0쎯	-9.10699
ㄋㄧㄣˊ쎯	-9.10728
ㄍㄨㄛ0쎯ㄔㄥˊ7쎯	-9.10848
▁̇ㄉㄜ1쎯ㄈㄚ쎯ㄓㄢˇ2쎯	-9.10851
ㄓㄜˋ0쎯ㄒㄧㄝ0쎯	-9.10917
ㄩˇ3쎯	-9.10935
ㄇㄛˊ7쎯	-9.10963
ㄉㄚˋ쎯ㄒㄧㄠˇ0쎯	-9.10971
ㄅㄧㄢ1쎯ㄐㄧˊ9쎯	-9.11088
ㄆㄧㄥˊ1쎯	-9.11111
ㄧㄡ0쎯	-9.11173
ㄅㄚˋ0쎯	-9.11183
ㄐㄩˋ0쎯	-9.11211
ㄇㄧㄣˊ0쎯ㄓㄥˋ3쎯ㄈㄨˇ3쎯	-9.11295
ㄨㄢˊ1쎯ㄕㄢˋ0쎯	-9.11339
ㄊㄧㄝ1쎯	-9.11348
쎁쎉쎉쎅ㄋㄧㄢˊ0쎯	-9.11419
ㄎㄜˋ3쎯	-9.11422
ㄉㄞ1쎯	-9.11469
ㄕㄥˇ0쎯ㄐㄧˊ2쎯	-9.11474
ㄐㄧㄢˇ8쎯ㄔㄢˊ0쎯	-9.11483
ㄒㄩㄢˊ0쎯	-9.11606
ㄓˇ0쎯	-9.1167
ㄐㄧㄥˋ8쎯	-9.11728
ㄖㄨㄣˋ1쎯	-9.11757
ㄦˋ0쎯ㄕˊ0쎯	-9.11761
ㄅㄧㄠˇ0쎯ㄕˋ2쎯	-9.12011
ㄧㄣˇ3쎯	-9.12014
ㄖㄣˊ3쎯ㄨˋ2쎯	-9.12164
,ㄧㄝˇ0쎯	-9.12274
ㄨㄟˊ2쎯	-9.12342
ㄐㄧㄣˇ3쎯	-9.12391
ㄔㄥˊ5쎯	-9.12392
ㄅㄟˇ쎯ㄐㄧㄥ1쎯ㄕˋ4쎯	-9.12441
ㄖㄨㄛˋ1쎯	-9.12608
ㄍㄨㄟˋ2쎯	-9.12623
ㄐㄧㄥ0쎯	-9.12686
ㄗㄨㄣ0쎯	-9.1269
ㄓㄜˋ0쎯ㄧ0쎯	-9.12792
ㄉㄤˇ1쎯ㄨㄟˇ5쎯	-9.12893
ㄎㄠˋ1쎯	-9.12931
ㄔㄣˊ0쎯	-9.13033
11쎯	-9.13106
ㄕˋ16쎯ㄍㄜˇ1쎯	-9.13125
ㄐㄧㄚˋ0쎯ㄍㄜˊ2쎯	-9.13195
ㄏㄨㄟ0쎯	-9.13331
쎁쎉쎉쎃ㄋㄧㄢˊ0쎯	-9.13378
ㄌㄧㄢˊ0쎯ㄐㄧㄝ4쎯	-9.13419
ㄈㄤ0쎯ㄢˋ2쎯	-9.13546
ㄒㄧㄠˋ3쎯	-9.13783
ㄔㄨㄤ0쎯ㄗㄠˋ2쎯	-9.13822
ㄗㄜˊ3쎯	-9.13857
ㄕㄜˋ6쎯ㄧㄥˇ1쎯	-9.13932
ㄐㄧˊ12쎯	-9.13963
ㄉㄚˊ0쎯ㄗㄠˋ2쎯	-9.13973
ㄍㄨㄛˊ0쎯ㄋㄟˋ쎯ㄨㄞˋ쎯	-9.14085
ㄐㄧㄢˇ6쎯	-9.14146
ㄎ	-9.14268
ㄇㄛˊ5쎯	-9.14292
ㄕㄨ8쎯	-9.14317
ㄉㄤ0쎯ㄕˊ1쎯	-9.14328
ㄓ7쎯ㄇㄧㄥˊ0쎯	-9.14337
ㄩㄢˊ4쎯ㄌㄧㄠˋ0쎯	-9.14348
ㄌㄧˋ0쎯ㄌㄧㄤˊ3쎯	-9.14355
ㄏㄢˊ4쎯ㄍㄨㄛˊ0쎯	-9.14389
쎂쎀쎀쎀	-9.14409
▁̇ㄉㄜ1쎯ㄔㄨㄥˊ2쎯ㄧㄠ4쎯	-9.14486
ㄒㄧㄚˊ5쎯	-9.14537
ㄩㄣˋ1쎯ㄕㄨ9쎯	-9.14637
ㄊㄧㄢ0쎯ㄐㄧㄣ4쎯	-9.14692
ㄗㄥ0쎯ㄐㄧㄚ0쎯	-9.14744
ㄎㄠˇ0쎯ㄕˋ11쎯	-9.14759
ㄕㄨ9쎯ㄔㄨ0쎯	-9.14863
ㄞˋ0쎯	-9.14864
.ㄊㄚ1쎯	-9.14979
ㄑㄧˊ8쎯	-9.14983
.ㄒㄧㄢˋ1쎯ㄖㄣˊ3쎯	-9.14985
ㄨˋ3쎯ㄌㄧˇ3쎯	-9.15009
쎁쎉쎉쎂ㄋㄧㄢˊ0쎯	-9.1502
ㄗ2쎯ㄔㄢˇ0쎯	-9.1507
ㄑㄧㄤ2쎯	-9.15091
ㄏㄢˋ0쎯ㄗㄨˊ1쎯	-9.15189
ㄙㄣ쎯	-9.15308
▁̇ㄉㄜ1쎯ㄧㄢˊ6쎯ㄐㄧㄡ1쎯	-9.15322
쎂쎉	-9.15389
ㄕㄨˇ5쎯ㄗˋ1쎯	-9.15528
ㄊㄡˋ쎯	-9.15612
ㄓㄨㄥ2쎯	-9.15716
ㄗㄚˊ0쎯ㄓˋ1쎯	-9.15737
ㄍㄨㄢ3쎯	-9.15758
ㄔㄥˊ4쎯ㄡ0쎯	-9.1587
ㄨㄟˋ12쎯	-9.16021
ㄕㄣˊ1쎯ㄐㄧㄥ2쎯	-9.1607
ㄐㄧㄥˋ1쎯	-9.16218
ㄨㄟˊ3쎯ㄧ0쎯	-9.16245
ㄔㄨㄥˊ2쎯ㄑㄧㄥˋ0쎯	-9.16328
》.	-9.16482
ㄇㄧㄥˊ0쎯.	-9.16556
ㄖㄣˊ0쎯,ㄑㄧˊ1쎯ㄓㄨㄥ0쎯	-9.16572
쎆쎄	-9.16603
ㄐㄧㄠ8쎯	-9.16658
ㄧ0쎯ㄧㄤˋ0쎯	-9.16688
ㄊㄜˋ0쎯ㄕㄨ4쎯	-9.16734
ㄇㄧㄣˊ0쎯ㄐㄧㄢ4쎯	-9.16786
ㄓㄨㄥ0쎯ㄧ3쎯	-9.16808
ㄒㄧㄢˋ1쎯ㄗㄞˋ1쎯	-9.16881
ㄘㄢ0쎯ㄎㄠˇ0쎯	-9.16906
ㄓㄡ3쎯	-9.16954
ㄐㄩㄣˋ4쎯	-9.1696
ㄐㄧㄚˇ2쎯	-9.16963
ㄋㄟˋ쎯ㄘㄨㄣˊ쎯	-9.16995
ㄌㄤˊ0쎯	-9.17013
쎃쎃	-9.17055
ㄙㄨㄢˋ1쎯	-9.17084
ㄐㄧㄢˇ5쎯ㄘㄜˋ3쎯	-9.17094
ㄈㄨˊ7쎯	-9.17109
ㄕ5쎯ㄍㄨㄥ0쎯	-9.1715
ㄉㄤˇ1쎯ㄩㄢˊ2쎯	-9.17161
ㄎㄨㄥˋ0쎯	-9.17248
ㄩㄣˋ1쎯ㄉㄨㄥˋ0쎯ㄩㄢˊ2쎯	-9.1726
ㄇㄟˊ0쎯	-9.17274
ㄅㄢ4쎯	-9.17282
ㄑㄧˇ4쎯ㄌㄞˊ0쎯	-9.17283
ㄕㄨ9쎯ㄖㄨˋ0쎯	-9.17329
ㄒㄩㄢ1쎯ㄔㄨㄢˊ0쎯	-9.17344
ㄊㄨㄟ0쎯ㄍㄨㄤˇ0쎯	-9.17432
ㄧˊ7쎯	-9.17435
ㄐㄧˋ7쎯	-9.1746
ㄌㄧㄢˊ3쎯	-9.17462
▁̇ㄉㄜ1쎯ㄓㄨㄢ0쎯ㄧㄝˋ0쎯	-9.17481
ㄕㄥ1쎯ㄔㄤˊ0쎯	-9.17493
ㄒㄩㄝˊ1쎯ㄨㄟˋ2쎯	-9.17508
×	-9.17563
ㄓˋ7쎯ㄌㄧˋ0쎯ㄩˊ0쎯	-9.17629
쎃쎈	-9.17663
ㄐㄧㄡˋ3쎯	-9.17781
쎇쎅	-9.17787
ㄐㄧㄤ0쎯ㄒㄧ1쎯	-9.1792
ㄉㄨˋ0쎯	-9.1795
ㄒㄧㄢ1쎯ㄏㄡˋ0쎯	-9.1796
ㄍㄨㄥ0쎯ㄔㄥˊ7쎯ㄕ2쎯	-9.17991
ㄑㄩㄢˊ1쎯ㄅㄨˋ4쎯	-9.18032
ㄍㄠ0쎯ㄉㄥˇ0쎯	-9.18063
ㄧ0쎯ㄐㄧˊ2쎯	-9.18082
ㄇㄨˇ4쎯	-9.18158
ㄕㄜˋ0쎯ㄧㄡˇ1쎯	-9.18172
ㄖㄣˋ1쎯ㄨㄟˊ0쎯	-9.18282
ㄨㄣ0쎯ㄉㄨˋ2쎯	-9.18305
ㄇㄧㄥˊ0쎯ㄔㄣˋ1쎯	-9.18512
ㄌㄧˇ3쎯ㄋㄧㄢˋ0쎯	-9.18548
ㄗㄨㄛˇ0쎯ㄧㄡˋ1쎯	-9.1883
ㄈㄢˇ0쎯ㄧㄥ0쎯	-9.18846
ㄒㄧˋ0쎯	-9.18866
ㄘㄜˋ3쎯	-9.18894
ㄌㄧㄝˋ4쎯	-9.1898
ㄒㄧㄤ5쎯	-9.1898
ㄕˋ6쎯	-9.18999
ㄍㄨㄥˋ0쎯ㄉㄤˇ1쎯ㄩㄢˊ2쎯	-9.19023
ㄉㄤ0쎯ㄉㄞˋ0쎯	-9.19029
ㄐㄧ6쎯ㄔㄤˊ1쎯	-9.1909
ㄍㄤ3쎯	-9.1911
쎁쎉쎉쎄ㄋㄧㄢˊ0쎯	-9.19147
ㄍㄨㄤˇ0쎯ㄔㄤˊ1쎯	-9.19152
ㄧㄚˊ0쎯	-9.19191
ㄇㄧㄥˊ0쎯ㄔㄣˋ1쎯:	-9.19251
ㄐㄧㄣ4쎯	-9.19338
ㄐㄧˋ11쎯	-9.19347
ㄔㄣˊ3쎯	-9.19352
ㄙㄢ0쎯ㄍㄜˇ0쎯	-9.19361
ㄨㄟˊ0쎯“	-9.19362
ㄕㄡˇ0쎯ㄐㄧ6쎯	-9.19388
ㄅㄠˇ3쎯	-9.19468
쎆쎀쎀	-9.19475
ㄅㄠˇ2쎯ㄒㄧㄢˇ1쎯	-9.19522
ㄕㄤˇ0쎯ㄏㄞˇ0쎯ㄕˋ4쎯	-9.19608
ㄈㄣˋ0쎯	-9.19612
ㄈㄢˊ0쎯	-9.19675
ㄔㄤˊ4쎯ㄐㄧㄢˋ0쎯	-9.19675
ㄈㄣ0쎯ㄓㄨㄥ3쎯	-9.19761
ㄌㄠˊ0쎯	-9.19795
ㄗˋ0쎯ㄖㄢˊ0쎯ㄘㄨㄣ0쎯	-9.19894
ㄧ0쎯ㄑㄧˇ4쎯	-9.19937
ㄌㄧㄥˊ10쎯	-9.19976
ㄈㄣ0쎯ㄅㄧㄝˊ0쎯	-9.20046
ㄘㄜˋ0쎯	-9.20117
ㄨˋ3쎯ㄓˋ4쎯	-9.20121
ㄔˋ2쎯	-9.20225
ㄆㄧㄢ1쎯	-9.20247
ㄎㄢ0쎯	-9.20287
ㄩㄢˊ2쎯ㄍㄨㄥ0쎯	-9.20301
ㄘㄨㄥ2쎯	-9.20362
ㄒㄩˋ1쎯	-9.20442
ㄊㄠˊ1쎯	-9.20534
ㄕㄥ1쎯ㄇㄧㄥˋ쎯	-9.20645
ㄉㄨㄛ0쎯ㄍㄜˇ0쎯	-9.20779
ㄍㄨㄛˊ0쎯ㄐㄧㄚ3쎯ㄐㄧˊ2쎯	-9.20953
ㄐㄧˋ10쎯	-9.21012
ㄍㄨㄥ4쎯	-9.21067
ㄈㄟˋ2쎯	-9.21079
ㄧㄡˊ3쎯	-9.21153
,ㄏㄡˋ0쎯	-9.21227
ㄗ	-9.21252
ㄓㄜˊ0쎯ㄒㄩㄝˊ1쎯	-9.2129
ㄒㄧㄝˋ5쎯	-9.21318
ㄍㄠ0쎯ㄙㄨˋ3쎯	-9.2135
ㄑㄩㄢˊ1쎯ㄘㄨㄣ0쎯	-9.21473
ㄘㄨ쎯	-9.21473
ㄓㄜˇ0쎯,	-9.21491
ㄅㄨˋ0쎯ㄎㄜˇ0쎯	-9.21503
ㄍㄨㄚ0쎯	-9.21643
,ㄩㄥˋ0쎯	-9.21673
ㄎㄨㄞˋ1쎯ㄙㄨˋ3쎯	-9.21721
ㄙㄤ1쎯	-9.21787
ㄧㄡˋ0쎯ㄔㄣˋ1쎯	-9.21792
ㄒㄧˇ2쎯ㄏㄨㄢ0쎯	-9.21892
ㄉㄚˋ쎯ㄌㄧㄡˋ1쎯	-9.21938
ㄒㄧㄣ2쎯	-9.21947
ㄏㄨˊ5쎯ㄅㄟˇ쎯ㄕㄥˇ0쎯	-9.21963
ㄐㄩ4쎯	-9.22048
ㄉㄧˊ1쎯	-9.2206
ㄒㄩㄥ4쎯	-9.22064
ㄒㄧㄠˋ2쎯	-9.22116
ㄧˇ2쎯ㄌㄞˊ0쎯	-9.22143
ㄘㄨˋ1쎯ㄐㄧㄣˋ0쎯	-9.22212
쎁쎉쎈쎈ㄋㄧㄢˊ0쎯	-9.22237
ㄉㄠˇ0쎯ㄧㄢˇ3쎯	-9.22369
ㄐㄧㄢ3쎯	-9.22398
ㄒㄧㄥˊ1쎯ㄒㄧㄤˋ2쎯	-9.22452
ㄓㄜˋ0쎯ㄧㄤˋ0쎯	-9.22504
ㄌㄞˊ0쎯ㄗˋ0쎯	-9.22559
ㄐㄩ1쎯ㄇㄧㄣˊ0쎯	-9.22563
ㄍㄠ0쎯ㄓㄨㄥ0쎯	-9.22572
ㄏㄨㄚˊ3쎯	-9.22749
ㄆㄧㄠˋ0쎯	-9.22827
ㄏㄟ0쎯ㄙㄜˋ0쎯	-9.22912
ㄕㄨˇ5쎯ㄒㄩㄝˊ1쎯	-9.22915
쎃쎄	-9.22931
,ㄐㄩˋ2쎯ㄧㄡˇ1쎯	-9.23078
ㄘㄢˊ0쎯	-9.23078
ㄒㄧㄢˊ1쎯	-9.23105
ㄑㄩㄝ0쎯	-9.23262
ㄓㄢˋ1쎯ㄉㄡˇ0쎯	-9.23395
ㄋㄨˇ0쎯ㄌㄧˋ0쎯	-9.23415
ㄑㄧㄝˇ쎯	-9.23559
ㄌㄧˇ2쎯,	-9.23569
ㄕㄜˋ0쎯ㄌㄧˋ3쎯	-9.23571
ㄊㄧㄥˊ3쎯	-9.2367
ㄉㄚˋ쎯ㄌㄧㄤˊ3쎯	-9.23702
,ㄗㄞˋ0쎯	-9.23724
ㄗˋ0쎯ㄧㄡˊ1쎯	-9.2382
ㄐㄧㄥˋ0쎯	-9.23883
ㄊㄨㄢˊ0쎯ㄉㄨㄟˋ0쎯	-9.23956
ㄖㄨˊ0쎯ㄏㄜˊ1쎯	-9.24052
ㄉㄧㄠ2쎯	-9.24091
ㄇㄨˇ2쎯	-9.24102
ㄒㄧㄣ0쎯ㄌㄧˇ3쎯	-9.24191
ㄊㄞˋ2쎯	-9.24199
ㄕˊ0쎯ㄦˋ0쎯	-9.24238
ㄧˊ9쎯	-9.24292
ㄈㄢˋ3쎯	-9.24318
ㄗㄨㄟˋ0쎯ㄐㄧㄚ2쎯	-9.24387
ㄓㄨㄤˋ1쎯ㄊㄞˋ2쎯	-9.2439
ㄐㄩㄝˊ0쎯ㄉㄧㄥˋ1쎯	-9.24483
ㄅㄧㄣ0쎯	-9.24597
ㄆㄨˇ1쎯	-9.24653
ㄉㄨㄥ0쎯ㄋㄚ1쎯	-9.24678
ㄓ2쎯ㄧㄡˇ1쎯	-9.24697
쎄쎀쎀	-9.24772
ㄓㄨㄥ1쎯	-9.24867
ㄕㄚ4쎯	-9.24924
ㄊㄨㄥ0쎯ㄔㄤˊ4쎯	-9.24942
ㄢ0쎯ㄏㄨㄟ4쎯ㄕㄥˇ0쎯	-9.24964
ㄅㄟˋ3쎯	-9.25
ㄐㄧㄠ0쎯ㄧˋ12쎯	-9.25007
ㄔㄨˇ3쎯	-9.25061
ㄊㄜˋ0쎯ㄅㄧㄝˊ0쎯	-9.25124
ㄔㄨㄤˊ0쎯	-9.25134
ㄆㄧㄣˊ1쎯	-9.25209
ㄨㄞˋ쎯ㄎㄜ2쎯	-9.25217
ㄧㄥ1쎯ㄘㄨㄣˋ쎯	-9.25245
ㄨㄢˊ1쎯	-9.25277
ㄧㄢ5쎯	-9.253
ㄊㄧㄥˊ2쎯	-9.25308
ㄉㄧˋ3쎯ㄙˋ1쎯	-9.25335
ㄑㄧㄥˇ1쎯	-9.25435
ㄏㄨㄥˊ1쎯ㄙㄜˋ0쎯	-9.25474
ㄕㄢ0쎯ㄡ0쎯	-9.25519
쎁쎉쎈쎆ㄋㄧㄢˊ0쎯	-9.25534
ㄓ0쎯ㄏㄡˋ0쎯	-9.25539
ㄐㄧㄠˋ2쎯ㄩㄢˊ1쎯	-9.2557
ㄍㄜˇ0쎯ㄘㄨㄣ0쎯ㄇㄧㄣˊ0쎯	-9.25671
▁̇ㄅㄛ0쎯	-9.25751
ㄔˇ0쎯	-9.25768
ㄏㄨˊ5쎯ㄋㄚ1쎯ㄕㄥˇ0쎯	-9.258
ㄐㄧㄝ0쎯ㄇㄨˋ1쎯	-9.25885
ㄌㄧㄡˊ3쎯ㄏㄤˊ0쎯	-9.25958
ㄐㄧˇ3쎯	-9.25986
ㄑㄧㄢˊ4쎯	-9.26037
ㄉㄞˋ0쎯ㄌㄧˇ3쎯	-9.26058
ㄌㄧㄢˊ0쎯ㄒㄩˋ6쎯	-9.26111
ㄇㄛˊ3쎯	-9.26129
ㄧㄣˋ0쎯ㄉㄨˋ2쎯	-9.26241
'	-9.26338
ㄒㄩˇ0쎯ㄉㄨㄛ0쎯	-9.26356
ㄈㄥˋ1쎯	-9.2637
ㄗㄥˋ0쎯ㄍㄜˇ1쎯ㄒㄧㄥˋ2쎯	-9.26415
ㄕㄤ1쎯ㄆㄧㄣˇ쎯	-9.26423
ㄩˋ9쎯	-9.26444
ㄈㄨˊ10쎯	-9.2645
ㄐㄧㄤˇ0쎯ㄕㄨˋ2쎯	-9.2648
ㄕㄡ쎯ㄘㄤˊ쎯	-9.26589
쎁쎉쎉쎀ㄋㄧㄢˊ0쎯	-9.26787
ㄊㄨㄟ0쎯ㄔㄨ0쎯	-9.26805
ㄏㄨㄢˋ2쎯	-9.26806
ㄆㄥˊ0쎯ㄧㄡˇ0쎯	-9.26876
ㄅㄛˊ5쎯ㄨˋ3쎯ㄍㄨㄢˇ0쎯	-9.26912
ㄏㄞˊ0쎯ㄧㄡˇ1쎯	-9.26913
ㄉㄠˋ3쎯ㄌㄨˋ5쎯	-9.26983
쎁쎀쎀쎀	-9.26991
ㄔㄠ4쎯ㄍㄨㄛ0쎯	-9.27015
쎁쎉쎈쎇ㄋㄧㄢˊ0쎯	-9.27071
ㄗㄨㄥˋ0쎯	-9.27133
》《	-9.27335
ㄊㄨ2쎯ㄔㄨ0쎯	-9.27349
ㄓㄤˇ1쎯	-9.27514
ㄙㄣ쎯ㄌㄧㄣˊ1쎯	-9.27552
ㄔㄨㄤ0쎯ㄐㄧㄢˋ2쎯	-9.27608
,ㄧㄝˇ0쎯ㄕˋ15쎯	-9.27645
ㄕˋ16쎯ㄧㄥ0쎯	-9.27659
ㄆㄧㄥˊ0쎯ㄐㄩㄣ1쎯	-9.27705
ㄐㄧㄥ4쎯	-9.27794
ㄏㄞˇ0쎯ㄅㄚˊ0쎯	-9.2783
ㄓㄥˇ1쎯ㄍㄜˇ0쎯	-9.27855
ㄇㄚ2쎯	-9.27897
ㄌㄤˋ0쎯	-9.27905
쎃쎇	-9.27957
ㄇㄧㄥˊ1쎯ㄒㄧㄢˇ0쎯	-9.28008
ㄨㄟˋ5쎯	-9.28131
ㄆㄤˊ1쎯	-9.28214
ㄈㄟˋ1쎯	-9.28267
,ㄐㄧㄠ0쎯ㄊㄨㄥ0쎯	-9.28312
ㄋㄧㄢˊ1쎯	-9.28442
ㄇㄧㄠˊ0쎯	-9.28478
ㄧ0쎯ㄊㄧㄠˊ0쎯	-9.28486
ㄕˊ2쎯	-9.28505
ㄏㄤˊ0쎯ㄨㄟˊ0쎯	-9.2857
ㄨ5쎯	-9.28612
,ㄍㄨˋ1쎯	-9.28614
ㄗㄨㄟˋ0쎯ㄒㄧㄣ5쎯	-9.28641
ㄐㄧˊ5쎯	-9.28667
ㄈㄣ0쎯ㄗˇ0쎯	-9.2867
ㄍㄨㄥ2쎯ㄍㄨㄥˋ0쎯	-9.28743
ㄍㄨㄥ2쎯ㄌㄧˇ2쎯,	-9.28752
ㄕㄣ5쎯ㄓㄣˋ4쎯	-9.28904
쎆쎅	-9.28957
ㄒㄧˇ0쎯	-9.28957
ㄍㄨㄥ0쎯ㄗㄨㄛ0쎯ㄓㄜˇ0쎯	-9.29009
ㄩˊ0쎯ㄧ0쎯ㄊㄧ0쎯	-9.29043
ㄏㄨㄢˊ0쎯ㄅㄠˇ2쎯	-9.2907
ㄏㄤˊ2쎯ㄓㄡ1쎯	-9.29145
ㄕㄢ0쎯ㄒㄧ1쎯	-9.29206
ㄏㄨㄟˋ2쎯ㄐㄧˋ0쎯	-9.29252
쎈쎀쎀	-9.29257
ㄍㄤ2쎯	-9.29293
ㄓㄣ3쎯	-9.2949
ㄔㄨㄥ1쎯	-9.29515
ㄇㄧㄢˋ0쎯ㄐㄧ11쎯쎂	-9.29521
ㄕˋ11쎯ㄧㄢˋ5쎯	-9.29545
ㄏㄞˊ1쎯ㄗˇ0쎯	-9.29598
ㄩˇ2쎯	-9.29602
ㄏㄤˊ3쎯ㄎㄨㄥ0쎯	-9.29701
ㄐㄧˊ4쎯ㄎㄜˇ0쎯	-9.29797
ㄒㄧㄢˋ2쎯	-9.29838
ㄩㄥˇ3쎯	-9.29941
ㄕㄨˇ1쎯ㄩˊ0쎯ㄕㄢ0쎯ㄡ0쎯	-9.30037
ㄊㄨㄥˇ0쎯	-9.30151
ㄒㄧㄥˋ3쎯	-9.30215
ㄓㄨㄥˋ1쎯ㄉㄨㄛ0쎯	-9.30267
′	-9.30355
ㄕㄢˇ1쎯ㄒㄧ1쎯	-9.30379
쎂쎀쎁쎂ㄋㄧㄢˊ0쎯	-9.30401
ㄍㄨㄟ2쎯ㄈㄢˋ3쎯	-9.30435
ㄒㄧㄡ0쎯ㄒㄧㄢˊ0쎯	-9.30516
ㄕˋ16쎯ㄌㄧㄤˊ3쎯	-9.30552
ㄐㄧ11쎯ㄐㄧˊ3쎯	-9.30573
ㄐㄧ13쎯ㄐㄧㄢ4쎯	-9.30616
ㄅㄠ0쎯ㄓㄨㄤ3쎯	-9.30649
ㄌㄤˇ0쎯	-9.3065
ㄒㄧ1쎯ㄅㄨˋ4쎯	-9.30747
ㄐㄧㄥˋ7쎯ㄋㄟˋ쎯	-9.30879
ㄒㄧㄠˇ0쎯ㄡ0쎯	-9.30906
ㄈㄨˋ8쎯ㄕㄨ0쎯ㄐㄧˋ1쎯	-9.30931
ㄒㄧㄤ1쎯ㄉㄨㄟˋ1쎯	-9.30952
ㄅㄠˇ2쎯ㄐㄧㄢˋ6쎯	-9.30988
ㄩㄢˋ3쎯	-9.30991
ㄒㄧ3쎯	-9.31007
ㄒㄧㄠ2쎯	-9.31055
ㄒㄧㄣ5쎯ㄐㄧㄤ6쎯	-9.31093
ㄇㄢˇ0쎯ㄗㄨˊ0쎯	-9.31116
ㄅㄠ3쎯	-9.31125
ㄘˊ6쎯	-9.31152
ㄐㄧㄥ2쎯ㄉㄧㄢˇ0쎯	-9.31372
ㄏㄣˇ0쎯ㄉㄨㄛ0쎯	-9.31372
ㄊㄨㄥˇ0쎯ㄐㄧˋ0쎯	-9.31431
ㄐㄧㄢˇ8쎯ㄔㄣˋ1쎯	-9.31531
쎅-	-9.3154
ㄧ0쎯ㄋㄧㄢˊ0쎯	-9.31583
ㄎㄞ0쎯ㄈㄤˋ쎯	-9.31588
ㄏㄞˊ0쎯ㄕˋ15쎯	-9.31595
ㄨㄢˊ2쎯	-9.31609
ㄆㄨˇ3쎯	-9.3161
ㄓㄨㄣˇ0쎯	-9.31622
ㄐㄧㄠˋ1쎯	-9.31649
ㄉㄢˋ6쎯	-9.31663
ㄧˇ0쎯	-9.31671
ㄘ	-9.31779
ㄧㄠ5쎯	-9.31797
ㄊㄢˊ1쎯	-9.3182
ㄅㄠˇ2쎯ㄓㄤˋ6쎯	-9.31825
ㄧㄣ0쎯ㄨㄟˊ0쎯	-9.31857
ㄇㄧㄝˋ0쎯	-9.31864
ㄧ3쎯ㄒㄩㄝˊ1쎯ㄩㄢˋ2쎯	-9.31921
ㄈㄚ쎯ㄅㄨˋ1쎯	-9.3195
ㄗㄨˇ0쎯	-9.31972
ㄔㄥˊ2쎯	-9.31977
쎁쎉쎈쎄ㄋㄧㄢˊ0쎯	-9.31992
(ㄐㄧㄣ2쎯	-9.32016
ㄉㄧㄢˋ0쎯ㄌㄧˋ0쎯	-9.32077
ㄏㄟ0쎯ㄌㄨㄥˊ0쎯ㄐㄧㄤ0쎯	-9.32125
ㄇㄟˇ1쎯ㄌㄧˊ0쎯	-9.32179
ㄚ	-9.32263
ㄙㄨㄟˋ2쎯	-9.32295
쎅쎅	-9.32306
ㄇㄟˊ5쎯ㄊㄧ0쎯	-9.32342
ㄘㄨㄣˊ쎯ㄔㄨˇ2쎯	-9.3242
ㄕˋ15쎯ㄗㄞˋ1쎯	-9.3242
ㄧㄝˋ1쎯	-9.32427
ㄒㄧ2쎯	-9.32559
ㄆㄣ쎯	-9.32631
,ㄊㄨㄥˊ0쎯ㄕˊ1쎯	-9.32696
쎯	-9.32741
ㄒㄩㄣˋ0쎯ㄌㄧㄢˋ0쎯	-9.3302
▁̇ㄉㄜ0쎯ㄓˋ4쎯	-9.33021
ㄋㄧㄢˋ0쎯	-9.33031
ㄐㄧˇ1쎯ㄋㄧㄢˋ0쎯	-9.33048
ㄇㄨˋ6쎯	-9.33088
,ㄙㄨㄛˇ0쎯ㄧˇ2쎯	-9.33169
ㄅㄢˋ0쎯ㄒㄩㄝˊ1쎯	-9.33216
ㄊㄨˊ1쎯	-9.33393
ㄍㄢˇ3쎯ㄖㄢˇ1쎯	-9.33431
ㄒㄧㄠˋ0쎯	-9.33447
’	-9.33463
ㄩㄣˋ3쎯	-9.3353
ㄗㄨˇ1쎯ㄍㄜˇ1쎯	-9.33618
ㄘˊ4쎯	-9.33633
ㄓㄞˋ1쎯	-9.33682
ㄧˋ0쎯	-9.33726
▁̇ㄉㄜ1쎯ㄓㄨˇ0쎯ㄧㄠ4쎯	-9.3375
ㄓㄥ8쎯	-9.33824
ㄕㄜˇ쎯	-9.33959
쎁쎉쎈쎉ㄋㄧㄢˊ0쎯	-9.34025
ㄐㄧˋ0쎯ㄙㄨㄢˋ1쎯	-9.34031
ㄍㄨㄛˊ0쎯ㄇㄧㄣˊ0쎯	-9.34055
ㄢˋ1쎯ㄓㄠˋ2쎯	-9.34095
ㄕㄜˋ0쎯ㄓˋ13쎯	-9.34102
ㄨㄣˊ0쎯ㄗˋ1쎯	-9.3412
ㄑㄩㄣˊ1쎯ㄓㄨㄥˋ1쎯	-9.34184
ㄒㄧㄤˊ1쎯	-9.34274
ㄒㄧㄤˇ0쎯ㄕㄡˋ1쎯	-9.34324
ㄓㄨㄤˋ0쎯	-9.34357
ㄧˊ7쎯ㄉㄨㄥˋ0쎯	-9.34359
ㄔㄥˊ7쎯ㄉㄨˋ2쎯	-9.34407
ㄕㄣˋ0쎯	-9.3442
ㄧㄡ0쎯ㄕˋ7쎯	-9.34451
ㄧㄤˇ2쎯	-9.34479
ㄘㄠˊ0쎯	-9.34531
ㄋㄚ1쎯ㄅㄨˋ4쎯	-9.3454
ㄈㄥ1쎯ㄐㄧㄥˇ1쎯	-9.3457
ㄅㄧˊ0쎯	-9.34587
ㄍㄨㄥˋ0쎯ㄧㄡˇ1쎯	-9.34597
ㄏㄜˊ3쎯ㄅㄟˇ쎯ㄕㄥˇ0쎯	-9.34674
ㄏㄡˊ0쎯	-9.34778
ㄖㄨㄥˊ2쎯ㄏㄨㄛˋ2쎯	-9.34793
ㄔㄨㄥˊ3쎯	-9.34803
,ㄧˇ2쎯ㄐㄧˊ0쎯	-9.35018
ㄘㄞˊ2쎯	-9.35026
ㄊㄨㄥ0쎯ㄒㄧㄣˋ0쎯	-9.35171
ㄅㄠˇ2쎯ㄔˊ4쎯	-9.3525
ㄍㄨㄚˋ1쎯	-9.35258
ㄓㄨˇ0쎯ㄒㄧˊ1쎯	-9.35353
ㄋㄟˋ쎯ㄓˋ13쎯	-9.35443
ㄇㄧㄢˋ0쎯ㄐㄧ11쎯쎁	-9.35471
ㄗ2쎯ㄐㄧㄣ3쎯	-9.35579
ㄖㄥˊ쎯	-9.356
ㄇㄞˋ2쎯	-9.35678
ㄅㄠˋ5쎯	-9.35687
ㄕㄠ3쎯	-9.35703
ㄉㄨㄥˋ0쎯ㄏㄨㄚˋ1쎯	-9.35782
쎁쎉쎉쎁ㄋㄧㄢˊ0쎯	-9.35846
ㄙㄨˋ4쎯	-9.3599
쎁쎉쎈쎅ㄋㄧㄢˊ0쎯	-9.35991
ㄇㄚˇ2쎯	-9.35995
ㄉㄢˇ0쎯	-9.36068
쎁쎉쎈쎃ㄋㄧㄢˊ0쎯	-9.36075
ㄐㄧㄢˋ6쎯	-9.36111
쎄쎂	-9.36143
...	-9.36308
ㄋㄣˋ0쎯	-9.36308
ˇ1쎯	-9.3638
ㄑㄧㄡ0쎯	-9.36409
ㄍㄨㄥ0쎯ㄕㄤ1쎯	-9.36432
ㄍㄨㄛ1쎯	-9.36488
,ㄅㄟˋ5쎯	-9.36599
ㄒㄧ11쎯	-9.36708
ㄐㄧㄢˋ2쎯ㄔㄥˊ0쎯	-9.36721
ㄍㄨˋ0쎯ㄉㄧㄥˋ1쎯	-9.36764
ㄆㄨ2쎯	-9.36765
ㄕㄡˋ4쎯	-9.36844
ㄕˋ16쎯	-9.3685
ㄧㄡˇ1쎯ㄓㄠ2쎯	-9.36857
ㄗㄨㄟˋ0쎯ㄗㄠˇ0쎯	-9.36963
ㄉㄨㄟˋ1쎯ㄩˊ0쎯	-9.36994
ㄐㄧ12쎯ㄐㄧㄣ3쎯	-9.37004
ㄓˊ4쎯ㄍㄨㄥ0쎯	-9.3702
ㄧˋ18쎯ㄉㄚˋ쎯ㄌㄧˋ6쎯	-9.37046
ㄕˊ3쎯ㄧㄢˋ5쎯ㄕˋ18쎯	-9.37062
ㄘㄜˋ4쎯ㄏㄨㄚˊ0쎯	-9.37071
ㄎㄜˋ3쎯ㄊㄧˊ1쎯	-9.37081
ㄅㄛ4쎯	-9.37162
ㄍㄠ0쎯ㄉㄨˋ2쎯	-9.37177
ㄉㄨㄣˋ3쎯	-9.3718
ㄐㄩˋ2쎯ㄊㄧ0쎯	-9.37219
ㄨˇ1쎯	-9.37303
ㄅㄞˊ1쎯	-9.37319
.ㄘˇ0쎯	-9.37369
쎄쎄	-9.37429
<	-9.37441
ㄆㄧㄥˊ2쎯	-9.37497
ㄊㄨˊ3쎯	-9.37611
ㄕˊ3쎯ㄩㄥˋ0쎯	-9.37744
ㄓㄨˋ7쎯ㄗㄨㄛ0쎯	-9.37894
ㄨㄥˋ0쎯ㄏㄜˊ2쎯ㄍㄨㄛˊ0쎯	-9.37901
ㄍㄨˋ2쎯ㄨㄣˋ0쎯	-9.37928
ㄐㄩㄣ0쎯ㄕˋ8쎯	-9.37931
ㄏㄠˊ2쎯	-9.37939
,ㄒㄧㄢˋ1쎯ㄖㄣˊ3쎯	-9.37948
ㄅㄧˋ1쎯ㄒㄩ1쎯	-9.37996
ㄐㄧㄢ3쎯ㄔˊ4쎯	-9.38015
ㄩㄣˋ1쎯ㄩㄥˋ0쎯	-9.38052
ㄧㄣˇ1쎯	-9.38099
ㄇㄢˋ1쎯ㄏㄨㄚˋ1쎯	-9.38183
ㄐㄧㄣˋ0쎯ㄅㄨˋ2쎯	-9.38184
ㄉㄧㄠˋ2쎯ㄔㄚˊ2쎯	-9.38295
ㄊㄚ1쎯ㄇㄣˊ1쎯	-9.38346
ㄔㄥˊ0쎯ㄉㄡ0쎯	-9.38369
ㄓㄨˇ0쎯ㄍㄨㄢˇ1쎯	-9.38372
ㄍㄤ5쎯	-9.38411
ㄙㄢ0쎯ㄋㄧㄢˊ0쎯	-9.38465
ㄔㄨㄤ0쎯ㄅㄢˋ0쎯	-9.38472
ㄖㄣˊ3쎯ㄏㄜˊ1쎯	-9.38542
ㄐㄧˋ2쎯ㄋㄥˊ쎯	-9.38595
ㄓㄨㄢ0쎯ㄇㄣˊ0쎯	-9.38617
쎆쎆	-9.38669
ㄐㄧㄥˇ1쎯ㄍㄨㄢ1쎯	-9.38731
,ㄒㄧㄢˋ1쎯	-9.38855
ㄍㄨㄟˇ2쎯	-9.38888
ㄒㄧ1쎯ㄢ0쎯	-9.38895
ㄍㄜ7쎯ㄕㄡˇ0쎯	-9.38939
ㄨˋ3쎯ㄌㄧㄡˊ3쎯	-9.39034
ㄋㄩˇ0쎯ㄒㄧㄥˋ2쎯	-9.39047
ㄉㄞˋ5쎯	-9.39072
ㄅㄛ2쎯ㄌㄧˊ7쎯	-9.39081
ㄋㄤ0쎯	-9.39137
ㄏㄨㄤˊ1쎯ㄙㄜˋ0쎯	-9.39202
ㄓㄨㄤ3쎯ㄅㄟˋ2쎯	-9.39269
ㄆㄞ쎯ㄕㄜˋ6쎯	-9.39382
ㄈㄨˊ1쎯	-9.39415
ㄧㄢˊ6쎯ㄐㄧㄡ1쎯ㄩㄢˋ2쎯	-9.39507
ㄅㄧˇ1쎯ㄙㄞˋ쎯	-9.39518
ㄅㄧㄢ1쎯ㄒㄧㄝˇ0쎯	-9.3955
ㄧˋ18쎯ㄧˋ1쎯	-9.39605
ㄒㄧˊ0쎯	-9.39668
ㄎㄞˇ0쎯	-9.39713
쎂ㄍㄜˇ0쎯	-9.39751
ㄋㄟˋ쎯ㄇㄥ쎯ㄍㄨˇ0쎯	-9.3977
ㄓㄨˇ0쎯ㄖㄣˊ3쎯ㄧ3쎯ㄕ2쎯	-9.3979
ㄒㄧㄢˇ0쎯ㄎㄚˇ0쎯	-9.39821
ㄐㄩˇ2쎯ㄅㄢˋ0쎯	-9.3988
(),	-9.39897
ㄍㄜˊ1쎯	-9.39938
ㄨㄣˊ0쎯ㄧˋ2쎯	-9.39945
ㄐㄧㄢ7쎯	-9.4
ㄖㄨㄥˊ9쎯	-9.40019
ㄏㄨㄥˊ2쎯	-9.40035
쎄쎃	-9.40052
ㄧ0쎯ㄑㄧㄝ쎯	-9.40241
ㄌㄨㄛˊ6쎯	-9.40311
,ㄐㄩˋ5쎯	-9.40382
ㄒㄩˋ6쎯	-9.40383
▁̇ㄉㄜ1쎯ㄌㄧˋ1쎯ㄕˇ0쎯	-9.40432
ㄤ	-9.40456
ㄍㄨㄢ3쎯ㄐㄩㄣ0쎯	-9.40639
ㄋㄞˇ0쎯	-9.4067
ㄊㄨㄥˇ0쎯ㄧ0쎯	-9.40674
ㄓㄨˋ1쎯ㄓㄞˊ쎯	-9.40695
ㄍㄨˇ2쎯ㄈㄣˋ0쎯ㄧㄡˇ1쎯	-9.40709
ㄎㄜ2쎯ㄐㄧˋ2쎯ㄧㄡˇ1쎯	-9.40749
▁̇ㄌㄜ쎯ㄐㄧㄝˇ1쎯	-9.40791
ㄕˇ3쎯ㄐㄧㄢˋ2쎯ㄩˊ0쎯	-9.4084
ㄔㄤˊ0쎯,	-9.40856
ㄔㄨ0쎯ㄌㄞˊ0쎯	-9.40887
ㄋㄢˊ0쎯,	-9.40899
ㄊㄨㄥˊ4쎯	-9.40955
ㄠ	-9.4106
쎂-	-9.41079
ㄌㄧㄢˋ3쎯	-9.41164
ㄓㄣˋ2쎯	-9.41231
ㄆㄧㄣˇ쎯ㄓˋ4쎯	-9.41236
ㄇㄚˇ1쎯	-9.41295
ㄒㄧㄠˋ3쎯ㄌㄧˋ0쎯ㄩˊ0쎯	-9.41354
ㄌㄧㄣˊ0쎯	-9.4137
ㄩˋ7쎯	-9.41482
ㄎㄜ2쎯ㄒㄩㄝˊ1쎯ㄩㄢˋ2쎯	-9.41563
ㄇㄥˋ0쎯	-9.41623
ㄧㄢˇ3쎯ㄩㄢˊ2쎯	-9.41628
ㄐㄧ	-9.41637
ㄩㄣˋ1쎯ㄧㄥˊ5쎯	-9.41656
ㄑㄧㄣˊ2쎯	-9.41699
ㄓˋ11쎯ㄋㄥˊ쎯	-9.41704
ㄉㄨㄥ0쎯ㄈㄤ0쎯	-9.41715
ㄨㄛ	-9.41717
ㄐㄧㄤˋ3쎯	-9.4173
ㄐㄩ1쎯ㄓㄨˋ1쎯	-9.41746
ㄊㄧㄢ0쎯ㄒㄧㄚˋ0쎯	-9.41752
ㄌㄧˊ1쎯ㄇㄧˇ0쎯	-9.41756
ㄨㄤˊ0쎯	-9.41825
ㄧㄤˊ2쎯ㄕˋ4쎯	-9.41868
ㄇㄧㄥˊ0쎯,	-9.41942
ㄓㄥˋ3쎯ㄒㄧㄝˊ1쎯	-9.41982
ㄏㄨㄞˊ2쎯	-9.42009
ㄕㄨˇ2쎯	-9.42011
ㄅㄨˋ4쎯ㄉㄨㄟˋ0쎯	-9.42019
ㄔˊ4쎯	-9.42103
ㄐㄧㄠˇ0쎯ㄙㄜˋ0쎯	-9.42181
ㄧˇ2쎯ㄒㄧㄚˋ0쎯	-9.42231
ㄙㄜˋ0쎯ㄘㄞˇ1쎯	-9.42329
ㄉㄧㄢˋ0쎯ㄔˊ0쎯	-9.42379
ㄅㄟˇ쎯ㄅㄨˋ4쎯	-9.42397
ㄒㄧㄢˋ1쎯ㄒㄧㄤˋ2쎯	-9.42405
ㄏㄠˊ1쎯ㄇㄧˇ0쎯	-9.42437
▁̇ㄉㄜ1쎯ㄖㄣˊ0쎯	-9.42439
ㄩㄢˊ4쎯ㄌㄧˇ3쎯	-9.42459
ㄋㄚ1쎯ㄅㄟˇ쎯	-9.42466
ㄓㄣˋ1쎯	-9.425
ㄍㄡˋ0쎯ㄔㄥˊ0쎯	-9.4254
ㄏㄜˋ2쎯	-9.4256
ㄒㄩ1쎯	-9.42565
ㄘㄞˊ2쎯ㄨˋ2쎯	-9.42602
ㄍㄜ2쎯	-9.42715
ㄒㄩㄝˊ1쎯ㄓㄜˇ0쎯	-9.42735
,ㄓㄜˋ0쎯	-9.42753
ㄍㄞˋ5쎯ㄋㄧㄢˋ0쎯	-9.42771
ㄌㄩˋ0쎯	-9.42783
ㄐㄧˋ1쎯ㄌㄨˋ0쎯	-9.42801
ㄊㄧㄢ0쎯ㄖㄢˊ0쎯	-9.42809
ㄧㄡˊ0쎯	-9.42883
ㄖㄣˊ0쎯ㄕㄥ1쎯	-9.42889
ㄅㄧㄠˇ0쎯ㄧㄢˇ3쎯	-9.42953
ㄓˋ3쎯ㄉㄧㄥˋ1쎯	-9.43034
ㄍㄨˋ2쎯	-9.43077
ㄧㄥˇ1쎯ㄕˋ12쎯	-9.43097
ㄒㄧㄢˋ0쎯ㄖㄣˊ0쎯	-9.43143
ㄕㄨㄟˇ쎯ㄌㄧㄤˊ3쎯	-9.43203
ㄓㄠ0쎯	-9.43227
ㄐㄧㄤ3쎯	-9.43231
ㄒㄧㄠˇ0쎯ㄗㄨˇ1쎯	-9.43247
ㄈㄢ2쎯	-9.43305
ㄍㄠˋ0쎯	-9.43314
ㄉㄢˋ0쎯ㄧㄡˊ4쎯	-9.43409
ㄋㄟˋ쎯ㄅㄨˋ4쎯	-9.43441
ㄍㄨㄥ2쎯ㄌㄧˇ2쎯	-9.43447
ㄒㄧㄢˊ3쎯	-9.43475
ㄘㄜˋ3쎯ㄕˋ11쎯	-9.43493
ㄔㄥˊ0쎯ㄔㄤˊ0쎯	-9.43576
ㄓㄥ1쎯	-9.43605
,ㄓㄢ0쎯	-9.43714
ㄐㄧˊ8쎯ㄔㄥˊ0쎯	-9.43728
ㄒㄧㄤ4쎯	-9.4373
ㄧˋ21쎯	-9.43966
ㄒㄧㄤˊ0쎯ㄒㄧˋ1쎯	-9.44012
ㄘㄨㄣ0쎯ㄇㄧㄣˊ0쎯	-9.44073
ㄍㄨㄛ0쎯ㄔㄥˊ7쎯ㄓㄨㄥ0쎯	-9.44214
ㄔㄨㄥ1쎯ㄈㄣ0쎯	-9.44231
ㄨㄢˊ0쎯	-9.44252
▁̇ㄉㄜ0쎯ㄌㄧˇ3쎯	-9.44272
ㄈㄨˋ6쎯	-9.44283
ㄏㄨㄣˋ0쎯	-9.44302
ㄈㄨˋ8쎯ㄓㄨˇ0쎯ㄒㄧˊ1쎯	-9.44318
쎉쎈	-9.44362
ㄏㄥˊ0쎯	-9.44467
ㄓㄚˊ1쎯	-9.44473
ㄑㄧㄢˋ1쎯ㄨㄟˊ6쎯	-9.44532
ㄥ	-9.44592
ㄊㄨㄢˊ0쎯ㄊㄧ0쎯	-9.44631
쎃쎁	-9.44672
ㄕ3쎯ㄖㄣˊ0쎯	-9.44688
쎂.	-9.44811
ㄆㄣˊ0쎯	-9.4484
ㄒㄩ4쎯ㄑㄧㄡˊ1쎯	-9.44851
ㄅㄢˋ3쎯	-9.45
ㄕˋ8쎯ㄐㄧㄢˋ1쎯	-9.45022
ㄌㄨˊ3쎯	-9.45049
ㄇㄟˊ2쎯	-9.45067
ㄕˊ4쎯ㄩㄥˋ0쎯	-9.45073
ㄍㄨㄤˇ0쎯ㄅㄛ4쎯	-9.45089
ㄇㄧㄥˊ2쎯	-9.45102
ㄐㄧㄥˋ4쎯	-9.45104
ㄕˋ16쎯ㄩㄥˋ0쎯ㄩˊ0쎯	-9.45147
ㄗㄢˋ1쎯	-9.45161
ㄊㄨˊ0쎯ㄕㄨ0쎯	-9.45171
ㄒㄧ7쎯	-9.45195
ㄕˋ2쎯ㄈㄢˋ3쎯	-9.45259
ㄏㄨㄚ0쎯ㄩㄢˊ1쎯	-9.45338
ㄗㄞˋ1쎯ㄓㄨㄥ0쎯ㄍㄨㄛˊ0쎯	-9.45428
-쎂	-9.45451
ㄔㄥˊ0쎯ㄕㄡˊ쎯	-9.45527
ㄉㄨㄥˋ2쎯	-9.45579
ㄅㄠˇ2쎯ㄓㄥˋ0쎯	-9.45617
ㄅㄨˋ0쎯ㄕˋ15쎯	-9.45677
ㄔㄨㄢˊ0쎯》:“	-9.45701
쎄쎆	-9.4573
ㄨㄟˋ1쎯ㄌㄞˊ0쎯	-9.45778
ㄘㄜˋ3쎯ㄌㄧㄤˊ3쎯	-9.45808
ㄇㄟˊ6쎯	-9.45855
ㄉㄧㄥˇ1쎯	-9.45869
ㄓㄥˇ1쎯ㄊㄧ0쎯	-9.45925
ㄇㄡˇ쎯	-9.46002
,ㄘㄥˊ1쎯	-9.46107
ㄎㄨㄚˋ1쎯	-9.46168
쎃-	-9.46277
ㄕㄨ0쎯·	-9.46327
ㄔㄤˊ4쎯ㄩㄥˋ0쎯	-9.4636
ㄈㄨˊ0쎯	-9.46406
ㄈㄨˋ4쎯ㄐㄧㄣˋ1쎯	-9.46427
ㄌㄨˊ0쎯	-9.46428
°C	-9.46453
ㄕㄨˇ5쎯ㄌㄧㄤˊ3쎯	-9.46642
ㄉㄧˋ4쎯	-9.46651
,ㄧㄣ0쎯	-9.46756
ㄆㄧˊ0쎯ㄈㄨ1쎯	-9.46768
ㄕˊ1쎯ㄐㄧㄢ4쎯:	-9.46824
▁̇ㄉㄜ0쎯ㄒㄧㄚˋ0쎯	-9.46958
ㄐㄧㄢ9쎯	-9.46972
ㄈㄨˊ5쎯ㄓㄨㄤ3쎯	-9.46973
ㄍㄨㄛˊ0쎯ㄨˋ2쎯ㄩㄢˋ2쎯	-9.46996
ㄉㄨㄥ0쎯ㄒㄧ1쎯	-9.47007
ㄔㄥˊ3쎯ㄉㄢ1쎯	-9.4703
ㄏㄜˋ3쎯ㄙㄜˋ0쎯	-9.47043
ㄘㄨㄣ0쎯ㄨㄟˋ2쎯ㄩˊ0쎯	-9.47061
ㄗˋ0쎯ㄓˋ5쎯ㄡ0쎯	-9.47153
ㄒㄧㄠˇ1쎯	-9.4725
ㄓㄢˇ2쎯ㄕˋ2쎯	-9.47272
ㄅㄚ5쎯	-9.47293
ㄒㄧㄥˊ1쎯,	-9.47339
ㄧˊ0쎯ㄑㄧˋ7쎯	-9.47423
ㄧㄡˇ1쎯ㄐㄧ6쎯	-9.47468
ㄕㄣ2쎯ㄊㄧ0쎯	-9.47515
ㄅㄞˇ2쎯	-9.4752
ㄙ2쎯	-9.47769
ㄔㄥˊ0쎯ㄐㄧˋ15쎯	-9.47785
ㄉㄧㄢˋ0쎯ㄕˋ12쎯ㄊㄞ0쎯	-9.478
ㄊㄨ2쎯	-9.47825
ㄒㄧㄢˋ0쎯ㄨㄟˇ5쎯	-9.48099
ㄧㄝˇ0쎯.”	-9.48111
ㄘㄨㄛˋ2쎯	-9.48126
ㄊㄨㄥ0쎯ㄒㄩㄣˋ1쎯	-9.48158
ㄙㄨˊ쎯	-9.48186
ㄒㄩㄣˊ1쎯	-9.48222
ㄩˋ11쎯	-9.48245
,ㄎㄜˇ0쎯ㄧˇ2쎯	-9.48449
ㄅㄢˋ0쎯ㄍㄨㄥ2쎯	-9.48511
ㄊㄢˋ2쎯	-9.48559
ㄌㄧㄢˊ4쎯ㄐㄧˋ3쎯	-9.48581
ㄔㄨㄥˊ2쎯ㄉㄚˋ쎯	-9.48631
ㄈㄨˋ1쎯	-9.48645
쎃쎉	-9.48893
ㄍㄚ0쎯	-9.48899
ㄗㄨㄟˋ0쎯ㄏㄡˋ0쎯	-9.48931
ㄈㄢˋ1쎯	-9.48952
ㄓㄨㄥ0쎯ㄕㄢ0쎯	-9.48955
ㄐㄧㄤ0쎯ㄒㄧ1쎯ㄕㄥˇ0쎯	-9.4898
ㄉㄚˋ쎯ㄉㄠˋ3쎯	-9.49002
ㄓㄣ1쎯ㄉㄨㄟˋ1쎯	-9.49018
쎃ㄍㄜˇ0쎯	-9.49047
쎉쎉	-9.49111
ㄍㄜˊ2쎯ㄕˋ5쎯	-9.4914
ㄐㄧㄚ0쎯ㄐㄧㄤˋ2쎯	-9.49165
ㄕㄢ0쎯ㄒㄧ1쎯ㄕㄥˇ0쎯	-9.49194
ㄐㄧㄝˋ5쎯	-9.49205
ㄑㄧˊ8쎯ㄒㄧㄚˋ0쎯	-9.49254
)ㄕˋ15쎯	-9.49268
ㄙㄨㄢˋ0쎯	-9.49314
ㄕㄡˋ2쎯	-9.49347
,ㄗㄨㄥˇ0쎯	-9.49348
ㄗㄠˋ2쎯ㄔㄥˊ0쎯	-9.49359
ㄐㄧˋ5쎯	-9.49371
ㄧㄥˋ1쎯ㄆㄢˊ1쎯	-9.49436
ㄒㄧㄣˋ0쎯ㄏㄠˊ0쎯	-9.49545
ㄇㄧㄠˋ0쎯	-9.49563
ㄦˊ1쎯ㄔㄥˊ0쎯	-9.49595
쎁쎉쎈쎂ㄋㄧㄢˊ0쎯	-9.49666
ㄍㄞˇ쎯ㄅㄧㄢˋ0쎯	-9.49668
ㄓˋ3쎯ㄆㄧㄣˇ쎯	-9.49694
ㄕㄣˋ1쎯	-9.4974
ㄐㄧㄣˇ2쎯	-9.49793
ㄧㄢˇ3쎯ㄔㄤˋ2쎯	-9.49812
ㄕˋ15쎯ㄧˇ2쎯	-9.49926
ㄧㄚ6쎯	-9.49928
쎁쎉쎅쎈ㄋㄧㄢˊ0쎯	-9.4995
ㄑㄧㄣˊ4쎯	-9.49989
》ㄕ3쎯:“	-9.50079
%	-9.50128
ㄧㄢˊ10쎯	-9.50133
ㄍㄜˊ0쎯	-9.50156
▁̇ㄉㄜ0쎯ㄓㄣˋ2쎯	-9.50171
쎁쎉쎀	-9.50175
ㄧㄚ1쎯ㄌㄧˋ0쎯	-9.50182
ㄐㄩㄝˊ0쎯	-9.50225
ㄖ	-9.50292
ㄩˋ0쎯ㄇㄧˇ0쎯	-9.50305
쎄ㄍㄜˇ0쎯	-9.50309
ㄕㄡ쎯ㄌㄨˋ0쎯	-9.50464
ㄕㄠˇ쎯ㄒㄩˇ0쎯	-9.50517
ㄡˇ1쎯	-9.506
쎁-	-9.50644
ㄍㄜ7쎯ㄑㄩ0쎯	-9.50712
ㄇㄧㄣˇ1쎯	-9.50769
ㄓㄡ2쎯ㄅㄧㄢ0쎯	-9.50777
ㄒㄧㄝˊ5쎯	-9.50804
ㄓㄣˋ0쎯	-9.50808
▁̇ㄉㄜ0쎯.	-9.50814
ㄉㄨˋ3쎯	-9.50819
쎄-	-9.5083
ㄨㄣˊ0쎯ㄓㄤ1쎯	-9.509
ㄨㄛˋ1쎯	-9.50908
쎄쎇	-9.50913
ㄓㄨˇ0쎯ㄊㄧˊ1쎯	-9.50964
ㄩㄝˋ1쎯	-9.51033
ㄇㄟˇ1쎯ㄖㄨㄥˊ4쎯	-9.51034
ㄉㄨㄟˋ1쎯ㄒㄧㄤˋ2쎯	-9.51048
ㄅㄛ4쎯ㄈㄤˋ쎯	-9.51076
ㄗㄨㄛˋ0쎯ㄌㄚˋ0쎯ㄩˊ0쎯	-9.51197
ㄊㄧㄠˋ0쎯	-9.51212
ㄜˊ1쎯ㄌㄨㄛˊ0쎯ㄙ4쎯	-9.51312
ㄊㄜˋ0쎯ㄒㄧㄥˋ2쎯	-9.5133
ㄨㄢˊ2쎯ㄐㄧㄚ3쎯	-9.5146
ㄧㄠˋ0쎯ㄨˋ3쎯	-9.51486
ㄑㄩㄝˋ1쎯ㄉㄧㄥˋ1쎯	-9.51507
ㄖㄣˊ0쎯ㄕˋ0쎯	-9.51611
ㄆㄧ0쎯	-9.51636
ㄍㄨㄣˇ0쎯	-9.51637
ㄢ3쎯	-9.5165
ㄏㄜˊ4쎯	-9.51659
ㄔㄣˋ1쎯ㄏㄠˊ0쎯	-9.51724
ㄗ2쎯ㄍㄜˊ2쎯	-9.51735
ㄨㄢˇ6쎯	-9.51781
ㄊㄢˋ3쎯	-9.51787
ㄧㄢˊ6쎯ㄓˋ3쎯	-9.51804
ㄓㄨㄤ3쎯ㄓˋ13쎯	-9.51808
ㄔㄨㄤ0쎯ㄐㄧㄢˋ2쎯ㄩˊ0쎯	-9.51832
ㄧㄚˋ1쎯ㄓㄡ3쎯	-9.51836
ㄩㄝˋ2쎯ㄉㄡˋ2쎯	-9.51957
ㄏㄨˋ0쎯ㄌㄧㄢˊ4쎯ㄨㄤˇ0쎯	-9.51993
ㄙㄨˋ8쎯	-9.52013
ㄇㄧㄢˇ0쎯	-9.52038
ㄌㄧㄝˋ2쎯	-9.52089
ㄊㄨˊ0쎯ㄆㄧㄢ0쎯	-9.52107
ㄙㄨㄟ0쎯ㄖㄢˊ0쎯	-9.5213
ㄙㄨㄟ0쎯	-9.52281
▁̇ㄉㄜ1쎯ㄒㄧㄠˇ0쎯	-9.52347
ㄍㄠ0쎯ㄐㄧㄠˋ2쎯	-9.5237
.ㄅㄣˇ0쎯	-9.52384
);	-9.52424
ㄑㄧㄝ쎯ㄔㄥˊ0쎯	-9.52424
ㄔㄣˊ1쎯	-9.52433
쎅쎆	-9.52459
쎀쎀	-9.52459
ㄏㄨㄚˊ0쎯	-9.52478
쎁.쎅	-9.52507
ㄍㄡˋ1쎯	-9.52521
,ㄔㄥˊ0쎯ㄨㄟˊ0쎯	-9.52527
「	-9.52612
ㄐㄧㄢˋ7쎯	-9.52731
,ㄅㄠ0쎯ㄎㄨㄛˋ1쎯	-9.52738
ㄒㄧㄣ5쎯ㄒㄧㄥˊ2쎯	-9.52741
ㄕㄣ5쎯ㄓㄣˋ4쎯ㄕˋ4쎯	-9.52762
」	-9.52783
ㄐㄧㄢˇ5쎯ㄔㄚˊ2쎯	-9.52823
ㄍㄨㄞˋ0쎯	-9.52898
ㄧㄢˊ10쎯ㄙㄜˋ0쎯	-9.52915
ㄗㄨㄟˋ1쎯	-9.52948
ㄇㄠˋ0쎯	-9.5306
ㄕˋ4쎯ㄨㄟˇ5쎯	-9.53094
ㄨㄟˇ0쎯	-9.53103
ㄎㄨㄥ0쎯ㄑㄧˋ0쎯	-9.53203
ㄈㄤ1쎯	-9.53265
ㄐㄧˋ2쎯	-9.53313
ㄈㄨˋ9쎯	-9.53356
ㄊㄞ2쎯	-9.53358
ㄇㄟˇ0쎯ㄍㄜˇ0쎯	-9.53419
ㄙㄨㄟˊ1쎯ㄓㄠ2쎯	-9.53474
ㄧㄢˇ3쎯ㄔㄨ0쎯	-9.535
ㄕˋ2쎯	-9.53572
ㄧˇ2쎯ㄌㄞˊ0쎯,	-9.53573
ㄏㄞˇ0쎯ㄧㄤˊ4쎯	-9.53606
ㄩㄢˊ0쎯ㄙㄨˋ2쎯	-9.53623
ㄖㄣˊ0쎯ㄇㄧㄣˊ0쎯ㄍ	-9.53635
ㄐㄧㄝ3쎯ㄍㄨㄛˇ0쎯	-9.53655
ㄙㄨㄛˇ0쎯ㄧˇ2쎯	-9.53666
ㄉㄧㄠˋ2쎯ㄓㄥˇ1쎯	-9.53672
,ㄅㄟˇ쎯	-9.53703
ㄓㄨㄥˇ0쎯ㄌㄧㄡˊ8쎯	-9.53761
,ㄦˊ1쎯ㄑㄧㄝˇ쎯	-9.53918
ㄒㄧㄚ0쎯	-9.53957
ㄓˊ0쎯	-9.53989
ㄉㄧㄢˋ0쎯ㄏㄨㄚˋ2쎯	-9.54045
ㄏㄨㄚˋ1쎯ㄐㄧㄚ3쎯	-9.54083
▁̇ㄉㄜ0쎯ㄑㄧㄡˊ2쎯	-9.54154
쎀°C	-9.54158
ㄏㄨㄟ3쎯	-9.54163
쎅쎂	-9.54237
ㄓㄨㄥ0쎯ㄅㄨˋ4쎯	-9.54263
ㄙㄨ0쎯ㄓㄡ1쎯	-9.54269
ㄔㄨ0쎯ㄎㄡˇ쎯	-9.5429
ㄕˊ3쎯ㄌㄧˋ0쎯	-9.54325
ㄆㄧㄥˊ5쎯	-9.54337
ㄋㄩˇ0쎯ㄗˇ0쎯	-9.54363
ㄗㄨㄥˇ0쎯ㄐㄧㄥ2쎯ㄌㄧˇ3쎯	-9.54439
ㄈㄢˇ0쎯ㄧㄥˋ0쎯	-9.54463
ㄍㄡˋ1쎯ㄨˋ3쎯	-9.54467
ㄈㄣ0쎯ㄌㄟˋ2쎯	-9.54513
ㄓˇ2쎯	-9.54528
ㄐㄧㄤ1쎯ㄐㄩㄣ0쎯	-9.5465
ㄏㄨㄣ2쎯	-9.54655
ㄅㄨˋ0쎯ㄐㄧㄣˇ0쎯	-9.54681
ㄕˋ15쎯ㄧ0쎯ㄇㄧㄥˊ0쎯	-9.54683
ㄊㄢˊ0쎯	-9.54729
ㄧㄝˇ0쎯ㄧㄡˇ1쎯	-9.54928
ㄖㄨㄥˊ4쎯ㄌㄧㄤˊ3쎯	-9.54956
쎅쎈	-9.55002
ㄌㄧˇ3쎯ㄒㄧㄤˇ2쎯	-9.55109
ㄆㄞ쎯	-9.55142
ㄅㄤ0쎯	-9.55143
ㄉㄥˇ0쎯ㄈㄤ0쎯ㄇㄧㄢˋ0쎯	-9.55156
ㄐㄧˋ13쎯	-9.55185
쎀쎈	-9.55215
ㄐㄧ7쎯	-9.55249
쎄쎉	-9.55268
2	-9.5527
ㄇㄟˇ0쎯ㄋㄧㄢˊ0쎯	-9.55296
,ㄇㄟˇ0쎯	-9.55385
ㄕㄠˇ쎯ㄋㄧㄢˊ0쎯	-9.5543
ㄐㄧㄣ6쎯	-9.55449
ㄋㄚˊ0쎯	-9.55463
ㄕㄣˇ0쎯	-9.55485
ㄐㄧˊ8쎯ㄓㄨㄥ0쎯	-9.55512
ㄐㄧㄝ1쎯ㄉㄨㄢˋ0쎯	-9.55536
ㄕㄤˇ0쎯ㄕˋ4쎯	-9.55565
,ㄍㄞ0쎯	-9.55861
ㄘㄢ1쎯	-9.55882
ㄆㄧㄣˊ1쎯ㄌㄩˋ2쎯	-9.55953
ㄨㄞˋ쎯ㄒㄧㄥˊ1쎯	-9.56142
ㄋㄧㄢˊ0쎯ㄐㄧㄢ4쎯	-9.56223
《ㄓㄨㄥ0쎯ㄍㄨㄛˊ0쎯	-9.56285
ㄉㄧ2쎯ㄕㄥ0쎯	-9.56357
ㄙㄨˋ6쎯	-9.56363
ㄐㄧˋ11쎯ㄒㄩˋ6쎯	-9.56373
ㄐㄧㄠ6쎯ㄕㄡˋ2쎯,	-9.56409
ㄍㄜˇ1쎯ㄌㄧˇ3쎯	-9.56427
(쎁	-9.56457
ㄅㄧˋ7쎯ㄕㄨ0쎯ㄔㄤˊ0쎯	-9.56471
,ㄧㄣ0쎯ㄘˇ0쎯	-9.56482
ㄩㄢˊ3쎯	-9.56516
ㄇㄧㄠˇ0쎯	-9.56587
ㄧㄡˋ2쎯ㄦˊ0쎯ㄩㄢˊ1쎯	-9.56633
ㄎㄞ0쎯ㄈㄚ쎯ㄡ0쎯	-9.56713
ㄅㄧㄣ3쎯	-9.56735
ㄉㄧㄢˇ0쎯ㄒㄧㄥˊ2쎯	-9.56888
ㄧㄢˊ6쎯ㄐㄧㄡ1쎯ㄏㄨㄟˋ2쎯	-9.56889
▁̇ㄉㄜ1쎯ㄈㄨˊ5쎯ㄨˋ2쎯	-9.5695
ㄕㄡˇ0쎯ㄕㄨˋ0쎯	-9.56969
ㄧㄡˋ0쎯ㄇㄧㄥˊ0쎯	-9.57007
ㄐㄧㄝ4쎯ㄕㄡˋ1쎯	-9.57012
ㄓㄨㄥˋ0쎯	-9.57093
ㄌㄧㄢˋ2쎯	-9.5716
ㄓㄤˇ1쎯ㄨㄛˋ2쎯	-9.57213
ㄐㄧㄝˋ0쎯	-9.57233
ㄕㄨㄞ0쎯	-9.57248
▁̇ㄉㄜ0쎯ㄨㄟˋ2쎯	-9.57302
ㄓˇ4쎯ㄏㄨㄟ1쎯	-9.5731
ㄈㄤ2쎯	-9.57332
ㄗㄨㄟˇ쎯	-9.57363
쎀쎇	-9.57398
ㄨㄟˊ6쎯ㄏㄨˋ2쎯	-9.57476
ㄔㄨㄢˊ0쎯ㄕㄨㄟˋ0쎯	-9.57489
ㄇㄧㄢˊ1쎯	-9.5749
ㄍㄨㄛˊ0쎯ㄊㄨˇ0쎯	-9.57521
ㄧˊ8쎯ㄓˇ2쎯	-9.57565
▁̇ㄉㄜ1쎯ㄐㄧ12쎯ㄅㄣˇ0쎯	-9.57571
ㄐㄧㄢˇ5쎯	-9.57603
ㄌㄧㄤˇ0쎯ㄔㄨㄥˊ1쎯	-9.57616
』『	-9.57627
ㄇㄨˋ3쎯	-9.57632
,ㄧ0쎯	-9.57646
ㄒㄧ3쎯ㄨㄤˋ3쎯	-9.57667
,ㄋㄩˇ0쎯,	-9.57718
ㄓㄠ1쎯	-9.5772
ㄗㄚ0쎯	-9.57745
ㄇㄛˊ0쎯ㄒㄧㄢˋ3쎯	-9.57864
ㄧㄣ4쎯ㄆㄧㄣˊ1쎯	-9.5788
ㄏㄤˊ0쎯ㄓㄥˋ3쎯ㄘㄨㄣ0쎯,	-9.57898
ㄍㄣ1쎯	-9.5798
쎁쎉쎈쎁ㄋㄧㄢˊ0쎯	-9.58012
ㄅㄢˋ0쎯ㄕˋ8쎯ㄔㄨˇ0쎯	-9.5803
ㄏㄨㄟˋ5쎯	-9.58082
ㄒㄧ13쎯	-9.58093
ㄐㄧㄝˇ1쎯ㄕˋ20쎯	-9.58098
ㄧㄡ2쎯	-9.581
ㄓㄨㄢ0쎯ㄐㄧˊ9쎯	-9.58166
ㄒㄧㄥˊ0쎯	-9.58227
ㄓㄨˇ0쎯ㄅㄧㄢ1쎯	-9.58318
ㄗ2쎯ㄅㄣˇ0쎯	-9.58348
,ㄗˋ0쎯	-9.58364
ㄕㄢˇ1쎯ㄒㄧ1쎯ㄕㄥˇ0쎯	-9.58445
ㄒㄩㄝˊ1쎯ㄌㄧˋ1쎯,	-9.58473
ㄉㄞˋ4쎯	-9.58593
ㄌㄧㄢˋ1쎯	-9.58705
쎉쎆	-9.58753
ㄏㄨㄢˋ5쎯ㄓㄜˇ0쎯	-9.58791
ㄒㄧㄝˇ1쎯ㄍㄨㄢˇ1쎯	-9.58861
ㄓㄥ0쎯ㄔㄤˊ4쎯	-9.58863
ㄐㄧㄣ5쎯	-9.58914
ㄓ10쎯	-9.58937
ㄕˋ20쎯	-9.5894
쎁쎉쎈쎀ㄋㄧㄢˊ0쎯	-9.59013
ㄓˊ1쎯ㄐㄧㄥˋ0쎯	-9.59015
ㄓㄨㄢ0쎯ㄎㄜ2쎯	-9.5902
ㄗㄨˇ1쎯ㄐㄧㄢˋ2쎯	-9.59028
쎂.쎀	-9.59028
ㄌㄨˋ2쎯	-9.59275
ㄎㄜˋ2쎯ㄈㄤˊ3쎯	-9.59314
ㄘㄜˋ4쎯	-9.59444
ㄕㄣˇ1쎯	-9.59448
ㄓㄣˇ0쎯ㄉㄨㄢˋ1쎯	-9.59503
ㄓㄡˊ0쎯ㄔㄥˊ3쎯	-9.5951
ㄌㄩˇ0쎯	-9.59519
ㄅㄠˋ0쎯ㄍㄠˋ0쎯	-9.59523
ㄇㄞˇ0쎯	-9.59544
ㄏㄨㄟˋ2쎯ㄩㄢˊ2쎯,	-9.59624
ㄖㄣˊ0쎯ㄊㄧ0쎯	-9.5968
,ㄇㄛˊ0쎯	-9.59725
ㄨㄛˋ0쎯	-9.59739
ㄓㄢˋ1쎯ㄕˋ0쎯	-9.59844
ㄒㄧㄣ1쎯ㄆㄧㄢ0쎯	-9.59847
ㄩㄢˋ0쎯	-9.5988
ㄕㄤˇ0쎯,	-9.5989
ㄌㄧㄤˊ4쎯	-9.59897
ㄍㄢ2쎯	-9.59905
ㄍㄥˇ3쎯	-9.59905
ㄘㄤ1쎯	-9.59918
ㄕㄜˊ2쎯	-9.60015
ㄙㄥ쎯	-9.60031
ㄇㄧㄣˇ3쎯	-9.60063
ㄗㄠˋ2쎯ㄒㄧㄥˊ2쎯	-9.60157
ㄔㄨㄥˊ2쎯ㄑㄧㄥˋ0쎯ㄕˋ4쎯	-9.6017
ㄐㄩˇ2쎯ㄏㄤˊ0쎯	-9.60187
ㄐㄧㄥ2쎯ㄌㄧˋ1쎯	-9.60219
ㄦˋ0쎯ㄐㄧˊ2쎯	-9.60288
ㄧˇ2쎯“	-9.60401
ㄖㄡˊ0쎯	-9.60475
ㄎㄤˋ1쎯ㄖˋ0쎯	-9.605
ㄉㄨ0쎯	-9.60627
ㄈㄨˋ0쎯ㄑㄧㄣ2쎯	-9.60669
쎈쎅	-9.60675
ㄔㄨㄤ0쎯ㄧㄝˋ0쎯	-9.60727
ㄍㄜˇ1쎯ㄅㄧㄥ1쎯	-9.60771
ㄒㄧˇ0쎯ㄐㄧㄥˋ1쎯	-9.60801
ㄒㄩㄢˊ2쎯	-9.60804
ㄐㄩㄣ1쎯ㄩㄣˊ1쎯	-9.60846
ㄉㄨㄥˋ0쎯ㄌㄧˋ0쎯	-9.60987
,ㄖㄤˋ쎯	-9.61013
쎉쎇	-9.61044
ㄇㄧㄢˇ0쎯ㄈㄟˋ4쎯	-9.61048
▁̇ㄉㄜ1쎯ㄕㄥ1쎯ㄏㄨㄛˊ0쎯	-9.61073
쎀ㄆㄧㄥˊ0쎯ㄈㄤ0쎯ㄇㄧˇ0쎯	-9.61153
ㄏㄨㄥˊ1쎯ㄐㄩㄣ0쎯	-9.61168
쎁쎉쎇쎈ㄋㄧㄢˊ0쎯	-9.61168
ㄉㄨㄥ0쎯ㄅㄨˋ4쎯	-9.61215
ㄓㄨ2쎯	-9.6124
ㄅㄟ2쎯ㄐㄧㄥˇ1쎯	-9.6131
▁̇ㄌㄜ쎯ㄧ0쎯ㄍㄜˇ0쎯	-9.6132
ㄍㄨㄥ3쎯ㄒㄧㄠˋ3쎯	-9.61322
ㄋㄧˊ0쎯ㄧㄚˋ1쎯	-9.61357
ㄈㄨˋ3쎯	-9.61412
ㄒㄧㄥˊ1쎯ㄊㄞˋ2쎯	-9.61462
ㄈㄟ3쎯	-9.61492
ㄉㄠˋ1쎯	-9.61566
쎇쎂	-9.61594
ㄘㄥˊ1쎯ㄐㄧㄥ2쎯	-9.61644
쎅쎄	-9.61662
▁̇ㄉㄜ1쎯ㄔㄢˇ0쎯ㄆㄧㄣˇ쎯	-9.61715
ㄐㄧㄠ6쎯ㄩˋ3쎯ㄅㄨˋ4쎯	-9.61718
,ㄏㄨㄛˋ2쎯	-9.61719
쎅쎃	-9.61922
ㄕˋ16쎯ㄩㄥˋ0쎯	-9.62049
▁̇ㄉㄜ1쎯ㄒㄧㄣ5쎯	-9.62064
ㄔㄥˊ0쎯ㄅㄣˇ0쎯	-9.62094
쎁쎅쎀	-9.62108
ㄨㄣˊ0쎯ㄨˋ3쎯	-9.62134
ㄧ3쎯ㄧㄠˋ0쎯	-9.6215
ㄕㄨㄟˇ쎯ㄌㄧˋ6쎯	-9.6215
ㄧㄤˇ2쎯ㄏㄨㄚˋ0쎯	-9.62158
ㄌㄧㄠˊ0쎯	-9.62238
ㄘㄞˋ1쎯	-9.62277
ㄅㄧˋ10쎯	-9.62288
ㄐㄧㄢˋ2쎯ㄩˊ0쎯	-9.62309
ㄍㄨㄟ2쎯ㄍㄜˊ2쎯	-9.6232
ㄕㄜˋ4쎯ㄐㄧˊ0쎯	-9.62352
ㄧ0쎯ㄌㄧㄡˊ3쎯	-9.62446
ㄕㄣ5쎯ㄖㄨˋ0쎯	-9.62453
ㄘㄤ0쎯	-9.62467
ㄐㄧㄝˊ2쎯	-9.62508
ㄔㄢˊ2쎯	-9.62516
ㄐㄧㄠˋ4쎯ㄉㄚˋ쎯	-9.62555
ㄓㄨㄥˇ0쎯	-9.62574
ㄗㄥˋ1쎯	-9.62578
ㄉㄧㄠˋ3쎯	-9.62609
ㄐㄧㄝˇ1쎯ㄈㄤˋ쎯ㄐㄩㄣ0쎯	-9.62646
ㄊㄥˊ3쎯	-9.62739
ㄒㄧㄠ2쎯ㄈㄟˋ4쎯ㄓㄜˇ0쎯	-9.62773
ㄑㄧㄤ3쎯	-9.62786
ㄆㄧㄥˊ1쎯ㄐㄧㄚˋ0쎯	-9.62799
ㄒㄧㄥˊ1쎯ㄖㄨㄥˊ4쎯	-9.62824
ㄏㄜˋ4쎯	-9.62847
ㄦˊ1쎯ㄅㄨˋ0쎯	-9.63061
ㄒㄩㄣˋ3쎯ㄙㄨˋ3쎯	-9.63082
ㄕㄜˋ0쎯ㄐㄧˋ0쎯、	-9.63141
ㄐㄧㄥ5쎯	-9.63247
ㄓㄨㄢ1쎯	-9.63274
ㄉㄡ0쎯ㄧㄡˇ1쎯	-9.63358
ㄓㄨㄟ0쎯ㄑㄧㄡˊ1쎯	-9.63358
ㄆㄚˋ0쎯	-9.63361
ㄓㄢˇ2쎯ㄌㄢˇ0쎯	-9.63367
ㄇㄡˊ0쎯	-9.63388
,ㄗㄜˊ0쎯	-9.63491
ㄊㄢ2쎯	-9.63507
ㄕˋ4쎯ㄓㄥˋ3쎯ㄈㄨˇ3쎯	-9.63533
ㄐㄧㄢ5쎯	-9.63554
,ㄘㄨㄥˊ0쎯ㄦˊ1쎯	-9.63564
ㄌㄧㄢˋ0쎯	-9.63597
ㄔㄤˊ0쎯、	-9.63655
.“	-9.63753
ㄧㄠˊ3쎯	-9.63753
쎆쎈	-9.63768
ㄅㄧㄥˇ2쎯	-9.63819
쎉쎅	-9.63821
ㄨㄤˋ2쎯	-9.63857
ㄨㄟˇ5쎯ㄕㄨ0쎯ㄐㄧˋ1쎯	-9.63858
ㄑㄧˇ2쎯ㄧㄝˋ0쎯.	-9.63941
ㄧˋ0쎯ㄩㄢˊ0쎯	-9.63956
쎁쎉쎇쎉ㄋㄧㄢˊ0쎯	-9.64007
ㄉㄨㄟˋ0쎯ㄨˇ2쎯	-9.64053
ㄐㄧㄢˇ5쎯ㄧㄢˋ5쎯	-9.64085
ㄏㄨㄤ0쎯	-9.64255
ㄦˋ0쎯ㄉㄥˇ0쎯ㄐㄧㄤˇ1쎯	-9.64264
ㄐㄧㄥ2쎯ㄐㄧˇ3쎯ㄒㄩㄝˊ1쎯	-9.64289
ㄈㄣ0쎯ㄅㄨˋ1쎯ㄩˊ0쎯	-9.64292
ㄖㄨㄥˊ6쎯	-9.64323
ㄍㄠˇ2쎯	-9.64354
ㄉㄧㄢˋ0쎯ㄕˋ12쎯ㄐㄩˋ4쎯	-9.64372
ㄧㄣ0쎯ㄘˇ0쎯	-9.64382
ㄘㄞˊ2쎯ㄓㄥˋ3쎯	-9.644
ㄅㄧˋ14쎯	-9.6445
ㄒㄧˋ0쎯ㄐㄩˋ4쎯	-9.64571
ㄉㄞˋ1쎯ㄌㄞˊ0쎯	-9.64576
,ㄖㄢˊ0쎯ㄏㄡˋ0쎯	-9.64596
ㄓㄨㄥ0쎯ㄐㄧㄢ4쎯	-9.6462
ㄨㄣˇ2쎯	-9.6481
ㄑㄧㄠˇ0쎯	-9.6483
ㄏㄨㄥˊ5쎯	-9.64838
ㄗㄜˊ1쎯ㄖㄣˊ3쎯	-9.64844
ㄙㄨㄛˇ3쎯	-9.64897
ㄔㄜˇ0쎯ㄘㄨㄣˋ쎯:	-9.64942
ㄑㄧˋ0쎯ㄏㄡˋ2쎯	-9.65011
ㄐㄧ12쎯ㄅㄨˋ4쎯	-9.65054
ㄕˋ18쎯ㄋㄟˋ쎯	-9.65141
ㄧ0쎯ㄗㄨㄛˋ1쎯	-9.65146
ㄒㄩㄣˋ0쎯	-9.65146
ㄐㄧㄝ1쎯	-9.65195
ㄏㄨㄛˋ5쎯	-9.65209
ㄕㄢˇ0쎯	-9.65239
ㄓㄞ0쎯	-9.65251
ㄇㄧㄣˊ0쎯ㄓㄨˇ0쎯	-9.6527
ㄇㄧㄢˋ0쎯ㄐㄧ11쎯ㄧㄠ2쎯	-9.65297
ㄩˋ6쎯ㄈㄤˊ0쎯	-9.65312
‘	-9.65317
ㄕˊ0쎯ㄋㄧㄢˊ0쎯	-9.65343
ㄧㄡˇ1쎯ㄧ0쎯	-9.65353
ㄉㄚˋ쎯ㄕ2쎯	-9.65371
쎁쎂쎀	-9.65394
ㄞ2쎯	-9.65458
ㄏㄨˋ0쎯	-9.65482
ㄌㄧˋ1쎯ㄖㄣˊ3쎯	-9.65535
ㄗㄡˋ0쎯	-9.65565
ㄉㄚˋ쎯ㄙㄞˋ쎯	-9.65623
ㄏㄨㄣˋ0쎯ㄍㄜˇ1쎯	-9.65623
쎁쎉쎆쎃ㄋㄧㄢˊ0쎯	-9.65634
ㄅㄠˋ8쎯	-9.65661
ㄨㄢˊ1쎯ㄓㄥˇ1쎯	-9.65671
ㄋㄨㄥˊ1쎯	-9.65796
.ㄓㄜˋ0쎯	-9.65797
ㄒㄧㄝˊ1쎯ㄉㄧㄠˋ2쎯	-9.65831
ㄕˋ4쎯ㄡ0쎯	-9.659
ㄋㄞˇ1쎯	-9.65918
.쎉	-9.65971
ㄩㄢˊ4쎯ㄧㄣ0쎯	-9.66018
ㄍㄨㄥˋ1쎯ㄒㄧㄢˋ8쎯	-9.6624
ㄧㄚˊ1쎯	-9.66302
ㄔㄤˊ0쎯ㄐㄧㄤ0쎯	-9.66349
ㄐㄧㄝˇ1쎯ㄈㄤˋ쎯	-9.66374
ㄇㄠˋ4쎯	-9.66394
ㄓㄨˊ1쎯ㄐㄧㄢˋ9쎯	-9.66422
쎁쎉쎅쎆ㄋㄧㄢˊ0쎯	-9.66494
ㄒㄩㄢˊ1쎯	-9.66535
ㄍㄥ0쎯ㄉㄨㄛ0쎯	-9.66537
ㄨ1쎯	-9.66559
ㄉㄧㄢˋ6쎯ㄈㄣˇ쎯	-9.66687
ㄉㄚ1쎯	-9.66808
ㄇㄧㄢˋ0쎯ㄐㄧ11쎯쎃	-9.6681
ㄍㄨㄟˋ1쎯ㄓㄡ1쎯	-9.66846
、ㄓㄨㄥ0쎯ㄍㄨㄛˊ0쎯	-9.66878
ㄑㄧㄥ5쎯ㄕㄨㄟˇ쎯	-9.66975
ㄔㄨㄥ1쎯ㄇㄢˇ0쎯	-9.67004
ㄕˋ15쎯ㄧ0쎯ㄎㄨㄢˇ쎯	-9.67008
ㄨㄟˇ5쎯ㄩㄢˊ2쎯、	-9.67125
ㄗㄨㄥˇ0쎯ㄖㄣˊ0쎯ㄎㄡˇ쎯	-9.67177
,ㄊㄨㄥ0쎯ㄍㄨㄛ0쎯	-9.67293
ㄕㄨˇ5쎯ㄇㄚˇ2쎯	-9.67351
ㄒㄧㄤ1쎯ㄊㄨㄥˊ0쎯	-9.67381
ㄐㄧ13쎯ㄎㄢ0쎯	-9.67411
ㄇㄠ쎯	-9.67428
쎇쎆	-9.67453
ㄒㄩ4쎯	-9.67506
ㄓ9쎯	-9.67539
ㄕㄟˊ쎯	-9.67557
ㄕㄨˇ4쎯	-9.67591
ㄧㄥˊ0쎯	-9.67632
ㄉㄚˋ쎯ㄐㄧㄚ3쎯	-9.67675
ㄩˋ14쎯	-9.67691
ㄗㄞ0쎯	-9.67692
ㄖㄣˊ0쎯ㄨㄣˊ0쎯	-9.677
ㄍㄨㄢ0쎯ㄓㄨˋ3쎯	-9.67701
쎀.쎅	-9.67719
,ㄊㄚ2쎯	-9.67796
ㄐㄧㄢˇ9쎯	-9.67846
ㄆㄠˊ1쎯	-9.67861
ㄨㄟˇ5쎯ㄩㄢˊ2쎯,	-9.6787
ㄏㄨ1쎯	-9.67894
ㄓㄡ2쎯ㄨㄟˊ2쎯	-9.67942
ㄧㄥ1쎯ㄒㄩㄥˊ0쎯	-9.67969
ㄒㄧㄥˋ2쎯ㄓˋ4쎯	-9.67992
ㄉㄧㄢˋ0쎯ㄧㄚ1쎯	-9.67997
ㄊㄨㄟˇ쎯	-9.68005
,ㄩㄥ1쎯ㄧㄡˇ1쎯	-9.68023
ㄨㄟˊ6쎯ㄒㄧㄡ1쎯	-9.68326
ㄊㄠˊ0쎯	-9.6841
----------------	-9.6843
ㄙㄨˋ6쎯ㄌㄧㄠˋ0쎯	-9.68431
ㄩㄢˊ1쎯ㄌㄧㄣˊ1쎯	-9.6851
ㄒㄧㄠ2쎯ㄈㄟˋ4쎯	-9.68519
ㄓㄨˋ3쎯ㄧˋ18쎯	-9.68585
쎀쎁	-9.686
ㄋㄥˊ쎯ㄩㄢˊ9쎯	-9.68612
ㄓㄣ4쎯ㄕˊ3쎯	-9.68618
ㄑㄩㄢˊ1쎯ㄒㄧㄣ5쎯	-9.68649
쎈쎆	-9.68666
ㄧㄡˇ1쎯ㄒㄧㄢˋ2쎯ㄗㄜˊ1쎯	-9.68669
ㄨˋ5쎯	-9.68747
ㄔㄤˊ1쎯ㄙㄨㄛˇ0쎯	-9.68855
ㄉㄠˇ3쎯ㄖㄨˋ0쎯	-9.68857
ㄨㄟˊ0쎯ㄓㄨˇ0쎯,	-9.68896
ㄑㄩㄢˊ1쎯ㄕˋ4쎯	-9.68946
ㄖㄣˊ3쎯ㄍㄨㄥ2쎯ㄙ0쎯	-9.68963
ㄈㄚˊ3쎯	-9.69017
ㄅㄞˋ0쎯	-9.69022
ㄒㄧㄝˊ8쎯	-9.69079
ㄓㄣ4쎯ㄓㄥ0쎯	-9.69119
ㄅㄟ3쎯	-9.69166
ㄕㄨ0쎯ㄈㄚˇ0쎯ㄐㄧㄚ3쎯	-9.69246
.ㄧㄡˊ1쎯ㄩˊ0쎯	-9.69259
ㄐㄧㄥ2쎯ㄔㄤˊ4쎯	-9.69346
쎀쎉	-9.69349
ㄑㄧㄥ0쎯ㄉㄠˇ1쎯	-9.69356
ㄉㄚˋ쎯ㄓㄨㄢ0쎯	-9.69369
ㄏㄥˊ2쎯	-9.69383
ㄍㄨㄥ4쎯ㄐㄧ2쎯	-9.69387
,ㄕㄨˇ1쎯ㄩˊ0쎯	-9.69398
쎀쎃	-9.69456
ㄞˊ0쎯	-9.69493
ㄗㄨㄛ0쎯ㄓㄢˋ1쎯	-9.69518
ㄉㄨㄛˇ0쎯	-9.69541
ㄅㄢˋ6쎯	-9.69602
ㄗㄨㄛˋ0쎯ㄌㄚˋ0쎯ㄗㄞˋ1쎯	-9.69606
ㄌㄧˇ3쎯ㄍㄨㄥ0쎯	-9.69676
ㄨˋ6쎯	-9.69749
ㄅㄨˋ0쎯ㄍㄨㄛ0쎯	-9.69753
ㄞˋ1쎯ㄑㄧㄥˊ0쎯	-9.69788
쎈쎈	-9.69798
ㄕㄨ10쎯ㄘㄞˋ0쎯	-9.69802
ㄍㄥ0쎯ㄐㄧㄚ0쎯	-9.69808
ㄈㄨˇ5쎯	-9.69813
쎅%	-9.69823
ㄈㄨˋ7쎯ㄗㄚˊ0쎯	-9.69838
:쎂	-9.69933
ㄖㄨˊ1쎯	-9.69957
ㄋㄧˇ0쎯	-9.69958
ㄩㄢˊ4쎯ㄇㄧㄥˊ0쎯	-9.69981
ㄊㄨˊ0쎯ㄕㄨ0쎯ㄍㄨㄢˇ0쎯	-9.70011
ㄍㄜˇ1쎯ㄔㄥˊ0쎯	-9.70029
ㄈㄢ2쎯ㄧˋ11쎯	-9.70103
ㄐㄧㄥˇ1쎯ㄡ0쎯	-9.70108
ㄈㄥˊ2쎯	-9.70116
ㄑㄧ7쎯	-9.70119
ㄐㄩㄣ0쎯ㄡ0쎯	-9.70121
.ㄅㄣˇ0쎯ㄕㄨ0쎯	-9.70236
ㄌㄠˊ0쎯ㄉㄨㄥˋ0쎯ㄌㄧˋ0쎯	-9.70244
ㄓˊ5쎯	-9.70264
ㄍㄜˇ0쎯ㄒㄧㄥˋ2쎯	-9.70321
ㄐㄧㄠ1쎯	-9.70331
쎆쎇	-9.70331
ㄙㄨㄛˇ0쎯ㄨㄟˋ6쎯	-9.70335
ㄗㄞˋ1쎯ㄓˊ4쎯	-9.70443
쎀쎅	-9.70453
ㄉㄧˋ3쎯ㄨˇ0쎯	-9.70455
ㄩˋ2쎯	-9.70487
ㄘㄥˊ1쎯ㄖㄣˊ3쎯	-9.70531
쎆쎂	-9.70542
쎁쎉쎆쎄ㄋㄧㄢˊ0쎯	-9.70544
쎅쎇	-9.70547
ㄔㄨㄤ2쎯	-9.70573
ㄐㄧㄠˇ0쎯ㄉㄨˋ2쎯	-9.70697
ㄒㄧㄡ0쎯	-9.70706
ㄔㄥˊ4쎯ㄓㄣˋ3쎯	-9.70778
ㄉㄢ1쎯	-9.708
ㄔㄨㄟˊ0쎯	-9.70851
,ㄖㄣˊ3쎯	-9.70878
ㄏㄨㄟˇ1쎯	-9.70891
ㄧ0쎯ㄉㄥˇ0쎯ㄐㄧㄤˇ1쎯	-9.70928
ㄅㄧˋ2쎯ㄧㄝˋ0쎯,	-9.70931
ㄍㄨㄢˇ1쎯ㄌㄧˇ3쎯ㄐㄩˊ0쎯	-9.70965
ㄍㄨˇ3쎯	-9.71012
ㄒㄧˇ2쎯ㄞˋ1쎯	-9.71017
ㄓㄨˊ1쎯	-9.7103
ㄙㄨˋ2쎯ㄓˋ4쎯	-9.71052
ㄉㄧㄝˊ2쎯	-9.71088
ㄅㄧˋ7쎯	-9.71119
ㄉㄥˇ0쎯ㄐㄧˊ2쎯	-9.71132
ㄐㄧˊ8쎯ㄊㄧ0쎯	-9.71188
ㄓˊ4쎯ㄨˋ2쎯	-9.71193
ㄗㄨㄛˇ1쎯	-9.71221
ㄧ3쎯ㄎㄜ2쎯	-9.71238
ㄔㄜˇ0쎯	-9.71269
ㄅㄧㄢ1쎯ㄓˋ3쎯	-9.71294
쎇쎇	-9.71313
ㄑㄩㄢˊ3쎯	-9.71325
ㄕㄣ1쎯	-9.71337
ㄉㄨㄟˋ1쎯ㄨㄞˋ쎯	-9.71371
ㄢˋ5쎯	-9.71371
ㄑㄩㄢˊ1쎯ㄒㄧㄢˋ0쎯	-9.71495
ㄕㄨˋ1쎯	-9.71514
ㄈㄛˊ쎯ㄐㄧㄠ6쎯	-9.71521
ㄔㄨˋ1쎯	-9.71601
,ㄉㄨㄥ0쎯	-9.71648
ㄐㄧㄠˋ2쎯ㄔㄤˊ0쎯	-9.71744
쎂.쎅	-9.71762
ㄌㄧˊ8쎯	-9.71795
ㄊㄨㄣˊ0쎯	-9.71796
ㄙㄨㄣˇ0쎯	-9.71812
ㄐㄧㄢˋ13쎯	-9.71859
ㄖㄨㄟˋ0쎯	-9.7187
ㄑㄧㄥ4쎯	-9.71897
ㄓㄨㄢ0쎯ㄩㄥˋ0쎯	-9.71899
ㄖㄢˇ1쎯	-9.71904
ㄐㄧ8쎯ㄉㄢˋ6쎯	-9.71927
ㄈㄨˊ5쎯ㄨˋ2쎯.	-9.72012
ㄊㄨㄥˇ3쎯	-9.72018
ㄅㄧˋ7쎯ㄕㄨ0쎯	-9.72019
ㄌㄧㄥˇ1쎯ㄒㄧㄢ1쎯	-9.72112
ㄨˇ7쎯ㄉㄠˇ5쎯	-9.72128
쎆쎃	-9.7225
쎆-	-9.72286
ㄘㄨㄟˋ3쎯	-9.72317
ㄉㄨㄥˋ0쎯ㄗㄨㄛ0쎯	-9.7234
ㄆㄧㄠˊ0쎯	-9.72347
쎀쎆	-9.724
ㄊㄡˊ1쎯ㄖㄨˋ0쎯	-9.72427
ㄏㄨㄟ2쎯ㄈㄨˋ7쎯	-9.72488
ㄘㄥˊ1쎯ㄗㄞˋ1쎯	-9.72561
ㄐㄧㄠˋ4쎯ㄍㄠ0쎯	-9.72596
ㄓㄥˋ0쎯ㄑㄩㄢˋ1쎯	-9.7264
ㄒㄧㄢˊ2쎯	-9.72648
ㄐㄧㄝˊ6쎯	-9.72672
ㄗˋ0쎯ㄕㄣ2쎯	-9.72694
ㄖㄨㄥˊ2쎯ㄩˋ15쎯	-9.72709
ㄏㄨㄢˋ5쎯	-9.72728
ㄐㄧㄤˋ2쎯ㄉㄚˋ쎯	-9.72735
ㄅㄧˋ3쎯	-9.72774
쎆ㄍㄜˇ0쎯	-9.72824
ㄐㄧㄥ8쎯ㄆㄧㄣˇ쎯	-9.72915
쎆.	-9.72979
ㄏㄢˊ1쎯ㄌㄧㄤˊ3쎯	-9.73026
ㄇㄛˊ0쎯ㄈㄚˇ0쎯	-9.73034
ㄏㄚ0쎯ㄦˇ0쎯ㄅㄧㄣ3쎯	-9.73036
ㄐㄧㄤˋ2쎯ㄉㄨˋ2쎯	-9.7311
ㄉㄧㄥˋ1쎯ㄨㄟˋ2쎯	-9.73134
ㄌㄧㄢˊ4쎯ㄇㄥˊ1쎯	-9.7315
ㄉㄧˋ3쎯쎁	-9.73164
ㄅㄧㄢˋ1쎯ㄌㄧˋ6쎯	-9.73171
ㄧㄣˋ0쎯ㄕㄨㄚ0쎯	-9.7325
쎃ㄋㄧㄢˊ0쎯	-9.73271
ㄈㄚ쎯ㄏㄨㄟ1쎯	-9.73284
ㄕㄜˊ0쎯	-9.73292
ㄩㄢˊ5쎯ㄒㄧㄥˊ1쎯	-9.73296
ㄅㄧㄥˇ3쎯	-9.73307
ㄅㄚˊ0쎯	-9.73334
ㄔㄨㄢˊ0쎯ㄕㄨ9쎯	-9.73425
ㄨㄤˋ1쎯	-9.73459
ㄐㄧㄤˇ0쎯ㄕ2쎯	-9.73477
ㄖㄨㄥˊ4쎯ㄧˋ12쎯	-9.73486
ㄩㄥˋ0쎯ㄌㄞˊ0쎯	-9.73491
ㄍㄡˋ0쎯	-9.73576
ㄌㄠˇ0쎯ㄕ2쎯	-9.73576
ㄔㄨㄥˊ1쎯ㄌㄟˋ2쎯	-9.73601
ㄕㄨ7쎯	-9.73607
ㄌㄧㄣˊ3쎯	-9.73644
ㄇㄧㄢˋ0쎯ㄒㄧㄤˋ0쎯	-9.73723
ㄐㄧㄢˋ9쎯	-9.73726
ㄇㄧㄣˊ0쎯ㄍㄨㄛˊ0쎯	-9.73749
ㄨㄞˋ쎯ㄍㄨㄢ1쎯	-9.73759
ㄓㄡ0쎯	-9.73774
ㄏㄢˊ1쎯ㄧㄡˇ1쎯	-9.73803
ㄅㄞˇ0쎯ㄉㄨˋ2쎯	-9.73816
ㄐㄧˋ1쎯ㄗㄞˇ1쎯	-9.7382
ㄓㄥˇ1쎯ㄍㄜˇ1쎯	-9.73856
▁̇ㄉㄜ1쎯ㄉㄚˋ쎯ㄒㄧㄥˊ2쎯	-9.73886
ㄔㄨㄥˊ2쎯ㄌㄧㄤˊ3쎯	-9.73888
ㄌㄧㄤˊ4쎯ㄕˊ4쎯	-9.73897
ㄋㄧㄥˊ4쎯	-9.73997
ㄇㄥˊ1쎯	-9.74011
ㄔㄚˊ3쎯	-9.74031
-쎄	-9.74041
ㄕㄨˋ2쎯	-9.74129
ㄐㄧㄢˋ12쎯	-9.7414
ㄐㄧㄥ2쎯ㄌㄧˇ3쎯	-9.74166
ㄉㄨㄥˋ0쎯ㄊㄞˋ2쎯	-9.74277
ㄓㄨㄢ0쎯ㄌㄧˋ6쎯	-9.74293
ㄒㄧㄤ1쎯ㄏㄨˋ0쎯	-9.74303
.ㄘㄥˊ1쎯ㄖㄣˊ3쎯	-9.7436
ㄐㄧˊ1쎯ㄌㄧㄣˊ1쎯	-9.74422
ㄒㄧㄢˋ8쎯	-9.74534
ㄐㄧㄢˇ7쎯	-9.74633
쎅ㄋㄧㄢˊ0쎯	-9.74659
ㄒㄧㄠ4쎯	-9.74673
ㄐㄧ12쎯ㄔㄨˇ1쎯ㄕㄤˇ0쎯	-9.74762
ㄧㄥˇ1쎯ㄆㄧㄢ0쎯	-9.74782
ㄕㄤˇ2쎯	-9.74784
쎄쎁	-9.74816
ㄒㄧㄚˊ6쎯	-9.74834
ㄗㄠˇ0쎯ㄐㄧ13쎯	-9.74845
▁̇ㄉㄜ1쎯ㄗㄨㄛ0쎯ㄩㄥˋ0쎯	-9.749
ㄒㄧ2쎯ㄕㄡ쎯	-9.74945
ㄕㄨㄟˋ0쎯ㄇㄧㄥˊ1쎯	-9.74994
ㄋㄧˋ0쎯	-9.75001
쎇쎃	-9.75016
ㄙㄨㄟˋ4쎯	-9.75019
ㄒㄧㄥˇ0쎯	-9.75048
ㄘㄠ0쎯	-9.75151
ㄇㄧㄥˊ0쎯:	-9.75159
ㄐㄧˋ9쎯	-9.75167
ㄏㄜˊ2쎯ㄕㄜˋ1쎯ㄏㄨㄟˋ2쎯	-9.75199
ㄑㄧㄥ5쎯ㄉㄞˋ0쎯	-9.75223
ㄉㄢˋ6쎯ㄅㄞˊ0쎯	-9.75234
ㄉㄧㄠˋ2쎯ㄐㄧㄝ0쎯	-9.7524
ㄩˋ15쎯	-9.75288
ㄘㄨㄥˊ1쎯	-9.75364
,ㄐㄩˋ5쎯ㄌㄧˊ3쎯	-9.75376
ㄩㄥˋ0쎯ㄈㄚˇ0쎯	-9.75389
ㄒㄧㄢˇ1쎯	-9.75415
ㄔㄨㄣˊ3쎯	-9.75444
ㄅㄧㄢ0쎯ㄩㄢˊ7쎯	-9.75492
ㄓㄥ0쎯ㄗㄞˋ1쎯	-9.75524
ㄧˋ17쎯	-9.75533
ㄓㄨˇ0쎯ㄧㄢˇ3쎯	-9.7556
ㄑㄧㄥ3쎯	-9.75602
ㄍㄨ3쎯	-9.75676
ㄔㄨㄢˊ0쎯ㄇㄟˊ5쎯	-9.75701
,ㄏㄨㄛˋ0쎯	-9.7592
ㄒㄩㄝˊ0쎯	-9.75958
ㄔㄥˊ0쎯ㄈㄣ0쎯	-9.75961
ㄅㄢˇ1쎯ㄅㄣˇ0쎯	-9.75963
쎈-	-9.76005
ㄕㄡˇ0쎯ㄉㄨㄢˋ0쎯	-9.76011
ㄧ0쎯ㄨㄟˋ2쎯	-9.76098
ㄍㄨㄥ2쎯ㄐㄧㄣ1쎯	-9.76136
ㄍㄨㄥ2쎯ㄌㄧˇ2쎯.	-9.76165
ㄊㄨㄛˇ1쎯ㄩㄢˊ5쎯	-9.76201
ㄇㄧˋ1쎯ㄉㄨˋ2쎯	-9.76214
쎁쎉쎆쎂ㄋㄧㄢˊ0쎯	-9.76219
ㄊㄧ0쎯ㄧㄢˋ5쎯	-9.76229
ㄉㄠˇ0쎯ㄓˋ7쎯	-9.7623
쎆쎉	-9.76241
쎀쎂	-9.76282
ㄆㄟˋ2쎯ㄓˋ13쎯	-9.76286
ㄕㄣ0쎯	-9.76309
ㄊㄧ0쎯ㄒㄧㄢˋ1쎯	-9.76327
ㄇㄧˋ2쎯	-9.76356
ㄏㄜˊ2쎯ㄒㄧㄝˊ6쎯	-9.76473
ㄨㄢˊ1쎯ㄇㄟˇ1쎯	-9.76509
ㄖㄣˊ0쎯ㄉㄚˋ쎯	-9.76526
ㄖㄨˊ0쎯ㄍㄨㄛˇ0쎯	-9.76528
ㄅㄤ1쎯	-9.76581
ㄔㄤˊ4쎯ㄨˋ2쎯	-9.76584
ㄨˋ4쎯	-9.76605
ㄗˋ0쎯ㄉㄨㄥˋ0쎯ㄏㄨㄚˋ0쎯	-9.76634
ㄑㄧㄠˊ0쎯	-9.76652
ㄍㄠ0쎯ㄒㄧㄠˋ3쎯	-9.76658
ㄐㄩㄣˋ0쎯	-9.76666
ㄇㄧㄢˊ2쎯	-9.7673
ㄅㄧㄥˇ0쎯	-9.76789
ㄧㄥˋ0쎯	-9.76799
ㄊㄥˊ1쎯	-9.76875
ㄕˇ3쎯ㄓㄨㄥ2쎯	-9.76906
ㄍㄨㄥˋ1쎯	-9.76924
ㄙ4쎯ㄊㄜˋ0쎯	-9.76956
ㄊㄠˊ2쎯ㄘˊ3쎯	-9.76998
ㄕㄨ7쎯ㄕˋ16쎯	-9.77002
ㄏㄜˊ6쎯	-9.77019
ㄈㄨˋ8쎯ㄐㄧㄠ6쎯ㄕㄡˋ2쎯	-9.77091
ㄅㄧㄣ0쎯ㄍㄨㄢˇ0쎯	-9.7713
ㄅㄧˋ2쎯ㄧㄝˋ0쎯ㄏㄡˋ0쎯	-9.77172
ㄓㄨㄤ3쎯ㄒㄧㄡ1쎯	-9.77174
ㄉㄧˋ3쎯ㄌㄧㄡˋ0쎯	-9.77179
ㄌㄩˇ3쎯	-9.77194
ㄧㄤˊ2쎯ㄒㄧㄢˋ0쎯	-9.77205
ㄧㄡˋ9쎯	-9.77212
ㄅㄧㄠ0쎯ㄓˋ1쎯	-9.77293
ㄧㄢˊ1쎯ㄔㄨㄥˊ2쎯	-9.77321
ㄐㄧㄢˇ6쎯ㄕㄠˇ쎯	-9.77356
쎂쎀쎁쎃ㄋㄧㄢˊ0쎯	-9.77364
ㄅㄧˇ1쎯ㄩˋ10쎯	-9.7741
ㄓㄨㄚ0쎯	-9.77426
ㄊㄨㄥˊ2쎯	-9.77457
ㄌㄧㄢˊ5쎯	-9.77472
ㄇㄟˊ13쎯	-9.77487
ㄉㄧㄥˋ1쎯ㄧˋ1쎯	-9.77505
ㄨ1쎯ㄖㄢˇ1쎯	-9.77557
ㄕㄠˇ쎯ㄕㄨˇ5쎯	-9.77626
ㄒㄧㄤˊ2쎯	-9.77645
,ㄇㄨˋ1쎯ㄑㄧㄢˊ0쎯	-9.77715
ㄙㄨㄛˇ0쎯ㄕㄨˇ1쎯	-9.77839
ㄉㄤˋ1쎯ㄢˋ2쎯	-9.77942
ㄐㄧㄣˋ0쎯ㄧ0쎯ㄅㄨˋ2쎯	-9.77976
,ㄅㄧㄥ1쎯ㄑㄧㄝˇ쎯	-9.77994
ㄈㄨˋ14쎯ㄍㄞˋ3쎯	-9.78022
ㄉㄨˋ2쎯ㄐㄧㄚˇ2쎯	-9.78037
ㄧㄣ	-9.78048
ㄕㄣˇ0쎯ㄧㄤˊ2쎯	-9.78099
ㄌㄧㄢˊ0쎯ㄙㄨㄛˇ3쎯	-9.78143
ㄉㄡ0쎯ㄕˋ4쎯	-9.78202
쎁쎉쎆쎅ㄋㄧㄢˊ0쎯	-9.78213
(쎂)	-9.78222
ㄅㄧㄢˇ1쎯	-9.78224
ㄎㄨㄛˋ0쎯ㄓㄢˇ2쎯	-9.78274
쎅쎉	-9.78304
ㄔㄨˇ0쎯ㄩˊ0쎯	-9.78335
쎇쎈	-9.78389
ㄏㄨㄤˊ1쎯ㄐㄧㄣ3쎯	-9.78389
ㄊㄨㄟ0쎯ㄉㄨㄥˋ0쎯	-9.78427
ㄆㄧㄥˊ1쎯ㄨㄟˊ0쎯	-9.78457
ㄙㄨㄟˊ2쎯	-9.78459
ㄨˇ3쎯ㄑㄧˋ7쎯	-9.78466
ㄉㄤˇ1쎯ㄗㄨˇ1쎯	-9.78493
ㄍㄨㄢˇ1쎯ㄌㄧˇ3쎯、	-9.78544
ㄘㄨˋ2쎯	-9.78582
ㄐㄧˊ6쎯	-9.7859
ㄇㄟˇ1쎯ㄕˊ4쎯	-9.78607
ㄓˋ3쎯ㄔㄥˊ0쎯	-9.7867
ㄔㄡ0쎯	-9.78681
ㄒㄧㄤˇ1쎯	-9.78695
〕	-9.78712
ㄍㄨㄛˊ0쎯ㄨㄞˋ쎯	-9.78718
ㄌㄞˊ0쎯ㄩㄢˊ9쎯ㄩˊ0쎯	-9.78719
ㄉㄧㄠˋ2쎯ㄨㄟˋ3쎯	-9.78763
ㄩㄢˋ2쎯ㄐㄧㄠˋ2쎯	-9.78817
쎅쎁	-9.78902
쎉쎄	-9.78933
ㄩˊ5쎯	-9.78941
ㄏㄢˊ0쎯	-9.78957
ㄍㄜˋ0쎯ㄍㄜˇ0쎯	-9.78969
ㄔㄨㄥˊ2쎯ㄒㄧㄣ5쎯	-9.78974
ㄐㄧㄤˋ1쎯ㄉㄧ0쎯	-9.79004
ㄧ0쎯ㄇㄧㄥˊ0쎯	-9.79047
ㄌㄨㄣˊ2쎯ㄊㄢˊ0쎯	-9.79146
ㄌㄚˋ3쎯	-9.79156
ㄕㄢˋ1쎯ㄔㄤˊ0쎯	-9.79262
ㄌㄚˋ3쎯ㄐㄧㄠ7쎯	-9.7929
ㄋㄚˋ3쎯	-9.79336
ㄘㄞˊ0쎯ㄋㄥˊ쎯	-9.79354
ㄋㄧㄠˋ0쎯	-9.79367
ㄒㄩㄥˊ1쎯	-9.79386
ㄓㄠˇ1쎯	-9.79473
ㄡ	-9.79478
ㄈㄨˋ8쎯ㄐㄩˊ0쎯ㄔㄤˊ0쎯	-9.79499
ㄖㄣˊ3쎯ㄐㄧㄠ6쎯	-9.79567
ㄏㄜˋ1쎯	-9.79584
.ㄒㄩㄝˊ1쎯ㄐㄧㄠˋ2쎯	-9.79682
ㄔㄨˇ0쎯ㄌㄧˇ3쎯ㄑㄧˋ7쎯	-9.79759
ㄒㄧㄢˊ4쎯	-9.79815
ㄕㄣˇ1쎯ㄐㄧˋ0쎯	-9.79882
ㄈㄢˋ0쎯	-9.79963
ㄏㄨㄤˊ0쎯ㄉㄧˋ1쎯	-9.8003
ㄋㄧㄢˊ0쎯ㄑㄧㄥ1쎯	-9.80051
ㄒㄧㄠˇ0쎯ㄒㄧㄥˊ2쎯	-9.80052
쎂쎀쎁쎀	-9.80096
ㄎㄠˇ2쎯	-9.80104
ㄒㄧㄢˋ1쎯ㄕˊ3쎯	-9.80122
ㄇㄛˋ9쎯	-9.80202
,ㄕㄨˇ1쎯	-9.80229
ㄕˊ3쎯ㄏㄤˊ0쎯	-9.8023
ㄍㄥ0쎯ㄇㄧㄥˊ0쎯ㄨㄟˊ0쎯	-9.80245
ㄒㄧ1쎯ㄅㄢ1쎯ㄧㄚˊ0쎯	-9.80247
ㄗㄠˇ1쎯	-9.80353
ㄈㄨˋ8쎯ㄩㄢˋ2쎯ㄔㄤˊ0쎯	-9.8037
쎈쎂	-9.8043
ㄧㄡˇ1쎯“	-9.80473
ㄔㄠˊ1쎯ㄒㄧㄢ3쎯	-9.80474
ㄅㄠˋ2쎯	-9.80482
ㄊㄞˋ0쎯ㄧㄤˊ2쎯	-9.80518
ㄏㄡˋ2쎯	-9.80536
ㄙㄢ0쎯ㄉㄥˇ0쎯ㄐㄧㄤˇ1쎯	-9.80593
ㄑㄧㄢˊ3쎯ㄌㄨㄥˊ5쎯	-9.80656
ㄐㄧㄝ4쎯ㄔㄨˋ1쎯	-9.8066
.ㄘㄥˊ1쎯	-9.8068
ㄐㄩ	-9.80703
ㄍㄨㄟ4쎯	-9.80707
ㄐㄧˋ2쎯ㄑㄧㄠˇ0쎯	-9.80717
ㄨㄣˊ0쎯ㄒㄧㄢˋ8쎯	-9.80728
ㄧˋ9쎯	-9.80766
ㄧㄣˇ0쎯ㄐㄧㄣˋ0쎯	-9.80791
ㄧㄠˊ2쎯	-9.80834
ㄐㄧ12쎯ㄩˊ0쎯	-9.80837
ㄨㄛ0쎯	-9.80921
쎃.	-9.80945
ㄉㄨㄛ0쎯ㄇㄟˊ5쎯ㄊㄧ0쎯	-9.81029
ㄔㄤˊ0쎯.	-9.81043
ㄧㄡ0쎯ㄇㄟˇ1쎯	-9.81082
ㄔㄥˊ2쎯ㄒㄧㄣˋ0쎯	-9.81125
ㄏㄨㄢˇ0쎯	-9.81156
ㄗㄨㄥ0쎯ㄐㄧㄠ6쎯	-9.81184
ㄐㄧㄝ4쎯ㄖㄤˇ0쎯	-9.81186
.쎂.	-9.81236
ㄕˋ4쎯ㄖㄣˊ0쎯ㄇㄧㄣˊ0쎯	-9.81249
ㄦˋ0쎯ㄋㄧㄢˊ0쎯	-9.81282
ㄧㄠˊ6쎯	-9.81284
ㄉㄨㄛ0쎯ㄒㄧㄤˋ1쎯	-9.81288
》ㄉㄥˇ0쎯.	-9.81298
ㄖㄣˊ0쎯ㄐㄩㄣ1쎯ㄔㄨㄣˊ0쎯	-9.81377
ㄧ0쎯ㄒㄧㄤˋ1쎯	-9.81386
ㄇㄢˋ1쎯	-9.81394
ㄍㄞˇ쎯ㄕㄢˋ0쎯	-9.81401
,ㄐㄧㄚ0쎯	-9.81531
ㄎㄥ0쎯	-9.81566
ㄒㄧㄤ0쎯ㄓㄣˋ3쎯	-9.81573
,ㄏㄞˊ0쎯	-9.81583
-쎀	-9.81692
ㄏㄞˇ0쎯ㄋㄚ1쎯	-9.81727
ㄍㄨㄥ3쎯ㄌㄩˋ2쎯	-9.81831
ㄖㄣˊ0쎯ㄕˋ8쎯	-9.81854
ㄏㄨˊ3쎯	-9.81943
ㄈㄤˊ0쎯ㄓˋ5쎯	-9.81957
ㄋㄧㄢˊ0쎯ㄉㄞˋ0쎯	-9.82004
ㄧㄣ0쎯ㄙㄨˋ2쎯	-9.82028
ㄍㄢ1쎯ㄙㄨˋ1쎯	-9.82085
ㄋㄨㄢˇ쎯	-9.8209
ㄑㄧˊ6쎯	-9.82095
ㄗㄨㄥ0쎯ㄓˇ1쎯	-9.82108
ㄅㄟˋ2쎯ㄩㄥˋ0쎯	-9.82149
ㄊㄧㄢˊ3쎯	-9.82217
ㄍㄨㄟ2쎯	-9.82234
ㄐㄧ18쎯	-9.82255
ㄔㄨㄢˋ0쎯	-9.82264
ㄉㄧㄢˋ0쎯ㄑㄧˋ0쎯	-9.82273
ㄉㄧˋ3쎯ㄕˊ0쎯	-9.82291
ㄍㄨㄤˇ0쎯ㄓㄡ1쎯ㄕˋ4쎯	-9.82312
ㄨㄟˊ7쎯	-9.82334
ㄈㄨˋ4쎯ㄕㄨˇ1쎯	-9.82348
ㄕˊ0쎯ㄨˇ0쎯	-9.82358
ㄆㄧㄣˊ0쎯	-9.82361
ㄔㄨ0쎯ㄔㄨˇ0쎯	-9.82445
ㄔㄞˊ0쎯	-9.82445
&	-9.82449
쎇쎉	-9.82453
ㄧㄝ1쎯	-9.82514
,ㄉㄢˋ2쎯ㄕˋ15쎯	-9.8253
ㄐㄧㄚ0쎯ㄋㄚˊ0쎯ㄉㄚˋ쎯	-9.82567
ㄆㄞˇ쎯	-9.82571
ㄩˋ5쎯	-9.82671
ㄊㄢˋ2쎯ㄙㄨㄛˇ1쎯	-9.82702
()ㄕˋ15쎯	-9.82724
ㄈㄤˇ2쎯ㄓ9쎯	-9.82751
ㄨㄟˊ3쎯	-9.82771
ㄌㄧˊ4쎯	-9.82782
ㄌㄧㄥˊ11쎯	-9.8279
ㄕㄡˇ2쎯ㄘˋ0쎯	-9.82808
ㄓㄨˋ9쎯	-9.82825
ㄗˇ0쎯,	-9.82829
ㄖㄣˋ1쎯ㄕˊ2쎯	-9.82841
ㄍㄨㄛˊ0쎯ㄉㄠˋ3쎯	-9.82899
ㄈㄨˋ7쎯ㄍㄜˇ1쎯	-9.82916
ㄕˋ18쎯、	-9.82926
ㄆㄥˊ1쎯	-9.82935
ㄨㄢ0쎯	-9.8302
ㄑㄧˋ2쎯	-9.83022
ㄗㄞ2쎯ㄆㄟˊ1쎯	-9.83027
,ㄒㄧ1쎯	-9.83045
ㄠˋ1쎯	-9.83047
ㄉㄨㄥˇ0쎯ㄕˋ8쎯ㄔㄤˊ0쎯	-9.83048
ㄉㄡˇ0쎯ㄓㄥ1쎯	-9.83106
ㄩㄥˋ0쎯ㄆㄧㄣˇ쎯	-9.83127
ㄓˊ4쎯ㄋㄥˊ쎯	-9.83129
ㄒㄧㄤ1쎯ㄉㄤ0쎯	-9.8314
ㄍㄨㄢˇ1쎯ㄒㄧㄚˊ5쎯	-9.83155
ㄧㄢˊ1쎯ㄍㄜˊ2쎯	-9.83173
ㄍㄜ0쎯	-9.832
ㄧㄝˇ0쎯.	-9.83242
ㄆㄟˋ1쎯	-9.83274
ㄌㄧㄥˋ0쎯ㄧ0쎯	-9.8329
ㄗㄥ0쎯ㄐㄧㄤˋ2쎯	-9.83295
ㄘㄢ1쎯ㄧㄣˇ1쎯	-9.83354
ㄙˋ1쎯ㄍㄜˇ0쎯	-9.83358
ㄅㄧㄠˇ0쎯ㄉㄚˊ1쎯	-9.83414
ㄉㄤˇ1쎯ㄓ1쎯ㄅㄨˋ4쎯	-9.83449
▁̇ㄉㄜ1쎯ㄐㄧˋ2쎯ㄕㄨˋ0쎯	-9.83454
쎁ㄋㄧㄢˊ0쎯	-9.83469
ㄨˊ1쎯	-9.83521
ㄌㄟˊ0쎯	-9.8354
ㄏㄨㄛˇ0쎯ㄔㄜ0쎯ㄓㄢˋ2쎯	-9.83542
ㄖˋ0쎯ㄔㄤˊ4쎯	-9.83669
ㄅㄣˇ1쎯	-9.83722
ㄉㄨㄥˇ0쎯	-9.83798
.ㄒㄧㄢˋ1쎯	-9.83802
ㄖㄨˋ0쎯ㄒㄩㄢˇ0쎯	-9.83839
쎀쎄	-9.83856
ㄍㄜˇ1쎯ㄊㄨㄥˊ0쎯	-9.83893
ㄕㄢ0쎯ㄕㄨㄟˇ쎯	-9.83941
ㄍㄨㄥ2쎯ㄎㄞ0쎯	-9.8399
ㄧㄡˊ2쎯	-9.84002
ㄧˇ2쎯ㄏㄡˋ0쎯	-9.84004
ㄇㄛˋ0쎯ㄖㄣˊ0쎯	-9.84043
ㄓˊ1쎯ㄕㄨˇ1쎯	-9.84044
쎃.쎅	-9.84044
ㄨˋ3쎯ㄧㄝˋ0쎯	-9.84199
ㄐㄩˋ2쎯ㄅㄟˋ2쎯	-9.84204
▁̇ㄉㄜ1쎯ㄍㄨˋ1쎯ㄕˋ8쎯	-9.84228
ㄗㄨㄥˇ0쎯ㄕㄡ쎯ㄖㄨˋ0쎯	-9.84232
ㄕˊ0쎯ㄧ0쎯	-9.84259
ㄅㄠ0쎯ㄏㄢˊ1쎯	-9.84296
ㄗㄨㄢ0쎯	-9.84322
ㄅㄨˇ1쎯	-9.84327
ㄗㄞˋ1쎯ㄘˇ0쎯	-9.84337
쎅ㄍㄜˇ0쎯	-9.84338
ㄐㄧㄤˋ3쎯ㄧㄡˊ4쎯	-9.84365
▁̇ㄉㄜ1쎯ㄕˊ1쎯ㄏㄡˋ2쎯	-9.84366
ㄐㄧㄢˋ12쎯ㄉㄧㄥˋ1쎯	-9.84409
ㄈㄣ0쎯ㄅㄧㄢˋ3쎯ㄌㄩˋ2쎯	-9.84411
ㄐㄩˊ0쎯ㄐㄩˊ0쎯ㄔㄤˊ0쎯	-9.84478
ㄊㄨㄥˊ0쎯ㄓˋ1쎯	-9.84506
ㄓㄨㄣˇ0쎯ㄅㄟˋ2쎯	-9.84523
ㄙㄨˋ3쎯ㄍㄨㄥ2쎯ㄌㄨˋ5쎯	-9.84525
ㄌㄤˊ3쎯	-9.84542
ㄒㄧㄝˇ0쎯ㄗㄨㄛ0쎯	-9.84556
ㄌㄢˊ2쎯	-9.84571
ㄧㄢˊ6쎯ㄐㄧㄡ1쎯ㄩㄢˊ2쎯	-9.84691
ㄕㄨㄟˇ쎯ㄎㄨˋ0쎯	-9.84698
ㄌㄨㄢˇ쎯	-9.84746
ㄉㄡˋ0쎯ㄈㄨˇ7쎯	-9.8475
ㄕㄚˋ0쎯ㄇㄣˊ0쎯	-9.84756
ㄅㄠˇ2쎯ㄘㄨㄣˊ쎯	-9.84758
ㄧㄢˋ5쎯	-9.84787
ㄇㄧㄥˊ4쎯	-9.84799
ㄍㄠ0쎯ㄎㄜ2쎯ㄐㄧˋ2쎯	-9.84873
.쎇	-9.84878
ㄧㄥ6쎯	-9.84945
ㄍㄡˇ1쎯	-9.84982
,ㄍㄥ0쎯	-9.85019
ㄓ2쎯ㄕˋ15쎯	-9.8502
ㄇㄛˊ3쎯ㄋㄧˇ0쎯	-9.85075
ㄑㄧˊ0쎯ㄑㄩㄢˊ1쎯	-9.85093
ㄓㄨㄢˋ1쎯	-9.85111
ㄐㄧㄣˋ4쎯	-9.85137
ㄈㄨˇ0쎯	-9.85145
ㄍㄞ0쎯ㄘㄨㄣ0쎯	-9.85189
ㄅㄧˇ1쎯ㄌㄧˋ8쎯	-9.85271
//	-9.85304
ㄌㄧˊ3쎯ㄗˇ0쎯	-9.85325
ㄇㄛˊ3쎯ㄒㄧㄥˊ2쎯	-9.85338
ㄊㄜˋ0쎯ㄅㄧㄝˊ0쎯ㄕˋ15쎯	-9.85363
6쎯ㄧˊ3쎯ㄔㄨㄥˊ1쎯ㄓˊ5쎯	-9.85389
ㄧ0쎯ㄐㄧˋ3쎯ㄌㄧㄝˋ0쎯	-9.85438
ㄍㄜˋ0쎯ㄒㄧㄤˋ1쎯	-9.85508
ㄒㄧ1쎯ㄈㄤ0쎯	-9.85543
ㄈㄨˊ8쎯ㄍㄜˇ1쎯	-9.85579
ㄇㄟˇ1쎯ㄕㄨˋ0쎯ㄐㄧㄚ3쎯	-9.85611
ㄒㄧㄠˇ0쎯ㄗㄨˇ1쎯,	-9.85643
ㄈㄨˋ3쎯ㄋㄩˇ0쎯	-9.85655
ㄧˋ2쎯ㄕㄨˋ0쎯ㄐㄧㄚ3쎯	-9.8569
ㄉㄧ3쎯	-9.85692
ㄐㄧㄢ7쎯ㄔㄚˊ3쎯	-9.85719
ㄉㄨㄛ0쎯ㄐㄧㄚ3쎯	-9.85737
ㄉㄧㄥˋ0쎯	-9.85813
ㄔㄨㄥˊ1쎯ㄗˇ0쎯	-9.85817
ㄍㄨㄥ0쎯ㄔㄤˇ0쎯	-9.85835
ㄈㄨˋ8쎯ㄏㄨㄟˋ2쎯ㄔㄤˊ0쎯	-9.85844
ㄒㄧˊ1쎯	-9.85891
ㄨㄟˇ5쎯ㄩㄢˊ2쎯.	-9.85916
ㄋㄞˋ0쎯	-9.85931
ㄏㄤˊ0쎯ㄓㄥˋ3쎯ㄘㄨㄣ0쎯	-9.85938
ㄆㄧㄥˊ0쎯ㄈㄤ0쎯ㄇㄧˇ0쎯.	-9.85944
ㄣ	-9.85957
ㄨㄟˋ3쎯ㄐㄧㄥ8쎯	-9.85958
ㄈㄥ6쎯	-9.85962
ㄐㄩˋ0쎯ㄉㄚˋ쎯	-9.85984
ㄑㄧˊ7쎯	-9.86078
ㄧㄡ0쎯ㄌㄧㄤˊ0쎯	-9.86083
ㄨㄟ0쎯	-9.86124
쎆ㄋㄧㄢˊ0쎯	-9.86151
.ㄊㄤˊ0쎯	-9.86259
ㄙㄢ0쎯ㄉㄚˋ쎯	-9.86316
ㄒㄩㄝˊ1쎯ㄨㄟˋ2쎯.	-9.86395
ㄉㄚˋ쎯ㄅㄨˋ4쎯ㄈㄣ0쎯	-9.86407
ㄒㄩㄣˊ4쎯ㄏㄨㄢˊ0쎯	-9.86472
ㄌㄧˋ8쎯ㄖㄨˊ0쎯	-9.86493
ㄌㄧˋ6쎯ㄧㄚˋ1쎯	-9.86499
ㄎㄢ1쎯ㄉㄠˋ0쎯	-9.86568
쎀.쎀	-9.86571
ㄏㄠˋ0쎯	-9.86584
ㄐㄧㄣˋ2쎯	-9.86637
ㄨˇ0쎯ㄋㄧㄢˊ0쎯	-9.86681
ㄅㄢ2쎯	-9.86694
ㄕˋ15쎯ㄈㄡˇ0쎯	-9.86698
ㄓㄨㄤˋ1쎯,	-9.86792
ㄘˊ1쎯	-9.8681
ㄑㄧㄡˊ2쎯ㄉㄨㄟˋ0쎯	-9.86868
쎁쎉쎇쎀ㄋㄧㄢˊ0쎯	-9.86898
ㄒㄧㄠˋ3쎯ㄌㄩˋ2쎯	-9.86913
ㄧ4쎯ㄐㄩ4쎯	-9.8692
.ㄘㄨㄥˊ0쎯	-9.87005
ㄍㄢˇ3쎯ㄐㄧㄠˋ1쎯	-9.87065
ㄅㄤˋ1쎯	-9.87104
ㄌㄧㄥˊ0쎯ㄖㄣˊ0쎯	-9.87127
ㄐㄧㄣˋ0쎯ㄔㄥˊ7쎯	-9.87209
쎁쎉쎇쎆ㄋㄧㄢˊ0쎯	-9.87213
ㄉㄚˋ쎯ㄒㄩㄝˊ1쎯ㄕㄥ1쎯	-9.87295
쎇쎄	-9.87358
쎇쎀쎀	-9.87398
ㄒㄩㄝˊ1쎯ㄐㄧㄚ3쎯	-9.87441
쎀×	-9.87469
ㄓㄣ0쎯	-9.8748
ㄊㄧㄢ0쎯ㄐㄧㄣ4쎯ㄕˋ4쎯	-9.87514
쎇-	-9.87624
ㄘˊ3쎯	-9.8765
쎈ㄋㄧㄢˊ0쎯	-9.87698
ㄅㄧㄢˋ1쎯ㄐㄧㄝˊ4쎯	-9.8773
ㄔㄜ0쎯ㄓㄢˋ2쎯	-9.87744
ㄅㄨˋ0쎯ㄏㄨㄟˋ2쎯	-9.87754
ㄓˋ11쎯ㄏㄨㄟˋ11쎯	-9.87767
ㄇㄧㄥˊ0쎯ㄨㄟˊ0쎯	-9.87918
ㄆㄛˋ0쎯ㄏㄨㄞˋ쎯	-9.87953
.ㄇㄨˋ1쎯ㄑㄧㄢˊ0쎯	-9.87986
ㄧㄥˊ2쎯	-9.88029
ㄐㄧˇ4쎯	-9.88068
ㄗㄨㄛˋ2쎯ㄔㄨ0쎯	-9.88118
-쎃	-9.88134
ㄗㄢˋ0쎯	-9.88158
ㄔㄥˊ0쎯ㄐㄧㄡˋ4쎯	-9.88201
ㄕˋ3쎯ㄐㄧㄝˋ3쎯ㄕㄤˇ0쎯	-9.8821
ㄇㄠˊ2쎯	-9.88212
ㄒㄧㄝˊ0쎯ㄆㄧㄢ0쎯	-9.88315
ㄌㄧㄥˊ5쎯	-9.88342
ㄓㄜˋ0쎯ㄌㄧˇ2쎯	-9.88417
ㄅㄥˋ0쎯	-9.88432
ㄏㄨㄟˋ5쎯ㄏㄨㄚˋ1쎯	-9.88455
ㄧㄢˋ8쎯	-9.88461
ㄐㄧˊ2쎯ㄐㄧㄠ6쎯ㄕ2쎯	-9.88464
,ㄐㄧㄡˋ4쎯	-9.88518
ㄗㄨㄟˋ0쎯ㄏㄠˇ0쎯	-9.88535
ㄌㄧㄝˋ3쎯	-9.88599
ㄏㄤˋ0쎯	-9.88776
,ㄋㄥˊ쎯	-9.88785
ㄒㄩㄥˊ0쎯ㄏㄡˋ1쎯	-9.8879
ㄉㄤˇ1쎯ㄩㄢˊ2쎯,	-9.88795
ㄊㄨㄟ0쎯ㄐㄧㄣˋ0쎯	-9.88805
ㄒㄧㄝˊ1쎯ㄧˋ4쎯	-9.88857
ㄆㄧㄥˊ0쎯ㄏㄥˊ2쎯	-9.88885
ㄗˋ0쎯ㄨㄛˇ쎯	-9.88886
ㄉㄤˋ0쎯	-9.88901
ㄓㄨˇ0쎯ㄅㄢˋ0쎯	-9.88902
ㄈㄨˋ14쎯	-9.88914
ㄎㄜ2쎯、	-9.88938
ㄐㄧㄤ0쎯ㄋㄚ1쎯	-9.89004
ㄍㄨㄥ2쎯ㄢ0쎯	-9.89009
ㄊㄧ2쎯	-9.8904
ㄠ0쎯	-9.89075
,ㄗˋ1쎯	-9.89082
ㄏㄞˇ0쎯ㄐㄩㄣ0쎯	-9.89195
,ㄉㄤ0쎯	-9.89217
ㄧㄡ3쎯ㄐㄧㄡˇ1쎯	-9.89217
ㄘㄨㄟˋ0쎯	-9.89235
ㄍㄜˊ3쎯	-9.89286
ㄍㄠ0쎯ㄒㄧㄣ5쎯ㄐㄧˋ2쎯	-9.893
ㄏㄠˋ1쎯	-9.89304
ㄙ0쎯ㄈㄚˇ0쎯	-9.89344
ㄒㄧㄝˊ1쎯ㄓㄨˋ0쎯	-9.89369
ㄩㄢˊ1쎯ㄡ0쎯	-9.89411
ㄑㄩ2쎯	-9.89465
ㄆㄢ0쎯	-9.89483
ㄆㄧㄥˊ4쎯	-9.89533
ㄈㄥ1쎯ㄒㄧㄢˇ1쎯	-9.89537
ㄈㄟ0쎯ㄏㄤˊ0쎯	-9.89594
ㄈㄥˊ0쎯	-9.89609
ㄍㄢˋ0쎯	-9.89614
ㄖㄣˇ0쎯	-9.89618
,ㄓㄨㄥ0쎯ㄍㄨㄥˋ0쎯	-9.89645
ㄍㄨㄢ0쎯ㄐㄧㄢˋ13쎯	-9.89673
ㄏㄨ0쎯	-9.89727
쎅.	-9.89754
ㄗㄨㄟˋ0쎯ㄐㄩˋ2쎯	-9.89774
ㄨㄟˇ4쎯	-9.89816
ㄓㄨˋ10쎯	-9.89846
ㄇㄧㄥˋ쎯ㄇㄧㄥˊ0쎯	-9.89847
,ㄘˇ0쎯	-9.89902
ㄉㄨㄛˊ0쎯	-9.89913
ㄈㄚ쎯ㄇㄧㄥˊ1쎯	-9.89981
ㄗˋ0쎯ㄓㄨˇ0쎯	-9.90031
ㄒㄧㄢˊ0쎯	-9.90064
ㄓㄜˇ0쎯.	-9.90104
ㄅㄣ0쎯	-9.90177
ㄓㄨㄛˊ2쎯	-9.90196
ㄐㄧㄣˋ0쎯ㄒㄧㄡ1쎯	-9.90223
ㄉㄨㄥˋ0쎯ㄇㄢˋ1쎯	-9.90244
ㄌㄨˋ3쎯ㄏㄨㄚˋ0쎯	-9.90346
▁̇ㄉㄜ1쎯ㄈㄤ0쎯ㄈㄚˇ0쎯	-9.90354
ㄏㄨㄚˋ1쎯ㄇㄧㄢˋ0쎯	-9.90362
ㄈㄤˇ1쎯	-9.90367
ㄐㄧ6쎯、	-9.90459
ㄧ3쎯ㄕ2쎯	-9.90486
▁̇ㄉㄜ1쎯ㄑㄧˇ2쎯ㄧㄝˋ0쎯	-9.90512
ㄌㄟˋ2쎯ㄕˋ6쎯	-9.90534
ㄕㄢ0쎯ㄒㄧㄢˋ0쎯	-9.9058
ㄒㄧ1쎯ㄘㄤˊ쎯	-9.90583
ㄌㄧˇ3쎯ㄋㄧㄢˋ0쎯,	-9.90586
ㄉㄧㄢˋ0쎯ㄑㄧˋ7쎯	-9.90589
ㄓㄨㄥ0쎯ㄨㄣˊ0쎯ㄇㄧㄥˊ0쎯	-9.90641
ㄌㄧˇ3쎯ㄐㄧㄝˇ1쎯	-9.90687
ㄧˊ2쎯	-9.90819
ㄈㄟ0쎯ㄐㄧ6쎯	-9.90836
.쎁쎂	-9.90844
ㄆㄧㄣˋ0쎯	-9.90848
ㄈㄣ0쎯ㄍㄨㄢˇ1쎯	-9.90884
ㄧ0쎯ㄐㄧㄚ3쎯	-9.90892
ㄒㄧㄝˊ2쎯	-9.90904
ㄍㄤ0쎯	-9.90924
ㄌㄧㄠˊ1쎯	-9.90956
,ㄧ0쎯ㄅㄢ2쎯	-9.90958
ㄉㄤˋ1쎯	-9.90967
ㄊㄨˇ1쎯	-9.90972
ˇ3쎯	-9.91004
ㄈㄣ0쎯ㄏㄨㄟˋ2쎯	-9.91014
ㄗㄨㄛ0쎯ㄩㄥˋ0쎯.	-9.91026
ㄜˋ2쎯	-9.9103
ㄗㄨㄟˋ0쎯ㄓㄨㄥ2쎯	-9.91072
ㄇㄨˇ0쎯ㄑㄧㄣ2쎯	-9.91082
쎄ㄋㄧㄢˊ0쎯	-9.91107
ㄐㄧˋ12쎯	-9.91124
ㄆㄟˋ2쎯ㄍㄜˇ1쎯	-9.91128
.ㄒㄧㄢˋ1쎯ㄨㄟˊ0쎯	-9.91145
ㄋㄟˋ쎯ㄎㄜ2쎯	-9.91183
ㄌㄧㄢˇ1쎯	-9.91214
ㄌㄨㄛˊ0쎯ㄇㄚˇ0쎯	-9.91236
쎅쎀ㄎㄜˋ0쎯	-9.9136
ㄒㄧㄚˋ0쎯ㄒㄧㄚˊ5쎯	-9.91397
ㄌㄧㄣˊ6쎯	-9.91533
쎅ㄍㄨㄥ2쎯ㄌㄧˇ2쎯	-9.91537
ㄒㄩㄥ1쎯ㄉㄧˋ0쎯	-9.91552
ㄉㄧˋ3쎯ㄧ0쎯ㄍㄜˇ0쎯	-9.91567
.ㄉㄢˋ2쎯	-9.91583
ㄍㄨㄥ2쎯ㄩㄢˊ0쎯	-9.9159
ㄊㄨˊ2쎯	-9.91609
ㄅㄨˋ0쎯ㄉㄜˊ0쎯	-9.91612
ㄌㄧㄥˋ0쎯	-9.9163
ㄢ2쎯	-9.91705
ㄔㄨㄤ0쎯ㄌㄧˋ3쎯	-9.91732
ㄎㄨㄥ0쎯ㄉㄧㄠˋ2쎯	-9.91734
ㄔㄨㄣ0쎯ㄑㄧㄡ1쎯	-9.91749
ㄎㄡˋ1쎯	-9.91751
ㄌㄜˋ0쎯ㄉㄨㄟˋ0쎯	-9.9181
ㄈㄚˇ0쎯ㄍㄨㄟ2쎯	-9.91847
쎁쎉쎇쎅ㄋㄧㄢˊ0쎯	-9.91878
ㄧㄚˊ2쎯	-9.91879
ㄉㄨㄛ0쎯ㄋㄧㄢˊ0쎯ㄌㄞˊ0쎯	-9.91903
ㄎㄨㄞˋ1쎯ㄌㄜˋ0쎯	-9.91956
ㄔㄨㄢˊ0쎯》	-9.92093
▁̇ㄉㄜ1쎯ㄗㄨㄛ0쎯ㄆㄧㄣˇ쎯	-9.92137
쎁쎂쎈	-9.92174
,ㄑㄩㄝˋ0쎯	-9.92191
쎁쎉쎆쎈ㄋㄧㄢˊ0쎯	-9.92198
ㄩㄣˊ1쎯	-9.92217
ㄐㄧㄢ8쎯ㄖㄣˊ3쎯	-9.92269
ㄑㄩˋ1쎯	-9.92277
ㄕㄥ1쎯ㄩˋ3쎯	-9.92301
ㄉㄚˋ쎯ㄌㄧㄢˊ0쎯	-9.92303
ㄏㄤˊ0쎯ㄉㄨㄥˋ0쎯	-9.92337
ㄋㄧㄤˊ쎯	-9.92406
ㄔㄤˊ1쎯ㄕㄤˇ0쎯	-9.92521
ㄓㄠˋ0쎯	-9.92598
ㄉㄧˋ3쎯쎂	-9.92673
ㄓ0쎯ㄓㄨㄥ0쎯	-9.927
ㄗㄨㄥˇ0쎯ㄅㄨˋ4쎯	-9.92739
ㄔㄨ1쎯ㄓㄨㄥ0쎯	-9.92774
ㄔㄤˊ0쎯ㄕㄚ2쎯	-9.92786
ㄘˊ5쎯	-9.92834
ㄒㄧㄠ0쎯	-9.92869
ㄧㄠˋ2쎯	-9.92884
ㄐㄧㄚ3쎯ㄗㄨˊ1쎯	-9.92902
ㄐㄧ12쎯ㄧㄣ0쎯	-9.92917
ㄉㄚˋ쎯ㄏㄨㄟˋ2쎯	-9.92944
ㄙㄢˇ1쎯ㄨㄣˊ0쎯	-9.92968
,ㄍㄨㄥ2쎯ㄙ0쎯	-9.93025
ㄕˊ4쎯ㄨˋ3쎯	-9.93145
ㄕˊ0쎯ㄅㄚ0쎯	-9.93173
ㄌㄧˇ	-9.9319
ㄙˇ쎯ㄨㄤˊ0쎯	-9.93202
,ㄒㄧㄢˋ1쎯ㄗㄞˋ1쎯	-9.93214
ㄔㄨㄤ0쎯ㄧˋ18쎯	-9.93266
ㄌㄧˋ0쎯ㄗ2쎯ㄩㄢˊ9쎯	-9.933
ㄘㄨㄛˋ1쎯ㄕ5쎯	-9.93309
ㄧㄠ3쎯	-9.93344
ㄒㄧㄥˋ1쎯ㄈㄨˊ12쎯	-9.93361
ㄍㄞˇ쎯ㄨㄟˊ0쎯	-9.93371
.”《	-9.93372
ㄐㄧˋ1쎯ㄓㄜˇ0쎯	-9.93399
ㄏㄨㄟˊ0쎯:“	-9.93442
ㄧㄢˋ4쎯	-9.93469
,ㄑㄧㄝˇ쎯	-9.93503
ㄉㄧㄢˋ0쎯ㄌㄨˋ5쎯	-9.93503
ㄤˊ0쎯	-9.93572
쎂ㄋㄧㄢˊ0쎯	-9.93614
ㄒㄧ6쎯ㄕㄥ3쎯	-9.93622
ㄓㄞˊ쎯	-9.93653
ㄇㄧˊ0쎯	-9.93685
ㄏㄠˊ2쎯ㄏㄨㄚˊ1쎯	-9.93718
ㄅㄣˇ0쎯ㄆㄧㄣˇ쎯	-9.93724
쎁쎉쎅쎅ㄋㄧㄢˊ0쎯	-9.93793
ㄐㄧㄠ6쎯ㄕㄡˋ2쎯.	-9.93817
ㄗㄞˋ1쎯ㄒㄧㄢˋ3쎯	-9.93894
ㄐㄧㄢˋ2쎯ㄧˋ4쎯	-9.93921
ㄆㄧˊ6쎯ㄌㄧㄣˊ0쎯	-9.9395
ㄍㄨㄢˋ2쎯	-9.93995
ㄐㄧˇ0쎯	-9.9402
ㄐㄧㄤˇ1쎯.	-9.94022
ㄏㄠˊ1쎯	-9.94032
쎂쎀ㄕˋ3쎯ㄐㄧˇ1쎯	-9.94098
ㄈㄨˋ0쎯ㄇㄨˇ0쎯	-9.94111
ㄉㄧˋ0쎯	-9.94151
ㄗㄠˇ4쎯	-9.94155
쎁쎉쎆쎀ㄋㄧㄢˊ0쎯	-9.94166
ㄘㄨˋ0쎯	-9.94173
ㄒㄧㄠˋ3쎯ㄧˋ15쎯	-9.9423
ㄘㄥˊ0쎯ㄘˋ0쎯	-9.94242
ㄖㄣˋ1쎯	-9.94254
.ㄑㄧˊ1쎯ㄓㄨㄥ0쎯	-9.94288
ㄈㄚ쎯ㄉㄚˊ1쎯	-9.94325
ㄕㄣ2쎯ㄈㄣˋ0쎯	-9.94334
ㄇㄟˊ3쎯	-9.9441
ㄐㄧˇ3쎯ㄋㄚ1쎯	-9.94479
ㄐㄧㄝ6쎯	-9.94483
ㄅㄧˋ2쎯	-9.94491
ㄒㄧㄤ1쎯ㄌㄧㄢˊ0쎯	-9.94503
ㄓ0쎯ㄑㄧㄢˊ0쎯	-9.94509
ㄌㄧㄥˋ0쎯ㄨㄞˋ쎯	-9.94539
ㄉㄥ1쎯ㄐㄧˋ1쎯	-9.94594
ㄔㄣˋ1쎯“	-9.946
ㄊㄨˊ0쎯ㄒㄧㄤˋ3쎯	-9.94608
ㄓㄨˋ0쎯ㄌㄧˇ3쎯	-9.94627
ㄒㄧㄡˋ2쎯	-9.94686
ㄐㄧㄥˋ5쎯	-9.94688
쎇ㄋㄧㄢˊ0쎯	-9.94702
ㄉㄚˋ쎯ㄕㄚˋ0쎯	-9.94707
ㄙㄢ0쎯ㄕˊ0쎯	-9.9471
ㄠˋ3쎯ㄉㄚˋ쎯ㄌㄧˋ6쎯	-9.94713
ㄐㄧㄝ0쎯ㄋㄥˊ쎯	-9.94752
ㄕㄤˇ0쎯ㄒㄧㄚˋ0쎯	-9.94866
ㄧˊ	-9.9494
ㄌㄧˋ4쎯	-9.94957
ㄕㄜˋ4쎯	-9.94964
ㄧㄡˋ4쎯	-9.9503
ㄑㄧˊ1쎯ㄕˊ3쎯	-9.95065
ㄓㄥˋ1쎯ㄓㄡ1쎯	-9.95069
ㄌㄧㄡˊ3쎯ㄉㄨㄥˋ0쎯	-9.95072
,ㄐㄧㄥ2쎯	-9.95086
ㄔㄤˊ0쎯ㄉㄨˋ2쎯	-9.9511
ㄇㄧㄥˊ1쎯ㄉㄞˋ0쎯	-9.95122
ㄆㄧㄥˊ0쎯ㄇㄧㄢˋ0쎯	-9.95159
ㄍㄨㄛˊ0쎯ㄧㄡˇ1쎯	-9.95211
ㄎㄨㄤˊ0쎯	-9.95225
ㄧㄢˋ2쎯	-9.95226
ㄕˊ0쎯ㄌㄧㄡˋ0쎯	-9.9527
ㄈㄨˋ8쎯ㄕㄨ0쎯ㄐㄧˋ1쎯、	-9.95272
ㄐㄧㄥˋ2쎯ㄓㄥ1쎯	-9.9532
ㄒㄧㄢˇ0쎯ㄓㄨˋ7쎯	-9.9533
ㄅㄞˊ0쎯ㄊㄤˊ5쎯	-9.95332
ㄍㄠ2쎯	-9.95334
ㄑㄩ3쎯	-9.95352
ㄐㄧ6쎯ㄓˋ3쎯	-9.95392
ㄕˋ15쎯ㄧ0쎯ㄙㄨㄛˇ0쎯	-9.95411
ㄗㄨ0쎯	-9.95442
ㄕㄥ2쎯ㄧㄣ4쎯	-9.95446
ㄇㄞˋ0쎯	-9.95459
,ㄅㄚˇ0쎯	-9.95469
ㄓˇ4쎯ㄉㄧㄥˋ1쎯	-9.95494
쎈.	-9.95506
ㄓˇ4쎯ㄅㄧㄠ0쎯	-9.95626
ㄏㄨ1쎯ㄒㄧ2쎯	-9.95668
ㄓ7쎯ㄉㄠˋ3쎯	-9.95711
ㄖㄣˊ0쎯ㄍㄨㄥ0쎯	-9.95735
▁̇ㄉㄜ1쎯ㄕㄥ1쎯ㄔㄢˇ0쎯	-9.95788
ㄑㄩㄢˊ0쎯ㄨㄟ1쎯	-9.95825
ㄩㄣˋ0쎯	-9.95828
ㄌㄢˋ0쎯	-9.95854
ㄑㄧㄠ1쎯	-9.95872
ㄎㄨㄛˋ2쎯	-9.95879
.ㄨㄟˋ2쎯ㄩˊ0쎯	-9.95921
,ㄒㄧㄥˊ1쎯ㄔㄥˊ0쎯	-9.95932
ㄐㄧ0쎯ㄏㄨ0쎯	-9.95932
(쎁)	-9.96017
ㄔㄣˋ1쎯ㄏㄠˊ0쎯.	-9.96046
ㄈㄨˊ11쎯ㄕㄜˋ3쎯	-9.96054
ㄐㄧㄣˋ0쎯ㄕˋ0쎯	-9.96075
ㄒㄧㄤ0쎯ㄓㄥˋ3쎯ㄈㄨˇ3쎯	-9.96094
쎁쎈쎀	-9.96102
-쎅	-9.96105
쎇.	-9.96112
쎁쎉쎅쎇ㄋㄧㄢˊ0쎯	-9.96122
ㄍㄨㄟ1쎯	-9.96142
ㄘㄞˊ2쎯ㄐㄧㄥ2쎯	-9.96154
ㄐㄧㄡˋ4쎯ㄧㄝˋ0쎯	-9.96194
ㄍㄞˇ쎯ㄗㄠˋ2쎯	-9.96234
ㄐㄧㄚ3쎯ㄐㄩˋ2쎯	-9.96277
ㄉㄨㄣ0쎯	-9.96318
쎁쎉쎅쎀ㄋㄧㄢˊ0쎯	-9.96349
ㄕㄨ0쎯ㄓㄨㄥ0쎯	-9.96372
,ㄈㄤˋ쎯ㄖㄨˋ0쎯	-9.96376
ㄐㄧㄝˋ1쎯	-9.96395
ㄕㄨ3쎯	-9.96399
,ㄕˋ15쎯ㄧ0쎯ㄐㄧㄚ3쎯	-9.9642
ㄈㄤˋ쎯ㄗㄞˋ1쎯	-9.96422
ㄍㄨㄟˋ0쎯	-9.96425
ㄏㄢˋ0쎯ㄩˇ6쎯	-9.96513
ㄒㄧㄚˋ0쎯ㄗㄞˇ1쎯	-9.96586
ㄌㄧㄤˇ0쎯ㄘㄜˋ2쎯	-9.96596
ㄕㄡˇ2쎯ㄉㄡ0쎯	-9.96628
ㄨㄟˇ1쎯	-9.96637
ㄉㄥˋ0쎯	-9.96693
ㄧ0쎯ㄉㄞˋ1쎯	-9.96751
ㄍㄨㄥ2쎯ㄩˋ12쎯	-9.96757
():	-9.96764
ㄔㄨㄣˊ1쎯	-9.96781
ㄘㄠˊ1쎯	-9.9679
ㄓㄨˋ3쎯ㄔㄨㄥˊ2쎯	-9.96852
ㄖㄢˊ1쎯	-9.9698
ㄈㄣ0쎯ㄌㄧˊ3쎯	-9.97011
ㄆㄛ2쎯	-9.97055
ㄨㄤˇ0쎯ㄕㄤˇ0쎯	-9.97069
ㄔㄨㄟ0쎯	-9.97078
ㄧㄡ1쎯	-9.97086
쎇ㄩㄝˋ0쎯ㄘㄢ0쎯ㄐㄧㄚ0쎯	-9.97092
ㄌㄡˋ1쎯	-9.97098
쎀-	-9.971
ㄊㄡˋ쎯ㄇㄧㄥˊ1쎯	-9.97117
ㄩㄢˊ4쎯ㄗㄜˊ0쎯	-9.97147
ㄗㄞˇ0쎯	-9.97163
ㄇㄢˋ2쎯ㄒㄧㄥˋ2쎯	-9.9717
ㄑㄧㄣ1쎯	-9.97171
):	-9.9718
ㄏㄣˇ0쎯ㄉㄚˋ쎯	-9.97285
,ㄧㄣ0쎯ㄨㄟˊ0쎯	-9.97401
ㄧㄥˊ7쎯ㄉㄜˊ0쎯	-9.97413
ㄊㄨˇ0쎯ㄖㄤˇ0쎯	-9.9742
ㄍㄢ1쎯ㄙㄨˋ1쎯ㄕㄥˇ0쎯	-9.97461
ㄔㄤˊ4쎯ㄨㄟˇ5쎯ㄏㄨㄟˋ2쎯	-9.97482
쎁쎉쎅쎂ㄋㄧㄢˊ0쎯	-9.97487
ㄧㄢˋ10쎯	-9.97558
ㄐㄧˊ1쎯ㄌㄧㄣˊ1쎯ㄕㄥˇ0쎯	-9.97562
ㄧˇ3쎯	-9.97581
ㄇㄧㄢˋ0쎯ㄐㄧ11쎯쎄	-9.97583
ㄉㄚˋ쎯ㄉㄨㄟˋ0쎯	-9.97608
ㄐㄧㄢˋ2쎯ㄗㄠˋ2쎯	-9.97621
ㄒㄧㄤ1쎯ㄧㄥ0쎯	-9.97629
쎂쎀쎁쎁	-9.97637
ㄘㄨㄥˊ1쎯ㄕㄨ0쎯	-9.97638
ㄈㄨˊ8쎯	-9.97687
ㄨˇ2쎯	-9.97751
ㄖㄨㄥˊ4쎯ㄌㄧㄤˊ3쎯:	-9.97782
ㄐㄧㄝˊ4쎯	-9.97832
ㄅㄢˋ0쎯ㄈㄚˇ0쎯	-9.979
ㄍㄨㄢˋ3쎯	-9.97935
ㄜ	-9.97942
ㄉㄡˋ2쎯ㄕㄨ0쎯	-9.97968
ㄨㄟˋ7쎯	-9.98003
ㄨㄟˊ5쎯	-9.98005
ㄈㄡˇ0쎯	-9.98048
ㄒㄧㄤˋ3쎯ㄙㄨˋ2쎯	-9.98064
ㄕㄡˋ2쎯ㄩˊ1쎯	-9.98094
ㄒㄧㄚˊ3쎯	-9.98096
ㄇㄨˋ10쎯	-9.98107
ㄖㄨㄥˊ9쎯ㄍㄜˇ1쎯	-9.98156
ㄐㄧㄣˋ0쎯ㄎㄡˇ쎯	-9.9816
ㄚ0쎯ㄦˇ0쎯	-9.98191
ㄗㄤˋ0쎯	-9.98219
쎁쎉쎆쎉ㄋㄧㄢˊ0쎯	-9.9823
ㄩˋ16쎯	-9.98255
ㄧㄡˇ1쎯ㄒㄧㄝ0쎯	-9.98256
ㄒㄧㄥˊ2쎯ㄏㄠˊ0쎯	-9.98269
ㄒㄧㄢˋ1쎯ㄔㄤˊ1쎯	-9.98335
ㄋㄨˋ0쎯	-9.98358
ㄕㄠˇ쎯ㄋㄩˇ0쎯	-9.98373
ㄅㄨˋ4쎯、	-9.98446
,ㄋㄚ1쎯	-9.9846
ㄧㄤˊ2쎯ㄍㄨㄤ0쎯	-9.98469
ㄧˇ1쎯ㄧㄡˇ1쎯	-9.98493
ㄌㄨㄥˋ0쎯	-9.98507
ㄒㄧㄣ0쎯ㄌㄧˇ3쎯ㄒㄩㄝˊ1쎯	-9.98574
ㄓㄨˇ0쎯ㄖㄣˊ3쎯,	-9.98574
ㄒㄧㄢˋ3쎯ㄌㄨˋ5쎯	-9.98625
ㄍㄨㄟ2쎯ㄌㄩˋ0쎯	-9.98702
ㄔㄨㄢˊ0쎯ㄐㄧ9쎯	-9.98776
ㄔㄨ0쎯ㄗˋ0쎯	-9.98785
ㄔㄣˊ2쎯	-9.98849
ㄏㄨㄢ0쎯	-9.98875
ㄕㄥ1쎯ㄘㄨㄣˊ쎯	-9.9889
쎁쎆쎀	-9.98922
,ㄏㄠˊ0쎯	-9.99007
ㄅㄧㄢˋ0쎯ㄔㄥˊ0쎯	-9.99039
ㄒㄩㄣˊ2쎯	-9.99053
ㄒㄧㄣˋ0쎯ㄩㄥˋ0쎯	-9.99063
ㄅㄧㄢˋ3쎯	-9.99065
ㄨˇ7쎯ㄊㄞ0쎯	-9.99073
ㄨㄟˇ5쎯ㄏㄨㄟˋ2쎯	-9.99137
,ㄍㄨㄥˋ0쎯	-9.99251
ㄒㄧㄥˋ2쎯ㄏㄜˊ2쎯	-9.99254
ㄕˋ4쎯ㄐㄧˊ2쎯	-9.99292
ㄘˋ2쎯	-9.99294
ㄘㄨˋ1쎯	-9.99295
ㄕㄤ1쎯ㄅㄧㄠ0쎯	-9.99297
ㄕˋ16쎯ㄧˊ3쎯	-9.99332
ㄕˋ8쎯ㄨˋ2쎯	-9.9938
ㄇㄛˊ3쎯ㄈㄢˋ3쎯	-9.99392
ㄐㄩˊ1쎯	-9.99452
ㄔˊ5쎯	-9.9946
쎈쎉	-9.99468
ㄔㄨ0쎯ㄊㄨˇ0쎯	-9.99488
ㄗㄥ0쎯ㄔㄤˊ0쎯	-9.99586
ㄏㄨㄥˊ3쎯	-9.996
ㄧˋ18쎯ㄕˊ2쎯	-9.99675
ㄕㄣˊ1쎯ㄅㄧˋ7쎯	-9.99715
ㄒㄧㄢˋ0쎯ㄓㄥˋ3쎯ㄈㄨˇ3쎯	-9.99752
쎂쎀쎀쎈	-9.99866
ㄕˋ20쎯ㄧˋ1쎯	-9.99891
ㄔㄢˊ0쎯ㄩㄢˊ0쎯	-9.99892
ㄩˋ4쎯	-9.99909
ㄘㄢ1쎯ㄊㄧㄥ0쎯	-9.99912
ㄘㄨㄣ0쎯、	-9.99928
ㄍㄡˋ0쎯ㄗㄠˋ2쎯	-9.99946
ㄨㄥ0쎯	-9.9996
ㄑㄧㄢ5쎯	-9.99977
▁̇ㄌㄜ쎯“	-9.99983
ㄇㄥˇ0쎯	-9.99996
ㄑㄩㄢˇ0쎯	-10
쎈ㄍㄜˇ0쎯	-10.0001
ㄓㄤ	-10.0004
ㄎㄜ8쎯	-10.001
ㄘˊ2쎯	-10.0011
쎁쎉쎇쎂ㄋㄧㄢˊ0쎯	-10.0013
ㄔㄨ1쎯ㄐㄧˊ2쎯	-10.0017
ㄔˊ4쎯ㄒㄩˋ6쎯	-10.0017
쎃쎀쎀쎀	-10.0017
ㄧㄡˇ1쎯《	-10.0025
▁̇ㄉㄜ0쎯ㄊㄧㄝˇ쎯	-10.0026
쎁쎉쎆쎆ㄋㄧㄢˊ0쎯	-10.0027
ㄑㄧㄥ5쎯ㄏㄨㄚˊ1쎯	-10.0032
쎁쎉쎄쎉ㄋㄧㄢˊ0쎯	-10.0033
ㄅㄞˇ0쎯ㄋㄧㄢˊ0쎯	-10.0041
ㄐㄩ3쎯ㄌㄜˋ0쎯ㄅㄨˋ4쎯.	-10.0042
ㄏㄨㄞˋ쎯	-10.0045
ㄏㄨㄣˊ1쎯	-10.0046
ㄒㄧˊ2쎯	-10.0048
ㄒㄧㄥˋ1쎯	-10.0049
ㄈㄤˇ0쎯	-10.0051
ㄕˋ9쎯	-10.0053
ㄍㄨㄟˋ1쎯ㄓㄡ1쎯ㄕㄥˇ0쎯	-10.0053
ㄉㄠˋ4쎯	-10.0054
ㄕㄢˋ	-10.0061
ㄌㄞˊ0쎯ㄩㄢˊ9쎯	-10.0062
ㄦˊ1쎯ㄑㄧㄝˇ쎯	-10.0067
ㄓㄨㄥ0쎯ㄒㄧㄣ0쎯、	-10.0072
ㄊㄞˋ0쎯ㄆㄧㄥˊ0쎯	-10.0079
ㄧ0쎯ㄉㄨㄢˋ0쎯	-10.008
ㄌㄨˋ16쎯	-10.0083
ㄍㄨㄥ0쎯ㄋㄨㄥˊ0쎯	-10.0083
ㄐㄧ0쎯ㄍㄜˇ0쎯	-10.0084
ㄒㄧㄢˋ1쎯ㄨㄟˊ0쎯	-10.009
ㄧ0쎯ㄓˋ7쎯	-10.0091
ㄧ0쎯ㄆㄧ0쎯	-10.0093
ㄔㄣˊ6쎯	-10.0094
쎆쎁	-10.0096
ㄏㄨㄢ0쎯ㄧㄥˊ0쎯	-10.0097
ㄧㄠˊ5쎯	-10.0103
ㄒㄧㄣˋ0쎯ㄒㄧ7쎯ㄏㄨㄚˋ0쎯	-10.0104
ㄏㄨㄟˋ11쎯	-10.0105
ㄧ4쎯ㄊㄨㄛ0쎯	-10.0105
쎈쎇	-10.0107
.쎂、	-10.0107
ㄍㄨㄛ0쎯ㄑㄩˋ0쎯	-10.0109
ㄧㄡ0쎯ㄏㄨㄚˋ0쎯	-10.0109
ㄍㄥˇ2쎯	-10.0114
ㄅㄨˋ0쎯ㄗㄨˊ0쎯	-10.0115
ㄍㄨㄥ0쎯ㄖㄣˊ0쎯	-10.0118
ㄔㄤˊ3쎯	-10.0119
쎉쎀쎀	-10.0131
ㄆㄟˋ2쎯ㄐㄧㄢˋ1쎯	-10.0135
ㄅㄟˇ쎯ㄈㄤ0쎯	-10.0139
ㄑㄧˇ2쎯	-10.0148
쎁쎈쎉	-10.0152
ㄎㄨㄛˋ0쎯ㄉㄚˋ쎯	-10.0152
ㄓㄨㄟ2쎯	-10.0153
쎅ㄌㄧˊ1쎯ㄇㄧˇ0쎯	-10.0154
ㄆㄧㄥˊ0쎯ㄩㄢˊ4쎯	-10.0156
쎁쎉쎅쎉ㄋㄧㄢˊ0쎯	-10.0161
ㄖㄣˊ0쎯ㄇㄧㄣˊ0쎯ㄅㄧˋ0쎯	-10.0161
ㄔㄜ0쎯ㄌㄧㄤˋ2쎯	-10.0163
ㄈㄨ	-10.0165
ㄅㄞˇ3쎯	-10.0169
ㄕ3쎯ㄍㄜ7쎯	-10.0172
ㄕㄜˋ6쎯	-10.0177
ㄐㄧˋ1쎯》	-10.0178
ㄘㄨㄣ0쎯ㄌㄧˋ9쎯ㄕㄨˇ1쎯	-10.0185
▁̇ㄉㄜ0쎯ㄉㄞˋ1쎯	-10.0187
쎉-	-10.0188
ㄎㄨㄣˋ쎯	-10.0191
▁̇ㄉㄜ0쎯ㄓˇ2쎯	-10.0194
ㄕㄨㄟˇ쎯ㄋㄧˊ1쎯	-10.0196
,ㄊㄚ0쎯ㄇㄣˊ1쎯	-10.0205
ㄅㄧㄥ1쎯ㄑㄧㄝˇ쎯	-10.0209
ㄢ0쎯ㄒㄧㄢˋ0쎯	-10.0212
”ㄉㄥˇ0쎯	-10.0217
ㄞ1쎯	-10.0218
ㄊㄤˊ0쎯ㄉㄞˋ0쎯	-10.0219
ㄉㄨㄟ쎯	-10.022
ㄓㄥˋ0쎯ㄕㄨ0쎯	-10.0223
ㄕㄨㄞˋ0쎯	-10.0227
ㄏㄨㄟˋ2쎯ㄔㄤˊ0쎯	-10.0227
ㄈㄚˊ1쎯	-10.0233
,ㄧˋ6쎯	-10.0236
ㄆㄧㄥˊ4쎯ㄐㄧㄝˋ5쎯	-10.0238
ㄊㄢˊ4쎯	-10.0249
ㄈㄚ쎯ㄕㄜˋ3쎯	-10.025
ㄠˋ3쎯	-10.0256
ㄉㄚˊ0쎯ㄧㄣˋ0쎯	-10.0257
ㄅㄨˋ0쎯ㄒㄧㄡˋ3쎯ㄍㄤ6쎯	-10.0257
ㄑㄩㄢˊ1쎯ㄕㄥˇ0쎯	-10.0257
ㄍㄢ0쎯ㄗㄠˋ4쎯	-10.0258
ㄦˇ1쎯ㄐㄧ6쎯	-10.0262
ㄘㄨㄣ0쎯ㄖㄣˊ0쎯.	-10.0268
ㄈㄤ0쎯ㄓㄣ1쎯	-10.0272
ㄍㄨㄥ5쎯ㄧㄥ0쎯	-10.0274
ㄐㄧㄠ7쎯	-10.0279
ㄑㄧㄢˊ0쎯ㄏㄡˋ0쎯	-10.0279
ㄉㄨㄢ0쎯ㄎㄡˇ쎯	-10.0281
ㄋㄚ1쎯ㄈㄤ0쎯	-10.0283
ㄉㄨㄥ0쎯ㄐㄧㄥ1쎯	-10.0285
ㄕˊ0쎯ㄙㄢ0쎯	-10.0291
ㄓㄨˇ0쎯ㄓˋ5쎯	-10.0291
쎁쎉쎅쎃ㄋㄧㄢˊ0쎯	-10.0295
ㄋㄩˇ0쎯ㄖㄣˊ0쎯	-10.0296
ㄅㄠˋ0쎯ㄉㄠˋ3쎯	-10.0299
ㄗ2쎯ㄒㄩㄣˋ1쎯	-10.03
ㄇㄧㄢˇ0쎯ㄧˋ14쎯	-10.0301
ㄐㄧㄠ0쎯ㄏㄨㄢˋ2쎯	-10.0313
ㄐㄧˊ4쎯ㄎㄜˇ0쎯.	-10.0318
ㄨㄤ0쎯	-10.0319
ㄕㄥ1쎯ㄉㄨㄥˋ0쎯	-10.0322
ㄒㄧㄥˊ1쎯ㄓㄨㄤˋ1쎯	-10.0323
ㄈㄨˇ5쎯ㄓㄨˋ0쎯	-10.033
ㄩㄝˋ6쎯	-10.0331
쎁쎉쎅쎄ㄋㄧㄢˊ0쎯	-10.0336
ㄕㄡˇ2쎯ㄐㄧㄝˋ2쎯	-10.0337
ㄒㄧㄠ2쎯ㄏㄨㄚˋ0쎯	-10.0338
ㄍㄨㄢˋ0쎯	-10.0346
▁̇ㄉㄜ1쎯ㄕㄜˋ0쎯ㄐㄧˋ0쎯	-10.0352
쎉쎂	-10.0353
ㄓㄢˇ2쎯ㄎㄞ0쎯	-10.0354
ㄧㄥ0쎯ㄍㄞ0쎯	-10.0355
ㄇㄡˇ쎯ㄒㄧㄝ0쎯	-10.0357
ㄨㄟˊ6쎯ㄕㄥ1쎯ㄙㄨˋ2쎯	-10.0357
쎁쎉쎇쎄ㄋㄧㄢˊ0쎯	-10.0358
ㄎㄞ0쎯ㄊㄚˋ0쎯	-10.0358
ㄕˋ15쎯ㄍㄜˇ0쎯	-10.0365
▁̇ㄉㄜ0쎯ㄇㄧㄢˋ0쎯	-10.0365
ㄒㄧㄚˊ1쎯	-10.0365
ㄌㄧㄣˊ1쎯ㄧㄝˋ0쎯	-10.037
ㄉㄨㄟˋ0쎯ㄔㄤˊ0쎯	-10.0374
쎁쎀-	-10.0375
ㄩㄝˋ4쎯	-10.0378
ㄒㄧㄥˋ2쎯ㄍㄜˊ2쎯	-10.0382
ㄘㄞˇ1쎯ㄙㄜˋ0쎯	-10.0383
ㄒㄧㄣ5쎯ㄐㄧㄚ0쎯ㄆㄛ0쎯	-10.0387
ㄌㄨㄛˊ1쎯	-10.0393
ㄑㄧㄥ0쎯ㄕㄠˇ쎯ㄋㄧㄢˊ0쎯	-10.0395
ㄏㄨㄛˋ2쎯ㄐㄧㄤˇ1쎯	-10.0401
ㄗㄞˋ1쎯ㄧ0쎯ㄑㄧˇ4쎯	-10.0403
ㄒㄧㄚˋ0쎯ㄕㄜˋ0쎯	-10.0403
ㄘㄞˊ1쎯ㄓˋ4쎯	-10.0404
ㄙㄚ0쎯	-10.0404
ㄐㄧㄝ4쎯ㄎㄡˇ쎯:	-10.0406
ㄧˋ18쎯ㄐㄧㄢˋ0쎯	-10.0408
ㄈㄚ쎯ㄩˋ3쎯	-10.041
ㄆㄚˋ1쎯	-10.041
ㄅㄚˋ4쎯	-10.0415
ㄍㄨˇ0쎯ㄉㄧㄢˇ0쎯	-10.0416
ㄙㄢ0쎯ㄍㄨㄛˊ0쎯	-10.0418
ㄧㄥˊ7쎯	-10.0422
ㄑㄧㄥ1쎯ㄙㄨㄥ0쎯	-10.0423
ㄐㄧㄠ6쎯ㄓˊ4쎯ㄍㄨㄥ0쎯	-10.043
ㄏㄨˊ2쎯ㄐㄧㄠ7쎯ㄈㄣˇ쎯	-10.043
ㄋㄨㄥˊ0쎯ㄗㄨㄛ0쎯ㄨˋ3쎯	-10.0435
ㄒㄩㄝˊ1쎯、	-10.0437
ㄆㄧㄣˊ1쎯ㄉㄠˋ3쎯	-10.044
ㄒㄩㄝˊ1쎯ㄇㄧㄥˊ0쎯	-10.0443
ㄑㄧㄥ5쎯ㄒㄧ10쎯	-10.0452
ㄕㄨ9쎯	-10.0453
ㄧㄥ0쎯ㄩㄥˋ0쎯ㄩˊ0쎯	-10.0453
,ㄔㄤˊ0쎯	-10.0453
ㄎㄜˇ0쎯ㄉㄚˊ1쎯	-10.0453
ㄓㄥ5쎯ㄓㄨㄤˋ1쎯	-10.0459
ㄕˋ15쎯ㄧ0쎯ㄉㄠˋ3쎯	-10.046
ㄊㄨㄟ0쎯ㄐㄧㄢˋ3쎯	-10.046
ㄘㄤ2쎯	-10.0464
,ㄐㄧㄚ0쎯ㄖㄨˋ0쎯	-10.0469
ㄩㄢˊ4쎯ㄕˇ3쎯	-10.047
ㄍㄨㄢˋ2쎯ㄇㄨˋ0쎯	-10.0476
ㄙㄤ0쎯	-10.0478
ㄆㄧㄥˊ0쎯ㄇㄧˇ0쎯	-10.048
3	-10.0483
ㄊㄨㄥ0쎯ㄉㄠˋ3쎯	-10.0483
ㄅㄨˋ1쎯ㄐㄩˊ0쎯	-10.0497
ㄎㄣˇ0쎯	-10.0497
쎅쎀쎀쎀	-10.0501
ㄈㄢˊ3쎯ㄏㄨㄚˊ1쎯	-10.0502
,ㄨㄛˇ쎯ㄇㄣˊ1쎯	-10.0505
ㄐㄧㄥˋ8쎯ㄊㄡˊ0쎯	-10.0506
ㄕㄨˇ3쎯	-10.0507
ㄢˋ2쎯ㄌㄧˋ8쎯	-10.0508
ㄍㄨㄢ1쎯ㄔㄚˊ3쎯	-10.0513
ㄔㄥˊ4쎯ㄒㄧㄢˋ0쎯	-10.0521
쎂쎂쎀	-10.0527
ㄓㄨㄢ0쎯ㄓㄨˋ7쎯	-10.0529
ㄐㄧˋ1쎯ㄧˋ3쎯	-10.053
ㄒㄧㄢˋ9쎯	-10.053
ㄍㄨㄢ1쎯ㄓㄨㄥˋ1쎯	-10.0531
ㄘㄨㄣˋ쎯	-10.0531
ㄔㄢˇ0쎯ㄌㄧㄤˊ3쎯	-10.0531
ㄏㄢˊ2쎯ㄕㄨˇ5쎯	-10.0532
ㄖㄣˊ0쎯ㄐㄩㄣ1쎯ㄍㄥ2쎯	-10.0532
ㄙㄨ0쎯ㄌㄧㄢˊ4쎯	-10.0533
ㄅㄛ0쎯	-10.0535
ㄐㄧㄝ3쎯ㄕㄨˋ1쎯	-10.0542
ㄩㄢ2쎯	-10.0551
ㄅㄟˋ6쎯	-10.0552
ㄐㄧㄠˋ4쎯ㄨㄟˊ0쎯	-10.0553
ㄆㄧㄥˊ1쎯ㄍㄨ0쎯	-10.0555
ㄈㄨˇ5쎯ㄉㄠˇ0쎯	-10.0559
ㄕㄢ5쎯	-10.0561
쎁쎉쎆쎁ㄋㄧㄢˊ0쎯	-10.0562
ㄖㄜˋ쎯ㄉㄞˋ1쎯	-10.0569
ㄌㄧˋ0쎯ㄒㄩㄝˊ1쎯	-10.0576
ㄏㄨㄢˋ0쎯	-10.0576
ㄓㄨㄢˇ쎯ㄏㄨㄢˋ2쎯	-10.058
ㄐㄧㄚ0쎯ㄖㄜˋ쎯	-10.0581
ㄙㄨㄣˇ1쎯	-10.0589
ㄅㄤˇ1쎯	-10.059
:쎃	-10.0592
ㄧˊ1쎯	-10.0597
ㄒㄩㄝˊ1쎯ㄕㄨㄛˋ1쎯ㄕˋ0쎯	-10.0597
ㄖㄢˊ0쎯ㄏㄡˋ0쎯	-10.0608
ㄓˊ4쎯ㄔㄣˋ1쎯	-10.0615
★	-10.0628
ㄇㄠˋ2쎯	-10.0631
ㄓㄨˇ0쎯ㄧㄠ4쎯ㄕˋ15쎯	-10.0631
ㄗˋ0쎯ㄓˋ5쎯ㄒㄧㄢˋ0쎯	-10.0639
쎁쎉쎇쎇ㄋㄧㄢˊ0쎯	-10.064
ㄌㄩˋ4쎯	-10.0641
ㄓㄨˋ3쎯:“	-10.0642
▁̇ㄉㄜ1쎯ㄐㄧㄥ2쎯ㄧㄥˊ5쎯	-10.0643
ㄋㄠˋ0쎯	-10.0644
ㄋㄚ0쎯ㄒㄧㄝ0쎯	-10.0648
ㄕㄡˇ2쎯ㄆㄧ0쎯	-10.0654
ㄑㄧˋ3쎯	-10.0657
ㄉㄧㄢˋ0쎯ㄌㄧㄡˊ3쎯	-10.0659
ㄌㄤˊ1쎯	-10.067
ㄕㄜˋ1쎯ㄊㄨㄢˊ0쎯	-10.067
ㄇㄧˇ0쎯.	-10.0671
ㄩㄝˋ3쎯	-10.0671
ㄎㄢ0쎯ㄨˋ3쎯	-10.0679
ㄑㄧㄥ0쎯ㄔㄨㄣ0쎯	-10.0683
ㄙˋ1쎯ㄋㄧㄢˊ0쎯	-10.0685
ㄏㄨˋ3쎯	-10.0687
ㄏㄞˇ0쎯ㄅㄚˊ0쎯쎁	-10.0687
ㄓㄜˋ0쎯ㄕˋ15쎯	-10.0697
ㄍㄨˇ2쎯ㄆㄧㄠˋ0쎯	-10.0698
(ㄒㄩㄝˊ1쎯ㄇㄧㄥˊ0쎯:)	-10.0699
쎁.쎂	-10.0709
ㄐㄧ11쎯ㄌㄟˊ0쎯	-10.0711
.ㄌㄧˋ1쎯ㄖㄣˊ3쎯	-10.0718
ㄑㄧˇ3쎯ㄉㄨㄥˋ0쎯	-10.0718
쎈쎄	-10.0728
ㄌㄧˇ2쎯,ㄏㄞˇ0쎯ㄅㄚˊ0쎯	-10.0731
ㄐㄩㄣ0쎯ㄉㄨㄟˋ0쎯	-10.0737
ㄓ0쎯ㄏㄡˋ0쎯,	-10.0738
ㄓ4쎯	-10.074
ㄑㄧㄥ2쎯	-10.0741
ㄎㄨㄣ1쎯ㄔㄨㄥˊ0쎯	-10.0742
ㄇㄛˊ7쎯ㄈㄚˇ0쎯	-10.0742
ㄕㄠˋ0쎯	-10.0748
ㄆㄛˊ0쎯	-10.0748
ㄎㄞ0쎯ㄕㄜˋ0쎯	-10.0749
ㄅㄠˋ0쎯》	-10.075
ㄌㄧˋ1쎯ㄕˇ0쎯ㄕㄤˇ0쎯	-10.075
.ㄙㄨㄥˋ1쎯	-10.0754
ㄙ4쎯ㄊㄢˇ0쎯	-10.0754
ㄧ3쎯ㄕㄥ1쎯	-10.0757
ㄉㄚˋ쎯ㄐㄧㄝ7쎯	-10.0758
ㄧ0쎯ㄉㄧㄢˇ1쎯	-10.0759
ㄋㄧㄢˊ0쎯ㄌㄧㄥˊ11쎯	-10.076
ㄆㄢˋ0쎯	-10.0762
▁̇ㄉㄜ1쎯ㄈㄤ0쎯ㄕˋ5쎯	-10.0763
.ㄐㄩ4쎯	-10.0776
ㄕˋ0쎯ㄕㄥ1쎯ㄉㄠˇ0쎯ㄕ2쎯	-10.0782
ㄗㄞˋ1쎯ㄅㄟˇ쎯ㄐㄧㄥ1쎯	-10.0785
ㄓㄨㄣˇ0쎯ㄑㄩㄝˋ1쎯	-10.0786
ㄍㄨ6쎯	-10.0786
ㄌㄢˊ0쎯ㄓㄡ1쎯	-10.0788
ㄋㄢˊ0쎯ㄗˇ0쎯	-10.0799
ㄉㄧㄝˊ4쎯	-10.0801
ㄓㄠˋ2쎯ㄆㄧㄢ0쎯	-10.0802
ㄩㄢˊ2쎯,	-10.0805
ㄌㄨㄛˋ0쎯ㄧㄤˊ2쎯	-10.0805
、ㄍㄠ0쎯	-10.0806
ㄒㄧㄢˋ5쎯	-10.0808
쎀ㄇㄧˇ0쎯,	-10.0809
쎂쎅쎀	-10.0809
ㄧㄡˇ1쎯ㄋㄨㄥˊ0쎯ㄏㄨˋ1쎯	-10.0812
ㄑㄩ2쎯ㄉㄨㄥˋ0쎯	-10.0813
ㄔㄡˊ6쎯	-10.0815
ㄠ1쎯	-10.0819
ㄕㄨㄤˇ쎯	-10.0821
ㄓㄨˇ0쎯ㄊㄧ0쎯	-10.0822
ㄔㄢˇ0쎯ㄑㄩㄢˊ0쎯	-10.0823
ㄩ	-10.0826
ㄨㄣˊ2쎯ㄇㄧㄥˊ0쎯	-10.0828
ㄗㄨㄛ0쎯ㄨˋ3쎯	-10.0831
ㄆㄨˊ2쎯	-10.0836
ㄧㄠˋ0쎯ㄆㄧㄣˇ쎯	-10.0841
ㄓㄜˋ1쎯	-10.0841
ㄍㄠ0쎯ㄉㄨㄢ0쎯	-10.0842
,ㄒㄧㄢ1쎯ㄏㄡˋ0쎯	-10.0847
,ㄑㄩㄢˊ1쎯	-10.0849
ㄉㄨㄛ0쎯ㄆㄧㄢ2쎯	-10.085
(쎁쎈	-10.0854
ㄒㄩㄝˊ1쎯ㄅㄛˊ5쎯ㄕˋ0쎯	-10.0856
ㄎㄨˋ2쎯	-10.086
ㄏㄨ3쎯	-10.0863
ㄅㄞˇ0쎯ㄒㄧㄥˋ3쎯	-10.0869
ㄍㄨㄥ2쎯ㄧˋ15쎯	-10.0874
ㄅㄨˋ0쎯ㄕㄠˇ쎯	-10.0877
ㄊㄧㄥˊ0쎯	-10.0887
ㄓㄥˋ3쎯ㄈㄚˇ0쎯	-10.0888
....	-10.089
,ㄧㄡˊ1쎯ㄩˊ0쎯	-10.089
ㄕㄚ7쎯	-10.0896
ㄒㄧˊ0쎯ㄍㄨㄢˋ1쎯	-10.09
ㄨㄟˊ0쎯ㄓㄨㄥ0쎯ㄍㄨㄛˊ0쎯	-10.0904
(쎁쎉쎀	-10.0905
ㄩㄝˋ2쎯	-10.0906
쎁쎉쎇쎃ㄋㄧㄢˊ0쎯	-10.0911
쎉쎃	-10.0911
ㄐㄩㄢ0쎯	-10.0913
▁̇ㄉㄜ1쎯ㄐㄧ12쎯ㄔㄨˇ1쎯	-10.0913
쎀쎀ㄇㄨˇ2쎯	-10.0916
ㄙㄨㄟˊ0쎯	-10.092
ㄒㄩˋ9쎯	-10.0931
ㄓㄨㄢˋ1쎯ㄒㄧㄝˇ0쎯	-10.0932
ㄍㄠ0쎯ㄉㄤˋ1쎯	-10.0932
ㄐㄩ1쎯ㄨㄟˇ5쎯ㄏㄨㄟˋ2쎯	-10.0943
ㄈㄢ1쎯	-10.0946
ㄍㄜˇ1쎯ㄐㄧㄣ3쎯	-10.0947
ㄓㄨˇ0쎯ㄖㄣˊ3쎯、	-10.0951
ㄔㄨˇ2쎯	-10.0954
ㄨㄟ0쎯ㄒㄧㄢˇ1쎯	-10.0955
ㄍㄞˋ2쎯	-10.0959
----	-10.0962
ㄐㄩㄣ1쎯ㄑㄧˋ0쎯ㄨㄣ0쎯쎁	-10.0964
ㄉㄧˋ1쎯ㄍㄨㄛˊ0쎯	-10.0967
ㄈㄨˋ10쎯	-10.0967
ㄈㄤˊ3쎯ㄨ5쎯	-10.0968
ㄔˊ2쎯	-10.097
ㄧㄝˋ3쎯ㄊㄧ0쎯	-10.0971
ㄇㄧㄥˊ1쎯ㄒㄧㄥ1쎯	-10.0972
ㄕˋ15쎯“	-10.0974
ㄗㄨㄛˋ2쎯ㄈㄚˇ0쎯	-10.0978
ㄗㄟˊ0쎯	-10.0979
ㄋㄧㄡˇ1쎯ㄧㄠ2쎯	-10.0979
ㄧㄢ3쎯	-10.098
ㄍㄨㄥ2쎯ㄕㄜˋ1쎯	-10.0983
ㄐㄧㄢ7쎯ㄘㄜˋ3쎯	-10.0985
ㄕㄠˊ0쎯	-10.0987
ㄐㄧˋ11쎯ㄔㄥˊ3쎯	-10.0988
ㄍㄨㄛ3쎯ㄓㄨㄥ0쎯	-10.099
ㄇㄢˋ2쎯	-10.0991
ㄊㄨㄢˊ0쎯ㄐㄧㄝ3쎯	-10.0994
ㄐㄧㄠˇ6쎯ㄅㄢˋ4쎯	-10.0997
ㄐㄧㄠ6쎯ㄧㄢˊ6쎯ㄕˋ18쎯	-10.1001
ㄩㄢˋ2쎯ㄔㄤˊ0쎯	-10.1003
ㄗㄨㄟˋ0쎯ㄨㄟˊ0쎯	-10.1004
ㄈㄥ7쎯	-10.1009
ㄏㄨˋ0쎯ㄉㄨㄥˋ0쎯	-10.1011
/쎂	-10.1018
ㄧ0쎯ㄅㄨˋ4쎯ㄈㄣ0쎯	-10.1018
ㄐㄧㄣˋ1쎯ㄋㄧㄢˊ0쎯	-10.1019
ㄏㄜˊ2쎯ㄆㄧㄥˊ0쎯	-10.1021
ㄓㄠˇ1쎯ㄉㄠˋ0쎯	-10.1022
ㄔㄨㄤ0쎯ㄅㄢˋ0쎯ㄩˊ0쎯	-10.1025
ㄇㄤˊ0쎯	-10.1026
ㄌㄧˋ12쎯	-10.1028
ㄈㄣ1쎯	-10.1028
ㄆㄟˊ1쎯	-10.1034
-쎆	-10.1037
ㄨㄟˋ0쎯ㄒㄧㄥ1쎯	-10.1041
ㄓ2쎯ㄧㄠ4쎯	-10.1044
:《	-10.1045
ㄍㄨㄥ2쎯ㄅㄨˋ1쎯	-10.1046
,ㄌㄧˋ1쎯ㄖㄣˊ3쎯	-10.1051
ㄑㄧˋ0쎯ㄊㄧ0쎯	-10.1052
쎂쎀쎀쎉	-10.1053
ㄓㄨㄢˇ쎯ㄧˊ7쎯	-10.1054
ㄋㄥˊ쎯ㄌㄧㄤˊ3쎯	-10.1055
ㄧㄤˇ0쎯	-10.1056
ㄧㄣˇ1쎯ㄕˊ4쎯	-10.1059
ㄐㄧㄡˋ4쎯ㄏㄨㄟˋ2쎯	-10.1061
ㄐㄧˊ8쎯ㄊㄨㄢˊ0쎯ㄧㄡˇ1쎯	-10.1067
쎇쎁	-10.1069
ㄊㄨˋ0쎯	-10.1072
ㄨㄣˇ0쎯	-10.1076
ㄈㄤˊ0쎯ㄓˇ0쎯	-10.1078
ㄍㄨ	-10.1081
ㄕㄠˋ3쎯	-10.1084
ㄌㄧㄡˋ1쎯ㄐㄩㄣ0쎯	-10.1088
ㄎㄜ4쎯ㄌㄧˋ15쎯	-10.1091
ㄈㄟ	-10.1098
ㄒㄧ2쎯ㄧㄣˇ0쎯	-10.11
ㄌㄧˇ3쎯ㄕˋ8쎯	-10.1103
ㄑㄧㄣˊ3쎯	-10.1103
ㄓˋ1쎯》	-10.1106
ㄒㄧㄥˋ2쎯、	-10.1106
ㄕㄨ0쎯ㄐㄧˊ12쎯	-10.1108
ㄩˋ10쎯	-10.1109
ㄒㄧㄢˇ0쎯ㄘㄨㄣˊ쎯	-10.1111
ㄌㄧㄡˊ8쎯	-10.1118
ㄇㄧㄢˋ0쎯ㄈㄣˇ쎯	-10.1129
ㄌㄠˋ0쎯	-10.113
ㄋㄧㄢˊ0쎯,	-10.1135
ㄎㄨ0쎯	-10.1136
ㄙㄨˊ쎯ㄔㄣˋ1쎯	-10.1136
ㄆㄧㄠ1쎯	-10.1139
쎇ㄍㄜˇ0쎯	-10.114
ㄙ3쎯ㄨㄟˊ6쎯	-10.1142
ㄏㄨㄤˊ1쎯ㄏㄜˊ3쎯	-10.1143
ㄘˊ7쎯	-10.1144
ㄊㄚ4쎯	-10.1145
ㄨㄤˇ0쎯ㄎㄚˇ0쎯	-10.1153
ㄐㄧˊ0쎯ㄕˊ1쎯	-10.1154
▁̇ㄉㄜ1쎯ㄧㄥ0쎯ㄩㄥˋ0쎯	-10.1156
ㄍㄥ0쎯ㄏㄠˇ0쎯	-10.1157
ㄧㄢˊ3쎯ㄉㄢˋ0쎯	-10.1165
ㄙㄡ0쎯ㄙㄨㄛˇ1쎯	-10.1168
ㄖㄢˊ0쎯ㄦˊ1쎯	-10.1169
ㄉㄧㄠˋ0쎯	-10.117
ㄏㄨㄚ0쎯ㄕㄥ1쎯	-10.1174
ㄆㄥˊ	-10.1174
ㄏㄨˋ2쎯ㄌㄧˇ3쎯	-10.1175
ㄉㄧˊ1쎯ㄖㄣˊ0쎯	-10.1179
ㄕ3쎯ㄘˊ0쎯	-10.1181
ㄈㄟ2쎯ㄓㄡ3쎯	-10.1182
ㄨㄣ0쎯ㄑㄩㄢˊ2쎯	-10.1196
ㄩˊ1쎯	-10.1196
ㄐㄧ6쎯ㄉㄧㄢˋ0쎯	-10.1197
쎈쎃	-10.1201
ㄑㄧˋ0쎯ㄒㄧㄤˋ2쎯	-10.1206
ㄈㄢˇ1쎯	-10.1207
ㄓㄤˋ6쎯ㄞˋ3쎯	-10.1208
ㄒㄩ	-10.121
ㄕㄨˇ5쎯ㄕˊ0쎯	-10.1213
ㄨㄤˇ2쎯ㄨㄤˇ2쎯	-10.1216
ㄐㄩㄝˊ0쎯ㄘㄜˋ4쎯	-10.1219
ㄧ0쎯ㄕㄥ1쎯	-10.1231
쎁쎉쎄쎅ㄋㄧㄢˊ0쎯	-10.1234
ㄅㄧㄝˊ0쎯ㄕㄨˋ7쎯	-10.1236
ㄇㄧㄥˊ0쎯ㄖㄣˊ0쎯	-10.1238
ㄕㄣˋ1쎯ㄓˋ0쎯	-10.1241
ㄉㄧˇ0쎯	-10.1244
ㄞˋ1쎯ㄏㄠˇ0쎯ㄓㄜˇ0쎯	-10.1245
쎁쎉쎃쎈ㄋㄧㄢˊ0쎯	-10.1249
ㄇㄣˊ0쎯ㄏㄨˋ1쎯	-10.1251
ㄧㄢˊ8쎯	-10.1251
ㄉㄢˋ6쎯ㄅㄞˊ0쎯ㄓˋ4쎯	-10.1257
ㄅㄧˋ0쎯	-10.1261
ㄍㄠ0쎯ㄨㄣ0쎯	-10.1263
ㄊㄧˋ4쎯	-10.1264
ㄐㄧㄥ3쎯	-10.1265
ㄍㄨㄥ0쎯ㄗㄨㄛ0쎯;	-10.1266
ㄒㄩㄢ0쎯	-10.1269
ㄌㄧㄡˋ0쎯ㄋㄧㄢˊ0쎯	-10.1269
ㄙㄢˇ0쎯	-10.1272
ㄧ0쎯ㄊㄠˋ쎯	-10.128
ㄧˇ2쎯ㄨㄟˊ0쎯	-10.1284
ㄐㄧㄤˇ3쎯	-10.1285
,ㄒㄧㄢˋ1쎯ㄧㄡˇ1쎯	-10.1286
ㄧ0쎯ㄓ1쎯	-10.129
ㄋㄧㄢˊ0쎯ㄉㄨˋ2쎯	-10.1292
ㄙㄨ1쎯	-10.1296
ㄍㄨㄥˋ0쎯ㄒㄧㄤˇ0쎯	-10.1297
.ㄊㄚ2쎯	-10.1301
ㄑㄩㄣˊ1쎯ㄉㄠˇ1쎯	-10.1302
ㄔㄠ4쎯ㄐㄧˊ2쎯	-10.1303
ㄘㄜˋ4쎯ㄌㄩㄝˋ1쎯	-10.1309
ㄒㄧㄤ1쎯ㄕˋ6쎯	-10.1313
ㄐㄧˊ12쎯ㄍㄨㄢˋ0쎯	-10.1313
ㄐㄧㄢˋ6쎯ㄕㄣ2쎯	-10.1314
ㄘˊ8쎯	-10.1316
ㄒㄧㄡ1쎯ㄍㄞˇ쎯	-10.1318
ㄋㄚ1쎯ㄔㄤ0쎯	-10.1318
ㄍㄨㄟˇ0쎯	-10.133
ㄧˇ2쎯ㄑㄧㄢˊ0쎯	-10.1331
ㄒㄧㄠˇ0쎯ㄇㄞˋ1쎯	-10.1336
ㄔㄤˋ0쎯	-10.1336
ㄅㄧㄢ0쎯,ㄐㄩˋ5쎯ㄌㄧˊ3쎯	-10.1337
ㄌㄠˇ0쎯ㄋㄧㄢˊ0쎯	-10.134
ㄦˊ0쎯ㄗˇ0쎯	-10.1342
ㄐㄧㄢˋ13쎯ㄆㄢˊ1쎯	-10.1342
ㄐㄧㄚˋ1쎯	-10.1342
ㄇㄧㄢˋ0쎯ㄉㄨㄟˋ1쎯	-10.1343
ㄉㄞˋ1쎯ㄌㄧㄥˇ1쎯	-10.1344
ㄓㄨㄥ0쎯ㄨㄞˋ쎯	-10.1354
ㄑㄩˊ0쎯	-10.1356
ㄌㄨˋ4쎯	-10.1357
ㄇㄧㄢˋ0쎯ㄐㄧ11쎯쎅	-10.1362
ㄜˊ5쎯	-10.1366
ㄓㄥ0쎯ㄑㄩㄝˋ1쎯	-10.1379
ㄊㄢˊ2쎯	-10.1384
ㄉㄚˋ쎯ㄓㄨㄥˋ1쎯	-10.1386
ㄓㄨㄥ0쎯ㄧㄠˋ0쎯	-10.1387
ㄕㄤˇ0쎯ㄧㄡˇ1쎯	-10.1387
ㄓ10쎯ㄈㄤˊ2쎯	-10.1388
ㄧㄝˇ0쎯ㄅㄨˋ0쎯	-10.1395
ㄐㄧㄠ6쎯ㄕˋ18쎯	-10.1396
ㄌㄧㄠˋ0쎯ㄐㄧㄡˇ5쎯	-10.14
ㄙㄡ0쎯	-10.1402
ㄒㄩㄝˊ1쎯ㄕˋ0쎯	-10.1403
쎉.	-10.1403
m2	-10.1405
,ㄘㄢ0쎯ㄐㄧㄚ0쎯	-10.1408
ㄙ4쎯·	-10.1412
ㄑㄧ1쎯	-10.1415
ㄉㄠˋ3쎯ㄉㄜˊ1쎯	-10.1419
ㄑㄧㄥˊ0쎯ㄍㄢˇ3쎯	-10.1422
ㄈㄚˇ0쎯ㄒㄩㄝˊ1쎯	-10.1423
ㄕˋ8쎯ㄍㄨˋ1쎯	-10.1424
ㄘㄨㄣ0쎯,	-10.1428
ㄔㄤˇ0쎯ㄐㄧㄚ3쎯	-10.1429
ㄓㄨㄥ0쎯ㄧ3쎯ㄧㄠˋ0쎯	-10.1434
ㄩㄢˊ2쎯、	-10.1434
ㄩㄢˊ4쎯ㄌㄞˊ0쎯	-10.1437
ㄉㄧㄢˋ2쎯	-10.1438
ㄗㄨㄛ0쎯ㄔㄨ0쎯	-10.1443
ㄔㄚ2쎯ㄘㄠˊ1쎯	-10.1445
ㄗㄨㄥˇ0쎯ㄊㄨㄥˇ0쎯	-10.1446
ㄘ0쎯ㄐㄧ18쎯	-10.1447
ㄋㄩˇ0쎯ㄏㄞˊ1쎯	-10.1447
ㄕㄣ0쎯ㄑㄧㄥˇ1쎯	-10.1447
ㄌㄥ쎯	-10.1448
ㄕˋ23쎯	-10.1449
ㄉㄨㄥˋ1쎯	-10.145
ㄆㄞˊ0쎯ㄌㄧㄝˋ0쎯	-10.1452
쎀.쎁	-10.1456
ㄏㄡˋ0쎯ㄌㄞˊ0쎯	-10.1459
:쎁.	-10.1459
ㄓㄣˋ3쎯ㄓㄥˋ3쎯ㄈㄨˇ3쎯	-10.1461
ㄒㄧㄝ0쎯	-10.1467
ㄌㄨㄥˊ0쎯ㄧㄢˊ3쎯	-10.147
ㄓㄢˇ2쎯ㄒㄧㄢˋ1쎯	-10.1474
ㄍㄨㄛˇ0쎯ㄕˊ3쎯	-10.1477
ㄕㄥˋ1쎯ㄌㄧˋ6쎯	-10.1478
쎁쎉쎃쎄ㄋㄧㄢˊ0쎯	-10.1478
,ㄔㄤˊ4쎯	-10.1479
ㄏㄨㄟ4쎯	-10.1479
ㄕˋ4쎯ㄓㄨㄥ0쎯ㄒㄧㄣ0쎯	-10.1484
ㄏㄨㄤˊ	-10.1486
ㄎㄨㄞˋ1쎯ㄐㄧㄝˊ4쎯	-10.1495
ㄉㄧˋ3쎯ㄧ0쎯ㄘˋ0쎯	-10.1498
쎁쎃쎀	-10.1499
ㄑㄧ3쎯	-10.1506
ㄇㄧㄣˊ0쎯ㄧㄥˊ5쎯	-10.1506
ㄐㄧ18쎯ㄍㄨㄤ0쎯	-10.151
ㄙˋ1쎯ㄉㄚˋ쎯	-10.1511
ㄊㄜˋ0쎯ㄉㄧㄥˋ1쎯	-10.1511
ㄐㄩㄝˊ6쎯	-10.1512
쎀ㄇㄨˇ2쎯,	-10.1515
ㄒㄧㄤˇ0쎯ㄧㄡˇ1쎯	-10.1515
ㄒㄧㄠ1쎯	-10.1516
ㄧˋ10쎯	-10.1518
ㄒㄧ3쎯ㄌㄚˋ1쎯	-10.1521
ㄎㄠˇ0쎯ㄖㄨˋ0쎯	-10.1527
ㄈㄚ쎯ㄉㄧㄢˋ0쎯	-10.1529
ㄒㄧㄤˋ4쎯ㄐㄧㄠ5쎯	-10.1529
ㄨㄟˊ0쎯ㄓㄨˇ0쎯ㄧㄠ4쎯	-10.1533
ㄅㄧˋ7쎯ㄇㄧˋ1쎯	-10.1536
ㄒㄧㄣ5쎯ㄐㄧˋ2쎯ㄕㄨˋ0쎯	-10.1537
ㄓㄨˇ0쎯ㄖㄣˊ3쎯.	-10.1538
ㄈㄤˇ1쎯ㄨㄣˋ0쎯	-10.1539
ㄘㄨㄟ0쎯	-10.1543
ㄅㄟˋ5쎯ㄔㄣˋ1쎯ㄨㄟˊ0쎯	-10.1545
ㄍㄞˇ쎯ㄅㄧㄢ1쎯	-10.1549
ㄒㄧㄚˊ5쎯ㄡ0쎯	-10.1553
쎁쎉쎅쎁ㄋㄧㄢˊ0쎯	-10.1553
ㄏㄨㄥˊ0쎯	-10.1554
ㄑㄩㄥˊ0쎯	-10.1558
ㄐㄩ3쎯	-10.1558
ㄨˊ3쎯	-10.1563
ㄌㄧˋ13쎯	-10.1568
―	-10.1568
ㄈㄨˇ7쎯	-10.157
ㄨㄟˊ1쎯	-10.1575
ㄧ3쎯ㄒㄩㄝˊ1쎯ㄏㄨㄟˋ2쎯	-10.1578
ㄕˊ0쎯ㄉㄚˋ쎯	-10.1578
ㄐㄧˊ8쎯》	-10.158
ㄒㄧㄡˋ0쎯ㄌㄧˊ0쎯	-10.158
ㄈㄣ0쎯ㄅㄨˋ1쎯ㄗㄞˋ1쎯	-10.1582
ㄔㄨㄤ0쎯ㄕˇ3쎯ㄖㄣˊ0쎯	-10.1592
ㄈㄣ0쎯ㄓ6쎯	-10.1596
ㄒㄧㄣ5쎯ㄡ0쎯	-10.1598
ㄕㄡ쎯ㄐㄧˊ8쎯	-10.16
ㄈㄥ1쎯ㄐㄧㄥˇ1쎯ㄡ0쎯	-10.1605
ㄊㄨ0쎯	-10.1605
ㄈㄨˊ5쎯ㄨˋ2쎯ㄑㄧˋ7쎯	-10.1608
ㄕㄥˊ쎯	-10.1613
ㄐㄧㄝˊ1쎯ㄔㄨ0쎯	-10.1617
ㄨㄟˋ3쎯ㄉㄠˋ3쎯	-10.1626
ㄐㄧㄢ4쎯,	-10.1628
ㄓㄤ0쎯)	-10.1633
ㄧㄝˋ0쎯ㄧㄡˇ1쎯ㄒㄧㄢˋ2쎯	-10.1635
ㄩˋ13쎯	-10.1639
ㄩㄥ1쎯	-10.1642
ㄖㄨˊ0쎯ㄘˇ0쎯	-10.1651
ㄌㄨˋ0쎯ㄧㄣ4쎯	-10.1651
ㄍㄥ0쎯ㄒㄧㄣ5쎯	-10.1654
ㄒㄧㄥ0쎯ㄑㄩˋ1쎯	-10.1663
ㄨㄟˊ2쎯ㄖㄠˋ쎯	-10.1668
쎈ㄩㄝˋ0쎯ㄘㄢ0쎯ㄐㄧㄚ0쎯	-10.1668
ㄍㄨㄥ2쎯ㄓㄨˇ0쎯	-10.1669
ㄐㄧ6쎯ㄍㄡˋ0쎯.	-10.1674
ㄊㄨㄟˋ0쎯ㄒㄧㄡ0쎯	-10.1676
ㄔㄥˊ0쎯ㄉㄡ0쎯ㄕˋ4쎯	-10.1676
ㄕㄥ1쎯.	-10.1678
ㄏㄨㄟˋ2쎯ㄩㄢˊ2쎯.	-10.1679
ㄗ1쎯	-10.1683
ㄍㄡ3쎯	-10.1684
ㄎㄜˇ0쎯ㄍㄨㄥ5쎯	-10.1686
ㄖㄣˊ0쎯ㄕㄨˇ5쎯	-10.1686
ㄊㄨㄛˊ3쎯	-10.1691
ㄈㄚ쎯ㄑㄧˇ4쎯	-10.1694
ㄔㄡˊ0쎯	-10.1696
ㄅㄠˇ0쎯	-10.1699
ㄓㄜˊ0쎯	-10.1701
ㄅㄣˇ0쎯ㄕㄨˇ5쎯ㄐㄩ4쎯	-10.1702
ㄐㄧˋ2	-10.1702
ㄔㄥˊ1쎯ㄒㄧㄢˋ1쎯	-10.1703
쎁쎉쎇쎁ㄋㄧㄢˊ0쎯	-10.1704
ㄎㄜ2쎯ㄔㄤˊ0쎯	-10.1704
ㄏㄨ2쎯	-10.1704
ㄔㄤˊ0쎯ㄧㄠ2쎯	-10.1706
▁̇ㄉㄜ0쎯ㄊㄨˊ0쎯ㄕㄨˇ5쎯	-10.1712
ㄒㄧㄝˋ0쎯	-10.1721
쎂ㄍㄨㄥ2쎯ㄌㄧˇ2쎯	-10.1723
.”ㄑㄧㄥ5쎯	-10.1724
ㄧˇ2쎯ㄅㄞˇ0쎯ㄉㄨˋ2쎯	-10.1726
ㄑㄧ	-10.1727
.ㄏㄡˋ0쎯	-10.1729
ㄍㄨㄤ0쎯ㄒㄩㄝˊ1쎯	-10.1731
ˊ1쎯	-10.1737
ㄍㄨㄥˇ2쎯	-10.1738
ㄗ3쎯	-10.174
(쎁쎉쎁	-10.1741
ㄅㄧㄥ1쎯ㄅㄨˋ0쎯	-10.1742
ㄌㄧㄝˋ2쎯ㄕˋ0쎯	-10.1744
ㄗㄨㄥˇ0쎯ㄐㄧㄝ3쎯	-10.1747
ㄋㄟˋ쎯ㄨㄞˋ쎯	-10.1748
쎁쎉쎄쎈ㄋㄧㄢˊ0쎯	-10.1748
ㄐㄩ4쎯ㄨㄟˊ0쎯ㄓㄨㄣˇ0쎯.	-10.1749
ㄋㄧㄥˊ0쎯ㄅㄛ1쎯	-10.175
쎁쎀쎀ㄎㄜˋ0쎯	-10.1751
.",(){(	-10.1754
.("/////	-10.1754
ㄈㄨˋ8쎯ㄓㄨˇ0쎯ㄖㄣˊ3쎯、	-10.1755
ㄈㄨˋ11쎯ㄧㄡˇ1쎯	-10.1756
ㄆㄧㄥˊ1쎯ㄌㄨㄣˊ2쎯	-10.1756
ㄙㄢ0쎯ㄐㄧㄠˇ0쎯	-10.1756
쎁쎀쎀쎀쎀쎈쎀쎁);});	-10.1759
ㄈㄣ0쎯ㄍㄨㄥ2쎯ㄙ0쎯	-10.176
ㄔㄣˋ1쎯ㄨㄟˊ0쎯“	-10.1769
ㄕˊ2쎯ㄅㄧㄝˊ0쎯	-10.177
ㄐㄧㄥ8쎯ㄒㄧㄣ0쎯	-10.1771
ㄜˋ	-10.1772
ㄏㄤˊ2쎯	-10.1773
ㄓㄨㄥ2쎯ㄐㄧㄝ3쎯ㄍㄨㄛˇ0쎯	-10.1774
▁̇ㄉㄜ1쎯ㄧ0쎯ㄅㄨˋ4쎯	-10.1775
ㄨˇ3쎯ㄓㄨㄤ3쎯	-10.1775
ㄍㄨˇ0쎯ㄌㄠˇ0쎯	-10.1775
ㄌㄧㄢˊ4쎯ㄙㄞˋ쎯	-10.1778
ㄌㄩˋ0쎯ㄕ2쎯	-10.178
ㄊㄨㄥ0쎯ㄏㄨㄚˋ2쎯	-10.1787
ㄓㄨㄤˋ1쎯ㄎㄨㄤˋ1쎯	-10.179
ㄉㄨㄥ0쎯ㄋㄚ1쎯ㄅㄨˋ4쎯	-10.1792
▁̇ㄉㄜ1쎯ㄍㄨㄥ0쎯ㄗㄨㄛ0쎯	-10.1795
쎃ㄍㄨㄥ2쎯ㄌㄧˇ2쎯	-10.1795
ㄇㄟˇ0쎯ㄧ0쎯	-10.18
ㄔㄢˇ2쎯ㄕㄨˋ2쎯	-10.18
ㄏㄨㄟˋ2쎯ㄩㄢˊ2쎯、	-10.1804
ㄕㄡˋ5쎯	-10.1806
ㄌㄨˊ1쎯	-10.1808
ㄋㄩˇ0쎯ㄦˊ0쎯	-10.1808
ㄒㄧㄤ1쎯ㄌㄧㄣˊ0쎯	-10.1809
ㄅㄧㄢˋ2쎯	-10.1812
ㄒㄧ1쎯ㄅㄟˇ쎯ㄅㄨˋ4쎯	-10.1816
ㄌㄧˋ9쎯ㄕㄨˇ1쎯	-10.1818
▁̇ㄉㄜ1쎯ㄊㄨㄥˊ0쎯ㄕˊ1쎯	-10.182
ㄕㄤˇ0쎯ㄇㄧㄢˋ0쎯	-10.1821
ㄌㄢˊ4쎯ㄙㄜˋ0쎯	-10.1823
ㄩˇ6쎯ㄨㄣˊ0쎯	-10.1824
ㄜˊ1쎯	-10.1824
ㄉㄞˋ1쎯ㄧㄡˇ1쎯	-10.1827
ㄇㄛˊ0쎯ㄇㄠˊ0쎯	-10.1829
ㄏㄨㄟˋ2쎯ㄌㄧˇ3쎯ㄕˋ8쎯	-10.183
ㄨㄟˇ5쎯ㄉㄤˇ1쎯ㄐㄧㄠˋ2쎯	-10.1831
ㄇㄛˊ3쎯ㄐㄩˋ2쎯	-10.1831
ㄕㄜˋ6쎯ㄒㄧㄤˋ3쎯ㄊㄡˊ0쎯	-10.184
ㄅㄨˋ0쎯ㄓ7쎯	-10.1841
ㄈㄨˊ2쎯	-10.1843
ㄇㄟˇ1쎯ㄓㄡ3쎯	-10.1843
ㄏㄨㄛˊ0쎯ㄒㄧㄥˋ2쎯	-10.1847
ㄗㄨˇ1쎯ㄔㄥˊ0쎯.	-10.1851
ㄓㄨㄥ0쎯ㄨㄣˊ0쎯ㄐㄧˋ3쎯	-10.1851
ㄔㄨㄥˊ2쎯ㄕˋ12쎯	-10.1851
ㄉㄚˋ쎯ㄑㄧㄠˊ2쎯	-10.1851
ㄧ0쎯ㄒㄧㄚˋ0쎯	-10.1855
ㄧ0쎯ㄔㄤˊ1쎯	-10.1856
ㄊㄨˊ0쎯ㄢˋ2쎯	-10.1863
.ㄖㄨˊ0쎯	-10.187
ㄔㄨㄟˊ0쎯ㄓˊ1쎯	-10.187
ㄅㄨˋ4쎯ㄨㄟˋ2쎯	-10.1872
ㄧㄠ2쎯쎁	-10.1875
ㄓㄨˇ0쎯ㄧㄠ4쎯ㄧˇ2쎯	-10.1877
(-)	-10.1877
ㄏㄨㄛˋ1쎯ㄨˋ3쎯	-10.1884
ㄍㄜˇ0쎯ㄊㄧ0쎯	-10.1886
ㄍㄨˋ2쎯ㄎㄜˋ2쎯	-10.1899
ㄕㄜˋ0쎯ㄐㄧˋ0쎯ㄕ2쎯	-10.1905
ㄕˋ15쎯ㄍㄨㄛˊ0쎯ㄋㄟˋ쎯	-10.1907
ㄧㄥˊ5쎯ㄧㄝˋ0쎯	-10.1907
ㄧㄝˋ0쎯ㄖㄣˊ0쎯ㄕㄨˇ5쎯	-10.1907
ㄏㄢˊ3쎯ㄍㄞˋ3쎯	-10.1908
ㄕㄨㄤ1쎯	-10.1908
쎀.쎂	-10.1911
ㄗㄞˋ1쎯ㄇㄟˇ1쎯ㄍㄨㄛˊ0쎯	-10.1914
ㄑㄧㄢˊ3쎯	-10.1914
ㄕˋ15쎯ㄨㄛˇ쎯ㄍㄨㄛˊ0쎯	-10.1915
ㄌㄧㄡˊ3쎯ㄌㄧㄤˊ3쎯	-10.1916
ㄌㄧˇ2쎯.	-10.192
ㄐㄧㄢ7쎯ㄎㄨㄥˋ0쎯	-10.1922
ㄓ8쎯	-10.1931
ㄩㄝˋ0쎯쎂쎈ㄖˋ0쎯	-10.1931
ㄐㄧㄚ0쎯ㄕㄤˇ0쎯	-10.1932
ㄒㄩㄣˊ1쎯ㄓㄠˇ1쎯	-10.1934
ㄧˋ8쎯	-10.1935
쎂쎀쎁쎄ㄋㄧㄢˊ0쎯	-10.1936
ㄈㄥ0쎯ㄈㄨˋ11쎯,	-10.194
ㄊㄨˊ0쎯,ㄗㄨㄟˋ0쎯	-10.1941
ㄧˋ19쎯	-10.1943
▁̇ㄉㄜ0쎯ㄊㄨˊ0쎯	-10.1944
ㄨㄟˊ0쎯ㄓㄨˇ0쎯.	-10.1946
쎁쎈쎈	-10.1946
ㄕˇ2쎯ㄉㄜˊ0쎯	-10.1946
ㄓㄥˇ1쎯ㄌㄧˇ3쎯	-10.1949
---	-10.1949
ㄅㄢˋ4쎯	-10.1951
)ㄖㄣˊ0쎯.	-10.1964
ㄒㄩㄥ1쎯	-10.1968
ㄉㄧㄢˋ0쎯ㄉㄨㄥˋ0쎯	-10.1969
ㄒㄧㄣ1쎯	-10.1969
ㄐㄧˊ9쎯	-10.197
ㄎㄨㄥˋ0쎯ㄍㄨˇ2쎯	-10.1971
ㄉㄞˋ0쎯ㄅㄧㄠˇ0쎯ㄗㄨㄛ0쎯	-10.1971
ㄒㄧㄥ0쎯ㄐㄧㄢˋ2쎯	-10.1971
쎈쎁	-10.1972
ㄧㄝˇ1쎯ㄐㄧㄣ3쎯	-10.1975
ㄊㄨㄛˊ	-10.198
ㄏㄞˇ0쎯ㄨㄞˋ쎯	-10.198
.ㄉㄤ0쎯	-10.1983
ㄔㄨ0쎯ㄅㄢˇ1쎯ㄕㄜˋ1쎯:	-10.1984
ㄗㄨㄟˋ2쎯	-10.1986
ㄈㄟ1쎯	-10.1991
.ㄑㄧㄥ5쎯	-10.1992
ㄓㄨˊ1쎯ㄅㄨˋ2쎯	-10.1992
ㄑㄩˋ0쎯ㄆㄧˊ0쎯	-10.1993
ㄈㄤˇ2쎯	-10.1993
(.)	-10.1996
ㄍㄨㄥ0쎯ㄏㄨㄟˋ2쎯	-10.2004
ㄨㄣˊ0쎯ㄨˋ3쎯ㄅㄠˇ2쎯	-10.2008
ㄩㄥˇ1쎯	-10.201
〔	-10.201
.ㄧㄣ0쎯	-10.2013
쎁.쎀	-10.2013
ㄒㄧㄢˋ0쎯ㄐㄧˊ2쎯	-10.2021
ㄌㄢˊ6쎯ㄑㄧㄡˊ2쎯	-10.2023
ㄩㄢˊ4쎯ㄔㄨㄤ0쎯	-10.2023
ㄐㄧˋ4쎯	-10.2025
ㄐㄧㄥˇ1쎯ㄉㄧㄢˇ1쎯	-10.2025
ㄗㄨㄥˇ0쎯ㄊㄡˊ1쎯ㄗ2쎯	-10.2029
ㄉㄧˋ3쎯ㄧ0쎯ㄔㄢˇ0쎯	-10.2032
ㄌㄨㄥˊ4쎯	-10.2033
().	-10.2033
ㄌㄞˋ1쎯	-10.2034
ㄕㄚ3쎯	-10.2037
ㄇㄥˋ1쎯ㄒㄧㄤˇ2쎯	-10.2042
ㄧˇ1쎯ㄔㄥˊ0쎯ㄨㄟˊ0쎯	-10.2043
ㄌㄠ쎯ㄔㄨ0쎯	-10.2047
ㄑㄧㄢ0쎯ㄋㄧㄢˊ0쎯	-10.2054
ㄊㄨˊ0쎯ㄒㄧㄥˊ1쎯	-10.2057
ㄓˇ1쎯ㄗㄞˋ1쎯	-10.2057
ㄓㄢˋ1쎯ㄧˋ10쎯	-10.2058
ㄌㄧㄡˊ3쎯ㄩˋ7쎯	-10.2059
ㄈㄨˊ12쎯ㄓㄡ1쎯	-10.206
ㄖㄠˋ쎯	-10.2062
,ㄧˇ1쎯	-10.2063
▁̇ㄉㄜ1쎯ㄨㄣˋ0쎯ㄊㄧˊ1쎯	-10.2066
ㄍㄨㄟ2쎯ㄗㄜˊ0쎯	-10.2066
ㄔㄠˊ0쎯	-10.2066
ㄕˋ15쎯ㄇㄟˇ1쎯ㄍㄨㄛˊ0쎯	-10.2066
ㄍㄨㄛˊ0쎯ㄈㄤˊ0쎯	-10.2067
ㄈㄥˊ1쎯	-10.2069
ㄅㄠˋ0쎯ㄎㄢ0쎯	-10.2073
ㄉㄨㄣˋ5쎯	-10.2076
ㄨㄛˋ	-10.2081
ㄈㄚˇ0쎯ㄖㄣˊ0쎯	-10.2081
ㄕˋ8쎯ㄨˋ3쎯	-10.2083
ㄕㄨㄟˇ쎯ㄉㄠˋ4쎯	-10.2085
ㄅㄧㄢˋ1쎯ㄌㄧˋ6쎯,	-10.2086
ㄕㄤ1쎯ㄇㄠˋ2쎯	-10.2088
ㄑㄩㄣˊ1쎯ㄊㄧ0쎯	-10.2088
ㄐㄧㄣ2쎯ㄊㄧㄢ0쎯	-10.2089
ㄕㄥ1쎯ㄔㄥˊ0쎯	-10.209
ㄊㄜˋ0쎯ㄧㄡˇ1쎯	-10.2091
ㄅㄧㄢˋ1쎯ㄌㄧˋ6쎯.	-10.2094
ㄍㄡ0쎯	-10.2096
ㄊㄨㄥ0쎯ㄩㄥˋ0쎯	-10.2098
ㄦˇ0쎯·	-10.2098
ㄌㄩˋ3쎯	-10.21
ㄇㄧㄢˋ0쎯ㄐㄧ11쎯ㄨㄟˊ0쎯	-10.21
ㄔㄨㄥˊ2쎯ㄌㄧㄤˊ3쎯:	-10.2105
ㄑㄧˊ9쎯	-10.2108
ㄅㄨˋ0쎯ㄧㄠ4쎯	-10.2111
ㄌㄟˋ1쎯	-10.2114
ㄐㄧㄠ6쎯ㄌㄧㄢˋ0쎯	-10.2118
ㄒㄧㄢˋ0쎯ㄖㄣˊ0쎯,	-10.2119
ㄔㄚ0쎯	-10.2131
ㄒㄩㄝˊ1쎯ㄨㄟˋ2쎯,	-10.2134
ㄧˋ	-10.2134
ㄑㄧˋ5쎯	-10.2135
ㄐㄧ6쎯ㄏㄨㄟˋ2쎯	-10.2135
ㄏㄠˊ0쎯:	-10.2136
ㄇㄟˇ0쎯ㄖˋ0쎯	-10.2139
▁̇ㄉㄜ1쎯ㄗㄥˋ0쎯ㄍㄜˇ1쎯	-10.2141
ㄘㄞˇ0쎯ㄑㄩˇ0쎯	-10.2152
ㄉㄥˇ0쎯ㄓˊ4쎯.	-10.2154
ㄅㄨˋ0쎯ㄒㄧㄤˊ0쎯	-10.2157
ㄏㄡˋ0쎯ㄨㄟˋ0쎯	-10.2158
ㄓˇ11쎯	-10.2161
쎂쎀쎀쎅	-10.2161
ㄕㄥ0쎯ㄐㄧˊ2쎯	-10.2164
ㄕˋ10쎯ㄧㄢˇ3쎯	-10.2171
ㄐㄧㄡˇ0쎯ㄋㄧㄢˊ0쎯	-10.2177
ㄌㄧㄡˊ2쎯ㄒㄧㄚˋ0쎯	-10.2179
ㄏㄨㄚˊ1쎯ㄖㄣˊ0쎯	-10.2184
ㄑㄩㄥˊ1쎯	-10.2185
.ㄑㄩㄢˊ1쎯ㄘㄨㄣ0쎯	-10.2186
ㄑㄧㄢ0쎯ㄇㄧˇ0쎯	-10.2189
ㄓˊ1쎯ㄌㄧˋ3쎯	-10.2193
ㄔㄢˇ0쎯ㄩˊ0쎯	-10.2198
ㄊㄠ0쎯	-10.2203
ㄇㄨˋ8쎯	-10.2204
ㄏㄢˋ1쎯	-10.2205
ㄧㄡˇ1쎯ㄧ0쎯ㄍㄜˇ0쎯	-10.2207
ㄧˊ6쎯	-10.221
ㄖㄠˊ0쎯	-10.2215
ㄧˊ8쎯ㄔㄢˇ0쎯	-10.2217
ㄌㄚ1쎯ㄉㄧㄥ0쎯	-10.2218
ㄔㄥˊ0쎯ㄖㄣˊ0쎯	-10.2225
ㄔㄚˊ1쎯ㄒㄧㄝˊ0쎯	-10.2236
ㄩㄥˋ0쎯ㄊㄨˊ2쎯	-10.2236
ㄈㄨˋ2쎯ㄗㄜˊ1쎯ㄖㄣˊ0쎯	-10.2236
,ㄋㄧㄢˊ0쎯	-10.2238
ㄕㄡˇ2쎯ㄒㄧㄢ1쎯	-10.2245
ㄍㄥ0쎯ㄕˋ15쎯	-10.2245
ㄐㄩㄣ1쎯ㄨㄟˊ0쎯	-10.2247
ㄧ0쎯ㄅㄣˇ0쎯	-10.2248
ㄧㄥˇ1쎯ㄒㄧㄤˇ1쎯ㄌㄧˋ0쎯	-10.2248
ㄅㄢˋ2쎯ㄧㄢˇ3쎯	-10.2248
ㄓˊ1쎯ㄉㄠˋ0쎯	-10.2251
ㄇㄨˇ2쎯,ㄑㄧˊ1쎯ㄓㄨㄥ0쎯	-10.2253
ㄉㄚ0쎯	-10.226
ㄆㄟˋ2쎯ㄅㄟˋ2쎯	-10.2262
ㄔㄥˊ4쎯ㄒㄧㄤ0쎯	-10.2264
ㄌㄨˊ2쎯	-10.2266
ㄈㄢˋ3쎯ㄨㄟˊ2쎯ㄋㄟˋ쎯	-10.2266
ㄓㄥˇ1쎯ㄒㄧㄥˊ1쎯	-10.2267
ㄔㄜ0쎯ㄔㄥˊ7쎯	-10.2267
ㄖㄨˇ0쎯	-10.2269
ㄅㄢˋ0쎯ㄌㄧˇ3쎯	-10.2269
ㄏㄣˋ쎯	-10.2274
ㄧㄢˇ0쎯	-10.2275
ㄧˇ2쎯ㄑㄧˊ1쎯	-10.2276
ㄏㄨㄛˋ1쎯ㄅㄧˋ0쎯	-10.2278
ㄧㄚ1쎯ㄙㄨˋ8쎯	-10.228
ㄔㄥˊ9쎯	-10.2284
ㄐㄧ12쎯ㄘㄥˊ0쎯	-10.2287
)ㄏㄜˊ2쎯	-10.23
ㄏㄜˊ4쎯ㄌㄢˊ0쎯	-10.23
쎁쎉쎃쎅ㄋㄧㄢˊ0쎯	-10.2301
ㄎㄜˇ0쎯ㄐㄧㄢˋ0쎯	-10.2306
ㄏㄨˊ2쎯ㄌㄨㄛˊ1쎯	-10.231
ㄘㄢˊ1쎯	-10.2311
ㄅㄨˋ0쎯ㄐㄧㄡˇ1쎯	-10.2313
ㄍㄡˋ1쎯ㄇㄞˇ0쎯	-10.2314
ㄕㄨˇ5쎯ㄐㄩ4쎯ㄎㄨˋ0쎯	-10.2315
ㄐㄧㄠˋ0쎯ㄗㄨㄛˋ2쎯	-10.2316
ㄉㄧㄢˋ0쎯ㄐㄧ6쎯	-10.2316
ㄨˇ3쎯ㄏㄢˋ0쎯ㄕˋ4쎯	-10.2318
ㄗㄨㄟˋ0쎯ㄉㄨㄛ0쎯	-10.232
ㄌㄧˋ6쎯ㄧˋ15쎯	-10.2321
ㄍㄨㄞˋ0쎯ㄕㄡˋ4쎯	-10.2329
ㄇㄥ쎯ㄍㄨˇ0쎯	-10.2331
ㄕㄡˋ3쎯ㄏㄡˋ0쎯	-10.2333
ㄕˋ8쎯ㄑㄧㄥˊ0쎯	-10.2333
ㄒㄩㄥ0쎯	-10.2339
ㄘㄞˊ3쎯	-10.2339
ㄧㄤˇ1쎯ㄕㄥ1쎯	-10.234
ㄉㄢˋ1쎯	-10.2347
ㄉㄨㄛ0쎯ㄖㄣˊ0쎯	-10.2348
ㄖˋ0쎯ㄐㄧ13쎯	-10.2352
ㄏㄣˇ0쎯ㄏㄠˇ0쎯	-10.2354
ㄙㄨㄛˇ0쎯ㄔㄤˊ0쎯	-10.2357
ㄕㄡˋ3쎯	-10.2362
쎂쎀쎀쎃	-10.2362
ㄍㄢˇ3쎯ㄕㄡˋ1쎯	-10.2363
ㄔㄤˋ2쎯ㄆㄧㄢ0쎯	-10.2363
ㄈㄤ0쎯ㄕˋ5쎯:	-10.2364
쎁쎅ㄎㄜˋ0쎯	-10.2365
쎂쎀쎀쎇	-10.2367
ㄏㄨㄟˋ2쎯ㄔㄤˊ4쎯ㄨˋ2쎯	-10.2369
ㄘㄥˊ1쎯ㄏㄨㄛˋ2쎯	-10.237
ㄓㄣ1	-10.2371
ㄑㄧㄣ0쎯	-10.2373
ㄒㄧㄠˋ3쎯ㄧㄥ0쎯	-10.2375
ㄇㄟˇ0쎯ㄊㄧㄢ0쎯	-10.2376
ㄍㄨㄢ0쎯ㄐㄧㄝ0쎯	-10.2378
ㄈㄥˋ0쎯ㄏㄨㄤˊ2쎯	-10.238
ㄐㄩㄣ1쎯ㄧㄡˇ1쎯	-10.238
▁̇ㄉㄜ1쎯ㄍㄨㄢ0쎯ㄐㄧˋ3쎯	-10.2384
ㄊㄢˋ2쎯ㄊㄠˇ쎯	-10.2386
ㄉㄧㄢˋ5쎯	-10.2395
ㄗㄡˇ쎯ㄒㄧㄤˋ0쎯	-10.24
ㄇㄠˋ3쎯	-10.2401
ㄊㄨㄥˊ0쎯ㄧㄤˋ0쎯	-10.2401
ㄌㄞˊ0쎯ㄉㄠˋ0쎯	-10.2401
ㄍㄢˇ3쎯ㄑㄧㄥˊ0쎯	-10.2403
ㄌㄧㄡˊ2쎯ㄒㄩㄝˊ1쎯	-10.2403
ㄒㄧ1쎯ㄋㄚ1쎯ㄅㄨˋ4쎯	-10.2406
,ㄅㄧㄥ1쎯ㄗㄞˋ1쎯	-10.2408
ㄩㄢˊ2쎯.	-10.2411
ㄅㄢˋ4쎯ㄩㄣˊ1쎯	-10.2414
▁̇ㄅㄟ0쎯	-10.2422
ㄋㄚˇ0쎯	-10.2424
ㄓㄨㄛˊ2쎯ㄩㄝˋ5쎯	-10.2424
ㄩㄢˊ1	-10.2425
ㄆㄧㄥˊ3쎯ㄍㄨㄛˇ0쎯	-10.2427
ㄩㄢˊ9쎯ㄩˊ0쎯	-10.2429
ㄉㄨㄥ0쎯ㄅㄟˇ쎯ㄅㄨˋ4쎯	-10.2432
ㄈㄥ1쎯ㄨㄟˋ3쎯	-10.2433
,ㄨㄛˇ쎯	-10.2439
ㄞ	-10.2439
ㄆㄧㄢ0쎯,	-10.2441
ㄌㄨˋ1	-10.2445
ㄌㄧˋ7쎯	-10.2446
ㄓㄞ1쎯	-10.2447
ㄉㄥˇ0쎯ㄉㄨㄛ0쎯ㄔㄨㄥˊ1쎯	-10.245
쎁쎉쎄쎇ㄋㄧㄢˊ0쎯	-10.2454
ㄑㄩㄢˊ1쎯ㄕㄨ0쎯	-10.2459
ㄧㄢˊ4쎯、	-10.246
ㄐㄧㄝˋ0쎯ㄓˋ4쎯	-10.2461
ㄈㄢˋ0쎯ㄗㄨㄟˋ1쎯	-10.2463
ㄇㄛˋ0쎯ㄇㄨˇ2쎯	-10.2463
ㄗㄞˋ0쎯ㄘˋ0쎯	-10.2463
ㄐㄧˋ1쎯·	-10.2467
ㄙㄚˇ0쎯	-10.2475
ㄓㄣˇ0쎯	-10.2476
쎁ㄏㄠˊ0쎯	-10.2477
ㄇㄧˋ1쎯ㄇㄚˇ2쎯	-10.2481
(쎃)	-10.2481
ㄨㄟˊ0쎯ㄎㄜˋ2쎯ㄏㄨˋ1쎯	-10.2485
ㄓˋ5쎯ㄌㄧˇ3쎯	-10.2486
ㄔㄤˊ4쎯ㄨㄟˇ5쎯	-10.2487
%,	-10.2488
▁̇ㄉㄜ1쎯ㄕˊ1쎯ㄐㄧㄢ4쎯	-10.2495
ㄎㄞ0쎯ㄍㄨㄢ0쎯	-10.2497
ㄊㄧㄝ0쎯	-10.2497
ㄈㄨˊ5쎯ㄕˋ10쎯	-10.2497
ㄧ4쎯ㄈㄚˇ0쎯	-10.2498
ㄎㄨㄣ1쎯	-10.2505
ㄐㄧㄤˋ2쎯ㄌㄧㄝˋ2쎯	-10.2507
ㄐㄧㄡˋ4쎯ㄎㄜˇ0쎯ㄧˇ2쎯	-10.2507
ㄉㄨㄛ0쎯ㄍㄨㄥ3쎯ㄋㄥˊ쎯	-10.251
쎁쎉쎃쎃ㄋㄧㄢˊ0쎯	-10.2512
▁̇ㄉㄜ1쎯ㄧˋ18쎯ㄙ3쎯	-10.2512
,ㄉㄨㄛ0쎯	-10.2513
ㄒㄧㄢ1쎯ㄏㄡˋ0쎯ㄗㄞˋ1쎯	-10.2519
ㄊㄢˇ0쎯	-10.252
ㄆㄨˊ1쎯ㄊㄠˊ3쎯	-10.2522
ㄡ0쎯ㄅㄧㄝˊ0쎯	-10.2523
ㄗㄠ0쎯	-10.2523
ㄋㄨㄥˊ0쎯ㄇㄧㄣˊ0쎯ㄕㄡ쎯	-10.2526
ㄊㄨ2쎯ㄆㄛˋ0쎯	-10.2528
ㄊㄠ	-10.2528
쎁쎉쎄쎆ㄋㄧㄢˊ0쎯	-10.2534
ㄐㄧㄝˊ7쎯	-10.2534
ㄒㄩㄝˊ1쎯ㄒㄩㄝˊ1쎯ㄕˋ0쎯	-10.2535
ㄕˊ0쎯ㄋㄧㄢˊ0쎯ㄉㄞˋ0쎯	-10.2542
ㄉㄨㄛ0쎯ㄧㄤˋ0쎯	-10.2542
ㄈㄣ0쎯ㄆㄟˋ2쎯	-10.2546
ㄅㄨˋ5쎯	-10.2547
▁̇ㄉㄜ0쎯ㄕㄤˇ0쎯	-10.255
ㄩㄝˋ5쎯ㄋㄚ1쎯	-10.2554
ㄉㄚˊ0쎯ㄎㄞ0쎯	-10.2554
ㄒㄧㄣ5쎯ㄔㄥˊ4쎯	-10.2558
ㄨㄟˊ0쎯ㄐㄧ12쎯ㄔㄨˇ1쎯	-10.256
ㄕˋ0쎯ㄒㄩㄝˊ1쎯ㄨㄟˋ2쎯	-10.2561
ㄅㄣˇ0쎯ㄕㄣ2쎯	-10.2563
ㄑㄧㄢˊ0쎯ㄕㄣ2쎯ㄕˋ15쎯	-10.2563
ㄉㄞˋ0쎯ㄇㄚˇ2쎯	-10.2564
ㄕˋ8쎯,	-10.2565
ㄗㄣˇ쎯	-10.2568
ㄨㄞˋ쎯ㄩˇ6쎯	-10.2577
ㄧㄢˋ1쎯	-10.2577
ㄙㄨㄟˊ1쎯ㄐㄧ6쎯	-10.2579
ㄓㄢˋ1쎯ㄍㄨㄛˊ0쎯	-10.258
ㄕㄠˋ1쎯ㄒㄧㄥ0쎯	-10.2582
ㄒㄧㄠˇ0쎯ㄦˊ0쎯	-10.2583
ㄈㄢˊ2쎯	-10.2585
ㄐㄧㄤ0쎯ㄒㄧㄢˋ0쎯	-10.2587
ㄅㄛˊ	-10.259
ㄔㄨˇ0쎯ㄔㄨˇ0쎯ㄔㄤˊ0쎯	-10.259
ㄙㄢˇ1쎯ㄖㄜˋ쎯	-10.2592
ㄅㄠ6쎯ㄗˇ0쎯	-10.2593
ㄆㄨˇ2쎯ㄅㄧㄢˋ2쎯	-10.2596
ㄉㄨㄛ0쎯ㄕㄨˇ5쎯	-10.2597
ㄍㄨㄛ0쎯ㄌㄩˋ4쎯	-10.2599
ㄧˋ2쎯ㄖㄣˊ0쎯	-10.2606
ㄕㄣˋ3쎯	-10.2612
쎁쎉쎃쎇ㄋㄧㄢˊ0쎯	-10.2612
쎅)	-10.2612
ㄖㄣˋ1쎯ㄎㄜˇ0쎯	-10.2616
ㄕㄥ1쎯ㄉㄠˇ0쎯ㄕ2쎯	-10.2617
ㄅㄨˋ0쎯ㄉㄠˋ0쎯	-10.2617
ㄍㄨㄛ3쎯ㄋㄟˋ쎯	-10.2618
ㄊㄨㄥˇ0쎯ㄓˋ5쎯	-10.2624
ㄒㄧㄤˊ0쎯	-10.2629
”ㄕˋ15쎯	-10.263
ㄨㄟˇ5쎯ㄔㄤˊ4쎯ㄨㄟˇ5쎯、	-10.2631
ㄐㄧ6쎯ㄑㄧˋ7쎯	-10.2634
ㄒㄧㄠ	-10.2636
ㄉㄥˇ0쎯ㄉㄥˇ0쎯	-10.264
ㄍㄚ1쎯ㄈㄟ4쎯	-10.264
ㄓㄣˋ3쎯ㄉㄤˇ1쎯ㄨㄟˇ5쎯	-10.2642
ㄇㄢˇ0쎯ㄧˋ18쎯	-10.2647
ㄧㄠˋ1쎯	-10.2649
ㄇㄛˊ3쎯ㄊㄜˋ0쎯	-10.2649
ㄉㄞˋ1쎯ㄊㄡˊ0쎯ㄖㄣˊ0쎯	-10.2649
ㄉㄤ0쎯ㄋㄧㄢˊ0쎯	-10.2657
ㄐㄧㄠˋ2쎯ㄡ0쎯	-10.2659
ㄑㄩㄢˊ1쎯ㄈㄤ0쎯ㄨㄟˋ2쎯	-10.2659
ㄎㄡˇ쎯ㄑㄧㄤ3쎯	-10.2661
ㄕˋ15쎯ㄧ0쎯ㄅㄣˇ0쎯	-10.2661
ㄑㄧˇ4쎯ㄧˋ1쎯	-10.2662
ㄗㄨㄟˋ0쎯ㄔㄨ1쎯	-10.2667
ㄉㄡ0쎯ㄏㄨㄟˋ2쎯	-10.2668
ㄒㄧㄢˋ4쎯	-10.2669
▁̇ㄉㄜ1쎯ㄧㄠ4쎯ㄑㄧㄡˊ1쎯	-10.2669
.쎀쎀ㄍㄨㄥ2쎯ㄌㄧˇ2쎯	-10.2669
ㄔㄥˊ10쎯	-10.2672
ㄈ	-10.2682
ㄔㄣˋ1쎯ㄓ0쎯ㄨㄟˊ0쎯	-10.2682
ㄓㄨˋ6쎯	-10.2682
ㄑㄩㄢˊ1쎯ㄔㄤˊ0쎯	-10.2683
ㄊㄧˊ1쎯ㄘㄞˊ1쎯	-10.2683
ㄌㄧˇ3쎯ㄕˋ8쎯,	-10.2684
ㄧ0쎯ㄓ2쎯	-10.2686
ㄧˊ8쎯ㄔㄨㄢˊ0쎯	-10.2692
ㄋㄢˊ0쎯ㄏㄢˋ0쎯ㄗㄨˊ1쎯	-10.2693
ㄧㄡˊ4쎯ㄏㄨㄚˋ1쎯	-10.2693
쎁쎁쎀	-10.2694
ㄚ3쎯	-10.2696
ㄎㄞ0쎯ㄧㄝˋ0쎯	-10.2698
ㄑㄩˇ0쎯ㄔㄨ0쎯	-10.27
ㄔㄨ0쎯ㄕㄣ2쎯	-10.2706
ㄒㄧㄠˋ3쎯ㄌㄧˋ0쎯	-10.2707
ㄒㄩㄣˋ5쎯	-10.2707
ㄍㄤ6쎯ㄊㄧㄝˇ쎯	-10.2708
ㄒㄧ9쎯	-10.271
ㄧㄝˊ0쎯	-10.2711
쎁쎉쎃쎆ㄋㄧㄢˊ0쎯	-10.2712
쎂)	-10.2712
ㄧ0쎯ㄉㄞˋ0쎯	-10.2717
ㄓㄨㄥ0쎯ㄧㄡˇ1쎯	-10.2717
ㄏㄞˇ0쎯ㄢˋ0쎯	-10.272
ㄍㄤ6쎯ㄑㄧㄣˊ2쎯	-10.2722
ㄍㄨㄥ2쎯ㄢ0쎯ㄐㄩˊ0쎯	-10.2728
ㄍㄨㄟˇ0쎯ㄉㄠˋ3쎯	-10.273
ˋ1쎯	-10.2733
ㄕㄨ0쎯ㄐㄧˋ1쎯、	-10.2734
ㄑㄧㄢˇ1쎯	-10.2734
ㄓㄨ	-10.2735
ㄔㄨ1쎯ㄐㄧ13쎯	-10.2741
ㄎㄨㄤˋ2쎯ㄨˋ3쎯	-10.2743
]	-10.2743
ㄩˇ6쎯:	-10.2744
ㄅㄚ1쎯ㄌㄧˊ8쎯	-10.2746
ㄊㄜˋ0쎯ㄉㄧㄢˇ1쎯:	-10.2747
ㄧㄝˇ0쎯ㄔㄣˋ1쎯	-10.2747
ㄊㄢˋ1쎯	-10.2754
ㄒㄩㄝ1쎯	-10.2757
ㄧㄡˊ5쎯ㄐㄧ2쎯ㄉㄨㄟˋ0쎯	-10.276
ㄌㄧㄥˊ1	-10.276
ㄆㄧㄣ0쎯	-10.2761
ㄊㄧ0쎯ㄐㄧ11쎯	-10.2763
ㄉㄨㄟˋ1쎯ㄈㄤ0쎯	-10.2766
ㄗㄨㄛˇ0쎯ㄧㄡˋ1쎯,	-10.2766
ㄉㄨㄣ2쎯	-10.2766
ㄕˋ15쎯ㄖˋ0쎯ㄅㄣˇ0쎯	-10.2767
ㄒㄧㄤ2쎯ㄨㄟˋ3쎯	-10.2773
ㄐㄧㄚ3쎯ㄐㄩ1쎯	-10.2775
”ㄨㄟˊ0쎯	-10.2776
ㄐㄩㄝˊ2쎯ㄉㄨㄟˋ1쎯	-10.2777
ㄅㄢˋ1쎯ㄉㄠˇ1쎯	-10.2779
ㄧㄡ0쎯ㄩㄝˋ5쎯	-10.278
ㄔㄨㄥ2쎯	-10.2782
ㄌㄧㄡˊ3쎯ㄔㄨㄢˊ0쎯	-10.2782
ㄉㄧㄝˊ3쎯	-10.2784
ㄈㄨˋ16쎯	-10.279
ㄨˋ3쎯ㄔㄨㄥˊ1쎯	-10.2791
ㄕㄨㄟˋ2쎯	-10.2791
、ㄅㄞˊ0쎯	-10.2792
ㄒㄩㄣˋ1쎯	-10.2794
ㄕˋ12쎯ㄐㄧㄠˋ1쎯	-10.2796
ㄍㄜˋ0쎯ㄐㄧˊ2쎯	-10.2798
ㄇㄧㄢˋ0쎯ㄐㄧ11쎯쎆	-10.2802
ㄩㄝ0쎯:‘	-10.2803
ㄔㄞ0쎯	-10.2803
ㄒㄧㄢˋ2쎯ㄓˋ3쎯	-10.2804
ㄏㄡˋ0쎯ㄐㄧ13쎯	-10.2807
ㄕㄨㄚ0쎯	-10.2808
ㄍㄨˇ0쎯ㄔㄥˊ4쎯	-10.2809
ㄏㄨㄣˊ0쎯	-10.281
ㄊㄞˋ0쎯ㄆㄧㄥˊ0쎯ㄧㄤˊ4쎯	-10.2811
ㄗㄨㄥˇ0쎯ㄍㄨㄥ2쎯ㄙ0쎯	-10.2812
ㄕㄣ5쎯ㄉㄨˋ2쎯	-10.2817
ㄐㄧㄤ1쎯ㄑㄧˊ1쎯	-10.2818
ㄑㄧㄠˊ1쎯	-10.2818
ㄍㄠ0쎯ㄘㄥˊ0쎯	-10.282
ㄓㄠˋ5쎯	-10.2821
ㄗㄨㄥˇ0쎯ㄕㄨˇ5쎯	-10.2824
ㄋㄧㄥˊ0쎯ㄒㄧㄚˋ1쎯	-10.2829
ㄈㄢˋ2쎯	-10.2829
ㄈㄚ쎯ㄅㄧㄠˇ0쎯ㄌㄨㄣˊ2쎯	-10.2833
×쎁	-10.2833
,ㄐㄧㄥ2쎯ㄍㄨㄛ0쎯	-10.2835
ㄨㄞˋ쎯ㄍㄨㄛˊ0쎯	-10.2835
ㄗㄨˇ1쎯ㄓ9쎯ㄅㄨˋ4쎯	-10.2836
ㄏㄨㄚ0쎯ㄏㄨㄟˋ0쎯	-10.2836
ㄕㄥ1쎯ㄌㄧˇ3쎯	-10.2843
ㄈㄟˋ4쎯ㄩㄥˋ0쎯	-10.2851
ㄐㄧㄣˋ1쎯ㄉㄞˋ0쎯	-10.2851
ㄔㄨㄢ1쎯ㄩㄝˋ5쎯	-10.2851
ㄉㄧˋ3쎯ㄑㄧ0쎯	-10.2855
、ㄏㄨㄤˊ1쎯	-10.2856
ㄕㄡˋ2쎯ㄑㄩㄢˊ0쎯	-10.2859
ㄎㄨㄣˋ쎯ㄋㄢˊ1쎯	-10.2864
ㄏㄨㄣˋ0쎯ㄋㄧㄥˊ4쎯	-10.2868
ㄍㄠ0쎯ㄧㄚ1쎯	-10.2869
ㄆㄧ2쎯ㄓㄣ1쎯ㄒㄧㄥˊ1쎯	-10.287
～쎁	-10.2871
.ㄓㄜˋ0쎯ㄔㄨㄥˊ1쎯	-10.2871
”ㄏㄜˊ2쎯“	-10.2875
ㄇㄞˊ0쎯	-10.2876
ㄩㄢˊ6쎯	-10.288
ㄌㄨㄥˊ0쎯ㄊㄡˊ0쎯	-10.288
ㄩㄢˋ1쎯	-10.2881
ㄧㄢˇ1쎯	-10.2885
ㄧㄡ0쎯ㄧㄚˇ쎯	-10.2886
ㄐㄧㄢˋ2쎯ㄘㄞˊ1쎯	-10.2888
:쎄	-10.2895
ㄒㄧㄤ1쎯ㄐㄧㄝ3쎯ㄍㄜˇ1쎯	-10.2898
ㄐㄩˋ5쎯ㄒㄧㄢˋ0쎯ㄔㄥˊ4쎯	-10.2901
ㄌㄧㄣˊ4쎯	-10.2904
ㄩˇ2쎯ㄓㄡˋ1쎯	-10.2906
ㄊㄡ쎯	-10.2908
쎃쎀ㄎㄜˋ0쎯	-10.2908
ㄒㄧㄤ9쎯	-10.2908
쎄.쎅	-10.2909
ㄒㄧㄢˋ6쎯	-10.2909
ㄓ2쎯ㄋㄥˊ쎯	-10.2915
쎁ㄒㄧㄤˋ1쎯	-10.2915
ㄏㄨˊ1쎯	-10.2918
ㄑㄧㄠˊ2쎯ㄌㄧㄤˊ2쎯	-10.2918
ㄋㄧㄥˊ0쎯ㄒㄧㄢˋ0쎯	-10.2918
ㄒㄧ15쎯	-10.2919
ㄌㄧㄣˊ5쎯	-10.2922
,ㄘㄥˊ1쎯ㄖㄣˊ3쎯	-10.2922
ㄩㄢˊ4쎯ㄗˇ0쎯	-10.2923
ㄒㄩㄝˊ1쎯ㄓㄨㄢ0쎯ㄧㄝˋ0쎯	-10.2924
ㄧˋ7쎯ㄔㄤˊ4쎯	-10.2925
ㄒㄧㄝˋ7쎯	-10.2928
ㄎㄜˋ2쎯ㄩㄣˋ1쎯	-10.2929
ㄏㄢˋ4쎯	-10.2932
ㄊㄠˇ쎯	-10.2933
,ㄐㄧㄡˋ4쎯ㄕˋ15쎯	-10.2937
ㄗㄞˇ2쎯	-10.294
ㄎㄜ4쎯	-10.2941
ㄐㄧㄠ6쎯ㄩˋ3쎯ㄐㄩˊ0쎯	-10.2942
ㄅㄧㄢ1쎯ㄨㄟˇ5쎯	-10.2943
ㄆㄧ0쎯ㄈㄚ쎯	-10.2946
ㄇㄛˋ0쎯ㄉㄨㄣ0쎯	-10.2946
ㄧㄥˋ1쎯ㄐㄧㄢˋ1쎯	-10.295
ㄒㄧˋ2쎯	-10.295
ㄧˋ20쎯	-10.2951
ㄩㄝˋ0쎯쎁쎈ㄖˋ0쎯	-10.2952
ㄍㄨㄥ2쎯ㄙ0쎯.	-10.2956
쎁)	-10.2965
ㄏㄨㄟ0쎯ㄙㄜˋ0쎯	-10.2966
쎉쎁	-10.2966
,ㄩㄢˊ4쎯ㄇㄧㄥˊ0쎯	-10.2968
ㄓㄠˇ0쎯	-10.2969
ㄧㄡˋ2쎯ㄦˊ0쎯	-10.297
ㄐㄧㄢˋ2쎯ㄧㄡˇ1쎯	-10.2971
ㄧ0쎯ㄙㄨㄛˇ0쎯	-10.2974
ㄍㄡ2쎯ㄊㄨㄥ0쎯	-10.2975
ㄎㄜˇ0쎯ㄎㄠˋ1쎯	-10.2975
ㄅㄠ2쎯	-10.2976
ㄍㄨㄥ0쎯ㄧㄝˋ0쎯ㄩㄢˊ1쎯	-10.2977
ㄩㄝˋ5쎯ㄌㄞˊ0쎯ㄩㄝˋ5쎯	-10.2977
ㄧㄡˇ1쎯ㄧ0쎯ㄉㄧㄥˋ1쎯	-10.2979
ㄕˊ0쎯ㄗˋ1쎯	-10.2981
ㄕㄨˋ	-10.2984
ㄗㄞˋ1쎯《	-10.2986
ㄢ0쎯ㄆㄞˊ0쎯	-10.2992
ㄩˊ10쎯	-10.2994
ㄓㄨㄛ2쎯	-10.2995
ㄖㄨˊ0쎯ㄐㄧㄣ2쎯	-10.2998
ㄈㄚ쎯ㄉㄨㄥˋ0쎯ㄐㄧ6쎯	-10.2998
ㄕ4쎯	-10.3
ㄕˊ1쎯ㄏㄡˋ2쎯	-10.3001
ㄩㄢˇ쎯ㄔㄥˊ7쎯	-10.3001
ㄕㄠˋ1쎯	-10.3006
ㄅㄨˋ4쎯ㄔㄤˊ0쎯	-10.3007
쎀쎀쎀쎀	-10.3008
ㄗㄞˋ1쎯ㄩˊ0쎯	-10.3012
ㄊㄧ0쎯ㄔㄤˊ0쎯	-10.3013
ㄐㄩˊ0쎯ㄔㄤˊ0쎯	-10.3021
ㄐㄧㄢˋ2쎯ㄍㄨㄛˊ0쎯	-10.3024
ㄑㄧˇ2쎯ㄧㄝˋ0쎯,	-10.3026
ㄕㄥ1쎯ㄨˋ3쎯ㄒㄩㄝˊ1쎯	-10.3029
ㄉㄨㄟˋ0쎯ㄩㄢˊ2쎯	-10.3031
ㄕˊ0쎯ㄙˋ1쎯	-10.3036
ㄙㄨˋ1쎯	-10.3038
ㄅㄨˋ0쎯ㄌㄧㄤˊ0쎯	-10.3043
ㄊㄨㄛ1쎯	-10.3044
ㄌㄧˇ2쎯ㄇㄧㄢˋ0쎯	-10.3045
ㄩㄝˋ0쎯쎁쎅ㄖˋ0쎯	-10.3045
,ㄋㄚ0쎯	-10.3045
ㄋㄢˊ0쎯ㄖㄣˊ0쎯	-10.3046
ㄒㄧㄝˇ1쎯ㄧㄝˋ3쎯	-10.3046
ㄧㄝˋ3쎯ㄐㄧㄥ5쎯	-10.3046
ㄔㄨㄤˊ1쎯	-10.3048
ㄎㄜ2쎯ㄒㄩㄝˊ1쎯ㄩˇ0쎯	-10.3048
쎅ㄈㄣ0쎯ㄓㄨㄥ3쎯	-10.305
ㄕㄥ1쎯ㄉㄠˇ0쎯ㄕ2쎯.	-10.3051
ㄑㄧˇ4쎯,	-10.3053
ㄍㄜˇ1쎯ㄈㄟˊ0쎯	-10.3053
ㄔㄤˇ0쎯ㄕㄤ1쎯	-10.3057
ㄑㄧㄥ5쎯ㄔㄠˊ1쎯	-10.3058
ㄙㄨㄥˋ4쎯	-10.307
ㄆㄧˊ3쎯	-10.3071
ㄖㄣˋ1쎯ㄓㄣ4쎯	-10.3071
쎅ㄎㄜˋ0쎯	-10.3072
ㄐㄧㄥ2쎯ㄧㄢˋ5쎯,	-10.3094
ㄇㄧㄥˊ0쎯ㄗˋ1쎯	-10.3095
ㄉㄥˇ0쎯ㄓˊ4쎯	-10.3095
ㄩˋ9쎯ㄉㄠˋ0쎯	-10.3098
ㄍㄢ0쎯ㄕˋ8쎯	-10.3102
ㄅㄧㄢˋ4쎯	-10.3104
ㄔㄨㄤ1쎯	-10.3107
ㄒㄧ8쎯	-10.3111
ㄐㄧㄚˋ3쎯	-10.3114
ㄧㄝˇ0쎯ㄐㄧㄡˋ4쎯ㄕˋ15쎯	-10.3114
ㄊㄚˋ0쎯	-10.3116
ㄊㄧ0쎯ㄔㄨㄥˊ2쎯	-10.3122
ㄓˊ4쎯ㄗㄜˊ1쎯	-10.3123
ㄑㄧㄢ4쎯	-10.3123
ㄩˇ5쎯	-10.3125
ㄉㄢˋ3쎯ㄕㄥ1쎯	-10.3126
ㄧㄝˇ0쎯ㄎㄜˇ0쎯ㄧˇ2쎯	-10.3129
ㄒㄩˋ2쎯	-10.3138
ㄉㄚˋ쎯ㄓㄢˋ1쎯	-10.3143
ㄢ1쎯	-10.3143
ㄋㄧㄤˋ쎯	-10.3147
ㄉㄨㄥˇ1쎯	-10.3148
ㄔˊ3쎯	-10.3149
ㄒㄧ5쎯	-10.3155
ㄙ0쎯ㄇㄚˇ0쎯	-10.3161
ㄎㄨㄥ0쎯ㄐㄩㄣ0쎯	-10.3163
ㄧㄤˊ0쎯ㄓㄡ1쎯	-10.3165
ㄅㄧˋ14쎯ㄇㄧㄢˇ0쎯	-10.3166
ー	-10.3168
(쎂	-10.3169
ㄒㄧㄠˇ0쎯ㄕㄨㄟˋ0쎯《	-10.3176
쎁、	-10.3177
ㄏㄨㄚˊ1쎯ㄉㄨㄥ0쎯	-10.3183
ㄍㄠ0쎯ㄉㄚˊ1쎯	-10.3188
,ㄉㄧ2쎯ㄍㄠ0쎯	-10.319
ㄖㄨㄥˊ8쎯	-10.3197
ㄅㄛˊ2쎯	-10.3201
ㄐㄧˊ3쎯ㄨㄟˊ0쎯	-10.3204
ㄅㄚ0쎯ㄋㄧㄢˊ0쎯	-10.3211
ㄕㄨㄟˇ쎯ㄓㄨㄥ0쎯	-10.3215
ㄉㄧ1쎯	-10.3216
±	-10.3217
ㄑㄩㄢˊ1쎯ㄖˋ0쎯ㄓˋ3쎯	-10.3223
ㄓㄞˋ0쎯	-10.3226
ㄍㄨㄛˊ0쎯ㄌㄧˋ3쎯	-10.3227
ㄈㄨˋ12쎯ㄅㄨˋ4쎯	-10.3228
ㄗㄞˋ1쎯ㄓㄜˋ0쎯ㄌㄧˇ2쎯	-10.3231
ㄊㄧㄠ0쎯ㄓㄢˋ1쎯	-10.3237
ㄅㄛˊ1쎯	-10.3237
ㄗㄨㄥˇ0쎯ㄒㄧㄢˋ3쎯	-10.3242
ㄌㄧㄡˊ3쎯ㄔㄥˊ7쎯	-10.3245
ㄎㄤ0쎯ㄈㄨˋ7쎯	-10.3248
ㄊㄨㄥˊ0쎯ㄅㄨˋ2쎯	-10.325
ㄕˋ15쎯ㄧ0쎯ㄅㄨˋ4쎯	-10.325
ㄉㄠˇ0쎯ㄉㄢˋ5쎯	-10.325
ㄍㄞ0쎯ㄐㄧㄠˋ2쎯	-10.3251
ㄘㄜˋ3쎯ㄉㄧㄥˋ1쎯	-10.3251
ㄈㄥ1쎯ㄍㄨㄤ0쎯	-10.3253
ㄐㄧ26쎯	-10.3255
ㄒㄧㄢˇ0쎯ㄕˋ2쎯ㄅㄧㄥˇ4쎯	-10.3257
ㄕㄥˇ0쎯ㄕˋ4쎯	-10.3258
ㄉㄨㄥ0쎯ㄌㄧㄣˊ0쎯	-10.3264
ㄧ0쎯ㄅㄨˋ4쎯	-10.3269
ㄨㄤˇ0쎯ㄧㄝˋ1쎯	-10.327
ㄓㄣˇ0쎯ㄓˋ5쎯	-10.3272
쎀.쎃	-10.3278
ㄉㄢˋ0쎯ㄐㄧㄚ3쎯ㄓㄨㄤ1쎯	-10.3282
ㄕㄨˋ0쎯ㄩˇ6쎯	-10.3282
ㄙㄜˋ0쎯ㄗㄜˊ3쎯	-10.3288
ㄒㄧㄤˇ0쎯	-10.3294
|	-10.3295
ㄔㄠ4쎯ㄕˋ4쎯	-10.3297
ㄏㄜˊ3쎯ㄌㄧㄡˊ3쎯	-10.3297
ㄨㄢˊ6쎯	-10.3299
ㄗㄨㄛ0쎯ㄑㄩ0쎯	-10.3306
ㄆㄧˇ0쎯	-10.3311
,ㄏㄞˊ0쎯ㄧㄡˇ1쎯	-10.3312
쎂쎅쎆	-10.3313
ㄙ3쎯ㄎㄠˇ0쎯	-10.3314
×쎂	-10.3316
ㄒㄧㄚˋ0쎯ㄌㄞˊ0쎯	-10.3317
ㄆㄧㄠ0쎯	-10.3318
ㄅㄧˇ3쎯ㄇㄧㄥˊ0쎯	-10.3319
ㄍㄞ0쎯ㄕㄨ0쎯	-10.332
ㄕㄨˇ4쎯ㄅㄧㄠ0쎯	-10.332
ㄏㄡˊ2쎯	-10.3322
ㄧˋ8쎯ㄓˋ3쎯	-10.3323
ㄕㄨˇ0쎯	-10.3323
ㄧˋ0쎯ㄩㄢˊ0쎯,	-10.3326
.쎁쎁	-10.3326
ㄙㄨˋ0쎯	-10.3326
쎂쎀쎀쎆	-10.3327
ㄌㄨㄢˇ쎯ㄒㄧㄥˊ1쎯	-10.3327
ㄌㄨㄣˊ1쎯ㄉㄨㄣ1쎯	-10.3328
쎁쎈쎇	-10.3328
쎁쎉쎆쎇ㄋㄧㄢˊ0쎯	-10.333
ㄊㄧㄥˇ0쎯	-10.3336
ㄊㄞˋ2쎯ㄉㄨˋ2쎯	-10.3338
ㄅㄠˋ4쎯	-10.3339
ㄏㄜˊ0쎯	-10.3343
ㄉㄨˋ4쎯	-10.3343
쎂쎄쎀	-10.3344
ㄧㄢˇ3쎯ㄗㄡˋ0쎯	-10.3344
쎁쎀ㄈㄣ0쎯ㄓㄨㄥ3쎯	-10.3349
ㄗㄨㄛ0쎯ㄓㄜˇ0쎯:	-10.3354
ㄑㄧˇ4쎯ㄉㄧㄢˇ1쎯	-10.3356
ㄉㄨㄥˇ0쎯ㄕˋ8쎯	-10.3356
ㄨㄣ0쎯ㄓㄡ1쎯	-10.3357
쎃쎂쎀	-10.3358
ㄞˋ1쎯ㄍㄨㄛˊ0쎯	-10.3359
ㄅㄚ1쎯ㄒㄧ1쎯	-10.336
ㄍㄨㄢˇ1쎯ㄉㄠˋ3쎯	-10.3361
後	-10.3361
ㄧㄣˇ0쎯ㄉㄠˇ0쎯	-10.3365
ㄉㄧㄠ2쎯ㄎㄜˋ1쎯	-10.3366
ㄠˋ2쎯ㄩㄣˋ1쎯ㄏㄨㄟˋ2쎯	-10.3369
▁̇ㄉㄜ1쎯ㄋㄟˋ쎯ㄖㄨㄥˊ4쎯	-10.3372
ㄗㄨˇ1쎯ㄔㄥˊ0쎯,	-10.338
ㄈㄢˋ1쎯ㄉㄧㄢˋ3쎯	-10.338
ㄓㄨˇ0쎯ㄅㄢˇ0쎯	-10.3381
ㄧㄣˇ5쎯	-10.3383
ㄒㄩㄢ1쎯ㄔㄨㄢˊ0쎯ㄅㄨˋ4쎯	-10.3383
ㄧㄝˇ1쎯	-10.3383
ㄨㄤˇ0쎯ㄧㄡˇ0쎯	-10.3385
ㄍㄤ7쎯	-10.3392
ㄒㄧㄣ3쎯	-10.3392
ㄔㄨㄣˊ2쎯	-10.3393
쎅ㄆㄧㄥˊ0쎯ㄈㄤ0쎯ㄍㄨㄥ2쎯	-10.3393
ㄉㄞˋ2쎯ㄎㄨㄢˇ쎯	-10.3396
ㄊㄤˋ0쎯	-10.3397
,ㄧㄡˋ0쎯ㄇㄧㄥˊ0쎯	-10.3402
ㄧㄚˋ0쎯	-10.3402
ㄎㄚ1쎯	-10.3403
▁̇ㄉㄜ1쎯ㄧ0쎯ㄙㄨㄛˇ0쎯	-10.3406
ㄕˋ15쎯ㄨㄟˊ0쎯	-10.3407
ㄏㄨㄛˊ0쎯ㄉㄨㄥˋ0쎯.	-10.3408
ㄓˋ13쎯ㄧㄡ0쎯ㄩㄝˋ5쎯	-10.341
ㄅㄧㄝˊ0쎯ㄖㄣˊ0쎯	-10.3412
ㄖㄤˋ쎯ㄖㄣˊ0쎯	-10.3412
ㄐㄧˊ5쎯ㄒㄧㄥˋ2쎯	-10.3413
ㄏㄨㄚ0쎯ㄒㄩˋ1쎯	-10.3413
ㄋㄢˊ0쎯ㄋㄩˇ0쎯	-10.3414
ㄕˇ0쎯ㄕㄤˇ0쎯	-10.3416
ㄕˋ15쎯ㄇㄨˋ1쎯ㄑㄧㄢˊ0쎯	-10.3419
ㄓㄥˋ0쎯ㄇㄧㄥˊ1쎯	-10.3419
ㄩㄝˋ0쎯쎂쎀ㄖˋ0쎯	-10.342
ㄙㄨㄥˋ1쎯ㄉㄞˋ0쎯	-10.3422
ㄑㄧㄠˋ5쎯	-10.3431
ㄎㄞ0쎯ㄈㄚ쎯、	-10.3432
ㄇㄟˋ3쎯ㄌㄧˋ0쎯	-10.3433
ㄑㄧㄥ5쎯ㄒㄧㄣ5쎯	-10.3435
쎀ㄩˊ2쎯ㄆㄧㄢ2쎯	-10.3439
ㄍㄜˋ0쎯ㄐㄧㄝˋ3쎯	-10.3443
ㄉㄠˋ0쎯ㄉㄚˊ1쎯	-10.3446
ㄍㄞˇ쎯ㄐㄧㄣˋ0쎯	-10.345
ㄘㄞˇ0쎯ㄍㄡˋ1쎯	-10.3451
ㄋㄟˋ쎯ㄧㄡˇ1쎯	-10.3452
ㄒㄧㄚˋ0쎯ㄕㄨˇ1쎯	-10.3458
ㄓㄤˋ3쎯	-10.346
,ㄒㄧㄢˋ1쎯ㄨㄟˊ0쎯	-10.3462
ㄕㄨㄛˋ1쎯	-10.3464
ㄅㄧㄝˊ0쎯ㄇㄧㄥˊ0쎯	-10.3469
,ㄩㄢˊ4쎯	-10.3471
ㄗ2쎯ㄕㄣ5쎯	-10.3473
ㄅㄧˇ1쎯ㄖㄨˊ0쎯	-10.3475
ㄓㄨㄥ2쎯ㄩˊ0쎯	-10.3478
ㄆㄢˋ2쎯	-10.3479
ㄕㄨㄟˇ쎯ㄈㄣ0쎯	-10.3481
ㄎㄜˇ0쎯ㄞˋ1쎯	-10.3483
ㄈㄚ쎯ㄔㄨ0쎯	-10.3483
ㄒㄧ3	-10.3484
ㄑㄧ0쎯ㄋㄧㄢˊ0쎯	-10.3487
.쎃.	-10.3488
▁̇ㄉㄜ1쎯ㄧㄣ4쎯ㄌㄜˋ0쎯	-10.3488
ㄒㄩㄝˊ1쎯ㄩㄢˊ2쎯	-10.3488
ㄒㄧㄣ5쎯ㄏㄨㄚˊ1쎯	-10.3489
.쎃、	-10.3491
ㄍㄜˋ0쎯ㄉㄚˋ쎯	-10.3492
ㄓˊ0쎯ㄈㄚˇ0쎯	-10.3493
ㄑㄧㄤ0쎯	-10.3496
ㄕㄨˋ0쎯ㄑㄧˇ2쎯ㄧㄝˋ0쎯	-10.3499
쎂쎀쎁쎂	-10.3499
ㄌㄧˊ3쎯ㄎㄞ0쎯	-10.3499
ㄩˇ6쎯ㄧㄣ4쎯	-10.35
ㄒㄧㄤ1쎯ㄔㄨㄢˊ0쎯	-10.3505
쎀%	-10.3505
,ㄓ2쎯	-10.3507
▁̇ㄉㄜ1쎯ㄨㄤˇ0쎯ㄌㄠˋ0쎯	-10.351
ㄆㄥˊ4쎯	-10.3511
ㄧㄡˇ1쎯:	-10.3511
,ㄕˊ3쎯ㄒㄧㄢˋ1쎯	-10.3511
ㄉㄧˋ3쎯쎃	-10.3512
ㄎㄜ2쎯ㄩㄢˊ2쎯	-10.3516
ㄓㄡ2쎯ㄐㄧ13쎯	-10.3518
ㄒㄧㄤ2쎯ㄧㄡˊ4쎯	-10.3519
ㄖㄜˋ쎯ㄕㄨㄟˇ쎯	-10.3521
ㄔㄨㄢˊ1쎯ㄅㄛˊ3쎯	-10.3524
ㄉㄞˋ0쎯ㄅㄧㄠˇ0쎯ㄉㄚˋ쎯	-10.3526
ㄋㄚˋ2쎯	-10.3531
ㄇㄧˋ1쎯ㄈㄥ3쎯	-10.3531
ㄏㄨㄚˋ0쎯、	-10.3534
ㄒㄧㄚˊ2쎯	-10.3536
ㄏㄨㄛˋ4쎯	-10.3538
ㄈㄢ2쎯ㄔㄠˇ쎯	-10.3538
ㄒㄧㄤˋ2쎯ㄓㄥ2쎯	-10.3539
ㄊㄞˋ3쎯ㄍㄨㄛˊ0쎯	-10.3546
ㄊㄢˋ0쎯	-10.3547
ㄉㄚˋ쎯ㄑㄧˋ0쎯	-10.3547
ㄒㄩㄝˊ1쎯ㄐㄧㄠˋ2쎯.	-10.3549
ㄒㄧㄢˋ0쎯ㄖㄣˊ0쎯.	-10.3549
,ㄘㄨˋ1쎯ㄐㄧㄣˋ0쎯	-10.3553
ㄐㄧㄢˇ8쎯ㄐㄧㄝˋ0쎯:	-10.3554
ㄕㄤˇ0쎯ㄨㄤˇ0쎯	-10.3554
ㄕㄣˊ1쎯ㄏㄨㄚˋ2쎯	-10.3562
ㄧㄠˊ0쎯	-10.3567
ㄇㄨˇ1쎯ㄉㄢ0쎯	-10.3568
ㄙㄠˇ0쎯ㄇㄧㄠˊ1쎯	-10.3573
ㄓˇ4쎯ㄕㄨˇ5쎯	-10.3573
ㄅㄧㄢ1쎯ㄏㄠˊ0쎯:	-10.3573
ㄉㄚˋ쎯ㄧㄠ2쎯	-10.3574
ㄌㄚˋ1쎯	-10.3575
ㄅㄠ0쎯ㄎㄨㄛˋ1쎯:	-10.3577
ㄈㄨˋ8쎯ㄅㄨˋ4쎯ㄔㄤˊ0쎯	-10.3579
ㄐㄧˇ2쎯	-10.358
ㄩˊ30쎯	-10.3582
ㄗㄨㄛ0쎯ㄧㄝˋ0쎯	-10.3582
ㄧㄢˊ0쎯ㄕㄣ1쎯	-10.3584
쎁/쎂	-10.3584
ㄍㄨㄥ2쎯ㄩㄢˊ0쎯ㄑㄧㄢˊ0쎯	-10.3586
ㄌㄧㄥˊ4쎯	-10.3587
ㄐㄧㄥ8쎯ㄇㄧˋ1쎯	-10.3587
ㄓㄡˋ	-10.3588
ㄞˇ0쎯	-10.3589
.”ㄙㄨㄥˋ1쎯	-10.3593
ㄓㄥˋ3쎯ㄈㄨˇ3쎯ㄓㄨˋ4쎯	-10.3593
』	-10.3593
ㄔㄤˊ0쎯ㄢ0쎯	-10.3596
ㄍㄨㄢ1쎯ㄕㄤˇ2쎯	-10.3599
ㄈㄤ0쎯ㄧㄢˊ2쎯	-10.3605
ㄒㄧㄤ2쎯ㄍㄨ6쎯	-10.3607
&;	-10.3609
ㄔㄠˊ1쎯ㄧㄤˊ2쎯	-10.3614
ㄅㄧㄢˋ0쎯ㄒㄧㄥˊ1쎯	-10.3617
ㄇㄟˇ1쎯ㄏㄠˇ0쎯	-10.3621
ㄕˊ0쎯ㄑㄧ0쎯	-10.3623
ㄋㄧㄡˇ1쎯	-10.3632
ㄅㄧㄥˋ0쎯ㄖㄣˊ0쎯	-10.3634
ㄊㄞ1쎯	-10.3636
ㄌㄨˋ0쎯》	-10.3637
ㄌㄧˋ3쎯ㄗㄨˊ0쎯	-10.3638
ㄊㄥˊ0쎯ㄊㄨㄥˋ0쎯	-10.3644
▁̇ㄉㄜ0쎯ㄓˇ2쎯:	-10.3645
ㄒㄩ2쎯ㄋㄧˇ0쎯	-10.3645
ㄓㄨㄢ0쎯ㄊㄧˊ1쎯	-10.3646
ㄨˇ0쎯ㄍㄜˇ0쎯	-10.3648
-쎈	-10.365
ㄒㄩㄣˋ	-10.3651
ㄆㄧ2쎯	-10.3654
.ㄇㄧㄥˊ1쎯	-10.3658
ㄎㄨㄣ1쎯ㄇㄧㄥˊ1쎯	-10.3658
ㄉㄚˋ쎯ㄐㄧㄡˇ5쎯ㄉㄧㄢˋ3쎯	-10.3661
ㄕ1쎯ㄑㄩˋ0쎯	-10.3663
ㄩㄣˋ1쎯ㄗㄨㄛ0쎯	-10.3664
ㄉㄧㄠ2쎯ㄙㄨˋ6쎯	-10.3668
쎀.쎈	-10.3669
ㄕˋ15쎯ㄐㄧˊ8쎯	-10.3672
ㄐㄧㄝ4쎯ㄕㄡ쎯	-10.3675
ㄉㄚˋ쎯ㄉㄨㄛ0쎯ㄕㄨˇ5쎯	-10.3676
ㄐㄧㄤˇ1쎯ㄌㄧˋ5쎯	-10.3678
ㄑㄩ5쎯ㄕˋ7쎯	-10.3682
ㄙㄢ0쎯ㄐㄧˊ2쎯	-10.3683
、ㄕㄨㄟˇ쎯	-10.3684
ㄕˇ2쎯ㄩㄥˋ0쎯.	-10.3684
ㄐㄧㄢ8쎯ㄓˊ4쎯	-10.3685
ㄓˋ12쎯	-10.3692
ㄅㄠˇ2쎯ㄌㄧㄡˊ2쎯	-10.3693
,ㄊㄨㄥˊ0쎯ㄋㄧㄢˊ0쎯	-10.3702
ㄧㄥˇ1쎯ㄒㄧㄤˋ3쎯	-10.3702
ㄇㄧㄥˊ0쎯ㄐㄧㄚ3쎯	-10.371
ㄈㄨˇ1쎯	-10.3713
”(	-10.3722
ㄨˋ3쎯ㄆㄧㄣˇ쎯	-10.3725
ㄕㄡˇ2쎯ㄒㄧˊ1쎯	-10.3725
ㄐㄧㄠˋ4쎯ㄏㄠˇ0쎯	-10.3725
ㄊㄨㄥˊ0쎯ㄒㄩㄝˊ1쎯	-10.3725
[	-10.3726
ㄕㄡˇ0쎯ㄈㄚˇ0쎯	-10.3726
쎀～	-10.3727
▁̇ㄉㄜ1쎯ㄧˋ2쎯ㄕㄨˋ0쎯	-10.3729
ㄒㄧㄡ1쎯ㄐㄧㄢˋ2쎯	-10.3729
ㄐㄧㄣ1쎯	-10.3736
ㄅㄨˋ4쎯ㄐㄧㄢˋ1쎯	-10.3738
ㄌㄧˋ3쎯ㄊㄧ0쎯	-10.3738
ㄈㄤˋ쎯ㄕㄜˋ3쎯	-10.3738
ㄖㄨㄛˋ0쎯ㄍㄢ0쎯	-10.3739
ㄎㄡˇ쎯ㄨㄟˋ3쎯	-10.374
ㄉㄤˇ0쎯	-10.374
ㄎㄞ0쎯ㄕㄨㄟˇ쎯	-10.3743
\	-10.3745
ㄓˋ2	-10.3746
ㄕㄨˇ6쎯	-10.3755
.쎂쎀쎀쎆ㄋㄧㄢˊ0쎯	-10.3755
ㄒㄧㄣ0쎯ㄗㄤ1쎯	-10.3756
ㄕㄥ1쎯ㄖˋ0쎯	-10.3761
ㄓㄠˋ2쎯ㄇㄧㄥˊ1쎯	-10.3764
ㄒㄧㄣ5쎯ㄐㄧㄢˋ2쎯	-10.3767
▁̇ㄉㄜ1쎯ㄒㄧㄥˊ1쎯ㄕˋ5쎯	-10.3768
▁̇ㄉㄜ0쎯ㄍㄜˊ0쎯ㄇㄧㄥˋ쎯	-10.3769
ㄒㄧㄢ	-10.3771
쎁쎉쎃쎉ㄋㄧㄢˊ0쎯	-10.3774
ㄐㄧㄠ6쎯ㄒㄩㄝˊ1쎯ㄅㄢ1쎯	-10.3776
ㄔㄡˇ0쎯	-10.3779
ㄎㄜ2쎯ㄎㄜ2쎯ㄔㄤˊ0쎯	-10.3779
ㄏㄨㄛˇ0쎯ㄕㄢ0쎯	-10.3781
ㄊㄨㄥˊ0쎯ㄧ0쎯	-10.3784
ㄐㄧㄠ0쎯ㄔㄚ0쎯	-10.3785
ㄓㄨㄢ0쎯ㄓㄨˋ3쎯ㄩˊ0쎯	-10.3787
ㄕㄡˋ0쎯ㄇㄧㄥˋ쎯	-10.3789
ㄐㄧㄢˋ0쎯ㄩˊ0쎯	-10.3792
ㄨˇ	-10.3793
ㄍㄨㄥ1쎯	-10.3794
쎁쎀ㄎㄜˋ0쎯	-10.3795
ㄘㄨㄥˊ0쎯ㄘˇ0쎯	-10.3797
쎁쎉쎃쎀ㄋㄧㄢˊ0쎯	-10.3801
ㄕㄨ9쎯ㄙㄨㄥˋ2쎯	-10.3801
ㄕㄢ0쎯ㄇㄞˋ3쎯	-10.3802
ㄐㄧㄣˋ0쎯ㄔㄨ0쎯ㄎㄡˇ쎯	-10.3803
ㄊㄠˇ쎯ㄌㄨㄣˊ2쎯	-10.3807
ㄌㄧˇ3쎯ㄒㄩㄝˊ1쎯	-10.381
ㄌㄨㄛˊ2쎯ㄐㄧˊ9쎯	-10.3812
ㄐㄧㄥ8쎯ㄘㄞˇ1쎯	-10.3813
,ㄧㄡˋ0쎯ㄔㄣˋ1쎯	-10.3816
ㄐㄧㄠ0쎯ㄐㄧㄝˋ3쎯	-10.3817
ㄙㄨㄥ	-10.3819
ㄇㄨˋ0쎯ㄇㄚˇ0쎯	-10.382
ㄐㄩˋ4쎯ㄑㄧㄥˊ0쎯	-10.382
ㄋㄧˇ0쎯ㄖㄣˊ3쎯	-10.3821
ㄗˋ0쎯ㄧㄡˋ2쎯	-10.3821
(ㄩㄢˊ4쎯	-10.3824
ㄉㄨㄣˋ2쎯	-10.3825
ㄐㄩˇ1쎯	-10.3826
쎁쎉쎄쎀ㄋㄧㄢˊ0쎯	-10.383
)、《	-10.383
ㄐㄧㄝ4쎯ㄐㄧㄣˋ1쎯	-10.3832
ㄩㄝˋ0쎯쎂쎅ㄖˋ0쎯	-10.3836
쎂.쎁	-10.3836
—쎁	-10.384
ㄐㄧˋ27쎯	-10.3845
ㄉㄢˋ2쎯ㄕˋ15쎯	-10.3851
ㄋㄧㄡˊ쎯ㄖㄡˋ쎯	-10.3855
ㄑㄧㄢˊ0쎯ㄕㄣ2쎯ㄨㄟˊ0쎯	-10.3858
ㄧㄡˊ5쎯ㄒㄧˋ0쎯ㄓㄨㄥ0쎯	-10.3858
▁̇ㄉㄜ1쎯ㄐㄧㄥ8쎯ㄕㄣˊ1쎯	-10.386
ㄅㄧˇ3쎯ㄐㄧˋ1쎯ㄅㄣˇ0쎯	-10.3862
ㄌㄚ1쎯ㄙ4쎯	-10.3862
ㄧㄥˊ3쎯	-10.3864
ㄍㄨㄥ2쎯ㄑㄧㄥˇ0쎯	-10.3866
ㄈㄣˋ1쎯	-10.3869
(ㄐㄧㄢˇ8쎯ㄔㄣˋ1쎯	-10.3873
ㄌㄧㄤˇ0쎯ㄋㄧㄢˊ0쎯	-10.3873
ㄍㄨㄤ0쎯ㄗㄜˊ3쎯	-10.3873
ㄇㄛˊ0쎯ㄒㄧㄢˋ2쎯	-10.3874
ㄐㄧㄥ8쎯ㄧㄢˊ7쎯	-10.3874
、ㄒㄧ1쎯	-10.3877
ㄗㄨㄛˋ2쎯ㄏㄠˇ0쎯	-10.3877
쎁쎈쎆	-10.3878
ㄧˊ0쎯ㄅㄧㄠˇ0쎯	-10.3879
ㄧㄡ3쎯	-10.3879
ㄕㄤˇ0쎯ㄈㄚ쎯ㄅㄧㄠˇ0쎯	-10.3882
ㄧㄡˇ1쎯ㄙㄨㄛˇ0쎯	-10.3883
ㄊㄨㄥˊ0쎯ㄋㄧㄢˊ0쎯	-10.3885
.ㄧ0쎯ㄅㄢ2쎯	-10.3885
ㄌㄧㄤˇ0쎯ㄘˋ0쎯	-10.3887
ㄍㄨㄟˋ2쎯ㄌㄧㄣˊ1쎯	-10.389
ㄍㄨㄢˋ0쎯ㄔㄜˋ0쎯	-10.3891
쎁/	-10.3893
ㄓㄣˋ1쎯ㄉㄨㄥˋ0쎯	-10.3899
ㄕㄥ1쎯ㄧㄚˊ3쎯	-10.3899
ㄋㄟˋ쎯ㄕㄜˋ0쎯	-10.39
ㄍㄨㄤ0쎯ㄏㄨㄚˊ3쎯	-10.3901
ㄦˊ1쎯ㄔㄥˊ0쎯.	-10.3904
ㄕㄨㄟˇ쎯ㄍㄨㄛˇ0쎯	-10.3904
ㄆㄧㄥˊ0쎯ㄈㄤ0쎯ㄍㄨㄥ2쎯	-10.3904
ㄉㄧㄥˇ0쎯ㄉㄨㄢ0쎯	-10.3907
ㄔㄤˊ0쎯ㄆㄧㄢ2쎯	-10.3908
,ㄔㄨˊ0쎯	-10.3909
ㄧㄢˇ2쎯ㄐㄧㄥ6쎯	-10.3909
ㄑㄩㄝˋ1쎯	-10.3913
ㄕㄥ1쎯ㄘㄠˇ쎯ㄅㄣˇ0쎯	-10.392
ㄕㄥ1쎯ㄏㄨㄛˊ0쎯ㄓㄨㄥ0쎯	-10.3922
ㄎㄜˋ0쎯ㄙ4쎯	-10.3923
ㄢˋ2쎯ㄐㄧㄢˋ1쎯	-10.3924
▁̇ㄉㄜ1쎯ㄉㄧˋ3쎯ㄧ0쎯	-10.3927
ㄐㄧㄢˋ15쎯	-10.3927
ㄓㄚˊ0쎯	-10.393
ㄇㄧˊ2쎯	-10.393
ㄔㄢˊ0쎯ㄨㄟˋ2쎯.	-10.3931
ㄇㄟˊ6쎯ㄊㄢˋ1쎯	-10.3939
ㄩㄣˋ4쎯	-10.3943
ㄆㄧㄥˊ0쎯ㄊㄞ0쎯.	-10.3944
ㄆㄢ1쎯	-10.3945
ㄑㄧㄢ2쎯	-10.3949
ㄒㄩㄢˊ2쎯ㄓㄨㄢˇ쎯	-10.3954
ㄐㄧㄥˇ2쎯ㄔㄚˊ3쎯	-10.3954
ㄈㄚˊ2쎯	-10.3956
ㄩㄝ0쎯:“	-10.3958
ㄅㄣˇ0쎯ㄓㄠ2쎯	-10.3961
ㄕˊ3쎯ㄊㄧ0쎯	-10.3965
ㄙㄠˇ0쎯	-10.3967
ㄆㄠ0쎯	-10.3969
ㄅㄢ3쎯ㄈㄚ쎯	-10.397
ㄩˊ3쎯ㄌㄟˋ2쎯	-10.397
ㄗㄨˇ1쎯ㄔㄥˊ0쎯ㄩㄢˊ2쎯	-10.3973
ㄏㄨㄣ0쎯	-10.3975
▁̇ㄉㄜ1쎯ㄊㄨˇ0쎯	-10.3976
ㄔㄨˇ0쎯,	-10.3976
ㄗㄨㄥˇ0쎯ㄊㄧ0쎯	-10.3978
ㄍㄨ4쎯	-10.3978
ㄌㄧㄡˊ3쎯ㄊㄨㄥ0쎯	-10.3979
ㄌㄧㄡˊ5쎯	-10.3979
ㄐㄧㄠˇ	-10.3981
ㄌㄩˇ2쎯ㄏㄤˊ0쎯	-10.3981
.ㄍㄨㄛˊ0쎯ㄊㄨˇ0쎯	-10.3982
(ㄖㄨˊ0쎯	-10.3991
ㄉㄨㄥˋ0쎯ㄇㄞˋ3쎯	-10.3994
ㄈㄨˋ3쎯ㄎㄜ2쎯	-10.3995
ㄕㄣ	-10.4001
ㄒㄧㄣ12쎯	-10.4004
ㄧㄡˊ5쎯ㄩㄥˇ2쎯	-10.4009
ㄊㄚ0쎯ㄗㄞˋ1쎯	-10.4009
ㄈㄨˊ1	-10.401
ㄇㄟˇ0쎯ㄘˋ0쎯	-10.4013
ㄎㄜˇ0쎯ㄗㄨㄛ0쎯ㄨㄟˊ0쎯	-10.4014
ㄨˇ3쎯ㄕㄨˋ0쎯	-10.4014
ㄔㄨㄥˊ2쎯ㄐㄧㄢˋ2쎯	-10.4014
ㄓ0쎯ㄔㄨˇ0쎯	-10.4015
ㄏㄥ1쎯	-10.4019
ㄎㄡˇ쎯ㄐㄧㄥˋ0쎯	-10.402
ㄊㄞˋ0쎯ㄗˇ0쎯	-10.402
ㄐㄧㄝˇ1쎯ㄕˋ20쎯:	-10.4025
ㄍㄜˇ1쎯ㄍㄜˊ2쎯	-10.4026
ㄏㄨㄟˊ0쎯ㄉㄠˋ0쎯	-10.4033
ㄔㄨㄤ2쎯ㄎㄡˇ쎯	-10.4036
ㄗˇ2쎯	-10.4038
쎉ㄍㄜˇ0쎯	-10.404
▁̇ㄉㄜ0쎯ㄌㄧˇ3쎯ㄨㄟˋ2쎯	-10.4044
ㄈㄨ0쎯ㄖㄣˊ0쎯	-10.4045
》ㄏㄜˊ2쎯《	-10.4056
ㄘㄠˇ쎯ㄩㄢˊ4쎯	-10.4056
ㄧ0쎯ㄆㄧㄢ0쎯	-10.4059
“”	-10.406
ㄇㄧㄥˊ0쎯ㄩˋ15쎯	-10.4062
ㄌㄧㄥˊ2쎯ㄏㄨㄛˊ0쎯	-10.4063
ㄦˊ1쎯ㄌㄞˊ0쎯	-10.4064
ㄊㄧㄢ1쎯ㄐㄧㄚ0쎯	-10.4067
ㄨㄢˊ3쎯	-10.4071
ㄧㄝˇ0쎯ㄎㄜˇ0쎯	-10.4073
ㄇㄧㄠˊ1쎯ㄕㄨˋ2쎯:	-10.4073
▁̇ㄉㄜ0쎯ㄉㄨㄢˋ0쎯	-10.4077
ㄔㄡˋ쎯	-10.4079
ㄒㄧㄠˇ0쎯ㄏㄨㄛˇ0쎯	-10.4085
ㄒㄧㄠ2쎯ㄈㄤˊ0쎯	-10.4086
ㄏㄜ1쎯	-10.4086
_	-10.4087
ㄉㄚˋ쎯ㄈㄨ0쎯	-10.4087
ㄩㄝˋ0쎯쎈ㄖˋ0쎯	-10.409
ㄅㄧㄢ1쎯ㄇㄚˇ2쎯	-10.4091
ㄅㄠ4쎯	-10.4096
ㄒㄧㄡ1쎯ㄈㄨˋ7쎯	-10.4098
""	-10.41
ㄧㄡˊ2쎯ㄓㄥˋ3쎯	-10.4101
ㄨㄤˊ1쎯ㄔㄠˊ1쎯	-10.4102
ㄕㄣ5쎯ㄕㄡˋ1쎯	-10.4103
ㄕ2쎯ㄕㄥ1쎯	-10.4103
▁̇ㄉㄜ0쎯ㄉㄧㄢˇ1쎯	-10.411
ㄐㄧㄥ8쎯ㄧㄥ1쎯	-10.4112
ㄕˋ2쎯ㄌㄧˋ8쎯	-10.4112
ㄑㄧˋ7쎯、	-10.4114
ㄌㄧˇ8쎯ㄉㄧㄢˋ0쎯ㄔˊ0쎯	-10.4114
ㄏㄨㄚˊ1쎯ㄋㄚ1쎯	-10.412
▁̇ㄉㄜ1쎯ㄏㄜˊ5쎯ㄒㄧㄣ0쎯	-10.4123
ㄈㄨˋ8쎯ㄐㄧㄠ6쎯ㄕㄡˋ2쎯,	-10.4126
ㄊㄧ0쎯ㄓˋ3쎯	-10.4127
ㄍㄢˇ1쎯	-10.4128
쎂쎀ㄎㄜˋ0쎯	-10.4129
ㄐㄧㄣˇ2쎯ㄌㄧㄣˊ0쎯	-10.413
ㄧㄢˊ5쎯ㄏㄞˇ0쎯	-10.4131
ㄈㄚ쎯ㄅㄧㄥˋ0쎯	-10.4133
쎁.쎈	-10.4133
ㄉㄨㄢˇ쎯ㄒㄧㄣˋ0쎯	-10.4134
ㄑㄩㄢˊ0쎯ㄌㄧˋ6쎯	-10.4134
ㄧㄢ1쎯	-10.4134
ㄉㄜˊ1쎯·	-10.4144
(쎁).	-10.4149
ㄧㄝˋ0쎯ㄐㄧˋ15쎯	-10.4151
ㄡ0쎯ㄨㄟˇ5쎯	-10.4156
ㄍㄨㄢ2쎯ㄈㄤ0쎯	-10.4158
ㄧ0쎯ㄐㄧㄚ3쎯ㄐㄧˊ8쎯	-10.416
ㄍㄠ0쎯ㄆㄧㄣˇ쎯ㄓˋ4쎯	-10.4165
ㄏㄠˊ0쎯ㄒㄧㄢˋ3쎯	-10.4166
ㄍㄢˇ2쎯	-10.4168
ㄕㄣ5쎯ㄎㄜˋ1쎯	-10.4169
ㄅㄧㄥˋ0쎯、	-10.417
,쎀쎀쎀	-10.418
ㄙㄜˋ2쎯	-10.418
ㄇㄛˊ3쎯ㄎㄨㄞˋ0쎯	-10.4181
ㄇㄤˊ1쎯	-10.4182
ㄓㄨˋ7쎯ㄧㄡˇ1쎯	-10.4184
ㄏㄨㄛˇ1쎯ㄅㄢˋ3쎯	-10.4187
ㄔㄨㄢˊ0쎯ㄍㄢˇ3쎯ㄑㄧˋ7쎯	-10.4188
ㄒㄧㄝˋ1쎯	-10.4197
ㄎㄠˇ0쎯ㄔㄚˊ3쎯	-10.4197
ㄕㄢ0쎯ㄆㄛ0쎯	-10.4198
ㄉㄤ0쎯ㄑㄧㄢˊ0쎯	-10.4199
ㄓㄨㄥ0쎯ㄒㄧ1쎯ㄧ3쎯	-10.4213
ㄩㄝˋ0쎯쎁쎀ㄖˋ0쎯	-10.4214
ㄉㄧㄢˋ0쎯ㄧㄥˇ1쎯《	-10.4216
ㄧㄡˊ2쎯ㄐㄧㄢˋ1쎯	-10.4217
ㄧㄡˇ1쎯ㄕˊ1쎯	-10.422
ㄨˇ0쎯ㄕˊ0쎯	-10.4222
,ㄑㄩㄢˊ1쎯ㄘㄨㄣ0쎯	-10.4226
ㄐㄧㄠˋ4쎯ㄐㄧㄤˋ2쎯	-10.4227
ㄍㄡˋ0쎯ㄐㄧㄢˋ2쎯	-10.4229
ㄧˋ14쎯	-10.423
,ㄗㄨㄟˋ0쎯ㄏㄡˋ0쎯	-10.4232
()、	-10.4232
ㄌㄢˊ2쎯ㄇㄨˋ1쎯	-10.4233
ㄐㄧㄥ8쎯ㄒㄩㄢˇ0쎯	-10.4233
ㄐㄧㄝˊ0쎯	-10.4235
ㄏㄢˊ2쎯ㄕㄡˋ2쎯	-10.424
ㄕㄡˇ0쎯ㄘㄜˋ0쎯	-10.4245
ㄧㄥ1쎯ㄨㄣˊ0쎯ㄇㄧㄥˊ0쎯	-10.4246
ㄈㄚˇ0쎯ㄩㄢˋ2쎯	-10.4248
ㄊㄧㄝˇ쎯ㄌㄨˋ5쎯ㄐㄩˊ0쎯	-10.4248
ㄓ4쎯ㄇㄚˊ1쎯	-10.4249
ㄈㄨˋ8쎯ㄓㄨˇ0쎯ㄖㄣˊ3쎯,	-10.4252
ㄉㄧㄢˋ0쎯ㄒㄧㄣˋ0쎯	-10.4254
ㄖˋ0쎯ㄐㄧ13쎯:	-10.4256
ㄇㄧㄥˋ쎯ㄩㄣˋ1쎯	-10.426
ㄓㄚ0쎯	-10.4261
ㄏㄨㄚ0쎯ㄐㄧㄠ7쎯	-10.4264
(,)	-10.4266
ㄩㄝˋ0쎯쎂쎆ㄖˋ0쎯	-10.4266
ㄋㄧㄡˇ0쎯	-10.4267
ㄓ0쎯ㄌㄨˋ5쎯	-10.4272
ㄐㄧˋ3쎯ㄊㄨㄥˇ0쎯、	-10.4272
쎀쎀ㄇㄛˋ0쎯ㄩㄢˊ0쎯	-10.4272
ㄒㄩㄢˇ0쎯ㄕㄡˇ0쎯	-10.4276
ㄋㄢˊ0쎯ㄒㄧㄥˋ2쎯	-10.4279
-쎇	-10.428
ㄈㄤˊ3쎯ㄐㄧㄢ4쎯	-10.4283
ㄗㄨˇ1쎯ㄓ9쎯ㄕˊ3쎯ㄕ5쎯	-10.4299
ㄧ0쎯ㄌㄟˋ2쎯	-10.43
ㄒㄧ4쎯	-10.4302
ㄌㄧㄢˋ0쎯ㄒㄧˊ0쎯	-10.4303
ㄙㄨㄟˇ쎯	-10.4304
ㄊㄜˋ0쎯ㄔㄨㄥˊ1쎯	-10.4305
ㄏㄜˋ3쎯	-10.4305
ㄆㄨ1쎯	-10.4306
ㄏㄨㄥˊ1쎯ㄨㄞˋ쎯	-10.4308
ㄔㄤˇ0쎯ㄈㄤˊ3쎯	-10.4311
ㄌㄧㄤˇ0쎯ㄖㄣˊ0쎯	-10.4313
ㄐㄧㄢˇ8쎯ㄐㄧㄝˋ0쎯	-10.4317
ㄑㄧ1쎯ㄗˇ0쎯	-10.4322
ㄌㄤˋ0쎯ㄇㄢˋ1쎯	-10.4323
ㄒㄩㄝˊ1쎯ㄐㄧˋ3쎯	-10.4323
ㄐㄧ6쎯ㄍㄡˋ0쎯,	-10.4324
ㄧˋ6쎯ㄔㄣˋ1쎯	-10.4327
ㄇㄧㄠˊ1쎯ㄒㄧㄝˇ0쎯	-10.4331
ㄖㄨㄥˊ6쎯ㄧㄝˋ3쎯	-10.4345
ㄊㄨ2쎯ㄖㄢˊ0쎯	-10.4345
ㄓㄨㄥ0쎯ㄒㄧㄣ0쎯,	-10.4346
ㄌㄨㄥˇ2쎯	-10.4346
,ㄋㄧˇ1쎯	-10.4349
ㄕㄤ0쎯ㄏㄞˋ2쎯	-10.435
ㄏㄣˊ쎯	-10.4354
ㄍㄨㄥ0쎯ㄗㄨㄛ0쎯ㄕˋ18쎯	-10.4354
ㄊㄧˊ2쎯	-10.4355
ㄩㄝˋ0쎯쎃쎀ㄖˋ0쎯	-10.4355
ㄐㄧㄠ0쎯ㄏㄨㄟˋ1쎯ㄔㄨˇ0쎯	-10.4357
ㄐㄧㄡˋ4쎯ㄉㄡˋ2쎯ㄩˊ0쎯	-10.4361
ㄓㄨˇ0쎯ㄐㄧㄠˇ0쎯	-10.4363
ㄗˇ3쎯ㄙㄜˋ0쎯	-10.4364
ㄌㄧˋ1쎯ㄉㄞˋ0쎯	-10.4365
ㄏㄡˋ0쎯ㄖㄣˊ3쎯	-10.4366
ㄇㄛˊ0쎯ㄒㄧ13쎯	-10.4369
ㄨㄟ0쎯ㄐㄧ6쎯	-10.4374
ㄌㄧˋ2	-10.4376
ㄕˋ15쎯ㄐㄧㄥ2쎯	-10.4377
ㄉㄧˋ2쎯	-10.4379
ㄅㄧˋ9쎯	-10.4379
ㄈㄤ0쎯ㄈㄚˇ0쎯.	-10.4381
ㄧㄤ0쎯ㄉㄤˇ1쎯ㄐㄧㄠˋ2쎯	-10.4381
ㄧㄡ0쎯ㄉㄧㄢˇ1쎯	-10.4382
,ㄘㄞˇ0쎯ㄩㄥˋ0쎯	-10.4382
ㄅㄠˇ2쎯ㄒㄧㄡ1쎯	-10.4383
ㄧㄡˊ1쎯ㄘˇ0쎯	-10.4386
ㄓㄨˇ0쎯ㄧㄥˊ5쎯	-10.439
ㄎㄤ0쎯ㄒㄧ15쎯	-10.4391
쎆)	-10.4394
ㄐㄧㄠ2쎯	-10.4401
ㄎㄠˇ0쎯ㄍㄨˇ0쎯	-10.4402
ㄒㄧㄥˋ2쎯ㄐㄧㄤˋ2쎯	-10.4402
ㄦˊ1쎯ㄧㄢˊ2쎯	-10.4404
ㄨㄟˋ4쎯	-10.4405
ㄑㄩㄝˋ1쎯ㄅㄠˇ2쎯	-10.4406
ㄨㄟˇ0쎯ㄉㄚˋ쎯	-10.4407
ㄅㄠˇ2쎯ㄏㄨˋ2쎯ㄡ0쎯	-10.4407
ㄅㄢˋ1쎯ㄕㄢ0쎯ㄡ0쎯	-10.4411
ㄏㄣˇ0쎯ㄍㄠ0쎯	-10.4412
ㄗㄨˇ2쎯ㄐㄧˊ12쎯	-10.4415
:ㄓ1쎯ㄔˊ4쎯	-10.4419
ㄐㄧㄚˋ1쎯ㄕˇ4쎯	-10.4426
ㄏㄠˇ0쎯ㄆㄧㄥˊ1쎯	-10.4428
ㄔㄨˋ0쎯	-10.4428
-쎁쎉쎃	-10.4438
ㄧㄢ2쎯ㄊㄞ0쎯	-10.4439
ㄗㄨㄟˋ0쎯ㄉㄧ0쎯	-10.4441
ㄉㄨㄥ0쎯ㄍㄨㄢˇ2쎯ㄕˋ4쎯	-10.4443
ㄧ0쎯ㄘㄥˊ0쎯	-10.4444
ㄧˋ3쎯	-10.4446
ㄅㄧㄥˇ1쎯ㄔㄥˊ3쎯	-10.4449
쎁쎉쎄쎁ㄋㄧㄢˊ0쎯	-10.4452
ㄔㄨㄥˊ1쎯.	-10.4453
ㄕㄞ쎯	-10.4455
ㄗㄨㄛ0쎯ㄆㄧㄣˇ쎯.	-10.4455
ㄧㄣ0쎯ㄑㄧˊ1쎯	-10.4456
ㄖˋ0쎯ㄅㄠˋ0쎯	-10.4457
쎁ㄍㄨㄥ2쎯ㄌㄧˇ2쎯	-10.4458
쎃ㄎㄜˋ0쎯	-10.4461
ㄕㄨˇ5쎯ㄎㄨㄥˋ0쎯	-10.4461
ㄓㄣˋ3쎯ㄨㄟˋ2쎯ㄩˊ0쎯	-10.4467
,ㄓˇ4쎯	-10.4468
ㄕˊ0쎯ㄐㄧㄡˇ0쎯	-10.4471
ㄌㄠˇ0쎯ㄖㄣˊ0쎯	-10.4476
ㄎㄜˇ0쎯ㄒㄩㄢˇ0쎯	-10.4477
ㄧㄤˊ	-10.4478
ㄅㄠ8쎯	-10.448
ㄔㄢˊ0쎯ㄨㄟˋ2쎯,	-10.4481
ㄐㄧㄥˋ3쎯	-10.4481
ㄊㄧ0쎯ㄋㄟˋ쎯	-10.4484
ㄕㄤˇ0쎯ㄅㄨˋ4쎯	-10.4485
“ㄓㄨㄥ0쎯ㄍㄨㄛˊ0쎯	-10.4485
ㄐㄧㄥ2쎯》	-10.449
ㄉㄧㄢˋ0쎯ㄌㄢˇ2쎯	-10.4492
ㄇㄟˇ1쎯ㄨㄟˋ3쎯	-10.4492
ㄙㄨㄛˇ0쎯ㄓˋ7쎯	-10.4496
ㄓㄢˇ0쎯	-10.4498
ㄑㄧㄢˊ0쎯ㄈㄥ6쎯	-10.45
ㄕㄥ1쎯ㄐㄧㄤ2쎯	-10.4505
ㄕㄨ4쎯	-10.4505
ㄓ1쎯ㄉㄨㄟˋ0쎯	-10.4505
ㄠˋ3쎯ㄇㄣˊ0쎯	-10.4506
ㄧㄣˋ0쎯ㄈㄚ쎯	-10.4507
ㄅㄧㄢˋ0쎯ㄔㄨㄥˊ1쎯	-10.4508
ㄊㄧㄥˇ1쎯	-10.4511
쎁쎉쎄쎂ㄋㄧㄢˊ0쎯	-10.4511
ㄉㄨㄣˋ1쎯	-10.4513
ㄕㄨㄤ0쎯ㄈㄤ0쎯	-10.4515
ㄘˊ4쎯ㄉㄧㄢˇ0쎯	-10.4517
ㄍㄨㄥ7쎯	-10.4517
ㄇㄧㄥˋ쎯ㄇㄧㄥˊ0쎯ㄨㄟˊ0쎯	-10.452
▁̇ㄉㄜ1쎯ㄧ0쎯ㄎㄨㄢˇ쎯	-10.4532
ㄔㄥˊ11쎯	-10.4533
ㄙㄨㄟˋ0쎯.	-10.4535
ㄡ0쎯、	-10.4536
.ㄦˊ1쎯	-10.4539
ㄇㄚˇ0쎯ㄎㄜˋ0쎯ㄙ3쎯	-10.4545
ㄗㄨㄥˇ0쎯ㄘㄞˊ3쎯	-10.4547
ㄊㄨㄥˊ	-10.455
ㄍㄨˋ1쎯ㄓㄤˋ6쎯	-10.4551
ㄑㄩˊ0쎯ㄉㄠˋ3쎯	-10.4559
쎁쎂쎀쎀	-10.4562
.ㄗˋ0쎯	-10.4564
ㄐㄧ13쎯ㄐㄧㄢ4쎯,	-10.4566
ㄆㄟˋ2쎯ㄧㄡˇ1쎯	-10.457
ㄩㄣ0쎯	-10.457
、ㄒㄧㄠˇ0쎯	-10.4571
ㄎㄠˇ0쎯ㄌㄩˋ1쎯	-10.4572
,ㄍㄨㄥˋ0쎯ㄧㄡˇ1쎯	-10.4572
ㄘㄨㄥˊ0쎯ㄦˊ1쎯	-10.4572
,ㄕˋ15쎯ㄧ0쎯ㄙㄨㄛˇ0쎯	-10.4574
ㄑㄩ5쎯	-10.4576
ㄅㄢˋ0쎯ㄍㄨㄥ2쎯ㄊㄧㄥ0쎯	-10.4578
ㄡ0쎯ㄋㄟˋ쎯	-10.4579
ㄕˋ15쎯ㄧ0쎯ㄨㄟˋ2쎯	-10.4581
ㄙˋ1쎯ㄐㄧˋ7쎯	-10.4584
ㄎㄨㄢ0쎯ㄉㄨˋ2쎯	-10.4589
ㄗㄨㄛ0쎯ㄆㄧㄣˇ쎯《	-10.4589
ㄕㄨ2쎯	-10.4598
ㄐㄩˊ0쎯ㄅㄨˋ4쎯	-10.4601
ㄉㄧˋ0쎯ㄗˇ0쎯	-10.4601
ㄊㄢˊ3쎯	-10.4601
ㄋㄩˇ0쎯,	-10.4603
쎄ㄍㄨㄥ2쎯ㄌㄧˇ2쎯	-10.461
▁̇ㄉㄜ1쎯ㄕˋ3쎯ㄐㄧㄝˋ3쎯	-10.4611
쎈ㄍㄨㄥ2쎯ㄌㄧˇ2쎯	-10.4612
ㄅㄣˇ0쎯ㄍㄨㄥ2쎯ㄙ0쎯	-10.4618
ㄅㄛˊ5쎯ㄕˋ0쎯ㄏㄡˋ0쎯	-10.4618
▁̇ㄌㄜ쎯ㄊㄚ0쎯	-10.4618
ㄕㄨ0쎯ㄩㄢˋ2쎯	-10.4619
ㄨˋ1쎯	-10.4619
ㄒㄧㄣ4쎯	-10.462
ㄔㄨˇ0쎯.	-10.4623
ㄓㄨˇ0쎯ㄌㄧˋ0쎯	-10.4625
》ㄗㄚˊ0쎯ㄓˋ1쎯	-10.4625
ㄧㄡˊ5쎯ㄐㄧ2쎯	-10.4625
ㄧ0쎯ㄅㄞˇ0쎯	-10.4626
ㄐㄧˊ1	-10.4636
?”	-10.4637
ㄅㄨˋ4쎯ㄅㄨˋ4쎯ㄔㄤˊ0쎯	-10.464
ㄉㄧㄢˋ0쎯ㄘˊ6쎯	-10.4642
ㄓㄨˇ0쎯ㄔˊ4쎯ㄖㄣˊ0쎯	-10.4648
ㄓ1쎯ㄈㄨˋ1쎯	-10.4648
#	-10.4654
.ㄍㄞ0쎯ㄘㄨㄣ0쎯	-10.466
ㄌㄧㄤˇ0쎯ㄉㄚˋ쎯	-10.466
а	-10.4661
“ㄙㄢ0쎯	-10.4664
쎁쎀쎀%	-10.4669
ㄒㄧㄣˋ0쎯ㄩˋ15쎯	-10.4676
쎁쎉쎂쎉ㄋㄧㄢˊ0쎯	-10.4676
▁̇ㄉㄜ1쎯ㄇㄧㄥˊ0쎯ㄗˋ1쎯	-10.4676
ㄗㄜˊ0쎯ㄕˋ15쎯	-10.4682
ㄍㄨㄛˊ0쎯ㄨㄤˊ1쎯	-10.4682
、ㄒㄧㄣ5쎯	-10.4685
ㄕㄡˇ2쎯ㄐㄧㄚ3쎯	-10.4687
ㄕㄣ2쎯ㄕㄤˇ0쎯	-10.469
쎁쎉쎃쎁ㄋㄧㄢˊ0쎯	-10.4692
ㄧ0쎯ㄎㄨㄞˋ0쎯	-10.4694
ㄈㄥ1쎯ㄑㄧㄥˊ0쎯	-10.4696
ㄚ1쎯	-10.4696
쎅쎁쎂	-10.4696
ㄍㄨㄥ5쎯ㄉㄧㄢˋ0쎯	-10.4698
ㄨㄞˋ쎯ㄐㄧㄠ0쎯	-10.4699
ㄧㄢ0쎯	-10.47
ㄏㄨㄛˊ0쎯ㄉㄨㄥˋ0쎯,	-10.4707
쎁쎉쎄쎄ㄋㄧㄢˊ0쎯	-10.4709
ㄧㄝˋ3쎯ㄧㄚ1쎯	-10.4711
!”	-10.4712
ㄍㄨㄤ0쎯ㄒㄩˋ5쎯	-10.4715
ㄐㄧㄤˋ0쎯	-10.4718
ㄌㄧㄢˊ0쎯ㄗㄞˇ1쎯	-10.472
ㄕ6쎯ㄉㄨˋ2쎯	-10.472
ㄩㄢˊ0쎯ㄋㄧㄢˊ0쎯	-10.472
ㄇㄧㄥˊ1쎯ㄑㄩㄝˋ1쎯	-10.472
ㄕㄥ1쎯ㄔㄢˇ0쎯ㄒㄧㄢˋ3쎯	-10.4723
쎁쎈쎅	-10.4727
ㄏㄨㄥ2쎯	-10.4727
ㄓˋ3쎯ㄧㄠˋ0쎯	-10.4729
ㄑㄩ6쎯	-10.473
ㄈㄨˋ8쎯ㄓㄨˇ0쎯ㄖㄣˊ3쎯.	-10.4732
ㄆㄧㄥˊ0쎯ㄊㄞ0쎯,	-10.4732
ㄉㄧˋ3쎯ㄐㄧㄡˇ0쎯	-10.4733
ㄒㄧㄢˋ1쎯ㄧˇ1쎯	-10.4734
ㄗˇ0쎯、	-10.4735
ㄉㄨㄥ0쎯ㄋㄚ1쎯ㄧㄚˋ1쎯	-10.4738
ㄙㄨㄣˇ0쎯ㄕ1쎯	-10.4743
ㄈㄣ0쎯ㄒㄧㄤˇ0쎯	-10.4744
.쎂쎀쎁쎀ㄋㄧㄢˊ0쎯	-10.4747
쎁쎀ㄍㄜˇ0쎯	-10.475
ㄓㄨㄢ0쎯ㄧㄝˋ0쎯ㄏㄨㄚˋ0쎯	-10.475
,ㄍㄣ0쎯ㄐㄩ4쎯	-10.4751
ㄐㄧㄠ6쎯ㄕㄡˋ2쎯、	-10.4758
ㄍㄨㄥˋ1쎯ㄒㄧㄢˋ8쎯.	-10.4763
ㄏㄢˋ4쎯ㄐㄧㄝ4쎯	-10.4763
ㄒㄧㄝ1쎯	-10.4763
ㄍㄨㄥ2쎯ㄐㄧㄠ0쎯	-10.4764
▁̇ㄉㄜ1쎯ㄇㄨˋ1쎯	-10.4766
ㄩㄝˋ0쎯쎁쎆ㄖˋ0쎯	-10.4766
ㄕㄨˋ4쎯	-10.4768
.쎁쎀	-10.4771
ㄊㄧㄠ0쎯	-10.4771
쎁.쎆	-10.4772
쎁쎀ㄋㄧㄢˊ0쎯	-10.4773
ㄐㄧ7쎯ㄈㄨ1쎯	-10.4774
ㄔㄥˊ0쎯ㄩˇ6쎯	-10.4775
ㄒㄩㄣ0쎯	-10.4777
ㄩㄥ2쎯	-10.478
ㄒㄧˋ0쎯ㄑㄩ0쎯	-10.4781
ㄐㄧㄠˋ4쎯ㄉㄨㄛ0쎯	-10.4784
ㄏㄨㄚˋ0쎯ㄍㄜˇ1쎯ㄨˋ3쎯	-10.4784
쎁쎄쎀	-10.4785
ㄑㄧㄢˋ1쎯	-10.4787
ㄨ2쎯	-10.4787
ㄉㄚˋ쎯ㄌㄡˊ1쎯	-10.4788
ㄙㄨㄟˊ1쎯ㄏㄡˋ0쎯	-10.4791
ㄓㄨˋ3쎯ㄖㄨˋ0쎯	-10.4791
ㄒㄧㄣ5쎯ㄧㄥˇ0쎯	-10.4796
ㄕ2쎯ㄗ2쎯	-10.4797
ㄨㄤˊ1쎯ㄍㄨㄛˊ0쎯	-10.4798
ㄩㄝˋ0쎯쎁쎂ㄖˋ0쎯	-10.48
ㄧㄝˇ2쎯ㄕㄥ1쎯	-10.48
.쎂쎀쎀쎉ㄋㄧㄢˊ0쎯	-10.4801
ㄆㄨˊ	-10.4802
,ㄕˋ15쎯ㄓˇ4쎯	-10.4803
ㄐㄧㄥ8쎯ㄉㄨˋ2쎯	-10.4803
ㄑㄧㄡˊ2쎯ㄒㄧㄥˊ1쎯	-10.4803
ㄊㄢ0쎯	-10.4807
ㄍㄨㄥ0쎯ㄔㄥˊ7쎯ㄕ2쎯.	-10.4809
ㄔㄥˊ3쎯ㄅㄠ0쎯	-10.4809
ㄊㄨㄥˊ9쎯	-10.4811
ㄋㄧㄢˊ0쎯ㄌㄞˊ0쎯,	-10.4813
ㄑㄧㄢ3쎯	-10.4816
ㄒㄩㄝˊ1쎯ㄅㄠˋ0쎯	-10.4824
ㄏㄨㄟˋ2쎯ㄐㄧˋ0쎯ㄕ2쎯	-10.4825
ㄌㄧˇ3쎯ㄕˋ8쎯、	-10.4828
ㄑㄩˋ0쎯ㄕˋ3쎯	-10.4829
ㄐㄧㄥˋ2쎯ㄙㄞˋ쎯	-10.4832
ㄨㄟˇ5쎯ㄊㄨㄛ0쎯	-10.4834
ㄘㄞˇ0쎯ㄐㄧˊ8쎯	-10.4835
.ㄩㄥˋ0쎯ㄩˊ0쎯	-10.4837
ㄡ0쎯ㄓㄥˋ3쎯ㄈㄨˇ3쎯	-10.4837
ㄅㄨˋ0쎯ㄗㄞˋ0쎯	-10.4837
쎃)	-10.4837
쎁쎉쎃쎂ㄋㄧㄢˊ0쎯	-10.4841
ㄐㄧㄝ3쎯ㄐㄧㄥ5쎯	-10.4844
ㄑㄧㄚˋ1쎯	-10.4844
ㄔㄜˋ1쎯	-10.4845
ㄧㄡˊ1쎯ㄓㄨㄥ0쎯ㄍㄨㄛˊ0쎯	-10.4846
ㄍㄤ3쎯ㄨㄟˋ2쎯	-10.4849
ㄑㄩㄢˊ1쎯ㄊㄧ0쎯	-10.4849
》ㄧ0쎯ㄕㄨ0쎯	-10.4849
ㄒㄧㄣ5쎯ㄒㄧㄥ0쎯	-10.4851
ㄐㄧˋ17쎯	-10.4852
ㄏㄨㄛˇ1쎯	-10.4852
ㄍㄞˋ5쎯	-10.4852
ㄓㄨˇ0쎯ㄉㄠˇ0쎯	-10.4855
ㄒㄧㄥˋ0쎯	-10.4858
.ㄒㄧㄢˋ1쎯ㄧㄡˇ1쎯	-10.4858
ㄕㄠˇ쎯ㄌㄧㄤˊ3쎯	-10.486
ㄇㄨˇ2쎯.	-10.4862
ㄕˊ3쎯ㄌㄧˋ8쎯	-10.4863
.ㄐㄧㄡˇ5쎯ㄉㄧㄢˋ3쎯	-10.4869
ㄨㄟˊ0쎯ㄍㄨㄤˇ0쎯ㄉㄚˋ쎯	-10.4872
ㄑㄩㄢˊ1쎯ㄓㄣˋ3쎯	-10.4873
ㄗㄨㄟˋ0쎯ㄒㄧㄠˇ0쎯	-10.488
ㄕㄤˇ0쎯ㄐㄧˊ2쎯	-10.4881
ㄈㄨˋ4쎯ㄐㄧㄢˋ1쎯	-10.4882
ㄇㄟˋ0쎯	-10.4883
▁̇ㄉㄜ1쎯ㄒㄩ4쎯ㄑㄧㄡˊ1쎯	-10.4886
ㄖㄨㄥˊ4쎯ㄑㄧˋ7쎯	-10.4888
ㄓㄨㄢˇ쎯ㄏㄨㄚˋ0쎯	-10.4892
▁̇ㄉㄜ1쎯ㄐㄧㄠ6쎯ㄩˋ3쎯	-10.4894
ㄅㄧㄢ1쎯ㄐㄩˋ4쎯	-10.4895
ㄇㄡˇ쎯ㄧ0쎯	-10.4895
ㄓㄥˋ3쎯ㄓˋ5쎯ㄅㄨˋ4쎯	-10.4896
ㄈㄣ0쎯ㄗˇ0쎯ㄌㄧㄤˊ3쎯	-10.4897
ㄕㄤ1쎯ㄔㄤˊ1쎯	-10.4901
ㄧㄣˇ0쎯ㄑㄧㄥˊ2쎯	-10.4902
ㄏㄨㄛˋ3쎯	-10.4903
ㄩˋ12쎯	-10.4907
ㄓㄨㄥ0쎯ㄓㄨㄢ0쎯	-10.4909
ㄇㄧㄢˋ0쎯ㄕㄤˇ0쎯	-10.491
ㄧㄡˇ1쎯ㄒㄧㄤ0쎯ㄘㄨㄣ0쎯	-10.4915
ㄧˊ21쎯ㄗㄨˊ1쎯	-10.4916
.쎂쎀쎀쎈ㄋㄧㄢˊ0쎯	-10.4917
ㄕㄢ0쎯ㄓㄣˋ3쎯	-10.4921
ㄆㄥˊ2쎯	-10.4921
:쎉	-10.4923
ㄧ0쎯ㄊㄧ0쎯ㄏㄨㄚˋ0쎯	-10.4926
ㄧ0쎯ㄊㄧ0쎯	-10.4927
ㄏㄡˊ1쎯	-10.4927
ㄇㄠˊ	-10.4927
ㄖㄣˊ0쎯ㄐㄧㄢ4쎯	-10.4928
ㄧㄢˊ6쎯ㄐㄧㄡ1쎯ㄕˋ18쎯	-10.4929
ㄩˊ0쎯쎂쎀쎁쎀ㄋㄧㄢˊ0쎯	-10.4929
ㄉㄚˋ쎯ㄌㄧˋ0쎯	-10.4937
ㄓ0쎯ㄨㄞˋ쎯	-10.4941
》ㄏㄨㄛˋ2쎯	-10.4946
ㄓ0쎯ㄒㄧㄤ0쎯	-10.4948
ㄒㄧㄤ0쎯ㄘㄨㄣ0쎯	-10.495
ㄕㄨˇ1쎯ㄒㄧㄥˋ2쎯	-10.4951
,ㄕㄥ1쎯ㄩˊ0쎯	-10.4952
ㄇㄠˋ1쎯ㄒㄧㄢˇ1쎯	-10.4953
ㄍㄤˇ쎯ㄎㄡˇ쎯	-10.4953
ㄑㄧㄥ5쎯·	-10.4956
ㄧㄡˋ0쎯ㄧㄡˇ1쎯	-10.4967
ㄖㄣˋ3쎯	-10.4968
ㄩㄥˋ0쎯ㄗㄨㄛ0쎯	-10.4974
ㄓㄡ4쎯	-10.4981
ㄕㄨㄟˋ1쎯ㄨˋ2쎯	-10.4982
ㄍㄨㄥ0쎯ㄔㄥˊ7쎯ㄐㄧˋ3쎯	-10.4984
ㄒㄧˇ0쎯ㄐㄧㄥˋ1쎯,	-10.4988
ㄓㄨ4쎯ㄖㄡˋ쎯	-10.4988
ㄕˋ12쎯ㄐㄧㄠˇ0쎯	-10.499
ㄒㄧㄤˇ1쎯ㄧㄥ0쎯	-10.4998
ㄆㄧㄥˊ0쎯ㄈㄤ0쎯	-10.5001
ㄒㄧㄣ0쎯ㄌㄧㄥˊ2쎯	-10.5001
ㄐㄧˋ0쎯ㄌㄧㄤˊ3쎯	-10.5003
ㄒㄧㄣ5쎯ㄒㄧㄢ3쎯	-10.5005
ㄓㄥ	-10.5009
ㄩㄝˋ0쎯쎂쎇ㄖˋ0쎯	-10.501
ㄐㄧㄠ11쎯	-10.501
ㄏㄞˊ0쎯ㄎㄜˇ0쎯ㄧˇ2쎯	-10.5011
ㄅㄚ	-10.5016
▁̇ㄌㄜ쎯ㄉㄚˋ쎯ㄌㄧㄤˊ3쎯	-10.5016
ㄌㄨˋ5쎯ㄒㄧㄢˋ3쎯	-10.5017
ㄏㄞˇ0쎯ㄋㄚ1쎯ㄕㄥˇ0쎯	-10.5018
ㄕˋ4쎯ㄓㄥˋ3쎯	-10.502
ㄔㄨ0쎯ㄔㄤˊ1쎯	-10.502
ㄕㄚ1쎯	-10.5022
ㄌㄧㄢˊ4쎯ㄅㄤ0쎯	-10.5025
ㄍㄨㄢ1쎯ㄘㄜˋ3쎯	-10.5026
ㄩㄢˋ2쎯ㄩㄢˋ2쎯ㄔㄤˊ0쎯	-10.5028
,ㄕˋ15쎯ㄧ0쎯ㄍㄜˇ0쎯	-10.5033
ㄔㄚ1쎯ㄧˋ7쎯	-10.5037
ㄖㄤˋ쎯ㄋㄧˇ1쎯	-10.5038
ㄐㄧㄚ0쎯ㄇㄥˊ1쎯	-10.5045
ㄓㄤˋ5쎯	-10.5045
の	-10.5048
ㄏㄨㄚˋ0쎯ㄉㄢˋ0쎯	-10.5049
-쎀쎁	-10.505
ㄋㄧ쎯	-10.505
,ㄖㄨˊ0쎯ㄍㄨㄛˇ0쎯	-10.5051
ㄉㄧㄢˋ0쎯ㄓㄢˋ2쎯	-10.5052
ㄐㄧㄥ8쎯ㄒㄧˋ1쎯	-10.5053
ㄖㄣˊ3쎯ㄓㄨㄥ0쎯ㄍㄨㄥˋ0쎯	-10.5056
ㄑㄧˇ2쎯ㄧㄝˋ0쎯ㄐㄧㄚ3쎯	-10.5056
ㄇㄡˇ쎯ㄔㄨㄥˊ1쎯	-10.5059
≤	-10.5059
→	-10.506
ㄐㄧㄥ8쎯ㄇㄟˇ1쎯	-10.5063
ㄐㄧˋ2쎯ㄕㄨˋ0쎯、	-10.5068
ㄓㄡˋ3쎯	-10.5071
ㄍㄣ0쎯ㄅㄣˇ0쎯	-10.5072
%.	-10.5072
ㄌㄢˇ0쎯	-10.5072
쎄쎀쎀쎀	-10.5079
,ㄕㄣˋ1쎯ㄓˋ0쎯	-10.5082
ㄊㄨㄢˊ0쎯ㄔㄤˊ0쎯	-10.5084
쎀ㄩˊ2쎯ㄖㄣˊ0쎯	-10.5088
ㄕˋ20쎯ㄈㄤˋ쎯	-10.509
ン	-10.5091
ㄍㄢ1쎯ㄘㄠˇ쎯	-10.5092
ㄒㄧㄢˋ1쎯ㄓㄨㄤˋ1쎯	-10.5094
ㄌㄚˋ2쎯	-10.5094
ㄧㄡ	-10.5096
ㄙㄢ0쎯ㄔㄨㄥˊ1쎯	-10.5096
ㄒㄧㄥˊ2쎯ㄑㄧˇ2쎯ㄧㄝˋ0쎯	-10.5099
ㄏㄤˊ3쎯ㄊㄧㄢ0쎯	-10.5101
ㄐㄧˊ7쎯	-10.5102
,ㄐㄧㄢˇ8쎯ㄔㄣˋ1쎯	-10.5103
ㄑㄧㄡ3쎯	-10.5103
,ㄓㄜˋ0쎯ㄔㄨㄥˊ1쎯	-10.5103
ㄕ2쎯ㄘㄨㄥˊ0쎯	-10.5104
ㄈㄨˋ8쎯ㄐㄧㄠˋ2쎯ㄔㄤˊ0쎯	-10.5107
ㄒㄧˋ1쎯ㄋㄧˋ2쎯	-10.5107
쎄)	-10.5108
ㄌㄧㄥˋ0쎯ㄧㄡˇ1쎯	-10.511
ㄊㄚˋ0쎯ㄓㄢˇ2쎯	-10.511
ㄒㄧㄤ1쎯ㄨㄤˋ3쎯	-10.5111
ㄈㄚ쎯ㄙㄨㄥˋ2쎯	-10.5114
▁̇ㄉㄜ1쎯ㄏㄨㄚˋ2쎯	-10.5114
▁̇ㄌㄜ쎯ㄗˋ0쎯ㄐㄧˇ0쎯	-10.5115
ㄧ0쎯ㄊㄧㄢ0쎯	-10.5115
ㄨㄟˊ0쎯ㄋㄧㄣˊ쎯	-10.5116
ㄌㄨˇ2쎯ㄒㄩㄣˋ3쎯	-10.512
ㄩˋ6쎯ㄘㄜˋ3쎯	-10.5122
ㄍㄥ0쎯ㄨㄟˊ0쎯	-10.5128
ㄒㄧ2	-10.5132
.쎁、	-10.5132
▁̇ㄉㄜ1쎯ㄩㄢˊ4쎯ㄗㄜˊ0쎯	-10.5132
ㄞˋ3쎯	-10.5133
ㄓㄠ0쎯ㄆㄧㄣˋ0쎯	-10.5134
ㄘㄞˊ2쎯ㄈㄨˋ11쎯	-10.5136
,ㄦˊ1쎯ㄕˋ15쎯	-10.5138
ㄒㄩㄢ1쎯ㄅㄨˋ1쎯	-10.5138
ㄉㄨㄛ0쎯ㄕㄠˇ쎯	-10.514
ㄋㄚ1쎯ㄏㄞˇ0쎯	-10.514
ㄧㄝ0쎯	-10.5141
ㄔㄤˋ0쎯ㄒㄧㄠ6쎯	-10.5142
ㄉㄧㄢˇ1쎯ㄐㄧ2쎯	-10.5144
ㄌㄧㄢˊ3쎯ㄏㄨㄚ0쎯	-10.5149
.ㄈㄣ0쎯ㄅㄨˋ1쎯ㄩˊ0쎯	-10.5149
ㄏㄜˊ2쎯ㄑㄧˊ1쎯ㄊㄚ0쎯	-10.5153
ㄐㄧㄠˋ2쎯ㄒㄩㄝˊ1쎯ㄕㄥ1쎯	-10.5156
ㄌㄨˇ0쎯	-10.5156
/쎃	-10.5159
ㄐㄩㄝˊ14쎯	-10.5159
ㄔㄤˊ0쎯ㄔㄨㄣ0쎯	-10.5161
ㄊㄤ0쎯ㄔˊ5쎯	-10.5162
ㄌㄢˊ6쎯	-10.5165
ㄎㄨㄥˇ1쎯ㄅㄨˋ3쎯	-10.5166
ㄗㄨㄥ1쎯	-10.5167
ㄍㄨㄢ1쎯ㄉㄧㄢˇ1쎯	-10.5168
ㄆㄨˇ2쎯ㄐㄧˊ0쎯	-10.5168
ㄈㄥ2쎯	-10.5169
,ㄓ1쎯ㄔˊ4쎯	-10.517
ㄊㄨㄣ0쎯	-10.5171
ㄇㄟˇ1쎯ㄍㄨㄢ1쎯	-10.5174
ㄗㄞˋ1쎯ㄓㄜˋ0쎯	-10.5175
ㄧˋ1쎯ㄨˋ2쎯	-10.5178
ㄐㄧㄣˇ2쎯ㄇㄧˋ1쎯	-10.5185
ㄘㄨㄣ0쎯ㄓㄨㄤ1쎯	-10.5186
ㄐㄧㄠˋ	-10.5191
ㄌㄧㄥˊ8쎯	-10.5193
ㄉㄧ2쎯ㄑㄩˇ0쎯	-10.5193
ㄅㄠˋ8쎯ㄈㄚ쎯	-10.5197
ㄓㄨㄥ0쎯ㄋㄚ1쎯	-10.5197
ㄌㄞˊ0쎯ㄕㄨㄟˋ0쎯	-10.5198
ㄙㄢ0쎯ㄒㄧㄥ1쎯	-10.5198
ㄉㄚˋ쎯ㄌㄧˇ3쎯	-10.5203
ㄒㄧˋ1쎯ㄐㄩㄣ4쎯	-10.5207
ㄡ1쎯ㄇㄟˇ1쎯	-10.5209
ㄈㄤˊ0쎯ㄏㄨˋ2쎯	-10.5214
ㄧㄥˋ1쎯ㄏㄨㄚˋ0쎯	-10.5214
ㄅㄧㄝˊ0쎯ㄇㄧㄥˊ0쎯:	-10.5216
ㄧㄠ6쎯	-10.5225
ㄅㄧㄢˋ1쎯ㄩˊ0쎯	-10.5226
ㄐㄧㄝ4쎯ㄉㄞ1쎯	-10.5228
ㄩˊ7쎯	-10.5231
ㄩˊ0쎯쎂쎀쎀쎉ㄋㄧㄢˊ0쎯	-10.5232
ㄩㄥˇ0쎯ㄩㄢˇ쎯	-10.5234
,ㄔㄥˊ0쎯ㄌㄧˋ3쎯ㄩˊ0쎯	-10.5235
ㄇㄟˇ0쎯ㄧ0쎯ㄍㄜˇ0쎯	-10.5237
ㄩㄝˋ0쎯쎂쎃ㄖˋ0쎯	-10.5238
ㄔㄥ	-10.5239
ㄋㄨㄥˊ1쎯ㄩˋ2쎯	-10.5248
ㄐㄧㄚ3쎯.	-10.5249
ㄈㄣ0쎯ㄐㄧㄠˋ2쎯	-10.525
ㄧㄣ4쎯ㄒㄧㄤ5쎯	-10.5252
ㄑㄧˊ0쎯ㄑㄩㄢˊ1쎯,	-10.5253
ㄈㄚ쎯ㄉㄨㄥˋ0쎯	-10.5253
ㄒㄧㄤ1쎯ㄒㄧㄣˋ0쎯	-10.5254
ㄔㄣˋ0쎯	-10.5254
(ㄐㄧˊ4쎯	-10.5255
ㄔㄨ0쎯ㄧㄢˇ3쎯	-10.5256
ㄏㄨㄚˊ0쎯ㄈㄣ0쎯	-10.5257
ㄗˇ0쎯.	-10.526
ㄙㄨㄟˊ3쎯	-10.5261
ㄇㄛˋ0쎯ㄒㄧㄤˋ3쎯ㄙㄨˋ2쎯	-10.5262
ㄈㄨˊ23쎯	-10.5264
ㄚ0쎯ㄌㄚ1쎯ㄅㄞˇ1쎯	-10.5264
○	-10.5265
ㄔㄨˊ1쎯	-10.5266
▁̇ㄌㄜ쎯《	-10.5268
ㄑㄧㄥˊ0쎯ㄅㄠˋ0쎯	-10.527
ㄜˊ3쎯	-10.527
ㄅㄣˇ0쎯ㄕㄨ0쎯ㄕˋ15쎯	-10.5271
,ㄓㄜˋ0쎯ㄕˋ15쎯	-10.5275
ㄉㄧㄥ6쎯	-10.5276
ㄓ1쎯ㄅㄨˋ4쎯	-10.5277
ㄍㄨㄤ0쎯ㄆㄢˊ1쎯	-10.5279
,ㄕˋ15쎯ㄧ0쎯ㄔㄨㄥˊ1쎯	-10.528
ㄌㄞˊ0쎯,	-10.5281
ㄇㄧㄢˋ0쎯ㄐㄧ11쎯쎇	-10.5282
ㄧㄢˊ11쎯	-10.5283
ㄋㄨㄥˊ1쎯ㄉㄨˋ2쎯	-10.5285
ㄕˇ2쎯ㄑㄧˊ1쎯	-10.5285
쎀.쎆	-10.5285
ㄓˇ1쎯	-10.5287
ㄐㄧㄤˋ2쎯ㄉㄧㄠˋ2쎯	-10.5287
ㄇㄚ1쎯	-10.5288
.ㄧㄡˊ1쎯	-10.5293
ㄒㄧㄤ1쎯ㄅㄧˇ1쎯	-10.5294
ㄍㄨㄢ1쎯ㄋㄧㄢˋ0쎯	-10.5294
ㄕˋ3쎯ㄐㄧㄝˋ3쎯ㄍㄜˋ0쎯	-10.5295
ㄎㄨㄥˇ1쎯	-10.5296
ㄈㄣ0쎯ㄐㄩˊ0쎯	-10.5297
ㄌㄟˋ2쎯ㄅㄧㄝˊ0쎯:	-10.5298
”“	-10.5299
쎈ㄆㄧㄥˊ0쎯ㄈㄤ0쎯ㄍㄨㄥ2쎯	-10.5302
ㄉㄥˇ0쎯ㄋㄨㄥˊ0쎯ㄗㄨㄛ0쎯	-10.5305
、ㄎㄜ2쎯ㄧㄢˊ6쎯	-10.5307
ㄓㄨㄟ1쎯	-10.5309
ㄨㄟ0쎯ㄏㄞˋ2쎯	-10.5311
ㄨㄟˊ0쎯ㄏㄜˊ5쎯ㄒㄧㄣ0쎯	-10.5313
ㄌㄧㄠˊ2쎯	-10.5313
馀	-10.5314
ㄌㄧㄥˊ10쎯ㄕㄡˋ3쎯	-10.5317
ㄨㄣˋ1쎯	-10.5321
ㄏㄨㄛˋ1쎯ㄩㄣˋ1쎯	-10.5321
ㄇㄚˇ2쎯ㄊㄡˊ0쎯	-10.5323
ㄉㄨˇ0쎯	-10.5324
ㄒㄧˇ2쎯ㄐㄩˋ4쎯	-10.5327
ㄅㄧˋ2쎯ㄧㄝˋ0쎯.	-10.5332
ㄌㄧˋ1쎯ㄐㄧㄥ2쎯	-10.5332
ㄖㄠˇ쎯	-10.5332
ㄐㄧˋ15쎯	-10.5334
ㄏㄨㄚˊ1쎯ㄅㄟˇ쎯	-10.5334
ㄉㄧˋ3쎯ㄅㄚ0쎯	-10.5335
ㄕㄨㄟˋ1쎯ㄨˋ2쎯ㄐㄩˊ0쎯	-10.5336
ㄉㄡˇ0쎯ㄓㄥ1쎯ㄏㄜˊ2쎯	-10.534
ㄓㄨㄢ0쎯ㄐㄧˊ9쎯《	-10.5344
ㄆㄧ	-10.535
ㄐㄧㄚ3쎯、	-10.5352
ㄕㄥ1쎯ㄏㄨㄛˊ0쎯ㄗㄞˋ1쎯	-10.5352
ㄕㄡˇ2쎯ㄈㄨˇ3쎯	-10.5352
ㄏㄜˊ2쎯ㄍㄨㄢˇ1쎯ㄌㄧˇ3쎯	-10.5356
ㄧㄢˊ1쎯ㄐㄧㄣˇ4쎯	-10.5356
ㄑㄧㄢˊ5쎯	-10.5357
ㄨㄣ0쎯ㄒㄧㄣ7쎯	-10.5358
ㄈㄚˇ0쎯ㄓˋ3쎯	-10.5358
ㄕㄥˇ0쎯ㄓㄥˋ3쎯ㄈㄨˇ3쎯	-10.5359
ㄨㄣˊ0쎯ㄌㄧㄢˊ4쎯	-10.536
、ㄋㄚ1쎯	-10.5361
ㄏㄨㄚ0쎯ㄐㄧ13쎯	-10.5361
ㄏㄜˊ2쎯ㄈㄚ쎯ㄓㄢˇ2쎯	-10.5361
ㄍㄨㄥ3쎯ㄌㄩˋ2쎯:	-10.5363
ㄇㄛˋ0쎯ㄩˊ2쎯	-10.5364
ㄏㄨˋ0쎯ㄒㄧㄤ1쎯	-10.5369
ㄊㄞ0쎯ㄅㄟˇ쎯	-10.5369
ㄐㄧㄤˋ2쎯ㄏㄨㄚˋ0쎯	-10.5371
(쎁쎉쎂	-10.5372
ㄐㄩˊ0쎯、	-10.5372
쎂쎀쎀쎄	-10.5373
ㄔㄨㄢˊ0쎯ㄉㄧˋ2쎯	-10.5374
ㄍㄨˋ0쎯ㄊㄧ0쎯	-10.5374
ㄏㄠˇ0쎯,	-10.5376
ㄖㄣˊ0쎯ㄑㄩㄣˊ1쎯	-10.5377
,ㄐㄧˋ10쎯	-10.5378
ㄒㄧㄠˇ0쎯ㄑㄧˇ2쎯ㄧㄝˋ0쎯	-10.5378
ㄉㄧㄥ	-10.5383
ㄉㄨㄥ0쎯ㄌㄨˋ5쎯	-10.5385
ㄈㄨˋ7쎯ㄓˋ3쎯	-10.5386
ㄆㄨˊ0쎯ㄙㄚˋ0쎯	-10.5389
ㄑㄧㄡˊ2쎯ㄔㄤˊ1쎯	-10.5392
.ㄖㄨˊ0쎯ㄍㄨㄛˇ0쎯	-10.5392
ㄓㄨˋ1쎯ㄈㄤˊ3쎯	-10.5393
ㄧ0쎯ㄉㄨㄟˋ1쎯	-10.5396
▁̇ㄉㄜ1쎯ㄓˋ4쎯ㄌㄧㄤˊ3쎯	-10.5401
ㄖㄣˊ3쎯ㄓˊ4쎯	-10.5401
ㄇㄛˊ0쎯ㄌㄨㄣˊ2쎯	-10.5402
ㄕˊ0쎯ㄩˊ2쎯	-10.5407
,ㄧㄝˇ0쎯ㄎㄜˇ0쎯	-10.5409
ㄌㄠˊ1쎯	-10.5409
ㄓㄨˋ3쎯ㄕㄜˋ3쎯	-10.5412
ㄏㄨㄟ3쎯ㄏㄨㄤˊ4쎯	-10.5412
ㄏㄨㄤˊ0쎯ㄐㄧㄚ3쎯	-10.5413
ㄍㄠ3쎯	-10.5414
ㄐㄧㄥˋ2쎯	-10.5414
ㄈㄤˊ0쎯ㄩˋ11쎯	-10.5415
ㄖㄣˊ0쎯ㄎㄡˇ쎯쎂	-10.5415
▁̇ㄉㄜ1쎯ㄐㄧㄥ2쎯ㄐㄧˇ3쎯	-10.5418
ㄅㄟˇ쎯ㄙㄨㄥˋ1쎯	-10.5418
,ㄊㄨㄥ0쎯ㄔㄤˊ4쎯	-10.542
ㄐㄧˊ2쎯ㄅㄧㄝˊ0쎯	-10.542
ㄩㄝˋ0쎯쎂쎁ㄖˋ0쎯	-10.542
ㄇㄥˇ2쎯	-10.542
ㄎㄜ2쎯ㄒㄩㄝˊ1쎯ㄐㄧㄚ3쎯	-10.5422
ㄔㄜ0쎯ㄐㄧㄢ4쎯	-10.5423
ㄐㄧㄢ7쎯ㄍㄨㄢˇ1쎯	-10.5424
ㄗㄣˇ쎯ㄧㄤˋ0쎯	-10.5425
ㄆㄥ1쎯	-10.5425
ㄍㄠ0쎯ㄩㄢˊ4쎯	-10.5428
쎁쎂쎅	-10.5431
쎅ㄇㄨˇ2쎯	-10.5435
ㄕ1쎯ㄅㄞˋ0쎯	-10.5437
ㄅㄞˊ0쎯ㄩㄣˊ0쎯	-10.5437
ㄌㄧˇ3쎯ㄌㄨㄣˊ2쎯ㄩˇ0쎯	-10.5437
쎉쎀%	-10.5437
ㄕㄣˊ1쎯ㄐㄧ9쎯	-10.5439
(ㄏㄨㄛˋ0쎯	-10.5439
ㄐㄧㄤ6쎯	-10.544
쎁쎉쎄쎃ㄋㄧㄢˊ0쎯	-10.5444
ㄓㄨㄥ0쎯ㄩㄢˊ4쎯	-10.5445
ㄍㄠ0쎯ㄕㄢ0쎯	-10.5447
ㄇㄧㄢˋ0쎯ㄐㄧ11쎯쎈	-10.5448
ㄙㄨㄛˇ0쎯ㄒㄩ4쎯	-10.5449
ㄨㄟ	-10.545
ㄐㄧ12쎯ㄔㄨˇ1쎯ㄕㄤˇ0쎯,	-10.5451
),ㄈㄨˊ12쎯ㄐㄧㄢˋ2쎯	-10.5455
ㄑㄧㄢˊ0쎯ㄨㄤˇ2쎯	-10.5457
ㄍㄨ5쎯ㄍㄢ0쎯	-10.5459
ㄊㄨˊ3쎯ㄌㄧㄠˋ0쎯	-10.546
ㄓㄨˇ0쎯ㄧㄠ4쎯ㄧㄡˇ1쎯	-10.5461
ㄊㄧㄝˇ쎯ㄉㄠˋ3쎯	-10.5461
ㄧㄣˊ0쎯	-10.5462
ㄗㄞˋ1쎯ㄍㄨㄛˊ0쎯ㄋㄟˋ쎯	-10.5464
,ㄊㄨㄥˊ0쎯ㄕˊ1쎯ㄧㄝˇ0쎯	-10.5466
ㄔㄨ0쎯ㄙㄜˋ0쎯	-10.5466
ㄕㄨˋ3쎯ㄓ10쎯	-10.5466
ㄌㄥˇ쎯ㄑㄩㄝˋ0쎯	-10.5468
ㄨˋ3쎯ㄊㄧ0쎯	-10.5468
ㄒㄧㄚˋ0쎯ㄅㄨˋ4쎯	-10.5469
ㄔㄨㄥ0쎯ㄐㄧ2쎯	-10.5469
ㄌㄜˋ0쎯ㄑㄧˋ7쎯	-10.5471
ㄌㄨㄣˊ2쎯ㄕㄨˋ2쎯	-10.5472
ㄎㄨㄢ0쎯ㄉㄞˋ1쎯	-10.5475
ㄒㄧㄠ2쎯ㄒㄧ7쎯	-10.5476
ㄐㄧㄥ5쎯ㄊㄧ0쎯	-10.5478
ㄊㄜˋ0쎯ㄉㄧㄢˇ1쎯ㄕˋ15쎯	-10.5478
ㄌㄨㄛˊ6쎯ㄒㄩㄢˊ2쎯	-10.548
ㄐㄧㄝˋ3쎯ㄇㄧㄢˋ0쎯	-10.548
ㄩㄝˋ0쎯쎂쎉ㄖˋ0쎯	-10.5489
.”ㄊㄤˊ0쎯	-10.549
ㄩㄝˋ0쎯쎅ㄖˋ0쎯	-10.5491
ㄐㄩˊ0쎯ㄈㄨˋ8쎯ㄐㄩˊ0쎯	-10.5492
ㄐㄧˊ4쎯ㄐㄧㄤ1쎯	-10.5495
쎁쎅쎀쎀	-10.5497
ㄏㄨㄛˊ0쎯ㄌㄧˋ0쎯	-10.55
ㄌㄧㄠˊ	-10.5501
ㄓㄤˋ4쎯	-10.5502
ㄧ0쎯ㄉㄠˋ3쎯	-10.5505
ㄒㄧ18쎯	-10.5513
ㄨㄚ0쎯	-10.5513
ㄒㄧㄠˇ0쎯ㄔ0쎯	-10.5516
ㄈㄢ0쎯	-10.5517
ㄌㄟˋ2쎯ㄅㄧㄝˊ0쎯	-10.5518
ㄐㄧˇ1쎯ㄐㄧㄢˇ5쎯	-10.5521
ㄉㄨㄣ1쎯	-10.5523
ㄐㄧㄚ0쎯ㄧˇ2쎯	-10.5529
ㄌㄧˋ9쎯	-10.5529
.ㄒㄧㄚˊ5쎯	-10.5529
ㄎㄜ2쎯ㄕˋ18쎯	-10.5532
ㄩˋ1쎯	-10.5534
ㄗㄨㄟˋ0쎯ㄐㄧㄣˋ1쎯	-10.5534
ㄧ0쎯ㄖˋ0쎯	-10.5536
ㄉㄥˇ0쎯ㄌㄧㄥˇ1쎯ㄩˋ7쎯	-10.5539
ㄡ0쎯.	-10.554
ㄓㄨ3쎯ㄉㄨㄛ0쎯	-10.5541
▁̇ㄉㄜ1쎯ㄒㄩㄝˊ1쎯ㄕㄥ1쎯	-10.5541
ㄕㄨˇ5쎯:	-10.5546
▁̇ㄉㄜ1쎯ㄏㄠˇ0쎯	-10.5551
쎅～	-10.5554
ㄕㄥˇ0쎯、ㄕˋ4쎯	-10.5555
《ㄓㄨㄥ0쎯ㄏㄨㄚˊ1쎯	-10.5557
ㄧㄠ6쎯ㄑㄧㄥˇ1쎯	-10.5559
ㄓ0쎯ㄗˇ0쎯	-10.556
,ㄓˋ7쎯ㄌㄧˋ0쎯ㄩˊ0쎯	-10.5563
쎆ㄆㄧㄥˊ0쎯ㄈㄤ0쎯ㄍㄨㄥ2쎯	-10.5566
ㄕˋ18쎯ㄓㄨˇ0쎯ㄖㄣˊ3쎯	-10.557
ㄒㄩㄝˊ1쎯ㄐㄧㄠˋ2쎯ㄓㄢ0쎯	-10.5573
ㄒㄧㄢ3쎯ㄇㄧㄥˊ1쎯	-10.5574
ㄏㄡˋ0쎯ㄑㄧㄣˊ4쎯	-10.5575
μ	-10.5575
ㄏㄨㄣ2쎯ㄧㄣ5쎯	-10.5577
ㄕㄤˇ0쎯ㄧㄥˋ0쎯	-10.5577
ㄕㄥ1쎯ㄔㄢˇ0쎯ㄐㄧ12쎯	-10.5579
ㄒㄧ29쎯	-10.5579
ㄓˇ4쎯ㄕˋ2쎯	-10.558
ㄗㄞˋ1쎯ㄕㄤˇ0쎯ㄏㄞˇ0쎯	-10.5581
ㄔㄚˊ1쎯ㄔˊ5쎯	-10.5587
ㄅㄨˇ0쎯ㄔㄨㄥ1쎯	-10.5587
ㄐㄩˋ4쎯ㄊㄨㄢˊ0쎯	-10.5588
ㄨㄟˊ0쎯ㄓㄨㄥ0쎯ㄒㄧㄣ0쎯	-10.5592
,ㄅㄨˋ0쎯ㄉㄨㄢˋ1쎯	-10.5593
쎆ㄍㄨㄥ2쎯ㄌㄧˇ2쎯	-10.5595
ㄓㄨˇ0쎯ㄖㄣˊ0쎯ㄍㄨㄥ2쎯	-10.5595
ㄖㄣˋ1쎯ㄉㄧㄥˋ1쎯	-10.56
ㄌㄨˋ5쎯、	-10.56
ㄏㄤˊ2쎯ㄓㄡ1쎯ㄕˋ4쎯	-10.56
ㄙˋ1쎯ㄓㄡ2쎯	-10.5606
ㄗㄠˇ0쎯ㄋㄧㄢˊ0쎯	-10.5607
ㄒㄧㄝˊ7쎯	-10.5609
ㄧ0쎯ㄎㄜ4쎯	-10.5609
ㄇㄞˋ1쎯ㄎㄜˋ0쎯ㄈㄥ1쎯	-10.5611
ㄋㄚ1쎯ㄒㄧㄢˋ0쎯	-10.5612
,ㄙㄨㄟˊ2쎯	-10.5615
ㄨˇ0쎯ㄐㄧㄣ3쎯	-10.5615
ㄐㄧˊ3쎯ㄉㄚˋ쎯	-10.5616
ㄏㄨㄛˊ0쎯ㄩㄝˋ4쎯	-10.5616
ㄒㄧㄚˋ0쎯ㄇㄧㄢˋ0쎯	-10.5619
ㄗˋ0쎯ㄖㄢˊ0쎯ㄎㄜ2쎯	-10.562
ㄒㄩㄝˊ1쎯ㄐㄧㄠˋ2쎯,	-10.5621
ㄇㄠˊ0쎯ㄗㄜˊ3쎯ㄉㄨㄥ0쎯	-10.5622
ㄆㄟ0쎯	-10.5628
ㄐㄧㄡ1쎯	-10.5629
ㄗㄜˊ1쎯	-10.563
:쎅	-10.563
ㄋㄚˋ1쎯ㄇㄧˇ0쎯	-10.5631
ㄧㄢˇ3쎯ㄩㄢˊ2쎯,	-10.5633
ㄒㄧ20쎯	-10.5634
ㄙˋ1쎯ㄕˊ0쎯	-10.5637
ㄆㄧㄥˊ6쎯	-10.5638
ㄒㄩㄢˇ0쎯ㄩㄥˋ0쎯	-10.5638
ㄈㄨˇ7쎯ㄕˊ5쎯	-10.5639
,ㄏㄡˋ0쎯ㄌㄞˊ0쎯	-10.5643
ㄓㄠ0쎯ㄕㄥ1쎯	-10.5644
▁̇ㄉㄜ1쎯ㄋㄥˊ쎯ㄌㄧˋ0쎯	-10.5644
ㄉㄞˋ0쎯ㄒㄧㄝˋ5쎯	-10.5646
ㄆㄧㄥˊ0쎯ㄒㄧㄢˋ0쎯	-10.5647
ㄍㄨㄛˊ0쎯ㄏㄨㄚˋ1쎯	-10.5648
ㄍㄜ6쎯	-10.565
ㄉㄢˋ5쎯ㄒㄧㄥˋ2쎯	-10.5651
ㄖㄣˊ0쎯ㄇㄧㄣˊ0쎯ㄓㄥˋ3쎯	-10.5651
ㄋㄚ1쎯ㄙㄨㄥˋ1쎯	-10.5653
ㄨㄢˇ5쎯	-10.5653
ㄋㄚ1쎯ㄌㄨˋ5쎯	-10.566
ㄐㄧㄠ6쎯ㄩˋ3쎯ㄊㄧㄥ0쎯	-10.5662
、ㄉㄧㄢˋ0쎯ㄗˇ0쎯	-10.5663
▁̇ㄉㄜ1쎯ㄍㄨㄛ0쎯ㄔㄥˊ7쎯	-10.5664
ㄒㄩˊ쎯ㄓㄡ1쎯	-10.5666
ㄈㄨˋ8쎯ㄒㄧㄢˋ0쎯ㄔㄤˊ0쎯	-10.5667
ㄉㄥ1쎯ㄔㄤˊ1쎯	-10.5678
.쎂쎀쎀쎇ㄋㄧㄢˊ0쎯	-10.5679
-쎂쎀	-10.5679
ㄇㄚ0쎯ㄇㄚ0쎯	-10.568
ㄇㄨˋ1쎯ㄌㄨˋ0쎯	-10.5681
ㄕㄨ2쎯ㄋㄧㄡˇ1쎯	-10.5682
ㄧㄢˋ7쎯	-10.5682
ㄌㄧˋ1쎯ㄔㄥˊ7쎯	-10.5684
ㄆㄟˊ1쎯ㄩˋ3쎯	-10.5684
ㄕㄨ0쎯ㄏㄨㄚˋ1쎯ㄐㄧㄚ3쎯	-10.5688
ㄕㄥ1쎯ㄉㄠˇ0쎯ㄕ2쎯,	-10.5689
ㄩㄝˋ0쎯쎂쎂ㄖˋ0쎯	-10.5694
ㄩㄝˋ0쎯쎁쎉ㄖˋ0쎯	-10.5695
ㄧㄢˊ1	-10.5696
ㄇㄧㄥˊ1쎯ㄔㄠˊ1쎯	-10.57
ㄑㄩㄢˊ1쎯ㄕㄣ2쎯	-10.5701
ㄕㄣ5쎯ㄏㄡˋ1쎯	-10.5702
ㄑㄧˋ7쎯ㄐㄧㄢˋ1쎯	-10.5702
ㄅㄧㄢ1쎯ㄏㄠˊ0쎯	-10.5704
ㄎㄨㄟˊ2쎯	-10.5704
ㄍㄨㄤ0쎯ㄑㄩ2쎯	-10.5707
ㄓㄣˇ1쎯	-10.5708
ㄧㄝˇ0쎯ㄐㄧㄠˋ0쎯	-10.5709
ㄐㄧˊ0쎯ㄑㄧˊ1쎯ㄊㄚ0쎯	-10.5709
ㄒㄧㄤ1쎯ㄐㄧ6쎯	-10.571
ㄎㄜ2쎯ㄆㄨˇ2쎯	-10.5713
ㄑㄧˇ4쎯ㄉㄠˋ0쎯	-10.5719
ㄋㄧㄢˊ0쎯ㄑㄧㄢˊ0쎯	-10.572
ㄉㄧㄠˋ2쎯ㄖㄨˋ0쎯	-10.5723
ㄑㄧㄥ5쎯ㄐㄧㄝˊ2쎯	-10.5725
ㄑㄧˊ1	-10.5728
ㄑㄧㄡˊ2쎯ㄩㄢˊ2쎯	-10.5729
ㄉㄚˋ쎯ㄇㄣˊ0쎯	-10.5732
ㄕㄜˋ0쎯ㄐㄧˋ0쎯,	-10.5734
ㄅㄧˋ11쎯	-10.5738
ㄓㄨˇ0쎯ㄐㄧ6쎯	-10.5738
ㄅㄧˇ2쎯	-10.5739
ㄐㄩˋ4쎯ㄩㄢˋ2쎯	-10.5741
ㄙㄨㄣˇ0쎯ㄕㄤ0쎯	-10.5742
ㄐㄧㄥ2쎯ㄐㄧˇ3쎯ㄕ2쎯	-10.5745
ㄔˋ	-10.5751
ㄒㄧ1쎯ㄌㄨˋ5쎯	-10.5751
ㄧㄥˇ0쎯	-10.5753
,ㄐㄩˋ2쎯	-10.5754
ㄍㄨㄢ1쎯ㄧㄣ4쎯	-10.5754
ㄋㄢˊ1쎯ㄧˇ2쎯	-10.576
,ㄐㄧㄝ2쎯	-10.5761
ㄆㄢˊ	-10.5762
ㄕˊ3쎯ㄧㄝˋ0쎯	-10.5762
ㄓㄤˋ0쎯	-10.5765
ㄔㄣˊ3쎯ㄐㄧ11쎯	-10.5766
ㄑㄧˋ6쎯	-10.5766
ㄈㄟˇ0쎯	-10.5773
ㄎㄢ3쎯	-10.5773
ㄊㄞˋ0쎯ㄩㄢˊ4쎯	-10.5773
ㄩˊ8쎯	-10.5776
ㄅㄞˇ0쎯ㄩˊ2쎯	-10.5777
쎀.쎀쎀	-10.578
ㄔㄤˊ0쎯ㄔㄥˊ4쎯	-10.5781
.쎂쎀쎁쎁ㄋㄧㄢˊ0쎯	-10.5784
ㄓ1쎯ㄔㄥ1쎯	-10.5785
ㄑㄧˋ0쎯ㄒㄧ7쎯	-10.5786
ㄩㄝˋ0쎯쎆ㄖˋ0쎯	-10.5787
ㄔㄢˊ3쎯	-10.5791
ㄙˋ	-10.5793
ㄉㄧˋ3쎯ㄦˋ0쎯ㄐㄧㄝˋ2쎯	-10.5793
ㄉㄤ0쎯ㄐㄧㄣ2쎯	-10.5794
ㄍㄨㄢ1쎯ㄍㄨㄤ0쎯	-10.5795
ㄏㄡˋ1쎯ㄉㄨˋ2쎯	-10.5795
쎂ㄆㄧㄥˊ0쎯ㄈㄤ0쎯ㄍㄨㄥ2쎯	-10.5797
ㄓㄨㄤ1쎯ㄘㄨㄣ0쎯	-10.5799
ㄍㄨㄥ3쎯ㄋㄥˊ쎯:	-10.58
ㄈㄢˋ3쎯ㄨㄟˊ2쎯:	-10.5801
쎁.쎄	-10.5804
ㄕˋ8쎯ㄒㄧㄤˋ1쎯	-10.5807
ㄒㄧㄥ1쎯ㄐㄧˊ2쎯	-10.5812
ㄍㄠ0쎯ㄎㄠˇ0쎯	-10.5814
ㄍㄜˋ0쎯ㄍㄨㄛˊ0쎯	-10.5815
『	-10.5816
ㄕㄨㄟˋ1쎯ㄕㄡ쎯	-10.5817
ㄇㄧㄥˊ0쎯ㄘˊ0쎯	-10.5818
ㄖㄜˋ쎯ㄑㄧㄥˊ0쎯	-10.5818
ㄐㄧˋ3쎯ㄕㄨˇ5쎯	-10.5819
ㄇㄧˋ1쎯ㄑㄧㄝ쎯	-10.5819
ㄧㄡˊ5쎯ㄎㄜˋ2쎯	-10.5819
쎂.쎄	-10.582
ㄩㄣˇ0쎯ㄒㄩˇ0쎯	-10.5821
ㄔㄢˊ0쎯ㄑㄩ0쎯	-10.5823
ㄧㄣ3쎯	-10.5827
),ㄗˋ1쎯	-10.583
ㄊㄢˇ0쎯ㄎㄜˋ0쎯	-10.5831
ㄇㄧㄠˊ1쎯ㄏㄨㄟˋ5쎯	-10.5833
ㄖㄨㄥˊ3쎯	-10.5834
ㄋㄚ0쎯ㄍㄜˇ0쎯	-10.5835
ㄓㄣˇ2쎯	-10.5835
ㄌㄧㄣˊ14쎯	-10.5835
ㄥˋ0쎯ㄉㄤˇ1쎯ㄩㄢˊ2쎯.	-10.5836
ㄒㄩㄝˊ1쎯ㄐㄧ12쎯ㄐㄧㄣ3쎯	-10.5837
ㄉㄨㄥ0쎯ㄍㄨㄢˇ2쎯	-10.5838
ㄨㄟˋ13쎯	-10.584
ㄧˋ31쎯	-10.5843
쎁ㄑㄧㄢˊ1쎯	-10.5844
ㄕㄤ1쎯ㄔㄥˊ4쎯	-10.5845
》、《ㄓㄨㄥ0쎯ㄍㄨㄛˊ0쎯	-10.5845
ㄗㄨˇ1쎯ㄔㄤˊ0쎯	-10.5846
ㄓˊ3쎯ㄉㄜˊ0쎯	-10.5847
ㄕˋ8쎯ㄐㄧˋ9쎯	-10.5849
ㄕㄥ	-10.5852
ㄏㄨˋ1쎯ㄒㄧㄥˊ2쎯	-10.5858
ㄇㄧㄣˊ0쎯ㄙㄨˊ쎯	-10.5859
ㄍㄨㄢˋ0쎯ㄔㄨㄢ1쎯	-10.5865
,ㄍㄨˋ1쎯ㄇㄧㄥˊ0쎯	-10.587
(쎁쎇	-10.587
ㄑㄧˋ7쎯ㄘㄞˊ1쎯	-10.5871
ㄩㄝˋ0쎯쎂쎄ㄖˋ0쎯	-10.5872
ㄋㄞˇ0쎯ㄓˋ0쎯	-10.5878
ㄍㄠˇ0쎯	-10.5878
ㄐㄧ1	-10.5878
ㄔㄨ0쎯ㄆㄧㄣˇ쎯	-10.5879
ㄕㄠ1쎯ㄖㄜˋ쎯	-10.5888
ㄘㄨㄣ0쎯ㄖㄣˊ0쎯	-10.5895
ㄅㄢ5쎯	-10.5899
ㄋㄧㄢˊ3쎯	-10.5903
ㄧˇ5쎯	-10.5907
ㄍㄨㄢˇ1쎯ㄌㄧˇ3쎯ㄏㄜˊ2쎯	-10.5907
ㄕㄣˇ1쎯ㄆㄢˋ0쎯	-10.5915
ㄋㄧㄢˊ0쎯ㄆㄧㄥˊ0쎯	-10.5929
ㄕㄨㄛˋ4쎯	-10.593
ㄓㄨㄤˋ2쎯	-10.5931
ㄐㄧㄢˋ2쎯ㄓㄨˋ10쎯ㄨˋ3쎯	-10.5933
ㄆㄧㄢ2쎯,	-10.5934
ㄖㄜˋ쎯ㄞˋ1쎯	-10.5934
ㄌㄧㄤˋ2쎯	-10.5935
쎁쎀쎈	-10.5936
ㄨㄟˊ0쎯ㄧ0쎯	-10.5937
ㄒㄧㄝˋ2쎯	-10.5942
.ㄍㄣ0쎯ㄐㄩ4쎯	-10.5947
,ㄋㄞˇ0쎯	-10.5953
ㄓㄜ0쎯	-10.5955
ㄕˋ8쎯ㄕˊ3쎯	-10.5958
ㄨˊ0쎯	-10.596
ㄏㄨㄤˊ0쎯ㄏㄡˋ0쎯	-10.5961
ㄍㄜˇ1쎯ㄈㄚˇ0쎯	-10.5962
ㄅㄧㄢ1쎯ㄓㄨˋ7쎯	-10.5964
ㄕㄜˋ2쎯	-10.5965
ㄉㄚˋ쎯ㄔㄣˊ0쎯	-10.5966
ㄖㄨㄟˋ1쎯ㄕˋ0쎯	-10.5966
ㄕㄜˋ0쎯ㄉㄧㄥˋ1쎯	-10.5967
ㄩㄝˋ0쎯쎁쎁ㄖˋ0쎯	-10.5967
ㄕㄤˇ0쎯ㄧㄡˊ5쎯	-10.5968
.”ㄇㄧㄥˊ1쎯	-10.5969
ㄘˇ0쎯ㄨㄞˋ쎯	-10.5971
ㄔㄨㄢ0쎯ㄒㄧㄢˋ0쎯	-10.5975
ㄧˇ2쎯ㄨㄞˋ쎯	-10.5982
ㄑㄧㄝ쎯ㄆㄧㄢ0쎯	-10.5983
ㄑㄩㄢˋ0쎯	-10.5984
ㄉㄧˋ3쎯ㄦˋ0쎯ㄘˋ0쎯	-10.5994
ㄙˋ4쎯ㄌㄧㄠˋ0쎯	-10.5998
ㄊㄨㄥ0쎯ㄓ7쎯	-10.5998
쎀.쎄	-10.6003
ㄐㄧㄡˋ	-10.6006
ㄕㄤˇ0쎯ㄕㄥ0쎯	-10.6007
ㄊㄚ0쎯ㄕˋ15쎯	-10.6011
ㄓㄨㄥ0쎯ㄒㄧㄣ0쎯.	-10.6013
ㄔㄨㄢˊ0쎯·	-10.6015
쎁쎀쎅	-10.6021
ㄔㄤˋ1쎯ㄉㄠˇ0쎯	-10.6021
ㄋㄨㄥˊ0쎯ㄔㄤˊ1쎯	-10.6022
ㄕˊ1쎯ㄐㄧㄢ4쎯:쎂쎀쎀	-10.6025
쎀쎀ㄇㄨˇ2쎯,	-10.6027
ㄉㄞˋ0쎯ㄊㄧˋ4쎯	-10.6028
ㄧˋ4	-10.6029
ㄌㄩˇ4쎯	-10.603
ㄍㄟˇ쎯ㄩˊ1쎯	-10.6033
▁̇ㄉㄜ1쎯ㄧㄡˊ5쎯ㄒㄧˋ0쎯	-10.6038
ㄅㄧˋ2쎯ㄧㄝˋ0쎯ㄕㄥ1쎯	-10.6044
.ㄒㄧㄢˋ1쎯ㄗㄞˋ1쎯	-10.6045
ㄎㄨㄤˋ3쎯	-10.6045
ㄋㄟˋ쎯ㄏㄢˊ3쎯	-10.6048
〈	-10.6049
,ㄌㄧˋ9쎯ㄕㄨˇ1쎯	-10.6049
ㄧ0쎯ㄓㄤ0쎯	-10.605
ㄅㄚˋ3쎯	-10.6051
ㄏㄨㄢˊ0쎯ㄖㄠˋ쎯	-10.6054
ㄎㄜˇ0쎯ㄎㄡˇ쎯	-10.6054
쎃쎆쎀	-10.6056
ㄗㄤ1쎯	-10.6058
ㄙ3쎯ㄌㄨˋ5쎯	-10.6058
ㄎㄨㄣ0쎯	-10.6058
ㄊㄨㄥˊ0쎯ㄇㄧㄥˊ0쎯	-10.6062
ㄖㄣˊ0쎯ㄑㄧˋ0쎯	-10.6067
,ㄓㄨˋ3쎯ㄘㄜˋ0쎯ㄗ2쎯	-10.6071
ㄧㄢ4쎯	-10.6072
ㄇㄛˋ0쎯ㄌㄧˋ1쎯	-10.6072
ㄕˋ15쎯ㄍㄨㄛˊ0쎯ㄐㄧㄚ3쎯	-10.6073
ㄖㄨㄣˋ1쎯ㄏㄨㄚˊ3쎯	-10.6074
ㄕㄤˋ0쎯ㄨㄟˋ1쎯	-10.6074
ㄩㄝˋ0쎯쎁쎇ㄖˋ0쎯	-10.6076
ㄍㄨㄥ5쎯ㄧㄥ0쎯ㄕㄤ1쎯	-10.6077
ㄇㄛˊ0쎯ㄕㄨˇ5쎯	-10.6078
ㄩㄥ	-10.6079
ㄐㄧㄢˇ5쎯ㄔㄚˊ3쎯	-10.6082
.ㄗㄨㄛ0쎯ㄨㄟˊ0쎯	-10.6082
.ㄨㄛˇ쎯ㄇㄣˊ1쎯	-10.6083
ㄒㄧㄠ2쎯ㄔㄨˊ0쎯	-10.6086
ㄐㄧㄥ8쎯ㄏㄨㄚˊ1쎯	-10.6087
ㄎㄢˇ0쎯	-10.6087
ㄈㄢˋ6쎯	-10.6088
ㄔㄨㄢˊ0쎯ㄔㄥˊ3쎯	-10.609
ㄗㄨㄥˇ0쎯ㄐㄩˊ0쎯	-10.6095
ㄒㄧㄢˋ1쎯ㄘㄨㄣˊ쎯	-10.6097
쎁쎇쎀	-10.6101
ㄎㄜˇ0쎯ㄈㄣ0쎯ㄨㄟˊ0쎯	-10.6106
ㄑㄩㄢˊ2쎯ㄓㄡ1쎯	-10.6106
ㄌㄧˋ3쎯ㄈㄤ0쎯ㄇㄧˇ0쎯	-10.6108
ㄐㄧ6쎯ㄔㄨㄤˊ0쎯	-10.6108
ㄧㄠˊ11쎯	-10.6111
ㄇㄟˊ7쎯	-10.6113
ㄕㄢ3쎯ㄏㄨˊ10쎯	-10.6114
ㄌㄧㄝˋ0쎯ㄖㄨˋ0쎯	-10.6119
ㄒㄧㄤ3쎯	-10.6119
ㄉㄤ0쎯ㄖㄢˊ0쎯	-10.612
ㄐㄧㄠ6쎯ㄔㄥˊ7쎯	-10.612
ㄏㄨㄟ1쎯	-10.6125
,ㄧㄣ0쎯ㄦˊ1쎯	-10.6133
ㄎㄡˇ쎯ㄍㄢˇ3쎯	-10.6134
ㄦˇ	-10.6144
.쎂쎀쎁쎂ㄋㄧㄢˊ0쎯	-10.6144
ㄅㄢˋ0쎯ㄍㄨㄥ2쎯ㄕˋ18쎯、	-10.6148
ㄩㄝˋ0쎯쎉ㄖˋ0쎯	-10.6151
ㄒㄧㄠ2쎯ㄕ1쎯	-10.6156
ㄅㄧㄢˋ0쎯ㄉㄜˊ0쎯	-10.6157
ㄐㄧㄚ0쎯ㄙㄨˋ3쎯	-10.616
ㄌㄧㄥˊ4쎯ㄕㄥ2쎯	-10.6167
▁̇ㄉㄜ0쎯ㄩˋ7쎯	-10.6169
ㄢˇ2쎯	-10.6173
ㄨˋ3쎯.ㄧㄡˇ1쎯ㄍㄥ2쎯	-10.6174
(쎁쎅	-10.6177
ㄉㄨㄛ0쎯ㄨㄟˊ0쎯	-10.6179
ㄇㄛˋ0쎯ㄩㄢˊ0쎯.	-10.6179
ㄧˋ18쎯ㄨㄞˋ쎯	-10.6179
ㄈㄥ1쎯ㄕ6쎯	-10.6185
ㄨㄢ0쎯ㄑㄩ0쎯	-10.6185
о	-10.6186
ㄕㄨ4쎯ㄐㄧㄣ4쎯ㄊㄧㄝ1쎯	-10.6191
ㄒㄩㄝˊ1쎯ㄧㄢˊ6쎯ㄐㄧㄡ1쎯	-10.6192
ㄑㄩㄢˊ1쎯ㄕˋ3쎯ㄐㄧㄝˋ3쎯	-10.6193
ㄗㄨㄛˋ2쎯ㄉㄠˋ0쎯	-10.6195
ㄩㄥˋ0쎯ㄕㄨㄟˇ쎯	-10.6196
ㄑㄩㄢˊ1쎯ㄡ0쎯	-10.6196
ㄔㄨㄥˊ1쎯ㄓˊ5쎯ㄧㄝˋ0쎯	-10.6197
,ㄅㄧㄢˋ1쎯	-10.62
ㄐㄩˊ2쎯	-10.62
쎁쎆쎀쎀	-10.6203
▁̇ㄉㄜ1쎯ㄕˊ1쎯ㄏㄡˋ2쎯,	-10.6203
ㄓ0쎯ㄧˋ18쎯	-10.6205
ㄌㄧㄤˇ0쎯ㄢˋ0쎯	-10.6206
〉	-10.6208
ㄆㄚˊ0쎯	-10.6215
4쎯ㄨˋ2쎯ㄌㄧˇ3쎯ㄕˋ8쎯	-10.6216
ㄩㄢˊ0쎯ㄐㄧㄢˋ1쎯	-10.622
ㄔㄤˊ4쎯ㄓㄡ1쎯	-10.6223
ㄐㄧㄠ6쎯ㄧㄢˊ6쎯	-10.6223
ㄘㄞˊ2쎯ㄔㄢˇ0쎯	-10.6224
ㄈㄢ1쎯ㄐㄧㄚ1쎯	-10.6225
ㄐㄧㄠ6쎯ㄊㄤˊ1쎯	-10.6226
ㄉㄨㄛ0쎯ㄅㄨˋ4쎯	-10.6227
ㄩˋ0쎯ㄇㄧˇ0쎯、	-10.623
ㄗㄨㄥ1쎯ㄙㄜˋ0쎯	-10.623
ㄊㄧㄢ0쎯ㄕˇ2쎯	-10.6233
ㄑㄧㄥ0쎯ㄉㄠˇ1쎯ㄕˋ4쎯	-10.6234
ㄈㄢˇ1쎯ㄏㄨㄟˊ0쎯	-10.6236
ㄖㄨˋ0쎯ㄓㄨˇ0쎯ㄧㄠ4쎯	-10.6237
쎃쎅쎀	-10.6239
ㄕㄨㄣˋ0쎯ㄌㄧˋ6쎯	-10.6239
ㄖㄨˋ0쎯ㄎㄡˇ쎯	-10.624
ㄙㄨㄟˋ0쎯ㄕˊ1쎯	-10.6242
ㄅㄟˇ쎯ㄏㄞˇ0쎯	-10.6242
ㄇㄟˊ1쎯ㄍㄨㄟ5쎯	-10.6244
ㄊㄨˇ0쎯ㄉㄡˋ0쎯	-10.6247
ㄏㄨˊ0쎯	-10.6249
ㄌㄧㄠˊ1쎯ㄒㄧㄠˋ3쎯	-10.6251
-쎉	-10.6253
ㄓㄨˋ9쎯ㄗㄠˋ2쎯	-10.6254
ㄔㄚˊ2쎯ㄒㄩㄣˊ3쎯	-10.6255
ㄨˋ3쎯ㄌㄧˇ3쎯ㄒㄩㄝˊ1쎯	-10.6256
ㄧㄤˊ4쎯ㄘㄨㄥ2쎯	-10.6257
ㄕㄥˇ0쎯ㄨㄟˇ5쎯	-10.6258
ㄕㄠˋ0쎯ㄎㄞ0쎯	-10.626
ㄐㄧㄢ1쎯	-10.6261
ㄨㄤˊ1쎯ㄗˇ0쎯	-10.6263
ㄆㄨ0쎯	-10.6263
ㄉㄨㄟˋ1쎯ㄔㄣˋ1쎯	-10.6263
ㄉㄠˇ1쎯ㄩˇ1쎯	-10.6263
ㄅㄛ4쎯ㄔㄨ0쎯	-10.6267
(?	-10.6268
ㄒㄧ1쎯ㄘㄜˋ2쎯	-10.6268
ㄈㄣ0쎯ㄐㄧㄝˇ1쎯	-10.6272
ㄇㄟˊ6쎯ㄎㄨㄤˋ2쎯	-10.6274
ㄐㄧˇ1쎯ㄨㄟˇ5쎯	-10.6276
ㄓ0쎯ㄕㄤˇ0쎯	-10.6278
ㄈㄢ4쎯	-10.628
쎄쎈쎀	-10.6281
ㄐㄧㄣ3쎯ㄕㄢ0쎯	-10.6284
ㄐㄧㄣ0쎯	-10.6289
ㄎㄨㄥˇ0쎯ㄗˇ0쎯	-10.629
ㄍㄨㄥ	-10.6297
●	-10.6301
쎃ㄆㄧㄥˊ0쎯ㄈㄤ0쎯ㄍㄨㄥ2쎯	-10.6302
ㄓ0쎯ㄗㄨㄛ0쎯	-10.6304
ㄩㄥˇ2쎯	-10.6306
ㄎㄜ2쎯ㄓˊ5쎯ㄨˋ3쎯	-10.6308
ㄖㄨㄟˋ1쎯ㄉㄧㄢˇ0쎯	-10.631
ㄏㄨㄚˊ1쎯ㄑㄧㄠˊ1쎯	-10.631
ㄒㄧㄤˋ0쎯ㄕㄤˇ0쎯	-10.6315
ㄐㄧㄥ8쎯ㄓˋ7쎯	-10.6316
ㄉㄨㄟˋ1쎯ㄧㄥ0쎯	-10.6317
ㄍㄨㄥˋ0쎯ㄏㄜˊ2쎯	-10.6325
ㄒㄧㄝˊ0쎯ㄅㄧㄥˇ2쎯	-10.6327
쎃.쎀	-10.6329
쎅쎀쎀ㄎㄜˋ0쎯	-10.633
ㄍㄨㄢ0쎯ㄒㄧㄣ0쎯	-10.6331
ㄅㄨˋ0쎯ㄉㄢˋ2쎯	-10.6333
ㄩˊ0쎯쎂쎀쎁쎁ㄋㄧㄢˊ0쎯	-10.6336
ㄒㄧㄣ5쎯ㄋㄨㄥˊ0쎯ㄘㄨㄣ0쎯	-10.6338
ㄇㄧㄠˊ0쎯ㄗㄨˊ1쎯	-10.634
.쎂쎀쎀쎅ㄋㄧㄢˊ0쎯	-10.6343
ㄌㄧㄠˊ1쎯ㄈㄚˇ0쎯	-10.6344
ㄧㄡˇ1쎯ㄒㄧㄢˋ2쎯	-10.6344
ㄐㄧ0쎯ㄕˊ0쎯	-10.6348
ㄐㄧ7쎯ㄖㄡˋ쎯	-10.635
ㄌㄧㄣˊ1쎯ㄓㄨㄥ0쎯	-10.6351
ㄩˋ23쎯	-10.6352
▁̇ㄉㄜ1쎯ㄍㄨㄥ3쎯ㄋㄥˊ쎯	-10.6356
ㄔㄡˊ5쎯	-10.6357
ㄗˋ0쎯ㄓˋ5쎯ㄓㄡ1쎯	-10.6362
ㄓㄨˇ0쎯ㄖㄣˊ0쎯	-10.6365
쎁～	-10.6366
ㄐㄧ6쎯ㄒㄧㄤ5쎯	-10.6366
ㄘㄨㄛˋ2쎯ㄨˋ4쎯	-10.6367
ㄧ0쎯ㄔㄨˇ0쎯	-10.6369
ㄍㄨㄛˊ0쎯ㄔㄢˇ0쎯	-10.6373
ㄐㄧ6쎯,	-10.6376
ㄕˊ3쎯ㄐㄧˋ5쎯ㄕㄤˇ0쎯	-10.6378
ㄎㄨㄥ0쎯ㄓㄨㄥ0쎯	-10.6379
ㄑㄧㄥˊ1쎯	-10.638
ㄇㄟˇ1쎯ㄋㄩˇ0쎯	-10.6384
ㄕˋ4쎯ㄇㄧㄣˊ0쎯	-10.6387
ㄩㄝˋ0쎯쎁쎄ㄖˋ0쎯	-10.6388
▁̇ㄉㄜ1쎯ㄏㄤˊ0쎯ㄨㄟˊ0쎯	-10.6394
ㄋㄨˊ0쎯	-10.6395
ㄩㄝˋ0쎯쎃ㄖˋ0쎯	-10.6398
ㄩˊ12쎯	-10.64
,쎁쎉쎈쎄ㄋㄧㄢˊ0쎯	-10.6401
.ㄊㄚ1쎯ㄕˋ15쎯	-10.6401
ㄐㄧㄚ3쎯ㄒㄧㄤ0쎯	-10.6402
ㄒㄧㄚˋ0쎯ㄧㄡˊ5쎯	-10.6402
ㄌㄨㄥˊ	-10.6404
쎂쎀쎀쎂	-10.6407
ㄧ0쎯ㄐㄧ13쎯	-10.6407
ㄐㄧㄤˇ0쎯ㄐㄧㄝˇ1쎯	-10.6415
ㄎㄨㄤˋ2쎯ㄔㄢˇ0쎯	-10.6416
ㄐㄧㄣˋ0쎯ㄑㄩˇ0쎯	-10.6417
ㄨㄟ3쎯ㄕㄥ1쎯ㄨˋ3쎯	-10.6418
ㄉㄢˋ7쎯	-10.6419
ㄆㄥˊ3쎯	-10.6419
ㄗㄚˊ0쎯ㄐㄧㄠ0쎯	-10.642
ㄕㄨ0쎯ㄐㄧˋ1쎯.	-10.642
ㄅㄟˇ쎯ㄌㄨˋ5쎯	-10.6424
ㄑㄧㄢ5쎯ㄧㄠ2쎯	-10.6429
▁	-10.6433
-쎁쎀	-10.6433
ㄨㄞˋ쎯ㄍㄨㄛˊ0쎯ㄩˇ6쎯	-10.6434
ㄨˇ3쎯ㄉㄧˋ1쎯	-10.6434
ㄏㄜˊ2쎯ㄈㄨˊ5쎯ㄨˋ2쎯	-10.6437
ㄏㄨㄚ0쎯ㄅㄢˋ6쎯	-10.6444
ㄑㄩㄢˊ1쎯ㄔㄣˋ1쎯	-10.6444
ㄒㄧㄢˋ3쎯ㄕㄤˇ0쎯	-10.6444
ㄓˇ4쎯ㄋㄚ1쎯	-10.6444
ㄒㄧㄤ0쎯ㄨㄟˋ2쎯ㄩˊ0쎯	-10.6444
,ㄈㄣ0쎯ㄅㄧㄝˊ0쎯	-10.6445
ㄐㄧㄠ6쎯ㄕ2쎯,	-10.6446
.ㄒㄧㄢ1쎯ㄏㄡˋ0쎯	-10.6455
ㄍㄨㄢ2쎯ㄩㄢˊ2쎯	-10.6459
ㄔㄨ0쎯ㄒㄧㄝˇ1쎯	-10.6462
ㄏㄨㄚˋ0쎯ㄓㄨㄤ0쎯ㄆㄧㄣˇ쎯	-10.6462
ㄎㄢ2쎯	-10.6463
ㄓˋ3쎯ㄌㄥˇ쎯	-10.6464
쎂ㄏㄠˊ0쎯	-10.6465
ㄆㄧㄥˊ1쎯ㄕㄣˇ1쎯	-10.6467
ㄇㄧㄢˇ	-10.6467
ㄍㄢˇ4쎯ㄌㄢˇ3쎯	-10.6468
ㄍㄨㄟ	-10.6468
쎂～	-10.6471
ㄘㄨㄣ0쎯.	-10.6471
ㄐㄧㄚ3쎯ㄩㄢˊ1쎯	-10.6472
ㄇㄨˋ0쎯ㄘㄞˊ1쎯	-10.6474
.ㄉㄢˋ2쎯ㄕˋ15쎯	-10.6484
ㄏㄢˊ3쎯	-10.6486
ㄐㄧ6쎯ㄕㄣ2쎯	-10.6494
ㄑㄧㄝ쎯ㄏㄨㄢˋ2쎯	-10.6494
◎	-10.6495
쎁쎂ㄍㄜˇ0쎯	-10.6497
.’”	-10.6498
▁̇ㄉㄜ1쎯ㄒㄧㄣˋ0쎯ㄒㄧ7쎯	-10.6501
ㄍㄨㄥ2쎯ㄌㄧˇ2쎯ㄔㄨˇ0쎯	-10.6503
ㄧㄡˇ1쎯ㄌㄧˋ0쎯	-10.6505
.ㄔㄨ0쎯ㄔㄨˇ0쎯:	-10.6505
ㄙㄨㄛˇ0쎯ㄗㄨㄛ0쎯	-10.6506
ㄩˊ0쎯ㄘˇ0쎯	-10.6507
ㄓˋ0쎯ㄕㄤˇ0쎯	-10.651
ㄓˇ5쎯	-10.6511
ㄅㄟ1쎯	-10.6513
ㄏㄨㄥ0쎯	-10.6516
ㄐㄩ0쎯	-10.6523
ㄇㄛˋ1쎯,	-10.6528
ㄉㄧㄢˇ0쎯ㄧㄚˇ쎯	-10.6537
и	-10.654
ㄎㄡˇ쎯,	-10.6545
ㄑㄩ0쎯ㄒㄧㄢˋ3쎯	-10.6549
ㄎㄜˇ0쎯ㄩㄥˋ0쎯	-10.655
쎅쎀ㄇㄧˇ0쎯	-10.6553
ㄌㄧˇ3쎯ㄌㄨㄣˊ2쎯ㄏㄜˊ2쎯	-10.6554
ㄍㄨㄥˋ0쎯ㄑㄧㄥ0쎯	-10.6554
ㄕˊ1쎯ㄐㄧ13쎯,	-10.6558
ㄙㄨˋ8쎯ㄒㄧㄝˇ0쎯	-10.6559
ㄎㄞ0쎯ㄔㄨㄤ0쎯	-10.6559
ㄐㄧㄝˊ1	-10.6564
ㄇㄥˊ0쎯	-10.6567
쎂.쎈	-10.6568
ㄓㄠˋ4쎯	-10.6568
ㄅㄧˋ2	-10.6574
ㄏㄨㄢˊ0쎯ㄐㄧㄝ0쎯	-10.6576
ㄕㄣˇ1쎯ㄉㄧㄥˋ1쎯	-10.6576
쎂쎀쎀쎁	-10.6577
ㄐㄧㄣ3쎯ㄍㄤ2쎯	-10.6577
ㄆㄢˋ0쎯ㄉㄨㄢˋ1쎯	-10.6577
ㄗㄡ0쎯	-10.6579
ㄑㄧˊ11쎯	-10.6582
ㄗㄞˋ1쎯ㄐㄧㄣ2쎯	-10.6583
ㄏㄞˇ0쎯ㄍㄨㄢ0쎯	-10.6586
ㄌㄧˇ0쎯ㄆㄧㄣˇ쎯	-10.6588
ㄗㄨㄥˇ0쎯ㄕˋ15쎯	-10.6591
ㄊㄡˊ1쎯ㄧㄥˇ1쎯	-10.6592
ㄓㄣ3쎯ㄍㄨㄟˋ1쎯	-10.6593
ㄒㄧㄣ3쎯ㄕㄤˇ2쎯	-10.6593
;쎁	-10.6594
ㄧ6쎯	-10.6597
쎂쎀ㄋㄧㄢˊ0쎯	-10.6599
ㄏㄢˋ0쎯ㄗˋ1쎯	-10.66
ㄧㄠ4쎯ㄙㄨˋ2쎯	-10.6601
ㄩㄝˋ0쎯쎁쎃ㄖˋ0쎯	-10.6602
ㄎㄞ0쎯ㄈㄚ쎯ㄧㄡˇ1쎯	-10.6605
ㄑㄧㄥ0쎯ㄏㄞˇ0쎯	-10.6608
ㄈㄚˊ0쎯	-10.6609
ㄕㄨˋ6쎯	-10.6609
ㄓㄨㄢ0쎯ㄒㄩㄝˊ1쎯ㄌㄧˋ1쎯	-10.6609
ㄅㄧˋ1쎯ㄧㄠ4쎯	-10.6616
쎇)	-10.6617
ㄐㄩㄣˋ1쎯	-10.6618
ㄕㄢˇ1쎯	-10.662
ㄍㄨㄥ0쎯ㄗㄨㄛ0쎯ㄓㄨㄥ0쎯	-10.6622
ㄋㄚ1쎯ㄐㄧㄥ1쎯ㄕˋ4쎯	-10.6625
ㄩㄝˋ0쎯쎇ㄖˋ0쎯	-10.6636
쎅°C	-10.6638
ㄖㄡˋ쎯ㄓˋ4쎯	-10.6641
ㄖㄨㄥˊ5쎯	-10.6642
ㄘㄨㄥˊ0쎯ㄒㄧㄠˇ0쎯	-10.6652
ㄘㄚ0쎯	-10.6652
.ㄘˇ0쎯ㄨㄞˋ쎯,	-10.6653
ㄨㄞˋ쎯ㄅㄨˋ4쎯	-10.6655
ㄨㄟˋ6쎯ㄓ0쎯	-10.6655
ㄐㄧ12쎯ㄐㄧㄣ3쎯ㄏㄨㄟˋ2쎯	-10.6655
ㄊㄡˊ0쎯ㄅㄨˋ4쎯	-10.6656
ㄘˊ0쎯ㄏㄨㄟˋ1쎯	-10.6669
쎂쎄ㄒㄧㄠˇ0쎯ㄕˊ1쎯	-10.6673
ㄆㄢˋ3쎯	-10.6675
ㄐㄧㄝ3쎯ㄏㄨㄣ2쎯	-10.6679
ㄗㄠˋ4쎯	-10.668
ㄒㄧㄢ1쎯ㄏㄡˋ0쎯ㄖㄣˊ3쎯	-10.6681
ㄋㄨㄥˊ0쎯ㄔㄢˇ0쎯ㄆㄧㄣˇ쎯	-10.6683
ㄉㄥˇ0쎯ㄉㄥˇ0쎯.	-10.6687
ㄨㄟˊ0쎯ㄓˇ0쎯	-10.6689
ㄓㄞˇ쎯	-10.6691
ㄅㄞˊ0쎯ㄘㄞˋ0쎯	-10.6691
쎄ㄆㄧㄥˊ0쎯ㄈㄤ0쎯ㄍㄨㄥ2쎯	-10.6694
ㄓㄨㄢˇ쎯ㄅㄧㄢˋ0쎯	-10.6694
ㄊㄨˊ2쎯ㄐㄧㄥˋ0쎯	-10.6695
;ㄧㄡˇ1쎯ㄌㄧㄣˊ1쎯	-10.6697
ㄏㄠˇ0쎯ㄆㄧㄥˊ1쎯.	-10.6697
ㄓㄥˋ3쎯ㄨㄟˇ5쎯	-10.6698
ㄑㄧㄡ0쎯ㄌㄧㄥˊ6쎯	-10.6699
(쎁쎉쎃	-10.6702
ㄌㄧㄡˊ3쎯ㄕㄨㄟˇ쎯	-10.6708
ㄧˇ2쎯ㄘˇ0쎯	-10.6709
》,《	-10.671
ㄘㄨㄟˋ2쎯	-10.6711
ㄩㄥˇ	-10.6712
ㄐㄧˋ2쎯ㄕㄨˋ0쎯ㄏㄜˊ2쎯	-10.6713
ㄘˋ0쎯ㄏㄨㄟˋ2쎯ㄧˋ4쎯	-10.6714
ㄈㄣ4쎯ㄨㄟˊ2쎯	-10.6715
ㄖㄢˊ1쎯ㄕㄠ1쎯	-10.6716
ㄉㄧㄢ2쎯	-10.6726
ㄑㄩㄢˊ1쎯ㄒㄧㄤ0쎯	-10.6726
ㄐㄧㄣˋ4쎯ㄆㄠ1쎯	-10.6726
ㄓˋ3쎯ㄅㄟˋ2쎯	-10.6727
ㄅㄧˇ3쎯ㄕㄨㄣˋ0쎯	-10.6729
ㄌㄧㄣˊ2쎯ㄧˊ12쎯	-10.6735
ㄌㄧㄤˇ0쎯ㄇㄧㄢˋ0쎯	-10.6735
ㄇㄟˊ1	-10.6737
ㄐㄧˋ13쎯ㄕㄥ1쎯	-10.6737
ㄊㄨㄥˇ2쎯	-10.6739
ㄓㄨˇ0쎯ㄌㄧㄡˊ3쎯	-10.6739
ㄏㄨˋ1쎯ㄨㄞˋ쎯	-10.6741
ㄉㄧㄥˇ0쎯ㄐㄧˊ2쎯	-10.6745
ㄓㄠˋ3쎯	-10.6745
,ㄐㄧ11쎯ㄐㄧˊ3쎯	-10.6745
ㄏㄟ0쎯ㄅㄞˊ0쎯	-10.6748
ㄖㄣˊ0쎯.ㄓㄨㄥ0쎯ㄍㄨ	-10.675
ㄨㄟˊ15쎯ㄈㄤ1쎯	-10.6752
ㄓㄨˇ0쎯ㄉㄨㄥˋ0쎯	-10.6754
ㄌㄧㄥˊ2쎯ㄏㄨㄣˊ1쎯	-10.6757
ㄔㄤ	-10.6759
ㄓㄢˋ4쎯	-10.676
ㄈㄥ1쎯ㄩㄣˊ0쎯	-10.6762
ㄇㄛˋ8쎯ㄒㄧ1쎯ㄍㄜ2쎯	-10.6763
ㄧˇ2쎯ㄔㄨㄥˊ1쎯ㄓˊ5쎯	-10.6765
ㄏㄨㄚ0쎯ㄋㄧㄠˇ0쎯	-10.6766
ㄐㄩˋ8쎯ㄐㄧˊ8쎯	-10.6767
쎁쎀%	-10.677
ㄗㄨㄥˋ0쎯ㄏㄥˊ1쎯	-10.6774
ㄅㄥ0쎯	-10.6775
ㄕㄨㄟˇ쎯ㄔㄢˇ0쎯	-10.6786
ㄩㄝˋ0쎯쎂ㄖˋ0쎯	-10.6787
,ㄕˋ15쎯ㄧㄡˊ1쎯	-10.6788
ㄈㄢˊ3쎯ㄖㄨㄥˊ2쎯	-10.679
쎇.쎅	-10.6791
ㄐㄧ8쎯ㄐㄧㄥ8쎯	-10.6793
ㄑㄩㄢˊ0쎯ㄧˋ15쎯	-10.6797
ㄏㄨㄟˊ0쎯ㄗㄨˊ1쎯	-10.6801
ㄧㄥ4쎯	-10.6801
ㄦˊ1쎯ㄔㄥˊ0쎯,	-10.6804
ㄅㄧˇ	-10.6805
ㄐㄧㄚ3쎯ㄔㄤˊ0쎯	-10.6805
ㄔㄥˊ0쎯ㄒㄧㄥˊ2쎯	-10.6806
ㄇㄣ쎯	-10.6807
ㄏㄡˋ0쎯ㄧㄡˋ0쎯	-10.6808
ㄎㄨㄟˊ0쎯	-10.6809
ㄢˇ3쎯	-10.681
▁̇ㄉㄜ0쎯ㄕˋ7쎯	-10.6811
ㄓㄣ3쎯ㄓㄨ1쎯	-10.6817
ㄌㄧˋ0쎯ㄑㄧㄡˊ1쎯	-10.6819
ㄐㄧㄥˋ1쎯ㄏㄨㄚˋ0쎯	-10.6819
ㄈㄨˋ7쎯ㄉㄢˋ1쎯	-10.6821
ㄈㄚ쎯ㄕㄥ1쎯ㄗㄞˋ1쎯	-10.6822
ㄅㄧㄢ3쎯	-10.6823
ㄊㄧㄠˊ0쎯ㄌㄧˋ8쎯	-10.6825
ㄍㄨㄟˋ1쎯ㄗㄨˊ1쎯	-10.6828
ㄍㄠ0쎯ㄑㄧㄥ5쎯	-10.6834
ㄏㄨㄤˊ1쎯ㄍㄨㄚ0쎯	-10.6836
쎂.쎂	-10.6839
(/	-10.6844
ㄗ4쎯	-10.6845
ㄉㄨㄥ0쎯ㄘㄜˋ2쎯	-10.6847
ㄓㄥ0쎯ㄕˋ15쎯	-10.685
ㄐㄧ0쎯ㄋㄧㄢˊ0쎯	-10.6851
ㄓㄜˋ0쎯ㄅㄨˋ4쎯	-10.6851
ㄗㄨㄟˋ0쎯ㄔㄨㄥˊ2쎯ㄧㄠ4쎯	-10.6851
ㄐㄧㄚ0쎯ㄎㄨㄞˋ1쎯	-10.6856
ㄊㄚ0쎯ㄖㄣˊ0쎯	-10.6857
ㄗㄨㄥ2쎯	-10.6861
ㄌㄧㄣˊ2쎯ㄕˊ1쎯	-10.6861
ㄍㄨㄟˋ1쎯ㄧㄤˊ2쎯	-10.6862
ㄍㄜ	-10.6862
ㄔㄥˊ3쎯ㄅㄢˋ0쎯	-10.6863
ㄊㄨㄥˊ0쎯ㄕˊ1쎯ㄧㄝˇ0쎯	-10.6863
ㄋㄧㄠˇ0쎯ㄌㄟˋ2쎯	-10.6864
ㄧㄣˇ3쎯ㄘㄤˊ쎯	-10.6864
ㄍㄨㄟ6쎯	-10.6866
ㄍㄨㄢˋ0쎯ㄔㄜˋ0쎯ㄓˊ0쎯	-10.6867
ㄜˋ1	-10.6869
ㄒㄩㄣˊ0쎯	-10.687
▁̇ㄉㄜ1쎯ㄒㄧㄣ0쎯	-10.6874
ㄓㄤ5쎯	-10.6876
,ㄊㄚ1쎯ㄕˋ15쎯	-10.6876
ㄧㄢˋ6쎯	-10.6877
ㄌㄟˋ0쎯	-10.6879
ㄍㄨㄤ0쎯ㄉㄧㄢˋ0쎯	-10.6879
ㄉㄚ0쎯ㄆㄟˋ2쎯	-10.6881
ㄏㄨㄤˊ1쎯ㄕㄢ0쎯	-10.6882
ㄐㄧㄚˇ0쎯ㄐㄧ12쎯	-10.6884
ㄧㄠˊ5쎯ㄍㄨㄣˇ0쎯	-10.6891
쎁ㄖㄣˊ0쎯,	-10.6893
ㄉㄧˋ3쎯쎄	-10.6894
ㄏㄞˇ0쎯ㄕㄤˇ0쎯	-10.6896
ㄋㄨㄛˋ2쎯ㄇㄧˇ0쎯	-10.6897
ㄑㄧˇ4쎯ㄖㄣˊ3쎯	-10.6898
ㄉㄤˇ1쎯ㄗㄨˇ1쎯ㄓ9쎯	-10.6898
ㄎㄠˇ0쎯ㄏㄜˊ5쎯	-10.69
▁̇ㄉㄜ1쎯ㄙ3쎯ㄒㄧㄤˇ2쎯	-10.6901
ㄋㄨㄥˊ0쎯ㄗㄨㄛ0쎯ㄨˋ3쎯.	-10.6903
,ㄕㄣ5쎯ㄕㄡˋ1쎯	-10.6904
ㄑㄧˇ2쎯ㄕˋ8쎯ㄧㄝˋ0쎯	-10.6907
쎁.쎁	-10.6907
ㄈㄚ쎯ㄓㄢˇ2쎯ㄧㄡˇ1쎯	-10.6911
ㄉㄧㄠˋ2쎯ㄌㄧㄠˋ0쎯	-10.6915
ㄍㄜˇ1쎯ㄗ2쎯	-10.6916
ㄅㄨˋ0쎯ㄩㄥˋ0쎯	-10.6916
쎇ㄍㄨㄥ2쎯ㄌㄧˇ2쎯	-10.6919
쎈쎀ㄋㄧㄢˊ0쎯ㄉㄞˋ0쎯	-10.6919
ㄊㄚ1쎯ㄕˋ15쎯	-10.692
ㄐㄧㄡ0쎯	-10.6921
ㄑㄧㄥˊ0쎯ㄐㄧㄝ0쎯	-10.6929
:‘	-10.6932
ㄌㄨˋ5쎯ㄩˇ0쎯	-10.6934
ㄗ2쎯ㄓˋ4쎯	-10.6935
ㄧˊ12쎯	-10.6937
ㄈㄤˊ0쎯ㄏㄨㄛˇ0쎯	-10.6937
ㄎㄨㄤˋ3쎯ㄐㄧㄚˋ2쎯	-10.6938
ㄨㄢˇ	-10.6939
쎁ㄌㄧㄤˇ0쎯,	-10.694
쎅ㄇㄛˋ0쎯	-10.6947
ㄨㄚ2쎯	-10.6947
ㄨㄟˊ0쎯ㄗㄨㄥ0쎯ㄓˇ1쎯	-10.6948
ㄒㄧ4	-10.6952
-쎁쎆	-10.6953
ㄐㄧㄤˇ1쎯ㄒㄧㄤˋ1쎯	-10.6954
ㄍㄨㄥ4쎯ㄉㄡˋ2쎯	-10.6954
ㄖㄥˊ쎯ㄖㄢˊ0쎯	-10.6954
ㄔㄨㄥˇ쎯	-10.6955
쎀)	-10.6955
ㄐㄧㄥˋ2쎯ㄓㄥ1쎯ㄌㄧˋ0쎯	-10.6962
ㄩˊ0쎯쎂쎀쎀쎈ㄋㄧㄢˊ0쎯	-10.6963
ㄔㄡˊ4쎯	-10.6963
쎁.쎃	-10.6964
ㄅㄟ2쎯ㄇㄧㄢˋ0쎯	-10.6964
쎈)	-10.6965
ㄌㄧˋ2쎯	-10.6966
ㄍㄜ4쎯	-10.6967
ㄈㄢˊ5쎯	-10.6968
ㄨㄟˋ0쎯ㄕˋ12쎯	-10.6975
ㄈㄚ쎯ㄐㄧㄠˋ6쎯	-10.6977
ㄏㄜˊ5쎯ㄊㄠˊ1쎯	-10.698
ㄕㄡˊ쎯ㄒㄧ8쎯	-10.6987
ㄧㄥˊ5쎯ㄗㄠˋ2쎯	-10.6987
ㄏㄜˊ3쎯ㄎㄡˇ쎯	-10.6988
ㄓㄨㄟˋ1쎯	-10.6991
ㄒㄩˋ0쎯	-10.6991
ㄓㄣ4쎯ㄎㄨㄥ0쎯	-10.6994
ㄒㄧㄝˊ6쎯	-10.6995
ㄗㄨㄛ0쎯ㄨㄟˋ6쎯ㄩˇ6쎯	-10.6999
.ㄊㄨㄥˊ0쎯ㄕˊ1쎯	-10.7001
ㄋㄧㄝˋ3쎯	-10.7001
ㄅㄧㄠ	-10.7004
ㄎㄜˇ1쎯	-10.7007
ㄏㄜˊ16쎯	-10.701
ㄐㄧㄠ6쎯ㄨㄟˇ5쎯	-10.701
ㄐㄧㄥ8쎯ㄌㄧㄥˊ2쎯	-10.7011
ㄨˋ3쎯ㄗ2쎯	-10.7013
ㄍㄨ5쎯ㄍㄢ0쎯ㄐㄧㄠ6쎯ㄕ2쎯	-10.7016
ㄒㄩㄣˋ3쎯	-10.7018
ㄍㄤ4쎯	-10.7019
ㄇㄧㄣˊ0쎯ㄅㄢˋ0쎯	-10.702
ㄦˋ0쎯ㄘˋ0쎯	-10.7022
ㄐㄧㄢˇ5쎯ㄔㄚˊ3쎯ㄩㄢˋ2쎯	-10.7025
ㄩㄝˋ0쎯쎄ㄖˋ0쎯	-10.7026
ㄊㄧㄢ0쎯ㄨㄣˊ0쎯	-10.703
ㄅㄠˇ2쎯ㄉㄧㄥˋ1쎯	-10.7031
ㄧㄥ1쎯ㄍㄜˊ2쎯ㄌㄢˊ0쎯	-10.7031
ㄉㄨㄟˋ1쎯ㄕㄡˇ0쎯	-10.7033
쎀.쎇	-10.7033
ㄒㄧㄤ1쎯ㄉㄤ0쎯ㄩˊ0쎯	-10.7036
ㄉㄚˋ쎯ㄉㄨㄛ0쎯	-10.7036
쎅쎀쎀ㄇㄧˇ0쎯	-10.7037
ㄩˋ6쎯ㄙㄨㄢˋ1쎯	-10.7038
ㄏㄨㄟˋ2쎯ㄓㄢˇ2쎯	-10.7041
ㄧ4쎯ㄎㄠˋ1쎯	-10.7042
ㄧㄢˊ6쎯ㄐㄧㄡ1쎯ㄩㄢˊ2쎯,	-10.7044
ㄏㄢˋ6쎯	-10.7045
ㄊㄨˊ4쎯	-10.7045
ㄌㄧˋ6쎯ㄖㄨㄣˋ1쎯	-10.7046
ㄐㄧㄥ2쎯ㄇㄠˋ2쎯	-10.7047
ㄎㄨㄛˋ0쎯	-10.705
ㄏㄨㄛˋ2쎯ㄑㄩˇ0쎯	-10.7058
ㄊㄚ2쎯ㄇㄣˊ1쎯	-10.7058
,ㄈㄨˋ2쎯ㄗㄜˊ1쎯	-10.7062
ㄇㄧㄥˊ1쎯·	-10.7063
.쎂쎀쎀쎄ㄋㄧㄢˊ0쎯	-10.7064
,ㄧㄡˇ1쎯ㄕˊ1쎯	-10.707
ㄉㄚˋ쎯ㄏㄨㄛˇ0쎯	-10.7071
》ㄖㄣˊ0쎯ㄨˋ3쎯ㄓ0쎯ㄧ0쎯	-10.7071
ㄧˋ3	-10.7071
ㄒㄧㄝˊ	-10.7072
▁̇ㄉㄜ1쎯ㄍㄜ7쎯ㄑㄩ0쎯	-10.7074
ㄓㄨˋ2쎯	-10.7075
ㄔㄡˊ3쎯	-10.7076
ㄗㄨㄛ0쎯ㄘˊ0쎯	-10.7078
ㄇㄧㄥˊ1쎯ㄑㄧㄥ5쎯	-10.7079
ㄋㄧㄢˊ0쎯ㄔㄢˇ0쎯	-10.7079
ㄐㄧㄝ1쎯ㄐㄧˊ2쎯	-10.7079
.”(쎂).	-10.7081
ㄓㄤˋ0쎯ㄈㄨ0쎯	-10.7083
.ㄕㄥ1쎯ㄩˊ0쎯	-10.7085
ㄔㄤˊ0쎯ㄉㄚˊ1쎯	-10.7087
ㄋㄚ0쎯ㄌㄧˇ2쎯	-10.7087
ㄎㄨ1쎯	-10.7088
ㄑㄧㄣˋ0쎯	-10.7089
ㄕˋ3쎯ㄐㄧㄚ3쎯	-10.7089
ㄧˊ7쎯ㄇㄧㄣˊ0쎯	-10.7091
ㄖㄨㄥˊ1쎯	-10.7097
ㄓㄣ2쎯	-10.7097
ㄑㄩㄝ0쎯ㄈㄚˊ0쎯	-10.7099
.ㄧㄣ0쎯ㄨㄟˊ0쎯	-10.7101
,ㄧ0쎯ㄍㄜˇ0쎯	-10.7103
ㄗㄨㄥˇ0쎯ㄐㄧㄢ7쎯	-10.7105
ㄙㄨㄟˋ3쎯ㄉㄠˋ3쎯	-10.7108
ㄑㄧㄠˊ0쎯ㄇㄨˋ0쎯	-10.7112
ㄨㄟˊ0쎯ㄑㄧˊ1쎯	-10.7113
ㄗㄜˊ2쎯	-10.7115
ㄕㄤ1쎯ㄏㄨㄟˋ2쎯	-10.7116
ㄩㄥˋ0쎯ㄧˇ2쎯	-10.7117
ㄧㄥ3쎯	-10.7118
ㄋㄧˊ0쎯ㄙ4쎯	-10.7119
,ㄗㄨㄛ0쎯ㄨㄟˊ0쎯	-10.7122
ㄘㄢˇ0쎯	-10.7123
ㄊㄤˊ5쎯ㄋㄧㄠˋ0쎯	-10.7128
ㄊㄡˊ1쎯ㄗ2쎯ㄓㄜˇ0쎯	-10.713
ㄒㄧㄚˋ0쎯ㄐㄧㄤˋ1쎯	-10.7133
ㄨㄟˊ6쎯ㄔˊ4쎯	-10.7133
ㄧˊ0쎯ㄕˋ5쎯	-10.7134
,ㄓㄜˋ0쎯ㄒㄧㄝ0쎯	-10.7135
ㄒㄧㄣ5쎯ㄓㄨㄥ0쎯ㄍㄨㄛˊ0쎯	-10.7136
ㄩㄢˊ4쎯ㄧㄡˇ1쎯	-10.7137
ㄜˋ12쎯	-10.7139
ㄉㄥˇ0쎯ㄖㄨㄥˊ2쎯ㄩˋ15쎯	-10.7141
ㄑㄧㄥ5쎯ㄒㄧˇ0쎯	-10.7142
ㄞˋ1쎯ㄏㄠˇ0쎯	-10.7143
ㄓㄨ1쎯ㄏㄞˇ0쎯	-10.7147
ㄧㄡ2쎯ㄇㄛˋ9쎯	-10.7148
ㄎㄨㄤˋ1쎯	-10.715
쎆쎀쎀쎀	-10.7151
▁̇ㄉㄜ1쎯ㄇㄨˋ1쎯ㄅㄧㄠ0쎯	-10.7151
ㄩˋ11쎯ㄕˇ0쎯	-10.7151
ㄓㄜˊ	-10.7156
ㄔㄠˊ3쎯ㄌㄧㄡˊ3쎯	-10.7158
쎈ㄏㄠˊ0쎯	-10.716
ㄅㄧㄥˇ1쎯	-10.716
ㄕㄜˋ1쎯ㄎㄜ2쎯	-10.716
ㄙㄨˋ0쎯ㄙㄨㄥˋ0쎯	-10.7162
ㄈㄣˊ2쎯	-10.7163
ㄔㄨ0쎯ㄒㄧㄢˋ1쎯ㄗㄞˋ1쎯	-10.7164
ㄧㄢˊ6쎯ㄈㄚ쎯、	-10.7166
쎂쎀-	-10.7167
ㄎㄜˇ0쎯ㄩㄥˋ0쎯ㄩˊ0쎯	-10.7171
ㄅㄧㄣ5쎯	-10.7171
、ㄕㄤˇ0쎯ㄏㄞˇ0쎯	-10.7172
▁̇ㄉㄜ0쎯ㄡ0쎯.	-10.7174
ㄍㄨㄥ2쎯ㄑㄧㄥˇ0쎯,	-10.7175
ㄋㄧㄥˊ0쎯ㄅㄛ1쎯ㄕˋ4쎯	-10.7182
ㄆㄟˋ2쎯ㄈㄤ0쎯	-10.7183
ㄒㄧㄤ0쎯ㄉㄤˇ1쎯ㄨㄟˇ5쎯	-10.7185
ㄉㄧˋ3쎯ㄧ0쎯ㄅㄨˋ4쎯	-10.7186
ㄌㄨㄛˇ0쎯	-10.7188
ㄓㄨㄥ2쎯ㄉㄨㄢ0쎯	-10.7188
ㄒㄧㄥˊ3쎯	-10.719
ㄐㄧㄥˇ1쎯ㄙㄜˋ0쎯	-10.7191
ㄔㄤˊ4쎯ㄔㄤˊ4쎯	-10.7194
ㄩ4쎯	-10.7196
ㄆㄟˊ0쎯	-10.7199
ㄉㄨㄥ1쎯ㄐㄧˋ7쎯	-10.72
ㄓˊ5쎯ㄓㄨ2쎯	-10.7201
ㄑㄧㄥ5쎯ㄖㄜˋ쎯	-10.7202
ㄔㄨㄤ0쎯ㄌㄧˋ3쎯ㄩˊ0쎯	-10.7208
ㄩˇ0쎯ㄍㄨㄢˇ1쎯ㄌㄧˇ3쎯	-10.7209
ㄧ0쎯ㄎㄨㄢˇ쎯	-10.7214
ㄖㄨㄥˊ9쎯ㄗ2쎯	-10.7214
쎂쎀ㄩˊ2쎯	-10.7217
ㄓ0쎯ㄒㄧㄚˋ0쎯	-10.7218
ㄗㄞ0쎯ㄏㄞˋ2쎯	-10.7218
ㄈㄚˊ3쎯ㄇㄣˊ0쎯	-10.7219
ㄧˇ2쎯ㄋㄚ1쎯	-10.7223
ㄓㄨˇ0쎯ㄓㄤ0쎯	-10.7224
ㄑㄧˊ2	-10.7224
-)	-10.7224
ㄇㄧㄢˋ0쎯ㄐㄧ11쎯쎁쎀	-10.7225
(쎁쎈쎉	-10.7225
ㄑㄧㄥˊ0쎯ㄐㄧㄥˇ1쎯	-10.7235
ㄨㄢˋ0쎯	-10.7235
×쎄	-10.7236
ㄈㄢˇ0쎯ㄉㄨㄟˋ1쎯	-10.7239
ㄕˊ3쎯ㄕˊ1쎯	-10.7242
ㄅㄢˇ0쎯ㄎㄨㄞˋ0쎯	-10.7243
ㄐㄧㄥ1	-10.7243
ㄒㄧㄢˇ0쎯ㄕˋ2쎯ㄑㄧˋ7쎯	-10.7244
ㄕㄜˋ0쎯ㄅㄟˋ2쎯ㄧㄡˇ1쎯	-10.7245
ㄩㄢˊ4쎯ㄨㄟˊ0쎯	-10.7248
ㄈㄥ1쎯ㄕㄢ5쎯	-10.7249
ㄅㄞˇ0쎯ㄇㄛˋ0쎯	-10.7252
ㄏㄨˊ4쎯ㄌㄨˊ1쎯	-10.7254
▁̇ㄉㄜ1쎯ㄗˋ0쎯ㄖㄢˊ0쎯	-10.7254
ㄐㄧㄚ3쎯ㄩㄥˋ0쎯	-10.7254
ㄎㄡˇ쎯ㄈㄨˊ5쎯	-10.7255
ㄌㄧˇ0쎯ㄧˊ0쎯	-10.7263
ㄐㄧㄡ0쎯ㄘㄨㄛˋ2쎯	-10.7265
ㄗㄞ2쎯	-10.7266
ㄊㄧㄥ2쎯	-10.7267
ㄍㄨㄥ0쎯ㄒㄩㄝˊ1쎯ㄩㄢˋ2쎯	-10.7267
ㄌㄩˋ1쎯	-10.727
ㄔㄢˇ0쎯、ㄒㄧㄠ6쎯ㄕㄡˋ3쎯	-10.7273
ㄋㄧㄡˇ2쎯	-10.7277
ㄊㄧㄢ1쎯	-10.7277
ㄩㄢˊ4쎯ㄌㄧㄠˋ0쎯:	-10.7281
쎁쎅ㄋㄧㄢˊ0쎯	-10.7282
▁̇ㄉㄜ1쎯ㄉㄨㄥ0쎯ㄒㄧ1쎯	-10.7283
ㄕㄢˋ1쎯	-10.7284
ㄎㄜˇ0쎯ㄧˇ2쎯ㄗㄞˋ1쎯	-10.7286
ㄌㄧˇ3쎯ㄕˋ8쎯.	-10.7286
ㄍㄠˋ0쎯ㄙㄨˋ0쎯	-10.7293
ㄓㄨㄢˋ3쎯ㄎㄜˋ1쎯	-10.7295
ㄐㄧˇ3쎯ㄋㄚ1쎯ㄕˋ4쎯	-10.7295
ㄌㄧㄥˊ3쎯	-10.73
ㄗˇ0쎯ㄍㄨㄥ2쎯ㄙ0쎯	-10.7301
ㄨㄢˇ0쎯	-10.7303
.ㄐㄧㄣˋ1쎯ㄋㄧㄢˊ0쎯	-10.7304
ㄋㄧㄥˊ3쎯ㄇㄥˊ2쎯	-10.7304
ㄉㄜˊ0쎯ㄧˇ2쎯	-10.7306
ㄨㄟˇ5쎯ㄔㄤˊ4쎯ㄨㄟˇ5쎯	-10.7307
ㄅㄟˋ5쎯ㄩˋ15쎯ㄨㄟˊ0쎯	-10.7309
ㄇㄧㄢˋ0쎯ㄌㄧㄣˊ2쎯	-10.7309
ㄈㄤˊ3쎯ㄔㄢˇ0쎯	-10.7311
.ㄓㄜˋ0쎯ㄒㄧㄝ0쎯	-10.7313
ㄙㄜˋ1쎯	-10.7314
ㄗ5쎯ㄅㄛˊ5쎯	-10.7315
ㄎㄜ	-10.7315
ㄧㄡˋ0쎯ㄐㄧㄠˋ0쎯	-10.7317
ㄍㄨㄥ2쎯ㄓㄨㄥˋ1쎯	-10.7319
ㄉㄠˇ0쎯ㄕ2쎯	-10.732
ㄕㄠ1쎯ㄎㄞ0쎯	-10.7321
ㄉㄨㄥ0쎯ㄏㄞˇ0쎯	-10.7321
ㄒㄧㄣ1쎯ㄆㄧㄢ0쎯:	-10.7322
▁̇ㄉㄜ1쎯ㄧ0쎯ㄕㄡˇ2쎯	-10.7327
,ㄩˊ0쎯ㄕˋ15쎯	-10.7328
ㄕㄨㄟˇ쎯ㄇㄧㄢˋ0쎯	-10.7329
ㄅㄠˋ8쎯ㄓㄚˊ1쎯	-10.7332
ㄓㄨㄢ0쎯ㄓˊ4쎯	-10.7333
ㄔㄤˊ1쎯ㄐㄧㄥˇ1쎯	-10.7336
쎂쎀ㄈㄣ0쎯ㄓㄨㄥ3쎯	-10.7339
ㄧㄢˋ0쎯	-10.7339
ㄧㄝˇ0쎯ㄏㄨㄟˋ2쎯	-10.7341
ㄧㄡˊ7쎯	-10.7341
▁̇ㄌㄜ쎯ㄓㄨㄥ0쎯ㄍㄨㄛˊ0쎯	-10.7343
ㄕㄨㄟˋ0쎯ㄈㄚˇ0쎯	-10.7345
▁̇ㄉㄜ1쎯ㄧ0쎯ㄐㄧㄚ3쎯	-10.7349
ㄈㄢˇ0쎯ㄕㄜˋ3쎯	-10.7349
ㄊㄞˋ0쎯ㄧㄤˊ2쎯ㄋㄥˊ쎯	-10.735
ㄒㄩㄣˊ4쎯	-10.735
ㄋㄥˊ쎯ㄌㄧˋ0쎯.	-10.7351
ㄅㄧㄢˋ2쎯ㄅㄨˋ1쎯	-10.7356
ㄅㄠˇ1쎯ㄉㄢˋ0쎯	-10.7361
쎁쎅ㄈㄣ0쎯ㄓㄨㄥ3쎯	-10.7362
,ㄏㄨㄛˋ2쎯ㄉㄜˊ0쎯	-10.7365
ㄕˇ0쎯·	-10.7365
ㄈㄣˇ쎯ㄇㄛˋ1쎯	-10.7369
ㄏㄨㄢˊ3쎯	-10.737
ㄅㄨˋ4쎯ㄕㄡˇ2쎯:	-10.7371
ㄐㄧˊ1쎯ㄊㄚ0쎯	-10.7373
ㄒㄩㄢˇ0쎯ㄐㄩˇ2쎯	-10.7374
ㄨㄟˊ0쎯:	-10.7375
ㄌㄧㄣˊ6쎯ㄆㄧㄢ0쎯	-10.7375
ㄩˊ0쎯쎂쎀쎀쎇ㄋㄧㄢˊ0쎯	-10.7379
ㄏㄨㄥˊ1쎯ㄑㄧˊ8쎯	-10.7379
ㄐㄧㄠ5쎯ㄋㄤ0쎯	-10.7379
ㄧㄢˊ0쎯ㄔㄤˊ0쎯	-10.738
ㄕˋ15쎯ㄓˇ4쎯ㄗㄞˋ1쎯	-10.7385
ㄜˊ7쎯ㄉㄧㄥˋ1쎯	-10.7386
ㄇㄛˋ6쎯	-10.7388
ㄕㄥˋ2쎯	-10.7389
ㄐㄧㄥ2쎯ㄐㄧˇ1쎯	-10.739
ㄐㄧㄝˋ2쎯ㄖㄣˊ0쎯ㄉㄚˋ쎯	-10.7391
ㄋㄧㄡˊ쎯ㄋㄞˇ1쎯	-10.7391
,ㄒㄧㄤˋ0쎯	-10.7391
ㄕˇ1쎯	-10.7391
ㄓㄨㄢˋ3쎯	-10.7393
ㄅㄧㄥ1쎯ㄗㄞˋ1쎯	-10.7394
ㄙ0쎯ㄌㄧㄥˊ0쎯	-10.7396
ㄕㄢ0쎯ㄘㄨㄣ0쎯	-10.7401
(ㄅㄠ0쎯ㄎㄨㄛˋ1쎯	-10.7403
ㄉㄨㄥ0쎯ㄏㄢˋ0쎯	-10.7405
ㄓㄤˋ6쎯	-10.7412
ㄐㄧˋ7쎯ㄐㄧㄝ0쎯	-10.7415
ㄡ0쎯ㄖㄣˊ0쎯ㄇㄧㄣˊ0쎯	-10.7415
ㄇㄧㄢˋ0쎯ㄅㄢˇ0쎯	-10.7415
ㄉㄚˋ쎯ㄊㄨㄥˊ0쎯	-10.7418
ㄐㄧㄚˋ0쎯ㄓˊ3쎯.	-10.7421
ㄒㄧㄚˋ1쎯ㄐㄧˋ7쎯	-10.7426
ㄉㄧㄥˋ1쎯ㄉㄧㄢˇ1쎯	-10.7427
ㄆㄧㄢˋ쎯	-10.7428
ㄕㄨˇ5쎯ㄅㄞˇ0쎯	-10.7431
ㄨㄟˊ8쎯	-10.7432
ㄉㄡˋ4쎯	-10.7436
ㄅㄠˇ2쎯ㄨㄟˋ0쎯	-10.7438
.쎄.	-10.7439
ㄗㄨㄥˇ0쎯ㄌㄧˇ3쎯	-10.744
ㄉㄧㄥˋ1쎯ㄓˋ3쎯	-10.7441
ㄈㄨˇ	-10.7443
ㄐㄧㄠˋ4쎯ㄒㄧㄠˇ0쎯	-10.7443
ㄅㄠˇ1쎯ㄅㄠˇ1쎯	-10.7444
ㄆㄞˊ0쎯ㄕㄨㄟˇ쎯	-10.7449
ㄌㄧˊ1쎯ㄇㄧˇ0쎯.	-10.7451
ㄧ0쎯ㄈㄣˋ0쎯	-10.7452
ㄆㄨˇ1쎯ㄉㄨㄥ0쎯	-10.7452
ㄖˋ0쎯ㄩˇ6쎯	-10.7452
ㄧ0쎯ㄒㄧㄢˋ3쎯	-10.7454
▁̇ㄉㄜ1쎯ㄈㄚ쎯ㄓㄢˇ2쎯,	-10.7455
ㄅㄠ6쎯	-10.7457
ㄐㄧˊ4쎯ㄕˇ2쎯	-10.7458
ㄧㄡ0쎯ㄇㄟˇ1쎯,	-10.7458
-쎁쎈	-10.7467
ㄑㄧㄣˊ	-10.7474
.ㄊㄚ0쎯ㄇㄣˊ1쎯	-10.7474
ㄇㄠˋ1쎯	-10.7475
ㄈㄢˇ0쎯“ㄨㄟˊ2쎯	-10.7477
ㄙㄞ1쎯ㄦˇ0쎯	-10.7479
—)	-10.748
ㄧ0쎯ㄑㄩㄣˊ1쎯	-10.7484
ㄉㄡ0쎯ㄋㄥˊ쎯	-10.7487
ㄈㄨˊ5쎯ㄨˋ2쎯、	-10.7488
ㄖㄡˊ0쎯ㄇㄠˊ0쎯	-10.7488
쎂ㄎㄜˋ0쎯	-10.7489
ㄍㄨㄤ0쎯ㄇㄧㄥˊ1쎯	-10.7491
ㄕㄨ6쎯	-10.7492
쎁ㄌㄧㄤˇ0쎯	-10.7495
ㄡˇ2쎯	-10.7507
.ㄇㄟˇ0쎯	-10.7507
ㄒㄧㄥˊ0쎯ㄕˋ8쎯	-10.7507
ㄉㄤ0쎯ㄓㄨㄥ0쎯	-10.7509
ㄕㄚ0쎯ㄏㄞˋ2쎯	-10.751
ㄈㄥˋ1쎯ㄒㄧㄢˋ8쎯	-10.7511
ㄉㄤ0쎯ㄒㄩㄢˇ0쎯ㄨㄟˊ0쎯	-10.7512
ㄉㄧ2쎯ㄇㄧㄥˊ0쎯	-10.7513
ㄌㄧㄤˋ0쎯ㄉㄨˋ2쎯	-10.7513
ㄩˊ0쎯쎂쎀쎀쎆ㄋㄧㄢˊ0쎯	-10.7514
ㄑㄧㄣˊ0쎯	-10.7514
▁̇ㄉㄜ1쎯ㄔㄥˊ4쎯ㄕˋ4쎯	-10.7516
ㄉㄞˋ2쎯	-10.7516
ㄅㄛ1쎯ㄌㄢˊ0쎯	-10.7518
,ㄆㄧˊ6쎯ㄌㄧㄣˊ0쎯	-10.7518
쎇ㄆㄧㄥˊ0쎯ㄈㄤ0쎯ㄍㄨㄥ2쎯	-10.752
ㄍㄨㄛ0쎯ㄔㄥˊ7쎯ㄓㄨㄥ0쎯,	-10.7526
ㄕˋ15쎯ㄘㄨㄥˊ0쎯	-10.7526
ㄧ0쎯ㄍㄜˇ0쎯ㄖㄣˊ0쎯	-10.7526
ㄕㄜˋ0쎯ㄅㄟˋ2쎯、	-10.7531
ㄍㄨㄥ2쎯ㄨˋ2쎯ㄩㄢˊ2쎯	-10.7531
ㄕㄢ0쎯、	-10.7533
ㄐㄧㄣˋ0쎯ㄍㄨㄥ4쎯	-10.7536
ㄐㄧㄣ3쎯ㄐㄧㄤˇ1쎯	-10.7542
ㄎㄨㄤˋ2쎯ㄕㄢ0쎯	-10.7543
ㄈㄟˋ3쎯	-10.7543
ㄔㄤˊ0쎯ㄕㄚ2쎯ㄕˋ4쎯	-10.7544
ㄍㄢ2쎯ㄐㄩㄣ4쎯	-10.7544
ii	-10.7547
ㄍㄨㄚ1쎯	-10.7549
ㄔㄨㄥˇ쎯ㄨˋ3쎯	-10.7549
쎅.쎅	-10.7551
ㄍㄨˋ1쎯ㄍㄨㄥ6쎯	-10.7552
ㄒㄧㄠˇ0쎯ㄐㄧㄝˇ0쎯	-10.7552
ㄔㄨㄟˊ2쎯	-10.7553
ㄏㄞˇ0쎯ㄒㄧㄚˊ2쎯	-10.7554
ㄉㄠˋ3쎯ㄐㄧㄠ6쎯	-10.7556
ㄐㄩㄣˋ3쎯ㄍㄨㄥ0쎯	-10.756
ㄕㄜˋ0쎯ㄗㄞˋ1쎯	-10.7563
ㄧㄝˋ0쎯ㄩˊ2쎯	-10.7564
ㄗㄨㄣ1쎯	-10.7564
ㄎㄡˋ2쎯	-10.7565
ㄕㄨㄢ1쎯	-10.7565
ㄉㄠˋ3쎯ㄍㄨㄤ0쎯	-10.7566
ㄇㄧㄣˊ0쎯ㄈㄚˇ0쎯ㄩㄢˋ2쎯	-10.7568
ㄎㄞ0쎯ㄑㄧˇ3쎯	-10.7568
ㄩˊ0쎯쎂쎀쎀쎅ㄋㄧㄢˊ0쎯	-10.7568
ㄗㄨˊ1쎯ㄗˋ0쎯ㄓˋ5쎯ㄡ0쎯	-10.7568
ㄇㄟˇ2쎯	-10.7568
ㄦˊ1쎯ㄉㄜˊ0쎯ㄇㄧㄥˊ0쎯.	-10.7572
ㄕㄤˇ0쎯ㄕㄨˋ2쎯	-10.7572
쎃～	-10.7573
ㄍㄥ1쎯	-10.7574
ㄅㄧ0쎯	-10.7576
ㄐㄧㄥ8쎯ㄓㄢˋ4쎯	-10.758
ㄈㄨˊ8쎯ㄏㄠˊ0쎯	-10.7581
ㄍㄨㄚˇ0쎯	-10.7582
ㄐㄩˊ0쎯ㄉㄤˇ1쎯ㄗㄨˇ1쎯	-10.7583
ㄧㄣˊ3쎯	-10.7583
,ㄒㄧㄢˋ1쎯ㄧˇ1쎯	-10.7585
ㄐㄧㄤ0쎯ㄏㄨˊ5쎯	-10.7585
ㄍㄨㄟ2쎯ㄓㄤ1쎯	-10.7588
ㄗㄨˇ2쎯ㄍㄨㄛˊ0쎯	-10.7588
ㄓ1쎯ㄌㄧㄡˊ3쎯	-10.7594
ㄉㄠˇ0쎯ㄏㄤˊ3쎯	-10.7596
ㄉㄧ0쎯ㄨㄣ0쎯	-10.7596
ㄐㄧˊ0쎯ㄒㄧㄤ1쎯ㄍㄨㄢ0쎯	-10.7601
ㄕㄣ2쎯ㄅㄧㄢ0쎯	-10.7609
ㄓㄨˋ1쎯ㄙㄨˋ4쎯	-10.7609
,ㄋㄧㄢˊ0쎯ㄆㄧㄥˊ0쎯	-10.761
ㄍㄨㄢ0쎯ㄅㄧˋ3쎯	-10.7611
ㄒㄧ1쎯ㄢ0쎯ㄕˋ4쎯	-10.7614
、ㄒㄧㄡ0쎯ㄒㄧㄢˊ0쎯	-10.7617
ㄐㄧˊ2쎯ㄓˊ4쎯ㄔㄣˋ1쎯	-10.7617
▁̇ㄉㄜ1쎯ㄍㄨˋ1쎯ㄕˋ8쎯.	-10.7618
ㄐㄧㄢ8쎯ㄖㄨㄥˊ4쎯	-10.7618
ㄔㄢˇ0쎯ㄨˋ3쎯	-10.762
ㄕˋ15쎯ㄧ0쎯ㄗㄨㄛˋ1쎯	-10.7622
ㄕˊ0쎯ㄐㄧㄚ2쎯	-10.7623
ㄅㄢˋ0쎯ㄈㄚˇ0쎯》	-10.7624
ㄧㄣ4쎯ㄒㄧㄠˋ3쎯	-10.7626
쎁쎉쎈쎈	-10.7629
ㄧㄝˋ4쎯	-10.7633
ㄌㄟˇ	-10.7636
쎁쎉쎈쎅	-10.764
ㄙˋ4쎯ㄧㄤˇ1쎯	-10.7643
ㄧ0쎯ㄐㄧㄢˋ1쎯	-10.7644
ㄨㄣ0쎯ㄋㄨㄢˇ쎯	-10.7645
ㄐㄩˋ1	-10.7648
ㄆㄧㄥˊ0쎯ㄈㄤ0쎯ㄑㄧㄢ0쎯	-10.7648
ㄈㄨˇ5쎯ㄌㄧㄠˋ0쎯	-10.765
ㄧㄡˋ3쎯	-10.7654
ㄧ0쎯ㄇㄧㄢˋ0쎯	-10.7654
쎁쎉쎂쎇ㄋㄧㄢˊ0쎯	-10.7655
ㄗˇ0쎯ㄍㄨㄥ6쎯	-10.7656
ㄐㄧㄠˇ8쎯	-10.7658
》ㄕˋ15쎯ㄧㄡˊ1쎯	-10.766
ㄈㄚˇ0쎯》	-10.7664
ㄑㄧㄢ0쎯ㄎㄜˋ0쎯	-10.7664
쎉)	-10.7669
ㄈㄣˋ1쎯ㄉㄡˇ0쎯	-10.7669
ㄓˇ4쎯ㄌㄧㄥˊ0쎯	-10.7671
ㄧㄡˊ1쎯ㄩㄢˊ4쎯	-10.7673
ㄊㄤˊ2쎯	-10.7676
ㄧㄥˊ1	-10.7679
ㄍㄜˋ0쎯ㄗˋ0쎯	-10.7683
ㄧˇ2쎯ㄊㄞˋ0쎯ㄨㄤˇ0쎯	-10.7683
ㄐㄧㄠ0쎯ㄐㄧㄝˋ3쎯ㄔㄨˇ0쎯	-10.7683
쎂ㄘˋ0쎯	-10.7684
ㄅㄨˋ2쎯ㄏㄤˊ0쎯	-10.7684
쎀ㄆㄧㄥˊ0쎯ㄈㄤ0쎯ㄍㄨㄥ2쎯	-10.7685
.쎂쎀쎁쎃ㄋㄧㄢˊ0쎯	-10.7687
ㄈㄣ0쎯ㄙㄢˇ1쎯	-10.7688
ㄐㄧˋ2쎯ㄈㄚˇ0쎯	-10.7689
ㄈㄤˊ0쎯ㄕㄨㄟˇ쎯	-10.7692
ㄐㄧㄠ6쎯ㄒㄩㄝˊ1쎯ㄌㄡˊ1쎯	-10.7692
ㄈㄥ3쎯ㄅㄧˋ3쎯	-10.7692
ㄑㄧˊ5쎯	-10.7693
ㄇㄧㄥˋ쎯ㄌㄧㄥˊ0쎯	-10.7693
ㄓㄤˇ0쎯	-10.7694
–	-10.7696
ㄗㄨㄛˋ0쎯ㄅㄧㄠ0쎯	-10.7697
ㄕ3쎯ㄐㄧˊ8쎯	-10.7697
ㄗㄞˋ1쎯ㄖˋ0쎯ㄅㄣˇ0쎯	-10.7698
ㄕㄨㄟˋ0쎯ㄇㄧㄥˊ1쎯ㄕㄨ0쎯	-10.7698
ㄉㄚˋ쎯ㄩˊ0쎯	-10.7699
ㄖㄨˋ0쎯ㄨˇ2쎯	-10.7701
ㄔㄤˊ4쎯ㄌㄨˋ3쎯	-10.7706
ㄧㄣˇ1쎯ㄩㄥˋ0쎯	-10.7712
ㄍㄜ7쎯ㄨˇ7쎯	-10.7714
,ㄅㄨˋ0쎯ㄐㄧㄣˇ0쎯	-10.7714
ㄧㄢˇ3쎯ㄩㄢˊ2쎯.	-10.7716
ㄕˊ3쎯ㄩㄥˋ0쎯ㄒㄧㄥˋ2쎯	-10.7717
ㄐㄧㄠ6쎯ㄉㄠˇ0쎯	-10.7718
ㄧㄚˋ1쎯ㄔㄨㄥˊ1쎯	-10.7718
ㄈㄣ0쎯ㄌㄧㄝˋ4쎯	-10.772
ㄕˋ16쎯ㄉㄤ0쎯	-10.7722
ㄉㄤˇ1쎯ㄗㄨㄥˇ0쎯ㄓ1쎯	-10.7724
ㄅㄚˇ0쎯ㄨㄛˋ2쎯	-10.7725
ㄆㄧㄣˊ1쎯ㄌㄩˋ2쎯:	-10.7726
ㄔ1쎯	-10.7731
ㄊㄢˋ2쎯ㄘㄜˋ3쎯	-10.7732
ㄕㄣˋ2쎯	-10.7744
ㄊㄧㄥˊ3쎯ㄓˇ0쎯	-10.7744
ㄈㄣˋ4쎯	-10.7745
ㄋㄟˋ쎯ㄒㄧㄣ0쎯	-10.7745
ㄇㄤˊ2쎯	-10.7747
ㄐㄧㄣˇ3쎯ㄅㄧㄠ0쎯ㄙㄞˋ쎯	-10.775
ㄏㄨㄟˋ	-10.775
ㄕˊ5쎯	-10.7751
ㄖㄣˊ0쎯,ㄓㄨㄥ0쎯ㄍㄨ	-10.7752
쎂쎀쎀ㄇㄧˇ0쎯	-10.7753
ㄅㄟˇ쎯ㄇㄟˇ1쎯	-10.7754
ㄕㄤˋ0쎯ㄕㄨ0쎯	-10.7754
ㄐㄧㄡˇ0쎯ㄌㄨㄥˊ0쎯	-10.7755
ㄕㄜˋ3쎯ㄐㄧ2쎯	-10.7757
ㄏㄨㄥˊ2쎯ㄍㄨㄢ1쎯	-10.7758
ㄉㄧˋ3쎯ㄧ0쎯ㄐㄧㄝˋ2쎯	-10.7759
ㄑㄧㄢˊ0쎯ㄧㄢˊ5쎯	-10.7763
ㄧㄣˇ0쎯ㄈㄚ쎯	-10.7764
ㄔㄤˊ0쎯쎁	-10.7766
쎉쎀쎀쎁	-10.7766
ㄐㄧㄠ3쎯	-10.7767
ㄨˇ0쎯ㄉㄞˋ0쎯	-10.777
ㄧˇ0쎯ㄒㄧ29쎯	-10.7771
ㄎㄣˇ1쎯	-10.7772
ㄈㄚ쎯ㄐㄩㄝˊ4쎯	-10.7772
ㄐㄧㄡˋ4쎯ㄧㄡˇ1쎯	-10.7776
ㄘㄥˊ1쎯ㄉㄨㄛ0쎯ㄘˋ0쎯	-10.7777
ㄊㄨˇ0쎯ㄇㄨˋ0쎯	-10.7778
ㄑㄧ6쎯	-10.7779
ㄏㄣˇ0쎯ㄕㄠˇ쎯	-10.7779
ㄖㄣˊ0쎯ㄨㄟˊ0쎯ㄅㄣˇ0쎯	-10.7783
ㄉㄞˋ1쎯ㄓㄠ2쎯	-10.7788
ㄌㄧˇ3쎯ㄨㄟˋ2쎯ㄓˋ13쎯	-10.7788
▁̇ㄌㄜ쎯ㄒㄩˇ0쎯ㄉㄨㄛ0쎯	-10.7793
ㄉㄨㄛ0쎯ㄘㄥˊ0쎯	-10.7794
ㄑㄧㄥ0쎯ㄏㄞˇ0쎯ㄕㄥˇ0쎯	-10.7794
ㄅㄞˇ0쎯ㄏㄨㄛˋ1쎯	-10.7797
ㄓ7쎯ㄒㄧㄢˋ0쎯	-10.7798
ㄓㄜˋ0쎯ㄐㄧㄡˋ4쎯ㄕˋ15쎯	-10.7801
ㄗㄨˇ1쎯ㄔㄥˊ0쎯ㄩㄢˊ2쎯、	-10.7802
ㄨㄢˊ2쎯ㄐㄩˋ2쎯	-10.7805
쎂쎀쎀ㄎㄜˋ0쎯	-10.7806
ㄕㄠˇ쎯ㄐㄧㄤ1쎯	-10.7807
ㄏㄡˋ0쎯ㄗㄞˋ1쎯	-10.7808
ㄧㄣˇ1쎯ㄌㄧㄠˋ0쎯	-10.7812
ㄐㄧㄣˋ	-10.7814
ㄎㄠˇ2쎯ㄧㄢ2쎯	-10.7815
ㄔㄤˊ4쎯ㄍㄨㄟ2쎯	-10.7817
ㄧㄣˇ0쎯ㄖㄨˋ0쎯	-10.7825
ㄅㄟˋ0쎯ㄦˇ0쎯	-10.7825
ㄍㄨㄥˋ0쎯ㄈㄣ0쎯	-10.7825
ㄅㄧˋ5쎯ㄋㄧㄠˋ0쎯	-10.7827
쎄쎅쎀	-10.7831
쎁쎉쎂쎈ㄋㄧㄢˊ0쎯	-10.7832
ㄙㄨㄥˋ1쎯·	-10.7833
ㄍㄠ0쎯ㄒㄧㄝˇ1쎯ㄧㄚ1쎯	-10.7838
ㄈㄨˋ8쎯ㄗㄨㄥˇ0쎯	-10.7839
ㄌㄜˋ0쎯ㄩㄢˊ1쎯	-10.7844
ㄩㄥ5쎯	-10.7844
ㄏㄣˇ0쎯ㄎㄨㄞˋ1쎯	-10.7845
ㄑㄧˋ7쎯ㄍㄨㄢ2쎯	-10.7846
ㄏㄜˊ3쎯ㄆㄢˋ3쎯	-10.7846
ㄐㄧㄠˇ4쎯	-10.7847
쎃ㄌㄧˊ1쎯ㄇㄧˇ0쎯	-10.7848
;쎂、	-10.7849
ㄌㄩˇ6쎯	-10.7849
ㄑㄧˋ1쎯ㄐㄧㄣ2쎯	-10.7852
ㄒㄧㄡˋ3쎯	-10.7853
(ㄧˇ2쎯ㄒㄧㄚˋ0쎯	-10.7854
ㄒㄩㄣ1쎯	-10.7855
ㄔㄨ	-10.7856
/쎁	-10.7857
ㄏㄞˇ0쎯ㄋㄟˋ쎯ㄨㄞˋ쎯	-10.7858
ㄇㄧㄢˋ0쎯ㄐㄧ11쎯ㄉㄚˊ1쎯	-10.7859
ㄕㄨㄟˇ쎯ㄉㄠˋ4쎯、	-10.7859
ㄑㄧˊ1쎯ㄐㄧㄢ4쎯	-10.786
ㄔㄢˇ0쎯ㄧㄝˋ0쎯ㄏㄨㄚˋ0쎯	-10.7861
ㄅㄣˇ0쎯ㄎㄜ2쎯ㄕㄥ1쎯	-10.7861
ㄧㄡˊ1	-10.7862
ㄏㄨㄟˊ0쎯ㄍㄨㄛˊ0쎯	-10.7863
ㄐㄧˊ4쎯ㄔㄥˊ0쎯.	-10.7865
ㄦˇ0쎯ㄙ4쎯	-10.7866
쎁쎁쎂	-10.7867
ㄐㄧㄢˋ2쎯ㄐㄧㄠˋ2쎯	-10.7868
ㄗㄨㄟˋ0쎯ㄧㄡˇ1쎯	-10.7869
ㄅㄞˊ0쎯ㄙㄜˋ0쎯,	-10.7873
ㄜˊ6쎯	-10.7873
쎀ㄏㄠˊ1쎯ㄇㄧˇ0쎯	-10.7875
ㄍㄨㄥ2쎯ㄌㄧˇ2쎯ㄔㄨˇ0쎯,	-10.7877
ㄏㄢˊ2쎯	-10.7877
ㄅㄧㄢ1쎯ㄔㄥˊ7쎯	-10.7878
쎃ㄘˋ0쎯	-10.7878
ㄍㄨˇ0쎯ㄐㄧㄣ2쎯	-10.7879
ㄞ2쎯ㄐㄧˊ0쎯	-10.7883
ㄙㄡ1쎯	-10.7885
ㄌㄧㄡˊ1쎯ㄌㄢˇ0쎯	-10.7888
쎁쎈쎄	-10.7888
ㄕㄨㄟˇ쎯ㄒㄧㄢˋ0쎯	-10.7889
-쎁쎁	-10.789
ㄇㄛˋ0쎯ㄉㄨㄛ0쎯	-10.7891
ㄧㄢˇ3쎯ㄅㄧㄢˋ0쎯	-10.7893
ㄓˋ	-10.7896
ㄉㄧˋ3쎯ㄧ0쎯ㄐㄧㄚ3쎯	-10.7896
ㄊㄜˋ0쎯ㄔㄢˇ0쎯	-10.7896
ㄋㄨˇ0쎯	-10.7897
ㄉㄚˊ0쎯ㄐㄧ2쎯	-10.7898
.ㄕㄢˋ1쎯ㄔㄤˊ0쎯	-10.7899
(ㄧㄠ2쎯	-10.7903
,ㄗㄨㄟˋ0쎯ㄓㄨㄥ2쎯	-10.7904
ㄇㄛˊ	-10.7904
ㄈㄨ1쎯	-10.7906
ㄙㄢ0쎯ㄐㄧㄠˇ0쎯ㄒㄧㄥˊ1쎯	-10.7908
ㄎㄜˋ2쎯ㄍㄨㄢ1쎯	-10.7909
ㄍㄞˋ1쎯	-10.791
ㄕˋ12쎯ㄧㄝˇ2쎯	-10.7911
ㄉㄧˋ3쎯ㄙㄢ0쎯ㄐㄧㄝˋ2쎯	-10.7914
ㄉㄧ2쎯ㄕˋ2쎯	-10.7918
ㄕㄨˋ0쎯ㄎㄞ0쎯ㄈㄚ쎯ㄡ0쎯	-10.792
ㄈㄣ0쎯ㄅㄧㄢˋ3쎯ㄌㄩˋ2쎯:	-10.7922
ㄩˋ2	-10.7922
쎅ㄎㄜˋ0쎯,	-10.7923
ㄘㄢ0쎯ㄇㄡˊ0쎯ㄔㄤˊ0쎯	-10.7923
ㄆㄧㄥˊ0쎯ㄢ0쎯	-10.7924
ㄏㄞˇ0쎯ㄩˋ7쎯	-10.7926
ㄏㄜˊ2쎯ㄒㄧㄠ6쎯ㄕㄡˋ3쎯	-10.7926
ㄎㄨㄤˋ2쎯ㄧㄝˋ0쎯	-10.7927
;쎄	-10.7929
ㄕˇ3쎯ㄩˊ0쎯	-10.793
ㄒㄧㄠ2쎯ㄏㄠˋ0쎯	-10.7931
ㄅㄠˇ1쎯ㄅㄟˋ0쎯	-10.7941
ㄔㄜˋ0쎯ㄉㄧˇ1쎯	-10.7942
ㄈㄨˊ12쎯ㄌㄧˋ6쎯	-10.7943
쎅ㄇㄧˇ0쎯,	-10.7943
ㄨㄟˋ0쎯ㄕㄥ1쎯ㄅㄨˋ4쎯	-10.7944
ㄇㄧㄢˋ0쎯ㄐㄧ11쎯쎀.	-10.7944
ㄆㄧㄥˊ0쎯ㄏㄤˊ0쎯	-10.7945
ㄖㄣˊ0쎯ㄔㄣˋ1쎯	-10.7946
ㄌㄧㄢˊ2쎯	-10.7946
ㄕㄡ쎯ㄧˋ15쎯	-10.7946
ㄧㄡ0쎯ㄧˋ7쎯	-10.7946
ㄕㄠˊ3쎯	-10.7947
ㄐㄧㄚ4쎯ㄒㄧㄥ0쎯	-10.7949
ㄇㄟˇ1쎯ㄒㄩㄝˊ1쎯	-10.795
ㄅㄤˋ	-10.7952
ㄌㄢˊ5쎯	-10.7952
쎁쎉쎉쎈	-10.7954
ㄐㄧㄠ6쎯ㄒㄩㄝˊ1쎯ㄅㄢ1쎯,	-10.7956
쎂ㄇㄧˇ0쎯	-10.7956
ㄐㄧˊ8쎯ㄍㄜˇ1쎯	-10.7957
,ㄅㄟˇ쎯ㄩˇ0쎯	-10.7958
,ㄒㄧ1쎯ㄩˇ0쎯	-10.796
ㄊㄠˊ4쎯	-10.796
ㄏㄢˊ1쎯ㄧˋ1쎯	-10.7961
ㄑㄧㄝˋ1쎯	-10.7962
ㄈㄨˋ3쎯ㄔㄢˇ0쎯ㄎㄜ2쎯	-10.7962
ㄒㄧ1쎯ㄏㄢˋ0쎯	-10.7963
ㄧㄡˇ1쎯ㄑㄩˋ1쎯	-10.7964
ㄘㄨㄥ	-10.7965
ㄐㄧㄝˇ0쎯	-10.7965
ㄇㄧㄣˇ3쎯ㄍㄢˇ3쎯	-10.7966
≥	-10.7966
ㄧㄢˊ6쎯ㄐㄧㄡ1쎯ㄩㄢˊ2쎯.	-10.7969
ㄒㄧ1쎯ㄏㄨˊ5쎯	-10.797
ㄇㄠˊ1쎯ㄉㄨㄣˋ2쎯	-10.7976
ㄈㄣ0쎯ㄓ1쎯	-10.7976
ㄏㄞˊ0쎯ㄩㄢˊ4쎯	-10.7978
ㄕㄤ1쎯ㄐㄧㄚ3쎯	-10.7979
ㄖˋ0쎯,	-10.7981
ㄇㄛˊ0쎯ㄙㄜˋ0쎯	-10.7981
ㄌㄧㄡˋ0쎯ㄕˊ0쎯	-10.7981
ㄓㄨㄥ0쎯ㄐㄧ13쎯	-10.7984
쎁쎉쎈쎉	-10.7991
ㄈㄢˇ0쎯ㄈㄨˋ7쎯	-10.7991
ㄍㄨㄛ3쎯ㄌㄨˊ3쎯	-10.7992
ㄨㄚ0쎯ㄐㄩㄝˊ4쎯	-10.7993
ㄏㄨㄟˋ1쎯ㄐㄧˊ8쎯	-10.7996
ㄏㄟ0쎯ㄢˋ3쎯	-10.7996
ㄉㄥˇ0쎯ㄏㄤˊ0쎯ㄧㄝˋ0쎯	-10.7997
ㄅㄧㄠˇ0쎯ㄇㄧㄥˊ1쎯	-10.8004
ㄑㄧㄢ0쎯ㄇㄛˋ0쎯	-10.8005
ㄕˋ15쎯:	-10.8007
ㄒㄧˋ1쎯ㄐㄧㄝ0쎯	-10.8009
쎁쎀쎆	-10.801
ㄓㄨˋ3쎯ㄧㄣ4쎯:	-10.8011
ㄨㄞˋ쎯ㄎㄜˊ쎯	-10.8011
ㄅㄠˋ3쎯	-10.8012
쎁쎉쎈쎆	-10.8014
ㄇㄟˇ0쎯ㄈㄨˊ5쎯	-10.8014
ㄕˊ3쎯ㄓㄢˋ1쎯	-10.8015
쎁ㄘˋ0쎯	-10.8018
ㄩˇ1쎯	-10.8019
ㄌㄚˋ0쎯ㄕˊ3쎯	-10.802
,ㄕˇ3쎯ㄐㄧㄢˋ2쎯ㄩˊ0쎯	-10.8021
ㄕㄣˇ0쎯ㄧㄤˊ2쎯ㄕˋ4쎯	-10.8022
ㄧㄝˋ0쎯ㄐㄧㄝˋ3쎯	-10.8025
ㄈㄥ1쎯ㄩˇ4쎯	-10.8026
ㄍㄨㄢˋ2쎯ㄍㄞˋ4쎯	-10.8026
ˋ쎯	-10.8027
ㄌㄞˊ0쎯ㄕㄨㄟˋ0쎯,	-10.8028
ㄧㄠˇ0쎯	-10.8029
ㄩㄝˋ0쎯쎃쎁ㄖˋ0쎯	-10.8029
ㄙㄨㄥˋ3쎯	-10.8031
ㄅㄠˋ6쎯ㄅㄨˋ1쎯	-10.8032
ㄉㄠˇ2쎯	-10.8038
ㄒㄧㄠˋ3쎯ㄍㄨㄛˇ0쎯.	-10.8038
ㄉㄧㄢˋ0쎯ㄊㄞ0쎯	-10.8039
ㄏㄞˇ0쎯ㄕㄨㄟˇ쎯	-10.804
ㄋㄧㄢˊ0쎯ㄐㄧˊ2쎯	-10.8042
▁̇ㄉㄜ1쎯ㄞˋ1쎯ㄑㄧㄥˊ0쎯	-10.8042
ㄋㄨㄥˊ2쎯	-10.8043
ㄨㄣ0쎯ㄓㄡ1쎯ㄕˋ4쎯	-10.8043
《ㄏㄡˋ0쎯ㄏㄢˋ0쎯ㄕㄨ0쎯·	-10.805
ㄜˋ7쎯	-10.805
ㄉㄧㄥ3쎯	-10.8052
ㄎㄨㄟˊ1쎯	-10.8053
ㄉㄥˇ0쎯ㄓㄨㄢ0쎯ㄧㄝˋ0쎯	-10.8053
ㄉㄞ1쎯ㄐㄧ6쎯	-10.8055
ㄉㄨㄛ0쎯ㄩㄢˊ0쎯ㄏㄨㄚˋ0쎯	-10.8056
.ㄓㄜˋ0쎯ㄕˋ15쎯	-10.8057
쎅、	-10.8058
ㄏㄨㄛˇ0쎯ㄊㄨㄟˇ쎯	-10.8058
ㄒㄧㄝˋ3쎯	-10.8064
;ㄈㄨˋ2쎯ㄗㄜˊ1쎯	-10.807
ㄔㄜˋ0쎯	-10.807
ㄇㄧㄢˊ2쎯ㄏㄨㄚ0쎯	-10.8071
ㄧ0쎯ㄌㄨˋ5쎯	-10.8072
ㄋㄩˇ0쎯ㄓㄨˇ0쎯ㄐㄧㄠˇ0쎯	-10.8075
ㄦˊ0쎯ㄎㄜ2쎯	-10.8077
쎂.쎃	-10.8079
▁̇ㄉㄜ0쎯ㄒㄧㄥˊ1쎯	-10.8082
ㄊㄜˋ0쎯ㄆㄧㄣˋ0쎯	-10.8087
ㄙㄨㄛ1쎯	-10.8088
ㄧㄚˋ	-10.8089
ㄧㄡˇ0쎯ㄏㄠˇ0쎯	-10.809
ㄧ0쎯ㄅㄨˋ2쎯	-10.8092
ㄐㄧˊ3쎯ㄑㄧˊ1쎯	-10.8095
ㄧˇ2쎯ㄅㄟˇ쎯	-10.8096
ㄧˋ18쎯ㄙ3쎯	-10.8099
쎁쎀ㄍㄨㄥ2쎯ㄌㄧˇ2쎯	-10.8103
ㄍㄢˇ3쎯ㄉㄠˋ0쎯	-10.8105
ㄇㄢˊ1쎯	-10.8107
ㄖˋ0쎯ㄐㄩㄣ0쎯	-10.8108
ㄉㄡ0쎯ㄎㄜˇ0쎯ㄧˇ2쎯	-10.8111
ㄨㄢˇ2쎯ㄐㄧ13쎯	-10.8113
ㄙㄨㄟˊ1쎯ㄕˊ1쎯	-10.8115
,ㄒㄧㄚˊ5쎯	-10.8118
ㄦˋ0쎯ㄖㄣˊ0쎯	-10.8118
쎁쎉쎉쎁	-10.8119
ㄐㄧˋ3쎯ㄓㄨˇ0쎯ㄖㄣˊ3쎯	-10.8121
쎁×	-10.8121
쎁쎉쎈쎇	-10.8122
ㄖㄣˋ0쎯	-10.8123
.ㄧㄣ0쎯ㄘˇ0쎯,	-10.8124
ㄕㄜˋ0쎯ㄐㄧˋ0쎯ㄩˇ0쎯	-10.8124
ㄌㄧˋ3	-10.8127
《ㄒㄧㄣ5쎯	-10.8129
ㄉㄧㄝ1쎯	-10.8131
ㄕㄨˇ1쎯ㄓˊ5쎯ㄨˋ3쎯	-10.8132
ㄕㄨ0쎯》	-10.8137
쎀ㄌㄧˊ1쎯ㄇㄧˇ0쎯,	-10.8138
ㄒㄧㄣ1쎯ㄆㄧㄢ0쎯ㄗㄨˇ1쎯	-10.814
ㄨㄚ3쎯	-10.8141
ㄩㄣˇ0쎯	-10.8142
ㄅㄧㄣ2쎯	-10.8146
,ㄧㄝˇ0쎯ㄧㄡˇ1쎯	-10.8147
ㄗˋ0쎯ㄏㄤˊ0쎯	-10.8148
ㄨㄤˇ	-10.815
ㄓˋ5쎯ㄢ0쎯	-10.8152
ㄕㄣˋ2쎯ㄊㄡˋ쎯	-10.8153
ㄗㄨㄛˇ0쎯ㄧㄡˋ1쎯.	-10.8153
ㄧㄤ0쎯	-10.8155
ㄎㄠˇ0쎯ㄕㄥ1쎯	-10.8158
ㄗㄨㄥˇ0쎯ㄏㄨˋ1쎯ㄕㄨˇ5쎯	-10.8159
ㄑㄧˊ6쎯ㄕˋ0쎯	-10.8159
ㄘㄢ0쎯ㄇㄡˊ0쎯	-10.816
ㄅㄧㄥˋ0쎯ㄌㄧˇ3쎯	-10.8161
ㄕㄨˇ1쎯ㄒㄧㄚˋ0쎯	-10.8161
,ㄋㄚ1쎯ㄩˇ0쎯	-10.8164
ㄍㄨㄢˋ1쎯	-10.8166
ㄓㄨˇ0쎯ㄐㄧㄤˇ0쎯	-10.8167
쎁%	-10.8173
ㄎㄨㄟˊ	-10.8175
ㄕㄥ1쎯,ㄏㄢˋ0쎯ㄗㄨˊ1쎯,	-10.8177
ㄖㄨㄥˊ6쎯ㄩˊ0쎯	-10.8179
ㄡ1쎯ㄧㄤˊ2쎯	-10.8183
ㄇㄧㄢˊ0쎯	-10.8183
쎁쎀쎄	-10.8184
ㄅㄨˋ0쎯ㄧˋ12쎯	-10.8184
.ㄇㄨˋ1쎯ㄑㄧㄢˊ0쎯,	-10.8185
ㄕㄤ1쎯ㄐㄩㄢ2쎯	-10.8185
ㄕㄨㄟˇ쎯ㄐㄧㄥ5쎯	-10.8186
ㄆㄥˇ쎯	-10.8193
ㄅㄛˊ7쎯	-10.8194
ㄓㄥ8쎯ㄑㄧˋ3쎯	-10.8194
ㄕ3쎯ㄨㄣˊ0쎯	-10.8196
ㄅㄟˋ5쎯ㄕㄡˋ2쎯ㄩˊ1쎯	-10.8196
ㄐㄧㄣ2쎯ㄋㄧㄢˊ0쎯	-10.8197
ㄧˊ9쎯ㄋㄢˊ1쎯	-10.8198
ㄅㄣˇ0쎯ㄊㄨˇ0쎯	-10.8199
쎁ㄩㄝˋ0쎯쎁ㄖˋ0쎯	-10.82
ㄐㄧㄡˋ4쎯ㄋㄥˊ쎯	-10.82
쎀쎀ㄇㄛˋ0쎯ㄩㄢˊ0쎯,	-10.8201
ㄆㄥ1쎯ㄖㄣˋ6쎯	-10.8201
ㄆㄧㄣ0쎯ㄧㄣ4쎯	-10.8202
ㄅㄨˋ8쎯	-10.8205
ㄧㄢˇ3쎯ㄧˋ13쎯	-10.8205
ㄎㄤˋ1쎯ㄓㄢˋ1쎯	-10.8206
ㄒㄧˇ0쎯ㄍㄢ0쎯ㄐㄧㄥˋ1쎯	-10.8206
ㄎㄜˋ2쎯ㄖㄣˊ0쎯	-10.8207
ㄆㄟˊ3쎯	-10.821
ㄋㄨㄥˊ0쎯ㄌㄧˋ1쎯	-10.8211
쎁-쎂	-10.8212
ㄓㄨˋ3쎯:	-10.8213
쎁쎀쎂쎄	-10.8213
ㄅㄨˋ4쎯ㄓㄨˇ0쎯ㄖㄣˊ3쎯	-10.8214
ㄧㄠˋ0쎯ㄩㄥˋ0쎯	-10.8214
ˊ쎯	-10.8217
ㄏㄥˊ2쎯ㄧㄤˊ2쎯	-10.8219
쎁쎉쎉쎉	-10.822
ㄉㄨㄢˇ쎯ㄆㄧㄢ2쎯	-10.8222
ㄧˋ6쎯ㄗㄨㄛ0쎯“	-10.8225
ㄕˋ6쎯ㄏㄨ0쎯	-10.8225
ㄕㄠˋ0쎯ㄏㄨㄢˋ3쎯	-10.8235
ㄏㄣˇ0쎯ㄧㄡˇ1쎯	-10.8236
ㄏㄨㄚ0쎯ㄨㄣˊ1쎯	-10.824
ㄌㄧㄡˊ3쎯ㄊㄧ0쎯	-10.8242
-쎁쎅	-10.8243
ㄌㄧㄥˋ0쎯ㄧ0쎯ㄍㄜˇ0쎯	-10.8244
ㄐㄧㄝˊ3쎯	-10.8246
ㄓㄨㄢ0쎯ㄒㄧㄤˋ1쎯	-10.8248
ㄉㄧㄢ1쎯	-10.8249
.ㄏㄡˋ0쎯ㄌㄞˊ0쎯	-10.8249
ㄖㄨㄥˊ6쎯ㄐㄧㄝˇ1쎯	-10.8255
ㄩˋ6쎯ㄐㄧˋ0쎯	-10.8255
ㄓㄢ1쎯	-10.8255
い	-10.8258
ㄅㄧㄢˋ0쎯ㄐㄧㄠ8쎯	-10.8261
ㄊㄧㄢ0쎯ㄊㄤˊ1쎯	-10.8265
ㄇㄨˋ4쎯	-10.8266
ㄙˋ13쎯	-10.8266
”ㄓ0쎯ㄔㄣˋ1쎯	-10.8267
ㄝ	-10.8269
ㄧㄠˊ4쎯	-10.8273
ㄗㄨㄥˇ0쎯ㄓㄢ0쎯	-10.8275
ㄕˇ0쎯》	-10.8277
ㄕˋ15쎯ㄧㄣ0쎯ㄨㄟˊ0쎯	-10.8278
ㄈㄨ3쎯	-10.8278
ㄐㄧㄡˋ4쎯ㄗㄞˋ1쎯	-10.8279
ㄑㄧㄢˊ4쎯ㄌㄧˋ0쎯	-10.8279
쎀.쎉	-10.828
ㄙㄨㄛˇ0쎯ㄉㄜˊ0쎯	-10.8282
ㄧㄡˇ0쎯ㄧˋ16쎯	-10.8286
ㄌㄜˋ0쎯ㄊㄨㄢˊ0쎯	-10.8288
ㄒㄧㄢˋ1쎯ㄘㄤˊ쎯	-10.8288
ㄌㄧㄡˊ3쎯ㄔㄤˋ0쎯	-10.8288
ㄓㄨㄤ0쎯	-10.8291
ㄍㄨㄛ2쎯	-10.8293
ㄐㄧ17쎯	-10.8295
ㄨㄣˊ0쎯ㄒㄩㄝˊ1쎯ㄐㄧㄚ3쎯	-10.8298
ㄓㄜˋ0쎯ㄕˋ15쎯ㄧ0쎯	-10.8299
ㄙㄞˋ쎯ㄐㄧˋ7쎯	-10.83
ㄦˊ1쎯ㄧㄡˋ0쎯	-10.8301
ㄇㄢˊ0쎯	-10.8302
쎂ㄌㄧˊ1쎯ㄇㄧˇ0쎯	-10.8302
ㄓㄜˋ0쎯ㄎㄨㄢˇ쎯	-10.8304
ㄘㄠˇ쎯ㄅㄣˇ0쎯	-10.8306
ㄏㄣˇ0쎯ㄐㄧㄤˋ2쎯	-10.8316
ㄕㄡˇ0쎯ㄍㄨㄥ0쎯	-10.8317
ㄕㄨˋ3쎯ㄇㄨˋ0쎯	-10.8318
ㄓㄣˇ0쎯ㄌㄧㄠˊ1쎯	-10.8318
ㄈㄢˋ2쎯ㄓˇ4쎯	-10.8319
ㄕㄨ5쎯	-10.832
(ㄒㄧㄢˋ1쎯	-10.8325
ㄐㄧㄥ1쎯ㄐㄩˋ4쎯	-10.8327
ㄏㄨㄛˊ0쎯ㄆㄛ1쎯	-10.8328
ㄜˋ1쎯	-10.833
ㄐㄧㄥˇ1쎯ㄉㄜˊ1쎯ㄓㄣˋ3쎯	-10.833
ㄓㄨㄤ2쎯	-10.8332
ㄇㄧㄥˊ3쎯	-10.8333
ㄩㄢˊ11쎯	-10.8335
ㄔㄨ0쎯ㄖㄣˊ3쎯	-10.8347
ㄧㄢˋ11쎯	-10.8351
ㄡˇ1쎯ㄒㄧㄤˋ3쎯	-10.8351
ㄒㄧˋ1쎯ㄔㄤˊ0쎯	-10.8353
.ㄊㄨㄥˊ0쎯ㄋㄧㄢˊ0쎯	-10.8357
ㄓㄨㄥ0쎯ㄉㄨˊ0쎯	-10.8363
ㄑㄩㄣˊ0쎯	-10.8364
ㄗㄨ0쎯ㄌㄧㄣˋ1쎯	-10.8367
ㄑㄧˇ1쎯	-10.8367
ㄒㄧㄣ6쎯	-10.8369
ㄉㄠˇ1쎯ㄕㄤˇ0쎯	-10.8375
ㄑㄧㄥˊ0쎯ㄒㄩˋ5쎯	-10.8376
ㄙ0쎯ㄌㄧㄥˊ0쎯ㄅㄨˋ4쎯	-10.8377
ㄅㄟˇ쎯ㄘㄜˋ2쎯	-10.838
ㄘㄨㄣ0쎯ㄒㄧㄚˊ5쎯쎁	-10.8383
ㄎㄜˋ0쎯ㄌㄚ1쎯	-10.8384
ㄒㄩㄣ0쎯ㄓㄤ1쎯	-10.8384
쎈쎀쎂.쎃	-10.8387
ㄔㄨㄥˊ1쎯ㄔㄨㄥˊ1쎯	-10.8389
ㄐㄧㄚ4쎯ㄐㄧㄥˋ5쎯	-10.8389
ㄐㄧㄣˋ3쎯ㄕㄥ0쎯ㄨㄟˊ0쎯	-10.839
쎆.쎅	-10.8391
ㄡ5쎯	-10.8392
ㄏㄞˇ0쎯ㄅㄚˊ0쎯쎂	-10.8393
ㄒㄧㄥˋ2쎯ㄅㄧㄝˊ0쎯	-10.8396
ㄐㄩㄣ1쎯ㄎㄜˇ0쎯	-10.8396
ㄗㄨㄥˇ0쎯ㄅㄨˋ4쎯ㄕㄜˋ0쎯	-10.8398
ㄨˋ8쎯	-10.8398
ㄒㄧㄢ3쎯ㄇㄟˇ1쎯	-10.84
ㄎㄜˋ2쎯ㄔㄥˊ5쎯ㄐㄧㄤˋ1쎯	-10.84
ㄅㄠˋ0쎯ㄐㄧㄥˇ2쎯	-10.8402
ㄩㄢˊ4쎯ㄅㄣˇ0쎯	-10.8402
ㄔㄤˊ4쎯ㄓㄨˋ1쎯	-10.8404
ㄌㄧㄝˋ0쎯ㄔㄜ0쎯	-10.8405
ㄔㄠ4쎯ㄩㄝˋ5쎯	-10.8413
ㄏㄨˋ2쎯ㄔㄢˊ0쎯ㄨㄟˋ2쎯.	-10.8419
ㄓㄥˋ3쎯ㄨˋ2쎯	-10.842
쎃쎀ㄋㄧㄢˊ0쎯	-10.842
ㄅㄧㄣ0쎯ㄎㄜˋ2쎯	-10.8421
ㄧㄝˋ0쎯ㄨㄟˊ0쎯ㄓㄨˇ0쎯.	-10.8421
ㄐㄧ13쎯ㄏㄨㄛˋ1쎯	-10.8421
ㄌㄟˇ0쎯	-10.8423
ㄐㄧ8쎯ㄖㄡˋ쎯	-10.8425
-),	-10.8425
ㄐㄧㄝ0쎯ㄖˋ0쎯	-10.8426
ㄑㄧㄢˋ2쎯	-10.8427
ㄐㄧˋ14쎯	-10.8431
ㄆㄟˋ2쎯ㄌㄧㄠˋ0쎯	-10.8431
ㄩˊ11쎯	-10.8431
ㄕㄢˋ0쎯ㄩˊ0쎯	-10.8431
ㄔㄢˊ0쎯ㄉㄨˊ1쎯	-10.8431
ㄙㄨˋ6쎯ㄗㄠˋ2쎯	-10.8431
ㄩㄝˋ0쎯ㄖㄨˋ0쎯ㄉㄤˇ1쎯,	-10.8436
ㄧㄠˋ0쎯ㄘㄞˊ1쎯	-10.8438
ㄙㄞˋ쎯ㄕˋ8쎯	-10.8439
ㄧㄚ3쎯	-10.844
ㄔㄠ5쎯	-10.8441
ㄓㄢ0쎯ㄧㄡˇ1쎯	-10.8446
ㄇㄧㄢˋ0쎯ㄐㄧ11쎯쎁.	-10.8447
ㄈㄨˊ5쎯ㄨˋ2쎯ㄩˊ0쎯	-10.8451
.ㄓㄜˋ0쎯ㄌㄧˇ2쎯	-10.8452
ㄠˊ0쎯	-10.8452
ㄑㄧˋ7쎯ㄒㄧㄝˋ4쎯	-10.8452
ㄏㄨㄚˊ1쎯ㄒㄧㄚˋ1쎯	-10.8452
ㄐㄧㄠ1	-10.8453
(쎄)	-10.8455
ㄗˇ5쎯	-10.8455
쎂%	-10.8458
ㄑㄩㄝˋ1쎯ㄖㄣˋ1쎯	-10.8459
ㄍㄨㄛˊ0쎯ㄩˇ6쎯	-10.846
ㄏㄨㄞˊ3쎯	-10.846
ㄗˋ0쎯ㄒㄩㄝˊ1쎯	-10.846
ㄔㄠˊ1쎯ㄊㄧㄥˊ0쎯	-10.8464
ㄐㄧㄤ1쎯ㄏㄨㄟˋ2쎯	-10.8464
ㄧㄣˇ0쎯ㄌㄧㄥˇ1쎯	-10.8465
▁̇ㄋㄜ쎯	-10.8475
ㄕˋ19쎯ㄕˋ3쎯	-10.8477
ㄊㄨㄥ0쎯ㄙㄨˊ쎯	-10.8478
ㄋㄧˋ2쎯	-10.848
ㄓㄥˋ3쎯ㄑㄩㄢˊ0쎯	-10.8482
"="	-10.8482
ㄐㄩ4쎯ㄕㄨㄟˋ0쎯	-10.8489
ㄆㄨˊ1쎯ㄊㄠˊ3쎯ㄐㄧㄡˇ5쎯	-10.8492
ㄒㄧ14쎯ㄒㄧㄢˋ0쎯	-10.8493
ㄑㄧㄠˊ2쎯ㄓㄣˋ3쎯	-10.8494
ㄌㄩˇ1쎯	-10.8496
ㄧㄠˊ1쎯	-10.85
ㄕˊ0쎯ㄩˊ2쎯ㄋㄧㄢˊ0쎯	-10.8505
ㄌㄟˇ2쎯	-10.8506
ㄧㄣˋ0쎯ㄒㄧㄤˋ2쎯	-10.8506
ㄊㄤˊ0쎯ㄕㄢ0쎯	-10.8507
ㄏㄨㄛˇ0쎯ㄐㄧㄢˋ15쎯	-10.8513
ㄧㄥ0쎯ㄌㄧˋ0쎯	-10.8515
ㄔˋ0쎯	-10.8516
н	-10.8519
ㄒㄧㄠ1	-10.8521
ㄒㄧㄥˋ2쎯ㄋㄥˊ쎯:	-10.8522
ㄘㄨㄥ3쎯	-10.8524
ㄍㄨㄥ2쎯ㄌㄧˇ2쎯,ㄐㄩˋ5쎯	-10.8524
ㄆㄡ쎯	-10.8526
ㄕㄚ2쎯ㄇㄛˋ6쎯	-10.8527
ㄐㄧㄥˋ2쎯ㄐㄧˋ2쎯	-10.8527
ㄊㄡˊ0쎯ㄊㄨㄥˋ0쎯	-10.8527
ㄓㄤˋ2쎯	-10.8528
ㄐㄧㄥˋ6쎯ㄇㄞˋ3쎯	-10.8531
쎃쎀ㄈㄣ0쎯ㄓㄨㄥ3쎯	-10.8532
ㄅㄧㄢ1쎯ㄖㄨˋ0쎯	-10.8533
ㄌㄧㄝˋ1쎯	-10.8535
ㄐㄧㄣˋ0쎯쎀ㄑㄧㄡˊ2쎯	-10.8536
ㄒㄧㄥˋ3쎯ㄕˋ1쎯	-10.8536
ㄅㄠˋ0쎯ㄓˇ3쎯	-10.8539
ㄉㄧˊ5쎯	-10.8542
ㄐㄧㄢˋ8쎯	-10.8543
ㄆㄧㄥˊ1쎯ㄒㄩㄢˇ0쎯	-10.8545
ㄔㄨㄥˊ2쎯ㄈㄨˋ7쎯	-10.8546
ㄇㄧㄢˋ0쎯ㄅㄠ0쎯	-10.8546
ㄉㄤ0쎯ㄍㄨㄟ0쎯	-10.8549
ㄐㄧㄚ0쎯ㄕㄨㄟˇ쎯	-10.8551
ㄖㄣˊ0쎯ㄘㄢ0쎯	-10.8553
̇ㄉㄜ0쎯	-10.8553
ㄘˇ0쎯ㄕˊ1쎯	-10.8555
쎀쎀ㄏㄠˊ1쎯ㄇㄧˇ0쎯,ㄕˋ1	-10.8557
ㄐㄧㄤ2쎯ㄆㄧㄢ0쎯	-10.8558
ㄧㄢˇ3쎯ㄧˋ2쎯	-10.8567
ㄒㄧ12쎯	-10.8567
ㄍㄤ6쎯ㄍㄨㄢˇ1쎯	-10.8575
ㄗㄨㄛˋ2쎯ㄔㄥˊ0쎯	-10.8578
ㄌㄨㄢˊ	-10.8581
ㄧㄢˊ0쎯ㄢ0쎯	-10.8581
ㄔㄚˋ1쎯	-10.8581
ㄕㄨㄟˇ쎯ㄔㄨˇ0쎯ㄌㄧˇ3쎯	-10.8582
ㄐㄧㄥ10쎯	-10.8583
ㄧˊ21쎯	-10.8589
ㄖㄢˊ1쎯ㄌㄧㄠˋ0쎯	-10.859
ㄐㄧㄤˇ1쎯”	-10.8592
ㄏㄨㄟˊ0쎯ㄧˋ3쎯	-10.8593
ㄕㄥ1쎯ㄘㄨˋ0쎯ㄋㄧㄢˊ0쎯	-10.8593
ㄅㄟˋ5쎯ㄔㄣˋ1쎯ㄨㄟˊ0쎯“	-10.8596
ㄌㄞˊ0쎯ㄉㄧㄢˋ0쎯	-10.8597
ㄆㄟˋ0쎯	-10.8597
ㄌㄚ0쎯ㄐㄧ5쎯	-10.8602
ㄨㄣˊ0쎯ㄕㄨ0쎯	-10.8604
ㄇㄨˋ1쎯ㄑㄧㄢˊ0쎯ㄧˇ1쎯	-10.8605
ㄗㄞˋ0쎯ㄕㄥ1쎯	-10.8606
ㄉㄧㄢˋ0쎯ㄗㄨˇ0쎯	-10.8612
ㄏㄠˇ0쎯ㄧㄡˇ0쎯	-10.8612
ㄨㄟ4쎯	-10.8613
α	-10.8616
ㄘㄤˊ쎯ㄕㄨ0쎯	-10.8616
쎁ㄆㄧㄥˊ0쎯ㄈㄤ0쎯ㄍㄨㄥ2쎯	-10.8618
ㄋㄨㄥˊ1쎯ㄏㄡˋ1쎯	-10.8622
ㄕˊ0쎯ㄐㄧ0쎯	-10.8624
ㄎㄨ2쎯	-10.8624
ㄉㄢˋ4쎯ㄕㄨㄟˇ쎯	-10.8626
ㄦˊ1쎯ㄉㄜˊ0쎯ㄇㄧㄥˊ0쎯	-10.8627
ㄆㄧㄣˊ0쎯ㄎㄨㄣˋ쎯ㄘㄨㄣ0쎯	-10.8628
ㄅㄛˊ5쎯ㄨˋ3쎯ㄩㄢˋ2쎯	-10.8629
ㄎㄜˇ0쎯ㄔˊ4쎯ㄒㄩˋ6쎯	-10.8631
ㄅㄨˋ0쎯ㄒㄧㄥˋ1쎯	-10.8631
ㄐㄧㄢˇ8쎯ㄐㄧㄝˊ2쎯	-10.8632
ㄍㄢ0쎯ㄖㄠˇ쎯	-10.8633
ㄍㄞ0쎯ㄍㄨㄥ2쎯ㄙ0쎯	-10.8635
ㄌㄧˊ1	-10.8636
ㄑㄧㄥ0쎯ㄊㄨㄥˊ3쎯	-10.8636
ㄒㄩˋ2쎯ㄕㄨˋ2쎯	-10.8639
쎂×	-10.864
ㄌㄟˋ2쎯:ㄊㄨˊ0쎯ㄕㄨ0쎯>	-10.8641
ㄧˇ4쎯	-10.8644
ㄐㄧㄝ0쎯ㄗㄡˋ0쎯	-10.8645
ㄧㄥ0쎯ㄐㄧˊ5쎯	-10.8647
ㄐㄧ0쎯ㄏㄜˊ1쎯	-10.8647
ㄧㄚˋ1쎯ㄖㄜˋ쎯ㄉㄞˋ1쎯	-10.8648
ㄅㄧㄣ3쎯ㄏㄞˇ0쎯	-10.8649
ㄒㄧㄢˊ5쎯	-10.865
ㄓㄨㄟˋ0쎯	-10.865
ㄌㄩˋ2쎯ㄒㄧㄢ1쎯	-10.8652
쎀ㄇㄛˋ0쎯ㄩㄢˊ0쎯,	-10.8653
ㄕㄨ1	-10.8656
ㄕㄥ1쎯ㄔㄡ0쎯	-10.8659
,ㄒㄧ1쎯ㄌㄧㄣˊ0쎯	-10.8661
.쎄、	-10.8662
쎈ㄇㄨˇ2쎯	-10.8663
ㄑㄧˊ14쎯	-10.8667
ㄕㄨㄣˋ2쎯	-10.8668
ㄨㄞˋ쎯,ㄏㄞˊ0쎯	-10.8668
ㄓㄤ0쎯ㄓㄨㄢ0쎯ㄐㄧˊ9쎯	-10.8672
ㄨㄟˊ6쎯ㄨˊ1쎯ㄦˇ0쎯	-10.8674
ㄉㄞ1쎯ㄩㄥˋ0쎯	-10.8676
ㄒㄧㄥˋ3쎯ㄇㄧㄥˊ0쎯	-10.8677
ㄒㄧㄝˊ7쎯ㄉㄞˋ1쎯	-10.8678
”,“	-10.868
쎈%	-10.8681
ㄒㄧㄤˇ2쎯ㄒㄧㄤˋ2쎯	-10.8681
ㄨˋ7쎯	-10.8682
ㄊㄜˋ0쎯·	-10.8683
ㄙˋ9쎯	-10.8683
ㄏㄨㄟˋ1	-10.8683
ㄐㄧˊ3쎯ㄐㄩˋ2쎯	-10.8683
ㄕㄨㄣˋ0쎯ㄒㄩˋ1쎯	-10.8685
ㄎㄠˋ1쎯ㄐㄧㄣˋ1쎯	-10.8686
ㄍㄨˇ2쎯ㄈㄣˋ0쎯ㄓˋ3쎯	-10.8686
ㄔㄢˇ0쎯ㄓˊ3쎯	-10.8687
”ㄗˋ1쎯	-10.8691
,ㄧㄝˇ0쎯ㄎㄜˇ0쎯ㄧˇ2쎯	-10.8692
ㄕˋ21쎯	-10.8693
쎁쎀ㄎㄜˋ0쎯,	-10.87
ㄈㄨˋ8쎯ㄐㄧㄠ6쎯ㄕㄡˋ2쎯.	-10.8702
ㄅㄧㄥ1쎯ㄖㄨˋ0쎯	-10.8702
ㄧㄢˊ7쎯ㄧㄝˋ0쎯	-10.8703
ㄐㄧㄠˋ1쎯ㄉㄜˊ0쎯	-10.8705
ㄨㄟˊ0쎯ㄕㄣˊ0쎯	-10.8713
ㄒㄧˇ0쎯ㄐㄧㄥˋ1쎯ㄑㄧㄝ쎯	-10.8714
ㄧ4쎯ㄖㄢˊ0쎯	-10.8714
ㄗ2쎯ㄓㄨˋ0쎯	-10.8714
ㄐㄧ12쎯ㄉㄨ0쎯ㄐㄧㄠ6쎯	-10.8714
ㄔㄨㄢˊ0쎯ㄖㄢˇ1쎯	-10.8714
ㄓˋ0쎯ㄐㄧㄣ2쎯ㄧˇ1쎯	-10.8715
ㄓˇ	-10.8717
ㄇㄧㄠˊ1쎯	-10.8718
ㄊㄠˊ1쎯ㄏㄨㄚ0쎯	-10.8721
▁̇ㄋㄜ쎯?	-10.8722
ㄏㄨㄚˊ1쎯ㄌㄧˊ0쎯	-10.8723
ㄩㄢˊ4쎯ㄔㄢˇ0쎯	-10.8724
ㄅㄞˇ0쎯ㄍㄜˇ1쎯	-10.8725
ㄕˊ0쎯ㄙㄢ0쎯ㄋㄧㄢˊ0쎯	-10.8728
ㄕㄡ쎯ㄍㄡˋ1쎯	-10.8728
ㄑㄧㄢˊ0쎯ㄕㄣ2쎯	-10.8731
ㄈㄣ0쎯ㄅㄧˋ5쎯	-10.8732
,ㄉㄨㄟˋ1쎯ㄩˊ0쎯	-10.8733
ㄈㄢˋ3쎯ㄉㄚˋ쎯ㄒㄩㄝˊ1쎯	-10.8733
ㄉㄨㄛ0쎯ㄋㄧㄢˊ0쎯ㄕㄥ1쎯	-10.8734
ㄅㄧㄠ0쎯ㄅㄣˇ0쎯	-10.8735
ㄔㄠ2쎯	-10.8737
ㄈㄤ0쎯ㄒㄧㄤˋ0쎯ㄨㄟˊ0쎯	-10.8741
ㄋㄢˊ0쎯ㄏㄞˊ1쎯	-10.8744
ㄕˊ0쎯ㄧ0쎯ㄋㄧㄢˊ0쎯	-10.8744
ㄕㄡˇ0쎯ㄉㄨㄥˋ0쎯	-10.8747
▁̇ㄉㄜ0쎯ㄘㄥˊ0쎯	-10.8749
ㄧˇ2쎯ㄏㄡˋ0쎯,	-10.875
ㄐㄩㄝˊ2쎯ㄩㄢˊ7쎯	-10.8752
ㄑㄧ5쎯	-10.8753
ㄕㄨ0쎯ㄏㄨㄚˋ1쎯ㄩㄢˋ2쎯	-10.8753
ㄩㄣˋ1쎯ㄏㄜˊ3쎯	-10.8755
ㄐㄧㄣ3쎯ㄏㄨㄤˊ1쎯ㄙㄜˋ0쎯	-10.8755
ㄒㄧㄤ2쎯ㄘㄞˋ0쎯	-10.8758
ㄔㄠ0쎯	-10.8761
ㄌㄧㄢˊ4쎯ㄌㄠˋ0쎯	-10.8762
ㄅㄧㄠˇ0쎯ㄓㄤ2쎯	-10.8763
ㄇㄧㄢˋ0쎯ㄐㄧ11쎯쎉	-10.8764
ㄊㄧㄥˊ3쎯ㄔㄜ0쎯ㄔㄤˊ1쎯	-10.8772
ㄉㄨˊ1쎯ㄐㄩˋ2쎯	-10.8775
ㄕˊ3쎯ㄒㄧˊ0쎯	-10.8778
ㄌㄩˇ2쎯ㄏㄤˊ0쎯ㄕㄜˋ1쎯	-10.8779
(ㄍㄨㄥ2쎯ㄩㄢˊ0쎯	-10.8779
ㄅㄨˋ0쎯ㄅㄧㄢˋ0쎯	-10.878
ㄔㄨ0쎯ㄕㄥ1쎯ㄗㄞˋ1쎯	-10.878
쎈쎀%	-10.8782
ㄩˊ0쎯쎂쎀쎁쎂ㄋㄧㄢˊ0쎯	-10.8783
ㄧ0쎯ㄗㄨˇ1쎯	-10.8783
ㄒㄩˋ5쎯	-10.8787
ㄨㄟˊ0쎯ㄑㄧˇ2쎯ㄧㄝˋ0쎯	-10.8787
ㄒㄧ	-10.879
쎁쎀쎀ㄇㄧˇ0쎯	-10.8791
ㄒㄧㄣˋ0쎯ㄌㄞˋ1쎯	-10.8793
ㄎㄜ2쎯ㄓㄨˇ0쎯ㄖㄣˊ3쎯	-10.8794
ㄓˊ4쎯ㄧㄝˋ0쎯ㄐㄧˋ2쎯	-10.8799
ㄔㄨ0쎯ㄉㄠˋ3쎯	-10.8801
ㄇㄚˊ0쎯?	-10.8805
ㄕˊ1쎯ㄎㄜˋ1쎯	-10.8808
ㄕㄣˇ1쎯ㄏㄜˊ5쎯	-10.8811
ㄖˋ0쎯ㄓㄠˋ2쎯	-10.8811
ㄓˋ17쎯	-10.8814
ㄔㄢˊ	-10.8815
ㄕˊ1쎯ㄎㄨㄥ0쎯	-10.8816
ㄕㄡˋ1쎯ㄏㄨㄢ0쎯ㄧㄥˊ0쎯	-10.8816
ㄘˊ0쎯ㄉㄧㄢˇ0쎯	-10.882
ㄎㄣˇ0쎯ㄉㄧㄥˋ1쎯	-10.8821
ㄑㄩㄢˊ0쎯ㄌㄧˋ0쎯	-10.8822
(쎂쎀쎀	-10.8823
쎁쎃쎅	-10.8825
i	-10.8825
ㄈㄨˋ9쎯》:“	-10.8826
ㄇㄨˋ0쎯ㄦˇ1쎯	-10.8827
ㄗㄥˋ0쎯	-10.883
ㄔㄥˊ0쎯ㄆㄧㄣˇ쎯	-10.8831
ㄕˋ7쎯ㄌㄧˋ0쎯	-10.8834
,ㄓㄜˋ0쎯ㄌㄧˇ2쎯	-10.8835
ㄐㄧˊ1쎯ㄒㄧㄤˊ1쎯	-10.8837
ㄕㄤ1쎯ㄒㄩㄝˊ1쎯ㄩㄢˋ2쎯	-10.8839
ㄌㄞˊ0쎯ㄒㄧ1쎯ㄧㄚˋ1쎯	-10.8842
ㄓㄜˇ3쎯	-10.8843
ㄋㄚ1쎯ㄘㄜˋ2쎯	-10.8843
쎂-쎃	-10.8847
ㄩˊ0쎯쎂쎀쎀쎄ㄋㄧㄢˊ0쎯	-10.8847
ㄐㄧㄢˇ8쎯ㄔㄣˋ1쎯“	-10.8849
쎈쎀쎀쎀	-10.8849
ㄉㄨㄟˋ1쎯ㄑㄧˊ1쎯	-10.885
ㄇㄧㄥˊ1쎯ㄓㄨ1쎯	-10.8853
ㄖㄣˊ3쎯ㄧˋ18쎯	-10.8855
ㄉㄧˇ1쎯ㄅㄨˋ4쎯	-10.8856
ㄕㄨˋ3쎯ㄌㄧˋ3쎯	-10.8858
ㄗˋ1쎯ㄇㄨˇ0쎯	-10.8859
ㄅㄧㄢ0쎯ㄐㄧㄝˋ3쎯	-10.8861
ㄥˋ0쎯ㄉㄤˇ1쎯ㄩㄢˊ2쎯,	-10.8862
ㄅㄢ1쎯ㄗˇ0쎯	-10.8863
ㄏㄨㄟˊ0쎯ㄍㄨㄟ0쎯	-10.8863
ㄅㄟˇ쎯ㄇㄧㄢˋ0쎯	-10.8866
ㄧㄡˊ5쎯ㄒㄧˋ0쎯《	-10.887
ㄙ2쎯ㄖㄣˊ0쎯	-10.8875
ㄘㄨㄥ2쎯ㄐㄧㄤ2쎯	-10.8875
ㄐㄧㄣ2쎯ㄖˋ0쎯	-10.8877
^	-10.8879
ㄔㄨˇ0쎯ㄔㄤˊ0쎯	-10.8879
ㄏㄨㄟˋ18쎯	-10.888
ㄌㄨˊ6쎯	-10.8885
ㄖㄨㄥˊ9쎯ㄖㄨˋ0쎯	-10.8891
ㄒㄧㄥˊ1쎯ㄕˋ7쎯	-10.8891
ㄙㄨˋ7쎯	-10.8891
ㄖˋ0쎯ㄧˋ15쎯	-10.8892
ㄅㄢ1쎯ㄔㄤˊ0쎯	-10.8894
ㄇㄚˇ0쎯ㄌㄚ1쎯	-10.8896
쎁쎇쎈	-10.8896
ㄏㄢˊ7쎯ㄉㄢ4쎯	-10.8899
ㄕㄢ1쎯ㄔㄨˊ0쎯	-10.89
쎅쎀-	-10.89
쎁쎉쎂	-10.89
ㄆㄞˊ0쎯ㄇㄧㄥˊ0쎯	-10.89
ㄒㄩㄢ	-10.8905
ㄘㄞˋ0쎯ㄧㄠˊ1쎯	-10.8908
ㄖㄨˊ	-10.8909
ㄒㄧㄣ5쎯ㄕˋ3쎯ㄐㄧˇ1쎯	-10.8909
ㄧㄡˊ0쎯ㄑㄧˊ1쎯	-10.8911
ㄦˋ0쎯ㄕˊ0쎯ㄋㄧㄢˊ0쎯	-10.8915
ㄍㄞˇ쎯ㄇㄧㄥˊ0쎯ㄨㄟˊ0쎯	-10.8919
ㄗㄨˇ1쎯ㄗㄨˇ1쎯ㄔㄤˊ0쎯	-10.892
ㄉㄧㄥˋ1쎯ㄐㄩ1쎯	-10.8922
ㄒㄧㄢˋ0쎯(ㄐㄧㄣ2쎯	-10.8925
ㄒㄧㄣ5쎯ㄔㄢˇ0쎯ㄆㄧㄣˇ쎯	-10.8927
ㄔㄤˊ5쎯	-10.8931
ㄐㄧㄣˇ0쎯ㄧㄡˇ1쎯	-10.8933
ㄊㄜˋ0쎯ㄧㄠ2쎯	-10.8938
ㄌㄧㄥˇ1쎯ㄒㄧㄡˋ1쎯	-10.8938
ㄊㄨㄥˊ0쎯ㄌㄟˋ2쎯	-10.8939
ㄈㄚ쎯ㄖㄜˋ쎯	-10.894
ㄓㄥ0쎯ㄇㄧㄢˋ0쎯	-10.8945
ㄧˋ43쎯	-10.8948
ㄨㄛˋ2쎯	-10.8953
ㄘㄤˊ쎯ㄗㄨˊ1쎯	-10.8953
ㄓㄨˋ3쎯ㄘㄜˋ0쎯ㄅㄧㄠˇ0쎯	-10.8954
ㄕˋ30쎯	-10.8954
\\	-10.8954
ㄨˊ	-10.8956
ㄓㄨㄛˊ	-10.896
ㄘㄞˋ0쎯ㄔㄢˊ0쎯	-10.8963
ㄕˋ4쎯ㄓㄥˋ3쎯ㄒㄧㄝˊ1쎯	-10.8964
ㄎㄜˋ3쎯ㄊㄤˊ1쎯	-10.8966
ㄌㄧㄣˊ0쎯ㄐㄧㄣˋ1쎯	-10.8966
ㄙㄨˋ6쎯ㄐㄧㄠ5쎯	-10.8966
ㄗˋ0쎯ㄩㄢˋ3쎯	-10.8967
ㄉㄞˋ1쎯ㄉㄨㄥˋ0쎯	-10.8968
ㄆㄥˊ0쎯	-10.8972
ㄊㄥˊ4쎯	-10.8979
ㄨㄟ1쎯ㄦˇ0쎯	-10.898
ㄢ1쎯ㄙㄨㄢ0쎯	-10.898
ㄇㄟˊ4쎯ㄏㄨㄚ0쎯	-10.8982
ㄆㄧㄠ0쎯ㄌㄧㄤˋ0쎯	-10.8984
ㄑㄧ3쎯ㄒㄧ7쎯	-10.8984
ㄊㄧㄢ0쎯ㄑㄧˋ0쎯	-10.8985
ㄓㄨㄢˇ쎯ㄙㄨˋ3쎯	-10.8986
ㄌㄥˇ쎯ㄕㄨㄟˇ쎯	-10.8986
(ㄏㄢˊ1쎯	-10.8987
ㄆㄨˇ2쎯ㄊㄨㄥ0쎯ㄍㄠ0쎯	-10.8992
.쎁쎉쎄쎉ㄋㄧㄢˊ0쎯	-10.8992
ㄨㄣˊ1쎯ㄕˋ10쎯	-10.8992
ㄍㄨˇ2쎯ㄈㄣˋ0쎯	-10.8995
ㄘㄨㄥ3쎯ㄇㄧㄥˊ1쎯	-10.8996
ㄋㄩˇ0쎯,ㄏㄢˋ0쎯ㄗㄨˊ1쎯	-10.9003
ㄑㄧㄥ5쎯ㄔㄨˇ3쎯	-10.9003
ㄌㄧㄥˊ2쎯ㄇㄧㄣˇ3쎯	-10.9003
ㄔㄢˊ0쎯ㄨㄟˋ2쎯:	-10.9006
ㄋㄚ1쎯ㄔㄠˊ1쎯ㄌㄧㄤˊ2쎯	-10.9007
ㄊㄨㄥ0쎯ㄈㄥ1쎯	-10.9008
ㄕˊ4쎯ㄆㄨˇ3쎯	-10.9009
ㄐㄧㄢˋ6쎯ㄆㄧˊ3쎯	-10.901
ㄓㄡ1쎯ㄡ0쎯	-10.901
ㄍㄡ5쎯ㄑㄧˇ7쎯	-10.9015
ㄔㄨˋ0쎯ㄇㄨˋ3쎯	-10.9015
ㄐㄧㄡˋ4쎯ㄒㄧㄤˋ3쎯	-10.9018
ㄓˊ1쎯ㄌㄧㄡˊ3쎯	-10.9019
쎂쎅ㄎㄜˋ0쎯	-10.9021
ㄑㄩˊ11쎯	-10.9023
쎁쎀ㄩˊ2쎯	-10.9023
ㄓㄣ4쎯ㄐㄩㄣ4쎯	-10.9023
ㄎㄨㄟ0쎯	-10.9027
.’	-10.9028
ㄐㄧㄢˇ	-10.9029
ㄒㄧㄡˋ1쎯	-10.9033
쎁쎆쎈	-10.9034
ㄨㄢˇ4쎯	-10.9034
쎂ㄒㄧㄤˋ1쎯	-10.9036
ㄌㄧˋ3쎯ㄐㄧˊ4쎯	-10.9038
ㄩˊ20쎯	-10.9038
쎁쎈쎃	-10.9038
ㄨㄤˇ0쎯ㄧㄡˊ5쎯	-10.9038
ㄈㄤ0쎯ㄒㄧㄤˋ0쎯:	-10.904
ㄔㄣˋ1쎯ㄗㄨㄛ0쎯	-10.9041
ㄌㄧˇ3쎯ㄕˋ8쎯ㄔㄤˊ0쎯	-10.9043
ㄊㄠˋ쎯ㄈㄤˊ3쎯	-10.9044
ㄏㄨㄢˋ6쎯	-10.9046
ㄌㄧㄢˊ4쎯ㄒㄧㄤˇ2쎯	-10.9047
ㄓˊ1쎯ㄒㄧㄢˋ3쎯	-10.9047
ㄐㄩˋ4쎯《	-10.9048
ㄑㄧˇ0쎯	-10.9049
ㄍㄨㄥ0쎯ㄗ2쎯	-10.9052
ㄙㄨˋ4쎯ㄕㄜˇ쎯	-10.9053
ㄓㄨㄥ0쎯ㄑㄧㄥ0쎯ㄋㄧㄢˊ0쎯	-10.9058
ㄍㄥ0쎯ㄍㄠ0쎯	-10.906
.쎁쎉쎈쎂ㄋㄧㄢˊ0쎯	-10.9065
ㄐㄧㄚˇ1쎯	-10.9066
ㄊㄧ0쎯ㄒㄧㄥˊ2쎯	-10.9067
ㄧㄥˊ6쎯	-10.9069
ㄑㄧㄥ0쎯ㄌㄞˋ0쎯	-10.9072
ㄙˇ쎯ㄏㄡˋ0쎯	-10.9072
ㄘㄢ0쎯ㄅㄧㄢ1쎯	-10.9072
ㄗㄠˋ0쎯	-10.9073
ㄐㄧ6쎯ㄊㄧ0쎯	-10.9076
ㄌㄩˋ0쎯、ㄈㄚˇ0쎯ㄍㄨㄟ2쎯	-10.9077
ㄆㄤˊ0쎯	-10.9079
ㄌㄧˊ1쎯ㄇㄧˇ0쎯,ㄎㄨㄢ0쎯	-10.908
ㄑㄧㄝ쎯ㄍㄜ6쎯	-10.9082
ㄅㄤˋ0쎯	-10.9082
ㄌㄢˊ4쎯ㄧㄚˊ0쎯	-10.9082
ㄎㄨㄚ0쎯	-10.9082
ㄏㄨㄛˊ0쎯ㄒㄧㄝˇ1쎯	-10.9085
ㄕㄣˇ1쎯ㄆㄧ0쎯	-10.9086
ㄅㄣˇ0쎯ㄓˋ4쎯	-10.9087
ㄉㄧˊ3쎯	-10.9088
ㄍㄜ7쎯ㄔㄤˋ2쎯	-10.9093
ㄓㄥˋ1쎯ㄓㄡ1쎯ㄕˋ4쎯	-10.9095
ㄧㄣ1쎯ㄧㄤˊ2쎯	-10.9096
ㄩˋ3	-10.9097
ㄉㄥˇ0쎯ㄩㄢˋ2쎯ㄐㄧㄠˋ2쎯	-10.9099
ㄓㄥ0쎯ㄎㄜ2쎯ㄐㄧˊ2쎯	-10.9106
ㄍㄢˇ3쎯ㄧㄥ0쎯	-10.9107
ㄎㄚˇ0쎯ㄆㄧㄢ0쎯	-10.9108
ㄕˋ22쎯	-10.911
ㄐㄧㄣˋ0쎯ㄏㄨㄚˋ0쎯	-10.9113
ㄅㄨˋ0쎯ㄘㄨㄛˋ2쎯	-10.9116
쎁쎁쎅	-10.9116
ㄏㄠˊ0쎯ㄇㄚˇ2쎯	-10.9117
ㄅㄨˋ2쎯ㄓㄡˋ4쎯	-10.9117
ㄐㄩㄝˊ12쎯	-10.912
ㄇㄤˊ4쎯	-10.9121
ㄕ4쎯ㄗˇ0쎯	-10.9121
ㄖㄨㄥˊ6쎯ㄐㄧˋ8쎯	-10.9121
ㄕㄡ쎯ㄙㄨˋ8쎯	-10.9122
쎂.쎆	-10.9123
ㄙㄢ0쎯ㄨㄟˊ6쎯	-10.9126
ㄈㄟ3쎯ㄌㄩˋ0쎯ㄅㄧㄣ0쎯	-10.913
ㄓˊ	-10.9133
ㄗㄠˋ1쎯	-10.9133
ㄍㄨㄥ0쎯ㄨㄟˇ5쎯	-10.9135
ㄅㄧㄥˇ7쎯	-10.9136
.ㄙㄨㄟˊ1쎯ㄓㄠ2쎯	-10.9138
ㄐㄧˇ1쎯ㄌㄨˋ0쎯	-10.9139
ㄌㄩˇ2쎯ㄎㄜˋ2쎯	-10.9139
쎁쎅쎀ㄎㄜˋ0쎯	-10.9142
ㄋㄚ1쎯ㄧㄤˊ2쎯	-10.9143
쎁쎉쎉쎇	-10.9143
、ㄕㄥ1쎯ㄔㄢˇ0쎯、	-10.9144
ㄍㄨㄛ0쎯ㄇㄧㄣˇ3쎯	-10.9146
ㄔㄨˇ2쎯ㄘㄨㄣˊ쎯	-10.9148
ㄐㄩㄝˊ0쎯ㄙㄞˋ쎯	-10.9151
ㄑㄧˇ4쎯ㄘㄠˇ쎯	-10.9152
ㄐㄧㄚ3쎯ㄓㄨㄤ1쎯	-10.9153
ㄑㄧㄢ0쎯ㄌㄧˇ2쎯	-10.9154
ㄓˋ1쎯·	-10.9155
ㄆㄧˊ4쎯	-10.9156
ㄐㄧㄠ4쎯	-10.9157
ㄕˊ1쎯ㄐㄧㄢ4쎯ㄋㄟˋ쎯	-10.9158
ㄊㄧㄥˊ	-10.9158
ㄊㄤˊ0쎯ㄔㄠˊ1쎯	-10.9159
ㄕㄨˋ0쎯ㄒㄩㄝˊ1쎯ㄩㄢˋ2쎯	-10.9159
ㄐㄧˋ10쎯ㄧㄡˇ1쎯	-10.9161
ㄉㄧㄠ	-10.9161
ㄧㄡˊ0쎯ㄑㄧˊ1쎯ㄕˋ15쎯	-10.9161
ㄇㄧㄥˋ쎯ㄉㄡˇ0쎯ㄓㄥ1쎯	-10.9164
ㄋㄨㄥˊ0쎯ㄧㄠˋ0쎯	-10.9165
ㄨㄟˇ6쎯	-10.9166
ㄆㄢˊ0쎯	-10.9167
ㄑㄧㄥ0쎯ㄕㄢ0쎯	-10.9168
ㄍㄨㄤˇ0쎯ㄎㄨㄛˋ2쎯	-10.9168
ㄐㄩˋ4쎯ㄅㄣˇ0쎯	-10.9168
ㄍㄡˋ3쎯	-10.9171
ㄈㄨˋ7쎯ㄒㄧㄥ0쎯	-10.9173
ㄅㄠˇ2쎯ㄨㄣ0쎯	-10.9174
ㄉㄨㄛ0쎯ㄘㄞˇ1쎯	-10.9175
ㄑㄧㄢˊ0쎯ㄨㄟˋ0쎯	-10.9179
ㄕˋ19쎯	-10.9184
ㄍㄞˇ쎯ㄓˋ3쎯	-10.9186
ㄐㄧㄣˇ0쎯ㄐㄧㄣˇ0쎯	-10.9188
ㄎㄨㄛˋ1쎯	-10.919
ㄍㄨㄤˇ0쎯ㄅㄛ4쎯ㄉㄧㄢˋ0쎯	-10.9192
ㄇㄣˋ0쎯	-10.9193
ㄒㄧㄝˊ1쎯ㄗㄨㄛ0쎯	-10.9193
ㄍㄠ0쎯ㄙㄨˋ2쎯ㄓˋ4쎯	-10.9194
ㄗㄥ0쎯ㄓˊ3쎯	-10.9196
ㄒㄧˋ1쎯ㄓˋ7쎯	-10.9196
ㄓㄤ3쎯	-10.9203
,ㄕㄢˋ1쎯ㄔㄤˊ0쎯	-10.9205
ㄉㄚˋ쎯ㄍㄨㄟ2쎯ㄇㄛˊ3쎯	-10.9207
ㄓㄨˋ7쎯ㄔㄣˋ1쎯	-10.9207
ㄉㄧㄢˋ0쎯ㄊㄧ2쎯	-10.921
ㄙˋ1쎯ㄈㄤ0쎯	-10.9211
ㄈㄣ0쎯ㄅㄧㄝˊ0쎯ㄨㄟˊ0쎯	-10.9212
ㄈㄨˋ4쎯ㄐㄧㄚ0쎯	-10.9214
ㄐㄧㄢ3쎯ㄔˊ4쎯ㄧˇ2쎯	-10.9215
쎆ㄇㄨˇ2쎯	-10.9218
ㄓˊ0쎯ㄉㄠˇ0쎯	-10.922
ㄏㄞ0쎯ㄙㄡˋ쎯	-10.9221
ㄕㄚ	-10.9221
ㄐㄧㄣ3쎯ㄆㄞˊ2쎯	-10.9227
쎆ㄩㄝˋ0쎯ㄐㄧㄚ0쎯ㄖㄨˋ0쎯	-10.9229
ㄇㄛˋ5쎯ㄙ4쎯ㄎㄜ2쎯	-10.9229
ㄌㄚ2쎯	-10.9231
ㄐㄧㄝˊ6쎯ㄓˇ0쎯	-10.9233
ㄐㄧㄠˇ7쎯	-10.9234
ㄗㄠˊ쎯	-10.9235
ㄓㄨ1쎯ㄅㄠˇ1쎯	-10.9236
ㄉㄧㄥˋ1쎯ㄐㄧ13쎯	-10.9238
ㄎㄢ3쎯ㄔㄣˋ1쎯	-10.9239
ㄎㄜ3쎯	-10.9241
ㄩˊ0쎯쎂쎀쎀쎃ㄋㄧㄢˊ0쎯	-10.9241
ㄉㄥˇ0쎯ㄓˊ4쎯ㄧㄝˋ0쎯	-10.9243
ㄏㄨㄟˋ2쎯ㄓㄨˇ0쎯ㄒㄧˊ1쎯	-10.9244
ㄍㄠ0쎯ㄓˋ4쎯ㄌㄧㄤˊ3쎯	-10.9247
ㄕˊ0쎯ㄨˇ0쎯ㄋㄧㄢˊ0쎯	-10.9249
.ㄇㄧㄣˊ0쎯ㄍㄨㄛˊ0쎯	-10.9251
쎁/쎃	-10.9251
ㄌㄩˇ6쎯ㄏㄤˊ0쎯	-10.9253
р	-10.9253
ㄩˊ1	-10.9254
ㄌㄧㄥˊ10쎯ㄐㄧㄢˋ1쎯	-10.9255
ㄍㄨㄣˋ쎯	-10.9256
ㄏㄨˊ5쎯ㄅㄛˊ1쎯	-10.9257
,ㄧㄡˊ0쎯ㄑㄧˊ1쎯ㄕˋ15쎯	-10.9261
ㄒㄧㄣ5쎯ㄧ0쎯ㄉㄞˋ0쎯	-10.9261
ㄈㄢˊ	-10.9264
ㄍㄜ7쎯ㄘˊ0쎯	-10.9267
ㄇㄟˋ	-10.9268
ㄉㄨㄟˋ1쎯ㄅㄧˇ1쎯	-10.9268
쎁쎉쎉쎆	-10.9271
ㄨㄞˋ쎯ㄅㄧㄠˇ0쎯	-10.9272
ㄨㄟ3쎯ㄇㄧˇ0쎯	-10.9273
ㄅㄧㄥˋ0쎯ㄅㄧㄢˋ0쎯	-10.9276
ㄇㄛˋ0쎯ㄗˋ1쎯	-10.9277
쎉ㄩㄝˋ0쎯ㄘㄢ0쎯ㄐㄧㄚ0쎯	-10.9278
ㄅㄧˇ3쎯ㄏㄨㄚˋ1쎯:	-10.9279
ㄌㄧㄡˊ5쎯ㄙㄨㄢ0쎯	-10.9282
ㄏㄨˊ2쎯ㄊㄨㄥˊ0쎯	-10.9282
ㄉㄧㄠˋ1쎯	-10.9282
ㄕㄨㄟˋ0쎯:“	-10.9284
ㄉㄧㄠˋ2쎯ㄌㄧㄠˋ0쎯:	-10.9284
ㄋㄚ0쎯ㄧㄤˋ0쎯	-10.9285
ㄍㄣ0쎯ㄐㄩ4쎯《	-10.9285
е	-10.9287
ㄅㄨˋ0쎯ㄍㄨㄟ2쎯ㄗㄜˊ0쎯	-10.9287
ㄌㄧㄡˊ1쎯ㄌㄢˇ0쎯ㄑㄧˋ7쎯	-10.9289
ㄔㄢˊ0쎯ㄧ0쎯	-10.9292
ㄉㄧˋ3쎯쎅	-10.9292
.ㄑㄩㄢˊ1쎯ㄕㄨ0쎯	-10.9293
ㄈㄣ3쎯	-10.9294
ㄧˋ18쎯ㄙ3쎯ㄕˋ15쎯	-10.9294
ㄐㄧˋ2쎯ㄧˋ2쎯	-10.9294
ㄔㄨㄥ1쎯ㄉㄧㄢˋ0쎯ㄑㄧˋ7쎯	-10.9295
ㄐㄩㄣ0쎯ㄧ3쎯	-10.9297
ㄊㄤˊ	-10.9297
ㄨˊ0쎯ㄏㄨˊ5쎯	-10.93
ㄎㄞ0쎯ㄈㄥ3쎯	-10.9304
ㄒㄧㄡ1쎯ㄉㄧㄥˋ0쎯	-10.9304
ㄓㄨㄥ0쎯ㄒㄩㄝˊ1쎯ㄍㄠ0쎯	-10.9305
ㄕㄥˇ0쎯ㄉㄠˋ3쎯	-10.9306
ㄘㄨˋ3쎯	-10.9308
ㄌㄧㄢˋ2쎯ㄞˋ1쎯	-10.9309
ㄌㄤˊ	-10.9309
ㄧㄢ0쎯ㄏㄡˊ1쎯	-10.9309
ㄉㄤˇ1쎯ㄓㄥˋ3쎯	-10.9309
ㄒㄧㄣˋ0쎯ㄧㄤˇ0쎯	-10.9309
ㄘˊ5쎯ㄕㄢˋ0쎯	-10.9311
ㄅㄚ0쎯ㄐㄧㄠˇ0쎯	-10.9313
ㄙ2쎯ㄌㄧˋ3쎯	-10.9313
ㄅㄨˋ4쎯ㄌㄚˋ0쎯	-10.9318
ㄇㄨˋ0쎯ㄓˋ4쎯	-10.932
ㄑㄩˇ0쎯ㄉㄞˋ0쎯	-10.9321
ㄕㄨㄟˋ0쎯ㄏㄨㄚˋ2쎯	-10.9321
ㄘㄢˊ0쎯ㄐㄧˊ6쎯ㄖㄣˊ0쎯	-10.9322
쎉ㄆㄧㄥˊ0쎯ㄈㄤ0쎯ㄍㄨㄥ2쎯	-10.9322
ㄏㄨㄚˋ1쎯ㄩㄢˋ2쎯	-10.9323
ㄨㄞˋ쎯ㄇㄠˋ2쎯	-10.9325
ㄐㄧㄚ0쎯ㄓㄡ1쎯	-10.9327
ㄔㄨㄢˊ0쎯ㄉㄨㄥˋ0쎯	-10.9328
ㄓㄨㄤˋ0쎯ㄉㄚˋ쎯	-10.9332
ㄅㄧˇ1쎯ㄙㄞˋ쎯ㄓㄨㄥ0쎯	-10.9333
ㄈㄨˋ8쎯ㄕˋ4쎯ㄔㄤˊ0쎯	-10.9334
ㄈㄣ0쎯ㄆㄟˋ2쎯ㄉㄠˋ0쎯	-10.9335
ㄐㄧㄠ6쎯ㄕㄡˋ2쎯,ㄅㄛˊ5쎯	-10.9336
ㄌㄧㄠˋ4쎯	-10.9337
ㄒㄧㄥˋ3쎯ㄇㄧㄥˊ0쎯:	-10.9338
쎅ㄇㄧˇ0쎯	-10.9339
ㄍㄠ0쎯ㄦˇ0쎯ㄈㄨ0쎯	-10.9339
ㄏㄨㄥˊ0쎯ㄧㄤˊ0쎯	-10.9346
ㄌㄧㄤˇ0쎯ㄊㄧㄠˊ0쎯	-10.9346
ㄘㄨㄟ1쎯	-10.9346
ㄕㄞˋ쎯	-10.935
ㄊㄞˋ3쎯ㄕㄢ0쎯	-10.9351
ㄒㄧㄢˋ3쎯ㄊㄧㄠˊ0쎯	-10.9353
ㄖㄤˋ쎯ㄋㄧㄣˊ쎯	-10.9354
,ㄧㄡˊ0쎯ㄑㄧˊ1쎯	-10.9356
ㄩˊ5쎯ㄧㄝˋ0쎯	-10.9356
ㄓ1쎯ㄑㄧˋ0쎯ㄍㄨㄢˇ1쎯	-10.9358
ㄕㄜˋ6쎯ㄒㄧㄤˋ3쎯ㄐㄧ6쎯	-10.936
ㄌㄧㄣˊ5쎯ㄙㄨㄢ0쎯	-10.9362
ㄈㄤ0쎯ㄒㄧㄥˊ1쎯	-10.9362
ㄐㄧ6쎯ㄑㄧˋ7쎯ㄖㄣˊ0쎯	-10.9363
ㄇㄢˋ2쎯ㄇㄢˋ2쎯	-10.9364
ㄘㄢ0쎯ㄐㄧㄢˋ0쎯	-10.9364
ㄔㄨ0쎯ㄗㄨ0쎯	-10.9365
ㄒㄧㄥˊ2쎯ㄏㄠˊ0쎯:	-10.9368
ㄕㄨ0쎯ㄒㄧㄝˇ0쎯	-10.9373
ㄔㄡˊ	-10.9374
ㄑㄧˊ23쎯	-10.9378
ㄇㄢˊ	-10.9379
ㄏㄨㄤˊ1쎯ㄏㄜˋ3쎯ㄙㄜˋ0쎯	-10.938
ㄘˋ0쎯ㄋㄧㄢˊ0쎯	-10.9381
ㄍㄚ5쎯	-10.9383
ㄩㄥˋ0쎯ㄊㄨˊ2쎯:	-10.9383
ㄍㄢ0쎯ㄐㄧㄥˋ1쎯	-10.9384
ㄐㄧㄠˋ2쎯ㄕㄜˇ쎯	-10.9385
ㄧˊ7쎯ㄓˊ5쎯	-10.9385
ㄔㄨˇ0쎯ㄈㄨˋ8쎯ㄔㄨˇ0쎯	-10.9387
ㄕㄥ2쎯ㄩˋ15쎯	-10.9393
,쎁쎉쎈쎅ㄋㄧㄢˊ0쎯	-10.9395
ㄊㄧˋ4쎯ㄉㄞˋ0쎯	-10.9396
ㄓㄢ5쎯	-10.9398
ㄙˋ1쎯ㄐㄧㄠˇ0쎯	-10.9399
ㄏㄢˇ0쎯	-10.9404
ㄉㄚˋ쎯ㄉㄡˋ0쎯	-10.9405
ㄘㄢ0쎯ㄐㄧㄚ0쎯ㄍㄜˊ0쎯	-10.9405
ㄕㄨˇ5쎯ㄔㄢˇ0쎯ㄆㄧㄣˇ쎯	-10.9406
ㄧ0쎯ㄕˊ1쎯	-10.9407
쎁쎂ㄩㄝˋ0쎯ㄘㄢ0쎯ㄐㄧㄚ0쎯	-10.9411
ㄋㄧㄝˋ	-10.9411
ㄉㄧㄢˋ0쎯ㄍㄨㄥ0쎯	-10.9414
ㄌㄧㄢˇ0쎯	-10.9416
ㄧ0쎯ㄍㄨㄢˋ0쎯	-10.9416
ㄇㄧㄠˇ	-10.9418
ㄧㄣ0쎯ㄗˇ0쎯	-10.9419
ㄒㄩㄝˊ1쎯ㄅㄛˊ5쎯ㄕˋ0쎯,	-10.9421
쎁쎉쎂쎆ㄋㄧㄢˊ0쎯	-10.9422
ㄘˊ3쎯ㄑㄧˋ7쎯	-10.9426
ㄦˊ1쎯ㄍㄨㄛ0쎯	-10.9427
ㄇㄛˊ7쎯ㄕㄡˋ4쎯	-10.9428
ㄐㄧㄠˊ0쎯	-10.9428
ㄧㄥ2쎯	-10.9429
ㄙㄨ0쎯ㄨㄟˊ6쎯ㄞ2쎯	-10.9431
ㄇㄧˊ3쎯	-10.9431
ㄏㄨㄟˋ2쎯ㄧˋ4쎯ㄕˋ18쎯	-10.9432
ㄓㄜˋ0쎯ㄕㄡˇ2쎯	-10.9436
ㄩㄢˊ0쎯ㄉㄞˋ0쎯	-10.9438
ㄘㄨˋ0쎯ㄩˊ0쎯	-10.944
ㄇㄟˋ0쎯ㄇㄟˋ0쎯	-10.9441
ㄊㄨㄥˊ0쎯ㄇㄥˊ1쎯	-10.9442
ㄐㄧㄥ8쎯ㄑㄩㄝˋ1쎯	-10.9442
ㄒㄧㄤ1쎯ㄐㄧˋ11쎯	-10.9442
쎃%	-10.9446
ㄏㄢˇ0쎯ㄐㄧㄢˋ0쎯	-10.9449
ㄐㄧㄥ2쎯ㄍㄨㄛˊ0쎯ㄐㄧㄚ3쎯	-10.9449
ㄐㄧㄣ3쎯ㄧㄣˊ1쎯	-10.9449
ㄌㄧㄡˋ0쎯ㄍㄜˇ0쎯	-10.9451
ㄓˋ0쎯ㄕㄠˇ쎯	-10.9452
ㄉㄢˋ0쎯ㄏㄨㄚˋ0쎯	-10.9453
▁̇ㄌㄜ쎯ㄈㄥ0쎯ㄈㄨˋ11쎯	-10.9454
ㄧㄢˋ5쎯ㄕㄡ쎯	-10.9456
ㄍㄨㄤ0쎯ㄑㄧㄢˋ1쎯	-10.9458
ㄑㄧㄥ5쎯ㄇㄛˋ1쎯	-10.9459
ㄩˇ6쎯ㄧㄢˊ2쎯ㄒㄩㄝˊ1쎯	-10.9461
ㄎㄨㄥˋ0쎯ㄓˋ3쎯ㄑㄧˋ7쎯	-10.9463
ㄙㄢ0쎯ㄘˋ0쎯	-10.9466
.ㄊㄨㄥˊ0쎯ㄕˊ1쎯,	-10.9468
ㄆㄛˋ1쎯	-10.9468
ㄅㄨˋ0쎯ㄐㄧㄢˋ0쎯	-10.9472
ㄙㄨˋ3쎯ㄌㄩˋ2쎯	-10.9476
ㄉㄨㄟˋ1쎯ㄇㄧㄢˋ0쎯	-10.9479
ㄘㄨㄣ0쎯ㄓㄣˋ3쎯	-10.9488
ㄅㄞˇ0쎯ㄎㄜ2쎯	-10.9488
ㄅㄧㄢˋ1쎯ㄕˋ15쎯	-10.949
ㄨㄣˊ0쎯ㄅㄣˇ0쎯	-10.9492
ㄇㄧㄣˇ1쎯ㄉㄨㄥ0쎯	-10.9494
ㄖㄡˊ0쎯ㄖㄨㄢˇ0쎯	-10.9494
ㄨㄟˋ8쎯	-10.9498
ㄓㄢˋ1쎯ㄔㄤˊ1쎯	-10.9499
ㄧㄚ4쎯	-10.9499
ㄅㄧㄢˇ0쎯	-10.9503
ㄕˊ0쎯ㄦˋ0쎯ㄋㄧㄢˊ0쎯	-10.951
ㄓˋ0쎯ㄐㄧㄣ2쎯ㄖㄣˊ3쎯	-10.951
ㄕˇ2쎯ㄇㄧㄥˋ쎯	-10.9511
ㄍㄞˇ쎯ㄔㄣˋ1쎯	-10.9514
ㄕˊ0쎯ㄉㄨㄛ0쎯ㄋㄧㄢˊ0쎯	-10.9516
ㄩㄥˋ0쎯ㄧㄠˋ0쎯	-10.9518
ㄐㄧㄣˇ1쎯ㄍㄨㄢˇ1쎯	-10.9519
ㄓㄠ0쎯ㄕㄤ1쎯	-10.952
ㄖㄡˊ1쎯	-10.9521
ㄕㄨ0쎯》:“	-10.9521
ㄇㄧㄢˇ2쎯ㄉㄧㄢˋ2쎯	-10.9523
ㄕㄡ쎯ㄈㄟˋ4쎯	-10.9526
ㄍㄨㄥ2쎯ㄇㄧㄣˊ0쎯	-10.9529
ㄌㄧˋ0쎯ㄉㄚˊ0쎯ㄗㄠˋ2쎯	-10.9532
,ㄋㄚ1쎯ㄌㄧㄣˊ0쎯	-10.9533
ㄗㄨㄣ1쎯ㄒㄩㄣˊ4쎯	-10.9533
ㄧㄡˊ2쎯ㄆㄧㄠˋ0쎯	-10.9533
,ㄧㄡˊ2쎯ㄓㄥˋ3쎯ㄅㄧㄢ1쎯	-10.9536
ㄅㄞˇ2쎯ㄌㄧㄣˊ1쎯	-10.9537
:쎀쎀	-10.9538
°Cㄋㄧㄢˊ0쎯ㄐㄧㄤˋ1쎯	-10.9539
(쎁쎉쎄	-10.9539
ㄕㄢ0쎯ㄉㄧㄥˇ0쎯	-10.9542
ㄉㄧㄡ0쎯	-10.9543
쎃쎀ㄩˊ2쎯	-10.9543
ㄎㄜˇ0쎯ㄨㄟˋ6쎯	-10.9546
ㄐㄧㄡˋ4쎯ㄉㄡˋ2쎯	-10.9546
ㄒㄧㄤˇ2쎯ㄧㄠ4쎯	-10.9557
ㄖㄨˋ0쎯ㄉㄤˇ1쎯	-10.9561
ㄕㄡˋ2쎯ㄩˊ1쎯“	-10.9562
ㄢ1쎯ㄐㄧ12쎯ㄙㄨㄢ0쎯	-10.9562
ㄔㄨ1쎯ㄅㄨˋ2쎯	-10.9564
ㄈㄣˇ쎯ㄙ1쎯	-10.9565
쎃.쎃	-10.9566
ㄐㄧˋ12쎯ㄙˋ3쎯	-10.9569
쎃.쎆	-10.957
ㄈㄟˋ3쎯ㄕㄨㄟˇ쎯	-10.9577
ㄔㄤˊ3쎯ㄕˋ11쎯	-10.9579
ㄧˊ19쎯	-10.9579
ㄆㄨˊ4쎯ㄊㄧㄢˊ0쎯	-10.958
ㄉㄥˇ0쎯ㄊㄜˋ0쎯ㄉㄧㄢˇ1쎯	-10.9583
ㄎㄞ0쎯ㄍㄨㄥ0쎯	-10.9588
ㄙㄨˋ5쎯	-10.9588
ㄕㄨㄟˇ쎯ㄉㄧㄢˋ0쎯ㄓㄢˋ2쎯	-10.959
ㄐㄧㄢˋ3쎯	-10.959
ㄗㄞˇ1쎯ㄊㄧ0쎯	-10.9592
ㄌㄚˋ0쎯ㄒㄧㄝˊ0쎯	-10.9593
ㄅㄢ1쎯ㄓㄨˇ0쎯ㄖㄣˊ3쎯	-10.9597
ㄌㄨㄛˋ	-10.9599
ㄓㄚˋ	-10.9602
ㄉㄚˋ쎯ㄙㄨㄢˋ0쎯	-10.9603
ㄖㄨㄢˇ1쎯	-10.9604
ㄓ0쎯ㄔㄣˋ1쎯	-10.9607
ㄐㄧㄢ3쎯ㄔˊ4쎯“	-10.9608
ㄖㄣˊ0쎯ㄎㄡˇ쎯쎃	-10.961
ㄨㄣˊ0쎯ㄕˇ0쎯	-10.9611
ㄍㄨㄟ2쎯ㄈㄢˋ3쎯ㄏㄨㄚˋ0쎯	-10.9614
ㄔㄤˊ0쎯ㄩㄢˊ5쎯ㄒㄧㄥˊ1쎯	-10.9615
ㄧㄣ4쎯ㄌㄜˋ0쎯ㄐㄧㄚ3쎯	-10.9615
ㄆㄧˊ6쎯	-10.9616
ㄨㄟˇ5쎯ㄕㄨ0쎯ㄐㄧˋ1쎯、	-10.9622
>>	-10.9626
ㄊㄨㄥˊ4쎯ㄏㄨㄚˋ2쎯	-10.963
ㄊㄨˊ2쎯ㄓㄨㄥ0쎯	-10.9633
ㄋㄚ1쎯ㄇㄧㄢˋ0쎯	-10.9635
ㄍㄨ4쎯ㄋㄧㄤˊ쎯	-10.9635
ㄈㄣˊ0쎯	-10.9638
ㄈㄤˋ쎯ㄉㄚˋ쎯	-10.964
ㄧㄡˇ1쎯ㄌㄧˋ6쎯ㄩˊ0쎯	-10.9642
ㄈㄤ0쎯ㄔㄥˊ7쎯	-10.9642
ㄋㄧㄢˊ0쎯ㄆㄧㄥˊ0쎯ㄐㄩ	-10.9642
ㄎㄜˋ2쎯ㄗㄨㄛˋ1쎯	-10.9644
ㄋㄩˇ0쎯ㄕㄥ1쎯	-10.9646
ㄅㄟˋ5쎯ㄖㄣˋ1쎯ㄨㄟˊ0쎯	-10.9646
쎃ㄇㄨˇ2쎯	-10.9649
ㄅㄢˋ2쎯	-10.965
ㄇㄢˇ0쎯ㄗㄨˊ1쎯	-10.9651
ㄊㄧㄢ0쎯ㄖㄢˊ0쎯ㄑㄧˋ0쎯	-10.9652
ㄇㄧㄥˊ0쎯ㄕ2쎯	-10.9654
ㄨㄣ1쎯	-10.9656
ㄧ0쎯ㄉㄢˋ1쎯	-10.9656
ㄅㄛˊ5쎯ㄌㄢˇ0쎯ㄏㄨㄟˋ2쎯	-10.9659
ㄐㄧㄠ0쎯ㄧˋ12쎯ㄙㄨㄛˇ0쎯	-10.9662
(ㄐㄧˊ8쎯ㄊㄨㄢˊ0쎯)	-10.9665
쎃.쎂	-10.9666
쎄.쎀	-10.9669
ㄚ0쎯ㄍㄣ0쎯ㄊㄧㄥˊ0쎯	-10.968
ㄓㄨ1쎯ㄐㄧㄤ0쎯	-10.9681
ㄨㄟˋ11쎯	-10.9681
ㄒㄩˋ1쎯》:“	-10.9687
ㄙㄨㄛ	-10.9688
ㄉㄤ0쎯ㄒㄩㄢˇ0쎯	-10.9689
ㄙㄨㄥ5쎯	-10.9691
ㄇㄧˊ6쎯	-10.9692
쎂ㄇㄨˇ2쎯	-10.9693
ㄍㄥ	-10.9696
”,ㄕˋ15쎯	-10.9697
ㄔㄥˊ0쎯ㄋㄧㄢˊ0쎯	-10.9699
ㄌㄧㄤˋ	-10.97
ㄊㄧㄢ0쎯ㄎㄨㄥ0쎯	-10.9705
ㄕˊ3쎯ㄨˋ2쎯	-10.9706
ㄅㄚˊ1쎯	-10.9706
ㄕˋ18쎯ㄨㄞˋ쎯	-10.9709
ㄐㄧㄣˋ0쎯ㄓㄢˇ2쎯	-10.971
ㄑㄩˋ1쎯ㄨㄟˋ3쎯	-10.9717
ㄈㄨˋ8쎯ㄌㄧˇ3쎯ㄕˋ8쎯	-10.9722
ㄗㄨㄟˋ0쎯ㄐㄧㄤˋ2쎯	-10.9724
ㄅㄢˋ0쎯ㄌㄧˇ3쎯ㄌㄩˇ2쎯	-10.9726
ㄘㄜˋ3쎯ㄏㄨㄟˋ5쎯	-10.9727
ㄑㄧㄢˊ0쎯ㄐㄧㄣˋ0쎯	-10.9728
ㄖㄨˋ0쎯ㄇㄣˊ0쎯	-10.973
ㄧㄥˋ1쎯ㄉㄨˋ2쎯	-10.973
ㄅㄨˋ1쎯ㄌㄚ1쎯	-10.9732
ㄈㄣ0쎯ㄌㄟˋ2쎯:	-10.9734
ㄩㄢˊ9쎯ㄗˋ0쎯	-10.974
ㄋㄧㄢˊ0쎯ㄑㄧㄥ1쎯ㄖㄣˊ0쎯	-10.974
ㄙㄨㄣˇ0쎯ㄏㄞˋ2쎯	-10.9741
ㄌㄨㄣˊ2쎯》	-10.9742
ㄏㄨˊ6쎯ㄉㄧㄝˊ4쎯	-10.9742
ㄍㄨˇ4쎯ㄌㄧˋ5쎯	-10.9744
ㄆㄧˊ2쎯ㄐㄧㄡˇ5쎯	-10.9744
ㄙㄨㄢˋ1쎯ㄈㄚˇ0쎯	-10.9747
ㄎㄜˇ0쎯ㄕˋ12쎯	-10.9749
ㄧㄡˋ2쎯ㄔㄨㄥˊ0쎯	-10.9753
ㄕˋ8쎯ㄨˋ2쎯ㄙㄨㄛˇ0쎯	-10.9753
ㄓㄨㄥ	-10.9754
ㄋㄢˊ1쎯ㄉㄨˋ2쎯	-10.9755
ㄈㄨˇ4쎯	-10.9756
ㄓㄜˋ0쎯ㄌㄟˋ2쎯	-10.9757
쎂쎁ㄕˋ3쎯ㄐㄧˇ1쎯	-10.9758
ㄧㄣ2쎯	-10.9761
ㄔㄤˊ4쎯ㄋㄧㄢˊ0쎯	-10.9762
ㄕˋ9쎯ㄌㄤˊ0쎯	-10.9764
ㄘㄢ0쎯ㄕㄨˇ5쎯:	-10.9765
ㄇㄧㄢˋ0쎯ㄑㄧㄢˊ0쎯	-10.9767
ㄅㄧˇ2쎯ㄘˇ0쎯	-10.9775
ㄉㄢ1쎯ㄅㄠˇ2쎯	-10.9779
▁̇ㄌㄜ쎯ㄌㄧㄤˊ0쎯ㄏㄠˇ0쎯	-10.978
ㄗㄞ1쎯	-10.9781
ㄌㄧˇ3쎯ㄘㄞˊ2쎯	-10.9782
ㄑㄧˋ0쎯ㄓˋ4쎯	-10.9782
ㄨㄟˇ1	-10.9784
ㄍㄜ2쎯ㄍㄜ2쎯	-10.9789
ㄈㄥ3쎯ㄐㄧㄢˋ2쎯	-10.9793
ㄕˋ4쎯ㄔㄤˊ1쎯ㄕㄤˇ0쎯	-10.9796
쎄ㄋㄧㄢˊ0쎯)	-10.9798
ㄕㄚˋ0쎯	-10.98
ㄒㄧㄠˇ0쎯ㄧㄡˊ5쎯ㄒㄧˋ0쎯	-10.98
ㄉㄢˋ0쎯ㄏㄨㄟ0쎯	-10.98
ㄓㄜˋ0쎯ㄘˋ0쎯	-10.9801
ㄔㄨㄥˊ2쎯ㄒㄧㄡ1쎯	-10.9803
ㄊㄨㄢˊ0쎯ㄍㄡˋ1쎯	-10.9804
ㄉㄧˋ3쎯ㄙˋ1쎯ㄐㄧㄝˋ2쎯	-10.9806
ㄊㄨㄥˊ0쎯ㄐㄧˇ3쎯	-10.9807
ㄉㄧㄥˇ0쎯ㄅㄨˋ4쎯	-10.9813
;쎃、	-10.982
쎇ㄋㄧㄢˊ0쎯)	-10.9822
ㄧˋ15쎯ㄑㄧˋ0쎯	-10.9822
ㄏㄨㄥˊ1쎯ㄗㄠˇ1쎯	-10.9823
ㄇㄞˇ0쎯ㄇㄞˋ2쎯	-10.9825
ㄉㄧㄠˋ2쎯ㄧㄢˊ6쎯	-10.9831
ㄔˊ4쎯ㄧㄡˇ1쎯	-10.9837
)ㄗˋ1쎯	-10.9838
ㄧˋ6쎯ㄧㄡˇ1쎯	-10.9839
ㄒㄧㄣ0쎯ㄑㄧㄥˊ0쎯	-10.9841
ㄐㄧ18쎯ㄙㄨˋ2쎯	-10.9842
ㄐㄧ18쎯ㄌㄧㄝˋ2쎯	-10.9842
ㄐㄧㄣˋ1쎯ㄐㄧ0쎯ㄋㄧㄢˊ0쎯	-10.9843
ㄨㄟˇ	-10.9844
ㄓㄢˋ2쎯ㄓˇ2쎯ㄗㄞˋ1쎯	-10.9848
ㄈㄨˋ8쎯ㄓㄨˇ0쎯ㄅㄧㄢ1쎯	-10.9849
ㄌㄧㄣˊ3쎯ㄅㄚ1쎯	-10.9851
с	-10.9852
ㄒㄧㄤ1쎯ㄐㄧㄝ4쎯	-10.9856
ㄒㄧㄚˊ2쎯ㄍㄨˇ1쎯	-10.9857
ㄨㄤˋ0쎯	-10.9857
ㄔㄨㄤ0쎯ㄎㄢ0쎯	-10.9857
쎀ㄏㄠˊ1쎯ㄕㄥ0쎯	-10.9857
ㄆㄧㄥˊ0쎯ㄏㄨㄚˊ3쎯	-10.9859
ㄒㄩㄣˊ	-10.9859
ㄉㄨㄛˋ5쎯	-10.9862
ㄌㄧ쎯	-10.9864
ㄆㄧㄝ0쎯	-10.9864
ㄍㄠ0쎯ㄈㄣ0쎯ㄗˇ0쎯	-10.9866
ㄍㄨㄥ0쎯ㄧˋ2쎯ㄆㄧㄣˇ쎯	-10.9867
ㄨㄟˊ0쎯ㄓㄨˇ0쎯ㄊㄧˊ1쎯	-10.9871
ㄔㄨ0쎯ㄍㄨㄛ3쎯	-10.9872
ㄌㄡˊ0쎯	-10.9872
ㄅㄨˋ1쎯ㄓˋ13쎯	-10.9876
쎁쎉쎈쎃	-10.9881
ㄓㄥ0쎯ㄧˋ1쎯	-10.9882
ㄐㄩㄢˋ0쎯	-10.9884
ㄘㄨㄥ2쎯ㄏㄨㄚ0쎯	-10.9885
.ㄓㄨˋ7쎯ㄧㄡˇ1쎯《	-10.9885
ㄓˇ0쎯ㄊㄨㄥˋ0쎯	-10.9886
ㄑㄧㄣ2쎯ㄗˋ0쎯	-10.9889
쎄ㄌㄧˊ1쎯ㄇㄧˇ0쎯	-10.989
쎁쎀ㄩㄝˋ0쎯ㄔㄨ0쎯ㄕㄥ1쎯,	-10.9891
《ㄙㄢ0쎯ㄍㄨㄛˊ0쎯	-10.9893
ㄇㄧㄥˊ0쎯ㄆㄞˊ2쎯	-10.9896
ㄐㄧㄣˇ4쎯	-10.9896
ㄧㄡˋ	-10.9897
∶	-10.9899
ㄖㄣˊ3쎯ㄇㄧㄥˋ쎯	-10.9899
ㄑㄧㄥ0쎯ㄏㄨㄚ0쎯	-10.99
▁̇ㄉㄜ0쎯ㄇㄠˋ4쎯	-10.9902
ㄇㄨˋ9쎯	-10.9904
ㄕㄨㄟˇ쎯ㄩˋ7쎯	-10.9907
쎁ㄋㄧㄢˊ0쎯)	-10.9908
쎉쎅%	-10.9909
ㄆㄧㄣˊ0쎯ㄎㄨㄣˋ쎯	-10.9913
ㄕˋ20쎯ㄨㄣˊ0쎯:	-10.9916
ㄐㄧㄝˋ5쎯ㄐㄧㄢˋ12쎯	-10.9916
ㄕㄥˇ0쎯ㄅㄨˋ4쎯ㄐㄧˊ2쎯	-10.9917
ㄩˇ0쎯ㄑㄧˊ1쎯ㄊㄚ0쎯	-10.9918
ㄩㄢˊ5쎯ㄓㄨˋ5쎯ㄒㄧㄥˊ1쎯	-10.9919
ㄓˋ8쎯ㄒㄩˋ1쎯	-10.9919
ㄕㄠ	-10.9921
m	-10.9921
ㄅㄢˋ0쎯ㄓㄨˇ0쎯ㄖㄣˊ3쎯	-10.9922
ㄗㄚ0쎯ㄕˊ3쎯	-10.9922
ㄋㄚˋ1쎯ㄕㄨㄟˋ1쎯	-10.9922
ㄍㄨㄥ6쎯ㄊㄧㄥˊ0쎯	-10.9928
ㄕˋ10쎯)	-10.993
ㄉㄢ	-10.9934
▁̇ㄉㄜ1쎯ㄧㄤˋ0쎯ㄗˇ0쎯	-10.9937
う	-10.9939
ㄉㄢˋ0쎯ㄊㄡˊ0쎯	-10.9939
ㄧㄢˇ2쎯ㄎㄜ2쎯	-10.9943
ㄘㄨㄛˋ1쎯	-10.9945
쎉ㄋㄧㄢˊ0쎯)	-10.9945
ㄑㄧˋ0쎯ㄕˋ7쎯	-10.9947
ㄇㄧˋ1쎯ㄐㄧˊ8쎯	-10.9948
ㄍㄨㄤ0쎯ㄖㄨㄥˊ2쎯	-10.9948
ㄧㄢˊ10쎯ㄙㄜˋ0쎯:	-10.9949
▁̇ㄕ쎯ㄧㄝˋ0쎯	-10.9949
쎁쎇쎆	-10.9953
ㄊㄧㄢ0쎯ㄓㄨˇ0쎯ㄐㄧㄠ6쎯	-10.9957
ㄅㄠˇ2쎯ㄢ0쎯	-10.9959
쎁쎃쎃	-10.996
ㄓˇ4쎯ㄔㄨ0쎯	-10.9961
ㄓˋ11쎯ㄌㄧˋ0쎯	-10.9961
ㄓㄨㄛˊ3쎯	-10.9961
ㄢˋ1쎯ㄇㄚ2쎯	-10.9963
ㄍㄨㄛˊ0쎯ㄐㄧˊ12쎯	-10.9965
ㄨㄟ1쎯ㄌㄧㄢˊ5쎯	-10.9967
ㄧ0쎯ㄉㄧㄥˋ1쎯ㄧㄠ4쎯	-10.9968
ㄎㄜˇ0쎯ㄧˇ2쎯ㄕㄨㄟˋ0쎯	-10.9969
ㄅㄧㄥˇ1쎯ㄔㄥˊ3쎯“	-10.997
ㄓㄨㄥ2쎯ㄕㄣ2쎯	-10.9972
ㄈㄛˊ쎯ㄕㄢ0쎯ㄕˋ4쎯	-10.9975
ㄕㄨˇ5쎯ㄓˊ3쎯	-10.9976
ㄉㄨㄥ0쎯ㄈㄥ1쎯	-10.9976
ㄕㄢ0쎯ㄧㄠˋ0쎯	-10.9977
ㄒㄧㄢˇ0쎯ㄉㄜˊ0쎯	-10.9984
ㄐㄧㄠˇ7쎯”ㄧㄡˊ5쎯ㄐㄧ2쎯	-10.9985
ㄧㄣ4쎯ㄒㄧㄤˇ1쎯	-10.9985
ㄐㄧ12쎯ㄅㄣˇ0쎯ㄘㄢ0쎯	-10.9986
쎁.쎇	-10.9988
ㄑㄩ	-10.9988
ㄇㄟˇ1쎯ㄕㄨˋ0쎯ㄍㄨㄢˇ0쎯	-10.9994
ㄨˋ3쎯ㄌㄧㄠˋ0쎯	-10.9995
ㄑㄧㄠˊ3쎯	-11.0002
ㄊㄨㄥˇ0쎯ㄔㄣˋ1쎯	-11.0004
%%	-11.0005
ㄖˋ0쎯ㄅㄠˋ0쎯》	-11.0007
ㄓˋ3쎯ㄦˊ1쎯ㄔㄥˊ0쎯	-11.0016
ㄅㄟˇ쎯ㄨㄟˋ12쎯	-11.0019
ㄙㄜˋ0쎯ㄙㄨˋ2쎯	-11.0022
ㄅㄨˇ0쎯ㄔㄤˊ5쎯	-11.0024
ㄅㄢˋ0쎯ㄕˋ8쎯	-11.0025
”ㄅㄧㄢˋ0쎯ㄔㄨㄥˊ1쎯	-11.0026
《ㄕˇ0쎯ㄐㄧˋ1쎯·	-11.0026
ㄙˋ5쎯	-11.0027
ㄨㄟ1쎯ㄒㄧㄝˊ3쎯	-11.0028
ㄒㄩㄢˇ0쎯ㄩˋ3쎯	-11.0031
ㄐㄧˊ3쎯ㄒㄧㄢˋ2쎯	-11.0033
ㄨㄢˇ1쎯	-11.0036
ㄍㄨㄥˋ0쎯ㄐㄧˋ0쎯	-11.0038
ㄏㄨㄣ2쎯ㄌㄧˇ0쎯	-11.004
ㄧㄥ3쎯ㄦˊ0쎯	-11.0041
ㄙㄨ0쎯ㄓㄡ1쎯ㄕˋ4쎯	-11.0041
ㄐㄧㄝ6쎯ㄕˋ2쎯	-11.0043
ㄏㄨㄢˋ3쎯	-11.0045
ㄓㄥˋ3쎯ㄈㄨˇ3쎯ㄊㄜˋ0쎯	-11.0049
ㄒㄧㄢ1쎯ㄈㄥ6쎯	-11.005
ㄏㄨㄟˊ0쎯ㄕㄡ쎯	-11.0053
ㄅㄧˇ1쎯ㄌㄧˋ6쎯ㄕˊ1쎯	-11.0054
ㄉㄧˋ1쎯ㄨㄤˊ1쎯	-11.0056
ㄧㄢˊ0쎯ㄒㄩˋ6쎯	-11.0058
쎈ㄌㄧˊ1쎯ㄇㄧˇ0쎯	-11.0062
ㄅㄢˋ1쎯ㄉㄠˇ0쎯ㄊㄧ0쎯	-11.0064
ㄧㄡ0쎯ㄏㄨㄟˋ9쎯	-11.0065
ㄈㄤˋ쎯ㄑㄧˋ2쎯	-11.0069
ㄉㄨㄟˋ2쎯	-11.0069
ㄔㄤˊ0쎯ㄊㄨˊ2쎯	-11.007
ㄨㄟ5쎯	-11.0071
ㄉㄥˇ0쎯ㄉㄨㄛ0쎯ㄍㄜˇ0쎯	-11.0072
ㄕㄤˇ0쎯ㄕˋ3쎯ㄐㄧˇ1쎯	-11.0078
쎂쎀ㄍㄨㄥ2쎯ㄌㄧˇ2쎯	-11.0086
ㄐㄧ18쎯ㄑㄧㄥˊ0쎯	-11.0088
쎁쎉쎉쎅	-11.0089
ㄐㄧㄡˇ0쎯ㄐㄧㄤ0쎯	-11.0089
ㄉㄞ0쎯	-11.0091
ㄏㄨㄛˇ0쎯ㄔㄜ0쎯	-11.0096
ㄅㄟˋ5쎯ㄅㄨˇ1쎯	-11.0096
ㄇㄧㄢˋ0쎯ㄊㄨㄢˊ0쎯	-11.0098
ㄗㄞˋ1쎯ㄓㄜˋ0쎯ㄍㄜˇ0쎯	-11.0099
ㄐㄧ2	-11.01
ㄍㄨˋ1쎯ㄒㄧㄤ0쎯	-11.01
ㄨㄟˋ5쎯ㄔㄤˊ2쎯	-11.0104
ㄙㄨㄛˇ0쎯ㄕㄨˇ1쎯ㄈㄣ0쎯	-11.0105
쎂ㄋㄧㄢˊ0쎯)	-11.0106
쎀쎀쎀ㄉㄨㄛ0쎯	-11.0109
ㄊㄨㄢˊ0쎯ㄨㄟˇ5쎯	-11.0109
쎂쎅쎀ㄎㄜˋ0쎯	-11.011
ㄎㄨㄛˋ0쎯ㄐㄧㄢˋ2쎯	-11.0111
ㄇㄚˊ1쎯ㄧㄡˊ4쎯	-11.0113
ㄑㄧㄤ4쎯	-11.0114
ㄑㄧˇ4쎯ㄩㄢˊ9쎯ㄩˊ0쎯	-11.0117
ㄉㄨㄢˋ3쎯ㄌㄧㄢˋ1쎯	-11.0119
ㄐㄧㄝ3쎯ㄏㄜˊ5쎯	-11.0121
ㄒㄧㄚˊ5쎯ㄡ0쎯ㄋㄟˋ쎯	-11.0121
ㄐㄧㄡˇ5쎯ㄅㄚ5쎯	-11.0123
ㄇㄛˋ0쎯ㄆㄧㄥˊ0쎯ㄇㄧˇ0쎯	-11.0126
ㄩㄥ5쎯ㄓㄥ0쎯	-11.0127
ㄠˋ2쎯ㄌㄧㄣˊ1쎯ㄆㄧˇ0쎯	-11.0131
ㄅㄧˋ1쎯ㄅㄟˋ2쎯	-11.0132
ㄇㄛˊ0쎯ㄒㄩ4쎯	-11.0132
쎅.쎀	-11.0134
ㄏㄟ0쎯ㄎㄜˋ2쎯	-11.0135
ㄐㄩㄣ3쎯	-11.0137
ㄓ7쎯ㄇㄧㄥˊ0쎯ㄉㄨˋ2쎯	-11.0137
ㄎㄜˇ0쎯ㄋㄥˊ쎯ㄕˋ15쎯	-11.0139
ㄅㄧㄠˇ0쎯ㄒㄧㄢˋ1쎯ㄔㄨ0쎯	-11.014
ㄐㄩㄣˋ2쎯	-11.0141
쎅×	-11.0142
ㄨㄟˇ5쎯ㄕㄨ0쎯ㄐㄧˋ1쎯.	-11.0143
ㄧ0쎯ㄈㄨˊ10쎯	-11.0145
ㄅㄠˋ0쎯》、《	-11.0147
ㄔㄨㄥ0쎯ㄊㄨ2쎯	-11.0147
쎀쎀쎀ㄇㄧˇ0쎯	-11.0149
ㄐㄩㄝˊ1쎯	-11.0151
ㄨˊ5쎯	-11.0151
ㄏㄨˋ2쎯ㄔㄢˊ0쎯ㄨㄟˋ2쎯	-11.0152
ㄧㄡˇ1쎯ㄒㄩˇ0쎯ㄉㄨㄛ0쎯	-11.0154
ㄔㄢˊ4쎯	-11.0154
ㄗㄠ0쎯ㄉㄠˋ0쎯	-11.0156
ㄑㄧㄡ1쎯ㄐㄧˋ7쎯	-11.0158
쎉쎀ㄋㄧㄢˊ0쎯ㄉㄞˋ0쎯	-11.0159
ㄔㄨㄤˇ쎯	-11.016
ㄖㄨㄟˋ4쎯	-11.0163
ㄔㄨ0쎯ㄗ2쎯	-11.0165
ㄧㄚˊ	-11.0166
쎀ㄏㄨˋ1쎯,	-11.017
ㄆㄞˊ0쎯ㄍㄨ5쎯	-11.017
ㄆㄥˋ0쎯	-11.0174
ㄨㄟ3쎯ㄅㄛ1쎯	-11.0174
ㄅㄠˊ1쎯ㄇㄛˊ4쎯	-11.0177
ㄘˊ0쎯ㄩˇ6쎯	-11.0179
ㄒㄧㄤ4쎯ㄊㄢˊ4쎯	-11.0181
ㄗㄠˇ0쎯ㄗㄞˋ1쎯	-11.0182
ㄨㄟ3쎯ㄅㄛˊ5쎯	-11.0183
ㄉㄚˋ쎯ㄐㄧㄤˇ1쎯	-11.0185
ㄨㄟˋ10쎯	-11.0185
ㄅㄨˋ0쎯ㄍㄢˇ2쎯	-11.019
ㄧ0쎯ㄅㄢˋ1쎯	-11.019
ㄧㄢˇ2쎯ㄐㄧㄥˋ8쎯	-11.0192
ㄕㄡˇ2쎯ㄈㄚ쎯	-11.0193
ㄅㄧㄥ1쎯ㄈㄟ2쎯	-11.0194
ㄏㄨㄢˋ0쎯ㄒㄧㄤˇ2쎯	-11.0199
ㄈㄨˋ8쎯ㄙㄨㄛˇ0쎯ㄔㄤˊ0쎯	-11.02
ㄐㄧㄚ4쎯ㄑㄧㄥˋ0쎯	-11.0202
ㄜˋ0쎯	-11.0203
ㄍㄨㄥ0쎯ㄧㄝˋ0쎯ㄡ0쎯	-11.0204
ㄐㄧㄥˋ7쎯ㄐㄧㄝˋ3쎯	-11.0206
ㄊㄨㄥ0쎯ㄍㄨㄛ0쎯ㄉㄨㄟˋ1쎯	-11.0207
ㄕ6쎯ㄉㄨˋ2쎯:	-11.0207
ㄅㄨˋ0쎯ㄕㄡˋ1쎯	-11.0209
ㄑㄩㄝ2쎯	-11.0212
ㄊㄤˇ	-11.0213
ㄨˋ0쎯	-11.0213
쎂쎈쎀	-11.0215
ㄌㄨˊ4쎯	-11.0217
ㄒㄧㄣ5쎯ㄒㄧ1쎯ㄌㄢˊ0쎯	-11.0218
,ㄒㄧㄢ1쎯ㄉㄨㄢ0쎯	-11.0222
ㄍㄜˇ1쎯ㄈㄟˊ0쎯ㄕˋ4쎯	-11.0223
ㄧㄢˊ7쎯、ㄨㄟˋ3쎯ㄐㄧㄥ8쎯	-11.0226
ㄋㄠˇ	-11.0226
ㄉㄨˇ1쎯	-11.0227
ㄔㄨˊ	-11.0232
ㄓㄨㄤ3쎯ㄐㄧㄚˇ0쎯	-11.0235
ㄗㄨㄥˇ0쎯ㄏㄨㄟˋ2쎯	-11.0235
ㄓㄜˋ0쎯ㄨㄟˋ2쎯	-11.0236
ㄧㄣˊ2쎯	-11.0237
ㄍㄨˇ2쎯ㄉㄨㄥ0쎯	-11.0239
쎇쎀ㄋㄧㄢˊ0쎯ㄉㄞˋ0쎯	-11.0242
ㄅㄨˋ6쎯	-11.0242
ㄈㄨˊ5쎯ㄧˋ10쎯	-11.0251
ㄕˋ4쎯ㄖㄣˊ0쎯ㄉㄚˋ쎯	-11.0251
ㄇㄛˊ0쎯ㄐㄧ6쎯	-11.0255
,ㄉㄨㄥ0쎯ㄩˇ0쎯	-11.0257
ㄍㄨㄛˇ0쎯ㄕㄨˋ3쎯	-11.0259
ㄗㄨㄥ0쎯ㄓˇ1쎯ㄕˋ15쎯	-11.026
ㄗㄥˋ0쎯ㄍㄜˇ1쎯ㄓㄥ2쎯	-11.0262
:쎀.	-11.0268
쎅ㄋㄧㄢˊ0쎯)	-11.0269
쎄～	-11.0276
ㄐㄧㄢˇ1	-11.0278
ㄕˋ11쎯ㄉㄧㄢˇ1쎯	-11.0278
ㄎㄞ0쎯ㄅㄢˋ0쎯	-11.0281
ㄍㄢˇ0쎯	-11.0282
ㄕˋ3쎯ㄐㄧㄝˋ3쎯ㄅㄟ0쎯	-11.0284
ㄔㄤˊ0쎯ㄓㄥ2쎯	-11.0285
쎈ㄋㄧㄢˊ0쎯)	-11.0288
ㄉㄧˋ3쎯ㄨˇ0쎯ㄐㄧㄝˋ2쎯	-11.0289
ㄕㄡˇ2쎯ㄒㄩㄢˇ0쎯	-11.0293
.ㄌㄧㄥˋ0쎯ㄨㄞˋ쎯,	-11.0295
ㄈㄚˇ0쎯ㄕ2쎯	-11.0299
ㄈㄨˋ2쎯ㄏㄜˊ4쎯	-11.0302
ㄉㄚˋ쎯ㄌㄧㄢˊ0쎯ㄕˋ4쎯	-11.0302
ㄎㄞ0쎯ㄊㄨㄥ0쎯	-11.0304
ㄊㄨ2쎯ㄑㄧˇ4쎯	-11.0305
ㄎㄞˇ	-11.0307
ㄐㄧㄢ6쎯ㄎㄨˇ쎯	-11.0308
ㄕㄜˋ4쎯ㄨㄞˋ쎯	-11.0309
ㄧ0쎯ㄐㄧㄡˇ0쎯ㄐㄧㄡˇ0쎯	-11.031
ㄐㄧㄠˋ2쎯ㄖㄣˊ3쎯ㄐㄧㄠ6쎯	-11.0313
ㄈㄣ6쎯	-11.0314
ㄓˋ3쎯ㄗㄠˋ2쎯ㄕㄤ1쎯	-11.0315
ㄗㄨㄛ0쎯ㄨㄣˊ0쎯	-11.0316
ㄆㄞ쎯ㄇㄞˋ2쎯	-11.0317
ㄒㄧ1쎯ㄧㄚˋ1쎯	-11.0317
쎁쎉쎈쎂	-11.0318
ㄕㄣ0쎯ㄅㄠˋ0쎯	-11.0318
ㄒㄧㄝˇ0쎯ㄗˋ1쎯ㄌㄡˊ1쎯	-11.0319
ㄘㄨㄟˋ4쎯	-11.032
ㄑㄧㄢˊ0쎯ㄉㄨㄢ0쎯	-11.0321
ㄍㄨㄤˇ0쎯ㄒㄧ1쎯ㄓㄨㄤˋ0쎯	-11.0322
ㄌㄨㄥˊ0쎯ㄇㄣˊ0쎯	-11.0322
ㄉㄧ0쎯ㄩˊ0쎯	-11.0323
ㄓㄨㄤˋ1쎯ㄏㄨㄚ0쎯ㄒㄩˋ1쎯	-11.0326
ㄅㄧㄥ2쎯ㄊㄨㄢˊ0쎯	-11.0327
쎇쎆쎈	-11.033
ㄎㄞ0쎯ㄘㄞˇ0쎯	-11.034
ㄓㄣ1쎯ㄐㄧㄡˇ3쎯	-11.0341
ㄕㄨㄤ0쎯ㄏㄜˊ5쎯	-11.0347
ㄕㄡˇ1쎯ㄏㄨˋ2쎯	-11.0348
ㄉㄨㄟˋ1쎯ㄏㄨㄚˋ2쎯	-11.0348
ㄌㄨㄣˊ1쎯ㄌㄧˇ3쎯	-11.0353
ㄌㄨˋ5쎯ㄎㄡˇ쎯	-11.0353
ㄐㄧˊ3쎯ㄍㄠ0쎯	-11.0359
ㄌㄩˋ0쎯ㄈㄚˇ0쎯ㄍㄨㄟ2쎯	-11.036
ㄑㄩ4쎯	-11.036
ㄉㄤˇ1쎯ㄐㄧㄠˋ2쎯	-11.0363
,ㄅㄟˇ쎯ㄌㄧㄣˊ0쎯	-11.0364
▁̇ㄉㄜ1쎯ㄊㄨㄥ0쎯ㄓ7쎯》(	-11.0371
ㄒㄧㄤˋ0쎯ㄑㄧㄢˊ0쎯	-11.0374
쎃ㄋㄧㄢˊ0쎯)	-11.0378
ㄐㄧㄥˋ6쎯ㄉㄧㄢˋ0쎯	-11.0381
ㄎㄨㄤˋ0쎯	-11.0385
ㄩㄢˇ쎯ㄒㄧㄠ6쎯	-11.0387
ㄠˋ2쎯ㄩㄣˋ1쎯	-11.0387
ㄔㄨㄢˇ0쎯	-11.0392
ㄍㄨˇ	-11.0395
ㄓ2쎯ㄒㄩ4쎯	-11.0397
ㄅㄧˋ15쎯	-11.0398
ㄖㄣˊ3쎯ㄓˊ4쎯ㄩˊ0쎯	-11.0398
ㄏㄜˊ5쎯ㄙㄨㄢˋ1쎯	-11.0399
ㄉㄥˇ0쎯ㄉㄞ1쎯	-11.0401
ㄐㄧㄝˋ5쎯ㄓㄨˋ0쎯	-11.0404
쎁쎉ㄕˋ3쎯ㄐㄧˇ1쎯	-11.0404
ㄕˊ0쎯ㄩㄝˋ0쎯	-11.0408
ㄧˊ3쎯ㄖㄣˊ0쎯	-11.0414
ㄉㄨㄢˋ3쎯	-11.0414
쎁쎀ㄩㄝˋ0쎯ㄕㄥ1쎯,	-11.0417
ㄉㄧㄢˋ8쎯ㄉㄧㄥˋ1쎯	-11.0418
ㄍㄨㄥˇ0쎯	-11.0418
ㄏㄨˊ2쎯ㄐㄧㄠ7쎯	-11.0419
ㄖㄨˇ2쎯	-11.0422
ㄔˇ0쎯ㄌㄨㄣˊ4쎯	-11.0423
ㄩˊ1쎯ㄧˇ2쎯	-11.0428
ㄨㄣˊ3쎯	-11.0428
ㄏㄨㄞˊ2쎯ㄋㄚ1쎯	-11.043
ㄓㄢˋ2쎯ㄉㄧㄢˇ1쎯	-11.043
ㄒㄩˇ0쎯ㄎㄜˇ0쎯ㄓㄥˋ0쎯	-11.0431
ㄕㄨㄤ0쎯ㄔㄨㄥˊ2쎯	-11.0431
쎁쎂ㄩㄝˋ0쎯ㄖㄣˊ3쎯	-11.0432
ㄅㄛˊ6쎯ㄏㄞˇ0쎯	-11.0433
ㄎㄢ2쎯ㄊㄢˋ2쎯	-11.0433
ㄨㄛˇ쎯ㄍㄨㄥ2쎯ㄙ0쎯	-11.044
ㄐㄩㄣ2쎯ㄗˇ0쎯	-11.0441
ㄈㄨˊ12쎯ㄉㄧㄥˇ1쎯	-11.0443
ㄍㄥˇ1쎯	-11.0445
ㄏㄢˋ0쎯ㄉㄞˋ0쎯	-11.0445
ㄙˋ1쎯ㄓ8쎯	-11.0445
ㄆㄥˊ7쎯ㄓㄤˋ5쎯	-11.0446
ㄐㄧㄝˇ1쎯ㄒㄧ5쎯	-11.0455
ㄏㄞˊ0쎯ㄋㄥˊ쎯	-11.0456
ㄇㄧㄣˊ0쎯ㄩㄥˋ0쎯	-11.0457
ㄐㄧㄢ7쎯ㄌㄧˇ3쎯	-11.0462
ㄌㄟˊ1쎯ㄉㄚˊ1쎯	-11.0467
ㄕˊ3쎯ㄧㄝˋ0쎯ㄧㄡˇ1쎯	-11.0469
ㄍㄨㄥ2쎯ㄅㄢˋ0쎯	-11.0478
ㄧㄡˇ2쎯	-11.0479
ㄌㄢˊ7쎯	-11.0483
ㄓㄨˊ2쎯	-11.0483
ㄋㄚ1쎯ㄎㄞ0쎯	-11.0484
ㄔㄢˊ0쎯ㄔㄨㄣˊ0쎯	-11.0486
ㄅㄨˋ1쎯ㄌㄨˇ2쎯	-11.0487
ㄕㄢ0쎯ㄍㄨˇ1쎯	-11.0488
ㄚ0쎯ㄌㄚ1쎯	-11.049
ㄩㄝˋ0쎯ㄎㄢ0쎯	-11.0491
ㄑㄧˊ2쎯	-11.0492
ㄒㄩˋ1쎯ㄌㄧㄝˋ0쎯	-11.0493
ㄍㄨㄥ11쎯	-11.0493
ㄙㄨㄛˇ0쎯ㄓㄨˋ7쎯	-11.0494
ㄋㄚ1쎯ㄋㄧㄥˊ0쎯ㄕˋ4쎯	-11.0494
ㄏㄞˊ0쎯ㄧㄠ4쎯	-11.0496
ㄏㄨㄥˊ1쎯ㄐㄧㄠ7쎯	-11.0496
ㄖㄨㄥˊ0쎯	-11.0498
ㄍㄚ3쎯	-11.05
ㄎㄚˇ0쎯ㄌㄚ1쎯	-11.05
ㄆㄟˋ2쎯ㄙㄨㄥˋ2쎯	-11.0501
ㄍㄨˇ0쎯ㄐㄧˋ9쎯	-11.0502
ㄘㄨ쎯ㄓㄨㄤˋ0쎯	-11.0504
ㄉㄧㄠˋ2쎯ㄧㄢˊ6쎯ㄩㄢˊ2쎯	-11.0505
ㄓㄨˇ0쎯ㄌㄧㄠˋ0쎯:	-11.0508
ㄓㄡ1쎯ㄘ0쎯ㄕˇ0쎯	-11.0511
к	-11.0517
ㄒㄧㄣ5쎯ㄙˋ1쎯ㄐㄩㄣ0쎯	-11.0517
ㄍㄣ1쎯ㄗㄨㄥ2쎯	-11.0521
ㄉㄡˋ2쎯ㄨˋ3쎯	-11.0521
ㄐㄩˋ4쎯ㄔㄤˊ1쎯	-11.0522
쎁쎅ㄍㄨㄥ2쎯ㄌㄧˇ2쎯	-11.0522
ㄩㄢ1쎯	-11.0525
ス	-11.0526
ㄨㄟ1쎯ㄏㄞˇ0쎯	-11.0527
ㄋㄨㄥˊ0쎯ㄏㄨˋ1쎯	-11.0528
ㄐㄩㄣ1쎯ㄕㄡ쎯ㄖㄨˋ0쎯	-11.0528
,ㄍㄨˋ1쎯ㄔㄣˋ1쎯	-11.0529
ㄧㄝˇ0쎯ㄋㄥˊ쎯	-11.053
ㄧˋ16쎯	-11.053
쎄ㄇㄨˇ2쎯	-11.0531
ㄔㄡˊ6쎯ㄐㄧㄢˋ2쎯	-11.0536
ㄎㄤ	-11.0537
ㄅㄧˋ8쎯	-11.0537
ㄍㄠ4쎯	-11.0537
ㄉㄢˋ3쎯	-11.0538
ㄑㄩㄝ0쎯ㄒㄧㄢˋ5쎯	-11.054
ㄎㄨㄤˋ2쎯ㄔㄨㄤˊ0쎯	-11.0547
ㄊㄧㄠˊ0쎯ㄌㄧˋ8쎯》	-11.0547
ㄧ5쎯	-11.0548
ㄊㄢˊ5쎯	-11.0548
ㄇㄧˇ0쎯,ㄎㄨㄢ0쎯	-11.0552
ㄒㄧㄣˋ0쎯ㄈㄤˇ1쎯	-11.0553
ㄓㄢ3쎯	-11.0554
ㄧˇ0쎯ㄔㄨㄣˊ3쎯	-11.0555
ㄒㄧㄥ1쎯ㄐㄧˋ3쎯	-11.0557
ㄎㄨㄚˋ1쎯ㄩㄝˋ5쎯	-11.0558
ㄊㄢ1쎯	-11.056
ㄐㄩㄣ0쎯ㄍㄨㄢ2쎯	-11.0561
ㄐㄧ18쎯ㄈㄚ쎯	-11.0561
ㄒㄧ1	-11.0562
ㄏㄨㄟˇ0쎯	-11.0562
ㄕㄠˇ쎯ㄦˊ0쎯	-11.0563
ㄕㄜˋ	-11.0564
ㄑㄩㄢˊ1쎯ㄗˋ0쎯ㄉㄨㄥˋ0쎯	-11.0565
ㄎㄨˋ1쎯	-11.0566
쎆ㄋㄧㄢˊ0쎯)	-11.0567
ル	-11.0568
쎀°C,ㄋㄧㄢˊ0쎯ㄐㄧㄤˋ1쎯	-11.0568
ㄊㄞˋ0쎯ㄎㄨㄥ0쎯	-11.0571
ㄧ4쎯ㄌㄞˋ1쎯	-11.0572
ㄐㄧㄢˋ2쎯ㄓˋ3쎯	-11.0572
ㄈㄥ4쎯ㄎㄨㄤˊ0쎯	-11.0579
ㄩˇ6쎯ㄈㄚˇ0쎯	-11.0582
ㄘㄥˊ1쎯ㄒㄧㄢ1쎯ㄏㄡˋ0쎯	-11.0583
쎁쎁ㄍㄜˇ0쎯	-11.0585
ㄌㄟˊ0쎯ㄐㄧˋ0쎯	-11.0587
ㄇㄛˊ0쎯ㄑㄩㄥˊ0쎯	-11.0589
ㄦˋ0쎯ㄐㄧ13쎯	-11.0589
ㄑㄧㄢ	-11.0594
ㄇㄛˋ1쎯ㄉㄨㄢ0쎯	-11.0595
ㄙㄞ3쎯	-11.0595
ㄍㄞˇ쎯ㄇㄧㄥˊ0쎯	-11.0596
쎀ㄋㄧㄢˊ0쎯)	-11.0599
ㄐㄧㄢˇ6쎯ㄈㄟˊ0쎯	-11.0602
ㄧㄡ0쎯ㄒㄧㄡˋ0쎯ㄐㄧㄤˇ1쎯	-11.0603
ㄍㄨㄥ2쎯ㄈㄣ0쎯	-11.0605
ㄔㄣˊ5쎯ㄌㄧㄝˋ0쎯	-11.0606
ㄐㄧㄝ8쎯	-11.0611
ㄑㄩㄢˋ1쎯	-11.0612
ㄈㄛˊ쎯ㄕㄢ0쎯	-11.0618
ㄕˊ3쎯ㄒㄩㄣˋ0쎯	-11.0624
쎇ㄇㄨˇ2쎯	-11.0625
ㄗㄨㄟˋ0쎯ㄏㄡˋ0쎯ㄧ0쎯	-11.0627
ㄏㄨㄛˇ0쎯ㄓㄨˇ2쎯	-11.0631
ㄏㄞˇ0쎯ㄉㄧˇ1쎯	-11.0632
ㄐㄧ4쎯	-11.0632
ㄍㄜ7쎯ㄐㄩˋ4쎯	-11.064
쎁쎉쎈쎀	-11.064
ㄍㄨㄥ2쎯ㄌㄧˇ2쎯,ㄌㄧˊ3쎯	-11.0641
ㄑㄩㄢˊ1쎯ㄔㄥˊ7쎯	-11.0642
ㄊㄨˇ0쎯ㄦˇ1쎯ㄑㄧˊ1쎯	-11.0643
ㄌㄞˊ0쎯ㄩㄢˊ9쎯:	-11.0646
ㄖㄣˊ0쎯,ㄍㄥ2쎯	-11.0646
쎁쎉쎉쎂	-11.0646
ㄌㄧˋ15쎯ㄗˇ0쎯	-11.0646
ㄕˊ4쎯ㄧㄢˊ7쎯	-11.0653
ㄧㄝˋ0쎯ㄋㄟˋ쎯	-11.0654
ㄐㄩˋ7쎯ㄔˇ0쎯	-11.0655
ㄍㄜˊ0쎯ㄇㄧㄥˋ쎯ㄉㄡˇ0쎯ㄓ	-11.0655
ㄔㄨㄥˊ2쎯ㄗㄨˇ1쎯	-11.0656
ㄅㄟ2쎯ㄏㄡˋ0쎯	-11.0657
ㄈㄨˊ21쎯ㄌㄧㄥˊ12쎯	-11.0657
ㄅㄣ0쎯ㄊㄥˊ1쎯	-11.0657
ㄓㄚˊ2쎯	-11.0658
ㄈㄨˊ12쎯ㄓㄡ1쎯ㄕˋ4쎯	-11.066
ㄉㄢ0쎯ㄇㄞˋ1쎯	-11.0661
ㄗㄠˋ3쎯ㄧㄣ4쎯	-11.0663
ㄙㄚ0쎯ㄕㄤˇ0쎯	-11.0666
ㄑㄩㄢˊ10쎯	-11.0671
ㄅㄠˋ0쎯ㄕㄜˋ1쎯	-11.0672
ㄇㄥ쎯ㄍㄨˇ0쎯ㄗㄨˊ1쎯	-11.0673
ㄖㄨㄥˊ8쎯ㄉㄧㄢˇ1쎯	-11.0675
ㄔㄨ0쎯ㄒㄧˊ1쎯	-11.0676
ㄌㄨㄢˇ쎯ㄓㄨㄤˋ1쎯	-11.0678
ㄓㄢˇ1쎯	-11.0678
ㄑㄧˊ4쎯	-11.0684
ㄒㄧㄤ6쎯	-11.0687
ㄩㄥˇ0쎯ㄌㄜˋ0쎯	-11.0687
ㄔㄠˇ쎯ㄍㄨㄛ3쎯	-11.0692
ㄓㄣ4쎯ㄔㄥˊ2쎯	-11.0693
ㄐㄧㄤˇ1쎯ㄓㄤ1쎯	-11.0694
ㄨˇ3쎯ㄔㄤ0쎯	-11.0699
ㄔㄣˋ1쎯ㄏㄨ1쎯	-11.07
ㄡ0쎯ㄏㄨㄚˊ0쎯	-11.0708
ㄍㄨㄥ5쎯ㄕㄨㄟˇ쎯	-11.0709
ㄠˋ5쎯	-11.0712
ㄇㄡˇ쎯ㄍㄜˇ0쎯	-11.0716
ㄧㄡˇ1쎯ㄏㄣˇ0쎯ㄉㄨㄛ0쎯	-11.0719
ㄈㄟ2쎯ㄧㄥˊ5쎯ㄌㄧˋ6쎯	-11.0721
ㄓㄨ4쎯ㄧㄡˊ4쎯	-11.0723
ㄇㄧㄥˊ1쎯ㄌㄧㄤˋ0쎯	-11.0724
ㄍㄢˇ3쎯ㄉㄨㄥˋ0쎯	-11.0726
ㄙˋ3쎯	-11.0732
ㄓㄨˇ2쎯ㄕㄡˊ쎯	-11.0732
ㄨㄟ3쎯ㄖㄨㄢˇ0쎯	-11.0734
ㄨˋ2쎯ㄕˊ3쎯	-11.0736
ㄉㄨㄥˋ	-11.0736
ㄧㄤˊ0쎯ㄕㄥ2쎯ㄑㄧˋ7쎯	-11.0737
ㄓㄢˇ2쎯ㄔㄨ0쎯	-11.0742
ㄇㄛˊ6쎯ㄍㄨ6쎯	-11.0743
ㄋㄢˊ3쎯	-11.0747
.”쎂.	-11.0748
ㄏㄞˇ0쎯ㄅㄧㄣ3쎯	-11.0749
ㄩㄢˋ2쎯ㄩㄢˋ2쎯ㄕˋ0쎯	-11.0749
(쎁쎈쎈	-11.0749
〗	-11.0751
ㄐㄧㄚ5쎯	-11.0752
ㄍㄤˇ쎯ㄠˋ3쎯	-11.0753
ㄐㄧㄢˇ5쎯ㄙㄨㄛˇ1쎯	-11.0755
ㄙ5쎯	-11.0759
ㄉㄜˊ1쎯ㄩˋ3쎯	-11.0761
ㄨㄚˊ쎯	-11.0769
〖	-11.0769
ㄓㄨ3쎯ㄏㄡˊ0쎯	-11.0773
쎁쎉쎂쎅ㄋㄧㄢˊ0쎯	-11.0774
ㄐㄧㄠˇ7쎯”ㄉㄡˇ0쎯ㄓㄥ1쎯	-11.0775
ㄅㄤˇ0쎯	-11.0776
ㄕˊ0쎯ㄅㄚ0쎯ㄋㄧㄢˊ0쎯	-11.0779
ㄈㄨˋ11쎯ㄏㄢˊ1쎯	-11.0785
ㄐㄧㄝ0쎯ㄧㄠ2쎯	-11.0786
ㄅㄤˋ2쎯	-11.0787
ㄖㄨㄥˊ4쎯ㄐㄧ11쎯ㄌㄩˋ2쎯	-11.0792
ㄕㄨㄣˋ1쎯ㄐㄧㄢ4쎯	-11.0796
ㄓˊ0쎯ㄧㄝˋ0쎯	-11.0797
ㄘㄤ0쎯ㄔㄨˇ2쎯	-11.0797
ㄕˊ0쎯ㄌㄧㄡˋ0쎯ㄋㄧㄢˊ0쎯	-11.0798
ㄩㄢˊ1쎯ㄧˋ2쎯	-11.0801
ㄉㄡˇ2쎯	-11.0802
ㄊㄡˋ쎯ㄍㄨㄛ0쎯	-11.0804
ㄕㄨ9쎯ㄖㄨˋ0쎯ㄈㄚˇ0쎯	-11.0805
(ㄍㄨㄥ2쎯ㄩㄢˊ0쎯쎁	-11.0806
쎁쎃쎉	-11.0809
ㄒㄩㄢˊ2쎯ㄌㄩˋ0쎯	-11.0823
ㄗˋ1쎯ㄈㄨˊ8쎯	-11.0829
ㄓㄥ2쎯ㄕㄡ쎯	-11.0829
ㄓㄨㄤ1쎯ㄓㄣˋ3쎯	-11.083
ㄙˋ1쎯ㄉㄥˇ0쎯ㄓㄢˋ2쎯	-11.0832
ㄏㄨㄛˋ2쎯ㄉㄜˊ0쎯ㄓㄜˇ0쎯	-11.0833
в	-11.0836
ㄏㄨㄢˋ	-11.0837
쎁쎈쎀쎀	-11.0837
ㄒㄧㄢˋ4쎯ㄈㄚˇ0쎯	-11.0842
ㄏㄡˋ0쎯ㄗㄞˋ0쎯	-11.0843
ㄧㄢˊ6쎯ㄈㄚ쎯、ㄕㄥ1쎯	-11.0843
ㄐㄧㄠ0쎯ㄨㄤˇ2쎯	-11.0847
ㄆㄧㄣˇ쎯ㄨㄟˋ2쎯	-11.0851
ㄔㄚˋ0쎯	-11.0852
ㄗˋ0쎯ㄓˋ5쎯	-11.0855
ㄐㄧㄥ2쎯ㄐㄧˇ3쎯ㄐㄧˋ2쎯	-11.0855
쎀°	-11.0856
ㄅㄧㄢˋ0쎯ㄧㄚ1쎯ㄑㄧˋ7쎯	-11.0861
ㄐㄧㄠ10쎯	-11.0864
ㄎㄨㄛˋ0쎯ㄓㄤ0쎯	-11.0865
ㄧ2쎯ㄈㄨˊ5쎯	-11.0865
ㄎㄨㄥˇ1쎯ㄌㄨㄥˊ0쎯	-11.0868
ㄈㄣ0쎯ㄅㄧㄝˊ0쎯ㄕˋ15쎯	-11.0869
ㄌㄨㄥˊ0쎯ㄑㄩㄢˊ2쎯	-11.0871
-쎂-	-11.0871
ㄓˋ13쎯ㄩˊ0쎯	-11.0874
쎀쎉-	-11.0875
ㄌㄨˋ3쎯ㄏㄨㄚˋ0쎯ㄌㄩˋ2쎯	-11.0876
ㄧㄢˇ0쎯ㄕㄥ1쎯	-11.0878
ㄏㄨㄟˊ0쎯ㄐㄧㄚ3쎯	-11.088
ㄧˇ	-11.0881
ㄐㄧㄤˇ0쎯ㄕㄡˋ2쎯	-11.0882
か	-11.0885
ㄧㄡˊ4쎯ㄊㄧㄢˊ0쎯	-11.0888
ㄆㄛ2쎯ㄧㄡˇ1쎯	-11.089
ㄌㄧˇ2쎯,ㄍㄥ2쎯	-11.0894
ㄧㄥ0쎯ㄉㄤ0쎯	-11.0894
ㄅㄧㄥ2쎯ㄑㄧˋ7쎯	-11.0894
ㄋㄞˇ1쎯ㄧㄡˊ4쎯	-11.0894
ㄅㄨˋ0쎯ㄧˊ3쎯	-11.0895
ㄇㄣˊ0쎯ㄓㄣˇ0쎯	-11.0896
쎆%	-11.0897
ㄋㄚ1쎯ㄍㄨㄚ0쎯	-11.0902
ㄐㄧㄠˇ6쎯	-11.0902
ㄨㄟˊ1	-11.0903
쎅ㄏㄠˊ1쎯ㄇㄧˇ0쎯	-11.0903
ㄇㄚ0쎯	-11.091
ㄍㄨ5쎯ㄎㄜ2쎯	-11.0912
ㄉㄨㄢˇ쎯ㄐㄧ13쎯	-11.0915
ㄓㄞˋ0쎯ㄑㄩㄢˋ1쎯	-11.0916
ㄩㄢˊ0쎯ㄋㄧㄢˊ0쎯(	-11.0918
ㄍㄜˇ1쎯ㄗㄨㄛ0쎯ㄕㄜˋ1쎯	-11.092
ㄅㄢ4쎯ㄉㄧㄢˇ1쎯	-11.092
ㄒㄧㄝˊ7쎯ㄕㄡˇ0쎯	-11.0921
ㄍㄨㄥ2쎯ㄕˋ5쎯	-11.0925
ㄋㄧˊ0쎯ㄒㄧ1쎯ㄧㄚˋ1쎯	-11.0928
ㄏㄨㄢˋ1쎯	-11.0928
ㄅㄧˇ2쎯ㄉㄜˊ0쎯	-11.0929
ㄆㄧㄥˊ0쎯ㄊㄢˇ0쎯	-11.0931
ㄩㄣˊ	-11.0937
ㄔㄨㄥ1쎯ㄗㄨˊ0쎯	-11.0938
ㄑㄩ0쎯ㄕㄜˊ1쎯	-11.0945
ㄨㄟˊ6쎯ㄦˇ0쎯	-11.0946
ㄓㄨˇ0쎯ㄆㄧㄣˊ1쎯	-11.0946
ㄕㄥ1쎯ㄈㄣˇ쎯	-11.0947
ㄉㄥ1쎯ㄌㄧㄡˋ1쎯	-11.0949
ㄘㄨㄛ	-11.0955
ㄈㄥ7쎯ㄇㄧˋ2쎯	-11.0956
ㄈㄨˋ7쎯ㄧㄣˋ0쎯	-11.0959
ㄍㄨㄛ0쎯ㄉㄨˋ3쎯	-11.0959
ㄍㄨㄞˋ0쎯ㄨˋ3쎯	-11.0962
ㄆㄧㄢ2쎯ㄌㄨㄣˊ2쎯ㄨㄣˊ0쎯	-11.0962
ㄕㄡˊ쎯ㄌㄧㄢˋ0쎯	-11.0964
ㄨㄟˊ0쎯ㄓㄨˇ0쎯ㄊㄧ0쎯	-11.0964
ㄘㄞ0쎯	-11.0968
ㄅㄟˋ0쎯ㄎㄜˊ쎯	-11.0968
ㄉㄠˋ0쎯ㄉㄧˇ1쎯	-11.0971
ㄉㄚˊ0쎯ㄆㄛˋ0쎯	-11.0974
ㄍㄜˊ2쎯ㄐㄩˊ0쎯	-11.0977
ㄅㄧㄥˋ0쎯ㄕˋ19쎯	-11.0978
ㄖㄣˋ1쎯ㄓ7쎯	-11.0981
ㄇㄛ쎯	-11.0995
ㄅㄛ7쎯	-11.0997
ㄖㄨㄥˊ6쎯ㄩˊ0쎯ㄕㄨㄟˇ쎯	-11.0998
ㄐㄧㄥ3쎯ㄓㄡ1쎯	-11.0998
ㄧㄡ2쎯ㄧㄚˇ쎯	-11.1
ㄑㄧˇ4쎯ㄈㄨˊ1쎯	-11.1003
ㄑㄧˋ0쎯ㄈㄣ4쎯	-11.1005
ㄍㄨˋ3쎯	-11.1005
쎁쎀/쎁쎀쎀	-11.1007
ㄇㄛˊ0쎯ㄌㄨㄣˊ2쎯ㄕˋ15쎯	-11.1007
ㄅㄨˋ0쎯ㄒㄩ4쎯ㄧㄠ4쎯	-11.1012
ㄈㄨˇ2쎯	-11.1013
ㄇㄧㄢˋ0쎯ㄐㄧ11쎯쎁쎂	-11.1018
ㄊㄨㄥˊ0쎯ㄧˋ18쎯	-11.1018
ㄖㄨˇ1쎯ㄒㄧㄢˋ9쎯	-11.102
ㄉㄨㄟˋ1쎯ㄎㄤˋ1쎯	-11.102
ㄇㄧˋ1쎯ㄅㄟˋ5쎯	-11.1021
ㄇㄚˊ1쎯ㄗㄨㄟˋ2쎯	-11.1022
ㄧㄡˊ2쎯ㄉㄧㄢˋ0쎯	-11.1024
ㄇㄧㄣˊ0쎯ㄓㄨㄥˋ1쎯	-11.1028
쎁쎇쎅	-11.1032
ㄊㄞˋ0쎯ㄗㄨˇ2쎯	-11.1034
ㄒㄧㄥ3쎯	-11.1036
ㄗㄨㄛˋ1쎯ㄌㄚˋ0쎯ㄩˊ0쎯	-11.1037
ㄓㄥˇ1쎯ㄑㄧˊ0쎯	-11.1042
ㄔㄨˇ	-11.1046
ㄕˊ1쎯ㄓㄨㄤ3쎯	-11.1047
ㄌㄡˊ1쎯ㄆㄢˊ1쎯	-11.1047
ㄏㄨㄚˋ2쎯ㄐㄩˋ4쎯	-11.1047
ㄈㄥ1쎯ㄙㄨˊ쎯	-11.1049
ㄅㄧㄣ1쎯	-11.1051
ㄧㄠ4쎯ㄉㄧㄢˇ1쎯	-11.1054
ㄊㄨㄥˋ0쎯ㄎㄨˇ쎯	-11.1055
ㄕㄥ2쎯ㄌㄜˋ0쎯	-11.106
ㄓㄣ	-11.1062
쎈.쎅	-11.1064
ㄕㄣˇ1쎯ㄇㄟˇ1쎯	-11.1071
ㄎㄨˋ2쎯ㄖㄨㄟˋ4쎯	-11.1071
ㄇㄧㄥˊ0쎯ㄐㄧㄠˋ0쎯	-11.1073
ㄗˋ0쎯ㄏㄤˊ0쎯ㄔㄜ0쎯	-11.1074
ㄓㄜˋ0쎯ㄗㄨㄛˋ1쎯	-11.1075
쎁쎉쎉쎃	-11.1075
ㄆㄧ1쎯	-11.1076
ㄈㄨˊ5쎯ㄩㄥˋ0쎯	-11.1079
ㄗˋ4쎯	-11.1082
ㄐㄩㄣ1쎯ㄑㄧˋ0쎯ㄨㄣ0쎯쎂	-11.1083
ㄎㄚˇ0쎯ㄦˇ0쎯	-11.1084
ㄧˊ8쎯ㄐㄧˋ9쎯	-11.1085
쎀ㄓㄡ2쎯ㄋㄧㄢˊ0쎯	-11.1088
ㄎㄞ0쎯ㄈㄚ쎯ㄕㄤ1쎯	-11.1092
ㄎㄜ2쎯ㄈㄨˋ8쎯ㄎㄜ2쎯	-11.1092
ㄍㄨㄟ2쎯ㄍㄜˊ2쎯:	-11.1092
쎉ㄍㄨㄥ2쎯ㄌㄧˇ2쎯	-11.1096
ㄆㄨˊ1쎯ㄊㄠˊ3쎯ㄧㄚˊ0쎯	-11.1097
ㄌㄧㄝˋ4쎯ㄆㄧㄢ0쎯	-11.1098
ㄒㄧㄥˊ1쎯ㄇㄨˋ1쎯	-11.1099
ㄇㄨˇ2쎯.ㄑㄩㄢˊ1쎯	-11.11
ㄨㄟˋ0쎯ㄕㄥ1쎯ㄐㄩˊ0쎯	-11.11
ㄙㄨㄟˋ0쎯ㄩㄝˋ0쎯	-11.1101
ㄏㄨㄟˋ10쎯	-11.1102
ㄐㄧㄚ1쎯	-11.1103
ㄍㄜˊ4쎯	-11.1103
ㄅㄠ1쎯	-11.1107
ㄏㄢˋ6쎯ㄌㄧㄣˊ1쎯	-11.1107
쎁쎉쎉쎀	-11.1112
ㄎㄢ0쎯ㄨˋ3쎯ㄕㄤˇ0쎯	-11.1113
ㄧㄤˊ1쎯ㄖㄡˋ쎯	-11.1116
ㄅㄟˋ5쎯ㄩˋ15쎯ㄨㄟˊ0쎯“	-11.1116
ㄉㄨˇ2쎯	-11.1121
ㄍㄢ1쎯ㄓㄜˋ2쎯	-11.1122
ㄊㄞ0쎯ㄕˋ5쎯ㄐㄧ6쎯	-11.1123
ㄓˊ1쎯ㄉㄚˊ1쎯	-11.1123
ㄐㄧㄝˇ1쎯ㄉㄡˋ2쎯	-11.1123
ㄧㄠˊ6쎯ㄎㄨㄥˋ0쎯	-11.1125
ㄉㄧˇ1쎯ㄩㄣˋ4쎯	-11.1128
ㄊㄧㄠˊ0쎯ㄨㄣˊ1쎯	-11.1129
ㄨㄢˇ2쎯ㄋㄧㄢˊ0쎯	-11.1129
ㄘˇ0쎯ㄕㄨ0쎯	-11.1132
ㄑㄧㄥ5쎯ㄍㄨㄤ0쎯ㄒㄩˋ5쎯	-11.1133
ㄏㄨㄟˋ5쎯ㄓˋ3쎯	-11.1134
ㄓㄨˇ0쎯ㄌㄧㄠˋ0쎯	-11.1137
ㄐㄧ9쎯ㄊㄜˋ0쎯	-11.1142
ㄌㄢˊ	-11.1143
ㄧˇ3쎯.”	-11.1149
ㄓㄨㄣˇ0쎯ㄗㄜˊ0쎯	-11.1149
ㄏㄨㄟˋ10쎯ㄧㄤˊ8쎯	-11.1152
ㄕㄚ0쎯ㄙˇ쎯	-11.1152
ㄌㄜˋ0쎯ㄑㄩˋ1쎯	-11.1154
ㄋㄞˋ1쎯ㄇㄛˊ5쎯	-11.1167
ㄌㄧㄢˊ4쎯ㄧˋ16쎯	-11.1169
ㄔㄨ0쎯ㄈㄚ쎯,	-11.1174
쎁쎉쎈쎁	-11.1176
ㄓㄨㄥˇ1쎯	-11.1178
ㄐㄧㄢˋ18쎯	-11.1181
ㄅㄨˋ0쎯ㄓ7쎯ㄉㄠˋ3쎯	-11.1182
ㄅㄢ1쎯ㄒㄩㄝˊ1쎯ㄒㄧˊ0쎯	-11.1184
し	-11.1189
ㄩㄣˋ	-11.119
ㄅㄧˋ12쎯	-11.1197
ㄉㄡ0쎯ㄧㄠ4쎯	-11.12
ㄋㄚ1쎯ㄋㄧㄥˊ0쎯	-11.1201
ㄉㄚˋ쎯ㄍㄤ5쎯	-11.1203
ㄌㄠˊ0쎯ㄨˋ2쎯	-11.1205
ㄒㄧㄚ0쎯ㄖㄣˊ2쎯	-11.121
ㄐㄧㄢ7쎯ㄩˋ4쎯	-11.121
ㄊㄧㄢˊ0쎯ㄐㄧㄥˋ0쎯	-11.1211
쎄.쎁	-11.1216
쎂.쎇	-11.1217
ㄡˇ0쎯	-11.122
ㄨˇ3쎯ㄒㄧㄚˊ1쎯	-11.1221
ㄒㄧㄠ2쎯ㄉㄨˊ0쎯	-11.1222
ㄗㄞˋ1쎯ㄐㄧㄠˋ2쎯ㄕㄥ1쎯	-11.1225
ㄅㄟˋ11쎯	-11.1226
ㄞˋ1쎯ㄦˇ0쎯ㄌㄢˊ0쎯	-11.1227
ㄍㄨˇ1	-11.1228
ㄋㄨㄥˊ0쎯ㄧㄝˋ0쎯ㄅㄨˋ4쎯	-11.1228
ㄓㄣ2쎯ㄊㄢˋ2쎯	-11.1228
ㄅㄨˋ2쎯ㄅㄧㄥ2쎯	-11.123
ㄗㄠ0쎯ㄩˋ9쎯	-11.1234
ㄌㄟˊ	-11.1234
ㄆㄧㄥˊ0쎯ㄈㄢˊ0쎯	-11.1235
ㄓㄨㄥ0쎯ㄒㄧ6쎯ㄕㄥ3쎯.	-11.1237
ㄒㄧㄚˊ1	-11.1238
ㄅㄢˇ3쎯	-11.1243
쎁쎉쎉쎄	-11.1245
ㄍㄢ9쎯	-11.1248
ㄐㄧㄝˇ1쎯ㄈㄤˋ쎯ㄏㄡˋ0쎯	-11.125
ㄇㄧㄣˊ0쎯ㄕˋ8쎯	-11.125
ㄏㄨㄚ0쎯ㄍㄨㄢ3쎯	-11.125
ㄊㄨㄥˊ0쎯ㄓˋ5쎯	-11.1251
ㄅㄧㄥ1쎯ㄅㄨˋ0쎯ㄕˋ15쎯	-11.1254
ㄆㄧㄥˊ1쎯ㄉㄧㄥˋ1쎯	-11.1254
ㄉㄧˋ0쎯ㄉㄧˋ0쎯	-11.1254
ㄨㄤˇ0쎯ㄑㄧㄡˊ2쎯	-11.1268
ㄔㄤˊ0쎯ㄈㄤ0쎯ㄒㄧㄥˊ1쎯	-11.1269
ㄖㄜˋ쎯ㄌㄧㄤˊ3쎯	-11.127
ㄐㄩㄢˋ1쎯	-11.1274
ㄒㄩㄥˊ0쎯ㄖㄨㄟˇ쎯	-11.1275
ㄊㄠˊ4쎯ㄅㄠˇ1쎯	-11.1276
ㄓㄠ0쎯ㄕㄡ쎯	-11.128
ㄑㄧˇ4쎯ㄩㄢˊ9쎯	-11.1284
ㄌㄧˋ14쎯	-11.1286
ㄓˋ4쎯ㄅㄠˇ2쎯	-11.1288
ㄓㄢˋ1쎯ㄕㄨˋ0쎯	-11.129
ㄑㄧㄢˊ0쎯ㄐㄧㄥˇ1쎯	-11.1301
ㄕㄢ2쎯	-11.1302
ㄗㄨㄛ0쎯ㄑㄩ0쎯ㄐㄧㄚ3쎯	-11.1304
ㄋㄚ1쎯ㄈㄟ2쎯	-11.1305
ㄑㄧㄢ0쎯ㄩˊ2쎯	-11.1308
ㄐㄧㄠˋ4쎯ㄉㄧ0쎯	-11.1312
ㄉㄧˋ3쎯ㄕˊ0쎯ㄦˋ0쎯	-11.1315
ㄧㄡˊ10쎯	-11.1315
ㄓㄨㄥˋ1쎯ㄕㄥ1쎯	-11.1317
ㄇㄧㄥˊ0쎯ㄌㄧㄝˋ0쎯	-11.1319
ㄈㄨˊ3쎯ㄖㄨㄥˊ5쎯	-11.1321
ㄒㄧㄥ1쎯ㄐㄧ13쎯	-11.1322
쎁쎄쎀쎀	-11.1324
ㄖㄢˊ1쎯ㄑㄧˋ0쎯	-11.1325
ㄐㄧㄠˋ4쎯ㄕㄠˇ쎯	-11.1326
ㄨㄟˊ6쎯ㄐㄧ9쎯	-11.1328
ㄉㄨㄛˊ0쎯ㄉㄜˊ0쎯	-11.1328
ㄧㄥ1쎯ㄨㄣˊ0쎯ㄇㄧㄥˊ0쎯:	-11.1334
ㄉㄧㄠˋ2쎯ㄌㄧˇ3쎯	-11.1336
ㄒㄧˊ0쎯ㄒㄧㄥˋ2쎯	-11.1336
ㄎㄨㄣ1쎯ㄕㄢ0쎯	-11.1337
イ	-11.1337
ㄊㄧㄢ0쎯ㄉㄨˊ1쎯ㄏㄡˋ1쎯	-11.1337
ㄒㄧㄢˋ0쎯ㄐㄧㄥˋ7쎯	-11.1337
ㄓㄨㄥ4쎯	-11.1339
쎁/쎄	-11.1339
ㄗㄨㄢ0쎯ㄉㄢˋ0쎯	-11.1339
ㄊㄚˋ	-11.134
ㄕˇ0쎯ㄌㄧㄠˋ0쎯	-11.1341
ㄓㄚˋ1쎯	-11.1342
ㄅㄨˋ0쎯ㄅㄢˋ0쎯ㄌㄧˇ3쎯	-11.1343
ㄆㄟˋ2쎯ㄧㄣ4쎯	-11.1345
ㄧㄠ2쎯ㄏㄢˋ6쎯·	-11.1346
ㄐㄧㄥ8쎯ㄊㄨㄥ0쎯	-11.1347
쎀쎀쎀ㄩˊ2쎯	-11.1351
ㄐㄧㄣˇ2쎯ㄓㄤ0쎯	-11.1352
ㄊㄞˋ0쎯ㄕㄡˇ1쎯	-11.1352
ㄆㄤˊ0쎯ㄉㄚˋ쎯	-11.1353
ㄐㄧㄣˋ3쎯ㄕㄥ0쎯	-11.1354
ㄐㄧㄚˋ2쎯ㄍㄡˋ0쎯	-11.1355
ㄒㄩㄢˋ0쎯	-11.136
ㄑㄧㄥ5쎯ㄔㄨˊ0쎯	-11.1362
ㄖㄨˋ0쎯ㄑㄧㄣ1쎯	-11.1363
ㄒㄧㄝˋ1	-11.137
ㄑㄧㄠ4쎯	-11.1372
ㄅㄧㄢˇ1쎯ㄆㄧㄥˊ0쎯	-11.1373
ㄐㄧㄤ1쎯ㄌㄧㄥˇ1쎯	-11.1374
ㄐㄧˋ2쎯ㄕ2쎯	-11.1381
ㄅㄢˋ1쎯ㄍㄜˇ0쎯	-11.1382
ㄒㄩㄢˋ4쎯	-11.1384
ㄢ0쎯ㄓˋ13쎯	-11.1385
ㄏㄞˊ1쎯ㄗˇ0쎯ㄇㄣˊ1쎯	-11.1386
ㄕㄨˇ5쎯ㄐㄩ4쎯ㄒㄧㄢˋ3쎯	-11.1389
ㄧㄝˋ0쎯ㄖㄣˊ0쎯ㄩㄢˊ2쎯	-11.1391
β	-11.1396
ㄏㄨㄚˋ0쎯ㄓㄨㄤ0쎯	-11.1397
,ㄐㄩˋ5쎯ㄌㄧˊ3쎯ㄓㄣˋ3쎯	-11.1399
ㄊㄧ0쎯ㄩˋ3쎯ㄔㄤˊ1쎯	-11.1401
ㄓㄨˋ7쎯ㄧㄡˇ1쎯《	-11.1405
ㄓㄨ2쎯ㄍㄠ0쎯	-11.1405
ㄏㄨˊ	-11.1407
ㄧˋ11쎯ㄇㄧㄥˊ0쎯	-11.1408
ㄅㄠˋ8쎯ㄒㄧㄤ2쎯	-11.1413
ㄈㄨˊ7쎯ㄉㄧㄠ2쎯	-11.1413
쎃.쎈	-11.1415
ㄐㄧ13쎯ㄉㄞ1쎯	-11.142
ㄘㄤ0쎯ㄎㄨˋ0쎯	-11.1422
ㄔㄥˊ4쎯ㄅㄠˇ3쎯	-11.1426
ㄧㄡˋ0쎯ㄔㄣˋ1쎯“	-11.143
쎃쎀쎀ㄇㄧˇ0쎯	-11.1431
ㄐㄧˇ4쎯ㄓㄨㄟ1쎯	-11.1431
ㄓˋ3쎯ㄐㄧˋ8쎯	-11.1431
ㄍㄨㄢ5쎯	-11.1432
ㄈㄣˊ1쎯	-11.1434
ㄉㄧㄝˊ	-11.1437
ㄏㄟ0쎯ㄏㄜˋ3쎯ㄙㄜˋ0쎯	-11.1438
ㄌㄩˇ3쎯ㄍㄜˇ1쎯ㄐㄧㄣ3쎯	-11.1438
ㄐㄧㄝˇ0쎯ㄐㄧㄝˇ0쎯	-11.1439
ㄍㄤ6쎯ㄅㄢˇ0쎯	-11.144
ㄌㄧㄢˊ1쎯	-11.1447
ㄐㄧˇ3쎯ㄋㄧㄥˊ0쎯	-11.1448
ㄑㄧㄣˊ0쎯ㄘㄞˋ0쎯	-11.1449
ㄓㄨㄢˇ쎯ㄒㄧㄤˋ0쎯	-11.1449
ㄐㄧㄤ	-11.1452
ㄇㄟˋ2쎯	-11.1457
ㄩㄥ3쎯	-11.1458
ㄉㄨㄛˇ2쎯	-11.1461
ㄗˋ0쎯ㄔㄥˊ0쎯ㄌㄧˋ3쎯	-11.1464
ㄓˋ1	-11.1465
ㄦˋ0쎯ㄕˊ0쎯ㄙˋ1쎯	-11.1468
ㄅㄠˊ1쎯ㄆㄧㄢ0쎯	-11.1469
ㄗㄠˋ2쎯ㄧˋ30쎯	-11.1475
ㄐㄧㄚˊ2쎯	-11.1476
ㄩㄥˇ0쎯ㄐㄧㄡˇ1쎯	-11.1477
ㄓㄨ5쎯	-11.1483
ㄑㄧㄢˋ0쎯	-11.1485
ㄙㄢ0쎯ㄒㄧㄚˊ2쎯	-11.1485
ㄌㄨˋ0쎯ㄓˋ3쎯	-11.1487
ㄇㄨˋ1쎯ㄌㄨˋ0쎯ㄒㄧㄚˋ0쎯	-11.1487
쎄.쎂	-11.1487
ㄓㄨˇ0쎯ㄓˋ5쎯ㄧ3쎯ㄕ2쎯	-11.1489
─	-11.1755
4	-11.1828
磺	-11.1919
◆	-11.2328
ん	-11.2455
ω	-11.2636
л	-11.2755
な	-11.3149
た	-11.3399
ト	-11.3479
т	-11.3552
リ	-11.3594
き	-11.3794
ラ	-11.3959
◇	-11.3989
@	-11.3993
¥	-11.4084
g	-11.415
と	-11.4151
ク	-11.4284
・	-11.4309
ア	-11.4402
5	-11.4429
ま	-11.4498
φ	-11.5243
ㄟ	-11.5246
み	-11.5264
}	-11.5324
り	-11.5469
{	-11.5531
ㄛ	-11.591
こ	-11.6096
•	-11.6177
ッ	-11.6316
羣	-11.6355
さ	-11.6413
る	-11.6436
く	-11.6535
м	-11.664
氽	-11.6975
ド	-11.7426
$	-11.7444
ら	-11.757
シ	-11.7695
д	-11.7721
□	-11.7789
あ	-11.7884
̇	-11.7935
に	-11.816
レ	-11.8185
は	-11.8212
お	-11.8378
σ	-11.8508
γ	-11.8636
タ	-11.868
ロ	-11.8705
ち	-11.8768
呎	-11.8804
у	-11.8895
ا	-11.9001
フ	-11.9212
г	-11.9229
マ	-11.9243
☆	-11.9275
й	-11.9281
δ	-11.9353
ジ	-11.9385
が	-11.9463
〇	-11.9593
`	-11.9984
6	-12.0216
カ	-12.0309
て	-12.0347
も	-12.0395
б	-12.045
п	-12.0472
v	-12.0556
つ	-12.0585
c	-12.0852
じ	-12.1075
ィ	-12.1125
テ	-12.1131
や	-12.1335
す	-12.1815
∼	-12.2173
コ	-12.2201
я	-12.229
甙	-12.2292
ч	-12.2435
エ	-12.2587
ل	-12.2609
だ	-12.2666
キ	-12.2785
オ	-12.2875
■	-12.2905
λ	-12.3149
ウ	-12.3164
バ	-12.3304
デ	-12.3422
え	-12.3484
け	-12.3493
ひ	-12.363
△	-12.3646
を	-12.3653
ミ	-12.3654
で	-12.3661
サ	-12.3663
π	-12.3704
わ	-12.3818
́	-12.3893
れ	-12.3933
ナ	-12.3967
ρ	-12.401
ь	-12.4016
グ	-12.4119
ニ	-12.4136
ょ	-12.4161
ム	-12.417
ガ	-12.4187
≈	-12.4222
モ	-12.423
ゆ	-12.4377
ブ	-12.4509
ャ	-12.4535
ε	-12.4571
ろ	-12.4623
よ	-12.4651
プ	-12.4696
っ	-12.4729
吋	-12.4741
0	-12.4949
鲶	-12.5053
ュ	-12.5166
ο	-12.5347
チ	-12.5356
メ	-12.5482
‧	-12.5639
巖	-12.6239
‰	-12.6335
ダ	-12.6441
⊙	-12.6505
l	-12.6722
х	-12.6784
T	-12.6801
ズ	-12.6812
M	-12.689
ي	-12.6913
頫	-12.6957
ビ	-12.7083
ェ	-12.7117
垅	-12.7128
め	-12.7163
م	-12.7326
録	-12.7337
箇	-12.7455
x	-12.7682
闇	-12.7755
ы	-12.7816
ф	-12.7817
o	-12.7829
з	-12.7941
τ	-12.7954
疎	-12.8065
せ	-12.8066
ر	-12.8079
n	-12.8193
θ	-12.8335
峯	-12.857
ν	-12.861
a	-12.8717
そ	-12.8769
η	-12.8825
ι	-12.8907
稜	-12.8921
ハ	-12.899
ョ	-12.9031
ず	-12.9031
咲	-12.9045
7	-12.9085
寳	-12.9086
ς	-12.9087
牀	-12.9128
彊	-12.9142
パ	-12.9156
ノ	-12.9185
囧	-12.9399
ば	-12.9428
و	-12.9442
ن	-12.9457
ど	-12.9543
ネ	-12.9617
堀	-12.9662
鬭	-13.0177
ゅ	-13.0429
セ	-13.0574
ㄦ	-13.0626
矽	-13.0655
※	-13.0803
ァ	-13.0803
κ	-13.087
氵	-13.1021
ワ	-13.1072
ほ	-13.1089
ب	-13.1106
浄	-13.1192
丶	-13.1471
蹠	-13.1471
戦	-13.1577
®	-13.1578
ふ	-13.1687
ц	-13.1739
이	-13.1887
s	-13.1906
ツ	-13.1924
د	-13.198
濬	-13.2035
ш	-13.2168
ゴ	-13.2341
沢	-13.2438
濛	-13.2496
ゃ	-13.2614
ぎ	-13.2754
ケ	-13.2754
8	-13.2794
む	-13.2938
ね	-13.2958
ヴ	-13.3021
k	-13.3103
麼	-13.3104
ة	-13.3166
h	-13.3272
ψ	-13.3291
ж	-13.3293
碁	-13.3293
đ	-13.3314
谘	-13.3378
ボ	-13.3378
↓	-13.3552
徧	-13.3594
÷	-13.3639
ソ	-13.3705
〞	-13.375
飚	-13.3839
艹	-13.3883
ザ	-13.4065
ご	-13.4088
顗	-13.425
ぶ	-13.4251
囯	-13.4274
ぐ	-13.4321
u	-13.4369
摺	-13.4369
ヒ	-13.4464
纔	-13.4488
黒	-13.4536
竜	-13.456
ヤ	-13.4584
県	-13.4584
←	-13.4633
b	-13.4657
า	-13.4702
d	-13.4903
t	-13.5029
駅	-13.5055
ギ	-13.508
س	-13.5131
栱	-13.5258
ピ	-13.5337
卍	-13.5389
ร	-13.5466
菴	-13.5468
ɡ	-13.5469
p	-13.5521
§	-13.5546
ベ	-13.5548
麴	-13.5601
砦	-13.5736
ع	-13.5791
э	-13.5842
駰	-13.5872
↑	-13.5956
覩	-13.6123
鷟	-13.6179
ォ	-13.6181
9	-13.6321
拏	-13.6352
鰕	-13.6352
ポ	-13.6556
糸	-13.6585
ح	-13.6615
閤	-13.6673
鋬	-13.6704
び	-13.6735
e	-13.6764
鮨	-13.6764
ざ	-13.6794
げ	-13.6854
寃	-13.7008
姫	-13.707
讎	-13.7131
υ	-13.7132
淛	-13.7225
缍	-13.7353
∠	-13.7417
∈	-13.7449
廝	-13.7579
і	-13.7579
儁	-13.7611
屌	-13.7612
粧	-13.7644
へ	-13.7739
遯	-13.7775
น	-13.7839
べ	-13.7843
r	-13.7843
ユ	-13.791
√	-13.7944
賸	-13.808
ت	-13.8115
裏	-13.8218
̊	-13.8288
寔	-13.8393
徳	-13.8394
魟	-13.843
袴	-13.8464
ゲ	-13.85
대	-13.8573
김	-13.8645
亻	-13.8681
戸	-13.8828
〜	-13.8829
覈	-13.8864
ю	-13.8899
凪	-13.894
瀬	-13.8977
ی	-13.8977
煇	-13.9014
齎	-13.9052
≠	-13.9053
喫	-13.9166
蒾	-13.9167
ł	-13.9203
ㄫ	-13.9205
毬	-13.9242
ư	-13.928
畊	-13.9321
∞	-13.9399
蘇	-13.9477
叡	-13.9596
粄	-13.9596
도	-13.9716
襃	-13.9716
ί	-13.9717
慙	-13.9757
정	-13.9757
拚	-13.9838
鍊	-13.9838
한	-13.9838
鵟	-13.9839
蚵	-13.9962
χ	-13.9962
ف	-13.9962
ˉ	-13.9963
瓌	-14.0003
驩	-14.0003
翫	-14.017
ぼ	-14.0171
ホ	-14.0171
ệ	-14.0172
▲	-14.0341
嬅	-14.0342
▪	-14.0343
ö	-14.0428
煖	-14.0472
š	-14.0513
緜	-14.0515
恵	-14.0559
ペ	-14.0604
毘	-14.0691
ั	-14.0868
洩	-14.0871
効	-14.0962
畑	-14.1101
ά	-14.1101
艸	-14.1147
鴷	-14.1148
−	-14.1148
군	-14.1148
조	-14.1194
づ	-14.1195
纍	-14.1335
성	-14.1336
อ	-14.1378
燿	-14.1382
炁	-14.143
ج	-14.1432
旂	-14.1527
鵙	-14.1528
牋	-14.1576
∕	-14.1576
々	-14.1625
復	-14.1673
ə	-14.1674
ه	-14.1674
疋	-14.1723
ä	-14.1726
ม	-14.1819
。	-14.1822
ย	-14.1868
説	-14.1872
ゼ	-14.1873
č	-14.1922
ش	-14.1974
劵	-14.1974
疒	-14.2023
伝	-14.2024
壻	-14.2074
忄	-14.2075
璿	-14.2178
ạ	-14.2178
栃	-14.2178
〃	-14.2229
〝	-14.223
시	-14.223
지	-14.228
茇	-14.2281
ก	-14.2327
ı	-14.2334
ز	-14.2334
ё	-14.2336
暐	-14.2385
ζ	-14.244
∑	-14.244
盤	-14.2493
薙	-14.2493
晳	-14.2546
畠	-14.2547
ق	-14.2547
주	-14.2547
เ	-14.2597
ิ	-14.2599
勑	-14.2599
鴈	-14.2599
사	-14.2599
楽	-14.26
扌	-14.26
瑠	-14.26
氹	-14.26
선	-14.2601
厓	-14.2653
寘	-14.2654
아	-14.2708
俛	-14.2708
囗	-14.2762
勗	-14.2762
勅	-14.2817
衞	-14.2818
♂	-14.2818
¢	-14.2818
捱	-14.2818
斲	-14.2873
ό	-14.2874
ć	-14.2984
榘	-14.2985
蹻	-14.3041
고	-14.3041
脷	-14.3041
ố	-14.3041
篠	-14.3097
攟	-14.3154
인	-14.3209
気	-14.3268
민	-14.3269
ヨ	-14.3385
♀	-14.3502
歛	-14.3502
辻	-14.3502
麤	-14.3502
י	-14.3503
丨	-14.368
実	-14.368
祔	-14.368
豊	-14.3681
다	-14.3681
屍	-14.3681
讌	-14.374
脣	-14.3741
讙	-14.3801
溼	-14.3802
桜	-14.3802
佉	-14.3862
ゾ	-14.3863
様	-14.3863
리	-14.3863
국	-14.3924
나	-14.3984
倅	-14.3985
壎	-14.4047
ξ	-14.4048
F	-14.4048
━	-14.4048
ơ	-14.4108
ă	-14.411
영	-14.411
団	-14.4172
颺	-14.4172
皁	-14.4236
廻	-14.4236
菑	-14.4299
閟	-14.4299
゚	-14.43
嶋	-14.43
│	-14.4365
ş	-14.4427
遶	-14.4429
餘	-14.4493
妬	-14.4493
ط	-14.4494
신	-14.4495
ส	-14.4556
棊	-14.4558
의	-14.4559
鮀	-14.4559
ว	-14.4622
搆	-14.4624
搢	-14.4624
ぞ	-14.4625
寖	-14.469
일	-14.4691
원	-14.4691
	-14.4757
阝	-14.4758
ế	-14.4758
隣	-14.4824
獣	-14.4825
紘	-14.4892
敍	-14.4892
炤	-14.4892
栢	-14.4892
巿	-14.4892
鑪	-14.4893
ậ	-14.4893
가	-14.4959
鉄	-14.496
犭	-14.496
剣	-14.4961
憍	-14.4961
撝	-14.5027
査	-14.5029
ả	-14.5029
朊	-14.5029
梶	-14.5029
ท	-14.5095
하	-14.5097
円	-14.5098
穂	-14.5098
笹	-14.5098
ง	-14.5163
関	-14.5166
発	-14.5167
愬	-14.5237
ו	-14.5238
鎔	-14.5307
鉏	-14.5307
対	-14.5308
우	-14.5309
礽	-14.5378
ộ	-14.5379
藭	-14.5448
暠	-14.5449
纁	-14.545
鎓	-14.545
竝	-14.5521
墻	-14.5522
峇	-14.5522
어	-14.559
痠	-14.5593
紵	-14.5594
櫂	-14.5595
ヘ	-14.5595
서	-14.5667
燄	-14.5667
醣	-14.5668
鳾	-14.574
筭	-14.574
≦	-14.574
穉	-14.5741
기	-14.5814
躭	-14.5815
巻	-14.5815
菈	-14.5815
甃	-14.5889
瘖	-14.5889
ž	-14.5961
霊	-14.5965
έ	-14.5965
ç	-14.5965
ุ	-14.6039
諡	-14.604
躄	-14.604
璫	-14.604
榊	-14.6041
ぬ	-14.6041
鼉	-14.6041
懽	-14.6117
釒	-14.6117
鸊	-14.6117
呪	-14.6194
豔	-14.6194
ล	-14.6266
ด	-14.6268
洊	-14.627
巘	-14.6271
籙	-14.6271
晧	-14.6271
廕	-14.6349
鷙	-14.635
ễ	-14.635
挢	-14.635
絺	-14.6428
郞	-14.6428
讐	-14.6428
箝	-14.6428
f	-14.6429
구	-14.6507
≡	-14.6508
동	-14.6508
라	-14.6587
羶	-14.6587
貍	-14.6587
〒	-14.6588
絵	-14.6667
수	-14.6667
甿	-14.6668
輶	-14.6668
埶	-14.6668
鯙	-14.6669
譌	-14.6748
ø	-14.6749
경	-14.675
鱇	-14.675
冴	-14.675
瑒	-14.6831
ô	-14.6832
讞	-14.6832
辺	-14.6832
媿	-14.6913
ゥ	-14.6913
沴	-14.6913
嶮	-14.6914
墬	-14.6997
蔵	-14.6997
鮈	-14.6998
鮟	-14.6998
闍	-14.7079
驤	-14.708
缋	-14.708
ぽ	-14.7082
燐	-14.7082
仮	-14.7082
ك	-14.7082
鷉	-14.7082
⁄	-14.7087
闘	-14.7164
顒	-14.7165
鹓	-14.7166
蝨	-14.7166
진	-14.7166
ầ	-14.7166
ห	-14.7245
현	-14.7252
ˈ	-14.7252
̄	-14.7252
ี	-14.7332
ś	-14.7334
餽	-14.7337
왕	-14.7338
槅	-14.7338
蟌	-14.7338
朥	-14.7338
스	-14.7339
∽	-14.7424
飈	-14.7425
訏	-14.7425
่	-14.7503
菓	-14.7512
蜺	-14.7512
広	-14.7513
錡	-14.76
榦	-14.7601
خ	-14.7601
鷲	-14.7601
俤	-14.7602
์	-14.7689
勣	-14.769
龕	-14.769
舘	-14.769
琱	-14.769
歩	-14.769
ή	-14.769
紬	-14.769
鶲	-14.7691
灊	-14.7778
y	-14.778
阯	-14.778
飇	-14.778
剗	-14.778
ɑ	-14.7781
焮	-14.7871
ј	-14.7871
麿	-14.7871
ช	-14.7872
ה	-14.7872
박	-14.7872
峩	-14.7961
陁	-14.7962
箠	-14.7962
钅	-14.7962
騃	-14.7963
晬	-14.7963
z	-14.8053
醲	-14.8054
羇	-14.8055
欷	-14.8056
أ	-14.8056
宀	-14.8056
∧	-14.8056
鳋	-14.8056
暘	-14.8148
阨	-14.8148
鮰	-14.8149
跼	-14.8243
嵒	-14.8243
繖	-14.8243
喦	-14.8243
韡	-14.8244
q	-14.8244
א	-14.8244
พ	-14.8336
肜	-14.8338
輈	-14.8338
嬾	-14.8339
歳	-14.8434
踈	-14.8435
臞	-14.8435
擗	-14.8435
상	-14.8435
霤	-14.8435
樫	-14.8435
∩	-14.8435
안	-14.8435
亜	-14.8435
w	-14.8435
ต	-14.8529
闉	-14.853
巵	-14.853
餗	-14.8531
糹	-14.8532
산	-14.8532
은	-14.8532
̈	-14.8532
จ	-14.8625
絶	-14.8629
刼	-14.8629
鈇	-14.863
보	-14.863
ñ	-14.863
부	-14.863
晻	-14.8729
擣	-14.8729
榎	-14.8729
鱲	-14.8729
학	-14.8829
怳	-14.8829
로	-14.8829
毎	-14.883
j	-14.8926
∮	-14.893
綝	-14.893
槻	-14.893
ى	-14.893
樋	-14.893
讬	-14.903
鵷	-14.9031
鼇	-14.9032
辶	-14.9032
ヌ	-14.9032
檝	-14.9032
澒	-14.9032
蜑	-14.9032
ύ	-14.9032
濆	-14.9135
鎌	-14.9135
강	-14.9135
堺	-14.9135
楤	-14.9136
제	-14.9136
刓	-14.9235
翬	-14.9238
↘	-14.9239
纘	-14.9239
旛	-14.9239
∙	-14.9239
礐	-14.924
ר	-14.924
斾	-14.9343
劒	-14.9344
卽	-14.9344
悪	-14.9344
囍	-14.9345
ظ	-14.9345
鎗	-14.9345
柟	-14.945
磾	-14.945
蠧	-14.9451
閈	-14.9451
諲	-14.9451
鮓	-14.9451
자	-14.9557
礮	-14.9558
撃	-14.9558
鞞	-14.9559
교	-14.9559
咭	-14.9559
澣	-14.9666
暱	-14.9667
筴	-14.9667
ヶ	-14.9667
呴	-14.9667
ा	-14.9667
ص	-14.9667
é	-14.9668
釭	-14.9776
泝	-14.9776
飡	-14.9777
유	-14.9777
蠔	-14.9777
蟳	-14.9777
歴	-14.9882
絰	-14.9886
澔	-14.9887
蕡	-14.9887
寀	-14.9888
요	-14.9888
筩	-14.9888
堦	-14.9888
軿	-14.9888
천	-14.9888
濊	-14.9888
연	-14.9889
้	-14.9992
褭	-14.9998
邅	-15
辵	-15
筯	-15
睺	-15
皐	-15
尅	-15
丿	-15
미	-15
咢	-15.0001
欒	-15.0001
남	-15.0002
煣	-15.0113
飱	-15.0114
牓	-15.0114
〓	-15.0114
増	-15.0114
최	-15.0114
麄	-15.0115
雫	-15.0115
昰	-15.0115
瓛	-15.0227
隤	-15.0228
纚	-15.0229
佢	-15.0229
蓺	-15.0229
臁	-15.0229
纟	-15.0229
화	-15.0229
椇	-15.0229
해	-15.0229
耈	-15.023
게	-15.034
熲	-15.0344
栿	-15.0344
瀞	-15.0345
穠	-15.0345
噉	-15.0345
訢	-15.0345
्	-15.0346
양	-15.0346
윤	-15.0347
щ	-15.0457
บ	-15.046
賫	-15.0462
痾	-15.0463
錂	-15.0463
ğ	-15.0463
전	-15.0463
揲	-15.0463
褧	-15.0463
â	-15.0463
희	-15.0463
ぷ	-15.0463
鱓	-15.0464
ค	-15.0575
巂	-15.0582
鏐	-15.0582
鷁	-15.0582
斵	-15.0582
総	-15.0582
歊	-15.0582
鞾	-15.0582
蝟	-15.0582
া	-15.0583
騄	-15.0701
脇	-15.0702
櫜	-15.0702
에	-15.0702
轢	-15.0702
岕	-15.0702
斎	-15.0702
≧	-15.0702
皃	-15.0703
र	-15.0703
诶	-15.0703
장	-15.0703
媟	-15.0823
埜	-15.0823
髴	-15.0824
貙	-15.0824
睠	-15.0824
畧	-15.0824
繻	-15.0824
錞	-15.0824
穽	-15.0824
舺	-15.0825
籺	-15.0825
薫	-15.0825
専	-15.0825
∣	-15.0825
騑	-15.0948
崐	-15.0948
釿	-15.0948
浿	-15.0948
緼	-15.0948
ぜ	-15.0948
変	-15.1071
慴	-15.1072
鑊	-15.1072
鞶	-15.1072
소	-15.1074
ә	-15.1198
는	-15.1199
頔	-15.1199
ض	-15.12
ב	-15.12
祫	-15.1323
랑	-15.1326
屮	-15.1326
踭	-15.1328
刂	-15.1328
荘	-15.1328
暍	-15.1328
犂	-15.1328
‖	-15.1328
埑	-15.1456
儗	-15.1457
盩	-15.1457
尫	-15.1457
籓	-15.1457
鵩	-15.1457
氊	-15.1458
ћ	-15.1458
琍	-15.1458
æ	-15.1458
ל	-15.1458
ぱ	-15.1458
鋐	-15.1588
衤	-15.1588
皝	-15.1588
厔	-15.1588
粦	-15.1588
鄩	-15.1589
翣	-15.1589
殢	-15.1589
醂	-15.1589
문	-15.1589
灋	-15.1589
孼	-15.1589
嘅	-15.159
髠	-15.1722
공	-15.1722
ị	-15.1723
ờ	-15.1723
齧	-15.1723
憯	-15.1724
欵	-15.1857
ą	-15.1857
飜	-15.1857
髣	-15.1857
朞	-15.1857
穨	-15.1857
祅	-15.1858
賔	-15.1858
罝	-15.1858
楛	-15.1858
寛	-15.1858
∫	-15.1994
詔	-15.1994
ぃ	-15.1994
瑊	-15.1994
盻	-15.1995
鶡	-15.1995
ะ	-15.2129
내	-15.2131
迍	-15.2132
郕	-15.2133
澚	-15.2133
鴞	-15.2133
脰	-15.2133
嚬	-15.2133
礤	-15.2133
臺	-15.2134
鰲	-15.2134
褔	-15.2134
眞	-15.2134
宂	-15.2134
罥	-15.2272
収	-15.2272
続	-15.2272
劘	-15.2273
儵	-15.2274
覊	-15.2274
鎞	-15.2274
雰	-15.2274
袵	-15.2274
猋	-15.2274
幰	-15.2274
虀	-15.2274
芶	-15.2274
頠	-15.2274
ã	-15.2275
을	-15.2275
瘈	-15.2414
袀	-15.2416
糺	-15.2417
幙	-15.2417
塲	-15.2417
재	-15.2417
饟	-15.2417
売	-15.2417
榼	-15.2417
壖	-15.2417
阬	-15.2417
踧	-15.2417
陜	-15.2417
盝	-15.2417
태	-15.2417
鱵	-15.2418
磵	-15.2418
鬐	-15.2561
靦	-15.2562
澁	-15.2562
樛	-15.2562
니	-15.2562
児	-15.2562
觔	-15.2562
硷	-15.2562
晩	-15.2562
槖	-15.2562
ồ	-15.2562
瓟	-15.2563
搨	-15.2563
睒	-15.2563
紥	-15.2707
昬	-15.2708
麕	-15.2708
煚	-15.2709
弾	-15.2709
揜	-15.2709
挼	-15.2709
鉨	-15.2709
稾	-15.2709
호	-15.2709
غ	-15.2709
敎	-15.271
饘	-15.271
璵	-15.2857
旼	-15.2857
剸	-15.2858
蹏	-15.2858
驎	-15.2858
満	-15.2858
嗛	-15.2858
猨	-15.2859
鮡	-15.2859
嘢	-15.2859
ɪ	-15.2859
犽	-15.2859
岀	-15.2859
∴	-15.2859
禩	-15.3009
㖞	-15.3009
蠭	-15.3009
愒	-15.301
오	-15.301
葅	-15.301
ъ	-15.301
俬	-15.301
喰	-15.301
중	-15.3011
ż	-15.3159
ę	-15.316
斿	-15.3162
雝	-15.3163
勷	-15.3163
鍱	-15.3163
╠	-15.3164
囓	-15.3164
梈	-15.3164
髙	-15.3164
咁	-15.3164
稲	-15.3164
髩	-15.3164
ː	-15.3164
韘	-15.3164
転	-15.3164
菸	-15.3165
너	-15.3317
闚	-15.3318
豭	-15.3318
璹	-15.3319
輙	-15.3319
ธ	-15.3319
絅	-15.3319
蹷	-15.3319
蠙	-15.3319
轘	-15.332
惣	-15.332
旳	-15.332
賨	-15.332
斁	-15.332
삼	-15.332
経	-15.332
癎	-15.332
遡	-15.332
饣	-15.332
镟	-15.332
逈	-15.332
ک	-15.332
詧	-15.3476
欬	-15.3477
國	-15.3478
涖	-15.3478
缾	-15.3478
礻	-15.3478
佷	-15.3478
帀	-15.3479
嵓	-15.3479
麪	-15.3479
鶒	-15.3479
鱚	-15.3479
呾	-15.348
ไ	-15.3629
瀁	-15.3639
悮	-15.3639
蘂	-15.3639
嶢	-15.3639
熳	-15.3639
蕚	-15.364
禨	-15.364
踳	-15.364
虵	-15.364
冇	-15.364
∨	-15.364
歷	-15.364
罏	-15.364
滝	-15.364
舃	-15.364
蟜	-15.3641
ヲ	-15.3641
↙	-15.3803
惓	-15.3803
	-15.3804
鸂	-15.3804
牕	-15.3804
廌	-15.3804
罇	-15.3804
ա	-15.3804
鮠	-15.3804
諕	-15.3804
仏	-15.3805
込	-15.3805
頞	-15.3968
纆	-15.3969
惸	-15.3969
劻	-15.3969
嗢	-15.3969
郷	-15.397
遝	-15.397
啗	-15.397
歔	-15.3971
蔴	-15.3971
緌	-15.3971
מ	-15.3971
당	-15.3974
謦	-15.4137
蔕	-15.4138
鉟	-15.4138
逌	-15.4139
鷇	-15.4139
廼	-15.4139
무	-15.4139
螘	-15.4139
尒	-15.4139
朘	-15.414
闓	-15.414
灝	-15.414
舡	-15.414
籩	-15.414
窰	-15.414
昞	-15.414
鑱	-15.414
ώ	-15.414
倢	-15.4141
광	-15.4141
є	-15.4146
虡	-15.4311
癥	-15.4311
麐	-15.4312
旟	-15.4312
蜋	-15.4312
鎛	-15.4313
鬬	-15.4313
종	-15.4313
為	-15.4313
鮋	-15.4313
마	-15.4313
鸝	-15.4313
噏	-15.4313
銙	-15.4486
罃	-15.4487
帟	-15.4487
庀	-15.4487
駸	-15.4488
그	-15.4488
嫋	-15.4488
憝	-15.4488
臛	-15.4488
橚	-15.4488
鷃	-15.4488
贇	-15.4488
渋	-15.4488
渀	-15.4488
ë	-15.4488
鳽	-15.4489
嘽	-15.4505
ป	-15.4659
ู	-15.4662
匽	-15.4665
諴	-15.4666
窓	-15.4666
순	-15.4666
膴	-15.4666
穀	-15.4666
貤	-15.4666
蚖	-15.4666
ი	-15.4666
粬	-15.4666
荅	-15.4666
粃	-15.4666
鱠	-15.4667
籞	-15.4667
명	-15.4667
橿	-15.4667
ת	-15.4667
挏	-15.4667
준	-15.4667
แ	-15.4841
唶	-15.4845
眥	-15.4846
綖	-15.4847
絓	-15.4847
闒	-15.4847
鮄	-15.4847
幷	-15.4848
盨	-15.4848
讁	-15.4848
鞚	-15.4848
壠	-15.4848
刲	-15.4848
搊	-15.4848
袠	-15.4848
戇	-15.4848
禖	-15.4848
裀	-15.4848
勦	-15.4848
曽	-15.4848
┄	-15.4848
籤	-15.4849
세	-15.4849
ศ	-15.4849
靑	-15.4849
氷	-15.4849
╳	-15.4849
踡	-15.5031
畇	-15.5032
鼃	-15.5032
顇	-15.5033
ა	-15.5033
鍠	-15.5033
搥	-15.5033
髟	-15.5033
暎	-15.5034
赩	-15.5034
窾	-15.5034
鍚	-15.5034
犛	-15.5034
矟	-15.5034
籛	-15.5034
髪	-15.5034
ề	-15.5034
塩	-15.5034
伃	-15.5034
송	-15.5034
ө	-15.504
를	-15.5215
ɛ	-15.5218
丂	-15.522
熺	-15.5221
攧	-15.5221
贠	-15.5221
臠	-15.5221
戞	-15.5221
灩	-15.5222
철	-15.5222
沍	-15.5222
銛	-15.5222
嶔	-15.5222
敧	-15.5222
箒	-15.5222
咈	-15.5222
糶	-15.5222
◢	-15.5222
襴	-15.5223
輴	-15.5223
씨	-15.5223
苳	-15.5223
蠵	-15.5223
נ	-15.5223
铓	-15.5223
ש	-15.5223
尓	-15.5223
만	-15.5408
═	-15.5411
嘒	-15.5411
蚡	-15.5414
揾	-15.5414
媮	-15.5414
懃	-15.5414
攵	-15.5414
暻	-15.5415
碕	-15.5415
喒	-15.5415
讠	-15.5415
槙	-15.5415
伬	-15.5415
帯	-15.5416
痏	-15.5609
생	-15.5609
牸	-15.5609
阸	-15.5609
徯	-15.561
繸	-15.561
ณ	-15.561
綯	-15.561
丌	-15.561
청	-15.561
湋	-15.561
眴	-15.561
麞	-15.5611
喣	-15.5611
憸	-15.5611
鼕	-15.5611
ỉ	-15.5611
년	-15.5611
ד	-15.5611
트	-15.5611
朶	-15.5611
挐	-15.5611
捴	-15.5807
敻	-15.5808
鏁	-15.581
齕	-15.581
藳	-15.581
窆	-15.581
滈	-15.581
棃	-15.581
輗	-15.581
석	-15.5811
寧	-15.5811
輋	-15.5811
颻	-15.5811
鷸	-15.5811
踆	-15.5811
卐	-15.5811
枌	-15.5811
예	-15.5811
홍	-15.5811
謏	-15.5811
∪	-15.5811
창	-15.5811
稊	-15.5812
骭	-15.6013
蓴	-15.6013
紞	-15.6013
ぁ	-15.6013
闕	-15.6014
繙	-15.6014
鄮	-15.6014
絪	-15.6014
飣	-15.6014
駞	-15.6014
氂	-15.6014
箙	-15.6014
跕	-15.6015
ß	-15.6015
趲	-15.6015
姉	-15.6015
N	-15.6015
慓	-15.6015
砢	-15.6015
璚	-15.6015
璏	-15.6015
學	-15.6015
姁	-15.6015
斮	-15.6016
藂	-15.6222
泆	-15.6222
騂	-15.6222
斅	-15.6222
轝	-15.6222
泬	-15.6223
闤	-15.6223
禫	-15.6223
瞤	-15.6223
韁	-15.6223
戯	-15.6223
謩	-15.6223
盭	-15.6223
饦	-15.6223
悁	-15.6223
용	-15.6223
読	-15.6223
蚘	-15.623
踘	-15.6435
尃	-15.6435
승	-15.6435
箎	-15.6435
丱	-15.6435
藋	-15.6435
ŋ	-15.6435
鬅	-15.6435
揑	-15.6435
綵	-15.6436
応	-15.6436
覇	-15.6436
竻	-15.6436
袿	-15.6436
་	-15.6436
丼	-15.6436
ấ	-15.6436
栘	-15.6436
憇	-15.6436
å	-15.6436
胾	-15.6436
蒭	-15.6436
ָ	-15.6436
筊	-15.6436
攴	-15.6436
비	-15.6436
趫	-15.6437
塭	-15.6437
繦	-15.6438
ĩ	-15.6644
墠	-15.6651
赬	-15.6652
盫	-15.6652
憹	-15.6652
匄	-15.6652
捲	-15.6652
褘	-15.6653
ɔ	-15.6653
菫	-15.6653
歠	-15.6653
灬	-15.6653
鶱	-15.6653
ứ	-15.6653
墝	-15.6653
渖	-15.6654
鐏	-15.6654
峠	-15.6654
銶	-15.6654
آ	-15.6654
‚	-15.6654
濈	-15.6654
여	-15.6655
려	-15.6872
沲	-15.6872
蒍	-15.6874
禡	-15.6875
噭	-15.6875
閦	-15.6875
狖	-15.6875
鷩	-15.6875
迆	-15.6875
耎	-15.6875
輮	-15.6875
咗	-15.6875
牣	-15.6875
甎	-15.6875
葢	-15.6875
乗	-15.6875
嚐	-15.6875
瑇	-15.6876
飠	-15.6876
絙	-15.6876
胔	-15.6876
媺	-15.6876
黐	-15.6876
ぴ	-15.6876
澨	-15.6876
ئ	-15.6876
塉	-15.6876
鋩	-15.6876
न	-15.6876
硠	-15.6876
讋	-15.6876
후	-15.688
驊	-15.7101
鯈	-15.7102
頵	-15.7102
淲	-15.7102
曀	-15.7102
儛	-15.7102
鶬	-15.7102
柎	-15.7102
虖	-15.7102
盌	-15.7103
旉	-15.7103
琁	-15.7103
趍	-15.7103
讟	-15.7103
懞	-15.7103
桱	-15.7103
託	-15.7103
頮	-15.7103
圏	-15.7103
渞	-15.7103
鮎	-15.7103
ự	-15.7103
図	-15.7104
들	-15.733
蚳	-15.733
모	-15.7332
야	-15.7333
焼	-15.7333
屩	-15.7334
罣	-15.7334
禇	-15.7335
鋋	-15.7335
旍	-15.7335
崱	-15.7335
苶	-15.7335
骹	-15.7335
龑	-15.7335
筰	-15.7335
卲	-15.7335
機	-15.7335
舨	-15.7335
摐	-15.7336
臿	-15.7336
鳆	-15.7336
ן	-15.7336
鳯	-15.7336
諟	-15.7336
時	-15.7336
栞	-15.7336
ぺ	-15.7336
慠	-15.7336
勲	-15.7571
剉	-15.7571
觝	-15.7571
巟	-15.7572
侻	-15.7572
揔	-15.7572
礚	-15.7572
倐	-15.7573
曶	-15.7573
従	-15.7573
狌	-15.7573
愊	-15.7573
榀	-15.7573
嚲	-15.7573
欝	-15.7573
厎	-15.7573
槀	-15.7574
گ	-15.7574
ổ	-15.7574
揎	-15.7574
冚	-15.7574
ח	-15.7574
╱	-15.7574
糬	-15.7574
형	-15.7574
簦	-15.7574
掤	-15.7574
속	-15.7574
嚥	-15.7574
울	-15.7575
釴	-15.7812
廞	-15.7814
禜	-15.7816
枏	-15.7816
秏	-15.7816
과	-15.7816
櫏	-15.7816
麃	-15.7817
壼	-15.7817
駃	-15.7817
僕	-15.7817
唫	-15.7817
匚	-15.7817
揵	-15.7817
軃	-15.7817
檿	-15.7817
단	-15.7817
盬	-15.7817
輭	-15.7817
壊	-15.7817
亀	-15.7817
綍	-15.7817
嗃	-15.7817
釆	-15.7817
蓨	-15.7817
恇	-15.7817
晄	-15.7817
譞	-15.7817
敺	-15.7817
鴂	-15.7817
┅	-15.7817
謌	-15.7818
恡	-15.7818
鎚	-15.7818
迻	-15.7818
ắ	-15.7818
魣	-15.7818
鱣	-15.7818
█	-15.7818
¤	-15.7818
媢	-15.7818
銍	-15.7824
帰	-15.8036
ƒ	-15.8063
痟	-15.8063
逷	-15.8064
위	-15.8065
바	-15.8065
涙	-15.8065
狥	-15.8066
憀	-15.8067
鵾	-15.8067
貮	-15.8067
廵	-15.8067
搉	-15.8067
恠	-15.8067
淸	-15.8067
捜	-15.8067
蔘	-15.8067
會	-15.8067
屧	-15.8067
歘	-15.8067
嫲	-15.8067
豗	-15.8067
	-15.8067
魨	-15.8067
韝	-15.8067
楢	-15.8067
혜	-15.8068
宍	-15.8068
舎	-15.8068
鮍	-15.8068
鰤	-15.8068
鴗	-15.8068
婣	-15.8068
栄	-15.8068
▽	-15.8068
藷	-15.8068
ţ	-15.8312
嚩	-15.8321
杅	-15.8322
禪	-15.8323
誃	-15.8323
縗	-15.8323
淩	-15.8323
䊨	-15.8323
眡	-15.8323
鵞	-15.8323
백	-15.8323
隠	-15.8323
鸑	-15.8323
倶	-15.8323
鷦	-15.8324
朅	-15.8324
병	-15.8324
운	-15.8324
鉥	-15.8324
»	-15.8324
齰	-15.8324
慇	-15.8324
柲	-15.8324
ע	-15.8324
襆	-15.8324
ि	-15.8324
棡	-15.8324
遟	-15.8324
ụ	-15.8324
閒	-15.8324
∵	-15.8324
ল	-15.8324
蝯	-15.8324
枿	-15.8324
謷	-15.8324
ぇ	-15.8324
檇	-15.8324
庁	-15.8324
甖	-15.8586
晈	-15.8586
㙾	-15.8586
猒	-15.8586
醁	-15.8586
鵄	-15.8586
緫	-15.8586
詖	-15.8586
頳	-15.8586
與	-15.8586
枻	-15.8587
譊	-15.8587
酓	-15.8587
ử	-15.8587
徬	-15.8587
墯	-15.8587
鼂	-15.8587
덕	-15.8587
矴	-15.8587
睟	-15.8587
跡	-15.8587
­	-15.8587
陿	-15.8587
♪	-15.8587
罒	-15.8587
황	-15.8587
嫮	-15.8588
抜	-15.8588
敭	-15.8855
喎	-15.8856
簑	-15.8856
爌	-15.8856
礧	-15.8856
黈	-15.8856
蘗	-15.8856
қ	-15.8856
聤	-15.8856
偟	-15.8856
鸜	-15.8857
矱	-15.8857
啲	-15.8857
苨	-15.8857
骫	-15.8857
麏	-15.8857
愙	-15.8857
潄	-15.8858
箑	-15.8858
珓	-15.8858
방	-15.8858
드	-15.8858
훈	-15.8858
頍	-15.8858
있	-15.8858
瘝	-15.8858
書	-15.8859
회	-15.886
ũ	-15.9123
鬖	-15.9131
ภ	-15.9133
โ	-15.9133
躧	-15.9134
產	-15.9134
皷	-15.9134
玁	-15.9134
枒	-15.9134
炰	-15.9134
尩	-15.9134
擕	-15.9134
건	-15.9134
籧	-15.9134
稺	-15.9134
璅	-15.9135
喼	-15.9135
灧	-15.9135
霣	-15.9135
腍	-15.9135
葇	-15.9135
搧	-15.9135
膋	-15.9135
黮	-15.9135
酇	-15.9135
薆	-15.9135
呰	-15.9135
沕	-15.9135
岧	-15.9135
铦	-15.9135
佹	-15.9135
禕	-15.9135
إ	-15.9135
搰	-15.9136
면	-15.9138
嫺	-15.914
鞿	-15.9418
瑮	-15.9418
麛	-15.9419
蛣	-15.942
輒	-15.942
愞	-15.942
ኁ	-15.942
煠	-15.942
塼	-15.942
頟	-15.942
노	-15.942
鑨	-15.942
迵	-15.942
柹	-15.942
鬪	-15.942
顦	-15.942
坱	-15.942
濇	-15.9421
관	-15.9421
昜	-15.9421
裲	-15.9421
権	-15.9421
篔	-15.9421
熤	-15.9421
袛	-15.9421
ἀ	-15.9421
灂	-15.9421
薾	-15.9421
諐	-15.9421
鷰	-15.9421
임	-15.9421
尠	-15.9421
轤	-15.9421
鵶	-15.9421
월	-15.9421
攲	-15.9421
鋗	-15.9421
壆	-15.9421
妺	-15.9421
襌	-15.9421
韔	-15.9421
ּ	-15.9421
환	-15.9421
塙	-15.9421
窞	-15.9421
枼	-15.9421
함	-15.9422
ใ	-15.9699
拑	-15.971
朒	-15.9712
隮	-15.9712
阤	-15.9712
œ	-15.9712
氀	-15.9713
虙	-15.9713
躒	-15.9713
禵	-15.9714
啍	-15.9714
擥	-15.9714
軨	-15.9714
綷	-15.9714
戹	-15.9714
觽	-15.9714
僴	-15.9714
嶤	-15.9714
尙	-15.9715
楬	-15.9715
毚	-15.9715
臮	-15.9715
憖	-15.9715
螾	-15.9715
攞	-15.9715
來	-15.9715
曧	-15.9715
驒	-15.9715
嚈	-15.9715
鱬	-15.9715
颩	-15.9715
ג	-15.9715
त	-15.9715
்	-15.9715
羮	-15.9715
ủ	-15.9715
啯	-15.9715
ہ	-15.9715
皪	-15.9715
塽	-15.9715
絁	-15.9715
嬢	-15.9715
역	-15.9715
奫	-15.9716
파	-15.9717
╬	-16.0013
慅	-16.0015
搤	-16.0015
刦	-16.0016
獮	-16.0016
린	-16.0016
誾	-16.0017
軏	-16.0017
凖	-16.0017
縯	-16.0017
踖	-16.0017
阛	-16.0017
鰌	-16.0017
牴	-16.0017
虣	-16.0017
猓	-16.0017
呫	-16.0018
胕	-16.0018
ე	-16.0018
姦	-16.0018
業	-16.0018
鐻	-16.0018
齮	-16.0018
酖	-16.0018
嚟	-16.0018
◣	-16.0018
僝	-16.0018
餬	-16.0018
پ	-16.0018
鱈	-16.0018
脢	-16.0018
☉	-16.0018
鵖	-16.0018
£	-16.0018
壝	-16.0018
紒	-16.0018
貛	-16.0018
煿	-16.0018
塨	-16.0018
郳	-16.0018
┆	-16.0019
賹	-16.0019
거	-16.0325
鐍	-16.0328
窋	-16.0328
타	-16.0328
臝	-16.0329
달	-16.0329
耉	-16.0329
巑	-16.0329
褎	-16.0329
衺	-16.0329
袾	-16.0329
製	-16.0329
鬱	-16.033
帬	-16.033
夲	-16.033
伷	-16.033
廥	-16.033
獘	-16.033
跫	-16.033
რ	-16.033
脤	-16.033
辠	-16.033
埈	-16.033
馹	-16.033
汚	-16.033
唅	-16.033
ษ	-16.033
動	-16.033
钶	-16.033
釂	-16.033
灺	-16.033
翏	-16.033
镙	-16.033
계	-16.033
ọ	-16.033
«	-16.033
冫	-16.0331
暸	-16.0331
व	-16.0331
昷	-16.0331
魮	-16.0331
詶	-16.0331
鴴	-16.0331
斸	-16.0331
ְ	-16.0331
廾	-16.0331
জ	-16.0331
颸	-16.0331
ї	-16.0331
†	-16.0331
말	-16.0331
ข	-16.0642
洟	-16.0647
嵕	-16.065
侜	-16.0651
鯵	-16.0651
馺	-16.0651
蓚	-16.0652
ぅ	-16.0652
蜨	-16.0652
颷	-16.0652
纕	-16.0652
濶	-16.0652
轓	-16.0652
渢	-16.0652
梱	-16.0652
騧	-16.0652
椶	-16.0652
柅	-16.0652
鶂	-16.0652
柂	-16.0652
莋	-16.0652
별	-16.0653
嘷	-16.0653
薬	-16.0653
雘	-16.0653
檵	-16.0653
酧	-16.0653
魌	-16.0653
扢	-16.0653
讚	-16.0653
営	-16.0653
牜	-16.0653
硋	-16.0653
娭	-16.0653
鉷	-16.0653
ṣ	-16.0653
齢	-16.0653
緆	-16.0653
蟇	-16.0653
籐	-16.0653
ն	-16.0653
罛	-16.0653
靁	-16.0653
踠	-16.0653
凊	-16.0653
對	-16.0653
哜	-16.0653
欑	-16.0653
鄽	-16.0653
म	-16.0653
평	-16.0653
雟	-16.0653
怱	-16.0653
齾	-16.0653
द	-16.0653
蝱	-16.0653
鳲	-16.0653
単	-16.0653
פ	-16.0653
摵	-16.0654
	-16.0655
羃	-16.098
ญ	-16.0984
금	-16.0984
睆	-16.0985
絫	-16.0985
汸	-16.0985
爁	-16.0985
褌	-16.0985
鋹	-16.0985
験	-16.0985
咅	-16.0985
鞉	-16.0985
跧	-16.0985
彯	-16.0985
┃	-16.0986
螓	-16.0986
碔	-16.0986
荈	-16.0986
簴	-16.0986
僄	-16.0986
牐	-16.0986
険	-16.0986
鰧	-16.0986
鹥	-16.0986
厶	-16.0986
冖	-16.0986
규	-16.0986
효	-16.0986
►	-16.0986
碪	-16.0986
發	-16.0986
窻	-16.0986
醰	-16.0986
煑	-16.0986
渕	-16.0986
љ	-16.0986
進	-16.0986
務	-16.0986
諫	-16.0986
眛	-16.0986
迴	-16.0986
畷	-16.0986
行	-16.0986
ם	-16.0987
媜	-16.0987
ợ	-16.0987
[...]
